{"version":"1.0","truncation":null,"padding":null,"added_tokens":[{"id":0,"special":true,"content":"<UNK>","single_word":false,"lstrip":false,"rstrip":false,"normalized":false},{"id":1,"special":true,"content":"<SEP>","single_word":false,"lstrip":false,"rstrip":false,"normalized":false},{"id":2,"special":true,"content":"<MASK>","single_word":false,"lstrip":false,"rstrip":false,"normalized":false},{"id":3,"special":true,"content":"<CLS>","single_word":false,"lstrip":false,"rstrip":false,"normalized":false}],"normalizer":null,"pre_tokenizer":{"type":"Whitespace"},"post_processor":null,"decoder":null,"model":{"type":"Unigram","unk_id":0,"vocab":[["<UNK>",0.0],["<SEP>",0.0],["<MASK>",0.0],["<CLS>",0.0],["s",-2.817973593995603],["t",-3.371555980532955],[".",-3.4276026160958235],["the",-3.437125201944559],["o",-3.463641499694676],[",",-3.501252647664584],["a",-3.5863139931425945],["e",-3.6367746733013853],["d",-3.885335987919264],["and",-4.140532678676836],["y",-4.329395611654002],["n",-4.362532244800196],["i",-4.408432949364766],["in",-4.4777256771676335],["f",-4.633159151087844],["of",-4.740995166366481],["ing",-4.768632529028272],["’",-4.877010281887593],["-",-4.915540333299379],["to",-4.969161994157581],["for",-5.072210746444647],["h",-5.111000308991086],["r",-5.12440332235065],["I",-5.169030638527492],["on",-5.228247110061757],["The",-5.237247769508771],["that",-5.2523028392618],["with",-5.316182814094244],["ly",-5.329655761136683],["“",-5.466740219239627],["w",-5.50414705948695],["is",-5.522698876069759],["ed",-5.565170645187628],["was",-5.6216335762705025],["l",-5.622171860795518],["'",-5.623250525061351],["b",-5.633343497876236],["m",-5.720744501308694],["be",-5.747525609251875],["have",-5.766130755277935],["are",-5.7801556484193135],["from",-5.9070163663450845],["aid",-5.93342292355568],["will",-5.989168214080298],["\"",-5.993290875616458],["he",-6.0396225696052515],["an",-6.053193365211756],["has",-6.168384683767917],["A",-6.17900588051244],["by",-6.2132341437061225],["you",-6.221661092675838],["this",-6.239060758530293],["his",-6.262250100622078],["u",-6.26396766236072],["their",-6.273292693150822],["”",-6.354219218811414],["but",-6.419745584085748],["g",-6.422490671485358],["c",-6.423078979663483],["been",-6.4314411324283025],["it",-6.44388235223623],["out",-6.4450990164727],["who",-6.467977033215304],["all",-6.478885961498587],["not",-6.494531103427377],["(",-6.508901609451884],["more",-6.522629824150172],["were",-6.544795303570554],["can",-6.546603723955958],["as",-6.565594387428755],["S",-6.569670565780459],["at",-6.5699375344591235],["her",-6.5728101909307135],["p",-6.595130824890747],["people",-6.599288773315093],["up",-6.611037590792861],["about",-6.617680332627344],[":",-6.635225010256008],["other",-6.664898678496609],["which",-6.697436234598678],["time",-6.713552596475445],["also",-6.737684537451855],["had",-6.74340775541866],[",”",-6.756311048859887],["would",-6.785113924829512],["th",-6.791931329204955],["our",-6.7987559983039265],["they",-6.802005002545544],["year",-6.802695243558947],["or",-6.804528197794623],[")",-6.813137170305014],["one",-6.81669991967369],["19",-6.8646643834123715],["like",-6.8983416234232156],["when",-6.92214329230117],["after",-6.922472155769919],["over",-6.931659737073415],[".”",-6.949197618610503],["re",-6.95945719430798],["$",-6.989286053147663],["M",-7.01323959877522],["?",-7.0249020101424025],["there",-7.025011712461506],["what",-7.026516539120544],["T",-7.0404214812926735],["some",-7.04651359777103],["new",-7.051207336861429],["1",-7.053568142988545],["just",-7.055340426675135],["He",-7.072778698575949],["2",-7.080446154643255],["first",-7.090745774198686],["day",-7.112141677366968],["We",-7.116561282365435],["—",-7.12244915248937],["ies",-7.128177691170221],["than",-7.144832570575587],["cause",-7.158743942710803],["now",-7.170021178037867],["them",-7.224189053672344],["back",-7.226411856369295],["could",-7.246675178929064],["C",-7.249558301429364],["This",-7.2532262209362965],["into",-7.260530267646172],["him",-7.262106163976431],["In",-7.280499652170014],["how",-7.28416905889857],["your",-7.291775277480177],["most",-7.2938587256158725],["But",-7.2970670074285415],["al",-7.301387688402606],["need",-7.310968501162434],["tha",-7.3110461045487085],["get",-7.31643530750603],["last",-7.329912420677586],["its",-7.33748756901652],["state",-7.347998913415511],["being",-7.34837798269351],["work",-7.354445466653188],["two",-7.360469695031],["B",-7.362058279807483],["through",-7.367197743149491],["D",-7.382651749423243],["she",-7.407553241917963],["during",-7.410206989423451],["ha",-7.4104674934678645],["make",-7.416851534903177],["hat",-7.422471215553818],["whil",-7.430556499133286],["ar",-7.43308050098558],["W",-7.436798856030649],["where",-7.4373138317694165],["ally",-7.450539577451347],["well",-7.452281786966862],["government",-7.469345517142897],["going",-7.481071205234726],["take",-7.488484428278457],["want",-7.495320539654774],["years",-7.497363974967766],["COVID",-7.4983107062280165],["before",-7.5020277097883845],["we",-7.503330488149776],["20",-7.5038068596917435],["even",-7.508129747960895],["many",-7.51024622609985],["able",-7.513287676870931],["any",-7.518093792870648],["3",-7.520884995877319],["home",-7.52288266441221],["every",-7.525109799516685],["help",-7.5265737858291795],["000",-7.530574648422603],["game",-7.549095182488116],["way",-7.552184089044343],["–",-7.556083833681999],["health",-7.562659234678453],["should",-7.570835753541331],["know",-7.572752243935131],["man",-7.581917077889156],["H",-7.583327356002204],["ever",-7.585112773656816],["down",-7.594627687458018],["ve",-7.599797944624141],["come",-7.6022664808301785],["%",-7.60443246696689],["4",-7.604734492920348],["Trump",-7.6050260341425435],["old",-7.6076564088753456],["week",-7.611419146954615],["agains",-7.61227296450368],["U",-7.622506454353528],["use",-7.634116086854346],["coronavirus",-7.636852851888596],["5",-7.640860837171463],["very",-7.649973357398552],["made",-7.65444497721666],["And",-7.658366267823353],["part",-7.662891358113244],["2020",-7.663449503389667],["still",-7.66381528174787],["‘",-7.669413795300164],["long",-7.682122446320455],["N",-7.691201194718432],["O",-7.691235870596165],["three",-7.691572761458119],["er",-7.711430788326214],["thing",-7.721505504745671],["k",-7.7304561055233],["million",-7.739141001932759],["off",-7.740309647695639],["place",-7.742062109395919],["P",-7.745878466807362],["pandemic",-7.758348672209355],["country",-7.758690273097216],["good",-7.758808467722225],["cases",-7.772509496539813],["much",-7.774466198104174],["per",-7.780111744051107],["/",-7.78362759034726],["support",-7.785971077173858],["number",-7.78739740163528],["She",-7.790668044497383],["There",-7.791621030761308],["6",-7.791734662731657],["call",-7.795544764551988],["think",-7.804507734369799],["school",-7.806298337392486],["E",-7.808727529488997],["public",-7.812666415824204],["continue",-7.813559779405103],["business",-7.822929840583593],["look",-7.824257526403146],["around",-7.824920815698404],["show",-7.828423920073735],["under",-7.836306471533951],["right",-7.836616692029726],["New",-7.839477053202243],["team",-7.84113623505023],["high",-7.8413441201222644],["season",-7.842118733708683],["world",-7.842308281837499],["play",-7.846068154617725],["sai",-7.851940884933726],["10",-7.856011581422384],["point",-7.86302174640497],["us",-7.8644663151724625],["police",-7.8773939168925065],["R",-7.878857387192709],["since",-7.8877571767266605],["close",-7.890099313151526],["company",-7.8922712781819175],["life",-7.89239217580223],["change",-7.894997325349448],["may",-7.895517693594748],["says",-7.900642697497119],["service",-7.901847721848112],["such",-7.907659415120731],["9",-7.908818967774769],["family",-7.91042388053585],["7",-7.92899382933645],["start",-7.929928970836745],["including",-7.932269735129814],["person",-7.940645830650918],["self",-7.94432368250362],["issue",-7.949790808260605],["That",-7.95678767648419],["plan",-7.959903027807207],["es",-7.967089183631192],["communit",-7.974960871145763],["ready",-7.982005625887251],["these",-7.986982765225467],["second",-7.993435692265548],["own",-8.006007289505828],["next",-8.0092305601388],["hose",-8.009468109555401],["8",-8.01033129164987],["both",-8.036314112097376],["L",-8.049178017044635],["0",-8.049998236651092],["v",-8.053668098698074],["You",-8.055515002359595],["group",-8.059833861042812],["student",-8.06220407400069],["F",-8.071787918384628],["For",-8.085233163735648],["etween",-8.086380027394636],["current",-8.098322506903529],["social",-8.105120942473796],["care",-8.10603417247552],["order",-8.113422995082624],["President",-8.11374307038006],["though",-8.11491666201538],["me",-8.118651302483212],["result",-8.124455424881242],["put",-8.127127017977617],["recent",-8.13112527735132],["my",-8.134269882713351],["virus",-8.134661073223107],["provide",-8.140207886921846],["head",-8.146431665226405],[";",-8.147361079558317],["Friday",-8.156297797698283],["arly",-8.161720375598533],["came",-8.161777913955865],["different",-8.166858033437915],["report",-8.170191614144374],["keep",-8.17289518800198],["less",-8.174101862717912],["face",-8.181370200006423],["each",-8.18218755032944],["coming",-8.186467311592512],["ember",-8.191293962623593],["!",-8.19149065015812],["ary",-8.193790450746818],["release",-8.197612132768107],["month",-8.19891959372654],["remain",-8.199249728996133],["president",-8.202784454665068],["election",-8.20449109798384],["include",-8.205284947674023],["city",-8.211281284067532],["same",-8.217236445860763],["local",-8.220939916455698],["reported",-8.221800474897503],["case",-8.222952303442744],["move",-8.229075108078117],["G",-8.229396920889698],["le",-8.23266879078199],["great",-8.232712805585312],["American",-8.233663593011652],["best",-8.235029946836601],["30",-8.235142376089257],["night",-8.238289521798876],["market",-8.241308068371719],["US",-8.242883901955818],["across",-8.243693605550448],["When",-8.24548028647952],["wa",-8.25114498899763],["found",-8.25264503965367],["love",-8.25376383787395],["four",-8.262088728536355],["State",-8.271208004984691],["ther",-8.272019383849006],["return",-8.275309883007154],["large",-8.277282037951245],["give",-8.27740706240111],["ity",-8.277852111865709],["ll",-8.279738463723561],["don",-8.283312224154198],["working",-8.284333500238539],["ver",-8.287301306639078],["end",-8.291595747086365],["special",-8.29286968928117],["live",-8.295974373372133],["according",-8.299197884560225],["nd",-8.299475171219314],["system",-8.300722555084322],["price",-8.306781707402578],["mean",-8.311836254196006],["did",-8.320329635386823],["go",-8.32057044016981],["here",-8.322192764017018],["base",-8.322591874125568],["level",-8.323048711243626],["left",-8.323992158414775],["open",-8.326281317387505],["something",-8.327380102485442],["full",-8.334635448304649],["Monday",-8.339872698961653],["told",-8.340264807348696],["ook",-8.34113016630635],["better",-8.3477368764331],["side",-8.348341170373011],["receive",-8.34948329251852],["event",-8.352315766252154],["until",-8.355642709548203],["adde",-8.35566203979496],["months",-8.359543493491564],["believe",-8.360240566376241],["body",-8.362403117638344],["aving",-8.36399918943979],["statement",-8.366264039758661],["How",-8.36876191119155],["no",-8.370163724105872],["On",-8.373199093165],["feel",-8.374800111851531],["quarter",-8.378267102988959],["12",-8.378574432616194],["What",-8.37874450873884],["children",-8.379631387976204],["15",-8.382223995582457],["never",-8.383608860961596],["might",-8.393452494112587],["things",-8.396894666619048],["big",-8.398297554932558],["…",-8.400475097095192],["nly",-8.404275600536854],["increase",-8.406258667458891],["County",-8.407209788934539],["With",-8.409075654113117],["South",-8.410972634922999],["force",-8.412397199524229],["term",-8.414761447536698],["China",-8.416155382628425],["201",-8.418026138788404],["March",-8.418173197785933],["using",-8.419418604934064],["film",-8.420504417288196],["must",-8.421560321554406],["didn",-8.422948271225195],["members",-8.424993344532222],["K",-8.425738240822962],["information",-8.427896524808709],["Thursday",-8.430175595912292],["hospital",-8.43266842421548],["vote",-8.434255326413766],["11",-8.436017730293958],["become",-8.441352651492426],["ment",-8.441803614927935],["decision",-8.442993789296306],["line",-8.44340370084321],["&",-8.446137160383095],["important",-8.447280570175977],["positive",-8.448938059530064],["officer",-8.45009105982847],["alway",-8.450510489564255],["again",-8.45342706423356],["Whil",-8.455156532774222],["id",-8.458320601276366],["risk",-8.4600458622711],["making",-8.460612959449492],["Tuesday",-8.460883128779844],["media",-8.463295161178918],["past",-8.464816763448308],["un",-8.466840021735933],["Health",-8.468413268627142],["Sunday",-8.468722216634362],["away",-8.471018278762894],["Saturday",-8.471330233324554],["spread",-8.475905509784528],["five",-8.477729160293983],["total",-8.47965329565201],["women",-8.483566316790256],["As",-8.483777123078054],["does",-8.484736051969517],["share",-8.485030607740871],["money",-8.48567956285784],["en",-8.48581480795772],["power",-8.486571715346486],["project",-8.487424894419055],["former",-8.493434229365922],["experience",-8.499071755979445],["little",-8.503051360933238],["thos",-8.506980934988283],["together",-8.509738063195638],["question",-8.51040412298805],["future",-8.51180678114763],["concern",-8.51345119818303],["resident",-8.517457074390006],["stock",-8.520540201868862],["final",-8.521051181855116],["find",-8.524901146523389],["shares",-8.524938238769288],["later",-8.530119421302771],["death",-8.532342276613154],["food",-8.535399775854097],["car",-8.536360817489808],["low",-8.537699838686201],["Wednesday",-8.538015336959587],["today",-8.541814544168666],["staff",-8.542330879100756],["say",-8.546106387048095],["United",-8.547152340916483],["real",-8.54879372614413],["hard",-8.552746897521395],["process",-8.555479652915931],["worker",-8.556836104162091],["talk",-8.557778640588186],["wide",-8.558096422224537],["went",-8.559415113934572],["several",-8.561307000715205],["ness",-8.561617418204424],["deal",-8.5633592679172],["got",-8.563399514266772],[").",-8.56405220046114],["One",-8.566024382070214],["50",-8.568672663159335],["action",-8.571021713133959],["happen",-8.571962343370295],["test",-8.57254442635854],["announced",-8.57954001114683],["mask",-8.581578936076259],["national",-8.58894502734093],["weeks",-8.59306159208103],["water",-8.595928308900202],["program",-8.600722376969436],["office",-8.60084387577883],["record",-8.60478979687629],["cent",-8.606426892542029],["free",-8.607054700501463],["14",-8.607841241003733],["officials",-8.610333765859744],["clear",-8.61159165503225],["create",-8.611617733686359],["National",-8.612170513107129],["taking",-8.614144119627802],["online",-8.614359577347305],["political",-8.614525027615741],["law",-8.615293684529469],["small",-8.617539030063178],["ave",-8.618264727234184],["series",-8.618625649790442],["trade",-8.619763434395416],["video",-8.622924071749475],["six",-8.625389415262443],["doesn",-8.626569213462478],["After",-8.626952517818332],["No",-8.627766672551488],["run",-8.628846114684134],["lot",-8.630880947117449],["given",-8.631434679455227],["It",-8.632441140169723],["J",-8.634598757571199],["All",-8.634673106700994],["ou",-8.636286693976535],["court",-8.636731470505712],["news",-8.638471943198336],["May",-8.641449316126216],["campaign",-8.642159830642376],["hi",-8.644006476810489],["players",-8.645462030205344],["lead",-8.645809734242452],["along",-8.646076962556378],["allow",-8.649189086933646],["Police",-8.650284246303338],["half",-8.651552387793988],["among",-8.652867246717218],["period",-8.652871490942847],["further",-8.65441359030389],["ive",-8.656505363729414],["third",-8.658403689724583],["possible",-8.65963703927132],["sure",-8.66080228246285],["problem",-8.662729893355309],["claim",-8.663273350353336],["complete",-8.666108012594492],["consider",-8.668528696671494],["late",-8.670882209895703],["24",-8.672113960705929],["Covid",-8.67475546816994],["25",-8.678278921378865],["stay",-8.678955693067433],["position",-8.681282793263149],["party",-8.683533355261861],["Biden",-8.690299217364679],["nough",-8.691477411231277],["200",-8.69262583799042],["City",-8.694312722571492],["z",-8.695818005034873],["impact",-8.696323815882785],["job",-8.696395725543649],["effort",-8.697511837194618],["etting",-8.698513962321945],["field",-8.702796923276747],["following",-8.7086793305814],["few",-8.70969208486325],["house",-8.710281446664393],["York",-8.710783072752317],["pay",-8.711168538765754],["availab",-8.71417895234373],["kind",-8.714445498332452],["men",-8.719181090682255],["So",-8.719793720987495],["deliver",-8.720454817994643],["100",-8.7220369434767],["interest",-8.722298044731204],["lockdown",-8.724746113370536],["measure",-8.727152577800457],["age",-8.727569557806907],["top",-8.728601107750517],["),",-8.729039796362088],["16",-8.729849069517172],["situation",-8.733236821094891],["percent",-8.735904935007202],["board",-8.73672658310647],["meeting",-8.737843827786936],["young",-8.739449893648192],["als",-8.742188813226985],["Black",-8.744410250716733],["confirmed",-8.744556975593039],["cost",-8.74506571954915],["House",-8.74963173097619],["far",-8.750142038435467],["fact",-8.753274346217477],["appear",-8.753337097806696],["travel",-8.753976381194667],["previous",-8.754167431059328],["expected",-8.755997105185758],["Universit",-8.756801949672983],["hope",-8.75734111105562],["taken",-8.75830352795484],["rying",-8.758582108222287],["security",-8.760055463863278],["economic",-8.760405073147542],["require",-8.761005031236683],["13",-8.761534185417688],["leas",-8.762351308541],["18",-8.764026654426054],["if",-8.76488231507541],["fire",-8.765861768536425],["course",-8.769328337914807],["ting",-8.770525671944846],["Jul",-8.773156846734242],["post",-8.778446592854856],["North",-8.778974219140164],["Apri",-8.77902537645256],["woman",-8.78102506275637],["attack",-8.781863610406797],["Minister",-8.78216835498861],["potential",-8.78623170348752],["times",-8.786739614472285],["seem",-8.788114963172337],["x",-8.788393785277155],["According",-8.788463698534425],["due",-8.789647492430095],["forward",-8.789913822450838],["India",-8.790270980238137],["major",-8.790765679528086],["bring",-8.791174014817138],["ation",-8.79285251766785],["companies",-8.795700325886404],["17",-8.79649324118075],["contact",-8.796578427588756],["matter",-8.79704411841147],["billion",-8.797570724376232],["direct",-8.800589681375953],["outside",-8.801166529414951],["safe",-8.802810648682243],["moment",-8.803064988316692],["control",-8.805331724261045],["light",-8.806047417483283],["June",-8.806311711426776],["led",-8.807448008293559],["visit",-8.810413634831345],["challenge",-8.810550436945537],["ng",-8.811981938622015],["value",-8.81441398595242],["building",-8.814773554288768],["official",-8.815445530703999],["opportunit",-8.817224108632587],["aske",-8.817446076572793],["quick",-8.820864493977801],["patients",-8.820969384731999],["21",-8.822048095814475],["strong",-8.825894920251283],["West",-8.829045182687668],["buy",-8.834219293086747],["watch",-8.835889220528825],["Some",-8.836707241145596],["data",-8.8386633377814],["nation",-8.840286458825126],["average",-8.840648276507636],["story",-8.840941119282327],["Nov",-8.844824108035542],["win",-8.845409146770308],["worth",-8.848505660496304],["actual",-8.849292540660112],["known",-8.849319974271175],["rating",-8.8502148945092],["Al",-8.850243930387938],["space",-8.851870464135118],["industr",-8.852300106858321],["leader",-8.853646316578526],["certain",-8.854860144808084],["deaths",-8.855232702792751],["short",-8.85753179452735],["research",-8.858362588739327],["dollar",-8.860569030875013],["parent",-8.865028406071817],["protect",-8.867588822871447],["held",-8.869232748270083],["front",-8.87305943034497],["near",-8.873716234475895],["financial",-8.874800775319878],["medical",-8.875441530975195],["morning",-8.876929022520414],["individual",-8.877923644133872],["2018",-8.878931322870292],["behind",-8.878996826072404],["condition",-8.880814891084205],["saying",-8.881718895112723],["stop",-8.882156374779493],["reason",-8.88254938250715],["countries",-8.883435592271281],["response",-8.88539795666117],["human",-8.886117840275276],["director",-8.887699850526776],["demand",-8.888359761167766],["target",-8.889184080496303],["crisis",-8.890200500427197],["ties",-8.893619631422858],["econom",-8.89566749733428],["Department",-8.896891154175695],["hold",-8.89806313695654],["thought",-8.901806023496684],["star",-8.908690001895142],["couple",-8.910136615720907],["role",-8.910841030046871],["entire",-8.911907100470607],["product",-8.912067908288147],["movie",-8.917717892168506],["ball",-8.918773765208945],["lives",-8.918967225907068],["fund",-8.920959168870873],["land",-8.92293325979018],["additional",-8.924956704397976],["ship",-8.925238014623815],["fans",-8.92565778582053],["turn",-8.927731180524656],["history",-8.927756242024714],["ne",-8.932679545956265],["once",-8.935512431933468],["Sept",-8.939323473391774],["rate",-8.940526928940024],["global",-8.940716529038244],["feature",-8.941847608235642],["America",-8.943608607972884],["An",-8.946708615121977],["often",-8.947407909755597],["sign",-8.947897876972442],["drive",-8.949473343040399],["name",-8.952150906878515],["development",-8.952525452715813],["se",-8.954076104306091],["leave",-8.954164443750285],["involve",-8.954776203315262],["am",-8.956030462789277],["40",-8.959897718154348],["Dr",-8.960247528452568],["account",-8.963369923547681],["customer",-8.965256098751897],["general",-8.967164029563754],["charge",-8.969734645940775],["store",-8.970204856155888],["TV",-8.970815203590355],["character",-8.97547396713267],["employee",-8.975516104173014],["vehicle",-8.978170856876327],["bank",-8.97907953278919],["benefit",-8.97912765487656],["arrest",-8.984765635778604],["round",-8.986029122229418],["een",-8.986366712327145],["recover",-8.987166581732573],["vaccine",-8.988154509996834],["friends",-8.988765579113295],["region",-8.99103646653716],["raise",-8.994948652722943],["done",-8.995518821646339],["federal",-8.99634283859729],["nstead",-8.996468909360065],["cut",-8.997884522783512],["ooking",-8.998801925869532],["ear",-8.998960336404735],["access",-9.00097754636305],["ill",-9.00207491439849],["Now",-9.005018330306843],["States",-9.007042311197928],["outbreak",-9.00777555810313],["do",-9.011670437240225],["candidate",-9.013770610259956],["expect",-9.014606097761206],["comment",-9.018775746212977],["member",-9.019996736755662],["calle",-9.022253309138915],["Dec",-9.024784484632704],["single",-9.026844291721078],["ance",-9.02716147767131],["then",-9.030698225926265],["whe",-9.033143590337778],["shot",-9.036166351965374],["air",-9.037743605799786],["Howe",-9.03845250378465],["phone",-9.038561084187215],["option",-9.038893335327217],["offer",-9.039810958360924],["Janu",-9.04040624009778],["significant",-9.040668794612252],["follow",-9.041299472223386],["others",-9.041667765731741],["source",-9.042726105744507],["present",-9.043161026910578],["fight",-9.043242145169165],["tell",-9.044030202056724],["grow",-9.044038419050977],["John",-9.048893308575856],["Th",-9.049415369774387],["famili",-9.050687357694066],["operation",-9.05203706864836],["particular",-9.052242531175946],["iving",-9.053513603791515],["someone",-9.054209004513512],["Our",-9.055023535709427],["states",-9.05582402032396],["likel",-9.056440307866591],["ask",-9.059423940197853],["fall",-9.059992706615272],["UK",-9.060152754037706],["ensure",-9.061791499782071],["difficult",-9.062018860793778],["ago",-9.062216135682572],["serious",-9.063524069912496],["V",-9.063802135878134],["earlie",-9.066430835998407],["list",-9.070910610888923],["starte",-9.071360137519761],["emergenc",-9.072662885316287],["check",-9.073531695937856],["international",-9.073662989269426],["unning",-9.073878440715013],["abilit",-9.07450058178362],["personal",-9.0771643651034],["book",-9.078013041706079],["World",-9.078486352904765],["safet",-9.080565235425421],["address",-9.081522972043144],["main",-9.08373943922097],["00",-9.08583193645006],["stage",-9.087726270231466],["His",-9.088003578513916],["suggest",-9.08942461557551],["senior",-9.091670220800513],["ending",-9.092809790261132],["room",-9.09630763254479],["race",-9.098811222102684],["focus",-9.09890879742462],["private",-9.101095035092234],["career",-9.101316084782832],["executive",-9.102298721502413],["infection",-9.103621481420037],["toward",-9.10370681460265],["leaders",-9.103804774687177],["child",-9.104483692474789],["walk",-9.107727984511827],["ays",-9.110338869900051],["affect",-9.111829190217353],["esting",-9.1133172609457],["Court",-9.113910747948644],["war",-9.114045902216635],["music",-9.116086026223357],["key",-9.117088582678434],["ce",-9.119907372457137],["club",-9.119942481908623],["nothing",-9.121364555993633],["cover",-9.121563445545444],["22",-9.121629069453585],["reduce",-9.123063582355723],["chief",-9.12345818534431],["August",-9.123519627726107],["black",-9.125135461586268],["speak",-9.12785536200634],["kid",-9.128821852986807],["chance",-9.130212990814654],["performance",-9.131425320083771],["Center",-9.133226353190453],["restriction",-9.13517536756575],["figure",-9.135331316896622],["contract",-9.138465275569978],["study",-9.138804125881094],["model",-9.139387407991299],["player",-9.139565362566806],["effect",-9.14341763159947],["School",-9.143479781488995],["mother",-9.144488191239686],["girl",-9.146224784996491],["amount",-9.146618075128861],["goal",-9.146724078749092],["count",-9.146997849714982],["shows",-9.147578997589292],["voter",-9.150958914909154],["White",-9.151825933891704],["spend",-9.15732060287943],["People",-9.15783533454675],["bu",-9.160984081042642],["attempt",-9.163605041792643],["coach",-9.16365435924347],["firm",-9.164724333789408],["incident",-9.168068143912151],["investigation",-9.169253190607837],["message",-9.171602497521707],["district",-9.171640745193184],["interview",-9.171657557626705],["sector",-9.173968641956023],["23",-9.17616259298196],["heart",-9.176486653356186],["wait",-9.177495891332137],["protest",-9.178675081622877],["Day",-9.179053022179144],["wh",-9.180270491288486],["ight",-9.180573526896211],["immediate",-9.180611531484761],["X",-9.181209451431402],["growth",-9.182403613105492],["st",-9.182604861875179],["activit",-9.183451547966742],["disease",-9.183854019816739],["whole",-9.185215021837042],["Chief",-9.185839818176245],["form",-9.186304334187788],["town",-9.18697356172851],["Y",-9.18855112440065],["understand",-9.190535400303595],["authorit",-9.19165244979019],["decade",-9.191913324378186],["bigge",-9.191984902062348],["normal",-9.192964790444886],["detail",-9.193215636584105],["lower",-9.194895847714907],["Mr",-9.196479228513521],["Even",-9.197069608844245],["Government",-9.19730317006068],["reach",-9.19838877773276],["ted",-9.201622373688615],["white",-9.201810032647309],["My",-9.202596790664414],["relationship",-9.204479699451682],["essential",-9.205859332361072],["ers",-9.209200798346856],["expert",-9.209581761271878],["um",-9.212119690959309],["victim",-9.213343339501131],["inside",-9.213601356689889],["Donald",-9.213775891852428],["meet",-9.2140593454228],["road",-9.215191135420518],["distanc",-9.216623050130208],["begin",-9.21729013454816],["practice",-9.217681038698139],["production",-9.21797406339377],["father",-9.218933254947832],["Febr",-9.220898211211011],["schedule",-9.22171268136271],["app",-9.223307531391594],["press",-9.22366430209916],["ves",-9.223950856560462],["Many",-9.224869884173696],["rote",-9.224891404143545],["join",-9.225546252707787],["quarantine",-9.22600901321616],["training",-9.226266336123434],["example",-9.226937817293505],["weekend",-9.230220951085712],["De",-9.230738733048613],["Octo",-9.231233242447273],["anyon",-9.23349538436247],["ay",-9.233682869807328],["ad",-9.233972237671107],["ge",-9.234637592963153],["28",-9.23678824063969],["match",-9.241302791166628],["organization",-9.242463671499799],["qualit",-9.24418892172385],["hour",-9.24566320561884],["effective",-9.247578250688342],["makes",-9.248509483830954],["park",-9.249978225597813],["wife",-9.25127450587118],["reports",-9.25291862221524],["education",-9.253350410416644],["ma",-9.257480813807161],["31",-9.259273430453845],["policy",-9.260041915343585],["develop",-9.261717474809636],["60",-9.26172222465496],["conduct",-9.261843023270561],["update",-9.262129366827734],["platform",-9.262472243329306],["track",-9.26335539079349],["read",-9.26360041221119],["approach",-9.264452817047689],["uring",-9.266436418173434],["request",-9.266728264561308],["suspect",-9.267068720541893],["pass",-9.267325910189028],["ca",-9.267547099517866],["Democrat",-9.268014778073248],["Be",-9.269592187346735],["similar",-9.27024962924129],["500",-9.2709622538294],["26",-9.271192558969108],["compare",-9.271257429381777],["administration",-9.272034527560065],["pick",-9.272854878495718],["scene",-9.273724779612204],["prevent",-9.274299801479394],["enjoy",-9.274800789026937],["view",-9.27700501133645],["class",-9.277132071906255],["27",-9.279638237550635],["ways",-9.281198394203878],["minutes",-9.28134599833611],["seven",-9.282539065796826],["manage",-9.283297146960784],["California",-9.284037206753045],["lates",-9.284756956908522],["break",-9.28584314403197],["driver",-9.286342819789986],["ground",-9.286550192527049],["militar",-9.287078679227584],["ither",-9.288604038531625],["resource",-9.289406776153456],["revenue",-9.289626683546334],["summer",-9.289748226739892],["daughter",-9.290282825279238],["football",-9.293213915552274],["echnology",-9.294363917702336],["treatment",-9.294524012769026],["legal",-9.294955943316104],["doctor",-9.295819424937807],["Nigeria",-9.296680530076681],["Park",-9.299463134962203],["loss",-9.300430806787624],["represent",-9.301717868348945],["extend",-9.302128723881639],["Street",-9.302476594468946],["guy",-9.302854505923326],["score",-9.3042184041994],["population",-9.305325717826173],["Service",-9.305349183630577],["purchase",-9.307332886328648],["themsel",-9.314191493917722],["Africa",-9.31809290353021],["bit",-9.31974995340298],["alleged",-9.319984111749001],["tax",-9.320048287156794],["learn",-9.322914991275152],["above",-9.323285913034079],["act",-9.324158154557772],["leading",-9.326921092309568],["street",-9.327793971693275],["date",-9.328115210077957],["title",-9.331760932015897],["ours",-9.332300538180675],["probabl",-9.336678222668159],["produce",-9.337908706156183],["popular",-9.33855035299814],["kille",-9.33960984775824],["thousand",-9.339620586490351],["decided",-9.340342134146539],["exist",-9.340605966134135],["San",-9.341688512234827],["letter",-9.3434685245645],["lack",-9.344525926753736],["review",-9.344901749374548],["ber",-9.344996900481018],["unit",-9.346293179971891],["Congress",-9.346298277681415],["necessar",-9.346659767914941],["answer",-9.347384300576417],["friend",-9.347860619000521],["serve",-9.34798083784336],["regard",-9.348887507240923],["crime",-9.351628221540278],["location",-9.351750065023387],["Bank",-9.352165739110124],["Washington",-9.354781535736668],["minister",-9.35574657537622],["lost",-9.356742012355474],["29",-9.358165040981],["Every",-9.359096580515178],["sense",-9.360014768705124],["original",-9.360824635251737],["News",-9.361429989504384],["regular",-9.361819300620445],["various",-9.362182497056425],["brough",-9.36341059453298],["describe",-9.36348280513025],["David",-9.368919969727443],["playe",-9.369096087822783],["design",-9.369283293802841],["restaurant",-9.370368278779981],["General",-9.37389293132431],["huge",-9.373935167112597],["canno",-9.375369085663504],["department",-9.377285408792812],["center",-9.37789854299213],["trial",-9.378344789423387],["feeling",-9.379110492838137],["damage",-9.380320676561798],["website",-9.380757050464771],["piece",-9.380838807651973],["ballot",-9.380965754994765],["vice",-9.384557084191576],["quite",-9.3877572632887],["brand",-9.389389993508825],["ility",-9.389687988902342],["estimate",-9.39069230773458],["Facebook",-9.395533170697304],["energ",-9.397225466535389],["Part",-9.40014690637697],["build",-9.400705039978675],["usual",-9.40101901192196],["Australia",-9.401573718057794],["More",-9.402006254241542],["35",-9.403499013051185],["active",-9.404819164413727],["episode",-9.404929159860185],["teste",-9.4060602731505],["eight",-9.406603964748907],["teacher",-9.407125471488778],["ell",-9.407573319005756],["70",-9.408684669324026],["God",-9.408922932325913],["agree",-9.409189292401631],["wear",-9.409533380245197],["range",-9.410661613971701],["launch",-9.41068092934053],["mind",-9.413503745244196],["avoid",-9.41412409713254],["station",-9.415744601367354],["â",-9.41682342880923],["step",-9.418966596846822],["com",-9.419154842463247],["conference",-9.419555386482337],["virtual",-9.42084737641478],["Bu",-9.421156884704317],["Sinc",-9.422602335117094],["ial",-9.423152951642468],["see",-9.423397684421154],["add",-9.424186916047645],["limit",-9.424321933871258],["East",-9.42566780675958],["Mean",-9.428097651777668],["thi",-9.428368930552075],["evidence",-9.431702405560433],["investment",-9.431850032313047],["arrive",-9.432371340865],["Her",-9.433098601664367],["block",-9.43519883325078],["deep",-9.436003539007256],["aught",-9.437328998019277],["specific",-9.4374621826587],["Democrati",-9.438990579777503],["learning",-9.439098208334457],["physical",-9.441060430727294],["passe",-9.441179557554747],["Ma",-9.44215969039071],["felt",-9.442620771323718],["husband",-9.443085326489298],["bill",-9.44381356431666],["actor",-9.444060592749373],["area",-9.444707638703502],["llowed",-9.445029590467783],["Co",-9.44548777133766],["else",-9.447866347994843],["push",-9.448672797832081],["Council",-9.449364123171689],["encourage",-9.45056757982531],["environment",-9.451680761985514],["capacit",-9.452162632633783],["choice",-9.454056758812577],["improve",-9.454484381149003],["box",-9.454487068067243],["addition",-9.45576032103885],["Chine",-9.456410441201406],["fair",-9.456901061883443],["ow",-9.457315846713895],["League",-9.457937378740803],["happ",-9.458481715857623],["pull",-9.46241871364264],["rules",-9.462772717202881],["revealed",-9.464835892929363],["professional",-9.464956276261267],["Group",-9.465267871389777],["Twitter",-9.466082645256737],["African",-9.469951677915358],["common",-9.47003757195014],["ame",-9.47106372924408],["border",-9.473156495644814],["threat",-9.47334632507787],["Johnson",-9.474925690877022],["ur",-9.476463017173812],["est",-9.478031007923278],["site",-9.47870942934885],["material",-9.479156026510505],["solution",-9.47961577254279],["rest",-9.480250036915454],["assist",-9.4810513030798],["German",-9.481098043860907],["oving",-9.481438047204751],["success",-9.482344783631419],["fail",-9.48251186749211],["seek",-9.48586527636488],["capital",-9.48739771110097],["jobs",-9.490048864960926],["stream",-9.492154779796696],["maintain",-9.49245006395596],["co",-9.493245265792911],["earing",-9.494814098535738],["ried",-9.494891041845046],["user",-9.494980873124419],["try",-9.495771714906247],["mid",-9.49637049701176],["league",-9.496619065868638],["bad",-9.497216886669698],["payment",-9.497469771772518],["citizens",-9.498613373094393],["Japan",-9.499062621911367],["annual",-9.501078488143214],["Canad",-9.502101890003615],["carry",-9.502573774270093],["Iran",-9.505154623279473],["anagement",-9.505491395475772],["teams",-9.505516803788503],["202",-9.50569614751689],["pressure",-9.505757738988788],["Public",-9.505805083343498],["earning",-9.506348361967472],["perfect",-9.507368845337608],["supply",-9.511577754275548],["aily",-9.512240733812796],["remember",-9.513144522659957],["£",-9.514668190878428],["winning",-9.515855923099803],["income",-9.519103766995151],["standard",-9.522086712924143],["words",-9.522763042545385],["document",-9.524393985182105],["appeal",-9.524660373011596],["proper",-9.526310480559493],["Senat",-9.52672980373435],["European",-9.527187153563784],["followed",-9.528547878327647],["giving",-9.530164329134443],["From",-9.532373607467878],["Green",-9.534529874421846],["network",-9.535172791769462],["factor",-9.536013726558757],["card",-9.536159324503132],["centre",-9.537072857374724],["page",-9.537249995326114],["propert",-9.538109637490363],["wrong",-9.53822743711402],["High",-9.538302843544844],["budget",-9.53860628729051],["To",-9.538898233841094],["Not",-9.539007956540882],["accept",-9.539822779957102],["tention",-9.540024377761178],["via",-9.543090580867403],["initial",-9.543680353070474],["rise",-9.546710441752802],["mention",-9.547076258328179],["size",-9.54751075318022],["Just",-9.547709318615343],["analyst",-9.54772373954123],["natural",-9.548678408228463],["Joe",-9.549730656120785],["camera",-9.550692005098485],["cross",-9.551379563530649],["holding",-9.553131492427227],["ut",-9.55335935799474],["Brit",-9.554337575796467],["miss",-9.55516576437132],["90",-9.555809828992572],["infect",-9.556256260657207],["symptom",-9.557319266265822],["version",-9.558078642674868],["heard",-9.560282255051565],["increasing",-9.563239437569298],["application",-9.563502631452167],["digital",-9.563624396717927],["Union",-9.564509871370955],["buil",-9.564905352293982],["soon",-9.56537991233978],["respect",-9.566976613362248],["ry",-9.569679159243414],["ion",-9.570367357780366],["voice",-9.570534045482399],["note",-9.571880616113074],["critical",-9.571923967790257],["college",-9.573673160522532],["Hospital",-9.57400273551244],["provid",-9.574466925559861],["hundred",-9.575192110406721],["standing",-9.576964274236564],["artist",-9.577654372656614],["International",-9.577952590787202],["highe",-9.578600740617674],["opening",-9.579023344590109],["80",-9.579736534103251],["homes",-9.580116738022696],["content",-9.580344472058279],["If",-9.58036109432865],["email",-9.580976584356993],["brother",-9.581296606480365],["surprise",-9.5816422576322],["wer",-9.582031165398881],["partner",-9.582154455800602],["continu",-9.584000597981014],["manager",-9.584289242881512],["contain",-9.5846649683341],["drop",-9.586100095773444],["Road",-9.586882451949412],["county",-9.587400343518626],["climate",-9.588597447802453],["hav",-9.589426514485517],["sales",-9.594448886816778],["facilit",-9.594463892986528],["Michael",-9.595780675786186],["movement",-9.596950634447085],["bar",-9.59743028473582],["Director",-9.597866981683513],["explain",-9.598384478087606],["judge",-9.598832035133539],["speed",-9.598850618932513],["sports",-9.599283937029753],["flight",-9.599380517794476],["despi",-9.600485573490715],["James",-9.600818195576544],["universit",-9.601711795910623],["cash",-9.603020907311208],["Indian",-9.60586611105909],["Last",-9.60593935123083],["ent",-9.61062710182393],["ought",-9.61180676037464],["served",-9.613105056926479],["trust",-9.613405552946489],["register",-9.613560210308592],["spite",-9.614045963154162],["adding",-9.61416628682721],["England",-9.614491755379103],["spot",-9.61541682594757],["45",-9.61543594368484],["London",-9.615498148324633],["accuse",-9.615747847316849],["Smith",-9.615778606381504],["George",-9.617043525771281],["easy",-9.617224233398012],["successful",-9.617571420921678],["Over",-9.621967328813138],["Man",-9.62217815249872],["http",-9.622745258942752],["agency",-9.62287157622329],["image",-9.623111195358911],["enter",-9.623431628699866],["overall",-9.625878251691983],["ville",-9.62828501237268],["asking",-9.628487637111594],["multiple",-9.629547020896744],["exchange",-9.630278621425092],["notice",-9.630653776005932],["delay",-9.63067185022416],["equipment",-9.631409918176775],["Prime",-9.632269827607525],["storie",-9.637868179925702],["idea",-9.642033291680654],["guideline",-9.643456827844208],["paper",-9.644810893104832],["sometime",-9.645172899815885],["primar",-9.645661622060782],["trip",-9.64735919992823],["pre",-9.647872653682317],["shooting",-9.648288306469823],["First",-9.648647009635898],["credit",-9.649961604112669],["transport",-9.651332624284246],["celebrate",-9.651354251762179],["Act",-9.651932954918884],["ring",-9.652202934398872],["ide",-9.652590053401374],["song",-9.654153369178559],["Ministr",-9.655809225306928],["Republican",-9.65606169280747],["di",-9.657574234647317],["ic",-9.657954154713805],["attend",-9.659319610961411],["expand",-9.660807837804349],["remove",-9.66113539565723],["won",-9.661276480418975],["aware",-9.661722743456014],["ho",-9.662186688965118],["monitor",-9.662827683231288],["province",-9.663357164936045],["extra",-9.664328806599887],["file",-9.664445500371384],["Inc",-9.664456589329028],["ratio",-9.66526275843826],["Paul",-9.665535361152035],["investor",-9.665801211086162],["Florida",-9.666503109078612],["exact",-9.66654613693302],["decline",-9.667056034544842],["extreme",-9.667664256826662],["beginning",-9.667948831949534],["stand",-9.668326330521065],["poor",-9.668660681590858],["hand",-9.669545904989995],["fourth",-9.669935292828729],["relate",-9.67267446576075],["conversation",-9.672690090329592],["picture",-9.672794936098168],["tweet",-9.674429953155183],["drug",-9.675144233903495],["Texa",-9.675157785866055],["defense",-9.67551219321263],["culture",-9.67587919820097],["offering",-9.678714014629048],["search",-9.67906359261774],["true",-9.679081560395609],["item",-9.680886888579918],["spoke",-9.683176807529254],["throw",-9.685191729870592],["red",-9.68572035062917],["elected",-9.686576787599627],["rule",-9.687490720393345],["council",-9.68773313530535],["imply",-9.688558931736559],["negative",-9.689232702603672],["Office",-9.690596425003484],["son",-9.690961994414323],["Most",-9.692596717929764],["discover",-9.69430770517391],["foreign",-9.694572714951015],["La",-9.694630476264251],["generation",-9.695367155885544],["talent",-9.69544279758184],["reache",-9.69588514100268],["agreement",-9.69746640503207],["mission",-9.69845882476438],["collect",-9.69963772623787],["Bill",-9.701069248334207],["eventual",-9.7022981120437],["difference",-9.703869426080448],["Europe",-9.703924149001883],["Justice",-9.7081469039659],["violen",-9.709007809941578],["patient",-9.709022813535217],["victor",-9.709157329794781],["kept",-9.711522016596334],["double",-9.712794583818386],["District",-9.71332018277374],["church",-9.713456572003722],["debate",-9.713771497569118],["War",-9.713875624491367],["novel",-9.713926061140326],["blood",-9.714077321331382],["crowd",-9.71450536252787],["hear",-9.716041449078206],["Commission",-9.71644931358093],["plant",-9.716588412026471],["animal",-9.718232482591276],["passenger",-9.718607536479247],["Minnesota",-9.719174640772277],["battle",-9.719185486666664],["rates",-9.719364529166448],["approve",-9.719903444295225],["Israel",-9.721434214360428],["subject",-9.722746513964868],["justice",-9.724235483978251],["winner",-9.724446249972264],["j",-9.724618558600703],["igher",-9.725475625097914],["Nigerian",-9.726345720768101],["han",-9.727807595575266],["Q",-9.727888424085886],["slow",-9.729528526270075],["nce",-9.734252762910327],["Two",-9.735143329546528],["shop",-9.735224559413506],["relative",-9.735497181678197],["respond",-9.737029700186405],["device",-9.737385589515233],["Air",-9.737486080764954],["hotel",-9.740537852957646],["shift",-9.7411870803016],["ley",-9.741299949468807],["facility",-9.744593173111394],["anti",-9.746129855525652],["ex",-9.746459235547723],["finding",-9.746552083659711],["019",-9.746931001040313],["fast",-9.74705301171792],["bega",-9.747586699113509],["surance",-9.748235268416124],["€",-9.750307146720875],["screen",-9.751615617454261],["favorite",-9.752288577110098],["Force",-9.752308637977514],["realit",-9.752785986120955],["photo",-9.753060360373077],["launche",-9.753666203656685],["named",-9.754524825471407],["consumer",-9.754956733926011],["turne",-9.755193635102344],["Christmas",-9.755738878889934],["lo",-9.755953668760174],["BTC",-9.755999116508322],["Central",-9.756237334795184],["criminal",-9.756300938464229],["promise",-9.756434055315822],["holiday",-9.75700983412217],["gathering",-9.757657677004019],["reopen",-9.758166949714962],["upon",-9.758530358953827],["Other",-9.758637143093082],["Here",-9.759264371808344],["hit",-9.759304663400805],["gone",-9.760790163635548],["alone",-9.762266307761525],["ecame",-9.762448071771837],["tion",-9.762476558371263],["welcome",-9.762847642062756],["Mark",-9.762946324037063],["spring",-9.763241488440194],["mark",-9.76347887653366],["obvious",-9.764560615614684],["Jan",-9.76470689827067],["employment",-9.764884229715806],["fac",-9.76696516515402],["Board",-9.767525227127454],["host",-9.770245082960159],["charges",-9.77039352777481],["EU",-9.770966667375252],["explaine",-9.772745779296686],["commercial",-9.773607613609366],["sexual",-9.773737224699095],["Association",-9.777732119931198],["competition",-9.777924034151678],["Star",-9.778137701131804],["king",-9.779526676782075],["Lake",-9.78013912559501],["prett",-9.781326411609289],["rights",-9.781910611904525],["ather",-9.782406619323002],["threaten",-9.782771409608863],["prove",-9.782878141594956],["urge",-9.785137797148769],["discuss",-9.785366105523334],["draw",-9.787867179810597],["hands",-9.789531653777846],["volunteer",-9.790052709077038],["degree",-9.790546044246955],["table",-9.791213806646859],["majorit",-9.7945429053361],["Carolina",-9.794860682188101],["shut",-9.795993727028808],["pair",-9.79726866864757],["so",-9.797451092904913],["foot",-9.802142054537807],["purpose",-9.802271183326154],["society",-9.803060830280254],["dead",-9.804035809892145],["cast",-9.804670162511055],["door",-9.807481385840504],["afternoon",-9.808591467725309],["write",-9.80951331584442],["elated",-9.80992067095457],["scale",-9.810643813112803],["Of",-9.811405553783942],["straight",-9.811568178135044],["advance",-9.811659984267845],["Los",-9.812892273858953],["Apple",-9.81398764329622],["loan",-9.81421281433579],["32",-9.815132835273339],["Like",-9.81540157368214],["Angeles",-9.816180528947552],["unique",-9.816919952033075],["Z",-9.817464481496646],["declare",-9.820836884374152],["absolute",-9.821750306064404],["arm",-9.82189553015872],["works",-9.82227612305854],["Del",-9.823073699717375],["spen",-9.823603741752388],["link",-9.825456600579955],["Red",-9.826176460721303],["evening",-9.826662601828787],["ying",-9.826875831019493],["Bay",-9.826998393305168],["owner",-9.827711020224463],["minute",-9.82806809228433],["egan",-9.828159746880516],["NFL",-9.828923788813096],["middle",-9.829134659275574],["lawyer",-9.829354405578856],["300",-9.829872814463958],["boy",-9.830217901109009],["murder",-9.830286033115733],["committe",-9.831159274572045],["display",-9.831260156401761],["weather",-9.832594792234627],["mail",-9.832818551461987],["Committee",-9.834535731847332],["craft",-9.837276060742301],["audience",-9.838340332143428],["reveal",-9.83874974880555],["Why",-9.839169823431448],["CEO",-9.840610447989654],["client",-9.840833129088825],["wood",-9.84160034234227],["Super",-9.842856695499533],["born",-9.84311011693853],["hearing",-9.84319362122037],["Chicago",-9.84384761863982],["committee",-9.844145024328608],["broad",-9.844311575273066],["treat",-9.846062178546592],["Well",-9.846404451469036],["King",-9.847881361569929],["discussion",-9.848254291216364],["publishe",-9.849029182878802],["incredibl",-9.849468959920362],["distance",-9.849770588832385],["beat",-9.849830560363372],["operate",-9.85025135619954],["balance",-9.851395972110918],["touch",-9.853906545631133],["fun",-9.854104337666202],["struggle",-9.854266663098894],["ake",-9.854819005257546],["propose",-9.85609125565194],["Tom",-9.857288961253445],["Governor",-9.858969055006586],["sound",-9.859562300482004],["traditional",-9.859669178373807],["im",-9.860136322699795],["Secretar",-9.861362392365566],["ch",-9.862286313360004],["connection",-9.862394903984857],["basi",-9.863801799702484],["massive",-9.86484820371715],["grant",-9.865657564231576],["simple",-9.866214015829161],["responsibilit",-9.867638833635215],["finish",-9.868039094134124],["34",-9.868343148261232],["receiv",-9.868672896534735],["ome",-9.86952312233576],["Do",-9.871420551736344],["bringing",-9.871881588759523],["domestic",-9.873039484211072],["dream",-9.873445448907203],["St",-9.874669831031305],["worke",-9.875365588686575],["definite",-9.875829453461595],["reporter",-9.876918386070344],["spokes",-9.877952055479124],["Mike",-9.880383908567024],["€™",-9.882685086439949],["199",-9.886596659490714],["baby",-9.887007984087244],["Both",-9.887168347135578],["color",-9.887449785846254],["style",-9.887978604561543],["mental",-9.888427828464469],["elling",-9.88910177791367],["cap",-9.889197358522498],["politic",-9.89012440824635],["campus",-9.890173613336229],["showing",-9.890203080856306],["esterda",-9.890234221162967],["engage",-9.891160095492435],["construction",-9.89150839190237],["unding",-9.892087334351618],["word",-9.892443763791004],["Williams",-9.892471486472527],["gain",-9.892489524927342],["Arm",-9.892769562873172],["producer",-9.894181892114686],["session",-9.894518841636952],["Don",-9.894669749073174],["abuse",-9.895285385956601],["poste",-9.89629304157821],["peace",-9.896428807898294],["yourself",-9.897775468621855],["governor",-9.89797325245512],["couldn",-9.898748589865423],["rowing",-9.899515197608974],["crew",-9.89970838038612],["survive",-9.90034249349495],["Oct",-9.900880247536733],["sell",-9.901630626874223],["defeat",-9.90285785698703],["zone",-9.903483262333813],["depend",-9.903647540861135],["winter",-9.903903291364493],["Scott",-9.906677347347276],["progress",-9.908100007621025],["invest",-9.909113601577983],["College",-9.909121956177186],["sister",-9.910053747558592],["floor",-9.91103845897802],["household",-9.912508029355756],["nforcement",-9.912624227067163],["strateg",-9.91269633071739],["Big",-9.914318641710146],["steps",-9.914436448297824],["identifie",-9.91469011698591],["refuse",-9.914726228691412],["prison",-9.915370171507444],["weight",-9.91688690462399],["Hill",-9.917429224664065],["wors",-9.918349013549818],["basket",-9.919101240258936],["planne",-9.920826882080958],["associate",-9.921337781237519],["Management",-9.921707472309835],["please",-9.923132066946518],["killing",-9.923300268397202],["ot",-9.923389749367722],["sh",-9.923733834109287],["central",-9.924076777743402],["ai",-9.925657886838628],["doubt",-9.926078476232927],["adult",-9.926178851632715],["vulnerabl",-9.92749571520853],["cancel",-9.930080301587214],["type",-9.930745704556582],["clean",-9.93115380269224],["listen",-9.931544055856126],["hurt",-9.931684495124669],["75",-9.93188927411742],["fresh",-9.93191333087416],["article",-9.931956441251504],["writing",-9.934068890031726],["48",-9.934260006534583],["+",-9.934465609029296],["signe",-9.935642346087294],["la",-9.936355998489557],["reflect",-9.93730692860624],["sent",-9.939156441005439],["Officer",-9.939440824327548],["debt",-9.939717614695688],["36",-9.939769493697039],["Canadian",-9.939859777320464],["sleep",-9.940040920356424],["ated",-9.943792867211542],["limite",-9.944629531832074],["train",-9.945726625292396],["language",-9.946590354570684],["freedom",-9.94668871359709],["responsibl",-9.948063250910053],["ied",-9.948211955747194],["chang",-9.949511541283192],["injur",-9.950721153069065],["indicate",-9.950946337593983],["thinking",-9.95112040200494],["apply",-9.95192923322376],["temperature",-9.952273044007812],["Amazon",-9.952784798849624],["suspend",-9.95336637429913],["retire",-9.953702081416008],["wonder",-9.955047691451707],["opene",-9.955604486754805],["sa",-9.957748539761607],["Russia",-9.959826334054515],["weapon",-9.96089748721271],["setting",-9.96091754038227],["survey",-9.961148561841934],["yards",-9.961856364778304],["speech",-9.962216102546911],["gift",-9.96231466633942],["flood",-9.962985827897986],["introduce",-9.963180194327965],["handle",-9.963606224012436],["Gov",-9.963776223469399],["ultimate",-9.963890105143388],["relief",-9.964202302749952],["France",-9.964289257944746],["greate",-9.965546635605751],["River",-9.966614186793192],["sex",-9.967912155728072],["comfortabl",-9.969397527978376],["amid",-9.969796881090627],["99",-9.97200866181513],["exercise",-9.972635007990096],["Home",-9.974151110544785],["statu",-9.974628002474752],["soft",-9.975151694079956],["approximate",-9.975217202320938],["secure",-9.975668082974408],["independent",-9.976509850905927],["science",-9.977686177875665],["nature",-9.979227709931044],["Will",-9.979435225678937],["traffic",-9.980056389412441],["MP",-9.98038297262374],["fell",-9.981924086903895],["farm",-9.98291954052049],["hair",-9.98320769893478],["Securit",-9.98373981694208],["north",-9.98377903504754],["nded",-9.984123653100609],["collection",-9.985405472273683],["Any",-9.985657991870527],["warn",-9.985669918936392],["Centre",-9.985892591877173],["window",-9.98749917268061],["plann",-9.987727172239032],["ong",-9.988216332953723],["phase",-9.988471504036756],["creat",-9.988548108073354],["Let",-9.988616607646284],["older",-9.989260153527692],["Can",-9.989311569691981],["package",-9.989312549002364],["Premier",-9.990516994846914],["ful",-9.991852218836685],["miles",-9.99239390207371],["recorde",-9.992451178186997],["kill",-9.99253856473186],["offers",-9.992551827757438],["separate",-9.992798236750662],["thank",-9.993142397938502],["communication",-9.99324819932548],["journey",-9.993515081837062],["recognize",-9.994921221569337],["poll",-9.995740084323526],["album",-9.996761898027021],["DC",-9.998055272508068],["profit",-9.99873065025577],["yond",-9.998919725604017],["ticket",-10.000637266318458],["beautiful",-10.000822497343728],["dangerous",-10.001426240790586],["allegation",-10.002012290103785],["Cup",-10.003349894631011],["wish",-10.003511563294888],["sport",-10.004051852522085],["civil",-10.004393120450773],["typical",-10.005439649537614],["remote",-10.010653422910261],["focuse",-10.01080711090388],["alternative",-10.010905323044565],["pro",-10.011311123363171],["locate",-10.012861416853704],["isolation",-10.013102440025264],["gun",-10.01398250150216],["33",-10.016378655728529],["catch",-10.017142354236116],["fear",-10.01825273340399],["truck",-10.018638775768238],["cancer",-10.018792770613064],["owns",-10.018953418950275],["studie",-10.019519805421744],["wasn",-10.01985398000781],["prepared",-10.02050439855155],["Googl",-10.02115434719284],["storm",-10.021284262801103],["Fund",-10.021667753023959],["strike",-10.021832926598744],["ough",-10.022019289763652],["French",-10.02215710510908],["choose",-10.02235086018728],["38",-10.022515490523253],["Go",-10.022571429995747],["farmers",-10.022833734780217],["Jones",-10.023394742320848],["el",-10.024598385714611],["hile",-10.024670306748249],["award",-10.026019399711856],["gan",-10.026086574445268],["die",-10.02815497871008],["Coronavirus",-10.028373448865493],["female",-10.02942215768234],["37",-10.029528749130893],["requirement",-10.029608046983723],["Chris",-10.029757029341397],["Federal",-10.030085151265965],["partie",-10.030594118398177],["assault",-10.030719659812863],["infrastructure",-10.031054364510135],["Year",-10.031366422657054],["institution",-10.033223859072631],["ling",-10.034766178906938],["advantage",-10.037544860227793],["scientist",-10.038297452524983],["scheme",-10.039149601254994],["AP",-10.041940335122327],["uch",-10.045086500124588],["opinion",-10.045213953851153],["attorney",-10.045653317822582],["Prince",-10.046058402122327],["Earl",-10.046203403990123],["Island",-10.04932636850161],["stuff",-10.050324619172375],["agent",-10.051121515899645],["Brita",-10.05245263460301],["il",-10.052624943960836],["Australian",-10.052691479279927],["surge",-10.052730994289197],["upreme",-10.0533210365512],["airport",-10.053642559097602],["conflict",-10.053726642915567],["announcement",-10.053789125286535],["polici",-10.054790007919676],["union",-10.055013196381106],["warning",-10.055575920184719],["Fire",-10.056639242164405],["LLC",-10.057237122942706],["stress",-10.057684257988626],["urning",-10.057888632868373],["Sam",-10.058045112971424],["supplie",-10.05996068076573],["prior",-10.060079270872901],["mber",-10.060382641945342],["ked",-10.060385741098594],["amazing",-10.06074199856462],["happening",-10.060813517237856],["severe",-10.06104310832867],["rea",-10.061436878184214],["Le",-10.06148890698413],["recall",-10.062355912512949],["knowledge",-10.062545827161522],["reading",-10.063192210862454],["supposed",-10.063936890881084],["kick",-10.065522332649504],["serving",-10.066785213332622],["rising",-10.067253764226276],["ating",-10.067255158210063],["influence",-10.067896848411007],["trades",-10.069295283749693],["dozen",-10.070453148566205],["protection",-10.070651389718307],["ble",-10.071081631804365],["roll",-10.071417972976988],["aying",-10.073177644222634],["proud",-10.073282969031181],["suit",-10.074064706420536],["ighting",-10.074125206925434],["sitting",-10.075005497378214],["Andrew",-10.075103971182862],["super",-10.075269875361146],["predict",-10.07529483389283],["Robert",-10.075695346916845],["49",-10.076258136396248],["ach",-10.076595744711154],["43",-10.077298135463757],["protester",-10.07755007757696],["complaint",-10.077795710395687],["Though",-10.079000028596344],["Communit",-10.079366483253981],["drink",-10.079372163949596],["sick",-10.079412793995253],["39",-10.081444949560893],["46",-10.083320990922058],["excited",-10.08433480376355],["section",-10.084756156846947],["resume",-10.085002195324675],["65",-10.08609868871713],["BC",-10.086179483219983],["Business",-10.086866586958303],["fine",-10.086941374517249],["structure",-10.087627615681434],["initiative",-10.088723739062107],["regional",-10.08936727111034],["programme",-10.089768907574872],["advise",-10.089804850305153],["Compan",-10.089806633073568],["Brown",-10.091042455228099],["opposition",-10.091198464812258],["closure",-10.091666745258308],["entertain",-10.09182401723568],["graduate",-10.092522980812769],["cell",-10.09255710705284],["showe",-10.092934979768604],["willing",-10.093384826319738],["let",-10.094037586598851],["achieve",-10.094974547713832],["Right",-10.095142690560312],["possibilit",-10.095210495240146],["mobile",-10.095315020847734],["crore",-10.096306896524123],["losing",-10.097012043052281],["lly",-10.097457495868664],["55",-10.097715055736128],["honor",-10.097856988265166],["heavy",-10.098673230274539],["guard",-10.098722616532951],["transition",-10.098943880098727],["Re",-10.099229866278481],["skills",-10.099302968417135],["ily",-10.101245668981235],["Under",-10.102154388741159],["joine",-10.102455682737457],["operat",-10.103108737711374],["rely",-10.103305124090095],["oil",-10.10384736538522],["boost",-10.10452025973304],["pain",-10.104919121040883],["appearance",-10.105355245700709],["pool",-10.107245284351665],["male",-10.108431944815948],["almo",-10.108871641891984],["youth",-10.108885549056867],["Mayor",-10.109192956310336],["Capital",-10.10927146542905],["Disney",-10.109693186565181],["author",-10.109735285565664],["confiden",-10.109737986393638],["Fox",-10.109753711489596],["politician",-10.109974214337779],["ra",-10.112158515331028],["provider",-10.112435485396617],["interesting",-10.11292411672899],["retail",-10.113354817274793],["sentence",-10.114084090802065],["green",-10.11434633413447],["worrie",-10.115009396540934],["bag",-10.115781296049686],["acquire",-10.116084805784634],["Republicans",-10.116934108042065],["classe",-10.117235934634877],["capture",-10.118563792338307],["south",-10.119550679048134],["injuries",-10.119906470065416],["truth",-10.12049270467589],["giant",-10.120540601341448],["Pro",-10.12055404679115],["rich",-10.121496357779126],["journalist",-10.12290032078203],["expresse",-10.124568207114791],["Church",-10.125291847868663],["circumstance",-10.125302389429915],["Thomas",-10.125604805772936],["de",-10.126166856128481],["village",-10.126247398251188],["Valley",-10.126497658476108],["Russian",-10.12782431969903],["married",-10.128717621546773],["machine",-10.128843657608453],["pop",-10.130747190696038],["perform",-10.131528530530304],["returne",-10.13295331156808],["wave",-10.133232856234617],["powerful",-10.133574439292676],["95",-10.133698046446142],["proposal",-10.13420011040574],["constant",-10.134872023895149],["participate",-10.135482740272703],["researcher",-10.136089790347835],["creative",-10.136454139766512],["lose",-10.136616332482136],["prime",-10.138446575271193],["direction",-10.139218655495306],["fuel",-10.139571713982427],["400",-10.14030420932289],["meant",-10.140884171169589],["commitment",-10.141356916985696],["carrie",-10.141443942824814],["gram",-10.14167657185045],["camp",-10.141994877691378],["illness",-10.143211059307038],["crash",-10.144161225870981],["guest",-10.144251829172319],["om",-10.145807502713462],["multi",-10.147915212922719],["equit",-10.148414938950605],["emerge",-10.148536344411598],["develope",-10.149772862141319],["respective",-10.150428007823354],["asset",-10.15125211889534],["spirit",-10.151290471166709],["reopening",-10.15141491047993],["argue",-10.153209119106572],["donation",-10.15327821100773],["owners",-10.153851358403605],["tough",-10.153999652490487],["replace",-10.154178307634597],["combat",-10.154297467477924],["Final",-10.154577749400135],["wouldn",-10.154979035150191],["tournament",-10.15502690880702],["accident",-10.155316881174105],["gold",-10.156196334973645],["Korea",-10.156203063184673],["caus",-10.156286697045942],["draft",-10.15649775081523],["contest",-10.159365621555404],["47",-10.159767517204905],["sides",-10.159783711873569],["berg",-10.160118745749577],["Blue",-10.161283307878481],["donate",-10.16143310666644],["apparent",-10.16199551445097],["Car",-10.162313886601112],["promote",-10.162727071238965],["learne",-10.163166408099581],["Hall",-10.163526997085544],["secretar",-10.163534783003994],["broke",-10.164636032992512],["Market",-10.165626073886358],["ard",-10.16573150307481],["jail",-10.166434067389535],["Nation",-10.166572380546494],["veteran",-10.166978526026867],["Peter",-10.167050536175783],["priorit",-10.1672610842902],["internet",-10.167822370571947],["vision",-10.16795863730114],["par",-10.170259754587835],["!”",-10.170900551051956],["stoppe",-10.172003943338481],["Vic",-10.173064940420264],["ones",-10.173614968798375],["chose",-10.174122008028668],["tru",-10.17474488131947],["Georgia",-10.175638287991962],["Victoria",-10.175759763030012],["engineer",-10.176549513052795],["Or",-10.176852394013226],["lines",-10.177413430366384],["worse",-10.178362374042392],["beach",-10.180456686840813],["responde",-10.180685889011915],["goals",-10.180837806380076],["strength",-10.180889235203576],["contribute",-10.181532509593954],["tech",-10.181866929196236],["Sanders",-10.182334771686229],["offere",-10.18279667085977],["failure",-10.18297854267409],["trend",-10.182984239062304],["wo",-10.184195231867207],["Region",-10.184469460428645],["dropp",-10.185073934586805],["challeng",-10.185111774857402],["Virginia",-10.185860326780604],["laws",-10.186232278825337],["ruling",-10.187376842178175],["42",-10.189990873547664],["professor",-10.190185517642453],["reall",-10.190340224911338],["protocol",-10.190513215597285],["dark",-10.191014124308083],["dance",-10.192075253711117],["flow",-10.19242507691311],["smart",-10.193147089563778],["Commissioner",-10.193352458807555],["Onc",-10.193663638191076],["transaction",-10.194221442550042],["admitted",-10.194805824220959],["finishe",-10.195165877836093],["happens",-10.196223990423157],["reform",-10.19631059998418],["fellow",-10.196331426653101],["Dur",-10.197309374077326],["reas",-10.197372725511435],["haps",-10.19778539548615],["isolate",-10.19803725932227],["writer",-10.198243666685682],["imagine",-10.198527132989105],["mix",-10.19886027685588],["Martin",-10.199270006069735],["ased",-10.199452109569783],["representative",-10.19945791423686],["ping",-10.199809216372548],["chain",-10.200924354802128],["Harry",-10.200940844810763],["Du",-10.201172298374644],["approval",-10.201276739015832],["By",-10.201560129468575],["warm",-10.20158698076217],["Times",-10.20166496460093],["struggl",-10.20366515712628],["transmission",-10.2039888945385],["element",-10.204442873141033],["Post",-10.205935433626617],["du",-10.206135565187338],["outcome",-10.206835738451842],["Development",-10.207059279865536],["Jackson",-10.207259033780685],["Jack",-10.207331213278366],["Club",-10.20738897328161],["complex",-10.207461416834027],["transfer",-10.207701463505567],["religious",-10.207964629955182],["regulation",-10.208072631472845],["Institute",-10.20835759248536],["regulator",-10.208363074294827],["panel",-10.208535382226028],["opponent",-10.21023999059922],["scenario",-10.210789933793745],["bond",-10.211167363238028],["invite",-10.21117163135543],["afford",-10.212832826996266],["mayor",-10.213352689193165],["pped",-10.213547133924418],["connect",-10.21476317263815],["implement",-10.215472175839453],["English",-10.215476539346701],["rapid",-10.215484280857762],["Royal",-10.216236639149876],["Avenue",-10.21707001118274],["distribution",-10.217614843091509],["Serie",-10.217620852878188],["channel",-10.218853211703184],["plus",-10.219730889277331],["laying",-10.219810450507262],["path",-10.220082221133657],["ministr",-10.220162099997388],["art",-10.220268088204445],["surface",-10.22046795271239],["function",-10.220645708220339],["44",-10.221210566151662],["Feb",-10.222313220472433],["route",-10.223102379665713],["tackle",-10.223660077155548],["radio",-10.224191492375567],["longe",-10.225197530769648],["dividend",-10.226121441875158],["wise",-10.227089515115521],["Ben",-10.227422215347577],["nurse",-10.227742911663865],["electric",-10.227913376888004],["burn",-10.229246718895759],["opping",-10.22936389179325],["establishe",-10.22937099925888],["Law",-10.229403813453269],["familiar",-10.229739448069136],["realize",-10.233034020658575],["recommendation",-10.234012702060696],["covering",-10.234991432160285],["ton",-10.236223620424587],["ish",-10.237265829812833],["meaning",-10.237946568010843],["--",-10.238686348661986],["guid",-10.240619247654102],["Your",-10.241168161014961],["41",-10.241703381979656],["Election",-10.24203544993765],["division",-10.24345593371757],["ural",-10.24395113677747],["century",-10.244512519995038],["modern",-10.246073726799654],["understanding",-10.246148990365917],["flag",-10.246279727116075],["meal",-10.247255009994504],["Aug",-10.24815495828232],["bridge",-10.249044823503882],["eyes",-10.24925828501307],["possibl",-10.249379221717312],["hip",-10.249530937573759],["presen",-10.250189001155153],["ter",-10.250388156833328],["basic",-10.250964186448476],["Max",-10.252269317268823],["stick",-10.252830487425575],["studio",-10.253369229012662],["claime",-10.253507465636844],["shape",-10.253788143613178],["Western",-10.25395351724693],["Follow",-10.254610380802463],["ate",-10.254728725275797],["illegal",-10.255284735243032],["Christian",-10.256115326221531],["obtain",-10.256168557219242],["appropriate",-10.25632315018988],["rally",-10.256505375040872],["internal",-10.25684179170629],["CDC",-10.257284140338754],["alling",-10.257474968023896],["consistent",-10.258160688877037],["guide",-10.260231970689627],["016",-10.261492898274447],["apartment",-10.261576662790517],["pushe",-10.26176363990588],["photos",-10.262187467630497],["wild",-10.262573321094596],["strict",-10.263117996638929],["leg",-10.263657084263231],["island",-10.263692076920435],["Research",-10.26433387504014],["instance",-10.264878339395683],["visitor",-10.26515378872996],["entry",-10.265292793614964],["unlike",-10.265345861201087],["runs",-10.266310619636563],["wealth",-10.2680457453658],["mouth",-10.268467087059832],["guilt",-10.269479566092835],["pack",-10.269680866726773],["east",-10.27088050456235],["cool",-10.272384972381118],["identify",-10.272603125168036],["shelter",-10.272665638207144],["yard",-10.272853440850813],["closing",-10.27368911645113],["permanent",-10.274522056278267],["twic",-10.274790704749801],["rescue",-10.275040860574435],["belo",-10.27583321802819],["joint",-10.27606814526177],["determined",-10.276071429100739],["gre",-10.277905294028677],["Love",-10.277941057411597],["coverage",-10.278169578545413],["television",-10.278646753122445],["Ohio",-10.279052806665106],["honest",-10.279620797473306],["rain",-10.279783219860402],["grade",-10.280077715863612],["Harris",-10.280159917467532],["hopeful",-10.280710367942536],["Corp",-10.280744787549018],["drugs",-10.281327854138858],["ollywood",-10.281647073738345],["length",-10.282028771618686],["margin",-10.282042838173652],["aking",-10.282350789851442],["desire",-10.283126616185086],["volume",-10.28369527930187],["speci",-10.284137293363926],["determine",-10.28420345751918],["combine",-10.285015663914741],["expose",-10.285820974106388],["decide",-10.28646082041946],["singer",-10.286670648675184],["Sen",-10.286753459964466],["ban",-10.286944451830257],["defend",-10.28696905142166],["attende",-10.287107706957888],["communi",-10.287648526854692],["partners",-10.287839026012213],["wall",-10.287875568672277],["breaking",-10.288105841006601],["mor",-10.288481749279253],["corner",-10.289344595119102],["port",-10.289718867591017],["glass",-10.290735902927903],["Three",-10.293892422863943],["Mexic",-10.294092604781838],["deploy",-10.294882917040567],["blame",-10.295122846228903],["ether",-10.295806456918253],["method",-10.295837661805802],["Floyd",-10.295938331503764],["consequence",-10.295946103531104],["finance",-10.296522624493406],["festival",-10.296539618627094],["impose",-10.296636685819669],["highlight",-10.296897727076988],["enable",-10.297131286077764],["reaction",-10.297203002391228],["Education",-10.297361145611735],["variet",-10.29746843685222],["organisation",-10.298990193367707],["maker",-10.29936427396226],["Medical",-10.299674255812544],["designe",-10.299958844458727],["ba",-10.300306437968114],["ran",-10.300422839916017],["Port",-10.30132348144637],["ears",-10.301709715242966],["jump",-10.302831152713615],["Maine",-10.303355171836419],["sed",-10.30418608670291],["ded",-10.304776911625785],["kne",-10.305598488455665],["Student",-10.306336460119454],["rock",-10.306899630751747],["ki",-10.307150293422081],["prepare",-10.307597319105788],["segment",-10.308177784912058],["forecast",-10.309075868823175],["airline",-10.309326383926281],["books",-10.311677713876133],["Ho",-10.311984397157556],["environmental",-10.31288248091234],["uncertaint",-10.313232820063604],["600",-10.31407955825042],["toll",-10.315055691337097],["Iowa",-10.31623745731658],["sudden",-10.318764211518918],["neighbor",-10.319324878170281],["aspect",-10.321929231474948],["busy",-10.32270420751711],["anticipate",-10.322981650289194],["colleague",-10.324324029270649],["express",-10.324757038801838],["correct",-10.325718249963776],["background",-10.326549158360644],["Micro",-10.326827091209381],["Frank",-10.327523114411314],["800",-10.327737087729691],["viewers",-10.328265239997926],["eating",-10.329771398218641],["int",-10.331652325199656],["56",-10.332339047447594],["appointment",-10.332360903012162],["license",-10.33287629800972],["•",-10.33378840346635],["Iranian",-10.333981441868945],["lawsuit",-10.334043025961293],["Only",-10.334119771635194],["sustain",-10.335364657516445],["Beach",-10.335497373200326],["batter",-10.336051092896502],["coast",-10.336685550247942],["op",-10.336776184150523],["Adam",-10.336920495897306],["cold",-10.337219548823814],["pound",-10.337574448488759],["Up",-10.337753745385918],["Long",-10.338031568559515],["ast",-10.338038051239321],["Singh",-10.338123675481736],["Good",-10.33812962892548],["secret",-10.339376614255347],["Ra",-10.339518817242624],["intelligence",-10.33982088590066],["breath",-10.340974617375622],["bee",-10.341857833176316],["Netflix",-10.343497147905454],["consensu",-10.343629736934778],["PM",-10.343910752784744],["Still",-10.344196726729061],["Investment",-10.344226531423338],["Authorit",-10.344466316226729],["Assembly",-10.344521621691337],["Who",-10.344702362191462],["85",-10.344716145924059],["tool",-10.34486520146506],["neighborhood",-10.345644775550712],["resolve",-10.346082867645466],["wedding",-10.346417042181375],["fill",-10.346544743978203],["provision",-10.347416978986965],["wan",-10.347431929322969],["commission",-10.347579255722051],["agricultur",-10.347645244486646],["nice",-10.34775985137427],["ick",-10.348463655084952],["slight",-10.349616646472157],["inspire",-10.349843909177478],["ideas",-10.350413002860737],["injure",-10.350964213207853],["bout",-10.351100939129541],["newly",-10.352829915806952],["Obama",-10.353388845471965],["Executive",-10.353465159091677],["stake",-10.353531213357417],["technical",-10.353642360439054],["participant",-10.353943048252916],["master",-10.353949619114921],["witnesse",-10.354350373393455],["outdoor",-10.35435901547359],["53",-10.354585938388725],["hop",-10.354710236564557],["ir",-10.355274050721775],["grand",-10.35547098842964],["pace",-10.355649315051238],["Young",-10.356047503042898],["chairman",-10.356371824663412],["52",-10.35666203283332],["Play",-10.357263299159063],["lso",-10.35797196935062],["rush",-10.358300784292531],["resolution",-10.358723960881992],["compete",-10.359862204710826],["classic",-10.360365903294799],["li",-10.360814421383024],["mass",-10.361378785438204],["expectation",-10.362756439241485],["denie",-10.363279330639806],["celebration",-10.364339465031378],["Earth",-10.364530154496864],["franchise",-10.36521202583861],["faith",-10.365872964655996],["trouble",-10.366108480266773],["Human",-10.36619284596107],["bi",-10.366624573644923],["briefing",-10.367314917824409],["numero",-10.369939526955715],["famous",-10.369987076282353],["whom",-10.370401863227576],["appreciate",-10.37085007058704],["mandate",-10.372585373621623],["Ne",-10.373309618913844],["partnership",-10.373494341945452],["rom",-10.37360153193935],["Bryan",-10.373679890912527],["telling",-10.374133449069355],["Insta",-10.375156994015445],["doors",-10.375649720222844],["Station",-10.375893483207115],["blue",-10.376988273313145],["reject",-10.377144568543649],["CBS",-10.377207734049795],["employer",-10.377923776364582],["guess",-10.379648051695533],["edge",-10.379796111407135],["importan",-10.379959588405558],["Francisc",-10.380292991409803],["chair",-10.38052245489382],["Press",-10.381745412393702],["broken",-10.382148033181945],["ose",-10.382281695021817],["rose",-10.382990811648192],["skin",-10.383130027843373],["Taylor",-10.383370489997382],["analysis",-10.383684641678206],["suffering",-10.383783043394239],["orrow",-10.384014845249785],["lawmaker",-10.38445167426249],["Daniel",-10.384495704843255],["looke",-10.38511366379695],["racial",-10.385172827225265],["Me",-10.385649965373062],["sample",-10.385679031235538],["Mar",-10.38627291066739],["Week",-10.386728782248731],["ice",-10.38762160536483],["relevan",-10.388285516378355],["softw",-10.388472097432764],["Live",-10.389833230924744],["operator",-10.389996331197228],["Watch",-10.390023976305756],["min",-10.390715848089751],["dealing",-10.390816290783409],["Where",-10.390944242400622],["boat",-10.391216337744016],["escape",-10.392868708321434],["debut",-10.392941071935041],["Jewish",-10.39359726035903],["bottom",-10.39370227641409],["Rock",-10.393765423246078],["prosecutor",-10.393832916045135],["applie",-10.393971814672284],["Ba",-10.39478907228466],["decrease",-10.39499065630977],["spike",-10.39519469082656],["saw",-10.395249589896498],["Asia",-10.395495870172162],["Additional",-10.396760227248093],["dog",-10.397609359317475],["mistake",-10.397778688118155],["repeated",-10.398155981882649],["shortage",-10.398224727313204],["nuclear",-10.398797126613479],["zero",-10.40090637163073],["prospect",-10.40093073193939],["charit",-10.401139310366247],["observe",-10.401463751296838],["ke",-10.402108046925012],["Coast",-10.402139169078435],["emotional",-10.40301747066421],["intend",-10.403415990046103],["Turkey",-10.40423990459773],["Care",-10.404599235504644],["los",-10.404769594640651],["newspaper",-10.40573499356043],["gender",-10.405791354083881],["bus",-10.406286370245503],["Team",-10.406439277637164],["soldier",-10.407778805316848],["athlete",-10.408188029622018],["tuck",-10.40819998617685],["64",-10.409361680160996],["Van",-10.409365589533735],["66",-10.409505032306953],["actress",-10.409922237290235],["govern",-10.410267012810444],["Life",-10.410440648729416],["brief",-10.410676193289966],["save",-10.411406496513916],["Game",-10.411640523186396],["57",-10.411937202143067],["78",-10.411960070077399],["llowing",-10.41242925660401],["suffere",-10.4128025392071],["Parliament",-10.41327742499111],["Grand",-10.414703323915534],["birthday",-10.415133648521497],["accurate",-10.415295500145115],["Former",-10.415508429848053],["58",-10.41635126237517],["sharp",-10.416539308142095],["deserve",-10.416686938269248],["Dan",-10.416957072948941],["explore",-10.417116951042853],["set",-10.417143819679088],["vot",-10.417409238325142],["Col",-10.417610919270041],["wind",-10.417899651830556],["con",-10.418132283853009],["Local",-10.41853946059609],["William",-10.418936952396143],["touchdown",-10.419725540876874],["expens",-10.419986323893212],["medicine",-10.420808513984978],["Pakistan",-10.421556810553628],["te",-10.422314205623383],["remind",-10.422791033349595],["Asian",-10.42308372674728],["Jo",-10.423528236565737],["investigat",-10.423536729520592],["core",-10.423737658702196],["stands",-10.423911033467924],["NB",-10.424652339395767],["thanks",-10.424695945384777],["Sh",-10.42483269408131],["Muslim",-10.424907877640319],["rival",-10.425121175633784],["marriage",-10.425255624157925],["contribution",-10.425507979756413],["Zoom",-10.425792691147999],["wage",-10.425927105965714],["democrac",-10.426054847279435],["behavior",-10.42620871642399],["temporar",-10.426356113245088],["Mary",-10.427502495580065],["Global",-10.428242541845506],["PC",-10.428481549059043],["cloud",-10.428625211005619],["troop",-10.428816093638634],["concert",-10.429502184205518],["Bo",-10.43087608099599],["generate",-10.431030549387394],["spokesm",-10.431062158078971],["treate",-10.431212985513287],["identit",-10.432825305084453],["dinner",-10.43315711885813],["upgrade",-10.433335015099212],["haring",-10.434506078993591],["Best",-10.434511674598387],["bough",-10.435105915224593],["championship",-10.435618935429982],["Se",-10.435710438066408],["Sun",-10.435886675334924],["theater",-10.436026047956927],["venue",-10.43618138576047],["Project",-10.436380815014394],["disaster",-10.436694219512557],["task",-10.43708296858326],["Ro",-10.437260141042847],["Among",-10.43754335325347],["bright",-10.437873030717157],["Ryan",-10.43860386051557],["54",-10.43906504351342],["quiet",-10.439113114922492],["racis",-10.439378896031137],["fashion",-10.439478847326441],["quarterback",-10.439561247792327],["danger",-10.439748191559701],["Maybe",-10.440262677584261],["manner",-10.440337629126443],["conclude",-10.441068720778077],["Social",-10.441586761258156],["tradition",-10.442388528346642],["occasion",-10.443706721815683],["cloth",-10.443931424433307],["roads",-10.444109546081442],["Charles",-10.444495386162895],["trad",-10.44527311215305],["solid",-10.44698163087645],["defensive",-10.447180835243957],["percentage",-10.447186596534785],["corporate",-10.447188085808333],["sort",-10.447680914034152],["trail",-10.447942955772213],["59",-10.448121186615694],["argument",-10.449238316853382],["informe",-10.449553826346772],["drama",-10.449655217072385],["polls",-10.449706072329757],["ro",-10.450225730287727],["lock",-10.450888573155783],["tic",-10.451608290675255],["alert",-10.4516224626048],["Bowl",-10.45211353195496],["ving",-10.45268492536625],["bottle",-10.453412179954825],["instruction",-10.453485576246333],["2012",-10.45522070260651],["garden",-10.455339545868792],["Morgan",-10.455530285474813],["ries",-10.455942683511847],["Control",-10.45594972769641],["blow",-10.45603811312726],["larger",-10.456358357216516],["waste",-10.45706823479464],["Toronto",-10.45707457619988],["founder",-10.457866236772297],["fifth",-10.458185608421738],["valu",-10.459119841951484],["Jordan",-10.45914802599643],["aren",-10.459221743803681],["crop",-10.459571081937675],["dispute",-10.459760197991692],["Kong",-10.459835129379165],["El",-10.460126258159221],["Power",-10.460637618036976],["Work",-10.46129399103405],["alcohol",-10.461427268361673],["affair",-10.462319249563453],["2010",-10.463338605912577],["produc",-10.463863383982627],["easi",-10.464074348145775],["62",-10.465350595101512],["routine",-10.465478455778646],["mov",-10.467146404205288],["Khan",-10.46719695290934],["eligib",-10.467630434705477],["guarantee",-10.468134408811919],["sale",-10.468254213800742],["square",-10.468314585100945],["Gold",-10.468419824634665],["ag",-10.468723003485305],["distribute",-10.469162333034628],["Middle",-10.46921294960004],["System",-10.469727792110973],["Daily",-10.469790627640624],["Yet",-10.47018164958916],["offensive",-10.471211110171907],["84",-10.471232494026086],["ages",-10.471348331822734],["Trust",-10.47137865902191],["Lo",-10.472287810458361],["iPhone",-10.472503903036051],["Sports",-10.473367340682554],["recruit",-10.47362853593197],["Judge",-10.475152484898334],["postpone",-10.475940095839618],["wake",-10.476535379491398],["profile",-10.476716298101891],["ood",-10.4777886337537],["comfort",-10.477887133733475],["procedure",-10.478610189070334],["Pennsylvania",-10.479120217945596],["capabilit",-10.4798150966439],["counter",-10.480605770853543],["Speak",-10.48112718478319],["supporter",-10.48138588525503],["investigate",-10.48316053042867],["playoff",-10.48462093232029],["false",-10.485478567825695],["establish",-10.486341976509316],["Yes",-10.486433433499094],["featur",-10.487439278994412],["immun",-10.48815969593528],["Jim",-10.488175727648937],["PS",-10.48826268483086],["occurre",-10.48840805048804],["Water",-10.48844666822116],["confirm",-10.48890509276405],["involv",-10.489786581046648],["Jersey",-10.490369527665901],["Economic",-10.49065889910293],["Second",-10.491315303470211],["Open",-10.491475682702273],["royal",-10.493087333449512],["unclear",-10.49358993442358],["ty",-10.493650779366472],["possession",-10.493761008169347],["earne",-10.494256028293343],["76",-10.494805887031514],["surprising",-10.495984876233239],["shoot",-10.496164445652933],["Vegas",-10.496245745879039],["Senator",-10.496447488645739],["peak",-10.49683806113805],["categor",-10.49697385506846],["writ",-10.497285470042907],["permit",-10.498453769877214],["taxe",-10.498766366148523],["Lee",-10.498781952381318],["favor",-10.499312137104909],["lifte",-10.50005753730252],["yield",-10.50046451862727],["broadcast",-10.501053050600792],["67",-10.5011162201701],["pic",-10.501607039628148],["grocer",-10.502091430008093],["announce",-10.502482954389315],["excellent",-10.502922794242377],["Paris",-10.503034188746899],["memor",-10.503513063985],["inter",-10.503636872864298],["Bloom",-10.503792261073466],["vital",-10.504148718882647],["ous",-10.50469727989443],["export",-10.505502756564221],["urban",-10.505533805051178],["fish",-10.505859281913203],["Scotl",-10.50600076934542],["Plu",-10.50832320331089],["pitch",-10.508451073566825],["exposure",-10.508481715381615],["oursel",-10.508515899249971],["oday",-10.508691678639869],["trick",-10.508753290810812],["import",-10.50929301714256],["knowing",-10.509568975342347],["gas",-10.51050339080036],["reference",-10.511127600690283],["dedicate",-10.511377568114366],["embrace",-10.511457472648335],["Lago",-10.511904761020302],["expense",-10.512023470216253],["lights",-10.512816770321173],["Arizona",-10.513240557430244],["Championship",-10.513280097395398],["assessment",-10.513975273367226],["ga",-10.514204881514214],["Labour",-10.514310116172883],["Ken",-10.514391601604004],["Family",-10.514416260486854],["frequent",-10.514621882356547],["51",-10.514936628716407],["Spa",-10.51513676810687],["footage",-10.515215711734387],["xciting",-10.515671265856572],["collapse",-10.515719793484426],["attract",-10.516664961575035],["fraud",-10.516843291747195],["Energ",-10.516979386321676],["Steve",-10.51701612826774],["uses",-10.51721133145536],["homeless",-10.51725524600672],["computer",-10.517309369704376],["250",-10.517613671598331],["indoor",-10.518111621847261],["industrial",-10.5196464642304],["eeds",-10.521219760541337],["Alex",-10.521413072250066],["struck",-10.521793899230822],["northern",-10.522122476035614],["Real",-10.523835718922268],["strategic",-10.523928381126598],["Town",-10.524029933786018],["lots",-10.524356149241786],["kitchen",-10.524871482667994],["precaution",-10.524911904883078],["88",-10.524949894272833],["competitive",-10.524985070453074],["unprecedented",-10.525006359874283],["unfortunate",-10.525101988540861],["Academ",-10.526663638079917],["highl",-10.526795912704387],["divers",-10.526943527021125],["collective",-10.527139793892758],["helpe",-10.527597371379773],["improvement",-10.5281841513765],["object",-10.528432769325521],["onger",-10.528628643834175],["017",-10.528883518454718],["Back",-10.529050036394478],["met",-10.529139076122323],["Alberta",-10.529149091505225],["legend",-10.529353092833576],["native",-10.53026612454887],["150",-10.530678282294126],["vast",-10.53099649190417],["Ka",-10.53107129669533],["72",-10.531393790894253],["ski",-10.53167742133769],["topic",-10.531813851573284],["bound",-10.533742937600302],["pa",-10.534147303139218],["plays",-10.535334416186231],["diagnose",-10.535524087100868],["historic",-10.53652278231981],["Wisconsin",-10.536606556993966],["Foreign",-10.536650714794828],["Advisor",-10.53675345081965],["stars",-10.536815746265049],["collaboration",-10.536978712153843],["offense",-10.537160987112623],["regime",-10.537394923801052],["deput",-10.537819036163672],["objective",-10.538303861640745],["reduction",-10.539063885910537],["Four",-10.539724996352572],["Lewis",-10.540077160538063],["cars",-10.540080955476348],["nable",-10.540438568825195],["wor",-10.541288231660491],["Kim",-10.541519299068781],["legac",-10.54168113542244],["prepar",-10.541953893727566],["pilot",-10.542074589213332],["Bar",-10.542100686756898],["recording",-10.542588035179197],["witness",-10.544319111613692],["flu",-10.544779370688303],["Great",-10.545078711300132],["bodie",-10.546216202777053],["ant",-10.546685009287115],["Look",-10.547499086409243],["custod",-10.547654210986517],["Elizabeth",-10.54851206125604],["Unfortunate",-10.54853182935878],["Sheriff",-10.548581257743018],["Disease",-10.548654902036986],["command",-10.548683875389687],["Network",-10.54895767560224],["remark",-10.549268573963406],["Show",-10.549272723135768],["birth",-10.54986122303409],["nomination",-10.551126191263569],["sky",-10.551846276910968],["praise",-10.552735868041303],["matche",-10.553753759574363],["luck",-10.553905711463525],["settle",-10.554147307797443],["Free",-10.554744211435004],["switch",-10.555606186309742],["cultural",-10.555758449669666],["wards",-10.556558409721452],["sold",-10.55687830039052],["indeed",-10.556930779853738],["lakh",-10.557847088130972],["77",-10.558066528985876],["deadl",-10.558659271309951],["%.",-10.558906057188974],["shire",-10.559243807000932],["700",-10.559769325495523],["connected",-10.559995202132413],["saving",-10.560163530652648],["suffer",-10.560321832193509],["Afghan",-10.56056322075639],["Attorney",-10.560793090344722],["lesson",-10.560847072827627],["Deput",-10.561025915534264],["advocate",-10.561165908745064],["peaceful",-10.561498127634042],["Richard",-10.561932371733937],["Gar",-10.56279522798974],["Ontario",-10.56308543663344],["rmed",-10.563775237096042],["downtown",-10.564611093808992],["shoulder",-10.566644686223029],["Eastern",-10.566762742618945],["teaching",-10.567505832404194],["print",-10.56772329867648],["Nav",-10.567779514850393],["photograph",-10.569097805941148],["tting",-10.569657987616194],["Davis",-10.570812335073722],["anywhere",-10.57140546109025],["stead",-10.571499806167086],["cha",-10.572059180450434],["PD",-10.572755551409369],["junior",-10.572768213855905],["stretch",-10.572964274601087],["greed",-10.573047554263555],["Senior",-10.573093385315445],["Cross",-10.57322869196749],["worry",-10.574956738430224],["Wal",-10.575104091761784],["speaker",-10.5765391635468],["Justin",-10.577867059287797],["careful",-10.578617374677169],["surrounding",-10.579467325878873],["admit",-10.579600192569892],["Report",-10.579764550664837],["code",-10.580166281866383],["68",-10.58026243343797],["cycle",-10.580785750444765],["Ital",-10.580931428661529],["outlet",-10.58094778645673],["quote",-10.582370876154677],["ward",-10.582781446048081],["recommend",-10.583238038545028],["extraordinar",-10.58379314027152],["manufacturer",-10.584187634540566],["Please",-10.584541577925723],["heavi",-10.585048946421157],["Catholic",-10.585100692551094],["acknowledge",-10.585895290134516],["Republic",-10.586133410812483],["corrupti",-10.586436672971455],["Award",-10.586923947201313],["narrative",-10.58716138167075],["empty",-10.587210936874488],["enhance",-10.587283897363156],["akes",-10.58742917296166],["Food",-10.587769883855742],["Colorado",-10.58807352693233],["academic",-10.588695565618405],["sweet",-10.588831856305184],["tourist",-10.58948166271115],["assistan",-10.589545799947095],["motion",-10.591495747494804],["folks",-10.59241612023565],["filing",-10.592490867743233],["Sara",-10.5925397725015],["gav",-10.592750895909596],["headline",-10.592773325154724],["clinical",-10.593118179350562],["manufactur",-10.593398276421802],["split",-10.59402603566927],["Ha",-10.595053028556988],["scor",-10.595275577423404],["residence",-10.595411128784564],["equal",-10.595749964982549],["plane",-10.595825401689945],["cryptocurrenc",-10.597740359850144],["violation",-10.598225467806122],["clock",-10.59839271770991],["Thank",-10.598553021165886],["delphi",-10.59950796402589],["videos",-10.599616195150464],["Jason",-10.600181176460332],["ew",-10.600453292380722],["disclose",-10.600490406642749],["west",-10.600524450863205],["Through",-10.601098865786984],["ABC",-10.601257375465352],["oundation",-10.601410652515755],["ceremon",-10.602320319590657],["Clark",-10.602526381713648],["retty",-10.60260925094023],["NH",-10.60262998372598],["frame",-10.603012270876995],["Queen",-10.603048720036014],["too",-10.603342601576463],["mo",-10.603587920706186],["Conference",-10.603652086756423],["arrival",-10.603878602693094],["brain",-10.603912608835175],["dress",-10.605877718575059],["engine",-10.606005683658651],["Iraq",-10.60696129048538],["text",-10.607040518363139],["concept",-10.61000212938384],["Professor",-10.610271780132896],["perspective",-10.61038524926742],["conservative",-10.610387064999966],["Tony",-10.610883255185346],["dramatic",-10.611443914402827],["legislation",-10.61173534988816],["golf",-10.61196911532021],["desperate",-10.612251841878019],["Phila",-10.612873966359393],["NA",-10.613007020101767],["baseball",-10.613098741206548],["plastic",-10.613467638580818],["historical",-10.613735308404275],["load",-10.614452149313111],["views",-10.615035529630738],["ham",-10.615095073070787],["citi",-10.615160110353068],["Drive",-10.615571740168082],["imited",-10.615842071208089],["except",-10.616043389665796],["plent",-10.616230522153867],["Michi",-10.617060908368853],["ey",-10.617377016672393],["followers",-10.617418153711553],["curb",-10.617501386693313],["encounter",-10.618505111415278],["trailer",-10.61887787576547],["recogni",-10.61908009795959],["minorit",-10.619405559535547],["colour",-10.619744444522748],["ext",-10.622878645644288],["lift",-10.623710889680407],["classroom",-10.623793052877282],["signal",-10.623904908169514],["wonderful",-10.624185561648531],["absence",-10.624780485576952],["Season",-10.626048056470857],["proof",-10.62622653176],["sanction",-10.627196772395816],["Plan",-10.627880916920773],["adapt",-10.628228018409835],["demonstrate",-10.628333944289206],["ung",-10.62875211109671],["Israeli",-10.628956671885087],["failing",-10.62921051063022],["presente",-10.6295666354441],["easie",-10.631745455422747],["fishing",-10.631995300084176],["5G",-10.632024957838638],["hole",-10.632442737439696],["submitt",-10.632808431477315],["wheel",-10.63339984419668],["joke",-10.634670409988493],["signing",-10.634671911734694],["Mo",-10.634730597343477],["divide",-10.634769999780136],["cook",-10.635570686442344],["combination",-10.636188028833931],["Science",-10.636199933164526],["UN",-10.636372128165258],["index",-10.63833586394396],["Ali",-10.638517103274348],["pen",-10.638785185389505],["caution",-10.63883797913838],["Las",-10.639461256791904],["Tok",-10.63969446783348],["entere",-10.640176943124445],["neck",-10.640339616422011],["senator",-10.640750813106148],["Agenc",-10.641079693881828],["prayer",-10.64140634328405],["vi",-10.644373777362867],["confident",-10.644625422842115],["restrict",-10.646006307439139],["Boy",-10.64616975966147],["69",-10.64745873028183],["disappoint",-10.647991188693878],["Special",-10.64873007296479],["Joseph",-10.649270406562039],["component",-10.649355420535517],["reserve",-10.649441041440763],["portion",-10.650030946520333],["cancell",-10.650204343719672],["enforce",-10.651058917455003],["cease",-10.651100782087898],["Saudi",-10.65115328693539],["touris",-10.652104930808884],["Kelly",-10.652528071252021],["anxiet",-10.652840962803307],["Patriot",-10.652987738059576],["belief",-10.6532304295791],["unny",-10.653237076473445],["urgent",-10.653471794349969],["abandon",-10.653983885199855],["bail",-10.65418771795067],["cuts",-10.655159156894644],["depth",-10.655301535102268],["lab",-10.655365434135245],["gam",-10.65568355153066],["Lord",-10.655852605745132],["mount",-10.655975980354848],["strengthen",-10.656469572944738],["coin",-10.656580887985317],["reduc",-10.656613257053024],["extension",-10.657159223922964],["bury",-10.657179679618956],["inmate",-10.65820342013634],["96",-10.658758332161081],["Zealand",-10.658925125080751],["63",-10.659707458079176],["driv",-10.659766181962723],["fruit",-10.659801509811347],["Brady",-10.6599078741245],["Santa",-10.661296557503938],["At",-10.66165106471666],["uar",-10.66178162235381],["define",-10.662094756565438],["hey",-10.66251506552847],["86",-10.66291633005487],["reasonable",-10.663519035878105],["impossible",-10.663530825026527],["nominee",-10.664194733479867],["mode",-10.664513572322601],["ier",-10.664698158584496],["fan",-10.66607383028871],["App",-10.666334149738026],["Official",-10.666855202617963],["unknown",-10.666951136163146],["younge",-10.666963357815622],["forget",-10.667817524130811],["exit",-10.668063918105027],["198",-10.66894152260339],["relations",-10.669889184820812],["rent",-10.671363176621089],["misse",-10.672649203501798],["cleaning",-10.672811803896654],["FC",-10.673249629332553],["Saint",-10.673875236757933],["Ju",-10.674536842098167],["Head",-10.675064726497979],["non",-10.675649256262464],["visibl",-10.675970825975018],["Eric",-10.676052341522642],["Sydney",-10.676074041280405],["Houst",-10.676988280744995],["horror",-10.677326158391175],["criticism",-10.677407307789782],["61",-10.677783499526665],["grass",-10.68025065343679],["automatic",-10.680444956597363],["LA",-10.681177909458047],["Area",-10.682175844697632],["fired",-10.682773413372914],["Pa",-10.683955564560115],["banne",-10.684207137269183],["ining",-10.68475825372569],["Down",-10.684992084414024],["remaine",-10.685004108015645],["employe",-10.685225052069605],["organize",-10.685250128449672],["Har",-10.6852923949868],["detect",-10.686217150913183],["Media",-10.686708570703242],["names",-10.686811734945467],["cas",-10.686818227470255],["knock",-10.688051240031996],["Mac",-10.688235565599886],["pursue",-10.688344434438342],["hen",-10.688607500635312],["craz",-10.689423579161016],["YouTube",-10.68956426613919],["champion",-10.689813382985449],["museum",-10.689901566945831],["western",-10.691448525503095],["shirt",-10.69153827926163],["ington",-10.692287574050571],["74",-10.69229052608104],["maxim",-10.693103777251501],["developer",-10.69335318059584],["implemente",-10.693784835775785],["comic",-10.693892858152232],["experienc",-10.69395319393027],["aggressive",-10.694105760794098],["improv",-10.694272054178086],["gather",-10.694339303151636],["signature",-10.695473132948194],["penalt",-10.69570041369899],["Golden",-10.696282242456281],["upper",-10.6968464684661],["scientific",-10.697193248684059],["addresse",-10.698737792506378],["Kevi",-10.69884355678737],["Desp",-10.699520780738766],["stimul",-10.699546779965122],["primari",-10.701602219949741],["Als",-10.702071870932002],["purchas",-10.702077581584538],["Late",-10.70218956599038],["Have",-10.702190956013087],["JP",-10.702808770734963],["send",-10.702876077647236],["ely",-10.703189506561065],["medium",-10.704170451243513],["Ar",-10.704437378973436],["viral",-10.704451478120705],["pocket",-10.704458197684728],["HO",-10.704584326399335],["Guyan",-10.704835271993083],["wound",-10.705252769368188],["install",-10.706137966780634],["harm",-10.706311830248136],["quit",-10.706523247556158],["fix",-10.706799214177089],["anger",-10.70773991599183],["storage",-10.708533579617235],["sustainabl",-10.7094902398451],["violent",-10.710162794146965],["Josh",-10.710188014766343],["fundamental",-10.713254242274983],["sta",-10.713528864986957],["et",-10.713914762111695],["Henr",-10.714074001244427],["genuine",-10.71625673443075],["condemn",-10.717531118270397],["Bitcoin",-10.717747682093425],["Bengal",-10.717830705762193],["Further",-10.717953071799657],["context",-10.717995155934862],["behaviour",-10.719274657736864],["ize",-10.719346896833532],["marked",-10.720445639744188],["chart",-10.720826331869496],["smartphone",-10.721478853734856],["itness",-10.721709587540083],["shutdown",-10.721898069030981],["fille",-10.722022934487693],["oing",-10.723221580037341],["minor",-10.723734190862864],["ts",-10.72457368122544],["Louis",-10.725312293531866],["ignore",-10.725539556694581],["surger",-10.725543607880658],["Out",-10.726654283282318],["scenes",-10.72741996029982],["Rose",-10.727484730455831],["Ford",-10.727614113119824],["Bost",-10.728099104376316],["repair",-10.731563996496082],["Stadium",-10.732101680258506],["Wilson",-10.732272450914799],["Airport",-10.732423685997599],["Hope",-10.73262868872321],["favourite",-10.732666044279005],["intervention",-10.733477089083955],["haven",-10.733730368282973],["Check",-10.733949675404851],["celebrit",-10.73421875153143],["aimed",-10.734578855887815],["negotiation",-10.735133244468994],["Space",-10.73614668966712],["81",-10.736575227443524],["boss",-10.737516884744508],["epidemic",-10.73787518743765],["gym",-10.738564622144755],["intende",-10.738648358875512],["exclusive",-10.739369954115311],["laugh",-10.739462969112408],["racist",-10.739813637393809],["Time",-10.739922180797013],["stronge",-10.739986053556223],["sub",-10.740284413143812],["polis",-10.741075282207646],["proceed",-10.741962467819715],["Spring",-10.742658456258493],["currenc",-10.742961055936407],["attle",-10.743021616716323],["intention",-10.743163167781619],["destroy",-10.743558309764133],["que",-10.743995261122382],["burg",-10.74431808203817],["ac",-10.74483563982559],["aged",-10.745981898678867],["elder",-10.746123815097034],["trac",-10.746253972288446],["Investor",-10.747677021312578],["Are",-10.747859742954464],["respirator",-10.7479227864741],["Old",-10.748824683174814],["shock",-10.749274064912612],["89",-10.751236301785486],["efore",-10.752118339603356],["gate",-10.752410918466339],["Perha",-10.752991354370707],["basicall",-10.75409130608209],["Sky",-10.755111637103525],["pe",-10.755276999622328],["nurs",-10.756035878484386],["97",-10.756133271571972],["strange",-10.756726808636994],["foundation",-10.756880554542011],["79",-10.757624750970507],["bas",-10.75845862608275],["passion",-10.758580708441485],["migrant",-10.758840687603271],["occur",-10.759131254883078],["flat",-10.759489292877582],["nless",-10.760080280468895],["allowe",-10.760144449620455],["coffee",-10.760627302806764],["EC",-10.760957571279341],["Pacific",-10.761227467751773],["Division",-10.761514305509165],["podcast",-10.761646121527331],["vessel",-10.761787761520512],["Sea",-10.76274874142208],["insist",-10.76299682352456],["territor",-10.763441139908892],["comply",-10.763726276263576],["intensive",-10.764066681920788],["gains",-10.764234254609246],["Stan",-10.764853044348824],["subsequent",-10.76506222362454],["defence",-10.765637130203125],["Lady",-10.765820375096062],["unting",-10.76613253740301],["inning",-10.766556719679166],["ez",-10.766953205935486],["Angel",-10.767157882523506],["trained",-10.767763460311178],["Bernie",-10.76793158496178],["fake",-10.767950569941338],["gap",-10.769167022750498],["Never",-10.76930987732905],["burden",-10.769590550398611],["Five",-10.770045934952172],["98",-10.77132541190311],["assign",-10.773760785045294],["thus",-10.774286214332129],["Night",-10.774397975577344],["stresse",-10.774952607308972],["Safe",-10.775010496284827],["polic",-10.77504029796215],["thre",-10.77647053453705],["za",-10.776693551549618],["civilian",-10.776816359783176],["unusual",-10.776989304682086],["apped",-10.777228537668446],["Whe",-10.777374230674468],["Megha",-10.77742978781658],["Mumbai",-10.777742662753973],["Mont",-10.777945553079746],["registration",-10.777953772477241],["mile",-10.777971003154018],["ence",-10.778218762538021],["joy",-10.778260996276867],["Associate",-10.778347652659884],["squad",-10.77952791590236],["provinc",-10.779748090742011],["Brian",-10.78003318834223],["adviser",-10.780436745494463],["musical",-10.7813260027224],["Ghana",-10.781661988967532],["120",-10.781830232292869],["weigh",-10.781971763745613],["association",-10.782020691400106],["Minne",-10.782719512047246],["anniversar",-10.783711961559646],["oting",-10.783889838466834],["ri",-10.785375729691541],["inch",-10.78564445419282],["Thi",-10.785808103912562],["watche",-10.785846866401391],["cable",-10.786172535263448],["cy",-10.78631273758082],["absent",-10.786401095865951],["Eagles",-10.78662470432063],["nine",-10.78710134147224],["Zimbabwe",-10.787105825259506],["nchester",-10.788244534094417],["substantial",-10.788669594005299],["ost",-10.788686483162245],["197",-10.789165262961049],["Modi",-10.789583715398274],["label",-10.789689215698742],["prompt",-10.789892322557918],["II",-10.789997651025566],["ootball",-10.790186747713213],["AI",-10.790443255908746],["convince",-10.790498984770679],["pictures",-10.790909378090657],["Brexit",-10.791329889069095],["pattern",-10.791460248424297],["horse",-10.792081277036619],["Financi",-10.79208704128453],["destination",-10.792326003443044],["Warr",-10.792843924896063],["exten",-10.793119651008162],["Cooper",-10.793135281729018],["reward",-10.793676022452269],["heading",-10.793800367707238],["Leader",-10.794396571540446],["error",-10.795326613818451],["ride",-10.795405725949687],["trigger",-10.796229672854334],["ven",-10.796553318630362],["trillion",-10.79792098926875],["neighbour",-10.798487730581147],["mi",-10.798561180201023],["emerg",-10.799628600940675],["SE",-10.800413109894897],["Defense",-10.800694753092461],["Den",-10.801463639131164],["ere",-10.801465123929987],["resort",-10.801559655569758],["hared",-10.801828864223719],["planet",-10.803010778775777],["Societ",-10.8031146010367],["steal",-10.804138911254238],["smoke",-10.804430025866019],["Grant",-10.804540934982082],["pent",-10.804564116941227],["kTok",-10.8046928706231],["Jeff",-10.805180821380482],["beaut",-10.806305653790677],["convict",-10.806573312896163],["rac",-10.80658534300391],["GO",-10.80659613010813],["Thompson",-10.806691069490107],["Dakota",-10.806716926347498],["Palestinian",-10.806725404832518],["rang",-10.806959670535374],["manag",-10.807028569993061],["creation",-10.807526288974993],["barrier",-10.807618317030784],["musician",-10.807626321722104],["institutional",-10.808350913900103],["Common",-10.808924299258557],["Italian",-10.80911156484474],["retain",-10.809232150414188],["hospitaliz",-10.80939509378268],["teammate",-10.809412388011015],["Anth",-10.809961197911727],["ends",-10.809993533622038],["assistant",-10.810034244851181],["Sony",-10.810483694671055],["format",-10.810529581453473],["kin",-10.810680454291361],["Chin",-10.811864644425082],["fulfill",-10.812303453587553],["mis",-10.812384421217029],["employ",-10.813132922439419],["Matt",-10.81381221505953],["turns",-10.813834951130023],["itten",-10.814117514456353],["Clint",-10.814661091691029],["cruise",-10.815002225596455],["SA",-10.81647398717001],["pregnan",-10.817414698964871],["terrorist",-10.817584217545058],["GDP",-10.817740699416056],["curve",-10.8179401684993],["mainl",-10.818161181980424],["rs",-10.819235378187527],["bid",-10.819276765516912],["owne",-10.819393148882948],["adjust",-10.819708118012626],["EP",-10.81998810702342],["cream",-10.821152187776153],["weak",-10.821718456119651],["drivin",-10.822575558069694],["mandator",-10.823776145191076],["practical",-10.823798169431878],["ramp",-10.824112655630508],["Which",-10.825902477376083],["Con",-10.82630129407969],["innovation",-10.826621834130151],["independenc",-10.82706665247348],["satellite",-10.827105115481928],["Bob",-10.82787185001748],["Master",-10.82789480424011],["solve",-10.827969301448721],["ol",-10.828068220293941],["TON",-10.828361170518646],["Wall",-10.828480863903842],["Wood",-10.828500498765472],["sumption",-10.828543807862694],["Hamil",-10.828788700480823],["types",-10.829198901903247],["Matter",-10.829348538685053],["ned",-10.829358530550774],["appointe",-10.829384881973843],["91",-10.830179412096026],["handed",-10.830438137885292],["admission",-10.830666286982787],["Jay",-10.831059200853016],["mom",-10.831550567472071],["reader",-10.831553232314844],["gradual",-10.831636986418022],["Rich",-10.832938641419908],["fears",-10.835682198065955],["pu",-10.836292926916048],["qualify",-10.836771519043545],["rank",-10.83689411453193],["confront",-10.837231842518264],["understo",-10.837303715159365],["captain",-10.83840817945983],["cluster",-10.838545195374484],["portfolio",-10.838691285843698],["bedroom",-10.838758258108427],["mountain",-10.838826110831505],["portray",-10.838855004394226],["warrant",-10.839043521721319],["progressive",-10.83943205938959],["referred",-10.839546425802798],["wit",-10.839592847326198],["eager",-10.8397609371478],["Highway",-10.83978701366184],["ization",-10.840200155468953],["rushe",-10.840562999565245],["impressive",-10.840599286148088],["Music",-10.840822951963489],["Utah",-10.840839175663938],["crack",-10.840949610367108],["cabinet",-10.84097139554368],["Chair",-10.841144313026426],["acquir",-10.84252378007092],["performing",-10.842801958583987],["bike",-10.843211443801586],["achievement",-10.843530378375949],["hang",-10.843683369565518],["seeming",-10.843847692332197],["beating",-10.844303780985825],["infectious",-10.844343123650658],["Irish",-10.844519282516751],["citing",-10.84591915710313],["gging",-10.847093104093473],["Indiana",-10.847636432503005],["eastern",-10.84768157494332],["USD",-10.847927766516978],["buyer",-10.84803706281644],["divorce",-10.848108562253788],["edition",-10.848623881488844],["engagement",-10.84895765246985],["rolling",-10.849043492652553],["agenda",-10.84965775112536],["Ca",-10.849663219843027],["calm",-10.849918947832698],["ak",-10.850211144797028],["smalle",-10.85021885034871],["inform",-10.851035508597052],["technologi",-10.851744138228083],["Base",-10.85181737475076],["rebound",-10.852058850199972],["lunch",-10.853339870700172],["petition",-10.85403122220934],["principal",-10.854497154188993],["Current",-10.85466306173342],["Little",-10.854674319948568],["interact",-10.854724346848567],["USA",-10.854789105242519],["qualifie",-10.854884242879443],["Top",-10.855026430287237],["helicopter",-10.855432101898192],["lung",-10.855498939711309],["harvest",-10.855972616464134],["Guard",-10.857209264383975],["sing",-10.857252870709662],["advertis",-10.857495016992704],["headquarter",-10.858001069508251],["arrangement",-10.858163788850149],["WE",-10.858191739576895],["ine",-10.858233161642985],["begu",-10.85858243145475],["shall",-10.858822892007037],["powers",-10.85923105641031],["osses",-10.85930780594536],["mixe",-10.859940975048822],["Bridge",-10.859983684225718],["tagram",-10.86020822061705],["87",-10.860210866534121],["Mitchel",-10.860304874305985],["Patric",-10.860388632205225],["extensive",-10.860475952986132],["pur",-10.860508071619257],["NSW",-10.86092547611043],["Moore",-10.86149151096646],["deposit",-10.861610006400177],["cing",-10.862682268438093],["commissioner",-10.86280137387417],["retailer",-10.863281017453836],["fee",-10.863533412741528],["brilliant",-10.863708614331049],["efficient",-10.864343769900868],["NBC",-10.864893721765561],["fixe",-10.864906432482165],["critic",-10.864967291517209],["branch",-10.864981728116952],["plead",-10.865283251215347],["Financ",-10.866035780332894],["counsel",-10.866698618631109],["funeral",-10.866909403624506],["Ex",-10.867408920193908],["knee",-10.867850477465808],["Stephen",-10.867955222136958],["carbon",-10.868265740376867],["moral",-10.86931758265198],["Ram",-10.870554058261234],["pai",-10.870815542464143],["conclusion",-10.87089477602351],["SARS",-10.871039811840955],["Prevention",-10.871135998242051],["demonstration",-10.871545960752133],["sponsor",-10.871574921202924],["villain",-10.871904283801921],["accessib",-10.872125939510786],["meter",-10.872763615751195],["expansion",-10.873360832718841],["Net",-10.873890121180633],["rough",-10.873899771739797],["Li",-10.874179713415472],["finger",-10.874561918639847],["adopt",-10.875319800490601],["Gulf",-10.875399408118806],["assume",-10.875408918243703],["Radio",-10.875429994116228],["Call",-10.876035114497183],["Gen",-10.876379880006763],["Spani",-10.876582415954363],["Kenya",-10.876814291654764],["electronic",-10.877483473268871],["Boris",-10.87774175009718],["educational",-10.878033029787321],["deadline",-10.878674967062341],["pose",-10.878777851155384],["?\"",-10.879173745349892],["Does",-10.87927558479414],["packe",-10.879323430035353],["Awards",-10.880780915384719],["Phil",-10.881079178369],["climb",-10.881167672255291],["passionate",-10.881670788282687],["tenanc",-10.881692687109336],["instant",-10.881911125372225],["uhan",-10.882806496510419],["venture",-10.882807101841447],["flower",-10.883162429212874],["formal",-10.88368239727098],["compromise",-10.883717493840376],["bowl",-10.884360735939289],["Pay",-10.884938741678187],["evil",-10.88499563067107],["screening",-10.88521560002723],["tension",-10.885295217644034],["ail",-10.88569008846303],["Di",-10.885860416531958],["ix",-10.886206353435501],["urg",-10.886881931497912],["Roberts",-10.887125418114204],["sugar",-10.887362762906664],["Organization",-10.887680422567467],["continent",-10.887745123012884],["cited",-10.888133226630526],["ncies",-10.8883884027208],["Mi",-10.888442640171757],["Tiger",-10.888623407499361],["alarm",-10.888861649046433],["eaching",-10.889250303171018],["ory",-10.889573720870107],["Stone",-10.889785619653775],["Am",-10.89031388200815],["Lives",-10.890392990854398],["fantastic",-10.89039392141175],["Should",-10.891178274578799],["promotion",-10.891350507060153],["Massac",-10.891585421250465],["houses",-10.891992069358253],["lady",-10.892499463003828],["latter",-10.892600398817386],["impeach",-10.89292113135086],["Dieg",-10.893159037399668],["apart",-10.893405044590338],["onic",-10.893422245090315],["personalit",-10.893506468193365],["console",-10.893665187469587],["celebrat",-10.893709135400822],["exam",-10.893980666175203],["eliminate",-10.895381805752752],["nominate",-10.896382016686344],["smooth",-10.896597511669853],["cinema",-10.89679551331189],["grante",-10.897003148956333],["res",-10.897440105691082],["Ross",-10.897953689392946],["crucia",-10.898790405440792],["Childre",-10.899281180666698],["betwe",-10.899434395866773],["sufficient",-10.899697346598323],["ang",-10.899952170274323],["bear",-10.902208255883927],["Unit",-10.902297243073939],["suicide",-10.90246655136194],["issing",-10.902693470310652],["Ver",-10.90275411655387],["tree",-10.903035276721646],["librar",-10.903591934051029],["categori",-10.903988577832195],["Oregon",-10.904132550143128],["privilege",-10.904404100431496],["Affair",-10.904685425068132],["las",-10.904705058304291],["Emergenc",-10.90480251496378],["Agricultur",-10.904940194711315],["Civil",-10.90536863098562],["missile",-10.90601697593324],["Mountain",-10.906047463646445],["citizen",-10.906549233082263],["73",-10.906634535104025],["obligation",-10.907887972921808],["dynamic",-10.908518444752659],["Ever",-10.90974545759521],["explosion",-10.910032818242781],["94",-10.910569499601621],["Nick",-10.910703063797001],["clinic",-10.910914142062065],["mad",-10.911546012334576],["roots",-10.911717420661539],["Again",-10.911745611055016],["ru",-10.912413869411685],["ja",-10.91272093284538],["silver",-10.912965642293832],["panic",-10.913098745250277],["string",-10.913759342788818],["Marc",-10.913877967446966],["ritte",-10.914372097048496],["plate",-10.9145875060004],["workplace",-10.914924168133247],["tribute",-10.915685137376686],["Hous",-10.915926388892355],["select",-10.916712166637804],["overnight",-10.916942917565573],["Tim",-10.917532747381504],["whos",-10.91789176235609],["Take",-10.918042831084573],["adequate",-10.918057638098524],["moderate",-10.918270588587749],["*",-10.918382332104237],["counted",-10.918407185697102],["toilet",-10.918880085653957],["Murphy",-10.9215773045294],["Montreal",-10.921654660197515],["unveil",-10.921682117934587],["grateful",-10.921762490051005],["boyfriend",-10.922164718888489],["intense",-10.92239113641569],["devastating",-10.923213995743865],["labor",-10.924125954954913],["Transport",-10.924134780566295],["Constitution",-10.924518517152588],["interaction",-10.924559250249942],["integrate",-10.925253065089208],["ealing",-10.926734118080725],["Su",-10.927129720133191],["liste",-10.927268378758423],["barrel",-10.927419597881032],["lik",-10.927686356695085],["cyber",-10.927925658148819],["priva",-10.927994063015788],["experiment",-10.928400763763376],["82",-10.928448385825579],["Program",-10.928540555961463],["Main",-10.929026180415793],["replie",-10.929496624223638],["technique",-10.929537364212102],["editor",-10.930339323515318],["Ga",-10.930520680087895],["Tech",-10.931468434518997],["complicate",-10.931648658250921],["log",-10.933234732325294],["mini",-10.93398675394301],["runner",-10.934004584856615],["lowes",-10.93407811958528],["Forest",-10.935579864053867],["posed",-10.935711536380428],["pledge",-10.936036068231553],["Bell",-10.93699782705548],["2000",-10.93759917466884],["corn",-10.938178966912421],["milk",-10.938408827306887],["Ja",-10.938545558304774],["Chi",-10.93876346231415],["chapter",-10.939215771277325],["summar",-10.939236447693533],["mild",-10.939337762890062],["ventilator",-10.939344587539923],["Arab",-10.939390681508804],["notabl",-10.9397644947053],["GM",-10.940014820751419],["discusse",-10.940139611589839],["Alabam",-10.940262576469529],["disabilit",-10.94059682475254],["rumor",-10.940664744048116],["cop",-10.940717445818851],["Anderson",-10.940902955985262],["helpful",-10.940904217804892],["counti",-10.94094720581792],["attendance",-10.941029483316726],["ans",-10.9414297023404],["skill",-10.941582063541308],["boxe",-10.94243755637627],["HS",-10.942451220454963],["ding",-10.942480095573778],["OK",-10.942483470253075],["Such",-10.94249506666694],["PPE",-10.94267632290778],["dismiss",-10.94283850951301],["Miller",-10.943225699373285],["rapper",-10.943364027091409],["ime",-10.94349836095047],["Pat",-10.943541386623153],["Beat",-10.944229321937073],["affordab",-10.944589127405944],["proceeding",-10.945094024836012],["lled",-10.94526733731442],["reliabl",-10.945831996069753],["leav",-10.946013804645471],["seat",-10.94606107872948],["Fin",-10.946485874123884],["BA",-10.94669401066648],["premise",-10.947303932992597],["lowing",-10.949082172617837],["rooms",-10.949642746953092],["Farm",-10.949758271568601],["insiste",-10.949764845659463],["Read",-10.950175221757059],["surveill",-10.950192030155158],["Thes",-10.951795342889849],["ism",-10.951846177883782],["minim",-10.951944241616411],["upporters",-10.951965547816016],["PR",-10.952150925324297],["ie",-10.95311713446673],["Na",-10.953159408852509],["Sever",-10.953265394767225],["Cook",-10.953443438574972],["gear",-10.954227488584449],["gross",-10.955014222569886],["realise",-10.956416603631638],["Brazil",-10.956864724551613],["Vietnam",-10.957011889097245],["Alexander",-10.95703042320947],["Galax",-10.957034174153033],["Channel",-10.957058527444868],["frustration",-10.957240322515938],["igh",-10.957275325980977],["chicken",-10.95767971808348],["Austin",-10.957753167027224],["Zack",-10.958028034144604],["Oscar",-10.958199075641385],["ockey",-10.958235299129864],["southern",-10.958375372211645],["publish",-10.958497371555357],["Speaker",-10.958941724913352],["Sa",-10.959043852510831],["terribl",-10.959443860742837],["immunit",-10.960002243923627],["Test",-10.96018435339574],["favour",-10.960712913645374],["ack",-10.960769806134596],["hitting",-10.960859929342266],["1960",-10.960906740800812],["spaces",-10.96135312018526],["heir",-10.961928530309358],["controlle",-10.962010045126451],["Atlanti",-10.962015380778263],["Da",-10.96241397015709],["smile",-10.96253708236527],["breach",-10.96271456190772],["honour",-10.96289237734886],["bread",-10.963674582726567],["Hawaii",-10.963988784360287],["emotion",-10.964367492874597],["deficit",-10.964911332064315],["oved",-10.964946737729454],["complet",-10.96521911048322],["shield",-10.96589920828663],["everal",-10.966224222812633],["exception",-10.966553254359175],["physician",-10.96692487468557],["ore",-10.966978852099924],["clothes",-10.967946291967564],["dogs",-10.967971279690268],["lan",-10.968841178718115],["Fall",-10.969037589741077],["fin",-10.969059474246645],["iscal",-10.969145922486526],["Kyle",-10.970267209352325],["anyway",-10.970386792080586],["hairman",-10.970628939642072],["narrow",-10.971590787185969],["prohibit",-10.972359965123127],["washing",-10.972635143187127],["metre",-10.97287183085814],["band",-10.972923014537631],["premiere",-10.97298769753047],["wing",-10.973120114754277],["pray",-10.973213835295656],["instrument",-10.974151431069615],["Mil",-10.974301920111602],["overwhelm",-10.97436566553931],["Corporation",-10.975227898563663],["laptop",-10.97531473621029],["preparation",-10.975771806008071],["nted",-10.975942539401188],["Hotel",-10.97645373959606],["discharge",-10.976742039229617],["Manager",-10.976789946509475],["statistics",-10.97681100989472],["stakeholder",-10.976896965441272],["Wild",-10.97758200682109],["carrier",-10.977743520762685],["implementation",-10.97801363101556],["immigrant",-10.978050206556741],["commit",-10.978210735267172],["publication",-10.978611118048086],["visual",-10.97872702217147],["Coin",-10.980274875025131],["hos",-10.980457607654099],["creator",-10.980647412598254],["firefighter",-10.98067053974826],["advisor",-10.980855892110629],["recommende",-10.980883976711148],["fatalit",-10.980892525274077],["paint",-10.982061873559434],["istan",-10.98230466686242],["rity",-10.982512569447088],["Tha",-10.982642621634943],["stone",-10.982665206589623],["salar",-10.982842853603703],["drew",-10.9835946251826],["robber",-10.984500054419794],["Make",-10.984957097936757],["liberal",-10.985032789329606],["Given",-10.985412612717912],["weird",-10.985767053569187],["fe",-10.98580297066762],["drawing",-10.986284807148827],["transferr",-10.986390540685626],["83",-10.987163644382049],["laid",-10.987352834658342],["Next",-10.987432162527435],["discount",-10.987449022152983],["hous",-10.988518243292567],["row",-10.988764282230907],["await",-10.988799374212196],["inches",-10.989052788735096],["activists",-10.989451019993101],["equipp",-10.990039369096191],["Sometime",-10.991841248104649],["winds",-10.992510609815263],["istance",-10.993454800566631],["Illi",-10.993506935827313],["Bear",-10.9936854318221],["Museum",-10.993696013218981],["principle",-10.993701380353095],["Charlotte",-10.993737200504434],["Leban",-10.994252149619165],["Bureau",-10.994351377752505],["reputation",-10.994462304412394],["Collin",-10.99457094226072],["NASA",-10.99467473651383],["topping",-10.995098556362072],["magazine",-10.995120410243327],["92",-10.995457715572297],["contrast",-10.995528574032381],["Morrison",-10.99558045024545],["Simon",-10.9959005273267],["Charli",-10.995940182846734],["Jenn",-10.996547047305903],["drone",-10.996904944970124],["Dallas",-10.997113678327496],["Abu",-10.997321690504194],["Information",-10.997351995983665],["complain",-10.99771983257299],["2003",-10.997799458013716],["presiden",-10.997868152302015],["Trade",-10.997951080068207],["Add",-10.998210829611054],["van",-10.998221574762644],["taxpayer",-10.999136874942344],["Evans",-11.00167754733666],["NN",-11.002356380620164],["FB",-11.002546565893601],["ck",-11.002867308646284],["PP",-11.003168854131069],["expression",-11.003430486140774],["graphic",-11.003668396717732],["Six",-11.003681904316434],["communicate",-11.006256737769455],["temporari",-11.00692355509108],["spark",-11.00768043857165],["coache",-11.007811589254654],["q",-11.008467887678314],["restore",-11.008623029049867],["talke",-11.008941152744388],["permitt",-11.009033934381119],["cal",-11.009373176868909],["bubble",-11.009470957874164],["Anna",-11.010014065478908],["Mor",-11.010059663775982],["proven",-11.010504480245267],["Crow",-11.010556431062712],["jing",-11.010718826457287],["Members",-11.011214235961383],["orry",-11.011604065643283],["gettin",-11.012271744571738],["everyday",-11.012327715399014],["Nevada",-11.012537936859767],["vegetable",-11.012552018100118],["consecutive",-11.012573238722858],["compliance",-11.012790200035258],["ensur",-11.012955563653566],["walke",-11.01297235568203],["Building",-11.013043816220657],["conspirac",-11.013105027083762],["girlfriend",-11.013268303617425],["drastic",-11.013344089888248],["Games",-11.013837921681091],["disappear",-11.013992848010167],["linke",-11.014145370023769],["controversial",-11.014146728530148],["disruption",-11.014210004744756],["recession",-11.014314414020355],["Cape",-11.014592679946496],["mph",-11.01502703665223],["loud",-11.015886454037306],["stadium",-11.01650453707811],["investigator",-11.016876074461823],["comed",-11.016942460832023],["Mount",-11.017423543761742],["motor",-11.017726039197576],["attitude",-11.018178179621769],["viation",-11.018192513977269],["sanitizer",-11.018484552438961],["Major",-11.018546994935031],["inspiration",-11.018709609585956],["overwhelming",-11.018877495642892],["interior",-11.019125921458],["liquid",-11.019361151128846],["designer",-11.019595299468595],["promis",-11.019724189859],["marks",-11.020691529220143],["Barrett",-11.020897636775164],["Gree",-11.021060183843755],["Korean",-11.021141146067063],["aster",-11.021160176292414],["parliament",-11.021379161353797],["Rep",-11.021834530324568],["click",-11.021915693083585],["resign",-11.021970136373497],["overcome",-11.02214469359532],["Technology",-11.022816477571414],["teenager",-11.02338189692341],["blast",-11.02370211933696],["aybe",-11.024082800813918],["roster",-11.02527673745773],["Class",-11.026724480281516],["lin",-11.027650284554714],["ID",-11.028904961998522],["operational",-11.029227713516034],["Cal",-11.029669394569954],["CU",-11.030272807714121],["ove",-11.031789075341617],["Festival",-11.031819573225622],["prefer",-11.031844359331826],["Muhammad",-11.031848785023996],["Arts",-11.031877440949739],["Chelse",-11.032153941240843],["friendl",-11.032162702348556],["tra",-11.032264325602677],["conviction",-11.03229597769613],["Credit",-11.032317749454997],["strain",-11.032370442849611],["CMP",-11.033286058113088],["announc",-11.033331010396147],["succeed",-11.033483997619056],["Resident",-11.033645447716168],["replacement",-11.033732683964713],["Turki",-11.033817886414688],["participati",-11.033908389554481],["Jew",-11.03440914202501],["Orange",-11.034651059911244],["Video",-11.034678965047437],["Olympic",-11.034691909373981],["Brad",-11.034887962814176],["encourag",-11.035043627823878],["neutral",-11.03551266024424],["1990",-11.03602276466988],["departments",-11.036327253011718],["Book",-11.036481398967815],["harass",-11.03648163299497],["hem",-11.036695453536296],["Small",-11.036857403232753],["Baker",-11.037363753719417],["brown",-11.037510890776051],["ASDA",-11.03770509101598],["ical",-11.038098287249083],["Un",-11.038833818573883],["examine",-11.039246900127543],["becom",-11.040201510261506],["NY",-11.040861435956165],["coal",-11.042659661479235],["ional",-11.043293140946947],["luxur",-11.04370564607397],["assess",-11.045137904743974],["sentiment",-11.045321521271289],["acult",-11.045607279431056],["repeat",-11.046068387969257],["genre",-11.04612303055305],["Dub",-11.046743009975888],["prominent",-11.04728557200367],["noise",-11.048183410527074],["ipping",-11.04857847496034],["insight",-11.048844563885304],["Kate",-11.0493422789755],["enterprise",-11.04968703111916],["emphasize",-11.049740645877684],["scar",-11.04975821341637],["courts",-11.049943233081208],["surround",-11.050182708469858],["landscape",-11.050329186797832],["forest",-11.050394181998023],["lies",-11.051242679748304],["ning",-11.051348478366387],["Brooklyn",-11.051403403064763],["Halloween",-11.051497478879636],["ocean",-11.051512993179044],["Sir",-11.051566849919013],["useful",-11.052565469273695],["pickup",-11.053041419386055],["premier",-11.053458148164331],["coalition",-11.053660563911313],["requir",-11.053976929361726],["roughl",-11.054375557705464],["elect",-11.054793734130378],["lated",-11.054862124203805],["wishe",-11.055062660701026],["Film",-11.055095633804546],["theatre",-11.055226340296139],["1970",-11.055294244772753],["ami",-11.055859516638614],["2023",-11.055882296255668],["contractor",-11.055901012937605],["Ki",-11.055971439982045],["Inter",-11.056302773132723],["Jesus",-11.056341781095359],["Vanc",-11.05748630060598],["refugee",-11.057729500031312],["destroye",-11.057911504421146],["OS",-11.058321614762225],["micro",-11.058333799080811],["Phase",-11.05859573736204],["adopte",-11.058725703976132],["script",-11.059280171137436],["boast",-11.05960285376389],["Bruce",-11.059703231926875],["rail",-11.05997131968361],["universal",-11.060534846069622],["literal",-11.06072321422686],["regret",-11.061479113842957],["Fans",-11.062469714951352],["silence",-11.062481131217387],["authori",-11.062505639530443],["undergo",-11.06404119829484],["consist",-11.064279409761577],["electoral",-11.064323608816425],["opposite",-11.06467761418956],["sensor",-11.065039208437927],["metal",-11.065144612747302],["gathere",-11.066272576139443],["productive",-11.067113267759591],["Dece",-11.06733730674635],["stat",-11.068994726629446],["onl",-11.06900683436446],["legitimate",-11.069846867588321],["BB",-11.070362714683776],["renew",-11.0706176708646],["Captain",-11.071493375227613],["Philippine",-11.071527342225693],["departure",-11.071710777108688],["mortgage",-11.071805869475828],["myster",-11.071934852943247],["Resource",-11.071945257028716],["hel",-11.07221315832779],["specialist",-11.072916989493814],["Warner",-11.073122403161582],["Order",-11.073381432829756],["aring",-11.073604307006036],["spell",-11.07361151934218],["Carl",-11.073633857482166],["antibod",-11.07379402805357],["submit",-11.074231047349624],["Aaron",-11.074622761537452],["Fair",-11.075013408540242],["mine",-11.075264283447986],["religion",-11.075488862421302],["sensitiv",-11.07602351916239],["Jon",-11.07609218912731],["Kent",-11.076349297900286],["shower",-11.076471389151273],["chemical",-11.076500394246146],["timing",-11.076588543785878],["stable",-11.07667096463956],["delight",-11.077159953444287],["entrance",-11.077199463952745],["Did",-11.077221015167638],["uncertain",-11.077267047698125],["input",-11.0787640090128],["ordinar",-11.079184858471265],["Jet",-11.079203288705136],["posts",-11.07977099701312],["vendor",-11.080292913059479],["earth",-11.081082998034127],["probe",-11.08136581534977],["Kan",-11.082717656114122],["ee",-11.082802006482396],["empower",-11.083319785033089],["Tho",-11.084314302284332],["lea",-11.084504313440412],["gu",-11.084649043288078],["Barr",-11.084677982288756],["constitutional",-11.085524927724865],["stole",-11.086530680541278],["march",-11.086549948785931],["transit",-11.087382152947932],["defender",-11.087509929669693],["Par",-11.08976781720936],["sacrifice",-11.090344521119878],["oppose",-11.090867849966084],["wi",-11.091101961707736],["der",-11.091196100844238],["Columbia",-11.091357703007013],["₹",-11.091782395573567],["Representative",-11.091852959417565],["Village",-11.091981082413662],["curfew",-11.092207982811312],["laborator",-11.092284107761003],["Matthew",-11.092323124966418],["comprehensive",-11.092412541108345],["Atlant",-11.092428816383727],["Anti",-11.092957292499626],["dominate",-11.092979043561819],["attribute",-11.093164421456226],["permission",-11.093188302586665],["Roger",-11.093432004366697],["lifestyle",-11.093525005638458],["Panther",-11.093741214730805],["Studio",-11.093809385873021],["ound",-11.095066295320612],["Portla",-11.095506324327097],["Adams",-11.096610379117338],["recognise",-11.096622691012483],["FA",-11.097307346001692],["Balti",-11.097946460857102],["muscle",-11.098385922242363],["dale",-11.098773749000625],["performe",-11.099156450836558],["button",-11.099470436219828],["Cha",-11.100687476265449],["desk",-11.101042227285618],["%,",-11.101638555472402],["sequel",-11.101696665001851],["Per",-11.101855868190341],["jumpe",-11.102330543536967],["Reserve",-11.102792841963174],["habit",-11.103062476289999],["awarde",-11.10336545985578],["seize",-11.103595579021347],["Being",-11.104084615039236],["lands",-11.10412987871469],["spoken",-11.104187904016374],["Land",-11.1042695347506],["ile",-11.104817170889618],["weren",-11.10556848524934],["posting",-11.105644745335354],["unemploy",-11.105771187925214],["navigat",-11.106791904853454],["map",-11.107147076528179],["reiterate",-11.107346075864065],["assure",-11.107591376708731],["easing",-11.10775526505943],["71",-11.108100561814908],["Tennesse",-11.108340950120066],["shoes",-11.108525686644722],["fighter",-11.108840776461383],["cheap",-11.10939045707964],["Pelo",-11.109959742045227],["Robins",-11.110320784161562],["Easter",-11.110367797634],["GB",-11.1114396641433],["till",-11.111762483025284],["processe",-11.112094208027596],["Get",-11.112141009841649],["Aberdeen",-11.112615909127774],["jurisdiction",-11.112617304564143],["Fauci",-11.112624588265032],["Kingdom",-11.112670889195034],["Reuter",-11.11273379927531],["Future",-11.112802707828939],["emission",-11.112917250258409],["counterpart",-11.113140908917739],["Scotti",-11.113189273382716],["hiring",-11.113223260688766],["premium",-11.113276044270792],["Viking",-11.113366431869585],["dismisse",-11.113687947379768],["documentar",-11.113729627716895],["injustice",-11.113781413769097],["simpl",-11.11415788624767],["crowds",-11.114566254322973],["ired",-11.115015061276702],["adventure",-11.115195690549386],["wick",-11.115573899155665],["bitter",-11.115638728080862],["settlement",-11.11611997321101],["substance",-11.116262751801603],["consideration",-11.117487878038927],["showcase",-11.117668886837077],["ster",-11.118048094129579],["tragic",-11.118716302796603],["amendment",-11.11902378418505],["Dave",-11.11902978298649],["chest",-11.119363280444336],["uck",-11.119567282815945],["Staff",-11.11962349380641],["Bel",-11.11979132782424],["pipeline",-11.120066261483574],["Putin",-11.120529416616652],["custom",-11.120970047964988],["snap",-11.121419285273829],["Along",-11.12150248054795],["DA",-11.122040469233344],["Islami",-11.122138523890452],["dropping",-11.12224191851211],["ative",-11.122248703905331],["snow",-11.122488070341658],["recipe",-11.122608039326039],["origin",-11.122695102685416],["yet",-11.123134166921714],["MS",-11.123356011587521],["93",-11.123655004051978],["bomb",-11.123724206350394],["stunning",-11.124434988716278],["educate",-11.124633412977252],["Airline",-11.124636947595583],["obust",-11.124650001562511],["Seven",-11.125167944824879],["eas",-11.125851786042098],["convention",-11.125927370059014],["Marshal",-11.126277221787978],["Arabia",-11.127010895991036],["alter",-11.127275724769056],["mitigate",-11.127593345383952],["discriminati",-11.129796623334123],["soul",-11.130089294720918],["poster",-11.130458914035344],["ations",-11.131269002086269],["silent",-11.131356594646032],["eve",-11.131555030536688],["Sean",-11.131613266113057],["ler",-11.13190389925446],["é",-11.13235827985938],["preserve",-11.132456350530738],["exceed",-11.132819766772602],["approache",-11.132834122871639],["judicia",-11.133090255797397],["uomo",-11.133782588334594],["Lincoln",-11.133893073220403],["costume",-11.134042296964434],["Graham",-11.134101416745581],["Gordon",-11.134219719494176],["Administrati",-11.134294325496846],["Memorial",-11.134427784105611],["Phillip",-11.134745055005304],["pivot",-11.134960858498427],["hybrid",-11.135184689413515],["rape",-11.135454302198212],["Country",-11.135607697190556],["occupie",-11.13575384990786],["Hunter",-11.135869598927819],["%)",-11.136023739014233],["charg",-11.136036343046928],["sibling",-11.13622982054446],["jo",-11.13644573477669],["download",-11.136594197957113],["exceptional",-11.136686710234605],["unexpected",-11.137487991047202],["Camp",-11.138390593215618],["CA",-11.138650169957824],["survivor",-11.139465087509118],["cheer",-11.139880582775255],["copy",-11.140050070680408],["picking",-11.140093203588837],["fore",-11.140281627138455],["Po",-11.140785993875598],["hood",-11.141047234603885],["ten",-11.142531269741509],["drove",-11.142895947364494],["Jona",-11.143094682286605],["wipe",-11.14320205165932],["fleet",-11.14341159474041],["presentation",-11.143807029498323],["arriv",-11.143910712531724],["outfit",-11.144040235003388],["establishment",-11.144486456728222],["transformation",-11.144858790088183],["ope",-11.146527638938299],["supplement",-11.14777080992839],["magic",-11.14804360840219],["Syria",-11.14820632692133],["valid",-11.148352920785289],["optimis",-11.148431256731804],["treasure",-11.148494291517594],["021",-11.148766584714513],["clip",-11.148837138111166],["deepl",-11.149590049344651],["Luk",-11.149840537523446],["semi",-11.150181039064046],["roof",-11.150324522588143],["norm",-11.150767631811835],["Dead",-11.151322965641217],["ock",-11.15183890799791],["fabric",-11.15187541704982],["idden",-11.152415185995212],["outline",-11.152663430092234],["Solei",-11.15297800170829],["Bi",-11.153018079161225],["Rob",-11.153354141348185],["compet",-11.155116306338538],["Summer",-11.155533363515177],["belong",-11.155565972191884],["furlough",-11.155632631426137],["Cleveland",-11.155726926070534],["caucus",-11.15575033562136],["mechanism",-11.155937048453211],["diversi",-11.156403392871177],["101",-11.156937497963039],["membership",-11.1569509309071],["framework",-11.157254148906762],["hing",-11.157730354536671],["utter",-11.158335717923734],["terroris",-11.158385132956699],["ious",-11.158716975259672],["Cabin",-11.15910946283708],["labour",-11.159184608411087],["spiritual",-11.159364765682728],["yester",-11.15957020854606],["prize",-11.15985178426876],["transform",-11.161304633043535],["Nicol",-11.161504351990665],["commander",-11.16158345559757],["Ke",-11.162028236647334],["painting",-11.162057332885233],["corporation",-11.16209047606576],["Point",-11.162442873780142],["Cost",-11.162545206723488],["pause",-11.162947072004023],["inquiry",-11.163384219504518],["rais",-11.1635048876387],["activist",-11.163910906375992],["exhibition",-11.16566209208878],["token",-11.165674953324778],["vocal",-11.16656016000064],["196",-11.166878632656395],["ndroid",-11.167091647935212],["audio",-11.167108313207676],["democratic",-11.167806354483417],["Short",-11.168109382967122],["Ocean",-11.168156301525277],["organizer",-11.16828999846036],["ease",-11.168412269966622],["continuous",-11.168927501954123],["stein",-11.168944281476227],["hall",-11.169569972388125],["ction",-11.170092764511093],["practic",-11.170134819448272],["cam",-11.171286621989442],["Cor",-11.171450011894745],["pub",-11.171758368463367],["industri",-11.17268652403434],["ministers",-11.172745988845024],["sheet",-11.173407455363055],["tes",-11.17344482832869],["ite",-11.173968668025283],["ideal",-11.174176874115986],["Kobe",-11.174203696682588],["Light",-11.174347337610456],["Francis",-11.174367197849314],["criticize",-11.175149037851343],["revise",-11.175299147931351],["tim",-11.175301006744263],["therap",-11.175799429802133],["hire",-11.17612907120575],["refer",-11.176197903182034],["Thanks",-11.17688573041011],["river",-11.177622252789712],["Quebec",-11.177863827915214],["Conservative",-11.177899451172328],["Douglas",-11.177952931178385],["prosecution",-11.178238191774081],["consultation",-11.178314084585729],["obstacle",-11.179299727730141],["Treasury",-11.179454478074529],["ingredient",-11.179527519298755],["guitar",-11.179563933571572],["lake",-11.179580102912771],["hired",-11.179643323952375],["Similar",-11.179653480930599],["trauma",-11.180034259338724],["Asset",-11.180058519124497],["ul",-11.180087657156133],["flavor",-11.180105861939698],["judgment",-11.180199071195055],["tremendous",-11.180285022176689],["welfar",-11.180649147965113],["introduction",-11.181162274963679],["generous",-11.181555964141923],["roperty",-11.181833873892083],["symbol",-11.18216658655344],["felon",-11.182441935242059],["Brother",-11.183211817800139],["Storm",-11.183463027663489],["ICU",-11.183515708859792],["da",-11.184180695584718],["jur",-11.185227901823389],["Tour",-11.185487455813073],["equi",-11.186082245176737],["acquisition",-11.186267466457085],["Blake",-11.187064614035712],["Stock",-11.187971851718231],["frontline",-11.188276788829413],["pposed",-11.189057629544202],["Ray",-11.190509684758034],["workout",-11.191029708853595],["Liver",-11.192819370930506],["prisoner",-11.192953068306013],["bench",-11.193357286257068],["upset",-11.193840759073131],["stroke",-11.194809117504436],["2004",-11.195197953133167],["rallie",-11.195389267297479],["shareholder",-11.19554325950353],["parade",-11.19577763938305],["innocent",-11.196251449996735],["Bri",-11.197551683312211],["minds",-11.197774405951384],["midst",-11.198084544827559],["supporte",-11.198313538643717],["align",-11.200208160584182],["Bangladesh",-11.200580963493547],["criteri",-11.200627943927039],["Thanksgiving",-11.200673382320346],["Ultimate",-11.200717724436858],["Field",-11.20102290823625],["Knight",-11.201264888920562],["friendship",-11.201667303020091],["Christophe",-11.201691469289257],["reception",-11.201739602469374],["nonprofit",-11.201779378418431],["SU",-11.201977960902532],["Ball",-11.20255817579962],["Chamber",-11.202980082719623],["unfair",-11.203280634923281],["medication",-11.203537990871698],["MC",-11.203582757638799],["CB",-11.203766343385157],["Sudan",-11.204055880278666],["ambassador",-11.204145463617547],["beds",-11.204187441511365],["earn",-11.20480456356177],["react",-11.205216925035359],["partisan",-11.205219740785365],["Broncos",-11.205438038778983],["indication",-11.20551656419369],["offence",-11.20578223944662],["athletic",-11.205782924641735],["suspension",-11.205784983341982],["yellow",-11.205921078741522],["tactic",-11.206009095248032],["aside",-11.206448628568914],["releas",-11.206580934361902],["introduc",-11.207692044222263],["ranking",-11.207759836577239],["crude",-11.208421146034445],["elow",-11.208948547089697],["Duke",-11.209416861230846],["random",-11.209630292971722],["dresse",-11.209719015056265],["01",-11.21016332476411],["participat",-11.210218324889599],["Princes",-11.21078896788076],["suggestion",-11.210993526459266],["Jacob",-11.211049819501447],["ze",-11.211331575087359],["compar",-11.211538920013782],["pregnanc",-11.211806885656696],["utilit",-11.211980252746947],["resist",-11.212063412994521],["usage",-11.21246813392619],["pink",-11.212783090975766],["heat",-11.213161986370025],["BO",-11.213883875999663],["mon",-11.214146867503551],["fatal",-11.216032231407048],["Place",-11.216236127170323],["economist",-11.21648031689739],["plot",-11.216581844994957],["Dean",-11.216717739824722],["ools",-11.217028484815728],["Greg",-11.217273038391296],["NCA",-11.218164012720965],["Smart",-11.218200462669088],["lay",-11.218258498187529],["endorse",-11.218671322522486],["lifetime",-11.219081724257764],["08",-11.219101191863414],["IV",-11.219522563133994],["Keep",-11.219694808546063],["Olympics",-11.220655586693889],["Garden",-11.220970637877354],["voluntar",-11.22099234842969],["Data",-11.221017264797048],["Han",-11.222320622116431],["mus",-11.22242045020933],["Men",-11.223115079679555],["touche",-11.223506752267598],["volatil",-11.223994091916413],["Picture",-11.224000430231808],["confirmation",-11.224206666777016],["mirror",-11.224309202231677],["cancellation",-11.224570823694965],["Saskat",-11.224614918806239],["Mass",-11.224698367300169],["compound",-11.224923962522634],["05",-11.225214747097843],["NC",-11.225230055759518],["eded",-11.225283929137383],["Unlike",-11.225315267215121],["subscription",-11.225361334289271],["hell",-11.22588464987872],["adjustment",-11.225960208864537],["UP",-11.226060160139635],["Hopeful",-11.226123184594451],["Labor",-11.226285158411589],["hospitalization",-11.226457991298673],["cked",-11.226753397375205],["exhibit",-11.226753535754046],["Allen",-11.227216054570398],["els",-11.227237676992356],["Kamal",-11.227795053076465],["limitation",-11.228139562630476],["eed",-11.22841241768444],["feedback",-11.229000639759073],["Line",-11.230630762219326],["enormous",-11.230664275453204],["fault",-11.231079813433883],["constitution",-11.23116613465943],["render",-11.23290071787067],["Miss",-11.233898491279337],["globe",-11.23391050499519],["atmosphere",-11.234207140705838],["AFC",-11.234465195145276],["Fi",-11.234602014759055],["commence",-11.235244560162062],["Hi",-11.235253581355911],["Far",-11.235437241936632],["endanger",-11.235578327828945],["efficienc",-11.236064113341502],["administer",-11.23675613285889],["mate",-11.236840903809933],["fires",-11.239132537809704],["reverse",-11.23932868561128],["relation",-11.239582613535571],["bed",-11.240407519428786],["boot",-11.241412574564597],["deserved",-11.24190930479983],["restart",-11.241913515663816],["onna",-11.242004848871977],["Bush",-11.242368857291773],["battl",-11.242926587597196],["GP",-11.243656645380932],["liabilit",-11.243701513474413],["Pitt",-11.244193411943598],["pastor",-11.24421917635749],["sideline",-11.244955782866587],["ig",-11.245505799811502],["hari",-11.246148669582563],["900",-11.24690001092552],["Entertain",-11.247806236535155],["Berlin",-11.247863119356651],["milestone",-11.247887984470584],["Square",-11.247944350754072],["complication",-11.24799601381222],["Fargo",-11.247999507008437],["Titans",-11.24806356435914],["Penn",-11.248123432294115],["inflation",-11.248443142600284],["Morning",-11.248452637286341],["VP",-11.24907918323495],["rack",-11.249159648296056],["semester",-11.2491888286736],["apologize",-11.249199696739588],["cake",-11.249545973596273],["Ye",-11.249672245466257],["capab",-11.249692584651484],["Edmonton",-11.249712379935572],["Operation",-11.249753198751339],["versu",-11.250012006397586],["undertake",-11.25012674731559],["Hu",-11.250244540410696],["clash",-11.250697551909418],["ssured",-11.250861877435257],["cannabi",-11.250873396733343],["circulat",-11.250880040517067],["innovati",-11.250994399444927],["ogether",-11.251015972099621],["bullet",-11.251143802095685],["administrator",-11.251653372542096],["overse",-11.251682016630063],["lineup",-11.2524430936108],["tenant",-11.252614432378689],["Kumar",-11.25262868113018],["accommodation",-11.252718499890731],["Pompe",-11.252792823922123],["ndigenous",-11.253248522084613],["Kansa",-11.25343910729632],["accompanie",-11.253566082089936],["crashe",-11.253585157670704],["THE",-11.254276408273645],["inevitabl",-11.254351377554075],["Lu",-11.254485948664788],["commerc",-11.255008600183947],["initiate",-11.255442218432073],["gon",-11.255445491377104],["Librar",-11.255621318799669],["flame",-11.255761214662678],["Assistan",-11.256737295867673],["puts",-11.25729033924985],["Oak",-11.257580242864094],["Players",-11.258116233182687],["stance",-11.25815673378639],["Eve",-11.258199903172406],["Robin",-11.258867712441882],["fisca",-11.259557490147964],["pump",-11.260192388758323],["memorabl",-11.260454006601583],["mond",-11.260650435154812],["motivate",-11.261319825032963],["Mc",-11.261397144806653],["omen",-11.261531935646042],["Art",-11.26175729265052],["entitle",-11.26199602016207],["ea",-11.262179578231093],["09",-11.262187300431817],["Wayne",-11.262321484048615],["Could",-11.262348352725526],["designate",-11.262904308892805],["GH",-11.263303235075938],["iting",-11.263380862045892],["locke",-11.263597182327182],["achiev",-11.26379710245581],["arking",-11.264579925415731],["tries",-11.266270799011302],["compell",-11.266407506757151],["Bru",-11.26690591422781],["Heart",-11.267105517211784],["Death",-11.267630291101622],["Walk",-11.267950822054626],["indicat",-11.269103085575127],["detaine",-11.26929083594915],["Jean",-11.269725919059496],["Nove",-11.26975768278628],["iami",-11.270196333640051],["har",-11.270379745130095],["Emil",-11.270875189217909],["integr",-11.270896823200546],["thes",-11.270968916441214],["gang",-11.270978219029885],["tune",-11.271391900343799],["calendar",-11.272112296955234],["Libya",-11.272397612091694],["Maryland",-11.272673887778458],["Consider",-11.273073193170186],["Jerem",-11.273220624165248],["breakfast",-11.2733547963689],["Girl",-11.27358467713263],["Talk",-11.273778178001685],["motive",-11.273822315173941],["Recent",-11.27399366692977],["bird",-11.273997479196455],["Support",-11.274022823100145],["removal",-11.27412939197948],["involvement",-11.274518317880052],["Enter",-11.274830417872355],["scandal",-11.275480477866909],["ouver",-11.275539384393747],["picke",-11.27600327198321],["hygien",-11.27623748344294],["positiv",-11.276251356450919],["1980",-11.276522195363096],["ialogue",-11.276586886316277],["supplier",-11.276680783684856],["Crime",-11.276874341388835],["pression",-11.277076584822403],["auction",-11.27771161496786],["ounds",-11.277962138735763],["ranke",-11.278043910435203],["lender",-11.27818598146654],["pla",-11.278204929386735],["auto",-11.27836406380689],["bo",-11.278627227028746],["adhere",-11.279078539738347],["external",-11.279294159036155],["Palace",-11.279387052340358],["Carol",-11.27941507640898],["beneficiar",-11.279450250641641],["certificate",-11.279795660121305],["glad",-11.280632653878056],["sho",-11.281063972131587],["acres",-11.281745466111468],["issu",-11.281824708704596],["CO",-11.281836694266673],["lyric",-11.282130610657882],["ownership",-11.282311040315959],["Section",-11.282737302293295],["heads",-11.2830805951192],["Rome",-11.283139642445631],["circle",-11.283161132150859],["violate",-11.283376386724978],["bel",-11.28388386215335],["Madri",-11.284073733884256],["Burn",-11.285003661795653],["ewer",-11.285075220655099],["incentive",-11.285094343942102],["les",-11.285366185199424],["Spider",-11.2854575656743],["bell",-11.285488053098671],["Mu",-11.285767672200333],["ates",-11.286341317144043],["strategi",-11.286589690527538],["Photo",-11.28675918334008],["shortl",-11.287284904965718],["Antoni",-11.287342586438779],["insider",-11.287448719828497],["()",-11.287633293119537],["Ten",-11.287841226145641],["diseases",-11.288238319048862],["discipline",-11.288785656698803],["bunch",-11.289628432097182],["350",-11.289715767168108],["Bond",-11.28997092082045],["explor",-11.291858263675174],["accelerate",-11.292047929984799],["tend",-11.292125004349856],["tank",-11.29229492656686],["mineral",-11.292631956055992],["meat",-11.292755442405564],["deck",-11.292790541372156],["Ethiopia",-11.294055203861413],["xchange",-11.294108317994251],["Giant",-11.294390539912092],["processor",-11.295256605188419],["isation",-11.295417435406584],["crossing",-11.296003791915025],["grab",-11.296808245798577],["column",-11.29681761134738],["Federation",-11.297089102909936],["comparison",-11.297116419727956],["Communication",-11.297142320644497],["wildfire",-11.297616140659649],["genetic",-11.297618957449497],["fundrais",-11.297673531577846],["meaningful",-11.297695477331988],["CAA",-11.297957120693138],["romantic",-11.298007080246947],["Swi",-11.298052450185038],["civic",-11.298145754188953],["universe",-11.298202129642624],["Internet",-11.29821746633004],["disagree",-11.298275674650931],["diamond",-11.298379322563662],["beca",-11.298709711754721],["anxious",-11.298762886622336],["Greek",-11.298850888890698],["fantasy",-11.298868984443027],["lif",-11.298977991789966],["nervous",-11.299011904845628],["swing",-11.299038856015212],["construct",-11.29920434925364],["Calif",-11.29959877976256],["DP",-11.299752869457699],["hung",-11.300371958188368],["outhern",-11.300518640826226],["Champions",-11.301146026193313],["Dark",-11.301370346295919],["agenc",-11.301682248611389],["ware",-11.302055322294606],["Commerce",-11.302389883451966],["Hell",-11.302645325299336],["ives",-11.303156281709633],["safeguard",-11.303715830923233],["exploit",-11.303753894905594],["rice",-11.304314057590322],["Electric",-11.304575423477397],["arvel",-11.304778646076173],["ecosystem",-11.304997806516251],["preference",-11.305141900980818],["intimate",-11.305275578231488],["Mail",-11.305689324620971],["organ",-11.305771580734739],["remarkabl",-11.30595639027183],["emed",-11.30634651374406],["Update",-11.306920357504808],["phrase",-11.30692159396813],["municipalit",-11.30812615262002],["Jenni",-11.308226440572252],["borough",-11.309383629446936],["Join",-11.309444899235409],["Mexican",-11.309526068512554],["220",-11.30964338459796],["sovereign",-11.310888277739359],["soap",-11.311421156176374],["Prade",-11.313038546281865],["audit",-11.313051901364135],["timeline",-11.31333769450742],["migration",-11.31370682649469],["maintaine",-11.313875843025638],["IT",-11.313992402110598],["leak",-11.3142144284756],["refund",-11.314320240022811],["Coach",-11.314434433004251],["fiction",-11.314937835292767],["Page",-11.315045656182173],["reminder",-11.315045942309638],["UC",-11.31516137090309],["riding",-11.316274919378486],["hawk",-11.316612913204672],["screens",-11.317162857720762],["Bull",-11.317374744596343],["estate",-11.318032030328347],["blind",-11.31835291465699],["Change",-11.31859049564836],["pric",-11.318779138572776],["glove",-11.318796258084156],["ering",-11.318969002801875],["Mother",-11.31943134881907],["Steven",-11.320556072521454],["embass",-11.320993777467171],["Walke",-11.321228280489995],["ure",-11.32148814947006],["containe",-11.321642477851709],["deliberate",-11.322610972468965],["Mississippi",-11.322677684010046],["ESPN",-11.322684025908735],["selection",-11.32276100280629],["Taiwan",-11.322854632905141],["transparen",-11.323050259297416],["mutual",-11.323060138256706],["Doctor",-11.323070458355122],["accord",-11.32309138629752],["weakness",-11.323115410820606],["scrutin",-11.323181237137902],["travell",-11.323564819531672],["Laura",-11.323579215181937],["determination",-11.323682104711782],["Alaska",-11.324093698622033],["constituenc",-11.324238031961192],["hotspot",-11.324255376908825],["uniform",-11.324684740809072],["entrepreneur",-11.324740949264472],["caption",-11.32484022408697],["unlock",-11.324965174716773],["ium",-11.325161621498136],["tally",-11.32536199810664],["foul",-11.325482608705501],["declaration",-11.325793774326062],["supermarket",-11.326851013065909],["fo",-11.326986640589631],["broade",-11.327097800205854],["McConn",-11.327163945065202],["Luc",-11.327295910095964],["Ge",-11.32735048517956],["observation",-11.32739204148657],["AE",-11.3278043320114],["institute",-11.328231537796128],["Dodger",-11.328412840584221],["preferred",-11.329636655249384],["earthquake",-11.329785957353247],["Jerr",-11.329863349444093],["Cree",-11.330176128262021],["layer",-11.330547677121903],["argu",-11.331371267192472],["ector",-11.33139343540437],["litera",-11.331833576705556],["spectrum",-11.33190927611648],["breast",-11.33294517631228],["Way",-11.333048426126899],["equall",-11.333623514046518],["rew",-11.333633062708142],["convert",-11.334032844664524],["brutal",-11.334374184868166],["incorporate",-11.334611960063606],["punch",-11.335654560664176],["starter",-11.335675305956475],["cheape",-11.335994984703747],["Sport",-11.336334524633521],["corrupt",-11.33661530707235],["digit",-11.336787014296847],["Michell",-11.337176782774437],["excuse",-11.337422817253945],["shore",-11.338662310924171],["sting",-11.33991458385038],["dail",-11.340648292589709],["elite",-11.340812187512165],["oversee",-11.340921395211822],["trends",-11.341209755457527],["salarie",-11.341235401167616],["remov",-11.34131687360212],["evident",-11.341361312302274],["PL",-11.342132269512025],["pride",-11.342169357943733],["nger",-11.342221995480257],["Receive",-11.342501677400469],["shed",-11.342507206214007],["spin",-11.342523091536293],["APC",-11.342746515168665],["fift",-11.343363561956846],["Mid",-11.343422666573975],["Happ",-11.34391144976679],["organise",-11.344010732955955],["ti",-11.344475447242782],["consult",-11.34451633176856],["Singapore",-11.344541517202401],["ike",-11.34478229531959],["keeps",-11.34478603002685],["iding",-11.344873692600686],["metric",-11.34556669301335],["notifie",-11.345847860565303],["cricket",-11.346202341413225],["kits",-11.34621188592665],["ambition",-11.346436280830225],["Rick",-11.34645616112862],["Prof",-11.347181229278611],["Christin",-11.34726643127778],["rental",-11.348679287093281],["Calgar",-11.348872294633825],["ranks",-11.349054917603219],["Oxford",-11.34906568841694],["psychological",-11.349104525488368],["livelihood",-11.349453031407105],["unanimous",-11.349541088545894],["Window",-11.349602493905149],["Agreement",-11.349639889107882],["chamber",-11.349849891137028],["convey",-11.350205884396546],["dependent",-11.35041074618345],["Superintenden",-11.350432067334078],["Provinc",-11.35044249791422],["Remember",-11.350450052501522],["aming",-11.350657868895421],["coordinator",-11.35110312932195],["Rev",-11.3516606981321],["memorial",-11.35202217947068],["incumbent",-11.352034503685665],["suspicion",-11.35239452102352],["Wolf",-11.352950731964654],["loves",-11.353031867863416],["resilienc",-11.353399287343754],["submission",-11.35342260942935],["applicant",-11.353477855638982],["float",-11.354028697657855],["Price",-11.354533747467631],["llino",-11.35488990355837],["med",-11.356654830025214],["blend",-11.356711838360894],["relax",-11.357367873770723],["performer",-11.357730284833425],["Montana",-11.357905630227412],["grid",-11.3579624813797],["recount",-11.358314735270422],["Stay",-11.358907445718973],["kicke",-11.359096614970404],["onto",-11.35936088055408],["rookie",-11.359610778908506],["worship",-11.360378142584885],["disorder",-11.3624234494739],["shocking",-11.363014573053928],["160",-11.363114510287133],["Latin",-11.363951351429314],["cu",-11.364139137954758],["execute",-11.36433310206256],["ET",-11.364339047871619],["loose",-11.364640131827038],["traged",-11.365377302228636],["feed",-11.365722567275796],["Newsom",-11.366055519230205],["Born",-11.366240575935814],["detention",-11.366423509230327],["MD",-11.367158904190548],["otten",-11.367494736063373],["Jimm",-11.36801189446713],["technolog",-11.368325730111636],["Roman",-11.368391516758047],["keen",-11.368427774225744],["thick",-11.368646079970256],["ests",-11.368729764476559],["chase",-11.36915853829083],["ouisiana",-11.369692084974377],["animate",-11.369708878922161],["rself",-11.36977116040065],["ership",-11.36977320412662],["polluti",-11.36979383647604],["Hawk",-11.370493403085847],["beside",-11.370608597786429],["Know",-11.37077670198957],["Victor",-11.371466310584694],["02",-11.372174724117047],["Much",-11.372221855012054],["Wale",-11.372636176952927],["Partners",-11.37271503612465],["tips",-11.37331953870075],["appreciati",-11.373329039707007],["Jessi",-11.373471614751109],["pretend",-11.373478975013608],["solida",-11.373516603099912],["peer",-11.373653124081173],["View",-11.374174785042586],["accountab",-11.375412971010403],["ND",-11.375725371664313],["intent",-11.375742716391207],["camps",-11.375967204547546],["Caribbean",-11.37602038309453],["Campbell",-11.376031286591125],["Missouri",-11.376057097933902],["Protection",-11.376288613405809],["condolence",-11.376310492467482],["champions",-11.37631180322378],["mar",-11.376487218608158],["Kennedy",-11.376707967783076],["mysterious",-11.37673435805377],["odds",-11.376906494959513],["liv",-11.376953982875841],["Tyler",-11.37696643800279],["folk",-11.377640306043656],["patron",-11.377647166612578],["considerabl",-11.377710200830501],["Modern",-11.378720098931442],["bankruptc",-11.379015760289487],["Clear",-11.37908241124477],["uru",-11.379275362980023],["ambulance",-11.379428436644176],["ntil",-11.379443719832704],["ax",-11.379488282453652],["inclusion",-11.379626199780606],["rug",-11.37965883380308],["Pittsb",-11.379810851074922],["Ab",-11.380241307516958],["eat",-11.380758504313516],["av",-11.38084118006815],["hug",-11.380920247092746],["striking",-11.380991947250811],["Bei",-11.38212246456367],["CN",-11.38213273581874],["castle",-11.382192771543421],["casino",-11.38246611574364],["residenc",-11.382772396045796],["Wa",-11.3831171516591],["expenditure",-11.383277481402516],["ancing",-11.383842850683491],["Camero",-11.383989999496857],["Pe",-11.384035502933006],["NYSE",-11.384303706709392],["chester",-11.384349394164255],["pizza",-11.384470676924497],["Hills",-11.384970397117295],["stem",-11.385108251837813],["holder",-11.385308758763346],["awesome",-11.385430097450499],["ji",-11.385527871943514],["Medicine",-11.385657413658734],["ML",-11.385754842977054],["assumption",-11.386206565702986],["radical",-11.386544510048381],["Baby",-11.38672212607172],["rick",-11.387253235041904],["shake",-11.387458608699003],["ka",-11.387635390469622],["plac",-11.387963347845574],["cheese",-11.388571628981223],["Temple",-11.388586687416115],["osting",-11.390331214087148],["bvious",-11.39096318136762],["em",-11.391363624160785],["killer",-11.391373618785511],["wins",-11.391378967514811],["grain",-11.392797388799877],["tak",-11.393330088614622],["congress",-11.393656012138475],["pointe",-11.394478548818663],["Mile",-11.394607356632255],["allocation",-11.394625183112911],["sit",-11.394756832500644],["resistan",-11.394904652598264],["Side",-11.39551054531265],["pointer",-11.39677225112339],["engaging",-11.396922270122861],["Nor",-11.396996861098216],["pin",-11.397752735700829],["Olive",-11.397830845130771],["immigrati",-11.398149408929836],["augh",-11.398391595130706],["constitute",-11.398584629634664],["rains",-11.398600361433308],["superior",-11.398704959212534],["assert",-11.399473392763138],["ETF",-11.39975547330355],["plain",-11.400208716925423],["Doug",-11.400255123190476],["Mari",-11.401001132938315],["courage",-11.401451805986405],["anime",-11.401748356690756],["itarian",-11.40194950957975],["suburb",-11.402085929949223],["casting",-11.402336151614866],["deeme",-11.402372052147317],["po",-11.402623694147255],["eries",-11.40302844483277],["stabili",-11.40313748734425],["FDA",-11.403475568305634],["conscious",-11.403543566906148],["reservation",-11.403544454742306],["Veteran",-11.40380608778558],["Christ",-11.403814194296745],["kilometre",-11.4038329421283],["compensation",-11.403849064817058],["Russell",-11.403870139707545],["Weinstein",-11.40388565995719],["Craig",-11.403932424444061],["Spence",-11.403990366601072],["punishment",-11.404010854722886],["tri",-11.404062975298547],["None",-11.404156029130702],["Vision",-11.40435641178976],["shocke",-11.404366527168163],["bathroom",-11.404463101680594],["painful",-11.40460218146608],["motivation",-11.405034226568885],["abortion",-11.405319024224893],["filmmaker",-11.4053359447248],["existen",-11.405357282838864],["ology",-11.405400664078892],["vary",-11.405840084054647],["Wright",-11.405909414578435],["contentio",-11.405925590491726],["covid",-11.406006952007349],["demonstrator",-11.406056686795173],["defendant",-11.406164085883885],["Animal",-11.406275061714078],["impression",-11.406489123811461],["concession",-11.40674181084034],["financing",-11.407165172843849],["Dragon",-11.407355327720918],["Perry",-11.40793053254309],["soil",-11.408315411286253],["impress",-11.409231907949207],["alliance",-11.409475638895222],["overlook",-11.409547954872744],["Farmer",-11.409638794325486],["quest",-11.409830988667835],["relie",-11.409837723403932],["stupid",-11.41068997830395],["stepp",-11.410744337978764],["examination",-11.41087897782372],["Coming",-11.41107023973771],["thorough",-11.41117984215504],["gomer",-11.411559298556924],["Metro",-11.41184295149048],["actu",-11.412121330172024],["facilitate",-11.412237112713397],["putt",-11.412477168501],["breathe",-11.413172833094535],["burst",-11.413537686188585],["skeptic",-11.414036427233503],["offender",-11.414148231452401],["Rating",-11.414997471738628],["donor",-11.415097243289079],["protecti",-11.415114662590186],["UA",-11.415238287799793],["cargo",-11.415246537852092],["Digita",-11.415445124852626],["Whit",-11.41562014130972],["traffick",-11.416047206405125],["vo",-11.416186923596372],["economi",-11.416268366114998],["evaluate",-11.416471051520473],["valent",-11.416774873854457],["SD",-11.416944029804224],["Harrison",-11.41720986763822],["iron",-11.41746668735092],["Lab",-11.417527136558206],["outdoors",-11.417619612695963],["bonus",-11.418568864587499],["urgh",-11.41929676845829],["eviction",-11.41932720610049],["toxic",-11.419390521525825],["spray",-11.41982610821733],["06",-11.420063006337088],["Think",-11.420132237205738],["tolen",-11.422182271595622],["connectiv",-11.423616551645159],["consume",-11.423624247300523],["excite",-11.423722759135075],["taste",-11.423900471301254],["gen",-11.424014996837784],["deny",-11.42438941990072],["Globe",-11.424902859575344],["Tax",-11.424928167370432],["lves",-11.425097477401543],["aging",-11.425928003672876],["Child",-11.426037236419123],["decid",-11.426151178406887],["sixt",-11.426336632222327],["questioning",-11.426362522492413],["blaze",-11.42641830104001],["liter",-11.426601254041723],["roadway",-11.426634490167615],["highway",-11.427055275493123],["Iron",-11.427334469882577],["forgot",-11.427825380369413],["swift",-11.42838732305023],["inner",-11.428447345154552],["pres",-11.428543649545794],["regulate",-11.428583407122849],["outing",-11.428646815289419],["evacuate",-11.428867452019905],["Yo",-11.42904698007695],["Jess",-11.429643363608557],["ultra",-11.430458772160852],["representation",-11.430525894873268],["firing",-11.430546105561785],["thread",-11.430853892583018],["Rams",-11.431594835480587],["Diamond",-11.431609887468396],["referr",-11.432301793144168],["Ros",-11.432364984843062],["vacation",-11.432473549265461],["prevail",-11.432558425047363],["Punjab",-11.432582800346484],["rhetoric",-11.432708849766247],["Alliance",-11.432736757893153],["preliminar",-11.432800793301539],["cough",-11.432935639409902],["enem",-11.433184564310684],["vaccination",-11.433370322498007],["frustrating",-11.433383588023071],["butter",-11.433519459678706],["oxygen",-11.43360428319576],["definition",-11.433634966643709],["realistic",-11.433867343170053],["agged",-11.43388128929537],["bulk",-11.434284235455905],["ully",-11.434293972997702],["booste",-11.434515217402717],["loving",-11.434567623442494],["Drug",-11.43459687227164],["Convention",-11.434651375187126],["endure",-11.434702979905317],["confrontation",-11.43489964208409],["describ",-11.435209101485395],["Theatre",-11.435388330520684],["ince",-11.435435272344735],["rap",-11.435470878717164],["prompte",-11.435863750870226],["owed",-11.436439418296802],["Ko",-11.436451541231783],["Weather",-11.43648211374137],["Engineer",-11.436519978129782],["Tampa",-11.436791830873123],["owing",-11.43707219764042],["Bre",-11.437503375751692],["streak",-11.43775397905686],["Macro",-11.438448897188167],["Pass",-11.438756934743314],["Mohamm",-11.438866843860817],["Winter",-11.439032453017477],["FM",-11.439348793392451],["stranger",-11.439528883851544],["Vi",-11.439574179611292],["reviewe",-11.439630073349285],["Technologi",-11.440509819165337],["Policy",-11.44063319650721],["tering",-11.44126198727822],["memori",-11.441514217650148],["acceptabl",-11.44155452191439],["pursu",-11.442505150774945],["Hard",-11.442748352369374],["ragged",-11.44339985216748],["farming",-11.443589398283358],["Grace",-11.443725262901982],["Margar",-11.443909988859367],["completi",-11.4439619844187],["inspir",-11.444680334497598],["fence",-11.444857417125704],["tho",-11.444936183337322],["disinfect",-11.444945514094565],["terminal",-11.445104206616037],["lease",-11.44515120938612],["Dian",-11.44535628837245],["output",-11.445530642599813],["Would",-11.446160916148113],["minimal",-11.447023156618556],["Roy",-11.447087513054147],["affiliate",-11.447367835479854],["Laker",-11.447462463805302],["nois",-11.448045867504847],["HD",-11.448065776253332],["plague",-11.448958856175148],["Hunt",-11.449974788861587],["programm",-11.450159532228113],["attache",-11.450923880384565],["chi",-11.451052725617428],["freeze",-11.451789050789081],["indefinite",-11.452107989351452],["ethnic",-11.452943677068248],["Natural",-11.4542468043158],["Come",-11.454264895275438],["steel",-11.454281691497924],["forum",-11.454386818372328],["avail",-11.45439216265957],["….",-11.454486379014533],["devote",-11.454651733601448],["Ether",-11.45552662661194],["foster",-11.456253113623536],["outlook",-11.456375817042222],["diagnosi",-11.456783450275532],["Maria",-11.456837400691605],["consum",-11.457534773223953],["Mario",-11.457653432613983],["choos",-11.45834553308757],["Va",-11.458720618749702],["Aske",-11.458799558595384],["dump",-11.460394451092094],["wicket",-11.460676493885085],["Shar",-11.460691790236943],["mega",-11.460739932636944],["Store",-11.460809384209654],["evolve",-11.460919018628678],["Gray",-11.461186822475096],["Jamie",-11.46145692878819],["Belarus",-11.46167473441154],["Nebraska",-11.461781359737994],["Lawrence",-11.461791949750967],["parallel",-11.461846057767708],["container",-11.461928174787118],["Budget",-11.461996352732129],["Bishop",-11.461998056880214],["Madison",-11.462019220770955],["Legend",-11.46210932146647],["legislature",-11.462127831003434],["concise",-11.462200321571686],["statue",-11.4622669584089],["garage",-11.46241920166536],["ridiculous",-11.462453440361083],["electrici",-11.462530183442311],["pepper",-11.462606184826972],["surrender",-11.463123988887707],["specialize",-11.463621570740594],["implication",-11.463662612645525],["Fly",-11.463886624174393],["scores",-11.46392738440823],["attractive",-11.463964481903465],["Limited",-11.46438022956347],["contestant",-11.464385797134295],["stagger",-11.464417075196783],["ification",-11.464820600847489],["Environmental",-11.465405710685506],["Gu",-11.465549498258714],["supervisor",-11.465624355815748],["sheriff",-11.465790981216623],["desert",-11.466250987125152],["accusation",-11.466660692957142],["Uber",-11.46721490083183],["Mosco",-11.467463897403974],["Helen",-11.467474186939132],["shopper",-11.467542192161812],["earl",-11.46834759588904],["utilize",-11.46835085628289],["Father",-11.468474471307413],["consent",-11.468821911448552],["exemption",-11.469201929404345],["Kadu",-11.469894646785392],["Euro",-11.469937999761111],["Link",-11.470009371370534],["sweep",-11.470561725228222],["Sure",-11.470565567754361],["plea",-11.470681220647878],["idential",-11.47086128482638],["distress",-11.471333334404676],["facial",-11.471863361890039],["mont",-11.472033242584796],["expire",-11.472150031065016],["grave",-11.472215158064298],["ambitio",-11.472347917422628],["reminde",-11.47252411482534],["dis",-11.472793157161986],["Edo",-11.473011783879503],["photographer",-11.4732344037559],["humanit",-11.47369557177265],["sole",-11.473738566612296],["structural",-11.474935156772485],["Youth",-11.474942946992572],["Pier",-11.475652668101954],["Lynn",-11.476861422940287],["believ",-11.477126184710468],["variant",-11.477348725195608],["ites",-11.47772201752161],["highlighte",-11.477801778134646],["Anne",-11.478608516674786],["Lock",-11.47884623095516],["Springs",-11.478988425304326],["goe",-11.4793420448852],["Nanc",-11.479454046997937],["notion",-11.479713808591807],["makeup",-11.479891875090283],["handl",-11.480200089465956],["withdraw",-11.480890817215727],["boom",-11.48140856573561],["Sep",-11.482184225028957],["Ric",-11.48317383352077],["ich",-11.483435150591255],["okay",-11.483435910323882],["Pete",-11.483606631946028],["cure",-11.484013052282636],["instruct",-11.48446406009699],["hal",-11.484803621986746],["backup",-11.48484397008741],["Centers",-11.48595481176863],["disable",-11.486079824578571],["stretche",-11.486132694175147],["ceremoni",-11.48635217855716],["Journal",-11.486429200800055],["arring",-11.48676244792622],["uncle",-11.487716555927323],["authentic",-11.488260190148761],["Queensland",-11.488300074930821],["elevate",-11.488859849644328],["DJ",-11.488933791316994],["sung",-11.489129114703392],["Cap",-11.489729815652494],["drill",-11.489846421021618],["mal",-11.489956882190745],["WAS",-11.49122493945141],["exhaust",-11.491638877690598],["icked",-11.491693420148383],["mentor",-11.492132531858386],["Hopkin",-11.492146638204437],["Fraser",-11.49216757788382],["Consumer",-11.492188388485873],["Bailey",-11.492193187873283],["Case",-11.492208520917165],["Dublin",-11.492233186553493],["Organisation",-11.492233765223602],["cautious",-11.492267916600353],["Restaurant",-11.492290841359583],["collision",-11.49230593592262],["competitor",-11.49233495386986],["purple",-11.492522059813192],["childhood",-11.492549065795606],["graduation",-11.492666787434253],["shame",-11.492700099837737],["Raj",-11.492789738298693],["pants",-11.492889357364701],["Mission",-11.493020549503768],["Ku",-11.493028398315614],["disclosure",-11.493191517057019],["Liberal",-11.49330843366908],["awkward",-11.493375357534457],["notification",-11.493406557807676],["memo",-11.493429330433836],["benchmark",-11.493493154383605],["arts",-11.493677626475185],["03",-11.493725141654926],["servant",-11.493901039356698],["Portug",-11.494104549535658],["Medica",-11.494179208756321],["withdrawal",-11.494265752140926],["leverage",-11.494280079792192],["differ",-11.494633141491095],["farmer",-11.49485724330624],["Code",-11.494864948294866],["Grammy",-11.494886185860434],["certifi",-11.494894887326954],["protein",-11.494989922323327],["installation",-11.495002544896215],["Auto",-11.495284878217703],["inventor",-11.495371359673026],["thankful",-11.49547023452329],["cooperati",-11.49634115124386],["Keith",-11.496552951575573],["froze",-11.497429385305669],["organic",-11.497471005689004],["Wi",-11.497501497243764],["strip",-11.497774654055062],["Bennet",-11.497954095587845],["Put",-11.497967388869737],["?’",-11.498121195712173],["Jak",-11.49844963057959],["trans",-11.498477402082644],["Wh",-11.499020301098508],["belonging",-11.499331480932126],["unrest",-11.500649359259853],["che",-11.500812185120125],["excessive",-11.500844813930417],["directive",-11.501367706218817],["filling",-11.501445547083254],["evacuation",-11.501528422634934],["upside",-11.501642762262232],["ging",-11.501852752160138],["afterward",-11.502161911140993],["charter",-11.503055135275083],["Friends",-11.503706491223504],["filter",-11.50387467963235],["boundar",-11.503936950340488],["Murra",-11.50398660002727],["cking",-11.503999036170256],["lenty",-11.504036107219866],["isdom",-11.504180712973618],["olar",-11.50466169245753],["Brun",-11.504702002253135],["Direct",-11.504903354153237],["breed",-11.505277035094496],["chip",-11.506451104826953],["Winni",-11.506556142258205],["relieve",-11.506754037434217],["Lane",-11.507003705408788],["holes",-11.507122467528838],["wrap",-11.507799156912364],["Eddi",-11.508046961106828],["journalis",-11.508572928952775],["chill",-11.50857628672143],["nightmare",-11.508864027279898],["QB",-11.508909042770174],["ports",-11.509187569366881],["satisfie",-11.509199441867771],["Arsena",-11.509951465440526],["flexibl",-11.510255651400303],["height",-11.511331959659351],["ris",-11.511530164050956],["PA",-11.511593222064525],["accommodate",-11.512183652564463],["Secret",-11.51243633533371],["Fisher",-11.51258390579919],["publisher",-11.513073384716769],["reign",-11.513186010327074],["5th",-11.513235900127741],["trappe",-11.51335836100001],["dual",-11.513375717737073],["Melb",-11.513985203306078],["Low",-11.514800647538577],["Eight",-11.514992165326065],["allege",-11.515421920118953],["mari",-11.51552162062924],["brave",-11.51596236790349],["robot",-11.515964692854194],["inancial",-11.515996270014083],["contrar",-11.516508578091928],["galler",-11.516676624526001],["Find",-11.517069999559604],["ju",-11.517735264451588],["criticise",-11.518067724063592],["125",-11.518500328978982],["valuation",-11.518881973600976],["pursuit",-11.51917987861072],["Record",-11.51974244162496],["endless",-11.5198085433835],["Dar",-11.520812813405449],["hub",-11.521230626447842],["flee",-11.521386779201544],["stating",-11.521512984798889],["Buy",-11.521560314933343],["deployment",-11.522874439647076],["survival",-11.52301049996601],["Azerbaijan",-11.52333437521047],["glimpse",-11.523334753691927],["Jerusalem",-11.523343673419005],["Soviet",-11.523370313469474],["pupil",-11.523472846788646],["grandfather",-11.523489419578095],["gesture",-11.52350140607145],["Metropolitan",-11.523537977256197],["grandmother",-11.52376168315845],["licence",-11.523821845895219],["landlord",-11.523823852532413],["Standard",-11.523888939547469],["immense",-11.523949297581186],["mainstream",-11.523972847733123],["intersection",-11.524096638306892],["linebacker",-11.524123393206452],["monster",-11.524321837522333],["Raider",-11.524373747288088],["bishop",-11.524915064954197],["adaptation",-11.525112505394375],["nutrition",-11.525562502422142],["weaken",-11.526132829582789],["cousin",-11.526357948705332],["explicit",-11.526468709051013],["explanation",-11.526653623831715],["CoV",-11.526664979014045],["blanket",-11.526672987663925],["description",-11.526687557731474],["angr",-11.526983721434739],["Uganda",-11.527210950427797],["Sp",-11.52726586917883],["110",-11.527331823565016],["indicator",-11.527367684403782],["belt",-11.527384990635392],["flatten",-11.527999652571156],["Philip",-11.528017159832968],["pover",-11.528217247420251],["riders",-11.528241924463526],["Box",-11.528405616761601],["Touris",-11.528419930676826],["arrange",-11.528764368008503],["AFP",-11.529101846898136],["sandwich",-11.529791394623913],["CARE",-11.53001770182314],["Brando",-11.530081703340153],["consultant",-11.530444442545447],["und",-11.53108220718586],["tariff",-11.531332708540038],["crown",-11.531806043708892],["triple",-11.531874774078235],["tired",-11.53188111181364],["tighten",-11.532283939026687],["devastate",-11.532646408379929],["forth",-11.532754940898954],["End",-11.533128096407538],["Sri",-11.533135167687139],["eggs",-11.53315038494997],["anonymous",-11.5334855429711],["Islam",-11.534132678184424],["cted",-11.535151280427216],["jacket",-11.535300144141454],["conventional",-11.535575096627644],["1000",-11.535743032786348],["Face",-11.535972346754612],["anchor",-11.536419638066741],["raid",-11.53645041827085],["Golf",-11.536995108491885],["northeast",-11.537518247044018],["flexib",-11.53766523867939],["pointing",-11.53767635316563],["birds",-11.539139667365104],["ye",-11.539302369219907],["airy",-11.539735584131739],["precise",-11.539793177254571],["cute",-11.540446392516332],["shell",-11.540567418950198],["decent",-11.540648015479574],["oll",-11.541203664278168],["firework",-11.541620998071494],["municipal",-11.541631782579651],["Penc",-11.541957058009977],["fisher",-11.542869549613522],["EV",-11.543411836897686],["abou",-11.543480854227454],["Ri",-11.543692242917512],["aim",-11.543847555456074],["charm",-11.54422618184621],["Dul",-11.544308136397367],["Woods",-11.54483063059957],["contribut",-11.544866019247625],["sburg",-11.545087085339338],["Mon",-11.545788166971318],["Bright",-11.545788286625317],["utum",-11.545883316911244],["reinforce",-11.5462631535771],["plunge",-11.546331008532782],["Clay",-11.546471927004298],["Dun",-11.546693698887545],["Kids",-11.547016630623457],["Thing",-11.547316300563295],["tooth",-11.547329735967862],["Joy",-11.547656895952247],["bully",-11.547911935410774],["ok",-11.548100217413005],["Then",-11.548487191683511],["LP",-11.548729757352078],["Silver",-11.548910511999498],["lecture",-11.549107191925668],["AM",-11.549458070315339],["Si",-11.549535156613729],["Peace",-11.5495718445646],["kar",-11.549954058784117],["Industr",-11.550019720212735],["fi",-11.55010999960517],["hunter",-11.55016779801682],["strande",-11.550197313696632],["NEW",-11.550476097843967],["dat",-11.550726350239623],["availabilit",-11.5512066876397],["coordinate",-11.551428931714753],["cater",-11.55149052159374],["Pick",-11.552140601794925],["worsen",-11.552283431440738],["quantit",-11.552647862892961],["trash",-11.553077134038002],["regain",-11.553590624974339],["Carlo",-11.553605096347379],["broker",-11.553888753541509],["Mega",-11.5540741350472],["comprise",-11.555026930163432],["prioritize",-11.555469392898365],["Ukrain",-11.555485260230556],["predecessor",-11.555593494368502],["Hurricane",-11.555609263532954],["Celtic",-11.555610127224101],["pronounce",-11.555630502087231],["Qatar",-11.555678868566176],["Ronald",-11.555705215927835],["Bernard",-11.555750866444114],["Arthur",-11.555783533659136],["Bachelor",-11.555804087452433],["Br",-11.556138064113057],["Duches",-11.556340219840374],["Hud",-11.556476863119912],["pipe",-11.556498744035423],["Cu",-11.556715426683795],["clerk",-11.556932709455747],["potato",-11.556987765775563],["poison",-11.557044768746913],["firearm",-11.557216244081928],["recipient",-11.557221663833243],["Soft",-11.557407729808968],["invitation",-11.557563820873686],["tracks",-11.557591824328243],["Appeal",-11.557761324915582],["Gandhi",-11.557829939813205],["intervene",-11.557953408149977],["prolong",-11.558094564560525],["spill",-11.558148908864926],["unnecessar",-11.558293532861047],["respondent",-11.558326633664556],["convenience",-11.558549825101208],["kiss",-11.558890494269765],["nning",-11.558933370975431],["Tesla",-11.558945601161431],["superhero",-11.559099549302253],["scholarship",-11.5591190596488],["passport",-11.559617232286259],["Motor",-11.55973702207315],["elve",-11.559769032874488],["reads",-11.56018412844984],["Indonesia",-11.560355033836446],["tender",-11.560361129555861],["Barne",-11.560731025565778],["Mobile",-11.561874959111677],["awful",-11.561917674524107],["CAR",-11.561968449477169],["Sams",-11.562100830302368],["isappointing",-11.562124350818271],["icon",-11.562284955902692],["CBD",-11.562294045604315],["TA",-11.562459183980582],["Mall",-11.562591436699943],["DO",-11.563037718343333],["Hon",-11.563095422013138],["Intel",-11.563258266258348],["chocolate",-11.56341603982817],["240",-11.564135407925002],["Gregor",-11.564953170100424],["wrappe",-11.565130001677373],["lbourn",-11.565502573196007],["izer",-11.56657437606912],["fro",-11.566717626093974],["adoption",-11.56683868591099],["Hua",-11.566905887797445],["sequence",-11.567290077663332],["exploration",-11.568185610884214],["arted",-11.568973871323472],["Rs",-11.569280385627643],["Eli",-11.569567046454395],["Peters",-11.569635232213773],["HING",-11.57026392235731],["assumed",-11.570438170924401],["Holdings",-11.57061105707175],["bounce",-11.570906578278182],["retreat",-11.571828646384512],["Key",-11.572299780714076],["bias",-11.572594064131287],["riot",-11.572623046741427],["Tower",-11.572814932548614],["Rod",-11.573204420295493],["Bat",-11.57330124084401],["cleaner",-11.574044792841896],["Left",-11.57414463201426],["fled",-11.57434457681508],["assurance",-11.575298991400967],["beg",-11.575446157278915],["OP",-11.57558113061404],["Emm",-11.575675186487516],["ising",-11.57574301590006],["Gib",-11.575860690038628],["proportion",-11.57600464993113],["ole",-11.576111657630157],["telephone",-11.576121039663446],["interrupte",-11.576284880747272],["leaning",-11.576553043593284],["Salt",-11.576749615266603],["Ashle",-11.576921280060226],["overs",-11.577038459926268],["Nazi",-11.577206506659397],["Member",-11.577674140956178],["130",-11.577802302008093],["cope",-11.578345861963932],["Need",-11.578827869249256],["Edwards",-11.578834848982535],["thereby",-11.579282573008621],["tape",-11.579537559154204],["Ridge",-11.579899116520346],["brick",-11.58025909833199],["fines",-11.580451085118042],["ants",-11.580605138493995],["cement",-11.580835837741766],["Pope",-11.580898327273989],["Task",-11.581744972501308],["precede",-11.58222048403837],["Prior",-11.582285227518629],["disrupt",-11.582322673785354],["nights",-11.582745079899869],["slide",-11.582771200796063],["CC",-11.583266081318364],["lum",-11.583276968990345],["Beyon",-11.583716036951804],["hom",-11.58373676086199],["HL",-11.583883188115598],["traveller",-11.584098486610786],["ading",-11.584251009591965],["AT",-11.584465741281258],["accurac",-11.585333141766089],["Barry",-11.585645721533648],["bump",-11.586412677587234],["layoff",-11.586823895880471],["sum",-11.586836313223138],["ead",-11.587126986486075],["MA",-11.587447429055178],["Alic",-11.588032511599618],["Mills",-11.58811730008725],["char",-11.588254158659737],["Michel",-11.588601232998965],["fortunate",-11.588762204368543],["Kashmir",-11.58892640036991],["cigarette",-11.588930377670508],["Sussex",-11.588941093082997],["Buttigi",-11.58894280500419],["verdict",-11.588980328076246],["Derek",-11.589038500241402],["Freedom",-11.58910790438101],["delicious",-11.589128620342656],["payroll",-11.589264506766568],["perception",-11.589272448438006],["bipartisan",-11.58928125047137],["Hundred",-11.589368823443632],["grounds",-11.58944569088432],["founde",-11.589530344557275],["disadvantage",-11.58966276808991],["billionaire",-11.5897750158801],["receiver",-11.589798612275152],["interception",-11.589844587204771],["distract",-11.589918307695743],["profound",-11.589986254060202],["Garc",-11.589988475574446],["CY",-11.590597877478533],["Universal",-11.59066172963157],["partial",-11.59107495000021],["Connor",-11.591170487022794],["notorious",-11.591237938966813],["interi",-11.591492816797555],["fierce",-11.592075086765146],["tier",-11.59224179500946],["blessing",-11.592297384725203],["recycl",-11.592753347446017],["stomach",-11.592839721019754],["hardship",-11.592927002376658],["forme",-11.593115425904946],["Embass",-11.593427465901698],["horrifi",-11.593512768232706],["pardon",-11.593578784329981],["Oil",-11.594255346924049],["communicat",-11.594550246270224],["Larr",-11.594761855256316],["PG",-11.59499522068575],["artificial",-11.595614205992392],["Victorian",-11.595845362184713],["storyline",-11.59587761312283],["chairs",-11.596425015932182],["bacteria",-11.596487238732603],["Living",-11.596702725253103],["evaluation",-11.596764591084106],["web",-11.59722614873384],["plasma",-11.597267474026227],["golden",-11.597299423877066],["nerve",-11.59745356156524],["translate",-11.597603974122254],["casual",-11.59762909552082],["Ed",-11.598262878826302],["Histor",-11.598592524689895],["endorsement",-11.598870632971511],["Dame",-11.599802603717992],["Sta",-11.599984359092275],["lking",-11.600006610010029],["nic",-11.600031061271832],["Rug",-11.600513812046552],["talkin",-11.600539749416336],["hoste",-11.60099630592033],["Dominic",-11.601042145332007],["controvers",-11.601474642801788],["feeding",-11.601783831337091],["Expert",-11.601963936447884],["Jeffers",-11.602182209934778],["dressing",-11.602238605598751],["complaine",-11.602600325931],["opener",-11.602753859432525],["grace",-11.602825446882132],["Samuel",-11.603660668239446],["Soon",-11.603868660443103],["tribal",-11.60390369544321],["crush",-11.604083187718894],["distinct",-11.605323066035938],["Snap",-11.605751622377301],["dish",-11.605922534709604],["arming",-11.60610267613937],["accus",-11.606154260369117],["damag",-11.606591315290549],["Walla",-11.60662489806226],["Hanna",-11.6068334955093],["parliamentar",-11.607258704178554],["tight",-11.607414557427026],["Cambridge",-11.60751252821951],["Pal",-11.607913137757375],["merit",-11.608014496495846],["mer",-11.60819981071974],["enabl",-11.608436639744795],["Ru",-11.608727875283977],["wrist",-11.609074278309919],["queen",-11.60920953520137],["tory",-11.609407526480364],["Dem",-11.610064135751188],["occasional",-11.610264952003387],["mos",-11.610393413082999],["ING",-11.610432214141083],["eek",-11.61083748015089],["Crew",-11.610969501821167],["interfere",-11.611608942132232],["Clare",-11.611787280295799],["patrol",-11.61196077606499],["Ron",-11.61198068752072],["governors",-11.612090402252901],["ssembly",-11.612208470910403],["consolidate",-11.613053102571994],["buck",-11.613522222624692],["ierra",-11.61387256614855],["respons",-11.614257919961954],["Pri",-11.614645928719748],["hungr",-11.61475869048064],["influen",-11.615778294878917],["negotiate",-11.6159341399311],["patien",-11.616559990539702],["wrestl",-11.616655267469461],["isolat",-11.616663767937698],["eeding",-11.61701042921161],["Jose",-11.617467137709108],["PF",-11.617569923498667],["dministration",-11.617825630311069],["allocate",-11.618473321274488],["parti",-11.618478707992821],["Malawi",-11.618702333806192],["nderson",-11.618837891459394],["twist",-11.618880182541204],["suitabl",-11.619731532510526],["ridge",-11.62047257352758],["mill",-11.620843116043774],["ess",-11.621396959900606],["dragon",-11.62181532969106],["Ann",-11.621938890487133],["horizon",-11.62231474993301],["ethic",-11.622339979751784],["07",-11.622654768394021],["Morris",-11.622967539092064],["frustrate",-11.623048440965926],["authorize",-11.623067527374602],["uneral",-11.623306406016388],["Tanzania",-11.623408585205695],["Manhattan",-11.62341180572798],["Chancellor",-11.623414525556665],["Switzer",-11.623418746335904],["ophomore",-11.623419133342837],["Magistrate",-11.623420517924073],["Disaster",-11.623546377661004],["Progressive",-11.623554257573542],["distraction",-11.624227141836009],["companion",-11.624343051088584],["legislator",-11.6244286088756],["varie",-11.62443514779987],["administrati",-11.624622198426508],["resignation",-11.624661781649976],["PAC",-11.624681216040461],["Battle",-11.62533912860888],["passage",-11.625350887656586],["beef",-11.62537701925963],["brush",-11.625488184274765],["underl",-11.625506126954747],["hazard",-11.62570442785866],["Retail",-11.625827809891845],["drag",-11.625998120353445],["loyal",-11.626049457097379],["Rivers",-11.62612789195623],["underwa",-11.626326772120368],["angle",-11.626602060120614],["depict",-11.626850770139207],["landing",-11.626953469345693],["ordinance",-11.626994338573187],["Glen",-11.627364598042298],["breakdown",-11.627375840713409],["tenure",-11.627375903304559],["pedestrian",-11.628711957080549],["algorithm",-11.628745327561475],["excess",-11.628843641332063],["elevision",-11.629147673861308],["undermine",-11.629300878962479],["Chase",-11.629418388774623],["Due",-11.629593191790077],["analyze",-11.629648317886183],["attraction",-11.629791457636724],["artistic",-11.629946889297054],["ndful",-11.63047451275576],["lane",-11.630534209631735],["tly",-11.631045567734365],["eeper",-11.631216527676376],["ney",-11.631448889949025],["ker",-11.631915991324835],["motorcycle",-11.632190390125311],["blesse",-11.632192873947066],["Owen",-11.6331404892539],["Was",-11.63343962368117],["censu",-11.63352076088804],["confuse",-11.6336208503852],["ered",-11.63386550100121],["hunt",-11.634582116053776],["Nash",-11.634833041228838],["Gates",-11.63496386727511],["liqu",-11.63509278593061],["oalition",-11.635272585745655],["spotlight",-11.63597442988533],["intentional",-11.6359897481377],["exclude",-11.636232611405674],["revolution",-11.636285468717338],["Arena",-11.63667597782518],["skirt",-11.636900514920171],["declin",-11.63705846945918],["Apart",-11.637112166030054],["tour",-11.637616414727724],["chains",-11.637635624105801],["tolerate",-11.637745903149627],["waite",-11.638140447475449],["den",-11.638167864496836],["corona",-11.638459694706189],["manufacture",-11.63858125215705],["lobby",-11.63942862849994],["eland",-11.639495504808245],["reluctant",-11.639679212370787],["sweat",-11.639762713840096],["Medi",-11.64057848853932],["Mich",-11.641157061020937],["converte",-11.641347574191483],["mood",-11.642220030281027],["slip",-11.642234019230333],["activate",-11.642319905975615],["messag",-11.642539801415976],["testimon",-11.642842944832198],["arcelo",-11.643359389825173],["Palm",-11.643827327937066],["Rangers",-11.644049374370002],["bold",-11.644941808185848],["stepping",-11.644974999303443],["shar",-11.645029217342497],["rol",-11.645577648666695],["plug",-11.64567648911817],["struction",-11.646091904305646],["centur",-11.646247569524832],["emphasis",-11.646381308405806],["nging",-11.646754454634747],["CM",-11.647148684667625],["Dog",-11.647211828534946],["Cloud",-11.647610284418151],["acute",-11.648080242187525],["smell",-11.64849243639674],["Card",-11.648719340076173],["105",-11.648855616672634],["ade",-11.648919719131282],["halt",-11.649398215624997],["appoint",-11.649420077686653],["procure",-11.649818633264072],["theme",-11.650195268551567],["Steel",-11.650727693903132],["scream",-11.650780517870107],["NP",-11.65082134820667],["insult",-11.650856395974595],["flash",-11.651316653246948],["propaga",-11.65174468882889],["ree",-11.651748140961091],["tage",-11.651761106974611],["Fur",-11.65260782551776],["RAM",-11.652720575048452],["icking",-11.652909438077522],["fit",-11.653311558084946],["LGBTQ",-11.65335820006954],["evolution",-11.653384424519885],["Kar",-11.653568878450718],["sentenc",-11.653845655101087],["eal",-11.653963021638935],["recreation",-11.654008550197148],["Bad",-11.654251879482008],["rucial",-11.6545446844858],["rounds",-11.654692773939582],["ES",-11.65508181093971],["Pho",-11.655273205211774],["dding",-11.65528941975503],["Front",-11.655851973054979],["temple",-11.655861241875566],["leans",-11.656001246310925],["titude",-11.656016622399292],["mendment",-11.656300657002479],["drift",-11.656408619931545],["Blas",-11.656438540321608],["fly",-11.657925268794209],["Richards",-11.658954361987195],["Egypt",-11.659009967838282],["‚",-11.659122817385605],["Kardashian",-11.659122820148072],["Reynold",-11.659129472391491],["Abdullah",-11.659137913772858],["Criminal",-11.65921745930755],["perceive",-11.659226729820553],["apolog",-11.659376303262457],["referendum",-11.659391769940719],["Athletic",-11.65940166860438],["Ghanaian",-11.659412570324811],["Inspector",-11.659461541275686],["McDonald",-11.659489955480751],["Chuck",-11.659677279197219],["Regard",-11.65968253170018],["prevalen",-11.659700086645461],["SUV",-11.659939533590663],["ceiling",-11.660032739661712],["ende",-11.660194626015446],["keyboard",-11.660208736998195],["demographic",-11.660344776444173],["renewable",-11.660368565308339],["Comic",-11.660446715758198],["upload",-11.660869519008948],["Note",-11.660875414052347],["wireless",-11.660905951331538],["Draft",-11.661031353890245],["irmingham",-11.661584301196257],["Carolin",-11.661777311398],["modifie",-11.662001959451127],["Ni",-11.662155239539974],["ith",-11.662310792206652],["rocket",-11.662410905877222],["disturbing",-11.662813582939597],["densit",-11.662923662876524],["RBI",-11.662932626051246],["Fift",-11.662948570828704],["underground",-11.663134098474305],["rumour",-11.663199530105086],["afterma",-11.664291529055834],["lling",-11.664545348055018],["beverage",-11.66466453665402],["Clair",-11.664979621725205],["terror",-11.6656212155995],["pharmac",-11.665657737651355],["armful",-11.665658013300394],["Political",-11.66597806100706],["ntelligence",-11.666065756517565],["pension",-11.666264382829535],["Quinn",-11.666500461244771],["palm",-11.666544454290005],["Mahara",-11.666697246360876],["dry",-11.667021800022185],["distribut",-11.667086177082327],["auke",-11.667130660096642],["Token",-11.667469718643702],["Private",-11.667695415304072],["inequalit",-11.667789703186072],["Climat",-11.668030989254358],["architecture",-11.668208135400405],["homicide",-11.668586799338476],["orbit",-11.668604402256394],["fascinat",-11.668673420978958],["hardwa",-11.668835323602123],["traveler",-11.669207687776247],["Marv",-11.669208767524553],["nife",-11.66922195699138],["modest",-11.669746291039218],["Native",-11.67005245137138],["backyard",-11.670155712019985],["terrifi",-11.67107481792127],["Stewar",-11.671594900755744],["Round",-11.671860063409683],["disciplin",-11.672316489256268],["04",-11.673141503377893],["Yea",-11.673229196990698],["magical",-11.673337623717824],["delegate",-11.673938763603442],["portal",-11.674021534478106],["sauce",-11.674264430705717],["classifie",-11.674452918364599],["ennis",-11.674453209828133],["eats",-11.674647514977655],["Command",-11.67473167102291],["oward",-11.674770027100198],["Rocket",-11.674876087461417],["Cash",-11.675079001737735],["ap",-11.67550663591526],["Found",-11.675549053659466],["cooperate",-11.675558152652489],["mum",-11.675895010045323],["happi",-11.676070616257542],["ells",-11.676417265273228],["significan",-11.67746341852344],["ace",-11.6775928412962],["pleasure",-11.677808575485228],["setup",-11.677838617769579],["vegan",-11.678134139027165],["TO",-11.678237588654138],["babi",-11.678490138613082],["fever",-11.678549856491202],["blog",-11.678938294754273],["haul",-11.679034444001116],["bearing",-11.679871431600075],["nex",-11.679903994866054],["subscribers",-11.680097197052199],["Brooks",-11.68128914476237],["foresee",-11.681333467161089],["howe",-11.681611320968484],["relat",-11.681851217388026],["Lin",-11.681878699313884],["loop",-11.682041856432834],["Near",-11.683153170498397],["hot",-11.683451097613805],["alternate",-11.683452061786102],["Mitch",-11.68363066501962],["domain",-11.684177237184588],["nt",-11.684626853835123],["mmediatel",-11.684796565940344],["Delta",-11.684825081515518],["Broad",-11.685633969205693],["defende",-11.685781973007916],["Ellis",-11.685880456573406],["Ch",-11.686104163093875],["enact",-11.687809414861423],["ained",-11.687888826986221],["mortalit",-11.687905947560184],["patch",-11.688850068618319],["legislati",-11.689067448022028],["Ash",-11.689224996029688],["accomplish",-11.690081898374864],["Beck",-11.690095220530011],["Burk",-11.690444105031016],["Alan",-11.690511623184555],["Kath",-11.691052115080304],["ny",-11.691064286209029],["sville",-11.692426690813848],["Ward",-11.692548100109114],["marking",-11.692706082280516],["learner",-11.692717757325328],["commentar",-11.692911418078081],["pharmaceutical",-11.69337831221785],["menu",-11.693402448826111],["Harv",-11.693761475422793],["Mal",-11.6940434850688],["Critic",-11.694358817401566],["controll",-11.694792518593223],["chat",-11.694897889961556],["booking",-11.694952685830124],["Connecti",-11.695571761931204],["Express",-11.695711414672308],["015",-11.696091760551067],["Oklahoma",-11.696160442881721],["Pharmaceutical",-11.696164226185182],["Legislature",-11.69618011351782],["Leonard",-11.696265725245535],["militia",-11.69633894483144],["Cricket",-11.696375514658019],["stor",-11.696404003048492],["Relief",-11.696438670867305],["Scientist",-11.696541781509083],["Warrior",-11.696565085430038],["fil",-11.696618328327526],["pleasant",-11.696710448402689],["dust",-11.69671926166397],["undoubted",-11.69672590072176],["creature",-11.696832046892258],["Bradley",-11.696868115012869],["rystal",-11.69687029379308],["interference",-11.696882358444375],["Benja",-11.69700651506123],["Room",-11.697077411695997],["midfielder",-11.697325388999676],["Elliot",-11.697331666139887],["tuition",-11.698056519450308],["Rapid",-11.698105731692456],["Thousand",-11.698126398065364],["threshold",-11.698236938017208],["curious",-11.698280256674963],["absorb",-11.698321307052058],["Switch",-11.698711142821594],["database",-11.698842656670912],["contributor",-11.698948262466988],["Tamil",-11.69897723644883],["Charge",-11.699176261281876],["diplomatic",-11.69924132720657],["detective",-11.69926640988391],["Hart",-11.699310896434403],["Event",-11.69949116855889],["Johnn",-11.699520305716247],["Song",-11.699543406530413],["workshop",-11.699833484870203],["Dennis",-11.70009744686167],["execution",-11.700170844730204],["ner",-11.700315064971313],["kills",-11.70138302904438],["fundraiser",-11.701574910019984],["Level",-11.701632618873596],["aux",-11.702161696540912],["Voice",-11.702407494725335],["ption",-11.702619980577374],["waters",-11.703139820651353],["iness",-11.704204642051279],["habitat",-11.704409619579366],["Armenia",-11.704413460683746],["Elle",-11.704510785536709],["Sha",-11.704799100059523],["Malaysia",-11.705391422668175],["summit",-11.705399898382218],["Win",-11.705415737257413],["tunnel",-11.705797009097493],["keeper",-11.70669663652738],["ale",-11.706920878371198],["Shares",-11.707638308991601],["taxi",-11.707680794634237],["Edward",-11.707741347606735],["calculate",-11.707979373908682],["recreational",-11.708047051127114],["shadow",-11.708723185465665],["Karen",-11.70873051018613],["rebuild",-11.709111995793165],["collaborate",-11.70937216112838],["couraging",-11.70938926530881],["outrage",-11.70952079565234],["REN",-11.7101067070723],["Semiti",-11.710341256011123],["Worker",-11.710366861813576],["cafe",-11.71115596135406],["locker",-11.711242146917595],["worrying",-11.711388032125084],["buzz",-11.711914196400192],["Raymo",-11.711948444574457],["mess",-11.712149570909608],["ular",-11.712724961336942],["Citi",-11.713009119164827],["LG",-11.713035947111646],["transparent",-11.713228999985603],["Independent",-11.713797973408694],["enix",-11.714281473811452],["welcom",-11.71441619478535],["Deep",-11.714440538866832],["Trud",-11.714627073009204],["inked",-11.714756266291651],["hoped",-11.715072426285577],["alien",-11.715135611934114],["losse",-11.715432093986692],["Xi",-11.715499183357416],["cup",-11.716086136639438],["PE",-11.71684207898495],["180",-11.71701199564859],["correction",-11.717143361940453],["medal",-11.717490655430117],["Emma",-11.71754618571699],["Between",-11.718718421333197],["asting",-11.718789646830604],["doubl",-11.719031939416347],["Tor",-11.719171944789487],["ters",-11.719376445282546],["UCL",-11.719711037922943],["Industrie",-11.720632083574603],["Hyde",-11.720938436271624],["brutali",-11.721302392466262],["restor",-11.721638632121977],["Fla",-11.72212981052816],["sight",-11.723578864045269],["root",-11.724022065918193],["bull",-11.7241654191228],["relaxe",-11.724462624616411],["3D",-11.724934039879527],["Walm",-11.725883678807325],["attacker",-11.726522467018729],["teenage",-11.726649708886375],["Communis",-11.726783184541073],["Hol",-11.727235824028261],["Fish",-11.727665286769753],["united",-11.727710203618937],["McCart",-11.728378850247616],["chewa",-11.72888347786895],["Nine",-11.728959885637012],["referee",-11.729700273865372],["zing",-11.730111245748098],["Shore",-11.730256202148398],["Hamp",-11.730369762725367],["Environment",-11.730404588277676],["olling",-11.730718521968805],["eated",-11.730821168318863],["sustainab",-11.73087303455705],["pure",-11.731239645109289],["escalati",-11.732155287711024],["ardest",-11.732528344460516],["cliff",-11.732669593824472],["escalate",-11.73289470688427],["monument",-11.733485868924719],["¦",-11.73462139288418],["„",-11.73462139288418],["pneumonia",-11.734622130843096],["Lloyd",-11.734644092588699],["Cowboy",-11.734667862400544],["Jazz",-11.73467633610901],["socio",-11.734753576449908],["Abbott",-11.73483713182202],["gunshot",-11.734899586931947],["Township",-11.73490839687297],["Dutch",-11.734949084391223],["precious",-11.735001905288195],["powder",-11.735008554849628],["battleground",-11.735184095348533],["Revenue",-11.73519155589287],["pos",-11.73551211258706],["Nether",-11.73560597105976],["ped",-11.735887059678939],["ist",-11.735984343462297],["decisive",-11.736014172426756],["194",-11.736109851959446],["valley",-11.73629525166471],["comedian",-11.73674180571286],["disregard",-11.736780391723943],["neglect",-11.736817651394112],["Packer",-11.73688683227867],["Nova",-11.7368923283787],["imprison",-11.73700982914525],["uplift",-11.737092469120906],["submarine",-11.737099043362004],["fluid",-11.737293376628887],["Kol",-11.737671473862004],["flip",-11.73782855918498],["occupation",-11.73794692265293],["Forum",-11.737958469421985],["fragil",
[...]
