{"version":"1.0","truncation":null,"padding":null,"added_tokens":[{"id":0,"special":true,"content":"<UNK>","single_word":false,"lstrip":false,"rstrip":false,"normalized":false},{"id":1,"special":true,"content":"<SEP>","single_word":false,"lstrip":false,"rstrip":false,"normalized":false},{"id":2,"special":true,"content":"<MASK>","single_word":false,"lstrip":false,"rstrip":false,"normalized":false},{"id":3,"special":true,"content":"<CLS>","single_word":false,"lstrip":false,"rstrip":false,"normalized":false}],"normalizer":null,"pre_tokenizer":{"type":"Whitespace"},"post_processor":null,"decoder":null,"model":{"type":"Unigram","unk_id":0,"vocab":[["<UNK>",0.0],["<SEP>",0.0],["<MASK>",0.0],["<CLS>",0.0],["s",-2.4998897826226774],["de",-3.2259786206682897],[",",-3.354354317727152],[".",-3.515579140002272],["’",-3.6596916790742533],["e",-3.825149620555674],["la",-3.9918751514266972],["l",-4.111247429740892],["le",-4.178801349811588],["a",-4.19859894599079],["d",-4.2630658043023235],["à",-4.276939175264047],["et",-4.422850047661596],["'",-4.542331959790159],["en",-4.590586890604632],["les",-4.642931549466594],["t",-4.694245594052454],["un",-4.806270228224488],["-",-4.817274051373101],["n",-4.82982222143688],["est",-4.869960910046908],["du",-4.882714129442611],["des",-4.960122696323692],["une",-5.033736543116072],["pour",-5.062505643424593],["que",-5.116992379928348],["ont",-5.192046061392933],["dans",-5.256227718813687],["au",-5.26621489335246],["qui",-5.29637456189079],["ce",-5.395061260382894],["ment",-5.396137000727544],["sur",-5.443474563742356],["r",-5.467622799759454],["par",-5.490175006891674],["«",-5.564303027569553],["il",-5.5667196938697145],["pas",-5.606792640401581],["Le",-5.726656381994967],["plus",-5.788420011237777],["i",-5.849201115736157],["nt",-5.849266281219336],["on",-5.91270137620373],["c",-5.916692509240502],["son",-5.937969777953212],["qu",-5.9402666088579945],["avec",-5.94103838264599],["\"",-5.943374156278814],["aux",-5.947918653814213],["C",-6.014810142152342],["été",-6.021227990838856],["La",-6.092072656381356],["u",-6.106561622433226],["(",-6.114619926739225],["L",-6.170268069271636],["x",-6.201776475517338],["ent",-6.211788029448149],["y",-6.28024269086367],["o",-6.360877499500619],["Il",-6.364579797938143],["leur",-6.391356217595366],["A",-6.393783271980542],["mais",-6.446309180232712],["Les",-6.448680654724967],[":",-6.452346137075027],["ou",-6.461120308104423],["cette",-6.491250539433114],["é",-6.499505317973842],["fait",-6.507040951193623],["étai",-6.5326060532238355],["20",-6.545409717104146],["»,",-6.560303401566216],["tout",-6.582429745754089],["elle",-6.615460502336628],["être",-6.669043817517572],["»",-6.671222338109576],["puis",-6.6729342573392465],["nous",-6.685020542842651],["jour",-6.72197931492652],["deux",-6.739730088265777],["En",-6.775972156512063],["ans",-6.779529489371274],["autre",-6.795917069236676],["même",-6.799186578551998],["avait",-6.8136952216117415],["vou",-6.817048989985734],["ant",-6.827420978142234],["comme",-6.828176917768365],[")",-6.839210488492544],["aussi",-6.864329178946901],["lui",-6.870178695296648],["faire",-6.942200900784703],["après",-6.961984285552062],["lors",-6.999117065531327],["avoir",-7.012570136541456],["bien",-7.0155394769800346],["année",-7.018181666562952],["eux",-7.047099810434322],["M",-7.049135467568955],["j",-7.07764052981574],["fois",-7.082770584250944],["Ce",-7.0847310900124665],["rès",-7.092750609261766],["entre",-7.111233616192939],["m",-7.117044467195921],["tre",-7.136626843566602],["je",-7.172919710380583],["On",-7.198079011070423],["pays",-7.204944331317132],["contre",-7.207026272382932],["ai",-7.209023403834156],["peu",-7.213307485115462],["Pour",-7.215660548886877],["S",-7.221492465760493],["oit",-7.224246324148161],["%",-7.250732553458233],["D",-7.262672509904161],["personne",-7.268853379850715],["coup",-7.278216362711512],["19",-7.289221845951031],["près",-7.291071852904307],["ait",-7.293345038789028],["2",-7.295331095216393],["temp",-7.296820122249984],["Un",-7.300975000389106],["avant",-7.304926238320466],["fin",-7.307657985971534],["Mais",-7.309717492823446],["peut",-7.314499476179443],["Je",-7.320154125388961],["v",-7.325399376031402],["encor",-7.332847472670218],["De",-7.340017378830957],["égale",-7.3405393906651755],["dernier",-7.342541006233256],["toute",-7.358153294226721],["z",-7.361010913208301],["».",-7.365989433162988],["P",-7.3713294574161585],["1",-7.373268891968178],["premier",-7.374822075172849],["me",-7.3796855567960415],["ù",-7.380476776495679],["Une",-7.394180096679597],["Et",-7.415358841614305],["f",-7.422815591444962],["ux",-7.430675381315592],["sera",-7.431536328653198],["monde",-7.442941209071622],["président",-7.461434738527292],["moin",-7.471563872572239],["vie",-7.477215028974238],["J",-7.486289899054683],["3",-7.487160231495913],[").",-7.4881017099056955],["sans",-7.493061470392456],["première",-7.495653869274154],["ation",-7.510050999066189],["ces",-7.519905055875047],["mi",-7.522837921443694],["2022",-7.523584837735542],["va",-7.526218554702109],["p",-7.528789430322236],["place",-7.5378161418397465],["\",",-7.540204356960171],["tou",-7.542472396353605],["5",-7.556676656320007],["ministre",-7.563265183686186],["Dans",-7.567150360854974],["mois",-7.568174569753587],["pri",-7.573958232258501],["ez",-7.5802131238079316],["Nous",-7.581389664913091],["tous",-7.584690113723646],["tant",-7.590456752318711],["…",-7.591566936994345],["ette",-7.5921239100571505],["elon",-7.595443243040885],["“",-7.595980080509633],["déjà",-7.596620379664155],["nouveau",-7.6007668263362325],["dit",-7.613435229081195],["nouvelle",-7.619519086949411],["quelque",-7.6236505224869715],["trois",-7.633185148362777],["4",-7.637981775453503],["Elle",-7.646964720923258],["donc",-7.654146316696164],["France",-7.660076031460531],["point",-7.661601358668288],["plusieur",-7.675243207122007],["no",-7.67640153299393],["sous",-7.6886540535390875],["semaine",-7.693408164482262],["dernière",-7.697547916534264],["ainsi",-7.701121140775554],["ville",-7.701160875236512],["grand",-7.705585852552467],["?",-7.705930584317574],["h",-7.709715021912944],["heure",-7.71659959371641],["À",-7.7204612212188515],["),",-7.729872368907856],["cas",-7.740493277399658],["suite",-7.743439698344199],["beau",-7.750877214964805],["homme",-7.751105725035234],["projet",-7.757840993857761],["ça",-7.762867714282659],["équipe",-7.773407131930526],["ils",-7.774562884907152],["E",-7.776846372415144],["Au",-7.782149283176076],["Si",-7.7860125624940135],["000",-7.791027138795933],["politique",-7.80033829406695],["gouvernement",-7.8310745595249],["jusqu",-7.833394559227115],["Ukraine",-7.834703273122217],["partie",-7.839136553938619],["lieu",-7.848400749648327],["début",-7.864507516628586],["voir",-7.8707872599526425],["”",-7.872668120647998],["T",-7.875353414642383],["femme",-7.880367876907353],["État",-7.882064738774484],["6",-7.883620686806519],["embre",-7.883842838530939],["million",-7.888896053272817],["part",-7.902694213195676],["vo",-7.914942659551483],["groupe",-7.921929234615781],["B",-7.922219174738689],["faut",-7.922974665041505],["pendant",-7.931294394417932],["service",-7.931503419382743],["10",-7.942663572609242],["entreprise",-7.943137224403553],["notamment",-7.943732726274528],["non",-7.952625115694934],["venir",-7.9591132212643645],["avai",-7.9605571328226485],["Des",-7.9620637794134055],["match",-7.967348030480402],["O",-7.968131777205377],["grande",-7.973517597889955],["2021",-7.9753327355883386],["moment",-7.982594344552716],["nombre",-7.98751849268734],["7",-7.997092652961556],["té",-7.998247277155055],["in",-8.00162610505825],["face",-8.00290214655389],["hui",-8.004495978878243],["vers",-8.004839777755155],["nos",-8.01580791953993],["avon",-8.01873639533792],["jeu",-8.019634039932528],["I",-8.023641911232493],["ci",-8.026426727147932],["déclaré",-8.043461607924655],["travail",-8.047586539749446],["compte",-8.049554158735685],["côté",-8.050440172981762],["certain",-8.053828921692428],["droit",-8.055082029339026],["ès",-8.05648658516269],["effet",-8.056767489950131],["question",-8.063285752376768],["saison",-8.063499410095831],["cours",-8.064352307074575],["ôt",-8.07209617327499],["seule",-8.105306026481594],["reste",-8.110333632227732],["famille",-8.111724359584814],["ons",-8.113651592543219],["18",-8.116551868955309],["ailleur",-8.12045208420954],["porte",-8.125430466651093],["8",-8.127925206459262],["région",-8.128163229768933],["euros",-8.132901975612608],["ir",-8.136690945895346],["car",-8.139591417454916],["jeudi",-8.140016156609569],["pouvoir",-8.140018624231743],["alor",-8.147201590962059],["mal",-8.14735949383308],["situation",-8.151594273165907],["N",-8.152015533328147],["long",-8.156602250121196],["sept",-8.157708365281565],["mercredi",-8.157806012357543],["joueur",-8.158968640850366],["annoncé",-8.1622537013717],["dimanche",-8.163262886135605],["mardi",-8.167917970211036],["lundi",-8.169057380867304],["ité",-8.169937316955448],["quan",-8.172809371275502],["chose",-8.17333362114919],["niveau",-8.173631889319537],["vendredi",-8.175871645381065],["hez",-8.18095724319365],["film",-8.182866513218904],["vent",-8.182942263039529],["rait",-8.183440491169494],["produit",-8.183788802012696],["rapport",-8.185644387365294],["russe",-8.193364568565029],["mesure",-8.19494738605523],["public",-8.200445421760303],["chef",-8.200605366214525],["Saint",-8.203803382039062],["série",-8.206034608943085],["Russi",-8.206037025449191],["veu",-8.207316153773313],["vrai",-8.20740870003208],["ma",-8.20889265382548],["–",-8.209552014731187],["ici",-8.215413252312551],["30",-8.217529408693562],["raison",-8.221764995231286],["dire",-8.226341543204812],["/",-8.231045376883664],["quatre",-8.234773342907502],["suis",-8.239328983012575],["celle",-8.239628922537687],["samedi",-8.2397347608367],["mon",-8.25053807496941],["guerre",-8.255482704046122],["centre",-8.25607829405672],["devant",-8.25818572345324],["F",-8.259771521363668],["bon",-8.260649694851079],["R",-8.263212281179007],["Selo",-8.266387352067696],["Uni",-8.269993318990085],["finale",-8.271850256443377],["jeune",-8.272773674507189],["mettre",-8.274384273548577],["histoire",-8.275487737606444],["9",-8.279623351336824],["mort",-8.288153628783515],["17",-8.288352149546412],["15",-8.291352933365683],["devrai",-8.295677557729285],["but",-8.297560247486956],["membre",-8.29855912710367],["prendre",-8.301064497599835],["Québec",-8.302325534171203],["bonne",-8.30801668756158],["deuxième",-8.310265088459872],["Par",-8.3115509384537],["mise",-8.31659806139903],["police",-8.316793045091124],["cet",-8.316921706687669],["force",-8.31955427826933],["enfants",-8.321353634386337],["G",-8.325721377298068],["afin",-8.330938502207555],["ancien",-8.331038665637713],["cela",-8.338017948436246],["site",-8.343736213548674],["aurai",-8.345654109544377],["rien",-8.351285412612274],["14",-8.354593825965653],["demande",-8.357418745007983],["soir",-8.364571810853906],["24",-8.368136728025277],["aujourd",-8.370250849610413],["petit",-8.371239068359387],["réseau",-8.37843278794566],["pu",-8.380612301895283],["sécurité",-8.381573226053323],["mis",-8.381811471971233],["age",-8.38525046643177],["16",-8.387778646732968],["tour",-8.387799444481347],["somme",-8.392789771632739],["main",-8.39418647939617],["Etat",-8.415087492183932],["Ave",-8.41744280772721],["plan",-8.424005855267213],["12",-8.424054335088611],["pourrai",-8.430404166451785],["possible",-8.439337509443856],["nationale",-8.44768777203732],["janvier",-8.45163188562752],["affaire",-8.451762877543697],["aient",-8.455482089661956],["jama",-8.459351611577212],["quoi",-8.460353779162004],["risque",-8.461758652601794],["titre",-8.471560822568655],["marché",-8.473078472495104],["victime",-8.474550442413687],["serai",-8.474798767473352],["Jean",-8.476323110087538],["anté",-8.476801032075926],["0",-8.477270201642785],["français",-8.477447910621425],["appel",-8.479089546747254],["chaqu",-8.481020032065588],["décision",-8.482126157175767],["occasion",-8.485224915079574],["25",-8.488482499878618],["gens",-8.490175755930764],["cinq",-8.491529349197172],["activité",-8.491855719310399],["besoin",-8.4931139903156],["tête",-8.493312353845315],["pris",-8.493418591923113],["k",-8.49428788973993],["retour",-8.499104008007297],["jui",-8.502003884934343],["seron",-8.503997207008075],["ligne",-8.50674642685869],["trop",-8.508389486407765],["aura",-8.508789494032179],["13",-8.511262169002872],["information",-8.513418793062417],["semble",-8.519455577181464],["explique",-8.522845407860348],[".»",-8.523192134825383],["parti",-8.52444254428439],["jeunes",-8.524518388178421],["crise",-8.526317080441494],["agit",-8.528092478691986],["société",-8.528223638843492],["nov",-8.532791097285457],["important",-8.533990275383013],["cadre",-8.534416860863626],["décembre",-8.536392608185173],["g",-8.537559891532045],["bre",-8.540060364262551],["mars",-8.541281712332795],["rue",-8.54229249122935],["permet",-8.547744681745968],["milliard",-8.561196286689345],["indiqué",-8.561377394875791],["annonce",-8.561958448188907],["mai",-8.562286221837834],["général",-8.562933288988956],["ensemble",-8.565185578923339],["autorité",-8.566312981932093],["secteur",-8.566711094699796],["11",-8.567370772213708],["passé",-8.570586478200457],["journée",-8.571676189398609],["nom",-8.57343274552308],["matin",-8.575372905755241],["Sur",-8.580901725396265],["système",-8.583223256581771],["période",-8.583334757807133],["rencontre",-8.586921593227457],["militaire",-8.591886628468625],["ur",-8.593173471357307],["maison",-8.596163149520027],["simple",-8.597529743614638],["fil",-8.601351327103664],["enquête",-8.60298003822005],["population",-8.607660835157454],["responsable",-8.609104411956112],["cause",-8.60974117922497],["problème",-8.611199909247842],["image",-8.611244334059093],["prochain",-8.615788396343907],["offre",-8.61655650652427],["désor",-8.619342019586224],["certaine",-8.620251368508335],["!",-8.621770614432883],["uillet",-8.622138296167428],["\".",-8.623009865363024],["élection",-8.62505164723804],["actuelle",-8.625285803095785],["école",-8.625773367822646],["accord",-8.63246941774172],["seul",-8.637130070558735],["évrier",-8.637287731199619],["200",-8.638812374664477],["moi",-8.639811960863023],["mment",-8.640501574706192],["minute",-8.641654855077217],["presse",-8.644152608523882],["Europe",-8.64732059594614],["octo",-8.64994349474285],["b",-8.650590325564522],["publique",-8.650806618953322],["ing",-8.65420738669585],["zone",-8.661884606068128],["souven",-8.66220530863453],["ter",-8.662261490353426],["directeur",-8.663857799841278],["V",-8.665982600266034],["objectif",-8.66746126113335],["exemple",-8.673365456741847],["K",-8.675762941550218],["état",-8.682451046455128],["€",-8.682742181255119],["armée",-8.68539872296223],["national",-8.687974228193166],["loi",-8.690454372824371],["passe",-8.694279949358975],["club",-8.695872343846622],["soutien",-8.699435002959662],["Ils",-8.701890063960864],["rapide",-8.706860204459662],["vril",-8.711829765879305],["H",-8.712093049438657],["communiqué",-8.715295832819251],["terme",-8.716697314373317],["hausse",-8.71731302910566],["50",-8.717466287115123],["prochaine",-8.718017172932408],["partir",-8.719656485192615],["font",-8.719668628879973],["événement",-8.723135055693373],["Cela",-8.72323752452603],["meilleur",-8.72376256476314],["programme",-8.732365796035527],["Paris",-8.732721771458028],["difficile",-8.73584605471845],["passer",-8.73735195086508],["Covid",-8.739071076785702],["commune",-8.739187170441372],["environ",-8.741055871192295],["tard",-8.742758670132641],["économique",-8.74308356699536],["quelle",-8.744993393041405],["américain",-8.746235640614028],["attaque",-8.747049735602038],["troisième",-8.753281904677984],["nuit",-8.757084224825142],["parole",-8.758449002096931],["action",-8.762277500275946],["Son",-8.764684286540394],["organisation",-8.764982612173732],["Tout",-8.765260921977495],["feu",-8.769001265011404],["présent",-8.769483293105933],["scène",-8.772904150446983],["développement",-8.776267866430892],["aller",-8.777512700088359],["victoire",-8.780005917250076],["œuvre",-8.781367935480386],["rend",-8.78225718533337],["aide",-8.785059755333396],[".\"",-8.787815994944207],["énergie",-8.788490804758126],["route",-8.788597925356232],["candidat",-8.78993296679953],["jeux",-8.790664322828942],["Ces",-8.79317197998083],["grâ",-8.794744272355103],["prise",-8.794853161783024],["ajouté",-8.795213728459103],["ministère",-8.796875931644877],["aucun",-8.801472792711916],["août",-8.801504118671087],["fort",-8.802215922599853],["opération",-8.803107233630257],["conseil",-8.80469415953322],["production",-8.805303279262478],["député",-8.805373500700949],["petite",-8.80890091905354],["recherche",-8.810829196511328],["Comme",-8.811571236746474],["autour",-8.813448245160549],["manière",-8.81621979260883],["avantage",-8.817310794449693],["vue",-8.819864865186453],["sujet",-8.820307418374568],["fond",-8.8208753923418],["voiture",-8.822024727686744],["campagne",-8.824886145389197],["abord",-8.826192149053623],["base",-8.827776352820806],["haut",-8.830132489697833],["condition",-8.831307953081083],["donné",-8.83283664735523],["rôle",-8.833917997596696],["forte",-8.837452309133461],["résultat",-8.838087378638235],["trouver",-8.838625627885389],["loin",-8.838888690049775],["vez",-8.838908658074518],["2023",-8.83946393412959],["reçu",-8.844753400098792],["attend",-8.845826267344357],["six",-8.847450640880341],["forme",-8.848678007000288],["co",-8.850783268833505],["Afrique",-8.851531512837216],["jouer",-8.852763392610449],["donner",-8.854297884652949],["Macron",-8.855965666488],["or",-8.856181769438248],["choi",-8.856884560895633],["formation",-8.8570704753364],["Conseil",-8.85969979474115],["Vou",-8.860046260479368],["terrain",-8.862627574726835],["pandémie",-8.862753619916905],["arrivée",-8.863643955336254],["total",-8.86387580307219],["idée",-8.863883279564039],["départ",-8.865602177036997],["source",-8.867295056946148],["$",-8.867894911294847],["juste",-8.874855397589164],["permis",-8.877242956845922],["ayant",-8.879047811839685],["charge",-8.880938188918435],["ré",-8.881985114218386],["dollars",-8.883069877265285],["édition",-8.890439394832098],["sein",-8.896811424252132],["connu",-8.897056389810205],["moyen",-8.897211484941895],["territoire",-8.897397100970935],["22",-8.898207501920826],["parce",-8.898273450242566],["plut",-8.899584384413188],["U",-8.900005149804787],["décidé",-8.902220851824238],["urant",-8.905799284334112],["succès",-8.909224999006893],["direction",-8.910739071779815],["proche",-8.911673220415938],["40",-8.913423045425585],["W",-8.91344757274459],["père",-8.915529527743479],["client",-8.91638721061863],["Canada",-8.923730779851663],["trouve",-8.924674157386006],["sortie",-8.924829543200143],["pense",-8.927966132738],["100",-8.92824610210537],["dû",-8.92893634881197],["travers",-8.929507976043526],["vidéo",-8.930145235850949],["21",-8.932767969541953],["intérêt",-8.93573617895914],["soci",-8.936659932130226],["donnée",-8.938341604278644],["indique",-8.945052352957795],["ukrainien",-8.947823354905214],["façon",-8.960174431020405],["gaz",-8.963760297585868],["gré",-8.967264254026249],["milieu",-8.96963087789743],["habitant",-8.971059215112254],["Du",-8.972214830304551],["qualité",-8.973885201977335],["marque",-8.975853568054276],["fille",-8.976938166498108],["27",-8.977343670450551],["doive",-8.977808040549407],["soi",-8.977883644354787],["hôpita",-8.978125466919366],["étude",-8.978144647390314],["acteur",-8.980103931628566],["Sa",-8.980430081811315],["Suisse",-8.983075413193628],["européenne",-8.983391144322198],["elles",-8.98553739147938],["ve",-8.985833041758973],["association",-8.988370055819864],["date",-8.99019550850718],["maintenan",-8.991836157413132],["générale",-8.999803397276187],["ront",-9.004030810462963],["midi",-9.004270357630949],["peine",-9.004499712494631],["coût",-9.00672783122354],["voi",-9.008634951157267],["valeur",-9.008881099474252],["dossier",-9.009180604990195],["cœur",-9.011987789369709],["belle",-9.013536588541122],["aucune",-9.015728204513595],["nombreuse",-9.015914415045733],["course",-9.01756495352516],["chance",-9.019726813241686],["média",-9.019780462494381],["espace",-9.020135280065757],["corp",-9.022447396976482],["rendre",-9.024274956141415],["Belgi",-9.025078307445785],["lancé",-9.025613931028973],["donne",-9.026085470063087],["lutte",-9.026630701345741],["pied",-9.032947632370576],["26",-9.033054358558436],["nécessaire",-9.033113108989687],["propre",-9.035786441770703],["livre",-9.03618932365259],["contrôle",-9.036569697126419],["mer",-9.039579737452096],["23",-9.04065252085472],["combat",-9.042996804612127],["propos",-9.043025751666534],["justice",-9.046317618412914],["précisé",-9.050635960953116],["carte",-9.052513728812961],["solution",-9.052605723592318],["Nord",-9.054205732990695],["Emmanuel",-9.05488270822607],["matière",-9.054889201529438],["isme",-9.05561018782841],["mère",-9.058430831331261],["No",-9.058669012218367],["telle",-9.059358205118656],["ordre",-9.05956855050272],["violence",-9.060421779041278],["changement",-9.062116901881769],["argent",-9.063773705905255],["internationale",-9.067484234554575],["train",-9.067676751656112],["gauche",-9.069907871638868],["communauté",-9.071532712665828],["plein",-9.072992274313346],["perdu",-9.074387290169302],["nord",-9.07479805947304],["maire",-9.075282124150627],["expérience",-9.077174849425091],["quartier",-9.080094534725717],["permettr",-9.080381889101638],["Plus",-9.081865545003268],["économie",-9.082550062884575],["particulière",-9.08279241368996],["sanitaire",-9.083088966046269],["poste",-9.084915608550236],["pratique",-9.08536987641239],["savoir",-9.085434691720423],["modèle",-9.08561224417803],["estime",-9.085615477381468],["propose",-9.089449837897488],[";",-9.091301228811894],["28",-9.095724496922564],["auteur",-9.097392465245374],["parler",-9.097640146193537],["juge",-9.099143902370622],["60",-9.105008486314624],["trav",-9.107073925253811],["salle",-9.107213776575962],["journaliste",-9.108636177530652],["Or",-9.10940259896531],["prévu",-9.111608904795844],["importante",-9.11203225822537],["disponible",-9.11439026155554],["objet",-9.114392832750935],["République",-9.114399785695062],["manque",-9.114505197740801],["avion",-9.11465771644201],["accè",-9.11609874532543],["prend",-9.118873029928725],["montre",-9.120029937786015],["terre",-9.122987285699097],["voie",-9.123277853528302],["présence",-9.126141132742701],["ouvert",-9.126236340268253],["Quan",-9.127169565492942],["relation",-9.129046614640883],["Premier",-9.129101099975417],["revenu",-9.1322249354676],["entrée",-9.132261177189276],["mission",-9.133841824916356],["Coupe",-9.13695464268104],["technique",-9.137411559261224],["citoyen",-9.137695797113743],["port",-9.13904502497589],["seconde",-9.139713666456153],["artiste",-9.141223849054645],["art",-9.141597941868952],["différente",-9.143055944568669],["élu",-9.147298491018692],["insi",-9.14839668748545],["doute",-9.148713803137284],["époque",-9.150115652856062],["élève",-9.150329350235381],["Union",-9.150941450888862],["retrouve",-9.152527393148606],["dix",-9.155357987903315],["fonction",-9.155709929337009],["défense",-9.155843996933056],["bout",-9.157043864312948],["Z",-9.158501878287353],["capacité",-9.159177986783732],["emploi",-9.159179700928753],["européen",-9.162044064937383],["vivre",-9.162413973708883],["tir",-9.162670502684321],["droite",-9.162674622658677],["vente",-9.16489220837449],["demandé",-9.165818289975618],["gros",-9.165928210910746],["enfant",-9.166215403270227],["ch",-9.166264911116766],["transport",-9.166394417523996],["précise",-9.166429787417986],["carrière",-9.166824943670868],["rendu",-9.168929315853592],["gne",-9.17063441929075],["comment",-9.171219584316617],["garde",-9.17158297364107],["russes",-9.173444211748766],["différents",-9.174019241666961],["500",-9.174311877871034],["air",-9.174788579251976],["française",-9.175500981639008],["armes",-9.17617909926053],["meilleure",-9.176719669819384],["reprise",-9.177558612637466],["Maroc",-9.177657024442922],["prêt",-9.17913780653495],["arrive",-9.179962226249042],["Pierre",-9.18393608708974],["appelé",-9.186110179666766],["Poutin",-9.187040943653834],["longue",-9.187258756665235],["personnel",-9.187988745563455],["mondiale",-9.188395912704088],["américaine",-9.188405061379894],["réussi",-9.188722296338362],["principale",-9.188791722813955],["visite",-9.188862862370382],["capitale",-9.189895627654742],["extrême",-9.190184042830083],["écran",-9.190311300560136],["mot",-9.193470548553988],["accusé",-9.196614687110477],["lorsqu",-9.197008963858973],["sociale",-9.198685782805336],["Ça",-9.200387247228036],["Grand",-9.202832168501205],["policier",-9.202862698652],["établissement",-9.202865512577642],["majorité",-9.202916641770368],["aine",-9.203342734834038],["atteint",-9.204578575731402],["Ville",-9.206264753560152],["it",-9.206647462132064],["message",-9.214096909875202],["étant",-9.214769977998781],["sûr",-9.215783814385365],["plateforme",-9.215828301177922],["peuple",-9.21587101214213],["Mosco",-9.215976194745917],["unique",-9.216201519288695],["mouvement",-9.220548540935798],["plu",-9.221678378380194],["écrit",-9.221940224208598],["créer",-9.222060703430065],["impact",-9.222316799855593],["voit",-9.222678866615603],["locale",-9.22367476099006],["affirmé",-9.225891521979811],["arrêt",-9.22698923076831],["présente",-9.227533327044464],["aider",-9.228258914064579],["origine",-9.231943328552305],["vol",-9.23218402450069],["dirigeant",-9.232199554793937],["répond",-9.235239318815928],["Même",-9.235306871961022],["rester",-9.23567521066682],["véhicule",-9.236344650907778],["presqu",-9.236589132530273],["compagnie",-9.23858054173635],["80",-9.239432339692161],["âge",-9.241896935875388],["mètre",-9.24275885219502],["ël",-9.24304941348453],["X",-9.244075268917491],["expliqué",-9.245392821562422],["bureau",-9.245799231438856],["réalité",-9.248573725324103],["Lors",-9.25174881135193],["parent",-9.25245417249953],["70",-9.253242361987748],["continue",-9.254016215082732],["Car",-9.254463393937069],["version",-9.25827413251765],["ajoute",-9.260435082957553],["pré",-9.260990064130912],["accident",-9.261667433081605],["AFP",-9.26205928203444],["officielle",-9.264191213239169],["Montréal",-9.265265185309744],["hors",-9.26542804685766],["construction",-9.26555281671832],["man",-9.265946167855384],["réponse",-9.268784163443403],["bas",-9.270870063601278],["dizaine",-9.272197168642641],["pouv",-9.273646447986469],["grave",-9.275625599546645],["employé",-9.27565792724021],["km",-9.27668471661151],["étape",-9.279145528404504],["prison",-9.279935721881465],["facile",-9.282513829831661],["29",-9.282853591751378],["ement",-9.283852081340838],["nombreu",-9.28508283665052],["genre",-9.2859808019608],["soirée",-9.286152784418448],["arrêté",-9.287261657243349],["professionnel",-9.287686053350697],["souligne",-9.288741681312473],["affirme",-9.289253291605249],["Est",-9.289665582506926],["sol",-9.290967023197158],["liste",-9.292384902597927],["conflit",-9.292938122669977],["retrouver",-9.295496165654288],["augmentation",-9.296466270333434],["New",-9.296911789870581],["rare",-9.2979780825872],["travailler",-9.299374427794424],["Twit",-9.30027572875239],["rez",-9.303086161259134],["conférence",-9.303571210740973],["baisse",-9.303924165334408],["position",-9.304083895096092],["Chine",-9.30704742625376],["allait",-9.307461020515873],["voyage",-9.308952196959572],["Français",-9.310076382874726],["achat",-9.310678944825163],["ner",-9.311870079001746],["profit",-9.311899364111152],["agent",-9.31193627722893],["village",-9.31408263256047],["commencé",-9.314095365410253],["ère",-9.315662822301704],["publié",-9.315717517402746],["représente",-9.316100001206546],["véritable",-9.31765945348699],["critique",-9.31836222790552],["PS",-9.318724003026377],["souhaite",-9.3191439844239],["international",-9.320501289793828],["camp",-9.320697929531377],["Sud",-9.321290859407691],["gestion",-9.321908375092942],["ouverture",-9.322095571767967],["Centre",-9.322577494157525],["sanction",-9.323676954831225],["Isra",-9.324459907072113],["Bruxelles",-9.324841038860482],["incendie",-9.32497003519985],["avocat",-9.328451345522483],["historique",-9.328528883724204],["domaine",-9.329444149812804],["asse",-9.331652131949514],["PC",-9.331812865126981],["mode",-9.331914232609455],["ukrainienne",-9.332350398799981],["viru",-9.332366026187072],["centrale",-9.334992495821808],["administration",-9.335710460531097],["éviter",-9.339828985281756],["réunion",-9.340439171152521],["création",-9.34134778795277],["court",-9.341441238126457],["met",-9.341949420187428],["contrat",-9.343025278255865],["moyenne",-9.343328869534897],["devenu",-9.34356321646868],["étudiant",-9.344598739404626],["venu",-9.346552649602122],["vote",-9.348600549165258],["Pas",-9.349407396544269],["urgence",-9.351019047078037],["réalisé",-9.353176065616932],["tribuna",-9.355736269790661],["mes",-9.357104194759176],["liberté",-9.357810926379207],["conséquence",-9.357834343345129],["province",-9.357840002384972],["avance",-9.358010958112686],["supplémentaire",-9.361545741436514],["inflation",-9.36155841660306],["frontière",-9.361568178726076],["danger",-9.361643271845322],["décè",-9.361727003357991],["assure",-9.36294732429623],["vite",-9.363040176636424],["lien",-9.363514745261849],["ier",-9.364114748844404],["représentant",-9.365303050197507],["compris",-9.365761046494914],["présenté",-9.36710177355166],["social",-9.371070234324058],["anti",-9.372769287320487],["particulier",-9.37282042798276],["rouge",-9.37456966709129],["huit",-9.376332396975185],["tenu",-9.378659242306366],["assuré",-9.379961307329436],["record",-9.380410672156758],["partenaire",-9.380415493584154],["type",-9.380632150995687],["Y",-9.382834032042489],["Cha",-9.384753991632879],["1er",-9.384966207439057],["François",-9.38805897447417],["trouvé",-9.388074228205499],["élément",-9.392056195560869],["Deux",-9.392490600780226],["É",-9.394595727110897],["large",-9.394702733329671],["—",-9.395765956960716],["souligné",-9.396081261728831],["assurer",-9.3977555107535],["cinéma",-9.399634076552047],["investissement",-9.399655437606738],["maladie",-9.399778602321371],["obteni",-9.399874829359872],["texte",-9.39999201565463],["Ni",-9.400001888298162],["possibilité",-9.403502567647028],["millier",-9.403564206249257],["chacun",-9.40359713408494],["andis",-9.406001825804989],["cher",-9.406837580425929],["application",-9.407540873979809],["banque",-9.408393998448243],["continuer",-9.411502191098013],["privé",-9.411760575880532],["35",-9.412530630961474],["centaine",-9.412968860413876],["Malgr",-9.413682528568014],["ion",-9.414113699393772],["climatique",-9.415329138405788],["note",-9.416245476947953],["populaire",-9.419214897173156],["hiver",-9.41928131533724],["vos",-9.421647422882451],["totale",-9.423436640111525],["pourra",-9.423470558954977],["étranger",-9.42405670185776],["31",-9.425135616278961],["champion",-9.427170934431398],["passage",-9.4283312442323],["ser",-9.428553589331251],["voulai",-9.429175173869858],["physique",-9.430424440728057],["90",-9.4306107489596],["second",-9.432998671737838],["hier",-9.434201209224074],["musique",-9.435218837987165],["initiative",-9.435221235069456],["compétition",-9.43522794824211],["opposition",-9.4352294927014],["rappel",-9.436081731245284],["bord",-9.436946509982018],["effort",-9.439277979750816],["expert",-9.439371760580105],["St",-9.44189444783981],["mandat",-9.441899282983737],["Bien",-9.446659640759972],["The",-9.447128221480908],["épisode",-9.447368841493645],["faudra",-9.44766439819292],["bâtiment",-9.447847838239124],["scolaire",-9.451258851354357],["week",-9.4513004013778],["difficulté",-9.451482882995194],["émission",-9.4523720488552],["aix",-9.453724576392595],["inscrit",-9.455137603857874],["protection",-9.455596434213245],["joué",-9.455715609369644],["double",-9.456021635132272],["Toute",-9.456698369532855],["Allema",-9.459374831274415],["Ben",-9.459392243966388],["of",-9.459561047993645],["numérique",-9.459776641141204],["quotidien",-9.463549220338027],["propriétaire",-9.463640727056049],["humain",-9.463962646334654],["belge",-9.464119838778764],["via",-9.464278231101732],["choisi",-9.464525031905819],["présidentielle",-9.464794278806078],["fédéral",-9.465443751273035],["ouverte",-9.466449950806982],["véhicules",-9.46666069582465],["agence",-9.46810997809887],["pompiers",-9.46877346157114],["table",-9.469435941274009],["chaîne",-9.470523710155877],["pleine",-9.474145803328422],["Ma",-9.475136378357298],["Côte",-9.47553967953069],["sorte",-9.475923493898737],["John",-9.47638146127855],["attendr",-9.479039089474991],["sort",-9.481951516304237],["élevé",-9.482869135873358],["article",-9.48520023407137],["faisant",-9.485571510030786],["laisse",-9.487515545024195],["sommet",-9.487834875472618],["montant",-9.489183442636566],["cour",-9.489784334119289],["arrivé",-9.491611885297996],["Cour",-9.491983663954104],["acte",-9.49317727915051],["rappelle",-9.493811524101964],["ancienne",-9.493887505717767],["cité",-9.49456666748108],["45",-9.497649038794183],["suivr",-9.498812047493544],["preuve",-9.50027949755866],["technologie",-9.501724004297227],["sortir",-9.502749597504419],["électrique",-9.506057695668964],["Ligue",-9.506124459269204],["quart",-9.506812341166459],["culture",-9.507951910249364],["spectacle",-9.510410628834782],["intervention",-9.510418593671023],["logement",-9.510747097618511],["signé",-9.512226168903211],["concerne",-9.512976051511995],["football",-9.514426418692498],["probable",-9.514727093890603],["199",-9.515086868639713],["endroit",-9.515505242743508],["directe",-9.515921506615136],["fête",-9.515963730486856],["marqué",-9.51744024285487],["mondial",-9.51811984771816],["manifestation",-9.519139147624879],["vingt",-9.519140930072776],["nucléaire",-9.519217359810437],["échange",-9.519818874406262],["procè",-9.51990032088209],["suivi",-9.520017517018058],["sait",-9.52315257209934],["pouvai",-9.523460236940714],["judiciaire",-9.523505121401495],["Paul",-9.523807901103973],["franc",-9.524026789252488],["atteindr",-9.52502717702761],["plainte",-9.525728336599332],["faisai",-9.525842819724605],["remporté",-9.528989746920399],["gagner",-9.53120333321595],["interne",-9.53240682059888],["%)",-9.533176059447534],["changer",-9.534428762059523],["existe",-9.534522136879083],["affiche",-9.534912291238129],["conclu",-9.535327853696007],["ujourd",-9.535652758165416],["invasion",-9.536825891993796],["transition",-9.538392632710519],["claire",-9.538491982959972],["document",-9.538685393897508],["communication",-9.53905480606091],["+",-9.539412910418207],["régime",-9.542738592672228],["chemin",-9.544529650816557],["concerna",-9.544636679321735],["stade",-9.549897136654703],["découvrir",-9.550264828164961],["Santé",-9.552588958117877],["tué",-9.553666403803254],["quant",-9.55405000988997],["libre",-9.55486365089902],["pression",-9.556936499248621],["électrici",-9.55801877554529],["noir",-9.558151948436521],["retrouvé",-9.558339400797848],["département",-9.559080586597009],["déclaration",-9.559909255760225],["Kie",-9.560320613715202],["able",-9.560328127547526],["°",-9.563875387177927],["budget",-9.563875395129422],["salaire",-9.563911215123245],["règle",-9.5639708753299],["commun",-9.56594923601695],["Tour",-9.567311693278276],["commence",-9.56756740219856],["fut",-9.568026985135646],["Re",-9.568119249492472],["respect",-9.568879497410727],["réforme",-9.56941997704715],["réce",-9.570181701963957],["espère",-9.572049345265178],["Van",-9.572242038506868],["britannique",-9.573070838072322],["neuf",-9.573076917755236],["porté",-9.573777650712723],["personnage",-9.574825115463375],["contact",-9.575805973316388],["environnement",-9.576846269705573],["médecin",-9.577034183211655],["perte",-9.577996562119107],["commerce",-9.578136144345578],["permett",-9.579038246902027],["entretien",-9.579810404992145],["utiliser",-9.580160659823559],["ard",-9.580470110879574],["vague",-9.580787993341897],["von",-9.580792093729006],["répondr",-9.580810435017174],["prévue",-9.582244249073922],["espoir",-9.582358806938656],["langue",-9.582400693986465],["photo",-9.5826537794402],["”.",-9.583815004559874],["utant",-9.583836277550736],["figure",-9.588258526981578],["rang",-9.591288242173686],["confian",-9.591645480043267],["contexte",-9.591790006313587],["enir",-9.594749142497736],["loc",-9.595128400819554],["confirmé",-9.596007335712692],["kilomètre",-9.596459964826561],["responsabilité",-9.596467139233575],["alimentaire",-9.596481576090884],["Michel",-9.596982321573003],["piste",-9.597015100763109],["discour",-9.59737768694631],["raconte",-9.59811586091578],["puissance",-9.598510430061136],["errière",-9.598583922141213],["%.",-9.59882508716462],["demi",-9.600282977016107],["touché",-9.60148164256396],["process",-9.601489308308707],["essus",-9.601703318718476],["reconnu",-9.601730096394363],["âgé",-9.601790389693061],["Q",-9.602255086301568],["lié",-9.602945677234137],["estimé",-9.604847204561132],["négociation",-9.605820084214109],["phase",-9.606141225960481],["avis",-9.607750608294833],["chiffres",-9.607898540572794],["intérieur",-9.608013386619529],["Marc",-9.609125737673516],["joue",-9.610066628521851],["tournoi",-9.610729681656348],["attente",-9.610819354633144],["débat",-9.610911005014191],["aventure",-9.611346910829505],["lusieur",-9.611724048551165],["UE",-9.613148738280874],["page",-9.613423665247797],["régulière",-9.615223602570921],["secrétaire",-9.615535012126081],["balle",-9.616303890935631],["outre",-9.619720754152292],["situé",-9.621724644897304],["Mon",-9.623159154887329],["vert",-9.623966648173003],["Louis",-9.624986795028269],["étrangère",-9.625229378988454],["géant",-9.62533705512313],["nature",-9.626252736994068],["parc",-9.626253136201367],["appareil",-9.627160123931837],["engagement",-9.628042257275922],["lance",-9.628248874368058],["marche",-9.62860565110827],["clair",-9.629588334928249],["cérémonie",-9.630178242770592],["soldat",-9.630247175861632],["volonté",-9.630248888253462],["crime",-9.630485805146012],["civil",-9.631075560502854],["défi",-9.631250428761815],["utilisé",-9.631287414919855],["sens",-9.63135821437599],["unité",-9.632466481215],["Certain",-9.633857670976887],["génération",-9.63497185336626],["siècle",-9.634995277078335],["fer",-9.635036503407253],["arme",-9.638217527909237],["festival",-9.63942334971507],["augmenter",-9.640997915262712],["numéro",-9.644859607737867],["championnat",-9.644873339336819],["invité",-9.645199143293285],["actuel",-9.645333133571297],["entraîneur",-9.645353918928674],["remise",-9.646357682747688],["comprendre",-9.646957271451418],["nation",-9.649577762840469],["frère",-9.649792033086669],["approche",-9.651273880475152],["rêve",-9.652029096941927],["compter",-9.6545507955739],["énergétique",-9.654846991239854],["contraire",-9.654847062605093],["financier",-9.654847349340677],["Avant",-9.655249052313707],["endant",-9.655516719787634],["Go",-9.655850524159273],["épreuve",-9.656621836984419],["vaccin",-9.656738675681336],["peur",-9.658996683839053],["capable",-9.659703231010774],["souten",-9.659821276406653],["croissance",-9.659874056156056],["consommation",-9.659890411263511],["couleur",-9.660480829377407],["principal",-9.662103162607291],["quatrième",-9.664922632840213],["commission",-9.665036150579091],["proposition",-9.6653410653742],["travaille",-9.665628896718827],["appelle",-9.666342395862536],["classe",-9.667713316260738],["lancer",-9.668488879027372],["blessure",-9.670002967320585],["institution",-9.670059511087471],["vitesse",-9.670207433743155],["fera",-9.670786016489465],["offrir",-9.67080153742106],["instant",-9.671237282406317],["ba",-9.671330524148814],["Algérie",-9.671804818636804],["surprise",-9.671918322287405],["porter",-9.674251812315923],["poursuit",-9.675223512956748],["limite",-9.675389568257678],["sport",-9.676266717553133],["veille",-9.678338066672225],["Martin",-9.678347195764438],["bande",-9.67968049825162],["participer",-9.679693396608457],["station",-9.679834095258531],["célèbre",-9.68022901088921],["financière",-9.680832967903005],["profiter",-9.68085018456944],["condamné",-9.681571444006169],["actions",-9.683156683343825],["bilan",-9.685513270361492],["comité",-9.685592431021789],["durée",-9.685896930826363],["Face",-9.686513097372561],["courant",-9.688120648842107],["tient",-9.690342359627914],["tension",-9.69059147678513],["option",-9.693118668185274],["patient",-9.695397113334359],["stratégie",-9.695773410300514],["York",-9.695776308201044],["tendance",-9.695804753503122],["importe",-9.697535210908228],["parcours",-9.69765789608617],["David",-9.698382649753334],["anim",-9.700044125689049],["industrie",-9.700070572407963],["intention",-9.700768275700884],["moitié",-9.701010448001416],["patron",-9.701138866670641],["puisqu",-9.701217849405474],["revien",-9.701802391391759],["issue",-9.701980402491568],["Tous",-9.702289627747426],["analyse",-9.70349201860466],["aime",-9.704238023207447],["domicile",-9.70627260288437],["absence",-9.706273384429725],["vait",-9.706343619099773],["menace",-9.706405410325807],["ressource",-9.711581771617526],["comprend",-9.711657103090104],["esprit",-9.711702233725237],["contenu",-9.71208109604604],["Que",-9.712158860582257],["évolution",-9.712566917554408],["tenue",-9.715084723149992],["Vladimir",-9.716882278798522],["Sans",-9.717628805252971],["ferme",-9.719303939701835],["roi",-9.72003602912474],["outil",-9.720699123980127],["Sénégal",-9.722112872885102],["Assemblée",-9.722231951845128],["siège",-9.722600171908717],["hauteur",-9.723645751635551],["regard",-9.724366917700717],["puisse",-9.72518138987759],["travailleur",-9.725420327220252],["haute",-9.7254344306652],["détail",-9.7280007822799],["envie",-9.729049042909143],["amour",-9.736193414428687],["enregistré",-9.736600317248067],["otr",-9.737128551184933],["conseiller",-9.738100924242012],["quasi",-9.738610378996764],["Pen",-9.74086870003159],["nouvel",-9.740897836889712],["financement",-9.741414381339633],["retraite",-9.742322429369231],["Président",-9.742362580944503],["dispose",-9.743719787492894],["classique",-9.743916505341428],["scientifique",-9.74392953699669],["évidem",-9.743968334499558],["catégorie",-9.744237444897362],["ois",-9.744297344841396],["dénonce",-9.744347168302532],["participation",-9.744448438992904],["2015",-9.74455941090903],["payer",-9.744976408339165],["structure",-9.746403220625648],["liée",-9.747013794425154],["laisser",-9.747527626871051],["quitter",-9.747569524541333],["vis",-9.747730729458802],["touche",-9.748121081604808],["ête",-9.74840374808284],["téléphone",-9.749560535431495],["réduir",-9.749578548405719],["Noël",-9.749723365797191],["bois",-9.75048868848311],["obtenu",-9.752660780129638],["troupe",-9.75517291478373],["ouest",-9.755194731222016],["île",-9.75569912200839],["placé",-9.756376044165584],["particip",-9.756598542097038],["engagé",-9.759312008293646],["Trois",-9.760517165482682],["prévenu",-9.760910665965122],["réaction",-9.761030578236786],["officiel",-9.763008829174439],["Marie",-9.763998899406982],["star",-9.765404455365262],["organisé",-9.765480296918598],["300",-9.765823880369304],["procédure",-9.766075188061686],["grève",-9.766106491460246],["forcé",-9.76854935958489],["dose",-9.77028331772889],["arrière",-9.771054900085149],["lumière",-9.771690395164839],["Pro",-9.77179529478198],["précédent",-9.771802223560421],["arriver",-9.771918197206507],["vienne",-9.77287639920309],["importan",-9.773729399400903],["attention",-9.774165295957996],["civile",-9.775743472097837],["chiffre",-9.776455584332641],["lin",-9.776681795161954],["super",-9.77681237728996],["discussion",-9.777340060571195],["terroriste",-9.777375072830736],["inter",-9.777475398779538],["restaurant",-9.777824983952243],["eurs",-9.778678033761079],["laissé",-9.781184820643954],["tier",-9.781298103992906],["matériel",-9.782673594823141],["classement",-9.783004388394644],["Quant",-9.783981071224094],["amis",-9.784325416348334],["Nation",-9.785796615919676],["hôtel",-9.786175022525732],["Parti",-9.786325318128569],["exercice",-9.788736164629817],["tte",-9.79265254908949],["chambre",-9.794489261402736],["agression",-9.794715832177658],["entend",-9.795072439545255],["Entre",-9.795952751643016],["suspect",-9.797803263171343],["devien",-9.798578445400782],["lettre",-9.7987896842915],["principe",-9.800263638035592],["infrastructure",-9.800264768437836],["habitude",-9.80028073133192],["Affaire",-9.800308029253486],["vien",-9.80031529545018],["univers",-9.801782750838406],["Beau",-9.801913840663726],["attendu",-9.805848978861585],["adversaire",-9.80607768924796],["plaisir",-9.806078828976727],["reveni",-9.806211838986501],["devra",-9.807399174683171],["terminé",-9.808700294489089],["vi",-9.810411339725256],["vise",-9.811279674293989],["positif",-9.81192222312332],["Commission",-9.81195248847073],["pire",-9.812036698645501],["75",-9.812889513737868],["sorti",-9.813941703556043],["accueillir",-9.814501191023187],["complètement",-9.814657432819983],["direct",-9.814951414389501],["frappe",-9.816447311676669],["revanch",-9.81771682464128],["olympique",-9.817828251629834],["circuit",-9.817870670305785],["prévoi",-9.817895998735086],["accusation",-9.817981325474157],["protéger",-9.817983439562864],["Charles",-9.818938689828785],["Al",-9.820596678401404],["entendre",-9.821008656314874],["vais",-9.822084849459703],["partage",-9.82233949485457],["99",-9.822806020831944],["journal",-9.823613129286773],["tentative",-9.823726176477173],["faveur",-9.823727180979242],["installation",-9.82374345269897],["entendu",-9.823872104262641],["connaîtr",-9.82458881817664],["eur",-9.825396789002774],["réaliser",-9.825783645955433],["température",-9.82970909852731],["voisin",-9.830082823662014],["aire",-9.83342308604994],["cherche",-9.833630313906395],["vision",-9.83398027892153],["poursuivi",-9.834038977317835],["réfugié",-9.83566546203691],["présenter",-9.836263834135053],["créé",-9.836404099152839],["ajouter",-9.836478157332168],["parquet",-9.836713153304238],["entière",-9.83673502055275],["vacance",-9.841702487426046],["pa",-9.841793038442148],["extérieur",-9.84196657339028],["blanc",-9.844196708364652],["lesquel",-9.845985738035036],["magasin",-9.84772525933176],["honneur",-9.84775019809764],["organisme",-9.847872742675698],["militant",-9.848024831395911],["Philippe",-9.848113681013071],["soin",-9.848844146765831],["TV",-9.850079454447748],["poi",-9.850164559757832],["blessé",-9.851970387251413],["leader",-9.852163254249046],["Fond",-9.852404969965017],["référence",-9.853322444425615],["Luc",-9.85352358749082],["actif",-9.853723533315026],["rythme",-9.853850123915546],["disposition",-9.853857881297088],["utilisation",-9.85394427637151],["Russe",-9.854454346655206],["con",-9.857510964364906],["individu",-9.858169013361355],["performance",-9.858226796245656],["faible",-9.858451805000339],["proposé",-9.858503987596544],["incident",-9.859983020559982],["précédente",-9.860586976372453],["traitement",-9.860949082343652],["32",-9.862406278364606],["pilote",-9.863959837134722],["immédiate",-9.86533657422322],["gardien",-9.865979162368202],["montrer",-9.868254092025872],["achete",-9.871569578174558],["futur",-9.871740349558582],["concert",-9.871744156887951],["Olivier",-9.872377181434924],["frais",-9.872396455136236],["circulation",-9.872498531231669],["thème",-9.873506373961956],["salarié",-9.878643263517603],["procureur",-9.878659882722875],["université",-9.87892626629688],["Marine",-9.880658229351118],["blessés",-9.881658438299137],["fans",-9.882180921583195],["vice",-9.882200577757118],["Mali",-9.882432804492643],["reprendr",-9.88421527796329],["démocratie",-9.884906022595759],["déplacement",-9.885697905383687],["défaite",-9.887502830295217],["passant",-9.890733788839386],["visible",-9.89081007327708],["professeur",-9.89108935141127],["Genè",-9.891286746140901],["accueil",-9.891383219569104],["améliorer",-9.892231187871463],["erreur",-9.893742546434595],["suisse",-9.895188130376644],["ouvrir",-9.89561808681285],["cible",-9.896489806716051],["Espagn",-9.897453594838167],["pétrole",-9.897664763730518],["exposition",-9.897710580202723],["aéroport",-9.89833731785263],["participant",-9.898920218215524],["ski",-9.899031746128077],["demander",-9.899261930861787],["Bre",-9.899359285637804],["FA",-9.899625622784832],["Man",-9.900880619403392],["couple",-9.9013430852767],["ine",-9.902307038609557],["normale",-9.902730847870039],["lancement",-9.903577034784453],["Joe",-9.903963995989884],["obligation",-9.904014822201951],["légère",-9.904026366848186],["rencontré",-9.904151714517067],["vit",-9.904704774409367],["ck",-9.906585250902063],["constitue",-9.907455691642387],["Guinée",-9.908448491441195],["commencer",-9.909714744855082],["maximum",-9.910466472310242],["Amazon",-9.91047626214641],["Université",-9.910627304695012],["bus",-9.9106386274679],["poursuivr",-9.9122602524378],["continu",-9.91257888466907],["manche",-9.914564951450377],["LR",-9.916176979191565],["phénomène",-9.916965716344876],["réduction",-9.917094676649501],["augmenté",-9.917216385789137],["relève",-9.91884563143249],["alerte",-9.91922047017107],["effectué",-9.9192892536686],["barre",-9.919715550658506],["Aucun",-9.920254561104189],["00",-9.920747442385004],["Bid",-9.923164437172607],["réalisateur",-9.923536011388133],["Mm",-9.92379082060739],["Patric",-9.924044298536641],["tenter",-9.924953386687946],["pro",-9.92556703149386],["recour",-9.925657562850317],["demeure",-9.92569183137173],["remis",-9.926559041604357],["arbre",-9.929938163175034],["studio",-9.93012729173828],["hommage",-9.930130586744239],["eth",-9.930795975761496],["chute",-9.930836583284043],["voulu",-9.9309315881614],["33",-9.931748466067756],["isation",-9.932530605156423],["400",-9.933151525747938],["pluie",-9.933892270730158],["chargé",-9.935188983158042],["w",-9.936089284075425],["arrêter",-9.936205330192745],["spectateur",-9.936697539356599],["producteur",-9.93669918832315],["examen",-9.936700120244144],["Apple",-9.93917296559711],["bras",-9.940518468783303],["mené",-9.941665885037837],["usine",-9.942009508693772],["consommateur",-9.943375549006188],["sportif",-9.943380699642931],["Défen",-9.943412204840676],["audience",-9.95007566927619],["sentiment",-9.95210783049419],["venue",-9.954880727886142],["fini",-9.955254018688741],["Canadien",-9.956746421293065],["agricole",-9.956832235204228],["attaquant",-9.956881168327662],["priorité",-9.956962152115873],["collectif",-9.957066858052373],["refusé",-9.9581557070711],["mainten",-9.959930758443466],["signe",-9.96063599313597],["majeur",-9.960868167119637],["quitté",-9.962150246580634],["permettra",-9.962427787039585],["&",-9.963634904617855],["vélo",-9.963639141001655],["climat",-9.963791999770812],["durable",-9.964107758512078],["développer",-9.965047778936064],["auto",-9.966523573053667],["offert",-9.967206692075827],["visage",-9.967212940049096],["africain",-9.9678844380411],["lancée",-9.968304344722707],["impression",-9.968947104372106],["smartphone",-9.970484327782778],["manifestant",-9.970511102102728],["ashington",-9.971048311469048],["défenseur",-9.971109577496218],["final",-9.971200313525724],["36",-9.9713218035516],["absolu",-9.973090439371674],["dialogue",-9.973275657843516],["pose",-9.973392417661046],["tenté",-9.973742373869738],["box",-9.973893575973094],["anglais",-9.974429279057642],["Laurent",-9.974507863278081],["potentiel",-9.975367437747579],["tente",-9.975430683252714],["différence",-9.975694796119075],["efficace",-9.976851031409778],["COVID",-9.977380773286285],["collègue",-9.977381017433967],["Maison",-9.9774485064239],["comportement",-9.979078050174387],["allon",-9.982525245263547],["fais",-9.9830793237725],["envers",-9.983803335331343],["bel",-9.984484883450122],["médaille",-9.985073960876488],["FC",-9.985219458319621],["mauvaise",-9.985715500166936],["Peu",-9.986056834202211],["croir",-9.987603656309826],["Nic",-9.987749188154801],["enseignant",-9.988307584718648],["oui",-9.989463629890693],["connue",-9.989467510544241],["Ri",-9.989993738280088],["oir",-9.990267461176387],["spécialiste",-9.99140293376312],["Ivoir",-9.993368931150062],["surface",-9.99505413438855],["go",-9.997482094857132],["résidence",-9.997819448202517],["rappelé",-9.998230353574641],["Ouest",-9.99834584313631],["conservateur",-9.998361851452344],["israélienne",-9.998527409401863],["Parlement",-9.99873226368349],["2000",-9.999666091991866],["menée",-10.001126982862651],["éducati",-10.001253586078139],["énorme",-10.00301863725472],["allemand",-10.003305786847697],["candidature",-10.00552940408826],["garder",-10.00780922610316],["gagné",-10.00870943172523],["prenne",-10.00880854942426],["abilité",-10.010301078310182],["Qu",-10.01132584479138],["bi",-10.011704107925826],["réserve",-10.011790653039549],["chercher",-10.012143916660847],["identité",-10.012617472458814],["changé",-10.017984090338572],["mauvais",-10.018360161218903],["ciel",-10.018428214350006],["change",-10.01894245934811],["Su",-10.019238815357824],["Italie",-10.019324292363857],["Royaume",-10.01979234235246],["collaboration",-10.020042520501555],["RT",-10.02026303786434],["démarche",-10.020294501984978],["appris",-10.02082694615837],["ais",-10.024512389060249],["préparer",-10.024886355640952],["Anne",-10.025273180908734],["organisée",-10.026913248032134],["com",-10.026950558440394],["assurance",-10.027040027959405],["connaissance",-10.027107739043476],["missile",-10.027124408033322],["confirme",-10.027254807747731],["souvenir",-10.02922511209984],["proposer",-10.031220795116198],["retard",-10.032420028889522],["interdit",-10.032996731955055],["carburant",-10.034297317676476],["dispositif",-10.034339714757323],["rejoindr",-10.034365103069165],["parlementaire",-10.034368531396833],["vécu",-10.034376873277072],["humaine",-10.03463732885199],["héro",-10.034830904816149],["ung",-10.035223031041282],["55",-10.035276214024462],["visiteur",-10.035390051321974],["34",-10.035854828543659],["Nicola",-10.03621335521198],["jeunesse",-10.036382961643167],["spéciale",-10.036576593033107],["commande",-10.037515461053669],["aliment",-10.037827622021233],["renforcer",-10.038315739237444],["Quelque",-10.03881674422918],["Robert",-10.039275029589511],["précis",-10.039672213078818],["constaté",-10.039777803968121],["faute",-10.040966666370986],["décennie",-10.04168837911119],["gamme",-10.04168915838439],["détention",-10.041693250397037],["atelier",-10.041702021371854],["exploitation",-10.041948668242506],["scénario",-10.042055094034883],["vaccination",-10.042489538191525],["mur",-10.042997130920917],["entier",-10.045292687821338],["âgée",-10.0481378401008],["Ukrainien",-10.048904199569918],["post",-10.048937973066993],["ondre",-10.049025640856987],["directrice",-10.049131053273616],["Leur",-10.049147821920087],["connaît",-10.049923942768508],["corona",-10.050525029147526],["Ses",-10.050726230526433],["apporter",-10.052021699471112],["utilise",-10.05203003614066],["Jér",-10.053056834236752],["réelle",-10.05330184055199],["usage",-10.053559598533804],["tiré",-10.054663260387517],["ménage",-10.054683512710344],["privée",-10.055837457827996],["ément",-10.056021623100722],["canadien",-10.056372425818292],["opportunité",-10.056614054840068],["chantier",-10.056676669141197],["passée",-10.057221926672426],["tomber",-10.05842403388521],["clé",-10.05916374443023],["iste",-10.059277086155475],["fi",-10.060280779590505],["essentiel",-10.060450283477348],["Qatar",-10.06058218226812],["champ",-10.062152720636101],["portée",-10.063189151551036],["ami",-10.063729727879663],["Netflix",-10.064077255765934],["Facebook",-10.064085464824018],["immeuble",-10.064086033141653],["offensive",-10.06408952172626],["nécessité",-10.064238987460193],["livraison",-10.064313993792823],["ri",-10.066112451192197],["envoyé",-10.066210929012167],["vive",-10.066968270758453],["professionnelle",-10.06806287515537],["commis",-10.068748396642892],["construir",-10.06880065951936],["appui",-10.07077505437792],["Puis",-10.071139580757066],["personnalité",-10.071653018482582],["échec",-10.071656523392964],["neige",-10.071686832106018],["métier",-10.071702958454438],["séance",-10.071744917207198],["jardin",-10.072002248932858],["émotion",-10.07220312638023],["montré",-10.072361561530421],["Co",-10.074494606009058],["régionale",-10.07473822942054],["électorale",-10.074818493095549],["ague",-10.075116979129808],["dépense",-10.075659281333142],["défendr",-10.076117822304106],["personnages",-10.076383071868923],["œ",-10.07661905516079],["score",-10.077001502755511],["Claude",-10.07780470225915],["complexe",-10.078031804701135],["trouvai",-10.078715267789194],["stratégique",-10.079283297786898],["trafic",-10.079286622699037],["promotion",-10.07933677209974],["Vincent",-10.079768832261927],["chanson",-10.079834455674085],["législative",-10.079995698822422],["perdre",-10.080117948745237],["statut",-10.080155191086034],["bar",-10.082472200371322],["II",-10.082756808362184],["Air",-10.083017197087706],["remettr",-10.083641152296025],["décédé",-10.086856891148658],["tarif",-10.086938359212812],["solidarité",-10.086978948033702],["trimestre",-10.086978967183278],["Fédération",-10.086979270836117],["proximité",-10.086980148279194],["mémoire",-10.08698043687328],["Zelensky",-10.08701554396113],["partenariat",-10.087043011353877],["sondage",-10.087204511420726],["rentrée",-10.088698471672267],["bio",-10.089396409064182],["réagi",-10.089985939886095],["degré",-10.09208014838481],["Celle",-10.094063566462342],["49",-10.094136523486995],["Red",-10.09474698749646],["chaleur",-10.09582705257941],["secour",-10.096407185012438],["Ou",-10.096927167038322],["installer",-10.097544195073386],["adresse",-10.097662344233708],["pénurie",-10.098465444082898],["37",-10.098524299172022],["penser",-10.098690457017605],["Donc",-10.098993707001119],["logique",-10.100411553108046],["possède",-10.102543479919024],["organisateur",-10.102553279877732],["impôt",-10.102561434161645],["médicament",-10.102563173588603],["moindre",-10.102586118572695],["Iran",-10.102771563548288],["billet",-10.102792765817032],["installé",-10.10290130493966],["crois",-10.102945010593196],["War",-10.103070208957725],["chercheur",-10.103163929974823],["prime",-10.103274758246133],["sélection",-10.104623245891393],["servir",-10.104902650551331],["sexuelle",-10.105368975855509],["code",-10.107403313561058],["ka",-10.109364199925068],["quinz",-10.109908223167466],["vendu",-10.109998123550817],["ajout",-10.110041693414566],["bénéfice",-10.110417460749774],["utilisateur",-10.110431564288502],["souhait",-10.111023304402195],["affronter",-10.1114563585869],["constat",-10.111549058719536],["cabinet",-10.112055909377235],["alité",-10.112141098398533],["subi",-10.112375425041616],["lire",-10.115471851045132],["top",-10.115838648799627],["è",-10.115952117988162],["expliquer",-10.117871839825064],["pauvre",-10.118354879871378],["camion",-10.11835859445062],["coopération",-10.118904602298242],["Non",-10.11934364169198],["entraînement",-10.120601408915517],["ions",-10.122111051603667],["tonne",-10.123364603016595],["iers",-10.12358738162174],["israélien",-10.126256088431969],["ennemi",-10.126434890182944],["caméra",-10.126437267501363],["Val",-10.127133810223176],["entrer",-10.127309199745303],["Star",-10.129748948278403],["DG",-10.129956925182745],["rie",-10.132163455956787],["naissance",-10.13231039302325],["située",-10.132755032037439],["pièce",-10.133685327016302],["théâtre",-10.134418769193786],["évoqué",-10.134535977659224],["adulte",-10.134893207280022],["Mi",-10.134897380003013],["réduit",-10.135126917968007],["musée",-10.135544061220056],["supérieur",-10.135561151751073],["Bo",-10.136439010656098],["Vi",-10.136668439758843],["NU",-10.137839301722444],["témoin",-10.139400003205743],["argement",-10.139868899922645],["dés",-10.141286976964135],["Autre",-10.141435740511877],["devoir",-10.141482583273877],["Eric",-10.141633775968135],["Ha",-10.141763267064691],["conducteur",-10.1425484682524],["aérienne",-10.142583712251],["lourd",-10.142769246520182],["tâche",-10.142797930164267],["coalition",-10.143283563650574],["198",-10.145339143437402],["masque",-10.145377947284334],["local",-10.146167045175279],["photos",-10.14642122817982],["découverte",-10.146580597228091],["Lion",-10.14699480870392],["soutenu",-10.147429783834438],["ène",-10.14827071223738],["talent",-10.148312512550547],["finance",-10.150055348288378],["garçon",-10.15074745306743],["cinquième",-10.15080285267575],["instance",-10.150817790603453],["fuite",-10.151129286041481],["pièces",-10.151490875700333],["Mari",-10.15222051884614],["Éri",-10.152333620577322],["promis",-10.152584473819218],["taille",-10.153598693726423],["chien",-10.15437303058206],["partisan",-10.15473857597608],["fédérale",-10.155811381631846],["̀",-10.157697419603284],["hockey",-10.158290795207968],["Institut",-10.158756895211626],["album",-10.159014477439882],["athlète",-10.159015952629394],["Première",-10.159022770784205],["restriction",-10.15903032827328],["devai",-10.159080630022064],["variant",-10.159274940772065],["présidence",-10.159700490940821],["front",-10.159772243869293],["concerné",-10.160571044506314],["rump",-10.160756919310439],["jaune",-10.161245147555018],["console",-10.161485386274933],["partis",-10.161679955479634],["récente",-10.161725702214987],["coin",-10.162690707625003],["battu",-10.163119977586351],["ix",-10.163183328383901],["Oui",-10.163469863191967],["jugé",-10.163842489410246],["ouvre",-10.164445835323239],["Bas",-10.164890827954626],["déclare",-10.165941569362873],["tombe",-10.166526063430489],["résident",-10.16698787913789],["humanitaire",-10.167343351400174],["fermeture",-10.167350971810908],["planète",-10.167398085799123],["solide",-10.168877394680262],["devenue",-10.16887956305338],["active",-10.169188381472775],["cation",-10.170391938776117],["vin",-10.171570804482617],["38",-10.172328753803459],["pprovisionnement",-10.172902889205448],["tourner",-10.173560992047708],["Qui",-10.174417465523835],["partager",-10.174946892195496],["volontaire",-10.175400521963333],["papier",-10.175746547298296],["quelqu",-10.175762453654999],["incroyable",-10.1758095349899],["oublier",-10.176105878725753],["exprimé",-10.176391273850733],["adjoint",-10.17704674523944],["Comment",-10.179981251659257],["vivant",-10.180651893015513],["établir",-10.180681496220092],["Lorsqu",-10.181177556186157],["po",-10.1837143483564],["accessible",-10.184050023723884],["Luxembourg",-10.184219419895033],["échelle",-10.184227114395394],["Otan",-10.18423331491513],["mobile",-10.184283843673807],["délégation",-10.184635012087144],["distance",-10.184756115854],["détenu",-10.185521208653018],["retrait",-10.18560119743935],["considéré",-10.186023610469181],["naturel",-10.18696344681905],["reine",-10.187811507703994],["US",-10.18911576330237],["allié",-10.189868556889788],["nommé",-10.191217619288796],["fruit",-10.192559745341349],["multiple",-10.192747925393906],["Festival",-10.192802896565023],["soleil",-10.19295873091429],["choisir",-10.193292420910817],["automn",-10.194555839094063],["suffi",-10.196008987441992],["respecter",-10.196390670888116],["resté",-10.19647089272042],["recevo",-10.196473941308732],["publication",-10.196778613353995],["essentielle",-10.196913970715933],["battre",-10.19728993995777],["Ali",-10.197362300109058],["sang",-10.198061124325381],["ambition",-10.199008567186343],["Association",-10.201390352874554],["indépendance",-10.201514537045753],["impossible",-10.201904013770095],["tirer",-10.20212880088652],["immense",-10.20291808966061],["drame",-10.203740581464693],["déroule",-10.204289646230018],["diplomatique",-10.205392826753577],["recette",-10.205433852461521],["chasse",-10.206146736599766],["télé",-10.208427866450833],["science",-10.2100472108121],["exception",-10.210072023340633],["explosion",-10.210084274450828],["principau",-10.210084301056073],["radio",-10.210199095044608],["ga",-10.210207565172194],["côte",-10.210634078613609],["régional",-10.21094467300357],["Banque",-10.211609206733232],["Goo",-10.211649746814853],["repris",-10.211882544098764],["fermé",-10.212385571635487],["Fas",-10.213221640184509],["lever",-10.213447230595985],["écrir",-10.213471576883354],["faux",-10.213870802630009],["dynamique",-10.215888678969037],["rrière",-10.216455099793581],["foule",-10.217372290151342],["pouce",-10.217578121069403],["industriel",-10.217848254696268],["influence",-10.218753225854496],["cancer",-10.21899648890033],["réalisation",-10.219064230960774],["lain",-10.220340193563123],["séjour",-10.22076940864762],["signifie",-10.221415184596918],["réel",-10.221629026970714],["apprendre",-10.221646726553017],["gérer",-10.222044226226362],["tombé",-10.222129411169812],["violent",-10.222446777065105],["ault",-10.223544615188564],["nette",-10.22416227411814],["bénéficier",-10.225084042527222],["Pays",-10.225343951188247],["confie",-10.226345547826714],["excellent",-10.226575692145357],["favorable",-10.227683558779901],["perspective",-10.227708664139367],["obligatoire",-10.227714447024137],["Agenc",-10.228250238844357],["choc",-10.228440563643254],["passager",-10.228466929642153],["paiement",-10.228775125830113],["divers",-10.229019475430363],["dénoncé",-10.229058311800767],["and",-10.229529888903803],["chinois",-10.231242237123226],["pont",-10.231755714173644],["48",-10.232759518102075],["mari",-10.232981192521727],["concour",-10.233877514398534],["Tou",-10.23421981544514],["roman",-10.234435646921833],["espèce",-10.236634342832012],["forêt",-10.23663484711485],["compétence",-10.236648279593581],["anniversaire",-10.236702525153191],["concurrence",-10.23670423936216],["essence",-10.236745468216277],["montagne",-10.236752737847151],["rejoint",-10.236869599024452],["micro",-10.23702879145232],["moteur",-10.237307491578136],["47",-10.237367111377164],["ro",-10.237638337078483],["supporter",-10.237697079792529],["style",-10.237960102217931],["core",-10.238020639482432],["passion",-10.23889259804514],["révélé",-10.2391595031594],["Jacque",-10.239564309961061],["ONG",-10.239972109654236],["iège",-10.240134962433379],["dos",-10.24032868030477],["grosse",-10.241488903703551],["fournir",-10.242353294371686],["récit",-10.242503714292194],["bleu",-10.242926930186854],["amp",-10.243651937134732],["goût",-10.243923050368982],["crédit",-10.244249269613565],["utile",-10.244269794169309],["canadienne",-10.2443890988],["vigue",-10.245193495735],["similaire",-10.245643368504073],["Stéphan",-10.245653516327733],["navire",-10.245657391798783],["marge",-10.245671233279568],["Jusqu",-10.245672437373273],["opérateur",-10.245753738270897],["secondaire",-10.245809471353958],["portant",-10.24613062388335],["facture",-10.246278633091482],["animation",-10.246449159029407],["amateur",-10.246655436992807],["normal",-10.247135953333],["maintien",-10.247160715848183],["Parm",-10.247306787608228],["intégr",-10.247569245087172],["performances",-10.248231289791956],["ouloir",-10.24847732442933],["quête",-10.248623136331581],["armé",-10.250575212721133],["h30",-10.25142394672592],["norme",-10.253887176332086],["Brun",-10.254143632607612],["Ro",-10.254627692640497],["étoile",-10.255373312273521],["décide",-10.256530316094924],["exécutif",-10.258287593226502],["réussite",-10.258334643010933],["ologne",-10.258705558001127],["isent",-10.25960124262147],["exacte",-10.26288027467571],["Burkina",-10.263747163587329],["attentat",-10.26390858241469],["lecture",-10.26390869984813],["circonstance",-10.263908891284785],["qualification",-10.263918414868026],["colère",-10.263977598998956],["agissai",-10.26417430442216],["municipalité",-10.264318778533813],["destination",-10.265114103512344],["Dr",-10.26550931937296],["rassemblement",-10.266620599028919],["Américain",-10.268104237176296],["découvert",-10.268633664711288],["George",-10.269572884963889],["lourde",-10.270603989773452],["mains",-10.270662229288302],["équipement",-10.271293587717622],["tels",-10.272109706335206],["égard",-10.272247325782816],["artistique",-10.273182065951193],["fondateur",-10.27324126759672],["meurtre",-10.273248153258912],["témoignage",-10.273255734583913],["diversité",-10.273471020865072],["43",-10.273648359479417],["quantité",-10.273799934927869],["saga",-10.274696121603007],["gare",-10.275112076857923],["San",-10.275729223000006],["écart",-10.275855310300033],["enseignement",-10.27695413422374],["personnelle",-10.277334668596266],["accompagné",-10.277840286286555],["continent",-10.281745486933268],["aspect",-10.282528338539082],["séquence",-10.282555130169474],["socialiste",-10.28278055673902],["rappele",-10.284208848977183],["soft",-10.284355077424742],["francophone",-10.284401551057929],["finir",-10.284585349650131],["présentation",-10.284915101979312],["imposer",-10.286210189432593],["établi",-10.287332868555229],["déposé",-10.287523261909762],["accompagner",-10.288737862912168],["élevée",-10.288740607119328],["Alexandr",-10.290051924124693],["150",-10.291110440214187],["complet",-10.291481695257623],["vaut",-10.291513499215668],["sensible",-10.291513844572412],["appartement",-10.291947610816493],["Valérie",-10.291962382090869],["Christian",-10.291991179942318],["limiter",-10.292158194732849],["expression",-10.292197281168182],["emmour",-10.292901394192931],["métrage",-10.293593382301438],["im",-10.293869764047168],["africaine",-10.295365574821261],["rapporté",-10.295842876994595],["témoigne",-10.296690915101877],["développé",-10.29676369690517],["invite",-10.296952435087317],["44",-10.300355790544147],["ntendo",-10.300789840763503],["Moham",-10.300831976600744],["Tu",-10.301400105066065],["Justice",-10.301472934886368],["prestation",-10.301474627052574],["fournisseur",-10.301600120980396],["capitaine",-10.30163259073706],["amende",-10.302068756471495],["sœur",-10.30238031074813],["sauver",-10.302579405718141],["dommage",-10.302609473829124],["néan",-10.30288848723391],["évoque",-10.303584103753966],["Terre",-10.304126907403468],["lit",-10.304163949204266],["volet",-10.304252228825087],["Québécois",-10.3050576493955],["Krem",-10.30528753116187],["auron",-10.30565751321808],["complète",-10.306210344597622],["connaiss",-10.308650237232264],["efficac",-10.310944996724224],["doigt",-10.31108774192828],["secret",-10.311094845288007],["temporaire",-10.31113911348823],["automobile",-10.311140248439429],["sportive",-10.311266497228718],["ambiance",-10.311452641404621],["gle",-10.311500795477372],["résolution",-10.311599201792639],["bataille",-10.311803039071226],["électeur",-10.311893172011835],["égalité",-10.313763344359328],["présentée",-10.313767137522717],["occupe",-10.3138230103031],["ballon",-10.314205396101137],["che",-10.315766222266614],["confié",-10.316765185513171],["qualifié",-10.317029086274498],["monter",-10.317502830344932],["concept",-10.31989846123303],["refus",-10.320198218741076],["Grâce",-10.320795513023388],["spécifique",-10.320795620564617],["interdiction",-10.320839843336696],["adaptation",-10.320846496521746],["Thomas",-10.32103582231675],["ordinateur",-10.321199945536964],["riche",-10.321218141067888],["municipal",-10.321728063006212],["souci",-10.32207962492511],["malheureuse",-10.32213815388177],["agir",-10.323229442726348],["candidate",-10.323426993683604],["profil",-10.323589595606641],["Simon",-10.323782710224563],["travaillé",-10.323813180415724],["‘",-10.324136974554921],["Nouvelle",-10.324932158295262],["culturel",-10.325115087853861],["Occident",-10.325844006463456],["adopté",-10.326763163271774],["malade",-10.326942840167687],["André",-10.327514250840036],["dure",-10.32871478335204],["pierre",-10.329596302373815],["ultra",-10.330416443468453],["abonné",-10.33060505537555],["actrice",-10.330606201074879],["plage",-10.330748621691093],["immobilier",-10.330757619858174],["collective",-10.330771147160029],["vérité",-10.330814871090986],["étage",-10.331069348366537],["Play",-10.331160238036897],["sourire",-10.33159218500088],["coupable",-10.33210849934638],["65",-10.332150971293048],["Prix",-10.332397423572836],["Cameroun",-10.332738629193258],["fa",-10.332944722563557],["devron",-10.33478273456565],["accepté",-10.336193927040988],["42",-10.336412086036004],["sais",-10.336609856392982],["Mo",-10.336655369082498],["intéressant",-10.337019045034426],["machine",-10.338765026602918],["surveillan",-10.339403222794068],["interview",-10.339611567985463],["ékin",-10.340293645009977],["propriété",-10.340349492035017],["rencontrer",-10.340396726475321],["accéder",-10.340516371386379],["mobilisation",-10.340516941352416],["vainqueur",-10.340532309972057],["So",-10.341372826735537],["voulo",-10.341568105972655],["the",-10.34202446057218],["facteur",-10.342902219874395],["organiser",-10.343514522921968],["réalisée",-10.343573707358178],["récent",-10.343622147081401],["pensai",-10.346888518099465],["réjoui",-10.347160844946085],["Mont",-10.349292054802072],["palais",-10.350498905703226],["juridique",-10.350500421855836],["relative",-10.35050095944079],["gouverneur",-10.350516011522597],["défaut",-10.350751115715575],["évènement",-10.35076857774283],["dépôt",-10.350864697417933],["conscience",-10.351028530017347],["800",-10.351715959499582],["préparation",-10.351798666739423],["Tunisie",-10.352133249826291],["sortant",-10.353283949829486],["chev",-10.354219077156234],["dame",-10.355134578706032],["accuse",-10.3580839534885],["minim",-10.359180483132373],["Ange",-10.360321438954209],["migrant",-10.360568691886897],["fermer",-10.36058378628971],["circonscription",-10.360601502208175],["Japon",-10.360611921296327],["batterie",-10.360618490795975],["Gabon",-10.360665505073914],["massive",-10.360666070005795],["définitive",-10.36078602061453],["déterminer",-10.360982471625746],["surpris",-10.361242196249115],["quotidienne",-10.361244769431812],["59",-10.36130250912076],["infection",-10.361618037039708],["drapeau",-10.362136356151673],["écologique",-10.362441933626776],["mineur",-10.362813071881163],["cap",-10.363241296795202],["poser",-10.363444505637553],["parfaitement",-10.363773750797023],["Denis",-10.364315983604055],["noter",-10.364433874935786],["parlé",-10.364494800447627],["tournée",-10.365575857415125],["lie",-10.365886529585335],["naturelle",-10.366171951821286],["600",-10.366247443061884],["bateau",-10.366251168960584],["conduit",-10.368032122437235],["détruit",-10.368863378359274],["algérien",-10.370616040048862],["église",-10.370805657321558],["révèle",-10.370805947636539],["promesse",-10.370817145194335],["récupérer",-10.370829480708867],["télévision",-10.370867981908683],["mobilité",-10.371102092073484],["Chambre",-10.37114004259589],["originaire",-10.37114614445917],["filet",-10.37148660838696],["Rouge",-10.37221964548088],["Australie",-10.372660073045811],["gain",-10.374115737929845],["produir",-10.374855443013251],["Sport",-10.374975837888687],["64",-10.375286711498903],["Di",-10.37536594653031],["provoqué",-10.37716659756553],["formule",-10.377538222791792],["dédié",-10.378646392370435],["gratuite",-10.379913882181322],["perd",-10.380736000921573],["démocratique",-10.381114792274186],["signature",-10.381117302954982],["calendrier",-10.381130969977223],["dégât",-10.381198979683237],["investisseur",-10.381208922652196],["Macky",-10.381249976251716],["MS",-10.381411703834246],["affrontement",-10.38195057265267],["Outre",-10.382294357880358],["duel",-10.382385723226385],["Sams",-10.383217633136182],["souhaité",-10.383872957440705],["épouse",-10.384765189467679],["venai",-10.384843951864742],["bénévole",-10.38503368608832],["contribu",-10.385190882833278],["62",-10.38587342871318],["lende",-10.387005450267278],["recul",-10.388607770265693],["vendre",-10.391439478730634],["analyste",-10.39154659254016],["foyer",-10.391589970240803],["patrimoine",-10.391618751996543],["existence",-10.39163045181421],["transfert",-10.39178562575185],["localité",-10.391989806738014],["coach",-10.391996489099089],["mène",-10.392250155882076],["cuisine",-10.393815915003788],["trouble",-10.393920462134748],["visan",-10.395965560969854],["iens",-10.396425266349624],["composé",-10.396502025041919],["vraie",-10.397752741836698],["issu",-10.399115931290144],["calme",-10.39912518567041],["collection",-10.39934763756261],["montée",-10.399387755576242],["frappé",-10.399399330671592],["fixé",-10.399615250917874],["investir",-10.399792072409241],["awa",-10.400669848146878],["ronde",-10.40095266775052],["bert",-10.401173634999619],["profond",-10.401185018105036],["micron",-10.401259429890292],["fier",-10.401337273975406],["Inter",-10.401637908993532],["taxe",-10.401830931775132],["Intérieur",-10.402057774417749],["considère",-10.402057849335662],["amélioration",-10.402098748793897],["conclusion",-10.402163842817238],["méthode",-10.402197528786278],["mairie",-10.402347490609339],["convainc",-10.402379367315593],["distribution",-10.402640014188668],["animal",-10.402737515009914],["cesse",-10.403831152488575],["gar",-10.404154067087582],["oins",-10.405168759487562],["salon",-10.405249472619222],["Sall",-10.405321945098663],["nomination",-10.406037576663763],["canton",-10.406634226561307],["annuel",-10.406978855291463],["q",-10.407081754881036],["syndicats",-10.40759835017497],["197",-10.407752835370989],["écrivain",-10.40914535501636],["play",-10.409237452623822],["Wi",-10.40928773008719],["MR",-10.409300177725168],["pic",-10.41007895049086],["intéresse",-10.410127531928751],["causé",-10.410270982391651],["Voic",-10.411906293342469],["poursuite",-10.412013853287226],["levée",-10.412607765954798],["Gabriel",-10.412700815034288],["évaluation",-10.41279015903115],["essayer",-10.413939392627377],["municipale",-10.414436892519504],["primaire",-10.41500129859598],["génér",-10.415443071449952],["ance",-10.415956596822754],["Daniel",-10.416563951426111],["majeure",-10.417064241396684],["familiale",-10.417361159356437],["livré",-10.420520184966083],["euro",-10.422303304947008],["bruit",-10.42292608237355],["attendue",-10.423145451694133],["ème",-10.423176180818993],["entrepreneur",-10.423238962733501],["Service",-10.423467856081636],["ambassadeur",-10.425090917647026],["ver",-10.426584392487875],["van",-10.428050918850186],["délai",-10.428344615136304],["syndicat",-10.428657218268306],["intense",-10.428773657736109],["gagne",-10.42881576353857],["land",-10.428828992917865],["marquer",-10.429262510649142],["ombre",-10.432095977732377],["41",-10.432176389197014],[".”",-10.432559759519481],["diffusé",-10.432984651568862],["règlement",-10.434147683978114],["instruction",-10.434318325817404],["déchet",-10.434320247233941],["explication",-10.434445264544408],["Alpe",-10.434544603748625],["confinement",-10.43457380379772],["arrestation",-10.434575549231045],["voter",-10.43489812115586],["glace",-10.43507448134946],["indice",-10.43522013686159],["voyageur",-10.435733962312177],["mérite",-10.435881180451387],["portable",-10.435898606477032],["erie",-10.436592585743046],["déplore",-10.4370631642918],["Dona",-10.438865761085244],["maître",-10.439314035043308],["pêche",-10.440284584356466],["publiée",-10.44056861955137],["1000",-10.44067002437553],["Not",-10.441838335249312],["Don",-10.44320011087536],["née",-10.443450468105185],["griculture",-10.44363166125208],["préfère",-10.44400129501135],["For",-10.444367089955996],["atrice",-10.444401915900256],["sûre",-10.44512079282827],["caractère",-10.44530733688114],["opinion",-10.44531825240778],["islamique",-10.445324711844702],["considérable",-10.445356595887414],["préoccupation",-10.445386303811306],["pause",-10.445506584292097],["Richard",-10.445558339760137],["fallu",-10.445560340822066],["commentaire",-10.445612715385906],["drogue",-10.445824447173711],["tienne",-10.446603853530341],["Corée",-10.447015013017364],["ko",-10.449280096764287],["cadeau",-10.449659575645438],["ball",-10.450666386553785],["Grande",-10.451692568583525],["foi",-10.45266032893386],["fonctionne",-10.454406528930207],["disparu",-10.454418434371412],["compliqué",-10.455354895602943],["imposé",-10.455496139520589],["souri",-10.455957482737364],["Super",-10.455997109263654],["effectuer",-10.456254975828882],["Haute",-10.456411724160137],["catastrophe",-10.45641844762194],["Disney",-10.456424920694786],["réflexion",-10.456445759019726],["Guerre",-10.456466128046808],["session",-10.456473522575742],["informatique",-10.45659066315014],["décrit",-10.456643353424614],["relevé",-10.457542033671373],["Ott",-10.457596222661213],["Micro",-10.457906747178884],["tradition",-10.458237164039886],["statistique",-10.458538879182123],["abri",-10.458749316466847],["éventuelle",-10.458753839055664],["enseigne",-10.458777420787651],["libération",-10.45941981940052],["puissant",-10.459561243222897],["Alex",-10.459894214710516],["Voil",-10.460623713825509],["Open",-10.460686999167455],["quitte",-10.460719729895704],["froid",-10.461208628925316],["ière",-10.461374326674603],["regarder",-10.46292661769171],["67",-10.463636213786362],["concurrent",-10.464113760760775],["démontre",-10.465139268908569],["formé",-10.465551716000753],["dévoilé",-10.466816708510935],["saisi",-10.46759911739316],["inquiète",-10.467654956891847],["fidèle",-10.46765665844379],["électronique",-10.467657240435152],["élenchon",-10.467661867635924],["blanche",-10.467676052391045],["ouvrage",-10.467687984193],["mariage",-10.467955784525266],["prévision",-10.468123071572862],["destiné",-10.46823234795723],["division",-10.469669577889253],["initiale",-10.469678603325477],["vide",-10.469995412775047],["tennis",-10.47022601655814],["chargée",-10.470388240405256],["ite",-10.470425789794334],["é",-10.470659848919414],["intégrer",-10.470725440486376],["constate",-10.470946804579789],["prendra",-10.471976611228225],["croit",-10.472045750863664],["fonctionnement",-10.472158009955605],["suivant",-10.472738590637722],["accueilli",-10.472748080765227],["inverse",-10.472915034409636],["85",-10.472976302935244],["ntaine",-10.473330167086932],["Aux",-10.473421704631662],["apporté",-10.473829549109208],["débuté",-10.47699014126352],["52",-10.477428845638359],["Lausann",-10.478947189803772],["lot",-10.478974368593013],["National",-10.479020757491227],["préfet",-10.479042353714753],["opposant",-10.479052034474211],["volume",-10.479109209974636],["automatique",-10.479157245587531],["alternative",-10.479175599158431],["scrutin",-10.479586968842007],["excuse",-10.479593888354813],["empêcher",-10.480297988183047],["collecte",-10.480487881934316],["convaincu",-10.48152803070423],["Jame",-10.481788217357227],["auquel",-10.482088011992722],["Vo",-10.482093457888798],["Bar",-10.483765879575857],["Bernard",-10.484873021601214],["souvien",-10.4856552736086],["ône",-10.485760736012843],["berg",-10.486243964487421],["avancée",-10.486399318764548],["ire",-10.486956128555363],["stock",-10.488235447466291],["accueille",-10.488601404423346],["Yve",-10.489105937825137],["traité",-10.490394927952597],["apparition",-10.490512297035348],["bonheur",-10.490512634547699],["Nouveau",-10.490513121731714],["solidaire",-10.490513695892858],["manqué",-10.490528642766245],["podium",-10.490535944815429],["quarantaine",-10.490554165545522],["Black",-10.49056070173294],["écriture",-10.490574286247174],["Amérique",-10.490581963741583],["vaste",-10.490597979369765],["Haut",-10.490838570492857],["augmente",-10.491333607807679],["globale",-10.491917897255524],["Phon",-10.492427504244242],["litre",-10.492758838286393],["habitation",-10.494039278550828],["impose",-10.494174853726747],["récolte",-10.494917945553972],["Belge",-10.496414565014202],["Jo",-10.496461642690125],["tion",-10.497113490679073],["bénéfici",-10.497714453600782],["salem",-10.499060485780232],["Dieu",-10.500618711985744],["interpellé",-10.501206738674075],["Marseill",-10.502042788020994],["ultime",-10.502123042610329],["constructeur",-10.502140198960667],["communautaire",-10.502141377703008],["décret",-10.50214818362941],["marocain",-10.50223505044167],["automobiliste",-10.502241481282223],["resse",-10.502412911467449],["office",-10.502468174048275],["différent",-10.502804122817086],["tempête",-10.503587537640549],["ster",-10.503724860313003],["carré",-10.503789111380962],["positive",-10.504753261378848],["enquêteur",-10.505097577155574],["Tom",-10.506569269978518],["allant",-10.506962548626069],["posé",-10.507258139946376],["content",-10.507885165527856],["(+",-10.508155820790499],["sert",-10.50838761188261],["annuelle",-10.508396728749204],["ienne",-10.509084634774304],["défis",-10.5100903554875],["banc",-10.510192113886998],["39",-10.511107565151688],["envoye",-10.51380018892586],["gendarme",-10.51387745863136],["commerçant",-10.513905634082079],["huitième",-10.513991183553909],["autonomi",-10.514033187225602],["Sous",-10.51406958065772],["précision",-10.51441948059766],["réuni",-10.514998976489501],["City",-10.515170884255568],["Christophe",-10.515720705001144],["adolescent",-10.516322658166406],["justement",-10.51662926177869],["capital",-10.51811006175646],["commerciale",-10.518305588609834],["menaces",-10.519147092248803],["renforce",-10.519751523923574],["250",-10.520676358349391],["informe",-10.520733962889166],["57",-10.520946150295746],["OS",-10.521972461393496],["café",-10.522903141815746],["couverture",-10.523080571447778],["viv",-10.523846678327875],["Mondial",-10.523956007462854],["averti",-10.524300795643903],["ixième",-10.52555433611884],["alcool",-10.525734927081633],["disparition",-10.52580966868813],["épidémie",-10.525809686485553],["acquisition",-10.525813046353743],["Monaco",-10.52581528634682],["actualité",-10.52581733974543],["Musk",-10.5258299960704],["ées",-10.525876913606892],["Comité",-10.525911366819138],["Angle",-10.525914868011856],["procédé",-10.52594780581146],["innovation",-10.52602867458236],["associé",-10.526065693384613],["maman",-10.527369718215963],["effective",-10.527487811546473],["aimé",-10.527561480214048],["Syrie",-10.528457912437329],["insist",-10.528890057477486],["chat",-10.528930111845032],["cha",-10.529365345484074],["terminer",-10.529625796249091],["masse",-10.530747413902958],["72",-10.531129532808443],["Gu",-10.531309430001944],["46",-10.531926436859212],["commercial",-10.533074546868303],["crée",-10.533685008326767],["mini",-10.534473752555375],["per",-10.53492388339683],["enjeu",-10.535080534715963],["Cet",-10.536061605677538],["Photo",-10.536936467053827],["exceptionnelle",-10.536973428455049],["Bon",-10.537008080835614],["mettant",-10.537180769796961],["identifié",-10.537391177236618],["ième",-10.537748465955818],["aérien",-10.537819534347136],["Finance",-10.537882491296358],["plastique",-10.538065662757493],["58",-10.538315013232726],["symbole",-10.53833782316636],["licence",-10.538344509700128],["avortement",-10.538376989805865],["bloc",-10.538377677037897],["fleur",-10.538429890436714],["essai",-10.538880908311867],["plat",-10.538889285471061],["dirigé",-10.539122257722575],["Frédéric",-10.53922450809237],["conduite",-10.539247453967214],["respective",-10.540639156998413],["remporter",-10.541587137106738],["diverse",-10.545798096272005],["peau",-10.54658847578843],["game",-10.546762355323132],["moto",-10.547414168542625],["Ba",-10.548200352421913],["supérieure",-10.548365098118502],["décor",-10.548581266090276],["souffre",-10.549422402772752],["baisser",-10.549545208857174],["enfan",-10.549746393930423],["humanité",-10.550063515833703],["cheffe",-10.550135885461042],["bombardement",-10.55082916116731],["effectif",-10.551072247166077],["ry",-10.551490631966303],["découvre",-10.5521389365435],["servi",-10.553294937122551],["défend",-10.554119285945934],["54",-10.554217997586825],["juif",-10.554774419551048],["tiendra",-10.555125932804497],["Vert",-10.555172808272326],["médicale",-10.55562061969254],["geste",-10.555748136890845],["utilisée",-10.5560981311233],["viol",-10.556188055981533],["apprend",-10.55669958089252],["unie",-10.557302063988885],["tableau",-10.558593652626499],["Parc",-10.558924006584775],["empêche",-10.560802748689373],["horizon",-10.56086731123169],["vêtement",-10.562372994984027],["Dakar",-10.562400668242201],["contribution",-10.56243682792486],["Merci",-10.562513137177627],["autorisation",-10.562554246160442],["reconnaissance",-10.562567674335666],["adapter",-10.563553578124676],["opposé",-10.563566706944293],["assise",-10.563847619572787],["voil",-10.56501680706479],["relai",-10.565677288015936],["prépare",-10.56625664505298],["Var",-10.566654524975622],["off",-10.56829678916432],["plateau",-10.568773617504766],["spécial",-10.568978712058538],["insiste",-10.571692239830654],["Madri",-10.573761078978805],["sauf",-10.574361168334857],["léger",-10.57467490036758],["conduir",-10.57467504933022],["magnifique",-10.574898660620484],["négatif",-10.574898665009407],["bébé",-10.574907613936432],["magistrat",-10.57497180953823],["drone",-10.575051036006997],["château",-10.57517278495378],["panne",-10.575225563789687],["Justin",-10.575239564816929],["coeur",-10.575430775391393],["fausse",-10.575989249414892],["occupé",-10.576234816819646],["discuter",-10.576451790541448],["indépendant",-10.57700516248481],["signalé",-10.57700828730663],["pouvant",-10.577168679753918],["sacré",-10.578590060101352],["77",-10.579734351655237],["Région",-10.579812403336073],["trace",-10.582641802237319],["Cap",-10.583288621797879],["suit",-10.58496056484058],["proposée",-10.585843371921829],["uprême",-10.58677549131481],["men",-10.58694490739079],["central",-10.58749158169016],["inscrir",-10.587581384718614],["profondeur",-10.587861534832392],["Lyon",-10.587968952896166],["arabe",-10.588221408920585],["âme",-10.58823105460143],["crainte",-10.58842943034977],["arrondissement",-10.588444606208324],["progr",-10.588523273612235],["rumeur",-10.588558717070901],["construit",-10.588655360450648],["53",-10.589060959976653],["William",-10.589099017573485],["partagé",-10.589726408010208],["apporte",-10.589823640540384],["pérer",-10.591542772035353],["tourne",-10.591644055125169],["marin",-10.593386112708952],["Maxim",-10.593863272922794],["mar",-10.5954764575464],["accepter",-10.595806836778689],["élite",-10.595895331996608],["assemblée",-10.596321914788167],["ger",-10.59751228260344],["chaud",-10.597589727994633],["constater",-10.598863559983174],["résume",-10.599482668203088],["chôm",-10.59961059701714],["terroris",-10.599710341564446],["humour",-10.600380074134602],["rivière",-10.600402285643167],["joie",-10.600402594048829],["transformation",-10.600451255537829],["fonctionnaire",-10.600451256052278],["certe",-10.60051587140568],["prince",-10.600996186752823],["branche",-10.601299469530248],["gratuit",-10.601877934174318],["attendai",-10.602241873992673],["Tel",-10.60240799584264],["adapté",-10.602596090550552],["63",-10.602825778079625],["89",-10.603056846972507],["logiciel",-10.603109531695537],["déployé",-10.603501649165443],["oire",-10.604726192706783],["accordé",-10.604800911021506],["lycée",-10.604910076736644],["RN",-10.6051989745283],["investi",-10.60582220941583],["reçoi",-10.606172595593556],["remonte",-10.607559752383061],["prête",-10.607712214426355],["Côt",-10.60773625493674],["financer",-10.608097835621209],["ressenti",-10.61024943743379],["Euro",-10.610318373740615],["ham",-10.611503741586077],["boutique",-10.611716764847884],["équilibre",-10.612153018894258],["occupation",-10.613278536106161],["garantie",-10.61331937386231],["sécuritaire",-10.613364414086139],["laboratoire",-10.613364584185707],["raconté",-10.613378885255369],["Personne",-10.613405901150815],["progression",-10.613428428993299],["constitutionnel",-10.613454897998425],["documentaire",-10.613548267985529],["officier",-10.613634304844709],["chanteur",-10.613673675631482],["cru",-10.613708224848011],["fou",-10.613772369159712],["violation",-10.61395604116078],["silence",-10.61398935881217],["ki",-10.614497069601981],["progressive",-10.614528040290347],["franchise",-10.61477409926146],["verre",-10.615586718173976],["intéressé",-10.615638838148918],["suspendu",-10.615692735039303],["Petit",-10.616011265066508],["autorisé",-10.616210283893002],["Wallon",-10.616433657464505],["oupol",-10.616452408716865],["communal",-10.616890063979998],["courte",-10.617740586188258],["axe",-10.617763207817863],["décider",-10.620651748567028],["Mario",-10.620828574386083],["gaul",-10.621305290697588],["Vers",-10.62136651752283],["envisage",-10.62160996304365],["internation",-10.622532109151816],["douz",-10.622569898901075],["amedi",-10.624114962317169],["couteau",-10.624551603940478],["restaur",-10.625060635389506],["lier",-10.62540084463769],["cache",-10.625522205807293],["Seule",-10.625660965942728],["78",-10.626172740645185],["administrative",-10.62652230880089],["homologue",-10.626526033269737],["inondation",-10.626526501797812],["préfecture",-10.626534095266639],["Société",-10.626642375181412],["Sébasti",-10.6267799178171],["enceinte",-10.62699859686043],["(…)",-10.62753786740147],["retourner",-10.628000811588958],["douleur",-10.62813192276794],["Samu",-10.628343799453196],["féminin",-10.629876363649533],["admis",-10.63024856051365],["venant",-10.630426860068713],["suffisam",-10.630490986826416],["llez",-10.630630773031267],["guide",-10.631966830819998],["réussir",-10.632681324405116],["engage",-10.633417649012632],["traditionnel",-10.63367063598043],["diplomati",-10.633787640013011],["renseignement",-10.634738919366912],["criminel",-10.635705971083613],["devienne",-10.63602447160093],["avancer",-10.636083148381168],["lisab",-10.636890503420187],["remarque",-10.63736930497286],["76",-10.637981537557083],["Blue",-10.638657651388932],["68",-10.639087651249167],["installée",-10.639364738664955],["infraction",-10.639489757185927],["discipline",-10.63985564213484],["démocrate",-10.63985564421958],["policière",-10.639855680587054],["extraordinaire",-10.639863868352107],["contamination",-10.63986721945067],["inquiétude",-10.639875075235524],["doublé",-10.639907831297766],["Libre",-10.639910943184601],["corruption",-10.639922768634811],["fédération",-10.639957951902772],["touristique",-10.64004681512757],["délégué",-10.640187684586639],["chant",-10.640191908974415],["parking",-10.640366432326175],["salué",-10.64058386207696],["bombe",-10.641363993248813],["Henri",-10.642198140211393],["GM",-10.643066128761598],["émis",-10.643090357762844],["confronté",-10.643239667670102],["présumé",-10.643348136094328],["contraint",-10.643578848722825],["avenue",-10.643961124211152],["annoncer",-10.644137630001037],["convien",-10.644203579713956],["Pala",-10.64440306452152],["73",-10.646324674728575],["marquée",-10.646548508206244],["voté",-10.647672715821585],["chinoise",-10.647982252527424],["exprime",-10.64850240263802],["mont",-10.649737488522616],["récompense",-10.65004883141409],["CI",-10.650426660738677],["parfait",-10.650885799824835],["blessée",-10.650976697324584],["monnaie",-10.653361160181532],["Antoine",-10.65337041239997],["Switch",-10.653370522388963],["universitaire",-10.653371758653755],["sauvage",-10.653372263797802],["Michael",-10.653372319834602],["assassinat",-10.653400608528884],["maillot",-10.653420667789616],["prévention",-10.653438982472663],["exportation",-10.653446205297513],["exigence",-10.653621337328747],["matinée",-10.653682382890205],["argument",-10.6539041632803],["immigration",-10.653937522828814],["plongé",-10.653995830938957],["Mainten",-10.65487090383337],["sérieuse",-10.65505233323167],["assister",-10.655537148273481],["2008",-10.656262494911156],["Ar",-10.65640313821838],["manifeste",-10.656601720553493],["700",-10.6571302608227],["impliqué",-10.657244841648687],["auf",-10.65730259272173],["bruxellois",-10.657412778098163],["québécois",-10.657507569535973],["acquis",-10.657607545427098],["osité",-10.65761040015957],["exprimer",-10.65800616674133],["subvention",-10.658541729726887],["rose",-10.65881534483904],["suivante",-10.659687250981062],["fasse",-10.660521731550794],["désir",-10.661198348534612],["écoute",-10.66238519132143],["rentrer",-10.662458629485393],["mann",-10.662907308437855],["acheté",-10.6629728072126],["myr",-10.663471887075453],["dérouler",-10.664489494273948],["mo",-10.665173996189377],["cinéaste",-10.66706782238115],["Club",-10.667068507150235],["Rivière",-10.667077416862789],["recommandation",-10.667102142157518],["récolté",-10.667305756856535],["commissaire",-10.667570531978159],["heureuse",-10.66806715759385],["allai",-10.669020866578641],["OM",-10.66926240414634],["mobilisé",-10.670147439713759],["pousser",-10.671936390106552],["douce",-10.67213490150261],["iez",-10.673336893973854],["traditionnelle",-10.67381959667445],["Gi",-10.674335148436045],["Domini",-10.674823638612885],["sexuel",-10.67549101903031],["Brésil",-10.676219175837845],["reconnaît",-10.67678500326069],["entré",-10.677755557003348],["gène",-10.677824431212903],["Mer",-10.678894112455865],["Sony",-10.679927053319464],["marchés",-10.680632992256273],["provisoire",-10.68095667894077],["Instagram",-10.68095890889661],["Eliza",-10.680971825940333],["gendarmerie",-10.681017847454335],["employeur",-10.68105474928688],["extension",-10.681082273678753],["fenêtre",-10.681300502376747],["oeuvre",-10.6814480772054],["Volod",-10.681469034492299],["Palestinien",-10.681744536884002],["Guy",-10.681854565523967],["Canne",-10.682168788259329],["Néan",-10.682189321065842],["classes",-10.682194593765473],["NH",-10.682682538556573],["adopter",-10.683036742114943],["Manche",-10.683526189413275],["payé",-10.6842083754474],["coûte",-10.6842272150013],["menacé",-10.685503800260943],["avancé",-10.685955497510065],["88",-10.68608563389163],["Reste",-10.68734041479299],["Art",-10.687647142055333],["jugement",-10.688821632639922],["mille",-10.689312786939603],["réclame",-10.689465357262888],["Force",-10.689748031922626],["vacciné",-10.689754891515669],["ume",-10.690598091909733],["Max",-10.690954204309126],["future",-10.691644755789948],["engager",-10.69249571778078],["ique",-10.692999536698562],["calcul",-10.693381727710804],["fixe",-10.694186867213801],["dimension",-10.694194214898278],["Brunswick",-10.694976098982181],["Office",-10.695042926067522],["collaborateur",-10.695045630312544],["diffusion",-10.695055710477703],["World",-10.695060662391406],["Péc",-10.695178135956237],["restera",-10.69538269586008],["51",-10.695449204591014],["exceptionnel",-10.696105063837873],["vic",-10.696105375551486],["Bourse",-10.696246983901549],["Blanche",-10.696903307952308],["AQ",-10.697718911310764],["attirer",-10.69772382870698],["moderne",-10.697797309293584],["couper",-10.69888892891981],["transformer",-10.699357583106236],["spécialisé",-10.700270620250311],["réagir",-10.70033288775672],["tourné",-10.700514288866012],["préféré",-10.700521043679737],["retirer",-10.700744287164301],["Mar",-10.701095791568964],["hydro",-10.701234043050423],["volant",-10.701399173931991],["réunir",-10.701416566927227],["usager",-10.703336156114482],["urs",-10.70360996216504],["excellente",-10.70398854542676],["cyber",-10.706626993338883],["Quel",-10.708678747731089],["120",-10.70907571834254],["résistance",-10.709326932937017],["rénovation",-10.709327725494198],["problématique",-10.709331608770484],["éditeur",-10.70933847209093],["66",-10.70933867683583],["assistance",-10.709340926251212],["cycliste",-10.709365865700502],["confrère",-10.709495978630887],["tuer",-10.709509798923067],["Sept",-10.709963005634853],["essayé",-10.709967551546413],["morceau",-10.71024515248492],["Seul",-10.710353214389713],["identifier",-10.71038051879308],["destinée",-10.710434137378797],["juive",-10.710540201727554],["alheureuse",-10.710567968645751],["concertation",-10.7105913075399],["observe",-10.71065377885099],["loyer",-10.710741684559729],["suspension",-10.710825433966482],["sélectionneu",-10.711279363627941],["ambassade",-10.71129342192132],["Kev",-10.711927437656765],["combattant",-10.711993445564236],["touriste",-10.712207067843337],["auxquel",-10.71276832939067],["publicité",-10.712873576119293],["entraîné",-10.71325831125046],["inscription",-10.713457132321473],["Île",-10.71366376528259],["56",-10.714128784616538],["destin",-10.714333484776986],["poussé",-10.714589740273084],["illégale",-10.71557469613612],["95",-10.716444848688283],["visé",-10.717366216666143],["gouvernementale",-10.717507102503015],["seuil",-10.717511070855199],["intervien",-10.718481657299051],["animé",-10.71859087324708],["courage",-10.718908133890672],["Los",-10.719331723632825],["Port",-10.719731724533014],["réchauffe",-10.719961096885555],["oré",-10.7204640806297],["prenant",-10.720669122003336],["revue",-10.721538363752902],["disant",-10.721681311026527],["vant",-10.722493331516322],["terminée",-10.723552280819685],["Interne",-10.72358235939543],["Vendredi",-10.7238196501315],["symbolique",-10.723820824748957],["Jeudi",-10.723822587377812],["semblai",-10.723826578771755],["critère",-10.723832061842568],["Lundi",-10.723852902846053],["importation",-10.723863441023882],["nourriture",-10.7239913636832],["escalade",-10.724015219010257],["Actuelle",-10.724015487508584],["alliance",-10.724234101727372],["musicale",-10.724351509169136],["Peter",-10.724399167166506],["consultation",-10.724574050199895],["collège",-10.72473112155162],["Tchad",-10.72484346465367],["foulée",-10.72527864713033],["Elon",-10.725529974350053],["manger",-10.725814529995798],["terres",-10.726325325675583],["limitée",-10.727856395208661],["accompli",-10.728786878106824],["évident",-10.728907363069073],["Roy",-10.729297594985743],["PG",-10.729592768496227],["!»",-10.7299891158681],["préciser",-10.730023665569448],["partielle",-10.730367499306919],["exige",-10.73085821794591],["releve",-10.731552503288817],["insta",-10.7320474251929],["commenté",-10.732458522877767],["organise",-10.73283727588774],["Déj",-10.733109680295264],["luxe",-10.733619927969805],["contribuer",-10.733965238899131],["cellule",-10.734288428065211],["ariat",-10.734435712150468],["69",-10.73528879101028],["tweet",-10.736629765414737],["RD",-10.736988022608113],["repas",-10.737717243652607],["section",-10.737812046132197],["bons",-10.738268242485127],["Constitution",-10.738306143940722],["Anderlecht",-10.73845552902755],["mécanique",-10.738525532918137],["bourgmestre",-10.738529652618416],["maritime",-10.738531547514985],["info",-10.738556265701085],["bidjan",-10.738640886053384],["conversation",-10.738647765394465],["Pascal",-10.738713010193226],["tournage",-10.73873557252205],["culte",-10.738775254528985],["stockage",-10.738821038783863],["erine",-10.739091735561502],["disque",-10.739661361209452],["haine",-10.739807845493424],["ôme",-10.740506153116579],["voudrai",-10.740896083169158],["remplacer",-10.741069821489926],["originale",-10.74137225799204],["Thierr",-10.742219010513711],["attaquer",-10.742670233154685],["limité",-10.742842677122399],["évoluer",-10.74324474629518],["équipé",-10.744109742614121],["garantir",-10.744289787301565],["interrogé",-10.744443855592628],["républicain",-10.744547436299975],["conçu",-10.744622855155752],["prononcé",-10.744845540805482],["aimerai",-10.744998123205832],["comédie",-10.745104359876104],["atteinte",-10.745451547042357],["moral",-10.746398023881266],["soumis",-10.746417375094333],["comédien",-10.746625622342961],["dépend",-10.747804628261694],["To",-10.748539812461326],["québécoise",-10.748896721609782],["imaginer",-10.74917980868347],["ado",-10.750583656389889],["égal",-10.750772693637868],["occidentale",-10.75252113423651],["matériau",-10.753451138796425],["rupture",-10.753451216548195],["Marvel",-10.753453721825215],["joueuse",-10.753464227122215],["Pokémon",-10.75346490360549],["fonctionnalité",-10.75348384544031],["procéder",-10.753498836556028],["chauffeur",-10.753514955228972],["mécanisme",-10.75356316208465],["Bureau",-10.753597481572527],["autoroute",-10.753788014358415],["polémique",-10.754231980868001],["recueilli",-10.754338573198332],["psychologique",-10.754513126739813],["Laval",-10.756096160962455],["engagée",-10.756629358871493],["Adam",-10.75903943848396],["digne",-10.759102213425562],["culturelle",-10.759698987700558],["annulé",-10.759965421998382],["informé",-10.76001439571528],["urbain",-10.760551681161706],["Julien",-10.761235849536337],["fourni",-10.76166820881466],["termine",-10.762227700214096],["Diable",-10.762776722326489],["Va",-10.763661509653977],["line",-10.765380464654474],["libéral",-10.765619850645104],["éventuel",-10.76580536646307],["by",-10.765811415652415],["Duran",-10.765826419019906],["ge",-10.767314387442838],["basé",-10.76774639380281],["dessin",-10.767843463086132],["Sports",-10.76797995186083],["palestinien",-10.768411703641343],["piscine",-10.768602435006077],["majoritaire",-10.768603429536242],["Britannique",-10.768605455101843],["locataire",-10.768608979266638],["clinique",-10.768626497751889],["ira",-10.768688504849715],["médiatique",-10.768704233759827],["clientèle",-10.76887187752034],["communiste",-10.768875150990116],["décédée",-10.768894746183124],["biais",-10.769013775851565],["Groupe",-10.769355468490662],["former",-10.769466173061017],["forfait",-10.769899797148366],["repos",-10.770017627608816],["Quatr",-10.770474673505273],["Bel",-10.770678167569045],["menu",-10.77324542315143],["ignore",-10.77336281574932],["entente",-10.773932564387938],["Game",-10.77411796325887],["doté",-10.77590945141471],["fan",-10.77662078348062],["paysage",-10.776903294490104],["paraît",-10.77755081183809],["parvenu",-10.777561680224235],["triste",-10.778525559319892],["promet",-10.778830458184181],["énorm",-10.779859581345368],["ramene",-10.779931840429391],["oi",-10.781134410236515],["parfaite",-10.78131746601636],["débats",-10.78166602044929],["signer",-10.78287591470687],["format",-10.783341471188713],["fraude",-10.78367461600591],["thématique",-10.783681160963862],["boîte",-10.783734961719428],["italien",-10.783814744265282],["administratif",-10.783987035648147],["évacuation",-10.783987035786252],["spectaculaire",-10.783987037520536],["internaute",-10.783987083377534],["phrase",-10.7839886701792],["chanteuse",-10.783989005727143],["hospitalier",-10.7839908968785],["banlieue",-10.783992345530358],["complété",-10.784136299079762],["sombre",-10.78413697709475],["représentation",-10.784150884149831],["emblématique",-10.784192009713681],["sélectionné",-10.784358317912794],["regrette",-10.784489330587043],["Alliance",-10.784607842422158],["llah",-10.784686452786318],["abonnement",-10.784743346375024],["rire",-10.784936191270647],["dépasse",-10.785257301867059],["actionnaire",-10.785356106203338],["savent",-10.785559451239354],["pèse",-10.786279071545676],["engin",-10.786520860785368],["placée",-10.787418688067048],["exploit",-10.787459892662312],["fondation",-10.787893589778202],["pensée",-10.787937909209397],["Guilla",-10.788254308449414],["consiste",-10.788784946905523],["flamme",-10.788836928492255],["retenu",-10.790677464418643],["remplacé",-10.791109426402807],["gagnant",-10.79145953405385],["exposé",-10.791488907041487],["bloqué",-10.791812336221081],["espagnol",-10.791932584718598],["nouveauté",-10.792387841904212],["pou",-10.792491764969075],["basée",-10.792499585745569],["confort",-10.793036801136108],["98",-10.79351207030665],["congé",-10.794328276745134],["livrer",-10.795961141874583],["souffle",-10.796724440041533],["illustre",-10.796893794935665],["inédite",-10.797096997231616],["entité",-10.797238104197337],["imposée",-10.797298155266748],["correspond",-10.797621394037677],["18h",-10.79766043441075],["Albert",-10.79786351074107],["compagnon",-10.797970214233583],["char",-10.798154426743586],["fermée",-10.798575188629677],["symptôme",-10.799612035648885],["hectare",-10.799612035974633],["comparaison",-10.79961225892737],["sévère",-10.799612937567804],["indispensable",-10.799615230215107],["boulevard",-10.799630496338217],["coéquipier",-10.799654654802097],["horaire",-10.799668587474853],["condamnation",-10.799690241423383],["colonel",-10.799695103577047],["incontournable",-10.800004865868662],["situe",-10.800066755225568],["apprentissage",-10.8002243483885],["Fête",-10.800346673114445],["Berlin",-10.80037563455122],["fumée",-10.801940841321919],["autochtone",-10.802139679721375],["aperçu",-10.802221727152263],["durer",-10.80256905546835],["Moi",-10.803205593398587],["déplacer",-10.803921956024375],["Strasbourg",-10.80411815769215],["provenance",-10.804204879507068],["DF",-10.80434607789297],["usines",-10.804781610252332],["â",-10.804819333616223],["reconnaîtr",-10.80481997500775],["solaire",-10.805803102773641],["remerci",-10.80682938223306],["isolé",-10.806970915032545],["attaqué",-10.807074052558864],["dépassé",-10.807601895014395],["accompagne",-10.808084535856679],["libéré",-10.808156309985392],["représenté",-10.808247013008554],["entraîne",-10.80857662499051],["pensé",-10.8090076351498],["LE",-10.810969242975172],["reprend",-10.811137574687718],["aménagement",-10.811768670363662],["Gil",-10.812355547520841],["démission",-10.812610369236436],["Asi",-10.812626977226223],["HD",-10.813040051073557],["clos",-10.813135883411704],["noire",-10.813663205756292],["occident",-10.814038991783349],["aidé",-10.814850960470013],["TP",-10.814924970765771],["Sénat",-10.814930708779421],["profession",-10.815316767401445],["coordinat",-10.815317724774438],["déficit",-10.815410586171653],["Organisation",-10.815489729675683],["compatriote",-10.815491193433438],["Journée",-10.815492857688378],["autonome",-10.815496059486083],["Lui",-10.815499136621016],["légende",-10.815566779554356],["avère",-10.8155786557383],["Heureuse",-10.815643180414787],["hasard",-10.81565708837341],["protocole",-10.815696366684154],["intelligence",-10.81579602957007],["trophée",-10.81596271161085],["Aussi",-10.816008056497232],["filière",-10.816015793637195],["Fin",-10.816242499381973],["barrage",-10.816461850508102],["abattu",-10.816638626226972],["provenan",-10.81691606601648],["flambée",-10.817191294457135],["coureur",-10.817459457267205],["pompe",-10.817969050572838],["Blanc",-10.818554169825031],["virtuelle",-10.819087298313804],["toucher",-10.81922419834296],["ï",-10.819273251373462],["casque",-10.819355821136405],["Born",-10.819731443593701],["87",-10.820029117383049],["mentionné",-10.821935900200895],["angle",-10.822583269061134],["verra",-10.823402961021436],["vaccinal",-10.824659665993744],["familial",-10.824712391203253],["ède",-10.825244171858095],["Bay",-10.826087363062452],["International",-10.827183407909985],["Trude",-10.827227361619707],["touchée",-10.827460750483011],["allé",-10.828373740308463],["nez",-10.829626852544212],["imanche",-10.829850141588688],["bilité",-10.830920097530662],["convention",-10.831091616944235],["carbone",-10.831591165756304],["ordinaire",-10.831604127997675],["chapitre",-10.831614200105317],["téléphonique",-10.831617324079346],["interprète",-10.831641337381747],["adhésion",-10.831790261692216],["équivalent",-10.831843041233817],["caché",-10.832060029735697],["archive",-10.832570778489561],["Carlo",-10.832695763606575],["Cath",-10.833061608095523],["richesse",-10.833680438893584],["stress",-10.833773052655388],["exclu",-10.835575447932083],["ferai",-10.835621852925694],["opu",-10.835674107550123],["vidéos",-10.83646184715351],["isait",-10.837118227083884],["multi",-10.837289638474576],["rac",-10.838172079610175],["chère",-10.838323744323226],["obligé",-10.84014217977732],["transformé",-10.840744245762144],["Bi",-10.84225101695354],["Real",-10.842670936081452],["voisine",-10.843415116549902],["tranche",-10.843499887239],["couvert",-10.843940793592301],["occuper",-10.844375095519386],["indépendante",-10.845457595857205],["plaque",-10.846988389345404],["mentionne",-10.847305956576472],["fiscale",-10.84767837895154],["Portuga",-10.847745077155722],["Rem",-10.84786000173462],["Benjamin",-10.84800756164087],["concrète",-10.848010967380866],["fabrication",-10.848012660365114],["écologiste",-10.848016242002892],["révélation",-10.848022833110065],["dinar",-10.848024503402208],["Toronto",-10.848025901700009],["implication",-10.848035244871657],["terrible",-10.848250818984313],["foot",-10.848592805665145],["championne",-10.848794329370605],["susceptible",-10.848832928134694],["disai",-10.848983773277013],["assaut",-10.849280666568216],["faciliter",-10.849363125829377],["déposer",-10.849644371664997],["etsk",-10.850432320940385],["ney",-10.851153458804296],["encourager",-10.851168287963514],["composée",-10.85154166208423],["ong",-10.851581905040746],["Certaine",-10.852633341856349],["79",-10.852925529951772],["Charle",-10.852957817428653],["mention",-10.853573447791995],["reproche",-10.855101197833912],["beauté",-10.855716686511656],["refuse",-10.855861100698839],["absent",-10.85628794384742],["profite",-10.856545352017191],["Serie",-10.857010880631453],["apprécié",-10.857083703784356],["ressemble",-10.857424434679736],["Nos",-10.857561094580632],["observé",-10.857815394326948],["inspiré",-10.857938643556654],["sénégalais",-10.857955873624096],["consacré",-10.858131000983546],["onnant",-10.858488579501994],["ification",-10.858881533467505],["contrainte",-10.860035231086695],["ium",-10.860197050994913],["sentir",-10.860929644492003],["nécessite",-10.861608441405416],["Pi",-10.861643372720899],["préserve",-10.861874458696395],["Quelle",-10.86228843520411],["envoi",-10.862357344422236],["religieu",-10.862655925953323],["suscité",-10.86269632698006],["bo",-10.862827578585573],["borne",-10.862981239423544],["web",-10.863540953316738],["électoral",-10.863987448805243],["major",-10.864399433976846],["attitude",-10.86467517433367],["logistique",-10.864676146166483],["rempli",-10.864688344336367],["scandale",-10.864835325486842],["vocation",-10.864897411872082],["plante",-10.864986536860552],["titulaire",-10.865230697696614],["Hu",-10.865321557995928],["chaussée",-10.86558826784756],["SSD",-10.865960932149546],["religieuse",-10.866625170612071],["Congo",-10.866740685318934],["expertise",-10.866854969284804],["Alger",-10.867397644252332],["96",-10.867408772048472],["stream",-10.867526047554767],["appliquer",-10.86763882098995],["participe",-10.86828302994006],["réalise",-10.868437981569677],["mette",-10.869144834522519],["Sam",-10.86934184202891],["rock",-10.869464388930488],["potentielle",-10.869581315211883],["épaule",-10.869797221447115],["riches",-10.869891098164159],["location",-10.872556013069516],["cong",-10.872955522789795],["Mard",-10.873330375673543],["arrête",-10.874539266620108],["suffisant",-10.874822313037152],["affiché",-10.87488504508565],["néerlandais",-10.874920957961798],["déroulé",-10.875476483274756],["Jack",-10.875611195339406],["veiller",-10.876283391375308],["for",-10.877669817463762],["favori",-10.878229402769204],["Ceci",-10.878840284127394],["cycle",-10.8789361035338],["not",-10.879585412750838],["rement",-10.879862003679662],["médical",-10.8798733818739],["parlement",-10.88029334766076],["parallèle",-10.881623355612003],["Jonathan",-10.881624452009046],["fossile",-10.881625036498768],["sensibilisation",-10.881656315836455],["jambe",-10.8816577530153],["vedette",-10.881688326863571],["Académi",-10.88169461129227],["casting",-10.881824684627611],["Maritime",-10.881857022901535],["plaidé",-10.881968183616642],["recrutement",-10.882205128616723],["règne",-10.882236051889617],["CAN",-10.882897718013705],["puissante",-10.883071935204153],["Front",-10.88336358644893],["Sein",-10.883788144883583],["libér",-10.884058325857113],["abus",-10.885034058339812],["retraité",-10.88510536054142],["Inde",-10.88570536503564],["rachat",-10.885770688525536],["trente",-10.886178529127413],["Rappel",-10.886594426298888],["écouter",-10.887055406268896],["désert",-10.888679317609508],["Tur",-10.888761850108466],["libérer",-10.888984563629084],["déposée",-10.889703057077462],["cou",-10.890461302875611],["conserver",-10.89147887397844],["favoriser",-10.891903445195634],["abandonné",-10.892184874486944],["conséquent",-10.892316646615019],["ab",-10.892418786049504],["tombée",-10.892542179174193],["violente",-10.892712371880096],["écho",-10.892910375250317],["pourron",-10.893107221800275],["Monde",-10.893166303444199],["regarde",-10.894525166764716],["créée",-10.89455448586541],["pain",-10.89488727011322],["relance",-10.89507363830846],["promouv",-10.895868179248996],["franchi",-10.896724491866754],["visa",-10.897439151820162],["essaie",-10.89776413320814],["occupant",-10.898787826143764],["océan",-10.898790798373547],["vulnérable",-10.898864724959083],["sécheresse",-10.898865365242704],["mélange",-10.898867697443958],["collectivité",-10.898867938480278],["technologique",-10.898868003879993],["prolongation",-10.898870132409474],["trajet",-10.898871890552636],["dangereuse",-10.898871977057494],["Ti",-10.898879687146346],["exécution",-10.898880893302428],["échappé",-10.898885057558157],["recommandé",-10.899159045668892],["jury",-10.899173563032356],["covid",-10.89923831083388],["développeur",-10.899277080585083],["Monsieur",-10.899399226929036],["fierté",-10.899434306590422],["conclur",-10.899759641642946],["oiseau",-10.900472882559727],["évolue",-10.900500363064243],["transporté",-10.900998043705126],["brigade",-10.901650254226084],["nier",-10.901744292238595],["étion",-10.90178006305724],["dirige",-10.902147278212514],["revers",-10.902628169658],["Boris",-10.904460516734428],["satisfait",-10.904517121443849],["Hél",-10.90496787326741],["estiment",-10.905101329548526],["signal",-10.906052193099875],["ores",-10.906543339844312],["gen",-10.90750529214742],["nage",-10.907977247296895],["71",-10.908437327292305],["BA",-10.909146314723003],["fiction",-10.90916085227649],["lauréat",-10.909221921259249],["09",-10.909291879438975],["conquête",-10.90937662877721],["critiqué",-10.909924272453523],["mentale",-10.910953217831967],["valoi",-10.911280826649362],["contrôler",-10.911602035859245],["interroge",-10.911946033864211],["tuée",-10.913424884232112],["survenu",-10.913465129277482],["pur",-10.91373748440428],["éclairage",-10.914421358509985],["raconter",-10.91498084488327],["tire",-10.915084666942278],["iranien",-10.916222371827347],["agréable",-10.916374348963508],["catalogue",-10.916408722072028],["hypothèse",-10.916409279722963],["destruction",-10.916414291974615],["annulation",-10.916439108009032],["modification",-10.91645752613086],["motif",-10.916483435996753],["prisonnier",-10.916542935449458],["Donbas",-10.916580855055278],["désigné",-10.917301735296483],["levé",-10.917794521279008],["Street",-10.91801498368273],["échapper",-10.918454039087063],["modifier",-10.918564484132975],["immédiat",-10.918997835405554],["Cert",-10.919438614760635],["poisson",-10.919758222997949],["Dan",-10.920392372478387],["GO",-10.920962168184058],["ray",-10.922452134301643],["testé",-10.92307803381939],["Bleus",-10.923468483888428],["froide",-10.923749118458586],["finit",-10.924221647825707],["pape",-10.925702655390939],["urbaine",-10.925891183505954],["rejet",-10.926728559567985],["noté",-10.927110336764105],["conscient",-10.927998952137646],["dépasser",-10.928069150713794],["concernée",-10.930887839837752],["support",-10.930904548459193],["défendu",-10.931173161432007],["appartenan",-10.93143717817182],["intégré",-10.931570982490168],["Toulon",-10.931633860918353],["nuage",-10.93173129496548],["fameu",-10.933600310987892],["révolution",-10.933790122643384],["compatible",-10.93406959587802],["tech",-10.934224860754181],["budgétaire",-10.9342657274428],["référendum",-10.934265733576556],["vétéran",-10.934267873326668],["sensibiliser",-10.934272443639127],["intermédiaire",-10.93429586469124],["Directeur",-10.934306964320623],["animateur",-10.934327698947278],["Roland",-10.934338210624249],["céréale",-10.93450562777067],["Fi",-10.934890108421175],["manœuvre",-10.935074565742015],["stricte",-10.935370818532293],["coupure",-10.936045042284821],["Gaza",-10.936325839761855],["citoyenne",-10.936352524036458],["qualifier",-10.93643667592601],["modeste",-10.93709872389369],["tenant",-10.938705516187387],["sapeur",-10.938995920339934],["apparaît",-10.940168679435853],["Mb",-10.940493789706995],["disputer",-10.941290838109463],["Tim",-10.941323103166706],["ha",-10.941927336821518],["onze",-10.942002361705175],["rebelle",-10.942037480031193],["arabes",-10.9422743162329],["apprête",-10.942446064451653],["vertu",-10.942997050171474],["Loire",-10.94300373336864],["étendr",-10.943170310970032],["tournant",-10.945566987804757],["pension",-10.945710478389532],["zér",-10.94665775577981],["intervenu",-10.947251148522469],["ressort",-10.949370019621764],["organe",-10.950170372525424],["brut",-10.950403934963411],["imagine",-10.95133405579136],["bouteille",-10.951898600339195],["horreur",-10.952456668035484],["nvironnement",-10.95248361494986],["Smith",-10.952506590500352],["alentour",-10.952512315556515],["météo",-10.952516316957153],["Light",-10.952560318253852],["chronique",-10.952602617893325],["incertitude",-10.9526211751518],["réputation",-10.952809230510423],["Dé",-10.9529394564918],["technicien",-10.953019441765788],["fusillade",-10.953049882462118],["routier",-10.953185313949929],["suicide",-10.95329853498982],["Mathi",-10.95354132054024],["RÉ",-10.953709903137142],["PME",-10.954047371729773],["mine",-10.954618034612542],["Tra",-10.955507764657472],["fui",-10.956023351618224],["pousse",-10.957064796960662],["condamne",-10.957388439586232],["allemande",-10.958007290576969],["min",-10.958814975227575],["Roger",-10.959089762285267],["artisan",-10.95911554665906],["habituelle",-10.959256955837752],["dois",-10.959545869176027],["individuelle",-10.960659266133344],["casse",-10.960831834122398],["Savoi",-10.960969190560768],["Ver",-10.962605481508499],["‘’",-10.964465525263385],["passionné",-10.96447146180185],["istes",-10.96467280226992],["rayon",-10.964967095160059],["musulman",-10.965551936449163],["disputé",-10.965950103822982],["visiter",-10.967661910485104],["CD",-10.968021229099026],["dispute",-10.969031398730579],["ambitieu",-10.969041647714839],["monté",-10.96928365516761],["Mexi",-10.96984491122273],["lecteur",-10.970052766133028],["ini",-10.970220102217157],["réception",-10.970638654492362],["musicien",-10.970832136429278],["standard",-10.970860907036965],["pollution",-10.970966490842558],["régler",-10.970967560026427],["Ibrahim",-10.970981874089645],["résoudr",-10.970995751403887],["bancaire",-10.971021934604831],["observation",-10.971056757940545],["programmation",-10.971076799444752],["accessoire",-10.971375231530878],["septième",-10.971414234922497],["vallée",-10.971557223335594],["ateur",-10.971864241215323],["composition",-10.971909824163406],["Galax",-10.97191427609416],["abandonner",-10.972398316479332],["han",-10.972400713218322],["porteur",-10.97247918617318],["CGT",-10.972756996943879],["viande",-10.972900540326545],["Xavi",-10.972941257784628],["can",-10.972958886090638],["Josep",-10.973044840146244],["diffusée",-10.973533160418125],["conjoint",-10.974468580298538],["!\"",-10.97537504909375],["61",-10.97565600163877],["souligner",-10.975807541279263],["Fabien",-10.975875008952924],["global",-10.975958997472862],["folle",-10.976066384684204],["remonter",-10.97810235226777],["classé",-10.978364097311044],["cinquant",-10.97855973494713],["compt",-10.978721682300606],["IB",-10.9789095029923],["tranquille",-10.979081210064189],["ON",-10.980909680690077],["entrevue",-10.981001542717882],["encontre",-10.981106794972659],["frein",-10.981491827766108],["raté",-10.981580495903051],["paraîtr",-10.982030892060113],["tique",-10.9826187273643],["rebond",-10.983149380519697],["justifier",-10.983185605994224],["survie",-10.983300544150069],["entraîner",-10.983626921548126],["habitué",-10.983712852449269],["aîné",-10.983894682958868],["existent",-10.98390032596169],["pénale",-10.985131492511652],["françaises",-10.985236906355095],["plonge",-10.985304218148377],["permanent",-10.985383279011176],["Tes",-10.985719645108837],["devr",-10.985845788501665],["lois",-10.98649580348989],["suivie",-10.986663622958021],["design",-10.987235454433478],["voyai",-10.98738320043087],["Stan",-10.987560205566378],["Borde",-10.987961218038702],["handicap",-10.988016507533821],["ercredi",-10.988998939220071],["firme",-10.989384080843873],["marocaine",-10.989686128501019],["baptisé",-10.989741461676084],["possession",-10.989819655954626],["infirmière",-10.989833988657189],["Juif",-10.989836038305908],["pourcentage",-10.989836961064015],["hélicoptère",-10.989838830582414],["éliminatoire",-10.989845694765982],["défunt",-10.989846069027447],["correctionnel",-10.98990015181359],["comble",-10.989906976707179],["orientation",-10.989930460668617],["renouvelable",-10.989964559613938],["Arabi",-10.99000206655854],["observateur",-10.990020589565479],["conception",-10.990027755800641],["bassin",-10.990092727238505],["empêché",-10.990248110821376],["souveraineté",-10.990371436473168],["réparation",-10.990373849184454],["Alpha",-10.99048480722226],["arbitre",-10.990510153362878],["ning",-10.99110381585752],["ND",-10.991184612672399],["ligue",-10.991224596821187],["Bell",-10.992368176062959],["viven",-10.993390804982571],["pot",-10.994067790747575],["AS",-10.994508149725323],["couvre",-10.995101209888896],["inclu",-10.996402499563978],["enregistrée",-10.99649442782428],["intéressante",-10.996617789811738],["détien",-10.996926444927809],["soixant",-10.997636610935235],["incarne",-10.997665508368717],["caisse",-10.998011393480795],["cercle",-10.998230952735266],["bière",-10.999025916514588],["commandant",-10.999492079268208],["syndicale",-10.999652772995926],["trait",-10.999823091051258],["emprunt",-10.999998274645913],["télétravail",-11.000807186413127],["Ontari",-11.0011208282126],["oît",-11.001315076026462],["comporte",-11.0014914254372],["Harr",-11.00265912138199],["aming",-11.003199002407452],["84",-11.003222142333247],["bruxelloise",-11.003324643740417],["grandi",-11.003686283584546],["tagne",-11.003718448373949],["oux",-11.003838455040885],["réservé",-11.004044972401335],["japonais",-11.005092719682555],["Né",-11.005862227842744],["parvien",-11.006264585973032],["comptai",-11.00724147044993],["clés",-11.007566673642366],["multiplie",-11.007722242262076],["Républicain",-11.009064789006857],["économiste",-11.009065333491224],["religion",-11.009065376019885],["doléance",-11.009065594106373],["appuye",-11.009066241952603],["hospitalisation",-11.009066943389321],["discrimination",-11.009070965222032],["créateur",-11.009073724381693],["Liban",-11.009080659031802],["consécutive",-11.009095113211192],["colonne",-11.009120177670589],["défilé",-11.00917295152018],["courrier",-11.009253489910993],["dramatique",-11.009274942428622],["turc",-11.00937760174309],["invitation",-11.009411953637795],["descente",-11.009553870919474],["Oscar",-11.009556957995311],["accompagnement",-11.009586138927247],["terrasse",-11.010285128780575],["longueur",-11.010545611289839],["saisie",-11.010852208945188],["convoi",-11.010929372893923],["PI",-11.01147172886669],["Cong",-11.012356729079459],["Dami",-11.012373964797053],["kilo",-11.01244634132662],["saut",-11.01270211730416],["profonde",-11.012983827923087],["sensation",-11.013295444473421],["West",-11.01337854774237],["serre",-11.013547469053021],["original",-11.013642870519988],["81",-11.01410403607575],["Prime",-11.01513558485614],["couloir",-11.015542551311606],["soulign",-11.016260288143297],["affirma",-11.01773878590021],["bé",-11.01997863052882],["bat",-11.020052829904106],["confirmer",-11.021060959327313],["gestes",-11.02178755780832],["Finale",-11.021876499215473],["Soit",-11.022989510487697],["féminine",-11.023779555732443],["CF",-11.02408983637973],["commercia",-11.024445082981568],["hospitalisé",-11.024583588837565],["Mac",-11.024749213319232],["Royal",-11.024882912091247],["conjointe",-11.025030279189371],["unis",-11.02658591291015],["rejeté",-11.026625865360915],["Loi",-11.0269994903627],["couche",-11.027050223441801],["dirigée",-11.027091441822307],["rendue",-11.027405269152416],["viendra",-11.027851183141617],["craign",-11.028150269222108],["ivoirien",-11.028507735556424],["politicien",-11.028551948160295],["diplomate",-11.028672601024482],["prédécesseur",-11.028672601059228],["obstacle",-11.028673029596234],["Théâtre",-11.028673131374864],["souffrance",-11.028675218600034],["métropole",-11.028677083728088],["refuge",-11.028679087096926],["célébrer",-11.028690095026082],["fréquence",-11.028698163842149],["Suite",-11.028753414971716],["estimation",-11.028761153447935],["capteur",-11.028771174931023],["ingénieur",-11.028867978819093],["stationnement",-11.028880778404284],["Nova",-11.028944541269825],["Rh",-11.028969290564337],["audition",-11.029186597618157],["portefeuille",-11.029494046297629],["fibre",-11.029516827025642],["Carolin",-11.029588464363716],["René",-11.029729339190634],["assisté",-11.029799033972779],["environnementale",-11.030725101051935],["monte",-11.03084741152906],["mark",-11.030910584478942],["alarme",-11.031102715280857],["wi",-11.033175437755368],["Plan",-11.03401844376072],["prétend",-11.034026289341117],["relancer",-11.034088475907918],["oppose",-11.03497878566894],["apport",-11.035134772612656],["74",-11.035391764611369],["Xi",-11.035771575505578],["gamer",-11.035818315005368],["bref",-11.036028879813635],["approuvé",-11.036681664561943],["Day",-11.036981304395804],["réunis",-11.037207993461116],["bouton",-11.037399421483308],["Char",-11.038644729888585],["volé",-11.039239224412661],["prenai",-11.039644942341747],["trio",-11.039742494459961],["Games",-11.039803205971271],["Sea",-11.040659646184487],["excellen",-11.04093550635277],["promo",-11.041145057871422],["Bou",-11.041310663821875],["Environ",-11.041336495994887],["hâte",-11.042494494660378],["ob",-11.04263884819456],["Cond",-11.042789904221722],["détaille",-11.043087090006381],["monument",-11.043464090366149],["Andro",-11.043705281729348],["Rome",-11.043949937122783],["Eh",-11.044255216398152],["bourg",-11.044416365895101],["morale",-11.044532549873185],["préparé",-11.045026444816344],["TF1",-11.045886531381804],["représenter",-11.046970463963373],["Sah",-11.047080750034672],["écurité",-11.047928042459137],["mett",-11.048021098888904],["King",-11.048543853889267],["Taïwan",-11.048673647105923],["métro",-11.048688031679742],["projection",-11.048689230979996],["filiale",-11.048689632609722],["AIP",-11.048698823625017],["équipage",-11.048712081752964],["compléter",-11.048717129910116],["royale",-11.048794666296569],["ouvrier",-11.048823576278613],["célébration",-11.048837939806457],["tablette",-11.048906047049119],["exclusive",-11.04892319016896],["accepte",-11.04893918791421],["algérienne",-11.049046033806295],["Milan",-11.049091392114025],["félicité",-11.04912237123134],["expulsion",-11.049365006133018],["bronze",-11.049403088643249],["négocier",-11.049601539445392],["flotte",-11.049685854939899],["COP",-11.05008903840164],["portrait",-11.050206803671948],["Nanc",-11.050446550072385],["réfléchir",-11.051058146448028],["Transport",-11.051261452502668],["soviétique",-11.051436513139226],["singe",-11.051458991409971],["mm",-11.051633278995086],["hor",-11.051989576660485],["concentrer",-11.052483933519362],["Bois",-11.052910406808136],["Didi",-11.05315507357886],["combattre",-11.053897140980641],["fonctionner",-11.056608811338668],["Chris",-11.056805014665157],["carton",-11.056967096094443],["migration",-11.058226190853969],["délais",-11.058322455305753],["vigilan",-11.059277970659982],["étendue",-11.059336660142725],["feuille",-11.059609984398534],["Colombie",-11.06015648392916],["orange",-11.060293281818858],["gel",-11.06038153593001],["patiente",-11.06055190983865],["provien",-11.060619140734055],["dévoile",-11.06220318541521],["900",-11.062651737454292],["trou",-11.062873177417984],["géré",-11.063592455214565],["engagements",-11.063822828505169],["Désor",-11.06431376601374],["tara",-11.064459883771008],["étrange",-11.064774461258171],["présidentiel",-11.0649734788029],["contribue",-11.06543770366685],["Bill",-11.065461877725308],["revendique",-11.065466486436357],["spécialisée",-11.065503813432105],["provinciale",-11.065509814603656],["Frank",-11.065877320408259],["vaudois",-11.065950743664793],["affecté",-11.06602596729914],["protégé",-11.066046170364448],["rice",-11.0663122900261],["provoque",-11.06649397165701],["Contrai",-11.066731436379847],["composant",-11.066913890758666],["positionne",-11.067541468307693],["soignant",-11.068433482172132],["mail",-11.068516736525943],["poche",-11.068531702236113],["chèque",-11.068729138548932],["accent",-11.068888258939152],["isjordanie",-11.068976596126424],["significative",-11.069080765130574],["évidence",-11.069080882268715],["Interrogé",-11.069080896454048],["Culture",-11.069080962231071],["pétrolier",-11.069081095574901],["Flandre",-11.06908158527169],["collision",-11.069082281476428],["mythique",-11.06908236431934],["théorie",-11.069082996400251],["Djoko",-11.06908535560385],["investigation",-11.069085557771672],["éhéra",-11.06908955471655],["basket",-11.069110717964536],["Jordan",-11.069218088008316],["conseillère",-11.069220708986222],["bénéficiaire",-11.06925531172841],["démontré",-11.069328660757282],["Finland",-11.069353276293116],["illustration",-11.069567236734107],["loisir",-11.069681343406318],["littérature",-11.069963832194183],["Pri",-11.070637460340702],["Nationale",-11.070954233759062],["architecture",-11.071435381862347],["médecine",-11.072046770687777],["tribune",-11.072936607696306],["SAN",-11.073179448217383],["ordonné",-11.073665269856518],["roy",-11.073681059611047],["épression",-11.074965869359627],["criminelle",-11.07525476049003],["gan",-11.075259140262455],["suscite",-11.07544713516619],["huile",-11.075736984667756],["canon",-11.077223571402204],["retenue",-11.077367155231018],["assis",-11.07760322500781],["ouffer",-11.077604793396123],["Free",-11.078292453025032],["recrue",-11.078874539095388],["poo",-11.078950560667616],["ber",-11.079029276807432],["basse",-11.079051330381544],["espagnole",-11.079225141790989],["gouvernan",-11.079842604043012],["irection",-11.080728563605732],["considérée",-11.080785114334734],["rond",-11.081113385597176],["étudiante",-11.081144031297981],["arc",-11.081161434487438],["accordée",-11.081994124663318],["signale",-11.083423350896222],["évoquer",-11.084268699447962],["ani",-11.08439050321352],["fuir",-11.085597501666676],["5G",-11.08568436500552],["abandon",-11.08604405709551],["05",-11.087068005268513],["repoussé",-11.087508221870433],["Code",-11.088454266450997],["proportion",-11.089612828558304],["compagne",-11.089816127712952],["fraîche",-11.089914097642037],["Concern",-11.089914279017748],["législation",-11.08991432755004],["indicateur",-11.089914593385704],["amitié",-11.089917052181372],["élimination",-11.089917072157556],["sénateur",-11.089920228712845],["tactique",-11.089921438411421],["massif",-11.089930491573273],["magazine",-11.08994131973098],["phare",-11.089962258009985],["Ousman",-11.089970065690498],["vestiaire",-11.089980325147993],["Serge",-11.090031188586616],["district",-11.090052103480787],["perturbation",-11.090059522572464],["reproché",-11.090103585236971],["Netanyah",-11.090163955669912],["édifice",-11.090166120032068],["extrait",-11.090227505698472],["évoquant",-11.090322833803326],["Espagnol",-11.090412322581756],["évolué",-11.090479462308403],["way",-11.090987113986447],["asile",-11.091055541602357],["diriger",-11.091078403329172],["agenda",-11.091402942851525],["massacre",-11.091448067515124],["déploiement",-11.0923579608434],["Claire",-11.092780864257067],["dollar",-11.093439542032506],["légitime",-11.0936300408183],["Argentine",-11.094675865950325],["Jan",-11.09474618387033],["fondé",-11.095281773209653],["observer",-11.096311212812044],["artificielle",-11.09651914042171],["Monc",-11.097492153513116],["Meta",-11.098187958111621],["cri",-11.09918193146142],["réplique",-11.099192442818689],["appartien",-11.099510618864162],["bouche",-11.100222065645859],["idéal",-11.102738415861499],["market",-11.103272330658918],["montr",-11.103751769242185],["bou",-11.103799072410457],["rix",-11.10384957297996],["four",-11.104213628758218],["radicale",-11.105211997568802],["baril",-11.105735451298553],["Belle",-11.105748648120114],["dominé",-11.10662407547609],["déçu",-11.106630833615979],["mé",-11.106927839823824],["istan",-11.107172280115163],["marquant",-11.107395237324702],["bénéficie",-11.107714652234883],["Allemand",-11.108015977468778],["orum",-11.108756636685811],["impressionnant",-11.10916259100777],["start",-11.109343524789981],["AL",-11.109971212691477],["arros",-11.110140489991013],["élue",-11.11017365959937],["·",-11.111190693367798],["Conakry",-11.111190694152778],["Championnat",-11.111190792153696],["routière",-11.111198590139889],["allure",-11.111198732170356],["Histoire",-11.111199957353197],["fabricant",-11.111204895344006],["Sophi",-11.111206181945697],["Économi",-11.111207451744221],["oreille",-11.111215907931099],["héroïne",-11.111218594221473],["motivation",-11.111221022666966],["connexion",-11.111234148174772],["bu",-11.111249888130668],["manager",-11.111250756345457],["faille",-11.111295869526288],["Musée",-11.111297419766457],["mixte",-11.111308808245148],["Sarah",-11.111318230682198],["inacceptable",-11.111325296855632],["accélérer",-11.11138390821581],["vendeur",-11.111389534079986],["diminué",-11.111497540646361],["Leclerc",-11.111512408088634],["gérant",-11.111726429919157],["Bénin",-11.111874859817021],["requis",-11.111898171104919],["Diall",-11.11273231147035],["83",-11.112883498599643],["traverser",-11.113791496656752],["Nada",-11.113836485620011],["kg",-11.113994695041322],["favoris",-11.11457145275347],["accorder",-11.114637523619523],["nationalité",-11.114646458652011],["développe",-11.11504458767105],["86",-11.115174196463837],["SE",-11.115312399657322],["renouvelle",-11.115449962196138],["fortune",-11.115453803503247],["offran",-11.115713292252572],["Ho",-11.115742681050545],["recharge",-11.115794505868518],["retrouvée",-11.116847336967393],["dédiée",-11.11689112305906],["Général",-11.11710191043828],["Steven",-11.118018027134958],["Alexi",-11.118101101958835],["avoue",-11.118128302885113],["craint",-11.118158471145543],["toi",-11.119444620017056],["ourage",-11.119517536155186],["Pr",-11.119525239190232],["Met",-11.119549422805349],["manquer",-11.122457507743164],["Far",-11.123157970106641],["verge",-11.12432141832692],["subir",-11.125479609111029],["motion",-11.126253252414795],["appé",-11.126287161608586],["souverain",-11.126447099262975],["130",-11.126878230019514],["pop",-11.127092377688186],["ker",-11.128354784319392],["copie",-11.128448201818692],["Bour",-11.1288247758365],["publier",-11.128901227539872],["oubli",-11.129004233038621],["emporté",-11.1290459524238],["union",-11.129353592787137],["amené",-11.129397611851632],["mandant",-11.129439835648556],["solo",-11.129522555029823],["arcè",-11.13064620533757],["individuel",-11.130902355051516],["refuser",-11.13090787333216],["remet",-11.131103232577603],["joli",-11.131316530553537],["évacué",-11.13133457151643],["97",-11.131850676626746],["pin",-11.132043084851366],["fiche",-11.132361495891198],["communale",-11.132479831918378],["adolescente",-11.132541766243364],["repose",-11.132576821473833],["™",-11.13292982380258],["déception",-11.13292983425311],["bâton",-11.132929857961814],["satellite",-11.132929863268645],["revendication",-11.132935790908236],["isolement",-11.132936727670105],["thermique",-11.132937409895584],["introducti",-11.132989198387373],["superbe",-11.133043239700221],["rappeur",-11.133051514078225],["ota",-11.133057012010681],["Namur",-11.133058646558172],["cimetière",-11.133084176207724],["ordonnance",-11.133232362786671],["Chacun",-11.133752510258786],["bain",-11.13378615933537],["BFM",-11.133795790624381],["milliardaire",-11.13380584988046],["Texa",-11.13382425269712],["monstre",-11.133909655948026],["Croix",-11.134239008600455],["bête",-11.134247813481611],["acheteur",-11.134293675988383],["contacté",-11.135215433504243],["«»",-11.135254555759994],["débuter",-11.135303021928008],["oblige",-11.13547705700607],["traiter",-11.136032165602206],["clou",-11.136293442071732],["TT",-11.13642201367497],["Stade",-11.136547038937813],["pure",-11.136819773254857],["prouver",-11.13691133599855],["3D",-11.137348679959493],["prévien",-11.139126666352423],["implique",-11.141713387226268],["remarquer",-11.141763918082672],["hi",-11.141785441351763],["consulte",-11.142064583250285],["délit",-11.142823337576264],["Ki",-11.143094984199504],["obten",-11.143117258645344],["instrument",-11.143809199348501],["accompagnée",-11.144215070816195],["stage",-11.144804429836892],["VR",-11.144971417109701],["IA",-11.145037486801272],["Mada",-11.145732335441016],["Ray",-11.147201465520377],["Julie",-11.147680128132805],["détermin",-11.148796137290155],["unanim",-11.149067212033822],["Mat",-11.149483277436797],["Park",-11.15051938122587],["Turqu",-11.150958211946259],["82",-11.15112218327866],["issant",-11.151293298290108],["justifie",-11.152111623565304],["pointé",-11.152188252951982],["indiqu",-11.153088659967981],["contien",-11.153562220137095],["igny",-11.154119868751387],["retiré",-11.15420292377152],["Édu",-11.154579118260934],["Mor",-11.154767235406231],["parisien",-11.154971281415815],["photographe",-11.15515204606137],["Afghan",-11.15515226208257],["fragile",-11.155152949212239],["atmosphère",-11.155153195101516],["trésor",-11.155153312722476],["conviction",-11.1551553760725],["remarquable",-11.155156409455216],["Dijon",-11.155157265655331],["embauche",-11.155161132044253],["prioritaire",-11.155164369807569],["séparatiste",-11.15516440187749],["Tokyo",-11.155166809071426],["considération",-11.155178140329326],["héritage",-11.155197984721875],["supprimer",-11.155201336484971],["meeting",-11.15524458183749],["douard",-11.155266591826079],["adverse",-11.155268176954905],["littéraire",-11.155366647912354],["staff",-11.155369119068698],["Togo",-11.155671984504608],["avertissement",-11.15568780775096],["finaliste",-11.155701034637838],["Sky",-11.155731268725376],["accus",-11.155737659454157],["abordable",-11.155896263275878],["hébergement",-11.156135902645069],["Karim",-11.156354692263655],["Mike",-11.156524567671372],["disparaîtr",-11.156584573603425],["prolonger",-11.156598764971616],["correspondant",-11.156776135906155],["Big",-11.156811072254069],["III",-11.156823494578033],["compliquée",-11.157328717952897],["bouger",-11.157331162702672],["inconnu",-11.157760892930636],["orage",-11.158154027556318],["satisfaction",-11.158260797832096],["populari",-11.158383617918828],["gri",-11.15860874354802],["grimper",-11.158974993999506],["conserve",-11.159235371557536],["étudier",-11.159787394687612],["Raphaël",-11.161640181901062],["maintenu",-11.161918989923297],["adressé",-11.162091168974596],["sprint",-11.162308314135284],["Champions",-11.162327995412774],["insulte",-11.162454805806572],["repartir",-11.162472401166733],["Ya",-11.1625712027767],["helem",-11.162600653806528],["combi",-11.16318814121493],["transaction",-11.163214292383996],["entretenu",-11.163754294179665],["solde",-11.165033116240698],["Kon",-11.165411596206152],["spatiale",-11.16561718667245],["exercer",-11.165763679792818],["Ta",-11.16684817845508],["Dame",-11.167225614197303],["pren",-11.16741246625619],["territoriale",-11.1683641861839],["audio",-11.168540301840306],["attache",-11.1700057863388],["350",-11.1707170657292],["roule",-11.171166396063338],["appelée",-11.17149303025472],["continuité",-11.173494191814175],["partagée",-11.17400308478106],["Chef",-11.174613511355634],["revienne",-11.17495347549111],["God",-11.174981051368016],["traduit",-11.175029689434357],["jouai",-11.175076331175003],["disposer",-11.1757247046426],["couvrir",-11.17640922789282],["VA",-11.176481673493068],["transféré",-11.176853112094141],["masculin",-11.17740543100335],["régulier",-11.177551423674876],["Cinq",-11.177851461409155],["censé",-11.177861225030014],["Communauté",-11.177879318760624],["cosmétique",-11.177879319341548],["suppression",-11.177879868843736],["Standard",-11.177880508369732],["caractéristique",-11.177881984495983],["variable",-11.177892530040642],["MONT",-11.177899287536945],["préalable",-11.177900153264513],["Sahara",-11.177903680278611],["confrontation",-11.1779056778712],["cerveau",-11.177912439135977],["Ministre",-11.177913525472643],["craindr",-11.177932509192896],["peinture",-11.17793717370444],["compromis",-11.177982259872985],["monétaire",-11.17799118599994],["diagnostic",-11.17806726311462],["concentration",-11.178067962641432],["ralentissement",-11.178120198939911],["italienne",-11.17816086663197],["uniforme",-11.178329843006072],["interdir",-11.178373992091887],["néo",-11.178475440603119],["chasseur",-11.17877210017199],["processeur",-11.178892933772904],["ransparenc",-11.178903416188602],["décrocher",-11.179303939539924],["remercier",-11.17976300756752],["évaluer",-11.180155860814354],["hybride",-11.180263971667989],["docteur",-11.181066726946396],["commente",-11.181144313843303],["enthousiasme",-11.181171825666347],["coupé",-11.181754629285887],["Fer",-11.18185988554717],["Franc",-11.182756832676663],["stable",-11.182789761781365],["chaude",-11.183523071451772],["encourage",-11.184269764454138],["qualifiée",-11.18467367978828],["écrite",-11.185338584430568],["maternelle",-11.185461089190149],["ov",-11.186086700055888],["Yo",-11.186701101484754],["Évi",-11.186809953488503],["garanti",-11.186943748796574],["trône",-11.186946360152778],["riv",-11.187115688726458],["Gille",-11.187652763302118],["anglaise",-11.187754002939613],["sable",-11.187762883043352],["compare",-11.18792256041206],["saisir",-11.18805023035891],["Ex",-11.1890035528894],["Tribuna",-11.190386733731627],["Camar",-11.192033644916279],["provoquer",-11.192035338009756],["Californie",-11.19204863321496],["concentre",-11.192410951310153],["verte",-11.193450412753418],["02",-11.193787164165453],["restée",-11.195145852940307],["cent",-11.195377172250492],["clôture",-11.19548118373469],["Alexand",-11.196456225469792],["jugée",-11.19659559731516],["DH",-11.196854444302431],["aille",-11.1979941625417],["mondi",-11.199205809986019],["GR",-11.19972401315688],["immersi",-11.200478035880948],["afficher",-11.200748025281756],["introduit",-11.200838109132992],["hésion",-11.200932329550751],["inférieur",-11.201121118270251],["explosif",-11.201135132705614],["consécutif",-11.201135132820891],["cardiaque",-11.201135282404167],["junior",-11.201135358895783],["relatif",-11.201135810550626],["Atlantique",-11.20113637621106],["cliché",-11.201137685429714],["Azur",-11.201137744112884],["guère",-11.201137977215883],["fantastique",-11.201139490710826],["disponibilité",-11.201139734736943],["Hollywood",-11.201141179221032],["semestre",-11.201147844571835],["ressortissant",-11.201152326606579],["tunnel",-11.201153083025037],["Cheikh",-11.201168200598644],["Département",-11.20116907575946],["inspiration",-11.201172463263525],["Golf",-11.201183071346971],["Féli",-11.20119291727251],["catholique",-11.20121609188881],["franche",-11.201260825839238],["exploration",-11.20126642789143],["promoteur",-11.201275952727961],["Nup",-11.201277615013048],["écosystème",-11.201301434297477],["Kher",-11.201310277763223],["apprécie",-11.201317480154014],["Anvers",-11.201479331863185],["systématique",-11.201506234488217],["chaise",-11.201543623563845],["oublié",-11.201568245435148],["blocage",-11.20159069979243],["musical",-11.201795449584665],["flamand",-11.201958139755023],["notion",-11.202573578010199],["terrestre",-11.202632010987811],["leçon",-11.20267706944127],["Fall",-11.20267923247848],["prononcer",-11.202942730084873],["revu",-11.203045533222415],["inconnue",-11.203182280626024],["fêter",-11.203538813915582],["communiquer",-11.203853273054795],["agi",-11.203854680187929],["graphique",-11.204007347573137],["annuler",-11.204244903314908],["allée",-11.204415961611218],["arrêtée",-11.204419945816554],["link",-11.205433577873979],["Berne",-11.205930805318571],["duré",-11.20595368562963],["circuler",-11.206750482873042],["provincial",-11.206805121410838],["Ouat",-11.206972784537657],["soumise",-11.206993921428264],["vend",-11.207726932952616],["TVA",-11.208399864859057],["sexe",-11.208526952549356],["ogo",-11.208917973136085],["connais",-11.209041095356215],["sentier",-11.212944965526408],["lumin",-11.21322335754953],["Wall",-11.213342212765923],["iser",-11.21457210727882],["vieille",-11.215458486591011],["correcte",-11.216891353695095],["dirai",-11.21747996605163],["Ka",-11.217670860916936],["Sala",-11.21771735121112],["éclat",-11.217941169566732],["Isabell",-11.218428595556174],["épargne",-11.218638091275567],["Am",-11.218712977250009],["adaptée",-11.21994984807733],["Pel",-11.220494064146827],["robot",-11.220874465497072],["initial",-11.220937847423407],["occupée",-11.220979810450132],["toile",-11.221364497924448],["assurant",-11.221824941941103],["convoqué",-11.221851435048764],["joint",-11.222592540702562],["Bob",-11.222615566317671],["Dix",-11.223045724979478],["Début",-11.223604729304094],["impliqua",-11.224200109505702],["ador",-11.22425747144899],["fière",-11.224554044603975],["honnête",-11.224618697234515],["entamé",-11.224743072757459],["show",-11.224906337579629],["éliminé",-11.224934738884663],["chaussure",-11.224945040547714],["Bruge",-11.224951363608174],["Horizon",-11.22495302777832],["sincère",-11.224961907914125],["complémentaire",-11.224975961533875],["rédaction",-11.224976821372822],["raciste",-11.225001375476914],["Dio",-11.225007748236568],["déclenché",-11.225021169337705],["validé",-11.225076301849999],["SNCF",-11.225119892999746],["détruir",-11.225141771962752],["intervenant",-11.22520720307821],["charbon",-11.225363877375294],["paquet",-11.225382030104242],["NFT",-11.225383830778133],["Ahmed",-11.225390493442497],["poing",-11.225496793260632],["Clément",-11.225536178484155],["vérifier",-11.225567588252233],["Top",-11.225568083011204],["déplacé",-11.225583089067431],["tendre",-11.225727969539353],["progresser",-11.225731456453023],["soulage",-11.225738084744295],["Chels",-11.225903974126048],["météorologique",-11.225906567617844],["tnik",-11.226012433023973],["RE",-11.226015021299006],["Rabat",-11.226121679410364],["Jay",-11.226165807001724],["inutile",-11.226210722665128],["passeport",-11.226351808696895],["poule",-11.226424014303257],["nulle",-11.226488202690605],["DN",-11.227278226138168],["Liver",-11.227792315765715],["empreinte",-11.227845152048623],["aborder",-11.228256351613009],["F1",-11.228272753754222],["enregistrement",-11.228439572290188],["capture",-11.228468850137808],["abrite",-11.228767464664912],["Lac",-11.22896954927929],["Place",-11.22901985277929],["Hor",-11.229381692526337],["Per",-11.229460701149456],["liquide",-11.229719292208669],["gère",-11.229815355444918],["japonaise",-11.22989734522826],["amie",-11.230076909951052],["Green",-11.230619927306467],["recommande",-11.232079437037147],["ama",-11.233043796892114],["hésite",-11.234232851525741],["adoptée",-11.234496709117984],["ford",-11.234749161981727],["aît",-11.235296604039444],["Thi",-11.236865782007843],["oigner",-11.23711546225227],["Time",-11.237258922309575],["Do",-11.237274606500982],["effectue",-11.23736824288702],["Long",-11.237476587394257],["aube",-11.237944207274131],["félicite",-11.238041864865675],["voy",-11.238275403494065],["ressent",-11.23867203988727],["vre",-11.239002941752549],["franchir",-11.23902645411371],["FM",-11.239456673883275],["marine",-11.239709184565164],["habituel",-11.24006097267068],["WT",-11.24104853790545],["suiv",-11.242305522575162],["connectée",-11.24265781873057],["dépit",-11.242764410949711],["wer",-11.242819408972661],["aye",-11.243109431609307],["ourir",-11.24338417269848],["news",-11.244072447918875],["PL",-11.24431372620389],["arrivai",-11.244798717462956],["témoign",-11.245293688994403],["franco",-11.245654953518274],["réduite",-11.247190266714451],["Group",-11.248282307832026],["ang",-11.24848493460741],["Rock",-11.248492004667593],["bourse",-11.24866901632638],["roues",-11.248792464059],["Tech",-11.248826088146801],["résumé",-11.248897827699343],["Egypt",-11.249026429047758],["circule",-11.249104262825602],["certificat",-11.249206152839502],["guinéen",-11.249232882830052],["ruine",-11.249295811231402],["cannabi",-11.249334980005607],["Sûre",-11.249335049820257],["Rwanda",-11.249335077060959],["dégradation",-11.24933520802464],["reflète",-11.249336278021092],["interprétation",-11.249337656388953],["riverain",-11.24933786482205],["costume",-11.249345818358265],["munition",-11.249350402514143],["interlocuteur",-11.24935306291585],["complicité",-11.249366359206439],["précaution",-11.24936659582226],["minorité",-11.249366771086098],["précipitation",-11.249367971962414],["peintre",-11.24944587342007],["fiscal",-11.249483493196648],["Hong",-11.249486906169547],["fabriqué",-11.2495380541907],["parisienne",-11.249551162344627],["FIFA",-11.249588738771402],["diplôme",-11.249663434613062],["Sénégalais",-11.249873831914673],["Mamadou",-11.249955630383845],["détaillé",-11.250069257132493],["célébré",-11.25011848208145],["créant",-11.250220705729909],["alloir",-11.250387752579233],["explorer",-11.250648553981796],["sauvegarde",-11.250786223901073],["visité",-11.250899417177953],["connecter",-11.250922087114738],["LED",-11.25094740255002],["Marocain",-11.251430869631116],["Radio",-11.25149535066344],["Irland",-11.251787599170676],["Ving",-11.251895726072561],["Lapi",-11.251979815873248],["étroite",-11.252201570649323],["Luka",-11.252347047452865],["prière",-11.252723542343873],["Fort",-11.253535785996718],["Florid",-11.25370817911368],["conformé",-11.253868591153484],["lieutenant",-11.253870052654143],["dépendance",-11.253871496842049],["natal",-11.255082958675171],["Gand",-11.255784221017864],["configuration",-11.256221765522287],["nié",-11.256556621323526],["industrielle",-11.256603938089423],["intime",-11.256696832555244],["doré",-11.257429354346531],["emporter",-11.257553006268658],["robe",-11.257571100660149],["neutrali",-11.257816340576383],["My",-11.257939137277678],["baissé",-11.258337241042106],["méga",-11.259199428833359],["Yanni",-11.260014541077286],["achant",-11.26158594597443],["assume",-11.261636847854513],["Bat",-11.262185963522697],["opérationnel",-11.262209326430174],["présentant",-11.262962826260663],["blé",-11.263495147926271],["19h",-11.264171426282479],["tri",-11.264440410821528],["Tant",-11.264472602929237],["grandir",-11.265007082604463],["remplir",-11.265082580010748],["effectuée",-11.265334640955214],["Six",-11.26597722771661],["traversé",-11.266236909726135],["RA",-11.266548124131122],["brutale",-11.266892229701671],["optique",-11.267007548550655],["construite",-11.267834735223268],["manga",-11.268548665996683],["Casab",-11.270108757535947],["recev",-11.270733420720811],["attire",-11.270946344568518],["verser",-11.271487540595855],["photographie",-11.27229663570843],["lanca",-11.272519822805194],["Ryan",-11.272570880261455],["parlant",-11.272590031157538],["précéde",-11.272848016724726],["Mark",-11.2737785075987],["survenue",-11.274157806639716],["Méditerranée",-11.274334900417706],["administrateur",-11.274334900417891],["tragédie",-11.2743349004216],["Gouvernement",-11.274334900442105],["protagoniste",-11.274334917895985],["interruption",-11.274334952874081],["répète",-11.27433495475228],["Résultat",-11.27433498651265],["domestique",-11.274335145345947],["sauvetage",-11.27433725427171],["Autorité",-11.274337405265046],["considérer",-11.274338648146875],["prudence",-11.274341029742963],["abstention",-11.27434510393574],["ticket",-11.274370385734015],["Nigeria",-11.274370957796073],["Andrew",-11.274373623244315],["centime",-11.274391732538838],["répétition",-11.274434908598042],["anticipe",-11.274436361300447],["résolu",-11.274464874224085],["tapis",-11.274499095682348],["denrée",-11.27450209069611],["esthétique",-11.274516235118591],["pack",-11.274658951554699],["intrigue",-11.274672130709368],["parrainage",-11.2746876022669],["OLED",-11.274688753383664],["dan",-11.274804873661052],["José",-11.274862458673066],["transmission",-11.274948092250279],["contenant",-11.275038754104738],["barrière",-11.275246639633169],["grosses",-11.275264677596047],["Marcel",-11.275626012546232],["patrouille",-11.275643704720665],["conservé",-11.275665119624527],["remarqué",-11.27573204936766],["contrôlé",-11.275876575020463],["stand",-11.275978082783334],["joindr",-11.275988913845055],["piège",-11.27632270341595],["Maria",-11.276657799108374],["Thor",-11.276734489879935],["confirmée",-11.277146232329109],["appuie",-11.278579660786956],["voyant",-11.278631039000839],["Christin",-11.27875404886196],["assumer",-11.27877361413725],["enveloppe",-11.279139420628965],["maximale",-11.279187794146779],["Moussa",-11.280013430389415],["salariale",-11.280117026943142],["Im",-11.280576117639074],["bloquer",-11.281392779479937],["Mary",-11.281603524522819],["IV",-11.281621634029909],["chapeau",-11.281893462539594],["environnemental",-11.28267188445409],["encadre",-11.282738180135311],["arts",-11.282853772135272],["AC",-11.283044067635375],["demandeur",-11.283051836792273],["répondant",-11.283122397356589],["retourné",-11.283140338790712],["manifester",-11.283368867464176],["gramme",-11.283687016704734],["04",-11.283880558483446],["AGE",-11.284559649882347],["habite",-11.28541425332714],["absolue",-11.285900767581797],["progress",-11.286020335980169],["roulant",-11.286106778952973],["lâche",-11.28626932102463],["cherch",-11.286315457933648],["résister",-11.286364631368961],["Capitale",-11.28675414832599],["dispos",-11.288156300229835],["Américaine",-11.288272870242924],["patien",-11.289333041556104],["USA",-11.289399365744742],["senti",-11.289420515418882],["rendra",-11.290383902353833],["anonyme",-11.290452965292848],["enchère",-11.290485120319039],["racine",-11.290648299346609],["demandai",-11.290682889843366],["Algérien",-11.290827980906988],["croi",-11.291101282804885],["rival",-11.291189311566445],["tor",-11.291409038671155],["spéci",-11.292950816233581],["restai",-11.29395609265152],["Mauric",-11.295075620980272],["mensonge",-11.29525501520501],["déployée",-11.295262048291487],["ège",-11.295350584575335],["assemblement",-11.29588859809132],["chi",-11.296454253662157],["Mohammed",-11.296650933376284],["Abdoul",-11.297760585194727],["soutenue",-11.297771920841335],["Orient",-11.298119134193778],["regrett",-11.298200056366944],["imant",-11.298581707455726],["cite",-11.298628047220411],["emplacement",-11.29867572140803],["extérieure",-11.298786065462675],["constituer",-11.298819430288962],["Roi",-11.299076959744362],["Ram",-11.299171558261481],["alerté",-11.299396477878435],["Européen",-11.299784140011116],["œuf",-11.299793789578734],["formidable",-11.29997592749206],["Égypt",-11.299975930082356],["explose",-11.299975952370326],["substance",-11.29997607672898],["décisive",-11.299976108552094],["élevage",-11.299976253842795],["bulletin",-11.299979434433478],["burkinab",-11.29998642496897],["cryptomonnaie",-11.299994248059619],["Provenc",-11.29999827866824],["schéma",-11.300000214136459],["apparence",-11.300000647848222],["folie",-11.30000985828654],["grippe",-11.30001419579833],["bagage",-11.300015493230395],["gestionnaire",-11.30002052437019],["interpellation",-11.300023488590675],["Armée",-11.300027782676125],["récupération",-11.300043037077124],["mosquée",-11.300053124024005],["pair",-11.300175486346319],["Château",-11.300187467917363],["Jacob",-11.300217365607844],["proie",-11.30030119678791],["chauffage",-11.30032116672449],["roquette",-11.300358017411195],["semi",-11.300449645109026],["déploré",-11.300501878582072],["inspection",-11.300642949802281],["variol",-11.300643057438208],["Rafael",-11.300652365404527],["Ky",-11.300742259533292],["Arnau",-11.300759274013929],["royal",-11.3009354631331],["inaugur",-11.301069853732528],["agira",-11.301125297131206],["Her",-11.30116608807795],["séparé",-11.301579018682402],["antenne",-11.301595814973183],["empire",-11.301671241494399],["dougou",-11.3018923873075],["ailier",-11.302004554810575],["répété",-11.30225725958276],["fameuse",-11.30269541267996],["Mal",-11.302740084833552],["sports",-11.30294306566027],["Charler",-11.303181395286122],["mouri",-11.303300480045042],["rendement",-11.303860119394633],["Maire",-11.304240410503198],["rive",-11.304248456124794],["her",-11.304351894927064],["team",-11.304709359958867],["amont",-11.305150794430737],["Pix",-11.305540160883442],["Pog",-11.305606670181442],["rondelle",-11.306335104379531],["prêter",-11.306507367996767],["Juste",-11.306543938184383],["report",-11.306683421830945],["92",-11.306764417079625],["MC",-11.30700155258656],["compteur",-11.307193630655153],["envisager",-11.308712793932408],["Rio",-11.308941282231464],["averse",-11.309138615356336],["SB",-11.309769184236966],["opéré",-11.310181383634925],["agriculteurs",-11.310236640182488],["gamin",-11.310553812220133],["Dia",-11.31095924059398],["respecté",-11.311083398513103],["nommée",-11.311326983503365],["Bertra",-11.311721855305475],["Bin",-11.311907178183457],["adopti",-11.312744539551401],["envoie",-11.313564266803999],["illégal",-11.313936891719296],["libérale",-11.314158049358904],["échanger",-11.314609276925113],["plate",-11.315046025590249],["entreten",-11.31654302738899],["balance",-11.317076491808491],["issé",-11.317361165418369],["citer",-11.31808524964531],["plaide",-11.319154819465641],["Prince",-11.319290064095473],["deviendra",-11.319562170112604],["tester",-11.320348648356202],["3000",-11.320710383980526],["amako",-11.321384442916042],["riz",-11.323544690967296],["triple",-11.323674592403211],["tissu",-11.32419884553565],["ransition",-11.324472524798525],["JO",-11.32479234986021],["réservation",-11.325171552154703],["compréhension",-11.325927325105237],["pêcheur",-11.326191566103063],["juridiction",-11.326291715532243],["ferroviaire",-11.326291715539188],["poignée",-11.326291880120525],["Fernand",-11.32629284732891],["Élysée",-11.326297323246942],["carbure",-11.326298929896481],["dérive",-11.326315660542935],["activiste",-11.326319656147888],["révision",-11.326338275872539],["colline",-11.326348786054597],["provocation",-11.326369504523706],["percuté",-11.3263768810841],["rémunération",-11.326394314026382],["allégation",-11.326467288345416],["penalty",-11.326469939089279],["récession",-11.326536739064363],["iranienne",-11.326578721823847],["Master",-11.326604002853735],["aissant",-11.326669984992153],["mérité",-11.326949426505642],["médic",-11.326979504493384],["Hôtel",-11.326987881664923],["blague",-11.327252709871969],["historien",-11.327279831911518],["comté",-11.327605989376828],["synonyme",-11.327630241326922],["CNR",-11.32763509593956],["réconcili",-11.327654054209892],["éclaté",-11.328052021153399],["EO",-11.328300970961038],["erez",-11.328344840330299],["portai",-11.328530778904724],["stein",-11.328566557106885],["justifié",-11.328720625919464],["chrono",-11.328823160175357],["applique",-11.328871131188976],["installe",-11.329132104806359],["break",-11.329418037339194],["rassemblé",-11.329675490412152],["agénaire",-11.32979457868117],["buteur",-11.329921547389477],["touchant",-11.330348125728172],["occidental",-11.330361565713368],["préfér",-11.330669175022937],["Francis",-11.33099729157655],["maîtriser",-11.331151920615183],["Drummondvill",-11.331402478765604],["École",-11.331476529818033],["déterminé",-11.33181943093475],["ban",-11.331989209238495],["rassurer",-11.3322121316948],["Gal",-11.333080555705166],["résilien",-11.33389569110052],["Bal",-11.333900926618329],["réalis",-11.334810909755577],["Watch",-11.334851093060424],["All",-11.335251035986694],["Dane",-11.335896625429934],["93",-11.336038114757535],["my",-11.336178511763016],["estivale",-11.336204162448382],["animée",-11.336801458171912],["Lille",-11.336899387372785],["leaders",-11.337020616914518],["sénégalaise",-11.337044556364056],["dam",-11.337651365754034],["épou",-11.338064817238],["Souven",-11.338731886736838],["offerte",-11.339130428380699],["éco",-11.339396104389712],["And",-11.339602529689548],["maîtrise",-11.340435889597213],["regret",-11.340465922469603],["exploite",-11.341277118307579],["gravit",-11.3420593773509],["Po",-11.342084006990667],["Anti",-11.342100873227935],["papa",-11.3423490296395],["Ak",-11.3427847006544],["vivai",-11.344801041480382],["drôle",-11.344987196114273],["cote",-11.345497749200637],["Steve",-11.345539833120265],["Boy",-11.345574243189201],["jou",-11.346059377520728],["5000",-11.34629820120162],["voler",-11.346503959854692],["poursuiv",-11.347740116383186],["Abou",-11.34807434050083],["Bout",-11.348156638667131],["défensive",-11.34863831853783],["analyser",-11.348743572350724],["domine",-11.3493440290659],["Victor",-11.349392142820905],["amene",-11.349456559811912],["publie",-11.349932362238798],["valu",-11.35075255256881],["oublie",-11.351408202962798],["panique",-11.351824206889894],["Natha",-11.351882902132981],["essais",-11.352572825842634],["Gen",-11.35264552264485],["vétérinaire",-11.353318742652023],["cortège",-11.353318801123452],["exigé",-11.35331888549948],["légendaire",-11.35331913590434],["Gérald",-11.353319362982827],["canicule",-11.353320759539553],["royaume",-11.353323911865795],["Ndiaye",-11.353330228471478],["meurtrier",-11.353339060839094],["Confédération",-11.353354083281372],["féministe",-11.353357766138801],["souffrir",-11.353365308195398],["exclusion",-11.353384075043236],["trailer",-11.353384260323464],["marchandise",-11.353391378605833],["géopolitique",-11.353416835337562],["Kenya",-11.353417005370405],["langage",-11.353418627131614],["plafond",-11.353456695484198],["Orange",-11.353477508549103],["douzaine",-11.353532066744311],["ambulance",-11.353557459807046],["renoncer",-11.353575386054262],["Commerce",-11.353590958247871],["remboursement",-11.353743828709947],["Météo",-11.353795681142383],["délibéré",-11.353807719848302],["spécialité",-11.354001879296522],["sobri",-11.354327753997403],["col",-11.354571845217302],["utter",-11.354668775767852],["échéance",-11.354746887549785],["fondée",-11.354953305558224],["Ferra",-11.354973583293596],["supermarché",-11.355143460997024],["détour",-11.355251272244669],["dévoilée",-11.355656109080172],["110",-11.356112308000826],["ouvain",-11.356158773351098],["aboutir",-11.35685667700111],["multiplié",-11.357060706815851],["ak",-11.357181116126803],["Africain",-11.35726671846915],["circul",-11.35739414529567],["apparten",-11.35768851367369],["bleue",-11.357979925707497],["inédit",-11.358188563626657],["puce",-11.358345896304781],["malien",-11.3588213575493],["partition",-11.359150828141203],["Marco",-11.35947281994811],["Antho",-11.359510727051294],["diminuer",-11.359765128849912],["olsonar",-11.359948326942133],["lice",-11.360176921973405],["versé",-11.361059598200576],["CO2",-11.362395555878454],["Fed",-11.362620837881048],["Lo",-11.363959218078708],["Mille",-11.36400419758289],["Mur",-11.364013033876624],["saint",-11.364209003184568],["consacrée",-11.364420024437312],["otage",-11.364656744388778],["adore",-11.36490525502933],["Gar",-11.365148412578838],["confiée",-11.365157186725359],["surprenant",-11.365705706435374],["125",-11.366217756969936],["idéale",-11.366676554235017],["prêté",-11.367015078266586],["rat",-11.367984619616944],["91",-11.367997495495974],["()",-11.370598622592695],["rage",-11.370783238892662],["qualifie",-11.370940753179413],["présentent",-11.370953291954553],["Messi",-11.371666308121846],["planche",-11.37214148195345],["nazis",-11.372180368673082],["pharmacie",-11.37261634620178],["Anna",-11.373084028548561],["thèse",-11.373194953813254],["ield",-11.373341812966238],["Nas",-11.3746001713039],["posée",-11.374979735712444],["BB",-11.376131633004642],["Khark",-11.376288537167056],["réaliste",-11.377017562415523],["inspire",-11.377019842028243],["chut",-11.377630775640672],["réside",-11.37767833304449],["amassé",-11.37881529514468],["live",-11.379582403554357],["vain",-11.379654014380428],["Telegra",-11.380168469228417],["revoi",-11.380346294958555],["Temp",-11.380592917229933],["acquér",-11.380709838747343],["déploy",-11.38098846287018],["quarant",-11.38101181124867],["scénariste",-11.381096520712411],["trottinette",-11.381096541904911],["permanence",-11.381096572298308],["agresseur",-11.381096925174358],["fleuve",-11.381097235293378],["intègre",-11.381097356147828],["Israélien",-11.38109945290912],["Crimée",-11.38110049260444],["distributeur",-11.381100928557522],["humoriste",-11.381103714683373],["Panther",-11.381104905961124],["Charlotte",-11.381106811312208],["Grégo",-11.381118813308746],["Munich",-11.381121157560827],["Montpelli",-11.381122833240703],["préventive",-11.381125008372724],["boulot",-11.381146575024285],["indemnité",-11.381165835285177],["panier",-11.38120529194613],["cédé",-11.381240169704466],["trajectoire",-11.381250236273688],["salue",-11.381384745488004],["câble",-11.381479574931134],["meuble",-11.381480659731778],["institut",-11.381698036796982],["pédagogique",-11.381708043786531],["mbledo",-11.381728955015815],["tabac",-11.381770399835663],["examiner",-11.382030161130379],["galerie",-11.382062067193537],["inégalité",-11.382154052023225],["cheval",-11.382321483767008],["terminal",-11.382428228424072],["réacteur",-11.38268141098632],["Second",-11.382718277594247],["débarque",-11.383262735810565],["RC",-11.383346749179044],["fur",-11.384036242863314],["sonore",-11.38411657219444],["Trembla",-11.384242270302488],["grille",-11.384261316203212],["définition",-11.384582775216572],["gardé",-11.384760584052268],["composer",-11.38522603150809],["fonctionn",-11.38541104069289],["transmis",-11.38596908275296],["privilégié",-11.385976500922053],["entouré",-11.38600985419373],["démarrer",-11.38603662025107],["manette",-11.386246258494833],["transforme",-11.386316009267432],["ustin",-11.386410757463171],["03",-11.386646266223929],["remplacement",-11.388120716100445],["cesser",-11.388389217045143],["1500",-11.388660268955682],["06",-11.388923112713208],["Hou",-11.388981162164484],["patin",-11.38932315095916],["fusion",-11.390501889511334],["th",-11.391083450059636],["déroulée",-11.391854722051063],["magi",-11.392751463456005],["feron",-11.392881979258187],["Brad",-11.393544488644533],["inon",-11.395065697131324],["196",-11.395113040087018],["Marchand",-11.395286945976713],["rêver",-11.395333123375702],["cage",-11.396897596794162],["ô",-11.396915088970632],["dévoiler",-11.397682548580516],["Ch",-11.397969873738436],["Barc",-11.39858950840809],["résidentiel",-11.3990177922727],["inclus",-11.399027698026181],["Hama",-11.399076002866998],["souhaitai",-11.399598173505492],["ui",-11.39982340942642],["urnes",-11.400665141525632],["montage",-11.400753660733336],["anda",-11.402774229792785],["gang",-11.403105181900004],["virtuel",-11.403175348622351],["autorisée",-11.403731757037278],["ino",-11.404198392638751],["PT",-11.40509232493051],["intensif",-11.406857798288558],["ario",-11.407256274367281],["militante",-11.4083629148959],["glisse",-11.409532973297523],["coréen",-11.409558156794983],["mutation",-11.409639032569775],["´",-11.40966794890847],["contraste",-11.409667953398104],["pelouse",-11.409668006904287],["altitude",-11.409669839449894],["inscriv",-11.409671866462393],["complexi",-11.409673688554218],["liaison",-11.409679145254405],["épicerie",-11.409680649718032],["gazoduc",-11.40968470830191],["accroît",-11.409694400278948],["randonnée",-11.409707967060168],["accélération",-11.409712047815802],["orchestre",-11.40971463369343],["posture",-11.409718396728518],["protestation",-11.409771822596774],["Homme",-11.40978249266803],["pavillon",-11.409806065408684],["Anglais",-11.409821382629975],["Travail",-11.40984342486885],["dignit",-11.409894303459748],["inématographique",-11.409969393923413],["requête",-11.409987243522087],["diminution",-11.410013059894268],["recruté",-11.410159522392743],["Adrien",-11.41022070558578],["distinction",-11.41023361691837],["herbe",-11.410283234576525],["variété",-11.410413570644169],["180",-11.410453381356518],["éthique",-11.410561732487485],["écouteur",-11.41062807944426],["turque",-11.410695862056016],["opposer",-11.41073003652255],["céder",-11.410890053095375],["job",-11.410920224963746],["Ghan",-11.411442953704192],["cyclable",-11.411638120065613],["incapable",-11.411734632373665],["faiblesse",-11.411753051701455],["apparente",-11.412421235329624],["demie",-11.413083335011617],["expérimenté",-11.413121607001765],["Kir",-11.413286004293862],["comprenne",-11.41347550208852],["examiné",-11.413686395574368],["soulevé",-11.414039112097583],["atteign",-11.414315982901293],["exigeant",-11.414438219950107],["Benz",-11.414562147754298],["Aviv",-11.415045418359144],["genevois",-11.415285908181641],["attribué",-11.41531485303599],["94",-11.415841685899037],["rapproche",-11.416333144183723],["connecté",-11.416392468062003],["Con",-11.416399770985967],["demand",-11.416411037745936],["permanente",-11.416480856376744],["Unite",-11.416527646779747],["dépens",-11.41665951018659],["insécurité",-11.417152645430226],["dalle",-11.417316146793665],["machines",-11.417735283333716],["restant",-11.41786159955903],["Sarr",-11.418384396056998],["mond",-11.419296951250107],["mortel",-11.419705663699093],["Spu",-11.420381853111895],["?\"",-11.421692141025014],["amène",-11.421818024064148],["Dar",-11.422001557460627],["Rousse",-11.422220006630745],["assiste",-11.42297257423033],["socio",-11.42338944290629],["placer",-11.423484391607092],["accept",-11.423684822488973],["tisme",-11.423695019982947],["Na",-11.423789503725573],["onsieur",-11.423948696647358],["UD",-11.424502014580554],["val",-11.425504227417886],["aisé",-11.425771736349404],["GT",-11.425851010383827],["prononcée",-11.426466122217022],["marcher",-11.42812497572591],["MI",-11.428403991887386],["admet",-11.428732554675475],["quai",-11.42902112126482],["sache",-11.429093624791744],["Rama",-11.42935740854099],["festiv",-11.429644124788354],["Africa",-11.42986817935845],["perçu",-11.429951782592505],["déclar",-11.430762584527272],["positions",-11.431246632708108],["chao",-11.432411926728802],["Dub",-11.434942855661678],["cence",-11.435206759865594],["urgent",-11.435222483176275],["Trop",-11.435499306007529],["consensu",-11.43614244963757],["réparer",-11.436493700797154],["demeurer",-11.436562606598564],["espér",-11.436599767798604],["amuse",-11.436836830956686],["priori",-11.436860806073753],["hyper",-11.437272763134876],["Miss",-11.437397354101101],["précieu",-11.438311080597218],["\"\"",-11.43864482424375],["Concr",-11.438880899827815],["intérim",-11.439006423722777],["Burund",-11.43901618623227],["raisonnable",-11.439070253048307],["révéler",-11.439079714550648],["artifice",-11.439079721655578],["Église",-11.439079775364894],["protège",-11.439080256907623],["psychologue",-11.439080348607803],["CEDEA",-11.439081024949838],["homicide",-11.439081522513687],["diesel",-11.439082481249535],["créature",-11.439082807875325],["America",-11.4390881755016],["définitif",-11.43908909250587],["téléviseur",-11.439093892637523],["catastrophique",-11.439125336645654],["inévitable",-11.439128025154313],["injection",-11.439130113777399],["pilier",-11.439152325586704],["malaise",-11.43915537847432],["façade",-11.439173814041778],["serveur",-11.439201803771804],["progressiste",-11.439206293791264],["manifesté",-11.439238760903782],["Titan",-11.439292160090158],["virage",-11.439302761810747],["promenade",-11.439330684430992],["Can",-11.439427301753835],["arrivant",-11.439489897198783],["Hugh",-11.439505415010993],["inculpé",-11.439515955530403],["charte",-11.439524572630901],["jeté",-11.439530134904476],["slogan",-11.43953849711983],["Global",-11.439612397181993],["baie",-11.439772829657697],["Moyen",-11.43994134764879],["rembourser",-11.43996154982797],["suspens",-11.439965892618051],["Énergie",-11.440174068829924],["Romain",-11.440235186569147],["renverser",-11.440290541264975],["obtien",-11.440317427879613],["nourrir",-11.440346291385458],["cherché",-11.440852369224963],["Space",-11.440928639545536],["redonner",-11.441406754837407],["Baie",-11.441475821598253],["génie",-11.441769893434257],["visuel",-11.441879300500322],["merci",-11.441973201625995],["statue",-11.442044309529901],["Jim",-11.442713278556639],["mobiliser",-11.443158176346149],["convenu",-11.443259161130396],["llement",-11.443281276561171],["boucle",-11.443404267148626],["Sy",-11.443446657798814],["ralentir",-11.443544099731064],["mortelle",-11.443797228259989],["distribué",-11.444371043746495],["loup",-11.444546599459999],["modifié",-11.444723767124387],["sollicité",-11.444985513041042],["REM",-11.444999380270787],["our",-11.445082892112486],["réclamé",-11.445230931802513],["ho",-11.445328389340075],["magique",-11.445539294495894],["renforcé",-11.445949247209079],["signalement",-11.445970164587077],["renseigne",-11.446269023163627],["travaillai",-11.446437220718877],["interdite",-11.447151559833653],["riposte",-11.447250711972247],["apprécier",-11.447683522796023],["hésit",-11.4479996281854],["genou",-11.448098771669624],["pareil",-11.448413380152614],["apparaîtr",-11.449570039969682],["établie",-11.449759102599462],["auter",-11.450173618127229],["insoumis",-11.450377917230346],["balade",-11.451005757376905],["TAN",-11.451148842039167],["Ant",-11.45171550502367],["réserver",-11.451795720028182],["Liz",-11.452156255684429],["HC",-11.45295452122772],["bulle",-11.454121444949525],["Za",-11.454596293549105],["wan",-11.455619024194196],["rentré",-11.4557588304956],["140",-11.456539337794684],["nombr",-11.457613356360778],["Ah",-11.458038808214003],["chanter",-11.458202888759804],["Jeff",-11.458571398671182],["exemplaires",-11.45915387526232],["Mars",-11.459452725723361],["VI",-11.459959556860259],["enlevé",-11.460667353469127],["Even",-11.461173319005878],["sommeil",-11.461921914082353],["intellectuel",-11.46202014237214],["Ros",-11.462346481466186],["philosophi",-11.462992773630123],["itte",-11.463142638308007],["Will",-11.463169976415918],["adresser",-11.464221992464974],["ain",-11.464299496826385],["abordé",-11.465724868128467],["Nor",-11.465842203632974],["17h",-11.466286517102668],["oalition",-11.466619306699736],["fréquent",-11.466674184476664],["suisses",-11.466819733312551],["Jin",-11.466851697302818],["Brig",-11.466968682924549],["prouve",-11.467040473634272],["cacher",-11.46722735566027],["canal",-11.467258476075344],["utilis",-11.467428977258244],["andry",-11.467766240875232],["Mill",-11.467836584601802],["low",-11.468868304242962],["vendue",-11.468876893333361],["offensif",-11.469002175831207],["perquisition",-11.469092183215215],["Web",-11.46925002035584],["pixel",-11.469377296687398],["hebdomadaire",-11.469382743918615],["incidence",-11.469382775098747],["crédible",-11.469382798881067],["drastique",-11.469382918423129],["dépistage",-11.469383104580478],["respiratoire",-11.469383188716947],["détresse",-11.469383491992616],["réglementaire",-11.469384159121109],["déjeuner",-11.469385145497116],["verdict",-11.469387835440896],["Olympique",-11.469390297808864],["traduir",-11.469391348533097],["fichier",-11.469392291048795],["Gérard",-11.469395644907301],["pénétr",-11.469398079402577],["Thibau",-11.469403496428558],["bibliothèque",-11.469407888335745],["pôle",-11.46941472892819],["blindé",-11.469423309882796],["implantation",-11.46942810214676],["infirmier",-11.469434705167163],["contestation",-11.469438370811927],["mystère",-11.469442991581424],["asiatique",-11.469505185300399],["fauteuil",-11.469506203140991],["consultant",-11.469519082356587],["peloton",-11.469551118224887],["tunisienne",-11.46956798379815],["Virgini",-11.469614865032998],["agglomération",-11.469651761532823],["Darman",-11.469687226665302],["pens",-11.46969293085829],["wallon",-11.469725138439413],["princesse",-11.469761412362537],["Vienne",-11.469847110699472],["empare",-11.469937662976122],["ntin",-11.469962399044908],["coopérative",-11.470009841609857],["Autrich",-11.470056864310536],["adepte",-11.47010663337064],["incarné",-11.470122875392372],["malienne",-11.470139212707391],["relate",-11.470383985728132],["index",-11.470403394344336],["contacter",-11.470768915172005],["GP",-11.470849184182176],["successeur",-11.470906402918423],["inquiet",-11.471472006788337],["exploitant",-11.47165943811208],["taxi",-11.471665994813048],["footballeur",-11.471915128717187],["furent",-11.472011549228313],["renvoyé",-11.47225928822639],["pleur",-11.473082533327794],["Française",-11.473316635101503],["tweeté",-11.473467522613118],["Rouman",-11.47357003423114],["illon",-11.473602900250985],["ètement",-11.473704847987083],["glissement",-11.474238033073458],["21h",-11.474290755344047],["embarque",-11.475000515038028],["rouler",-11.475672873668001],["logo",-11.475694578127285],["Présent",-11.476076365375569],["golf",-11.476132354303717],["autoriser",-11.47617448102435],["concentré",-11.476421723167633],["intelligent",-11.476632185346443],["intitulé",-11.476689682387242],["existant",-11.476834336195715],["fixée",-11.476866035362928],["étonnant",-11.47700691635098],["Point",-11.477176985000089],["soupçonné",-11.477333714315028],["Mayo",-11.477343849257105],["affirmer",-11.477512184557472],["intégrée",-11.477779673801715],["neuv",-11.477826806848714],["Nicole",-11.478771441489426],["wa",-11.479737273003078],["raz",-11.479977675831487],["contenter",-11.480263522971757],["fixer",-11.480278258402528],["divise",-11.48030553539287],["remplie",-11.481634277767114],["inspirée",-11.481976643660529],["riez",-11.482648103878834],["enseignante",-11.48269887929566],["connaissai",-11.48290834286818],["traite",-11.483249404719587],["Aer",-11.483809667090878],["amendement",-11.484068704810719],["remontée",-11.48414085782719],["signée",-11.484896266472468],["appliquée",-11.485320933091991],["transmettr",-11.485380437284977],["parcelle",-11.485551272811156],["mensuel",-11.486718068360616],["pr",-11.487315648316319],["07",-11.488032621685155],["eck",-11.488307757681309],["eï",-11.488519531952647],["bris",-11.488876120438762],["boire",-11.488902068567603],["arrache",-11.489264922154696],["fournit",-11.489389793980408],["foire",-11.48988262210554],["menacée",-11.490388563074552],["Rein",-11.490512964949492],["March",-11.490540437208823],["mettra",-11.490606264078536],["pirate",-11.490661399432522],["landais",-11.491668452134556],["vaccinée",-11.491725373730677],["Noir",-11.492211965883424],["condamnée",-11.49266273322141],["Bra",-11.492858011226234],["blanchi",-11.493780614589124],["indiquer",-11.493843042708175],["lits",-11.493908641247208],["DC",-11.494335296346947],["lassan",-11.494457246800415],["étend",-11.494665178914591],["nçant",-11.495299984445584],["Kne",-11.495892509216276],["Mons",-11.496094074775073],["May",-11.496306514760594],["visée",-11.496382961156405],["cris",-11.497097993890872],["prétext",-11.49731041665042],["etti",-11.4976051449325],["ivité",-11.497732855155009],["mystérieu",-11.498314263378404],["enregistre",-11.498334145969316],["compose",-11.498995652005128],["saoudi",-11.499964356871734],["entame",-11.500351602500475],["tar",-11.500404207453748],["tunisien",-11.500444775338005],["failli",-11.500474197358042],["toxique",-11.50062960713759],["explosé",-11.500632744164982],["pacifique",-11.500632744528097],["compositeur",-11.50063275026987],["arkozy",-11.500632770592041],["décisif",-11.500632770966567],["idéologique",-11.500632776645848],["Secrétaire",-11.500633052944334],["mercenaire",-11.500633062587244],["domination",-11.500633101652458],["discrète",-11.5006331350806],["démonstration",-11.500633144902379],["fantôme",-11.500634839884285],["inclusif",-11.500637888038789],["Hassan",-11.50064028430683],["sinistre",-11.500640990538376],["réglementation",-11.500642870161563],["vérification",-11.500655153035963],["Libye",-11.50066101988307],["régulation",-11.50066203185547],["Somme",-11.500765268026067],["échoué",-11.500766678531468],["interrogation",-11.500787393446394],["valable",-11.500821918258048],["guise",-11.500855373699666],["Niger",-11.500936173667641],["gains",-11.501005152246824],["potable",-11.501063249680666],["pâte",-11.50110855976694],["allocation",-11.501113268802879],["Programme",-11.501129182792667],["Award",-11.501275203566657],["renfort",-11.50131196462266],["évité",-11.5013191731707],["metteur",-11.50132550901795],["fillette",-11.501406130052644],["confortable",-11.501521615871457],["Dragon",-11.501612457806754],["sacrifice",-11.50164549399674],["Contre",-11.501905718529699],["négative",-11.50208281902543],["portion",-11.502493405469483],["procurer",-11.502660324945651],["ascension",-11.502861536783058],["Cyril",-11.502885635289774],["république",-11.503120564231018],["grossesse",-11.5035600190382],["conservati",-11.503688448586493],["ping",-11.503699113077891],["inscrite",-11.50378586798342],["aylor",-11.503919182892776],["treiz",-11.504465822581302],["Wout",-11.504588919099925],["vif",-11.50500314248852],["sacre",-11.505010505122021],["enregistrer",-11.50507802072173],["relâche",-11.50511745191142],["20h",-11.505459497062844],["rassembler",-11.505687311738306],["avoué",-11.505727006990858],["Robin",-11.505745928705618],["animer",-11.50592059163703],["commiss",-11.506003578505645],["ému",-11.506186923276411],["détecté",-11.506457123700665],["honte",-11.506761036902132],["contesté",-11.507803153411885],["plonger",-11.507871234623614],["vins",-11.507880475587022],["Cité",-11.50810324856511],["zo",-11.50841344611814],["polonais",-11.508562613690327],["apparu",-11.508726201195561],["deuil",-11.508973692435386],["contemporain",-11.50910791446477],["engou",-11.50938519631922],["placement",-11.509700475143491],["islam",-11.509857739155834],["entamer",-11.510039478559605],["reli",-11.510217066665604],["consta",-11.510345643835011],["recense",-11.510604913023979],["Hy",-11.510953734506877],["Rou",-11.511158413246084],["envahi",-11.511343586671735],["CO",-11.511884991555483],["pneu",-11.511904416984837],["Sho",-11.512117165654715],["Monte",-11.512393954808141],["Bennet",-11.512815029972906],["annonçai",-11.514256997079263],["Noire",-11.514728020143922],["Wan",-11.515326628027665],["FE",-11.515518719016454],["ange",-11.515680189817218],["extra",-11.5160316901629],["Aliou",-11.51603623264332],["fo",-11.516183713292783],["Retour",-11.51621058764016],["contente",-11.516246140657806],["jihadiste",-11.5182352618254],["manquement",-11.518452072784463],["Rie",-11.51955858389136],["ologue",-11.52019432956947],["Ku",-11.520862185982079],["Rue",-11.520900038003472],["Fair",-11.521611096213771],["témoigner",-11.521657862744856],["fondamenta",-11.522214568791599],["soumettr",-11.52227928540826],["aimai",-11.522439367007035],["couver",-11.523280795508459],["valide",-11.523801265090984],["élan",-11.524092363812944],["hôte",-11.524744261058709],["confrontée",-11.52478581201149],["Parisien",-11.524871244074607],["survivant",-11.525109875370397],["éline",-11.525871445062123],["Shaw",-11.526364888509084],["Petite",-11.526402679474431],["11h",-11.527441921980717],["amine",-11.527524297004035],["définir",-11.527621462926144],["grec",-11.527798220544875],["Canal",-11.527911608056588],["bascule",-11.528449449074094],["achète",-11.528449539260984],["formelle",-11.528687092020983],["soudaine",-11.529625811762704],["thérapie",-11.529714300154406],["chimique",-11.530215138246934],["èle",-11.530344566299377],["ouvrant",-11.53057609957417],["RS",-11.530911279706135],["race",-11.53121504437522],["far",-11.531560671660259],["aï",-11.531936109656794],["Sch",-11.531968520317516],["Toulous",-11.532057220778652],["exagon",-11.532380603946638],["Bruxellois",-11.532890808446782],["envergure",-11.532890808739024],["propagation",-11.532890812322542],["Émirat",-11.532890862583844],["rafraîchissement",-11.532891524988756],["approbation",-11.532892996716432],["indemnisation",-11.53290474685581],["Modern",-11.532906847242907],["séduit",-11.532906859040466],["icône",-11.532914371067072],["miracle",-11.532920246199856],["Studio",-11.532980181926604],["bitcoin",-11.533037710554439],["Développe",-11.533080669181423],["secrète",-11.533110408709636],["reportage",-11.533210096333033],["décroché",-11.53321524518077],["Franck",-11.533216867366034],["démarré",-11.533255839882942],["palestinienne",-11.533300476242983],["parvienne",-11.533333268485826],["débours",-11.53368066716077],["leadership",-11.53376150720433],["Rése",-11.534017873952966],["corriger",-11.534119420547977],["neutre",-11.534158769900063],["Stream",-11.534272942145037],["détenteur",-11.534309584205086],["effondrement",-11.53436242986297],["transporter",-11.534428364689637],["SPV",-11.534592387940776],["ali",-11.534658920183338],["économiser",-11.534680242714352],["Louise",-11.535311433799944],["autrice",-11.535338536214907],["Raymond",-11.53535025321825],["Antoni",-11.535461916413231],["tirage",-11.535498161180243],["limitation",-11.535687807126441],["ignon",-11.535897014475896],["classée",-11.535993369905107],["Pont",-11.536484680092812],["lizzard",-11.53678298007174],["Total",-11.53691537037515],["remplaçant",-11.53692709905656],["Tandi",-11.537196483238642],["syrien",-11.537335268311931],["conseille",-11.53786704092401],["ok",-11.537965373460024],["funérai",-11.538305067368135],["parvenue",-11.53853114945818],["pleure",-11.538764589747705],["tendu",-11.539166705373038],["15h",-11.539246342727303],["Hid",-11.539354115086795],["imposant",-11.540011154684114],["exécuté",-11.540152758692534],["existai",-11.540382564193791],["LG",-11.54050586742162],["heim",-11.540660088953167],["diplômé",-11.54085893790078],["permettrai",-11.540983265102126],["médian",-11.541039192410505],["Com",-11.541184351889163],["prudent",-11.541376320600879],["verron",-11.54143777496148],["Amado",-11.54149288010535],["attiré",-11.541571584815411],["réputé",-11.541809325163038],["160",-11.542020914757986],["endommagé",-11.542328073454057],["programmé",-11.542509153616205],["Kent",-11.542602370618164],["inquiétant",-11.542651874523287],["rayonne",-11.5427770175319],["sécurisé",-11.542902881531433],["croissant",-11.542974769339256],["chalet",-11.54309524788712],["suffisante",-11.545230421823703],["restreint",-11.54541748164719],["futurs",-11.545575163339088],["Ga",-11.545746554292048],["plomb",-11.546155647812979],["tort",-11.546233140624265],["sèche",-11.546276162549105],["croisé",-11.54839583766465],["étroit",-11.54856205173456],["guider",-11.548834450302227],["cendre",-11.5497460559255],["Bonne",-11.550090221747233],["pente",-11.550735308114762],["incarner",-11.550892681458922],["Roussel",-11.551933731167516],["mange",-11.552616434493311],["Camp",-11.552938593322008],["tube",-11.553107849469935],["Har",-11.553798137848393],["́",-11.55391419833491],["passera",-11.554128939337584],["ica",-11.554343875503712],["transactions",-11.554366647065613],["émerge",-11.554894562943273],["exclur",-11.555740315848645],["urbanis",-11.55583010725875],["dira",-11.556066382857571],["croissante",-11.556318222914484],["municipa",-11.556519356182712],["PN",-11.556802083840743],["gissant",-11.55694471250805],["impliquée",-11.557122738851675],["éleveur",-11.557246404786994],["neuve",-11.557873267616689],["Fo",-11.558220567590997],["animale",-11.558775350894884],["renforcée",-11.558777369256934],["ralenti",-11.558850953020423],["gala",-11.559258350064999],["fai",-11.559594449768696],["voile",-11.560309376704328],["écologi",-11.56050212295193],["Hier",-11.560701971060285],["soupçon",-11.561242228288336],["otamment",-11.561341843209316],["ng",-11.561398583694068],["Chant",-11.561573107399346],["Grè",-11.56163114576971],["Fortn",-11.562030473742002],["constitution",-11.562845645328121],["risme",-11.563282099131348],["essay",-11.563359473864057],["Bros",-11.563519506604644],["vois",-11.564542443012023],["gard",-11.564873254202412],["Feder",-11.565170001403466],["fusil",-11.565190814576756],["invitée",-11.565311063535033],["échelon",-11.565328785436218],["insul",-11.565337347182151],["regroupe",-11.56548022086303],["Journal",-11.566036644743994],["australien",-11.566040336457599],["propagand",-11.566074632086917],["emblée",-11.566112688695917],["renonc",-11.566120952123905],["crypto",-11.566178723145613],["échantillon",-11.56621958799674],["Ê",-11.566224141766845],["²",-11.566224141766845],["curiosité",-11.56622414645309],["Hôpita",-11.566224323802174],["artillerie",-11.566224437147305],["cigarette",-11.566224763423726],["suggère",-11.56622635708719],["Ronald",-11.56622738657058],["Arrivé",-11.566230682237983],["Chevalier",-11.566239886436403],["courriel",-11.56624671245268],["externe",-11.566250595038268],["fourniture",-11.566256557877734],["XIX",-11.566258705938175],["étiquette",-11.5662652270714],["criminalité",-11.56627751402098],["modalité",-11.566280015578027],["Neuve",-11.566335769993824],["optimiste",-11.566372453745144],["insecte",-11.56637663923393],["écurie",-11.566399975796385],["Pedro",-11.56647637537768],["représentai",-11.566501630819923],["renversé",-11.566506844397491],["emprise",-11.566542195309944],["tragique",-11.566543007020792],["cyberattaque",-11.56660592682385],["illustré",-11.566663053382912],["proteste",-11.56667315890281],["escroquerie",-11.566676497580465],["légume",-11.566683765128177],["réitéré",-11.566721958479881],["cathédrale",-11.566747922252189],["Roman",-11.566812434285165],["masculine",-11.566923300474462],["compenser",-11.566951858400898],["dîner",-11.566999564107007],["forum",-11.567193751710281],["rejoign",-11.567377552215971],["orthodoxe",-11.567456205466621],["AWA",-11.567536278151248],["NF",-11.567575881086205],["ïv",-11.567581887161653],["repère",-11.56764056332899],["camping",-11.567906265019266],["Ké",-11.568058739388645],["lanceur",-11.568265962927427],["Fox",-11.568324583884513],["cross",-11.568355013558719],["cloche",-11.568513366037081],["brisé",-11.568619124231297],["carrefour",-11.568648701778923],["charme",-11.56881599602833],["kov",-11.568884334725519],["Boucher",-11.568965775769225],["biologique",-11.569011362588922],["requise",-11.569372060256153],["Mori",-11.569937133897843],["généré",-11.57030383541902],["Poli",-11.571287491687194],["ervent",-11.5716613058147],["filtre",-11.571753823033516],["précoce",-11.571781818528963],["flou",-11.571782808208091],["pénal",-11.571949651305571],["frapper",-11.572176546205302],["agro",-11.572386457813687],["échangé",-11.573499935381895],["ouer",-11.573676109681594],["Carl",-11.574146835934265],["Cal",-11.574203089280466],["battant",-11.574232144663679],["frappée",-11.574792038181421],["tirée",-11.57544726076727],["remporte",-11.575552130616773],["Roche",-11.575592076745883],["08",-11.575643590425354],["imaginé",-11.575666709137444],["module",-11.576064997254784],["financé",-11.576249542422548],["Croat",-11.576353533279313],["sauvé",-11.576359681463558],["évalué",-11.576398810301374],["luxembourgeois",-11.576411622874591],["constitué",-11.576571669226604],["congolais",-11.576843572823757],["marchand",-11.577191236570902],["amélioré",-11.577286069487739],["AG",-11.577398806917826],["Dep",-11.577701553282449],["cassé",-11.577706747925824],["Anni",-11.577742575686864],["assistant",-11.578266791173878],["16h",-11.578874997818957],["Kan",-11.579006287346129],["érité",-11.57923521757963],["démenti",-11.579434196656809],["atténue",-11.579539624208163],["entendue",-11.579714364231721],["fondamentale",-11.580095043614188],["clan",-11.580362652468642],["consomme",-11.581274517265971],["truc",-11.581478174025682],["citant",-11.581669210077463],["représentée",-11.583002781233619],["10h",-11.583158506837654],["ARS",-11.583424923603502],["développée",-11.583489399739106],["débutera",-11.583781405511925],["Trans",-11.584128404781833],["injuste",-11.584358574130112],["Rose",-11.584509800502966],["Bleu",-11.585198362637948],["Berger",-11.585594747263572],["SG",-11.585777448636964],["visibili",-11.585903850910569],["ttention",-11.586518186410514],["respecte",-11.586539448389027],["Dian",-11.586602321958257],["abouti",-11.586664512413591],["boisson",-11.586686076994472],["satisfai",-11.58711598158919],["partant",-11.587344668522615],["Ivan",-11.588382724722337],["Call",-11.589939580034754],["Bri",-11.590031074001596],["Lom",-11.590905903404842],["label",-11.59122240243633],["ignan",-11.5925274386294],["rthur",-11.592683229146173],["Pal",-11.59287131666628],["renchéri",-11.592956222108867],["devise",-11.594548467088734],["challenge",-11.596128681118927],["XX",-11.596184376688635],["ç",-11.596201209950738],["parfum",-11.597178429979786],["ché",-11.598291351806123],["viation",-11.598888165477344],["fréquente",-11.599194514710897],["associée",-11.599985924511898],["vaincu",-11.600261278969711],["ring",-11.600339698917423],["démarre",-11.600374889535772],["ww",-11.60059528228045],["détri",-11.600659810020542],["architecte",-11.600706900424866],["portugais",-11.600706937339686],["complice",-11.600707020323059],["Norvégien",-11.600707084071074],["immigré",-11.600707146379177],["Windows",-11.600707202059407],["suffrage",-11.600707254087254],["Wagner",-11.600707429959666],["stupéfiant",-11.600707435579938],["Hydro",-11.600707565598098],["préliminaire",-11.600708762458387],["Lorrain",-11.600711572177087],["échevin",-11.600711642687392],["trilogie",-11.600712576517344],["particularité",-11.60071380138335],["Cédri",-11.6007163180554],["paisible",-11.60072027514681],["indication",-11.600723804208114],["Ouaga",-11.60072635942452],["Irak",-11.60072678415292],["Knight",-11.600731627377375],["publicitaire",-11.60074062036953],["Elysée",-11.600745179061823],["Tampa",-11.600749219005834],["restaurateur",-11.60075373786875],["juré",-11.600763979645405],["attraction",-11.600767128843454],["valorisation",-11.60079890806448],["admire",-11.600807064447114],["couronne",-11.600832116645925],["confusion",-11.600837864226335],["pomme",-11.600844380744586],["valise",-11.600878983383986],["nuance",-11.600933715554255],["directive",-11.600943724127127],["brique",-11.600963054957148],["pénalité",-11.60103890695124],["facilité",-11.601131717951237],["radar",-11.601142122090074],["générer",-11.601163312093567],["cuir",-11.601175140988882],["coca",-11.60121290671019],["stopper",-11.601268874756924],["feuilles",-11.601298553686979],["tilisant",-11.601371547639296],["censée",-11.601427358551359],["combattu",-11.601435916878847],["remport",-11.601522099623987],["reporter",-11.601550039236379],["Norv",-11.60156194265129],["Arc",-11.601697573846042],["UA",-11.601775430722165],["consigne",-11.60207666213303],["Angel",-11.602194984616846],["Bank",-11.602295031803312],["prénom",-11.602604164379109],["Xiaomi",-11.602665287455563],["cave",-11.602705637299803],["affrontent",-11.603087186562458],["Berg",-11.603477598713653],["couler",-11.603488007939855],["dépouille",-11.603585886558555],["Swiss",-11.603799885060763],["gilet",-11.603830073137733],["travaillant",-11.603853616105212],["Atlas",-11.603937702475701],["notable",-11.603955618083331],["Bond",-11.60404062772211],["CHU",-11.604091574252296],["littérale",-11.604573333312267],["croyai",-11.604587642736485],["dynamis",-11.604660858213165],["Ban",-11.605245857486587],["intégral",-11.6052684603235],["She",-11.605284018796462],["Villeneuv",-11.605329945852603],["Holland",-11.605354489003211],["consommer",-11.605380766503817],["Toy",-11.605706486677377],["Lewi",-11.607045367040497],["Mine",-11.607456373554323],["rejetée",-11.607735684451713],["Ger",-11.608569930793067],["Lucas",-11.608751701736642],["lunette",-11.609234593882668],["susciter",-11.60932979706427],["Andre",-11.609405057104395],["démarque",-11.6094520065969],["nommer",-11.609973771876827],["réhabilit",-11.610277767284988],["Damas",-11.610395006925007],["importé",-11.610659445487176],["supprimé",-11.611468415183658],["recensé",-11.611850618362372],["appuyé",-11.61235720087492],["14h",-11.612444837259776],["9h",-11.612651843904713],["ig",-11.61296481430286],["RM",-11.613128295867206],["tentai",-11.613402375753871],["otte",-11.613425708183392],["tracé",-11.613683683339428],["Ker",-11.613989555678433],["hip",-11.614526910115003],["Kim",-11.614689736252608],["?»",-11.614758212677618],["Matt",-11.615270272659389],["Racin",-11.615554009936005],["LS",-11.615748769254573],["distingue",-11.616396603651637],["Riche",-11.617124656987244],["envolée",-11.617271826969807],["expliqu",-11.617428949885277],["ménager",-11.617697580181678],["opérationnelle",-11.61803771927792],["Rocket",-11.618223216168428],["reposer",-11.61867247114177],["Trus",-11.61891149682063],["vache",-11.619091701608829],["tinction",-11.619237475849525],["Lang",-11.619831673989879],["bienvenue",-11.62025483494456],["exil",-11.620306331374989],["claque",-11.620385449184937],["gue",-11.620639920733613],["Chi",-11.62113193096407],["UL",-11.621867782268426],["cinquante",-11.622113708011128],["gant",-11.622985415377109],["bal",-11.622989660016954],["Philip",-11.62319010144184],["déplace",-11.623394883236298],["ïne",-11.62374933217283],["ifficile",-11.624151442222427],["Cup",-11.62462312535892],["gras",-11.625219006821105],["aimer",-11.62573344553265],["Cata",-11.625759134426094],["Wei",-11.626059920806462],["goutte",
[...]
