{"version":"1.0","truncation":null,"padding":null,"added_tokens":[{"id":0,"special":true,"content":"<UNK>","single_word":false,"lstrip":false,"rstrip":false,"normalized":false},{"id":1,"special":true,"content":"<SEP>","single_word":false,"lstrip":false,"rstrip":false,"normalized":false},{"id":2,"special":true,"content":"<MASK>","single_word":false,"lstrip":false,"rstrip":false,"normalized":false},{"id":3,"special":true,"content":"<CLS>","single_word":false,"lstrip":false,"rstrip":false,"normalized":false}],"normalizer":null,"pre_tokenizer":{"type":"Whitespace"},"post_processor":null,"decoder":null,"model":{"type":"WordPiece","unk_token":"<UNK>","continuing_subword_prefix":"##","max_input_chars_per_word":100,"vocab":{"<UNK>":0,"<SEP>":1,"<MASK>":2,"<CLS>":3,"!":4,"\"":5,"$":6,"%":7,"&":8,"'":9,"(":10,")":11,"*":12,"+":13,",":14,"-":15,".":16,"/":17,"0":18,"1":19,"2":20,"3":21,"4":22,"5":23,"6":24,"7":25,"8":26,"9":27,":":28,";":29,"<":30,">":31,"?":32,"A":33,"B":34,"C":35,"D":36,"E":37,"F":38,"G":39,"H":40,"I":41,"J":42,"K":43,"L":44,"M":45,"N":46,"O":47,"P":48,"Q":49,"R":50,"S":51,"T":52,"U":53,"V":54,"W":55,"X":56,"Y":57,"Z":58,"`":59,"a":60,"b":61,"c":62,"d":63,"e":64,"f":65,"g":66,"h":67,"i":68,"j":69,"k":70,"l":71,"m":72,"n":73,"o":74,"p":75,"q":76,"r":77,"s":78,"t":79,"u":80,"v":81,"w":82,"x":83,"y":84,"z":85,"~":86,"£":87,"¤":88,"¦":89,"¨":90,"«":91,"¬":92,"®":93,"°":94,"±":95,"²":96,"³":97,"´":98,"·":99,"º":100,"»":101,"Á":102,"Å":103,"Ç":104,"È":105,"É":106,"Ó":107,"Ö":108,"×":109,"Ø":110,"Ü":111,"ß":112,"à":113,"á":114,"â":115,"ã":116,"ä":117,"å":118,"æ":119,"ç":120,"è":121,"é":122,"ê":123,"ë":124,"ì":125,"í":126,"î":127,"ï":128,"ð":129,"ñ":130,"ò":131,"ó":132,"ô":133,"ö":134,"ø":135,"ù":136,"ú":137,"û":138,"ü":139,"ý":140,"ć":141,"č":142,"ě":143,"ğ":144,"Ġ":145,"ĳ":146,"ķ":147,"ł":148,"ń":149,"ō":150,"ş":151,"š":152,"Ÿ":153,"Ž":154,"ž":155,"˜":156,"́":157,"̈":158,"̶":159,"ν":160,"ο":161,"ς":162,"υ":163,"Ў":164,"Р":165,"ю":166,"ђ":167,"–":168,"—":169,"‘":170,"’":171,"‚":172,"“":173,"”":174,"„":175,"†":176,"‡":177,"•":178,"…":179,"‰":180,"′":181,"‹":182,"₂":183,"€":184,"℃":185,"™":186,"⇧":187,"−":188,"≈":189,"⌘":190,"├":191,"▶":192,"★":193,"☆":194,"期":195,"静":196,"默":197,"":198,"﻿":199,"##e":200,"##i":201,"##l":202,"##g":203,"##h":204,"##d":205,"##s":206,"##a":207,"##n":208,"##t":209,"##5":210,"##r":211,"##o":212,"##m":213,"##u":214,"##k":215,"##j":216,"##f":217,"##c":218,"##z":219,"##ë":220,"##b":221,"##v":222,"##w":223,"##y":224,"##2":225,"##0":226,"##p":227,"##ł":228,"##F":229,"##R":230,"##x":231,"##Z":232,"##I":233,"##9":234,"##K":235,"##C":236,"##ï":237,"##6":238,"##8":239,"##„":240,"##G":241,"##N":242,"##E":243,"##L":244,"##M":245,"##4":246,"##D":247,"##7":248,"##B":249,"##O":250,"##â":251,"##’":252,"##,":253,"##/":254,"##A":255,"##3":256,"##1":257,"##è":258,"##S":259,"##q":260,"##ê":261,"##T":262,"##P":263,"##ó":264,"##ä":265,"##W":266,"##é":267,"##.":268,"##)":269,"##̈":270,"##ø":271,"##Y":272,"##ü":273,"##U":274,"##V":275,"##ń":276,"##H":277,"##ć":278,"##-":279,"##J":280,"##Q":281,"##á":282,"##ö":283,"##ñ":284,"##X":285,"##?":286,"##É":287,"##‘":288,"##(":289,"##\"":290,"##“":291,"##'":292,"##ì":293,"##í":294,"##ç":295,"##ú":296,"##”":297,"##ò":298,"##>":299,"##:":300,"##ђ":301,"##ю":302,"##ý":303,"##™":304,"##‚":305,"##č":306,"##å":307,"##æ":308,"##⌘":309,"##$":310,"##%":311,"##…":312,"##ž":313,"##š":314,"##à":315,"##ě":316,"##★":317,"##☆":318,"##*":319,"##î":320,"##¦":321,"##!":322,"##»":323,"##ô":324,"##Ÿ":325,"##Ž":326,"##Р":327,"##Ў":328,"##ş":329,"##û":330,"##º":331,"##;":332,"##̶":333,"##ã":334,"##˜":335,"##+":336,"##<":337,"##–":338,"##³":339,"##ð":340,"##ğ":341,"##£":342,"##‰":343,"##ĳ":344,"##±":345,"##€":346,"##ķ":347,"##⇧":348,"##ù":349,"##~":350,"##́":351,"##†":352,"##ß":353,"##ō":354,"##默":355,"##期":356,"##ο":357,"##υ":358,"##ς":359,"##¬":360,"##‹":361,"##en":362,"##er":363,"##an":364,"##et":365,"##ij":366,"##el":367,"de":368,"##aa":369,"##or":370,"##in":371,"##ie":372,"##at":373,"##ch":374,"##st":375,"##aar":376,"van":377,"een":378,"##it":379,"in":380,"##on":381,"het":382,"##oor":383,"en":384,"##gen":385,"##der":386,"ge":387,"##den":388,"##de":389,"##ee":390,"op":391,"##oe":392,"##al":393,"##ar":394,"te":395,"is":396,"##cht":397,"##ro":398,"ver":399,"##ig":400,"##ijn":401,"##ing":402,"al":403,"dat":404,"voor":405,"##ijk":406,"##is":407,"##le":408,"be":409,"##om":410,"##eer":411,"##iet":412,"##ken":413,"st":414,"##ol":415,"##ur":416,"aan":417,"##ver":418,"##and":419,"met":420,"##ge":421,"##il":422,"zijn":423,"on":424,"niet":425,"##re":426,"##og":427,"##ra":428,"die":429,"De":430,"##ok":431,"##un":432,"##te":433,"##aat":434,"##id":435,"##ot":436,"##ou":437,"om":438,"##am":439,"er":440,"##us":441,"##as":442,"ze":443,"je":444,"##ers":445,"he":446,"##ven":447,"##op":448,"##ag":449,"uit":450,"##ft":451,"##elijk":452,"##rij":453,"##aan":454,"##ten":455,"ook":456,"we":457,"##sen":458,"##se":459,"##sch":460,"over":461,"##eld":462,"##ien":463,"re":464,"##kt":465,"maar":466,"wor":467,"##ste":468,"##aal":469,"bij":470,"##uw":471,"als":472,"##ele":473,"##je":474,"##oet":475,"##nen":476,"wer":477,"##ent":478,"##ad":479,"zo":480,"Het":481,"##ze":482,"##ct":483,"heb":484,"dan":485,"##he":486,"nog":487,"##ui":488,"##oen":489,"##len":490,"##ier":491,"##ond":492,"##oo":493,"##eel":494,"##ap":495,"##eeft":496,"##ingen":497,"ik":498,"##atie":499,"##ang":500,"door":501,"##ul":502,"naar":503,"##eren":504,"waar":505,"heeft":506,"##ak":507,"wel":508,"##dt":509,"of":510,"af":511,"pro":512,"meer":513,"onder":514,"##ik":515,"was":516,"le":517,"##ige":518,"##isch":519,"sch":520,"##ant":521,"##uur":522,"##acht":523,"##em":524,"##land":525,"##sp":526,"##ben":527,"sp":528,"##be":529,"##ut":530,"hij":531,"kun":532,"##ist":533,"hebben":534,"wat":535,"an":536,"alle":537,"moet":538,"kan":539,"##pen":540,"##omen":541,"##ic":542,"jaar":543,"##icht":544,"In":545,"##im":546,"##eder":547,"##ijd":548,"##lijk":549,"##uit":550,"daar":551,"##ind":552,"##elen":553,"##ter":554,"##es":555,"vol":556,"worden":557,"##gt":558,"##oed":559,"##elf":560,"##ru":561,"men":562,"##wee":563,"##ich":564,"##heid":565,"##zen":566,"##een":567,"wordt":568,"##ieuw":569,"tot":570,"Dat":571,"##ke":572,"##art":573,"geen":574,"Ik":575,"##sl":576,"ander":577,"dit":578,"##itie":579,"Al":580,"##ker":581,"bl":582,"nu":583,"pl":584,"20":585,"##ische":586,"gro":587,"##aag":588,"wil":589,"ter":590,"##gens":591,"##oek":592,"##oon":593,"##ast":594,"ma":595,"zich":596,"##dag":597,"eer":598,"##ve":599,"##aak":600,"##aren":601,"bet":602,"En":603,"zou":604,"kunnen":605,"na":606,"me":607,"tegen":608,"##br":609,"##os":610,"##we":611,"##men":612,"##gel":613,"##igen":614,"veel":615,"##od":616,"gew":617,"deze":618,"Maar":619,"##ies":620,"##aten":621,"min":622,"mensen":623,"##ale":624,"hun":625,"##ort":626,"##onder":627,"gr":628,"gev":629,"nieuw":630,"##erk":631,"##oord":632,"gaat":633,"mee":634,"twee":635,"Neder":636,"##chter":637,"##uro":638,"##ne":639,"ont":640,"##sten":641,"##ite":642,"##open":643,"##ger":644,"weer":645,"##uis":646,"##ug":647,"##ff":648,"##ac":649,"werd":650,"had":651,"##dat":652,"Een":653,"kl":654,"gem":655,"##oc":656,"gaan":657,"sl":658,"##orm":659,"con":660,"goed":661,"##ion":662,"to":663,"haar":664,"##ek":665,"##oop":666,"zelf":667,".”":668,"##00":669,"hoe":670,"##ank":671,"##eek":672,"Nederland":673,"Rus":674,"man":675,"##um":676,"bed":677,"toe":678,"kw":679,"##ia":680,"##ber":681,"##ië":682,"##uk":683,"##ctie":684,"##amen":685,"dr":686,"##af":687,"##ub":688,"##rouw":689,"vr":690,"##ir":691,"We":692,"##aakt":693,"##ders":694,"##innen":695,"bel":696,"##pl":697,"##ijden":698,"##jes":699,"andere":700,"##oel":701,"##cent":702,"##hou":703,"dus":704,"##val":705,"##ets":706,"beg":707,"##agen":708,"moeten":709,"##oer":710,"##els":711,"##ouw":712,"komen":713,"Daar":714,"ex":715,"##wij":716,"##ere":717,"##eerd":718,"##alen":719,"eigen":720,"##eten":721,"##iek":722,"mil":723,"br":724,"kom":725,"##mer":726,"##ster":727,"nieuwe":728,"pol":729,"blij":730,"##per":731,"krij":732,"el":733,"##oog":734,"##ussen":735,"##voor":736,"##elijke":737,"##brui":738,"##uid":739,"best":740,"verk":741,"doen":742,"##ab":743,"gez":744,"##eed":745,"##ard":746,"##maal":747,"Er":748,"##iteit":749,"tijd":750,"##ater":751,"Als":752,"##pp":753,"hier":754,"##eem":755,"zal":756,"##kken":757,"aut":758,"gen":759,"sn":760,"##iden":761,"##ine":762,"##deren":763,"##ell":764,"laat":765,"toch":766,"##ens":767,"maken":768,"mijn":769,"##zoek":770,"staat":771,"##ran":772,"ben":773,"##ust":774,"##oeg":775,"geb":776,"##ink":777,"##als":778,"ged":779,"zit":780,"##onden":781,"lang":782,"##racht":783,"vrij":784,"heel":785,"zegt":786,"St":787,"##aam":788,"werk":789,"Oek":790,"##tijd":791,"vert":792,"Van":793,"moe":794,"Ook":795,"Oekra":796,"eerste":797,"Ze":798,"##gev":799,"komt":800,"bo":801,"Hij":802,"pre":803,"##vol":804,"vl":805,"politie":806,"land":807,"##bij":808,"per":809,"##ip":810,"##elt":811,"hele":812,"##kend":813,"Op":814,"alleen":815,"##oren":816,"##baar":817,"com":818,"Oekraï":819,"##anden":820,"##erg":821,"##uren":822,"##io":823,"##ocht":824,"##wer":825,"##ron":826,"##me":827,"echt":828,"##schap":829,"202":830,"##uiten":831,"##av":832,"##oep":833,"##iv":834,"##ma":835,"gebrui":836,"terug":837,"##ood":838,"den":839,"##ec":840,"##org":841,"##ire":842,"eens":843,"##rijk":844,"plaat":845,"verd":846,"##ings":847,"##aad":848,"hou":849,"Die":850,"zien":851,"procent":852,"”,":853,"##tal":854,"iets":855,"achter":856,"##ud":857,"weg":858,"pr":859,"##bl":860,"##of":861,"ons":862,"omdat":863,"milj":864,"hem":865,"##ellen":866,"Je":867,"##zelf":868,"gel":869,"grote":870,"even":871,"Euro":872,"##zet":873,"##ief":874,"##huis":875,"##atuur":876,"Ch":877,"euro":878,"Voor":879,"##dig":880,"##idd":881,"zw":882,"##ucht":883,"groot":884,"##ogelijk":885,"dag":886,"kle":887,"##pt":888,"mis":889,"##eert":890,"An":891,"net":892,"##ggen":893,"Vol":894,"pers":895,"##are":896,"##iel":897,"binnen":898,"altijd":899,"##ree":900,"##oof":901,"Zo":902,"##man":903,"auto":904,"toen":905,"versch":906,"Europ":907,"vin":908,"Dit":909,"##ijf":910,"leven":911,"samen":912,"tussen":913,"verl":914,"wereld":915,"##komen":916,"##int":917,"##ed":918,"ko":919,"ar":920,"##mee":921,"##werk":922,"onze":923,"##ijdens":924,"##eerde":925,"zoals":926,"##ide":927,"gewoon":928,"##nem":929,"##eeds":930,"waren":931,"##ation":932,"##uim":933,"her":934,"minder":935,"##ss":936,"geld":937,"vrouw":938,"bedrij":939,"gele":940,"##iss":941,"aange":942,"keer":943,"verw":944,"mogelijk":945,"recht":946,"snel":947,".\"":948,"se":949,"willen":950,"##mp":951,"jaren":952,"##én":953,"##ullen":954,"mij":955,"ieder":956,"weten":957,"##ister":958,"wij":959,"##ijken":960,"Mar":961,"##uc":962,"Wat":963,"##artij":964,"inter":965,"##oten":966,"steeds":967,"hel":968,"won":969,"week":970,"##van":971,"cor":972,"hand":973,"elk":974,"##con":975,"Met":976,"oor":977,"Ver":978,"volgens":979,"der":980,"##amp":981,"##anc":982,"##iz":983,"##oot":984,"verb":985,"belang":986,"##ass":987,"##ren":988,"krijgen":989,"besch":990,"laten":991,"##tra":992,"##eg":993,"##ov":994,"##beeld":995,"tra":996,"##ob":997,"##ong":998,"rond":999,"drie":1000,"huis":1001,"open":1002,"##gelopen":1003,"want":1004,"##dien":1005,"##aanse":1006,"On":1007,"##ogen":1008,"##oort":1009,"##amer":1010,"##au":1011,"uur":1012,"##stand":1013,"##elde":1014,"##ijkt":1015,"##unt":1016,"##ame":1017,"##ann":1018,"201":1019,"vor":1020,"Oekraïne":1021,"Russ":1022,"kon":1023,"##aast":1024,"##sdag":1025,"##rek":1026,"hoog":1027,"tijdens":1028,"Le":1029,"##ragen":1030,"kin":1031,"onderzoek":1032,"Rusland":1033,"natuur":1034,"plaats":1035,"vier":1036,"verh":1037,"##odig":1038,"staan":1039,"maand":1040,"##act":1041,"laatste":1042,"##kom":1043,"##eling":1044,"Sp":1045,"##ooit":1046,"mag":1047,"één":1048,"verg":1049,"##rijd":1050,"##log":1051,"##aken":1052,"Br":1053,"Bij":1054,"##inds":1055,"##ost":1056,"##ari":1057,"verder":1058,"##ow":1059,"beh":1060,"deel":1061,"bez":1062,").":1063,"##geven":1064,"gek":1065,"##achten":1066,"##ult":1067,"miljoen":1068,"##veel":1069,"##aties":1070,"or":1071,"##woord":1072,"prob":1073,"besl":1074,"##ler":1075,"gemeen":1076,"##etje":1077,"buiten":1078,"##if":1079,"gebe":1080,"##wel":1081,"##etten":1082,"geh":1083,"vooral":1084,"kwam":1085,"ple":1086,"Volgens":1087,"energ":1088,"##gr":1089,"##houden":1090,"lig":1091,"##door":1092,"##end":1093,"##arige":1094,"19":1095,"Sch":1096,"##lie":1097,"##ruk":1098,"zonder":1099,"zie":1100,"##omm":1101,"nooit":1102,"##anis":1103,"ou":1104,"##over":1105,"aantal":1106,"enk":1107,"zij":1108,"##ool":1109,"eerder":1110,"##aard":1111,"##oem":1112,"blijven":1113,"verschil":1114,"Amer":1115,"##na":1116,"alles":1117,"Bel":1118,"##ment":1119,"##orgen":1120,"Russische":1121,"##la":1122,"##ander":1123,"coron":1124,"##dst":1125,"afgelopen":1126,"##oede":1127,"##geb":1128,"##ert":1129,"med":1130,"partij":1131,"ve":1132,"##off":1133,"belangrijk":1134,"ruim":1135,"##ees":1136,"##ilig":1137,"zelfs":1138,"Amerik":1139,"nodig":1140,"sle":1141,"zeker":1142,"##voer":1143,"##gd":1144,"##ade":1145,"elkaar":1146,"##won":1147,"Dan":1148,"##ri":1149,"##eter":1150,"val":1151,"zullen":1152,"##ce":1153,"beter":1154,"##bal":1155,"##inn":1156,"ste":1157,"inf":1158,"##our":1159,"##ooi":1160,"ten":1161,"##ram":1162,"eind":1163,"verm":1164,"Hoe":1165,"ad":1166,"##aart":1167,"##ikk":1168,"##weg":1169,"##dam":1170,"##uizen":1171,"weet":1172,"anders":1173,"##ach":1174,"000":1175,"gesch":1176,"volgen":1177,"jarige":1178,"##akk":1179,"##ks":1180,"##rijs":1181,"houden":1182,"zeggen":1183,"helemaal":1184,"##aas":1185,"werden":1186,"bekend":1187,"allemaal":1188,"##eb":1189,"Om":1190,"tre":1191,"zitten":1192,"niets":1193,"##ark":1194,"##oven":1195,"Na":1196,"ber":1197,"##sel":1198,"##rag":1199,"##aakte":1200,"gest":1201,"gesp":1202,"##cl":1203,"##ces":1204,"##uidelijk":1205,"##emen":1206,"stad":1207,"##gaan":1208,"kinderen":1209,"\",":1210,"vast":1211,"geval":1212,"##isten":1213,"Be":1214,"fin":1215,"##gest":1216,"##lende":1217,"app":1218,"oorlog":1219,"maakt":1220,"Nederlandse":1221,"minister":1222,"##deel":1223,"##voorbeeld":1224,"hoof":1225,"##oment":1226,"##co":1227,"blijft":1228,"##ans":1229,"vaak":1230,"tweede":1231,"Duit":1232,"boven":1233,"bedrijf":1234,"cont":1235,"##ill":1236,"##str":1237,"via":1238,"##heden":1239,"10":1240,"ging":1241,"werken":1242,"Vl":1243,"energie":1244,"##tre":1245,"##mm":1246,"##arkt":1247,"get":1248,"vinden":1249,"doet":1250,"lijkt":1251,"##igd":1252,"ken":1253,"bur":1254,"str":1255,"##sm":1256,"moment":1257,"vak":1258,"##raf":1259,"Deze":1260,"##wijl":1261,"##ieden":1262,"reg":1263,"voet":1264,"##aanden":1265,"natuurlijk":1266,"kr":1267,"##ieren":1268,"duur":1269,"ger":1270,"gee":1271,"##aald":1272,"##oos":1273,"##ay":1274,"bijvoorbeeld":1275,"##ader":1276,"##oeken":1277,"##ijna":1278,"Am":1279,"##zien":1280,"ne":1281,"##uist":1282,"plan":1283,"cl":1284,"##midd":1285,"##oopt":1286,"iedereen":1287,"##age":1288,"kunt":1289,"blijk":1290,"tien":1291,"##ident":1292,"sinds":1293,"##ied":1294,"##schien":1295,"slecht":1296,"##zelfde":1297,"pas":1298,"##iding":1299,"##vers":1300,"gebeur":1301,"erg":1302,"geven":1303,"##tje":1304,"hadden":1305,"Ar":1306,"##itter":1307,"jon":1308,"##aire":1309,"##dere":1310,"vraag":1311,"##pro":1312,"##ichting":1313,"geleden":1314,"##app":1315,"goede":1316,"##bur":1317,"bep":1318,"##emand":1319,"##leg":1320,"##gem":1321,"kn":1322,"zei":1323,"nam":1324,"##slag":1325,"##nieuw":1326,"##erm":1327,"##inig":1328,"gemaakt":1329,"landen":1330,"##appen":1331,"##avond":1332,"gebruik":1333,"krijgt":1334,"##hand":1335,"##one":1336,"zouden":1337,"prod":1338,"vand":1339,"##ern":1340,"##ina":1341,"##angen":1342,"later":1343,"opge":1344,"gemeente":1345,"brand":1346,"ch":1347,"##sk":1348,"##elden":1349,"bew":1350,"##all":1351,"##elingen":1352,"##ord":1353,"Belg":1354,"dire":1355,"##eken":1356,"##itu":1357,"gra":1358,".’":1359,"dagen":1360,"##oge":1361,"##iale":1362,"##les":1363,"##amil":1364,"paar":1365,"##ositie":1366,"bijna":1367,"fl":1368,"Waar":1369,"maanden":1370,"##uz":1371,"##eef":1372,"##ese":1373,"##vl":1374,"##get":1375,"eerst":1376,"iemand":1377,"##vin":1378,"bele":1379,"water":1380,"##lijke":1381,"enkele":1382,"verwacht":1383,"maat":1384,"top":1385,"##ax":1386,"##ode":1387,"##oepen":1388,"##oss":1389,"vijf":1390,"soort":1391,"##zicht":1392,"stem":1393,"doel":1394,"##ris":1395,"duidelijk":1396,"gas":1397,"dien":1398,"##ess":1399,"##vang":1400,"##rokken":1401,"ald":1402,"extra":1403,"speel":1404,"Fran":1405,"oo":1406,"##bare":1407,"beste":1408,"##akken":1409,"Den":1410,"kijken":1411,"nemen":1412,"##stell":1413,"org":1414,"##arm":1415,"##igde":1416,"rij":1417,"##rie":1418,"##wege":1419,"vrien":1420,"opl":1421,"hebt":1422,"aldus":1423,"15":1424,"thuis":1425,"##waar":1426,"ide":1427,"##unten":1428,"lever":1429,"afge":1430,"person":1431,"Amerikaanse":1432,"##vest":1433,"Nu":1434,"am":1435,"##gele":1436,"##aven":1437,"vanaf":1438,"##eur":1439,"##vallen":1440,"##izoen":1441,"meld":1442,"wie":1443,"denk":1444,"##wikk":1445,"##eu":1446,"##ente":1447,"##plaat":1448,"zom":1449,"##air":1450,"##leden":1451,"stuk":1452,"##aalde":1453,"El":1454,"Gro":1455,"##reken":1456,"regel":1457,"##schapp":1458,"##ser":1459,"beetje":1460,"vindt":1461,"##oll":1462,"##reeg":1463,"##est":1464,"hal":1465,"ind":1466,"##eest":1467,"terwijl":1468,"Europese":1469,"kop":1470,"##ding":1471,"inge":1472,"weinig":1473,"eigenlijk":1474,"##kl":1475,"organis":1476,"##stof":1477,"Of":1478,"##rijzen":1479,"##ffen":1480,"kreeg":1481,"##king":1482,"zorg":1483,"##ondag":1484,"lie":1485,"##weest":1486,"manier":1487,"##sie":1488,"##asis":1489,"genoeg":1490,"’.":1491,"##doen":1492,"##ue":1493,"volle":1494,"hard":1495,"##ect":1496,"##gang":1497,"gevol":1498,"##aterdag":1499,"geweest":1500,"##antie":1501,"##iën":1502,"verschillende":1503,"hoofd":1504,"bere":1505,"##yp":1506,"##erd":1507,"bren":1508,"##lemen":1509,"Is":1510,"##ive":1511,"##iem":1512,"fil":1513,"##aliteit":1514,"##teur":1515,"uitge":1516,"##bleem":1517,"Europa":1518,"kab":1519,"##oh":1520,"##indelijk":1521,"##sident":1522,"##onde":1523,"vind":1524,"##echt":1525,"weken":1526,"wedst":1527,"kans":1528,"adv":1529,"Ge":1530,"ac":1531,"##bo":1532,"##ubl":1533,"seizoen":1534,"soc":1535,"##ioen":1536,"##room":1537,"ligt":1538,"geeft":1539,"actie":1540,"##onnen":1541,"moest":1542,"##ett":1543,"##roken":1544,"##atief":1545,"gedaan":1546,"vandaag":1547,"##oensdag":1548,"vrijdag":1549,"kant":1550,"sc":1551,"##kende":1552,"gere":1553,"##oto":1554,"),":1555,"Dus":1556,"col":1557,"sy":1558,"##oorden":1559,"maakte":1560,"mogen":1561,"overheid":1562,"win":1563,"##ulp":1564,"##rug":1565,"##conom":1566,"##rim":1567,"vrouwen":1568,"Niet":1569,"woord":1570,"##ange":1571,"##olen":1572,"aand":1573,"##out":1574,"comp":1575,"reger":1576,"mede":1577,"##anneer":1578,"EU":1579,"ele":1580,"##chn":1581,"spel":1582,"hen":1583,"onge":1584,"##oetin":1585,"##bouw":1586,"##inde":1587,"groep":1588,"##ry":1589,"verz":1590,"vlucht":1591,"##gers":1592,"reden":1593,"zondag":1594,"Ant":1595,"act":1596,"lucht":1597,"’,":1598,"##aars":1599,"##tie":1600,"ziet":1601,"##oms":1602,"gezien":1603,"zorgen":1604,"inst":1605,"##bed":1606,"grond":1607,"veilig":1608,"Door":1609,"beteken":1610,"zaterdag":1611,"voetbal":1612,"di":1613,"blijkt":1614,"ooit":1615,"probleem":1616,"kil":1617,"##akt":1618,"##anten":1619,"##iging":1620,"##nemers":1621,"do":1622,"echter":1623,"lief":1624,"enige":1625,"##recht":1626,"meest":1627,"club":1628,"bent":1629,"druk":1630,"##rijden":1631,"##rijven":1632,"30":1633,"App":1634,"cent":1635,"dood":1636,"##insdag":1637,"vanwege":1638,"team":1639,"Fr":1640,"nad":1641,"rol":1642,"##gram":1643,"##nis":1644,"gelijk":1645,"woensdag":1646,"##ian":1647,"##ts":1648,"##inet":1649,"waarsch":1650,"zetten":1651,"intern":1652,"Poetin":1653,"##derd":1654,"ser":1655,"##orden":1656,"reken":1657,"acht":1658,"##raag":1659,"##staan":1660,"##ont":1661,"Te":1662,"licht":1663,"vanuit":1664,"vorig":1665,"tele":1666,"Alle":1667,"prijs":1668,"##alis":1669,"##ook":1670,"##reg":1671,"rest":1672,"##woners":1673,"bedrijven":1674,"maandag":1675,"namelijk":1676,"##uil":1677,"##ieten":1678,"##zonder":1679,"misschien":1680,"vervol":1681,"Over":1682,"hog":1683,"rel":1684,"##sche":1685,"##onderdag":1686,"last":1687,"##middels":1688,"##tu":1689,"##achtoff":1690,"##ijnen":1691,"president":1692,"12":1693,"##iële":1694,"##sterdam":1695,"##cies":1696,"opnieuw":1697,"spec":1698,"media":1699,"##ense":1700,"##iez":1701,"off":1702,"##iets":1703,"stij":1704,"##ichten":1705,"Amsterdam":1706,"bev":1707,"##oppen":1708,"persoon":1709,"jul":1710,"##ille":1711,"##und":1712,"##regen":1713,"Af":1714,"waarin":1715,"werkt":1716,"grootste":1717,"##rum":1718,"klein":1719,"Un":1720,"su":1721,"enorm":1722,"begin":1723,"##wijs":1724,"elekt":1725,"100":1726,"##ium":1727,"graag":1728,"bouw":1729,"basis":1730,"hoge":1731,"mid":1732,"ongev":1733,"train":1734,"famil":1735,"bestuur":1736,"denken":1737,"juist":1738,"rijden":1739,"draa":1740,"gebruiken":1741,"25":1742,"Re":1743,"positie":1744,"elke":1745,"neem":1746,"tw":1747,"##olog":1748,"##ure":1749,"##assen":1750,"2022":1751,"##stel":1752,"##uigen":1753,"##ikt":1754,"##och":1755,"##jaar":1756,"ontwikk":1757,"regering":1758,"##bel":1759,"kabinet":1760,"zet":1761,"##oeren":1762,"##utte":1763,"idee":1764,"dinsdag":1765,"ster":1766,"##apen":1767,"slachtoff":1768,"woning":1769,"ga":1770,"mannen":1771,"huid":1772,"##ijnlijk":1773,"##ick":1774,"totaal":1775,"Zij":1776,"buur":1777,"##mat":1778,"##bs":1779,"komende":1780,"##pr":1781,"minu":1782,"##ationale":1783,"Apple":1784,"##iezen":1785,"Wel":1786,"##tem":1787,"groe":1788,"plek":1789,"mooi":1790,"zon":1791,"##sn":1792,"##weer":1793,"##slagen":1794,"betalen":1795,"Gron":1796,"Ja":1797,"##omst":1798,"vlie":1799,"econom":1800,"lopen":1801,"##actie":1802,"##iks":1803,"##ijst":1804,"problemen":1805,"##zij":1806,"##its":1807,"zieken":1808,"##ging":1809,"##ilijk":1810,"##oud":1811,"donderdag":1812,"##isc":1813,"stond":1814,"Duits":1815,"as":1816,"foto":1817,"uite":1818,"vragen":1819,"woon":1820,"##ember":1821,"ant":1822,"klim":1823,"Onder":1824,"Wij":1825,"##kker":1826,"##menten":1827,"moeilijk":1828,"##pel":1829,"meteen":1830,"##uld":1831,"Bl":1832,"Me":1833,"##naast":1834,"start":1835,"##ituatie":1836,"dicht":1837,"200":1838,"av":1839,"oud":1840,"##lang":1841,"##az":1842,"##zaam":1843,"##eeg":1844,"##iger":1845,"techn":1846,"##ving":1847,"##reven":1848,"waarom":1849,"ongeveer":1850,"18":1851,"red":1852,"miljard":1853,"jij":1854,"##ah":1855,"waardoor":1856,"jong":1857,"zes":1858,"welke":1859,"Nederl":1860,"volgende":1861,"hoor":1862,"##mal":1863,"derde":1864,"Hier":1865,"##att":1866,"Th":1867,"##ins":1868,"kwart":1869,"##aris":1870,"nieuws":1871,"Twee":1872,"toek":1873,"##zig":1874,"##genomen":1875,"uiteindelijk":1876,"Rutte":1877,"zeer":1878,"##kort":1879,"##dem":1880,"meter":1881,"##zoekers":1882,"##stelling":1883,"##aden":1884,"##onds":1885,"zwaar":1886,"kosten":1887,"the":1888,"##aring":1889,"zodat":1890,"##spr":1891,"Oekraïense":1892,"2021":1893,"amb":1894,"voel":1895,"##red":1896,"zoveel":1897,"##achte":1898,"bezig":1899,"vriend":1900,"##gramma":1901,"halen":1902,"boeren":1903,"Ben":1904,"hoop":1905,"tro":1906,"##heids":1907,"Brit":1908,"##ukk":1909,"rust":1910,"##form":1911,"gebruikt":1912,"##ctor":1913,"##ice":1914,"ruimte":1915,"fe":1916,"gep":1917,"##ico":1918,"wilde":1919,"vorige":1920,"wedstrijd":1921,"##raa":1922,"spelen":1923,"mot":1924,"##steem":1925,"spra":1926,"co":1927,"##arte":1928,"##aalt":1929,"waarbij":1930,"geweld":1931,"##iode":1932,"kleine":1933,"link":1934,"##anen":1935,"verkl":1936,"liggen":1937,"niks":1938,"par":1939,"##punt":1940,"##ons":1941,"##elijks":1942,"comm":1943,"##iemand":1944,"##anders":1945,"stand":1946,"geworden":1947,"verhaal":1948,"toekomst":1949,"The":1950,"##alist":1951,"sport":1952,"##geving":1953,"##burg":1954,"##ck":1955,"##acc":1956,"##akkelijk":1957,"nadat":1958,"norm":1959,"##hal":1960,"inmiddels":1961,"##werp":1962,"##oelen":1963,"##orp":1964,"##ankelijk":1965,"brengen":1966,"##leven":1967,"ja":1968,"##veren":1969,"##asting":1970,"Toen":1971,"Wie":1972,"lag":1973,"wet":1974,"##sy":1975,"dec":1976,"fun":1977,"##opt":1978,"helpen":1979,"valt":1980,"tran":1981,"gegeven":1982,"zomer":1983,"klimaat":1984,"moo":1985,"wanneer":1986,"##up":1987,"dem":1988,"daarom":1989,"conc":1990,"##rouwen":1991,"infl":1992,"kilom":1993,"##okk":1994,"##regelen":1995,"elektr":1996,"Aan":1997,"Zijn":1998,"##cties":1999,"financ":2000,"rac":2001,"##hol":2002,"##risis":2003,"groter":2004,"##fl":2005,"meeste":2006,"##anks":2007,"##zetten":2008,"markt":2009,"##tussen":2010,"##enn":2011,"##enen":2012,"erv":2013,"Kamer":2014,"##erst":2015,"langer":2016,"einde":2017,"mod":2018,"neer":2019,"zaak":2020,"##iaal":2021,"##sh":2022,"##uin":2023,"Gel":2024,"bro":2025,"keu":2026,"Joh":2027,"hulp":2028,"##igt":2029,"##komst":2030,"Mijn":2031,"situatie":2032,"##ate":2033,"##stellen":2034,"##arde":2035,"lekker":2036,"##voerder":2037,"sm":2038,"##ider":2039,"##abr":2040,"##ratie":2041,"##oemen":2042,"reag":2043,"vertelt":2044,"##ucces":2045,"produ":2046,"Want":2047,"eff":2048,"##lo":2049,"ploeg":2050,"pop":2051,"zat":2052,"##min":2053,"precies":2054,"rechts":2055,"publ":2056,"##orte":2057,"##iteiten":2058,"Duitsland":2059,"16":2060,"##uden":2061,"##ieu":2062,"milit":2063,"nacht":2064,"deed":2065,"##ieke":2066,"##che":2067,"voorbij":2068,"prof":2069,"##clus":2070,"##zitter":2071,"##ress":2072,"zeven":2073,"##ollar":2074,"gl":2075,"un":2076,"##sloten":2077,"Russen":2078,"verdien":2079,"corona":2080,"huidige":2081,"Ter":2082,"##rik":2083,"##ject":2084,"daarna":2085,"Veren":2086,"##rit":2087,"##ieel":2088,"veroor":2089,"##lex":2090,"##ommige":2091,"Jan":2092,"Frank":2093,"neemt":2094,"dollar":2095,"stra":2096,"stap":2097,"zichzelf":2098,"##ijfers":2099,"succes":2100,"”.":2101,"school":2102,"50":2103,"naam":2104,"meerdere":2105,"##onderd":2106,"hoeveel":2107,"wee":2108,"##ssen":2109,"China":2110,"betekent":2111,"familie":2112,"naast":2113,"soms":2114,"##ober":2115,"##ator":2116,"##ampioen":2117,"direct":2118,"##uziek":2119,"Pro":2120,"los":2121,"leuk":2122,"houdt":2123,"00":2124,"##bank":2125,"##ijt":2126,"2020":2127,"Ste":2128,"Tw":2129,"kort":2130,"##mier":2131,"##fin":2132,"##itte":2133,"##rijf":2134,"##ima":2135,"##ock":2136,"##nam":2137,"##oef":2138,"contro":2139,"Net":2140,"WK":2141,"##iers":2142,"##antwoord":2143,"##bruik":2144,"moeder":2145,"partijen":2146,"inflatie":2147,"eten":2148,"sh":2149,"##rekken":2150,"##rimin":2151,"feit":2152,"ero":2153,"He":2154,"wink":2155,"klaar":2156,"##iele":2157,"##VD":2158,"bek":2159,"##omp":2160,"##houd":2161,"sociale":2162,"##annen":2163,"##isie":2164,"gehad":2165,"14":2166,"richting":2167,"aller":2168,"##eens":2169,"jonge":2170,"volledig":2171,"NA":2172,"Uit":2173,"nood":2174,"vorm":2175,"zaken":2176,"anderen":2177,"Toch":2178,"##sc":2179,"##nemen":2180,"ziekenhuis":2181,"17":2182,"punten":2183,"stellen":2184,"##ack":2185,"kind":2186,"niemand":2187,"dezelfde":2188,"oploss":2189,"asiel":2190,"noem":2191,"##line":2192,"kilometer":2193,"11":2194,"lange":2195,"ris":2196,"##lop":2197,"straf":2198,"langs":2199,"lok":2200,"##gelijk":2201,"##sters":2202,"##onen":2203,"sterk":2204,"##uni":2205,"terecht":2206,"##ific":2207,"jan":2208,"liet":2209,"##mmer":2210,"res":2211,"Daarnaast":2212,"##gesteld":2213,"vond":2214,"##ijs":2215,"##deeld":2216,"##vangen":2217,".'":2218,"Men":2219,"vader":2220,"##old":2221,"##landse":2222,"Groningen":2223,"nou":2224,"wind":2225,"##ectie":2226,"##gent":2227,"vuur":2228,"##ib":2229,"##igens":2230,"##vel":2231,"mooie":2232,"VS":2233,"imm":2234,"loopt":2235,"verander":2236,"##zegd":2237,"ouders":2238,"##ukkig":2239,"Ital":2240,"leeft":2241,"midd":2242,"voer":2243,"##66":2244,"aanwe":2245,"mens":2246,"personeel":2247,"dingen":2248,"kopen":2249,"steun":2250,"boek":2251,"##iep":2252,"daarmee":2253,"##tern":2254,"minuten":2255,"13":2256,"gezond":2257,"periode":2258,"Duitse":2259,"##derdaad":2260,"Min":2261,"verst":2262,"##leiding":2263,"##eerden":2264,"rec":2265,"rechter":2266,"bijzonder":2267,"kwamen":2268,"##werpen":2269,"##issie":2270,"half":2271,"##ën":2272,"betre":2273,"waarschijnlijk":2274,"horen":2275,"##ore":2276,"gehe":2277,"betrokken":2278,"gemidd":2279,"bestaan":2280,"##organis":2281,"art":2282,"produc":2283,"##accin":2284,"Par":2285,"olie":2286,"##ner":2287,"##inkt":2288,"oude":2289,"Noord":2290,"imp":2291,"momen":2292,"##ged":2293,"overl":2294,"##uldig":2295,"programma":2296,"Geen":2297,"Ne":2298,"##des":2299,"##imaal":2300,"slechts":2301,"aandacht":2302,"##spraak":2303,"Bra":2304,"et":2305,"##ign":2306,"onbe":2307,"onderz":2308,"offic":2309,"bank":2310,"pan":2311,"zoek":2312,"##veld":2313,"##wijk":2314,"##isme":2315,"##urs":2316,"bleek":2317,"film":2318,"Rot":2319,"##su":2320,"##res":2321,"provin":2322,"schade":2323,"grens":2324,"politiek":2325,"inform":2326,"Heb":2327,"##uari":2328,"##ath":2329,"##atten":2330,"##oegen":2331,"verv":2332,"voorsp":2333,"studen":2334,"##ull":2335,"mocht":2336,"##ourn":2337,"##doende":2338,"',":2339,"bal":2340,"handen":2341,"wachten":2342,"beschik":2343,"hoger":2344,"Wil":2345,"##ys":2346,"beeld":2347,"groen":2348,"gevonden":2349,"##oerd":2350,"super":2351,"konden":2352,"prijzen":2353,"zag":2354,"straat":2355,"gebeurt":2356,"24":2357,"iP":2358,"##mijn":2359,"##igers":2360,"##gemee":2361,"##iveau":2362,"##licht":2363,"##osten":2364,"##ïn":2365,"##gende":2366,"voort":2367,"stelt":2368,"##iddag":2369,"##ots":2370,"België":2371,"vervolgens":2372,"\".":2373,"aard":2374,"kracht":2375,"zin":2376,"##sent":2377,"Daarom":2378,"buurt":2379,"Tot":2380,"##ral":2381,"##ijft":2382,"##ity":2383,"##werkers":2384,"rekening":2385,"januari":2386,"macht":2387,"muziek":2388,"##teel":2389,"gevoel":2390,"##standig":2391,"Sh":2392,"##stig":2393,"##ase":2394,"##ugd":2395,"denkt":2396,"kost":2397,"21":2398,"##mot":2399,"gevaar":2400,"pat":2401,"##atieve":2402,"begon":2403,"begrij":2404,"##straat":2405,"Waarom":2406,"hart":2407,"gekomen":2408,"##olf":2409,"spr":2410,"helft":2411,"Haag":2412,"##ix":2413,"##maat":2414,"verantwoord":2415,"voorkomen":2416,"aanp":2417,"##gere":2418,"bestaat":2419,"regio":2420,"midden":2421,"22":2422,"##ail":2423,"inderdaad":2424,"##reden":2425,"begint":2426,"Tur":2427,"##ivers":2428,"##bet":2429,"##qu":2430,"waarop":2431,"max":2432,"gesprek":2433,"juni":2434,"kap":2435,"##atis":2436,"##zeker":2437,"##wijf":2438,"keuze":2439,"popul":2440,"##ante":2441,"strijd":2442,"##rijft":2443,"zowel":2444,"sche":2445,"sep":2446,"hoogte":2447,"beleid":2448,"Nieuw":2449,"vide":2450,"##lement":2451,"besp":2452,"beginnen":2453,"##markt":2454,"##pers":2455,"Brus":2456,"##staat":2457,"hetzelfde":2458,"aanv":2459,"ond":2460,"gebied":2461,"graden":2462,"meldt":2463,"##tr":2464,"##eeuw":2465,"Engel":2466,"serie":2467,"weekend":2468,"feest":2469,"park":2470,"##auw":2471,"##ome":2472,"gener":2473,"direc":2474,"gebouw":2475,"##dienst":2476,"Zelf":2477,"##tjes":2478,"##zaak":2479,"##ars":2480,"beide":2481,"maart":2482,"##keur":2483,"genomen":2484,"echte":2485,"vallen":2486,"Veel":2487,"##ph":2488,"opt":2489,"##veilig":2490,"goedk":2491,"enkel":2492,"part":2493,"tr":2494,"##port":2495,"stil":2496,"##entie":2497,"contra":2498,"verkiez":2499,"cult":2500,"kijk":2501,"##ton":2502,"##merk":2503,"##winn":2504,"aanval":2505,"ongel":2506,"##ikstof":2507,"gedrag":2508,"Vlaam":2509,"Gr":2510,"Sur":2511,"VVD":2512,"##goed":2513,"##foon":2514,"##ering":2515,"verpl":2516,"vergelijk":2517,"Britse":2518,"aanwezig":2519,"40":2520,"ogen":2521,"daarvoor":2522,"##terdam":2523,"vroeg":2524,"dienst":2525,"Pl":2526,"winnen":2527,"##hankelijk":2528,"##ateg":2529,"gezegd":2530,"##werken":2531,"##tember":2532,"Rotterdam":2533,"##ain":2534,"##oy":2535,"##bele":2536,"##rein":2537,"ervoor":2538,"nummer":2539,"belasting":2540,"krijg":2541,"verdw":2542,"vakantie":2543,"cre":2544,"korte":2545,"heen":2546,"dank":2547,"##apt":2548,"waarde":2549,"##irus":2550,"FC":2551,"Open":2552,"##verd":2553,"politieke":2554,"plannen":2555,"Alleen":2556,"500":2557,"Tru":2558,"Zuid":2559,"##aur":2560,"##issen":2561,"online":2562,"ern":2563,"leid":2564,"klanten":2565,"##ument":2566,"verkeer":2567,"##werking":2568,"organisatie":2569,"result":2570,"disc":2571,"##cie":2572,"nauw":2573,"Franse":2574,"Kl":2575,"for":2576,"lid":2577,"makkelijk":2578,"rente":2579,"én":2580,"##itel":2581,"woordvoerder":2582,"september":2583,"Ol":2584,"koop":2585,"##aut":2586,"bevol":2587,"2019":2588,"belangrijke":2589,"studenten":2590,"dre":2591,"##gde":2592,"ergens":2593,"flink":2594,"Brussel":2595,"up":2596,"ziek":2597,"##ude":2598,"##anken":2599,"##itt":2600,"regen":2601,"##ici":2602,"maatregelen":2603,"slachtoffer":2604,"D66":2605,"Sinds":2606,"fiets":2607,"qu":2608,"##use":2609,"kunst":2610,"hoeft":2611,"##maken":2612,"Omdat":2613,"trekken":2614,"finale":2615,"gevolgen":2616,"##bedrijf":2617,"du":2618,"dacht":2619,"trouw":2620,"##aste":2621,"##VO":2622,"##stappen":2623,"opd":2624,"bevest":2625,"vroe":2626,"wonen":2627,"##cept":2628,"speelt":2629,"publiek":2630,"risico":2631,"Zw":2632,"##rale":2633,"##ja":2634,"##oekt":2635,"voormal":2636,"daarbij":2637,"##ruari":2638,"##oemd":2639,"##ebruari":2640,"##gemaakt":2641,"Eer":2642,"mat":2643,"waarmee":2644,"Mis":2645,"duizen":2646,"##th":2647,"stikstof":2648,"aanb":2649,"behand":2650,"##plaats":2651,"##gemeester":2652,"Surin":2653,"23":2654,"Boven":2655,"februari":2656,"##oft":2657,"##ukt":2658,"leger":2659,"gevolg":2660,"CO":2661,"dro":2662,"##nog":2663,"##ule":2664,"voorzitter":2665,"##oging":2666,"gebeuren":2667,"vluchtelingen":2668,"car":2669,"lich":2670,"##geld":2671,"##middag":2672,"verwij":2673,"##houder":2674,"##eller":2675,"zware":2676,"##schappij":2677,"jullie":2678,"avond":2679,"oplossing":2680,"informatie":2681,"Ieder":2682,"Man":2683,"ee":2684,"##lever":2685,"##ague":2686,"##eeks":2687,"'.":2688,"Aj":2689,"kern":2690,"zoeken":2691,"##orgt":2692,"##verk":2693,"ij":2694,"mo":2695,"sek":2696,"##loop":2697,"##mper":2698,"deur":2699,"int":2700,"##chten":2701,"voordat":2702,"##kens":2703,"##unn":2704,"##wegen":2705,"polit":2706,"##lega":2707,"##gelegd":2708,"normaal":2709,"Frankrijk":2710,"kiezen":2711,"mer":2712,"oog":2713,"sommige":2714,"toon":2715,"##ield":2716,"##ival":2717,"##lei":2718,"##erende":2719,"leggen":2720,"premier":2721,"bepaalde":2722,"##raagd":2723,"verantwoordelijk":2724,"##ners":2725,"##aagt":2726,"##verse":2727,"ervan":2728,"volk":2729,"vertrouwen":2730,"prima":2731,"straks":2732,"Kon":2733,"gaf":2734,"vele":2735,"##iste":2736,"##ret":2737,"##prijzen":2738,"##erde":2739,"verra":2740,"stat":2741,"##ijds":2742,"autom":2743,"personen":2744,"systeem":2745,"sec":2746,"##aus":2747,"##vaart":2748,"inwoners":2749,"##aling":2750,"##apens":2751,"gezet":2752,"kinder":2753,"35":2754,"maak":2755,"pe":2756,"##stad":2757,"##ktober":2758,"zoon":2759,"##ochtend":2760,"Nederlanders":2761,"Twitter":2762,"Bar":2763,"##oden":2764,"##oze":2765,"##ames":2766,"uitb":2767,"mei":2768,"verdachte":2769,"Mark":2770,"League":2771,"##iënten":2772,"##matig":2773,"Ajax":2774,"mond":2775,"punt":2776,"raad":2777,"warm":2778,"##kk":2779,"##orie":2780,"##test":2781,"##anger":2782,"##itiek":2783,"geldt":2784,"gevallen":2785,"winst":2786,"drug":2787,"niveau":2788,"##ozen":2789,"##kracht":2790,"aank":2791,"##uik":2792,"##ruis":2793,"ontde":2794,"##own":2795,"collega":2796,"liefst":2797,"jongeren":2798,"betreft":2799,"laag":2800,"##eau":2801,"##orten":2802,"gebracht":2803,"vaker":2804,"Groen":2805,"eeuw":2806,"log":2807,"loc":2808,"oktober":2809,"##to":2810,"##rist":2811,"##beid":2812,"##centrum":2813,"##intig":2814,"stemmen":2815,"John":2816,"Misschien":2817,"Sl":2818,"cijfers":2819,"##ey":2820,"deb":2821,"##iew":2822,"stoppen":2823,"zeg":2824,"uiter":2825,"plat":2826,"liever":2827,"activ":2828,"##ologie":2829,"Cl":2830,"Tijdens":2831,"lijst":2832,"voed":2833,"##roep":2834,"##prijs":2835,"##ald":2836,"verde":2837,"##oth":2838,"##best":2839,"##ica":2840,"exper":2841,"##komt":2842,"Nog":2843,"nov":2844,"##fer":2845,"inv":2846,"##igheid":2847,"stroom":2848,"leu":2849,"##ranje":2850,"plaatsen":2851,"##iedenis":2852,"Utre":2853,"jui":2854,"pod":2855,"##enk":2856,"test":2857,"gratis":2858,"##berg":2859,"Belgische":2860,"enorme":2861,"Max":2862,"PS":2863,"gingen":2864,"san":2865,"##gst":2866,"legt":2867,"Staten":2868,"priv":2869,"rechtbank":2870,"gekregen":2871,"ministerie":2872,"hor":2873,"jouw":2874,"##ai":2875,"##oken":2876,"##cten":2877,"##bin":2878,"##oeien":2879,"##gez":2880,"##ikken":2881,"##uurd":2882,"##ime":2883,"##wezen":2884,"gevangen":2885,"##ront":2886,"contact":2887,"##gemeen":2888,"Car":2889,"des":2890,"voorlop":2891,"##uiden":2892,"trein":2893,"juli":2894,"momenteel":2895,"Utrecht":2896,"Mer":2897,"jur":2898,"neg":2899,"zorgt":2900,"##oeden":2901,"##regel":2902,"##ash":2903,"##spel":2904,"##bere":2905,"internationale":2906,"links":2907,"Verenigde":2908,"erop":2909,"fiet":2910,"##zorg":2911,"##stru":2912,"daarvan":2913,"##west":2914,"klinkt":2915,"##woordig":2916,"NAVO":2917,"november":2918,"Don":2919,"rapp":2920,"wacht":2921,"##ial":2922,"##will":2923,"##ple":2924,"inc":2925,"aandeel":2926,"onver":2927,"##raan":2928,"##heen":2929,"afstand":2930,"onderste":2931,"termijn":2932,"proberen":2933,"bus":2934,"huur":2935,"wist":2936,"oper":2937,"##raken":2938,"jeugd":2939,"reactie":2940,"##hem":2941,"slag":2942,"staats":2943,"##offen":2944,"burgers":2945,"lokale":2946,"provincie":2947,"Oost":2948,"sim":2949,"vijft":2950,"##OS":2951,"##gew":2952,"##rakt":2953,"##erend":2954,"##akte":2955,"regels":2956,"spelers":2957,"fijn":2958,"merk":2959,"##aand":2960,"ene":2961,"besm":2962,"beelden":2963,"stud":2964,"##oper":2965,"moesten":2966,"colle":2967,"Pre":2968,"uw":2969,"##aaf":2970,"##rol":2971,"waarvan":2972,"koers":2973,"sprake":2974,"Kan":2975,"doc":2976,"dieren":2977,"gast":2978,"##ije":2979,"geste":2980,"##igh":2981,"##igit":2982,"advoc":2983,"Trump":2984,"Ex":2985,"baan":2986,"delen":2987,"journ":2988,"##fens":2989,"geïn":2990,"##alt":2991,"Verder":2992,"telefoon":2993,"bieden":2994,"dom":2995,"woorden":2996,"zee":2997,"##él":2998,"gehouden":2999,"schree":3000,"tegenover":3001,"bericht":3002,"##raal":3003,"##kant":3004,"##wagen":3005,"##partij":3006,"##orst":3007,"##ubs":3008,"present":3009,"##rong":3010,"##vloed":3011,"vrienden":3012,"80":3013,"##isen":3014,"schrijft":3015,"meis":3016,"##afel":3017,"Con":3018,"doe":3019,"mass":3020,"noemen":3021,"##uig":3022,"##view":3023,"temper":3024,"webs":3025,"##apan":3026,"##isteren":3027,"##schappen":3028,"twintig":3029,"directeur":3030,"ap":3031,"aug":3032,"dik":3033,"leer":3034,"##oeld":3035,"##esse":3036,"slot":3037,"##estival":3038,"Antwerpen":3039,"veroorz":3040,"winkel":3041,"Mensen":3042,"Bovendien":3043,"lichaam":3044,"apr":3045,"bi":3046,"kaart":3047,"rijk":3048,"##ift":3049,"##ux":3050,"##water":3051,"##punten":3052,"vooruit":3053,"##rak":3054,"##tegen":3055,"overigens":3056,"##ikel":3057,"ontm":3058,"Nederlands":3059,"##gevoerd":3060,"##sych":3061,"elektrische":3062,"bevolking":3063,"vaccin":3064,"##son":3065,"##tien":3066,"##oom":3067,"##roffen":3068,"stuur":3069,"##rest":3070,"proces":3071,"##irc":3072,"woningen":3073,"burger":3074,"vliegt":3075,"CD":3076,"Cent":3077,"Eind":3078,"Mich":3079,"ab":3080,"fra":3081,"kijkt":3082,"##pakt":3083,"opvang":3084,"##leving":3085,"omgeving":3086,"resp":3087,"Afrik":3088,"Minister":3089,"iPh":3090,"april":3091,"jou":3092,"ronde":3093,"zicht":3094,"vern":3095,"##ager":3096,"bleef":3097,"##ocr":3098,"##ionele":3099,"winter":3100,"dochter":3101,"motor":3102,"december":3103,"##ef":3104,"##inder":3105,"##ats":3106,"vers":3107,"diep":3108,"##tes":3109,"leden":3110,"##spre":3111,"vlak":3112,"levens":3113,"herinn":3114,"medewerkers":3115,"Hol":3116,"Nee":3117,"bood":3118,"kregen":3119,"##tig":3120,"voldoende":3121,"economie":3122,"Tweede":3123,"Fin":3124,"ie":3125,"typ":3126,"##ppen":3127,"##urt":3128,"lezen":3129,"veiligheid":3130,"Bor":3131,"Jon":3132,"dorp":3133,"namen":3134,"##hoog":3135,"##da":3136,"insp":3137,"tek":3138,"West":3139,"2023":3140,"kennen":3141,"Vr":3142,"##lopen":3143,"##iedt":3144,"gegaan":3145,"##asse":3146,"##ersch":3147,"project":3148,"##ustus":3149,"rapport":3150,"27":3151,"fabr":3152,"pakken":3153,"##name":3154,"##itten":3155,"uitgeb":3156,"overal":3157,"##ooien":3158,"##akker":3159,"##istische":3160,"Verstappen":3161,"besluit":3162,"kwartaal":3163,"trans":3164,"beschikbaar":3165,"contract":3166,"45":3167,"Mac":3168,"pap":3169,"##kamer":3170,"##inst":3171,"##stra":3172,"##genoot":3173,"arm":3174,"koning":3175,"vierde":3176,"commun":3177,"##halen":3178,"##aap":3179,"##chen":3180,"overleden":3181,"spreken":3182,"##keken":3183,"##mans":3184,"arbeid":3185,"augustus":3186,"Hel":3187,"Har":3188,"Nou":3189,"Vor":3190,"don":3191,"loop":3192,"vre":3193,"##ware":3194,"##andid":3195,"waard":3196,"leiden":3197,"##bren":3198,"geloof":3199,"leveren":3200,"##demie":3201,"controle":3202,"verkiezingen":3203,"voorlopig":3204,"##fensie":3205,"agen":3206,"cel":3207,"rad":3208,"##azen":3209,"##anderen":3210,"daardoor":3211,"##treden":3212,"gebeurde":3213,"slachtoffers":3214,"28":3215,"Her":3216,"bre":3217,"##ielen":3218,"##lin":3219,"##delen":3220,"##ende":3221,"##iter":3222,"vertellen":3223,"##ips":3224,"Chine":3225,"geschiedenis":3226,"beleg":3227,"##scheid":3228,"##winning":3229,"Vand":3230,"digit":3231,"leren":3232,"pens":3233,"##ymp":3234,"voorzien":3235,"##osk":3236,"bedoel":3237,"##houders":3238,"Span":3239,"besliss":3240,"kennis":3241,"productie":3242,"militaire":3243,"Aust":3244,"Ger":3245,"crimin":3246,"voeren":3247,"##eeld":3248,"##ditie":3249,"volgend":3250,"hogere":3251,"voelt":3252,"juiste":3253,"Mus":3254,"band":3255,"camer":3256,"##haven":3257,"##tuigen":3258,"##vd":3259,"heet":3260,"##sport":3261,"##aagd":3262,"##ieso":3263,"##ustrie":3264,"burgemeester":3265,"##serv":3266,"##useum":3267,"fout":3268,"##kw":3269,"##by":3270,"##ère":3271,"##ijl":3272,"##ake":3273,"kleur":3274,"verloren":3275,"interess":3276,"Onze":3277,"beroep":3278,"waarschuw":3279,"trainer":3280,"leeftijd":3281,"Meer":3282,"voelen":3283,"##lig":3284,"##lijn":3285,"##ermen":3286,"##eloos":3287,"##gesch":3288,"reis":3289,"leider":3290,"##ranten":3291,"samenleving":3292,"##nemer":3293,"##owieso":3294,"advies":3295,"actief":3296,"zonne":3297,"allerlei":3298,"Mart":3299,"Sy":3300,"dub":3301,"post":3302,"tv":3303,"##loos":3304,"##dra":3305,"##leggen":3306,"##wedst":3307,"slim":3308,"##reekt":3309,"iedere":3310,"Hoewel":3311,"brandweer":3312,"financiële":3313,"honderd":3314,"##ting":3315,"##uut":3316,"##olang":3317,"##ammer":3318,"Ind":3319,"tegenwoordig":3320,"begonnen":3321,"sneller":3322,"praten":3323,"##ance":3324,"antwoord":3325,"immers":3326,"iPhone":3327,"26":3328,"huizen":3329,"hyp":3330,"##ona":3331,"##sproken":3332,"##rukt":3333,"wilt":3334,"sluiten":3335,"vrijwill":3336,"##groep":3337,"liep":3338,"lastig":3339,"asielzoekers":3340,"noemt":3341,"##standigheden":3342,"video":3343,"Pa":3344,"kamer":3345,"##iaanse":3346,"##sb":3347,"##inc":3348,"##inken":3349,"##ieken":3350,"##iti":3351,"invloed":3352,"teken":3353,"verleden":3354,"beper":3355,"stappen":3356,"werknemers":3357,"samenwerking":3358,"belangrijkste":3359,"##rypt":3360,"##staande":3361,"economische":3362,"##iversiteit":3363,"60":3364,"dak":3365,"geg":3366,"versie":3367,"bezoek":3368,"mening":3369,"betaal":3370,"##gebied":3371,"Vlaan":3372,"##mming":3373,"Antwerp":3374,"bouwen":3375,"producten":3376,"trouwens":3377,"reed":3378,"##her":3379,"schuld":3380,"volgt":3381,"##gebouw":3382,"geraakt":3383,"##bureau":3384,"pensioen":3385,"Austral":3386,"Vlaanderen":3387,"70":3388,"Fl":3389,"Ser":3390,"Tour":3391,"at":3392,"kampioen":3393,"prakt":3394,"tal":3395,"veld":3396,"viel":3397,"##du":3398,"##stoot":3399,"##okken":3400,"alsnog":3401,"Inst":3402,"gewonnen":3403,"verkoop":3404,"gemeenten":3405,"##ommissie":3406,"Air":3407,"Naast":3408,"Wer":3409,"wapens":3410,"##hoven":3411,"##kelijk":3412,"##ande":3413,"##inderen":3414,"##sluit":3415,"kwaliteit":3416,"Daarmee":3417,"verkopen":3418,"koff":3419,"##stellingen":3420,"Nederlander":3421,"drugs":3422,"Ad":3423,"Rijk":3424,"mon":3425,"name":3426,"psych":3427,"##ile":3428,"##iest":3429,"##derheid":3430,"##aker":3431,"kwijt":3432,"##abel":3433,"##ationaal":3434,"ongeluk":3435,"Eerder":3436,"Iedereen":3437,"Bur":3438,"Cor":3439,"Haar":3440,"Laat":3441,"tafel":3442,"##kers":3443,"##ieven":3444,"##ieve":3445,"##ampen":3446,"##beh":3447,"##sluiten":3448,"bloed":3449,"verkocht":3450,"199":3451,"##oemde":3452,"indruk":3453,"race":3454,"ervaring":3455,"Pol":3456,"dw":3457,"##duc":3458,"##zin":3459,"opmerk":3460,"##aalf":3461,"vraagt":3462,"extr":3463,"##grond":3464,"Arn":3465,"positief":3466,"middel":3467,"cultuur":3468,"pot":3469,"pass":3470,"##eent":3471,"verbl":3472,"altern":3473,"beveilig":3474,"aang":3475,"schrijven":3476,"##spro":3477,"anal":3478,"And":3479,"hoogste":3480,"##plaatst":3481,"New":3482,"ontmoet":3483,"biedt":3484,"sele":3485,"titel":3486,"##ga":3487,"##ose":3488,"##zing":3489,"##zame":3490,"##yn":3491,"##iev":3492,"##eep":3493,"##oudig":3494,"omzet":3495,"sluit":3496,"expl":3497,"interview":3498,"wand":3499,"winn":3500,"##etter":3501,"defin":3502,"##stal":3503,"##ones":3504,"##ales":3505,"##less":3506,"##amb":3507,"schoon":3508,"scherm":3509,"##spraken":3510,"gemeent":3511,"bedrag":3512,"sector":3513,"behoor":3514,"zomaar":3515,"parlement":3516,"militair":3517,"Pas":3518,"ding":3519,"dragen":3520,"not":3521,"rug":3522,"sowieso":3523,"twijf":3524,"##druk":3525,"voorbeeld":3526,"bewoners":3527,"##olle":3528,"onderhand":3529,"##oofd":3530,"##ampag":3531,"bescherm":3532,"##obil":3533,"aandelen":3534,"artikel":3535,"merken":3536,"Mil":3537,"OM":3538,"Oranje":3539,"dur":3540,"lijken":3541,"mar":3542,"##ijven":3543,"stonden":3544,"##icatie":3545,"Daarbij":3546,"vrije":3547,"verwachten":3548,"vergeten":3549,"appar":3550,"draaien":3551,"dankzij":3552,"90":3553,"Biden":3554,"Wille":3555,"Zaken":3556,"##ict":3557,"##umenten":3558,"##zer":3559,"##wacht":3560,"##aardig":3561,"veranderen":3562,"##inger":3563,"aant":3564,"afhankelijk":3565,"Daarna":3566,"vertelde":3567,"##diensten":3568,"##coach":3569,"##langs":3570,"lager":3571,"verplicht":3572,"daad":3573,"gang":3574,"##elaar":3575,"##oest":3576,"##leet":3577,"##kennen":3578,"##ace":3579,"werkge":3580,"##volle":3581,"Vooral":3582,"orde":3583,"bewust":3584,"voedsel":3585,"##otheek":3586,"website":3587,"29":3588,"Pr":3589,"crisis":3590,"leek":3591,"rak":3592,"veert":3593,"##go":3594,"##ogelijke":3595,"##otte":3596,"rep":3597,"betere":3598,"toegang":3599,"speelde":3600,"Turk":3601,"vroeger":3602,"##westie":3603,"##ubsid":3604,"Fey":3605,"abs":3606,"leeg":3607,"##iders":3608,"##ormen":3609,"aanget":3610,"##verh":3611,"##schak":3612,"##pport":3613,"aangehouden":3614,"##acties":3615,"gebeurd":3616,"brengt":3617,"gemiddelde":3618,"Zelfs":3619,"Vlaamse":3620,"Suriname":3621,"75":3622,"Kaag":3623,"Vrij":3624,"crypt":3625,"fans":3626,"gar":3627,"hoort":3628,"##iken":3629,"##raad":3630,"##cu":3631,"##voudig":3632,"##oorten":3633,"##denken":3634,"stop":3635,"alsof":3636,"gevraagd":3637,"bedre":3638,"brief":3639,"Volks":3640,"wetenschapp":3641,"##komsten":3642,"halve":3643,"concur":3644,"PSV":3645,"definitie":3646,"Lim":3647,"Sint":3648,"form":3649,"hot":3650,"hield":3651,"##haald":3652,"##ette":3653,"##elaars":3654,"##arten":3655,"algemeen":3656,"voorbere":3657,"bezoekers":3658,"##ike":3659,"##ikte":3660,"##istor":3661,"gewone":3662,"autor":3663,"plekken":3664,"berichten":3665,"simpel":3666,"Red":3667,"ke":3668,"mater":3669,"past":3670,"##err":3671,"opzicht":3672,"##ijnt":3673,"##spl":3674,"wilden":3675,"##iër":3676,"##hout":3677,"prest":3678,"bovendien":3679,"verzam":3680,"model":3681,"extreem":3682,"derg":3683,"oef":3684,"pijn":3685,"zak":3686,"##richt":3687,"##feer":3688,"##onn":3689,"gec":3690,"zogen":3691,"##akers":3692,"angst":3693,"##iciteit":3694,"werkelijk":3695,"##weging":3696,"kritiek":3697,"duurder":3698,"Chinese":3699,"Ber":3700,"Put":3701,"hang":3702,"kerst":3703,"raakte":3704,"tuin":3705,"##gaat":3706,"##aw":3707,"##kond":3708,"##etitie":3709,"##straf":3710,"initi":3711,"tegelijk":3712,"##ish":3713,"afd":3714,"##pens":3715,"gezin":3716,"gelukkig":3717,"hoofdst":3718,"##vinden":3719,"ondanks":3720,"Feyen":3721,"Bo":3722,"bier":3723,"pracht":3724,"##gress":3725,"##zi":3726,"##ane":3727,"##etjes":3728,"##atisch":3729,"inten":3730,"gecon":3731,"verzeker":3732,"onaf":3733,"##oogle":3734,"vermoed":3735,"krant":3736,"wedstrijden":3737,"functie":3738,"maximaal":3739,"qua":3740,"opdracht":3741,"Ab":3742,"Jong":3743,"Ten":3744,"boet":3745,"gisteren":3746,"kandid":3747,"rode":3748,"tijden":3749,"##huizen":3750,"##wassen":3751,"##eters":3752,"inkomen":3753,"inclus":3754,"##illen":3755,"meerderheid":3756,"##brand":3757,"ontstaan":3758,"##aby":3759,"##ustitie":3760,"##ivisie":3761,"##tallen":3762,"negen":3763,"levert":3764,"diverse":3765,"Even":3766,"Rob":3767,"##toe":3768,"##ruim":3769,"##mmen":3770,"##uff":3771,"##baan":3772,"##past":3773,"gef":3774,"opp":3775,"data":3776,"sturen":3777,"##ream":3778,"##oke":3779,"omhoog":3780,"ontvangen":3781,"cons":3782,"moeite":3783,"eindelijk":3784,"gegevens":3785,"Terwijl":3786,"sancties":3787,"schreef":3788,"Sa":3789,"Zou":3790,"bang":3791,"bracht":3792,"hopen":3793,"##ior":3794,"##oond":3795,"##md":3796,"##enten":3797,"##atische":3798,"##onk":3799,"gesl":3800,"verlen":3801,"##outen":3802,"leg":3803,"jaarlijk":3804,"toern":3805,"combin":3806,"mogelijkheid":3807,"besloten":3808,"liefde":3809,"internet":3810,"##ieuze":3811,"gemiddeld":3812,"politici":3813,"Paul":3814,"Ph":3815,"Tim":3816,"Wanneer":3817,"zagen":3818,"##iam":3819,"##ole":3820,"##zak":3821,"##inter":3822,"##eekt":3823,"##oei":3824,"##repen":3825,"schil":3826,"genoemd":3827,"buitenland":3828,"grotere":3829,"patiënten":3830,"##beleid":3831,"nauwelijks":3832,"Feyenoord":3833,"Berg":3834,"Google":3835,"Or":3836,"bos":3837,"circ":3838,"hy":3839,"mogelijke":3840,"richt":3841,"wapen":3842,"witte":3843,"##lijst":3844,"##vast":3845,"##atar":3846,"optie":3847,"##oeder":3848,"##teken":3849,"nogal":3850,"##iere":3851,"waaronder":3852,"##ement":3853,"##bert":3854,"##werkt":3855,"verliezen":3856,"##ariant":3857,"ouder":3858,"stev":3859,"centrum":3860,"groeien":3861,"demon":3862,"voormalige":3863,"NL":3864,"Tes":3865,"##zijn":3866,"##bers":3867,"##bond":3868,"##elk":3869,"##stro":3870,"##arden":3871,"##ley":3872,"bekende":3873,"##eelden":3874,"##achtig":3875,"benad":3876,"##ippen":3877,"terugk":3878,"Char":3879,"##reep":3880,"onderzoekers":3881,"passen":3882,"##eurs":3883,"relatie":3884,"Gelukkig":3885,"gezondheid":3886,"verdedig":3887,"gevangenis":3888,"Willem":3889,"Japan":3890,"Kort":3891,"ass":3892,"nationale":3893,"roep":3894,"##lingen":3895,"##wijd":3896,"##erkt":3897,"gede":3898,"##dent":3899,"onderdeel":3900,"##vester":3901,"kwal":3902,"eigenaar":3903,"gezicht":3904,"##iphol":3905,"geloven":3906,"helpt":3907,"Sport":3908,"miljoenen":3909,"gesteld":3910,"gesproken":3911,"twaalf":3912,"##sterse":3913,"##tegenwoord":3914,"Natuur":3915,"Sm":3916,"vis":3917,"zul":3918,"##gra":3919,"##tro":3920,"##kr":3921,"voordeel":3922,"##idu":3923,"protest":3924,"compl":3925,"Europees":3926,"bepaald":3927,"regelmatig":3928,"ontwikkeling":3929,"Gelder":3930,"##organisatie":3931,"Qu":3932,"emot":3933,"goud":3934,"ol":3935,"wen":3936,"##mers":3937,"##orn":3938,"invest":3939,"tev":3940,"##ooft":3941,"##ocratie":3942,"##ions":3943,"zwem":3944,"Marokk":3945,"gekozen":3946,"Schiphol":3947,"relatief":3948,"groei":3949,"platform":3950,"Vandaag":3951,"Dr":3952,"zoekt":3953,"##han":3954,"##dit":3955,"##kte":3956,"##chtend":3957,"versl":3958,"jezelf":3959,"vrijheid":3960,"##ividu":3961,"Zoals":3962,"helaas":3963,"verbeter":3964,"##rière":3965,"product":3966,"geheel":3967,"locatie":3968,"podium":3969,"Spanje":3970,"Musk":3971,"##wedstrijd":3972,"##ampagne":3973,"Ga":3974,"Pvd":3975,"bar":3976,"kwestie":3977,"lach":3978,"sign":3979,"virus":3980,"##laag":3981,"##vis":3982,"##woon":3983,"##ijen":3984,"deden":3985,"##inke":3986,"##stoffen":3987,"overwinning":3988,"wellicht":3989,"onderwijs":3990,"leiding":3991,"hoef":3992,"zwart":3993,"2018":3994,"doden":3995,"bestuurder":3996,"sprak":3997,"coach":3998,"uiteraard":3999,"beslissing":4000,"selectie":4001,"behoorlijk":4002,"32":4003,"Can":4004,"aarde":4005,"bot":4006,"il":4007,"kent":4008,"keren":4009,"kerk":4010,"lijn":4011,"melden":4012,"optreden":4013,"wegens":4014,"##ctuur":4015,"##rukken":4016,"##rib":4017,"jongen":4018,"jongens":4019,"effect":4020,"Konink":4021,"horec":4022,"Polen":4023,"fact":4024,"moord":4025,"ochtend":4026,"##inden":4027,"##oorlog":4028,"##omb":4029,"##uss":4030,"blauw":4031,"Zeker":4032,"geluid":4033,"##anning":4034,"ingezet":4035,"stijging":4036,"verdienen":4037,"generatie":4038,"300":4039,"Nad":4040,"eisen":4041,"wijk":4042,"##duizen":4043,"##ael":4044,"##rip":4045,"##zier":4046,"##eth":4047,"##stijds":4048,"tekort":4049,"erbij":4050,"##asie":4051,"spreekt":4052,"##arts":4053,"tegenst":4054,"verhalen":4055,"besloot":4056,"##bedrijven":4057,"sterke":4058,"concurr":4059,"toernooi":4060,"?”":4061,"Binnen":4062,"hoopt":4063,"loon":4064,"ner":4065,"ton":4066,"##cel":4067,"##yl":4068,"##BS":4069,"gepro":4070,"##alitie":4071,"##igingen":4072,"##verb":4073,"##gek":4074,"##rap":4075,"afscheid":4076,"dagelijks":4077,"gelegen":4078,"##vallend":4079,"Tegen":4080,"##aliseren":4081,"Italië":4082,"serieus":4083,"Soms":4084,"duren":4085,"heer":4086,"subsid":4087,"##uwe":4088,"##heb":4089,"doorgaan":4090,"##istisch":4091,"##ioneel":4092,"hoeven":4093,"vlag":4094,"apps":4095,"strateg":4096,"blijkbaar":4097,"compleet":4098,"Unie":4099,"besmett":4100,"respect":4101,"Qatar":4102,"banken":4103,"##izen":4104,"##kel":4105,"##zo":4106,"##ertijd":4107,"ges":4108,"gesloten":4109,"alweer":4110,"##ids":4111,"mail":4112,"##gericht":4113,"gebrek":4114,"vormen":4115,"gehaald":4116,"meestal":4117,"record":4118,"BM":4119,"Col":4120,"akk":4121,"det":4122,"##vrij":4123,"##vorm":4124,"##ete":4125,"ineens":4126,"##verl":4127,"##gekomen":4128,"##ogel":4129,"##rijpen":4130,"##school":4131,"vreem":4132,"vrijwel":4133,"##udget":4134,"Christ":4135,"wijze":4136,"2017":4137,"##club":4138,"individu":4139,"etc":4140,"seksu":4141,"Merce":4142,"advocaat":4143,"Wereld":4144,"Tesla":4145,"code":4146,"pak":4147,"##hof":4148,"##honderd":4149,"##ork":4150,"##atr":4151,"##stige":4152,"##arken":4153,"##iland":4154,"onlangs":4155,"##ott":4156,"##oude":4157,"##iment":4158,"##ruc":4159,"totale":4160,"consu":4161,"zwarte":4162,"binnenkort":4163,"steden":4164,"industrie":4165,"##iënt":4166,"speciale":4167,"##ologische":4168,"zette":4169,"standaard":4170,"impact":4171,"voorsprong":4172,"populair":4173,"status":4174,"temperatuur":4175,"hangt":4176,"PvdA":4177,"consumenten":4178,"Nij":4179,"Se":4180,"boeken":4181,"honder":4182,"sal":4183,"sold":4184,"##cus":4185,"##zel":4186,"##vrouw":4187,"##eraad":4188,"##aarde":4189,"stro":4190,"uitzonder":4191,"##jecten":4192,"gewerkt":4193,"##stens":4194,"genieten":4195,"##avor":4196,"eventu":4197,"geschreven":4198,"rijdt":4199,"##waarden":4200,"decenn":4201,"profess":4202,"gestegen":4203,"meisje":4204,"absol":4205,"hoofdstad":4206,"Mercedes":4207,"Alex":4208,"Kom":4209,"Kun":4210,"baby":4211,"morgen":4212,"mark":4213,"vracht":4214,"##oers":4215,"##wet":4216,"##elle":4217,"invester":4218,"omstandigheden":4219,"ondernemers":4220,"spoor":4221,"##elling":4222,"##rend":4223,"2014":4224,"vermogen":4225,"beperk":4226,"gebruikers":4227,"coalitie":4228,"Brab":4229,"groene":4230,"ondersteun":4231,"CDA":4232,"Afrika":4233,"31":4234,"400":4235,"Mosk":4236,"Noor":4237,"Will":4238,"histor":4239,"wiss":4240,"##mb":4241,"##pe":4242,"##park":4243,"verspre":4244,"##ussie":4245,"zege":4246,"##uister":4247,"milieu":4248,"##orgd":4249,"verdachten":4250,"Ond":4251,"verwachting":4252,"##waarde":4253,"advis":4254,"speler":4255,"minuut":4256,"voorbije":4257,"pandemie":4258,"Ferr":4259,"Sc":4260,"lees":4261,"raak":4262,"wit":4263,"zanger":4264,"##lecht":4265,"##verg":4266,"onm":4267,"##rab":4268,"##gels":4269,"kwets":4270,"##afé":4271,"geluk":4272,"Amerika":4273,"duurt":4274,"gericht":4275,"organisaties":4276,"centrale":4277,"##ectief":4278,"Parijs":4279,"officieel":4280,"leidt":4281,"duizenden":4282,"Ba":4283,"Form":4284,"God":4285,"Ke":4286,"Kijk":4287,"Peter":4288,"VA":4289,"Wor":4290,"fr":4291,"haalt":4292,"li":4293,"taal":4294,"##ih":4295,"##aders":4296,"##wiss":4297,"##woorden":4298,"inval":4299,"opgel":4300,"##gezet":4301,"##gegeven":4302,"Dem":4303,"##ouden":4304,"Alles":4305,"bedoeld":4306,"##ukken":4307,"geboren":4308,"##inks":4309,"Oekraïners":4310,"openbaar":4311,"Denk":4312,"filmp":4313,"persoonlijk":4314,"creë":4315,"Eindhoven":4316,"camera":4317,"gemeenteraad":4318,"Samen":4319,"haven":4320,"ment":4321,"##aver":4322,"##visie":4323,"##VV":4324,"eenmaal":4325,"geë":4326,"eerlijk":4327,"##odel":4328,"werkte":4329,"##werker":4330,"Leiden":4331,"Grote":4332,"##ondscoach":4333,"modellen":4334,"duizend":4335,"##retaris":4336,"daadwerk":4337,"Fac":4338,"Mon":4339,"twe":4340,"wél":4341,"##kampioen":4342,"##30":4343,"destijds":4344,"vanavond":4345,"ent":4346,"##dex":4347,"##tegr":4348,"schiet":4349,"##utt":4350,"##icro":4351,"##asten":4352,"Staat":4353,"Stad":4354,"aangekond":4355,"deelnemers":4356,"probeert":4357,"##middel":4358,"tientallen":4359,"brandstof":4360,"##tuig":4361,"##unning":4362,"studie":4363,"digitale":4364,"opzichte":4365,"Kiev":4366,"TV":4367,"Zelen":4368,"poging":4369,"rit":4370,"trek":4371,"war":4372,"##pan":4373,"##PO":4374,"##onie":4375,"##genoten":4376,"##oeker":4377,"##aringen":4378,"##ario":4379,"##lein":4380,"stelde":4381,"zoiets":4382,"ondertussen":4383,"daarop":4384,"##wekken":4385,"confl":4386,"restaur":4387,"vriendin":4388,"feiten":4389,"##auto":4390,"ziekte":4391,"toont":4392,"uitgebre":4393,"Limburg":4394,"roept":4395,"akkoord":4396,"Zelensk":4397,"Bos":4398,"Dav":4399,"Mag":4400,"baas":4401,"liter":4402,"raken":4403,"##oorde":4404,"vervangen":4405,"##anda":4406,"##opelijk":4407,"##agram":4408,"uitspraak":4409,"word":4410,"##ction":4411,"##istr":4412,"kansen":4413,"##ieuwd":4414,"betaald":4415,"gren":4416,"Daardoor":4417,"##uidt":4418,"vertrekken":4419,"Vanaf":4420,"##iviteit":4421,"trekt":4422,"persoonlijke":4423,"middag":4424,"technologie":4425,"troepen":4426,"##ight":4427,"Putin":4428,"City":4429,"Hong":4430,"Moet":4431,"Uite":4432,"dier":4433,"hangen":4434,"tent":4435,"wagen":4436,"wint":4437,"##ipp":4438,"##dige":4439,"##stemming":4440,"##bewijs":4441,"verlaten":4442,"197":4443,"##waardig":4444,"stukje":4445,"specif":4446,"##atting":4447,"rustig":4448,"##halve":4449,"reageren":4450,"tekst":4451,"Uiteindelijk":4452,"Gent":4453,"Oosten":4454,"Su":4455,"bak":4456,"kro":4457,"##nacht":4458,"##cast":4459,"##voeren":4460,"geve":4461,"geplaatst":4462,"opvol":4463,"testen":4464,"##ilige":4465,"##rem":4466,"##rekt":4467,"##oenen":4468,"zwak":4469,"##voering":4470,"##ebook":4471,"trots":4472,"resultaat":4473,"updat":4474,"veroorzaakt":4475,"dergelijke":4476,"nergens":4477,"Ondanks":4478,"Ferrari":4479,"Aut":4480,"Del":4481,"Dank":4482,"Port":4483,"US":4484,"boer":4485,"##bak":4486,"##wa":4487,"veren":4488,"aanzien":4489,"##oute":4490,"westen":4491,"overeen":4492,"##uwen":4493,"##utie":4494,"conclus":4495,"##wijzen":4496,"##oegd":4497,"mogelijkheden":4498,"gehoord":4499,"##gebracht":4500,"diensten":4501,"Italiaanse":4502,"kapot":4503,"invasie":4504,"leuke":4505,"BMW":4506,"honderden":4507,"Moskou":4508,"Buiten":4509,"Rem":4510,"kruis":4511,"out":4512,"th":4513,"uren":4514,"wisten":4515,"##si":4516,"##sd":4517,"##jarige":4518,"ing":4519,"voorstellen":4520,"##kent":4521,"##unde":4522,"uitzen":4523,"##tent":4524,"wegen":4525,"westerse":4526,"##schot":4527,"##iend":4528,"aflever":4529,"##imm":4530,"gewond":4531,"slapen":4532,"##ublie":4533,"##houding":4534,"gedacht":4535,"boom":4536,"vlees":4537,"perf":4538,"##ergie":4539,"verloor":4540,"wijst":4541,"plezier":4542,"coronav":4543,"slechte":4544,"maatschappij":4545,"vliegen":4546,"bijzondere":4547,"begrijp":4548,"agenten":4549,"beperkt":4550,"Naar":4551,"budget":4552,"editie":4553,"##vr":4554,"##wink":4555,"##EN":4556,"##iteren":4557,"##oes":4558,"##igratie":4559,"beurs":4560,"##oloog":4561,"##oetbal":4562,"welkom":4563,"##ouwen":4564,"gezell":4565,"eerdere":4566,"afgesloten":4567,"Isra":4568,"Overigens":4569,"draait":4570,"verklaring":4571,"elektriciteit":4572,"incident":4573,"Arnhem":4574,"Formule":4575,"Facebook":4576,"36":4577,"Eigen":4578,"Kar":4579,"Sommige":4580,"Tom":4581,"festival":4582,"go":4583,"reeks":4584,"vaste":4585,"##iro":4586,"##ling":4587,"##ote":4588,"inzet":4589,"##ise":4590,"##geh":4591,"##reet":4592,"eruit":4593,"recl":4594,"##ada":4595,"scher":4596,"Intern":4597,"minimaal":4598,"toer":4599,"##houdt":4600,"##wereld":4601,"Russisch":4602,"gesprekken":4603,"Frans":4604,"bereid":4605,"Gewoon":4606,"luchthaven":4607,"show":4608,"onderzoeken":4609,"supermarkt":4610,"gebouwd":4611,"carrière":4612,"activiteiten":4613,"privé":4614,"vijftien":4615,"Instagram":4616,"Bart":4617,"Had":4618,"Heeft":4619,"Med":4620,"Sam":4621,"Wal":4622,"favor":4623,"nee":4624,"##ep":4625,"##gas":4626,"##hi":4627,"##ror":4628,"##rid":4629,"##atter":4630,"gekeken":4631,"##alisten":4632,"erger":4633,"##icus":4634,"volks":4635,"tijdje":4636,"netwerk":4637,"wereldwijd":4638,"snelheid":4639,"Watch":4640,"dertig":4641,"##ovid":4642,"##cohol":4643,"bewol":4644,"bereiken":4645,"bestaande":4646,"begrijpen":4647,"ernstig":4648,"journalist":4649,"Brabant":4650,"Val":4651,"aft":4652,"droom":4653,"toet":4654,"##down":4655,"##ël":4656,"versn":4657,"stel":4658,"station":4659,"##opvang":4660,"uitdag":4661,"##schop":4662,"volwassen":4663,"plots":4664,"klachten":4665,"const":4666,"toege":4667,"drinken":4668,"exp":4669,"excus":4670,"##med":4671,"198":4672,"coronac":4673,"##appe":4674,"flinke":4675,"##maatschappij":4676,"resultaten":4677,"college":4678,"explos":4679,"37":4680,"Eén":4681,"Land":4682,"Rad":4683,"bru":4684,"hers":4685,"id":4686,"live":4687,"tel":4688,"##ius":4689,"##lers":4690,"##50":4691,"##ors":4692,"inz":4693,"uitstoot":4694,"##sector":4695,"##schijnlijk":4696,"schad":4697,"scholen":4698,"vertrek":4699,"plaatse":4700,"jarenlang":4701,"beschermen":4702,"huishouden":4703,"##auff":4704,"bedrijfs":4705,"draagt":4706,"woont":4707,"ambitie":4708,"democratie":4709,"smart":4710,"vergelijking":4711,"discussie":4712,"aanbod":4713,"seconden":4714,"fietsen":4715,"interessant":4716,"winnaar":4717,"daadwerkelijk":4718,"grenzen":4719,"Bank":4720,"Huis":4721,"Per":4722,"Raad":4723,"Sn":4724,"feder":4725,"goe":4726,"km":4727,"leef":4728,"lukt":4729,"neder":4730,"ob":4731,"##va":4732,"##waard":4733,"##ith":4734,"vooraf":4735,"##isse":4736,"##ommen":4737,"begele":4738,"landbouw":4739,"##count":4740,"vuurwerk":4741,"Vlaams":4742,"droog":4743,"dikke":4744,"vliegtuig":4745,"koffie":4746,"boete":4747,"Jul":4748,"Li":4749,"Vit":4750,"Was":4751,"bondscoach":4752,"em":4753,"len":4754,"lage":4755,"wiel":4756,"##kan":4757,"##pag":4758,"##NV":4759,"##enario":4760,"vanzelf":4761,"##ara":4762,"alcohol":4763,"##lem":4764,"##scherm":4765,"##elend":4766,"##kering":4767,"minstens":4768,"verlies":4769,"verboden":4770,"##rijding":4771,"stads":4772,"brood":4773,"##ockdown":4774,"bekijken":4775,"##ificatie":4776,"donker":4777,"##incip":4778,"inclusief":4779,"33":4780,"Jer":4781,"La":4782,"che":4783,"dra":4784,"fig":4785,"hum":4786,"##ugen":4787,"##crisis":4788,"##anne":4789,"##aaien":4790,"##stap":4791,"##station":4792,"##aarten":4793,"##iete":4794,"##outer":4795,"##stemen":4796,"##aagde":4797,"terrein":4798,"##braak":4799,"klant":4800,"werkzaam":4801,"arg":4802,"herstel":4803,"##izigers":4804,"steken":4805,"##handel":4806,"maatschapp":4807,"acteur":4808,"ongeval":4809,"##rechten":4810,"Mech":4811,"trok":4812,"##raaf":4813,"linkse":4814,"voertuig":4815,"goedkoper":4816,"duel":4817,"excuses":4818,"Gra":4819,"Piet":4820,"agress":4821,"gun":4822,"ident":4823,"zuid":4824,"##gingen":4825,"##uy":4826,"##cle":4827,"##zil":4828,"##wen":4829,"eenvoudig":4830,"##ingers":4831,"bese":4832,"##sec":4833,"overd":4834,"##gelaten":4835,"Westen":4836,"##eltje":4837,"verdacht":4838,"princip":4839,"misd":4840,"bepalen":4841,"melding":4842,"Groot":4843,"voormalig":4844,"##oftware":4845,"Holland":4846,"##pporters":4847,"combinatie":4848,"Bull":4849,"Doe":4850,"Gen":4851,"Hoog":4852,"NPO":4853,"Ts":4854,"Wh":4855,"cy":4856,"hond":4857,"ker":4858,"kond":4859,"mor":4860,"rook":4861,"variant":4862,"zolang":4863,"##ham":4864,"##kosten":4865,"##ced":4866,"##pol":4867,"##ino":4868,"intussen":4869,"gepl":4870,"##leur":4871,"aanm":4872,"##vert":4873,"##erse":4874,"overleg":4875,"overtu":4876,"schak":4877,"ontst":4878,"gemakkelijk":4879,"verkeerde":4880,"kleding":4881,"##ational":4882,"##ifte":4883,"geschikt":4884,"getroffen":4885,"competitie":4886,"stijgen":4887,"positieve":4888,"Johan":4889,"control":4890,"moder":4891,"beleggers":4892,"##ympische":4893,"oefen":4894,"Phil":4895,"Koninkrijk":4896,"soldaten":4897,"conflict":4898,"99":4899,"Commissie":4900,"EK":4901,"EC":4902,"bomen":4903,"jammer":4904,"letter":4905,"mob":4906,"rui":4907,"sfeer":4908,"tank":4909,"##meer":4910,"##ini":4911,"##oorn":4912,"opgenomen":4913,"steeg":4914,"##ures":4915,"##rechter":4916,"##amers":4917,"##opp":4918,"##aans":4919,"##uwelijk":4920,"##ney":4921,"snap":4922,"beschuldig":4923,"buitenlandse":4924,"gespeeld":4925,"150":4926,"rekenen":4927,"teleur":4928,"##redivisie":4929,"veroordeeld":4930,"maxim":4931,"verrassen":4932,"debat":4933,"Club":4934,"initiatief":4935,"aangekondigd":4936,"38":4937,"?’":4938,"AD":4939,"Bro":4940,"Gem":4941,"Kui":4942,"Londen":4943,"Ren":4944,"foc":4945,"hom":4946,"hoek":4947,"kat":4948,"lied":4949,"rele":4950,"rood":4951,"vonden":4952,"##net":4953,"inkomsten":4954,"##verlen":4955,"##apac":4956,"schieten":4957,"spullen":4958,"##inding":4959,"blik":4960,"klap":4961,"##ekker":4962,"acties":4963,"##vereniging":4964,"functies":4965,"hoeveelheid":4966,"officiële":4967,"CO2":4968,"ijs":4969,"##ferentie":4970,"bedoeling":4971,"hotel":4972,"autoriteiten":4973,"Dijk":4974,"FI":4975,"Ma":4976,"RT":4977,"haal":4978,"noord":4979,"roepen":4980,"wens":4981,"##ute":4982,"##vak":4983,"##EC":4984,"##que":4985,"##inse":4986,"verzoek":4987,"##ama":4988,"##aseerd":4989,"##ooster":4990,"doordat":4991,"onth":4992,"slaan":4993,"komst":4994,"2024":4995,"verhoog":4996,"Spelen":4997,"Spaanse":4998,"verschillen":4999,"medische":5000,"negent":5001,"Elke":5002,"zorgde":5003,"redenen":5004,"vlieg":5005,"zichtbaar":5006,"fabriek":5007,"Helaas":5008,"restaurant":5009,"Brug":5010,"Ed":5011,"Heel":5012,"Kro":5013,"bond":5014,"banden":5015,"doss":5016,"gooien":5017,"harde":5018,"lux":5019,"lockdown":5020,"tab":5021,"zuiden":5022,"##hoek":5023,"##ring":5024,"##yse":5025,"##ER":5026,"##ieur":5027,"##allen":5028,"##ras":5029,"##uiven":5030,"##eelt":5031,"##ulden":5032,"##bergen":5033,"elf":5034,"tijdelijk":5035,"Anders":5036,"onzeker":5037,"geleid":5038,"##obby":5039,"##lay":5040,"opgepakt":5041,"bereikt":5042,"complex":5043,"##systeem":5044,"verdwijnen":5045,"leidde":5046,"behandeling":5047,"negatieve":5048,"##beheer":5049,"alternatief":5050,"Natuurlijk":5051,"horeca":5052,"detail":5053,"##panelen":5054,"Beg":5055,"Jum":5056,"pad":5057,"sol":5058,"wijn":5059,"##gro":5060,"##hel":5061,"##rd":5062,"##kap":5063,"##band":5064,"##LM":5065,"deal":5066,"enig":5067,"##oeid":5068,"stren":5069,"starten":5070,"##ild":5071,"ermee":5072,"reizen":5073,"waarna":5074,"spannen":5075,"##isters":5076,"##ics":5077,"##geroepen":5078,"klopt":5079,"slaap":5080,"prem":5081,"##udi":5082,"Champ":5083,"corre":5084,"beslag":5085,"krit":5086,"##adering":5087,"oosten":5088,"kantoor":5089,"veiligheids":5090,"avonds":5091,"##namelijk":5092,"Brazil":5093,"onduidelijk":5094,"uitbre":5095,"Vorig":5096,"Antwerpse":5097,"tevreden":5098,"Em":5099,"Tele":5100,"soorten":5101,"##hang":5102,"##fil":5103,"##publ":5104,"deels":5105,"deuren":5106,"index":5107,"##dering":5108,"##alve":5109,"voorstel":5110,"beurt":5111,"stof":5112,"##ges":5113,"##ogels":5114,"Defensie":5115,"##ung":5116,"weder":5117,"afw":5118,"Inmiddels":5119,"daarin":5120,"voldoen":5121,"##odige":5122,"##ited":5123,"toeval":5124,"bene":5125,"##eltjes":5126,"##ochten":5127,"wereldkampioen":5128,"aangepast":5129,"##agement":5130,"amper":5131,"redelijk":5132,"onderzocht":5133,"Engeland":5134,"partner":5135,"Ministerie":5136,"Baud":5137,"##ublieke":5138,"Jumbo":5139,"Achter":5140,"Luc":5141,"Mc":5142,"Sim":5143,"boos":5144,"front":5145,"haalde":5146,"kar":5147,"pen":5148,"set":5149,"tonen":5150,"zaten":5151,"€™":5152,"##lam":5153,"##zinn":5154,"verzet":5155,"vertegenwoord":5156,"alvast":5157,"##vens":5158,"uitgevoerd":5159,"##schrijden":5160,"zover":5161,"##ukte":5162,"##eemt":5163,"##rans":5164,"##baarheid":5165,"rondom":5166,"behalve":5167,"oudere":5168,"vechten":5169,"##rift":5170,"##mmers":5171,"##uisteren":5172,"vandaan":5173,"volledige":5174,"training":5175,"voelde":5176,"wethouder":5177,"ervaren":5178,"schepen":5179,"Nieuwe":5180,"goedkoop":5181,"Openbaar":5182,"maakten":5183,"hypotheek":5184,"vrijwilligers":5185,"illeg":5186,"Baudet":5187,"34":5188,"Fil":5189,"Hamil":5190,"Kn":5191,"Kore":5192,"Mad":5193,"brug":5194,"cour":5195,"har":5196,"pk":5197,"écht":5198,"##ld":5199,"##ning":5200,"##keten":5201,"##cijfers":5202,"##erij":5203,"##ana":5204,"##atte":5205,"##gend":5206,"oproep":5207,"##ross":5208,"voornamelijk":5209,"##leid":5210,"stab":5211,"##ogingen":5212,"diesel":5213,"##scha":5214,"recent":5215,"##ierd":5216,"##uleren":5217,"afval":5218,"afloop":5219,"##uter":5220,"##rust":5221,"groepen":5222,"extre":5223,"gebaseerd":5224,"bodem":5225,"##blad":5226,"Ander":5227,"verband":5228,"tradit":5229,"verhogen":5230,"##wongen":5231,"##akket":5232,"meldingen":5233,"vluchten":5234,"financieel":5235,"##minste":5236,"Verenigd":5237,"winkels":5238,"seks":5239,"verniet":5240,"praktijk":5241,"schilder":5242,"Israël":5243,"Goed":5244,"Mo":5245,"Ve":5246,"dalen":5247,"fan":5248,"fant":5249,"pand":5250,"publieke":5251,"var":5252,"voren":5253,"##oit":5254,"##uf":5255,"##wol":5256,"##orpen":5257,"##orter":5258,"##leken":5259,"##reen":5260,"##rapt":5261,"##uliere":5262,"daarnaast":5263,"##broek":5264,"toezicht":5265,"##pert":5266,"elders":5267,"benieuwd":5268,"gebieden":5269,"Oekraine":5270,"##streeks":5271,"duurzaam":5272,"##arming":5273,"##plaatsen":5274,"##raagt":5275,"commissie":5276,"##chester":5277,"noemde":5278,"middelen":5279,"Manchester":5280,"leerlingen":5281,"##brengen":5282,"jaarlijks":5283,"##secretaris":5284,"Hamilton":5285,"Drie":5286,"Gl":5287,"Rober":5288,"Rome":5289,"meen":5290,"woke":5291,"##digen":5292,"##bus":5293,"##beelden":5294,"##eteren":5295,"eentje":5296,"inhoud":5297,"georganis":5298,"opgev":5299,"##gebruik":5300,"##ogan":5301,"ers":5302,"afspraken":5303,"schaal":5304,"##slim":5305,"##ossen":5306,"klass":5307,"tijdelijke":5308,"##volgens":5309,"##urende":5310,"kleuren":5311,"vergro":5312,"duurzame":5313,"##ituut":5314,"account":5315,"Afgelopen":5316,"import":5317,"sprint":5318,"logisch":5319,"demonstr":5320,"coronacrisis":5321,",”":5322,"42":5323,"55":5324,"600":5325,"F1":5326,"For":5327,"Joe":5328,"Mol":5329,"NS":5330,"York":5331,"gaten":5332,"##dagen":5333,"##macht":5334,"##zine":5335,"##ét":5336,"##erie":5337,"##stij":5338,"bewijs":5339,"steek":5340,"##vent":5341,"reacties":5342,"##ooid":5343,"afkomst":5344,"##elende":5345,"##slid":5346,"belangen":5347,"blijf":5348,"##maals":5349,"boot":5350,"##rongen":5351,"hout":5352,"praat":5353,"aangezien":5354,"handig":5355,"openbare":5356,"bekendgemaakt":5357,"Beide":5358,"##bouwen":5359,"aanpak":5360,"parkeer":5361,"verantwoordelijkheid":5362,"boodschap":5363,"Vroe":5364,"zonnepanelen":5365,"Turkije":5366,"zogenaam":5367,"decennia":5368,"absoluut":5369,"enthou":5370,"Hun":5371,"Hug":5372,"SP":5373,"Ster":5374,"fys":5375,"game":5376,"ren":5377,"##dom":5378,"##front":5379,"##za":5380,"##basis":5381,"##ün":5382,"stak":5383,"##aatregelen":5384,"##asc":5385,"##ema":5386,"spits":5387,"##slaan":5388,"betaalt":5389,"##mene":5390,"minim":5391,"ontzetten":5392,"commer":5393,"comment":5394,"compens":5395,"##ecten":5396,"snelle":5397,"Vervolgens":5398,"gestuurd":5399,"##gestelde":5400,"install":5401,"United":5402,"hoorde":5403,"gezondheids":5404,"##bestuur":5405,"vaccinatie":5406,"##sluiting":5407,"aangetroffen":5408,"filmpje":5409,"Zelensky":5410,"Eerst":5411,"Lou":5412,"Tra":5413,"Wim":5414,"Zwe":5415,"tar":5416,"##ox":5417,"##ka":5418,"##bre":5419,"##wat":5420,"##FA":5421,"##).":5422,"defensie":5423,"##aai":5424,"##inen":5425,"##aturen":5426,"##standen":5427,"##ony":5428,"##igranten":5429,"allen":5430,"stru":5431,"aanleiding":5432,"##ograf":5433,"##ftal":5434,"waarvoor":5435,"ontvang":5436,"Weet":5437,"beland":5438,"sneeuw":5439,"wijzen":5440,"handel":5441,"2015":5442,"gekocht":5443,"probeerde":5444,"getuigen":5445,"neus":5446,"films":5447,"gevaarlijk":5448,"##ategorie":5449,"ernstige":5450,"massaal":5451,"Financ":5452,"wetenschappers":5453,"vreemd":5454,"Buitenlandse":5455,"Arab":5456,"Cal":5457,"Dam":5458,"museum":5459,"rot":5460,"velen":5461,"##ny":5462,"##zaken":5463,"##pool":5464,"##ET":5465,"##onken":5466,"##arig":5467,"vervoer":5468,"schip":5469,"##anties":5470,"##oeding":5471,"plast":5472,"klasse":5473,"toep":5474,"openen":5475,"2016":5476,"##adem":5477,"planten":5478,"##vlucht":5479,"accept":5480,"achtste":5481,"Ondertussen":5482,"ambten":5483,"##loze":5484,"iPad":5485,"experts":5486,"Michael":5487,"type":5488,"zulke":5489,"Gelderland":5490,"Dankzij":5491,"coronavirus":5492,"##winkel":5493,"##apaciteit":5494,"Hugo":5495,"ontzettend":5496,"Com":5497,"Heer":5498,"NI":5499,"Rond":5500,"Teg":5501,"Wout":5502,"daling":5503,"ret":5504,"software":5505,"##ha":5506,"##rang":5507,"##kamp":5508,"##comp":5509,"##bum":5510,"##NG":5511,"##else":5512,"##oring":5513,"##ines":5514,"##staten":5515,"##itaire":5516,"##onald":5517,"islam":5518,"vernieuw":5519,"all":5520,"##leerd":5521,"##geet":5522,"##idden":5523,"##oost":5524,"##atieven":5525,"##ikant":5526,"Inter":5527,"##imir":5528,"2000":5529,"ontslag":5530,"##ffer":5531,"toev":5532,"eveneens":5533,"Amerikanen":5534,"eindigde":5535,"meldde":5536,"speciaal":5537,"ontwikkelen":5538,"redden":5539,"concert":5540,"verdient":5541,"verandering":5542,"voertuigen":5543,"recente":5544,"mochten":5545,"##structuur":5546,"Zweden":5547,"39":5548,"AZ":5549,"Henk":5550,"eraan":5551,"justitie":5552,"koel":5553,"kiest":5554,"site":5555,"##eiden":5556,"##ialist":5557,"##mark":5558,"##kn":5559,"##kaart":5560,"##jet":5561,"##IV":5562,"##iner":5563,"inzicht":5564,"inzetten":5565,"integr":5566,"verstand":5567,"realiteit":5568,"##uwd":5569,"welk":5570,"spaar":5571,"verkeerd":5572,"benzine":5573,"achtergrond":5574,"wegge":5575,"verbonden":5576,"##ovic":5577,"gemeenschap":5578,"apparte":5579,"vijfde":5580,"doelman":5581,"Welke":5582,"anti":5583,"Thom":5584,"normale":5585,"broer":5586,"momenten":5587,"##gerekend":5588,"jurid":5589,"armoede":5590,"koningin":5591,"##ductie":5592,"werkgever":5593,"Charles":5594,"tegenstander":5595,"huishoudens":5596,"beneden":5597,"Vroeger":5598,"Tegelijk":5599,"Aert":5600,"GS":5601,"Iran":5602,"Por":5603,"honden":5604,"##lid":5605,"##del":5606,"##ky":5607,"##zone":5608,"##wit":5609,"degelijk":5610,"##urele":5611,"##gemene":5612,"erin":5613,"les":5614,"##opend":5615,"##umn":5616,"dringen":5617,"begrip":5618,"Str":5619,"proef":5620,"beschad":5621,"verdere":5622,"betekenen":5623,"sterren":5624,"dichter":5625,"lagere":5626,"##oefte":5627,"overleed":5628,"vijftig":5629,"Rijks":5630,"onafhankelijk":5631,"benadrukt":5632,"opgelost":5633,"Vitesse":5634,"Brugge":5635,"Apel":5636,"BB":5637,"II":5638,"Iets":5639,"Pe":5640,"Sal":5641,"boel":5642,"campagne":5643,"dou":5644,"eiland":5645,"gig":5646,"graf":5647,"im":5648,"telt":5649,"##aille":5650,"##uien":5651,"##blemen":5652,"##yc":5653,"##oorte":5654,"opper":5655,"opvallend":5656,"##oeven":5657,"voorkeur":5658,"##leveren":5659,"##leider":5660,"##rad":5661,"##elijkse":5662,"reizigers":5663,"##acy":5664,"houd":5665,"achterstand":5666,"miljarden":5667,"gelden":5668,"onderzoeks":5669,"bezit":5670,"##ommigen":5671,"tenminste":5672,"energieprijzen":5673,"geef":5674,"scenario":5675,"gerecht":5676,"geregeld":5677,"clubs":5678,"teams":5679,"geweldig":5680,"veranderd":5681,"grensover":5682,"##wijfeld":5683,"automatisch":5684,"warmte":5685,"Centraal":5686,"aangifte":5687,"militairen":5688,"keih":5689,"salaris":5690,"##schrijdend":5691,"Bed":5692,"Ronde":5693,"Sov":5694,"Zonder":5695,"bad":5696,"batter":5697,"café":5698,"kol":5699,"##hop":5700,"opv":5701,"##arije":5702,"voorzicht":5703,"bezet":5704,"beweging":5705,"aankomen":5706,"aankl":5707,"##okt":5708,"##erson":5709,"uitste":5710,"##tende":5711,"onderwerp":5712,"blokk":5713,"mezelf":5714,"##oordat":5715,"##valt":5716,"begro":5717,"bron":5718,"gezamen":5719,"##megen":5720,"Zowel":5721,"verschijnen":5722,"##izar":5723,"##leraar":5724,"stadion":5725,"strand":5726,"chip":5727,"gereden":5728,"televisie":5729,"##aliseerd":5730,"supporters":5731,"thema":5732,"glas":5733,"GroenL":5734,"Johnson":5735,"operatie":5736,"##erschap":5737,"vrede":5738,"vrachtwagen":5739,"onmogelijk":5740,"liber":5741,"creëren":5742,"uitgebreid":5743,"aflevering":5744,"smartph":5745,"federale":5746,"berg":5747,"hitte":5748,"rand":5749,"ramp":5750,"renn":5751,"zen":5752,"zus":5753,"##ao":5754,"##com":5755,"##ban":5756,"##boek":5757,"##eringen":5758,"##oris":5759,"##stuk":5760,"##arch":5761,"aanvallen":5762,"##ilj":5763,"##ouders":5764,"##ctoren":5765,"##ikanten":5766,"##uts":5767,"##utel":5768,"##elsel":5769,"elftal":5770,"gebleven":5771,"langere":5772,"##udio":5773,"##blijven":5774,"verbod":5775,"2012":5776,"##boden":5777,"technische":5778,"Hierdoor":5779,"##flix":5780,"oplossingen":5781,"opties":5782,"Jonge":5783,"##lessure":5784,"simpelweg":5785,"##ruimte":5786,"Nijmegen":5787,"ECB":5788,"Champions":5789,"GroenLinks":5790,"%.":5791,"AS":5792,"Dj":5793,"Eg":5794,"Hal":5795,"KLM":5796,"Pool":5797,"Ros":5798,"agent":5799,"cruc":5800,"lanc":5801,"##kele":5802,"##feest":5803,"##chine":5804,"vervang":5805,"behouden":5806,"onvol":5807,"##raden":5808,"##eleg":5809,"volgde":5810,"betrouw":5811,"gemeld":5812,"bedacht":5813,"belast":5814,"breed":5815,"verkracht":5816,"hiervoor":5817,"geboorte":5818,"vertrokken":5819,"misl":5820,"geleverd":5821,"oorsp":5822,"opening":5823,"##lerc":5824,"##woning":5825,"Hoeveel":5826,"contin":5827,"##skund":5828,"oplopen":5829,"Team":5830,"##uilen":5831,"kleiner":5832,"Universiteit":5833,"techniek":5834,"ambul":5835,"fors":5836,"peil":5837,"collectie":5838,"Premier":5839,"Australië":5840,"apparaten":5841,"prachtige":5842,"vermoedelijk":5843,"reclame":5844,"luxe":5845,"Thomas":5846,"65":5847,"At":5848,"Bal":5849,"Fort":5850,"Gaal":5851,"Hoek":5852,"Mal":5853,"Vis":5854,"Zee":5855,"bas":5856,"fel":5857,"##dragen":5858,"##sbe":5859,"##riet":5860,"##vraag":5861,"##ward":5862,"##xt":5863,"##óó":5864,"vangen":5865,"inn":5866,"##arrest":5867,"##leu":5868,"##eerders":5869,"##verander":5870,"##ous":5871,"bijeen":5872,"afger":5873,"schaat":5874,"kunsten":5875,"meedoen":5876,"kwaad":5877,"##vallende":5878,"Daarvoor":5879,"export":5880,"wetenschap":5881,"oorzaak":5882,"beslist":5883,"##ommel":5884,"Vlad":5885,"geest":5886,"##middelen":5887,"Argent":5888,"##getwijfeld":5889,"kilo":5890,"lossen":5891,"Netflix":5892,"noodzak":5893,"bevestigt":5894,"moslim":5895,"##plein":5896,"Vorige":5897,"twijfel":5898,"afdeling":5899,"besmettingen":5900,"Alexander":5901,"update":5902,"fantast":5903,"Porsche":5904,"Gaat":5905,"PVV":5906,"Rode":5907,"Weer":5908,"Zolang":5909,"categorie":5910,"dis":5911,"dui":5912,"dod":5913,"fot":5914,"god":5915,"kamp":5916,"muur":5917,"tick":5918,"wol":5919,"##laat":5920,"##roepen":5921,"##uderen":5922,"##bad":5923,"##ye":5924,"##yr":5925,"##NA":5926,"degen":5927,"##stien":5928,"##eesten":5929,"teveel":5930,"voorjaar":5931,"##illa":5932,"onzin":5933,"##rastructuur":5934,"##aming":5935,"erf":5936,"##ope":5937,"##ago":5938,"##schreven":5939,"schoot":5940,"volop":5941,"##kerk":5942,"plus":5943,"manieren":5944,"##voorzitter":5945,"arrest":5946,"Markt":5947,"interesse":5948,"vieren":5949,"Brand":5950,"leverde":5951,"kopp":5952,"acc":5953,"keuken":5954,"reageert":5955,"##gezond":5956,"boodschappen":5957,"papier":5958,"arbeidsm":5959,"dubbele":5960,"raketten":5961,"definitief":5962,"assist":5963,"gelegenheid":5964,"telkens":5965,"enthousi":5966,"plastic":5967,"##verandering":5968,"52":5969,"Ap":5970,"AM":5971,"Bijna":5972,"Co":5973,"Hopelijk":5974,"IS":5975,"Morgen":5976,"Post":5977,"daders":5978,"lot":5979,"laad":5980,"nl":5981,"pakte":5982,"richten":5983,"##naam":5984,"##mel":5985,"##fort":5986,"##zon":5987,"##breken":5988,"##voetbal":5989,"##ateur":5990,"##atform":5991,"opgelopen":5992,"opleiding":5993,"voorwaarden":5994,"steen":5995,"##verzeker":5996,"uitg":5997,"schot":5998,"meet":5999,"##ortus":6000,"##wijz":6001,"vertrouw":6002,"##gevonden":6003,"corru":6004,"gerust":6005,"##gelegen":6006,"bereik":6007,"grondstoffen":6008,"divers":6009,"stijgende":6010,"democr":6011,"produceren":6012,"aardig":6013,"aanpassen":6014,"Grand":6015,"makkelijker":6016,"koopkracht":6017,"##verkiez":6018,"podcast":6019,"design":6020,"meisjes":6021,"temperaturen":6022,"fractie":6023,"werkgevers":6024,"raket":6025,"veertien":6026,"Nadat":6027,"##hebbers":6028,"Eigenlijk":6029,"##geheten":6030,"letterlijk":6031,"onvoldoende":6032,"41":6033,"As":6034,"Az":6035,"Da":6036,"Ham":6037,"Jac":6038,"Krim":6039,"VN":6040,"Wit":6041,"Zorg":6042,"daalde":6043,"fac":6044,"lin":6045,"moed":6046,"nek":6047,"nodige":6048,"trend":6049,"vent":6050,"##ias":6051,"##daan":6052,"##nelijk":6053,"##morgen":6054,"##wan":6055,"##ym":6056,"##eloze":6057,"dep":6058,"opw":6059,"##gever":6060,"##okje":6061,"overw":6062,"overleven":6063,"zodra":6064,"zogeheten":6065,"ondernem":6066,"##empl":6067,"##istan":6068,"slaat":6069,"##merkt":6070,"##idend":6071,"vertrag":6072,"artie":6073,"verbeteren":6074,"gestart":6075,"grap":6076,"France":6077,"organiseren":6078,"sociaal":6079,"stijgt":6080,"250":6081,"ideeën":6082,"Mex":6083,"partic":6084,"regenb":6085,"locaties":6086,"gasten":6087,"journalisten":6088,"communicatie":6089,"radio":6090,"Syr":6091,"Serv":6092,"analyse":6093,"veertig":6094,"##schakeld":6095,"##iërs":6096,"lachen":6097,"subsidie":6098,"ondersteuning":6099,"William":6100,"warme":6101,"scherp":6102,"principe":6103,"##tendeels":6104,"Cup":6105,"EV":6106,"Econom":6107,"Feder":6108,"Ha":6109,"Hans":6110,"Let":6111,"Leeuw":6112,"Nat":6113,"Zie":6114,"fles":6115,"tip":6116,"##sz":6117,"##uel":6118,"##kle":6119,"##veen":6120,"##put":6121,"##EO":6122,"been":6123,"##omin":6124,"stopt":6125,"##ola":6126,"ref":6127,"waarheid":6128,"##bez":6129,"Enkele":6130,"##plan":6131,"langzaam":6132,"beschouw":6133,"##anningen":6134,"hoogleraar":6135,"plaatsvinden":6136,"behoefte":6137,"grapp":6138,"##getrokken":6139,"##vindt":6140,"topman":6141,"social":6142,"instantie":6143,"##alisme":6144,"relig":6145,"Amsterdamse":6146,"ziekenhuizen":6147,"onbekende":6148,"Engelse":6149,"aanvaller":6150,"privacy":6151,"aantrek":6152,"crypto":6153,"opvolger":6154,"Portug":6155,"##wagens":6156,"georganiseerd":6157,"##markten":6158,"46":6159,"43":6160,"57":6161,"Ah":6162,"AB":6163,"Bre":6164,"Bru":6165,"Gu":6166,"Kerk":6167,"Lec":6168,"Mogelijk":6169,"Norm":6170,"Well":6171,"hon":6172,"kust":6173,"riep":6174,"route":6175,"sk":6176,"taak":6177,"zakken":6178,"##aff":6179,"##fase":6180,"##boven":6181,"##anche":6182,"inch":6183,"##igeren":6184,"##verbruik":6185,"##idt":6186,"uitkering":6187,"schuldig":6188,"plant":6189,"grotendeels":6190,"terror":6191,"##aster":6192,"nabij":6193,"najaar":6194,"##oca":6195,"##ankelijke":6196,"toeg":6197,"##berh":6198,"drank":6199,"##ubb":6200,"##plom":6201,"##ptie":6202,"herst":6203,"##ancier":6204,"trap":6205,"##diend":6206,"##activ":6207,"pleit":6208,"##rix":6209,"gestopt":6210,"finales":6211,"Afg":6212,"zetels":6213,"kwartfin":6214,"lidstaten":6215,"document":6216,"Martin":6217,"dubbel":6218,"Politie":6219,"Kortom":6220,"David":6221,"gevecht":6222,"dossier":6223,"Veilig":6224,"commerc":6225,"66":6226,"Bet":6227,"Bern":6228,"GT":6229,"IC":6230,"Poel":6231,"Tik":6232,"bon":6233,"boord":6234,"buren":6235,"bleven":6236,"bizar":6237,"dader":6238,"fouten":6239,"gat":6240,"lui":6241,"luisteren":6242,"mult":6243,"raakt":6244,"vij":6245,"’:":6246,"##ming":6247,"##iegel":6248,"##cher":6249,"##ites":6250,"##itco":6251,"geï":6252,"ophe":6253,"opslag":6254,"##ariteit":6255,"##roo":6256,"verover":6257,"##isd":6258,"##olie":6259,"##vergoed":6260,"onsch":6261,"ongetwijfeld":6262,"zestien":6263,"uitvoeren":6264,"##schal":6265,"leiders":6266,"##uurt":6267,"##slam":6268,"gewicht":6269,"ministers":6270,"##neveld":6271,"sloeg":6272,"sloot":6273,"##plicht":6274,"exempl":6275,"##identen":6276,"##mede":6277,"##rijke":6278,"mishand":6279,"Andere":6280,"snelweg":6281,"##conferentie":6282,"##ikking":6283,"maatregel":6284,"technisch":6285,"effic":6286,"succesvol":6287,"##names":6288,"overlijden":6289,"aanvragen":6290,"optim":6291,"bevestigd":6292,"COA":6293,"namens":6294,"slimme":6295,"talent":6296,"verblijf":6297,"ontmoeting":6298,"Vrijdag":6299,"kandidaat":6300,"kandidaten":6301,"investeren":6302,"##vorming":6303,"seksueel":6304,"historische":6305,"tweet":6306,"perfect":6307,"kondigde":6308,"overtuigd":6309,"controleren":6310,"zogenaamde":6311,"toepass":6312,"Ach":6313,"Echt":6314,"Kle":6315,"Kim":6316,"Laten":6317,"Mel":6318,"Zod":6319,"fa":6320,"golf":6321,"huwelijk":6322,"keur":6323,"mist":6324,"tax":6325,"wele":6326,"##eet":6327,"##ekend":6328,"##landen":6329,"##hangen":6330,"##rice":6331,"##koop":6332,"##kings":6333,"##ps":6334,"##orr":6335,"geopend":6336,"opeens":6337,"aanhouden":6338,"##rec":6339,"##ota":6340,"hev":6341,"##sens":6342,"overtuigen":6343,"bijdra":6344,"##apper":6345,"legde":6346,"schrik":6347,"##bei":6348,"##uters":6349,"##rustr":6350,"totdat":6351,"##aagse":6352,"##breekt":6353,"missen":6354,"##nement":6355,"interieur":6356,"beheer":6357,"ouderen":6358,"##sieke":6359,"gereg":6360,"symb":6361,"Republ":6362,"##jaardag":6363,"##half":6364,"Barcel":6365,"aankond":6366,"ontdekt":6367,"abortus":6368,"onderhandelingen":6369,"oppositie":6370,"stevige":6371,"Canada":6372,"##ribun":6373,"mobiele":6374,"grensoverschrijdend":6375,"##óór":6376,"Vladimir":6377,"Leclerc":6378,"weleens":6379,"Barcelona":6380,"49":6381,"48":6382,"Dag":6383,"Hoge":6384,"Maand":6385,"chem":6386,"heren":6387,"maal":6388,"pil":6389,"##maker":6390,"##model":6391,"##ugt":6392,"##car":6393,"##win":6394,"##wapen":6395,"##ïne":6396,"##erv":6397,"##elder":6398,"##itser":6399,"insch":6400,"##oni":6401,"opzet":6402,"vere":6403,"verdeeld":6404,"beker":6405,"bewijzen":6406,"storm":6407,"stress":6408,"##ilver":6409,"##iliteit":6410,"##ammen":6411,"##rijver":6412,"##sem":6413,"overzicht":6414,"onderhoud":6415,"##achtige":6416,"##bev":6417,"daarover":6418,"##week":6419,"term":6420,"nazi":6421,"##bride":6422,"ontstaat":6423,"belooft":6424,"##oern":6425,"##abeth":6426,"laatst":6427,"dagelijkse":6428,"verwond":6429,"##laim":6430,"##akkoord":6431,"##cessie":6432,"##gaande":6433,"Behalve":6434,"rijbewijs":6435,"Elon":6436,"dict":6437,"##ontwikk":6438,"1000":6439,"##malig":6440,"##formatie":6441,"erover":6442,"Hebben":6443,"voortaan":6444,"verkeers":6445,"automobil":6446,"aankoop":6447,"jury":6448,"negatief":6449,"advocaten":6450,"##partijen":6451,"versoep":6452,"durven":6453,"##duizend":6454,"eventuele":6455,"raakten":6456,"Oostenrijk":6457,"uitzending":6458,"gezellig":6459,"werkzaamheden":6460,"ontstond":6461,"Gemeen":6462,"harder":6463,"traditionele":6464,"fysiek":6465,"Sovjet":6466,"bijdrage":6467,"Bou":6468,"IJ":6469,"Later":6470,"Recht":6471,"Ronald":6472,"Sen":6473,"camp":6474,"div":6475,"down":6476,"fy":6477,"gaven":6478,"gouden":6479,"kast":6480,"las":6481,"nul":6482,"riv":6483,"tachtig":6484,"vir":6485,"wakker":6486,"ziel":6487,"##uze":6488,"##fun":6489,"##beerd":6490,"##atoren":6491,"##onnement":6492,"##oegt":6493,"##armen":6494,"veront":6495,"##led":6496,"##olpen":6497,"##gevallen":6498,"propag":6499,"##indingen":6500,"Ali":6501,"Albert":6502,"bloemen":6503,"toel":6504,"toegev":6505,"toestel":6506,"Wester":6507,"##centage":6508,"ellende":6509,"aangeboden":6510,"Marc":6511,"##aupt":6512,"orig":6513,"194":6514,"medic":6515,"achttien":6516,"lichte":6517,"kleinere":6518,"dinsdagavond":6519,"zonn":6520,"reageerde":6521,"universiteit":6522,"Wilders":6523,"aardgas":6524,"##rales":6525,"directe":6526,"matige":6527,"intro":6528,"mondkap":6529,"verdedigen":6530,"expert":6531,"staatssecretaris":6532,"Harry":6533,"potent":6534,"materiaal":6535,"stevig":6536,"##duizenden":6537,"strategie":6538,"Begin":6539,"44":6540,"Ass":6541,"Justitie":6542,"Kh":6543,"Mocht":6544,"Niemand":6545,"Oh":6546,"Patr":6547,"Ru":6548,"Sw":6549,"Top":6550,"bod":6551,"hiel":6552,"kiez":6553,"mes":6554,"noorden":6555,"sub":6556,"tellen":6557,"ul":6558,"wal":6559,"zui":6560,"##loc":6561,"##how":6562,"##hankelijke":6563,"##nij":6564,"##poort":6565,"##orry":6566,"##stijl":6567,"indien":6568,"verster":6569,"beë":6570,"##vere":6571,"##ilen":6572,"##resent":6573,"##ouder":6574,"##aging":6575,"##eleken":6576,"spijt":6577,"nucle":6578,"gewend":6579,"##onderzoek":6580,"ontsn":6581,"klagen":6582,"bronnen":6583,"gebroken":6584,"gedwongen":6585,"##aving":6586,"##isser":6587,"handels":6588,"2010":6589,"coronam":6590,"belangrijker":6591,"vermoeden":6592,"adver":6593,"bestuurders":6594,"klimaatverandering":6595,"Uiter":6596,"besparen":6597,"verdwenen":6598,"dreigen":6599,"##gave":6600,"bescherming":6601,"tegelijkertijd":6602,"Kunnen":6603,"zwakke":6604,"aanzienlijk":6605,"conclusie":6606,"##cedure":6607,"spannend":6608,"Louis":6609,"noodzakelijk":6610,"Ac":6611,"Jetten":6612,"Pek":6613,"Ruim":6614,"Vier":6615,"fasc":6616,"lijden":6617,"##iaan":6618,"##aert":6619,"##mond":6620,"##MA":6621,"##anke":6622,"deelt":6623,"geel":6624,"##alingen":6625,"verp":6626,"verjaardag":6627,"alarm":6628,"beur":6629,"bewezen":6630,"stoel":6631,"##ura":6632,"##verpool":6633,"dief":6634,"##agn":6635,"uitspraken":6636,"schijn":6637,"##neu":6638,"##ocol":6639,"conserv":6640,"bedien":6641,"##wijde":6642,"hierbij":6643,"##oegde":6644,"##alsnog":6645,"landelijke":6646,"##ipt":6647,"##ssel":6648,"##anciers":6649,"##assade":6650,"vergunning":6651,"##ultuur":6652,"##woner":6653,"getu":6654,"kennelijk":6655,"cha":6656,"chauff":6657,"Franc":6658,"##geleverd":6659,"##etting":6660,"overheids":6661,"groeps":6662,"instru":6663,"rechtszaak":6664,"unieke":6665,"geheim":6666,"discrimin":6667,"dreigt":6668,"Finland":6669,"Boris":6670,"inspir":6671,"Macron":6672,"agenda":6673,"werkelijkheid":6674,"intens":6675,"hybride":6676,"blauwe":6677,"concurrentie":6678,"fruit":6679,"Super":6680,"Liverpool":6681,"maatschappelijke":6682,"gigant":6683,"##verkiezingen":6684,"Wellicht":6685,"##berhaupt":6686,"fysieke":6687,"53":6688,"800":6689,"Av":6690,"AC":6691,"Bol":6692,"Hou":6693,"Maas":6694,"Moh":6695,"Math":6696,"Vi":6697,"VR":6698,"Via":6699,"Wint":6700,"Zand":6701,"au":6702,"ban":6703,"bord":6704,"cade":6705,"dram":6706,"grij":6707,"lood":6708,"lieten":6709,"micro":6710,"por":6711,"piek":6712,"rob":6713,"vinger":6714,"wan":6715,"zaal":6716,"##dr":6717,"##dur":6718,"##dad":6719,"##draa":6720,"##nodig":6721,"##uele":6722,"##zw":6723,"##ba":6724,"##voc":6725,"##vragen":6726,"##po":6727,"##stroom":6728,"instellingen":6729,"opgeroepen":6730,"verre":6731,"##ingse":6732,"album":6733,"voorz":6734,"voorheen":6735,"sta":6736,"##ureel":6737,"##una":6738,"##ampt":6739,"##schouw":6740,"realiseren":6741,"##ctr":6742,"##atiek":6743,"schulden":6744,"gewen":6745,"##oordelen":6746,"meegenomen":6747,"##acu":6748,"klas":6749,"##afond":6750,"##play":6751,"achteruit":6752,"Leu":6753,"finish":6754,"##trekken":6755,"neut":6756,"bereken":6757,"diplom":6758,"internationaal":6759,"serieuze":6760,"sterker":6761,"##zijde":6762,"theater":6763,"transport":6764,"effectief":6765,"verandert":6766,"personeelste":6767,"Shell":6768,"##quent":6769,"populaire":6770,"Engels":6771,"behandeld":6772,"prachtig":6773,"verdediger":6774,"moderne":6775,"Robert":6776,"!’":6777,"51":6778,"Boer":6779,"Grie":6780,"Hil":6781,"Hag":6782,"Jammer":6783,"Mooi":6784,"Matt":6785,"Tr":6786,"Tussen":6787,"Ven":6788,"bag":6789,"ec":6790,"leert":6791,"sens":6792,"toren":6793,"zuur":6794,"’-":6795,"….":6796,"##oice":6797,"##zijd":6798,"##bar":6799,"##EL":6800,"##chem":6801,"##arant":6802,"tegem":6803,"##rok":6804,"stichting":6805,"##gegaan":6806,"web":6807,"##steen":6808,"onderdelen":6809,"kanker":6810,"##ical":6811,"##imeter":6812,"play":6813,"2030":6814,"tegenstelling":6815,"mensenrechten":6816,"nieuwste":6817,"ontwerp":6818,"concl":6819,"hoewel":6820,"manager":6821,"bedragen":6822,"toeslagen":6823,"branden":6824,"##bruikt":6825,"gezinnen":6826,"Erik":6827,"hiermee":6828,"##volutie":6829,"2025":6830,"Europe":6831,"wereldwijde":6832,"##mpath":6833,"verbieden":6834,"2013":6835,"Leid":6836,"196":6837,"Belgen":6838,"Best":6839,"dient":6840,"##gangers":6841,"medewerker":6842,"luchtvaart":6843,"##snel":6844,"moeilijke":6845,"gepland":6846,"toekomstige":6847,"function":6848,"Steven":6849,"steunen":6850,"##bestaanden":6851,"documenten":6852,"criminelen":6853,"##kwam":6854,"Bosch":6855,"wensen":6856,"investeringen":6857,"tentoon":6858,"Mechelen":6859,"keihard":6860,"##vergoeding":6861,"##oernooi":6862,"coronamaatregelen":6863,"Uiteraard":6864,"CBS":6865,"Covid":6866,"Eredivisie":6867,"Krem":6868,"Lees":6869,"Vaak":6870,"bijk":6871,"drukken":6872,"eet":6873,"kader":6874,"kaarten":6875,"lagen":6876,"sat":6877,"vres":6878,"vóór":6879,"wonder":6880,"##deling":6881,"##nes":6882,"##met":6883,"##festival":6884,"##wapens":6885,"##pv":6886,"##ér":6887,"##orven":6888,"geslagen":6889,"verstandig":6890,"##ijns":6891,"algemene":6892,"bedenken":6893,"aanloop":6894,"omst":6895,"zestig":6896,"##agina":6897,"overwegen":6898,"afsch":6899,"Energie":6900,"slaver":6901,"draag":6902,"##irk":6903,"##ploeg":6904,"gedurende":6905,"Vanwege":6906,"prior":6907,"gelukt":6908,"##iefde":6909,"toenemen":6910,"wereldt":6911,"gelegd":6912,"traum":6913,"veilige":6914,"gestolen":6915,"##ementen":6916,"kende":6917,"voeten":6918,"##ituaties":6919,"koppel":6920,"##teurs":6921,"scoren":6922,"mooiste":6923,"reaguur":6924,"Stef":6925,"##organisaties":6926,"vervuil":6927,"##keurd":6928,"verwijderen":6929,"Carl":6930,"Donald":6931,"veroorzaken":6932,"passag":6933,"##verhoging":6934,"##onnee":6935,"##krant":6936,"##verlies":6937,"zangeres":6938,"Hongarije":6939,"uitdaging":6940,"drama":6941,"focus":6942,"Anderlecht":6943,"Djok":6944,"oorspron":6945,"Maandag":6946,"verwondingen":6947,"tegemoet":6948,"):":6949,"Bouw":6950,"CEO":6951,"Dis":6952,"Hen":6953,"Kat":6954,"Lijkt":6955,"Pal":6956,"Tien":6957,"Werk":6958,"Water":6959,"dames":6960,"iOS":6961,"keert":6962,"kampen":6963,"oranje":6964,"puur":6965,"sommigen":6966,"##let":6967,"##lat":6968,"##dogan":6969,"##sleden":6970,"##oi":6971,"##zus":6972,"##bonden":6973,"##vlie":6974,"##derij":6975,"gearrest":6976,"verslag":6977,"##iseren":6978,"##iswaar":6979,"stim":6980,"streep":6981,"aanslag":6982,"##rash":6983,"heft":6984,"##agers":6985,"overname":6986,"rem":6987,"schatting":6988,"kanten":6989,"toestemming":6990,"bellen":6991,"Daarin":6992,"brut":6993,"langdur":6994,"prins":6995,"evenement":6996,"toename":6997,"##ijfer":6998,"gelezen":6999,"dertien":7000,"traditie":7001,"openings":7002,"coronapan":7003,"##woningen":7004,"##rikt":7005,"oorlogs":7006,"bovenop":7007,"regelen":7008,"gebeurten":7009,"verwachtingen":7010,"dienen":7011,"stukken":7012,"scoorde":7013,"groeit":7014,"theorie":7015,"overlast":7016,"gevaarlijke":7017,"begrijpt":7018,"Olympische":7019,"verwijderd":7020,"verrass":7021,"##krachten":7022,"treinen":7023,"##geschoten":7024,"##gebouwd":7025,"Marokko":7026,"eventueel":7027,"market":7028,"World":7029,"Radio":7030,"Jeroen":7031,"verrassend":7032,"struct":7033,"##gezondheid":7034,"Portugal":7035,"Kremlin":7036,"slavernij":7037,"coronapandemie":7038,"54":7039,"?\"":7040,"Derk":7041,"Fed":7042,"Hof":7043,"IT":7044,"Jij":7045,"Just":7046,"NOS":7047,"Prim":7048,"RS":7049,"RIV":7050,"Verk":7051,"dode":7052,"hè":7053,"mate":7054,"port":7055,"sen":7056,"tand":7057,"von":7058,"wijken":7059,"##ira":7060,"##laan":7061,"##gar":7062,"##tt":7063,"##trek":7064,"##mars":7065,"##km":7066,"##fabr":7067,"##zers":7068,"##voud":7069,"##pijn":7070,"##pectief":7071,"##ijp":7072,"##stop":7073,"##gehouden":7074,"##ush":7075,"uitvoer":7076,"##iens":7077,"recessie":7078,"onderweg":7079,"##weed":7080,"nummers":7081,"greep":7082,"ontw":7083,"ontslagen":7084,"##iëren":7085,"##etsk":7086,"##ppel":7087,"##gevaar":7088,"##elta":7089,"comfort":7090,"##iefd":7091,"persconferentie":7092,"verluidt":7093,"arts":7094,"sectoren":7095,"##uck":7096,"Ons":7097,"vergeleken":7098,"##ify":7099,"energiet":7100,"slechter":7101,"straten":7102,"blijken":7103,"knie":7104,"Waarschijnlijk":7105,"##vlak":7106,"doelpunten":7107,"oplossen":7108,"vrijdagavond":7109,"doelen":7110,"ontwikkelingen":7111,"economisch":7112,"##gedrag":7113,"##verkeer":7114,"Turkse":7115,"zogenoemde":7116,"geprobeerd":7117,"individuele":7118,"Wereldoorlog":7119,"Noorwegen":7120,"bewolkt":7121,"Whats":7122,"##vakantie":7123,"extreme":7124,"voorzichtig":7125,"arbeidsmarkt":7126,"##itcoin":7127,"beëind":7128,"gearresteerd":7129,"RIVM":7130,"Ama":7131,"Audi":7132,"Bred":7133,"Oister":7134,"Pale":7135,"Til":7136,"WO":7137,"You":7138,"Zweed":7139,"booster":7140,"haat":7141,"munt":7142,"melk":7143,"non":7144,"nation":7145,"pakt":7146,"raam":7147,"sug":7148,"talen":7149,"tips":7150,"zingen":7151,"##ialen":7152,"##lucht":7153,"##di":7154,"##dingen":7155,"##oster":7156,"##ube":7157,"##jaars":7158,"##vee":7159,"##MI":7160,"##iepen":7161,"##oning":7162,"gevest":7163,"bekl":7164,"beïn":7165,"##kenning":7166,"stream":7167,"aanhang":7168,"meth":7169,"##elijkheid":7170,"lege":7171,"##emarken":7172,"allebei":7173,"##bericht":7174,"gene":7175,"verdriet":7176,"arch":7177,"herstellen":7178,"vrouwelijke":7179,"aangegeven":7180,"rechten":7181,"handelen":7182,"##izabeth":7183,"##amera":7184,"##auze":7185,"coronap":7186,"vermoord":7187,"verminderen":7188,"##eefd":7189,"Denemarken":7190,"Elizabeth":7191,"##boom":7192,"column":7193,"Mede":7194,"dichtbij":7195,"##malige":7196,"verklaarde":7197,"##alistisch":7198,"lokaal":7199,"Turn":7200,"keuzes":7201,"Griek":7202,"kerncent":7203,"politicus":7204,"merkt":7205,"vliegtuigen":7206,"Michel":7207,"##ducten":7208,"Andr":7209,"gecontro":7210,"onafhankelijke":7211,"Japanse":7212,"Qua":7213,"specifiek":7214,"specifieke":7215,"favoriete":7216,"goederen":7217,"humor":7218,"details":7219,"commentaar":7220,"ambtenaren":7221,"grappig":7222,"aantrekkelijk":7223,"faill":7224,"origin":7225,"Winters":7226,"portem":7227,"Djokovic":7228,"Oisterwijk":7229,"73":7230,"91":7231,"AN":7232,"A1":7233,"Bas":7234,"Comm":7235,"Geert":7236,"Jos":7237,"Ken":7238,"Lang":7239,"Lekker":7240,"Mor":7241,"Rom":7242,"Sj":7243,"San":7244,"Tja":7245,"Vin":7246,"Vijf":7247,"Versch":7248,"Wall":7249,"dist":7250,"dure":7251,"fen":7252,"fase":7253,"ipv":7254,"job":7255,"lat":7256,"mus":7257,"mobil":7258,"raar":7259,"ruz":7260,"tur":7261,"vet":7262,"zacht":7263,"überhaupt":7264,"€˜":7265,"##dan":7266,"##doek":7267,"##no":7268,"##maakt":7269,"##kes":7270,"##comm":7271,"##bro":7272,"##vat":7273,"##vaardig":7274,"##wis":7275,"##itels":7276,"##itair":7277,"##denking":7278,"##deelde":7279,"tech":7280,"voorst":7281,"##uns":7282,"##team":7283,"uitsluiten":7284,"overtre":7285,"schoenen":7286,"spoed":7287,"sporen":7288,"and":7289,"##imp":7290,"nabestaanden":7291,"##brief":7292,"ontbreekt":7293,"slaven":7294,"##periode":7295,"##voorzien":7296,"hierover":7297,"gedaald":7298,"gedachte":7299,"##gevoel":7300,"netto":7301,"##assa":7302,"##gevende":7303,"vecht":7304,"##wonen":7305,"##gestaan":7306,"##proces":7307,"##programma":7308,"##vloeden":7309,"regeling":7310,"centraal":7311,"ontwikkeld":7312,"jongste":7313,"ambassade":7314,"##oelens":7315,"zeventien":7316,"univers":7317,"etappe":7318,"paniek":7319,"##ulling":7320,"##lichtingen":7321,"Zwitser":7322,"match":7323,"Surinaam":7324,"ontdekken":7325,"beperken":7326,"beveiliging":7327,"apparaat":7328,"aanmeld":7329,"wederom":7330,"afkomstig":7331,"ambulance":7332,"afgerond":7333,"vertraging":7334,"propaganda":7335,"Grieken":7336,"portemonnee":7337,".)":7338,"71":7339,"95":7340,"Bek":7341,"Est":7342,"Ford":7343,"Giro":7344,"Home":7345,"Lu":7346,"Partij":7347,"Roy":7348,"Vel":7349,"Waal":7350,"Witte":7351,"Zaterdag":7352,"banen":7353,"hof":7354,"ku":7355,"kal":7356,"koos":7357,"koud":7358,"nut":7359,"rom":7360,"vi":7361,"vuil":7362,"vielen":7363,"vogel":7364,"zand":7365,"##haal":7366,"##richting":7367,"##keren":7368,"##brug":7369,"##vo":7370,"##vacu":7371,"##yt":7372,"##par":7373,"##Tok":7374,"##aait":7375,"##inië":7376,"##urity":7377,"##verde":7378,"##gesp":7379,"##oul":7380,"omroep":7381,"heden":7382,"##opter":7383,"##rijg":7384,"##schrift":7385,"overval":7386,"##oets":7387,"##uif":7388,"naartoe":7389,"weliswaar":7390,"projecten":7391,"##utter":7392,"##istratie":7393,"##iceerd":7394,"volg":7395,"Alf":7396,"betaalde":7397,"nadenken":7398,"##mensen":7399,"gewaar":7400,"mini":7401,"ontpl":7402,"draad":7403,"gedachten":7404,"Stra":7405,"zwang":7406,"misbruik":7407,"herkennen":7408,"##issaris":7409,"##conc":7410,"Meta":7411,"##rente":7412,"bezorg":7413,"geholpen":7414,"##groei":7415,"medaille":7416,"gestoken":7417,"getest":7418,"##rekening":7419,"gevolgd":7420,"syn":7421,"systemen":7422,"trainen":7423,"Real":7424,"geweldige":7425,"transp":7426,"voert":7427,"##maatschap":7428,"generaal":7429,"Barneveld":7430,"fraude":7431,"Vries":7432,"vrezen":7433,"brede":7434,"criminele":7435,"waarschuwt":7436,"jaarlijkse":7437,"ingrijpen":7438,"##vriend":7439,"Kuipers":7440,"TikTok":7441,"Patrick":7442,"Gi":7443,"GL":7444,"Gar":7445,"Midden":7446,"QR":7447,"Ro":7448,"Rijn":7449,"Res":7450,"Reg":7451,"Toe":7452,"Tai":7453,"War":7454,"Zal":7455,"Zeel":7456,"adem":7457,"cond":7458,"ep":7459,"eieren":7460,"foss":7461,"gok":7462,"koude":7463,"la":7464,"lapt":7465,"tribun":7466,"##logen":7467,"##mpt":7468,"##moeder":7469,"##uinig":7470,"##kijken":7471,"##zamer":7472,"##wind":7473,"##ysteem":7474,"##EX":7475,"##St":7476,"##SA":7477,"##TO":7478,"deug":7479,"gedeeld":7480,"opgelegd":7481,"temp":7482,"##rog":7483,"##row":7484,"verle":7485,"bem":7486,"##ompen":7487,"stier":7488,"stoffen":7489,"##testen":7490,"##ida":7491,"##opers":7492,"worst":7493,"##akel":7494,"afspraak":7495,"onderd":7496,"##ikron":7497,"schat":7498,"schijnt":7499,"spe":7500,"##icit":7501,"##inda":7502,"meneer":7503,"anderhalf":7504,"mac":7505,"##osit":7506,"meegemaakt":7507,"broek":7508,"##elligen":7509,"##rachten":7510,"geleerd":7511,"##uchten":7512,"hoogst":7513,"Spot":7514,"##ows":7515,"##groeid":7516,"Belang":7517,"##lazen":7518,"##ertje":7519,"vest":7520,"sleutel":7521,"vastgesteld":7522,"##prom":7523,"accu":7524,"antwoorden":7525,"##aha":7526,"verklaren":7527,"racisme":7528,"##velder":7529,"betrokkenheid":7530,"provincies":7531,"aanbieden":7532,"##regeling":7533,"##structie":7534,"geïnter":7535,"apart":7536,"India":7537,"Andre":7538,"voorbereiding":7539,"kwalificatie":7540,"Smith":7541,"complete":7542,"##wekkend":7543,"nederlaag":7544,"cyber":7545,"RTL":7546,"afwachten":7547,"juridische":7548,"Normaal":7549,"Republike":7550,"toegevoegd":7551,"Peking":7552,"Leidse":7553,"Breda":7554,"!”":7555,"58":7556,"64":7557,"76":7558,"Hass":7559,"ID":7560,"Jans":7561,"James":7562,"Kees":7563,"Kinderen":7564,"Luk":7565,"Laur":7566,"Momen":7567,"SU":7568,"Vraag":7569,"bol":7570,"breken":7571,"bots":7572,"dol":7573,"fisc":7574,"kies":7575,"katten":7576,"ler":7577,"nat":7578,"oost":7579,"pomp":7580,"reeds":7581,"vat":7582,"vullen":7583,"vingers":7584,"vogels":7585,"wees":7586,"wapp":7587,"##lust":7588,"##hoe":7589,"##sing":7590,"##nel":7591,"##tw":7592,"##rr":7593,"##risten":7594,"##uste":7595,"##kking":7596,"##fonds":7597,"##wiel":7598,"##winst":7599,"##yan":7600,"##20":7601,"##perk":7602,"##FT":7603,"##PN":7604,"##elschap":7605,"##orger":7606,"##iness":7607,"##oneel":7608,"opent":7609,"opsp":7610,"##ingt":7611,"##versch":7612,"onmiddel":7613,"##idatie":7614,"omlaag":7615,"uiterst":7616,"uitkomst":7617,"##rijving":7618,"##tens":7619,"weiger":7620,"##ulde":7621,"waarden":7622,"afsluiten":7623,"ondernemer":7624,"##spec":7625,"##istiek":7626,"Alp":7627,"ploegen":7628,"wild":7629,"drink":7630,"##merken":7631,"gezonde":7632,"Stichting":7633,"Vanuit":7634,"achteraf":7635,"prett":7636,"Jezus":7637,"gelopen":7638,"gelooft":7639,"herf":7640,"helder":7641,"##rekking":7642,"Bijvoorbeeld":7643,"##groepen":7644,"##aardige":7645,"tennis":7646,"##achel":7647,"geschoten":7648,"jongere":7649,"doelpunt":7650,"ingediend":7651,"liepen":7652,"actrice":7653,"betekenis":7654,"##akter":7655,"##belasting":7656,"oudste":7657,"ervaringen":7658,"public":7659,"vervelend":7660,"balans":7661,"beschikken":7662,"gebouwen":7663,"forse":7664,"Precies":7665,"abonnement":7666,"arbeids":7667,"celstraf":7668,"Corona":7669,"verzamelen":7670,"Berlijn":7671,"##verbod":7672,"kwetsbaar":7673,"##wisseling":7674,"toeristen":7675,"argument":7676,"Brazilië":7677,"coureur":7678,"minimum":7679,"toevoegen":7680,"begroting":7681,"innov":7682,"linker":7683,"nucleaire":7684,"Moham":7685,"Turnhout":7686,"Zeeland":7687,"laptop":7688,"-,":7689,"AR":7690,"Bay":7691,"Cap":7692,"Dinsdag":7693,"Donderdag":7694,"Fv":7695,"Juist":7696,"Kr":7697,"Ok":7698,"Sil":7699,"Soc":7700,"Wol":7701,"asp":7702,"buik":7703,"frustr":7704,"goo":7705,"games":7706,"kra":7707,"kut":7708,"mode":7709,"ruil":7710,"rende":7711,"vel":7712,"vac":7713,"wett":7714,"##eind":7715,"##lijnen":7716,"##sma":7717,"##sverkiezingen":7718,"##mon":7719,"##maak":7720,"##kunde":7721,"##commissie":7722,"##ziek":7723,"##zoeken":7724,"##bit":7725,"##beek":7726,"##bord":7727,"##paal":7728,"##EM":7729,"##ijer":7730,"##eland":7731,"##stelsel":7732,"##ité":7733,"##itaal":7734,"##ongen":7735,"##denk":7736,"##eegd":7737,"aansp":7738,"##ilanden":7739,"##under":7740,"##othe":7741,"##ventie":7742,"##opol":7743,"uitvoering":7744,"overige":7745,"##ador":7746,"##uiker":7747,"##aks":7748,"##ikelen":7749,"schermen":7750,"##omende":7751,"gevaccin":7752,"##acten":7753,"toil":7754,"##ummer":7755,"vrees":7756,"##ella":7757,"gedragen":7758,"##ronde":7759,"##ecte":7760,"##bli":7761,"verscheen":7762,"##anny":7763,"##odigd":7764,"behulp":7765,"195":7766,"##wegingen":7767,"gespec":7768,"reguliere":7769,"nep":7770,"knop":7771,"waterstof":7772,"ingewikk":7773,"##klasse":7774,"scoot":7775,"voetballen":7776,"rollen":7777,"maandagavond":7778,"bevat":7779,"nachts":7780,"profiteren":7781,"vormt":7782,"menselijke":7783,"##motor":7784,"aanpass":7785,"duels":7786,"##unnel":7787,"Koning":7788,"##geweld":7789,"presentator":7790,"herinneren":7791,"##ympisch":7792,"gedeelt":7793,"doorgaans":7794,"markten":7795,"Wordt":7796,"mentale":7797,"ruime":7798,"kritisch":7799,"toevallig":7800,"Madrid":7801,"honger":7802,"diefstal":7803,"passagiers":7804,"Surinaamse":7805,"FvD":7806,"85":7807,"Geef":7808,"Oor":7809,"Prix":7810,"Tal":7811,"Wind":7812,"air":7813,"borst":7814,"econ":7815,"haast":7816,"lim":7817,"leed":7818,"mun":7819,"muz":7820,"oren":7821,"vice":7822,"wolf":7823,"zilver":7824,"##long":7825,"##gelijke":7826,"##ho":7827,"##heer":7828,"##dy":7829,"##doel":7830,"##neemt":7831,"##mes":7832,"##juist":7833,"##zijds":7834,"##bi":7835,"##bat":7836,"##vies":7837,"##velden":7838,"##vuldig":7839,"##ID":7840,"##án":7841,"##ano":7842,"##ankt":7843,"##elings":7844,"##strijd":7845,"##stranten":7846,"inlichtingen":7847,"##genodigd":7848,"opbren":7849,"##rof":7850,"##igr":7851,"vooralsnog":7852,"##omstandigheden":7853,"staten":7854,"##ologen":7855,"aangenomen":7856,"##rachter":7857,"Des":7858,"##opte":7859,"uitslag":7860,"wezen":7861,"##steun":7862,"ondersche":7863,"##ikke":7864,"##beiders":7865,"##utten":7866,"minst":7867,"kloppen":7868,"content":7869,"goedge":7870,"##plant":7871,"##plannen":7872,"##agent":7873,"besteed":7874,"bestellen":7875,"gezorgd":7876,"hiervan":7877,"Stel":7878,"verteld":7879,"##machine":7880,"Anne":7881,"netjes":7882,"persbureau":7883,"verschr":7884,"verlagen":7885,"kool":7886,"rechters":7887,"rechtstreeks":7888,"##ova":7889,"Leuk":7890,"Lewis":7891,"bezwaar":7892,"bezorgd":7893,"beslissen":7894,"energier":7895,"infrastructuur":7896,"adres":7897,"getrokken":7898,"regime":7899,"##ganger":7900,"zaterdagavond":7901,"woensdagavond":7902,"##ianne":7903,"##regio":7904,"##tuin":7905,"stijl":7906,"Onderwijs":7907,"moeilijker":7908,"##zaamheid":7909,"##accins":7910,"kilometers":7911,"elektrisch":7912,"Kamerlid":7913,"##gereden":7914,"middenvelder":7915,"fijne":7916,"appl":7917,"digitaal":7918,"Burgemeester":7919,"voorbereid":7920,"##interkl":7921,"zoektocht":7922,"seksuele":7923,"schietpartij":7924,"Pieter":7925,"identiteit":7926,"maximale":7927,"##inses":7928,"negentien":7929,"uitbreiding":7930,"Tegelijkertijd":7931,"kolon":7932,"Poolse":7933,"toegankelijk":7934,"ophef":7935,"Kleine":7936,"##record":7937,"Leuven":7938,"gecontroleerd":7939,"Zwitserland":7940,"Spotify":7941,"Momenteel":7942,"Boe":7943,"Beer":7944,"Bert":7945,"Cons":7946,"Du":7947,"Go":7948,"Green":7949,"Ka":7950,"KN":7951,"Los":7952,"Pat":7953,"Park":7954,"Weten":7955,"curs":7956,"ei":7957,"flex":7958,"laden":7959,"luister":7960,"lukken":7961,"pel":7962,"sing":7963,"tas":7964,"voegt":7965,"##lij":7966,"##roeg":7967,"##ower":7968,"##jer":7969,"##fra":7970,"##fiets":7971,"##zitten":7972,"##vingen":7973,"##ynam":7974,"##ita":7975,"geze":7976,"##roon":7977,"aangev":7978,"aanmerk":7979,"onrecht":7980,"##rey":7981,"##reur":7982,"##ouver":7983,"omvang":7984,"uitsp":7985,"uitgenodigd":7986,"##uls":7987,"##ikopter":7988,"##industrie":7989,"##ities":7990,"meent":7991,"##osc":7992,"gevoelens":7993,"toegenomen":7994,"exact":7995,"vloer":7996,"verdubb":7997,"##ofte":7998,"##mann":7999,"aangepakt":8000,"##contra":8001,"verbaas":8002,"Ont":8003,"2011":8004,"plaatsgevonden":8005,"verderop":8006,"Belasting":8007,"Art":8008,"gebruikte":8009,"opgesch":8010,"bestemming":8011,"afgesproken":8012,"##ffende":8013,"voetballer":8014,"drukte":8015,"2008":8016,"avont":8017,"zesde":8018,"verklaart":8019,"hulpdiensten":8020,"Twente":8021,"##loper":8022,"geheime":8023,"Parlement":8024,"onbekend":8025,"hoogtepunt":8026,"partners":8027,"##rete":8028,"Afrikaanse":8029,"herinneringen":8030,"Flor":8031,"##wachting":8032,"gecom":8033,"circuit":8034,"conclusies":8035,"figuur":8036,"verhoogd":8037,"Hoekstra":8038,"enthousiast":8039,"uitgaven":8040,"diversiteit":8041,"##szins":8042,"dividend":8043,"chaos":8044,"Amazon":8045,"Taiwan":8046,"herfst":8047,"63":8048,"Doordat":8049,"ING":8050,"Koop":8051,"Midd":8052,"Micro":8053,"Neem":8054,"Pen":8055,"Pog":8056,"Zondag":8057,"bom":8058,"capaciteit":8059,"del":8060,"essen":8061,"fonds":8062,"grijpen":8063,"lab":8064,"maan":8065,"paal":8066,"pagina":8067,"ware":8068,"woede":8069,"##gin":8070,"##hulp":8071,"##do":8072,"##moord":8073,"##cy":8074,"##cken":8075,"##pre":8076,"##App":8077,"##orge":8078,"##ieerd":8079,"##deur":8080,"##oeft":8081,"verhuis":8082,"##ijnse":8083,"allang":8084,"voorbeelden":8085,"##iler":8086,"onbet":8087,"onrust":8088,"##tewel":8089,"##amm":8090,"##ersf":8091,"uitkomen":8092,"overb":8093,"overheden":8094,"reser":8095,"##oosten":8096,"##aking":8097,"onderwerpen":8098,"##antwoorden":8099,"terras":8100,"mevrouw":8101,"##branden":8102,"##acar":8103,"mann":8104,"dronken":8105,"##valu":8106,"exclus":8107,"##abele":8108,"##ellingen":8109,"benen":8110,"Star":8111,"##oepel":8112,"prik":8113,"prim":8114,"missie":8115,"koste":8116,"##ations":8117,"##mpel":8118,"Mari":8119,"deelnemen":8120,"coronat":8121,"zekerheid":8122,"Vld":8123,"gras":8124,"stemt":8125,"##geleid":8126,"Group":8127,"uitgesproken":8128,"Gez":8129,"verzorg":8130,"##aliseerde":8131,"vervolg":8132,"bevatten":8133,"Black":8134,"smaak":8135,"##ificeren":8136,"aanwez":8137,"aanpakken":8138,"scheids":8139,"culturele":8140,"ongeloof":8141,"duo":8142,"vroege":8143,"Zwolle":8144,"experiment":8145,"gestemd":8146,"domin":8147,"aparte":8148,"transfer":8149,"beschermd":8150,"geconfront":8151,"consument":8152,"gevangenisstraf":8153,"Marokkaanse":8154,"Drent":8155,"verspreid":8156,"kwetsbare":8157,"Auto":8158,"figuren":8159,"##stijging":8160,"Financiën":8161,"smartphone":8162,"commerciële":8163,"botsing":8164,"##interklaas":8165,"geconfronteerd":8166,"72":8167,"AI":8168,"Echter":8169,"Holl":8170,"Ky":8171,"Nooit":8172,"Nick":8173,"Pel":8174,"Rac":8175,"Sant":8176,"Slecht":8177,"Tran":8178,"Veen":8179,"bleken":8180,"crash":8181,"ere":8182,"fi":8183,"lul":8184,"lukte":8185,"normen":8186,"paard":8187,"pakket":8188,"ru":8189,"veg":8190,"zoet":8191,"##iels":8192,"##loopt":8193,"##gl":8194,"##doet":8195,"##daagse":8196,"##nood":8197,"##tain":8198,"##zu":8199,"##vant":8200,"##pot":8201,"##MC":8202,"##AR":8203,"##10":8204,"##Pod":8205,"##ory":8206,"##ata":8207,"##stoel":8208,"##itische":8209,"gej":8210,"tegel":8211,"verbruik":8212,"beiden":8213,"##urg":8214,"aankomst":8215,"##verw":8216,"ongem":8217,"##ersoon":8218,"##agel":8219,"##aanval":8220,"##schoten":8221,"overstap":8222,"##stem":8223,"##stein":8224,"##ula":8225,"promot":8226,"##ikker":8227,"spect":8228,"sporten":8229,"##beurs":8230,"blanke":8231,"mach":8232,"##igend":8233,"##acte":8234,"klonk":8235,"conse":8236,"toestand":8237,"##iekem":8238,"milie":8239,"##voort":8240,"gezelschap":8241,"##volging":8242,"landelijk":8243,"percentage":8244,"##irect":8245,"plaatste":8246,"houding":8247,"evenementen":8248,"miss":8249,"##reedt":8250,"##oofde":8251,"verschijnt":8252,"samenwerken":8253,"##intje":8254,"rechtse":8255,"bezoeken":8256,"Schouten":8257,"##ours":8258,"Beste":8259,"##deelte":8260,"contacten":8261,"vakbond":8262,"region":8263,"paspoort":8264,"##eefde":8265,"##box":8266,"zondagavond":8267,"serv":8268,"series":8269,"120":8270,"elektron":8271,"##matige":8272,"2009":8273,"##azing":8274,"verklaard":8275,"effecten":8276,"veranderingen":8277,"130":8278,"onderzoeker":8279,"officier":8280,"spreek":8281,"##phen":8282,"goedkope":8283,"vergelijken":8284,"lidmaatschap":8285,"Brusselse":8286,"intim":8287,"intelligen":8288,"##regels":8289,"communic":8290,"radic":8291,"durf":8292,"cryptom":8293,"Volksgezondheid":8294,"prestaties":8295,"Komt":8296,"beperking":8297,"##wekkende":8298,"goal":8299,"ambities":8300,"##waardige":8301,"##scherming":8302,"negentig":8303,"karakter":8304,"Sterker":8305,"appartement":8306,"belastingen":8307,"Argentinië":8308,"Apeld":8309,"hersteld":8310,"Zodra":8311,"hevige":8312,"discriminatie":8313,"WhatsApp":8314,"69":8315,"Bah":8316,"Cong":8317,"Hu":8318,"Hart":8319,"Iemand":8320,"Nationale":8321,"Oud":8322,"Pere":8323,"Rog":8324,"Rid":8325,"Rec":8326,"Sar":8327,"Wet":8328,"claim":8329,"duid":8330,"esc":8331,"gister":8332,"hobby":8333,"kee":8334,"koopt":8335,"kampt":8336,"lad":8337,"leest":8338,"prij":8339,"roze":8340,"tij":8341,"ur":8342,"waan":8343,"wets":8344,"##loon":8345,"##kund":8346,"##zee":8347,"##bas":8348,"##wijn":8349,"##pakken":8350,"##NL":8351,"##BO":8352,"##OW":8353,"##AS":8354,"##örd":8355,"deskund":8356,"##aaid":8357,"##orde":8358,"##oniem":8359,"opkomst":8360,"##aler":8361,"isol":8362,"##iga":8363,"datum":8364,"voorop":8365,"bewegen":8366,"##oler":8367,"##olens":8368,"aanslagen":8369,"##illende":8370,"##rede":8371,"##oph":8372,"oversch":8373,"##zeggen":8374,"dans":8375,"schaam":8376,"schrijver":8377,"##spelen":8378,"##terrein":8379,"nieuwbouw":8380,"drones":8381,"##irt":8382,"elite":8383,"##abi":8384,"gedet":8385,"bocht":8386,"##blig":8387,"perspectief":8388,"verbazen":8389,"vastgoed":8390,"getra":8391,"opgezet":8392,"##ski":8393,"paarden":8394,"##iano":8395,"trainings":8396,"##belang":8397,"kwartier":8398,"command":8399,"stapte":8400,"korting":8401,"##ieleden":8402,"##iban":8403,"artsen":8404,"springen":8405,"Nieuws":8406,"parket":8407,"verpleeg":8408,"aanwezigheid":8409,"Plus":8410,"Eerste":8411,"##thans":8412,"behandelen":8413,"laagste":8414,"operation":8415,"rijke":8416,"##liggende":8417,"##duceerd":8418,"opmerking":8419,"beveiligings":8420,"durft":8421,"circa":8422,"terugkeer":8423,"zwembad":8424,"beperkte":8425,"##vergunning":8426,"##epoel":8427,"hersen":8428,"goeie":8429,"droogte":8430,"schakelen":8431,"enigszins":8432,"illegaal":8433,"##leidingen":8434,"klassieke":8435,"accepteren":8436,"beurzen":8437,"verschrikk":8438,"energiereken":8439,"Apeldoorn":8440,"''":8441,".,":8442,"700":8443,"96":8444,"Azi":8445,"Bil":8446,"Di":8447,"Ier":8448,"Oude":8449,"Rich":8450,"Rod":8451,"Tok":8452,"apen":8453,"btw":8454,"covid":8455,"coca":8456,"dru":8457,"drijven":8458,"jacht":8459,"keek":8460,"kocht":8461,"migranten":8462,"rang":8463,"so":8464,"sig":8465,"situaties":8466,"vee":8467,"vro":8468,"zelden":8469,"##ique":8470,"##ly":8471,"##aderen":8472,"##riv":8473,"##kelijke":8474,"##kante":8475,"##feren":8476,"##camera":8477,"##bie":8478,"##bon":8479,"##blessure":8480,"##wijken":8481,"##way":8482,"##RO":8483,"##IN":8484,"##EG":8485,"##één":8486,"##ijz":8487,"##ates":8488,"gepr":8489,"opsch":8490,"stal":8491,"##uring":8492,"##iller":8493,"##rappen":8494,"##oton":8495,"##ouch":8496,"omsch":8497,"uitgesteld":8498,"##rijder":8499,"weigeren":8500,"##schuwd":8501,"##steken":8502,"bijdragen":8503,"welvaart":8504,"welzijn":8505,"ofwel":8506,"schuil":8507,"##terecht":8508,"blok":8509,"nader":8510,"Maarten":8511,"gevoerd":8512,"##gerecht":8513,"klappen":8514,"gaande":8515,"management":8516,"##centra":8517,"branche":8518,"Alsof":8519,"Zeven":8520,"##avo":8521,"##blok":8522,"grootschal":8523,"verliest":8524,"aangeven":8525,"Maria":8526,"verbouw":8527,"verbinding":8528,"verbazing":8529,"Spart":8530,"gekl":8531,"gehand":8532,"eindigt":8533,"contain":8534,"##amilie":8535,"##vlakte":8536,"diens":8537,"halver":8538,"regerings":8539,"Techn":8540,"##alisatie":8541,"families":8542,"groeide":8543,"woonde":8544,"##lozen":8545,"profit":8546,"strafrecht":8547,"ballen":8548,"voortd":8549,"gevoelig":8550,"##personeel":8551,"feestje":8552,"Rotterdamse":8553,"Zwarte":8554,"Iedere":8555,"incidenten":8556,"##raanse":8557,"merkte":8558,"##alty":8559,"uitgebracht":8560,"praktisch":8561,"dwang":8562,"analisten":8563,"noteerde":8564,"Prins":8565,"bedreigd":8566,"prestatie":8567,"Evenepoel":8568,"geslaagd":8569,"demonstranten":8570,"signaal":8571,"Canade":8572,"##ombarde":8573,"##gekeerd":8574,"statushouders":8575,"uitzondering":8576,"Kevin":8577,"constat":8578,"agressie":8579,"besef":8580,"solid":8581,"kritische":8582,"##zinnig":8583,"compensatie":8584,"gezamenlijke":8585,"renners":8586,"ticket":8587,"religie":8588,"geregistr":8589,"Gemeente":8590,"virtu":8591,"marketing":8592,"##voudige":8593,"Palest":8594,"Bekijk":8595,"tempo":8596,"SUV":8597,"vacat":8598,"gespeci":8599,"62":8600,"AEX":8601,"Che":8602,"Dom":8603,"Dieren":8604,"Danny":8605,"GG":8606,"Gor":8607,"Gil":8608,"Geld":8609,"Iraanse":8610,"Joris":8611,"Kem":8612,"Kla":8613,"Lis":8614,"Maak":8615,"Mess":8616,"Museum":8617,"Mün":8618,"NU":8619,"Nik":8620,"Roo":8621,"Sig":8622,"Tijd":8623,"Wouter":8624,"ast":8625,"bussen":8626,"ball":8627,"brak":8628,"crit":8629,"fraa":8630,"hopelijk":8631,"kraan":8632,"lo":8633,"luidt":8634,"som":8635,"suiker":8636,"tik":8637,"tim":8638,"toed":8639,"vaccins":8640,"##golf":8641,"##hai":8642,"##horst":8643,"##soft":8644,"##ters":8645,"##kast":8646,"##jan":8647,"##boer":8648,"##back":8649,"##vels":8650,"##wicht":8651,"##weten":8652,"##21":8653,"##pat":8654,"##GB":8655,"##ero":8656,"##orf":8657,"##stan":8658,"##aarden":8659,"##aarse":8660,"##genoeg":8661,"opget":8662,"ophalen":8663,"opgericht":8664,"verhouding":8665,"vergeet":8666,"##ington":8667,"aanrijding":8668,"##vertegenwoord":8669,"diezelfde":8670,"hek":8671,"hect":8672,"##ageerd":8673,"uitger":8674,"##entje":8675,"##heim":8676,"afgev":8677,"prom":8678,"onderuit":8679,"##iking":8680,"schr":8681,"schand":8682,"##achter":8683,"spre":8684,"spanning":8685,"##uta":8686,"##imaat":8687,"blad":8688,"terugt":8689,"geweten":8690,"gevuld":8691,"##oordeling":8692,"meesten":8693,"slagen":8694,"conte":8695,"toespraak":8696,"##centr":8697,"eigenaren":8698,"brieven":8699,"##voorstel":8700,"verkoopt":8701,"gezeten":8702,"##urend":8703,"##ronken":8704,"##oods":8705,"##oodse":8706,"Chelse":8707,"verschenen":8708,"armen":8709,"##issers":8710,"handh":8711,"opende":8712,"konink":8713,"Spec":8714,"deelname":8715,"bezocht":8716,"aantallen":8717,"##gebieden":8718,"admin":8719,"Amersf":8720,"knal":8721,"knap":8722,"ideale":8723,"##vesting":8724,"Elk":8725,"organiseert":8726,"uitgeschakeld":8727,"score":8728,"##ookt":8729,"vervolgt":8730,"relaties":8731,"lastige":8732,"offs":8733,"Union":8734,"Britten":8735,"##ortef":8736,"coronabe":8737,"succesvolle":8738,"versterk":8739,"##gemeesters":8740,"##veiligheid":8741,"verdwijnt":8742,"dromen":8743,"##plek":8744,"besmet":8745,"domme":8746,"stuurde":8747,"##atsoen":8748,"##sprekend":8749,"verblijven":8750,"Saoed":8751,"verbetering":8752,"factor":8753,"professionele":8754,"Democr":8755,"plotseling":8756,"inzitten":8757,"chef":8758,"##verlening":8759,"Filip":8760,"Korea":8761,"##schaft":8762,"beschadigd":8763,"batterij":8764,"moslims":8765,"##wijzingen":8766,"Mexico":8767,"maaltijd":8768,"vereist":8769,"downlo":8770,"conclude":8771,"prioriteit":8772,"Derksen":8773,"streaming":8774,"gewaarschuwd":8775,"onmiddellijk":8776,"Microsoft":8777,"##ördin":8778,"München":8779,"Amersfoort":8780,"47":8781,"67":8782,"Bul":8783,"Emmen":8784,"Hand":8785,"Ju":8786,"Jas":8787,"Koen":8788,"Nov":8789,"Pet":8790,"Rij":8791,"Ram":8792,"Raf":8793,"Sec":8794,"Vers":8795,"Voice":8796,"buit":8797,"erachter":8798,"file":8799,"gelijke":8800,"huren":8801,"hinder":8802,"migratie":8803,"raden":8804,"tanden":8805,"taken":8806,"trie":8807,"varen":8808,"visie":8809,"zwij":8810,"##last":8811,"##grepen":8812,"##aine":8813,"##nie":8814,"##richten":8815,"##mar":8816,"##mos":8817,"##ket":8818,"##kra":8819,"##cteur":8820,"##bos":8821,"##pad":8822,"##ED":8823,"##éér":8824,"##enis":8825,"##aters":8826,"##stukken":8827,"gedeelte":8828,"##oedt":8829,"voorstelling":8830,"##lek":8831,"ongelijk":8832,"##raft":8833,"##unch":8834,"uitgeven":8835,"west":8836,"##ienden":8837,"bijstand":8838,"##zege":8839,"danken":8840,"##ulaire":8841,"afbeeld":8842,"scheelt":8843,"##uurde":8844,"##lands":8845,"##spannen":8846,"##bes":8847,"volgers":8848,"menig":8849,"meg":8850,"tweehonderd":8851,"klus":8852,"bedraagt":8853,"##wijze":8854,"auton":8855,"Jean":8856,"Chris":8857,"verlaging":8858,"wijs":8859,"traject":8860,"huisarts":8861,"vergoeding":8862,"besluiten":8863,"##liep":8864,"##naval":8865,"##akkers":8866,"natuurlijke":8867,"sindsdien":8868,"knoppen":8869,"##alloze":8870,"verwachte":8871,"diende":8872,"lieve":8873,"ongeacht":8874,"Allemaal":8875,"sterf":8876,"Groningse":8877,"donderdagavond":8878,"##zigt":8879,"gepubl":8880,"spraken":8881,"##orps":8882,"tranen":8883,"##shof":8884,"windm":8885,"##gedragen":8886,"besproken":8887,"bevolkings":8888,"dreiging":8889,"seconde":8890,"ontdekte":8891,"debuut":8892,"gegooid":8893,"opmerkelijk":8894,"voorbereiden":8895,"##stromen":8896,"signalen":8897,"concurrent":8898,"heerlijk":8899,"##vrije":8900,"Remco":8901,"International":8902,"Media":8903,"uitdagingen":8904,"lening":8905,"onzekerheid":8906,"strenge":8907,"opgevangen":8908,"blokkeren":8909,"cruciale":8910,"vijand":8911,"efficiën":8912,"toepassing":8913,"automobilist":8914,"personeelstekort":8915,"satell":8916,"verrassing":8917,"YouT":8918,"Zweedse":8919,"ruzie":8920,"Griekenland":8921,"##bliotheek":8922,"munitie":8923,"Belastingdienst":8924,"cocaïne":8925,"Chelsea":8926,"##ortefeu":8927,"BN":8928,"Bon":8929,"Dub":8930,"Dirk":8931,"Gas":8932,"Gaz":8933,"Gold":8934,"Hend":8935,"Heu":8936,"Jack":8937,"KNV":8938,"Lil":8939,"My":8940,"Merk":8941,"Nor":8942,"Sinterklaas":8943,"Soph":8944,"VT":8945,"Verg":8946,"bless":8947,"herk":8948,"kou":8949,"lacht":8950,"ring":8951,"ram":8952,"razen":8953,"rapper":8954,"sier":8955,"##ez":8956,"##iver":8957,"##gaand":8958,"##hart":8959,"##ault":8960,"##raak":8961,"##mingen":8962,"##ueel":8963,"##zitt":8964,"##bol":8965,"##baas":8966,"##vond":8967,"##ya":8968,"##pte":8969,"##RC":8970,"##GP":8971,"##éél":8972,"##etische":8973,"##stat":8974,"ingevoerd":8975,"opst":8976,"opla":8977,"oprecht":8978,"opricht":8979,"##arische":8980,"tevens":8981,"voorgaande":8982,"##omeen":8983,"strijden":8984,"aanleg":8985,"aanvoerder":8986,"##ilde":8987,"onte":8988,"onterecht":8989,"##okter":8990,"oma":8991,"##usie":8992,"##asker":8993,"uitleg":8994,"##rijp":8995,"##rijgen":8996,"overgang":8997,"reist":8998,"##ads":8999,"nogmaals":9000,"##uizing":9001,"##apte":9002,"onderling":9003,"schuiven":9004,"##speel":9005,"spons":9006,"Intussen":9007,"##artsen":9008,"veelal":9009,"gewonden":9010,"minste":9011,"##ugh":9012,"##ffing":9013,"##accept":9014,"zelfde":9015,"toeschouw":9016,"droeg":9017,"##afe":9018,"brons":9019,"gender":9020,"State":9021,"##ingsuit":9022,"Vooruit":9023,"verlopen":9024,"aangevallen":9025,"wijz":9026,"oordeel":9027,"Vergeet":9028,"beschikt":9029,"behoren":9030,"probeer":9031,"gehele":9032,"##graaf":9033,"Sche":9034,"valse":9035,"vermeld":9036,"vermijden":9037,"oorlogsm":9038,"bureau":9039,"duurde":9040,"geruchten":9041,"knuff":9042,"Fransen":9043,"##entegen":9044,"computer":9045,"##tieme":9046,"instellen":9047,"vervolgd":9048,"##ologisch":9049,"sterven":9050,"buurman":9051,"zwaargew":9052,"gewelddad":9053,"concrete":9054,"broers":9055,"glim":9056,"strak":9057,"hoeveelheden":9058,"immigratie":9059,"krachtig":9060,"Haagse":9061,"aanvankelijk":9062,"Zwits":9063,"fietser":9064,"aandeelhouders":9065,"berichtgeving":9066,"##kantoor":9067,"teksten":9068,"##lopende":9069,"fabrikant":9070,"beslissingen":9071,"Australische":9072,"bedreiging":9073,"Volkskrant":9074,"verzekering":9075,"emotioneel":9076,"tevoren":9077,"Staats":9078,"##tenties":9079,"perfecte":9080,"goals":9081,"wielren":9082,"argumenten":9083,"maximum":9084,"Heeren":9085,"Visma":9086,"bijeenkomst":9087,"fantastisch":9088,"artiesten":9089,"documentaire":9090,"Ronaldo":9091,"##draaien":9092,"gewenste":9093,"Capit":9094,"toilet":9095,"goedgekeurd":9096,"Middel":9097,"consequent":9098,"context":9099,"2e":9100,"68":9101,"A2":9102,"Beleg":9103,"Cla":9104,"Dui":9105,"FNV":9106,"Hele":9107,"Jo":9108,"KV":9109,"Kal":9110,"Lat":9111,"Ooster":9112,"Woensdag":9113,"brein":9114,"cur":9115,"da":9116,"dachten":9117,"eredivisie":9118,"fik":9119,"fatsoen":9120,"held":9121,"lijf":9122,"lijnen":9123,"mrd":9124,"nar":9125,"puin":9126,"trokken":9127,"tanks":9128,"##laten":9129,"##hond":9130,"##hoge":9131,"##sman":9132,"##agens":9133,"##uen":9134,"##uken":9135,"##uun":9136,"##foto":9137,"##zeer":9138,"##zocht":9139,"##bt":9140,"##boot":9141,"##wood":9142,"##yen":9143,"##pele":9144,"##part":9145,"##ES":9146,"##erem":9147,"##ijpen":9148,"##ela":9149,"##informatie":9150,"##atal":9151,"##atië":9152,"vanmiddag":9153,"vanochtend":9154,"ingericht":9155,"##onne":9156,"opnemen":9157,"##ala":9158,"verf":9159,"##igden":9160,"voordelen":9161,"bekeken":9162,"##geval":9163,"##raven":9164,"##unk":9165,"##aats":9166,"##otten":9167,"##oule":9168,"omikron":9169,"erkennen":9170,"##rijders":9171,"##zeg":9172,"doorheen":9173,"afk":9174,"afnemen":9175,"progress":9176,"meermaals":9177,"onderst":9178,"##bew":9179,"##beste":9180,"daaraan":9181,"##rucht":9182,"##weegt":9183,"Altijd":9184,"##aagden":9185,"##arend":9186,"##mens":9187,"grand":9188,"klacht":9189,"gemak":9190,"toegestaan":9191,"begrepen":9192,"exter":9193,"eigendom":9194,"##bruiken":9195,"Eric":9196,"Erdogan":9197,"hierdoor":9198,"geniet":9199,"##elletje":9200,"gebleken":9201,"##aamd":9202,"verduur":9203,"levensl":9204,"aangest":9205,"seg":9206,"beschikking":9207,"##gevend":9208,"probeerden":9209,"##gestoken":9210,"getekend":9211,"burgemeesters":9212,"planeet":9213,"cliënt":9214,"##burger":9215,"##ally":9216,"graan":9217,"koploper":9218,"##ype":9219,"soci":9220,"actieve":9221,"instroom":9222,"drukke":9223,"##mate":9224,"Duitsers":9225,"zwaarder":9226,"gepresent":9227,"motie":9228,"sportieve":9229,"zevende":9230,"zeventig":9231,"##quê":9232,"##ainz":9233,"quarant":9234,"bevestigen":9235,"droge":9236,"zoontje":9237,"logo":9238,"Utrechtse":9239,"President":9240,"Conc":9241,"biologische":9242,"stuurt":9243,"Hollandse":9244,"voorzieningen":9245,"##wedstrijden":9246,"garage":9247,"Volkswagen":9248,"##hanistan":9249,"investering":9250,"##gegevens":9251,"volwassenen":9252,"##maatschappijen":9253,"liedjes":9254,"correct":9255,"illegale":9256,"meenemen":9257,"degene":9258,"corruptie":9259,"Syrië":9260,"Williams":9261,"Afghanistan":9262,"mishandeling":9263,"conservatieve":9264,"VRT":9265,"##snelheid":9266,"wereldtitel":9267,"Disney":9268,"gevestigd":9269,"André":9270,"fenomeen":9271,"fossiele":9272,"gedeeltelijk":9273,"##longren":9274,"peloton":9275,"aanmerking":9276,"##ouverne":9277,"Pogacar":9278,"scheidsrechter":9279,"spectac":9280,"energierekening":9281,"Ierland":9282,"KNVB":9283,"61":9284,"Boeren":9285,"Croo":9286,"Dut":9287,"GP":9288,"Genk":9289,"Hit":9290,"Hond":9291,"Hoo":9292,"Kw":9293,"Linda":9294,"Meg":9295,"May":9296,"No":9297,"Nic":9298,"Rand":9299,"Rab":9300,"Suz":9301,"VK":9302,"Wijn":9303,"Wagen":9304,"back":9305,"dé":9306,"dame":9307,"evalu":9308,"fit":9309,"kranten":9310,"my":9311,"mand":9312,"mem":9313,"nationaal":9314,"ped":9315,"rent":9316,"vari":9317,"vaardig":9318,"wh":9319,"wielen":9320,"##eaus":9321,"##li":9322,"##sels":9323,"##meld":9324,"##ji":9325,"##jaard":9326,"##jarig":9327,"##fiet":9328,"##cte":9329,"##bra":9330,"##brek":9331,"##pas":9332,"##pop":9333,"##post":9334,"##BA":9335,"##ene":9336,"##ijing":9337,"##oriteit":9338,"opin":9339,"opleveren":9340,"opvallende":9341,"##aret":9342,"##ros":9343,"verricht":9344,"verbrand":9345,"bevinden":9346,"staf":9347,"stiekem":9348,"##older":9349,"aanstaande":9350,"##verkl":9351,"##rez":9352,"##asme":9353,"##opper":9354,"uitgest":9355,"realistisch":9356,"afwe":9357,"onderscheid":9358,"schimm":9359,"schouders":9360,"##ants":9361,"##spectie":9362,"##bewoners":9363,"kansl":9364,"##ruck":9365,"##weeg":9366,"zout":9367,"nieuwkom":9368,"ontving":9369,"weerstand":9370,"##ffe":9371,"klok":9372,"concept":9373,"##platform":9374,"hieronder":9375,"snappen":9376,"vertrekt":9377,"landschap":9378,"perman":9379,"Opvallend":9380,"##blog":9381,"##blik":9382,"gelaten":9383,"binnenstad":9384,"toenmalige":9385,"koken":9386,"##meester":9387,"aangewezen":9388,"interne":9389,"Verh":9390,"##asser":9391,"##renzen":9392,"bescheiden":9393,"rondje":9394,"verhoging":9395,"behalen":9396,"##rukte":9397,"tenzij":9398,"vermeen":9399,"treffer":9400,"gestaan":9401,"##ansk":9402,"getoond":9403,"vakbonden":9404,"bewonder":9405,"topic":9406,"besteden":9407,"regelgeving":9408,"hoofdrol":9409,"##lementen":9410,"seizoenen":9411,"sympath":9412,"ongewen":9413,"nadruk":9414,"##ianen":9415,"Tex":9416,"##alisering":9417,"bevoegd":9418,"2007":9419,"Thijs":9420,"##alistische":9421,"wetgeving":9422,"##ressie":9423,"##houdingen":9424,"##betalen":9425,"bespreken":9426,"verkiezing":9427,"Ollongren":9428,"verrast":9429,"raadslid":9430,"uiterlijk":9431,"onverwacht":9432,"massa":9433,"interessante":9434,"tekenen":9435,"Burg":9436,"wandelen":9437,"##ollege":9438,"garantie":9439,"consum":9440,"Gelderse":9441,"olympisch":9442,"investeerders":9443,"tegenstanders":9444,"##rapte":9445,"subsidies":9446,"historisch":9447,"adviseur":9448,"##onieme":9449,"hersenen":9450,"begeleiding":9451,"donkere":9452,"maatschappelijk":9453,"gepleegd":9454,"relevant":9455,"FIFA":9456,"Kroatië":9457,"lockdowns":9458,"duurzaamheid":9459,"dichterbij":9460,"uitstekende":9461,"betrouwbaar":9462,"ventil":9463,"kiezers":9464,"bruto":9465,"vonnis":9466,"Tilburg":9467,"beïnvloeden":9468,"911":9469,"Sigrid":9470,"Heerenveen":9471,",-":9472,"AT":9473,"Ede":9474,"Gisteren":9475,"Hy":9476,"Kra":9477,"Kos":9478,"Ly":9479,"Moeder":9480,"Nord":9481,"NEC":9482,"Ou":9483,"Pak":9484,"Play":9485,"Som":9486,"Sainz":9487,"Tay":9488,"fat":9489,"hack":9490,"jarig":9491,"kippen":9492,"lol":9493,"luid":9494,"long":9495,"lenen":9496,"moorden":9497,"ok":9498,"sur":9499,"truc":9500,"titels":9501,"talloze":9502,"vocht":9503,"wou":9504,"zó":9505,"zeld":9506,"##iat":9507,"##ipl":9508,"##ln":9509,"##loge":9510,"##tzigt":9511,"##ringen":9512,"##makers":9513,"##korten":9514,"##jaren":9515,"##fen":9516,"##beer":9517,"##bels":9518,"##bellen":9519,"##IJ":9520,"##Book":9521,"##etsen":9522,"##ely":9523,"##inten":9524,"eng":9525,"##denkt":9526,"bejaar":9527,"aanwijzingen":9528,"##gevers":9529,"##tekort":9530,"uitbraak":9531,"##seizoen":9532,"overgenomen":9533,"overgebracht":9534,"recept":9535,"reserv":9536,"remmen":9537,"##aalden":9538,"##ado":9539,"##heven":9540,"prot":9541,"##sper":9542,"##speeld":9543,"anonieme":9544,"betrapt":9545,"nagenoeg":9546,"##erkant":9547,"##nex":9548,"zelfstandig":9549,"hoever":9550,"##etsel":9551,"komend":9552,"##perd":9553,"bestrijden":9554,"gedoe":9555,"zitting":9556,"werking":9557,"moeders":9558,"gebruiker":9559,"##orgh":9560,"##blazen":9561,"hemel":9562,"Volod":9563,"Volgende":9564,"verliefd":9565,"herken":9566,"aangesloten":9567,"trappen":9568,"Ongev":9569,"vierkante":9570,"vergunn":9571,"vergadering":9572,"##groeien":9573,"Schol":9574,"zijde":9575,"verminder":9576,"treffen":9577,"##clubs":9578,"Beijing":9579,"getrouw":9580,"##problemen":9581,"##producten":9582,"knip":9583,"duidelijkheid":9584,"speelden":9585,"1500":9586,"afgezet":9587,"gereageerd":9588,"rekent":9589,"startte":9590,"Thier":9591,"trof":9592,"Kamerleden":9593,"stapt":9594,"shit":9595,"##ectiev":9596,"leeftijds":9597,"##result":9598,"##auwe":9599,"##keurig":9600,"trui":9601,"kijker":9602,"##uleerd":9603,"kernwapens":9604,"kinderopvang":9605,"leuker":9606,"ondersteunt":9607,"simpele":9608,"##aafd":9609,"Vandaar":9610,"Gerrit":9611,"##iekenhuis":9612,"opmerkelijke":9613,"##stalige":9614,"##verhogingen":9615,"initiatieven":9616,"intensie":9617,"Queen":9618,"olympische":9619,"ondersteunen":9620,"updates":9621,"idi":9622,"schadelijk":9623,"##kanker":9624,"##oppeld":9625,"beschuldigingen":9626,"ADO":9627,"homo":9628,"kathol":9629,"premie":9630,"uitbreiden":9631,"Telegram":9632,"penalty":9633,"##schaffen":9634,"Forum":9635,"Arabië":9636,"NIET":9637,"dodelijke":9638,"tentoonstelling":9639,"vreselijk":9640,"overwegend":9641,"##danig":9642,"##wonenden":9643,"geïnteress":9644,"drinkwater":9645,"rendement":9646,"opbrengst":9647,"hectare":9648,"oorlogsmisd":9649,"##ouverneur":9650,"56":9651,"Award":9652,"BA":9653,"Comp":9654,"DNA":9655,"Ho":9656,"Hem":9657,"Kruis":9658,"Lie":9659,"Las":9660,"Maz":9661,"NC":9662,"Part":9663,"Sander":9664,"Tro":9665,"Thuis":9666,"Vos":9667,"bor":9668,"buigen":9669,"feesten":9670,"hol":9671,"kW":9672,"kolen":9673,"lelijk":9674,"mant":9675,"malen":9676,"neef":9677,"nutt":9678,"pogingen":9679,"pauze":9680,"vaart":9681,"voegen":9682,"woest":9683,"##dro":9684,"##dings":9685,"##namen":9686,"##rel":9687,"##mis":9688,"##mod":9689,"##mogen":9690,"##ford":9691,"##zaal":9692,"##zoeker":9693,"##boeken":9694,"##wand":9695,"##positie":9696,"##EA":9697,"##40":9698,"##DR":9699,"##OC":9700,"##HO":9701,"##inf":9702,"##ato":9703,"##atch":9704,"##itsen":9705,"ingev":9706,"ingang":9707,"instelling":9708,"opgesteld":9709,"##ality":9710,"##ary":9711,"voorkomt":9712,"##lekken":9713,"bevindt":9714,"##omer":9715,"aanvoer":9716,"aansluiting":9717,"meten":9718,"##opl":9719,"uiteen":9720,"uitgaan":9721,"uitmaken":9722,"uitleggen":9723,"wein":9724,"dansen":9725,"##uift":9726,"waaraan":9727,"aff":9728,"spion":9729,"volst":9730,"##oedsel":9731,"##slotte":9732,"bloot":9733,"betaling":9734,"meiden":9735,"mega":9736,"ontg":9737,"ontkennen":9738,"##ctief":9739,"verkrijg":9740,"gezocht":9741,"gebl":9742,"langzamer":9743,"werknemer":9744,"landgenoot":9745,"##mannen":9746,"verlaagd":9747,"verwarming":9748,"handhaven":9749,"##ifest":9750,"School":9751,"##gebroken":9752,"Omtzigt":9753,"##code":9754,"kenteken":9755,"krui":9756,"geroepen":9757,"tienduizenden":9758,"Arm":9759,"opgehaald":9760,"bewind":9761,"amateur":9762,"George":9763,"sympt":9764,"lastiger":9765,"bevr":9766,"redactie":9767,"##haling":9768,"mooier":9769,"uniek":9770,"verdiend":9771,"erom":9772,"strafbaar":9773,"patiënt":9774,"kapitaal":9775,"optimaal":9776,"contracten":9777,"fietsers":9778,"matig":9779,"carnaval":9780,"statement":9781,"pech":9782,"Groene":9783,"eeuwen":9784,"Johnny":9785,"##speler":9786,"respectiev":9787,"papieren":9788,"##kwaliteit":9789,"Indones":9790,"kampioenschap":9791,"sluiting":9792,"Milan":9793,"verplichte":9794,"repar":9795,"wetenschappelijke":9796,"oefenen":9797,"Saint":9798,"Timmer":9799,"emotionele":9800,"wennen":9801,"Dries":9802,"vlaggen":9803,"vreemde":9804,"absolute":9805,"adviseert":9806,"kruising":9807,"Brabantse":9808,"toetsen":9809,"explosie":9810,"vanzelfsprekend":9811,"human":9812,"beseffen":9813,"##ransitie":9814,"##complex":9815,"appartementen":9816,"dringend":9817,"liberale":9818,"Egyp":9819,"wolven":9820,"assistent":9821,"AMG":9822,"regenboog":9823,"Veiligheids":9824,"aanhoudende":9825,"getuige":9826,"omstreden":9827,"originele":9828,"aanmeldcentrum":9829,"prettig":9830,"gooide":9831,"Slechts":9832,"regionale":9833,"Perez":9834,"escal":9835,"geregistreerd":9836,"coronabesm":9837,"Bulg":9838,"YouTube":9839,"##ortefeuille":9840,"verduurz":9841,"##quête":9842,"Ongeveer":9843,"verkrijgbaar":9844,"!\"":9845,"88":9846,"Bu":9847,"Cru":9848,"Ele":9849,"Fre":9850,"Hor":9851,"Hot":9852,"Hum":9853,"Jaar":9854,"Kenn":9855,"Klein":9856,"Lot":9857,"Roemen":9858,"Toy":9859,"Vrouwen":9860,"Visser":9861,"boeg":9862,"bitcoin":9863,"canc":9864,"dun":9865,"fris":9866,"jagen":9867,"kart":9868,"kaas":9869,"kaars":9870,"puz":9871,"roe":9872,"rouw":9873,"rare":9874,"vult":9875,"zult":9876,"##ière":9877,"##hoofd":9878,"##nummer":9879,"##ms":9880,"##ko":9881,"##kun":9882,"##kop":9883,"##cil":9884,"##ciale":9885,"##campagne":9886,"##zakken":9887,"##waren":9888,"##BI":9889,"##óg":9890,"##HEM":9891,"##ston":9892,"##genote":9893,"##eept":9894,"opbouwen":9895,"opnames":9896,"##ares":9897,"verplaatsen":9898,"voorb":9899,"##ieter":9900,"staal":9901,"stort":9902,"##oli":9903,"##urn":9904,"aansch":9905,"aanbev":9906,"##iling":9907,"ongen":9908,"onaan":9909,"##rapport":9910,"uitschak":9911,"##advies":9912,"##ape":9913,"##apie":9914,"afgenomen":9915,"procedure":9916,"spanningen":9917,"spiegel":9918,"kanaal":9919,"##icten":9920,"daarentegen":9921,"##itieke":9922,"terreur":9923,"Eng":9924,"##westen":9925,"ontvlucht":9926,"ontbreken":9927,"##gerd":9928,"##datum":9929,"gemat":9930,"confront":9931,"tocht":9932,"##ume":9933,"toestellen":9934,"belde":9935,"##elli":9936,"Zeg":9937,"##volgende":9938,"##reef":9939,"verloopt":9940,"aanged":9941,"Verd":9942,"##anceerd":9943,"##izer":9944,"Leon":9945,"staande":9946,"##lah":9947,"##akkelijke":9948,"werkende":9949,"kenmerken":9950,"tiener":9951,"knoop":9952,"chips":9953,"##skan":9954,"##vloer":9955,"stemming":9956,"ideaal":9957,"leveranciers":9958,"Niets":9959,"zondagmiddag":9960,"specialist":9961,"trainingen":9962,"posities":9963,"Groningers":9964,"##uldige":9965,"2002":9966,"wethouders":9967,"brom":9968,"Jansen":9969,"straffen":9970,"Steen":9971,"strafschop":9972,"middels":9973,"panelen":9974,"schadevergoeding":9975,"balk":9976,"aanvullen":9977,"aanvraag":9978,"parkeren":9979,"Sindsdien":9980,"bevestigde":9981,"operaties":9982,"studio":9983,"levensgevaar":9984,"herinnering":9985,"inspanningen":9986,"MacBook":9987,"loopbaan":9988,"Meerdere":9989,"opmerkingen":9990,"alternatieve":9991,"ontmoeten":9992,"onderhandelen":9993,"##cuus":9994,"definitieve":9995,"extreemrecht":9996,"verlenen":9997,"kwalijk":9998,"zwemmen":9999}}}