{"version":"1.0","truncation":null,"padding":null,"added_tokens":[{"id":0,"special":true,"content":"<UNK>","single_word":false,"lstrip":false,"rstrip":false,"normalized":false},{"id":1,"special":true,"content":"<SEP>","single_word":false,"lstrip":false,"rstrip":false,"normalized":false},{"id":2,"special":true,"content":"<MASK>","single_word":false,"lstrip":false,"rstrip":false,"normalized":false},{"id":3,"special":true,"content":"<CLS>","single_word":false,"lstrip":false,"rstrip":false,"normalized":false}],"normalizer":null,"pre_tokenizer":{"type":"Whitespace"},"post_processor":null,"decoder":null,"model":{"type":"Unigram","unk_id":0,"vocab":[["<UNK>",0.0],["<SEP>",0.0],["<MASK>",0.0],["<CLS>",0.0],["s",-2.495936388438519],["de",-3.2340459677111824],[",",-3.3687914365908576],[".",-3.5302162861390105],["’",-3.674039124233003],["e",-3.774348389276028],["la",-3.9975757249801482],["l",-4.09289237459924],["a",-4.159054226567093],["le",-4.177921370518803],["d",-4.244902499654636],["à",-4.291286192487828],["et",-4.429787122902029],["'",-4.556678982098466],["en",-4.571413111721819],["les",-4.658253048824289],["t",-4.679407444480553],["n",-4.803488004771976],["un",-4.814784959113529],["-",-4.831621073681408],["est",-4.879352672358969],["du",-4.893801915030664],["des",-4.9919705163018],["une",-5.046768834938414],["pour",-5.069537647696745],["que",-5.120767992567133],["ont",-5.202622662901934],["au",-5.245348191082238],["dans",-5.2706413804682235],["qui",-5.310910559006782],["r",-5.370570836576313],["ment",-5.377382212564866],["ce",-5.388921471174864],["sur",-5.450305556978176],["par",-5.495991189493539],["il",-5.554428434791598],["«",-5.578701171774757],["pas",-5.620178235233684],["i",-5.714668658305593],["Le",-5.733021206972747],["plus",-5.802874324291146],["nt",-5.840628255799624],["c",-5.84694338005783],["on",-5.890484690900848],["qu",-5.941422409172429],["son",-5.950643132368096],["avec",-5.955138917393764],["aux",-5.95836263663389],["\"",-5.960940774273931],["C",-5.982888238562142],["u",-6.011693074001938],["été",-6.034778223531976],["La",-6.09185776732471],["(",-6.128962985889972],["L",-6.150557753316628],["y",-6.21127943918381],["ent",-6.211618132984357],["x",-6.244057927158641],["o",-6.260353525209748],["é",-6.2851840756868995],["A",-6.334947293384781],["Il",-6.373975967668853],["leur",-6.402992919056473],["ou",-6.411443561931142],["mais",-6.463245113600395],[":",-6.466693159383334],["Les",-6.468477139495283],["cette",-6.505734531747496],["fait",-6.519384641517565],["étai",-6.545765217728441],["20",-6.5470314024889475],["»,",-6.574201379412957],["tout",-6.597087951591357],["elle",-6.610053088708204],["»",-6.679744061782609],["être",-6.68338240355922],["puis",-6.68574329736335],["nous",-6.698937685501139],["jour",-6.735525584277939],["deux",-6.75806526370901],["En",-6.778432734996942],["ans",-6.786142897322209],["ant",-6.788310272766754],["autre",-6.811344418146527],["même",-6.813533771940145],["avait",-6.828154125441701],["vou",-6.831205978224093],["comme",-6.841159310963814],[")",-6.850690420775399],["aussi",-6.877834347038688],["lui",-6.883983909725222],["faire",-6.956527326483515],["M",-6.962115614520757],["après",-6.97672231032179],["m",-7.006523038743952],["lors",-7.014629864887624],["avoir",-7.024797362273488],["bien",-7.028920992607286],["année",-7.0325501183246555],["tre",-7.041910869256248],["j",-7.047176745791442],["Ce",-7.0602789167625915],["eux",-7.07529082142681],["fois",-7.093833781889387],["ai",-7.104236018027563],["rès",-7.108502955274312],["S",-7.11122609646849],["entre",-7.120511361269412],["je",-7.177676338148331],["On",-7.209825086375763],["contre",-7.212183367338367],["pays",-7.213926159297916],["D",-7.224675647664122],["Pour",-7.227587913078424],["peu",-7.228470328943286],["z",-7.2303861606370745],["oit",-7.231074193983017],["v",-7.240033636148683],["19",-7.240825727281388],["f",-7.244094803289803],["ait",-7.246598813014269],["ux",-7.255238723188329],["2",-7.261309828291273],["%",-7.265454903831943],["P",-7.270956872334147],["personne",-7.2832484158472655],["coup",-7.291475959358182],["près",-7.303462550557537],["temp",-7.306172812456913],["fin",-7.312057725897092],["Un",-7.312693134059211],["avant",-7.317660339665076],["De",-7.3229508594489365],["Mais",-7.324219357945033],["Je",-7.32630409834665],["peut",-7.328731280501294],["1",-7.333791615927974],["p",-7.3411562047314645],["me",-7.341230829603448],["égale",-7.352717654877546],["encor",-7.353439348852419],["dernier",-7.356889798145169],["toute",-7.371914108853815],["».",-7.379539366814453],["premier",-7.389169282100197],["ù",-7.394823798803986],["Une",-7.408503279760396],["Et",-7.423167327591097],["J",-7.428784906929993],["mi",-7.431325437693027],["vie",-7.442481179643583],["sera",-7.443879416981893],["no",-7.450067279933674],["tant",-7.458067484945529],["monde",-7.458588083964003],["3",-7.4600054816671095],["président",-7.472592701447129],["ation",-7.478971888838786],["moin",-7.485185129531182],["va",-7.495971240896303],[").",-7.501432847425882],["sans",-7.506894965621854],["première",-7.510001095149354],["5",-7.531939623694999],["2022",-7.5379412622498965],["tou",-7.544382918911613],["place",-7.545868492169456],["pri",-7.549693552721071],["\",",-7.551148352191777],["ez",-7.5642702317101085],["ces",-7.574117990526761],["ministre",-7.577613383951411],["h",-7.577719733679617],["mois",-7.579727755800069],["ette",-7.580413314717281],["Dans",-7.581894962266609],["…",-7.595336158443824],["Nous",-7.595738061262537],["elon",-7.5972856934294075],["tous",-7.5991387886581645],["dit",-7.600314779277243],["4",-7.610323215616311],["“",-7.61032710281794],["déjà",-7.610967542567429],["E",-7.612981661260471],["nouveau",-7.615067831524138],["nouvelle",-7.633916625815591],["quelque",-7.638032959065323],["trois",-7.647572683639565],["in",-7.65939214674161],["Elle",-7.661398356250928],["donc",-7.668494030507327],["point",-7.670329792620157],["France",-7.674465425829657],["plusieur",-7.689602740453674],["sous",-7.704191387563445],["semaine",-7.707676283814319],["dernière",-7.711895335475302],["ville",-7.712760122461016],["ainsi",-7.715659821412156],["grand",-7.719679236834112],["?",-7.7203436240355465],["B",-7.728506719210604],["heure",-7.731092795639079],["À",-7.734808243527159],["),",-7.742641758203189],["cas",-7.746416204684705],["beau",-7.754069825818701],["suite",-7.757753655029535],["Si",-7.7578412803475905],["Au",-7.760202956192831],["homme",-7.765435133813416],["nombre",-7.765587791699007],["ça",-7.766418773457619],["projet",-7.771753283676615],["équipe",-7.787560460292482],["T",-7.791063331817827],["000",-7.798182360937218],["O",-7.801166024797772],["politique",-7.814684467831414],["ils",-7.822166612866023],["vo",-7.844460906882138],["gouvernement",-7.845398699651322],["jusqu",-7.847826912458774],["Ukraine",-7.849021051784225],["partie",-7.852982282594238],["lieu",-7.865404302186587],["6",-7.874613952253939],["début",-7.878338435962253],["rait",-7.881391911768733],["”",-7.887686442329664],["voir",-7.893457356841228],["ci",-7.893481461067567],["femme",-7.894720120405676],["té",-7.895011252728127],["État",-7.8964118067205815],["embre",-7.897838242715544],["million",-7.899823032295775],["part",-7.905311714349838],["I",-7.915602438804806],["groupe",-7.936056227274348],["faut",-7.939105510209712],["10",-7.939996811951111],["pendant",-7.944312057592955],["service",-7.945969859207055],["entreprise",-7.957493643715359],["non",-7.958083779904186],["notamment",-7.958083846353902],["Des",-7.971495123868471],["avai",-7.97319381615826],["venir",-7.973570028218168],["match",-7.981697949362264],["grande",-7.986132014360934],["2021",-7.9897005804509575],["7",-7.993577145211082],["moment",-7.997370725109932],["vers",-8.002015587766286],["face",-8.007084786730088],["ma",-8.012223750625726],["hui",-8.01834002182746],["ir",-8.019432804725461],["avon",-8.030180590838652],["jeu",-8.034093661977645],["travail",-8.052257263406046],["déclaré",-8.05782654641542],["compte",-8.06321043899605],["ès",-8.063627307698457],["côté",-8.064787642250865],["18",-8.066731152307987],["droit",-8.067586287145083],["effet",-8.07136137063753],["N",-8.074202233697775],["cours",-8.0748791928055],["certain",-8.075956721756274],["saison",-8.075991071904568],["question",-8.076389993472187],["ôt",-8.077550888443195],["nos",-8.08781645289077],["car",-8.09389912140654],["seule",-8.10671452676779],["G",-8.115124315152052],["reste",-8.124332817411894],["famille",-8.126072578347529],["8",-8.126516920003066],["mal",-8.127543002092507],["F",-8.129319277119727],["ailleur",-8.130297324970083],["porte",-8.137604978433021],["région",-8.142492504914781],["ons",-8.144702219366652],["euros",-8.147340246665575],["alor",-8.152720056321744],["pouvoir",-8.154359723576812],["jeudi",-8.154369531390724],["k",-8.158222042762265],["long",-8.163829444553372],["ité",-8.165569766193466],["situation",-8.165944476923688],["R",-8.16622183717184],["sept",-8.169376710005842],["mercredi",-8.17215763308532],["vent",-8.173250067579476],["joueur",-8.173346800134155],["annoncé",-8.176600723786716],["dimanche",-8.177578471557958],["mardi",-8.182258318335641],["lundi",-8.183407275012568],["niveau",-8.183580028246961],["chose",-8.187990394311878],["film",-8.189256361753323],["vendredi",-8.190219268476167],["ici",-8.193240291507665],["quan",-8.194798413014734],["mon",-8.196283879829254],["produit",-8.19812665518101],["rapport",-8.19946285830682],["30",-8.202647040389255],["russe",-8.206482024056694],["vrai",-8.208130104593842],["mesure",-8.20854357953056],["public",-8.211351495232435],["chef",-8.215364087145275],["Saint",-8.21816209495526],["veu",-8.21853496196686],["Russi",-8.22036250037401],["série",-8.221354994608824],["–",-8.223899037039494],["Par",-8.228281972033109],["raison",-8.232483062202894],["dire",-8.237432508596537],["hez",-8.23803478260314],["celle",-8.241107704594388],["b",-8.243906004175038],["/",-8.24539239919197],["quatre",-8.249157840030007],["bon",-8.250750370166028],["suis",-8.253783067541395],["samedi",-8.25412860138659],["g",-8.25474403535385],["centre",-8.259257705631706],["15",-8.266167535487359],["9",-8.26822418822695],["guerre",-8.269830344074968],["17",-8.27188355275517],["devant",-8.272271600718742],["Uni",-8.278472769699796],["finale",-8.283254698529776],["jeune",-8.286115537554616],["but",-8.287097127126678],["mettre",-8.288493738528587],["histoire",-8.289818427047777],["mort",-8.302627515054063],["ur",-8.310961387740722],["Selo",-8.311434868100259],["membre",-8.312404890073177],["devrai",-8.313919902316435],["prendre",-8.314363012192157],["Québec",-8.316672557158235],["bonne",-8.322683748484595],["deuxième",-8.32462357690476],["force",-8.328391053076164],["mise",-8.329867825861164],["age",-8.331003870197389],["police",-8.331206680798527],["14",-8.334881840196434],["cet",-8.336194976223016],["enfants",-8.33646656118837],["rien",-8.345381313726513],["ancien",-8.345385565951196],["afin",-8.347294957096913],["pu",-8.34827351818089],["site",-8.359602376517579],["cela",-8.366920505133821],["soir",-8.367691642571915],["aient",-8.370247635971214],["demande",-8.37096251902687],["24",-8.374225477685007],["tour",-8.381054194400733],["16",-8.383543918474025],["aujourd",-8.384797722765278],["petit",-8.385747164555978],["12",-8.3916126879503],["réseau",-8.39325967012009],["mis",-8.394634938050151],["sécurité",-8.3958447663646],["main",-8.40338102462341],["somme",-8.40409710585476],["plan",-8.419138440833951],["Ave",-8.425192483270635],["Etat",-8.429446700927084],["possible",-8.44064066890618],["H",-8.440895981081187],["ré",-8.443889408257089],["jama",-8.448706763880232],["V",-8.44922942660153],["risque",-8.456163902758727],["nationale",-8.461516616299775],["janvier",-8.465978639591132],["affaire",-8.466030073021876],["quoi",-8.470036159851205],["K",-8.479233627758425],["marché",-8.482645243163475],["ter",-8.484999496655659],["titre",-8.48586196000659],["Jean",-8.487739387668507],["occasion",-8.488436522490336],["victime",-8.488897826559082],["anté",-8.48975560257395],["0",-8.490346714889782],["français",-8.492086041866166],["appel",-8.492387117868645],["25",-8.49316686803621],["décision",-8.496418372313055],["13",-8.499045686763667],["co",-8.499554988498115],["gens",-8.504296486591414],["cinq",-8.50587601145259],["activité",-8.506142807290217],["tête",-8.506223232138572],["besoin",-8.507457362224507],["aurai",-8.508163939627874],["agit",-8.510222270209386],["bre",-8.510417556045365],["retour",-8.513524649955201],["trop",-8.513765246185603],["jui",-8.516548989776705],["semble",-8.516891595148731],["chaqu",-8.519526296799185],["or",-8.520576215147297],["ligne",-8.521198717308774],["aura",-8.521684254333167],["information",-8.523640777685484],["nov",-8.526902338244435],["nom",-8.53032783971975],[".»",-8.533118279227356],["parti",-8.533224537681647],["pris",-8.53339594986241],["rue",-8.534088503392027],["explique",-8.536621018557188],["jeunes",-8.540165484402639],["cadre",-8.540354027011936],["crise",-8.540962015872019],["société",-8.54256514920703],["important",-8.548512614047654],["décembre",-8.550763905596874],["permet",-8.553578281092827],["mars",-8.561679114272742],["mai",-8.5618684660028],["ing",-8.565187007843882],["annonce",-8.566234138488563],["11",-8.569139919378667],["Sur",-8.569608503002712],["matin",-8.570538095310152],["serai",-8.572392069720934],["milliard",-8.575543916020319],["indiqué",-8.575756965703771],["ensemble",-8.580065351029138],["autorité",-8.580660214783183],["secteur",-8.581056135637292],["journée",-8.585982838401646],["passé",-8.586255731142032],["général",-8.587025701789784],["système",-8.589118023554166],["période",-8.597684517535328],["fil",-8.598448573519903],["rencontre",-8.600706279386038],["pourrai",-8.601009099705271],["militaire",-8.606231661145188],["maison",-8.610749558684269],["simple",-8.611872619196436],["enquête",-8.61722111262209],["cause",-8.618959042008134],["certaine",-8.620659871700784],["\".",-8.620893431839939],["population",-8.622007858169614],["responsable",-8.623402268279477],["offre",-8.62366661454394],["problème",-8.625548874544062],["image",-8.625632396347015],["uillet",-8.63339206418907],["élection",-8.633622962432794],["désor",-8.633899284619147],["prochain",-8.634609892468795],["!",-8.636157782860119],["moi",-8.639343889348549],["actuelle",-8.639494907381032],["école",-8.640904311466704],["accord",-8.646267252792434],["évrier",-8.65075249972011],["presse",-8.65169187579184],["seron",-8.652151258231456],["mment",-8.655446842482881],["minute",-8.656003589733485],["Europe",-8.66164360899442],["octo",-8.664303546763273],["publique",-8.665053799608298],["seul",-8.670297053787184],["zone",-8.671527874581857],["200",-8.676329396545334],["directeur",-8.678240478665918],["souven",-8.678462238659256],["objectif",-8.68180832850829],["exemple",-8.687712508260631],["loi",-8.694317930667673],["état",-8.696765163522485],["€",-8.697075631171778],["national",-8.698247556730596],["armée",-8.699921735737954],["passe",-8.70466146153376],["W",-8.705081233071283],["club",-8.710219442892138],["soutien",-8.710879189427576],["ve",-8.712795368033124],["rapide",-8.720493180268793],["vril",-8.723853078801548],["prochaine",-8.727433114633403],["communiqué",-8.729644201867504],["50",-8.730711794883455],["terme",-8.73123699145922],["partir",-8.731325804094649],["hausse",-8.731499883295136],["programme",-8.733670395271105],["événement",-8.737485970150672],["meilleur",-8.73827447336759],["font",-8.738478951893057],["tard",-8.74590393883037],["Cela",-8.746259419809922],["Paris",-8.74626304667188],["difficile",-8.750199359080035],["Ils",-8.750762849623428],["Covid",-8.753405972826164],["passer",-8.753485091225723],["commune",-8.7537759286976],["environ",-8.755404955508272],["américain",-8.756619828569747],["quelle",-8.7570020884352],["économique",-8.757501201660581],["attaque",-8.761111426418232],["nuit",-8.761640840592714],["troisième",-8.767635785851077],["Son",-8.769362486233511],["ch",-8.771386500646553],["action",-8.7717083172464],["U",-8.772042177844568],["parole",-8.77291688468188],["présent",-8.7735044702905],["organisation",-8.779251940124187],["Tout",-8.780091455987602],["feu",-8.780240070374203],[".\"",-8.78162301307631],["rend",-8.783355070719455],["aller",-8.784232498127103],["scène",-8.787232308522444],["développement",-8.790630079878285],["victoire",-8.794352947222434],["œuvre",-8.794997858890067],["prise",-8.80023699788908],["route",-8.800976580235318],["énergie",-8.802765287443998],["candidat",-8.805050233794995],["jeux",-8.805162720391575],["ront",-8.806115131288465],["grâ",-8.80909329780338],["ajouté",-8.809770387108895],["fort",-8.811046064136846],["ministère",-8.811223872645469],["conseil",-8.816108390684018],["août",-8.816120867995227],["aucun",-8.816861955300785],["Sa",-8.81699590425624],["opération",-8.81739703768469],["Comme",-8.817576699439512],["fond",-8.81888092187586],["production",-8.819641014265397],["député",-8.819720820126701],["sujet",-8.822475220678935],["petite",-8.823004962682443],["recherche",-8.825157674327563],["autour",-8.82825130991742],["aide",-8.830387334094603],["manière",-8.830578132795491],["avantage",-8.831571591855454],["vue",-8.83173593500473],["voiture",-8.831911486064932],["abord",-8.831998813308822],["rôle",-8.832156876670567],["condition",-8.832262055507893],["campagne",-8.839233319274463],["forte",-8.84089514219097],["base",-8.842459414718082],["donné",-8.847181528135529],["forme",-8.848297938618044],["haut",-8.85079943618031],["résultat",-8.852433719514593],["loin",-8.85335084319458],["trouver",-8.853369548572315],["2023",-8.853856886605744],["attend",-8.855612235442884],["reçu",-8.859100438908918],["six",-8.860335168475466],["vez",-8.86056890816915],["formation",-8.8621296778121],["Ces",-8.86403422107375],["choi",-8.864789727851715],["donner",-8.865422200670228],["Afrique",-8.865813069103194],["jouer",-8.86729390350958],["40",-8.869675803012065],["Macron",-8.870312983435308],["idée",-8.871702700051749],["charge",-8.873575882816187],["Conseil",-8.873961527003864],["Vou",-8.875342161075544],["terrain",-8.87697221442339],["pandémie",-8.877098639338922],["arrivée",-8.877985683197455],["départ",-8.880062559866875],["source",-8.881621653518987],["$",-8.88223302312715],["juste",-8.88677008750225],["22",-8.886845222320805],["permis",-8.890796934186797],["ayant",-8.891614349827694],["dollars",-8.897518200314043],["urant",-8.900477529822517],["total",-8.902215495656929],["édition",-8.904721357021081],["voi",-8.905117198814441],["Z",-8.906638114189708],["Du",-8.910712699990391],["parce",-8.911397642720424],["connu",-8.911551613056073],["moyen",-8.911563704080422],["territoire",-8.911744118671571],["100",-8.91226807729467],["21",-8.912982825147912],["sein",-8.913505511946799],["plut",-8.914051355350393],["décidé",-8.916612710385435],["isme",-8.92110807737297],["succès",-8.923570252393823],["direction",-8.925084987869335],["proche",-8.926654295394542],["client",-8.928342527255687],["mer",-8.9286433736361],["père",-8.92972836536883],["vidéo",-8.937459449286045],["soci",-8.937644325860912],["pense",-8.937668910796182],["Canada",-8.937936672936026],["No",-8.937973935838052],["trouve",-8.938248702614272],["sortie",-8.938666164686511],["travers",-8.942864358732617],["dû",-8.943478241263668],["it",-8.943506097115243],["gré",-8.946665106526293],["donnée",-8.94754965571717],["intérêt",-8.95008453583021],["indique",-8.955267232228113],["façon",-8.956920490588052],["ukrainien",-8.96216943252292],["soi",-8.964672401011892],["gaz",-8.973738705685122],["27",-8.978806038574655],["doive",-8.982406187458194],["marque",-8.983712623105081],["milieu",-8.984177839859957],["habitant",-8.985282057239122],["fille",-8.98537557120525],["qualité",-8.988412383118959],["hôpita",-8.992472489310007],["étude",-8.992496819953551],["man",-8.992505711000621],["acteur",-8.994326453837957],["Suisse",-8.997418649186056],["européenne",-8.99773903094865],["23",-8.998882116375164],["générale",-8.999125964822191],["donne",-9.00206666943578],["association",-9.00271721757029],["date",-9.004084009973786],["coût",-9.005012477750707],["maintenan",-9.01032765164488],["elles",-9.01455639145691],["ser",-9.015550568294406],["corp",-9.015790658995632],["lancé",-9.016123844006417],["midi",-9.016586730521528],["peine",-9.018292772924427],["cœur",-9.018465358694193],["lutte",-9.019729099770272],["chance",-9.02100926565901],["dossier",-9.023528777930771],["maire",-9.023540269077664],["valeur",-9.023566999767386],["nombreuse",-9.028809260613432],["aucune",-9.028943833773253],["26",-9.029699406886564],["course",-9.030530356998796],["belle",-9.032503600903965],["espace",-9.034195563758079],["rendre",-9.034587640204855],["média",-9.04051230637593],["Belgi",-9.040838141463393],["combat",-9.04330583147621],["pied",-9.04485333612661],["contrôle",-9.045329248630873],["train",-9.04648338411411],["nécessaire",-9.047460131352292],["ner",-9.048659222724554],["livre",-9.049898547501599],["propre",-9.050094570669046],["Or",-9.051686706797666],["telle",-9.053849365631674],["Nord",-9.056944182301237],["propos",-9.058816547395065],["justice",-9.060508412500377],["gauche",-9.061433743498794],["précisé",-9.065038438678327],["argent",-9.065200381278965],["solution",-9.065573347351322],["carte",-9.0664148751593],["poste",-9.067209607746161],["Emmanuel",-9.069229742193892],["matière",-9.069242416012447],["mère",-9.07037551394384],["pré",-9.072544721721876],["ordre",-9.073369604599911],["violence",-9.07477101421427],["28",-9.075941790136325],["changement",-9.076619424002692],["60",-9.080752429293195],["internationale",-9.081670991435914],["communauté",-9.085874894064505],["gne",-9.088504142991779],["nord",-9.089146036756489],["perdu",-9.090664500469451],["expérience",-9.091483718051176],["quartier",-9.094459410379965],["économie",-9.0947932058867],["Plus",-9.096306187285933],["plein",-9.096805375956535],["sanitaire",-9.097124859419232],["pratique",-9.097125575234257],["particulière",-9.097141256373849],["estime",-9.099132637114051],["modèle",-9.099959363585995],["port",-9.10076082253857],["propose",-9.100860330245103],["permettr",-9.102195372484287],["art",-9.102350847789229],[";",-9.1056482511202],["juge",-9.107259008775152],["Car",-9.109958479391555],["auteur",-9.11133626922106],["trav",-9.111819062662821],["parler",-9.112556860337323],["prend",-9.115293814773796],["savoir",-9.117650398023603],["Ma",-9.120229316214418],["vol",-9.121273347752835],["salle",-9.12203319496626],["journaliste",-9.123010617912584],["importante",-9.126048376385185],["prévu",-9.12609606530243],["terre",-9.127586648063739],["accè",-9.128490423446102],["disponible",-9.128737283863462],["objet",-9.128742388586003],["République",-9.128772171575326],["avion",-9.128828227464208],["manque",-9.129143459642897],["montre",-9.133141491146171],["mission",-9.135963894669704],["présence",-9.14048920547161],["Quan",-9.141195200957092],["voie",-9.14206804925519],["insi",-9.142333640337302],["relation",-9.143395746709626],["Premier",-9.143447941327405],["ouvert",-9.143787967065222],["entrée",-9.144186555483804],["élu",-9.144909998139068],["revenu",-9.146541519753255],["Cha",-9.147677338042701],["élève",-9.1484950078348],["aine",-9.150642403183952],["Coupe",-9.151318602744556],["technique",-9.151695450759657],["citoyen",-9.152029458742893],["Union",-9.153742271836833],["vente",-9.153907341379313],["seconde",-9.154088261969004],["bout",-9.154330252964087],["artiste",-9.155721987813626],["Re",-9.157129345938113],["différente",-9.15718842538788],["X",-9.157771054037276],["doute",-9.161664805696756],["droite",-9.163513735043274],["époque",-9.164408597883092],["retrouve",-9.164927409785445],["air",-9.167990810163412],["dix",-9.169253968914486],["enfant",-9.169671071280161],["défense",-9.170099087556771],["fonction",-9.170109609132844],["précise",-9.170627970099627],["tir",-9.170634443946247],["mot",-9.172252241712727],["capacité",-9.173522690410062],["emploi",-9.173543882858894],["européen",-9.176390050957751],["gros",-9.176531040049827],["vivre",-9.176920033257264],["prêt",-9.179596906517599],["demandé",-9.179912159102123],["transport",-9.180432168380836],["carrière",-9.181293616523915],["Ni",-9.184560818456045],["armes",-9.184983603036116],["garde",-9.185037411576165],["rendu",-9.185225626772532],["française",-9.185802879762093],["différents",-9.188227852710183],["comment",-9.188902767895243],["500",-9.189152505900143],["meilleure",-9.190811503604642],["russes",-9.190953584249478],["reprise",-9.191907731943378],["Maroc",-9.19201081097874],["principale",-9.193504610787041],["Y",-9.193987005585736],["arrive",-9.19452263534365],["errière",-9.195151765438471],["accusé",-9.195502288146074],["impact",-9.195977128311828],["personnel",-9.196842097409009],["Pierre",-9.19828230933543],["Poutin",-9.201389252313135],["longue",-9.201484422458567],["mondiale",-9.202225398521623],["appelé",-9.202478037734583],["visite",-9.202520829724516],["réussi",-9.202611644601532],["américaine",-9.202643868581271],["plu",-9.202892385411822],["extrême",-9.204531065140955],["écran",-9.204699759864585],["capitale",-9.20519694361299],["sociale",-9.205758941552396],["mouvement",-9.210752144425753],["message",-9.21080747788076],["aider",-9.211816018988753],["Ça",-9.214760874241247],["ère",-9.215281865982348],["bas",-9.215964834301921],["policier",-9.217209649363797],["établissement",-9.217210387720888],["majorité",-9.217264302376316],["Grand",-9.217842276472638],["70",-9.218587337614878],["ion",-9.219161413298867],["atteint",-9.21971833509851],["Ville",-9.220432146566699],["plateforme",-9.220439339824981],["parent",-9.221226432558645],["écrit",-9.221599616633636],["unique",-9.225374688434842],["lorsqu",-9.22625427428122],["ba",-9.229083201608272],["étant",-9.229449014121567],["80",-9.229617412793036],["origine",-9.229873706304305],["créer",-9.229945939737636],["peuple",-9.230238778060805],["Mosco",-9.230753122424158],["présente",-9.231941719381249],["mètre",-9.23211227103863],["voit",-9.236648396379906],["locale",-9.236700543470034],["accident",-9.23813899371902],["affirmé",-9.238771013486362],["asse",-9.241419897332268],["anti",-9.242223404870192],["arrêt",-9.242836015354182],["ël",-9.244316096440869],["sol",-9.245768223341305],["dirigeant",-9.246563982702352],["répond",-9.248928325390775],["véhicule",-9.249616872086758],["Même",-9.249650775491283],["ier",-9.250100384680128],["rester",-9.250216227097841],["sûr",-9.252365822081789],["compagnie",-9.252927564133628],["expliqué",-9.253119926408523],["ajoute",-9.253448127641384],["Pas",-9.256049706402177],["âge",-9.256253601754452],["Lors",-9.256618304479275],["liste",-9.257705856192265],["presqu",-9.258931095866402],["able",-9.259342720020841],["pouv",-9.259938461647419],["bureau",-9.260553454953872],["réalité",-9.262972732602977],["continue",-9.265507827805596],["version",-9.27241194233001],["É",-9.2753378130683],["AFP",-9.276452048950432],["officielle",-9.27818243239415],["Montréal",-9.279658307456053],["construction",-9.2801348015704],["réponse",-9.283131194775436],["St",-9.283159452771113],["dizaine",-9.286544182903942],["hors",-9.287583817431669],["Est",-9.288743645320839],["grave",-9.289993512990115],["employé",-9.290019071828329],["km",-9.291621577267996],["29",-9.292481050908505],["prison",-9.292588123882505],["étape",-9.293513195845554],["affirme",-9.295092429474781],["PS",-9.295302943799939],["facile",-9.29685914271277],["travailler",-9.297030803149948],["souhaite",-9.297357426798232],["genre",-9.300328926823383],["soirée",-9.30063402895771],["professionnel",-9.302494514287966],["cher",-9.30266763496649],["souligne",-9.302745967479588],["arrêté",-9.303409187769539],["baisse",-9.303765316193779],["conflit",-9.30727030037187],["rez",-9.307951143450634],["met",-9.30873357860705],["PC",-9.31043492947946],["augmentation",-9.310814179855615],["retrouver",-9.31094980685106],["New",-9.311155277521365],["rare",-9.312026474566586],["camp",-9.3127689779081],["position",-9.312773253394889],["profit",-9.31412581965412],["Twit",-9.314144694566842],["voyage",-9.315968102076791],["conférence",-9.31779716152942],["Chine",-9.321387502596519],["allait",-9.32290599444649],["représente",-9.32447017435106],["agent",-9.325272343237206],["achat",-9.325838557089114],["Français",-9.326484828696206],["commencé",-9.328435612164661],["village",-9.32843874945559],["publié",-9.330511434684741],["véritable",-9.332006483034633],["critique",-9.33201427377228],["viru",-9.333999346496611],["gestion",-9.334958489323643],["international",-9.335086272419023],["ouverture",-9.336296072131995],["Sud",-9.3371467958208],["sanction",-9.337588983105922],["Centre",-9.337638534383895],["Isra",-9.338807389019102],["Bruxelles",-9.339188541941425],["incendie",-9.339317343014066],["mode",-9.340324231291255],["avocat",-9.342797968020509],["historique",-9.342875991864561],["domaine",-9.343784938040526],["ukrainienne",-9.346699057433412],["large",-9.347508951135959],["centrale",-9.349393131303689],["administration",-9.350057482839373],["court",-9.350888592024313],["création",-9.35109590311742],["vote",-9.352492389154023],["venu",-9.353099328860544],["éviter",-9.354211895613194],["réunion",-9.354809583413378],["contrat",-9.357374232737655],["rouge",-9.357457697931252],["tribuna",-9.35766130783865],["moyenne",-9.357691397030495],["devenu",-9.358682566620072],["étudiant",-9.360049549820221],["90",-9.362129034785077],["urgence",-9.362961664568925],["assure",-9.365587568785855],["mes",-9.36680702099698],["réalisé",-9.367936271697491],["con",-9.370361806420838],["avance",-9.371558365658768],["liberté",-9.372158052931177],["province",-9.372190841805208],["conséquence",-9.372194453167864],["vite",-9.37324507034838],["inflation",-9.37588824070215],["supplémentaire",-9.375892015574433],["danger",-9.375908092024854],["frontière",-9.37592276598346],["décè",-9.376648552525019],["bord",-9.376893810077753],["représentant",-9.379651562510594],["lien",-9.379819082194295],["compris",-9.380187060824285],["présenté",-9.382441565302482],["social",-9.38704393379182],["particulier",-9.387167450621192],["type",-9.38716996437388],["tenu",-9.387431359448778],["huit",-9.39004129651443],["The",-9.392031757876941],["assuré",-9.393995904900317],["totale",-9.394373353304522],["record",-9.394757801181719],["partenaire",-9.394761998049704],["andis",-9.398755263495293],["1er",-9.399421348343985],["fer",-9.400931581364473],["François",-9.402405821652646],["trouvé",-9.402448038046497],["of",-9.402894688352568],["35",-9.404899653710217],["w",-9.40510613348413],["élément",-9.406508648301045],["Deux",-9.407952495673715],["hier",-9.408023786951972],["ard",-9.40874305965763],["cinéma",-9.410097975646037],["—",-9.410112979269023],["souligné",-9.41051596864666],["assurer",-9.411746348012155],["note",-9.411903629482662],["texte",-9.413529586794319],["maladie",-9.413989095945285],["investissement",-9.413994647667435],["obteni",-9.415489879276244],["continuer",-9.415493641597223],["Ben",-9.417327407066045],["possibilité",-9.417805410709612],["millier",-9.417887525415363],["chacun",-9.417994237418991],["31",-9.4192943782232],["application",-9.421884232082185],["banque",-9.423640487304656],["privé",-9.426327478073562],["centaine",-9.427356078926724],["scolaire",-9.429650246098642],["climatique",-9.429689870727977],["soin",-9.432015716180912],["populaire",-9.433518677482372],["hiver",-9.43368468645701],["Malgr",-9.434449104513174],["pourra",-9.437084752645417],["étranger",-9.438475061432818],["Cour",-9.43948977873003],["cour",-9.439709108810685],["champion",-9.441542293666565],["physique",-9.44155004931324],["passage",-9.442380424940222],["voulai",-9.44508859406759],["via",-9.446296637879499],["second",-9.44738791065849],["musique",-9.449565909066077],["initiative",-9.449569273927537],["compétition",-9.449571445027043],["opposition",-9.449599556935917],["rappel",-9.451057947739615],["mandat",-9.453453511382936],["effort",-9.453629614929586],["expert",-9.453715185823295],["joué",-9.458087240943339],["chaîne",-9.459941175724072],["épisode",-9.461712715174842],["protection",-9.461772016644536],["faudra",-9.462154054607957],["bâtiment",-9.462209898659284],["fédéral",-9.463388969288962],["week",-9.465638911821046],["difficulté",-9.465797590802055],["émission",-9.467655028388801],["roi",-9.468082553614366],["ouverte",-9.468714809296925],["Bien",-9.469509959188866],["sait",-9.469590382262599],["double",-9.469849825316782],["aix",-9.470306113001795],["Allema",-9.470461659285837],["Toute",-9.470595773811738],["table",-9.470652290144294],["inscrit",-9.47127335271646],["numérique",-9.47412723093187],["pleine",-9.474548970247795],["propriétaire",-9.477924091949689],["quotidien",-9.477953386424105],["concerne",-9.478157127264847],["belge",-9.478168868592892],["choisi",-9.47838798577931],["pa",-9.478489679571645],["présidentielle",-9.479147874737487],["Van",-9.479438238991303],["humain",-9.479794759112789],["véhicules",-9.482301563168605],["agence",-9.482475425824973],["pompiers",-9.483175170871943],["sort",-9.483414226070018],["rappelle",-9.48698545423355],["sorte",-9.48905918629934],["Côte",-9.489898882051877],["John",-9.490601445338989],["procè",-9.490658977459864],["Q",-9.492595931156686],["ro",-9.4937120448112],["attendr",-9.494702144597664],["atteindr",-9.494840949484523],["Mon",-9.496551693032895],["élevé",-9.4975819272277],["montant",-9.49852536465012],["technologie",-9.499060500061109],["article",-9.499061640375166],["45",-9.499915658775372],["faisant",-9.499972904530956],["laisse",-9.500889416894506],["gagner",-9.501250615255316],["signé",-9.50158361982217],["sommet",-9.501752036885556],["cité",-9.502688016285155],["ine",-9.504015784003949],["vos",-9.50418863009928],["directe",-9.505841084437922],["arrivé",-9.506004479209878],["acte",-9.506624445626969],["football",-9.50730948894429],["ancienne",-9.508189723741962],["changer",-9.508497751100311],["ga",-9.510963488469947],["ri",-9.511842198625057],["im",-9.512760672428819],["quart",-9.512830585938275],["suivr",-9.513939191447543],["preuve",-9.514279214945564],["ois",-9.514531791996006],["sortir",-9.517604804454669],["Go",-9.518236132835789],["électrique",-9.520403147201028],["Ligue",-9.520434923147878],["culture",-9.521111280359637],["suivi",-9.52415646829002],["judiciaire",-9.524757650098113],["spectacle",-9.524757650402055],["intervention",-9.524758517648117],["logement",-9.525133505937035],["go",-9.525345412159194],["claire",-9.525764689169977],["quant",-9.525906861672913],["probable",-9.529035219566381],["fête",-9.529995691845901],["endroit",-9.530987984347767],["marqué",-9.532263839969897],["mondial",-9.533039863416885],["manifestation",-9.533478403270447],["vingt",-9.53349091209176],["nucléaire",-9.533634302158756],["échange",-9.533975080591212],["Paul",-9.537455172802048],["plainte",-9.5400840710372],["franc",-9.541484408680134],["Tour",-9.54267317060722],["remporté",-9.543501437900662],["faisai",-9.545157574368638],["pression",-9.546021333282082],["noir",-9.547015320972182],["%)",-9.547501679041032],["existe",-9.54777036778287],["interne",-9.547966540428746],["ujourd",-9.548024690064146],["affiche",-9.548249899656245],["conclu",-9.549197291965028],["invasion",-9.551132798376388],["document",-9.551928460404682],["communication",-9.552444509097402],["transition",-9.552705230940694],["pouvai",-9.553750132946965],["+",-9.553876104653256],["loc",-9.556803677517646],["régime",-9.556953490588812],["rang",-9.557012275840473],["électrici",-9.557073790440274],["concerna",-9.55801107282375],["chemin",-9.558752279131493],["commun",-9.558823927481654],["rie",-9.56358400931947],["tué",-9.564110797763943],["bi",-9.564515399552056],["découvrir",-9.56462927847048],["stade",-9.564970477094205],["tte",-9.566960383189617],["Santé",-9.56724983915683],["page",-9.568071090707917],["libre",-9.569246428075507],["fut",-9.571369766260116],["permett",-9.572973159588614],["département",-9.57309885029138],["retrouvé",-9.573526253024813],["Al",-9.573735769080738],["déclaration",-9.574245537794155],["inter",-9.575374488909876],["porté",-9.576468867604557],["Kie",-9.577481562872919],["règle",-9.578155510736092],["°",-9.578222409486234],["budget",-9.578222428138492],["salaire",-9.578255973670291],["photo",-9.581062116393221],["respect",-9.581084100775968],["commence",-9.581158408271225],["réforme",-9.584125789794726],["réce",-9.584133242180677],["lié",-9.585210620516495],["espère",-9.586451804358692],["britannique",-9.587417860380462],["neuf",-9.587452615063114],["contact",-9.587928392052543],["personnage",-9.588105484080286],["piste",-9.589199726191321],["ka",-9.589985449245408],["environnement",-9.591404199026702],["utiliser",-9.591501775230181],["perte",-9.592089989463958],["médecin",-9.592112608808959],["Marc",-9.59233554812408],["fi",-9.592440093868245],["commerce",-9.592514372312907],["aventure",-9.592599710459972],["entretien",-9.594395677107567],["vague",-9.595355600249809],["prévue",-9.59544872516638],["vi",-9.59573170170835],["répondr",-9.596018035923256],["”.",-9.59621916331347],["espoir",-9.5967074725956],["langue",-9.596756893366646],["enir",-9.596783521049566],["lance",-9.597701243032192],["figure",-9.599616176596573],["von",-9.601372265659752],["UE",-9.601612030729402],["199",-9.60395826121949],["négociation",-9.606066385870472],["contexte",-9.60617846271178],["Ha",-9.606446040394104],["confian",-9.60658352596115],["eur",-9.60782323514023],["lin",-9.60907506455416],["%.",-9.609275278978851],["kilomètre",-9.610808198476303],["responsabilité",-9.610817423802716],["alimentaire",-9.610827784555427],["puissance",-9.611123955438595],["confirmé",-9.611320739268223],["Michel",-9.61143851640701],["touché",-9.611521618225252],["discour",-9.611730562642181],["vert",-9.612035653642007],["avis",-9.612180703690818],["raconte",-9.612412597016398],["débat",-9.612422083645157],["compter",-9.61422705348889],["défi",-9.614862504832384],["joue",-9.614963130689613],["process",-9.616000729631374],["reconnu",-9.616131798614237],["âgé",-9.616309099621173],["essus",-9.617995780903938],["phase",-9.620594452150822],["estimé",-9.620849613086133],["civil",-9.620968724185392],["chiffres",-9.623094391459816],["tournoi",-9.625079936382475],["attente",-9.625184041731002],["intérieur",-9.62563014828745],["Pro",-9.62573635457358],["lusieur",-9.625842412180344],["Ri",-9.627705169403551],["outre",-9.629161454332008],["régulière",-9.62951677091975],["unité",-9.629832591444572],["secrétaire",-9.629876997523741],["nature",-9.632467506944312],["balle",-9.634797533118828],["situé",-9.636240686551162],["marche",-9.638676168042014],["étrangère",-9.639562278175255],["géant",-9.64000162481403],["Louis",-9.64077164630299],["rêve",-9.640985343371995],["engagement",-9.641050597827014],["utilisé",-9.641219752867263],["appareil",-9.641702769659998],["cérémonie",-9.644462108923099],["soldat",-9.644602631044574],["volonté",-9.644634844044937],["crime",-9.6449106273508],["génération",-9.649332168675777],["numéro",-9.64934229247456],["siècle",-9.649342306437406],["arme",-9.65097984025233],["Certain",-9.651038839504508],["appelle",-9.65135056334779],["aire",-9.651796035597947],["festival",-9.6537182356576],["clair",-9.653849313006594],["nation",-9.654764657751905],["Avant",-9.654929610141895],["augmenter",-9.655323456074472],["vaccin",-9.655568317955186],["vait",-9.656165793925954],["vis",-9.656741740857505],["championnat",-9.659220390888706],["Vi",-9.659669545719982],["entraîneur",-9.659725474720702],["parc",-9.659824722140279],["actuel",-9.660073281328499],["remise",-9.660418903020872],["ck",-9.660447016796464],["invité",-9.660998558904186],["comprendre",-9.661150372175339],["endant",-9.661221088476564],["travaille",-9.661445967768444],["station",-9.663346375676827],["frère",-9.664106382472594],["demi",-9.66501976815962],["approche",-9.665584785747246],["veille",-9.665939427782089],["classe",-9.666278652217358],["énergétique",-9.669194013559467],["contraire",-9.669194114400199],["financier",-9.669194585121964],["épreuve",-9.671379473591758],["capable",-9.67377677520873],["souten",-9.673964438979947],["croissance",-9.674221420643203],["consommation",-9.67424706554156],["porter",-9.674722382080265],["couleur",-9.675290703966654],["sport",-9.678601651594374],["quatrième",-9.67926965904773],["commission",-9.67939994836727],["proposition",-9.679787674987296],["lancer",-9.68144180189288],["peur",-9.681663542837693],["blessure",-9.684351750120106],["institution",-9.68442230676671],["vitesse",-9.684561330162445],["offrir",-9.685358680021622],["instant",-9.685735767487106],["Algérie",-9.686212048955749],["surprise",-9.686373663282904],["iste",-9.686877880929764],["bande",-9.686938200697211],["fera",-9.688760584356118],["tient",-9.689062603663745],["poursuit",-9.689346811320878],["limite",-9.68996908465071],["actions",-9.690155842627995],["principal",-9.692112619677868],["participer",-9.694507625187523],["célèbre",-9.694576032311167],["financière",-9.69501092906441],["ête",-9.695860442436555],["profiter",-9.696095629914588],["Martin",-9.696279965994723],["condamné",-9.697133161919602],["Co",-9.699324134691798],["bilan",-9.699932170796046],["comité",-9.699980890893343],["durée",-9.700094704408219],["tier",-9.700326213684427],["Face",-9.700884377838017],["David",-9.70319308284276],["Pen",-9.703574885857192],["courant",-9.704717239474533],["tension",-9.704922828654905],["amour",-9.705910881503742],["bois",-9.707312067197618],["pro",-9.708472200940124],["anim",-9.70874901094679],["stratégie",-9.710120365824821],["York",-9.710120916455145],["tendance",-9.710128790968174],["patient",-9.710387178237095],["parcours",-9.712177655951606],["regard",-9.712553069265383],["importe",-9.713246692015003],["aime",-9.713883765239206],["intention",-9.71431998384299],["industrie",-9.71434320207253],["menace",-9.714457898258464],["patron",-9.714810767400374],["moitié",-9.71535977504919],["revien",-9.716260112610382],["issue",-9.716657643193555],["analyse",-9.717429399865345],["outil",-9.719937396264122],["Man",-9.720043993972148],["entend",-9.720264360941378],["ferme",-9.72057512374901],["domicile",-9.7206198598452],["absence",-9.720622239470615],["structure",-9.721291925082081],["per",-9.72224839364722],["Tous",-9.722724174454317],["laisser",-9.724791656804358],["particip",-9.725578549356328],["ressource",-9.725930706478533],["esprit",-9.726065463643364],["comprend",-9.726203123751318],["évolution",-9.72649922574627],["contenu",-9.726649231434749],["siège",-9.726876422196822],["Que",-9.727429222625439],["haute",-9.727731690422612],["nouvel",-9.728019934925383],["tenue",-9.729506394465885],["Beau",-9.730979716853334],["Vladimir",-9.731229266202988],["puisqu",-9.732832874859977],["Luc",-9.733132932764153],["po",-9.734142832213163],["Sénégal",-9.736504466372098],["Assemblée",-9.736579181398477],["option",-9.736789030442145],["puisse",-9.736885600844127],["hauteur",-9.738227573108375],["travailleur",-9.739550390784267],["Sans",-9.74151458177025],["détail",-9.742143810719838],["envie",-9.744561591186514],["Mi",-9.745220861862194],["ées",-9.746105506138905],["matériel",-9.747304437700286],["troupe",-9.747527477488394],["liée",-9.747766656063813],["conseiller",-9.748385641894359],["enregistré",-9.751494964966742],["super",-9.752467293856746],["quasi",-9.752987280397257],["Bo",-9.753637103782845],["arrière",-9.755228967369892],["dispose",-9.755336939760651],["financement",-9.75592338333738],["retraite",-9.756656152177989],["Président",-9.756725075978787],["scientifique",-9.758257872806938],["classique",-9.75826812180124],["évidem",-9.758336536924059],["catégorie",-9.758581750699417],["dénonce",-9.758698037323791],["participation",-9.758841833549564],["2015",-9.759176187251956],["payer",-9.759645579315237],["touche",-9.761219610377466],["quitter",-9.761626613640903],["placé",-9.762666432208007],["téléphone",-9.763755930706868],["réduir",-9.763957150091402],["Noël",-9.763972222172152],["star",-9.766340421312172],["obtenu",-9.768706271685186],["île",-9.772729385796914],["forcé",-9.773431608071839],["engagé",-9.774021995908997],["organisé",-9.77430481683805],["Trois",-9.774913213087721],["prévenu",-9.77530592466348],["réaction",-9.775900138897128],["officiel",-9.777558782725404],["connaîtr",-9.780230253435525],["poi",-9.78024024925108],["300",-9.780350476115725],["procédure",-9.780420630490834],["grève",-9.780469324541066],["Marie",-9.781050598455721],["che",-9.782312843433353],["ouest",-9.782744695045313],["vienne",-9.783726682089805],["dose",-9.78595848572872],["lumière",-9.78603743594346],["précédent",-9.786242278654747],["arriver",-9.787631323919882],["75",-9.788383833525497],["importan",-9.788390052573249],["attention",-9.788598416677305],["chiffre",-9.78981530709621],["civile",-9.790605080490153],["classement",-9.791291930919137],["terroriste",-9.79168466266469],["discussion",-9.791687082879385],["restaurant",-9.7921940550779],["eurs",-9.793277088634056],["mo",-9.794299928731471],["vit",-9.79754184369343],["laissé",-9.797830246821142],["devien",-9.798190687087082],["Quant",-9.799719500617549],["99",-9.800392094916688],["Nation",-9.800507244387243],["Parti",-9.800764340495094],["FA",-9.80196788561515],["hôtel",-9.802218847023774],["amis",-9.803080773035362],["exercice",-9.803083186977581],["chambre",-9.808831101396736],["agression",-9.809074674616468],["Entre",-9.810078493033355],["reveni",-9.81015734889365],["suspect",-9.81106714734807],["terminé",-9.811990655118066],["bel",-9.81251339838479],["vais",-9.8130917731525],["lettre",-9.814278386822544],["principe",-9.8146106604863],["infrastructure",-9.814610665762823],["habitude",-9.814630630125448],["Affaire",-9.814637959562841],["pire",-9.815634246031266],["univers",-9.816021136229264],["devra",-9.818248393192052],["dés",-9.81926976870608],["adversaire",-9.82042470682276],["plaisir",-9.820427437240987],["attendu",-9.82068857075922],["positif",-9.826268731699699],["Commission",-9.826318451067152],["actif",-9.82662917150532],["sorti",-9.82794069067764],["entière",-9.828389287766257],["accueillir",-9.828702481970996],["complètement",-9.829237530519187],["frappe",-9.829447834023409],["achete",-9.8306046141441],["vise",-9.83067290769161],["isation",-9.831211879973964],["revanch",-9.832060166405416],["circuit",-9.832155305061013],["accusation",-9.832303825684548],["protéger",-9.83234101930013],["olympique",-9.832352915049814],["Fond",-9.832437874444295],["Bre",-9.833919988237117],["partage",-9.835008929619951],["entendre",-9.835753378283503],["prévoi",-9.835989693612449],["journal",-9.837910290092182],["tentative",-9.838074397926682],["faveur",-9.838075240192142],["installation",-9.8380907202773],["créé",-9.839304577931397],["entendu",-9.840125399445096],["réaliser",-9.840310243267403],["demander",-9.842427006118696],["cherche",-9.843462070648037],["température",-9.84402448404747],["voisin",-9.845004383502118],["montrer",-9.845871702777476],["bus",-9.847712437235042],["com",-9.848672549833271],["poursuivi",-9.849223059719442],["réfugié",-9.850012484345598],["magasin",-9.850012579650858],["Marine",-9.85075425126989],["parquet",-9.851168977185122],["présenter",-9.852131566886799],["ajouter",-9.85213863699503],["individu",-9.852338692701386],["TV",-9.85238319406671],["blanc",-9.854475877442177],["32",-9.854688558446416],["vision",-9.855334889425329],["vacance",-9.856041718265804],["extérieur",-9.857030950035043],["è",-9.858297139790572],["lesquel",-9.861544204224455],["honneur",-9.862097258381372],["Philippe",-9.86210109097076],["organisme",-9.862221738491737],["direct",-9.862798975371668],["militant",-9.863207725062239],["leader",-9.86511378522013],["blessé",-9.866458322784268],["Charles",-9.86678730704913],["référence",-9.867602176395394],["Su",-9.867733449813919],["Russe",-9.867957629848007],["rythme",-9.868195955740227],["disposition",-9.868207292958736],["relève",-9.8682168986484],["utilisation",-9.868325012582833],["immédiate",-9.870115561963756],["faible",-9.870543198742197],["performance",-9.871525594130798],["proposé",-9.873894025542059],["incident",-9.874330256833538],["précédente",-9.874833718560168],["traitement",-9.875333699003532],["chargé",-9.875939771475185],["Mali",-9.876780597212278],["pilote",-9.87795888723099],["ki",-9.879735964578888],["gardien",-9.880334357113814],["tente",-9.88081069488961],["auto",-9.882967435902806],["vice",-9.883241799910344],["400",-9.883792617629739],["concert",-9.886010292613832],["futur",-9.886183290647384],["Olivier",-9.886723946986372],["thème",-9.886759248066383],["frais",-9.886761119210183],["circulation",-9.886851840342546],["barre",-9.887353047529572],["FC",-9.888207921330142],["00",-9.88884393944645],["top",-9.889335204667578],["normale",-9.889932315324216],["bar",-9.89030758960104],["salarié",-9.892963861583443],["procureur",-9.89301579395654],["université",-9.893277160931149],["reprendr",-9.8937418932119],["blessés",-9.896161295358091],["démocratie",-9.899253044899025],["Mo",-9.899649260408323],["constitue",-9.900035486708529],["déplacement",-9.900075364241161],["défaite",-9.901857211282795],["bras",-9.901866166956248],["fans",-9.90346450441988],["visible",-9.905016799312435],["So",-9.905142959966334],["accueil",-9.905256440956524],["passant",-9.905798160304792],["Genè",-9.905854668438817],["chute",-9.906184514072017],["améliorer",-9.906742433497671],["professeur",-9.907470203711558],["suisse",-9.907782655640364],["erreur",-9.908543893377288],["couple",-9.909853933189837],["manche",-9.910211037784435],["cible",-9.910251686631401],["ouvrir",-9.911340492353563],["Espagn",-9.911784635607173],["pétrole",-9.91195171978099],["exposition",-9.912055963117751],["aéroport",-9.91270757322842],["participant",-9.913370790733548],["arrêter",-9.915280974240817],["obligation",-9.918361846710088],["légère",-9.918376788996849],["lancement",-9.91844721240999],["rencontré",-9.918557091165335],["alité",-9.920565987627882],["continu",-9.921637824945277],["Guinée",-9.922941019100774],["Joe",-9.923652443819165],["commencer",-9.924763629476821],["maximum",-9.92481354088559],["Amazon",-9.924826236105119],["Université",-9.925015424025517],["eth",-9.925473768698176],["oir",-9.927114584886018],["poursuivr",-9.927125917703705],["33",-9.92979191705998],["phénomène",-9.931313492175839],["réduction",-9.931454672675718],["augmenté",-9.931629050634882],["demeure",-9.931949670420286],["alerte",-9.933546534224647],["LR",-9.934007777322357],["effectué",-9.934249167816958],["Aucun",-9.93489602539492],["réalisateur",-9.937851412292057],["fini",-9.938690046735204],["ski",-9.938998972292165],["ami",-9.940046747886921],["RT",-9.940058141551432],["Patric",-9.940240049839542],["tenter",-9.940991460376551],["recour",-9.941612500777772],["remis",-9.94231659522028],["studio",-9.944479441439535],["hommage",-9.944486275143902],["pluie",-9.944903450355286],["voulu",-9.94534617618983],["allon",-9.948162730459039],["bio",-9.948595865752871],["Bid",-9.948777987697685],["arbre",-9.949989723583059],["mené",-9.950203948582015],["ha",-9.950326912209912],["spectateur",-9.951044373042429],["producteur",-9.951044373141958],["examen",-9.951044956531042],["Apple",-9.954193355309247],["usine",-9.954476181034343],["36",-9.957378901772064],["consommateur",-9.957713281139625],["sportif",-9.957734223783529],["climat",-9.957736200063586],["Défen",-9.957802867396225],["dialogue",-9.957951388997081],["venue",-9.959965172092064],["post",-9.960601860940972],["envers",-9.961580247423768],["mainten",-9.961930653234482],["menée",-9.962913371020342],["audience",-9.964422745276845],["NU",-9.964977925738058],["vin",-9.964989824911983],["iers",-9.965020990845854],["tenté",-9.96598514192458],["sentiment",-9.966143329094631],["Canadien",-9.970985188556728],["agricole",-9.971179309163228],["attaquant",-9.97123436773376],["priorité",-9.97132443896847],["collectif",-9.971426902709041],["quitté",-9.971526715898044],["mur",-9.97277206672483],["refusé",-9.973059940860097],["Peu",-9.97327799659688],["permettra",-9.974299165908146],["lancée",-9.9753746713446],["africain",-9.975378171741632],["majeur",-9.975383490352614],["oui",-9.97670617240529],["&",-9.977981926926162],["vélo",-9.977983862588774],["durable",-9.978062738364962],["signe",-9.97817200032842],["développer",-9.97952980510293],["impression",-9.980130164625258],["Ro",-9.98053243646712],["ciel",-9.981144188602734],["visage",-9.98137255443141],["change",-9.982109004581952],["offert",-9.982189401219495],["Qu",-9.98351729228147],["ashington",-9.984822157565251],["manifestant",-9.984831243770007],["smartphone",-9.984831245858855],["défenseur",-9.985664244998091],["and",-9.98620992871875],["clé",-9.986594364946583],["efficace",-9.987137610660671],["télé",-9.987154852079573],["abilité",-9.987462472778475],["différence",-9.987615325951232],["Laurent",-9.987906961648871],["ung",-9.987918384643585],["fais",-9.988042460473975],["Ou",-9.988706459620456],["vive",-9.988927096187204],["anglais",-9.989269766415802],["box",-9.989775481128472],["pose",-9.99004459214725],["potentiel",-9.990810118173856],["Air",-9.99103045008724],["absolu",-9.99122051992328],["COVID",-9.991727797646876],["collègue",-9.991728456389893],["Maison",-9.992830629172097],["55",-9.992945203937326],["comportement",-9.993481970317102],["34",-9.993865806227152],["amp",-9.996321980993343],["gagné",-9.998198972262855],["médaille",-9.999414035063907],["mauvaise",-9.999992401249623],["connue",-10.002121409358976],["croir",-10.003191905338177],["enseignant",-10.0034125472481],["final",-10.003617822900743],["spécialiste",-10.005787313964106],["Ivoir",-10.005871392158998],["ions",-10.006493575505516],["cha",-10.007234558783448],["surface",-10.00961307069227],["Ar",-10.011259626739177],["résidence",-10.01205942366971],["conservateur",-10.012710032960278],["israélienne",-10.012876212150786],["Parlement",-10.013134845751924],["Robert",-10.013471924740012],["Ouest",-10.013602236035704],["rappelé",-10.014115608887103],["2000",-10.014299153069647],["éducati",-10.016242811007006],["énorme",-10.017667084693777],["allemand",-10.017995222773045],["aliment",-10.018378063074065],["candidature",-10.019894630263284],["Puis",-10.020017109649277],["Ali",-10.020266384013198],["ménage",-10.022122098604212],["prenne",-10.023228806046651],["garder",-10.02340246620819],["War",-10.023959927961375],["apporter",-10.023981209144765],["réserve",-10.024641462362354],["carburant",-10.026942890197018],["identité",-10.026967473706417],["chercher",-10.027454070945181],["Di",-10.03096115998915],["changé",-10.031890555265216],["mauvais",-10.032777886331262],["ver",-10.033552450220522],["Italie",-10.033736816687915],["Royaume",-10.034138945962415],["démarche",-10.03420479929343],["appris",-10.034275964144982],["collaboration",-10.034395767261874],["organisée",-10.035108691094814],["confirme",-10.036546135881842],["Anne",-10.038280978578193],["préparer",-10.04026932181781],["entier",-10.04046696764977],["ko",-10.040469435022931],["faute",-10.040709497684322],["assurance",-10.04139293991173],["directrice",-10.04140635693869],["missile",-10.04147342355689],["connaissance",-10.041481494332443],["retard",-10.043739693181475],["souvenir",-10.04379960280559],["humaine",-10.04420136164072],["Mm",-10.046658396400373],["logique",-10.04695314671563],["proposer",-10.047406688888099],["portée",-10.047551464414699],["interdit",-10.04819235121249],["héro",-10.04835733774813],["spéciale",-10.04836767723241],["vécu",-10.04868343222101],["Qatar",-10.048684144357619],["dispositif",-10.048687351487764],["parlementaire",-10.04871157235581],["rejoindr",-10.048715008054723],["visiteur",-10.050120503685608],["Nicola",-10.05057733780227],["jeunesse",-10.050848656041971],["commande",-10.05094222297021],["Quelque",-10.053179562056723],["défendr",-10.05318829191976],["renforcer",-10.053229715459622],["ajout",-10.05380440142641],["précis",-10.055305693087194],["scénario",-10.056035388099367],["décennie",-10.056035390466217],["gamme",-10.056037451278298],["détention",-10.056040587994243],["atelier",-10.056054411421119],["US",-10.056151053212105],["exploitation",-10.05630368944507],["constaté",-10.05638021711967],["vaccination",-10.056881099247464],["Mari",-10.058842867269519],["âgée",-10.062232603280773],["Ukrainien",-10.063245977077344],["ondre",-10.063293945068757],["connaît",-10.063460372643052],["Ses",-10.064036815562034],["utilise",-10.064622775469385],["Jér",-10.06479135868387],["corona",-10.06491495693951],["tiré",-10.067125546397548],["usage",-10.067717886112074],["fa",-10.06861788226675],["passée",-10.069005055587624],["privée",-10.069776280012432],["réelle",-10.070221902045956],["Leur",-10.070448291651253],["champ",-10.070700236656478],["canadien",-10.070715557690708],["prime",-10.070768078219043],["49",-10.070790461681096],["stratégique",-10.070905481192796],["opportunité",-10.070954240680235],["chantier",-10.07106010107951],["entrer",-10.07107284835066],["tomber",-10.073234345120941],["DG",-10.073997351819717],["Bas",-10.075336611348765],["essentiel",-10.075442992522092],["lie",-10.075561939199869],["Val",-10.075572528117874],["37",-10.076637174371669],["servir",-10.078354824915259],["Netflix",-10.078424278082872],["offensive",-10.078424352238983],["livraison",-10.07842559628985],["Facebook",-10.078432377166626],["immeuble",-10.07844363883379],["nécessité",-10.07865841369103],["appui",-10.080553774994796],["envoyé",-10.081087035797871],["professionnelle",-10.081240669891631],["construir",-10.082937046198273],["électorale",-10.083718992867613],["jardin",-10.08562793650408],["commis",-10.085848085822569],["neige",-10.085993423494962],["personnalité",-10.086000037383537],["échec",-10.086007404639073],["métier",-10.086129025420323],["séance",-10.086153816471658],["Claude",-10.086342757934077],["émotion",-10.086686812522352],["montré",-10.087005434332877],["front",-10.087708119991941],["tonne",-10.087729693833625],["dépense",-10.088648424496702],["régionale",-10.089117286305056],["réagi",-10.091332785903447],["œ",-10.091383745818803],["Red",-10.092442709041457],["personnages",-10.092493990627869],["complexe",-10.093112170797877],["trafic",-10.093633710132462],["promotion",-10.093693638215736],["Vincent",-10.094126572845694],["chanson",-10.094257547244133],["législative",-10.09435232186262],["perdre",-10.094474433732724],["trouvai",-10.094489402699333],["statut",-10.094658073303574],["vien",-10.09475031577275],["II",-10.095190054241861],["ague",-10.095423972756992],["secour",-10.096576026898369],["ouvre",-10.099149118249237],["ab",-10.09925151042717],["proximité",-10.101325931150893],["solidarité",-10.101325932083471],["trimestre",-10.101326008448417],["Fédération",-10.101326341980792],["mémoire",-10.101327835275391],["partenariat",-10.101351067904037],["Zelensky",-10.101365166306373],["tarif",-10.101373377253589],["décédé",-10.101422422948165],["sondage",-10.101568064879839],["remettr",-10.103729025285556],["rentrée",-10.104012797288814],["ance",-10.10422614583911],["sélection",-10.104330965307938],["crois",-10.108038240117072],["score",-10.109166390197274],["Celle",-10.109583713722188],["Qui",-10.110283080901837],["pénurie",-10.110919712658848],["chaleur",-10.11094073732308],["taille",-10.11116861844658],["degré",-10.11146794361397],["mar",-10.111708809051404],["adresse",-10.111783852085827],["sexuelle",-10.111957272516118],["installer",-10.112449411459036],["Dr",-10.112707118011471],["Star",-10.113040939713652],["Nic",-10.113650892416178],["Donc",-10.113886568372598],["naissance",-10.11508025963196],["penser",-10.115154852321929],["Iran",-10.115391761534255],["possède",-10.116890594817413],["organisateur",-10.116895549019844],["billet",-10.116909166515878],["médicament",-10.116913282754075],["moindre",-10.116943504614149],["impôt",-10.116952939043392],["installé",-10.117448484347474],["quinz",-10.11763836543805],["chercheur",-10.117673752197751],["Bar",-10.118102561389485],["vendu",-10.119689068016596],["̀",-10.121348207536084],["core",-10.123033824819947],["ienne",-10.124204991921705],["bénéfice",-10.124764384826221],["utilisateur",-10.124774560256649],["38",-10.12577777613842],["affronter",-10.12597513707859],["cabinet",-10.126529523353065],["San",-10.12762936386657],["constat",-10.127767376165481],["subi",-10.129524729211443],["roman",-10.1296910257542],["ément",-10.129927574114188],["suffi",-10.13038209763694],["lire",-10.130667344715018],["mé",-10.13092150905749],["souhait",-10.132315160806609],["pauvre",-10.132702232294324],["tâche",-10.132702552648064],["camion",-10.132723974917756],["Tu",-10.133412091967434],["coopération",-10.13349208447827],["Tou",-10.133706670890408],["Jo",-10.134714893804329],["expliquer",-10.135019974270183],["entraînement",-10.135047282954307],["Mont",-10.140023537796555],["israélien",-10.140523695461912],["caméra",-10.140702508026607],["ennemi",-10.140786823449002],["sang",-10.140968287406011],["Non",-10.14106378964196],["oublier",-10.142198696143154],["ix",-10.142886115534107],["console",-10.143009827371184],["coin",-10.144855922944785],["finance",-10.145943832341189],["située",-10.146823777772909],["pièce",-10.147036161773505],["athlète",-10.14868836434007],["théâtre",-10.148766374622081],["adulte",-10.148776236138856],["évoqué",-10.14894545401437],["musée",-10.149519532047261],["réduit",-10.149905075431123],["supérieur",-10.150063477365164],["allié",-10.150585018955129],["témoin",-10.154399848742774],["naturel",-10.154458074137995],["hockey",-10.156259930331586],["van",-10.156336203291627],["conducteur",-10.156895490311932],["aérienne",-10.156918254691229],["Lion",-10.157108776566172],["Eric",-10.157321899873804],["coalition",-10.157671487568106],["active",-10.158310647744734],["devoir",-10.158604825813267],["Éri",-10.15885281762056],["Autre",-10.15950360114817],["masque",-10.160484718891393],["découverte",-10.160900321217119],["battu",-10.161633405705834],["soutenu",-10.162506591484219],["local",-10.163029092719594],["é",-10.163053758554039],["talent",-10.163482341620764],["lourd",-10.164025835518672],["garçon",-10.16509228368344],["instance",-10.165124396641538],["cinquième",-10.165153129394593],["fuite",-10.165590577085045],["micro",-10.165991442398788],["pièces",-10.166853008134115],["promis",-10.167419467025134],["atrice",-10.167963121821074],["partisan",-10.168834829153273],["photos",-10.169056937997334],["ger",-10.169783037215181],["bénéficier",-10.170080602362066],["fédérale",-10.170416586478472],["Gu",-10.172276139299974],["nommé",-10.172460254179263],["bo",-10.172527964992252],["Institut",-10.173019080927517],["chien",-10.173180174606905],["restriction",-10.17335669064558],["album",-10.173356833741831],["Première",-10.173368420437281],["ry",-10.17338555360612],["variant",-10.173510406787766],["présidence",-10.174137685588615],["dos",-10.174210377894033],["lit",-10.17492619130924],["considéré",-10.175171971774372],["concerné",-10.175186014574862],["jaune",-10.175755763980781],["jugé",-10.175857429327],["cation",-10.175992250688589],["partis",-10.17600664505095],["récente",-10.176018576548234],["rump",-10.177197620709972],["Oui",-10.178801897070002],["nette",-10.179136360258244],["Ra",-10.180347457851365],["déclare",-10.18064246122966],["résident",-10.181216772510936],["humanitaire",-10.181690007761242],["fermeture",-10.181699480565808],["planète",-10.18176303722304],["Fas",-10.181912800367032],["tourner",-10.182205846416622],["soleil",-10.182298082963435],["née",-10.182451741541884],["ène",-10.18289182206385],["devenue",-10.183134482961965],["solide",-10.183410573638639],["Gi",-10.183712508595333],["tombe",-10.185066871831832],["établi",-10.185722206579277],["chasse",-10.187082105349639],["foule",-10.1874876414153],["voulo",-10.188845128136984],["gar",-10.189366784387738],["volontaire",-10.189607309888968],["incroyable",-10.19009337807432],["papier",-10.190093695353859],["automn",-10.190111245010161],["fruit",-10.190145490097276],["multiple",-10.190163259302265],["quelqu",-10.190194980484293],["partager",-10.190549816857885],["pont",-10.191584935792893],["exprimé",-10.191937039331425],["cou",-10.191955381475195],["adjoint",-10.19220840622863],["utile",-10.19298466139605],["pprovisionnement",-10.193948508899386],["radio",-10.194643371138476],["Comment",-10.196025388495912],["établir",-10.196373704710858],["vivant",-10.197054557601883],["accessible",-10.198261839943935],["code",-10.198317397508358],["mobile",-10.198512460248168],["Luxembourg",-10.19856616673488],["délégation",-10.198570574027222],["échelle",-10.198579678821677],["Otan",-10.198583869858087],["distance",-10.198608290292473],["retrait",-10.19982507159067],["détenu",-10.2011372473169],["rac",-10.202390769545554],["reine",-10.202929014608197],["violent",-10.203593752089054],["sais",-10.203684772975475],["Brun",-10.203712367849612],["recevo",-10.204491972945824],["Festival",-10.207154994869356],["Dé",-10.208457283757959],["ge",-10.209085007965523],["choisir",-10.209252152485018],["dommage",-10.209333369340975],["tombé",-10.210191731738067],["essentielle",-10.210518050141246],["publication",-10.211299768789676],["resté",-10.211661537726487],["respecter",-10.211867636668945],["ambition",-10.213418716253425],["tirer",-10.213495202786865],["Jacque",-10.214439008317372],["déroule",-10.21514780898118],["Association",-10.215735942031092],["indépendance",-10.215909946639094],["Lorsqu",-10.215991811805367],["impossible",-10.216162279249476],["séjour",-10.216194245309453],["ault",-10.216247809301418],["immense",-10.217268201695543],["battre",-10.218000883628093],["drame",-10.21920597357969],["diplomatique",-10.219675907146689],["recette",-10.220151023164082],["gle",-10.224115936224656],["exception",-10.224419969290636],["science",-10.224425484184522],["explosion",-10.224431296753213],["principau",-10.224431336518464],["land",-10.224736953203383],["côte",-10.225004054413377],["régional",-10.225105021537722],["48",-10.225147635530753],["repris",-10.226242685404172],["Banque",-10.226546933092958],["fermé",-10.226718921457282],["the",-10.2267443276046],["écrir",-10.227419975592941],["Bon",-10.228098539578653],["lier",-10.228587480518643],["dynamique",-10.229859559914946],["armé",-10.229958801808891],["pouce",-10.230149949188865],["influence",-10.232628365373216],["industriel",-10.232639683673057],["faux",-10.232912688330266],["lever",-10.232949449195118],["cancer",-10.233238255305086],["ème",-10.23337851412605],["essence",-10.233434930520207],["réalisation",-10.233439130791886],["mari",-10.233719831097245],["signifie",-10.233767868985318],["moteur",-10.233891833416367],["lot",-10.234341142639447],["apprendre",-10.23495602711407],["Goo",-10.235442234082274],["gérer",-10.236291302803863],["crédit",-10.236891298361783],["réel",-10.237500977037488],["Ba",-10.238449049761128],["hi",-10.238908604961118],["65",-10.238942352175478],["Pays",-10.240139272467028],["47",-10.240689373360453],["excellent",-10.241052237642869],["intégr",-10.241238843499515],["confie",-10.241987043395536],["favorable",-10.242025191397552],["perspective",-10.242052782980654],["obligatoire",-10.242052783053058],["awa",-10.242580698771274],["Agenc",-10.242919880172945],["choc",-10.242969525747016],["argement",-10.243130648745751],["paiement",-10.243160280571093],["divers",-10.24332414573879],["dénoncé",-10.243416995259869],["passager",-10.243624160623607],["Alexandr",-10.24430465601133],["44",-10.245500952633323],["chinois",-10.245745075361548],["maintien",-10.24578848565017],["exacte",-10.24585847407121],["q",-10.246174235864673],["Pi",-10.246504819025763],["h30",-10.246783544552367],["enseignement",-10.24849441959155],["anniversaire",-10.25098135441219],["compétence",-10.250981355112906],["espèce",-10.250981369635026],["forêt",-10.250981451388995],["concurrence",-10.25100170858136],["supporter",-10.251086137373946],["montagne",-10.251140058722253],["ONG",-10.251320969286283],["rejoint",-10.251509071868],["concour",-10.251677776721742],["facture",-10.251887151930212],["passion",-10.252067944554327],["ber",-10.252160345288829],["style",-10.252433288400493],["iège",-10.253452457106057],["bleu",-10.253611092557465],["portant",-10.253645140306055],["décide",-10.254056068420162],["grosse",-10.25449545795299],["révélé",-10.254524392760764],["accompagner",-10.255793014371037],["Bou",-10.256563391089244],["goût",-10.257931927721058],["Bel",-10.258008930819436],["récit",-10.258068490761582],["canadienne",-10.25828587150848],["Ta",-10.258305261022823],["fournir",-10.258546086838367],["lain",-10.258781820577418],["43",-10.258955792040092],["vigue",-10.259334160006741],["gare",-10.259638567578051],["Wi",-10.259667409353785],["Stéphan",-10.259990366817924],["similaire",-10.259990416464884],["navire",-10.260011556608099],["Jusqu",-10.2600235892594],["marge",-10.260039650631768],["secondaire",-10.260140992529063],["opérateur",-10.260342612347749],["animation",-10.260751379201082],["amateur",-10.261526075972247],["quête",-10.262920760726438],["cap",-10.263243468725733],["performances",-10.26412839580132],["devai",-10.265873941217983],["norme",-10.267666863111067],["étoile",-10.269913408172211],["tels",-10.270471251315785],["isent",-10.270714697761557],["normal",-10.271881695886297],["ologne",-10.272535832922983],["personnelle",-10.272610044864031],["exécutif",-10.272640091984892],["réussite",-10.272824570758019],["Ko",-10.272890927105973],["complète",-10.273614064475035],["organiser",-10.274240093293573],["agissai",-10.274485787921648],["pic",-10.27497762704795],["ateur",-10.276613493382797],["lourde",-10.276786314859924],["Burkina",-10.277825867428422],["rencontrer",-10.278058811075496],["attentat",-10.278255610292295],["lecture",-10.278255770305417],["circonstance",-10.278255976208563],["qualification",-10.278264577039982],["colère",-10.278276830660289],["Inter",-10.278386564332042],["destination",-10.278635384712926],["municipalité",-10.278680444180608],["sœur",-10.27957071057422],["saga",-10.280550799255447],["refus",-10.280578365797304],["rassemblement",-10.281271252125647],["accuse",-10.281399864846833],["off",-10.282189441733529],["Américain",-10.282834539466066],["découvert",-10.283084075070773],["venai",-10.284031021740544],["George",-10.287083468648882],["égard",-10.287395755625294],["complet",-10.287515197284662],["sensible",-10.28751766076384],["artistique",-10.287534910551908],["témoignage",-10.287606975943898],["équipement",-10.287658319228747],["fondateur",-10.287663411726442],["meurtre",-10.287687161680036],["connaiss",-10.287744467606348],["diversité",-10.2878206414595],["dure",-10.287893351021337],["quantité",-10.288184731392302],["recul",-10.290282441760812],["tion",-10.291483121456874],["accompagné",-10.292511467856135],["écart",-10.29408648042434],["continent",-10.296068691080446],["Vo",-10.296231311822229],["â",-10.296402889109729],["séquence",-10.29673661297073],["aspect",-10.296860653727439],["rappele",-10.297018908782045],["socialiste",-10.297232462230674],["ham",-10.297448745773234],["francophone",-10.298752200324245],["soft",-10.298784020446226],["présentation",-10.299356463712138],["Terre",-10.30025800568622],["africaine",-10.300425320365314],["imposer",-10.300966832479542],["mains",-10.301082996996415],["déposé",-10.302078430475438],["élevée",-10.302442941579173],["finir",-10.303052082039187],["vaut",-10.30320459148815],["198",-10.304127557903325],["ique",-10.305223484168769],["fier",-10.305497133976717],["150",-10.306189122614013],["appartement",-10.306294618655144],["emmour",-10.306297400118066],["métrage",-10.306301109602497],["Valérie",-10.306315697109072],["Christian",-10.30634528125222],["expression",-10.30657817711946],["Charle",-10.30681565559637],["Moham",-10.307197601681237],["limiter",-10.307237951452725],["témoigne",-10.307746192501947],["surveillan",-10.308045478058435],["néan",-10.308335033924326],["ntendo",-10.30966257151669],["invite",-10.310466136104456],["chev",-10.310800931277257],["perd",-10.310865707101701],["machine",-10.311141048096763],["développé",-10.311697714313866],["efficac",-10.311868434673244],["amende",-10.312188996014394],["can",-10.31355091949214],["fermer",-10.314330356687027],["Bi",-10.315097575390276],["ultra",-10.315680780227497],["Justice",-10.315819706209565],["prestation",-10.315823671528324],["fournisseur",-10.31595141650406],["capitaine",-10.315996934407416],["Mer",-10.316038645990634],["poser",-10.316735116006274],["Krem",-10.31685199414969],["agir",-10.317096286015786],["évoque",-10.317279450671652],["sauver",-10.317335206802685],["rapporté",-10.317781753476215],["Play",-10.318391827327426],["travaillé",-10.318628173935554],["culturel",-10.320520922843443],["Québécois",-10.320981360771581],["qualifié",-10.321927573801254],["ite",-10.322681838193862],["iens",-10.322882276154177],["volet",-10.323713345593397],["62",-10.324506402789542],["occupe",-10.32490771030147],["produir",-10.325346292775116],["doigt",-10.325434031237707],["temporaire",-10.325434084532786],["secret",-10.325443353926538],["automobile",-10.325492458774342],["André",-10.325546435984958],["sportive",-10.325601158429269],["ambiance",-10.325827465952372],["bataille",-10.32612315166828],["résolution",-10.326239708624387],["électeur",-10.326430179422127],["égalité",-10.327778116249267],["42",-10.327862283254753],["présentée",-10.327884983328813],["ballon",-10.328938806300119],["riche",-10.329556381934854],["confié",-10.331654139000898],["monter",-10.332514138341754],["candidate",-10.334193002740793],["concept",-10.334216362089807],["fonctionne",-10.334298915376054],["Grâce",-10.335142539185467],["spécifique",-10.335142716727786],["interdiction",-10.335192216883957],["adaptation",-10.335221819506117],["Thomas",-10.335395094712599],["ordinateur",-10.335427501556035],["malheureuse",-10.336213343951542],["municipal",-10.336223488801146],["‘",-10.338816491459275],["profil",-10.338877498176483],["ière",-10.338966952698199],["Simon",-10.339115557365684],["Nouvelle",-10.339288696175853],["pensai",-10.339449349037306],["Occident",-10.33994937742191],["wi",-10.340073159888535],["adopté",-10.341435811443322],["souci",-10.3417588636458],["urs",-10.342051996572344],["59",-10.34294558787207],["pierre",-10.343718133405261],["malade",-10.34443859454607],["maître",-10.34478556191603],["collective",-10.344946455347525],["abonné",-10.344953441654457],["actrice",-10.344958754646925],["immobilier",-10.345119185167384],["vérité",-10.345188545872599],["sourire",-10.345853801860391],["étage",-10.346023498363017],["plage",-10.346600506509532],["Prix",-10.346607959157456],["coupable",-10.347002195323256],["Cameroun",-10.347104904526347],["mont",-10.3488454568164],["ak",-10.34932117621479],["64",-10.349464946850604],["chat",-10.350914585817286],["épouse",-10.351333930395832],["intéressant",-10.351615833674881],["accepté",-10.351762070763563],["servi",-10.352419684518232],["gain",-10.353584616662484],["interview",-10.353683239177052],["ékin",-10.35458930335759],["propriété",-10.354632925424076],["mobilisation",-10.35482893273208],["accéder",-10.354865081766787],["vainqueur",-10.354880869933954],["Denis",-10.354960221796226],["mène",-10.354964549702112],["réalisée",-10.357014469673183],["facteur",-10.357682035237046],["montée",-10.358373883575696],["récent",-10.358393891642969],["abri",-10.359606612494066],["dame",-10.360797545539276],["600",-10.360936726659057],["réjoui",-10.361266462995705],["investir",-10.362025136391853],["viv",-10.36270488207932],["palais",-10.364846658236663],["juridique",-10.364847444413392],["dépôt",-10.364847617266516],["relative",-10.364848280221867],["gouverneur",-10.364867902363162],["conscience",-10.364957174354682],["défaut",-10.365157773941673],["évènement",-10.365177673475415],["bert",-10.366205283046309],["préparation",-10.366324267180158],["Tunisie",-10.366536604639197],["800",-10.367039392633455],["coach",-10.367346898406794],["sortant",-10.367889124826469],["Ange",-10.368035859801383],["mineur",-10.369626470198291],["67",-10.371001491889242],["minim",-10.371422408263179],["ronde",-10.371934062265188],["Don",-10.37293375302405],["mérite",-10.373524847332805],["naturelle",-10.374107922434085],["stock",-10.374242144534602],["ï",-10.374386175778861],["surpris",-10.374712381097451],["Japon",-10.374875748456198],["migrant",-10.374876122012124],["circonscription",-10.374948455478709],["batterie",-10.374968857533549],["massive",-10.37499147120291],["déterminer",-10.375040222701113],["définitive",-10.375164782462628],["Gabon",-10.375343550787585],["quotidienne",-10.375413520011996],["infection",-10.376395107905292],["drapeau",-10.376511385072035],["erie",-10.37655651743232],["écologique",-10.37679654146983],["parfaitement",-10.378106597330186],["tournée",-10.379794985262311],["parlé",-10.380316611749016],["ob",-10.380928049778053],["noter",-10.382435249817275],["conduit",-10.382482263017444],["pêche",-10.38266698089741],["gratuite",-10.382677665725957],["bateau",-10.382816994546332],["détruit",-10.383186917210931],["issu",-10.383272959376622],["Sams",-10.383907418591745],["algérien",-10.38496201530847],["récupérer",-10.385152537050267],["église",-10.385152578409155],["révèle",-10.385152603184459],["Chambre",-10.38516563186948],["promesse",-10.385167285665213],["mobilité",-10.385215866421003],["télévision",-10.3852305538664],["originaire",-10.385524858038725],["Ver",-10.3859115124815],["duel",-10.386045707771672],["Sport",-10.386439385983238],["sûre",-10.38701761453169],["Australie",-10.387054623241333],["Rouge",-10.387146912875226],["levée",-10.387659105027067],["filet",-10.388422338797504],["animal",-10.388929263034395],["collection",-10.389640126398923],["formule",-10.392277039417689],["provoqué",-10.392552594076728],["ani",-10.392650165834226],["dédié",-10.392977738676056],["vraie",-10.393860493109296],["vide",-10.394322825403364],["cesse",-10.3954064447427],["calendrier",-10.395461814455922],["démocratique",-10.39546181474818],["dégât",-10.39546181597898],["signature",-10.395467853124154],["investisseur",-10.395559517235307],["Macky",-10.395599557362239],["affrontement",-10.396320059361766],["Outre",-10.39715668455365],["capital",-10.39736757493815],["ouloir",-10.398048866844476],["Ott",-10.398882626205015],["bénévole",-10.399258069487598],["souhaité",-10.399454847016147],["canton",-10.399597818954575],["Tom",-10.40229932809853],["chargée",-10.402792215729674],["Ka",-10.403908599084733],["ball",-10.403986675137094],["contribu",-10.405534056475886],["vendre",-10.405817597625045],["transfert",-10.405878892401965],["entrepreneur",-10.405891962851843],["analyste",-10.40589341483215],["patrimoine",-10.405977472821757],["existence",-10.405979547343069],["foyer",-10.40605426108656],["Corée",-10.40625110762107],["localité",-10.40636193920129],["play",-10.40725681083272],["bou",-10.408342472053569],["trouble",-10.40863593037155],["cuisine",-10.409636450798253],["composé",-10.411105172336368],["For",-10.412756268662552],["calme",-10.412886346606097],["frappé",-10.414228498438703],["fixé",-10.414445062987594],["ône",-10.416282451635372],["Intérieur",-10.416404796697808],["considère",-10.416404894787647],["méthode",-10.416405492320727],["profond",-10.41643528966157],["amélioration",-10.416446726717927],["bruit",-10.416454543635183],["micron",-10.416503519936864],["conclusion",-10.416542399404232],["distribution",-10.416646887678588],["mairie",-10.416951577409282],["taxe",-10.417022413894342],["convainc",-10.417954126638996],["portable",-10.418391955861773],["Alex",-10.418477891789502],["salon",-10.418760717207919],["lende",-10.41994999020903],["nomination",-10.42039411536359],["Sall",-10.421158905452003],["annuel",-10.421783646202996],["ster",-10.422396696331973],["effectuer",-10.4228845921605],["syndicats",-10.42292463628608],["ombre",-10.424530062645697],["52",-10.424728976475016],["causé",-10.425588057381486],["écrivain",-10.425685472067691],["tique",-10.426800635810402],["41",-10.426899011639293],["Gabriel",-10.427050039849725],["évaluation",-10.427097859956316],["poursuite",-10.427216675883313],["devron",-10.427534426363389],["municipale",-10.42816401456162],["essayer",-10.428424974983638],["génér",-10.429125164821738],["primaire",-10.429190224444769],["prendra",-10.42921719719618],["intéresse",-10.429251382502368],["MS",-10.43016040872589],["Turqu",-10.430759305912733],["Daniel",-10.43108956430185],["majeure",-10.43115230694158],["familiale",-10.431685520744427],["MR",-10.431707425745588],["1000",-10.432426631379045],["formé",-10.432562348091794],["suivant",-10.433655070995812],["Va",-10.434372810787295],["ire",-10.435396912599593],["livré",-10.4358191150458],["attendue",-10.437048250224397],["Service",-10.437818427617795],["préfère",-10.437835264039052],["euro",-10.437952031680622],["ambassadeur",-10.439575502741633],["Voic",-10.440903008255631],["délai",-10.441453218957907],["gagne",-10.441973623824182],["syndicat",-10.44200571584873],[".”",-10.442886187881651],["intense",-10.44349488271574],["Mar",-10.44368792096499],["Mor",-10.444738644533555],["empêcher",-10.445088304634488],["marquer",-10.445135554528356],["ker",-10.447270766663227],["diffusé",-10.44761858793516],["Per",-10.448274514466554],["instruction",-10.448665348329087],["arrestation",-10.448665416164722],["confinement",-10.448665838922157],["déchet",-10.448671363130302],["explication",-10.448792150744373],["règlement",-10.44882563829175],["tradition",-10.44899814008623],["Alpe",-10.449181106977619],["glace",-10.449750874901518],["indice",-10.44993736934565],["voyageur",-10.450580475669144],["déplore",-10.45100469159696],["voter",-10.45169905681627],["foi",-10.452202066586363],["72",-10.452892270567208],["publiée",-10.453616601231996],["char",-10.454114705607818],["Dona",-10.455324547486232],["Parm",-10.456098470893494],["85",-10.456622892558283],["griculture",-10.457879511196243],["imposé",-10.45871401399547],["OS",-10.45955823908675],["caractère",-10.459654359320318],["élenchon",-10.459654449904662],["opinion",-10.459654848814557],["Richard",-10.45966364409336],["drogue",-10.45966893447859],["Bernard",-10.45967095136831],["islamique",-10.459679701314084],["considérable",-10.459702958329974],["préoccupation",-10.459751422626347],["pause",-10.45989572552115],["commentaire",-10.45990465613772],["fallu",-10.459964344255233],["souri",-10.460990318851955],["investi",-10.461151868926478],["tienne",-10.46298393062182],["Ti",-10.463144138420796],["berg",-10.46350019525007],["ième",-10.463570446186878],["division",-10.464259628433027],["sert",-10.464397251830736],["baisser",-10.464405840192377],["Hu",-10.464805622959839],["Grande",-10.465167528245214],["masse",-10.465884178979499],["Super",-10.466300292469615],["quitte",-10.466983949683767],["cadeau",-10.468041091190514],["line",-10.46886989929852],["disparu",-10.469595009411439],["posé",-10.469802210146192],["compliqué",-10.469929936931957],["initiale",-10.47024606253144],["puissant",-10.470590466777779],["Haute",-10.470690651134987],["catastrophe",-10.470765469924878],["réflexion",-10.470765469956266],["Disney",-10.470774959683386],["Guerre",-10.4708177838436],["session",-10.470819302621782],["Lausann",-10.470828558995931],["informatique",-10.47093769170898],["éventuelle",-10.472383370070668],["relevé",-10.472438900903864],["enseigne",-10.472601758679806],["statistique",-10.473049484463541],["fou",-10.473610269335271],["décrit",-10.473689883841445],["libération",-10.473793181960964],["resse",-10.474014287158226],["39",-10.475064350000496],["Micro",-10.475535728388113],["Open",-10.476386465151],["regarder",-10.477628033473163],["57",-10.477662147567532],["Voil",-10.477968948892578],["Cap",-10.478564947247683],["froid",-10.479540467923872],["démontre",-10.480107949613428],["concurrent",-10.480607492207383],["constate",-10.481163198603056],["dévoilé",-10.48137020099207],["électronique",-10.482001571499033],["fidèle",-10.482001961408061],["ouvrage",-10.48200227207575],["inquiète",-10.482002605977348],["blanche",-10.482026785092712],["mariage",-10.482317477531973],["prévision",-10.482462059932491],["destiné",-10.48304349820993],["Syrie",-10.483080882749348],["Con",-10.483102514825482],["oire",-10.483174637103357],["visan",-10.483912294891692],["intégrer",-10.484142188279616],["tennis",-10.48498234021362],["croit",-10.486513065948131],["Ho",-10.486592613178985],["OM",-10.487141668044224],["fonctionnement",-10.487257590123694],["ntaine",-10.487473042155603],["accueilli",-10.487897629594617],["mini",-10.488873124190397],["inverse",-10.488942915072247],["apporté",-10.489221164872866],["habitation",-10.489773782847749],["content",-10.49042452957871],["saisi",-10.493206027577083],["excuse",-10.493365120494172],["scrutin",-10.493365427208987],["alternative",-10.49336663566044],["opposant",-10.493367536274938],["préfet",-10.493400953992728],["volume",-10.49348953862912],["automatique",-10.493508287040282],["collecte",-10.493563151121048],["National",-10.493595787431564],["traité",-10.494184873256167],["positive",-10.495662911138155],["chant",-10.495778335601917],["globale",-10.495975554713763],["convaincu",-10.496056538258037],["débuté",-10.496088564567131],["Jame",-10.497192984425933],["auquel",-10.497554529121738],["moto",-10.498124568627924],["Aux",-10.498613032665435],["impose",-10.500045517480057],["souvien",-10.500188278678895],["avancée",-10.500702966134408],["Blue",-10.50204065574194],["Ya",-10.502197006683183],["augmente",-10.502385947679826],["accueille",-10.503216247338232],["informe",-10.503736663439238],["Yve",-10.503839309933468],["Amérique",-10.504859316937925],["apparition",-10.504859328668026],["solidaire",-10.50485935088767],["bonheur",-10.504859798170695],["Nouveau",-10.504859841843981],["café",-10.504861528369503],["Black",-10.50487918555303],["podium",-10.504885760527113],["manqué",-10.504890141608541],["écriture",-10.504894110657258],["quarantaine",-10.504903983519064],["vaste",-10.504904894828654],["ume",-10.50533360069683],["Haut",-10.505383106723656],["argument",-10.505765497485228],["Phon",-10.507127760746723],["litre",-10.50912266813853],["récolte",-10.509187982782487],["peau",-10.509622195911982],["CI",-10.510662244012302],["Belge",-10.511329377333695],["op",-10.511462734668733],["ho",-10.512452944537596],["salem",-10.513578731419388],["46",-10.514783818474282],["découvre",-10.515844452785236],["min",-10.51635003446378],["interpellé",-10.516358271733296],["Marseill",-10.51644122678405],["ultime",-10.516478142893906],["constructeur",-10.516487221222501],["automobiliste",-10.516487222548172],["communautaire",-10.516487390603633],["office",-10.51650916386485],["décret",-10.516523401562807],["banc",-10.516721562820862],["marocain",-10.516756082405298],["différent",-10.516798768875592],["allant",-10.516998518344762],["accordé",-10.517044807622375],["viol",-10.517245548231793],["Dieu",-10.517926267530239],["conduite",-10.517953101419558],["tempête",-10.518022026171368],["bénéfici",-10.5184686881631],["89",-10.519139357359098],["carré",-10.519193218546295],["enquêteur",-10.520498974826669],["annuelle",-10.522270426294142],["(+",-10.52243002120741],["chi",-10.523106462559834],["gue",-10.52320898802075],["envoye",-10.524769413029453],["Fi",-10.526295928642881],["réuni",-10.52706357996934],["tiendra",-10.527589389718434],["gendarme",-10.528194540711294],["logiciel",-10.528251952858398],["commerçant",-10.5282521680802],["huitième",-10.528345926498503],["autonomi",-10.528389080167319],["essai",-10.528467309726015],["plastique",-10.528499843171495],["City",-10.528816182184187],["relai",-10.528966576065915],["précision",-10.529034854622296],["retourner",-10.52994620082482],["Christophe",-10.530071321877335],["justement",-10.530189442145371],["adolescent",-10.530858784617742],["plat",-10.530971646768748],["commerciale",-10.531012473976947],["défis",-10.53177080486197],["cru",-10.531962619938646],["bé",-10.532125844805941],["63",-10.532689381875525],["médicale",-10.532861156972725],["58",-10.532888644275333],["54",-10.533141947850938],["renforce",-10.533232717440752],["Var",-10.534983792358151],["250",-10.535651677151089],["apprend",-10.536978714260325],["menaces",-10.537197938326802],["averti",-10.537431701819282],["couverture",-10.537935757323769],["Mondial",-10.538446419014663],["alcool",-10.539854675887428],["terroris",-10.539952148834129],["ixième",-10.539979272569234],["disparition",-10.540156694431957],["épidémie",-10.540156725201914],["Musk",-10.540159519238774],["acquisition",-10.540164584938598],["actualité",-10.540165276535692],["Monaco",-10.540166239898921],["Angle",-10.540269742336108],["procédé",-10.540327160991218],["Comité",-10.540347085961335],["innovation",-10.540404220667206],["associé",-10.540831858643116],["effective",-10.540868736557265],["salué",-10.540898544689156],["Région",-10.541044619775553],["spécial",-10.541229091720865],["insist",-10.541286703259633],["unie",-10.541311451361778],["Not",-10.541457219650004],["maman",-10.541816949027503],["aimé",-10.54406045880404],["terminer",-10.54459248453464],["mettant",-10.5446282099707],["by",-10.544955287817121],["Lo",-10.546492331551601],["commercial",-10.547137219068798],["exceptionnelle",-10.550804475003343],["Photo",-10.551428192623533],["53",-10.551811029081591],["77",-10.551862420273695],["symbole",-10.552204893837853],["aérien",-10.552228449243312],["Finance",-10.552244457949172],["conduir",-10.552247416914827],["licence",-10.552251216917886],["avortement",-10.552742652377056],["bloc",-10.552826990623132],["identifié",-10.552957588999753],["dirigé",-10.553215234962158],["Frédéric",-10.553521020972944],["prépare",-10.553539987085035],["respective",-10.55541706576994],["remporter",-10.556225409090677],["enjeu",-10.556691668544847],["tor",-10.556907842025051],["aï",-10.556948437464692],["auron",-10.557426092911129],["crée",-10.558172030896031],["diverse",-10.5594333980015],["Sous",-10.560371353234075],["fleur",-10.56099246616128],["utilisée",-10.56120124067061],["game",-10.561856811070031],["décor",-10.56212264000489],["souffre",-10.562267873620787],["supérieure",-10.562479277497694],["humanité",-10.56440004334755],["cheffe",-10.564449134064837],["bombardement",-10.565231174408138],["cache",-10.56539577362954],["effectif",-10.565417186787421],["Merci",-10.565436153019057],["voil",-10.565625642464875],["enfan",-10.566559295148375],["défend",-10.5677935866654],["geste",-10.569363669328789],["juif",-10.569984008759747],["Euro",-10.570315494557452],["bu",-10.571465225932176],["tourne",-10.57220771225482],["empêche",-10.573174632719319],["68",-10.57338092503165],["Vert",-10.573856123882457],["ira",-10.574473139817147],["tableau",-10.5754674610329],["horizon",-10.576465821699284],["vêtement",-10.576642234121412],["Dakar",-10.576747734358822],["contribution",-10.576788267737559],["autorisation",-10.5768049441091],["reconnaissance",-10.57693038985363],["branche",-10.577561535316912],["adapter",-10.577747029517061],["opposé",-10.578322641997632],["assise",-10.57849998674373],["adapté",-10.578776633535103],["ressenti",-10.57881040316279],["apporte",-10.579057611262822],["for",-10.579217390362407],["mann",-10.581367086906985],["han",-10.582352683544812],["insiste",-10.584723377466663],["plateau",-10.5859287186885],["gaul",-10.586739757572296],["Port",-10.586777542450925],["arabe",-10.58736183669772],["Madri",-10.588159529788486],["léger",-10.589036076084536],["magnifique",-10.589245683363298],["négatif",-10.589245684141776],["magistrat",-10.58924591764481],["bébé",-10.589274636358883],["drone",-10.589424040917699],["château",-10.589551434311009],["Justin",-10.589649100491307],["panne",-10.589748014152931],["coeur",-10.590133495291788],["fausse",-10.590444025115506],["occupé",-10.590786186977915],["RN",-10.590825986301484],["discuter",-10.590868229395664],["intéressé",-10.591264916683176],["indépendant",-10.591473453655706],["pouvant",-10.591729435226174],["signalé",-10.592312062241774],["ado",-10.59248259570955],["pérer",-10.593191120910054],["sacré",-10.594038643314494],["central",-10.595702632478737],["marin",-10.597288868930232],["entraîné",-10.597579030692007],["chaud",-10.599112792191004],["élite",-10.599262496978211],["suit",-10.599930487427008],["prête",-10.600421440931056],["proposée",-10.600514129537359],["devienne",-10.600603031433865],["multi",-10.600777457865322],["Maxim",-10.600970023496844],["uprême",-10.601035036820516],["dimension",-10.601891211455658],["inscrir",-10.60190821755642],["profondeur",-10.602269114148804],["William",-10.602340440465081],["Lyon",-10.602354874621597],["crainte",-10.602729158122251],["arrondissement",-10.602822663720765],["construit",-10.603075122635593],["âme",-10.603094062605361],["rumeur",-10.603264022120086],["sauf",-10.603610152351978],["progr",-10.60376318665956],["partagé",-10.604256927343387],["trace",-10.604867252254746],["courte",-10.605868426531227],["istes",-10.606192468565293],["73",-10.607799717221312],["gène",-10.60787493678736],["700",-10.60840732039471],["aille",-10.60974792098975],["assemblée",-10.609932163575529],["rose",-10.610203187422991],["78",-10.610394599880458],["internation",-10.61142997693585],["accepter",-10.611954801092555],["gé",-10.612523819953717],["76",-10.612696888324491],["Tel",-10.613161998973055],["résume",-10.613693929707928],["chôm",-10.613983396898373],["constater",-10.61450413535384],["joie",-10.614729643038702],["humour",-10.6147323861729],["rivière",-10.614752643259179],["fonctionnaire",-10.61480617356144],["transformation",-10.614847570603107],["certe",-10.614862319934737],["stress",-10.614874441769215],["venant",-10.61536381538218],["prince",-10.615413895827373],["Pala",-10.61574599557747],["95",-10.616739615088594],["axe",-10.617781384917766],["déployé",-10.618256398183483],["lycée",-10.61930014395111],["engage",-10.62178884469926],["Seule",-10.622204701302405],["Côt",-10.623231240201603],["reçoi",-10.62343253571002],["tri",-10.623577834478482],["oré",-10.624336805612113],["envisage",-10.624570993242411],["équilibre",-10.625544105081778],["hor",-10.625722089273633],["boutique",-10.625780148587047],["Max",-10.625847804630945],["66",-10.625856158877781],["financer",-10.625940721236532],["subvention",-10.626979151377355],["fourni",-10.627124819386832],["occupation",-10.627596622286003],["ig",-10.62760128301553],["garantie",-10.62765893149011],["sécuritaire",-10.627711436372586],["laboratoire",-10.627711693122022],["Personne",-10.627716994592564],["officier",-10.62773422892064],["raconté",-10.627738097373767],["constitutionnel",-10.627800728595272],["progression",-10.627801794903762],["infraction",-10.627845004888481],["documentaire",-10.627907772926763],["th",-10.627924748915635],["Gil",-10.627985034625787],["chanteur",-10.628042459562078],["violation",-10.628361320908702],["progressive",-10.628373732056103],["silence",-10.628393232016638],["franchise",-10.629346412414488],["lisab",-10.629417010254212],["nez",-10.630110872127378],["Petit",-10.630705166502514],["suspendu",-10.630803561085502],["gratuit",-10.630874938978806],["autorisé",-10.630875334746495],["oupol",-10.630936423235815],["gen",-10.631248491805216],["communal",-10.631462686414398],["douz",-10.6317536254072],["Bay",-10.63187988646175],["gui",-10.632720867521316],["émis",-10.632858217777876],["Pri",-10.633326433734847],["Wallon",-10.63353099768749],["llez",-10.634048013252063],["convien",-10.635728354351002],["décider",-10.635975977407906],["Mario",-10.636023737849523],["exprime",-10.636173511810625],["verre",-10.636231089401267],["Fin",-10.63726172582],["Blanche",-10.638559743916755],["attendai",-10.638626375715944],["remonte",-10.638803792121525],["calcul",-10.638856453112462],["restaur",-10.63909233211244],["56",-10.639352045879424],["hydro",-10.640475059705954],["suffisam",-10.640734104165745],["administrative",-10.640869331109169],["enceinte",-10.640869995643024],["Société",-10.640871288070613],["homologue",-10.640872964622798],["inondation",-10.640874247767016],["préfecture",-10.640882656711664],["myr",-10.640936213480593],["Sébasti",-10.641158420438948],["(…)",-10.641868871491255],["vic",-10.642131123540604],["douleur",-10.642583863818459],["Samu",-10.643309801268021],["couteau",-10.643819451106157],["féminin",-10.644306897312251],["Adam",-10.644609097879119],["amedi",-10.645127818525797],["admis",-10.646191589505637],["pot",-10.64761210729786],["ang",-10.647693632805293],["diplomati",-10.64812451523424],["traditionnel",-10.648806471512897],["remarque",-10.648956495320219],["renseignement",-10.649979056547497],["criminel",-10.650554507547959],["réussir",-10.650822391157796],["contribuer",-10.6525623944706],["avancer",-10.65266580435408],["GM",-10.652887559326226],["installée",-10.653399167558796],["ban",-10.653726397655939],["197",-10.653782321266956],["discipline",-10.65420266444388],["démocrate",-10.654202670256787],["contamination",-10.654202678098681],["policière",-10.654202740091119],["extraordinaire",-10.654214523376211],["doublé",-10.654219155040257],["inquiétude",-10.654225867321243],["corruption",-10.65422917833244],["fédération",-10.654260729630682],["touristique",-10.654262572309207],["Libre",-10.654263438875052],["délégué",-10.654269179945809],["88",-10.654297379543866],["tuer",-10.654417579628577],["mentionné",-10.654459767504477],["parking",-10.654832101654925],["intervien",-10.65504688883976],["réchauffe",-10.65524540065913],["Néan",-10.655896170561467],["désir",-10.656024436338987],["bombe",-10.656421621767528],["Henri",-10.65735675278199],["marquée",-10.657540565050741],["Sam",-10.657699997982334],["Art",-10.657835619500851],["confronté",-10.657862194838518],["contraint",-10.6580429117455],["présumé",-10.658149936599411],["Mal",-10.660183632313794],["avenue",-10.6602139574842],["RD",-10.66037993453832],["visé",-10.661233168397088],["men",-10.661951771758833],["chinoise",-10.662097462890454],["manifeste",-10.662351929275967],["Parc",-10.662372259828953],["annoncer",-10.662412238170536],["auf",-10.662790397880734],["récompense",-10.66401134375909],["voté",-10.664157157609061],["issant",-10.66443594611867],["blessée",-10.664688052338242],["coûte",-10.664935793215518],["rempli",-10.66678235307998],["monnaie",-10.667708042859843],["universitaire",-10.66771629327712],["Antoine",-10.667716925027129],["Switch",-10.667718192051362],["sauvage",-10.667719968188463],["Michael",-10.667720733327286],["onnant",-10.66773062011412],["plongé",-10.667731266088415],["assassinat",-10.667748336912926],["maillot",-10.667769600029446],["sérieuse",-10.667770152677761],["exigence",-10.667787190297519],["prévention",-10.667793805033957],["exportation",-10.667797316347377],["Mainten",-10.667823583126973],["matinée",-10.66814227298859],["immigration",-10.668325655271108],["parfait",-10.669056380457121],["exclu",-10.669189850130346],["flamme",-10.66953714128293],["heureuse",-10.669742262535344],["suivante",-10.669793215103521],["guide",-10.669939603866972],["assister",-10.670127142870014],["2008",-10.670617301906862],["Tra",-10.67124888420582],["impliqué",-10.671808366759993],["bruxellois",-10.67189856632935],["québécois",-10.671946819231005],["acquis",-10.672454667858888],["exprimer",-10.672937016014764],["osité",-10.672946533830702],["Vers",-10.672997493373021],["fasse",-10.673403011864504],["mm",-10.67504908573938],["cri",-10.675438043294541],["Roy",-10.675942213354148],["Bra",-10.67612090633642],["écoute",-10.676286041609519],["sexuel",-10.676308710535846],["rentrer",-10.677169713321454],["acheté",-10.677353300008813],["dérouler",-10.680551663390382],["aménagement",-10.681326933900978],["cinéaste",-10.681414855931362],["Club",-10.681415991673333],["Rivière",-10.681441547293012],["recommandation",-10.681474165041745],["récolté",-10.681787554341717],["commissaire",-10.68194318419437],["allai",-10.683616838464964],["69",-10.684146307441424],["Brésil",-10.684231355025304],["fixe",-10.684784170155583],["fan",-10.684978960419333],["bra",-10.685363746277961],["mobilisé",-10.68557754680247],["durer",-10.686702116931222],["douce",-10.68682044214814],["traditionnelle",-10.687345053834758],["destin",-10.687592246782689],["pousser",-10.688246806284038],["mille",-10.688717478837063],["former",-10.689002423159014],["NH",-10.689140864873039],["LE",-10.689513680194263],["Domini",-10.689639888589273],["BA",-10.68970674113508],["iez",-10.690461360302828],["reconnaît",-10.690783306975181],["Game",-10.691410813001687],["ov",-10.691468970253556],["confort",-10.692085150701395],["51",-10.692261035264377],["Blanc",-10.693589426172371],["sombre",-10.694082810541776],["marchés",-10.694667976534836],["réclame",-10.694693530343653],["Instagram",-10.695303696988578],["provisoire",-10.695303703429897],["Volod",-10.695324094026317],["Eliza",-10.695339522535129],["Sony",-10.69536702376359],["gendarmerie",-10.69540989544673],["extension",-10.695424796333981],["employeur",-10.695435418447808],["Manche",-10.695460709725808],["Peter",-10.695496784770095],["inscription",-10.695607035023983],["fenêtre",-10.695721932729949],["oeuvre",-10.695772009773272],["Guy",-10.696346452568699],["Palestinien",-10.696437311673769],["ong",-10.696847639998932],["Canne",-10.697678823778865],["adopter",-10.697800114994577],["ning",-10.697863999981987],["entré",-10.699719901384775],["payé",-10.699957075205358],["menacé",-10.700133007903297],["avancé",-10.700355371347943],["ive",-10.700511480818564],["Inde",-10.700983774894588],["AS",-10.70148492481081],["Reste",-10.70284055900781],["classes",-10.70360105755673],["jugement",-10.704107876199881],["Force",-10.704260423500713],["prenant",-10.704409230324803],["signer",-10.704865975713957],["engager",-10.70533043109182],["future",-10.705489393082189],["vacciné",-10.705489573529578],["Ki",-10.706522169354653],["Brunswick",-10.709311665350501],["section",-10.709322308476173],["Office",-10.709391017513422],["collaborateur",-10.709396799641803],["diffusion",-10.709411193565442],["World",-10.709444929729955],["Péc",-10.70958684060544],["moderne",-10.710884554814989],["Bourse",-10.710991105395433],["exceptionnel",-10.711057206555452],["éro",-10.711591524087098],["gi",-10.712056298954414],["restera",-10.71225051952289],["attirer",-10.712283513904536],["congé",-10.713070987975122],["organise",-10.713636869369768],["couper",-10.714154038695856],["transformer",-10.714486292798732],["spécialisé",-10.714764266632974],["tourné",-10.714920635718371],["nier",-10.715156947062717],["préféré",-10.7156318616336],["réunir",-10.716451656537501],["retirer",-10.716467028465033],["volant",-10.716499054179003],["réagir",-10.717823968650745],["PI",-10.717847602071407],["excellente",-10.718077595889653],["120",-10.718197580847995],["usager",-10.71838751192524],["repas",-10.718754903117125],["Ré",-10.719403077129082],["animé",-10.719425766331055],["cyber",-10.721334367218525],["DF",-10.721648929074092],["terminée",-10.723583514899222],["désert",-10.723644625082397],["problématique",-10.723673918310357],["résistance",-10.723673994979617],["rénovation",-10.723675295882284],["Sept",-10.723683050006898],["éditeur",-10.72368862578007],["assistance",-10.723692603579295],["cycliste",-10.723710998145343],["suspension",-10.72377610005955],["Quel",-10.723901186010083],["confrère",-10.723941892141955],["sélectionneu",-10.72399530419878],["illégale",-10.724029080512603],["observe",-10.724141402686648],["essayé",-10.724477123008402],["destinée",-10.7246124166128],["seuil",-10.724658321129901],["disque",-10.72475141635389],["identifier",-10.724828115921492],["concertation",-10.7249886441112],["juive",-10.725298665868136],["AQ",-10.725563081986433],["ambassade",-10.72556638444797],["morceau",-10.725815831117764],["TP",-10.726765877258309],["combattant",-10.726856687178865],["touriste",-10.727037048260577],["loyer",-10.72716875992539],["Fo",-10.72720024885353],["publicité",-10.72727437422142],["Laval",-10.727394712820805],["Île",-10.727907000121853],["bat",-10.728145999988143],["suiv",-10.728337212719744],["auxquel",-10.728521714875466],["To",-10.728640583819129],["Kev",-10.728761546087258],["poussé",-10.729830009796455],["ini",-10.730329220793156],["courage",-10.730463383630848],["Mb",-10.730845299058288],["PG",-10.731797288302406],["gouvernementale",-10.73207600814781],["moral",-10.732232930045015],["exige",-10.733091526050035],["disant",-10.73409241762637],["alheureuse",-10.734846001115553],["Tchad",-10.735643690298101],["revue",-10.735909951709994],["Im",-10.73612521813094],["SE",-10.73679114464078],["79",-10.737254203717521],["Bat",-10.737614168989753],["thématique",-10.73781487776917],["musicale",-10.738033784942434],["symbolique",-10.738166671938437],["Vendredi",-10.738166672653325],["critère",-10.738167675355346],["escalade",-10.738169700606282],["Jeudi",-10.738170283755236],["Lundi",-10.738204811937909],["semblai",-10.738236294874405],["importation",-10.738239391609856],["nourriture",-10.738317200675265],["Actuelle",-10.738363519910195],["cellule",-10.73841047029715],["limitée",-10.738550743769965],["alliance",-10.73861139411569],["foulée",-10.7386136413953],["ama",-10.738689162987564],["sélectionné",-10.738815770400764],["partielle",-10.738867213134846],["consultation",-10.738921138483551],["collège",-10.739126987859368],["Elon",-10.739229739883504],["Interne",-10.740317688537491],["Ex",-10.74065049314865],["manger",-10.740662649351785],["biais",-10.743166165601435],["accompli",-10.74384466172213],["nécessite",-10.743856810907083],["évident",-10.743947505489418],["!»",-10.744330106120795],["Seul",-10.744461433300968],["urbain",-10.74454583823227],["ariat",-10.745185586707862],["info",-10.74623893085538],["préciser",-10.746384182701473],["releve",-10.746632038907634],["dépend",-10.746791118230377],["haine",-10.747547353673571],["commenté",-10.749372215842692],["tweet",-10.750224369820252],["luxe",-10.750385487252627],["Déj",-10.750666986686305],["culte",-10.751745712985425],["Constitution",-10.752658211186127],["Anderlecht",-10.752790262713177],["mécanique",-10.752872560405102],["conversation",-10.75287338540545],["bourgmestre",-10.752878572679036],["maritime",-10.752880750324405],["bidjan",-10.75288161863401],["erine",-10.752949131934974],["terres",-10.752988856932065],["tournage",-10.753097901946726],["Pascal",-10.753229007694117],["stockage",-10.753230662947132],["ôme",-10.753259791980526],["mette",-10.753506234981334],["Gar",-10.753921918914884],["Sports",-10.75420313653042],["livrer",-10.75439679313965],["originale",-10.755684754365909],["Can",-10.755850838688968],["remplacer",-10.755942868596572],["atteinte",-10.75610617629281],["RA",-10.756194861190192],["Thierr",-10.75689549774329],["Za",-10.756945380718017],["limité",-10.757396710449235],["évoluer",-10.758682453574112],["Rem",-10.75899567285449],["culturelle",-10.759057687542832],["équipé",-10.759091787870563],["interrogé",-10.759246680766104],["républicain",-10.759290255411571],["CD",-10.759315470659615],["conçu",-10.759326944066473],["prononcé",-10.759429535337743],["comédie",-10.759478948908203],["garantir",-10.7596029338057],["attaquer",-10.760031659407701],["paraît",-10.760342837530668],["comédien",-10.76094517720394],["soumis",-10.761031052752388],["inclu",-10.761065819550208],["Moi",-10.761291942185675],["québécoise",-10.763142700726082],["saut",-10.764335411519156],["imaginer",-10.764651607937363],["Bri",-10.765413942756913],["voudrai",-10.766156563804856],["98",-10.766456424416738],["occidentale",-10.766867878632862],["Char",-10.767520632059338],["wa",-10.767609073005401],["Pokémon",-10.767797960353597],["matériau",-10.767798475955914],["rupture",-10.767802138555723],["Marvel",-10.76780283281015],["joueuse",-10.767812759662961],["fonctionnalité",-10.767829462466707],["procéder",-10.767862468977018],["chauffeur",-10.767883060598397],["mécanisme",-10.76791699229532],["Bureau",-10.768027873543286],["autoroute",-10.768168315011692],["polémique",-10.768580339154783],["psychologique",-10.76886449121195],["Los",-10.768945903119711],["format",-10.768998621093072],["recueilli",-10.769067897780774],["engagée",-10.769994091132663],["repos",-10.77033445814458],["Diable",-10.771370171009615],["Yo",-10.773246287319754],["fermée",-10.77388790365882],["termine",-10.774344074599984],["digne",-10.774583314082136],["annulé",-10.774742564267115],["ché",-10.774793539596764],["informé",-10.775328894918689],["franchi",-10.775581112899488],["aimerai",-10.775636359555882],["Julien",-10.775636875662864],["four",-10.776085773028417],["mine",-10.776206755522194],["Her",-10.777032084506931],["souffle",-10.779621637530395],["insta",-10.7800995112645],["libéral",-10.780282114008296],["éventuel",-10.781090219545575],["Groupe",-10.781952650925318],["fui",-10.782586616154822],["palestinien",-10.782757691446484],["décédée",-10.782783324519837],["profession",-10.782835996107572],["piscine",-10.78294948307463],["majoritaire",-10.782949487597365],["locataire",-10.782950100527732],["Britannique",-10.782953755735123],["clinique",-10.782990039956749],["clientèle",-10.783033221676948],["médiatique",-10.783120737497132],["87",-10.783267733356965],["communiste",-10.783343522283412],["entente",-10.78351534479891],["forfait",-10.78467686763843],["basé",-10.78477027187817],["Quatr",-10.785284930911732],["ignore",-10.78722775233651],["menu",-10.78725600895875],["dessin",-10.787384264318021],["ik",-10.788270672718156],["égal",-10.788280334820671],["abattu",-10.788858653439116],["llah",-10.789201276023993],["Do",-10.790011488134855],["énorm",-10.790693884664545],["doté",-10.790781284437418],["triste",-10.791185735571373],["paysage",-10.79190400637036],["parvenu",-10.792061087645191],["cong",-10.792340440667655],["promet",-10.792437570481496],["rire",-10.792554444144312],["abonnement",-10.793024441387871],["09",-10.793814903590034],["parfaite",-10.793939615873445],["Real",-10.794001929157428],["situe",-10.794671407042646],["ium",-10.794766332582665],["Jack",-10.795583365424678],["ède",-10.796246911891824],["ramene",-10.796672811530662],["bons",-10.796717554349637],["regrette",-10.797250227943703],["fraude",-10.7979179262652],["boîte",-10.798060559596864],["italien",-10.798166543504115],["convention",-10.798315091463486],["spectaculaire",-10.798334057956442],["administratif",-10.798334057956474],["emblématique",-10.798334057956833],["évacuation",-10.798334058166333],["internaute",-10.798334117750507],["phrase",-10.798334413976859],["hospitalier",-10.798338276539587],["chanteuse",-10.798338338975302],["banlieue",-10.798344491936888],["Far",-10.798405246665766],["représentation",-10.798513023662561],["complété",-10.798534416625376],["Alliance",-10.798963526437994],["imposée",-10.799807761574016],["actionnaire",-10.799903821184273],["savent",-10.800817748995408],["pèse",-10.800923399130706],["correspond",-10.80112646204084],["placée",-10.801265815717706],["pensée",-10.801957231206458],["Guilla",-10.80201583710852],["fondation",-10.802461425709364],["Sch",-10.802680181323854],["consiste",-10.802840441072455],["engin",-10.803153233103423],["débats",-10.80407756097497],["tagne",-10.80409749110774],["chère",-10.804104933363078],["exploit",-10.804142364827992],["Dan",-10.804489455276121],["retenu",-10.804724271137673],["96",-10.80562510167979],["remplacé",-10.806036965095156],["gagnant",-10.806175459249854],["exposé",-10.806239984666053],["espagnol",-10.806408626923098],["Bé",-10.80661894873045],["bloqué",-10.806676265632973],["basée",-10.807145585706959],["usines",-10.807725153927962],["nouveauté",-10.807834579640918],["poursuiv",-10.808309743384777],["devr",-10.809533227081799],["dépasse",-10.809962811134252],["mail",-10.810017786090505],["illustre",-10.810894126815374],["inédite",-10.811433145924582],["GO",-10.811745191830784],["Albert",-10.811789209076718],["touchée",-10.812068916645524],["compagnon",-10.812092473636628],["entité",-10.812694089181592],["ification",-10.813362811795933],["symptôme",-10.813959057957431],["incontournable",-10.813959058071774],["hectare",-10.813959058600581],["indispensable",-10.813959125531836],["comparaison",-10.81395914475211],["sévère",-10.813959609716104],["boulevard",-10.81398610395842],["condamnation",-10.814019518923477],["coéquipier",-10.814019624021102],["horaire",-10.814040111754965],["colonel",-10.814041065898603],["vant",-10.814062611816603],["Berlin",-10.814147973498422],["nuage",-10.81420568928548],["Hong",-10.81437103903312],["apprentissage",-10.814592937979308],["Fête",-10.814860339506797],["entraîne",-10.815158488058675],["fumée",-10.815240892509248],["clos",-10.815275528390528],["survie",-10.815923152648406],["autochtone",-10.81635835846728],["noire",-10.816801637882605],["rement",-10.8168498130048],["18h",-10.817142170413932],["aperçu",-10.817330870080815],["plante",-10.817758996531946],["provenance",-10.81863433142583],["disai",-10.818816053336304],["déplacer",-10.819097705483294],["reconnaîtr",-10.81960905305181],["solaire",-10.819969707360688],["accompagne",-10.82015824402706],["Asi",-10.820163317396084],["Strasbourg",-10.82033286121268],["remerci",-10.821582608833133],["isolé",-10.822160768579357],["attaqué",-10.822188303732382],["représenté",-10.822845544979128],["dépassé",-10.823141941895727],["pensé",-10.823775870018803],["libéré",-10.823780250639704],["reprend",-10.82489030644474],["déficit",-10.825947475325407],["Am",-10.826710609865504],["démission",-10.827004442105896],["HD",-10.827356514303743],["tournant",-10.827442035416512],["Lui",-10.828111753034936],["Hél",-10.82814626080595],["occident",-10.828363180899835],["pur",-10.828764024574404],["Sénat",-10.829326948506615],["volé",-10.829474600147968],["coordinat",-10.829653279718578],["protocole",-10.829832074374298],["compatriote",-10.829832553753139],["Heureuse",-10.829834123449256],["Organisation",-10.829842106716793],["Journée",-10.829842559319118],["autonome",-10.829845625376187],["avère",-10.829889193989601],["légende",-10.829921807273902],["hasard",-10.830032050051674],["intelligence",-10.830180583367468],["trophée",-10.830368074933155],["Aussi",-10.830387652826158],["filière",-10.830496844244879],["ray",-10.830835785021556],["barrage",-10.830836412064144],["Kou",-10.831142654347993],["flambée",-10.831544728669893],["coureur",-10.831913491920133],["opu",-10.831925778439656],["pompe",-10.832290567061257],["évolue",-10.83233510784596],["allé",-10.832831030864888],["mention",-10.832884488814557],["aidé",-10.832945308834027],["provenan",-10.83312952198858],["virtuelle",-10.833186944860998],["voy",-10.833575475438318],["AL",-10.833687626420875],["casque",-10.835693196161738],["verra",-10.837258689412305],["Born",-10.83796420885275],["Na",-10.83818830059406],["Duran",-10.838584591846843],["toucher",-10.838670529611779],["familial",-10.839092677910486],["vaccinal",-10.839486354088706],["gan",-10.841759535575257],["International",-10.842177957187689],["Trude",-10.842474142438164],["écho",-10.84265374845823],["Mard",-10.843054601324237],["lumin",-10.844320730789445],["carbone",-10.845920169679747],["ordinaire",-10.845946749795328],["interprète",-10.845961107117532],["chapitre",-10.845961132153473],["téléphonique",-10.845964503401788],["archive",-10.845999797078225],["caché",-10.846017714912719],["adhésion",-10.8461172836025],["équivalent",-10.846302398864516],["libér",-10.846315711776596],["Carlo",-10.847114819840662],["grandi",-10.847340490335391],["Meta",-10.847399271110563],["caisse",-10.847785064797112],["religieuse",-10.847806756395533],["tire",-10.847929865172215],["SSD",-10.847944816734564],["richesse",-10.848053876877646],["wer",-10.849089954580315],["Cath",-10.849234706175224],["plaque",-10.849993453206253],["pou",-10.850886213675764],["angle",-10.85382924628098],["etsk",-10.85400200790416],["mentionne",-10.854779721561343],["profite",-10.854871376555952],["voisine",-10.854882970147953],["obligé",-10.855128165243421],["transformé",-10.855491340663633],["Plan",-10.856053711265506],["tech",-10.856059132470786],["Mou",-10.85623046599848],["pr",-10.856880429013609],["cycle",-10.857150096087803],["tranche",-10.85743234440746],["Certaine",-10.857448998227005],["val",-10.858221131709602],["couvert",-10.859478504390161],["tra",-10.859525077735757],["indépendante",-10.859601657428284],["occuper",-10.860058620680459],["visa",-10.86019908601974],["AC",-10.8605320303778],["Tr",-10.860597797111106],["électoral",-10.860957561703898],["arros",-10.862049215968103],["Portuga",-10.862057996559152],["susceptible",-10.862354548771787],["implication",-10.862354550774018],["fabrication",-10.862354596216491],["Benjamin",-10.862354601935811],["règne",-10.862355985916246],["concrète",-10.862362982597794],["écologiste",-10.862363292159092],["révélation",-10.862371834292343],["dinar",-10.862381526523162],["Toronto",-10.862390374845969],["Roger",-10.862446877041897],["terrible",-10.86259353106017],["fiscale",-10.862687597395627],["championne",-10.863142544259524],["ney",-10.863443660770255],["faciliter",-10.863860335641162],["frein",-10.864007182318698],["assaut",-10.864038161694044],["déposer",-10.864066186121748],["Ceci",-10.864617342496066],["monté",-10.864928513778812],["Front",-10.865314629962608],["composée",-10.86561846357772],["encourager",-10.86578754821636],["vidéos",-10.865880249754056],["rin",-10.866292372284935],["borne",-10.86633395244354],["Royal",-10.866396872769256],["rat",-10.867378010242007],["Mathi",-10.86773412002032],["pin",-10.868209709934082],["refuse",-10.869085197307239],["foot",-10.869165854619476],["iser",-10.871022819604963],["beauté",-10.871175612620386],["istan",-10.871338303525421],["absent",-10.871689593794624],["Serie",-10.871849263303648],["préserve",-10.871910163453059],["apprécié",-10.872308687548704],["sénégalais",-10.872477514156499],["inspiré",-10.87252001340654],["my",-10.872559511799402],["observé",-10.872569632376903],["71",-10.872871851719834],["consacré",-10.87292697414275],["Fer",-10.873016124420431],["rage",-10.873420946819817],["sentir",-10.873467210814393],["viendra",-10.873907181778545],["Ga",-10.874204241095587],["contrainte",-10.87423908790667],["rock",-10.875175238220816],["wan",-10.87536342407618],["reproche",-10.875697258072744],["bilité",-10.875981659022752],["Quelle",-10.876090851392991],["arrête",-10.877011739224153],["suscité",-10.87706620458036],["religieu",-10.87712676853375],["créée",-10.877311913413681],["participe",-10.877393966930924],["major",-10.878747007672558],["web",-10.878880125155156],["attitude",-10.8790225277316],["logistique",-10.879024556716727],["chaussée",-10.879040830423676],["épaule",-10.879083129013042],["vocation",-10.879169503746667],["61",-10.879187412093557],["scandale",-10.87923036955113],["Alger",-10.879296833480854],["far",-10.879402523013656],["titulaire",-10.879583050908671],["dois",-10.879761783235956],["réalise",-10.879813507164542],["envoi",-10.88063788131931],["ressemble",-10.88078686132628],["location",-10.881012923351829],["expertise",-10.881216168619552],["potentielle",-10.881253351407926],["Congo",-10.881550031089537],["ores",-10.881792872973246],["appliquer",-10.882368520037407],["météo",-10.88278960312824],["Po",-10.88341612052502],["ib",-10.883616208349281],["oiseau",-10.883653756103445],["brigade",-10.884660652976333],["veiller",-10.885491821416313],["lois",-10.88584611771213],["suffisant",-10.886355438346628],["IB",-10.886389046941257],["imanche",-10.88666153429568],["riches",-10.887618314610966],["ND",-10.887957238506662],["néerlandais",-10.88957364217163],["affiché",-10.889945712772061],["médical",-10.889975812467881],["déroulé",-10.890055003146003],["favori",-10.890547849511115],["Bour",-10.890650264987784],["dirige",-10.890992457137262],["déc",-10.891077612555875],["emprunt",-10.891589671249463],["favoriser",-10.89236878820937],["way",-10.892608451666174],["RE",-10.894361909890684],["parlement",-10.894999817946871],["Jonathan",-10.895970370341562],["parallèle",-10.895970380973608],["fossile",-10.89597275810874],["Maritime",-10.895981599522905],["sensibilisation",-10.896004789074306],["casting",-10.896013095665147],["jambe",-10.89603256805971],["vedette",-10.896067553914392],["Académi",-10.896069222288162],["libérer",-10.89609682638879],["plaidé",-10.896201447992734],["recrutement",-10.89657421535474],["puissante",-10.897328807493615],["CAN",-10.898373668800863],["issé",-10.898602271219236],["Ontari",-10.899085166830062],["Rappel",-10.899257569515537],["Sein",-10.899741418506824],["nage",-10.89998041058692],["gel",-10.900001003904475],["retraité",-10.900183075267119],["Ram",-10.901309614398508],["trente",-10.901769279886583],["écouter",-10.901863007091109],["rachat",-10.901864508458528],["Jan",-10.901989564459395],["casse",-10.902966347433722],["Cor",-10.903180557892227],["regarde",-10.903181657738678],["déposée",-10.90368077514401],["we",-10.904390538919404],["représenter",-10.904559932919963],["Com",-10.90527679233676],["urbaine",-10.90586536093156],["pain",-10.905982047832277],["ach",-10.906200006472675],["abandonné",-10.906991492299824],["conséquent",-10.90700540668923],["roy",-10.907345891023247],["tombée",-10.90762237214096],["étion",-10.907711957479393],["abus",-10.908069953881967],["conserver",-10.908134965805887],["classé",-10.908139262484388],["violente",-10.908154869793371],["relance",-10.908889594334756],["promouv",-10.910375108835112],["tenant",-10.911910760128745],["essaie",-10.912575424942709],["hu",-10.912625016827118],["her",-10.913009019636362],["occupant",-10.913091025517627],["océan",-10.913102932752018],["vulnérable",-10.913211747301947],["collectivité",-10.913211747337254],["dangereuse",-10.913212287613202],["prolongation",-10.913212290053188],["sécheresse",-10.91321241728696],["échappé",-10.913213475651645],["technologique",-10.913216387889484],["mélange",-10.91322137364805],["trajet",-10.913229382248673],["exécution",-10.91323069485446],["soignant",-10.913262579020925],["Boris",-10.913488522903766],["jury",-10.913589421765945],["covid",-10.91360262149686],["développeur",-10.913743196642095],["recommandé",-10.913786552064177],["Monsieur",-10.913786552112605],["toi",-10.913921704842858],["fierté",-10.913940420150325],["affirma",-10.915014198069244],["conclur",-10.915812021255062],["aming",-10.917053789271666],["Cert",-10.917214422476704],["Tes",-10.917527774963972],["transporté",-10.917768418075791],["satisfait",-10.918333787503087],["revers",-10.9195470559545],["estiment",-10.920774385547048],["signal",-10.923609855388992],["conquête",-10.923644186147598],["All",-10.924152187871899],["lauréat",-10.924484083458555],["critiqué",-10.924722259572105],["tuée",-10.92571146135765],["fiction",-10.925773384074024],["interroge",-10.925921264986526],["Hor",-10.92598488870844],["éclairage",-10.926722181532408],["ferai",-10.926859839916482],["survenu",-10.928115128565672],["contrôler",-10.92890314778241],["Dar",-10.929451844634016],["mentale",-10.929998502285141],["pension",-10.930437384247291],["iranien",-10.93057260060815],["Monde",-10.930643429532434],["raconter",-10.930678695690439],["agréable",-10.930707880454626],["catalogue",-10.93075560845137],["destruction",-10.93075581318639],["hypothèse",-10.930756341435083],["Mexi",-10.93077287398707],["modification",-10.930778892619164],["annulation",-10.930786835524964],["standard",-10.93081484145489],["valoi",-10.930833403632574],["Thi",-10.930836309515453],["bancaire",-10.930857543981912],["motif",-10.930889588868618],["prisonnier",-10.930943346117537],["Donbas",-10.930960639748934],["Street",-10.931242470122644],["froide",-10.931818614927234],["désigné",-10.931964828050603],["oît",-10.93228938788786],["levé",-10.93253750360875],["échapper",-10.932981729958254],["modifier",-10.933363283300954],["CF",-10.93352946704856],["gri",-10.933945238420488],["Bal",-10.93406271603981],["poisson",-10.934891742044963],["apparaît",-10.93526401705351],["onze",-10.93533770411522],["Xi",-10.93881277426777],["testé",-10.939619035364402],["finit",-10.940679505763837],["rejet",-10.94118720050427],["isait",-10.941316896535863],["stricte",-10.941504892979992],["aîné",-10.942549667969338],["pape",-10.942816828323231],["conscient",-10.943098030004316],["révolution",-10.943120724469429],["support",-10.943380158207912],["illon",-10.943899233401787],["dépasser",-10.944280790402889],["concernée",-10.944658434363145],["noté",-10.945318297206137],["Bleus",-10.945402342130727],["Allemand",-10.946408338948453],["défendu",-10.946417964545592],["Sou",-10.94645531618082],["ali",-10.946551642059676],["intégré",-10.946799792793101],["Toulon",-10.947198590096377],["compatible",-10.948283709728996],["diriger",-10.948337163910335],["budgétaire",-10.94861274977631],["gouvernan",-10.948612757828226],["référendum",-10.948612766633325],["intermédiaire",-10.948612769408058],["vétéran",-10.948615835264317],["céréale",-10.948616304615133],["sensibiliser",-10.94862039876151],["fameu",-10.948632506918939],["bouteille",-10.94865191570059],["Directeur",-10.948665858732877],["apprête",-10.948720144488663],["Roland",-10.948728338700885],["animateur",-10.948737927153136],["modeste",-10.948786821124049],["marquant",-10.94913541521899],["technicien",-10.94968442026126],["manœuvre",-10.949704389134236],["appartenan",-10.950248408680485],["rebelle",-10.950558173501886],["citoyenne",-10.95068052672776],["coupure",-10.950841022206443],["qualifier",-10.95101264674428],["IA",-10.952872534697143],["stream",-10.952939812868799],["Loire",-10.953038716312657],["sapeur",-10.953538284434952],["accompagnement",-10.953937485139853],["Gaza",-10.954566942819259],["couvre",-10.955338152128501],["disputer",-10.9567282838697],["Tim",-10.957102270197119],["vertu",-10.958116375813566],["05",-10.959747776525976],["arabes",-10.959958803260108],["TAN",-10.960056278238035],["immédiat",-10.961332809427407],["tic",-10.961618321275205],["suicide",-10.961981209092276],["intervenu",-10.96207915988937],["rayon",-10.962317964662574],["ressort",-10.96329643732815],["nvironnement",-10.96381864658239],["organe",-10.964313723369804],["Gri",-10.966636731329737],["déçu",-10.966794631571199],["horreur",-10.966795644218791],["dominé",-10.96680485842355],["possession",-10.966813284636002],["Smith",-10.966815088456926],["alentour",-10.966865075964284],["chronique",-10.966876069734655],["Light",-10.96691112439368],["imagine",-10.96692858528498],["incertitude",-10.96703484109853],["réputation",-10.967186900238262],["fusillade",-10.967383462915723],["brut",-10.96740466250769],["détaille",-10.967405399860866],["Dia",-10.967461489105316],["routier",-10.967530914499266],["PME",-10.967667661501842],["Contrai",-10.967870958487843],["84",-10.968188562541929],["Bell",-10.968594822544414],["RÉ",-10.968892672438283],["Day",-10.969105680652186],["allemande",-10.97146361923563],["Chi",-10.971854128608252],["Gra",-10.971930481440992],["condamne",-10.971933389759531],["habituelle",-10.972931598140654],["oux",-10.973290947921605],["individuelle",-10.974330640087718],["artisan",-10.974575602838565],["réunis",-10.975360536485207],["étendr",-10.97642942578494],["Mill",-10.976911325120644],["dispute",-10.976963293747476],["fondé",-10.977479025620463],["Stan",-10.978096191721038],["‘’",-10.978183813640044],["900",-10.978999123600117],["syndicale",-10.97923262498706],["passionné",-10.979907283507748],["musulman",-10.980378046458558],["disputé",-10.98052544269855],["Savoi",-10.982849199988271],["ambitieu",-10.98336334789543],["Environ",-10.983573704766574],["lecteur",-10.984021300475955],["réception",-10.984755410895318],["géré",-10.98478513151869],["musicien",-10.985190320915983],["pollution",-10.98531308767703],["accessoire",-10.985313105354074],["résoudr",-10.985313207124532],["régler",-10.985316152264172],["visiter",-10.98531809642292],["Ibrahim",-10.98533061404845],["observation",-10.985407023287955],["kilo",-10.98542272156432],["programmation",-10.985426530078334],["aff",-10.985651101845292],["amie",-10.985707547416403],["suivie",-10.985741376610815],["septième",-10.985800129459506],["folle",-10.98587047032365],["vallée",-10.985952430286128],["abandonner",-10.986435785081062],["Galax",-10.986556757613993],["compt",-10.986605505737836],["composition",-10.98682113445361],["CGT",-10.987172678633952],["viande",-10.987299401239323],["diffusée",-10.987592603625739],["Xavi",-10.987626825165542],["pousse",-10.988326960097332],["Bois",-10.988538913446686],["!\"",-10.989357845749558],["tranquille",-10.989976488242165],["porteur",-10.990215538700562],["encontre",-10.990781668730886],["arc",-10.991302705332824],["entraîner",-10.99131696356664],["souligner",-10.992141836405246],["Josep",-10.99276549744096],["ino",-10.992927547390266],["ç",-10.993609570235101],["Fabien",-10.993718261280167],["rebond",-10.993820387064396],["Cond",-10.99470916791161],["fonctionner",-10.995035260486773],["cinquant",-10.99504074618239],["entrevue",-10.99534531337233],["olo",-10.995685193497305],["Bill",-10.996134546157142],["remonter",-10.996696430382785],["firme",-10.997057940027876],["raté",-10.997208191087747],["Nos",-10.998183758697602],["pénale",-10.998346277140657],["paraîtr",-10.99838108237012],["existent",-10.998574045577103],["plonge",-10.998635832435237],["81",-10.998994154933621],["habitué",-10.999150513027327],["Tar",-10.99947044238392],["permanent",-10.999893658391926],["justifier",-10.999930538749108],["conjoint",-11.000066456018315],["our",-11.000891694930868],["détermin",-11.001038965147444],["74",-11.00122611886802],["handicap",-11.001682569382373],["Min",-11.0022504539408],["hy",-11.002937390948372],["ercredi",-11.003267494048957],["marocaine",-11.003743316683813],["Alpha",-11.004024569135943],["baptisé",-11.004062069519728],["hélicoptère",-11.00418101096476],["infirmière",-11.00418101096677],["éliminatoire",-11.004181034730054],["renouvelable",-11.004181049419362],["arbitre",-11.004181281462548],["Juif",-11.004184153763237],["pourcentage",-11.004184493326889],["Arabi",-11.004184738198642],["défunt",-11.00420141158331],["correctionnel",-11.004248667411794],["ligue",-11.004267790106285],["comble",-11.004306116163715],["uff",-11.004331778235015],["orientation",-11.004341314207744],["souveraineté",-11.004345600385353],["observateur",-11.00438726271507],["conception",-11.004414107185905],["réparation",-11.004451094808298],["And",-11.004459642448182],["bassin",-11.004512950588023],["empêché",-11.004687413510933],["Rh",-11.00478570924395],["Frank",-11.004838604138143],["PL",-11.005188587126886],["trans",-11.005463750921432],["bière",-11.005470050994084],["design",-11.005960523043825],["AIP",-11.006311251266036],["PA",-11.007419733002873],["ph",-11.007752209862185],["global",-11.007764625634362],["pure",-11.00860471649161],["enregistrée",-11.008973056589564],["intéressante",-11.010528846687127],["Sea",-11.010604126774492],["ordonné",-11.010803859410798],["mark",-11.010938033995778],["Rock",-11.011432681077183],["bourg",-11.011837138475348],["soixant",-11.012055569578532],["comporte",-11.012247506826139],["tar",-11.012255190192434],["cercle",-11.012359165846206],["détien",-11.0134471209937],["aye",-11.013664008659086],["Mac",-11.01426245348022],["cré",-11.015452935919418],["Ch",-11.015958967258383],["commandant",-11.016005817383583],["fri",-11.016056618973334],["soulign",-11.01644849744563],["Finale",-11.017169437645514],["incarne",-11.017209548939359],["bruxelloise",-11.017472969725508],["trait",-11.01755864905881],["télétravail",-11.017721152399723],["Mur",-11.018453287380346],["réservé",-11.018691046000292],["craign",-11.01869381601367],["Cong",-11.019153740521116],["ok",-11.019265806134413],["japonais",-11.019556156309376],["Borde",-11.019670240172733],["contacté",-11.02047108981039],["françaises",-11.02099868166081],["parvien",-11.021119371411643],["monte",-11.021365954942038],["Hou",-11.02178167428206],["97",-11.022010793078211],["clés",-11.022278595624162],["blé",-11.022405237682502],["Pr",-11.022812424551455],["ica",-11.02283089405751],["Ros",-11.022952390610275],["Loi",-11.022994294649454],["roule",-11.023047120843524],["consécutive",-11.023411781587868],["religion",-11.023411886346938],["Républicain",-11.02341189053078],["doléance",-11.023412297612952],["hospitalisation",-11.02341407279886],["dramatique",-11.023414404444086],["économiste",-11.023414438193875],["traduit",-11.02341515975739],["appuye",-11.023416928938929],["Liban",-11.023423008413404],["créateur",-11.023446531787037],["colonne",-11.023475789609337],["terrasse",-11.02348037446214],["discrimination",-11.02349486428246],["défilé",-11.02355073652933],["courrier",-11.023617940806467],["invitation",-11.023682216107552],["turc",-11.023836381198457],["descente",-11.023921955096275],["Milan",-11.024028764694245],["Oscar",-11.024043451891167],["saisie",-11.02427210883241],["accordée",-11.025352391811797],["longueur",-11.025354386888328],["sensation",-11.025499541168543],["convoi",-11.026460276679984],["profonde",-11.026847136200285],["hâte",-11.026949153116576],["conjointe",-11.02771541053063],["Dami",-11.027756295129763],["unis",-11.028126364932875],["hé",-11.02916641920175],["comptai",-11.029170362861839],["couloir",-11.029278651089566],["original",-11.030292093860393],["voyai",-11.030598173964178],["ogo",-11.031197100135518],["multiplie",-11.03191785662155],["basse",-11.032109236887324],["Harr",-11.032849651324716],["provien",-11.032928957417841],["Prime",-11.033649454875828],["rendue",-11.034067573435259],["trou",-11.034700013020393],["rond",-11.035151430423596],["Né",-11.036632245710635],["disposer",-11.036686963925497],["oppose",-11.03771706455139],["féminine",-11.037902343425898],["gestes",-11.038088510002538],["couche",-11.038263768046862],["serre",-11.039053727137798],["hospitalisé",-11.039280224214558],["confirmer",-11.039604021132426],["carton",-11.039966434118707],["02",-11.040035755702682],["combi",-11.04031967166706],["CO",-11.040322238901952],["commercia",-11.040558182094031],["Soit",-11.041168282733613],["dirigée",-11.04117784714482],["jou",-11.04120443487451],["rejeté",-11.041602522736502],["West",-11.042204155362054],["joint",-11.042595149390156],["audition",-11.042665468815965],["ivoirien",-11.042862330327658],["politicien",-11.042904106646848],["provoque",-11.042966102964108],["diplomate",-11.043019623332789],["prédécesseur",-11.043019623429203],["refuge",-11.043019656651584],["Théâtre",-11.043020615977468],["obstacle",-11.043020650314151],["métropole",-11.043021762414364],["souffrance",-11.043022751679752],["estimation",-11.04303918860597],["fréquence",-11.043044837951406],["célébrer",-11.043047134528688],["Florid",-11.043093359490689],["capteur",-11.043108199134297],["stationnement",-11.043123468081703],["Suite",-11.043142456220432],["ingénieur",-11.04316106466391],["Dub",-11.043420418382215],["TF1",-11.043589049847373],["portefeuille",-11.043831812176263],["fibre",-11.043890633773039],["René",-11.044363895514294],["assisté",-11.044524917778592],["Carolin",-11.044672862771845],["environnementale",-11.045094920257565],["apport",-11.045436372108105],["alarme",-11.04548935363498],["migration",-11.046171438624826],["rice",-11.046970829033766],["poche",-11.048151404702953],["Wall",-11.048428810920196],["relancer",-11.048895544650382],["ouffer",-11.049142919891453],["néo",-11.049582622358905],["Rou",-11.0507776373616],["dévoile",-11.050913364227995],["gre",-11.050914864223738],["approuvé",-11.050935030897183],["gamer",-11.051155270871476],["bref",-11.052127782379465],["Pat",-11.05220557950598],["bouton",-11.052304101118175],["accepte",-11.052487296480926],["Temp",-11.052921811130402],["DN",-11.053686726421828],["agi",-11.054146114880703],["morale",-11.05466065582051],["86",-11.054678164428328],["MC",-11.054766819105966],["excellen",-11.055388372126895],["tara",-11.055547472777679],["feuille",-11.056302440988464],["promo",-11.056791736826451],["suscite",-11.057319825356766],["monument",-11.057578824015202],["Rome",-11.059090600376361],["préparé",-11.059601780987508],["Nova",-11.06014298173193],["TT",-11.060536026672942],["trio",-11.06074727043018],["Games",-11.061118778914139],["écurité",-11.061376852356823],["royale",-11.061545356291465],["asile",-11.062335671194367],["proportion",-11.062611983468635],["SAN",-11.063008865248623],["ouvrier",-11.063020475591134],["bronze",-11.063021445637155],["Taïwan",-11.0630217643378],["projection",-11.063038413978424],["filiale",-11.063039753091447],["compléter",-11.063041722073566],["équipage",-11.063061324863575],["expulsion",-11.06307167912583],["métro",-11.063097823279886],["chapeau",-11.063109033848885],["exclusive",-11.063122152216268],["Bénin",-11.063217630855823],["célébration",-11.063220032471927],["tablette",-11.063359682890855],["algérienne",-11.063395085646818],["félicité",-11.063747673317865],["flotte",-11.063770507099902],["négocier",-11.064027036759555],["prenai",-11.064608864878757],["COP",-11.065047830450876],["assis",-11.065360545464168],["portrait",-11.065374983956385],["soviétique",-11.06581362040761],["contribue",-11.065932352745541],["fortune",-11.066152595906564],["Andro",-11.066443681510409],["pointé",-11.066460502978874],["Ak",-11.066539969842545],["réfléchir",-11.066635759601839],["Nanc",-11.066890494070721],["concentrer",-11.067165818463565],["cent",-11.067592899138738],["Kon",-11.06759725857037],["Eh",-11.067858323529213],["singe",-11.069561319122615],["combattre",-11.06990527297482],["Transport",-11.070583003157932],["mett",-11.0705966880534],["délais",-11.070698640040424],["Chris",-11.071238593342676],["King",-11.0721091213175],["og",-11.073078120254428],["patiente",-11.073656156061716],["vigilan",-11.07379523100743],["étendue",-11.073889517790597],["joli",-11.074450864280633],["Colombie",-11.07482783653584],["composant",-11.074926183829476],["market",-11.076938332324582],["éli",-11.077727225610356],["revendique",-11.078550075131783],["étrange",-11.078760384448556],["considérée",-11.07893198121537],["provinciale",-11.079353239518753],["attache",-11.079359114557093],["présidentiel",-11.079399422932894],["ova",-11.079509755134369],["Didi",-11.079709650012667],["orange",-11.079738765583725],["vend",-11.079860187893516],["spécialisée",-11.079877243192659],["poo",-11.080456378712011],["vaudois",-11.080571689581037],["protégé",-11.080624999722001],["She",-11.08080979031755],["Désor",-11.080825877484493],["affecté",-11.080931993540183],["chèque",-11.083008857813187],["médecine",-11.083139431145684],["accent",-11.08322122006256],["isjordanie",-11.083332410428294],["résolu",-11.083395757534111],["Culture",-11.083427787140131],["pétrolier",-11.083427787691523],["significative",-11.08342778839274],["mythique",-11.083427791509038],["Interrogé",-11.08342794394569],["évidence",-11.083427952566046],["investigation",-11.083428070956813],["théorie",-11.083428158534211],["collision",-11.083430033799127],["Flandre",-11.083430439888172],["Djoko",-11.083443550404791],["basket",-11.083452704526447],["éhéra",-11.083466561823354],["tribune",-11.083528061318177],["bénéficiaire",-11.08354641082817],["oreille",-11.083564604151585],["conseillère",-11.083576414682529],["Jordan",-11.083670692495687],["démontré",-11.083731589829647],["Finland",-11.083838368280121],["prétend",-11.08392333121136],["illustration",-11.0839444875288],["engagements",-11.084149433317377],["loisir",-11.08417669163157],["littérature",-11.08431719335067],["ain",-11.08457190115033],["Nationale",-11.084967490668955],["architecture",-11.085839250370093],["Fall",-11.085849075515],["PN",-11.086453019264345],["amené",-11.086585095947704],["May",-11.086713694514643],["union",-11.087998203291328],["ori",-11.088186702947361],["criminelle",-11.088830585904208],["étudiante",-11.089438797168611],["gou",-11.089771502567991],["fuir",-11.089859263993539],["AP",-11.091526994622217],["retenue",-11.091587121317616],["doré",-11.091634483973994],["Bea",-11.091931742171647],["instrument",-11.09281744593089],["Mat",-11.093034241387567],["canon",-11.093098413566032],["ologue",-11.09314270946712],["espagnole",-11.09340022795077],["SI",-11.093448795889305],["positionne",-11.094362769943853],["graphique",-11.094483254174078],["recrue",-11.09554217923373],["Har",-11.09557135575663],["GR",-11.09615291424405],["signale",-11.096160250721013],["Gou",-11.097722990970382],["élue",-11.097918836414234],["huile",-11.09843770503338],["Met",-11.098685514725897],["Trans",-11.098748278984463],["évoquer",-11.09923331475219],["ü",-11.100099738037946],["rive",-11.100372723610114],["abandon",-11.101252418605583],["oblige",-11.102248557227714],["5G",-11.102273295642364],["repoussé",-11.10235442296705],["compagne",-11.104091936274378],["fraîche",-11.104261120136222],["régulier",-11.104261120682597],["Californie",-11.104261121936085],["édifice",-11.104261122618563],["législation",-11.104261353124866],["magazine",-11.10426136718706],["Concern",-11.104261516749705],["indicateur",-11.104262387990337],["élimination",-11.104264518491291],["amitié",-11.10426511367315],["sénateur",-11.104270294021937],["massif",-11.104270819181085],["tactique",-11.10427502065469],["district",-11.104287460221956],["Ousman",-11.104324097479386],["vestiaire",-11.10433033282806],["phare",-11.10434767359291],["perturbation",-11.104423952836406],["Serge",-11.104454767753012],["percuté",-11.104500229024122],["convoqué",-11.104546301748435],["Claire",-11.10457318932107],["ota",-11.10458150210291],["extrait",-11.104702151097845],["évoquant",-11.104718192540405],["Espagnol",-11.104812486389308],["Netanyah",-11.104830500947855],["reproché",-11.104895817952496],["évolué",-11.105266192690337],["83",-11.105471573913801],["offran",-11.105567401157536],["massacre",-11.10570626739782],["agenda",-11.106061656971853],["dollar",-11.106295099449671],["légitime",-11.10672398077972],["Free",-11.10681798641167],["déploiement",-11.106880768249235],["anda",-11.10860793035484],["irection",-11.1086186647184],["bénéficie",-11.108912031634725],["Argentine",-11.109035219547325],["Gal",-11.109071883392058],["riv",-11.110637030744044],["artificielle",-11.110917059012255],["observer",-11.111214883488481],["Mark",-11.11140280181857],["clou",-11.112072471270864],["Ah",-11.112649964922213],["sprint",-11.112778918945976],["radicale",-11.112969122728074],["appartien",-11.113223909285686],["mou",-11.113400001016316],["réplique",-11.113541137357572],["bouche",-11.114654896051919],["DC",-11.116666815652522],["Op",-11.117400791708034],["appé",-11.120257726071333],["app",-11.120323144537403],["ling",-11.120339497766942],["350",-11.120378164484395],["82",-11.121136440875581],["obten",-11.121453858570415],["copie",-11.121920286246837],["onne",-11.12261955287421],["constituer",-11.122761412737567],["Ku",-11.122811445239762],["My",-11.123325967265624],["impressionnant",-11.12370430103963],["baril",-11.123835122473722],["start",-11.124058660553391],["progress",-11.124366394554105],["connexion",-11.125477436464445],["·",-11.125537715676105],["Conakry",-11.125537719359233],["fabricant",-11.125537721481436],["motivation",-11.125537725826147],["Championnat",-11.125537872888495],["routière",-11.12554007743069],["Économi",-11.125546001132117],["allure",-11.125548375184774],["Histoire",-11.125549858002625],["accélérer",-11.125552293290898],["faille",-11.125555340981453],["gérant",-11.125559544921398],["héroïne",-11.125564510281372],["Sophi",-11.12558023841051],["robe",-11.125595588407787],["manager",-11.12561597688466],["Musée",-11.125654142171772],["mixte",-11.125667428110798],["Sarah",-11.125711637818306],["inacceptable",-11.125723987144147],["vendeur",-11.125792505930875],["Leclerc",-11.12586083649747],["Nada",-11.12589311068103],["diminué",-11.126059441865852],["montr",-11.126083616085138],["Début",-11.126214548055101],["Diall",-11.12637694445677],["pren",-11.126659480223141],["requis",-11.126692886266389],["développe",-11.126811714990337],["idéal",-11.127344780441264],["retrouvée",-11.127379391422629],["traverser",-11.12888942328686],["nationalité",-11.129069861793958],["renouvelle",-11.129111302188335],["accorder",-11.129950506023196],["dédiée",-11.130712631583641],["kg",-11.13071409446864],["recharge",-11.130975158268706],["revoi",-11.131080695168365],["igny",-11.132035117686126],["Steven",-11.132144295025746],["ich",-11.132426148810556],["avoue",-11.132864480364676],["motion",-11.133019277341257],["oubli",-11.133075886563166],["Alexi",-11.133807650043432],["remet",-11.134813532164086],["implique",-11.135555066931794],["«»",-11.136262648720681],["craint",-11.13633342313155],["inaugur",-11.13680626557808],["aît",-11.136974262639487],["favoris",-11.137673377264031],["vre",-11.13774732371121],["orum",-11.138348926378542],["helem",-11.13864174470524],["verge",-11.138875488434575],["pop",-11.139659641780561],["ê",-11.139804699218395],["ange",-11.139979558490657],["contien",-11.140076051001671],["senti",-11.140170525757119],["subir",-11.140933420897811],["mandant",-11.141310067066888],["Fort",-11.141478247268255],["Cal",-11.141526371476573],["Chef",-11.142743544380078],["Vol",-11.142760995906727],["III",-11.142780468487652],["emporté",-11.142981083008936],["souverain",-11.142994602235838],["repose",-11.1434435709342],["130",-11.145159024205295],["évacué",-11.145880364086844],["Général",-11.146037721254547],["individuel",-11.14613986995142],["ourage",-11.146285335777996],["adopti",-11.146308349317884],["adolescente",-11.146311480342513],["communale",-11.146586832635291],["fiche",-11.146797764273277],["rappeur",-11.146956467235324],["manquer",-11.147178433227689],["publier",-11.147266631977004],["™",-11.147276846110888],["revendication",-11.147276846137833],["déception",-11.14727687220185],["satellite",-11.147276922071113],["bâton",-11.147276941455653],["introducti",-11.147277130007343],["impliqua",-11.147278583620238],["isolement",-11.1472818844389],["thermique",-11.147295767650903],["Texa",-11.147297330779022],["leçon",-11.147414791650707],["superbe",-11.147420832503347],["cimetière",-11.147439869204826],["Tech",-11.14745484951629],["Namur",-11.14750196703711],["ordonnance",-11.147596175060789],["bête",-11.14792742509419],["Franc",-11.148059002451873],["milliardaire",-11.148157704644278],["BFM",-11.148338378412998],["Chacun",-11.148377534498836],["Julie",-11.14849920898172],["Croix",-11.148505111470493],["Monc",-11.148678501863987],["monstre",-11.148679119868621],["refuser",-11.148984041712847],["distribué",-11.14914194206794],["3D",-11.149353422223786],["acheteur",-11.149354482539259],["arcè",-11.149436742001285],["Maria",-11.14978541752366],["gère",-11.150462921769739],["Ru",-11.150831074851327],["traiter",-11.150921524756859],["prouver",-11.151093393440469],["VR",-11.151196215932572],["Belle",-11.151244209376625],["bain",-11.151804360857147],["Stade",-11.151892430781215],["débuter",-11.152385493944053],["délit",-11.152812927199598],["dan",-11.152872321665578],["gra",-11.15290570059011],["Ham",-11.15339430563307],["quai",-11.153621604990313],["indiqu",-11.153739049031655],["Pré",-11.15462825139619],["extra",-11.15504658979918],["prévien",-11.155124564696543],["consulte",-11.156395750030265],["remarquer",-11.157101142100778],["écrite",-11.157678776768865],["accompagnée",-11.157852021505954],["Sah",-11.15793219585344],["́",-11.15873728360214],["sable",-11.159442065895751],["ador",-11.159617031680263],["Code",-11.159826715365803],["tendre",-11.162092194816381],["04",-11.162559273923186],["ON",-11.16266598451671],["kh",-11.16389399965032],["épression",-11.16477526011542],["Ray",-11.165396618275189],["éco",-11.16570190361604],["iller",-11.165848683575733],["méga",-11.166001897280735],["triple",-11.166315424224429],["adaptée",-11.166500919162813],["conserve",-11.16673498611904],["Sarr",-11.167666894453422],["ari",-11.167824084505058],["verte",-11.167964586848667],["Rai",-11.168628797701864],["retiré",-11.168840948008391],["stable",-11.16899305408975],["parisien",-11.169319418073455],["photographe",-11.16949906835758],["littéraire",-11.169499068695417],["remarquable",-11.169499072135668],["Raphaël",-11.169499072399178],["atmosphère",-11.169499073167483],["Afghan",-11.169499073603149],["conviction",-11.169499074154675],["fragile",-11.169499882746123],["Tokyo",-11.169500169800388],["populari",-11.169500563799756],["trésor",-11.169502039977186],["Dijon",-11.169506811662142],["prioritaire",-11.169508389529236],["considération",-11.169510295388546],["séparatiste",-11.169511352195492],["mensonge",-11.169517996213802],["embauche",-11.169527399588869],["héritage",-11.16955215116091],["supprimer",-11.169554734031305],["réconcili",-11.169607921344648],["Mike",-11.16961041619028],["meeting",-11.169610497141647],["adverse",-11.169624018878995],["douard",-11.169639978788304],["alerté",-11.169908262400895],["raciste",-11.170013693973473],["avertissement",-11.17005144698688],["Togo",-11.170109299916156],["finaliste",-11.170219233292656],["staff",-11.170467651484378],["hébergement",-11.170501035735956],["continuité",-11.170514559928996],["abordable",-11.170521506290367],["Karim",-11.170769265919962],["Sky",-11.170802965874552],["disparaîtr",-11.171053107079077],["compliquée",-11.17118873526719],["correspondant",-11.171218903073374],["prolonger",-11.171374628673563],["Ger",-11.171958185366503],["emb",-11.172121753924142],["bouger",-11.172224294444518],["satisfaction",-11.172648345550538],["inconnu",-11.173498087944866],["justifie",-11.174341144557877],["grimper",-11.174359053560785],["gardé",-11.174396520836961],["har",-11.174674983194151],["orage",-11.174682739343652],["appelée",-11.174829241825584],["Édu",-11.17486953572144],["étudier",-11.175195605654313],["recev",-11.176578432222957],["transaction",-11.176586607304952],["zo",-11.177554976365077],["couvrir",-11.177635375354694],["insulte",-11.17766884673657],["maintenu",-11.177669346503622],["Dj",-11.17768324983988],["adressé",-11.17823711868841],["commente",-11.178645677232144],["entretenu",-11.178749274112988],["qualifiée",-11.178764559058665],["repartir",-11.179475790581662],["God",-11.179631875179199],["spatiale",-11.180481792588528],["unanim",-11.180744340690833],["Champions",-11.180819927118456],["accus",-11.18166007621748],["Féli",-11.18193460815113],["exercer",-11.182438978781509],["territoriale",-11.18245296684533],["audio",-11.182757141064794],["Mada",-11.18309827781006],["poule",-11.183278413108448],["Mé",-11.184311638939382],["posée",-11.184906548322996],["stage",-11.185163112624537],["Dame",-11.185943191335461],["Bor",-11.186222035731475],["habite",-11.186270693253094],["solo",-11.1871404259939],["partagée",-11.187977467563954],["Big",-11.188407415605624],["revienne",-11.188761548017267],["amine",-11.189274005020856],["assurant",-11.189470752818947],["ui",-11.189545553561604],["Lapi",-11.19030368245296],["Br",-11.190415671184084],["brill",-11.190939882452934],["masculin",-11.19190736119173],["transféré",-11.19212914086914],["Cinq",-11.192195911315892],["diagnostic",-11.192226341060467],["Communauté",-11.192226341081694],["hybride",-11.192226343093525],["cosmétique",-11.192226344186512],["confrontation",-11.192226500435023],["MONT",-11.192226717717048],["préalable",-11.192226883970111],["ralentissement",-11.192227009895742],["suppression",-11.192227028487531],["Standard",-11.192227874560707],["caractéristique",-11.192232385830327],["variable",-11.192244469694332],["cerveau",-11.192270303520484],["Ministre",-11.192273554579755],["Sahara",-11.192280371192048],["craindr",-11.192295387805078],["peinture",-11.192296380408319],["compromis",-11.192346984619741],["monétaire",-11.192350598300154],["dépit",-11.19238209798393],["concentration",-11.19244323841695],["italienne",-11.192509493764323],["uniforme",-11.192510996915905],["censé",-11.192582085616687],["fabriqué",-11.192670285667493],["contesté",-11.192866113042044],["décrocher",-11.193121132934884],["link",-11.193139490686416],["processeur",-11.193281832966305],["ransparenc",-11.19331137330386],["tnik",-11.193327029833668],["RC",-11.193420833028469],["chasseur",-11.193475565974646],["Long",-11.193795454751028],["fiscal",-11.194610936871804],["évaluer",-11.194635203992075],["remercier",-11.194780789226588],["om",-11.194969701684458],["toile",-11.195086370126393],["Top",-11.195373186615575],["ring",-11.195385576049619],["soulevé",-11.195427262607694],["docteur",-11.195444770058515],["ruine",-11.197135495975033],["enthousiasme",-11.197255860916284],["fière",-11.19784565818459],["ô",-11.197992920772506],["compare",-11.198217911762281],["Kan",-11.19848819550734],["encourage",-11.198543062957047],["maternelle",-11.199686498090582],["trône",-11.200128448870343],["garanti",-11.200153996432196],["Alexand",-11.20032467723316],["anglaise",-11.200445307086678],["col",-11.200843517450387],["ries",-11.200970684133626],["Wh",-11.201252706688276],["allée",-11.201753779080484],["ford",-11.202994403242226],["Évi",-11.203337184283743],["saisir",-11.203417826354327],["Tribuna",-11.20363475427316],["interdir",-11.203718326141852],["Camar",-11.204575293752335],["Gille",-11.204637533225355],["chaude",-11.204812573930266],["AG",-11.205745056314576],["Roi",-11.206920592113104],["jouai",-11.20706386239732],["Sala",-11.207521705848812],["nombr",-11.20782405853172],["lov",-11.208236789226131],["clôture",-11.208742639405672],["restée",-11.208868230565386],["aka",-11.209473219549952],["Tri",-11.209802342949367],["arrêtée",-11.210227060105401],["jugée",-11.210332567262718],["reli",-11.210897529845624],["correcte",-11.211014337232903],["eff",-11.211022521341562],["PE",-11.211215596481438],["concentre",-11.211263778862115],["ète",-11.212019994656284],["tif",-11.212257217102433],["jeté",-11.212818534503636],["coupé",-11.21395968555801],["Lac",-11.214188958407277],["mondi",-11.214366396012636],["immersi",-11.214707388694865],["06",-11.215165226261394],["hésion",-11.215272715635374],["explosif",-11.21548215501396],["consécutif",-11.215482155013982],["catholique",-11.215482155146855],["Hollywood",-11.215482155241526],["Cheikh",-11.215482241122059],["cardiaque",-11.215482263372122],["junior",-11.215482520737998],["Atlantique",-11.215483426301725],["relatif",-11.215484135924363],["disponibilité",-11.215487357388934],["introduit",-11.215487840792795],["cliché",-11.215489229728728],["Azur",-11.215489314418312],["fantastique",-11.215491738518342],["Département",-11.215496072491577],["FM",-11.215498029332208],["semestre",-11.215499613471938],["tunnel",-11.215500148777856],["ressortissant",-11.215513279918023],["inspiration",-11.215520597585936],["Golf",-11.215548695575311],["provoquer",-11.215557597963581],["franche",-11.21555899640644],["guère",-11.215613188176182],["Nup",-11.21563067113317],["promoteur",-11.215649120841025],["flamand",-11.215652239524214],["inférieur",-11.215656624999667],["Isabell",-11.215662670750486],["écosystème",-11.215688567168431],["Philip",-11.215699268392381],["exploration",-11.215737133234716],["Park",-11.215783770330422],["Kher",-11.215834088327336],["Anvers",-11.215856134898777],["blocage",-11.215975103214964],["examiné",-11.215993769338755],["chaise",-11.216042130061705],["Messi",-11.21606285812376],["systématique",-11.21627541296752],["réclamé",-11.216769774787396],["Ouat",-11.216923718409005],["afficher",-11.217053494061991],["oublié",-11.217076878801022],["notion",-11.21726160278046],["soumise",-11.217345550585165],["terrestre",-11.217436224584594],["prononcer",-11.217441316156101],["musical",-11.217616889492785],["inconnue",-11.217924883509458],["épou",-11.218384439294034],["revu",-11.218568571408923],["communiquer",-11.218813195960667],["annuler",-11.21929861275454],["solde",-11.220329587597142],["fêter",-11.220371084924414],["Sha",-11.220431645584776],["etti",-11.221075534759612],["provincial",-11.221266404920314],["circuler",-11.221797151323965],["racine",-11.222723760691748],["sexe",-11.22288179360083],["TVA",-11.222992181538581],["Mag",-11.223661571596194],["ish",-11.224465527209603],["riz",-11.224532712565736],["apprécie",-11.224696713285567],["Berne",-11.225317819112892],["Mohammed",-11.22617163455643],["occupée",-11.227090100298962],["connais",-11.227220682787323],["Dix",-11.227482361578506],["bal",-11.227551659914457],["Sy",-11.22847405731914],["vieille",-11.228800240898027],["Gui",-11.230245108568667],["voyant",-11.2315661132548],["épargne",-11.232216090852793],["franco",-11.232560109017694],["appuie",-11.23314525656257],["pourron",-11.233407939371224],["éni",-11.235034736221508],["connectée",-11.235581857556987],["DH",-11.235751698235642],["sentier",-11.235790251460097],["Orient",-11.237735518812478],["Victor",-11.238300131020484],["bourse",-11.238528766627127],["patin",-11.238561454388828],["Africa",-11.238722712052637],["honnête",-11.238957071963835],["gard",-11.239156990085817],["détruir",-11.23929167922459],["chaussure",-11.23929228361786],["Ahmed",-11.239303359460997],["Horizon",-11.239307207462243],["sincère",-11.239310644896738],["vérifier",-11.239317103799545],["complémentaire",-11.239320083797733],["Bruge",-11.239325656274005],["show",-11.239337420179364],["rédaction",-11.239342972219944],["progresser",-11.239429708305305],["Clément",-11.239452846266202],["SNCF",-11.239473127762512],["expérimenté",-11.239498881413692],["intervenant",-11.239566380250562],["gramme",-11.239573936829876],["Pel",-11.239574361894887],["oigner",-11.23961718323487],["entamé",-11.239684627512835],["éliminé",-11.2397148727484],["Rabat",-11.239789736266903],["NFT",-11.239825300842185],["paquet",-11.239891098800225],["charbon",-11.23990228541181],["déclenché",-11.240018091442035],["soulage",-11.240068105306255],["validé",-11.240138316758935],["déplacé",-11.240147294380462],["poing",-11.240226512184872],["météorologique",-11.240255291900423],["Mauric",-11.240517151094272],["inutile",-11.240702275669447],["Chels",-11.240724109863796],["Jay",-11.240731232506118],["nulle",-11.240759433312656],["passeport",-11.240765592177674],["hôte",-11.241187418253077],["aborder",-11.241844496084664],["empreinte",-11.241875438804517],["capture",-11.242695892415545],["Liver",-11.242718615316468],["enregistrement",-11.242900909379543],["robot",-11.243374878597587],["abrite",-11.243651886501192],["Place",-11.243970215716143],["japonaise",-11.244097050247978],["liquide",-11.24418746479107],["IN",-11.24425247389959],["IV",-11.244387645054394],["Racin",-11.244390642264364],["Anti",-11.247277649293776],["adoptée",-11.248042757787214],["SB",-11.248127280694046],["utilis",-11.24825105957449],["Green",-11.248272657120193],["Hi",-11.248286968703447],["lâche",-11.249230348579445],["effectue",-11.249595109952889],["hésite",-11.249786792121863],["dirai",-11.250033665845976],["éclat",-11.25057625173304],["nommée",-11.250601645091248],["low",-11.250669801467884],["cage",-11.250962181750637],["spéci",-11.251706245101673],["marine",-11.252354562273323],["Bob",-11.253168831180712],["recommande",-11.253180429773948],["flou",-11.25358138723967],["ég",-11.253745864972318],["zér",-11.253809461138449],["rot",-11.253922613034788],["Time",-11.254006847425831],["habituel",-11.254279985668473],["ressent",-11.254300399679536],["aube",-11.254536223978125],["Hama",-11.255526131663952],["étroite",-11.255982387275962],["félicite",-11.256045463856337],["fonctionn",-11.256222783359377],["FE",-11.256290233610127],["franchir",-11.257254656273926],["croi",-11.257401733459611],["Ber",-11.257459031881876],["mor",-11.258671130777824],["Fra",-11.2594715373524],["réduite",-11.260239790245423],["verser",-11.261163332684617],["gr",-11.26124229653057],["news",-11.261403769414883],["amassé",-11.261715964950747],["neutrali",-11.2617241907959],["kov",-11.262666372024684],["résumé",-11.263196903548927],["dépendance",-11.263260618045297],["gravit",-11.263296429413042],["Egypt",-11.263351519555213],["guinéen",-11.26349068879947],["certificat",-11.263530050132854],["diplôme",-11.26368192359972],["reflète",-11.263681924094325],["dégradation",-11.263681929452932],["cannabi",-11.263682158536227],["Sûre",-11.26368217122461],["Rwanda",-11.263682203837622],["riverain",-11.263684811495898],["interprétation",-11.263685041428168],["configuration",-11.26369281954654],["costume",-11.263692981222167],["minorité",-11.26369423454873],["interlocuteur",-11.263698315080331],["précipitation",-11.263707594866815],["munition",-11.263713317417627],["complicité",-11.26372099094144],["précaution",-11.26372675795364],["peintre",-11.263750810119195],["parisienne",-11.26390177115195],["FIFA",-11.26397521625086],["Sénégalais",-11.264015520724062],["Mamadou",-11.264100391855932],["connecter",-11.264256875523207],["natal",-11.264257593142926],["roues",-11.264340300901512],["assume",-11.264445002981354],["LED",-11.264645312755553],["amb",-11.26471559647625],["arrivai",-11.26477717827632],["alloir",-11.26482203633633],["détaillé",-11.264863289190243],["sauvegarde",-11.264908616392542],["célébré",-11.265093965616154],["explorer",-11.265154884121518],["créant",-11.265211137093704],["contrôlé",-11.265303632529154],["initial",-11.26538489995161],["Group",-11.265535321158003],["visité",-11.265600316354703],["Luka",-11.265607043202522],["médic",-11.265682269031757],["Marocain",-11.265693525255355],["exigeant",-11.265703374237617],["duré",-11.265764458781652],["témoign",-11.265995198575556],["Radio",-11.266496032668936],["F1",-11.266829784929666],["Ving",-11.26722132615589],["gon",-11.26742558367038],["agénaire",-11.267462602495883],["Camp",-11.267523250843194],["prière",-11.267892159904608],["intime",-11.26808588181675],["lieutenant",-11.268259051801213],["grandir",-11.268516894934118],["Irland",-11.26859644860654],["conformé",-11.268653301122503],["plate",-11.26961794741627],["ralenti",-11.269725001836681],["industrielle",-11.27004772526912],["admet",-11.270836940475588],["92",-11.271340142654104],["circule",-11.271733982574897],["USA",-11.271947719050992],["RS",-11.27217428127459],["pair",-11.272542225354886],["baissé",-11.272574712950414],["emporter",-11.272817190762549],["Pre",-11.273871797956694],["batt",-11.27502077554687],["mouri",-11.275139990010924],["PT",-11.2751852332241],["uto",-11.275307407684029],["Gand",-11.275788255465542],["averse",-11.276176103631323],["brutale",-11.276258284191863],["opérationnel",-11.276850799666411],["FI",-11.277053916193006],["effectuée",-11.277330334425663],["ric",-11.277697032200457],["présentant",-11.277910015873456],["Pan",-11.278779577260847],["SP",-11.278853730304741],["EO",-11.280193666267222],["itude",-11.280545547489096],["balance",-11.280871647501472],["Casab",-11.281328620217565],["construite",-11.281482502368492],["otage",-11.281613829518728],["WT",-11.282078321467433],["achant",-11.282190305887184],["Six",-11.282323370641157],["optique",-11.28350373548932],["VA",-11.283619688576946],["traversé",-11.284480429230086],["adore",-11.2845228334843],["manga",-11.28457707583073],["lanca",-11.284651574470754],["remplir",-11.284829708415915],["attire",-11.285019494506944],["Anna",-11.285549016690581],["entreten",-11.285731370285133],["précéde",-11.28584673284449],["sports",-11.286051358557913],["préfér",-11.2861672067725],["photographie",-11.286237594097877],["confirmée",-11.286268240568331],["19h",-11.28718401637013],["93",-11.287195661372753],["Ryan",-11.28787736503261],["parlant",-11.28800570898877],["survenue",-11.288531313031399],["joindr",-11.288574405984026],["thèse",-11.288594382769656],["administrateur",-11.288681922725916],["Méditerranée",-11.288681922726376],["Résultat",-11.288681922734],["protagoniste",-11.28868192274936],["tragédie",-11.288681922764209],["Gouvernement",-11.288681922771076],["considérer",-11.288681942136542],["interruption",-11.28868200838999],["répète",-11.288682084257257],["intrigue",-11.288682281630795],["esthétique",-11.288682287331547],["domestique",-11.28868243419406],["Autorité",-11.288684935629288],["prudence",-11.288686327173451],["sauvetage",-11.288686984062057],["abstention",-11.288693309111913],["Nigeria",-11.288723755145224],["Andrew",-11.288748906885033],["centime",-11.288758678166335],["ticket",-11.288781855235804],["répétition",-11.288830286530104],["anticipe",-11.288910185432576],["tapis",-11.288917207378493],["denrée",-11.288988406992637],["otte",-11.289000601264437],["parrainage",-11.289038965035466],["transmission",-11.289081394725528],["OLED",-11.28910377946714],["pack",-11.289130597275642],["imant",-11.28915351223877],["José",-11.289502090264012],["contenant",-11.289590957138936],["patrouille",-11.2898430238548],["barrière",-11.289910109782612],["Thor",-11.290517963912004],["piège",-11.2905511480472],["conservé",-11.290651000046708],["remarqué",-11.290682621167003],["justifié",-11.290909882238903],["isant",-11.291101325604448],["Marcel",-11.291297215514689],["BE",-11.29143480686484],["convenu",-11.291989469110234],["Tant",-11.292452429117123],["valu",-11.292487024314937],["Moussa",-11.292600463870654],["VI",-11.292735945474881],["omb",-11.293027767497646],["Wa",-11.293111563241736],["débarque",-11.293157352927174],["maximale",-11.2932007718304],["malien",-11.293259807752051],["Drummondvill",-11.293294185753561],["enveloppe",-11.293423732358189],["AGE",-11.293516043492454],["assumer",-11.293549185588196],["grosses",-11.293763945947644],["Christin",-11.29394850928025],["semi",-11.294102967685532],["salariale",-11.294417756331033],["circul",-11.29472686883639],["rival",-11.29480188698698],["stand",-11.295205498087775],["opposer",-11.2956649973261],["environnemental",-11.296053098322691],["Yanni",-11.29641519811026],["cote",-11.296546406194958],["Abou",-11.296697051102928],["roulant",-11.296747089641144],["absolue",-11.29773992211658],["répondant",-11.297872321276905],["manifester",-11.29874113987795],["Nas",-11.299324813658693],["retourné",-11.299523362417847],["rendra",-11.299700687797197],["bloquer",-11.299913024101546],["demandeur",-11.300387520434356],["Capitale",-11.301092677805592],["patien",-11.301253991931516],["Américaine",-11.30156739305708],["ield",-11.301866777546095],["DI",-11.303037535666338],["Mary",-11.303069992807336],["encadre",-11.303143978933942],["résister",-11.303429706715395],["anonyme",-11.304143754167987],["prêté",-11.304369783452396],["Algérien",-11.304852228334616],["ège",-11.304909128554037],["fusion",-11.305331982143903],["enchère",-11.306126443432312],["cite",-11.306182411953513],["céder",-11.306566793765299],["demandai",-11.30713501395591],["fo",-11.307673028312072],["regrett",-11.307928077865547],["Abdoul",-11.308571707444802],["déployée",-11.309300199289591],["Dev",-11.309323763466],["AR",-11.309384820465777],["extérieure",-11.310059902760319],["assemblement",-11.31041870987852],["Pog",-11.310623675222992],["soutenue",-11.310806681863362],["ria",-11.311139991092361],["emplacement",-11.311418356043609],["applique",-11.311858613332749],["JO",-11.311969293067374],["dispos",-11.312488737373538],["dam",-11.312768406699895],["intensif",-11.313452159679379],["œuf",-11.314055320110507],["agira",-11.314128181693109],["Européen",-11.314130306122749],["diplômé",-11.314322948366883],["formidable",-11.314322952184718],["Égypt",-11.314322953037642],["décisive",-11.314322958434305],["chauffage",-11.314322963324141],["explose",-11.314322968653244],["substance",-11.314323014731832],["Jacob",-11.31432323864494],["élevage",-11.314323431870287],["interpellation",-11.31432496272628],["bulletin",-11.314327880007104],["récupération",-11.314328919834601],["cryptomonnaie",-11.314342252084533],["burkinab",-11.314342404957834],["Provenc",-11.314347143089325],["apparence",-11.314348783096365],["pirate",-11.314355894893627],["roquette",-11.314356267940516],["grippe",-11.31436627908372],["schéma",-11.31437151897874],["folie",-11.314383428691068],["bagage",-11.314399042915788],["gestionnaire",-11.31440067707725],["mosquée",-11.314407444533572],["empire",-11.314453095301843],["Château",-11.314462295419048],["Armée",-11.314531470772687],["Rafael",-11.314613189897303],["amako",-11.314653824796645],["proie",-11.314802566152295],["Gen",-11.314956612624774],["déploré",-11.314961225883668],["inspection",-11.31506625946977],["variol",-11.315092263011067],["nçant",-11.31516870468879],["Arnau",-11.315395095060438],["antenne",-11.315661459111958],["attiré",-11.316112435476805],["rendement",-11.316422521018826],["séparé",-11.31662694279189],["Ant",-11.31669099764888],["versé",-11.316757395891143],["fameuse",-11.317083179577855],["marcher",-11.317158662751769],["répété",-11.317316529375372],["royal",-11.317653158819097],["ailier",-11.317659958040512],["hésit",-11.317809488136918],["Ky",-11.318052989790715],["Dio",-11.318172918539123],["amuse",-11.318562699243492],["LS",-11.318744034800623],["dougou",-11.318777924513547],["arts",-11.319065173453122],["viven",-11.319190164530749],["cassé",-11.319460160412778],["Juste",-11.31958649898958],["démenti",-11.319618466182371],["Ban",-11.31974655941241],["Maire",-11.31997119611564],["rondelle",-11.32042608898497],["Francis",-11.320465582018512],["team",-11.320867619643993],["report",-11.321093883540357],["Wo",-11.321223983235896],["bro",-11.321561661560743],["Sé",-11.321774198212285],["94",-11.322448594399603],["Pix",-11.322534560136013],["phi",-11.322776337229696],["lice",-11.323134790486328],["chut",-11.323227788583893],["Sho",-11.32339638125996],["nié",-11.323420244287176],["citer",-11.323446663924903],["compteur",-11.323792970010086],["envisager",-11.323949936907514],["puce",-11.324351606701285],["ému",-11.324802124633555],["insul",-11.324979606141223],["agriculteurs",-11.325003103368367],["nourri",-11.325546204366816],["ario",-11.326210268912508],["03",-11.326849332801167],["prêter",-11.326881521999313],["respecté",-11.327670556061125],["animée",-11.32791403957818],["libérale",-11.327956202519072],["plaide",-11.328078619947478],["cherch",-11.328152424573611],["envoie",-11.328170838827905],["amene",-11.32832438838855],["magi",-11.328957344909192],["opéré",-11.330290211677537],["gh",-11.330318498467992],["tester",-11.331318487794373],["réfléchi",-11.33176144077946],["MI",-11.331776679248867],["èle",-11.332244815892128],["Bout",-11.332355767255358],["live",-11.332428774892454],["CA",-11.332470580196178],["amont",-11.333304293944723],["Prince",-11.333483521843952],["Spu",-11.33384994453442],["apparaîtr",-11.333917980232211],["Che",-11.334167177510903],["échanger",-11.334782849524776],["91",-11.334786800964011],["GP",-11.334908973073338],["ouer",-11.334999908702864],["apparente",-11.335735041402518],["3000",-11.33576332338901],["ng",-11.335851528653322],["Roman",-11.337787458574288],["tissu",-11.338712714991349],["installe",-11.339180760333955],["chrono",-11.339222729416605],["illégal",-11.339967746153825],["compréhension",-11.340134575875735],["deviendra",-11.34042015729961],["fur",-11.340438314667411],["juridiction",-11.34063873784056],["ferroviaire",-11.340638737855894],["synonyme",-11.340638746459796],["exagon",-11.34063932229456],["poignée",-11.340639387774011],["mutation",-11.340639744888197],["consensu",-11.340640263545406],["Fernand",-11.340640523300717],["Hôtel",-11.340643112824544],["Élysée",-11.340645062667145],["carbure",-11.340651042729206],["blague",-11.340664580707164],["dérive",-11.340676467883073],["rémunération",-11.340677219503416],["activiste",-11.340700428684121],["colline",-11.340722606647867],["hyper",-11.340723623588328],["provocation",-11.340736701446064],["récession",-11.340792453160248],["détecté",-11.340794745914245],["penalty",-11.340829620038384],["allégation",-11.340889864179177],["iranienne",-11.340927825075592],["révision",-11.340971419862823],["Master",-11.341129914192265],["pêcheur",-11.34116859999704],["imaginé",-11.34133306368156],["mérité",-11.341356468472954],["Antho",-11.34138967511362],["partition",-11.341535431883852],["buteur",-11.34163298662574],["historien",-11.341655004125553],["cris",-11.341879147849706],["CNR",-11.342266964513325],["restai",-11.34237334076218],["comté",-11.342396953142377],["éclaté",-11.34271742809139],["recensé",-11.343105578830722],["anne",-11.343420999791066],["Ghan",-11.34421582752932],["suspens",-11.344314972129173],["rassemblé",-11.344429692952001],["restreint",-11.34462006414142],["occidental",-11.344747481935883],["ram",-11.345303537300456],["stein",-11.345415011018332],["break",-11.345557415394016],["École",-11.345562865523554],["Cho",-11.345869793708015],["maîtriser",-11.346004800737095],["touchant",-11.34636020131644],["déterminé",-11.34670370655221],["Bertra",-11.347286569833996],["bol",-11.347835726968],["isée",-11.348221647099727],["résilien",-11.348254533726243],["fondée",-11.34840254816344],["Rio",-11.349200344102819],["rassurer",-11.349304565383818],["Watch",-11.349911566857271],["exploite",-11.35056770015133],["estivale",-11.350583819163875],["UD",-11.350697470879902],["SM",-11.350818814394675],["offerte",-11.350987672942928],["sénégalaise",-11.351109709139632],["Lille",-11.351907734892574],["maîtrise",-11.3534047404931],["Dane",-11.353616174973293],["EI",-11.354139141904016],["ignon",-11.35447087666302],["eï",-11.355281096460914],["oublie",-11.355561476083196],["inon",-11.35589799198755],["ö",-11.357707735021188],["publie",-11.357935239127373],["ping",-11.358034439560821],["leaders",-11.358080849197854],["ransition",-11.358295053947273],["réalis",-11.358300058655672],["drôle",-11.359188575849402],["Natha",-11.359292031611535],["SA",-11.359371081931009],["Steve",-11.359443996963506],["taire",-11.359526890663279],["zer",-11.360064024665062],["regret",-11.36028997858885],["papa",-11.360794380692697],["5000",-11.361241402357292],["voler",-11.36136774802721],["placer",-11.362157327679824],["défensive",-11.362814978337713],["Hy",-11.363101984703054],["édé",-11.363624847021994],["07",-11.364215135500707],["planche",-11.364570804990889],["domine",-11.36485252933752],["analyser",-11.364992658897613],["apparten",-11.365245083231324],["Will",-11.365556569056693],["Wil",-11.365611945102463],["March",-11.366623677252761],["détour",-11.366924662226873],["atteign",-11.367614887365942],["vétérinaire",-11.367665765180869],["légendaire",-11.367665767632474],["cortège",-11.367665869133424],["ambulance",-11.367665946919812],["exigé",-11.36766633262398],["Gérald",-11.367666493122524],["remboursement",-11.367667572233117],["Ndiaye",-11.367670526752796],["royaume",-11.367672740827686],["canicule",-11.367673011614363],["imposant",-11.367683264386343],["meurtrier",-11.367690192413813],["féministe",-11.367704584408045],["exclusion",-11.367706606254412],["souffrir",-11.367708998721634],["Confédération",-11.367734656561638],["trailer",-11.367762132686373],["marchandise",-11.367775463386216],["langage",-11.367802698083967],["110",-11.367804283098842],["géopolitique",-11.367810444470845],["délibéré",-11.367823034453405],["plafond",-11.367823855350771],["douzaine",-11.367894859785979],["Orange",-11.36790431588189],["Commerce",-11.367967891237294],["renoncer",-11.367989788437406],["Kenya",-11.36805947290318],["exécuté",-11.368148808136718],["Météo",-11.36827501875829],["spécialité",-11.368387530922995],["supprimé",-11.36844078847242],["sobri",-11.368796155944205],["échéance",-11.36906594834879],["dévoilée",-11.369209526477771],["supermarché",-11.369521864076063],["bris",-11.369733914214471],["panique",-11.36986054678204],["olsonar",-11.370042747117601],["Ferra",-11.370318458098783],["idéale",-11.370338634435528],["mond",-11.371163400179105],["ouvain",-11.371310224214984],["Boy",-11.371466857276669],["gamin",-11.371568268681651],["bleue",-11.371860756810449],["aboutir",-11.372029066414257],["Africain",-11.372133552410773],["inédit",-11.372456616934652],["multiplié",-11.372520886922834],["Fa",-11.372959047544319],["connecté",-11.37355273548766],["ivité",-11.373554108601109],["Bin",-11.373792621976696],["essais",-11.374306933702988],["obtien",-11.374935402116563],["Poli",-11.375351754684594],["diminuer",-11.375502757853157],["iff",-11.37588490570225],["Kor",-11.376407322271145],["confiée",-11.378423350035762],["consacrée",-11.378501187033834],["Nor",-11.3785535455059],["blanchi",-11.378706551064997],["Fed",-11.378766272555707],["125",-11.37951131040802],["sache",-11.37963449663011],["CR",-11.380351130187703],["surprenant",-11.380399765332266],["islam",-11.380736613129972],["CO2",-11.38114090662815],["AT",-11.381612682368317],["Pal",-11.381722303985875],["saint",-11.382463010380757],["qualifie",-11.382891353794378],["gor",-11.383392263317155],["ustin",-11.383732653880555],["nazis",-11.383860436372485],["Souven",-11.384064929309204],["MP",-11.384889355645345],["tch",-11.385392151302451],["signée",-11.385567529341989],["inspire",-11.385957241763931],["()",-11.386013140267123],["utter",-11.386278306257543],["Khark",-11.386364791191589],["pharmacie",-11.387004218025869],["présentent",-11.387006524389344],["dignit",-11.38764128796245],["erez",-11.387768693357042],["réaliste",-11.390851796317259],["trompe",-11.391016172843294],["réside",-11.391945177975726],["mobiliser",-11.392360339236193],["Marco",-11.393354905355787],["rap",-11.39340262252892],["déploy",-11.393471162826176],["ourir",-11.393615260521344],["Telegra",-11.394002933762572],["uck",-11.394310680040892],["Barr",-11.394442262832227],["sonore",-11.3946236714508],["institut",-11.39502462882647],["acquér",-11.395078547565296],["cédé",-11.395120965881237],["pens",-11.3951293800082],["quarant",-11.39535542214022],["meuble",-11.395381171849479],["Montpelli",-11.395441064358797],["trajectoire",-11.395443542646351],["scénariste",-11.39544354264891],["intègre",-11.39544354365887],["trottinette",-11.39544354444312],["humoriste",-11.395443557392738],["permanence",-11.395443587984644],["câble",-11.395443810420797],["fleuve",-11.395443980808315],["Trembla",-11.395444059438974],["agresseur",-11.39544419804431],["Panther",-11.39544525705107],["distributeur",-11.395445586761344],["Crimée",-11.395445610481225],["Grégo",-11.395447028222769],["Israélien",-11.395449021372697],["Charlotte",-11.395457533102197],["pédagogique",-11.395460710893198],["avéré",-11.395473872189879],["Munich",-11.39547394397856],["préventive",-11.395474060242679],["galerie",-11.395495206122465],["indemnité",-11.395513759176184],["boulot",-11.39556649676377],["panier",-11.395805999040434],["mbledo",-11.396223369186238],["Berg",-11.396452855400259],["examiner",-11.396465111481607],["enlevé",-11.396561477780462],["terminal",-11.396824335327276],["inégalité",-11.396887913579699],["cheval",-11.397025945968393],["grille",-11.397401055190878],["Second",-11.397444315350853],["visuel",-11.397558168384066],["tabac",-11.397722921377417],["salue",-11.397726929871194],["réacteur",-11.397939898638956],["21h",-11.398621728349088],["pleur",-11.398658693829208],["transforme",-11.398666821665937],["aissant",-11.398992917258578],["définition",-11.399108229792166],["Hol",-11.399155651883026],["composer",-11.399838026452842],["privilégié",-11.400564572439642],["déclar",-11.400604658225822],["entouré",-11.400777099946799],["transmis",-11.40078660726689],["démarrer",-11.401002925060869],["vain",-11.401130649492643],["oko",-11.401487974112598],["08",-11.401649430887467],["HC",-11.402199209967756],["manette",-11.402494570460584],["remplacement",-11.402979572595527],["1500",-11.403288279393813],["gie",-11.403631642329225],["Trop",-11.404541006581987],["réservation",-11.404570818718458],["Hal",-11.404929582977951],["balade",-11.40559642214958],["déroulée",-11.405923342057005],["vivai",-11.406427151861303],["Aer",-11.40647347597608],["ran",-11.407799247015014],["agro",-11.408476265835832],["demie",-11.409162289645476],["Marchand",-11.409291148281358],["cesser",-11.409414963693028],["Even",-11.410966992095801],["Moyen",-11.411825339270495],["dévoiler",-11.41284180922944],["ash",-11.412882517449491],["rapproche",-11.413115681400994],["aisé",-11.414118198719692],["résidentiel",-11.414609458743074],["urnes",-11.41499775949207],["montage",-11.415167165284618],["BB",-11.41726845623095],["magn",-11.417270226554816],["autorisée",-11.417500909552816],["rêver",-11.417797535502894],["virtuel",-11.417966161472107],["militante",-11.418742072716494],["Bleu",-11.41880457086806],["dé",-11.419368219176928],["valide",-11.420431810465901],["Barc",-11.421234950362116],["vir",-11.421430284738994],["pique",-11.422018167690279],["raz",-11.422371377646142],["élan",-11.422517187156732],["viole",-11.422606899151289],["assim",-11.423612101227135],["plomb",-11.423766416054697],["coréen",-11.423953592154454],["´",-11.424014971216778],["contraste",-11.424014980067758],["pelouse",-11.424015043544205],["pixel",-11.424016017632399],["inématographique",-11.424016512772614],["remplaçant",-11.424016710172788],["renouvelé",-11.424017597283783],["altitude",-11.42401780853761],["Homme",-11.424018550517875],["gazoduc",-11.424023082984395],["inscriv",-11.424023149112301],["complexi",-11.424024125703022],["diminution",-11.424024803660119],["liaison",-11.424028101848025],["épicerie",-11.424035452965477],["accroît",-11.424058605012533],["posture",-11.42407134009835],["distinction",-11.424092907175549],["orchestre",-11.424100823371496],["accélération",-11.424106824061795],["protestation",-11.424119802159964],["randonnée",-11.424145155666082],["pavillon",-11.4241714847785],["Anglais",-11.424187183071586],["recruté",-11.424308492357568],["Travail",-11.424338259328756],["requête",-11.424364148991245],["ologie",-11.424597026236956],["Adrien",-11.42464861524858],["herbe",-11.42466155581853],["Arc",-11.424705122568858],["variété",-11.424782216310035],["gang",-11.424790440329208],["éthique",-11.424991595803387],["assiste",-11.425037445278472],["Brad",-11.425203955232796],["écouteur",-11.425337908667643],["turque",-11.425338263256391],["malienne",-11.425340942525848],["perturbé",-11.425429787801512],["cyclable",-11.425775448303668],["faiblesse",-11.42610604357344],["glisse",-11.426466136506384],["job",-11.426539076921184],["tracé",-11.426787819613],["incapable",-11.426875608467036],["Concr",-11.427078999240647],["hall",-11.4271673241171],["soumettr",-11.427208321012007],["réparer",-11.42755274632127],["comprenne",-11.427608877499893],["180",-11.427812945109853],["importé",-11.428527877199802],["eck",-11.428887474508123],["apparu",-11.429699256197171],["genevois",-11.429775709212791],["attribué",-11.429915370879977],["Benz",-11.42993015738394],["Aviv",-11.430058148578333],["iri",-11.43032945382203],["permanente",-11.430576231070017],["Unite",-11.431342077707674],["habi",-11.431473493927577],["demand",-11.432044286569816],["dalle",-11.432146059472064],["GT",-11.432305799408025],["Shaw",-11.432518030716063],["dépens",-11.432618592192819],["génie",-11.43272147510879],["\"\"",-11.432813831788135],["restant",-11.433440260228606],["Rein",-11.433468009091017],["IR",-11.43386843407653],["boule",-11.433948612310868],["insécurité",-11.434370046994546],["mortel",-11.434598111510327],["mani",-11.434656592695685],["?\"",-11.434748715503037],["Rousse",-11.436562059086162],["travaillai",-11.436620866209445],["socio",-11.436789962161567],["souhaitai",-11.437997121479214],["sacre",-11.438383540641377],["amène",-11.438598359125061],["Mars",-11.439377771912714],["Kir",-11.439635986284541],["accept",-11.439908096076133],["prononcée",-11.440344814428249],["Rose",-11.440616591022856],["espér",-11.44284145096143],["machines",-11.443613363579736],["perçu",-11.444412071432808],["era",-11.444563268699387],["rian",-11.445332331544526],["NF",-11.445360924263312],["cho",-11.44549480717461],["Wan",-11.445946592117712],["merci",-11.446466629818739],["traite",-11.44657238972074],["Kab",-11.447302725829546],["bur",-11.448007705660093],["portai",-11.44831480793489],["tend",-11.448371122727869],["onsieur",-11.448868690507666],["urgent",-11.449333043835022],["priori",-11.449518145458773],["festiv",-11.449577042183716],["landais",-11.449735095916694],["Ter",-11.451343161442795],["Cata",-11.45271020050229],["Rama",-11.452993751529661],["intérim",-11.453358144994747],["précieu",-11.453371434761689],["raisonnable",-11.453416716082213],["catastrophique",-11.453426735922678],["révéler",-11.45342673804571],["injection",-11.453426739906805],["manifesté",-11.453426747509795],["artifice",-11.453426751609468],["Église",-11.453426781461191],["homicide",-11.453426820768879],["lizzard",-11.45342715196791],["Global",-11.453427163444909],["America",-11.453427303417806],["protège",-11.453427417760384],["CEDEA",-11.453428244307284],["psychologue",-11.45342831963794],["diesel",-11.453430009465626],["créature",-11.453436100846297],["Burund",-11.453443302174755],["définitif",-11.453444934277979],["téléviseur",-11.453447181084154],["malaise",-11.453477852448804],["inévitable",-11.453493615780612],["renverser",-11.453497481571008],["pilier",-11.453523710014494],["façade",-11.453554016249635],["serveur",-11.45363151342354],["progressiste",-11.453635436935611],["promenade",-11.453677371304696],["Titan",-11.453788630361851],["virage",-11.453813413120212],["récompensé",-11.453834856310237],["slogan",-11.453861235537923],["arrivant",-11.453928533880752],["inculpé",-11.453948746700155],["chao",-11.453956653034155],["accéléré",-11.454031769350053],["charte",-11.454058238192351],["Hugh",-11.454096469818888],["rembourser",-11.45412677711727],["dérange",-11.454229261983514],["merveille",-11.454234872167689],["demeurer",-11.454478497024443],["Énergie",-11.454524817020191],["entrepreneuria",-11.454611070135655],["baie",-11.454615328006495],["boucle",-11.45477301723906],["Romain",-11.454847818999184],["Space",-11.455468752438378],["cherché",-11.455664660956305],["visibili",-11.45584006603257],["redonner",-11.455962436772158],["statue",-11.456130572023312],["inclus",-11.45643532285558],["REM",-11.456596051473856],["cence",-11.456624692507404],["tort",-11.456668885912748],["Baie",-11.456823753794723],["mortelle",-11.456926175504226],["sanctionné",-11.457110136446971],["Jin",-11.457280753853535],["avoué",-11.457809688858184],["Ama",-11.457900254014215],["yer",-11.458268440765588],["interdite",-11.45873686093889],["loup",-11.459485800477475],["nourrir",-11.459576599259123],["marchand",-11.45959059758433],["cave",-11.45974531167035],["modifié",-11.459779082639512],["sollicité",-11.45980912224823],["Jim",-11.459982838711365],["ralentir",-11.460004606604558],["signalement",-11.460339896687037],["renforcé",-11.460425783092596],["magique",-11.46044764565805],["concentré",-11.460473217172305],["riposte",-11.461184025415264],["renseigne",-11.461439351138164],["dji",-11.462127431211636],["chanter",-11.462373578734166],["rouler",-11.462712244877807],["sky",-11.462780074403563],["pres",-11.463057540026512],["pareil",-11.463270748671686],["apprécier",-11.46335736679912],["mange",-11.464440496078486],["cacher",-11.46545267106444],["140",-11.465506550346808],["empare",-11.465688370613243],["genou",-11.466071976552646],["Liz",-11.468067689708096],["occ",-11.468255805397513],["conseille",-11.468692525712092],["positions",-11.468752655117063],["Hid",-11.469534998574892],["Française",-11.469905981290221],["insoumis",-11.469936619490445],["établie",-11.470241819945894],["IP",-11.470693204437111],["érie",-11.470826716679202],["rentré",-11.470914161008844],["ock",-11.470944447634263],["igne",-11.471590566170443],["jus",-11.471615709250441],["bulle",-11.471689478185045],["auter",-11.473880868587498],["exemplaires",-11.474094786897034],["prouve",-11.474167366093564],["oxy",-11.474226668381712],["abouti",-11.475247865065276],["otti",-11.47546535905043],["intellectuel",-11.476687022189306],["ime",-11.476706443376898],["Lang",-11.476826791868257],["mét",-11.47698321788566],["descendu",-11.477234935045903],["philosophi",-11.477315878473766],["itte",-11.477598288458573],["sommeil",-11.478081478737375],["Ker",-11.478222159473335],["réserver",-11.478672158927253],["ntin",-11.47986114566099],["adresser",-11.480716478413417],["oalition",-11.480818002448302],["vendue",-11.48146501491701],["canal",-11.481622996553046],["andry",-11.48180586729671],["Mel",-11.482278074268716],["llement",-11.48234871612567],["offensif",-11.483203280429901],["heim",-11.483278225795592],["perquisition",-11.48334868141839],["Web",-11.483590884229432],["hebdomadaire",-11.48372976622781],["infirmier",-11.483729766238124],["réglementaire",-11.483729766528917],["agglomération",-11.483729766669423],["successeur",-11.483729767422712],["crédible",-11.483729786761401],["incidence",-11.483729816669264],["dépistage",-11.483729913575454],["mystère",-11.483729916638874],["peloton",-11.483729932751613],["asiatique",-11.483729962149777],["drastique",-11.483730018931244],["toxique",-11.483730053975343],["blindé",-11.48373074636414],["détresse",-11.483730820554523],["respiratoire",-11.483730931298181],["fichier",-11.483732304848559],["déjeuner",-11.483733036035268],["verdict",-11.483735007998042],["Virgini",-11.483735301736157],["adepte",-11.483738367969508],["Olympique",-11.483746541115067],["Gérard",-11.483746565171828],["traduir",-11.483752280371124],["pénétr",-11.483759452997433],["bibliothèque",-11.483766584623206],["Thibau",-11.48377134405956],["implantation",-11.483773655301349],["pôle",-11.483779215251907],["fauteuil",-11.483791257327178],["contestation",-11.48381127258483],["consultant",-11.483885162208216],["tunisienne",-11.483916289613006],["coopérative",-11.48395950415031],["wallon",-11.483976206481918],["princesse",-11.48411922373979],["Présent",-11.484130339573532],["Darman",-11.484257205697537],["embarque",-11.484328909098279],["lâché",-11.484342350217847],["Autrich",-11.484413004526333],["Vienne",-11.484603201952304],["puni",-11.484624268924637],["incarné",-11.484754333658024],["17h",-11.484878954760996],["relate",-11.484931603480863],["contacter",-11.485171705780813],["index",-11.485289976602994],["taxi",-11.485374404758971],["golf",-11.4860833119784],["exploitant",-11.486088445694236],["footballeur",-11.486124444861442],["abordé",-11.486155534941105],["furent",-11.486333470839295],["ick",-11.486362434758794],["inquiet",-11.486630006227127],["Matt",-11.486904692755704],["étend",-11.488662409150248],["glissement",-11.48873002452063],["Basti",-11.488838217732194],["isé",-11.48914168859339],["tweeté",-11.489494104697513],["riez",-11.489543429070427],["Antoni",-11.489735005472662],["renvoyé",-11.489960906389445],["fixée",-11.49002893822966],["pente",-11.490074514994248],["suisses",-11.490236509339178],["fréquent",-11.490275796586298],["tendu",-11.491014362023943],["prudent",-11.491047989766646],["intelligent",-11.491180942912148],["Chant",-11.491239364268651],["intégrée",-11.491271822004787],["Point",-11.491306730706171],["intitulé",-11.491314574260862],["existant",-11.491334507101023],["évalué",-11.49138424510081],["programmé",-11.491531558600792],["ètement",-11.491745769757296],["étonnant",-11.491844279236583],["neuv",-11.491870188847123],["autoriser",-11.491991337840263],["soupçonné",-11.492051158556308],["divise",-11.492090710872228],["éré",-11.492887023258687],["Bonne",-11.492966225392149],["UA",-11.493427524315528],["Nicole",-11.493498171899613],["enseignante",-11.493677878499899],["Ny",-11.494580719310598],["Anni",-11.49459842614244],["affirmer",-11.495096190122956],["contenter",-11.495415203927287],["inspirée",-11.495925921014049],["réhabilit",-11.495995024117711],["tisme",-11.496043662449642],["fixer",-11.49604867186737],["thérapie",-11.497507205645462],["Retour",-11.497846323788586],["logo",-11.498422255637099],["remontée",-11.498627809040595],["éline",-11.498687024429163],["dépass",-11.498736032815234],["guise",-11.498774982027465],["parcelle",-11.49895608439401],["amendement",-11.498988942037007],["appliquée",-11.499620214704526],["condamnée",-11.499707876131106],["engou",-11.500938212312203],["Mori",-11.50095248653567],["mensuel",-11.501425413070518],["lassan",-11.501782312784508],["mettra",-11.502058397849616],["arrache",-11.502702385235125],["risme",-11.503562804904984],["menacée",-11.504104873289194],["inscrite",-11.504364748340427],["remplie",-11.504992043612697],["vif",-11.50509553581216],["Wei",-11.505396616684633],["placement",-11.505735249038775],["Gold",-11.505941600687866],["fournit",-11.506123052533916],["visée",-11.506368414826238],["truc",-11.506785171766403],["vaccinée",-11.506937162425077],["Brig",-11.507155911703189],["Bru",-11.507435989394544],["Noir",-11.507546881840963],["charme",-11.507547155097539],["bes",-11.50814619263016],["Auto",-11.508621916336645],["foire",-11.509124986454957],["HL",-11.510066293034118],["Tan",-11.510341256638288],["compose",-11.510458635848575],["vins",-11.510984260999024],["enregistre",-11.511439836257493],["connect",-11.511980632477485],["SN",-11.511999825664724],["écriv",-11.512078981447205],["Miss",-11.512196470013855],["Pont",-11.512335109376423],["Evi",-11.512757191626386],["indiquer",-11.512963563241163],["mystérieu",-11.513026111618407],["cendre",-11.51350621244033],["Jeff",-11.51381808136459],["FR",-11.513955494795024],["conservati",-11.513988836730713],["commiss",-11.514407883538226],["conte",-11.514542977190917],["Roche",-11.5147286679949],["tunisien",-11.514791028787071],["failli",-11.514791077662885],["UN",-11.514852376236004],["crypto",-11.514894651350925],["tro",-11.514923285379805],["pâte",-11.514978097364867],["compositeur",-11.514979766252745],["régulation",-11.514979766517596],["explosé",-11.514979766582767],["pacifique",-11.514979767725901],["décisif",-11.514979768690518],["réglementation",-11.51497976887684],["démonstration",-11.51497977914762],["Secrétaire",-11.514979781183188],["idéologique",-11.514979813800728],["YouTube",-11.51497981652449],["arkozy",-11.514979835142327],["échantillon",-11.514979861004985],["mercenaire",-11.514980341184543],["domination",-11.51498037586995],["discrète",-11.514980456762514],["réglé",-11.514980594340916],["fantôme",-11.514982335545234],["Libye",-11.514983591828159],["inclusif",-11.514986761630052],["échoué",-11.514991301302306],["sinistre",-11.514993907021182],["échelon",-11.514995071559627],["Hassan",-11.514999092030854],["vérification",-11.515015828209508],["coincé",-11.515023146698203],["entame",-11.515025984906284],["Programme",-11.515068104836274],["Somme",-11.51513790487831],["interrogation",-11.515143138587096],["consulté",-11.51517047183216],["confortable",-11.51520325698756],["plonger",-11.515227229360864],["aylor",-11.515279847567136],["valable",-11.51530661142996],["pouss",-11.5153884042952],["Kne",-11.515427230235105],["allocation",-11.515480555509795],["Niger",-11.515514971569944],["metteur",-11.515583243689015],["saoudi",-11.515655921730982],["consta",-11.515716680118096],["renfort",-11.515728170552693],["Feder",-11.515759615765521],["évité",-11.515820674261477],["contracté",-11.51583273951634],["Award",-11.515844069571441],["potable",-11.515844708508864],["analysé",-11.515970018532185],["sacrifice",-11.515989585633799],["fillette",-11.516029379931481],["Dragon",-11.516080150278334],["discuté",-11.516111634749933],["négative",-11.516135347758757],["transmettr",-11.51622860165149],["treiz",-11.516356220637787],["détri",-11.516362979428903],["portion",-11.51709737786197],["procurer",-11.517179752966868],["ascension",-11.517292528800066],["emp",-11.51744408186516],["Cyril",-11.517488504989268],["Robin",-11.51752618237428],["chimique",-11.517551358400063],["Gala",-11.517571962884372],["serré",-11.517577232588565],["race",-11.517784403791776],["grossesse",-11.517938351500646],["prétext",-11.51799381698861],["Contre",-11.518084775131303],["honte",-11.518223413346256],["Sel",-11.518585871734246],["république",-11.51889851114569],["relâche",-11.51950536313977],["enregistrer",-11.519817763338166],["envol",-11.519992803821223],["wal",-11.520439161430932],["Wout",-11.520504097423615],["rassembler",-11.521191023338272],["Dis",-11.521534081308392],["animer",-11.52185430616301],["gant",-11.522199435056441],["envahi",-11.522797666562685],["recense",-11.52299698929599],["polonais",-11.523218588397755],["contemporain",-11.523546351289959],["Pacifi",-11.523979145510559],["contente",-11.524082062998156],["deuil",-11.524113205985763],["Rouman",-11.524753298060551],["Bennet",-11.525192909473937],["pneu",-11.525502303325792],["Cité",-11.525566781163011],["not",-11.525599241996701],["entamer",-11.525880671210796],["classée",-11.52620071523021],["annonçai",-11.528944833750312],["gains",-11.529246066362088],["rassemble",-11.529285632409449],["soudaine",-11.529397032294607],["Eco",-11.52949901688356],["Noire",-11.52989292267129],["cor",-11.530987892396102],["Mons",-11.531108186378438],["gala",-11.531459168320374],["jihadiste",-11.532420677161385],["01",-11.53260912935271],["20h",-11.53287040008738],["Mille",-11.533140578710517],["gras",-11.533310259558762],["Gor",-11.53396974051426],["connaissai",-11.53462008472338],["manquement",-11.534761411066015],["couver",-11.537828949068249],["boire",-11.53817359532334],["confrontée",-11.538356397106245],["gissant",-11.538372582255322],["témoigner",-11.538869550034958],["FF",-11.53955481929307],["formelle",-11.539569636801787],["ouvrant",-11.539653929324412],["Petite",-11.539935907852138],["survivant",-11.540023866927829],["Louise",-11.540082078534834],["Canal",-11.5401807942284],["soupçon",-11.541205797550514],["Parisien",-11.542153251933808],["achète",-11.542335783889168],["bascule",-11.542421839692928],["définir",-11.542751903056075],["Aliou",-11.543199568112446],["fondamenta",-11.54372171969037],["11h",-11.544176492359114],["guéri",-11.544253582027387],["recycl",-11.545276701274481],["grec",-11.545351752919771],["Toulous",-11.546381802343639],["consent",-11.546410282791925],["vaincu",-11.54664455318034],["BC",-11.546830679494681],["ravi",-11.546836192565873],["ä",-11.546983996880254],["SG",-11.547082748015788],["funérai",-11.547127430449368],["Bruxellois",-11.54723783078304],["propagation",-11.547237830823768],["envergure",-11.547237830847099],["récupéré",-11.547237831088458],["Studio",-11.547237881724634],["Émirat",-11.547237946223355],["rafraîchissement",-11.547238129581515],["affaibli",-11.547239464929639],["approbation",-11.54724039100475],["Modern",-11.547246055156164],["accroché",-11.547249304406156],["indemnisation",-11.5472532057499],["séduit",-11.547262627574913],["icône",-11.547268139910427],["octroi",-11.547273703551722],["neutre",-11.547279651674533],["économiser",-11.54729636420178],["radar",-11.547298173562753],["miracle",-11.547314880944274],["audiovisuel",-11.547370240223739],["parvienne",-11.547370301420926],["urbanis",-11.547381853860465],["bijou",-11.547445356362886],["bitcoin",-11.547456758940035],["SPV",-11.547511717598244],["reportage",-11.547579635213573],["secrète",-11.54758291803607],["Développe",-11.547620950645236],["palestinienne",-11.547649720260907],["Stream",-11.547692687518369],["Franck",-11.547713100426758],["méchant",-11.54774291930638],["démarré",-11.547774339664258],["éleveur",-11.547787037116983],["leadership",-11.548113332968233],["décroché",-11.54814016459965],["iro",-11.548150565449527],["débours",-11.548254614371332],["Mayo",-11.548384907868076],["corriger",-11.548570929427846],["raid",-11.548681474700402],["détenteur",-11.548725001710233],["effondrement",-11.548762538725878],["Rue",-11.548943698487388],["gorge",-11.549109058522184],["initié",-11.549127800061617],["transporter",-11.549247563131557],["apparaisse",-11.549255075652788],["thé",-11.549447134202438],["Hier",-11.549620993321332],["ïv",-11.549628359729452],["Raymond",-11.549673805419717],["tirage",-11.550058773757726],["limitation",-11.550098752218524],["paire",-11.550182252302184],["Tor",-11.550321111430426],["hur",-11.55053774426103],["humili",-11.550615276495197],["App",-11.550868864105391],["autrice",-11.551148760128836],["syrien",-11.551224575589508],["aimai",-11.55142681993576],["Rése",-11.551555777762612],["pha",-11.551633188200041],["devise",-11.551676366093842],["Ron",-11.552076585492825],["parvenue",-11.552474795814412],["médian",-11.552625299348303],["Rub",-11.553111219717],["label",-11.553747751834303],["ST",-11.553804401393954],["ignan",-11.554253653493543],["Kam",-11.554715426133166],["infini",-11.554837276125657],["Tandi",-11.55579076969262],["Dal",-11.556021224331502],["Total",-11.556218156392408],["tube",-11.556284727474543],["réputé",-11.556490132678945],["Fair",-11.55654337762342],["endommagé",-11.556831715271443],["tilité",-11.556880714412998],["15h",-11.55701262554405],["pleure",-11.557085745594314],["inquiétant",-11.557121622815629],["chalet",-11.557300753709113],["croissant",-11.557447429918248],["sécurisé",-11.557778960059114],["cro",-11.557844340630043],["existai",-11.558692297741239],["Amado",-11.558820067270748],["LG",-11.558823274190136],["suffisante",-11.55910793890964],["160",-11.559279365042524],["dira",-11.559716811488562],["rayonne",-11.56047231249158],["Mine",-11.561024397150803],["futurs",-11.561221298547764],["Gon",-11.561366662782877],["Call",-11.562011252738582],["Pape",-11.562147240537046],["verron",-11.562647727702986],["renchéri",-11.563333511794223],["Carl",-11.56378425753347],["croisé",-11.564750633900026],["lits",-11.565317861017167],["ménager",-11.565334368542828],["guider",-11.565507578988978],["Bros",-11.565550235375738],["animale",-11.565945428698255],["otamment",-11.565958937363904],["incarner",-11.566221404764468],["Roussel",-11.56642477028372],["prédi",-11.566560643529582],["assist",-11.567396645704022],["coli",-11.56764693698969],["émie",-11.567686485412526],["neuve",-11.567893625972534],["Kent",-11.568729977250038],["émerge",-11.569222302944846],["favorise",
[...]
