{"version":"1.0","truncation":null,"padding":null,"added_tokens":[{"id":0,"special":true,"content":"<UNK>","single_word":false,"lstrip":false,"rstrip":false,"normalized":false},{"id":1,"special":true,"content":"<SEP>","single_word":false,"lstrip":false,"rstrip":false,"normalized":false},{"id":2,"special":true,"content":"<MASK>","single_word":false,"lstrip":false,"rstrip":false,"normalized":false},{"id":3,"special":true,"content":"<CLS>","single_word":false,"lstrip":false,"rstrip":false,"normalized":false}],"normalizer":null,"pre_tokenizer":{"type":"Whitespace"},"post_processor":null,"decoder":null,"model":{"type":"Unigram","unk_id":0,"vocab":[["<UNK>",0.0],["<SEP>",0.0],["<MASK>",0.0],["<CLS>",0.0],["en",-3.1875364743151753],["s",-3.3079611069408283],["t",-3.3115069796223366],["de",-3.4241224372488617],["e",-3.489627523844657],[".",-3.540263562885583],["d",-4.128850869490234],["in",-4.133658840529394],[",",-4.1948772107443215],["n",-4.281317257026684],["k",-4.333599670356941],["van",-4.361296438000972],["er",-4.3990707470609856],["een",-4.477599829324502],["ge",-4.499663867401546],["het",-4.504978871810033],["op",-4.617049737419444],["is",-4.650403300524031],["te",-4.673189497585684],["r",-4.765057713030755],["i",-4.80892953333089],["p",-4.92343204873664],["dat",-4.964329950673335],["ver",-4.983356897121393],["o",-5.013880200995525],["f",-5.0647749817788075],["a",-5.073748500749257],["voor",-5.083265207273948],["g",-5.136722999200455],["u",-5.149274571519278],["l",-5.193839497314695],["al",-5.205347688820519],["om",-5.205717073221358],["be",-5.229677479488581],["aan",-5.239983809407262],["je",-5.254653644801209],["met",-5.352032145954743],["m",-5.361462237421916],["die",-5.402181941049001],["zijn",-5.4078404677077465],["ing",-5.408253653216214],["niet",-5.41786888436188],["b",-5.455610086628356],["De",-5.484708453735463],["ze",-5.499141847143477],["-",-5.552709215080725],["c",-5.584588903476053],["el",-5.5932706380143085],["uit",-5.663041594805831],["on",-5.674218686819726],["z",-5.7125436472936855],["le",-5.726431224443571],["v",-5.774467222218263],["ie",-5.779289389935128],["bij",-5.792371968533947],["an",-5.796596014530925],["S",-5.814909452559704],["ook",-5.857107110632905],["over",-5.876899316745348],["ik",-5.900256454544127],["zo",-5.9319650865318625],["als",-5.940956559544645],["we",-5.962838342743428],["or",-5.965925337784503],["A",-5.972483134838402],["sch",-5.979026629839881],["maar",-5.984337657683852],["lo",-6.003607848796676],["y",-6.004300778225804],["w",-6.063274001095223],["ra",-6.070910486834377],["h",-6.071984050797738],["ar",-6.0772884781447765],["T",-6.079212332649188],["B",-6.091244298573459],["na",-6.105099039710911],["ig",-6.110355478237578],["’",-6.1121325496404],["dan",-6.130213617539903],["Het",-6.151445253665804],["nog",-6.155239167377083],["ken",-6.156950557600339],["V",-6.162621134213003],["ch",-6.175963783222102],["of",-6.175999160602334],["wel",-6.208999138128327],["G",-6.209450664888315],["door",-6.210701692286815],["waar",-6.225955949938971],["la",-6.233822834353184],["1",-6.247826954652973],["ro",-6.257961724164659],["M",-6.25989138615482],["naar",-6.280941006670462],["der",-6.282243213266181],["K",-6.288095080244068],["af",-6.288307281694117],["D",-6.309657218508091],["ur",-6.320721564115653],["me",-6.321027021549833],["ri",-6.335333927559033],["C",-6.336667913015061],["ers",-6.337594479489503],["gen",-6.338232397202415],[":",-6.339627987974403],["N",-6.34840189800634],["kan",-6.351435448339258],["O",-6.360424121034846],["2",-6.364557580758616],["heeft",-6.369811801270075],["'",-6.4020622121357995],["was",-6.430599271003571],["meer",-6.431221658131246],["ma",-6.4610890631084885],["W",-6.4667981586305565],["E",-6.469891155299637],["ho",-6.475034955330674],["?",-6.491393145276962],["(",-6.500342216415108],[")",-6.502853991666852],["uur",-6.50630601871309],["\"",-6.508081302685591],["P",-6.508546685857475],["jaar",-6.515801386211654],["hij",-6.525466175411665],["onder",-6.533482986178607],["moet",-6.535415325096089],["ter",-6.551961867856599],["“",-6.558441806570745],["hebben",-6.563198929539535],["us",-6.5807224092637355],["tie",-6.618806744191838],["In",-6.633950773575592],["bo",-6.6473601490619725],["worden",-6.647845998010778],["daar",-6.651106730370534],["ij",-6.654956125698121],["werk",-6.658601394378149],["heid",-6.665767825613898],["li",-6.675389888858978],["F",-6.67684576182096],["zich",-6.677647282437096],["land",-6.686936396526482],["ol",-6.68978018824458],["wat",-6.695505604854665],["alle",-6.697684949490819],["word",-6.698351856879329],["‘",-6.7361876059750685],["veel",-6.74820649101547],["ren",-6.7610855757073125],["tot",-6.762265941025248],["nu",-6.765432508155563],["at",-6.780745810647138],["it",-6.787956444664033],["Dat",-6.788805481491064],["dit",-6.788896255441397],["zelf",-6.8015029470030015],["Ik",-6.814704669987412],["ag",-6.8227140868744875],["toe",-6.825787304795895],["I",-6.826535143325367],["R",-6.832215926956275],["mo",-6.836736835423567],["il",-6.837646083501827],["per",-6.8382263290482115],["3",-6.843750746364172],["lijk",-6.846474976300167],["ru",-6.863380845710381],["he",-6.864288630020818],["rij",-6.869775868796728],["goed",-6.878037243267604],["atie",-6.887864998207581],["wij",-6.890109857073973],["werd",-6.908783107347155],["4",-6.923364119445997],["ingen",-6.924754523844728],["ste",-6.926244223885618],["H",-6.929565862476981],["j",-6.9375432717392105],["kunnen",-6.946272143627368],["di",-6.947883054216296],["tegen",-6.9558833504973325],["komen",-6.958524462008462],["En",-6.961927193721696],["gaan",-6.96485719595883],["acht",-6.967517437047867],["L",-6.968438946937818],["zou",-6.969225275086632],["5",-6.969241195360061],["vol",-6.969630498202958],["ul",-6.970416388569156],["am",-6.973824879900395],["lie",-6.9928192654771815],["ba",-7.000282235584082],["aal",-7.0069269502710245],["as",-7.009085091567683],["lang",-7.01220747235888],["weer",-7.016123068476494],["ic",-7.02128398690964],["mensen",-7.024687537463469],["Maar",-7.027121051355325],["mee",-7.035999931659905],["gaat",-7.042750611316711],["had",-7.045590099223175],["hun",-7.046785550549276],["ker",-7.049343573034585],["twee",-7.0603782912581945],["elijk",-7.061740816471832],["man",-7.062774901085707],["tijd",-7.076215489306884],["va",-7.078261354471493],["ven",-7.079157088794151],["dus",-7.085111704935207],["6",-7.104056420300599],["weg",-7.111673076047642],["len",-7.1139443860623714],["dag",-7.128546455222529],["pa",-7.137154215025121],["ont",-7.138574227435098],["hoe",-7.150596819649619],["wil",-7.1563999107999035],["0",-7.1614487116601095],["recht",-7.1668212038362045],["con",-7.1773942840079155],["ha",-7.179209377686353],["echt",-7.1797331379949805],["deze",-7.181827175749781],["po",-7.1826496315420805],["zien",-7.1944067535909655],["vi",-7.196377648078813],["volgen",-7.213628242453265],["7",-7.216005008569055],["We",-7.22148016639186],["pro",-7.228499147565777],["uw",-7.2295008087691475],["haar",-7.233288798897506],["doen",-7.2453078750256665],["ou",-7.259026221829712],["Een",-7.260497648968029],["ander",-7.269397837206206],["Z",-7.269461877420247],["eerd",-7.270073483447538],[".”",-7.271611309498059],["x",-7.277777300878749],["heb",-7.278819880044653],["20",-7.284813589108164],["leg",-7.287297605093806],["ijn",-7.287472681590223],["even",-7.287846564813681],["ce",-7.299959362127485],["sta",-7.313607299103937],["co",-7.319523335942224],["tra",-7.328882039835411],["gra",-7.335494413032082],["kom",-7.336596330133395],["andere",-7.338050222657966],["staat",-7.339683738166001],["ui",-7.341451698857423],["ve",-7.341803248082047],["geen",-7.3517311698397485],["ige",-7.35637989235754],["iets",-7.377676084628734],["oor",-7.386455112247494],["ster",-7.388149697209594],["ga",-7.392215364796819],["pen",-7.394872134848015],["maal",-7.394882821039915],["huis",-7.396187448211198],["Ze",-7.411074496125062],["leid",-7.414303790848527],["mijn",-7.424443013410357],["Daar",-7.428264707082661],["keer",-7.42858058523092],["maken",-7.431702785306464],["vind",-7.4365995791336665],["krijg",-7.4384283855517515],["res",-7.438813962814182],["8",-7.441668929828928],["toch",-7.447036486848577],["ische",-7.455648302361936],["deel",-7.457608212132281],["da",-7.4595440038374985],["men",-7.464079170250131],["nieuwe",-7.466798276102667],["ger",-7.470476273159073],["auto",-7.471577825094595],["lig",-7.4808935761152595],["”",-7.488089697028603],["Nederland",-7.489323372445971],["Er",-7.489721488638697],["aar",-7.498188448942484],["um",-7.508154277027869],["rie",-7.50897600415046],["ment",-7.509710144563427],["9",-7.51517703756127],["hier",-7.515600981025452],["grote",-7.518335168763071],["plaats",-7.518974559545475],["won",-7.522755921580033],["zal",-7.5243422396605135],["U",-7.530550123788382],["heel",-7.533574168675404],["Van",-7.53558457675361],["Als",-7.541692347246856],["ex",-7.5420219255564405],["lopen",-7.542424804116491],["Op",-7.542998173340651],["kun",-7.544153081734144],["est",-7.545465243103494],["ca",-7.559852174555837],["ci",-7.5622573017903205],["ging",-7.567558789240448],["zorg",-7.583395269509805],["net",-7.583643600402737],["Zo",-7.584330363241077],["wa",-7.587041739357324],["é",-7.589577146712895],["zie",-7.594851209261323],["app",-7.594909080865724],["politie",-7.595829093004256],["mi",-7.5965415959536875],["ut",-7.598693923402039],["best",-7.603863866933484],["staan",-7.604587698642776],["hem",-7.614842051556192],["zegt",-7.61654033974147],["nieuw",-7.622725703975873],["eerste",-7.623918030699486],["Ook",-7.633038700813093],["her",-7.6419125385270785],["hele",-7.643527698829919],["Je",-7.646723752568148],["dig",-7.6499991903886295],["leven",-7.65475300564705],["Hij",-7.655581928397455],["houden",-7.661186249952221],["gebruik",-7.6630544440273045],["baar",-7.665484172849517],["tussen",-7.667936355375919],["ko",-7.671799245607409],["port",-7.678680184756831],["afge",-7.679912240352004],["00",-7.680301636650776],["val",-7.684082635599229],["Ma",-7.685870053858089],["geven",-7.691073667397763],["ië",-7.691421412586815],["rek",-7.695397981989174],["iteit",-7.698777961878708],["pre",-7.703286552801367],["snel",-7.706457472332993],["terug",-7.713580170396503],["achter",-7.715899877670442],["stand",-7.719257344971482],["par",-7.724850613986578],["Die",-7.7253508080941256],["eigen",-7.7305603352933225],["kon",-7.735088065756999],["mis",-7.736056068917085],["ons",-7.737619204917532],["denk",-7.7400623047790145],["bi",-7.743593050380709],["week",-7.747289906733667],["ber",-7.755097158285114],["Na",-7.755303637862206],["geld",-7.766063076310747],["vel",-7.7732919656663],["ooit",-7.77608891777307],["procent",-7.776633328975101],["”,",-7.778052094476366],["voer",-7.779486556582518],["maakt",-7.7837398968125955],["act",-7.784353970363583],["ja",-7.78585725574618],["leden",-7.788232538420648],["ck",-7.788801404909644],["laten",-7.788900536737022],["alleen",-7.792121259000089],["Ja",-7.792282171461824],["zij",-7.793530089662991],["richt",-7.795015801581951],["ka",-7.796839537983371],["!",-7.798928580767566],["groot",-7.800509891065638],["mogelijk",-7.800846543183542],["houd",-7.802237133281027],["gelijk",-7.802480192180601],["hand",-7.802576010384776],["bouw",-7.809849544272702],["Voor",-7.816883616057534],["vrij",-7.8183570387919685],["euro",-7.820402370684426],["vo",-7.821969340959847],["slag",-7.823399495484803],["wereld",-7.8237541520586165],["Ha",-7.832962960448562],["zoek",-7.833809468803297],["spel",-7.836453407955369],["stel",-7.839068534401001],["pas",-7.8395954853379],["schap",-7.845430516718207],["vrouw",-7.851625650545257],["zonder",-7.852927904026577],["dra",-7.853292750187627],["licht",-7.855498446212403],["Be",-7.855896516517088],["minder",-7.8604342668490075],["actie",-7.865876555373764],["kijk",-7.8665238804533875],["kwam",-7.868938277048583],["dacht",-7.869824830369781],["rond",-7.87592062026363],["202",-7.879944851599672],["binnen",-7.882056201283543],["altijd",-7.883683177114832],["hi",-7.884598805567477],["gel",-7.889163974940776],["elijke",-7.890912763629955],["pan",-7.893076081462322],["J",-7.893482244388916],["hoog",-7.897367356780334],["middel",-7.897945559692428],["samen",-7.903004720673548],["Al",-7.9030745355341505],["eel",-7.905430180818322],["ben",-7.908188350892924],["Dit",-7.911329133328119],["gewoon",-7.913060088753756],["He",-7.913178199528976],["waren",-7.915643272465593],["Ro",-7.9205221413860984],["onderzoek",-7.924328541500385],["Bo",-7.93676383285633],["weten",-7.938243483966477],["ok",-7.942382912325318],["Mar",-7.943575663398752],["mij",-7.944124812454191],["Ver",-7.954190941469594],["ation",-7.965736949173596],["bu",-7.97105050156759],["ling",-7.982616511939422],["zit",-7.983861151200301],["Wat",-7.984090794047524],["drie",-7.984330315606586],["steed",-7.985545182795102],["Le",-7.986955832793333],["jaren",-7.989362574395239],["Pa",-7.994970897525835],["zeker",-7.99716344851302],["19",-7.997704986733108],["eerder",-7.9977514859528585],["laat",-8.001343329398102],["oot",-8.00172682107246],["beter",-8.002433114313245],["druk",-8.00368826408743],["Mo",-8.003986942747613],["maand",-8.00508201741913],["aat",-8.007076681791823],["vraag",-8.007742213588905],["willen",-8.00947491414136],["oud",-8.009733206688475],["Jo",-8.012964618496618],["ruim",-8.014865747164443],["punt",-8.017326757900076],["Oekraïne",-8.021976374174223],["ullen",-8.022460146947445],["haal",-8.024393932752577],["com",-8.025118360626095],["bied",-8.026847777928836],["onze",-8.03602430732775],["mmer",-8.0443936931974],["plan",-8.0451195667106],["vallen",-8.048094342390977],["toen",-8.050869724433046],["vier",-8.054666553752703],["Met",-8.056900540831872],["tijden",-8.060391328533285],["nemen",-8.062708150093128],["ron",-8.063576066906219],["partij",-8.064275926322324],["tien",-8.065306780961162],["amp",-8.068772140227004],["jong",-8.069720091372172],["bel",-8.071963694364367],["doel",-8.077424634545157],["nodig",-8.078388163366348],["rec",-8.081084212615092],["stad",-8.086609250411623],["reden",-8.098763741895382],["kort",-8.099216947621457],["bekend",-8.099839387836624],["want",-8.105106864928787],["eind",-8.114876684006504],["ë",-8.115411729338021],["laatste",-8.119181859082708],["moment",-8.121833408376329],["Bij",-8.123115406979105],["kinder",-8.130116515100905],["raak",-8.131746110650088],["één",-8.138635241682415],["oog",-8.139433966420125],["stem",-8.147581661607347],["ion",-8.148462740637475],["komst",-8.150830691596862],["Ch",-8.151114129913555],["wie",-8.154020264852562],["lever",-8.154965556051149],["Rusland",-8.155994130978428],["000",-8.15689485420803],["mag",-8.159772643305239],["red",-8.160637210778638],["meld",-8.160971575101879],["hoor",-8.162719417718101],["vast",-8.162916289354381],["roep",-8.164244755882692],["blijven",-8.166396290099954],["voel",-8.174752355617471],["iemand",-8.176056224240074],["Volgen",-8.17702548584938],["kel",-8.178530548706616],["zak",-8.179653835158144],["Russisch",-8.180368355116924],["spec",-8.182400685250233],["avond",-8.182566532545486],["begin",-8.18294451846154],["Dan",-8.18356698968612],["gemeente",-8.185105745327323],["bedrijf",-8.185990899597801],["buiten",-8.190531773167645],["10",-8.191879116403918],["bro",-8.20182405392438],["/",-8.204202179160163],["energie",-8.206542572868852],["handel",-8.212145934652165],["miljoen",-8.215756329088666],["voorbeeld",-8.21833274209439],["La",-8.219234726577994],["lucht",-8.22042970698191],["go",-8.221028659689148],["regel",-8.221449608005294],["lan",-8.22242996739394],["jarige",-8.226338108308841],["aard",-8.234149137280117],["aantal",-8.241938998378275],["gemaakt",-8.242207670096025],["meest",-8.249342424196428],["verder",-8.254243080539055],["gebeur",-8.260587000849117],["oorlog",-8.261392728057565],["brand",-8.264685918729231],["noem",-8.264920091175078],["moed",-8.277847639825028],["wan",-8.283069898317859],["ill",-8.283777279640343],["klein",-8.28716602983394],["vond",-8.288315208881361],["hard",-8.289174453909949],["zitten",-8.290297226693282],["sluit",-8.290978148987755],["kost",-8.293048769404527],["Hoe",-8.293222766353196],["minister",-8.298088036226892],["belangrijk",-8.30313791446335],["corona",-8.304441425989744],["verwacht",-8.30583528408766],["tjes",-8.31339918637958],["tuig",-8.32125564829667],["iedere",-8.322330177681733],["burg",-8.323525695364772],["weet",-8.327220851546702],["vorig",-8.328679244943867],["elkaar",-8.333536290354301],["paar",-8.338028532914379],["veilig",-8.339328786259141],["markt",-8.339349243269517],["zeggen",-8.342143947705289],["speel",-8.344458137825375],["groep",-8.345124584803237],["zetten",-8.354918330912266],["mon",-8.356918563857729],["vijf",-8.357997973943696],["merk",-8.358544258605704],["last",-8.363055294456782],["dienst",-8.369463147620344],["hoofd",-8.373165478927163],["neer",-8.37598493027214],["out",-8.383097260209263],["boven",-8.383837169358443],["bank",-8.38476297755935],["Li",-8.387971436513578],["air",-8.396543558656719],["nam",-8.402204985260408],["blijft",-8.41026995217107],["lui",-8.410604087727155],["mooi",-8.41138424222307],["via",-8.412730005732195],["duidelijk",-8.420051889313358],["–",-8.427202114243673],["leef",-8.429461812446945],["slecht",-8.430915299032868],["zaak",-8.431512386370905],["Om",-8.437948867152969],["Europe",-8.450446146591604],["naast",-8.451012611305636],["prijs",-8.451753215170612],["beeld",-8.456846301798244],["50",-8.457111387299811],["stellen",-8.457141127953935],["vaak",-8.457924336953273],["soort",-8.464937775641694],["gang",-8.465669184424991],["ouder",-8.471240895930503],["uni",-8.472464879541842],["Ho",-8.47452712934394],["norm",-8.475699080078687],["Zij",-8.476235965426676],["woning",-8.478245138747297],["halen",-8.478260793433474],["Sta",-8.489577196711746],["moest",-8.492185445692423],["stuk",-8.49448643451095],["stond",-8.497284692662486],["grond",-8.505424283730711],["qu",-8.508546772197088],["breng",-8.510589194448208],["lag",-8.517181196269913],["natuurlijk",-8.51728626065961],["eerst",-8.52178551952172],["wedstrijd",-8.526785584915272],["rijden",-8.529882423512774],["rust",-8.535709214726225],["mogen",-8.536744293869795],["30",-8.540599740865343],["geef",-8.547635025481116],["sinds",-8.550984126385607],["direct",-8.552804725513013],["vriend",-8.572228868308677],["juist",-8.572262170716868],["isschie",-8.574959665080236],["raad",-8.577489570181942],["nemer",-8.578376913558607],["plek",-8.582671866986399],["club",-8.587235404830533],["genomen",-8.590422280265322],["wacht",-8.59712367083311],["verschillen",-8.59739476788998],["bare",-8.604388185093228],["aak",-8.605188831535532],["laag",-8.606000535370114],["stof",-8.609683983936876],["gezet",-8.62100241879192],["start",-8.621896931481999],["kracht",-8.622410867666456],["naam",-8.626547074036946],["positie",-8.626759378598589],["genoeg",-8.63557966578714],["Waar",-8.637228041564509],["vorm",-8.63965703681836],["manier",-8.648954441180935],["stelling",-8.654435396701452],["enkele",-8.656845811646019],["heden",-8.656853542210582],["Amerikaans",-8.662484422805612],["extra",-8.666679753032415],["imp",-8.668045208564356],["ooi",-8.671239012078601],["product",-8.673402196669134],["bedrijven",-8.68634162931842],["woord",-8.686506055670097],["scherm",-8.689884457888384],["weinig",-8.696530071214077],["steun",-8.699729514763462],["…",-8.70322703886814],["boek",-8.705905832761015],["gedaan",-8.707108806691156],["ï",-8.708919652133943],["%",-8.708919652153323],["straat",-8.71167527809402],["woon",-8.717623142871332],["voetbal",-8.732020098741675],["seizoen",-8.733975695135921],["sprak",-8.736058778394648],["kree",-8.736545624508032],["trokken",-8.73985710818157],["beetje",-8.74007885954067],["groei",-8.741830306668609],["organisatie",-8.743773125167353],["eigenlijk",-8.744726048369508],["foto",-8.751800514849377],["gesteld",-8.75261079252704],["media",-8.756405436250573],["vroeg",-8.761732195617343],["vragen",-8.763782484323695],["amelijk",-8.770392193467249],["Y",-8.775807881286003],["problem",-8.77784720082587],["Europa",-8.777847251099816],["dood",-8.786103753897539],["bond",-8.790371794164432],["neem",-8.79294873035831],["basis",-8.79896779572641],["Q",-8.8026136004809],["prijzen",-8.804715508528286],["schuld",-8.80691193835588],["rem",-8.810323792580578],["film",-8.819755619780025],["probleem",-8.823733719607791],["vandaag",-8.828079922131916],["blij",-8.828314645626723],["klaar",-8.836079800190427],["zame",-8.837400084860214],["regering",-8.847692485748873],["daad",-8.847957164409028],["trekken",-8.863424699928078],["ontwikkel",-8.865133948669971],["Niet",-8.86518019450581],["zondag",-8.865418304720755],["miljard",-8.87407254234975],["leuk",-8.874406950581221],["persoon",-8.880841277592852],["president",-8.88535938734339],["zaterdag",-8.885359845954607],["stijg",-8.892154096348252],["betaal",-8.893558051531876],["school",-8.899230110319472],["dicht",-8.900411228035907],["hang",-8.900452046226139],["warm",-8.902434174508882],["ploeg",-8.90374299392684],["woensdag",-8.90600239666588],["Poetin",-8.910677444785964],["vlieg",-8.915745603854827],["strijd",-8.917920044135318],["kabinet",-8.924717538888185],["hulp",-8.92583338715787],["„",-8.934206230678258],["rekening",-8.935506130511364],["situatie",-8.939040570513221],["betalen",-8.951396076557025],["familie",-8.958333498951145],["Amsterdam",-8.960777837469525],["draai",-8.961278244253446],["slachtoffer",-8.968148867184095],["lijst",-8.96844901405981],["Uni",-8.971237418183522],[";",-8.97309324972605],["begon",-8.974144445120293],["gedrag",-8.978950911251813],["reed",-8.987369907539758],["kwart",-9.00332916789829],["X",-9.010976547484843],["dinsdag",-9.013621387977185],["winkel",-9.013656638009886],["Apple",-9.018732283788278],["zaam",-9.029313424752502],["halve",-9.030032785147265],["moeilijk",-9.03970144402157],["honderd",-9.042908894659734],["volledig",-9.047697148321234],["Frans",-9.055746780458943],["nood",-9.05586264663965],["donderdag",-9.05588687841254],["Oekraïens",-9.061118947787229],["gesprek",-9.06657923465594],["uiteindelijk",-9.06928412985067],["feest",-9.07907548884463],["ongeveer",-9.080248542016049],["makkelijk",-9.080249832642025],["cijfer",-9.083022647356668],["Rutte",-9.08309732100378],["finale",-9.0887263304608],["programma",-9.091341042664167],["middag",-9.102634710763285],["dreig",-9.10828569997159],["bezig",-9.108589284084484],["€",-9.111059944864797],["periode",-9.111080209743742],["publiek",-9.131175580214945],["duizend",-9.13117596331983],["ó",-9.145795684855328],["bepaald",-9.14620114751051],["helpen",-9.15183394112756],["systeem",-9.154671652532393],["beschik",-9.158030132643997],["Antwerp",-9.16063275073732],["klimaat",-9.160633333649216],["centrum",-9.16364985417766],["regio",-9.166865359734011],["precie",-9.167474023039016],["gevaar",-9.170703634069243],["controle",-9.172708868714098],["Duitse",-9.177691255259202],["oost",-9.178494381874511],["kilometer",-9.181781925559191],["ochtend",-9.194074044414373],["Oost",-9.19491585571001],["&",-9.197166456502174],["maatregelen",-9.197166908132214],["huizen",-9.200275180305379],["crisis",-9.200326691704404],["antwoord",-9.200435349085588],["Kamer",-9.203621150664596],["belasting",-9.212898041283404],["personeel",-9.21594730381997],["huidig",-9.222306298444984],["flink",-9.222374169584615],["Duitsland",-9.23508868330855],["vaccin",-9.244796844544027],["sector",-9.244798821278312],["vakantie",-9.244817492948535],["Russen",-9.244821659436708],["militair",-9.248051880187099],["dollar",-9.251326416075184],["inflatie",-9.251328914957568],["sociale",-9.254599620430128],["succes",-9.25788815888059],["waarschijnlijk",-9.267821816603867],["voorzitter",-9.267868888605197],["elukkig",-9.27785742881668],["verkiezing",-9.281222577564185],["oplossing",-9.287994288534154],["ziekenhuis",-9.294813832525772],["project",-9.312055862377196],["ü",-9.326057351766543],["tegenwoordig",-9.32959547011344],["muziek",-9.34385350578285],["medewerker",-9.347494975563258],["niveau",-9.354681916439823],["Groningen",-9.354692512617051],["gezegd",-9.355072150431944],["kampioen",-9.358318285057061],["minuten",-9.35836084184183],["afhankelijk",-9.365630837058532],["aanwezig",-9.369309698485095],["Verenigd",-9.37332665456023],["offici",-9.387975242389079],["bleek",-9.391772718535254],["effect",-9.395428410811068],["helft",-9.399256817422849],["bereid",-9.403051552298807],["gesprok",-9.407877067844723],["risico",-9.418405618291054],["sommige",-9.418451460470274],["functie",-9.422249678098341],["informatie",-9.43396886545921],["België",-9.441858455833092],["januari",-9.44582654691995],["woordvoerder",-9.449812545675975],["zwart",-9.453886446582356],["contract",-9.46997485020325],["provincie",-9.498899967081687],["Brussel",-9.503101852765448],["bureau",-9.507321355025926],["betref",-9.511562660605797],["vertrouwen",-9.515813861592118],["studenten",-9.524379184646769],["Vlaams",-9.528691306398613],["Rotterdam",-9.541733058097279],["bevolking",-9.541737305284942],["breid",-9.54613891082785],["schrijft",-9.55500144174286],["Belgisch",-9.563872657631876],["september",-9.572846557457282],["elektrisch",-9.5819170945392],["è",-9.600308186590901],["Amerika",-9.60953535328687],["á",-9.633329993653438],["economisch",-9.642997371280856],["platform",-9.647823017925255],["telefoon",-9.647823143239663],["burgemeester",-9.652701736447119],["League",-9.662530201257773],["maatschappij",-9.66747958610043],["advoca",-9.667480388645135],["collega",-9.67245562210851],["politic",-9.677456142338189],["maxima",-9.687540850222106],["temperatu",-9.692614801077315],["journalist",-9.702836728932574],["advies",-9.702838579620472],["geschiedenis",-9.723616667954115],["november",-9.734170816579493],["toernooi",-9.750214402234514],["financië",-9.766518579079035],["lichaam",-9.766519091498424],["iPhone",-9.817091197117193],["akkoord",-9.82868576049366],["+",-9.85827318093876],["â",-9.882590413685673],["Suriname",-9.882592337152905],["beslissing",-9.90122459314225],["asielzoekers",-9.939567658981009],["ö",-9.952682553055642],["organiseer",-10.028060742995223],["technologie",-10.140961589355015],["carrière",-10.181617370925201],["q",-10.39944732716861],["$",-10.490262121574585],["™",-10.52474791778853],["í",-10.548417385575645],["taatssecretaris",-10.649130027702782],["*",-10.662463361036096],["à",-10.746427368526641],["ç",-10.822219754550044],["»",-10.838092770423057],["˜",-10.993573783030058],["ê",-11.051280319926388],["ä",-11.461687432516259],["ú",-11.523240462819288],["É",-11.588831860668751],["—",-11.696065942040764],["«",-11.905126953493081],[">",-11.952746001112128],["ñ",-11.952746001112128],["•",-12.055377580059499],["ø",-12.055377580059499],["´",-12.447274980045211],["×",-12.832628515402368],["‚",-12.832628515402368],["Ö",-12.957628515411471],["̶",-13.100485658308573],["ã",-13.100485658308575],["ğ",-13.100485658308575],["å",-13.267152324975232],["û",-13.267152324975239],["Ü",-13.26715232497524],["ò",-13.267152324975243],["ô",-13.267152324975243],["ş",-13.267152324975243],["£",-13.267152324975243],["¬",-13.267152324975243],["−",-13.267152324975243],["ì",-13.467152324935283],["▶",-13.467152324975242],["̈",-13.467152324975242],["ž",-13.71715232497524],["`",-13.717152324975242],["ć",-13.717152324975242],["¨",-13.717152324975242],["°",-13.717152324975242],["<",-13.717152324975242],["Ç",-14.050485658268617],["~",-14.050485658308574],["³",-14.050485658308574],["²",-14.050485658308574],["ł",-14.55048565830857],["ù",-14.55048565830857],["æ",-14.55048565830857],["¤",-14.550485658308574],["ń",-14.550485658308574],["ý",-14.550485658308574],["Ў",-14.550485658308574],["′",-14.550485658308574],["·",-14.550485658308574],["š",-14.550485658308574],["ĳ",-14.550485658308574],["‡",-14.550485658308574],["‹",-14.550485658308574],["®",-14.550485658308574],["î",-15.549285658308573],["ђ",-15.549385658308575],["ð",-15.549485658308575],["★",-15.549585658308574],["¦",-15.549685658308574],["Ÿ",-15.549785658308574],["Å",-15.549885658308574],["́",-15.549985658308573],["‰",-15.550085658308573],["Р",-15.550185658308575],["ю",-15.550285658308574],["☆",-15.550385658308574],["Ġ",-15.550485658268627],["₂",-15.550485658308574],["静",-15.550485658308574],["ō",-15.550485658308574],["Á",-15.550485658308574],["†",-15.550485658308574],["º",-15.550485658308574],["℃",-15.550485658308574],["Ø",-15.550485658308574],["├",-15.550485658308574],["±",-15.550485658308574],["È",-15.550485658308574],["≈",-15.550485658308574],["⌘",-15.550485658308574],["ο",-15.550485658308574],["ς",-15.550485658308574],["期",-15.550485658308574],["č",-15.550485658308574],["",-15.550485658308574],["ν",-15.550485658308574],["Ž",-15.550485658308574],["Ó",-15.550485658308574],["⇧",-15.550485658308574],["ě",-15.550485658308574],["ß",-15.550485658308574],["ķ",-15.550485658308574],["默",-15.550485658308574],["υ",-15.550485658308574],["﻿",-15.550485658308574]]}}