{"version":"1.0","truncation":null,"padding":null,"added_tokens":[{"id":0,"special":true,"content":"<UNK>","single_word":false,"lstrip":false,"rstrip":false,"normalized":false},{"id":1,"special":true,"content":"<SEP>","single_word":false,"lstrip":false,"rstrip":false,"normalized":false},{"id":2,"special":true,"content":"<MASK>","single_word":false,"lstrip":false,"rstrip":false,"normalized":false},{"id":3,"special":true,"content":"<CLS>","single_word":false,"lstrip":false,"rstrip":false,"normalized":false}],"normalizer":null,"pre_tokenizer":{"type":"Whitespace"},"post_processor":null,"decoder":null,"model":{"type":"Unigram","unk_id":0,"vocab":[["<UNK>",0.0],["<SEP>",0.0],["<MASK>",0.0],["<CLS>",0.0],["s",-2.690787637050338],["de",-2.9965635131477804],[",",-3.2917732180097623],[".",-3.531447223053048],["la",-3.5423380304866807],["a",-3.5931410149614553],["que",-3.7872393501916424],["en",-3.8697157152040056],["el",-3.8789590368298335],["y",-3.93910314517899],["e",-3.982122197995606],["es",-4.166793435934894],["o",-4.57191979035815],["los",-4.585043813069383],["ó",-4.693056769929576],["del",-4.784403062788785],["un",-4.793641739714806],["n",-4.814276329237748],["ción",-4.848051730736044],["con",-4.918517603675218],["por",-5.031260110149985],["para",-5.074319785720137],["una",-5.1617085017624635],["las",-5.245835840752951],["su",-5.25723730638625],["no",-5.266755847175601],["al",-5.4058310567656065],["lo",-5.526351859477611],["El",-5.598306325866238],["más",-5.66905901090494],["l",-5.690755261220252],["“",-5.700888955551019],["La",-5.78795028012388],["ha",-5.82492667387446],["\"",-5.885572592038642],["mente",-5.894652144906091],["como",-5.907219643689487],["on",-6.088307794371644],["este",-6.1219885604826985],["ón",-6.127485098464762],["En",-6.1504321321864825],["(",-6.290061970168219],["A",-6.294204143636435],["mos",-6.320961302602102],[":",-6.329286955366646],["esta",-6.410515393285349],["fue",-6.4552740168552845],["ciones",-6.488718644297773],["d",-6.517669216143153],["sus",-6.560659103346168],["”,",-6.597309071388485],["pero",-6.609611607298531],["-",-6.609701332991939],["ndo",-6.626160443358122],["tiene",-6.669948319058065],["si",-6.675702296147888],["años",-6.68040668879614],["también",-6.736028245775941],["S",-6.738319523444149],["está",-6.743555833832829],["r",-6.750769308938679],["dos",-6.778133243729666],["i",-6.795552133237553],["sobre",-6.817670010111936],["día",-6.820474472024307],["han",-6.8265243127886635],["entre",-6.837384980798197],["do",-6.880331876002844],["”.",-6.908373214225293],["Los",-6.9133946071241095],["«",-6.917092414318869],["ser",-6.9273566201299825],[")",-6.931982210340729],["»",-6.93769402094849],["”",-6.940806894042629],["todo",-6.963684636994746],["puede",-6.977755379296797],["%",-6.992175556907591],["parte",-6.99710346917865],["desde",-7.005661567175034],["m",-7.007090150836431],["son",-7.011429093481562],["muy",-7.013252823772869],["país",-7.034350255043655],["año",-7.070869923671446],["z",-7.085834161913369],["hasta",-7.086519775193701],["Por",-7.105739506978616],["ando",-7.107414299815251],["me",-7.119368805090141],["T",-7.128258684004235],["No",-7.131603592059507],["sin",-7.1389688880358575],["20",-7.139360079163908],["personas",-7.1748120720222515],["donde",-7.176207073765157],["1",-7.186412688131822],["hay",-7.1883268164770415],["cuando",-7.188521939533379],["te",-7.2051343541876625],["dij",-7.21405313325569],["t",-7.223596845335123],["caso",-7.241246664388413],["De",-7.243806216732341],["Es",-7.270737769677463],["toda",-7.274565408721783],["contra",-7.278343197085535],["ante",-7.281750702966331],["hora",-7.292038414984803],["u",-7.293167214572902],["quien",-7.294593183667392],["ron",-7.294772187367275],["C",-7.295018330077727],["Y",-7.300318680133596],["egún",-7.327320047677465],["é",-7.331997224565779],["2",-7.375899673628514],["momento",-7.378496513434127],["19",-7.382859327657367],["durant",-7.3833218874662645],["forma",-7.390153535847623],["¿",-7.390399082514098],["tiempo",-7.396201170026486],["Se",-7.396592436936579],["L",-7.406002650839572],["había",-7.416224088360663],["ía",-7.42533353222681],["va",-7.428164640235716],["millones",-7.44009870169772],["?",-7.444641582077221],["todos",-7.449289284575363],["idad",-7.449984181755237],["R",-7.458726267540745],["mi",-7.461804418945815],["solo",-7.467769829177886],["\",",-7.473187362738695],["hacer",-7.475806734089413],["mejor",-7.478401339051679],["3",-7.489361824213252],["'",-7.49404285355899],["porque",-7.5069229584251715],["están",-7.508761822669898],["cuenta",-7.519242458836456],["equipo",-7.519311807720117],["E",-7.519536038765857],["lugar",-7.522093543411988],["uno",-7.523631840668515],["vez",-7.524323469731506],["nuevo",-7.5272549580651305],["Estado",-7.529166975173203],["5",-7.533643713046356],["sido",-7.535167538921237],["emos",-7.535672871520523],["hace",-7.540035196842486],["P",-7.549582233097878],["mismo",-7.5524172630299695],["ver",-7.55425370426557],["ni",-7.554388683759557],["partido",-7.555464482355897],["vida",-7.564760813806349],["era",-7.56558716214175],["semana",-7.567225039070284],["primera",-7.56739403251198],["án",-7.579753524247977],["cada",-7.580203212032371],["á",-7.583475870306858],["ión",-7.58461841099116],["4",-7.585454208471169],["mayor",-7.592885040073367],[";",-7.594796139660797],["presidente",-7.598985122437561],["otros",-7.612893041751191],["tres",-7.614274788070343],["\".",-7.614721033984317],["gran",-7.6233203674404635],["ras",-7.62581589156966],["así",-7.6269580326120305],["después",-7.6335389423346385],["iendo",-7.635543145010756],["último",-7.637345595397139],["tras",-7.6415103225003405],["és",-7.64179829910999],["F",-7.642217891431631],["nueva",-7.650586569047975],["embre",-7.65068211247171],["pasado",-7.652039786390534],["tanto",-7.675545163047991],["social",-7.687688049295041],["bien",-7.700522848649814],["ciudad",-7.702496751539488],["medio",-7.706864430085723],["eron",-7.710290856929279],["Ademá",-7.711867330097074],["esto",-7.714925664466866],["hecho",-7.723028751221071],["nos",-7.732354204974814],["Si",-7.734119807706029],["trabajo",-7.734222068160638],["otro",-7.73618852323996],["6",-7.740066943557855],["Esta",-7.748260776607684],["p",-7.750848683127122],["Con",-7.754080542348676],["Pero",-7.758612548802245],["menos",-7.768342304805333],["2022",-7.770137657868519],["será",-7.777654849259709],["punto",-7.782468191177261],["Al",-7.784044648457245],["final",-7.784742413432941],["mil",-7.78976845450949],["tener",-7.791429110261712],["mucho",-7.799482274471019],["empresa",-7.808656588244167],["uego",-7.8158375763646575],["Las",-7.818177787133841],["000",-7.819209710367646],["importante",-7.819475134832688],["h",-7.821176165418957],["primer",-7.822511503408151],[").",-7.823107947006456],["Este",-7.836949857740141],["8",-7.838129111601359],["ahora",-7.840681504076757],["manera",-7.841847550516151],["10",-7.846304173855398],["c",-7.846747228433877],["acuerdo",-7.848498026039578],["),",-7.84865884838492],["mundo",-7.857088736444466],["Para",-7.8657364335403],["estado",-7.870031307898325],["estaba",-7.87137119349361],["qué",-7.87208942028957],["familia",-7.883264314459191],["‘",-7.884888823124206],["antes",-7.891866642575432],["zona",-7.892785477429423],["gobierno",-7.896622292742381],["Gobierno",-7.899893352864737],["estos",-7.901380894943358],["les",-7.9071937515872985],["embargo",-7.9082440209710505],["situa",-7.911118030292256],["Un",-7.920143540240461],["proyecto",-7.921034668380944],["tuvo",-7.923689528427678],["servicio",-7.926102649235274],["N",-7.9295931757707905],["nuestro",-7.931145786786664],["estar",-7.933754850168594],["empre",-7.936547806549496],["Sin",-7.937025962832262],["hoy",-7.939375234669473],["7",-7.941848268027229],["9",-7.945791287272981],["ten",-7.9467603645376474],["30",-7.949056650071942],["nivel",-7.961895653373075],["algo",-7.969697154344771],["casa",-7.971302809361589],["ico",-7.973022489645781],["grupo",-7.979528867552773],["Lo",-7.987872763318468],["mient",-7.9916509340703366],["poco",-7.994888652873125],["trav",-7.999495947300708],["debe",-7.999824271088293],["política",-8.006497399351293],["Nacional",-8.006873637421059],["cual",-8.009854318364862],["M",-8.021033725680677],["poder",-8.030045845228354],["podría",-8.043661916270196],["tipo",-8.046678501279448],["U",-8.056135959066072],["hombre",-8.056194873672077],["Esto",-8.05962051744212],["otra",-8.066886485970986],["tu",-8.06762437364544],["Una",-8.07047444626892],["total",-8.073875536946506],["ambién",-8.075088029480273],["’",-8.077212806276496],["problema",-8.078809771818701],["sector",-8.083810589963507],["autoridad",-8.08391901069738],["alguno",-8.09284192031485],["San",-8.094210243920362],["medida",-8.097908524122428],["informa",-8.098995524027842],["Méx",-8.110852309453382],["tan",-8.11231511694983],["Su",-8.117157755070107],["mucha",-8.118534426086917],["haber",-8.122003969733514],["nuestra",-8.128771046221754],["fuero",-8.131327930046414],["re",-8.132016229045028],["cambio",-8.133990674138111],["actividad",-8.13910217468668],["meses",-8.139315687444617],["18",-8.141238847081114],["proceso",-8.141741520154874],["programa",-8.146012976693596],["última",-8.153354988138958],["España",-8.158481807822923],["principal",-8.166058170086696],["in",-8.168352336951473],["dar",-8.172060736443903],["O",-8.172337876259133],["endo",-8.173310434551919],["co",-8.174177239584804],["G",-8.174190752548117],["15",-8.174557560803741],["él",-8.179909318796685],["12",-8.18076599422401],["seguridad",-8.18529344756056],["B",-8.188138131166507],["historia",-8.189237144584187],["2021",-8.189536820682521],["/",-8.194668997888414],["centro",-8.19631499460494],["local",-8.196955310182942],["junto",-8.197313612158077],["bajo",-8.204802290740474],["cosa",-8.205076319991544],["cuatro",-8.209308068892009],["otras",-8.213383831185055],["alguna",-8.21498890691715],["miento",-8.216497165650317],["cómo",-8.216974911204776],["hiz",-8.220424395993044],["fin",-8.225777762456417],["aron",-8.227829697176366],["Unidos",-8.229179970577583],["v",-8.233311836248967],["trata",-8.236227829576608],["nada",-8.237007088024601],["general",-8.241571010193022],["salud",-8.242180665674645],["tenía",-8.242983094647515],["resultado",-8.244533107525303],["dato",-8.245717382721342],["agua",-8.247793447234034],["Ucrania",-8.248581436540132],["gente",-8.249414643038685],["vía",-8.258080991613808],["posible",-8.260401215435197],["frente",-8.269829961538925],["próximo",-8.271228103774064],["señal",-8.271730483082685],["derecho",-8.284581861101248],["número",-8.294399893811507],["casi",-8.29456071220418],["inform",-8.295979657263942],["D",-8.296164279602584],["persona",-8.29661675720623],["encuentra",-8.29687155579622],["dólar",-8.298116222781871],["euros",-8.298671231052348],["ntro",-8.299154368024768],["nacional",-8.300828500106718],["misma",-8.306990898964798],["sí",-8.308707729592346],["sistema",-8.310658564539684],["grande",-8.311269284097559],["tema",-8.311911514097346],["niño",-8.313614090129148],["oficial",-8.313755077013429],["objetivo",-8.315597980835374],["cualquier",-8.319889041903732],["segundo",-8.32065143950416],["sigue",-8.32473519458587],["especial",-8.328309994033145],["personal",-8.329513592299614],["unos",-8.330736159272647],["ello",-8.332876483613225],["llegar",-8.335660448416755],["muchos",-8.336063061184042],["I",-8.338207257054767],["actual",-8.339578820025054],["decir",-8.341367650078269],["noche",-8.343515712085958],["redes",-8.347762858254356],["11",-8.348386557343332],["minuto",-8.354865066190454],["obra",-8.355972035611536],["primero",-8.35626479235682],["quiere",-8.364784379374147],["ones",-8.367800102529928],["Así",-8.370706361232568],["investiga",-8.371736069159113],["sino",-8.375113193667765],["lunes",-8.377628625544428],["0",-8.378048074723429],["ex",-8.379589393850154],["usia",-8.383982495786707],["er",-8.385351076754876],["hijo",-8.38628049560975],["mes",-8.387028543761312],["viern",-8.387273375437552],["sión",-8.390172763110197],["ba",-8.392180906922096],["vehículo",-8.395595950525076],["decisi",-8.396446356924486],["valor",-8.397617411048067],["jugador",-8.397929886281249],["mujer",-8.399779942388985],["mercado",-8.40242070243527],["cinco",-8.403818867012316],["público",-8.406749984923021],["dio",-8.409277843011138],["14",-8.420841808211033],["pueda",-8.422136918890011],["ir",-8.422951240356225],["24",-8.423286729279624],["ciento",-8.423307788875821],["sentido",-8.426447546578286],["ca",-8.427991665939164],["mujeres",-8.428810648768927],["onces",-8.430433650960154],["…",-8.43089425417849],["mañana",-8.433148483019547],["lado",-8.433817679404624],["tendrá",-8.437577671671505],["sábado",-8.438830342452547],["cerca",-8.439656744549282],["producto",-8.442795812102919],["juego",-8.444521127937161],["vario",-8.446402753282388],["ju",-8.448770303710411],["paso",-8.450645256584927],["haci",-8.451270427722383],["aún",-8.45550131090786],["ve",-8.457000526247569],["víctima",-8.457535865338748],["veces",-8.459048671277394],["17",-8.460746443820424],["ley",-8.471296527877765],["cargo",-8.473336279974696],["domingo",-8.47364627660544],["seguir",-8.47973172177128],["espera",-8.481571379230864],["realizar",-8.481643690768113],["Argentina",-8.482537292561112],["pandemia",-8.484027626335703],["fuera",-8.486968275538606],["13",-8.488283491126975],["16",-8.489881991034615],["$",-8.490011037932167],["edad",-8.49182209324745],["ieron",-8.49282375057724],["eves",-8.49823911655588],["temporada",-8.500551798908855],["puesto",-8.507106660014859],["buena",-8.50986693092041],["encuentro",-8.512474302249863],["dice",-8.51417282963074],["fecha",-8.515508911185872],["respect",-8.515838700860792],["comunidad",-8.515885879012579],["V",-8.519109506938445],["í",-8.520740418709071],["amos",-8.52294645748535],["00",-8.526153949256674],["ent",-8.533662199783253],["podrá",-8.53416303586068],["oportunidad",-8.534523831858984],["ismo",-8.538402312906477],["marte",-8.53996662801955],["tarde",-8.540245667199418],["ín",-8.544454182809215],["iércol",-8.545538313323986],["uso",-8.547565726756115],["25",-8.547653095278442],["Des",-8.548674905214051],["carrera",-8.55046770705906],["segunda",-8.556702399733524],["real",-8.557865900754832],["diferentes",-8.56458569273143],["partir",-8.570790378236783],["cuerpo",-8.576087630474973],["alto",-8.576100732076537],["internacional",-8.57635164228604],["dici",-8.581416147286482],["pública",-8.582325699846557],["conocer",-8.585929359963753],["ministro",-8.590269305782819],["Cu",-8.590646873565085],["inclus",-8.590713149878622],["Todo",-8.60422848988425],["200",-8.604384542512538],["H",-8.606038133376488],["50",-8.606591137067767],["prueba",-8.611392196462425],["sabe",-8.613485262205728],["fuerza",-8.615881390559547],["falta",-8.619768946908918],["serie",-8.620638850680985],["marca",-8.620809526272001],["Me",-8.621422602933123],["simismo",-8.621707128840178],["cia",-8.626036956695323],["varia",-8.627414047823112],["joven",-8.62988444023075],["pueblo",-8.631640494961069],["largo",-8.633407306416185],["produc",-8.634228054739461],["padre",-8.63557224466497],["enero",-8.635712958973322],["precio",-8.638466440973982],["Ministerio",-8.64043161510809],["Juan",-8.64115238555057],["línea",-8.642914996118535],["dado",-8.64466253194241],["muerte",-8.645558522169864],["apoyo",-8.646734598075751],["población",-8.650810406662863],["aten",-8.650986485701333],["Como",-8.651629691811673],["municipio",-8.652574073574815],["fuerte",-8.652583272709236],["asegur",-8.656243245912165],["f",-8.657346950886602],["guerra",-8.657892545043268],["nunc",-8.665313485180874],["evento",-8.667214895686076],["indic",-8.668010526359879],["ejemplo",-8.668588635467408],["debido",-8.668836705980324],["mayoría",-8.670409186467431],["Jos",-8.673760748576209],["jornada",-8.673985959738197],["Hay",-8.677196714769146],["pues",-8.679519072873106],["espacio",-8.683560444406424],["nombre",-8.684817708632092],["posición",-8.687976617933263],["van",-8.688410006714863],["causa",-8.689705830564284],["recurso",-8.69557485202651],["igual",-8.695799667728354],["ayuda",-8.702776040626192],["rela",-8.704908546881079],["mensaje",-8.705022094458483],["provincia",-8.706402775884307],["seis",-8.707635799420753],["tal",-8.715712410062077],["control",-8.716765490758323],["líder",-8.7220089816276],["calle",-8.722653440791984],["junio",-8.723977028922558],["pesos",-8.72583649595149],["unidad",-8.727485254147108],["unque",-8.728992007198567],["propuesta",-8.72961574920014],["viene",-8.73255227270819],["profesional",-8.73314355923459],["policía",-8.73342723949208],["muestra",-8.741465201773138],["expres",-8.742866800596795],["propio",-8.743120962583706],["dinero",-8.744984908212707],["llevar",-8.747017651459679],["Madrid",-8.748896155084338],["trabajador",-8.75040883368218],["octubr",-8.750801086634624],["club",-8.750801148851751],["2020",-8.75255056868257],["40",-8.7581586438229],["regi",-8.759295770787038],["estará",-8.759304836271806],["novi",-8.760812670560725],["participa",-8.763133981576313],["precios",-8.764237790044874],["ataque",-8.766392886506459],["director",-8.768340392467481],["plan",-8.768633775177989],["sería",-8.769595287207176],["desarrollo",-8.772347912439919],["22",-8.774250454776281],["21",-8.774301982218091],["Mundial",-8.780447525908157],["compañía",-8.782455546406375],["futuro",-8.782512610161977],["epti",-8.782750841095549],["Policía",-8.786483947470787],["riesgo",-8.788161483802622],["realidad",-8.789236731935716],["alta",-8.790152580683845],["–",-8.790528241388383],["experiencia",-8.790528241481525],["mano",-8.793803412092885],["hemo",-8.793960463459777],["ruso",-8.795966450080314],["pas",-8.79780165662376],["busca",-8.799151109812334],["baja",-8.800144078549792],["estas",-8.800356812386557],["capital",-8.800889328295408],["tenido",-8.805385727148641],["dicho",-8.805808098943448],["tenga",-8.806374700437448],["poner",-8.80823607534101],["evitar",-8.810217572323968],["za",-8.810363305978402],["necesario",-8.812776904675061],["arzo",-8.8131982573205],["aumento",-8.815623724398296],["ar",-8.815754598859954],["ólo",-8.815763729724223],["100",-8.81606158808534],["accione",-8.819754036911169],["cabo",-8.820009883331593],["fiscal",-8.823893676168176],["di",-8.825700791016068],["Fue",-8.828487565378943],["Luis",-8.828526328944353],["idea",-8.831143604542998],["dejar",-8.831480587489363],["gún",-8.833795454649106],["posibilidad",-8.833799724557704],["comunicado",-8.834426967093233],["presenta",-8.835110767096714],["ación",-8.836621017732334],["genera",-8.837593145364142],["b",-8.83834546016623],["gosto",-8.839667266718642],["agreg",-8.83994179085958],["Entre",-8.842247410171094],["g",-8.842965841075387],["respuesta",-8.844699459482804],["Tras",-8.845380094398912],["gan",-8.845829013884334],["k",-8.84890664493481],["juli",-8.848971905027453],["necesidad",-8.851089733829237],["familiar",-8.8528915092874],["encontrar",-8.85299217182359],["campaña",-8.855406121305755],["prensa",-8.857581198029239],["explicó",-8.85994371784212],["inicio",-8.863958764144702],["económica",-8.864052495206032],["parece",-8.865274937280049],["Europ",-8.866070789992461],["grave",-8.867067307903781],["difícil",-8.870655353827178],["mo",-8.871357563029303],["video",-8.872877020045305],["2023",-8.87355192961725],["estadounidense",-8.875055799278119],["elección",-8.87545191805097],["nosotros",-8.875886217954104],["calidad",-8.8792243647131],["vecino",-8.881693810904595],["amigo",-8.8830062934954],["pez",-8.883056168241698],["miembro",-8.883915953549554],["municipal",-8.885558400370694],["ta",-8.886739583501178],["trabajar",-8.886995542403232],["lleva",-8.887932595367005],["claro",-8.888164653940034],["energía",-8.888384844794352],["Carlo",-8.890649216668914],["condicione",-8.891839123022736],["ra",-8.892492477413018],["dad",-8.896152307446204],["tomar",-8.897014932069052],["resto",-8.897086146268954],["palabra",-8.899616978630483],["base",-8.900365407507602],["ambo",-8.900910035933068],["sociedad",-8.901890042162584],["pareja",-8.904010879326968],["entidad",-8.905054598375855],["Día",-8.908129471503354],["mayo",-8.908460390578163],["ti",-8.908716124622762],["madre",-8.91124059275209],["cifra",-8.912891817752826],["anterior",-8.913620484860484],["abril",-8.913983319992088],["capacidad",-8.917908072301087],["gracia",-8.921110779769291],["violencia",-8.9224699807619],["rse",-8.922790392206036],["Salud",-8.924874454718907],["pued",-8.925488522365232],["camino",-8.92612116699434],["mal",-8.927086878812784],["mar",-8.929345814401504],["pasar",-8.930561583575889],["presente",-8.932403430798612],["venta",-8.936022196504954],["pesar",-8.9366858902005],["vivienda",-8.939020323983307],["febrero",-8.943501852916274],["Centro",-8.945875585919882],["afirm",-8.946779447455699],["conjunto",-8.947111757868717],["haya",-8.94789234543954],["delito",-8.956947630540938],["comenz",-8.958436185368026],["Durant",-8.958477614384444],["esos",-8.95899979238062],["único",-8.960677103960863],["reciente",-8.962274278057397],["anunci",-8.962614219754197],["gas",-8.963986885276086],["to",-8.964545824009662],["red",-8.96855922242269],["permite",-8.968721712698276],["área",-8.968964280769356],["mantener",-8.971341627940404],["alrededor",-8.971583503464664],["ingreso",-8.971767013052437],["enfermedad",-8.97224411310027],["Qué",-8.972262885724202],["media",-8.973225228129838],["recibi",-8.977785018397142],["español",-8.978572910938095],["cuanto",-8.982011953403834],["plataforma",-8.98213205786739],["Ló",-8.982605217403426],["ganar",-8.98264491102942],["23",-8.98376218247844],["salir",-8.984117212124502],["duda",-8.986290779594114],["60",-8.986775260215758],["uela",-8.987483129505764],["X",-8.987672973099464],["volver",-8.98886105582173],["informe",-8.9909828594535],["cantidad",-8.99188915925779],["organiza",-8.992037947172399],["menor",-8.992930224854486],["Yo",-8.99404999957967],["cción",-8.994867020756768],["J",-8.996021062837102],["diferencia",-8.99876888138172],["buen",-8.99943801718316],["presencia",-9.000405329143184],["victoria",-9.001837507799499],["motivo",-9.002434448693922],["General",-9.004548545666562],["artista",-9.006870522596468],["inflación",-9.006964062006313],["plazo",-9.006985621956058],["aquí",-9.0073589407191],["destac",-9.007777718138778],["llí",-9.009413541792032],["ciudadano",-9.010454933848122],["usuarios",-9.01103093767933],["Twitter",-9.011900218828004],["deben",-9.013239707184447],["pago",-9.017501798225418],["viaje",-9.017972834635112],["comunica",-9.021510915704853],["demanda",-9.021811810898805],["esté",-9.0225316535267],["can",-9.024709805953439],["gol",-9.024928041500736],["haciendo",-9.025369456259696],["remos",-9.025378239195813],["humano",-9.027017917762626],["Ante",-9.027198928882584],["mí",-9.027566376974882],["Santa",-9.028116932421888],["legó",-9.028723085582312],["jefe",-9.029521133138871],["ahí",-9.031136892700607],["noticia",-9.032487988304926],["económico",-9.034881641715778],["película",-9.034919593175218],["compromiso",-9.03492393378756],["principio",-9.034977779807772],["visto",-9.036132041543194],["Ha",-9.036140368006766],["llev",-9.036493225738752],["ningún",-9.037887873759864],["acceso",-9.038319492672748],["modelo",-9.03907020937785],["hub",-9.042423968576475],["pequeño",-9.04271139818902],["reunió",-9.048358349680802],["Ciudad",-9.052928857786188],["trabaja",-9.057409106424572],["explica",-9.057626967190899],["habría",-9.058506824422945],["¡",-9.058831211086657],["metro",-9.058858839529636],["present",-9.06050033382472],["cierto",-9.061044221919829],["libre",-9.06150409122986],["negocio",-9.061600182075146],["lista",-9.062587182915475],["jó",-9.063974830737411],["iete",-9.065166487692775],["jóv",-9.067829475816136],["mundial",-9.069020748126917],["nadie",-9.069137359243456],["cara",-9.070152339884345],["visita",-9.071306612909048],["26",-9.07426997069715],["logr",-9.075277024611239],["manifest",-9.07802700300283],["economía",-9.079275572206935],["lograr",-9.080253831823253],["Venez",-9.080690333778508],["eleccione",-9.084069972300927],["próxima",-9.085327644600545],["importa",-9.085504395153801],["necesita",-9.085533023003759],["ernández",-9.09059923074648],["modo",-9.091645217021412],["28",-9.093148034302509],["efecto",-9.093771461974502],["territorio",-9.096271659897454],["Liga",-9.096351145546679],["luz",-9.096939605858271],["jugar",-9.09837316596945],["rez",-9.100463029250829],["fútbol",-9.101836722522886],["María",-9.104103698150187],["pudo",-9.105600728310144],["puerta",-9.10726690126843],["periodista",-9.107370560854847],["grado",-9.108172200220082],["única",-9.108588832521438],["estudio",-9.109250206233733],["escenario",-9.110136598704415],["elemento",-9.11018307296429],["lucha",-9.110357030291476],["Después",-9.112915603433699],["tarjeta",-9.112915606818362],["ayer",-9.116438162703554],["Eso",-9.116858135371135],["pasa",-9.116979167519347],["ez",-9.117088590088324],["hablar",-9.117981900800864],["campo",-9.118117097392094],["27",-9.119835108965534],["práctica",-9.121342594756793],["Ya",-9.122129462897526],["auto",-9.123293517967543],["paciente",-9.124932099955876],["celebra",-9.12534942230813],["clave",-9.126117337539121],["crecimiento",-9.127014410988064],["!",-9.127347926877981],["realiz",-9.12970098404087],["ing",-9.13045572514158],["suma",-9.132168798888703],["cris",-9.134285117143248],["Congreso",-9.135548171323535],["cont",-9.13677754790872],["acto",-9.137827647362496],["técnico",-9.13814833595941],["llega",-9.138535155056207],["Mient",-9.141284133102332],["entrega",-9.146941240068632],["siguiente",-9.148185738840432],["amor",-9.148363469861511],["popular",-9.149176503604188],["representa",-9.149601864420902],["música",-9.149956840859051],["Hoy",-9.155130550625813],["distinto",-9.15579575483949],["habrá",-9.155819930956122],["Universidad",-9.155875073521404],["máximo",-9.155891016637351],["central",-9.156216108003672],["impacto",-9.157159617745261],["hospital",-9.15716443073406],["accidente",-9.157267495108968],["República",-9.158844220391181],["op",-9.159016545613877],["K",-9.159203504621805],["Mi",-9.160257135316794],["ú",-9.160339681842622],["defensa",-9.161639070643098],["edi",-9.162444697163048],["mantiene",-9.162585761210018],["201",-9.16453929864915],["cliente",-9.16457701369275],["político",-9.164590457537194],["localidad",-9.165486358119587],["voto",-9.16642458109296],["ánche",-9.167022354578496],["movimiento",-9.167550420268938],["entrada",-9.167598715947094],["sur",-9.16884948522637],["ampoco",-9.170339580209095],["gesti",-9.176914570203476],["500",-9.17739095104642],["ocurri",-9.178354495476395],["seguro",-9.178885442253247],["ocho",-9.183888983099745],["propia",-9.184728677007783],["cabeza",-9.185045282830911],["pidi",-9.187841951458582],["vuelta",-9.188016593870568],["interés",-9.188556422012399],["ro",-9.189668304678449],["titular",-9.19094506646541],["oferta",-9.191401453605565],["Ahor",-9.194209641948676],["kilómetro",-9.194474567058174],["ofrece",-9.194666446512517],["esfuerzo",-9.197514068581],["éxito",-9.19751421515822],["eran",-9.198483488560164],["gobernador",-9.19918919581141],["libertad",-9.20056307777039],["detalle",-9.200911385457772],["contrato",-9.20266665276371],["orden",-9.202850795710269],["título",-9.203621458924102],["Colombia",-9.203641091210306],["vista",-9.20429301006251],["saber",-9.204892348981385],["mejorar",-9.205175332385023],["Consejo",-9.206688628747013],["color",-9.20764289152747],["pod",-9.208012645888866],["bueno",-9.210628965875873],["argentino",-9.212870637296945],["interior",-9.212977854017085],["responsabilidad",-9.213010040304784],["militar",-9.2138763915258],["29",-9.213990069634768],["marco",-9.214167008836219],["escuela",-9.215963562783411],["queda",-9.216967306055142],["tecnología",-9.219053944955203],["actor",-9.219190195173542],["iniciativa",-9.222175111696394],["fuego",-9.22432017698074],["favor",-9.224596973027497],["década",-9.225299075755892],["eguridad",-9.22583810560959],["hacen",-9.227145004378258],["70",-9.227432472801548],["Casa",-9.228605111922413],["realiza",-9.229491930124919],["tasa",-9.231721517196426],["debería",-9.232004351257252],["vacuna",-9.23255096479572],["Manuel",-9.235321679304668],["vi",-9.235633948636053],["Aun",-9.236304414636344],["teng",-9.237856099430049],["ninguna",-9.238299249067097],["Comisi",-9.240477767879174],["go",-9.243223945641862],["contar",-9.243712708599652],["positivo",-9.245301730416422],["ncia",-9.246646609970561],["añadi",-9.246782458049532],["guien",-9.246877639879576],["Bueno",-9.24876353582295],["América",-9.24904899199446],["sitio",-9.2494311328238],["fácil",-9.25065153258574],["clase",-9.251526863288188],["deja",-9.253330268091794],["llamado",-9.255836544376013],["lluvia",-9.257092745074956],["temperatura",-9.257093318283406],["ría",-9.257238452518795],["dura",-9.25822695168972],["entrevista",-9.259576002719857],["80",-9.259932158713628],["marcha",-9.265913576024873],["barrio",-9.26723278565726],["candidato",-9.26813102414043],["genes",-9.271668137323303],["vo",-9.27337917245254],["contacto",-9.275105126071345],["hechos",-9.275694557214404],["sexual",-9.27606012818525],["legal",-9.277064598623703],["conocido",-9.277340111046108],["incluye",-9.278459357215844],["disponible",-9.279969538543476],["mexicano",-9.280024554810797],["salida",-9.280287490882367],["pus",-9.280447699096833],["delante",-9.280655177311983],["representante",-9.280894882805391],["considera",-9.281387787041634],["Que",-9.282909267013789],["agente",-9.283238448072838],["golpe",-9.28550908061947],["31",-9.28608969714692],["habla",-9.287456837555947],["directa",-9.289798875163214],["fundamental",-9.290322261926782],["detenido",-9.291027500390282],["ban",-9.291228617287162],["ayudar",-9.29297220210961],["participar",-9.294833900664605],["presentar",-9.295015517572264],["imagen",-9.296639641282052],["iba",-9.296663184076497],["hija",-9.298023913540622],["alcalde",-9.299124406599823],["ma",-9.299408367763498],["90",-9.299916221488441],["cita",-9.299977832551834],["distinta",-9.300034668568323],["toma",-9.300536590481325],["estudiante",-9.300622142697787],["Copa",-9.300992435167704],["construc",-9.302793604222817],["termin",-9.305953942528282],["estrategia",-9.306771792517228],["material",-9.30692796668661],["decidi",-9.307349948876745],["completa",-9.307365062097386],["China",-9.307748294640287],["etapa",-9.30778481478157],["categoría",-9.310184702014098],["comercial",-9.311107197970207],["plaza",-9.312566979814001],["Real",-9.31259466060782],["papel",-9.312949145410908],["coment",-9.31324721422979],["opera",-9.313697419469467],["Pedro",-9.313812672256784],["volvi",-9.313987619634885],["par",-9.315253700163357],["quedar",-9.317360313908125],["allá",-9.319601650397239],["documento",-9.320817869504936],["fiesta",-9.321296829219833],["diputado",-9.322086969691615],["diario",-9.322801269323413],["emergencia",-9.323902085174135],["perdi",-9.325741952960112],["x",-9.326500391513763],["industria",-9.327304378330414],["conflicto",-9.327355684800022],["presión",-9.32772397166658],["quiera",-9.328576303925256],["Garc",-9.329229015154766],["recibir",-9.332675803506014],["llegada",-9.334530164248372],["mandatario",-9.334616175450563],["pasada",-9.334708269636467],["destino",-9.334835760728746],["Más",-9.33494426285446],["obst",-9.33701099821123],["funciona",-9.337141851407921],["torneo",-9.337814213447864],["materia",-9.339828367028156],["Instituto",-9.34177880729545],["Fiscalía",-9.345000514262326],["libro",-9.345045019114046],["inversi",-9.345410391668757],["deberá",-9.345605078852305],["mitad",-9.351580897236811],["mediante",-9.351763549800491],["ado",-9.35185813803793],["calles",-9.352526162074644],["digital",-9.352630295835024],["ido",-9.358219155422415],["estatal",-9.358662506013665],["crea",-9.359489430512852],["rusa",-9.360250378503622],["confirm",-9.361221201690046],["pagar",-9.362014759040267],["empleo",-9.362940235216392],["federal",-9.363313314687058],["encontraba",-9.36379900292144],["hicier",-9.363962288719154],["buscar",-9.365027627986436],["Ángel",-9.366230533578777],["web",-9.366232227316468],["administra",-9.368387264368472],["Villa",-9.368393386540381],["justicia",-9.369732288096857],["tierra",-9.369840974246342],["realizado",-9.374682407904963],["reforma",-9.375047311016226],["PP",-9.375308983230767],["probable",-9.376999965451073],["policial",-9.377100253759446],["rápida",-9.37710253434961],["tra",-9.378838258609662],["asegura",-9.37999798183693],["impuesto",-9.380835903772697],["continúa",-9.381421083720545],["consumo",-9.38216974661037],["Hast",-9.382192995135735],["labor",-9.382204159952815],["Final",-9.385734220719739],["sean",-9.386955625298688],["compra",-9.387069232885402],["Civil",-9.391895558817009],["crear",-9.391945882236076],["tarea",-9.391967696323338],["contenido",-9.39382870671204],["pre",-9.395254200747367],["—",-9.39548230731812],["aspecto",-9.395482405707753],["Nueva",-9.395641418280608],["conductor",-9.396094417530481],["opin",-9.396756329241002],["vivir",-9.397327798100118],["cumplir",-9.397957708910543],["natural",-9.399030526101658],["Rodríguez",-9.399199779437083],["disfrutar",-9.39977238796298],["35",-9.402306501242336],["cámara",-9.402858136605051],["superior",-9.402931340311248],["amenaza",-9.402944510493427],["dirigente",-9.404168016697575],["cambiar",-9.404180781432416],["Chile",-9.404930609061347],["organismo",-9.406660986790918],["Miguel",-9.406703638833491],["verdad",-9.406871193623836],["denuncia",-9.407504200770322],["incremento",-9.40795402952936],["mostr",-9.409193541900141],["tercera",-9.409281840751643],["Cruz",-9.410719898992351],["Ley",-9.410877963838582],["regional",-9.412935940640747],["Río",-9.414224686507115],["imá",-9.41487852090064],["hacerlo",-9.41731787515204],["Secretaría",-9.418000787037915],["ruta",-9.421037149858039],["esas",-9.425337132195551],["Justicia",-9.425616963126505],["peor",-9.42562369892488],["electoral",-9.426045139701849],["transporte",-9.426185316968319],["menores",-9.427914741954172],["empez",-9.42881849951516],["artículo",-9.429447846639995],["ducación",-9.429950452895831],["podía",-9.43089570449628],["similar",-9.432468506577376],["existe",-9.433259334932043],["Uno",-9.435371767320595],["cuarto",-9.437078624047412],["Ayuntamiento",-9.43715495616366],["COVID",-9.437155119077506],["aquello",-9.437381898564265],["incendio",-9.437747082428825],["Presidente",-9.438633359529621],["protec",-9.439504389356703],["Brasil",-9.444425317591088],["armas",-9.444793256623733],["cantante",-9.44499718474649],["avance",-9.445109843841632],["pena",-9.445778303942362],["sali",-9.446745153359283],["Aire",-9.44707893903227],["recupera",-9.448582573907427],["Cámara",-9.448830197276],["laboral",-9.44919472892034],["conocimiento",-9.449425641277392],["creo",-9.449596701530478],["45",-9.450308926419183],["interven",-9.450522734548752],["or",-9.451401092914882],["dosi",-9.451959696926382],["Putin",-9.452750208683437],["amplia",-9.455216471487642],["man",-9.455529816453213],["animal",-9.45730414070789],["norte",-9.459309427544266],["aire",-9.460139199607696],["sostuv",-9.460659744450012],["atrás",-9.462733393962992],["instala",-9.463808161921989],["institu",-9.465025603916876],["Ejecutivo",-9.46513420362777],["niña",-9.465624125059101],["periodo",-9.466022801760893],["suficiente",-9.468185359007236],["edificio",-9.468591692999258],["herramienta",-9.468594141665974],["significa",-9.470859955997394],["paz",-9.471420197993233],["gusta",-9.471564647571235],["preocupa",-9.471813329235403],["habl",-9.4721705856476],["juicio",-9.47246676924713],["bastante",-9.472619443300477],["judicial",-9.472855730253151],["publica",-9.473188727827134],["contexto",-9.47421553936147],["operativo",-9.474769687621801],["ré",-9.47582319299896],["generar",-9.476362211398412],["ucraniano",-9.476613403046269],["arte",-9.477682089755506],["Francisc",-9.478353559933375],["Internacional",-9.480855726738874],["señala",-9.481309090386821],["gasto",-9.482852911196197],["verano",-9.489724989991096],["ocasione",-9.491771791068036],["Social",-9.492693821594354],["Barcel",-9.49335615107977],["direc",-9.494178829103003],["pa",-9.494511633786257],["fuentes",-9.494652065490577],["manos",-9.494722755907153],["declar",-9.495099719256245],["reducir",-9.496341374437993],["oficina",-9.496934043834578],["hará",-9.498013682288525],["término",-9.501048853166413],["frontera",-9.501085123364767],["ejercicio",-9.501417789924169],["máxima",-9.501468018208055],["declaraciones",-9.502400251063293],["sufri",-9.503615273564487],["estrella",-9.503853903632281],["figura",-9.503862263295815],["cultura",-9.504950817966307],["competencia",-9.505181083972051],["premio",-9.505188180870324],["hermano",-9.505233069011675],["indica",-9.50553115129551],["alcanzar",-9.507639343487584],["conseguir",-9.507986042214444],["tercer",-9.508367872022095],["pérdida",-9.509330463999508],["Cómo",-9.509345563999695],["Cabe",-9.509924221122944],["Mar",-9.511057653962752],["apena",-9.51110308305132],["género",-9.51350028009383],["curso",-9.513607755952023],["triunfo",-9.514065282072243],["afectado",-9.515025850704825],["secretario",-9.515548617515657],["clara",-9.515740779750406],["Albert",-9.51583783946257],["In",-9.516456189318706],["Ten",-9.516770644277582],["record",-9.51798931526935],["firma",-9.518105102549914],["mesa",-9.51844870662584],["integrante",-9.519786277526674],["Son",-9.520725008729368],["escribi",-9.52100787013276],["°",-9.5212583137344],["diálogo",-9.521883152047621],["tratamiento",-9.522864537899656],["médico",-9.524097833638049],["peso",-9.526032859268764],["pensar",-9.526834832744875],["estadio",-9.526945872042827],["ándose",-9.527346520327232],["continuar",-9.527641907762586],["pedido",-9.528256311059856],["sacar",-9.528536643178658],["Franci",-9.529607890900206],["das",-9.530080650686259],["Jorge",-9.530339918305629],["The",-9.530776410449185],["ventaja",-9.531230157826325],["perder",-9.535377573166894],["juez",-9.538481387473237],["ja",-9.538926902752056],["Banco",-9.540429592249176],["w",-9.540450166866211],["razó",-9.540530034857948],["mis",-9.541134100270547],["caída",-9.542854727225999],["fase",-9.542943417004526],["amarilla",-9.543566598367654],["confianza",-9.543864120768749],["fun",-9.543921512209419],["banda",-9.54686574249778],["carga",-9.549999223050724],["Otro",-9.551881605425969],["cierre",-9.55256289871761],["sueño",-9.55258972866429],["normal",-9.553897409388934],["Pablo",-9.556148504622858],["Qatar",-9.556149044619424],["Martín",-9.556745549621187],["tratar",-9.557067958273876],["alimentos",-9.55855286130005],["Re",-9.558873320202352],["referencia",-9.560083512887122],["pequeña",-9.560514400285687],["teléfono",-9.560540260290068],["particular",-9.56105648373926],["encontr",-9.561221454023144],["terminar",-9.56166525703153],["responsable",-9.561716493391373],["funcionarios",-9.562131596321883],["coche",-9.563433884181503],["institucion",-9.564010739713265],["daño",-9.56493588764663],["registro",-9.566212011345648],["supuesto",-9.566675499869149],["completo",-9.566815561919306],["penal",-9.567994179231668],["Ram",-9.568840001209303],["banco",-9.56965298574448],["abogado",-9.569748694267645],["arma",-9.57091255207963],["quería",-9.571238440239123],["llegado",-9.572220220161705],["Biden",-9.57391870903022],["negocia",-9.574104603401722],["cree",-9.576706258263155],["quién",-9.578176826543281],["llamada",-9.578291933470618],["diez",-9.578417854464574],["abierta",-9.58263903818422],["cuál",-9.58264133102438],["André",-9.582663562306644],["común",-9.582675657801635],["covid",-9.582682982848148],["usar",-9.584170971451885],["encima",-9.58602873404361],["deuda",-9.586759470455135],["González",-9.587132855546027],["muerto",-9.587153506225132],["personaje",-9.587278865704915],["Antoni",-9.587354089341169],["debate",-9.588093925572185],["entorno",-9.58841062183269],["cultural",-9.59012742479451],["empleado",-9.59030575883741],["Covid",-9.59166969357111],["mostrar",-9.593165644628616],["error",-9.59466621108622],["colabora",-9.595377021351775],["página",-9.596166092668632],["discurso",-9.596167439891822],["obtener",-9.59625120438977],["entrar",-9.596470459800999],["dolor",-9.596559585178902],["bilidad",-9.596766035030349],["pese",-9.598384496743293],["afecta",-9.599816320006274],["adelant",-9.600036635753568],["global",-9.600413875758221],["ocurrido",-9.602019557038101],["ambiente",-9.60380622635119],["física",-9.604719551824122],["tráfico",-9.605308097228821],["Perú",-9.605347745362241],["cadena",-9.609503027259258],["presupuesto",-9.60993927572283],["abierto",-9.614460129751219],["Hospital",-9.614464180558155],["34",-9.614600481072634],["entrenador",-9.61460133160762],["esión",-9.616738850886138],["recordar",-9.61696683761263],["EE",-9.617196689969685],["espacios",-9.617846105028566],["comenzar",-9.618607555069719],["convertir",-9.6189268185062],["ada",-9.619505174774162],["disposición",-9.619889732282495],["requiere",-9.620136761968674],["Z",-9.621546170924901],["conoce",-9.623204399838311],["tendencia",-9.623470496630244],["departamento",-9.623740630568054],["Alemania",-9.623741348475846],["aplica",-9.624528377096695],["registr",-9.62486153890509],["cumple",-9.62491184990822],["planta",-9.625788492061123],["productor",-9.626136655531498],["vuelo",-9.628127232988163],["Alejandr",-9.628444062726441],["usted",-9.628512305090144],["diferente",-9.630194939675569],["rival",-9.630754481131069],["realizará",-9.632506958338443],["comprar",-9.63300589108746],["vive",-9.633657159114676],["factor",-9.633980598971425],["altura",-9.634938065768516],["necesaria",-9.637531381419993],["móvil",-9.637709219967993],["Obrador",-9.637869020163265],["promedio",-9.63869256985566],["ministra",-9.641866057499104],["virus",-9.641957959525264],["Municipal",-9.641982599980519],["correspondiente",-9.64256947316624],["comida",-9.642657660634878],["cuidado",-9.642756642481029],["asocia",-9.645889610365032],["posterior",-9.647326605709058],["nueve",-9.647327176425787],["mínimo",-9.647333744020983],["habitual",-9.647511032201255],["cuyo",-9.647673400864713],["diseño",-9.648236596762779],["autor",-9.650374572563429],["rigen",-9.650604283897607],["recibido",-9.652595733337101],["zo",-9.654656722254],["esperar",-9.655450886438384],["venezolano",-9.656918964736771],["Torre",-9.658381749285361],["provincial",-9.65932228451127],["técnica",-9.661528064738967],["tuvier",-9.661761609666865],["enorme",-9.661799262799496],["herido",-9.661895493958976],["políticos",-9.663125800456715],["reuni",-9.663384792439741],["ocas",-9.664095114058746],["enfrentar",-9.664427319241344],["reporte",-9.66486092118612],["Gran",-9.666396851955156],["carretera",-9.666620030865326],["Martínez",-9.66674480759022],["empresario",-9.666842031213312],["declara",-9.667074870291927],["prisi",-9.66804154141165],["efectivo",-9.668250642312522],["estructura",-9.66975663379595],["protesta",-9.670581250710768],["Puerto",-9.67149397328306],["objeto",-9.671820611061666],["%)",-9.67191029272211],["haga",-9.671962642553623],["vio",-9.67280723047739],["lisi",-9.67390656958463],["anual",-9.674542398693596],["Di",-9.675476481619448],["dispositivo",-9.676401450857],["pobre",-9.676408358172054],["sub",-9.676718339007092],["supone",-9.677449540704696],["ista",-9.677677447886087],["prepara",-9.681710872011308],["funcionario",-9.68188146887187],["española",-9.683308303264747],["acusa",-9.684015047642788],["darle",-9.684453973720082],["Sur",-9.684785894705167],["ubicado",-9.685354215183875],["izquierda",-9.686260864032771],["registrado",-9.686293236978138],["hacía",-9.686565536461604],["vuelve",-9.68664597295131],["Federal",-9.686786795088153],["reduc",-9.686866840687966],["vaya",-9.688034876019426],["doble",-9.68813034572064],["com",-9.689432934213334],["muri",-9.690363235397303],["Hace",-9.691035041954958],["Santiago",-9.691237023516866],["inten",-9.691272332117915],["publicado",-9.691485418275025],["precisa",-9.691737472250365],["funcione",-9.693215531956866],["comercio",-9.696250755308835],["propiedad",-9.696254694954497],["Norte",-9.696305593544984],["privado",-9.696691905122217],["sancione",-9.697326108112726],["aná",-9.700151405746148],["trás",-9.700613785732978],["domicilio",-9.701468368945127],["relacione",-9.701525180823477],["acusado",-9.701681249460812],["anuncio",-9.703253315603718],["derecha",-9.705949103123803],["futbolista",-9.7061352976],["Leó",-9.706293968355531],["Central",-9.70631477115148],["actualidad",-9.708590518824042],["pantalla",-9.710029582501175],["combustible",-9.711365263480975],["terreno",-9.711389968548087],["velocidad",-9.71139813161907],["agencia",-9.711441398054674],["Fernand",-9.711746614882284],["36",-9.713277670950728],["fondo",-9.714747711644826],["Defens",-9.715324684979961],["Instagram",-9.716489853909637],["pronto",-9.716635739108238],["río",-9.716789563393121],["garantizar",-9.716815326351714],["presentado",-9.71695286005869],["ización",-9.719103207015827],["siglo",-9.721997213403757],["’,",-9.722539316590431],["75",-9.723367620839099],["televisi",-9.723939915400418],["investigador",-9.724871929508465],["época",-9.727423539484523],["pase",-9.728754787759613],["Cristi",-9.728761449747266],["300",-9.73020288989903],["hogar",-9.7311762280045],["derrota",-9.73170941618885],["conferencia",-9.731923085576621],["Pública",-9.731953993209158],["infraestructura",-9.731957991963977],["constante",-9.73198283955153],["W",-9.732257465671442],["compara",-9.732310445855003],["voy",-9.732657569168264],["amba",-9.73300383718377],["Educación",-9.733012387704058],["histórico",-9.733667760579785],["texto",-9.73368642486852],["visitante",-9.73379412369767],["Sobre",-9.73484326174885],["public",-9.735151259558805],["Del",-9.73580306579909],["siente",-9.735882069110108],["rápido",-9.737169193396166],["contrario",-9.73753562020121],["campe",-9.73795178718532],["isla",-9.738526898898263],["dicen",-9.739865993688003],["Partido",-9.742436898470395],["salario",-9.742787867948529],["ero",-9.74345793263754],["dando",-9.743530272896837],["solicitud",-9.744159103738362],["Ent",-9.747418625613033],["poca",-9.747625670431653],["herida",-9.747636130811859],["recuerda",-9.74770795005784],["utilizar",-9.748125866610895],["33",-9.748820432621013],["Toda",-9.74884267409073],["pide",-9.748948400826],["solu",-9.749664320772421],["Juli",-9.750074626068614],["Dios",-9.751210125345288],["cay",-9.752456862317683],["asunto",-9.753004830594282],["’.",-9.753478790000635],["dicha",-9.75363585997674],["previa",-9.754472758502562],["dejado",-9.754957906672818],["recuperar",-9.756060601899474],["expertos",-9.756281294739187],["asistencia",-9.75686399668703],["Bar",-9.756966350412906],["naturale",-9.758266062509703],["Club",-9.758271550224261],["Pérez",-9.758281426016278],["búsqueda",-9.758299239679626],["docente",-9.758325262654978],["horario",-9.75866262080824],["concluy",-9.75894240187128],["coraz",-9.760164455659076],["empezar",-9.761757174992994],["tienda",-9.761892188961774],["tus",-9.762318151891343],["afectada",-9.764290978044887],["quiero",-9.764801552167446],["iniciar",-9.76549315929138],["Costa",-9.765873708409599],["consecuencia",-9.766033958831347],["aquella",-9.766625387956655],["cuesti",-9.767064447898175],["esposa",-9.767307362238139],["presidenta",-9.767934263866803],["síntoma",-9.76901947679789],["límite",-9.769048678765271],["consider",-9.77169761255739],["Ju",-9.772933424679499],["comentario",-9.774589213985537],["acceder",-9.774853826577854],["pie",-9.775038755410106],["erán",-9.777078065681497],["larga",-9.777213532043842],["lejo",-9.77836398418308],["madrugada",-9.779835366452229],["trasladado",-9.780499255881281],["talló",-9.78117157701937],["habitantes",-9.784090636061268],["privada",-9.785332259184488],["miedo",-9.785599601524396],["aumentar",-9.785709406025227],["inició",-9.78587074988265],["reconocimiento",-9.785912613004076],["400",-9.78629534551397],["utiliza",-9.787394677830743],["vacunación",-9.787654101659353],["ida",-9.787681930955866],["pregunta",-9.787687326130953],["obliga",-9.788240714312046],["peligro",-9.788366432030866],["ciclo",-9.789694157265465],["participante",-9.790140886313754],["justo",-9.790530809658105],["turno",-9.790560270598005],["exterior",-9.790672354494816],["droga",-9.790673966154387],["actri",-9.791355407288922],["establecimiento",-9.791432704038028],["respeto",-9.792045185324929],["65",-9.792391948643706],["ús",-9.792776628699961],["Dieg",-9.795943146951444],["Grupo",-9.796320942985632],["negro",-9.79642574814538],["costo",-9.796449155086803],["Co",-9.79645379496132],["seguirá",-9.796581597903259],["deporte",-9.797545656916519],["Europea",-9.797678056196599],["áreas",-9.797909015755518],["diverso",-9.79805544637377],["suelo",-9.799872094520012],["ci",-9.80026805584831],["afirma",-9.800320522396902],["precis",-9.800608265174471],["diversa",-9.800866915922791],["compañeros",-9.801672787942337],["Corte",-9.801784537861693],["adulto",-9.801881792576182],["Valencia",-9.801927198143812],["adolescente",-9.802594191538677],["cre",-9.802885276738408],["Asocia",-9.803266626560564],["atender",-9.805754268547002],["ga",-9.805854479776727],["delantero",-9.807671144018531],["alerta",-9.80851839478457],["parque",-9.808710176777527],["existen",-9.808718454683412],["directo",-9.811115587789262],["audiencia",-9.811542407030057],["especie",-9.813080220804615],["democracia",-9.813225316258832],["sujeto",-9.813317986779513],["trabajan",-9.814191091005233],["especialista",-9.814360257200022],["alumno",-9.819191040473743],["32",-9.819972556929974],["fondos",-9.821248195234283],["médicos",-9.822427432844535],["estilo",-9.82271870790662],["seguidor",-9.823494734528087],["ofrecer",-9.824343998826684],["Lu",-9.824437924428652],["car",-9.825628636849881],["38",-9.828008562549785],["cerrar",-9.829019023386039],["Desarrollo",-9.830125250257495],["coronavirus",-9.830157538161336],["sentir",-9.830973232931132],["portavo",-9.83112670691151],["entender",-9.831451425246247],["civil",-9.834721647654934],["período",-9.835876233410271],["médica",-9.835890900907023],["desarrollar",-9.836455593633747],["potencial",-9.836650750105825],["Cuba",-9.836933282370143],["intentar",-9.840080414161484],["per",-9.8403949760799],["informado",-9.841006346606218],["europeo",-9.841652670462508],["ucraniana",-9.841652878155866],["previsto",-9.84180305664474],["Derecho",-9.841807122654599],["j",-9.843142214072293],["Nicol",-9.843903260257786],["Cad",-9.843933268016928],["aproximada",-9.844611616505045],["Está",-9.84477997877407],["apunt",-9.847013195569685],["esperanza",-9.847202558492647],["ámbito",-9.847466596605187],["eléctrica",-9.84752502760458],["Tribunal",-9.847542493116489],["extranjero",-9.847626770113052],["resulta",-9.847715852769333],["Per",-9.849843109247935],["pone",-9.849847377991779],["tendría",-9.849960683724984],["continua",-9.85028966146616],["aciones",-9.85150528962994],["inicial",-9.852834547472064],["ilegal",-9.854246408663212],["resolu",-9.854475756247542],["Guardia",-9.856245127875308],["acerca",-9.857553795733732],["beneficios",-9.858770273347316],["intento",-9.859068192927436],["musical",-9.859592549911406],["escolar",-9.85974429924395],["Direc",-9.859824618974645],["chico",-9.860196945661508],["fallecido",-9.860223434527338],["exporta",-9.860924542464335],["mejora",-9.861138930833173],["abrir",-9.862183610848982],["crim",-9.862744641893661],["mental",-9.863660020182131],["canal",-9.863833176414147],["gener",-9.863880413232696],["concierto",-9.8639530067043],["norma",-9.864697287110523],["tomó",-9.86475337133497],["apertura",-9.86504347795992],["Palacio",-9.865119330010867],["hubiera",-9.865121788198309],["crédito",-9.865122379933734],["profesor",-9.865156968048005],["consumidor",-9.86547307715377],["recorrido",-9.865813119968227],["rendimiento",-9.86582142307783],["Creo",-9.866541650657584],["registrar",-9.866734500624554],["ri",-9.86697676276468],["escuchar",-9.867196131363514],["corto",-9.86744147142677],["trabajos",-9.867832126951196],["pendiente",-9.868482550599488],["sumar",-9.868691832150555],["nota",-9.86933638069058],["advirti",-9.870647654544843],["franc",-9.870860394949545],["lanzamiento",-9.871167240215218],["distancia",-9.871338886967745],["turismo",-9.871630594761347],["piloto",-9.871833145006303],["viento",-9.872877743182617],["razon",-9.873043180673335],["rán",-9.87424514546948],["estudios",-9.875076508097013],["agenda",-9.875098733968434],["perdido",-9.87607483290778],["invasi",-9.876815019798663],["produj",-9.876915882804507],["ton",-9.876965724725295],["porcentaje",-9.877054484081532],["ciudadanía",-9.877055675287135],["característica",-9.877056604266835],["Plata",-9.877100830634632],["blanco",-9.877159665580173],["fines",-9.877395606159526],["esperan",-9.879239409500293],["Santo",-9.879957587981583],["estima",-9.88034640314601],["querido",-9.880639331929984],["potencia",-9.88125570403907],["firmado",-9.881719839752872],["Unido",-9.881923446408493],["result",-9.882617754511529],["tramo",-9.882802655924866],["York",-9.883082785382925],["alza",-9.883460873299317],["Hernández",-9.88349608754865],["cine",-9.883833366876686],["original",-9.883952718952454],["tribunal",-9.884740506640135],["directora",-9.886546888976],["activa",-9.887111845168018],["Go",-9.888076872036255],["dependencia",-9.888923911377283],["migrante",-9.889074192333934],["Público",-9.889139161378647],["comisi",-9.889965133135465],["robo",-9.89068752667719],["destaca",-9.89074675005146],["apoyar",-9.891241619265468],["relacionado",-9.891388165947117],["deportivo",-9.892112073434511],["Jes",-9.894308680525969],["destacado",-9.894314351008308],["pieza",-9.894738258545665],["OTA",-9.895519937473383],["comparti",-9.897749676124446],["48",-9.898031700078299],["trabaj",-9.898056731444582],["Solo",-9.89864973361316],["señalado",-9.89867626110032],["carta",-9.898903039318771],["anti",-9.899477584563718],["dará",-9.903091093224273],["po",-9.90318637805657],["pedir",-9.904383855972227],["+",-9.905642781892794],["cierta",-9.906049217274884],["activos",-9.906824118322636],["presidencial",-9.906848439697338],["incidente",-9.906981899122846],["ocupa",-9.907245085540275],["presunto",-9.907560204763541],["procedimiento",-9.907623440420538],["jug",-9.908552799323958],["llama",-9.909891246023061],["lesion",-9.91098444270035],["solucione",-9.91169381499197],["ura",-9.911856589040832],["vivo",-9.912390110318176],["perfil",-9.913129333159777],["permanente",-9.913755715346838],["fotografía",-9.913860897035608],["colectivo",-9.914024449142083],["superar",-9.914283229327905],["Plan",-9.915456273140128],["comienza",-9.920006111473526],["protagonista",-9.920010881631761],["inmediata",-9.920063694064062],["beneficio",-9.921031106146014],["Departamento",-9.921302583994978],["interese",-9.922122559716136],["ña",-9.92260366106174],["operacion",-9.92527067882924],["pelea",-9.925862263293677],["homicidio",-9.926295020333207],["incluido",-9.926299352270126],["destacar",-9.927320538921055],["interna",-9.927373031689946],["escena",-9.927796768507292],["llevado",-9.928031707626783],["conocida",-9.929004099061977],["compartir",-9.93110744102763],["Unió",-9.932149733626108],["espectáculo",-9.932624133421662],["identidad",-9.9326334794596],["instancia",-9.932678882414052],["vídeo",-9.932686533645507],["Nuevo",-9.932726851787306],["perro",-9.932867104006364],["region",-9.932896629856424],["suerte",-9.933276645517196],["foto",-9.933400576679606],["suministro",-9.933739724976082],["anunciado",-9.933872915576977],["revel",-9.9348240942672],["rá",-9.935488319587769],["apuesta",-9.937291645576488],["corrup",-9.937312155394416],["ritmo",-9.938747700770515],["ven",-9.938958754566237],["trimestre",-9.938993946441883],["comienzo",-9.938993984077825],["alternativa",-9.938999592597396],["convocatoria",-9.939003858305616],["respectiva",-9.939033196408054],["independiente",-9.939076819866466],["Alguno",-9.939179845692419],["gimen",-9.939485568534739],["David",-9.939568331734048],["nacionales",-9.940137806705136],["estaría",-9.940362227278055],["respondi",-9.940584028723435],["asegurar",-9.940590731701676],["tradicional",-9.942396295122998],["bloque",-9.943435285755424],["Castillo",-9.943849505003266],["implemente",-9.944015310620943],["récord",-9.945403867373825],["clasifica",-9.94666054943061],["calor",-9.946983288657124],["Servicio",-9.947306368915037],["avenida",-9.947369744193676],["Tiene",-9.947892035564236],["múltiple",-9.948019133582136],["permitirá",-9.948024898093852],["mez",-9.950398714885335],["públicos",-9.951009188001287],["regreso",-9.951536390435528],["torno",-9.952402021805739],["subida",-9.952901554542901],["avanzar",-9.954726202421483],["Álvar",-9.95542086913385],["combate",-9.956460500099045],["Otra",-9.95676432910443],["resolver",-9.958047922966266],["discusi",-9.958349481443513],["sorpresa",-9.95835029630446],["asesinato",-9.95835317955411],["Sergi",-9.958390117690648],["Federación",-9.958418970153158],["dificultad",-9.95850114917938],["th",-9.958620874627158],["cielo",-9.959156609301946],["Reino",-9.959756841406318],["sol",-9.95983197156485],["logrado",-9.960019440815978],["celebrar",-9.960793087253789],["proteger",-9.960945802123693],["vino",-9.960992476068363],["aba",-9.961050812094168],["implica",-9.96117101745373],["hotel",-9.961312078453334],["refiri",-9.964442614249691],["temporal",-9.964888103232344],["financiero",-9.964899117503935],["Javier",-9.964933460973455],["opcion",-9.965400273313994],["pleno",-9.965627720975945],["actuar",-9.965701515596177],["duro",-9.965837019609719],["vota",-9.966423325190288],["consulta",-9.968893247334446],["fuente",-9.969886044274293],["ás",-9.970254512306688],["rol",-9.970841513138872],["Constitu",-9.97145884221651],["demasiado",-9.9714638623374],["prevé",-9.971560156457336],["rueda",-9.972491619907384],["visi",-9.97449497862242],["histórica",-9.975593516532903],["Moren",-9.976637028813052],["residente",-9.977235860462333],["virtual",-9.978086495960643],["inmediato",-9.978135957428144],["exposi",-9.978712936278853],["realizada",-9.979491960044736],["previo",-9.981424281131563],["disparo",-9.984399729566373],["convirtió",-9.984753015164944],["absoluta",-9.984767978011336],["cancha",-9.984852174877854],["actuación",-9.984932927100438],["37",-9.986351207130562],["señalar",-9.991164763481294],["ces",-9.99164160456613],["Ni",-9.991847163875326],["revis",-9.991889749119732],["anteriores",-9.992258365622549],["ina",-9.993371514124068],["decía",-9.996222826054327],["cerr",-9.996799306523641],["reserva",-9.997168155828994],["construir",-9.997736561649644],["petróleo",-9.998221228579883],["Fuerza",-9.998226957431914],["restaurante",-9.998246719736734],["dirigido",-10.002051039473173],["ciencia",-10.003308233965342],["mensual",-10.004374791648004],["condi",-10.00616810796829],["cuya",-10.006630546356874],["concreto",-10.007791214836914],["km",-10.00847245703499],["199",-10.008658737000372],["UE",-10.009223423343474],["consecuencias",-10.010739237254061],["complejo",-10.01187635874162],["testigo",-10.011878647926103],["asegurado",-10.012407702940681],["reto",-10.01348520926158],["parecer",-10.013949098956783],["ropa",-10.014486860784537],["permita",-10.015109596343976],["pens",-10.016901266833841],["ocurre",-10.016934677326228],["segui",-10.017064011960608],["organizacion",-10.017247389341247],["arriba",-10.017320505122978],["mencion",-10.01750094999857],["plena",-10.017721561965026],["intent",-10.018034790381794],["John",-10.018770961593109],["expectativa",-10.018773312226276],["confirmar",-10.021395658730984],["empate",-10.021403926464252],["viajar",-10.022872643608757],["podem",-10.023288076192635],["esperaba",-10.023290490448705],["feliz",-10.025375984776455],["alifornia",-10.025710213172756],["distrito",-10.025714922161528],["episodio",-10.025718609129651],["concepto",-10.025737930239654],["Comunidad",-10.025794495652303],["pasajero",-10.025825625709434],["tren",-10.025884150363638],["vivi",-10.027033874298755],["piso",-10.027610414142021],["conomía",-10.028820792384145],["Daniel",-10.02997116355795],["55",-10.030645366180178],["ito",-10.031032286374462],["colombiano",-10.032707316914903],["básico",-10.032708407836736],["cárcel",-10.033081036563772],["Actual",-10.033155633391058],["Junto",-10.034017691936414],["provoc",-10.034706713208317],["buscan",-10.034996497252333],["agresi",-10.035090896592964],["ronda",-10.035759421151521],["plicación",-10.036581303691072],["85",-10.03714098673834],["meta",-10.03772378805903],["segura",-10.0385438998959],["establece",-10.038942829267583],["cáncer",-10.039785602328724],["Poder",-10.039861118795713],["asistente",-10.039867891365581],["Ana",-10.040547263836537],["contagios",-10.040898604371208],["Ar",-10.041059561726007],["Mosc",-10.041077294528641],["usuario",-10.042184687719992],["ganador",-10.042402954371887],["piel",-10.045403984183238],["dueño",-10.046841930967965],["Unidad",-10.047031967103562],["lin",-10.047080388231006],["convertido",-10.047123684223585],["ubica",-10.047689369899288],["ubicada",-10.048104093892666],["42",-10.05025829128963],["res",-10.050299153710206],["cercano",-10.050462470461586],["solicitar",-10.052082079360922],["Pro",-10.052162806505653],["vacacion",-10.052491646034419],["observa",-10.0530416814188],["señor",-10.05353217832603],["line",-10.055242548055201],["Paz",-10.05528587840778],["reconoci",-10.058353903580237],["enfrenta",-10.05919338303585],["suele",-10.060077458731264],["sentencia",-10.060301833252755],["restric",-10.060532071474992],["consejo",-10.061187261641166],["duelo",-10.061294588482177],["nuclear",-10.061325711974133],["Escuela",-10.061495599502923],["Italia",-10.06179018521321],["super",-10.06186223140592],["permiti",-10.062453538341092],["Protecció",-10.062492459649022],["mandato",-10.062536286467967],["circula",-10.06257336955761],["ble",-10.06400977009941],["pretende",-10.065617115684722],["encuesta",-10.066973335342038],["reconocido",-10.067052178140518],["elegir",-10.067087763064386],["bi",-10.067390436820158],["actitud",-10.068181420638581],["cuarta",-10.068406005051536],["trámite",-10.068425151159104],["amonestado",-10.06845717854038],["US",-10.068682214849524],["marc",-10.069844027434062],["factura",-10.070645971539982],["39",-10.071480166405188],["órdoba",-10.071636290401525],["subray",-10.072120528483516],["Uruguay",-10.075724433787798],["desafío",-10.075726348906931],["Messi",-10.07659391781295],["establecer",-10.078147890773806],["Val",-10.080231213411343],["600",-10.080299647121599],["coste",-10.080559088682094],["pista",-10.08206029880755],["requisito",-10.083043358777715],["memoria",-10.083081305802995],["inglés",-10.083082665610878],["turista",-10.083206546014713],["abuso",-10.08330130290345],["imposible",-10.08330628128402],["mexicana",-10.083403819953586],["ingresar",-10.083806258964042],["acompañado",-10.084806769372086],["tanta",-10.085090385504742],["app",-10.085848159495853],["99",-10.086613603086178],["llevan",-10.086959303173735],["II",-10.088048511837528],["Inclus",-10.090381604111105],["científico",-10.090484770011528],["educativo",-10.090484840614781],["alianza",-10.090504020875454],["planeta",-10.090714662171695],["Robert",-10.09071582561292],["juega",-10.090931151956774],["hayan",-10.091477468447952],["identificado",-10.09199961480852],["aplicar",-10.092616129006455],["explicado",-10.0935719300992],["Organiza",-10.0936418311925],["Gó",-10.093896883741337],["cará",-10.094021142456533],["playa",-10.094193817885962],["corte",-10.094516565784026],["ideal",-10.094574033563164],["responsables",-10.094796681905532],["necesitan",-10.095480431028871],["talento",-10.095913032274533],["44",-10.096095731521324],["sanitario",-10.097913770900753],["http",-10.097947458066393],["financiera",-10.097986811626402],["tránsito",-10.098190913980437],["legislador",-10.099074815191756],["Paul",-10.099942069495768],["Gracia",-10.100247023719046],["bajar",-10.1007522569998],["gira",-10.101116169316853],["Trum",-10.101135057853774],["criminal",-10.101241214517778],["viendo",-10.101589517790456],["concentra",-10.101589776617992],["Wi",-10.103317340033923],["llegará",-10.104368815849126],["reconoce",-10.104533824213602],["puesta",-10.104744260859905],["Pi",-10.10520362827955],["Washington",-10.105466252644524],["colegio",-10.105467581245229],["invierno",-10.105482913940332],["presunta",-10.105488587802437],["defender",-10.105965229184855],["vigente",-10.1061284556319],["subir",-10.106159892531114],["mas",-10.1066217325968],["sangre",-10.10714318365756],["mir",-10.107847904818783],["Cultura",-10.108142655932625],["46",-10.108928722544054],["puerto",-10.110444986908902],["Mujer",-10.113102966446421],["sanitaria",-10.113134218071327],["entr",-10.11376550751326],["menes",-10.118209608263125],["confirmado",-10.119230302282164],["transforma",-10.119269518580758],["PS",-10.119851573134131],["tormenta",-10.120160298348816],["críticas",-10.120275271006248],["motor",-10.120302794242756],["cuador",-10.120531927159327],["órgano",-10.120676137524804],["celular",-10.120679375015513],["verde",-10.120739523635944],["Turismo",-10.12081227650683],["sirve",-10.12139892460445],["complicado",-10.122739957961347],["falleci",-10.122822185411358],["bo",-10.123902269626837],["pro",-10.124647508823504],["Kie",-10.125146556207088],["transmisi",-10.125451799560961],["aliado",-10.125598444378674],["gole",-10.125648556751017],["socios",-10.126910884426957],["Tal",-10.126988228350143],["presencial",-10.127020143961746],["raí",-10.127516671779315],["ganado",-10.127979450772383],["Tierra",-10.128368025906575],["Gabriel",-10.12837241861112],["Mucho",-10.128399460593466],["recién",-10.12848706594216],["cercana",-10.129635050067357],["visitar",-10.130452530646668],["ejecutivo",-10.130560722477934],["monto",-10.130873033141713],["capaz",-10.130982191608332],["PSO",-10.131353754710393],["Plaz",-10.131423903653598],["caer",-10.132576046085088],["Madur",-10.13263020172672],["campeonato",-10.133970194358685],["PC",-10.134446367257205],["alcanz",-10.134571967208725],["clima",-10.135903239922953],["recuerdo",-10.136120064872076],["Igual",-10.136703401940686],["Dos",-10.13752971109275],["cter",-10.137969973111037],["bió",-10.138048483603352],["mamá",-10.138268497448589],["lanzó",-10.13851469274324],["ún",-10.13953788164461],["promo",-10.139543482915382],["apunta",-10.141587616889975],["organizado",-10.14170779285346],["fotos",-10.142652513877001],["seguido",-10.142720781707236],["dor",-10.142749523034773],["individual",-10.142919676197597],["referente",-10.143476363202168],["ojos",-10.143526224151962],["vicepresidenta",-10.143949982706715],["consciente",-10.144015763740123],["permitir",-10.144190223499304],["tamaño",-10.144467384506296],["continuará",-10.144473058329243],["43",-10.147370679710447],["baño",-10.147723039747827],["Será",-10.148169055572021],["Rafael",-10.148687888123977],["Pese",-10.149189835089487],["mínima",-10.151806832838458],["Suprem",-10.151822289898686],["convenio",-10.151847834508503],["refuerzo",-10.151854738161814],["Enrique",-10.151959379698713],["avión",-10.152547749711259],["empieza",-10.152625311563135],["marcado",-10.152998227365305],["Senado",-10.156041320218735],["alcance",-10.159744168123964],["infantil",-10.15974675587938],["puente",-10.159770122086258],["mantenimiento",-10.159785174050533],["52",-10.160011116163435],["variante",-10.160136315958177],["ira",-10.160151108051021],["Mundo",-10.160213563713455],["obtuv",-10.161856881361427],["sabía",-10.162200945345052],["jo",-10.16321150374423],["evidencia",-10.164050393662988],["oro",-10.164736637439887],["llamar",-10.165227310119533],["añade",-10.16585210256832],["llena",-10.167659639202906],["fenómeno",-10.167743950229475],["definitiva",-10.167749780714658],["prioridad",-10.167757045159224],["aficionado",-10.167758077958489],["comportamiento",-10.167781816379867],["alegría",-10.16778378829631],["novedad",-10.167843002077024],["FC",-10.168123336021278],["tabilidad",-10.168646500157571],["pan",-10.168701631157301],["quis",-10.17040258538492],["cero",-10.170444571502422],["viola",-10.17046318807151],["escrito",-10.17076951254185],["150",-10.170791700322692],["marg",-10.170793023496465],["invita",-10.170908662735197],["ama",-10.173088151816689],["físico",-10.174427066347775],["colonia",-10.17464587595492],["sucedi",-10.174918658723609],["cuadro",-10.175445880024967],["insisti",-10.17551098872756],["ur",-10.1757948649837],["circunstancia",-10.175807387495944],["quizá",-10.175807911815536],["perspectiva",-10.175811040969464],["Agencia",-10.17581363910584],["vuelto",-10.176230569095319],["Trabajo",-10.177096376751994],["considerado",-10.177270779374972],["cerrado",-10.179137594208562],["je",-10.179144493286476],["dispuesto",-10.179245379969036],["Diputado",-10.179752536809286],["formar",-10.180326708323628],["supuesta",-10.181267168883862],["parcial",-10.183253430076883],["adecuada",-10.183665709807222],["Dominican",-10.183937528468359],["árbol",-10.183940970257233],["deportiva",-10.184209938863386],["particip",-10.185961352480723],["invitado",-10.18710108536868],["pelota",-10.187286049908064],["ter",-10.188361671126355],["aprob",-10.188453235346485],["Selección",-10.188484830317513],["Rica",-10.188867284043543],["industrial",-10.190147426174846],["aeropuerto",-10.190321922947316],["deseo",-10.190361698169319],["chica",-10.191522582614073],["show",-10.191695866062812],["rural",-10.19175720555869],["defini",-10.191789218928733],["sostenible",-10.191886655569252],["piensa",-10.19218675730589],["interesante",-10.192507387644582],["conversa",-10.192660711252518],["bar",-10.19280212710733],["800",-10.1931258098167],["acaba",-10.194153009510142],["Latina",-10.194528301997234],["evolu",-10.194655734799282],["identificar",-10.196212730461536],["inversion",-10.196864075892785],["49",-10.198117446698392],["solicit",-10.198426631323766],["Va",-10.199847802735766],["Man",-10.200275321209942],["lleno",-10.200285685109304],["américa",-10.200399287997598],["propósito",-10.20040089416193],["Regional",-10.200407523971716],["Isabel",-10.20041119370525],["Roja",-10.2004713430182],["Ricardo",-10.200563547793656],["simple",-10.20056978753805],["llevará",-10.201146957725314],["report",-10.201183080140776],["realizan",-10.201816679535554],["viven",-10.202563283882883],["esencial",-10.204146803392906],["signo",-10.204363833680512],["regular",-10.204689039330944],["termina",-10.20528163573481],["firme",-10.20625739963397],["plane",-10.207265296264517],["pudier",-10.207920668741224],["elegido",-10.208653911087328],["sospechoso",-10.208732414557549],["Gustav",-10.208744243755426],["automóvil",-10.208925769486509],["Sistema",-10.20893224455007],["debía",-10.209138585003641],["bebé",-10.20917674588593],["institucional",-10.209256138367355],["llamó",-10.211540005605642],["Sala",-10.21188423900864],["ejecu",-10.212213171228264],["moviliza",-10.212406795692749],["descuento",-10.212594221623402],["Junta",-10.212907611681132],["expresidente",-10.213770060873491],["Puede",-10.214436707388458],["mill",-10.216898734918129],["positiva",-10.216918602289992],["Ejército",-10.217135343573801],["ejército",-10.217135343574068],["cuota",-10.217141453811447],["increíble",-10.217165543807308],["cio",-10.217322025827041],["siga",-10.21745204340571],["conciencia",-10.21777462188424],["Inter",-10.219103613197259],["Petro",-10.219489961814588],["dejan",-10.21964179100814],["formato",-10.219797426129158],["fallo",-10.220068062645487],["198",-10.221827247411504],["Porque",-10.222766349990188],["homenaje",-10.223800510317526],["trat",-10.224250309401805],["argentina",-10.225748210466547],["reina",-10.226022694267144],["plato",-10.226320443006587],["pic",-10.22791161662349],["distribu",-10.230335015309347],["intendente",-10.230941675180258],["cam",-10.231111913517722],["brindar",-10.23205482205309],["57",-10.232633249467023],["analizar",-10.232917481916921],["tarifa",-10.233413858633702],["instalación",-10.233473994109865],["aprobació",-10.233825098380109],["honor",-10.234028477131517],["Zaragoza",-10.234108626860856],["específica",-10.234156940342865],["Facebook",-10.23415698476429],["voluntad",-10.234157015319239],["turístico",-10.234157483223218],["candidatura",-10.234373981222063],["integral",-10.234898990561625],["Blanca",-10.235395867441671],["cambi",-10.23594607903582],["Á",-10.236270305420426],["integra",-10.237097788698282],["gana",-10.23767189002228],["Rosari",-10.238948622268422],["fuga",-10.239180758512692],["decidido",-10.23929573969365],["MI",-10.23948700145823],["ambiental",-10.239840771690385],["senador",-10.2406773267721],["aument",-10.241016109479647],["Él",-10.242115891876926],["mecanismo",-10.242778347118533],["diaria",-10.242779916433022],["recibe",-10.243269881396582],["humana",-10.243606817040135],["of",-10.245733621334086],["Fundació",-10.247470657654086],["divisi",-10.247471444136929],["mala",-10.24788601438885],["interno",-10.248041341335602],["extra",-10.249808219022945],["cuestione",-10.250466881498824],["disco",-10.250517947426939],["protocolo",-10.251491041665538],["He",-10.25162941298338],["Aquí",-10.251785662285567],["im",-10.251787303285962],["Fin",-10.251809493237523],["frío",-10.251937618436418],["venir",-10.25204791281482],["Sí",-10.253915356600935],["produce",-10.254216637545117],["mirada",-10.254349646009253],["Nada",-10.254519777356656],["denunci",-10.255112163997413],["Canad",-10.255348246675883],["Po",-10.256203665908753],["infec",-10.25621590622995],["Rosa",-10.25655021727292],["Valle",-10.257025762513008],["Parque",-10.257529629202253],["estuvier",-10.257937308358274],["perfecta",-10.257960195005555],["Marco",-10.259315387092636],["che",-10.259938428527162],["garantía",-10.260245235693422],["ceremonia",-10.260250575232845],["bolsa",-10.260288043747344],["Monte",-10.261166739751246],["modifica",-10.26128366569052],["conoci",-10.261976595625343],["encontrado",-10.26200114322857],["Joe",-10.264741485833511],["aprender",-10.264839380019023],["recomenda",-10.265362830052906],["aprovechar",-10.267140294688001],["decena",-10.26719168248962],["escala",-10.267367081709397],["41",-10.267726061160484],["cocina",-10.267787606076535],["Vi",-10.268228857859185],["Kirchner",-10.269094808215012],["propietario",-10.26909691705081],["Comité",-10.269097075317443],["trayectoria",-10.26910274612054],["extremo",-10.269334752430884],["Red",-10.269803915684154],["exclusiva",-10.270152036259663],["índice",-10.270224867365066],["sencillo",-10.27032708977347],["resalt",-10.270897033129472],["considerar",-10.270938387770897],["fan",-10.271716073292449],["Era",-10.271856475629813],["Medio",-10.272013018073967],["preparado",-10.273377093371352],["reclamo",-10.273471417592702],["nació",-10.273708579975754],["interesado",-10.274131459342877],["feria",-10.274784555844395],["debut",-10.277013092827586],["aga",-10.27740642755084],["Iglesia",-10.278023331190514],["europea",-10.278023477496511],["Popular",-10.278023815630984],["Judicial",-10.27802488111208],["rostro",-10.278036680081401],["Haciend",-10.278237567012154],["negativa",-10.278288395443326],["soldado",-10.278747349462062],["luce",-10.280199571577008],["pregunt",-10.280301683422993],["Ro",-10.281880784352659],["58",-10.28190479400639],["Hemo",-10.282427241834947],["Col",-10.283601806278341],["acá",-10.28374680907614],["fu",-10.284502161107444],["contará",-10.28519046861567],["controlar",-10.285353369517486],["batería",-10.28712080120814],["interne",-10.287156107656951],["suman",-10.288813360599688],["impulsar",-10.289043428827835],["regla",-10.289290846386443],["establecido",-10.289299214016925],["toneladas",-10.289654406775195],["Ver",-10.28970511860765],["tomado",-10.290848946650925],["quedan",-10.290965405323954],["tropa",-10.291483472086428],["App",-10.291682264333259],["listo",-10.29237197807398],["encargado",-10.293783331793126],["votar",-10.294956089174114],["cri",-10.295199278600695],["alcohol",-10.296110035429209],["litro",-10.29613837414679],["leyes",-10.296143058583775],["inteligencia",-10.29653449321929],["excep",-10.296649567399587],["misiones",-10.298644508964397],["Cuál",-10.298723581169135],["Sol",-10.29917013688755],["ología",-10.301149339272513],["47",-10.301458651659829],["compañero",-10.30177062462733],["Primera",-10.301972355397396],["aprobado",-10.302239346775147],["aporta",-10.302366677589823],["aporte",-10.302568790216494],["responder",-10.30286458268343],["Mon",-10.304614154522266],["urbano",-10.304795605259736],["sentimiento",-10.304988151305155],["Asamblea",-10.305297559133106],["aniversario",-10.305297559216251],["climático",-10.305299039422692],["cartera",-10.305326107130922],["partida",-10.305372455868698],["relacionada",-10.305511339937485],["Juego",-10.306812573605242],["corta",-10.308030797485417],["Exteriores",-10.30877187603565],["condena",-10.308885328911302],["actos",-10.309406316112891],["multa",-10.311061052789572],["cuesta",-10.311189218994906],["energética",-10.314559098797563],["gratuita",-10.31456265172584],["analista",-10.314583585023833],["convierte",-10.314868788454726],["ahorro",-10.31501075537021],["postura",-10.315322567327128],["batalla",-10.31551937883866],["destinado",-10.316000308769816],["arse",-10.31697244868219],["comenzará",-10.317158797072867],["liga",-10.317564989662031],["decreto",-10.318173327091966],["empresarial",-10.318225503740166],["tercero",-10.319535365330161],["umó",-10.320617806805949],["igualdad",-10.321127196314237],["enviar",-10.321209598044671],["Marcel",-10.323036926309761],["constitucional",-10.323616067170885],["Victoria",-10.323907003358364],["llegan",-10.323935194197233],["Administra",-10.324006240444394],["diversidad",-10.324068268272294],["Dr",-10.324128166859872],["incluyen",-10.324221607539544],["Guerra",-10.324314045886076],["rio",-10.324633731609463],["descanso",-10.324644077097343],["volverá",-10.324780370394423],["Premio",-10.3254283843449],["mantuv",-10.325877592774596],["costa",-10.326373385290992],["juec",-10.326420578580649],["acercar",-10.331336496493098],["Unida",-10.331995163753083],["electrónico",-10.333336601905202],["famoso",-10.333352491691944],["fallecimiento",-10.333664268123764],["festival",-10.333700699827029],["habido",-10.333857668711566],["inicia",-10.334127824043437],["bienes",-10.334184705729228],["maestro",-10.33426529155275],["llevaba",-10.336160312491],["radio",-10.33746316041789],["firm",-10.33749485643941],["EU",-10.337642930214674],["Provincia",-10.338724903777251],["consigui",-10.338850377654552],["evalua",-10.33974491683837],["Mari",-10.34030902440569],["parecía",-10.340494297905979],["eléctrico",-10.340812569277281],["continu",-10.34114709394309],["definir",-10.341256407259227],["acabar",-10.341821142591556],["azul",-10.342614817462085],["básica",-10.342860506950997],["permiso",-10.342864302993403],["Ambo",-10.342866264566855],["Guti",-10.342933734396528],["inmueble",-10.342965727811261],["Jalisc",-10.343117303880717],["bombero",-10.343124418889058],["superficie",-10.343254086091616],["vender",-10.343580045837552],["Jim",-10.343730407755984],["rojo",-10.344282601755857],["ofreci",-10.344341750753312],["marcador",-10.344682680672845],["perfecto",-10.345327406616324],["sigui",-10.345374367456879],["detectar",-10.34595540507333],["TV",-10.345984775158435],["actuacion",-10.346841887347232],["militare",-10.34832634738467],["entregar",-10.349048165030528],["aparece",-10.351478581011232],["correcta",-10.352198718008053],["Nuestro",-10.352475771347377],["educativa",-10.352476098217178],["polémica",-10.352482373526906],["concurso",-10.354126701537963],["crecie",-10.355768571996833],["apareci",-10.355827030828632],["efectiva",-10.356614036768082],["Provincial",-10.356668644867952],["trasladar",-10.357459773103773],["sufrido",-10.358651125561217],["Be",-10.359585875841596],["modelos",-10.360156143746066],["fi",-10.361136817841086],["Atlético",-10.362184716724329],["energético",-10.36218648114203],["País",-10.362199145245155],["urgencia",-10.362217827357135],["electric",-10.36230754791965],["paquete",-10.362527873030759],["enfrentamiento",-10.362554619031787],["bio",-10.362780506362093],["Ingl",-10.363446772638913],["importan",-10.363994463901953],["recomienda",-10.364751517266052],["anunciar",-10.364914166418778],["aprovech",-10.365217737254095],["pos",-10.365509200819314],["eliminar",-10.365946349317234],["desconoce",-10.368524701052518],["preven",-10.369026098725282],["antiguo",-10.371988533424695],["Respect",-10.37198856892818],["cobertura",-10.371989696080064],["gasolina",-10.37198993179313],["Salvador",-10.37199533059947],["Eduard",-10.37202418253153],["modalidad",-10.372034545502402],["breve",-10.372049537672286],["entrenamiento",-10.372284510923478],["determinar",-10.373055434888453],["doctor",-10.373682273817177],["sucede",-10.374136280135072],["700",-10.375251250163771],["Boca",-10.376175958857349],["añadido",-10.37694507993648],["logía",-10.377655319233444],["pudiera",-10.37860007838615],["reforzar",-10.379047193970521],["hi",-10.379781291696007],["Car",-10.380566489912699],["Moreno",-10.381084488439484],["charla",-10.381760812442383],["Navarra",-10.381793392166875],["Guatemal",-10.381865861141897],["clásico",-10.381887212930774],["británico",-10.38188942091039],["criterio",-10.381890515503933],["Musk",-10.381906612577513],["ONU",-10.381951780069508],["Felip",-10.381984299440102],["prevenir",-10.382211744906035],["76",-10.383061143044268],["indicado",-10.3833431837943],["promover",-10.383478666229282],["sostiene",-10.383893773042843],["completar",-10.38438557476084],["sucedido",-10.385451388889528],["Jap",-10.386568305633023],["inscrip",-10.387293843430385],["residencia",-10.387648757284186],["reac",-10.387682575753717],["ganas",-10.387688848011035],["ki",-10.388743332544223],["conexi",-10.388838790626519],["66",-10.389678376083044],["celebr",-10.389723924925665],["medicamento",-10.391889466690795],["innova",-10.391932487310012],["diagnóstico",-10.392011312149364],["95",-10.39221032991381],["ogle",-10.392450717045504],["presidencia",-10.393658506482266],["Humano",-10.394050412631557],["lanzar",-10.395429034026563],["podi",-10.396349814361875],["posee",-10.396710188493383],["cubrir",-10.396913133921228],["regalo",-10.396968223317495],["incorpora",-10.39744057916873],["Rey",-10.397980498340466],["iones",-10.398669318994083],["68",-10.399261584432647],["54",-10.399624156259183],["etc",-10.400836177346775],["aseguran",-10.401065017591835],["preparar",-10.401574057568936],["semifinal",-10.401977044327246],["&",-10.401990428710707],["ausencia",-10.401991075044048],["cabe",-10.401997341296706],["limpieza",-10.402003462373369],["método",-10.402083502277128],["Deporte",-10.402122050684962],["Ciencia",-10.402464254946231],["ita",-10.40251122206546],["normativa",-10.403114921423647],["Investiga",-10.403375931437289],["vital",-10.403931564023285],["érre",-10.405616710076401],["aviso",-10.407219181314197],["aventura",-10.407343415103469],["contento",-10.408508224647539],["serio",-10.409916694600101],["estable",-10.409933436684312],["parecen",-10.411041517556983],["nez",-10.411200260583765],["aumenta",-10.412145011492598],["Tamaulipas",-10.412194510347092],["vínculo",-10.41236121735507],["relevante",-10.412495997480011],["creado",-10.412612579085105],["merece",-10.412786416124085],["misil",-10.41354537934516],["deten",-10.415712493516647],["vuelva",-10.41574103034091],["retirar",-10.415921622499742],["aclar",-10.416047573530022],["subraya",-10.416331311071767],["funda",-10.41774658312066],["Presidencia",-10.421239770594937],["capacita",-10.422024234579183],["ajuste",-10.422476152418952],["Posterior",-10.422503790062311],["teatro",-10.422515733836423],["caja",-10.422593415349422],["camioneta",-10.422606840613133],["negativo",-10.422623809995418],["brazo",-10.422634387312616],["Armada",-10.422782243024034],["blanca",-10.422957309800434],["revista",-10.423325582000414],["dispone",-10.423686532532617],["altas",-10.424055165452407],["solidar",-10.4247508010093],["pasará",-10.424931403092591],["octavo",-10.425093911783591],["hermana",-10.425604981367094],["limita",-10.426843823708207],["rescate",-10.428829958775284],["conjunta",-10.429282850265682],["competi",-10.429545233082667],["89",-10.429905343614866],["silencio",-10.430924413324528],["justa",-10.43145014172449],["espalda",-10.431628491470214],["conseguido",-10.432417233731666],["clínica",-10.432473416643568],["Sebasti",-10.43273488642222],["mostrado",-10.432860647036613],["preventiva",-10.43294521513815],["Guillerm",-10.432948253639783],["prima",-10.43307027277071],["rumbo",-10.433188433695761],["Bajo",-10.433692681823896],["verdadera",-10.434450778843402],["ça",-10.434510969633966],["hectáreas",-10.436406157335425],["87",-10.436517971959963],["Cor",-10.436639319084398],["recibirá",-10.436749626011775],["bal",-10.437125735536572],["brió",-10.437234345459611],["actualiza",-10.438417059566845],["Bi",-10.438892457663366],["intenta",-10.439047063416368],["paro",-10.439712539530447],["plantas",-10.440441573505893],["hí",-10.441752239034368],["Dij",-10.442079388551505],["indígena",-10.443446775373662],["fanático",-10.443450891049435],["Domingo",-10.44346008982211],["resistencia",-10.443724097563528],["dirigida",-10.443796166158727],["Fuente",-10.444131880230103],["Amazon",-10.444228018117599],["Mario",-10.444253191547176],["leer",-10.44437600898198],["Ministro",-10.445078262770085],["desaparecido",-10.446885682459296],["tranquil",-10.446956743971613],["renuncia",-10.447442957036593],["79",-10.447502828092155],["Mal",-10.447961675290907],["Appl",-10.448641504448208],["250",-10.449640372287917],["Tex",-10.449787515202104],["tú",-10.450714722387882],["preguntas",-10.450981294418456],["aceptar",-10.451205347315137],["declarado",-10.451435289621347],["avanza",-10.451665948901452],["sufrir",-10.451841360576067],["69",-10.452088180201514],["acudi",-10.453117467048687],["sorteo",-10.454088147668621],["Whats",-10.45409002764016],["cuánto",-10.45410169826572],["vulnerable",-10.454129336481206],["Andaluc",-10.454138986464608],["Panam",-10.454203789582916],["finalizar",-10.454359096005266],["Programa",-10.45460657545711],["moto",-10.454609366120332],["placa",-10.454691723222815],["lesionado",-10.454712993413292],["comer",-10.454776738863984],["aúl",-10.454943245374078],["egó",-10.455330419298402],["presentada",-10.455850226058814],["carne",-10.457702129779662],["fortalecer",-10.457887724063962],["secretaria",-10.458103225887893],["mando",-10.458532060560664],["implementa",-10.458752734816574],["apari",-10.458939300109183],["personalidad",-10.458998715351722],["facilitar",-10.459079528853124],["advierte",-10.459112502280556],["diputada",-10.460336925605557],["esquema",-10.46073326709611],["viral",-10.460986547809155],["narco",-10.463280051087823],["falla",-10.46478808221158],["ch",-10.464788820874988],["crecer",-10.465110484577302],["evidente",-10.46514457156882],["boca",-10.465167283424114],["urgente",-10.465167527629303],["nacido",-10.46525101782103],["Fondo",-10.465430297760715],["eros",-10.465449128362389],["vale",-10.465803011199966],["enviado",-10.46596898459477],["producir",-10.46630682774769],["Estatal",-10.46738675442403],["regresar",-10.468181472287064],["cuidar",-10.46848574010568],["Grande",-10.468919341248583],["Peña",-10.46910708177331],["mán",-10.469860864308416],["moral",-10.470192229909719],["racha",-10.470544627941836],["agradeci",-10.470972613065307],["ic",-10.471252386968247],["vial",-10.471720835717203],["delega",-10.474202682194562],["cumpli",-10.474418929096004],["delincuente",-10.47569492151899],["hallazgo",-10.475709916576715],["código",-10.475710848083697],["primaria",-10.475725658557668],["proveedor",-10.47572963876741],["Navidad",-10.475744187224974],["discapacidad",-10.475856300997911],["componente",-10.475906867239553],["autoriza",-10.475981649405652],["existencia",-10.476345575399748],["Debe",-10.476347331292125],["corresponde",-10.477351914925283],["cruce",-10.479525178742595],["eres",-10.479817261857093],["luchar",-10.480109207979744],["radical",-10.48021201436316],["audio",-10.480238928466472],["sexo",-10.481533547883783],["Pas",-10.48329052982324],["integr",-10.483292177557281],["Isla",-10.483617124426454],["abre",-10.483901687239975],["entiende",-10.48407211868598],["micro",-10.485332222672872],["hincha",-10.486097356443008],["brasileño",-10.486696333422229],["máquina",-10.486696801192334],["caliente",-10.486699212130919],["matrimonio",-10.486702334824402],["salarial",-10.486710003327964],["choque",-10.486713982884565],["incertidumbre",-10.486716935031327],["sindicato",-10.486748002007303],["Aragó",-10.486909813605596],["alcanza",-10.486970318463039],["INE",-10.487049814727287],["frase",-10.487991291692746],["Regi",-10.488396332099512],["pi",-10.488601229149278],["sesione",-10.488911111244015],["envió",-10.489191549648822],["habita",-10.49074252582376],["defensor",-10.491395856770279],["costos",-10.491707814876534],["IB",-10.492107444011296],["conversacion",-10.492500558922169],["mencionar",-10.492762018669367],["desarroll",-10.492800782147079],["tesis",-10.49303018067997],["habilidad",-10.493827852669938],["regres",-10.4947268200509],["interpreta",-10.49479792337931],["reconocer",-10.494894688826118],["Super",-10.494901678901332],["istas",-10.495301037431723],["Ma",-10.495479406636901],["conclusi",-10.495618496546678],["tono",-10.495702584595566],["kilo",-10.495726227801166],["explicar",-10.49594407038757],["FP",-10.496616671622931],["temor",-10.4966806543196],["utilizado",-10.496685342062179],["eta",-10.497377269432969],["mortal",-10.497527310150703],["útbol",-10.497617357536082],["presentará",-10.497813497783106],["piedra",-10.497817410093099],["Tanto",-10.497988502295273],["asever",-10.498442858755363],["New",-10.499259457681049],["descenso",-10.499575947468378],["sale",-10.501195900570426],["Carmen",-10.50123214460076],["pertenece",-10.501303462580761],["tuvi",-10.502393609285171],["acudir",-10.502917994019139],["junta",-10.503424008663547],["cas",-10.504773360693566],["coordina",-10.505001792462313],["fui",-10.506494674330696],["Baja",-10.50672926033306],["51",-10.507373452423831],["llegue",-10.508559633909773],["cumplimiento",-10.509028448818109],["incluida",-10.509043399616793],["bonaerense",-10.50904339964087],["camiseta",-10.509043430979393],["Municipio",-10.509043538048383],["Interior",-10.509043555349397],["inferior",-10.509055412937162],["plantilla",-10.509062747394815],["falsa",-10.509097836692032],["préstamo",-10.509110828533514],["individuo",-10.509111075388702],["Granada",-10.509277337881592],["informar",-10.509554102719795],["adecuado",-10.509570313816903],["independencia",-10.509576208215318],["exacta",-10.509591067735075],["foco",-10.509700904108307],["Castro",-10.509848279684448],["esquina",-10.510699491866205],["coali",-10.510732537109028],["extrema",-10.5107749489844],["seguida",-10.511335998365572],["solar",-10.511871960747438],["digo",-10.51232543474685],["sonido",-10.512917887431183],["embajador",-10.513767777545425],["dispar",-10.513961386871998],["aparente",-10.51440535869568],["documenta",-10.514739200280154],["denuncias",-10.515753735996917],["portal",-10.51613270021792],["argumento",-10.516298721138867],["Agreg",-10.516579096979886],["64",-10.517136041523596],["crítico",-10.517262375495543],["micron",-10.517768056506824],["levantar",-10.517879749014416],["cu",-10.518024508508157],["remarc",-10.518801869951172],["Tu",-10.519384397859419],["acompañar",-10.519716766792662],["influencia",-10.520040099819862],["cuestion",-10.520317329451842],["imos",-10.520357333046793],["estadística",-10.520407415493182],["mascarilla",-10.52040953112337],["antecedente",-10.520411399733424],["capítulo",-10.52041401766078],["déficit",-10.520417408836664],["cubano",-10.520422680747181],["test",-10.520431689412781],["profunda",-10.520450294226402],["Festival",-10.52050425943184],["árbitro",-10.520721633626668],["Bombero",-10.520858053041005],["Du",-10.520974925384515],["repara",-10.521020956882829],["trans",-10.521118426356114],["aterra",-10.522014660918071],["jugará",-10.522490242399247],["Luna",-10.523146655180152],["concejal",-10.526241081699139],["supera",-10.526724642600932],["RD",-10.526730819935874],["Mend",-10.527235440211069],["Debid",-10.527843777215683],["crítica",-10.529557972466645],["toca",-10.529655592075184],["estudiar",-10.52988247980947],["Aten",-10.530071547724674],["elimina",-10.530525722397865],["entreg",-10.531065051290012],["plantea",-10.531739641742538],["eficiente",-10.531813770433791],["Nuestra",-10.53190151264796],["FIFA",-10.531904285671889],["Señor",-10.531905005018908],["Nadi",-10.531955996085577],["traslado",-10.532375470888987],["Comercio",-10.532458923867022],["pol",-10.532723441454952],["volum",-10.532975364695304],["86",-10.53303233435261],["arís",-10.53328426764306],["elevado",-10.533312891913726],["dona",-10.534218770351343],["demostrar",-10.534394753136151],["adquirir",-10.534833093382645],["emocional",-10.535542201915408],["ampliar",-10.535870184523358],["captura",-10.536736316397928],["observar",-10.536920944185928],["revela",-10.537315797774747],["enfatiz",-10.537783076305457],["olonia",-10.538711099658485],["aje",-10.538808815923293],["colocar",-10.539239075693217],["Romer",-10.540046131479825],["guardia",-10.540925844596636],["rechazo",-10.54136115701272],["CO",-10.54260304710271],["Gar",-10.54303963003423],["parlamentario",-10.543319627559157],["territorial",-10.543482900262319],["ministerio",-10.543529273615658],["combatir",-10.543575686010858],["nacimiento",-10.543684531903729],["terror",-10.544330130888438],["Radio",-10.544581093487778],["baló",-10.544700150028426],["respaldo",-10.545104669931444],["Parlamento",-10.545211686886148],["inter",-10.545661898459835],["producido",-10.546072294314495],["consejero",-10.546083254855414],["acumula",-10.54643631390006],["aprobar",-10.546635633335637],["diga",-10.546659245816304],["afuera",-10.546668426335788],["asumir",-10.547158144966819],["78",-10.548284576966406],["bandera",-10.548637686330432],["dirigi",-10.549023143994651],["armado",-10.54973532716895],["socialista",-10.549873587352955],["peti",-10.550009334479569],["condenado",-10.550491571886745],["regula",-10.551601337393791],["illa",-10.551612782760412],["moda",-10.551643112706678],["culpa",-10.552500897885363],["reiter",-10.553750138169491],["Mucha",-10.553973944935946],["96",-10.553990016124434],["rama",-10.554457958826347],["confirma",-10.554911717966942],["61",-10.555248888096997],["Netflix",-10.555293902421445],["excelente",-10.555293904698207],["Colegio",-10.555294037920092],["músico",-10.555294666123334],["ambulancia",-10.555297732678355],["variedad",-10.55531625541961],["asesinado",-10.555367387555101],["liderazgo",-10.555414173423202],["Vox",-10.5554397312501],["lógica",-10.555977096945114],["alimentación",-10.557343429151029],["toque",-10.557402148695221],["resultar",-10.557610647052762],["presentan",-10.55792074656981],["Cambio",-10.559445081352482],["67",-10.560055677899093],["movil",-10.560369463000928],["acó",-10.560740758048397],["confes",-10.561549662252848],["chino",-10.561570285311433],["citado",-10.561913592965432],["qui",-10.563180161437476],["tura",-10.563420422960464],["calific",-10.565045060483797],["depende",-10.56549761623548],["tecnológica",-10.567200703401566],["gerente",-10.567222774514061],["terapia",-10.567259888781338],["activista",-10.567292020815048],["ciudadana",-10.567312286757062],["PRI",-10.567315255033892],["Caraca",-10.567374453294278],["leve",-10.567412254347516],["recinto",-10.567416968665672],["verdadero",-10.567618716478272],["amiga",-10.56762305580136],["Intern",-10.568150260950478],["emán",-10.568471656249589],["72",-10.56902057163923],["balance",-10.569322132538701],["roja",-10.57018658651651],["celebrará",-10.570341237779544],["mencionado",-10.570382190617776],["Transporte",-10.571705086331843],["Fren",-10.571754370342951],["Penal",-10.571961538947118],["plantel",-10.573438146762683],["vecina",-10.574201378202225],["cha",-10.574262697774234],["agrupa",-10.574466458479819],["venida",-10.574544685108696],["afi",-10.574546652955487],["Rico",-10.575346712016245],["permanece",-10.576396897174515],["tri",-10.578873801151822],["cerebro",-10.57924536574427],["bebida",-10.57927438677692],["Champions",-10.579276537833504],["chileno",-10.579666648623716],["asumi",-10.579684257959201],["pasan",-10.579804167465877],["trato",-10.5798166924661],["Australia",-10.580124607087992],["trataba",-10.580192942726871],["Punta",-10.58033695809306],["cumpla",-10.58098018108532],["cambiado",-10.581052326530102],["Barrio",-10.581191128162565],["acab",-10.581363197097389],["tabla",-10.581519007186667],["alicia",-10.581801573142979],["eléctricos",-10.581846778471862],["Canaria",-10.581852485237606],["Tres",-10.582306350299833],["Air",-10.583123511597341],["Sub",-10.583296339244441],["conducir",-10.583729106409562],["experto",-10.58378427559272],["consideran",-10.584134453247032],["socio",-10.584562169494433],["abri",-10.584822427812696],["amplio",-10.584860467501057],["financia",-10.585526722117734],["Han",-10.585679286331729],["eague",-10.586023901286843],["firmar",-10.586899387828286],["Or",-10.587056612198623],["adicional",-10.58725906694199],["eje",-10.587413978683898],["licencia",-10.587579913977425],["53",-10.58829658266022],["Record",-10.588921117219272],["Mo",-10.589334927741197],["Don",-10.58944816524372],["frica",-10.590616034014927],["mediado",-10.591222699624417],["contempla",-10.591330330147514],["graba",-10.591381025256222],["barco",-10.591387946222714],["occidental",-10.591441978342651],["cadáver",-10.591441982187757],["viejo",-10.591444955046224],["agresor",-10.591445175886841],["probabilidad",-10.591446253453018],["logro",-10.591448497351529],["maniobra",-10.591479595231885],["vigilancia",-10.591491114517192],["famosa",-10.591496728992816],["significativa",-10.591498252338425],["Vega",-10.591671649789731],["flujo",-10.591989856470832],["saludable",-10.592007176064707],["Bolivia",-10.592054253713751],["prevista",-10.592298221618007],["malo",-10.593156412593384],["nube",-10.593251144297394],["activo",-10.59330760637853],["salvar",-10.593656589470497],["provoca",-10.594719403338875],["garantiza",-10.595423217853053],["Corea",-10.595435259579151],["63",-10.597987792809166],["suceso",-10.598561487692756],["creen",-10.59873509573676],["rey",-10.599220913204332],["abandonar",-10.599817790650778],["extensi",-10.601904168936102],["asistir",-10.602012985693605],["escribir",-10.602507770667305],["seleccionado",-10.602792307963318],["logra",-10.603151692510266],["escritor",-10.603500109918231],["útil",-10.603501438013023],["lateral",-10.603613547044949],["papá",-10.603788594926101],["Israel",-10.60379002198603],["Museo",-10.603794271574714],["lamentable",-10.603836118332325],["renovación",-10.603906201738166],["cultivo",-10.603906825199257],["Claudi",-10.603950761797186],["representan",-10.604098472758643],["fruta",-10.604287193539662],["cambia",-10.604337608825478],["Quier",-10.604489453701417],["sueldo",-10.604935564049635],["venía",-10.605058115305734],["intercambio",-10.605135676690807],["Municipalidad",-10.605311453438468],["complica",-10.605359931854156],["plata",-10.605965204786347],["solicitado",-10.606157188541573],["revisar",-10.60665943685612],["afectar",-10.607053759719188],["nte",-10.607557166001309],["alcanzado",-10.6086348391611],["bordo",-10.609225874443842],["inunda",-10.60952774150295],["estándar",-10.610149734932694],["ponen",-10.61126631231773],["Cultural",-10.611847054954918],["74",-10.612542439888347],["oz",-10.612723017270064],["combina",-10.613056345979349],["copa",-10.614352605954167],["demostrado",-10.614363986398303],["matar",-10.615225518248963],["tradi",-10.615469118337668],["version",-10.615737434461183],["visible",-10.616078980056328],["Sus",-10.616092435124727],["tranquilo",-10.616202773091636],["comerciante",-10.616287979691794],["café",-10.616289714486868],["Nunc",-10.616296243111027],["expediente",-10.616307021566072],["corriente",-10.616322743633852],["alquiler",-10.61632919085445],["profundo",-10.616347306351496],["intensidad",-10.616388562878882],["Krem",-10.616473091994056],["pensamiento",-10.616506847280167],["violento",-10.616528374818847],["Londr",-10.616681403963506],["declarar",-10.616764844822878],["contamina",-10.617203233969242],["desaparici",-10.618787714075273],["hecha",-10.61906790267569],["inseguridad",-10.619628421784434],["coopera",-10.619646259400138],["enfoque",-10.619692193668275],["gar",-10.62018129826299],["berg",-10.620710718793239],["indicador",-10.620942021617143],["intensa",-10.621164574370493],["salido",-10.621167722553842],["impus",-10.621252658484348],["Fi",-10.621693530596295],["Mayor",-10.622187479414773],["conserva",-10.625337913055546],["fila",-10.625505701977826],["esposo",-10.625943013206086],["77",-10.6274304965198],["Martin",-10.627502577772752],["mira",-10.627640154336248],["talleres",-10.62804360271286],["comune",-10.628078320570737],["directivo",-10.6288195482438],["femenino",-10.628945885624745],["residuo",-10.628946222395651],["transferencia",-10.628946916699931],["62",-10.628968820836871],["Feria",-10.629024833468879],["vicepresidente",-10.629197160968834],["Guzm",-10.629263542180325],["bicicleta",-10.629274502530652],["promesa",-10.629335817418855],["abordar",-10.62951646780113],["registrada",-10.629928566273588],["expresar",-10.63039251470903],["73",-10.630749772010464],["hoja",-10.630824030724986],["marcar",-10.631333980442083],["'.",-10.631468068922203],["ecos",-10.632496487929313],["cerrada",-10.632694257358095],["mono",-10.633986565932785],["queja",-10.634127909664373],["odio",-10.635525403563754],["impulso",-10.636002332331639],["moneda",-10.636002868231031],["suspensi",-10.636462513416468],["cotiza",-10.638235511511311],["posicione",-10.639160446954827],["responde",-10.639218000707405],["val",-10.641549771815697],["disciplina",-10.641709384071214],["lectura",-10.641768567984139],["frecuencia",-10.641769945544086],["Feijóo",-10.641773612422039],["Gobernador",-10.64180665169814],["Semana",-10.641915185781723],["instrumento",-10.641946282395747],["Gerard",-10.641950561787368],["supermercado",-10.642180586081764],["recordado",-10.642252616907612],["humor",-10.642451998975478],["violenta",-10.642512271402346],["Lorenzo",-10.642660453245487],["sacado",-10.642916783038793],["imputado",-10.64390049100092],["techo",-10.644069092398453],["disputa",-10.644114409555408],["56",-10.644987714438997],["Palma",-10.645010649512482],["Fiscal",-10.646288536768552],["Mart",-10.647115647638973],["utilizan",-10.647538108196436],["admiti",-10.647808732638207],["avanzado",-10.648123542804955],["gama",-10.648627136943881],["adapta",-10.64920723790399],["universidad",-10.650573481188502],["ard",-10.65073928910454],["finaliz",-10.651253533001945],["lujo",-10.651873832020966],["relato",-10.652222533040044],["sabor",-10.652844846292037],["ofensiva",-10.654025874217682],["incidencia",-10.654496316931512],["circuito",-10.654694296951206],["inteligente",-10.654753413833165],["pierna",-10.654754215291542],["republicano",-10.654762371295547],["envío",-10.654807279313706],["civile",-10.654968612038314],["conducta",-10.65499037409875],["jugada",-10.655003177618525],["cena",-10.655706676695647],["mantendrá",-10.65600907542089],["guía",-10.656472727381892],["naciones",-10.656496686353567],["existente",-10.656749345080549],["Reye",-10.6572341151262],["rdene",-10.658533534426759],["obligado",-10.658958933879774],["siento",-10.659534973213956],["iban",-10.660812211730754],["concreta",-10.661087265210213],["Bo",-10.661117726364287],["mover",-10.661310121547915],["hogare",-10.662093647886474],["proyec",-10.662198138303786],["desarrollado",-10.663462402551492],["determina",-10.663956358035481],["alcaldesa",-10.664091316460887],["respetar",-10.664267788153786],["indicar",-10.665193148899041],["orgullo",-10.665261968519378],["tor",-10.665293016217754],["trabajado",-10.666431455211043],["ingres",-10.666462052316326],["ab",-10.666877558482746],["Medi",-10.667045757451609],["entregado",-10.667082028393272],["rechaz",-10.667092150669687],["éste",-10.667395675111301],["explosi",-10.667531476237636],["triste",-10.667672663761266],["Podem",-10.667852781446484],["cirugía",-10.66791130879821],["vestido",-10.66808304327945],["Vicent",-10.668143161207382],["enemigo",-10.66821890492925],["subsidio",-10.668306820945816],["reconocida",-10.669164984305878],["Mat",-10.669303077063681],["notó",-10.669435914399532],["bol",-10.669710551779325],["secreto",-10.670203391633468],["expus",-10.671495547050796],["ñez",-10.67248572961915],["visit",-10.6728430219535],["plante",-10.67835338145797],["provincias",-10.678762874779167],["Nació",-10.679985443965547],["ho",-10.681064279045245],["dinámica",-10.681167579722342],["venezolana",-10.681244639088018],["Guadalajara",-10.68124463949554],["tecnológico",-10.681245609564437],["consecutivo",-10.681246368514277],["patrimonio",-10.681248248457642],["pronóstico",-10.681253830922252],["Sociedad",-10.681254131601765],["antigua",-10.6812856913315],["testimonio",-10.681336408333241],["espacial",-10.681339715799783],["viviend",-10.681394515553059],["transi",-10.681405874391302],["quita",-10.681696125705349],["denunciar",-10.682158167241322],["fabrica",-10.682750791884345],["Lima",-10.682839961089002],["verá",-10.682956057186686],["Boric",-10.683080584819725],["River",-10.683432030526912],["pierde",-10.683560861921315],["libra",-10.683623885710801],["cometido",-10.68446893957423],["cumplido",-10.684740406498282],["Catalu",-10.68685675611722],["ordenó",-10.687132388515991],["pondrá",-10.689832023409798],["bloqueo",-10.689918995131062],["Quien",-10.68997177726309],["Sal",-10.690010044467392],["capit",-10.690228634717712],["Servicios",-10.690747987575172],["propone",-10.69185970255915],["pies",-10.692240694572094],["once",-10.692730633997733],["detalla",-10.69274067688631],["defendi",-10.693910606706897],["canciller",-10.694099845307447],["hici",-10.694169966239379],["ponga",-10.694405862829338],["recoge",-10.694488021467764],["quinto",-10.694683618366334],["periódico",-10.694758153989815],["Zelenski",-10.694758415251336],["Deportivo",-10.694760388191145],["Constitucional",-10.694764779084533],["gratuito",-10.694768754708697],["tragedia",-10.69477343519964],["sitúa",-10.694805267172766],["dictadura",-10.694826421604429],["Energía",-10.69487431419127],["detenida",-10.694929904911197],["ninguno",-10.694955097021364],["colega",-10.694968159077575],["espectacular",-10.695436857116675],["operador",-10.696056457245422],["Massa",-10.69605820748593],["realice",-10.696063160912004],["asociado",-10.696566776368265],["emiti",-10.696950019372693],["creciente",-10.697107795425548],["probar",-10.697850295118773],["comprometido",-10.698067138350718],["post",-10.69833557630471],["tán",-10.698535505306797],["Estadio",-10.699068706096945],["sustancia",-10.699393701106075],["usan",-10.699661087461674],["señalan",-10.699687215889334],["fo",-10.699985304317394],["cal",-10.700751284956873],["BA",-10.70134522352712],["explota",-10.702067003323993],["Ambient",-10.702401476997675],["98",-10.702485096770534],["reunir",-10.702644226943782],["compuesto",-10.704060108959688],["aportar",-10.7042008499279],["Campo",-10.704414718288515],["tar",-10.70482120849032],["Rodrig",-10.704853997145461],["fundador",-10.706330882898232],["Relacion",-10.707596001185026],["59",-10.708278204074354],["09",-10.708410324897887],["secundaria",-10.70845678268472],["idioma",-10.70846094938291],["Existe",-10.708462843747423],["semestre",-10.708464199394752],["encuentre",-10.708485269863713],["leyenda",-10.708512459434758],["contundente",-10.708548472372833],["numeroso",-10.70866083483184],["triple",-10.70886124082206],["medalla",-10.709079357998839],["cama",-10.709079819905856],["cuándo",-10.709445575124029],["trastorno",-10.709501188587879],["Ciudadano",-10.709824243645024],["especializado",-10.709979435694523],["Año",-10.70999798431685],["riesgos",-10.710799274291777],["Cés",-10.710813896313216],["zar",-10.710896924704365],["amistad",-10.711049207524256],["caus",-10.711357103951585],["afrontar",-10.711643039505995],["aña",-10.711721614079533],["Castill",-10.71200296129329],["Ari",-10.712020455945712],["dedica",-10.712767925160247],["aceite",-10.712872653012454],["asesor",-10.7129887334333],["VI",-10.71372155253616],["escuch",-10.7140131228713],["libera",-10.714866994635601],["reg",-10.71505388571142],["incorporar",-10.715225568737264],["grito",-10.715361445500605],["Ca",-10.715952274050435],["olvidar",-10.716567836506297],["masa",-10.716635188224128],["traer",-10.717074350646808],["ham",-10.717295940251688],["decidir",-10.717399317890889],["deje",-10.718308280769751],["ayud",-10.718347836961078],["cuadrado",-10.71855838091215],["favorable",-10.718835264086026],["ijo",-10.719746909505268],["Ki",-10.719921403693878],["120",-10.720821545933994],["quedará",-10.721548348096327],["ka",-10.721945272287625],["problemática",-10.72234567206267],["tiroteo",-10.722353199226674],["obtenido",-10.722456014161988],["Teatro",-10.722573955582318],["consenso",-10.722684690574212],["divisa",-10.722932343524523],["comunicó",-10.722968632688353],["basada",-10.723159760347315],["Caribe",-10.723774025537356],["publicidad",-10.724034173662158],["marido",-10.724063102195146],["organizar",-10.72495440881395],["destacan",-10.72496729938952],["soporte",-10.725090700455604],["III",-10.72534767622506],["97",-10.725487221721572],["dedicado",-10.726144883323325],["estableci",-10.72660438312148],["involucrado",-10.726755365730401],["certificado",-10.727269907431438],["aban",-10.727568458999745],["88",-10.727912878970583],["refleja",-10.728255064803651],["mentira",-10.7284872905656],["suyo",-10.728937505109574],["Tri",-10.729594769214833],["exigi",-10.72989981201751],["verse",-10.730534024411249],["Par",-10.731647774220086],["enfrentará",-10.731943516534939],["ilidad",-10.73282759359883],["form",-10.73303635526594],["paga",-10.733171964067104],["terminado",-10.735555710915994],["82",-10.735596360623365],["descarga",-10.735861281485013],["lengua",-10.73625153271312],["voce",-10.736268119054332],["Núñez",-10.73643022048623],["aprendizaje",-10.736430386235494],["Oscar",-10.7364779435093],["dominicano",-10.736667455537264],["Rui",-10.736780258958676],["iami",-10.736785996092017],["cumbre",-10.736793207596524],["Zona",-10.736872967774307],["ábam",-10.737029061447005],["bomba",-10.737232760675447],["correcto",-10.73736551739215],["organizada",-10.737806748131348],["ilusi",-10.737958583160177],["daba",-10.738045838188091],["plano",-10.738238946165003],["viajero",-10.738337393287587],["ung",-10.738497212980556],["generado",-10.738686531633284],["Hub",-10.738702521851595],["evita",-10.739643641886587],["City",-10.740389833702917],["Marian",-10.740428279379593],["Vial",-10.740784081216965],["decide",-10.742484173270316],["evaluar",-10.742485457839056],["apoya",-10.743180672458404],["Algo",-10.743442180781509],["irá",-10.743472890930022],["oza",-10.744389523489595],["gestionar",-10.744723268063685],["bono",-10.74620651350999],["Pueblo",-10.746676806574406],["EL",-10.747509079322363],["!”",-10.74776168017883],["conduc",-10.748011415980756],["demuestra",-10.748094479931812],["Occident",-10.748940488687214],["compartido",-10.749072109289196],["determinado",-10.750110168867343],["agrícola",-10.750715903566478],["continente",-10.75071597172767],["Portugal",-10.750716006626964],["aborto",-10.750717144365993],["autonomía",-10.750737937467823],["álbum",-10.750746480617675],["ecosistema",-10.750779222166582],["humanidad",-10.750785856360555],["artificial",-10.750818426324077],["funcionaria",-10.750822901453967],["opositor",-10.750854953732603],["venido",-10.750895209362657],["ganancia",-10.750932590830953],["elevada",-10.751121181517533],["mantenido",-10.751346273885208],["Bull",-10.751404617819896],["conectar",-10.751441583343086],["favorito",-10.751965207082526],["terrorista",-10.75218279067856],["Oaxa",-10.752530071352545],["equilibrio",-10.752573297081678],["dirigir",-10.75274956286588],["preso",-10.75352581200055],["circular",-10.753616170692997],["ctor",-10.754172893863075],["197",-10.754344394648538],["Com",-10.754374959898655],["relat",-10.754381512396016],["archivo",-10.754534016188762],["jugado",-10.754618474126575],["fiscalía",-10.754826963213809],["let",-10.755582674114422],["documental",-10.755598274402196],["superado",-10.756053535392251],["ésta",-10.757699615397645],["notable",-10.757726259740686],["emocion",-10.757829428847632],["descubrir",-10.75798096776979],["landa",-10.758288949807778],["brinda",-10.758346833338688],["escucha",-10.758417991485139],["registra",-10.758794699226716],["contado",-10.760526448419682],["cumpl",-10.76062161637082],["tiro",-10.760867837820722],["ber",-10.760939649349769],["ería",-10.761103515497997],["Agua",-10.76158570670069],["caro",-10.76167061752069],["º",-10.761797908080778],["usado",-10.762072318062508],["billete",-10.762772995434965],["criptomonedas",-10.763022474325311],["pudi",-10.763461805903399],["Arena",-10.763470284507532],["acus",-10.764728937466643],["escándalo",-10.76520865181717],["uanajuat",-10.765208718988173],["TikTok",-10.7652091190119],["fábrica",-10.765210088113736],["italiano",-10.765219112971106],["Marru",-10.765273017650483],["Juzgado",-10.765295840000622],["procedente",-10.76539249141113],["fabricante",-10.765593802707667],["pid",-10.765775769494567],["atractivo",-10.765867233069887],["denunciado",-10.766327394390949],["manejo",-10.76719184781241],["defendido",-10.767490493239121],["participan",-10.768234850664012],["Primero",-10.768703380828184],["Puebl",-10.769325289916035],["Jame",-10.769842329205636],["adicionales",-10.770286020379382],["vinculado",-10.771305459889874],["carbon",-10.772944673916433],["Flores",-10.772954309543964],["surgi",-10.77342462663384],["tradicionales",-10.773502120456566],["iz",-10.773806073904709],["Li",-10.774265776937494],["gusto",-10.774955673172238],["mini",-10.775066962536709],["elabora",-10.775356514131975],["arquero",-10.775915567649527],["To",-10.776036540957936],["doce",-10.776332030803962],["investigar",-10.776683295618938],["villa",-10.77680939199266],["pension",-10.777281950710082],["Víct",-10.777776224429985],["refiere",-10.778105531356383],["satisfac",-10.779654704291122],["universitario",-10.779914528879036],["científica",-10.779914533898548],["Oficina",-10.77991454764204],["gremio",-10.779914818538758],["Carolina",-10.779917285082673],["fraude",-10.779924535264147],["calendario",-10.780023817070088],["relativa",-10.780063254396811],["inversor",-10.780189774735273],["Nº",-10.780283015075526],["disputar",-10.780368156516321],["provocado",-10.780533879911687],["eventual",-10.780647827361662],["negra",-10.780651327311466],["08",-10.780705629607679],["Somo",-10.780881775482793],["vivía",-10.781108578627036],["ertamen",-10.781175757477433],["euro",-10.781182577615914],["Capital",-10.781302971371758],["videojuego",-10.781373468461657],["despacho",-10.781467033183414],["causar",-10.78196600470736],["caído",-10.782139289615518],["mu",-10.782185805422152],["nacionalidad",-10.783721377481836],["viva",-10.783752782441368],["Hug",-10.783936732970108],["levanta",-10.783948536822447],["espíritu",-10.784497753659156],["Director",-10.785133777501343],["elenco",-10.785881392396245],["Can",-10.785889293037663],["basado",-10.786193805960515],["lidera",-10.786555056284072],["Bal",-10.787232096215845],["rebote",-10.787490467612596],["guarda",-10.787945322571456],["coloca",-10.787995663105658],["disfruta",-10.78929532191053],["tocar",-10.789424397347403],["Divisi",-10.79067930866412],["acudier",-10.790915521809866],["sufre",-10.790979867262063],["basura",-10.791354937672331],["iza",-10.791631084139022],["inaugura",-10.792231316138292],["ancho",-10.792497183065757],["comparte",-10.792613300962191],["correr",-10.792860809437451],["eficiencia",-10.792881742571469],["Q",-10.793456780304474],["autónoma",-10.794484592273857],["plástico",-10.794803418660273],["masculino",-10.794839903277452],["Comunica",-10.79484014787505],["Universitario",-10.794841724536976],["Electoral",-10.794845441651004],["recalc",-10.794853237370987],["extraordinaria",-10.794855684837149],["falso",-10.794867253652423],["numerosa",-10.794912173176606],["Ayer",-10.795275506817699],["reúne",-10.79533844137849],["creer",-10.796431395891869],["Laur",-10.796464342177213],["MLO",-10.796958701547101],["intenso",-10.797105369924754],["ran",-10.797447097842792],["receta",-10.797571743356755],["Morale",-10.798369001133917],["invertir",-10.798409458275552],["multi",-10.798546806617487],["sospecha",-10.798750172792769],["desempeño",-10.799065956735115],["supo",-10.79954496302254],["presta",-10.800074677947846],["boleto",-10.800273733240711],["vivido",-10.800685275485957],["pacto",-10.800734891044343],["presentaba",-10.801007663509132],["Alon",-10.801303491525372],["consultar",-10.801770806820372],["imp",-10.801931461974842],["acumulado",-10.802181375957193],["reclama",-10.804113466732767],["sirvi",-10.806074034224155],["71",-10.806600005380368],["escase",-10.80677759244197],["precipita",-10.807153125546606],["sigu",-10.807262951529921],["crí",-10.807467285554981],["entra",-10.807496125160224],["prohibi",-10.807731926129549],["llegaba",-10.808274272832797],["vencer",-10.808346519505346],["viaj",-10.80842682013289],["And",-10.808513340058553],["papa",-10.808788268441928],["acepta",-10.808789679149104],["Especial",-10.8090315428014],["prometi",-10.809465561772882],["bonos",-10.80960229194419],["estreno",-10.809784519677073],["aéreo",-10.809938560372554],["´",-10.809945456307405],["académico",-10.809991417159093],["Distrito",-10.80999141957001],["siniestro",-10.809991452630191],["Superior",-10.8099916668152],["célula",-10.809991858404919],["belleza",-10.809993554744558],["Academia",-10.809995384124058],["exceso",-10.809999217791038],["Bogot",-10.8099994220518],["alimentaria",-10.810036182041317],["(…)",-10.810070784723148],["estré",-10.810112761620577],["reducido",-10.81028013448535],["Mál",-10.810403416713736],["Merced",-10.810416302720657],["OMS",-10.810418888539257],["Mercado",-10.811412228584512],["BC",-10.811750849236528],["descubierto",-10.811875798253467],["consigue",-10.811877195409117],["atacar",-10.812022353462432],["expuesto",-10.81229712580469],["botella",-10.81284510022277],["urbana",-10.813276561151131],["?”",-10.813958558853187],["Bien",-10.814203706589339],["iniciado",-10.81443252138571],["permitido",-10.814476586010777],["íba",-10.814499285911138],["rehabilita",-10.815909073242294],["otorga",-10.816196073070667],["creador",-10.816625760419281],["provocar",-10.81662718658973],["81",-10.8167053070603],["recuperado",-10.818469105333325],["Gali",-10.818569065188527],["retiro",-10.8188578506102],["tratado",-10.820733302605824],["Veracruz",-10.8207593358816],["esperado",-10.821499860433256],["incrementar",-10.821746478924823],["bajó",-10.82312615716148],["pico",-10.824022778771162],["Ber",-10.824510239320542],["Azul",-10.825274040717412],["quinta",-10.82537597618081],["Política",-10.82537624257712],["ingeniero",-10.825376658032518],["Seguro",-10.825378231644233],["pintura",-10.825387008363096],["Rural",-10.825394661242711],["Tucu",-10.825424679406819],["jurado",-10.82576248156925],["aspirante",-10.826047539384952],["manifestado",-10.826118620682468],["acompañamiento",-10.82627013662287],["futura",-10.82660172931056],["Latino",-10.826642737241054],["comprador",-10.827657460478955],["comprender",-10.827675449232729],["Alto",-10.828500849651695],["licita",-10.82861134144501],["medicina",-10.828837915037425],["Lion",-10.828928754798778],["agrega",-10.8289662645312],["crece",-10.829061428479442],["comprobar",-10.829568305122608],["tapa",-10.830503653607504],["peligroso",-10.830636184887762],["veía",-10.830864684975431],["mezcla",-10.831123776214797],["hablado",-10.831633229797166],["Roma",-10.831810075882672],["cura",-10.832315770395402],["€",-10.832358533707596],["ang",-10.832921184580236],["quitar",-10.833438077210687],["ayudará",-10.83387056455445],["candidata",-10.83457292141808],["tion",-10.83480471983509],["foro",-10.835076993687055],["sorprendi",-10.835084499613377],["competir",-10.835207507417728],["disputado",-10.835529142575886],["Casi",-10.835759777468166],["alarma",-10.836152929296727],["traje",-10.836222308422785],["Teng",-10.836222645473788],["dic",-10.836518608769913],["subi",-10.836993546577794],["corresponden",-10.837222548156578],["remate",-10.837956785326718],["pelo",-10.838042803549474],["importar",-10.83824382166528],["dur",-10.838448248953078],["rompi",-10.838791928402813],["AP",-10.839086237303789],["mina",-10.83977654348],["brote",-10.840790599741833],["lanzado",-10.840848410660731],["adquisi",-10.840997022134179],["izquierdo",-10.841001040853568],["estratégica",-10.841001043436801],["Profesional",-10.841001090418814],["específico",-10.84100110424599],["artística",-10.841002060044742],["vacío",-10.841002821153051],["Quién",-10.841003724537458],["refugiado",-10.84104302903228],["corredor",-10.841059639848677],["comisaría",-10.84107021794685],["Había",-10.841108865301646],["destinada",-10.841179800526856],["Camp",-10.841268372781828],["propuesto",-10.841409843596217],["defiende",-10.841431701899385],["expansión",-10.841477238939715],["tendr",-10.84204092328895],["Negro",-10.842123986371146],["colectiva",-10.842655900635767],["novela",-10.843221904739245],["convocado",-10.843296755789162],["top",-10.844592737697164],["disminu",-10.845103166047856],["fortaleci",-10.845923144480652],["menud",-10.845954847249377],["terminal",-10.846065699373572],["sindical",-10.846150698114645],["cor",-10.846399258313753],["parecido",-10.846773187601439],["escapar",-10.846805289128016],["cien",-10.846958799195278],["consiste",-10.847754126209118],["implementar",-10.848173618232845],["exige",-10.84817980977058],["romper",-10.84826652104956],["mantenga",-10.84873680600489],["manten",-10.848861107532997],["toc",-10.849324118727075],["risa",-10.849523881849755],["recibiero",-10.849658465969359],["ment",-10.849801605797202],["acos",-10.850091767961123],["land",-10.851893004178622],["particulares",-10.852847553925063],["Hé",-10.853651338132021],["descubri",-10.853881152853681],["OS",-10.854138185761428],["compras",-10.854614162293942],["recorrer",-10.854930771948435],["mer",-10.855861342694222],["astro",-10.856470761036753],["92",-10.856755930364375],["profundidad",-10.856874058632698],["Guerrero",-10.85687629629766],["ruptura",-10.856878325478396],["universo",-10.85687975046082],["infancia",-10.856880493217256],["Alfred",-10.85688859815803],["muchísimo",-10.856897363998687],["Control",-10.85714749005716],["masiva",-10.857213751426261],["posesi",-10.857579141523305],["duría",-10.857580807612],["museo",-10.857601680762683],["publicada",-10.858373598926004],["the",-10.859429177605307],["84",-10.859633730611538],["invit",-10.859764942954381],["apoy",-10.8599215634559],["ligera",-10.859954819706946],["anota",-10.860136317090205],["atentado",-10.86041792168882],["costado",-10.860423179892704],["aprobada",-10.86062047329116],["colaborador",-10.860773118858337],["sosteni",-10.861611988007983],["lanza",-10.86170140545321],["Oro",-10.861888738877543],["caminar",-10.862102745236438],["900",-10.862183781403779],["aclarar",-10.863095218104077],["concluir",-10.863309994310963],["contaba",-10.863981016977935],["publicar",-10.864041161993324],["dirige",-10.86417024009509],["aro",-10.865165531320583],["almacena",-10.865823985671586],["polvo",-10.867083541680842],["dejará",-10.867346172072859],["emoción",-10.869986305584888],["Digital",-10.87054687212862],["renta",-10.871148100006476],["sienta",-10.872471631710583],["mueve",-10.872659986563242],["fruto",-10.872877950317845],["juventud",-10.873003081633854],["ayuntamiento",-10.873003222539756],["Torneo",-10.87300404742464],["climática",-10.87300672781393],["precedente",-10.873008156034329],["causado",-10.87302908039435],["culpable",-10.873126586693564],["transparencia",-10.873143435043033],["especializada",-10.873157068351249],["Unite",-10.873473542517765],["Hondur",-10.873487948811754],["edil",-10.873645362817374],["saca",-10.873703033815525],["Cuenta",-10.873791011973537],["puntualiz",-10.874592952960818],["vocero",-10.875300322174347],["ventana",-10.875316522531065],["disputará",-10.875428566877666],["Flori",-10.875548491119936],["Marina",-10.876535451060612],["Asia",-10.876604110974732],["analiza",-10.876779820322518],["correo",-10.876939712572462],["ino",-10.877137381466987],["prenda",-10.87755867284789],["GT",-10.877716967172667],["acept",-10.878033550303293],["coordinador",-10.878269058653453],["2000",-10.878582327449042],["salvo",-10.878819790659264],["convivencia",-10.87887100413697],["LA",-10.880441046670356],["concretar",-10.88073831080274],["83",-10.881082327636477],["meti",-10.881512759204098],["fic",-10.881891736418766],["panor",-10.883553869161183],["solucionar",-10.88384357971632],["Mesa",-10.883906741621274],["saldo",-10.88401391385672],["sencilla",-10.884322592965116],["conforme",-10.886595501499896],["Jon",-10.886624135377533],["cariño",-10.886705272551005],["celebrado",-10.8873714301585],["incluir",-10.887785815253862],["More",-10.888338738001398],["francesa",-10.888842412731641],["diplomática",-10.889396523973499],["iglesia",-10.889396532584502],["Argentino",-10.889397293676627],["jurídico",-10.889397296317354],["motocicleta",-10.889405127268578],["riqueza",-10.889407002453861],["comité",-10.889408711280002],["mascota",-10.889411975343382],["teoría",-10.889439278247472],["iPhone",-10.889446953513957],["significativo",-10.88950244266123],["equipamiento",-10.889516618395849],["administrativa",-10.88958619096064],["Ourens",-10.88984594569343],["Valenciana",-10.890091665770292],["bombardeo",-10.89027701000056],["Rivera",-10.890857587793606],["leche",-10.8912230504149],["obvia",-10.891267331159451],["explican",-10.891283403077558],["predio",-10.891550520344953],["enseñanza",-10.891568447114512],["creció",-10.891755984103057],["manifestante",-10.892789690194157],["ección",-10.892904997102276],["conservador",-10.892926150754695],["Señal",-10.893451563116937],["viajaba",-10.894083204447092],["robar",-10.89411157044897],["encargada",-10.894185422750853],["enlace",-10.894609546418081],["imponer",-10.894938442559736],["gua",-10.895095241809528],["compart",-10.895290562379017],["veinte",-10.896007490168401],["pu",-10.898307195014464],["comuna",-10.898335507421884],["dominio",-10.898544836343733],["critic",-10.898743288212135],["chi",-10.898826661022916],["Local",-10.898847600824455],["mari",-10.899306621055523],["mirar",-10.899654699330455],["atendido",-10.899920791149361],["IA",-10.900456432554607],["cartel",-10.900744991015138],["ria",-10.900848520701128],["comenta",-10.901550834397636],["electo",-10.901857062539902],["India",-10.901896586677738],["Luc",-10.902245748549388],["custodia",-10.902519683461998],["asisti",-10.902552430707502],["it",-10.904158753800182],["operar",-10.904239740508952],["dependien",-10.904613678643246],["91",-10.904731750579217],["investigado",-10.905291693428932],["madera",-10.905338611176635],["eleva",-10.905716767127776],["Tele",-10.905864278026492],["potente",-10.905999922378921],["agricultor",-10.906063295357388],["diligencia",-10.90606365856897],["embarazo",-10.90606374083647],["piscina",-10.906070859845038],["Español",-10.906078636099867],["Orteg",-10.906089177692806],["acontecimiento",-10.90609123010157],["renovable",-10.906092174323451],["huelga",-10.906092814190949],["directiva",-10.906124782317619],["Herrera",-10.906126327884143],["emprendimiento",-10.906140477479989],["continuó",-10.906207115684944],["dormir",-10.906302791280577],["restante",-10.906449210990246],["Alguna",-10.90676662855285],["argument",-10.906963639673371],["Blanco",-10.907030092903906],["dulce",-10.907067511407924],["generan",-10.907158236500141],["variable",-10.907166388339277],["Muñ",-10.907275944705157],["CEO",-10.907534661189946],["cruzar",-10.907570670176415],["Europeo",-10.90762558922831],["querer",-10.907662358623597],["brecha",-10.907753556029393],["Obra",-10.907821688887845],["insumo",-10.908076529278715],["delegado",-10.909194567583446],["caracteriza",-10.909295744196811],["discrimina",-10.909673001604126],["huella",-10.910050680803842],["rente",-10.910212815153923],["ica",-10.910453544246153],["reportado",-10.910546504440028],["asalto",-10.910625227451153],["abandon",-10.91068019624142],["financiamiento",-10.91160848767569],["cable",-10.911653476303414],["CC",-10.913378833107483],["grati",-10.913653203064793],["Ban",-10.914499433040437],["MW",-10.914550644330173],["dej",-10.914712499728568],["ester",-10.915536471343103],["parada",-10.915637661435383],["brind",-10.915913758596389],["borde",-10.9166455303255],["umbre",-10.916852335915355],["Sabe",-10.91813086178551],["recib",-10.91831247681586],["Manch",-10.920111715541434],["motiva",-10.92060838818851],["Espera",-10.920873618219813],["tomada",-10.922105211683208],["mentó",-10.92233122996404],["democrática",-10.922956763044422],["aérea",-10.922965936606243],["voluntario",-10.922988531730637],["jurídica",-10.923012342615678],["humanitaria",-10.923012352056002],["nublado",-10.923016683771705],["sequía",-10.923019855269747],["Jujuy",-10.923025598549234],["Campeonato",-10.923040506909778],["vieja",-10.92304219429305],["sensible",-10.923058380296375],["masivo",-10.923098158393142],["núcleo",-10.923236603545273],["Ruta",-10.923252511408226],["acompañada",-10.923368420489705],["Macri",-10.923504729086897],["propias",-10.92376343116027],["aumentado",-10.925357103977111],["voca",-10.925786291759627],["participará",-10.927082694666069],["instalar",-10.927762735218565],["éndose",-10.928006142013217],["califica",-10.928328845283268],["alma",-10.9287989625171],["situado",-10.929342295358433],["Segund",-10.929545245144595],["persecu",-10.930204896637864],["recurrir",-10.930644684048985],["transacci",-10.930752353934121],["anteriormente",-10.93102580425841],["Ri",-10.931497946358807],["encanta",-10.933088793845243],["programado",-10.933158451467282],["china",-10.93414202399365],["cantar",-10.93493376532799],["pasaba",-10.935122086298078],["buscará",-10.935420907097178],["Sport",-10.935630591510037],["Orient",-10.935667719404883],["evilla",-10.93580060515746],["echar",-10.936095312988103],["Silva",-10.936612510803801],["BB",-10.936953681827603],["utiliz",-10.937004794171253],["ingresa",-10.93718710640421],["cancela",-10.937209852783642],["recuper",-10.937798181025864],["trabajadora",-10.938647318072386],["visual",-10.938684961432305],["abuelo",-10.940125169406977],["cinta",-10.940140345766316],["ª",-10.940253721816964],["Vladimir",-10.940253757591874],["compleja",-10.940253925372627],["Oficial",-10.940253942712165],["juvenil",-10.940254969918616],["acompaña",-10.940255380210807],["frecuente",-10.940256677054833],["columna",-10.940257415668277],["excusa",-10.940267828252814],["goleador",-10.94040524493914],["giro",-10.940468103466756],["temprano",-10.940545087337362],["tejido",-10.940614517886086],["constituye",-10.9406756259945],["PAN",-10.9410524489681],["orgulloso",-10.941200449490362],["sostener",-10.94167228626717],["capac",-10.941935343693837],["deterioro",-10.94204457364605],["mento",-10.942380238016575],["productivo",-10.942850789205744],["able",-10.943135908002922],["hor",-10.94349482397891],["autos",-10.94501139593206],["reaccion",-10.945202909550709],["frenar",-10.94544706369333],["seria",-10.94635781400761],["Pa",-10.946928505951249],["Virg",-10.94736235617997],["BI",-10.94738427176447],["ML",-10.947554085831568],["ónica",-10.94848751847267],["atleta",-10.94855700632104],["93",-10.948875905959463],["GP",-10.949407867034685],["migo",-10.949936505973351],["adaptar",-10.950013082394051],["Irá",-10.951288474829184],["mex",-10.951554414525738],["dispus",-10.9523095438282],["diseñado",-10.953316265790235],["azo",-10.953481170612154],["sugiere",-10.953981543905712],["acompañ",-10.954336416644328],["venció",-10.955494047899315],["Mayo",-10.955974636966126],["Univers",-10.956663028283263],["Libertad",-10.957216387666858],["instruc",-10.957653704727772],["democrático",-10.957745036902573],["bancaria",-10.957777614681738],["•",-10.957797581466087],["colombiana",-10.957797947951647],["Vázque",-10.957808125921423],["extraordinario",-10.957808617862781],["preliminar",-10.957809320200989],["intérprete",-10.957809635679741],["lenguaje",-10.957843616289574],["cercanía",-10.95785990431045],["orienta",-10.957905437245179],["espectador",-10.957994621621786],["propus",-10.958070902509892],["felicidad",-10.958206955799369],["concluye",-10.958408349213562],["Poco",-10.958440972235717],["hurac",-10.958557163897087],["avanzada",-10.958571923179086],["exitosa",-10.958684857132237],["repetir",-10.958847373924106],["taller",-10.959155277285412],["juzgado",-10.959470856522184],["adas",-10.959731288728104],["armada",-10.959799585165761],["Yu",-10.9599117348152],["expresado",-10.959985801673781],["puntual",-10.96024358316281],["Nicarag",-10.960245033592328],["festejo",-10.96065843450581],["Euro",-10.960685298166325],["disminuir",-10.960750052318593],["meter",-10.961790214129739],["Personal",-10.962734726790773],["aerolínea",-10.964005577296742],["corre",-10.96406350811418],["actu",-10.964094279522534],["explora",-10.96495478673974],["agradecido",-10.965065210186271],["sentenci",-10.966099157094607],["silla",-10.966807369826036],["Do",-10.968332208909448],["Cree",-10.968635446436817],["legado",-10.970768699293288],["Hid",-10.973180629847228],["funcionar",-10.97392827427327],["gestione",-10.974028601269463],["panel",-10.974733992000662],["demócrata",-10.975155699311522],["morir",-10.975577690841439],["estratégico",-10.975654724378336],["magistrado",-10.975654724382238],["Autónoma",-10.975654725700508],["magnitud",-10.97565474831815],["turística",-10.97565809419466],["Código",-10.975664903399993],["cubana",-10.97567683457967],["Donald",-10.97567698462684],["forestal",-10.975680960013264],["Médico",-10.975688143498367],["vigor",-10.975707872337667],["huevo",-10.975731273000168],["indican",-10.976203110152802],["ndroid",-10.976214068175278],["camione",-10.9762448560561],["anticip",-10.976303166931379],["volante",-10.976342054792216],["Olímpico",-10.976352799691595],["integrado",-10.976375481998065],["externo",-10.976584372727185],["Explic",-10.977047717409764],["barrera",-10.977559698844306],["convencido",-10.978408441478946],["gesto",-10.978560701146229],["asiento",-10.979014258322092],["ánimo",-10.979520778481483],["buscaba",-10.979880098804053],["manual",-10.979911552237326],["cobrar",-10.979920946667818],["Ó",-10.980042053044432],["elaborado",-10.980043493787402],["sepa",-10.980112657252414],["94",-10.981190358761422],["caballo",-10.981407775539875],["emitido",-10.981425638042126],["anotar",-10.981627251666477],["software",-10.982985588050177],["Mexican",-10.983309510418184],["derivado",-10.983432080300886],["cost",-10.985250536017503],["pelear",-10.985890347104904],["renovar",-10.985946332610649],["abajo",-10.986821615314572],["jubilado",-10.986877627163594],["05",-10.98819863701022],["sext",-10.9883520173806],["guardar",-10.989138902289818],["pasaje",-10.989275581098244],["06",-10.989681027500808],["ines",-10.990056256797036],["planifica",-10.990695539126463],["Iv",-10.991995240725561],["Agust",-10.99225750446882],["facilita",-10.993117000099225],["rutina",-10.993793488406697],["jefa",-10.993834087417541],["economista",-10.993836562639231],["Quizá",-10.993836967342311],["Black",-10.993841934438414],["Alianza",-10.993844293036611],["Área",-10.993853880360493],["Monterre",-10.993865697793726],["equivalente",-10.993868416566771],["fórmula",-10.993883256096275],["asesinada",-10.993907709081205],["reloj",-10.993939609524348],["ww",-10.99399045970227],["Goberna",-10.994193857072293],["complicada",-10.994287581712719],["entretenimiento",-10.994390707474572],["Arabia",-10.994540542692961],["ilumina",-10.994561978313616],["comenzado",-10.994844197537034],["Cháv",-10.995667282794905],["exhibi",-10.995813728324412],["Bolson",-10.996066832205047],["vol",-10.996107025372936],["secuestro",-10.996121663348807],["ormalidad",-10.99616642965017],["ford",-10.99625397746798],["absoluto",-10.996416694634451],["bancada",-10.996513272254369],["rebaja",-10.996763588213367],["flore",-10.997277804581886],["obligatorio",-10.997281313855774],["transformar",-10.997389146478454],["ocasion",-10.997681107151905],["Av",-10.998083548658412],["describi",-10.998958523920212],["ejecutar",-10.998992407317854],["gastr",-10.99929857456265],["Hotel",-10.999542956947984],["desarrolla",-10.999544137005381],["cursos",-11.000799635036447],["Play",-11.001460019289105],["arco",-11.002450809800068],["futbol",-11.002748575055586],["Chica",-11.00310421783159],["comodidad",-11.003275140402948],["alert",-11.003706531654693],["ofrecerá",-11.003775277166923],["Foto",-11.003788639939991],["atriz",-11.004065664720972],["pared",-11.004747015359078],["sinti",-11.004775196379958],["Ja",-11.005267776090069],["Sanidad",-11.005657678311316],["pensa",-11.00621299650004],["palo",-11.007867838611316],["amiento",-11.007982882466278],["pec",-11.008258079393586],["anuncia",-11.008505293094945],["Macro",-11.009022105768317],["GB",-11.009378243762946],["seguía",-11.010226511568028],["héroe",-11.012310156243778],["británica",-11.012355062910975],["YouTube",-11.012355095207042],["Alfons",-11.012356240057837],["monetaria",-11.012356802494438],["laboratorio",-11.0123569551401],["Reserva",-11.01235948796651],["automática",-11.01236282546025],["comunitario",-11.01236519330961],["perteneciente",-11.012367307827889],["beneficiario",-11.012404745242938],["Balear",-11.012412994449159],["Asunto",-11.01243324847149],["difus",-11.01274416024864],["exigencia",-11.012814296867514],["Historia",-11.012886102524472],["Libertador",-11.01298135361735],["bienvenida",-11.013061975498074],["hablan",-11.013100309991556],["compartida",-11.013113636593214],["dedicada",-11.013149915237035],["temprana",-11.013194681724347],["unta",-11.013340620056205],["extranjera",-11.013727147112707],["cuadra",-11.013861077931297],["kovic",-11.014124373423114],["inmedia",-11.01426848681282],["poli",-11.014544497067703],["Verde",-11.014967291350894],["necesitaba",-11.015507696598114],["comentado",-11.016016953357287],["ño",-11.01616989269623],["tro",-11.016961161632747],["gigante",-11.017341098107742],["DE",-11.01810170543849],["comisiones",-11.018127638985979],["preocupado",-11.018539837499596],["manejar",-11.018540605001204],["ascenso",-11.018569925543968],["PRO",-11.019660928380604],["fija",-11.019692986162699],["tercio",-11.020254345742329],["Patrici",-11.020500217689374],["murier",-11.020684648183284],["estimado",-11.020691766666715],["optar",-11.021059713349091],["ocupar",-11.022017626949548],["Estaba",-11.022226559819902],["comunicar",-11.022766688489344],["tramita",-11.022834462382997],["sumado",-11.023017831871591],["destruc",-11.02348413893784],["jueza",-11.023572696211577],["Industria",-11.023775204392438],["Forma",-11.023906210503599],["nave",-11.024245224988324],["Gu",-11.024332199810154],["Star",-11.024478736226506],["Federic",-11.02634968211169],["cierra",-11.027262323047857],["Soy",-11.027360845612417],["recauda",-11.029374080056312],["moción",-11.029652569848123],["contiene",-11.03005106528857],["bús",-11.030648684147176],["separado",-11.030882797191978],["patria",-11.030883327527189],["mapa",-11.030975592383871],["helicóptero",-11.03122298555187],["amistoso",-11.031223020658103],["Generalitat",-11.03122316417098],["atraviesa",-11.031223309588434],["Emergencia",-11.031223695793708],["certeza",-11.03122604430673],["Añadi",-11.031228691879365],["porteño",-11.031231486378271],["vestuario",-11.031232317340391],["reemplazado",-11.031250263972272],["gnacio",-11.031257947986127],["legislativa",-11.031261322050506],["rector",-11.031340219151256],["poderoso",-11.031376157439837],["beca",-11.031754554104161],["demostr",-11.032877322027751],["atacado",-11.033177605555098],["Xi",-11.033199926168399],["ènci",-11.033401189962397],["Park",-11.033482600967481],["débil",-11.03403857993076],["retorno",-11.034300294405888],["calificado",-11.034492894387428],["dije",-11.034612201957533],["destacada",-11.035044343842596],["maí",-11.035145421309924],["amparo",-11.035340012759736],["bosque",-11.035939977115815],["integrar",-11.036366938806758],["gustar",-11.036460124097747],["Rom",-11.036617389689921],["estrecha",-11.036840433144],["aves",-11.03696762754323],["sigla",-11.03710635280482],["escaño",-11.037135138589324],["estructural",-11.03735985158665],["amante",-11.037455034730657],["finaliza",-11.037605111884176],["tuv",-11.03844848433487],["sombra",-11.039412837544813],["if",-11.039492646440403],["ruido",-11.039501503814218],["mont",-11.04075045684861],["migra",-11.040757437127278],["coca",-11.041251564323652],["patrulla",-11.04194792743405],["alcaldía",-11.043083546138618],["estancia",-11.043156173563622],["importe",-11.04369842403333],["Ben",-11.044015917970805],["itas",-11.044495697220622],["retir",-11.044700659712452],["igencia",-11.045221011909675],["quedaba",-11.046457269697395],["punta",-11.048139007444833],["precau",-11.049376181691665],["film",-11.04956910854484],["q",-11.049671335841238],["temática",-11.04967990472846],["explicación",-11.049811587895665],["implicado",-11.050064716302963],["Smi",-11.05023309555105],["irregular",-11.050385070444039],["trayecto",-11.050436579670729],["hábito",-11.050453756505856],["ingrediente",-11.05045378755308],["peruano",-11.050454248668794],["Secretario",-11.05045527686373],["Movimiento",-11.050565729613325],["Proyecto",-11.050570116585938],["Pilar",-11.050585986205402],["pool",-11.050601284506449],["carro",-11.05070106390372],["dieta",-11.050709055993297],["atiende",-11.050736322268868],["Ze",-11.050749313569016],["apartado",-11.050765945639537],["Leonard",-11.050800336802167],["localizar",-11.050834935387222],["amarillo",-11.051016224524602],["atacante",-11.051028400764599],["pensado",-11.051067499361178],["otable",-11.051249714101502],["patio",-11.051366405789487],["impresionante",-11.051447210846357],["humo",-11.051564240933189],["Press",-11.051654559621765],["fomentar",-11.05191445768541],["tas",-11.052045808960822],["cómodo",-11.052615566024723],["saldrá",-11.052852451421932],["niega",-11.053194153376976],["embarca",-11.053358863609308],["desfile",-11.053710289298314],["Franco",-11.053833601175413],["toman",-11.053905086511147],["agregado",-11.054184692903727],["Vél",-11.054362503800817],["iruela",-11.054466021072518],["escuchado",-11.05453778457911],["Claro",-11.054571536580333],["contribuir",-11.05478790606794],["Mac",-11.054978359108762],["legisla",-11.055138449981946],["condado",-11.055240116172262],["Orti",-11.0554791675694],["NI",-11.055661934665604],["esper",-11.056299674666246],["rango",-11.056401288487834],["sibilidad",-11.05664021506022],["votante",-11.056987304495703],["Vera",-11.057339600075657],["Mejor",-11.057417543351534],["desigualdad",-11.057732762642388],["configura",-11.05788613378093],["proporcionar",-11.057895966230467],["incluy",-11.058513833772462],["extraña",-11.058776050250854],["acordar",-11.058983426394683],["levant",-11.060769079052124],["afectan",-11.061017306839982],["compensa",-11.06137397355356],["inas",-11.0621418852818],["Precisa",-11.062150715778941],["suba",-11.062350771259226],["Cal",-11.063834120089219],["Sandr",-11.064128894722222],["Hora",-11.064387511701725],["Lara",-11.064495314972804],["considerando",-11.064596471125544],["estuviera",-11.064754621385472],["negar",-11.066657850136137],["arranc",-11.068527598184625],["for",-11.068641156455154],["productiva",-11.068643962606656],["Max",-11.068874765339437],["autónomo",-11.069141472181006],["registran",-11.069196105501335],["onomía",-11.06944865207532],["congresista",-11.069789418378097],["abinete",-11.06996271390551],["iraní",-11.070045221091862],["referido",-11.07005103704356],["académica",-11.07006159791998],["pulgadas",-11.070061600089664],["Facultad",-11.070061600277118],["delictivo",-11.070062469863505],["cintur",-11.070072373331456],["Representante",-11.070083411350529],["Patria",-11.070085946543248],["módulo",-11.070089713937287],["Ciudadana",-11.07011046653405],["interanual",-11.07016744990515],["pesa",-11.070579899391317],["fortuna",-11.070661050104297],["escalada",-11.071053754743218],["Estudiante",-11.071210398937085],["empat",-11.07135947902327],["negociar",-11.071402019472679],["nieve",-11.072058673028938],["Camino",-11.072269507651857],["pyme",-11.072713141870935],["valenciano",-11.072836341948776],["desarrollando",-11.073609006468434],["huan",-11.074087647702477],["llave",-11.074324582947257],["canta",-11.075988455584605],["designa",-11.07600862804864],["ger",-11.076301757089796],["rumore",-11.076910817192484],["Arte",-11.078063968473632],["fijo",-11.078289927117362],["chef",-11.078415117144477],["especialidad",-11.07924312744934],["Ser",-11.079625099241625],["oral",-11.079731669861136],["colore",-11.080266587479745],["limitado",-11.080411400809172],["coincidi",-11.081571542040322],["varado",-11.082266424852467],["Pen",-11.082405585997375],["tacó",-11.08256176144624],["sentar",-11.082820044893014],["Cár",-11.084259089636582],["determinada",-11.084546378415299],["utilizada",-11.08463986146717],["data",-11.084894888135105],["maestra",-11.085044766316352],["cordó",-11.08551979405139],["finalidad",-11.08583526256178],["cruz",-11.085966348159484],["Sams",-11.086038515363771],["gris",-11.086459566675547],["fría",-11.086681974144927],["mand",-11.08708992599053],["decirle",-11.087370146278937],["revoluci",-11.087603436726768],["hinc",-11.087808373463096],["clar",-11.08802970755863],["Gesti",-11.088695333889234],["apié",-11.088786879304381],["desarrollará",-11.089404192354001],["esperada",-11.08962099859075],["compatible",-11.089745726990426],["2007",-11.089949653433536],["naranja",-11.08999341038129],["gubernamental",-11.090061597920167],["Chihuahua",-11.090061597965207],["ejemplar",-11.090061598037536],["artístico",-11.090062056500926],["Disney",-11.090062462465475],["pertenencia",-11.090083722934377],["aislamiento",-11.090091790625259],["Trabajador",-11.090099582123326],["facilidad",-11.090109308449437],["Jaime",-11.09013494198283],["Micro",-11.09014155944846],["Presupuesto",-11.090236587295152],["telefónica",-11.090295092045027],["retirada",-11.090334133072318],["cortes",-11.090443941922112],["irregularidad",-11.090725368268878],["interesada",-11.090735275914895],["Van",-11.091078342750452],["montaña",-11.092139974159387],["gimnasio",-11.09232927162334],["field",-11.09243114234674],["arresto",-11.092445118148431],["actúa",-11.092686831344977],["sometido",-11.092795041863143],["disparar",-11.092827441547367],["paseo",-11.092863836276907],["ocupado",-11.092917894923655],["Aguilar",-11.093516455511644],["avione",-11.093655813817309],["favorita",-11.093761447189543],["difundido",-11.093986122194323],["bus",-11.094708675355104],["pareci",-11.094724315811638],["apuntado",-11.094796001079304],["buque",-11.094980709100229],["asesino",-11.095228541604262],["cobro",-11.095258760429767],["servir",-11.09621738169542],["sentado",-11.097174944528385],["interac",-11.09728150459293],["Alex",-11.097706011087464],["Joaqu",-11.098001775691348],["reportar",-11.098051660373375],["rico",-11.098486236710135],["ardín",-11.099176085337703],["01",-11.099272961716164],["CV",-11.101923545588589],["otorg",-11.10248252801039],["observ",-11.102591585370558],["reces",-11.10342357715862],["preguntar",-11.103886486953016],["Persona",-11.104954602627593],["elli",-11.105350484558345],["Muy",-11.105402495597549],["alia",-11.106056504310754],["Aguas",-11.106239696949709],["Alic",-11.106721331719342],["anima",-11.106931457502364],["identificación",-11.107024720405585],["vivencia",-11.10710192068175],["corri",-11.107234045405132],["inst",-11.107558589128615],["Tan",-11.10773003221048],["iro",-11.10913085155107],["traslad",-11.10992150321674],["accesible",-11.110148231562496],["salga",-11.110452070142625],["privilegio",-11.110469761187424],["uruguayo",-11.110469761192466],["imprescindible",-11.110469762597],["bolsillo",-11.110471584114238],["Global",-11.110471945282772],["catálogo",-11.110474135985669],["Taiw",-11.110479427856841],["molestia",-11.110479729000566],["Jefe",-11.11049323754666],["arrestado",-11.110494144358913],["rubro",-11.110495297736588],["vehicular",-11.110496637435835],["Autoridad",-11.110513398325677],["broma",-11.110526137807515],["asciende",-11.110604617351717],["pon",-11.11068521656847],["excepcional",-11.11071059922035],["arranque",-11.110722768388019],["identificada",-11.110841460310356],["militante",-11.110871176700318],["Michael",-11.11128021831778],["azar",-11.111488274511064],["refugio",-11.111523529077125],["cubierta",-11.111572058656039],["var",-11.111937420940679],["dign",-11.112234958353415],["extraño",-11.112331244323538],["Cort",-11.112559764942889],["retraso",-11.112791651876888],["gala",-11.113123694067859],["confía",-11.113331654826162],["hallado",-11.113379503610185],["barra",-11.113631437832197],["acta",-11.113813721259904],["suicidio",-11.11430655895259],["gest",-11.11511170935102],["esencia",-11.115318123174164],["cosecha",-11.116334605235544],["procedi",-11.116349076133156],["centra",-11.11642208059081],["complet",-11.117302662927965],["ED",-11.117651482713267],["Conven",-11.118054038692891],["financiar",-11.118177249455535],["vincula",-11.11830316171887],["lector",-11.118642058267714],["Ferrar",-11.118649351802121],["rescatar",-11.118916971849853],["apela",-11.119332710896566],["110",-11.119966559518089],["iedad",-11.120403673432914],["asesora",-11.12200316266611],["certifica",-11.122145835868777],["interpretar",-11.12238910195294],["Alta",-11.122678603322107],["rock",-11.123099233446538],["imón",-11.123278419817789],["natal",-11.123918401680273],["Padre",-11.123946147083531],["tur",-11.125559933165732],["ocio",-11.126070049958784],["novia",-11.126544123926179],["tación",-11.126752380204566],["vend",-11.127126421365645],["denominado",-11.12721024819592],["reactiva",-11.127637930295924],["Ir",-11.129077115970874],["avanz",-11.129345036965715],["rodilla",-11.129800156830271],["señora",-11.129826790768666],["gastar",-11.130238219107309],["exigir",-11.130746624473717],["llamas",-11.131046910189593],["conmemora",-11.131058941816285],["despliegue",-11.131303094958561],["Mbapp",-11.131303238630455],["consecutiva",-11.131306067132858],["legislativo",-11.131326363548117],["Abina",-11.13133072189095],["originario",-11.13133424552479],["Puente",-11.131339077234822],["abogada",-11.131371576363854],["Usted",-11.131389511952248],["soft",-11.131420809088342],["retomar",-11.131560234906512],["prestar",-11.131721327111572],["jubila",-11.131829267233131],["cuello",-11.132230373849792],["enfermo",-11.132395720569598],["paralelo",-11.132520644212958],["mon",-11.13316527483855],["representar",-11.133464280446614],["subsecretario",-11.133725143580039],["moderno",-11.1340196624692],["considerada",-11.134101699675874],["suspendido",-11.134113995486512],["deceso",-11.13439032237015],["unir",-11.134505384449353],["lazo",-11.134730151162927],["acerc",-11.135333235414997],["sostenido",-11.136472065901598],["ingresado",-11.137469570126264],["exista",-11.138633249469667],["letra",-11.139610908755607],["bloquear",-11.140299091309423],["sta",-11.141269853725802],["composi",-11.142076053836625],["atento",-11.142184708085669],["hospitalizado",-11.142293140557472],["Contr",-11.143023233584103],["baile",-11.143102997595909],["corpora",-11.143420324501227],["dichos",-11.143557575778166],["lix",-11.144607419406995],["à",-11.145019247053472],["Flor",-11.14532510756958],["iana",-11.146374161888716],["compañera",-11.14667623350116],["alega",-11.146750267904059],["permanecerá",-11.147328712061636],["Calv",-11.14766602552482],["cuidados",-11.147701052523017],["Dep",-11.148210364998969],["vot",-11.148784623135775],["agradable",-11.148973535918019],["Habr",-11.150179919134828],["ko",-11.150307523490428],["etti",-11.15069371677499],["haría",-11.151330505260475],["tira",-11.151425798994552],["130",-11.151758886183027],["embarazada",-11.152579691141801],["Económico",-11.152579691581254],["israelí",-11.152579694488125],["auxiliar",-11.152579697569593],["ingeniería",-11.15257969776427],["símbolo",-11.152579783259878],["auxilio",-11.152580512599771],["valioso",-11.152582124789546],["canadiense",-11.152588519549592],["feminista",-11.152590817019759],["paisaje",-11.152592631075361],["Cualquier",-11.152611352030076],["alojamiento",-11.152613239106408],["rentabilidad",-11.152742473254111],["Eugeni",-11.152753241695272],["administrativo",-11.152756068789156],["inconveniente",-11.152781026640689],["impide",-11.152870449378012],["trasladada",-11.152901128144974],["impulsada",-11.152969977400272],["detec",-11.153200640710459],["gobernante",-11.153218169803296],["obtiene",-11.153220285146087],["zco",-11.153331560873223],["accedi",-11.153523732381824],["veterano",-11.153616907293166],["evit",-11.153662888186574],["especula",-11.153703482786783],["grasa",-11.154268685038264],["desat",-11.154520796492813],["pierda",-11.154644435763725],["reglamento",-11.15466511901317],["tom",-11.154803249339444],["DC",-11.154879543552752],["experimentado",-11.155048616060558],["franquicia",-11.155259906062103],["botó",-11.15560458669466],["barril",-11.156200467723233],["olívar",-11.156856106755175],["insiste",-11.157037184407411],["vendido",-11.157137909924467],["acostumbrado",-11.157187128855615],["subido",-11.157246946931979],["dict",-11.157312222735833],["antander",-11.157600235038032],["uperó",-11.157733128172707],["cotidiana",-11.157938378192897],["Caja",-11.1584067082773],["Campeon",-11.158645376944612],["tenista",-11.158727722513067],["consultado",-11.15882786436165],["Juventud",-11.159508888901797],["reaccionar",-11.160214982048698],["semi",-11.161042396166815],["corporal",-11.161629163631353],["represent",-11.16242733388948],["costas",-11.162584292052607],["alumna",-11.162842697293822],["transmitir",-11.162870832892358],["carril",-11.163644228125037],["Indic",-11.163781602741254],["XXI",-11.164001877001693],["anda",-11.164069757337593],["pensaba",-11.164349873883001],["comunal",-11.165039764306282],["Canal",-11.165107552018503],["Belgra",-11.165262048257413],["iniciará",-11.165714637418215],["previ",-11.166066007164092],["obten",-11.166081516383148],["censo",-11.166495412009205],["bajada",-11.166805138799493],["tomaron",-11.167363766001056],["maneja",-11.167948526487875],["Ac",-11.168411370117823],["monte",-11.16865503421326],["reflexi",-11.168659788168611],["diente",-11.168734970496127],["Sara",-11.169580639567734],["tividad",-11.169719605399099],["Pu",-11.170422938813328],["Michoac",-11.170639882341312],["Ch",-11.170708091592648],["Mas",-11.170813393947995],["recoger",-11.171004986762398],["resolvi",-11.1712852999016],["Jo",-11.171507652290202],["enfrentan",-11.1716636316736],["contribuye",-11.171921814418862],["deber",-11.173220333368505],["vendedor",-11.174093143455668],["crónica",-11.174193761516346],["millonario",-11.17430593336902],["universitaria",-11.174318820698197],["pertinente",-11.174318821394031],["soberanía",-11.174318823130319],["cálculo",-11.17431883148234],["italiana",-11.174319226289272],["virtud",-11.174324642088301],["religiosa",-11.174326114082154],["mercancía",-11.174330276199063],["acordado",-11.17434561828773],["ador",-11.174388358077067],["Independiente",-11.1743949259683],["Shak",-11.174449357491795],["crecido",-11.174567955079521],["barato",-11.17463433836829],["advertencia",-11.174674316951423],["nómina",-11.174685708330484],["agradecimiento",-11.174875340885103],["incumplimiento",-11.174954019838577],["nsk",-11.175121844028682],["mencionada",-11.175194053933396],["donado",-11.175207556868628],["terrestre",-11.17524395409901],["descubrimiento",-11.175256071423583],["landi",-11.17538781717452],["Misione",-11.17539182806056],["criticado",-11.175537344836522],["ox",-11.175623712878785],["Gonzal",-11.175640053577224],["NASA",-11.175733703335396],["Bravo",-11.175752359420821],["comercializa",-11.175762698002492],["gradual",-11.175986136263925],["fracaso",-11.176823706267202],["Rock",-11.176846906164696],["bala",-11.176957036882245],["plantear",-11.17741457289441],["ubic",-11.17742641645696],["modificar",-11.177657693777153],["patronal",-11.177679916672032],["copia",-11.177703988934589],["ejercer",-11.17779791575499],["izo",-11.178060233378273],["progreso",-11.178063799969976],["hiciera",-11.178376739877276],["Williams",-11.178509386421354],["TC",-11.178643626066057],["discutir",-11.178735522226397],["desea",-11.178772558352438],["tuit",-11.178957388206138],["hacerle",-11.179514261705393],["elevar",-11.179731238598078],["presione",-11.17978296833292],["Open",-11.180523027326778],["creía",-11.180631837589099],["Quere",-11.181125210085604],["Belar",-11.18142052766452],["prohibido",-11.181463923795032],["irán",-11.182215175254155],["rosa",-11.182335368547953],["torio",-11.182603027871082],["arena",-11.182980650371146],["apuntan",-11.18380075179892],["07",-11.184040931315545],["acorde",-11.184087116406303],["consolida",-11.18428786133546],["minero",-11.18523679816765],["Bank",-11.185512126273133],["Necesita",-11.185620472269523],["acing",-11.186422473959897],["ioja",-11.186449593998775],["bles",-11.186488006171226],["XX",-11.186751719218105],["deportes",-11.187015717976303],["adelantar",-11.187118571904005],["organizador",-11.187616193959112],["ndows",-11.187697547474997],["hit",-11.189038106890568],["americano",-11.190700560093632],["American",-11.191087594160798],["Ger",-11.19117354158566],["salía",-11.191444576042144],["market",-11.191800214882978],["hambr",-11.192082835424403],["ahorrar",-11.192334449314272],["podio",-11.192527518203114],["Familia",-11.192815535342243],["peligrosa",-11.194343035065302],["inspira",-11.19452402810827],["reivindica",-11.194924730034131],["consta",-11.195414244516607],["existir",-11.195896516890922],["limpia",-11.19593039952775],["reduj",-11.196075122542887],["efectuar",-11.196197535955587],["Tour",-11.196517273799525],["diplomático",-11.1965410431636],["femenina",-11.196541043440044],["permaneci",-11.196541046406375],["líquido",-11.196541051585523],["terrible",-11.196541076626474],["Monument",-11.196556310232515],["percep",-11.19656108577345],["canasta",-11.196574703199044],["bonito",-11.196577056884772],["promueve",-11.196596026454474],["respectivo",-11.19660006935144],["Murcia",-11.196637194279333],["indicio",-11.196743474145794],["pozo",-11.196832596497579],["deriva",-11.196956823854851],["proviene",-11.197015923601642],["Soto",-11.197153944734033],["solicita",-11.197235043489627],["Calder",-11.197592630225275],["Paraguay",-11.1976530655619],["Liver",-11.197782503052387],["pistola",-11.197828724670996],["Djo",-11.19807289804059],["Mallor",-11.198086341883524],["retirado",-11.198610934927844],["Ken",-11.198624265033839],["programada",-11.198646920420225],["preferencia",-11.198864235179489],["Angel",-11.198980095775443],["disparado",-11.199201898092273],["asociada",-11.199439860000956],["basa",-11.199870889400717],["compr",-11.200309833128582],["limpiar",-11.201221007897248],["aragon",-11.202000404789537],["computadora",-11.202084270217547],["metal",-11.202484352324916],["ubicar",-11.202653131885137],["Salta",-11.202700333890004],["combinado",-11.202911106673795],["reporta",-11.202988951482421],["pusier",-11.203206362103785],["Fé",-11.203362393290838],["agregar",-11.20338836043953],["Preven",-11.203405134352856],["aprecia",-11.203694871475705],["abrirá",-11.203789305197226],["cho",-11.203996836935808],["trig",-11.204170180401169],["Gil",-11.20426835183692],["prefiere",-11.204448986869775],["acabado",-11.204457548936517],["gobernar",-11.204684936228649],["localizado",-11.205546409190132],["expuls",-11.205598457863218],["vende",-11.205631052720939],["Bet",-11.205711880439344],["descarta",-11.20594097803832],["cometi",-11.205953511308437],["ofrec",-11.206651961907475],["Mark",-11.207112775587941],["reclam",-11.208156290853703],["viero",-11.208261071663273],["Tomá",-11.208517017179922],["impulsa",-11.208530114766472],["04",-11.208610130221263],["Rus",-11.208767283525418],["parti",-11.20884428047112],["entrenar",-11.209107309838725],["Ira",-11.209542883822039],["PJ",-11.209732227021526],["For",-11.210666113852298],["reproduc",-11.211183877221895],["reunirá",-11.212020081483255],["hablaba",-11.212101114943732],["determin",-11.212464309755791],["basta",-11.212520870010929],["DI",-11.212657202866367],["pagan",-11.21331694965232],["proporciona",-11.213376659390583],["emprendedor",-11.213408494766323],["liberar",-11.21395707009548],["adop",-11.213992684122463],["entero",-11.214864011025684],["Cristo",-11.21491820907245],["Már",-11.215224153399907],["nguez",-11.21524469801577],["cometer",-11.215436005242823],["internado",-11.21554389841863],["gato",-11.215809015673141],["localiza",-11.21595912673143],["pen",-11.216674152086956],["voluntaria",-11.21729627232756],["experimentar",-11.217939220468823],["ránsito",-11.218532566701406],["beneficia",-11.21859457374494],["Sputnik",-11.219268316585882],["asamblea",-11.219268319780422],["cerebral",-11.21926833998449],["Guadalup",-11.21926912517097],["estacionamiento",-11.219272016625203],["sentimental",-11.21927227278944],["Zamora",-11.219283057348509],["patología",-11.219307489066129],["crudo",-11.219324589120962],["ilícito",-11.219338832115405],["polaco",-11.219381660580842],["tubería",-11.219385978661007],["recomendable",-11.219415454369592],["pague",-11.219584339242404],["Catar",-11.21971273888309],["analiz",-11.219744866809894],["construido",-11.219774297500285],["Amba",-11.21978085376692],["ambi",-11.219806932390336],["considerable",-11.219866748228188],["verificar",-11.219911826487897],["Br",-11.220042337174526],["ficha",-11.220202138329263],["instituto",-11.220242434926837],["desastre",-11.22033952312226],["inmigrante",-11.220420225116218],["Roc",-11.22050286209729],["reparar",-11.22057566613772],["ordenar",-11.220618873648991],["sonrisa",-11.220832953970614],["Agricultur",-11.221192117013755],["colaborar",-11.22166191136519],["instante",-11.221691489086457],["acude",-11.222061930435236],["comici",-11.222572124753345],["detectado",-11.222805762837979],["lamenta",-11.223038928827846],["hito",-11.22336486982478],["intentado",-11.223480496174194],["arquitect",-11.223486277889387],["illo",-11.223496590055152],["tía",-11.223594425466114],["Fiesta",-11.223673583760451],["editorial",-11.224074894594938],["relevan",-11.224085595350488],["danza",-11.224363494532982],["ética",-11.224655121011995],["CD",-11.225098134912539],["planteado",-11.225169328150187],["preservar",-11.225310930262443],["Oeste",-11.225323568626452],["uña",-11.226110286176386],["primavera",-11.226751834242721],["facultad",-11.226795611838126],["moderna",-11.227121802074993],["vacunado",-11.227386140702857],["asigna",-11.227573559812662],["calma",-11.227775106897427],["tti",-11.228344787492818],["DT",-11.22851125118705],["reparto",-11.229107357240405],["sentía",-11.229566679056216],["neutral",-11.229908541251874],["Camil",-11.229937635477768],["disculpa",-11.230077860058946],["Alba",-11.230375791585368],["poste",-11.23064746021472],["Leo",-11.231009961208567],["suceder",-11.231584943905268],["CG",-11.232452634424298],["aspira",-11.23263611562758],["Cristian",-11.23295293489576],["cupo",-11.233548263335688],["met",-11.2340208571577],["rota",-11.234245101781912],["ampli",-11.234306968182816],["anticipa",-11.234337922767795],["Luca",-11.234403218346987],["Media",-11.234895537783283],["supervis",-11.23574824874066],["deportistas",-11.23579370604417],["impact",-11.23611287710621],["agallane",-11.236842737824086],["valorar",-11.23688238867125],["Cerca",-11.23724504407331],["etiqueta",-11.237686971016542],["interesa",-11.237762728087272],["Emili",-11.23806371023994],["argas",-11.238473588697955],["ini",-11.239026470928003],["Leon",-11.239286082997836],["iéndose",-11.239643647091949],["escrita",-11.24082690684202],["preciso",-11.241186385664708],["hospitaliza",-11.241360382029363],["Ru",-11.241495261937008],["Lago",-11.24173382054072],["recomend",-11.241920083462851],["acífico",-11.242062321437555],["protege",-11.242186838623429],["gráfica",-11.24241280485336],["mecánica",-11.242521744886762],["indispensable",-11.242524130730853],["círculo",-11.242524133178865],["segmento",-11.242524382350926],["sacerdote",-11.242525226896733],["maquinaria",-11.242525580998947],["poblacion",-11.242526004546164],["proveniente",-11.242530107893522],["enmienda",-11.242534587057506],["migratorio",-11.242540635320204],["Segura",-11.242542126839037],["Grand",-11.242564939975868],["definitivo",-11.242570521925986],["Stree",-11.242573111064242],["Colorado",-11.242576863408408],["Marvel",-11.242577214795896],["hubiese",-11.242581227818917],["Madre",-11.24261777056454],["comandante",-11.242633782877288],["Christian",-11.242670977762982],["gabinete",-11.242702032558986],["dirigencia",-11.242740959796308],["maltrato",-11.242848558093241],["balazo",-11.242934884076288],["brutal",-11.242985818735187],["Golf",-11.243170262884945],["brillante",-11.243317330350385],["hice",-11.24343821452111],["acercamiento",-11.24374950308504],["Bruse",-11.24376429426611],["huir",-11.24380116078162],["denomina",-11.244339825407915],["Mora",-11.244378979041509],["USD",-11.244579394896704],["Borr",-11.244750009598992],["profesi",-11.24495004492896],["ocupada",-11.245015205590791],["imagina",-11.245395398225766],["exam",-11.245494878005754],["verdura",-11.246380936018747],["república",-11.246736770531932],["Mirand",-11.246830667439447],["Informa",-11.247375656248261],["colec",-11.248028380986227],["manda",-11.248081153399498],["afirman",-11.248083848362807],["Mor",-11.248388752909271],["jurisdicci",-11.24888588278243],["extin",-11.24919540356499],["extender",-11.24959344288496],["delincuencia",-11.250259961846822],["roto",-11.250581548698372],["séptimo",-11.250737293779148],["menciona",-11.251302448041542],["ocurrir",-11.251311685381255],["izar",-11.252083139924107],["carece",-11.252140568522412],["residencial",-11.253671831126315],["revelar",-11.253718603131098],["iño",-11.254468426762934],["añadir",-11.254610812439967],["Están",-11.255202775491592],["define",-11.25542781749614],["Haba",-11.257033526585886],["alemana",-11.257161367380156],["rendir",-11.257422183824994],["Ramo",-11.257659880374739],["Pan",-11.258034168188454],["02",-11.258121711038708],["centrado",-11.258288372015864],["Dal",-11.258719791664461],["AN",-11.258778658819507],["dedicar",-11.258894488709458],["Bah",-11.259518570821786],["box",-11.26004471143515],["realizaba",-11.260321599095535],["cismo",-11.26032478453195],["rato",-11.26039947670883],["Eva",-11.260875896595238],["restaura",-11.26128030480527],["faro",-11.261747265363255],["comprometi",-11.262805423664172],["Destac",-11.26498757597207],["ió",-11.265192910732086],["viaja",-11.265242909903616],["bate",-11.26528476690304],["cuento",-11.265788423662956],["predic",-11.265985057906175],["ware",-11.266299787702584],["dirigía",-11.26633367158794],["Concejo",-11.266333710430025],["universal",-11.266333826546969],["adquisitivo",-11.266347455771797],["sólido",-11.26635270977346],["hermosa",-11.26635922102631],["Zacate",-11.266360457075393],["Parece",-11.266368047777963],["montaje",-11.266381232193599],["desplazamiento",-11.266392824554162],["Tigres",-11.266404999180319],["nombramiento",-11.266410992600342],["constitu",-11.266551314180887],["WWE",-11.266565313549723],["Silvi",-11.266606442362626],["carpeta",-11.26676133761339],["pecho",-11.266858035993842],["boda",-11.266893938660209],["convencional",-11.267235820890509],["armamento",-11.267330805536815],["exclusivo",-11.267334662760533],["pretemporada",-11.267661711830646],["advertid",-11.267951367021883],["complemento",-11.268454879017904],["creada",-11.268538841613537],["castigo",-11.268645938861475],["Estudio",-11.268798106872207],["campeona",-11.26882464863471],["ensayo",-11.268978099137588],["diz",-11.26904730629196],["inspec",-11.269247269642058],["tenis",-11.27062213689126],["resume",-11.27067546370469],["filtro",-11.270862186416167],["externa",-11.271825265146614],["pop",-11.27243691117801],["oscuro",-11.273171482261713],["ibilidad",-11.273325761498727],["macho",-11.273760148806318],["ponien",-11.273872114007926],["instalado",-11.273978654675158],["contener",-11.274172831584469],["detallado",-11.275674926701663],["suspender",-11.275719498203175],["marcada",-11.275756774220609],["IP",-11.275957489216182],["disfrut",-11.27621734237947],["ros",-11.27630496819084],["enfrent",-11.276306159070678],["portero",-11.276531742529148],["Castelló",-11.276735346672424],["calcula",-11.276956964192147],["Campe",-11.276997553092741],["permanecer",-11.277064344457065],["mineral",-11.277071050678705],["necesit",-11.27731350355965],["Mu",-11.277533676054638],["consumir",-11.277773698503445],["linda",-11.27798083661594],["denominada",-11.278332823012633],["Adam",-11.278769078356138],["off",-11.278966659969878],["sexto",-11.280440526002367],["oblig",-11.280510464691618],["tope",-11.281618794328843],["sentí",-11.282216044929221],["FM",-11.282789209678672],["privaci",-11.282884567988319],["entrado",-11.282935047019636],["desarrollador",-11.283295747525493],["tumor",-11.283425128522923],["Cant",-11.28344874481663],["prestacion",-11.285151703559604],["ciber",-11.285955716414879],["Quit",-11.286156769376976],["suave",-11.286298271762611],["procede",-11.286479878202458],["campeon",-11.286588987783247],["litera",-11.286647729173769],["permit",-11.287465603330201],["Andre",-11.288000547106014],["conquista",-11.288048231893036],["Concep",-11.288071151374726],["Produc",-11.289646858114084],["stream",-11.290515028668759],["aparecer",-11.290544333415921],["Empresa",-11.29066814107306],["doméstico",-11.290718404921387],["progresiva",-11.290724524412184],["eficaz",-11.290724599738608],["Vivienda",-11.29072467621651],["electrónica",-11.290725642402785],["azulgrana",-11.290759206172153],["vergüenza",-11.290764899222001],["divertido",-11.290768314282348],["décima",-11.290782481258768],["intelectual",-11.290804220865201],["Militar",-11.290868752142028],["nieto",-11.290897950804064],["peronismo",-11.290909029727773],["curioso",-11.290943919098975],["Malv",-11.290992968685748],["tristeza",-11.291042606533654],["Montero",-11.2911841671633],["tension",-11.291349284603161],["Infantil",-11.291828951607084],["preocupante",-11.291898851907707],["ganadora",-11.292418750521975],["recogido",-11.29244384986109],["Cabo",-11.292587290025786],["reportero",-11.292670469106454],["formado",-11.293198185944673],["vacunar",-11.294106819904378],["Arce",-11.294501378547059],["Valor",-11.294769652068124],["vocal",-11.295725418191152],["afiliado",-11.296016285237085],["Meta",-11.29602737820552],["afirmar",-11.29666919941556],["conozca",-11.29708003364254],["colocado",-11.29709307500837],["Lucian",-11.297263566356836],["golpeado",-11.29728528672986],["Fed",-11.297532571381987],["Pre",-11.297599947157849],["Uni",-11.29811052524364],["rece",-11.298949301753503],["justificar",-11.29914529177803],["sorprendido",-11.299619156820599],["funcionan",-11.299980515871447],["dimension",-11.300088046481214],["convoc",-11.300306233045426],["vaso",-11.300628394629914],["pura",-11.301137927055288],["kov",-11.30122773872138],["sorprende",-11.301835946191874],["mago",-11.301933953279685],["atrac",-11.30199620068288],["depósito",-11.302547385366484],["350",-11.302615887027727],["Cristiano",-11.302734909606048],["descart",-11.303243851164796],["ojo",-11.303299909986126],["West",-11.303740357491037],["ato",-11.304228938145261],["catal",-11.304613822365898],["Ali",-11.305114919690638],["relata",-11.305177578778808],["Mexicano",-11.30528895401807],["paradero",-11.30572549968798],["sube",-11.306568081640759],["ndez",-11.30700177139327],["fama",-11.307661414715703],["servirá",-11.307667040937545],["lgado",-11.30830392163869],["confi",-11.308904795204569],["ring",-11.310105460104648],["respira",-11.31064877381856],["mandar",-11.310742871830591],["160",-11.311469603051156],["Marc",-11.311843292436683],["convers",-11.312595711229719],["ázar",-11.313276429204821],["elaborar",-11.313576079805982],["trabajaba",-11.313746520159395],["metas",-11.31401560357497],["corona",-11.314089984167218],["felic",-11.314497635869188],["Charl",-11.314536005709982],["Habla",-11.314773925385103],["Var",-11.314944809238867],["recorri",-11.315085736587536],["profesora",-11.315547942916822],["fronterizo",-11.315689269486388],["secundario",-11.315723897347768],["disponibilidad",-11.315723897480986],["requerimiento",-11.315723908484678],["víspera",-11.315723953436056],["tropical",-11.315724474195438],["World",-11.315725002555501],["inocente",-11.315725258077979],["Lamentable",-11.315732270980595],["psicológica",-11.315733980008485],["cerveza",-11.315738687099167],["obstáculo",-11.31574533378166],["manifiesta",-11.315753687884467],["petrolera",-11.315761620788408],["Gallardo",-11.315762381847097],["Dicho",-11.315803205487814],["aeronave",-11.31580748661866],["muerta",-11.315810051427523],["ciclista",-11.31581399363583],["Tercer",-11.315832270087224],["peronista",-11.31591780916554],["Rubé",-11.31591875256089],["Junior",-11.316001889256194],["cuarentena",-11.316117886919859],["Mc",-11.316254850874428],["Fox",-11.316322508654823],["agujero",-11.31640590849469],["Medicin",-11.316408418787528],["vinculada",-11.316594025583786],["bau",-11.31665358037878],["anzas",-11.316657349118486],["menú",-11.316753842018413],["tuviera",-11.316927229779386],["obligada",-11.317192165132946],["desconocido",-11.317202904894366],["Procura",-11.317524278750197],["cabello",-11.317567582180914],["servidor",-11.31761137344195],["rapid",-11.3176646955447],["erife",-11.317688168548761],["contenedor",-11.317695126979075],["entera",-11.317812883747647],["Artes",-11.317940339656802],["desplazar",-11.318282353794885],["Tom",-11.318433365305786],["recorte",-11.318637518703483],["Primaria",-11.319029046731764],["consigna",-11.319464018180561],["Quintana",-11.319469938950858],["continuo",-11.319821012374367],["Luz",-11.31992662778451],["bra",-11.319947496887249],["Cabr",-11.320193462515585],["Tar",-11.320606341990821],["Serie",-11.320623282697246],["audita",-11.320736187033644],["malas",-11.320753688740284],["tío",-11.320812876352583],["integran",-11.321021217307768],["transparente",-11.321312617641375],["ck",-11.322077092212124],["locura",-11.322416745808814],["ándole",-11.32249879363335],["ricos",-11.322864557944005],["deportista",-11.323109492315144],["conduce",-11.323137558702062],["contratar",-11.323898873076013],["ice",-11.324003031159673],["marina",-11.324168384659226],["Sam",-11.325310102887926],["Dom",-11.325434968669807],["Tú",-11.325439916053483],["Cá",-11.325751036481254],["Green",-11.32585365691939],["cer",-11.326339319449364],["ficaci",-11.32752451894996],["andar",-11.327954437379681],["CN",-11.328879228639554],["vice",-11.329087129993486],["impuls",-11.329262370926621],["FA",-11.329276917049178],["gricultur",-11.329566546590707],["gráfico",-11.329979632709836],["Pues",-11.330781887042782],["trama",-11.331509355958408],["uesca",-11.331693308115886],["listado",-11.332276449831511],["consolidar",-11.332412548620404],["coinciden",-11.332955380439277],["barata",-11.333371680842664],["Mara",-11.333413494903226],["tero",-11.333498390843413],["Dan",-11.334071420167941],["hijas",-11.334611233176172],["Canel",-11.334724513042516],["FE",-11.334900992658149],["gica",-11.33549658449827],["ordenado",-11.336277978531577],["acelerar",-11.337758003939776],["Berl",-11.337797182601761],["lema",-11.338847681233887],["regidor",-11.339131333753443],["verifica",-11.339290358713907],["diera",-11.339798126990683],["reunido",-11.340743145221111],["fractura",-11.340952419332634],["interrup",-11.341204681720875],["aparatos",-11.341352082095662],["rayo",-11.34135524478298],["Tijuana",-11.341364924238057],["proteína",-11.341364936184354],["trofeo",-11.341364972940077],["influencer",-11.341372564833769],["latinoamericano",-11.341374748105565],["Govern",-11.341384977129119],["concluido",-11.341390936793886],["costumbre",-11.341391904521718],["Quintero",-11.341417011125131],["revertir",-11.341417759882702],["pienso",-11.341427993084684],["típica",-11.341432582800675],["accionista",-11.341433051061491],["belga",-11.341456434584316],["creatividad",-11.341458466606301],["banca",-11.34151527344867],["inmobiliario",-11.341541157870829],["Turqu",-11.341550319831978],["vacante",-11.341556552459487],["masacre",-11.34157809725776],["centenario",-11.34160272563402],["ésped",-11.3416211802967],["Hous",-11.341652436667161],["pasaporte",-11.341872650632926],["Dicha",-11.342527555404804],["Web",-11.342574342713945],["Molina",-11.342731652438008],["rechazado",-11.342772864281255],["reemplazar",-11.342827480094144],["vendi",-11.342894502458734],["lleguen",-11.342929479892202],["fallecida",-11.342935961838437],["oído",-11.342996186040493],["Revolu",-11.3431752704261],["arroz",-11.343225595210534],["instalada",-11.343727140358855],["salva",-11.34377196722411],["mediana",-11.34419236038671],["sorprendente",-11.3443872877746],["comedia",-11.344414398203066],["Cata",-11.34450192882479],["apostar",-11.34453441784896],["Patrimoni",-11.344624066112429],["mueble",-11.344648045881932],["Andrea",-11.344680456704992],["livio",-11.345456058538591],["lenta",-11.345519344374212],["Cine",-11.345933240212759],["encuestado",-11.346708263082878],["Emilia",-11.346907269062509],["competitivo",-11.34700333255546],["expresion",-11.347187690259052],["concret",-11.347595068136545],["situada",-11.348122071851268],["desempeña",-11.348386520164702],["azúcar",-11.348539965495078],["apoyado",-11.34871759802763],["crema",-11.349146001965876],["mostraba",-11.349203040913995],["camas",-11.350193372020156],["severa",-11.350504330065382],["XI",-11.35058752365435],["tome",-11.351136405786404],["faltan",-11.351210457400715],["clasificado",-11.351248201083212],["Industrial",-11.351617800294985],["aclara",-11.35222377795165],["Art",-11.352595714874443],["alimento",-11.352781934356573],["eiro",-11.352933819755458],["ES",-11.353273619624282],["pesado",-11.353551896802564],["promete",-11.353900640476095],["existi",-11.354079396953773],["180",-11.35415662967863],["Rodol",-11.354433087244303],["AM",-11.355033529248953],["SD",-11.355449099794242],["cargar",-11.35563969952707],["Robles",-11.356116812776811],["Segui",-11.356159477371774],["Bad",-11.356522617535918],["hueco",-11.356549789259068],["Agente",-11.357023673716778],["empresaria",-11.357887605434072],["culmin",-11.358149056396602],["decora",-11.358272719570815],["representado",-11.358517014510927],["busc",-11.358638428049366],["extenderá",-11.359086366266407],["Gaz",-11.359370740845852],["conectado",-11.35944303193897],["tratan",-11.360037472505486],["contribu",-11.360045756976277],["Calle",-11.360313450746144],["notar",-11.36070169081103],["cencia",-11.361019839268119],["extendi",-11.361808004746067],["cortar",-11.36181719115126],["otti",-11.362127997737868],["abrazo",-11.362242252301442],["ésto",-11.362249412495638],["bur",-11.363049384356152],["proceder",-11.363826649413912],["mega",-11.36389001205284],["Mira",-11.365178400915783],["recep",-11.365273053896328],["asiático",-11.366106924842837],["dispuesta",-11.366274183712811],["emitir",-11.366853705455888],["finca",-11.367033643280504],["ayudan",-11.367123202416279],["Buen",-11.367218604056795],["Emple",-11.367219421542227],["Sports",-11.367297056438963],["habitacion",-11.367546143783546],["autonómico",-11.367680712787196],["humanitario",-11.36768071330113],["tremenda",-11.367680716799548],["Encuentro",-11.367680739044552],["logística",-11.367680910790854],["solitario",-11.367681063107174],["muchísima",-11.367681485531026],["psicológico",-11.367685220629173],["inminente",-11.36769246503224],["madrileño",-11.367694657373757],["Neymar",-11.367695866751458],["fertilizante",-11.367699875729699],["Cuerpo",-11.36770332201641],["Innova",-11.36771786084538],["centímetro",-11.367723771157003],["premisa",-11.367746640400087],["ectividad",-11.36775081489408],["extensa",-11.367773791835122],["Ojal",-11.367789521468062],["impuesta",-11.367813595998857],["ranking",-11.367825823841615],["matemática",-11.367841542993816],["intersec",-11.367864286437062],["extiende",-11.367904272765555],["abuela",-11.368057930470691],["NBA",-11.368100666621677],["Niño",-11.368144981403082],["Artur",-11.36846983859688],["Ex",-11.368472342981274],["cautelar",-11.368507209217475],["contribuyente",-11.368580018543256],["intermedio",-11.368704252237666],["ollywood",-11.368816387821163],["empatar",-11.368962821096497],["lavado",-11.369340319807163],["armados",-11.369353533448962],["ller",-11.369382683090665],["abandonado",-11.369710393001665],["convic",-11.370123035491751],["mantenía",-11.37048725283242],["Bayer",-11.370621820170605],["ajustar",-11.37062730228907],["mata",-11.371029524049396],["Eco",-11.371290348347468],["consola",-11.371791495133309],["unanimi",-11.371809075736582],["odido",-11.372149500048023],["túnel",-11.372578613254475],["Reforma",-11.372644425722793],["extremad",-11.372682231134007],["falt",-11.372750086984967],["IVA",-11.373577894710667],["impulsado",-11.373617786175204],["practicar",-11.373673099496454],["rich",-11.373949840437016],["saltar",-11.374094543759504],["Rojo",-11.374303769812613],["Bu",-11.37496034373923],["inscribir",-11.375931484802209],["sensacion",-11.376074392764478],["flota",-11.376361166326546],["joya",-11.376834107388698],["Gal",-11.377507507801603],["oficio",-11.378490111531008],["exponer",-11.379282563409255],["reseña",-11.379477292748433],["golpear",-11.379672552827694],["Roo",-11.379976151358063],["capa",-11.380802497985572],["dependiente",-11.381283133508163],["ango",-11.382152701092764],["marino",-11.382263412841715],["nteligencia",-11.382551171699227],["contagio",-11.383202642041475],["St",-11.383618904049536],["salt",-11.383692311166833],["Zapat",-11.383739557348497],["Voy",-11.384436821713573],["definido",-11.384771404505583],["doctora",-11.384931236893976],["Juventu",-11.385951888862488],["Fuego",-11.386114150617187],["intentan",-11.38617228575955],["clasificar",-11.386579321523305],["enterar",-11.387090310277793],["abasteci",-11.387214700559724],["controlada",-11.387304719721774],["itos",-11.387757344919045],["Villar",-11.388287069452208],["eño",-11.388375564191378],["cito",-11.388815802385507],["Chel",-11.389300424607788],["Cro",-11.389594247376875],["amo",-11.390260360319575],["Salto",-11.390384082638882],["conforman",-11.391779578321298],["sabiend",-11.391943223266196],["toria",-11.392071587888317],["Salón",-11.39221423655225],["separar",-11.392674749581495],["centrar",-11.392851150497922],["soles",-11.392882100076037],["aplicará",-11.393685872508897],["Atlántic",-11.394142209393618],["detect",-11.394196335867075],["atólica",-11.394314214020463],["digna",-11.394589543327895],["Comunita",-11.394657506668553],["ig",-11.394669689437967],["ilícita",-11.394707747606311],["ofensivo",-11.394707769570012],["garantice",-11.394707788699106],["compatriota",-11.39470808835696],["Brown",-11.394708868202553],["Registro",-11.394710495534893],["exitoso",-11.39471314847873],["típico",-11.394714099532571],["chofer",-11.394718297276103],["monarca",-11.394720147723609],["banquillo",-11.39472365792106],["sólida",-11.394724522305216],["gallego",-11.39473760508879],["Scalon",-11.394762322107036],["hospitalaria",-11.394782692280451],["moderada",-11.394794804607109],["forense",-11.394819734970532],["encabezada",-11.394829311010284],["orígen",-11.39486189849727],["generalizada",-11.394880296920913],["entendimiento",-11.394931586379286],["August",-11.395009924900819],["accesorio",-11.395049896845496],["despedida",-11.395235279508606],["look",-11.39524199810003],["desaparecida",-11.395280593984102],["Orl",-11.395364738515266],["goberna",-11.395698664444247],["inversionista",-11.396126990675882],["cuestionado",-11.396128192901752],["()",-11.396162736493139],["Colonia",-11.396421402531804],["frontal",-11.396674535485966],["convocar",-11.39685828718508],["Ba",-11.397132885234383],["atendida",-11.397148596778921],["cort",-11.397711666478793],["despido",-11.397800623615687],["Asegur",-11.39782734180484],["Che",-11.39784803075856],["Mej",-11.39813088451141],["War",-11.398155377903198],["busque",-11.39817437346475],["construyendo",-11.398240026914351],["Ur",-11.398294818183592],["visualiza",-11.398443064376718],["Laguna",-11.398491165468172],["laborale",-11.398557996361342],["Bay",-11.39873577827718],["finanza",-11.399074539980566],["ku",-11.39988958699903],["Telegra",-11.40001150547025],["tiros",-11.400668193838154],["justifica",-11.401326985111393],["Mauric",-11.401614115696006],["intervin",-11.401758308204453],["Gold",-11.401778833682474],["aterriz",-11.402338604878782],["circulaba",-11.402633835803496],["ñ",-11.402643354198489],["limitar",-11.403113284346393],["Rosad",-11.405182035948682],["encontrará",-11.406468657948306],["hab",-11.407565950921626],["transportistas",-11.408061141151903],["cima",-11.408077425505038],["conocía",-11.408622573171236],["muro",-11.409199425564335],["tele",-11.409230810430131],["yendo",-11.409632368189563],["Músic",-11.410607890633486],["poblador",-11.411084880090076],["lógico",-11.411227444345636],["unido",-11.411579849128621],["conquistar",-11.411606125452092],["seleccione",-11.412237971271637],["canale",-11.412827526520516],["est",-11.41287668986051],["armar",-11.413174610499688],["sustancial",-11.413214054159866],["Marte",-11.413214147189155],["tiende",-11.413363506038923],["derrot",-11.41350997775822],["gra",-11.414132891473905],["News",-11.414152713763203],["Duran",-11.414240763426434],["rre",-11.414326131866622],["produzca",-11.415329528597333],["dina",-11.415376873965153],["tre",-11.415625760757969],["productora",-11.416068191191602],["dota",-11.416090482397669],["flor",-11.416719536423994],["ville",-11.41699268086622],["mann",-11.417293809365267],["Ós",-11.417376010251836],["arranca",-11.417627121371561],["confronta",-11.417677185392751],["bajado",-11.417886835013539],["Mont",-11.418617401860594],["cubierto",-11.41901826626047],["ora",-11.419508360490823],["entusiasm",-11.419898784768108],["establecida",-11.41997183568297],["medi",-11.421240167251026],["rica",-11.421490455090886],["dedic",-11.421880367800243],["lausura",-11.42209118342389],["atraer",-11.422279115253827],["fuese",-11.422339819855907],["atmósfera",-11.422485517267457],["auténtica",-11.422485517325674],["permanencia",-11.422485522741564],["monumento",-11.422485537196915],["Gimnasi",-11.422485688953957],["escritura",-11.422486534103838],["aprehen",-11.422487734873087],["Sierra",-11.422493089311345],["maravillosa",-11.422500263001357],["Zulia",-11.422508269099486],["allanamiento",-11.42251413817039],["Taller",-11.422526457288633],["audiovisual",-11.422531756395138],["Género",-11.42253466722334],["repite",-11.422623471552974],["Adrian",-11.422655854676675],["Premier",-11.422741677888135],["Metro",-11.422741962326215],["Navarr",-11.422781609298081],["producen",-11.422901824896863],["Estadística",-11.422948709459845],["pertura",-11.422949178456532],["apellido",-11.422956659715075],["uniformado",-11.422994439449235],["placer",-11.423036842732555],["pesada",-11.423163058035923],["Coahu",-11.423189799318402],["provisional",-11.423217280173647],["penalti",-11.42334300434686],["kirchneris",-11.42340640952425],["zapato",-11.423480422915757],["incrementad",-11.423535606614418],["invitar",-11.423694558859376],["atrapado",-11.423723566474987],["CE",-11.423777617429884],["referir",-11.42426861497737],["eciente",-11.424316779272834],["raro",-11.424715618145763],["Noche",-11.4251708478204],["elev",-11.425280650191514],["consultada",-11.425359870453871],["seca",-11.425773222783404],["One",-11.426697681078652],["malestar",-11.427084498509192],["estrecho",-11.427471653876161],["Tenía",-11.42759482884202],["desapareci",-11.427945381794407],["recibida",-11.42831555794234],["habilitado",-11.428680633788757],["milita",-11.428718643208791],["Expres",-11.428837018390334],["diseñador",-11.429294138504279],["fresca",-11.42931133600454],["echa",-11.42975680128772],["MP",-11.429812057111047],["imagin",-11.43029505584223],["comprende",-11.430652134025927],["toro",-11.430735598946455],["apuntar",-11.430870253585475],["vegetal",-11.431082779316004],["anidad",-11.431099863689985],["Correa",-11.431599814003086],["acot",-11.431980043302516],["gobernadora",-11.431985893448056],["letal",-11.432086371863866],["horno",-11.432276773145045],["PN",-11.432500653024986],["exá",-11.433218550723659],["eliminado",-11.433770145230675],["Mé",-11.433870998686047],["derrumbe",-11.433996372447208],["poblado",-11.434018061194267],["abarca",-11.434102250597478],["inaugur",-11.434461690809696],["GM",-11.434742390874517],["adilla",-11.435010571899118],["extrac",-11.435099778717845],["Bost",-11.435294166442768],["fectó",-11.43534447771342],["Donets",-11.43569914091287],["Maya",-11.43570725708821],["terminan",-11.436053433885762],["Tor",-11.436466788471822],["convencer",-11.43652640836834],["exigen",-11.436708427859735],["visa",-11.436721026579697],["avia",-11.436792957669184],["Foro",-11.436798624271114],["confiar",-11.437338284767117],["identific",-11.438121675382686],["competitiva",-11.438724652227808],["comarca",-11.438783204502142],["contest",-11.439001061261965],["habilita",-11.439030326791324],["arroj",-11.439392600302671],["ratific",-11.43978317116742],["surge",-11.440174074764005],["aposta",-11.440204319199747],["140",-11.441087732054143],["varone",-11.441305959088847],["pausa",-11.441383565873316],["Cinc",-11.441695931673463],["recicla",-11.442316535084894],["gustos",-11.443156737653386],["montó",-11.4432351484609],["difundi",-11.443876272140294],["ster",-11.445310617703099],["pronunci",-11.445517455843067],["comprado",-11.446041748499812],["Reina",-11.446048840364979],["instal",-11.446344150815563],["Kev",-11.447353694134229],["Pren",-11.447629355046656],["orilla",-11.447684076116081],["portó",-11.448446069985586],["Ho",-11.448580190595154],["grit",-11.448988997170183],["fasi",-11.44922271494103],["hipoteca",-11.44959835164245],["diría",-11.450023008211986],["profundizar",-11.450445996547112],["foment",-11.45048338164084],["limitada",-11.45069015207258],["campista",-11.450763887819342],["estricta",-11.451056953992472],["defensiva",-11.451056967885782],["smartphone",-11.451057005972883],["Arroyo",-11.451057040296805],["aplique",-11.451057070979873],["lágrima",-11.451057367918295],["décimo",-11.451057518771547],["religioso",-11.451060583067559],["gripe",-11.451061487494627],["confinamiento",-11.45106209839517],["hermoso",-11.451068563515687],["matrícula",-11.451072075695256],["sucursal",-11.451074939745439],["baloncest",-11.451076734793828],["fganis",-11.451078428249872],["embajada",-11.451082055199675],["fortaleza",-11.451095331408549],["Puig",-11.45111725539021],["Pleno",-11.45112177343877],["optimista",-11.45112862664811],["tripulante",-11.451185664485259],["recogida",-11.451227507385465],["Colim",-11.451227769076935],["Thomas",-11.451280099954491],["ONG",-11.451293054021757],["convocada",-11.45138095274351],["parlamentaria",-11.451476057856032],["pronunciado",-11.451496928980053],["Estrella",-11.451575985767903],["corregir",-11.451623826811467],["112",-11.451663644283755],["Chac",-11.451937226929907],["acusada",-11.45233805294549],["perdón",-11.45237825356812],["pilar",-11.452397112917891],["agravado",-11.452790242153256],["expresa",-11.452953496947966],["insuficiente",-11.45315788296381],["Gi",-11.453189231353157],["ejecutado",-11.453332868570538],["cancelar",-11.453464392795292],["ejecut",-11.453678160954292],["portería",-11.453689780101776],["traj",-11.454490487829226],["Bio",-11.454956510216523],["renunciar",-11.455080435750467],["drama",-11.455172990529201],["Ti",-11.455265925597402],["rov",-11.455489201427852],["adquirido",-11.4556404824194],["valorado",-11.455916127499878],["bolet",-11.456065455671373],["alejado",-11.456085105121293],["situ",-11.456127144426961],["diése",-11.456957438090045],["revelado",-11.456964626015758],["eliminatoria",-11.45715072923489],["Arsen",-11.457382486561208],["qu",-11.457395194469997],["termine",-11.457446190027312],["Defensor",-11.45770149553168],["urnas",-11.45810504267066],["potenciar",-11.458128899851275],["dialog",-11.458508422456411],["“¡",-11.459157047529533],["concesi",-11.460170255488727],["Saba",-11.460552652610222],["tez",-11.462483713879722],["Llega",-11.464040231160707],["procesado",-11.46429726209413],["intencion",-11.464627382656865],["Destaca",-11.464693567236369],["pedi",-11.464790628590588],["gestor",-11.464824861282853],["parroquia",-11.464978845984195],["conden",-11.465621278925765],["estuv",-11.465803307580726],["grabar",-11.466180447017159],["mama",-11.466393756888458],["Jan",-11.46678797305825],["respeta",-11.4668398704989],["dañar",-11.467394927982387],["iento",-11.467529315194565],["oculta",-11.468200102821866],["Ton",-11.468291626883],["autorizado",-11.468695388058318],["period",-11.469599968813814],["UCR",-11.47051431748479],["reclamar",-11.470770698056299],["verso",-11.471031215185786],["favorece",-11.47134606397717],["Chan",-11.472373947837731],["activ",-11.472551515216624],["nace",-11.473601476479176],["ictamen",-11.474130149789875],["pronunciar",-11.474191613265502],["secuestrado",-11.47430439771384],["oportuna",-11.474370309029489],["humeda",-11.474596092628136],["IPC",-11.475169006394502],["Ford",-11.47541180599794],["toño",-11.475610677372803],["Sant",-11.476066451430952],["estrena",-11.47620897027317],["pesca",-11.476544339239172],["gado",-11.477252800411506],["pauta",-11.47738829030649],["costar",-11.477440812491071],["Bolsa",-11.478159571709236],["quince",-11.479347581751362],["alejar",-11.479748855914716],["flexible",-11.480129537807318],["juguete",-11.480359041862718],["bonita",-11.480375031795813],["Migra",-11.48044847218614],["príncipe",-11.480468710510145],["protagonismo",-11.480468710513831],["trágico",-11.480468710684534],["Comisaría",-11.480468765218012],["Zelensky",-11.480468779788218],["bélico",-11.480470294329669],["diabet",-11.48047043178438],["amplon",-11.480473466674086],["relevamiento",-11.48047356973537],["adversario",-11.480480824859047],["multitud",-11.480480963961158],["Ernest",-11.480490741203596],["Conferencia",-11.480514941968824],["adulta",-11.480515376167265],["Jean",-11.480518769282625],["Diario",-11.480544780446273],["bilateral",-11.480566352464448],["terraza",-11.48058915521668],["Libre",-11.480657393524028],["conecta",-11.480670334821323],["admira",-11.480681888216516],["utilidad",-11.480683596423082],["curva",-11.480754296503388],["perjuicio",-11.480868489706486],["congreso",-11.480975364970831],["inesperado",-11.481060671717508],["poderosa",-11.48111554769644],["catán",-11.481123347302649],["Sindicato",-11.48119263209984],["Jair",-11.48157298038873],["Jer",-11.481574796717755],["Mañana",-11.481789414716825],["hielo",-11.481828100830203],["Facu",-11.482022659989912],["sancionado",-11.482045006902093],["Cartag",-11.482203606015908],["iebre",-11.482338073071684],["delegada",-11.482538731580664],["sufr",-11.48295016687245],["visitado",-11.482975614398576],["oficialista",-11.483166908656038],["docena",-11.48318443421945],["claras",-11.483207465674976],["Justo",-11.48336035027531],["pronta",-11.483390636356454],["Amor",-11.483583737728338],["ordenador",-11.48382066393538],["cruzado",-11.483837917299793],["Ronaldo",-11.483842063120433],["asume",-11.484036861825253],["guion",-11.484130200506733],["relaciona",-11.484349450104355],["Vidal",-11.484550991626877],["Gas",-11.48589450529032],["llevada",-11.486099432801339],["ping",-11.486195148236934],["encabezado",-11.486231148971566],["ofrecido",-11.486300293879182],["ier",-11.486831979421119],["llenar",-11.48723332900196],["pedía",-11.48738554070841],["afectará",-11.487722990354136],["mediano",-11.488267882193526],["lleve",-11.488597635934836],["fijado",-11.488893876550383],["reflexionar",-11.488987233826911],["ERC",-11.489131960903874],["interpret",-11.490360611623233],["Alcalde",-11.490591171087258],["preparan",-11.490737567804665],["descrip",-11.49106549411213],["Vlad",-11.491423411122746],["ix",-11.491902792131606],["Hu",-11.492711363747748],["Fort",-11.493369856101928],["reciba",-11.493434796965907],["detuvier",-11.493457927931214],["Kar",-11.493531086634356],["escoger",-11.493681441038193],["reclaman",-11.49369992000334],["fiz",-11.494253719536491],["Cambi",-11.494317827576396],["hall",-11.494883225424697],["tocado",-11.49502508122052],["arreglar",-11.495099318426622],["entran",-11.495293399406094],["intentaba",-11.49531809543537],["rompe",-11.495342096445139],["abilidad",-11.49556826447686],["Rubi",-11.495686910730804],["acelera",-11.496157268925076],["ponía",-11.496353740131688],["noro",-11.4967741368565],["secuencia",-11.496813676502118],["́n",-11.499172466443596],["contact",-11.499174020871344],["cualidad",-11.499788693551185],["Hond",-11.499897605115379],["feriado",-11.500015356522693],["séptim",-11.500132620331913],["Contra",-11.500223782824818],["Joan",-11.50167105770748],["ándolo",-11.501724721637512],["chance",-11.501806818160743],["PL",-11.502466713340839],["sky",-11.502764250805573],["positiv",-11.50316698198291],["Abu",-11.503323966293436],["neto",-11.50359150115719],["narra",-11.503863497221852],["avis",-11.504012915634934],["ultra",-11.505247860783513],["aforo",-11.505268946195216],["Dar",-11.505354503396129],["afronta",-11.505398788815643],["Pase",-11.506687611582082],["mag",-11.506702251540291],["extradi",-11.507006493684296],["è",-11.507263264561683],["loco",-11.507310374095642],["llaman",-11.507943603550375],["Papa",-11.508141329110618],["Ga",-11.508524864854149],["derrotar",-11.508760816147948],["manuel",-11.508849987304139],["montar",-11.508965193768617],["Chris",-11.509517013173818],["revé",-11.509770514589524],["cher",-11.50997184722647],["Edi",-11.51012103574198],["respiratoria",-11.510165154351522],["buscado",-11.51034694047028],["experta",-11.51043228535802],["conveniente",-11.510484145846227],["deriv",-11.510625033994156],["march",-11.510711729829955],["quirúrgica",-11.510771740812984],["clásica",-11.510771741110656],["peruana",-11.510771765497765],["farmacia",-11.510771974104223],["híbrido",-11.510772020753784],["sexenio",-11.510772319263692],["gasoducto",-11.51077241363291],["apartamento",-11.510774093081299],["Minuto",-11.51077423028804],["semejante",-11.510776758191803],["aplauso",-11.51077871014777],["porcentual",-11.510780157155699],["complejidad",-11.51079161754841],["ígeno",-11.510801081044017],["inevitable",-11.51080510931937],["elegante",-11.510806054759499],["valiente",-11.510818407138657],["Chiapa",-11.510833623331678],["informático",-11.510867373453483],["aislada",-11.510884633270727],["progresista",-11.51089134666943],["Josep",-11.510921285140672],["delicado",-11.510931405934489],["existía",-11.510968843610655],["pretendía",-11.510969549973183],["mecánico",-11.510974190728017],["Noticia",-11.511055678235696],["Obvi",-11.511149786211782],["inesperada",-11.51121459952694],["Caballero",-11.511229243824062],["televisor",-11.511400613328323],["lapso",-11.511413964584161],["activar",-11.511435332190207],["Bolet",-11.511511793383827],["nocturno",-11.511639739993806],["Niet",-11.511905243043897],["desarrollada",-11.51198787906361],["lote",-11.512286268578961],["suspendida",-11.512374907904716],["integrada",-11.512386286044524],["Integral",-11.51248412438067],["crucial",-11.512550316615174],["intervenir",-11.512630336806412],["reten",-11.512733271960997],["Vigo",-11.512735949908592],["rodado",-11.512791194914701],["describe",-11.512895356511299],["coloc",-11.513026577522384],["Rosal",-11.51328255815617],["fresco",-11.513303001405877],["acces",-11.513621927199454],["impactar",-11.513875960752678],["Cuánto",-11.513915921869387],["vendrá",-11.514227657353862],["Susan",-11.514378585555516],["billon",-11.514433536895483],["celebrada",-11.514551593086471],["legislatura",-11.514669095439316],["proyecta",-11.515018446131657],["venes",-11.515078884869407],["daría",-11.51514683610275],["moderado",-11.51553901980289],["Corona",-11.5157369249442],["inmensa",-11.515760702919186],["hipó",-11.515825738485017],["Familiar",-11.5159010072164],["campos",-11.516274695537698],["cuenten",-11.516760671413435],["ocupante",-11.516891845479662],["acompañante",-11.516960004943757],["incrementa",-11.51707900230602],["cheque",-11.517413059323896],["aprendido",-11.51741431759383],["lucr",-11.51796249141302],["suya",-11.517998806587132],["efectiv",-11.51818283283384],["pagado",-11.518308523336199],["Bol",-11.518569688761069],["Cerro",-11.518848460949002],["igan",-11.518864687100947],["veni",-11.51918910147377],["superan",-11.519511872263118],["patron",-11.519605469021542],["ji",-11.51963716156413],["analizado",-11.519661672140474],["pata",-11.52006418992466],["uniforme",-11.520206394339949],["resaltar",-11.520234966472389],["consume",-11.520337073213781],
[...]
