{"version":"1.0","truncation":null,"padding":null,"added_tokens":[{"id":0,"special":true,"content":"<UNK>","single_word":false,"lstrip":false,"rstrip":false,"normalized":false},{"id":1,"special":true,"content":"<SEP>","single_word":false,"lstrip":false,"rstrip":false,"normalized":false},{"id":2,"special":true,"content":"<MASK>","single_word":false,"lstrip":false,"rstrip":false,"normalized":false},{"id":3,"special":true,"content":"<CLS>","single_word":false,"lstrip":false,"rstrip":false,"normalized":false}],"normalizer":null,"pre_tokenizer":{"type":"Whitespace"},"post_processor":null,"decoder":null,"model":{"type":"Unigram","unk_id":0,"vocab":[["<UNK>",0.0],["<SEP>",0.0],["<MASK>",0.0],["<CLS>",0.0],["s",-2.695794058489975],["a",-3.2602782561596904],["e",-3.4200730331123097],["t",-3.5319712527058176],["the",-3.7461886968874847],[".",-3.799317424785338],["d",-3.8634487585301756],[",",-3.87464880201788],["o",-3.9418681011179366],["i",-4.11256114005022],["in",-4.123616798874231],["r",-4.158375797420716],["to",-4.191394070045899],["n",-4.265157304445614],["l",-4.364067282979896],["ing",-4.372544230502889],["and",-4.406347240639093],["ed",-4.438118504946791],["p",-4.440685881981771],["of",-4.513235026630349],["y",-4.558731062605533],["m",-4.601422824173413],["c",-4.61114698181178],["re",-4.658547080864736],["b",-4.6662675551137465],["on",-4.693067224846418],["is",-4.833274068028215],["it",-4.862126029190399],["g",-4.87807387850985],["f",-4.921634521207551],["an",-4.966557714525214],["h",-4.971109266113594],["al",-5.060951286530868],["u",-5.062562455458705],["at",-5.078303568205092],["or",-5.126659614651725],["er",-5.174365167623975],["’",-5.2438605494489465],["-",-5.274397592242243],["for",-5.275089633218533],["I",-5.341871328335598],["w",-5.343134539326483],["ly",-5.363874417555298],["ar",-5.364042044816472],["that",-5.387463226825796],["A",-5.412927338977919],["S",-5.447426620644128],["be",-5.482092010487264],["The",-5.510289783432963],["k",-5.583199686283402],["le",-5.618005717974482],["C",-5.649981621424427],["with",-5.674574266954009],["M",-5.717396699535415],["“",-5.83547258748075],["ch",-5.8515238068477515],["P",-5.868093390781228],["was",-5.877026491501811],["he",-5.944637191409452],["B",-5.95429981488533],["v",-5.978421788638906],["are",-5.979358929290353],["'",-5.986882598780483],["ic",-6.01422605657514],["ur",-6.037961811944269],["un",-6.043080263123697],["aid",-6.054490330214506],["D",-6.05699321029034],["have",-6.111387304597017],["T",-6.114830642043991],["E",-6.125846897426506],["has",-6.1698054601608945],["ment",-6.173869533700286],["ent",-6.1890064310836195],["G",-6.1901899970322205],["all",-6.193475984495175],["ation",-6.196756748593618],["me",-6.202523452259685],["we",-6.216508367859765],["F",-6.231517092994684],["H",-6.244437297056482],["ion",-6.25840367386793],["from",-6.2695862302410355],["us",-6.280061143300344],["2",-6.292197313216864],["by",-6.294624168121723],["not",-6.315327130266446],["ive",-6.326450029907347],["im",-6.328383975621506],["out",-6.332136941721533],["will",-6.337942962398044],["ex",-6.346770133568484],["\"",-6.348953233360813],["up",-6.359954011277374],["th",-6.387924063894086],["ve",-6.393458465479794],["O",-6.4080666915034765],["N",-6.416283943671639],["L",-6.426692985467325],["ies",-6.447716913655071],["his",-6.468422840713409],["ce",-6.468518650478172],["one",-6.4707357336175715],["R",-6.48135666737886],["ers",-6.484144494850076],["this",-6.504094689607891],["pro",-6.505228144044617],["W",-6.509052603356812],["1",-6.532867426716182],["con",-6.53827092702946],["you",-6.54277885074657],["her",-6.579495605689747],["if",-6.592922968066754],["ck",-6.598240042171151],["our",-6.610811657917909],["but",-6.611400375011396],["K",-6.6125170487817755],["3",-6.626161057098193],["vi",-6.626982586778384],["am",-6.631931483879258],["co",-6.633037562917485],["their",-6.6354436150994385],["end",-6.642057683452881],["age",-6.654004020771323],["who",-6.660305583457701],["per",-6.665771799141401],["est",-6.6991116655588385],["ter",-6.707646892032217],["z",-6.7343172920057],["4",-6.7395407140499355],["ul",-6.74180795314135],["ge",-6.75317943233302],["other",-6.767816564815277],["been",-6.772640389673967],["5",-6.783202942864952],["can",-6.783365592712778],["j",-6.791726194680299],["In",-6.804911685070248],["8",-6.822229494500915],["x",-6.8243888241339885],["um",-6.841639072727235],["time",-6.856877330985597],["had",-6.858490790262991],["over",-6.860857246674062],["(",-6.86355432408995],["more",-6.870464216722832],[")",-6.874630717333693],["man",-6.874743751909209],["were",-6.877470722326997],["they",-6.877608857148164],[",”",-6.885363565286051],["U",-6.8967350425551786],["com",-6.905479144730823],["ill",-6.907628037918805],["0",-6.913034489896452],["20",-6.919597968420275],["19",-6.937502968636295],["go",-6.942848931189163],["work",-6.953744086597318],["ity",-6.96038921058309],["ke",-6.961652379828239],["6",-6.967535069579437],["people",-6.968188040567496],["also",-6.973174757191732],["about",-6.975591139836316],["able",-6.989133597250252],["day",-6.9961967744681495],["new",-6.999678346615189],[":",-7.00245931217672],[".”",-7.019983677385067],["V",-7.027853663276359],["ever",-7.051344475231156],["ear",-7.053876504498575],["J",-7.0645712156767],["which",-7.065047868143264],["way",-7.068932539876835],["7",-7.071064248333501],["tion",-7.07496490152675],["We",-7.076336457462007],["ance",-7.0833611977613025],["He",-7.095202007100447],["like",-7.096081506420012],["tra",-7.100179639887674],["part",-7.101418800709766],["Co",-7.110251080738612],["9",-7.113216340720513],["would",-7.118828414238656],["qu",-7.130295215293065],["ally",-7.138440138111241],["ence",-7.142471897464748],["”",-7.144217356062972],["year",-7.1486963365607625],["some",-7.173475376532695],["gu",-7.182221151474851],["she",-7.207076539996487],["after",-7.21419453010941],["get",-7.223458063200649],["iv",-7.224296062826964],["state",-7.22440550975543],["cent",-7.243329467476009],["Ch",-7.248183393726491],["old",-7.253180844527327],["hi",-7.2536284101763755],["when",-7.2544902685091035],["than",-7.272055151229878],["just",-7.27607177541422],["ell",-7.285471071493987],["ard",-7.313812823511604],["ten",-7.318684967675077],["ner",-7.3433460270321405],["ary",-7.347255688488305],["play",-7.347947995313259],["what",-7.353298486838759],["ru",-7.3548394290741],["ide",-7.3550578369977195],["?",-7.358026125849223],["$",-7.358026125849223],["come",-7.3612245791144195],["any",-7.370229901089927],["tri",-7.371994029906268],["back",-7.372899530305867],["now",-7.38034371967441],["say",-7.38706683408762],["own",-7.390866083846677],["ail",-7.39986465632401],["ical",-7.401231092335237],["Re",-7.4092604608968],["take",-7.411487044739974],["my",-7.4237901449958725],["line",-7.437131593410455],["Ma",-7.4521224664955055],["two",-7.452634069469733],["first",-7.454928444983165],["off",-7.457619225687802],["see",-7.458413478112781],["ction",-7.46252351035122],["how",-7.4641361045537975],["add",-7.471146825881132],["pri",-7.475880129917665],["make",-7.482286283383173],["down",-7.482942640813089],["—",-7.49124113446308],["cause",-7.506211791054908],["air",-7.50775735478897],["week",-7.5137705153205285],["inter",-7.519180063336055],["pre",-7.525193326489541],["thing",-7.528515011832296],["know",-7.529585636829032],["even",-7.541505610879822],["could",-7.546544098139982],["long",-7.554032836340556],["need",-7.567561292137078],["most",-7.5768429356058675],["him",-7.57990084422077],["ous",-7.5832593282744],["igh",-7.592356883301577],["last",-7.594070259740511],["ick",-7.596094757821274],["your",-7.5965630239197095],["act",-7.601352319732255],["This",-7.6057745390167275],["there",-7.613008078988355],["But",-7.61378979284788],["app",-7.614971612769619],["De",-7.624822239254251],["test",-7.625593797150402],["St",-7.631742347128736],["ut",-7.6339937809411405],["its",-7.636317289212679],["low",-7.636492237426719],["report",-7.640604067367323],["use",-7.640653713989935],["side",-7.650394801011139],["ask",-7.650933219697133],["gra",-7.654268940192445],["hose",-7.654938893419113],["each",-7.656925213210845],["tic",-7.66973064803659],["home",-7.67055578957154],["rate",-7.671520870027991],["ial",-7.676562067628015],["comm",-7.685227225033112],["ture",-7.69118659142612],["vo",-7.70457025094065],["pol",-7.708931149107457],["through",-7.7229122208647745],["them",-7.726358952026255],["whil",-7.729847820750725],["00",-7.73233684802905],["ound",-7.733317894260996],["port",-7.7346067688499875],["ish",-7.734625522415383],["late",-7.736857833177706],["ook",-7.741962762931012],["form",-7.74222627563613],["where",-7.749128050452919],["ize",-7.756077836636662],["No",-7.7574514345870975],["during",-7.758007782863363],["want",-7.758166844315251],["show",-7.761025610307771],["high",-7.764582773409527],["tru",-7.765513849417762],["Mar",-7.766067361854924],["Br",-7.767395084312722],["ver",-7.773680781286744],["000",-7.7783984048324335],["did",-7.778758352311242],["che",-7.78182255777446],["many",-7.788601596914473],["plan",-7.792736080975718],["well",-7.79487964980373],["Al",-7.799034112908614],["row",-7.799664823635215],["help",-7.800888404825551],["10",-7.813094823498925],["call",-7.819822111685562],["every",-7.827109431059316],["being",-7.828283653286907],["government",-7.838202918652763],["On",-7.840384015358495],["And",-7.84069596611968],["under",-7.846189948088405],["Ro",-7.8471660067648825],["very",-7.847483057367937],["look",-7.859766330275678],["public",-7.861045147302903],["going",-7.863819545395729],["%",-7.866695834188145],["COVID",-7.867262727763266],["mar",-7.867649690691161],["before",-7.871529829976983],["should",-7.887309838967432],["place",-7.891578274755638],["start",-7.892268376347071],["Ju",-7.892684093066142],["game",-7.8950173218055175],["right",-7.895672718013175],["So",-7.896561615032464],["point",-7.897753593550684],["amp",-7.900525348889155],["car",-7.905618763662962],["ward",-7.9072736703496584],["years",-7.909772080745065],["tory",-7.920933536905415],["health",-7.92333916979231],["–",-7.925038418632067],["spec",-7.925154565773493],["ious",-7.929966959896873],["ful",-7.934251885586765],["leg",-7.934810419811822],["ugh",-7.934977140734517],["For",-7.938979896027205],["New",-7.944750444547945],["person",-7.946816528980853],["month",-7.947407732371298],["team",-7.95172218572013],["put",-7.953340175448421],["agains",-7.970015948500638],["Trump",-7.972404566040404],["lot",-7.974623751784436],["rac",-7.9838879225344455],["An",-7.986414015272383],["een",-7.986748480324052],["resident",-7.988042067777916],["open",-7.992877068601357],["sign",-7.993175843216713],["gan",-7.994902554894411],["Y",-7.995533631817269],["made",-7.9967698923004304],["less",-8.001472976997029],["coronavirus",-8.00570715412433],["still",-8.006999382611976],["may",-8.01148776197006],["sure",-8.01150327155188],["support",-8.015031325170344],["‘",-8.016181860283108],["She",-8.023780393501692],["qui",-8.025795869136157],["three",-8.03129771318602],["count",-8.03130516891053],["2020",-8.03380684645006],["ber",-8.042393315950417],["lie",-8.042885853373829],["think",-8.046612078852927],["change",-8.053609960428624],["into",-8.06114434988385],["Le",-8.061735798002946],["share",-8.078496134612944],["cap",-8.08157077662068],["though",-8.086416401714871],["mil",-8.088797723466396],["ative",-8.089898666178861],["member",-8.097830000719554],["million",-8.100693982185366],["self",-8.102807020642896],["good",-8.109294919574157],["country",-8.118839254190636],["hop",-8.120714764487865],["came",-8.123403499102032],["pandemic",-8.12597658026278],["try",-8.131585441432222],["event",-8.13216056986954],["ness",-8.133272912605698],["number",-8.137825003840323],["much",-8.138422901337915],["head",-8.139280340096239],["ship",-8.140030428819788],["care",-8.142574107238367],["You",-8.145006073604549],["continue",-8.146009266559986],["/",-8.150512701878005],["life",-8.152867877104788],["move",-8.153054059524607],["school",-8.156556050475318],["close",-8.158220998293604],["around",-8.16593122853787],["season",-8.166633543294619],["does",-8.170282109158922],["law",-8.177119865088121],["ric",-8.188165084785332],["order",-8.188446432508472],["business",-8.188876222940841],["office",-8.189778815928968],["view",-8.195216435761962],["cur",-8.199044918817458],["America",-8.201487576515682],["such",-8.20517690461913],["light",-8.205189357398055],["world",-8.211049514488138],["since",-8.226079308842955],["follow",-8.229586850685735],["national",-8.23274336848731],["State",-8.234264819183261],["police",-8.234489205151348],["lock",-8.237482503392972],["company",-8.23943921497132],["ather",-8.244527394896089],["trans",-8.24832584250327],["communit",-8.255521203865838],["cover",-8.262445518043243],["service",-8.262719177115645],["family",-8.277994356767412],["That",-8.279143463969831],["issue",-8.28774346411647],["Z",-8.292629684445972],["How",-8.297752831785681],["including",-8.298725410018037],["press",-8.303318982901892],["direct",-8.308793547271547],["pass",-8.314046424003246],["big",-8.325372727437058],["next",-8.329549178397823],["ember",-8.331365041147377],["hold",-8.334042532709242],["30",-8.342614706253336],["ready",-8.344615441453518],["allow",-8.347035421461644],["night",-8.347139955892764],["death",-8.349173818265609],["face",-8.35024822496383],["etween",-8.35175377228914],["second",-8.359296935273559],["provide",-8.359986218428155],["creat",-8.361261495650385],["virus",-8.36134000328795],["official",-8.36178343263824],["found",-8.37248567969508],["expect",-8.385297785120507],["both",-8.38577912247921],["50",-8.386724711174711],["base",-8.387972951657874],["econom",-8.40175618059732],["present",-8.407859463562048],["post",-8.409065892310988],["feel",-8.410790615582334],["keep",-8.410813304024925],["fact",-8.411580760307977],["pose",-8.413669623795133],["group",-8.415269475875986],["few",-8.418733940728108],["buil",-8.419256168089026],["12",-8.41991119408895],["!",-8.422140651061323],["social",-8.42218129485228],["same",-8.422617528907708],["mission",-8.422686882677972],["great",-8.425612927644835],["student",-8.426101951346524],["vote",-8.42861475363043],["15",-8.435132051650234],["pay",-8.4355971125975],["serve",-8.44374842423161],["current",-8.448206872890887],["ncy",-8.461392019304519],["love",-8.464886614435855],["Q",-8.470708613550112],["break",-8.472848853653716],["case",-8.474412831159455],["President",-8.481561930271619],["remain",-8.483531020334913],["result",-8.492843632512582],["power",-8.49503367341148],["16",-8.501054534633628],["develop",-8.502306846042465],["lead",-8.503908469606511],["special",-8.51330438668132],["operat",-8.514284523650693],[";",-8.516315664508385],["different",-8.516315682455739],["safe",-8.517675141490741],["log",-8.518067677581275],["election",-8.521591933876806],["large",-8.524833014705075],["Friday",-8.525037351907255],["quarter",-8.526160820117152],["market",-8.526202316925549],["list",-8.539545605604497],["date",-8.544360171747783],["clu",-8.54718496067624],["friend",-8.549425228401326],["Pro",-8.550396458342728],["turn",-8.556145254109833],["release",-8.557486090566362],["include",-8.5584922371383],["system",-8.561830857224855],["employ",-8.564102579693106],["road",-8.564424606291727],["announc",-8.565242098903813],["full",-8.571215764011999],["local",-8.575787146408917],["house",-8.58035573880996],["happen",-8.582491480645455],["hav",-8.59694401547879],["When",-8.605081836106951],["fire",-8.60582282156457],["product",-8.610817916131762],["abilit",-8.613122983290907],["fund",-8.620589101727372],["level",-8.624481216274518],["free",-8.626937020484737],["clear",-8.628121005543463],["etting",-8.631491770274554],["receive",-8.633851824080494],["record",-8.635094774588215],["hospital",-8.637291548043788],["left",-8.653221777134128],["South",-8.656440783541347],["according",-8.664605486843243],["body",-8.669880086679],["…",-8.684949430662375],["job",-8.68871340371313],["final",-8.693955760581918],["India",-8.702329987000393],["believe",-8.707063140362692],["film",-8.70715402062125],["Monday",-8.708516758470694],["What",-8.708793409540021],["program",-8.714983667405546],["uff",-8.715032068241038],["better",-8.71605919762025],["claim",-8.718975724781952],["until",-8.719011589741477],["position",-8.720250037543607],["past",-8.721355071499204],["trade",-8.722931500160305],["media",-8.73354935099239],["children",-8.739052338322821],["talk",-8.73991423379153],["source",-8.741658956511685],["might",-8.746773407827963],["With",-8.754927914364497],["X",-8.762372994982673],["increase",-8.76237922506666],["infect",-8.774226070077964],["County",-8.774947262544698],["process",-8.776432729474953],["question",-8.777780855885073],["elect",-8.782044535638635],["room",-8.785683359285514],["information",-8.787780831062399],["Whil",-8.791520200872966],["project",-8.7962542899471],["Thursday",-8.799126525495613],["learn",-8.79946143887231],["important",-8.802011410811101],["positive",-8.809258125535003],["decision",-8.810713038152645],["again",-8.813110994815252],["mode",-8.813495563974751],["&",-8.815091745333163],["making",-8.816679394578607],["spread",-8.818267842446453],["John",-8.823919474646798],["Tuesday",-8.829830593363639],["video",-8.830161159642842],["charge",-8.831617660010714],["Health",-8.83288422510914],["patient",-8.835807301463113],["water",-8.83628986824166],["Sunday",-8.83734984027355],["Saturday",-8.840278760679807],["class",-8.840428726216174],["experience",-8.841779971780568],["food",-8.84366626867136],["major",-8.844808341044171],["women",-8.849348434458419],["money",-8.853730777234256],["effect",-8.855395809372041],["short",-8.856966273066755],["consider",-8.863285115000522],["little",-8.864665165510747],["require",-8.867980429897377],["staff",-8.869227995408817],["together",-8.870931845827432],["possible",-8.872293184738158],["future",-8.872446093786078],["front",-8.875620586643702],["fight",-8.878136882660803],["concern",-8.878522518421502],["ization",-8.88035657017841],["certain",-8.886345235191525],["protect",-8.88852903929013],["travel",-8.894555097889636],["Wednesday",-8.906969625980317],["United",-8.910193308299974],["field",-8.918281554203269],["agree",-8.922855839793636],["parent",-8.932717748714342],["author",-8.946250578976304],["industr",-8.9480249296204],["avail",-8.948394399285458],["investigat",-8.963043783263387],["control",-8.96814768673517],["National",-8.980396056765851],["After",-8.980520776805992],["North",-8.983469926689455],["campaign",-8.999317050682457],["period",-9.006448451968241],["Police",-9.008158287117096],["complete",-9.011708840687543],["Democrat",-9.013489117042397],["third",-9.018994396377968],["attack",-9.02074714160835],["problem",-9.022454366007945],["further",-9.022512732322038],["measure",-9.035392728756348],["York",-9.037023251614208],["strong",-9.03880371287499],["effort",-9.040912607341784],["Covid",-9.0426603273862],["involv",-9.048002647546664],["venue",-9.048894662728015],["impact",-9.05735137591855],["Biden",-9.059407807837122],["deliver",-9.062909003997792],["Africa",-9.064763628045233],["spoke",-9.093453201507558],["Black",-9.0952588382387],["firm",-9.09732991909972],["situation",-9.09918751816842],["confirmed",-9.112841703751547],["security",-9.116776670349001],["focus",-9.118793398798832],["previous",-9.122732880512196],["Universit",-9.124714767036052],["mount",-9.129151610623957],["famili",-9.131191676713335],["opportunit",-9.136751132702862],["success",-9.138771498077293],["compet",-9.147008209903019],["Minister",-9.15098838646492],["access",-9.151009186363028],["distanc",-9.15350274567406],["potential",-9.155081638104129],["companies",-9.155082750988267],["According",-9.157139035308251],["Nigeria",-9.163337453264017],["depend",-9.169674969223172],["minute",-9.190685299372907],["launch",-9.223169043952431],["critic",-9.223655273709621],["facilit",-9.227530787856114],["response",-9.227532167008942],["dollar",-9.227547544488383],["collect",-9.232064745262772],["condition",-9.238652008217358],["financial",-9.24087895475292],["connect",-9.24166825752406],["individual",-9.24536822500577],["character",-9.256682409537923],["Department",-9.265834057516514],["Europe",-9.282028815793621],["global",-9.293769598707748],["stitution",-9.308034874702454],["contract",-9.31584405786355],["customer",-9.332279884930855],["discuss",-9.334737596928102],["benefit",-9.337199366695332],["suggest",-9.339667059249198],["vaccine",-9.342141803548873],["vehicle",-9.34711267889131],["Australia",-9.34960446998659],["explain",-9.349606421916056],["respond",-9.354628968643624],["candidate",-9.374897236001424],["significant",-9.39297859334257],["echnology",-9.403463605190405],["particular",-9.419400362885474],["celebrat",-9.42209012266291],["affect",-9.422090875036798],["difficult",-9.430167445390342],["emergenc",-9.432884090956136],["disease",-9.435601645841103],["environment",-9.460389508851568],["executive",-9.463183137441805],["August",-9.468793740430794],["Office",-9.477269291723058],["approach",-9.485816454840137],["€",-9.48867991741578],["solution",-9.48868132270913],["School",-9.511903798074314],["schedule",-9.520776289065289],["incident",-9.523722359456281],["People",-9.526697286934567],["attempt",-9.52968156446546],["district",-9.535679487426085],["encourag",-9.541713864307415],["conduct",-9.5569590388363],["quarantine",-9.58499486919902],["popular",-9.60413441270746],["necessar",-9.60736311037696],["recogni",-9.613933494577914],["purchase",-9.61710320370011],["California",-9.633548016574988],["population",-9.674162808166779],["describe",-9.70574425137241],["Washington",-9.723730315844602],["â",-9.727366676764749],["restaurant",-9.738355801421562],["Facebook",-9.764476654000411],["£",-9.80695401927194],["professional",-9.82687497152435],["introduc",-9.843102534529905],["q",-10.005731743505464],["é",-10.031577588038694],["™",-10.233345774656247],["responsibilit",-10.233345774656605],["+",-10.270272930648012],["•",-10.702742988416418],["*",-11.223270300013066],["á",-11.239663742636017],["í",-11.460736980523635],["₹",-11.460736980523635],["ó",-11.592791348939416],["‚",-12.028077402335672],["„",-12.103575977834247],["¦",-12.103575977834247],[">",-12.185242644500914],["ñ",-12.371794498444071],["ü",-12.424426077391441],["А",-12.424426077391441],["т",-12.424426077391443],["¢",-12.538805162358766],["·",-12.538805162358766],["½",-12.538805162358766],["ð",-12.60130516235877],["°",-12.667971829025445],["ä",-12.667971829025447],["è",-12.739400400454038],["˜",-12.816323477377155],["ç",-12.816323477377157],["~",-12.899656810710592],["<",-12.899656810710592],["ђ",-12.99056590161996],["Э",-13.090565901620725],["ā",-13.201677012734308],["ʻ",-13.201677012734308],["ö",-13.201677012734308],["ë",-13.201677012734311],["`",-13.326677012743415],["⁣",-13.326677012743415],["®",-13.326677012743415],["×",-13.326677012743415],["»",-13.326677012743415],["č",-13.326677012743417],["œ",-13.46953415560056],["ă",-13.46953415560056],["с",-13.469534155600593],["¥",-13.469534155640519],["ú",-13.469534155640519],["а",-13.469534155640519],["Ў",-13.636200822267234],["š",-13.63620082230718],["ğ",-13.636200822307185],["ã",-13.636200822307185],["်",-13.636200822307185],["å",-13.836200822307184],["É",-13.836200822307184],["┬",-13.836200822307186],["₦",-13.836200822307186],["″",-13.836200822307186],["г",-14.086200822267227],["ı",-14.086200822267227],["ѓ",-14.086200822267273],["ū",-14.086200822307184],["à",-14.086200822307184],["′",-14.086200822307186],["›",-14.086200822307186],["‑",-14.086200822307186],["е",-14.086200822307186],["﻿",-14.086200822307186],["ş",-14.086200822307186],["о",-14.086200822307186],["ל",-14.086200822307186],["´",-14.086200822307186],["ê",-14.086200822307186],["і",-14.419534155600559],["️",-14.419534155600559],["ł",-14.41953415560056],["İ",-14.419534155640514],["Ó",-14.419534155640518],["−",-14.419534155640518],["ѕ",-14.419534155640518],["Ä",-14.419534155640518],["‡",-14.419534155640518],["म",-14.419534155640518],["Ю",-14.419534155640518],["ߋ",-14.419534155640518],["У",-14.419534155640518],["ा",-14.419534155640518],["क",-14.419534155640518],["ု",-14.419534155640518],["ɑ",-14.419534155640518],["ה",-14.419534155640518],["Ž",-14.419534155640518],["מ",-14.419534155640518],["ō",-14.919534155600562],["Ъ",-14.919534155600594],["မ",-14.919534155640482],["ာ",-14.9195341556405],["ु",-14.919534155640509],["တ",-14.91953415564052],["्",-14.91953415564052],["स",-14.91953415564052],["ț",-14.91953415564052],["±",-14.91953415564052],["Ġ",-14.91953415564052],["Ľ",-14.91953415564052],["י",-14.91953415564052],["ø",-14.91953415564052],["ô",-14.91953415564052],["́",-14.91953415564052],["ם",-14.91953415564052],["˚",-14.91953415564052],["һ",-14.91953415564052],["¾",-14.91953415564052],["ﬁ",-14.91953415564052],["²",-14.91953415564052],["ȼ",-14.91953415564052],["⁠",-14.91953415564052],["ć",-14.91953415564052],["₵",-14.91953415564052],["ी",-14.91953415564052],["§",-14.91953415564052],["န",-14.91953415564052],["‐",-14.91953415564052],["ţ",-14.91953415564052],["«",-14.91953415564052],["‰",-14.91953415564052],["ו",-14.91953415564052],["ड",-14.91953415564052],["‎",-14.91953415564052],["¯",-14.91953415564052],["े",-14.91953415564052],["र",-14.91953415564052],["ि",-14.91953415564052],["ं",-14.91953415564052],["Ђ",-15.918434155640519],["ю",-15.918534155640518],["င",-15.918634155640518],["õ",-15.918734155640518],["Р",-15.918834155640518],["Ь",-15.918934155640518],["ိ",-15.919034155640517],["î",-15.919134155640517],["Щ",-15.919234155640519],["Ÿ",-15.919334155640518],["І",-15.919434155640518],["ⅼ",-15.919534155600564],["Þ",-15.91953415560057],["Č",-15.91953415560057],["Ż",-15.91953415560057],["Ā",-15.91953415560057],["ー",-15.91953415560057],["ў",-15.919534155600582],["Г",-15.919534155600651],["у",-15.919534155600651],["њ",-15.919534155600651],["ќ",-15.919534155600745],["Њ",-15.919534155600745],["ж",-15.919534155600745],["အ",-15.919534155640472],["ြ",-15.919534155640472],["လ",-15.919534155640472],["ḥ",-15.919534155640507],["Ö",-15.919534155640507],["暖",-15.919534155640518],["ב",-15.919534155640518],["¹",-15.919534155640518],["ट",-15.919534155640518],["त",-15.919534155640518],["├",-15.919534155640518],["ᴠ",-15.919534155640518],["ת",-15.919534155640518],["Я",-15.919534155640518],["ï",-15.919534155640518],["─",-15.919534155640518],["╕",-15.919534155640518],["ק",-15.919534155640518],["‪",-15.919534155640518],["球",-15.919534155640518],["ှ",-15.919534155640518],["æ",-15.919534155640518],["▪",-15.919534155640518],["╖",-15.919534155640518],["ד",-15.919534155640518],["ရ",-15.919534155640518],["⚽",-15.919534155640518],["я",-15.919534155640518],["ည",-15.919534155640518],["श",-15.919534155640518],["Î",-15.919534155640518],["ž",-15.919534155640518],["β",-15.919534155640518],["ħ",-15.919534155640518],["Ё",-15.919534155640518],["џ",-15.919534155640518],["अ",-15.919534155640518],["च",-15.919534155640518],["қ",-15.919534155640518],["ွ",-15.919534155640518],["ע",-15.919534155640518],["ʏ",-15.919534155640518],["य",-15.919534155640518],["א",-15.919534155640518],["ब",-15.919534155640518],["温",-15.919534155640518],["ʼ",-15.919534155640518],["Ѓ",-15.919534155640518],["သ",-15.919534155640518],["₁",-15.919534155640518],["❤",-15.919534155640518],["ń",-15.919534155640518],["γ",-15.919534155640518],["ē",-15.919534155640518],["Ј",-15.919534155640518],["³",-15.919534155640518],["ġ",-15.919534155640518],["✨",-15.919534155640518],["◆",-15.919534155640518],["ņ",-15.919534155640518],["À",-15.919534155640518],["ᥙ",-15.919534155640518],["－",-15.919534155640518],["化",-15.919534155640518],["⛓",-15.919534155640518],["ｅ",-15.919534155640518],["д",-15.919534155640518],["ש",-15.919534155640518],["נ",-15.919534155640518],["օ",-15.919534155640518],["¼",-15.919534155640518],["地",-15.919534155640518],["➡",-15.919534155640518],["ပ",-15.919534155640518],["¤",-15.919534155640518],["ن",-15.919534155640518],["ż",-15.919534155640518],["ါ",-15.919534155640518],["Í",-15.919534155640518],["घ",-15.919534155640518],["П",-15.919534155640518],["Å",-15.919534155640518],["‼",-15.919534155640518],["က",-15.919534155640518],["Т",-15.919534155640518],["❌",-15.919534155640518],["ဖ",-15.919534155640518],["☺",-15.919534155640518],["צ",-15.919534155640518],["ေ",-15.919534155640518],["Ш",-15.919534155640518],["б",-15.919534155640518],["ल",-15.919534155640518],["ß",-15.919534155640518],["ƅ",-15.919534155640518],["․",-15.919534155640518],["न",-15.919534155640518]]}}