{"version":"1.0","truncation":null,"padding":null,"added_tokens":[{"id":0,"special":true,"content":"<UNK>","single_word":false,"lstrip":false,"rstrip":false,"normalized":false},{"id":1,"special":true,"content":"<SEP>","single_word":false,"lstrip":false,"rstrip":false,"normalized":false},{"id":2,"special":true,"content":"<MASK>","single_word":false,"lstrip":false,"rstrip":false,"normalized":false},{"id":3,"special":true,"content":"<CLS>","single_word":false,"lstrip":false,"rstrip":false,"normalized":false}],"normalizer":null,"pre_tokenizer":{"type":"Whitespace"},"post_processor":null,"decoder":null,"model":{"type":"Unigram","unk_id":0,"vocab":[["<UNK>",0.0],["<SEP>",0.0],["<MASK>",0.0],["<CLS>",0.0],["s",-2.6896694248195345],["de",-3.3779240602277074],[".",-3.4287328159711308],[",",-3.465082712759351],["e",-3.514619718407989],["a",-3.8316880189847176],["en",-4.119438309310839],["t",-4.142175894617591],["la",-4.292015260998133],["d",-4.425188605599171],["’",-4.6526880268138235],["the",-4.7166019166933975],["y",-4.7244900706695585],["n",-4.771368978574246],["que",-4.840607064882407],["in",-4.8791095806026625],["l",-5.0486473958223215],["el",-5.068480913105111],["to",-5.11457387251758],["-",-5.196956603405516],["o",-5.255340306276519],["le",-5.277624053630264],["un",-5.308649032426647],["of",-5.351451937549859],["on",-5.395733532611457],["and",-5.412974293929686],["'",-5.429681220176413],["is",-5.507761372030057],["à",-5.609995366476971],["u",-5.6372379981213765],["van",-5.699498162022643],["i",-5.727778714932237],["het",-5.813794206211256],["les",-5.81701710153048],["ing",-5.8235032968586875],["los",-5.84634524071013],["een",-5.863528232049193],["\"",-5.879063866085314],["er",-5.893438149785252],["al",-5.943354535739768],["“",-5.9656002450155015],["ó",-6.03368995916707],["est",-6.044820227006758],["du",-6.054144615807758],["con",-6.118126649888998],["del",-6.142587722173932],["r",-6.147652003998219],["dat",-6.203661267732667],["op",-6.226885130847066],["ción",-6.240700542757706],["no",-6.250004237233314],["A",-6.269583097594763],["(",-6.270936521292521],["be",-6.288728702702022],["por",-6.304658284877604],["for",-6.3054471482906855],["that",-6.328697740941026],["para",-6.360332683062669],[":",-6.382462787417921],["De",-6.386331223325007],["ly",-6.401390592551591],["une",-6.41098427245729],["pour",-6.414315789319344],["La",-6.415352378489297],["una",-6.473352181371606],["it",-6.481026046106086],["The",-6.482453007422846],["was",-6.498299455193029],["I",-6.549148393406252],["qui",-6.5498476044568985],["je",-6.5546503911735154],["é",-6.602094987420228],["dans",-6.614904452768288],["re",-6.6151244325179075],["au",-6.621774353614052],["with",-6.621826992876693],["met",-6.62946469063116],["voor",-6.630183522579294],["lo",-6.65582872933259],["«",-6.6611571866279125],["sur",-6.669715150842116],["ce",-6.685603187986747],["il",-6.6877684685345535],["C",-6.702540928475777],["an",-6.703824106799653],["die",-6.716795814692974],["zijn",-6.724438256779381],["par",-6.725896588565908],["niet",-6.7397069466887825],["m",-6.739779310215052],["c",-6.749694729517882],["pas",-6.755576217938762],["En",-6.76458526225225],["ment",-6.780283046716997],["las",-6.78060104739548],["om",-6.784936845262337],[")",-6.787480473006372],["El",-6.821210510856254],["ha",-6.89047086221821],["Le",-6.8986881301472724],["we",-6.945203598297372],["más",-6.962462258513337],["aan",-6.967608385232168],["he",-6.972819397179483],["are",-6.9836876386172],["p",-6.991472971374906],["?",-7.011239176801752],["f",-7.013972115037246],["have",-7.03579150560684],["L",-7.036796845558106],["S",-7.039493989592593],["said",-7.080717523543694],["ont",-7.083684388347997],["over",-7.09350378912163],["plus",-7.097711549863558],["z",-7.108220916596489],["son",-7.1157844834005815],["me",-7.145628775564452],["19",-7.146379543993206],["or",-7.148557237312369],["ook",-7.171410639982009],["qu",-7.184487363752364],["como",-7.198823478081975],["1",-7.203031808462914],["from",-7.213214174511233],["by",-7.214318189710962],["has",-7.226595172793065],["aux",-7.233958148733583],["ze",-7.256159246951039],["”",-7.256625512506231],["20",-7.265101521126278],["will",-7.275240879589855],["avec",-7.277174117463012],["bij",-7.27904884451652],["uit",-7.290362747898364],["maar",-7.298044188313064],["not",-7.300865027684143],["h",-7.30791334321232],["mente",-7.31232350789675],["In",-7.336092694432157],["été",-7.355142140217053],["2",-7.358410970471043],["had",-7.374268490172332],["E",-7.38158299223192],["dan",-7.388524226260742],["g",-7.400211690374986],["this",-7.421814124558908],["k",-7.425671545451273],["ik",-7.427863954777235],["%",-7.441418254362565],["his",-7.463161326539563],["Het",-7.46540086444128],["ge",-7.469503751927764],["nog",-7.4707741756312185],["ent",-7.4756911875650225],["‘",-7.482216839020214],["este",-7.5072771019146405],["but",-7.520849776441963],["you",-7.521516180022994],["ver",-7.5254791320223],[".”",-7.526083460513528],["out",-7.543394964995384],["”,",-7.547676485805912],["sus",-7.548607642041356],["zo",-7.553407014441957],["3",-7.553581395097526],["door",-7.55937579124096],["mi",-7.56085258406593],["can",-7.568147085286695],["T",-7.568448686559945],["entre",-7.5694405935938],["her",-7.576673263135959],["their",-7.579814199184325],["5",-7.609038112817386],["»",-7.612933591364559],["ou",-7.617162063661359],["wel",-7.627145053586929],["M",-7.628851059310314],["als",-7.628928260000386],["naar",-7.641159669484509],["D",-7.66059832356189],["ión",-7.665180716246223],["who",-7.665643675501567],["»,",-7.672006714830239],["Il",-7.674864033015867],["sont",-7.677236472065216],["up",-7.678830049255463],["4",-7.678830521659615],["heeft",-7.683424349839074],["x",-7.698179231739244],["ciones",-7.705056863760705],["man",-7.732230811285392],["all",-7.735772217865259],["Les",-7.7449365370160255],["We",-7.753248401904429],["000",-7.754042361834463],["dit",-7.76020212536166],["been",-7.7676262536523115],["fue",-7.778803259527123],["they",-7.779984967843411],["more",-7.797098512697657],["were",-7.804091786791151],["P",-7.808039478882236],["hij",-7.8137558010453905],["cette",-7.82477855569274],["meer",-7.825812831087465],["fait",-7.833548480474764],["mais",-7.839658097432686],["one",-7.846251141250802],[",”",-7.8520146582135855],["dos",-7.862374237073247],["étai",-7.862588826930164],["6",-7.865501209073001],[").",-7.871673941488542],["hebben",-7.876533651242893],["kan",-7.889967371451853],["moet",-7.89140493242005],["mos",-7.895272723005332],["B",-7.895822474240351],["va",-7.902442152149776],["pero",-7.909011755756062],["about",-7.909363108933601],["people",-7.91088686021801],["also",-7.914548640578236],["F",-7.92454085460208],["bien",-7.931218255477349],["word",-7.931740515392379],["jaar",-7.932247349663633],["time",-7.934405990362327],["tout",-7.9366223828518745],["worden",-7.939220878457784],["It",-7.942836752279327],["años",-7.94359988853857],["j",-7.952924375410154],["10",-7.955570628637393],["$",-7.958047934288585],["N",-7.969440407283006],["elle",-7.9715599337632135],["han",-7.9742428601041375],["esta",-7.97462752235999],["puis",-7.996211009345657],["”.",-7.9975917177607485],["He",-8.001155266502533],["être",-8.004681062185245],["wat",-8.007183660904186],["b",-8.008692605679226],["which",-8.009578737545628],["v",-8.013624673122482],["nous",-8.018401450191652],["O",-8.02645680776652],["On",-8.026530637660008],["ant",-8.027950716626108],["No",-8.03226204893339],["\",",-8.032539817245615],["también",-8.034878754219811],["leur",-8.039042908935723],["ve",-8.040732117979502],["está",-8.040816318062529],["Un",-8.05044708654997],["waar",-8.057579007397434],["even",-8.061867137478215],["ndo",-8.063211157126561],["8",-8.063502773068066],["like",-8.066462184371604],["Dat",-8.067057667985521],["–",-8.070097707574734],["tiene",-8.07075404721367],["7",-8.072583889164989],["Je",-8.074577752086078],["year",-8.076163069652852],["deux",-8.078644813341613],["sobre",-8.084957954650879],["G",-8.085794032591314],["…",-8.089243472227714],["),",-8.090684468968924],["Ik",-8.104436901878895],["our",-8.107261947884018],["would",-8.10742922732036],["ón",-8.108767417193736],["día",-8.110362663544006],["/",-8.118524035973225],["Los",-8.122615116722136],["2022",-8.123906661228194],["per",-8.12461338528512],["if",-8.1246378269647],["lui",-8.135019802625065],["autre",-8.135375421419079],["même",-8.135383776983337],["new",-8.13729429773763],["geen",-8.14716310150483],["ies",-8.150185386120647],["avait",-8.15236685388539],["comme",-8.15384384746915],["ar",-8.157949497877793],[";",-8.182611059497543],["9",-8.187981486641283],["co",-8.19194395177673],["fin",-8.195213895350523],["aussi",-8.19809923257614],["vous",-8.200620754420525],["zich",-8.20160022242265],["other",-8.204499073517873],["Y",-8.204548201263611],["when",-8.204715517459729],["30",-8.211570302607818],["after",-8.215005518078137],["R",-8.215362053560654],["werd",-8.221535223466583],["day",-8.237442996091136],["—",-8.239831703118991],["cause",-8.242990909403447],["0",-8.243726569703814],["U",-8.249404008555882],["Si",-8.252000075243522],["place",-8.253884457460517],["kunnen",-8.259606243809706],["week",-8.260316093174792],["todo",-8.261042024700377],["Al",-8.262278266418813],["puede",-8.27063210543225],["go",-8.274079627805614],["ans",-8.276704023899523],["just",-8.277940912155287],["faire",-8.278447181600733],["she",-8.283963558943801],["J",-8.286600080684137],["what",-8.286780941441654],["veel",-8.287440400783114],["there",-8.288612922934636],["2020",-8.293993801451842],["parte",-8.295665592756267],["daar",-8.297667649179676],["après",-8.302671829892368],["muy",-8.30682255897224],["some",-8.312556849049258],["!",-8.313666013659102],["hun",-8.314598149088928],["part",-8.318129963443145],["than",-8.322453176415035],["eux",-8.329075060126115],["país",-8.329161432581786],["w",-8.329625662573648],["gaan",-8.330470639309837],["onder",-8.332106479291557],["ir",-8.333656888697426],["».",-8.334669997587088],["ía",-8.33948572322522],["point",-8.340145627162816],["K",-8.340975181721117],["año",-8.341697090910078],["Maar",-8.350730009275221],["gaat",-8.353017710399953],["année",-8.354411040706001],["mensen",-8.358782686514285],["now",-8.36412184058884],["avoir",-8.365961526119545],["ando",-8.370510685058928],["Por",-8.371887645314114],["Se",-8.374255222693513],["hasta",-8.378984592775916],["15",-8.382076434023588],["rès",-8.38575669246804],["get",-8.387077392204786],["them",-8.389714358247502],["first",-8.393104172347908],["zou",-8.40097635837758],["two",-8.40813392769283],["public",-8.408375900773503],["plan",-8.410599452618948],["17",-8.411635139889919],["fois",-8.415478899330303],["weer",-8.416104334892157],["its",-8.416262786161393],["tegen",-8.420606559394773],["my",-8.42184608732967],["car",-8.425493862178142],["2021",-8.4261022883367],["want",-8.431209429833888],["hay",-8.434271071206815],["million",-8.434632907994402],["how",-8.434863049029552],["16",-8.43494407742451],["12",-8.43942041883324],["deze",-8.441507351068143],["desde",-8.441581062649764],["oit",-8.44770318642269],["him",-8.456464513709374],["ux",-8.456583595413132],["moment",-8.460582025097986],["back",-8.465996071999008],["personas",-8.470422177182302],["11",-8.477829899877248],["cuando",-8.483460330656872],["land",-8.483461555052102],["ma",-8.484214722410048],["donde",-8.496965969819048],["contre",-8.50010470763339],["durant",-8.501698730835477],["able",-8.506519665599264],["24",-8.510412755575315],["V",-8.51256419105967],["long",-8.518465465222832],["contra",-8.525173752763322],["This",-8.53809749082451],["lors",-8.538299851376719],["Een",-8.538418480611352],["state",-8.539234807566494],["haar",-8.540394455107712],["pays",-8.54238832785455],["18",-8.543925861264508],["most",-8.5455484436844],["Pour",-8.546178706329023],["nos",-8.546574287735103],["ex",-8.547815629122722],["But",-8.549188282814587],["ado",-8.553942776972804],["your",-8.553945174350034],["caso",-8.556687557636117],["ces",-8.557343011371614],["ante",-8.557625227479697],["á",-8.559743870476908],["jour",-8.56627772825829],["peu",-8.566372712480206],["toda",-8.568100444911945],["could",-8.570592670133477],["H",-8.57277649241627],["ación",-8.583667290963126],["dijo",-8.590556746555945],["COVID",-8.592696260219704],["13",-8.597888887722835],["egún",-8.601752416230902],["coup",-8.60237170670114],["zelf",-8.613084055742071],["personne",-8.614786618530093],["ser",-8.615455031877966],["goed",-8.616466842480323],["total",-8.618717492448575],["any",-8.618943502030906],["près",-8.620933913740934],["work",-8.621029291780165],["mee",-8.624119564957063],["heb",-8.6249018768705],["vez",-8.630370757979954],["án",-8.633472211496732],["komen",-8.634688902802058],["into",-8.635688594575392],["temp",-8.642164408646238],["porque",-8.643356783284098],["Mais",-8.645267248195381],["ci",-8.64600517984908],["avant",-8.649785924696598],["peut",-8.65224046294654],["premier",-8.654566953151775],["last",-8.655929035413454],["real",-8.661136191557576],["25",-8.66142315744763],["staat",-8.662088355057403],["tot",-8.663961264158761],["take",-8.665843659918458],["being",-8.66859905075211],["through",-8.674250540906812],["hier",-8.674615240567844],["auto",-8.676221831903614],["Trump",-8.676760266545081],["final",-8.6773971945548],["momento",-8.678085193501289],["50",-8.678284962078846],["dernier",-8.678745161936012],["tiempo",-8.684709620893743],["¿",-8.685209067922475],["twee",-8.688546988591904],["forma",-8.69060531737643],["andere",-8.692214041960785],["toute",-8.693598461874465],["police",-8.693813849356076],["face",-8.694863920606185],["kom",-8.695597035471572],["social",-8.697250067432606],["during",-8.700651190311355],["14",-8.703367170436945],["solo",-8.703962858310296],["way",-8.708331280871189],["make",-8.710056486159239],["había",-8.7110295949491],["ca",-8.712496256305528],["Con",-8.714629630353738],["ù",-8.71564509653058],["quien",-8.724190120704298],["where",-8.727026871772804],["home",-8.729187103056638],["coronavirus",-8.731259685140984],["millones",-8.734895346921721],["iendo",-8.735150734999422],["nombre",-8.736311529617696],["Van",-8.738298948243983],["doen",-8.738733738445724],["mis",-8.739056236994191],["Et",-8.740308833474764],["off",-8.742111675180675],["base",-8.752875986890995],["well",-8.756232293123775],["todos",-8.757558264867324],["ba",-8.759257419749424],["hacer",-8.760181119819578],["Une",-8.7619961703856],["maken",-8.765058540250005],["San",-8.769724475102139],["Er",-8.771499854539831],["tijd",-8.772185805118916],["krijg",-8.775600456845527],["monde",-8.776285235147993],["every",-8.776694886417006],["nieuwe",-8.777003256459775],["high",-8.778687029239201],["going",-8.779035987423516],["team",-8.779599314743919],["sera",-8.78013924949311],["government",-8.782820573498352],["many",-8.786414218288488],["th",-8.790649933006637],["président",-8.794428327923429],["100",-8.799534474478122],["Lo",-8.803116590700569],["ur",-8.805495601465974],["están",-8.805533649155024],["whil",-8.806195052070382],["zal",-8.808904582630497],["cuenta",-8.80964044873047],["thos",-8.81020650572711],["encor",-8.811388539482952],["club",-8.811418090333387],["moin",-8.811776060112848],["New",-8.81213849010215],["equipo",-8.814181401115892],["before",-8.814190331770465],["emos",-8.817147617689606],["era",-8.817171358151707],["Estado",-8.818203987765386],["sans",-8.818255219521788],["première",-8.819204540008354],["film",-8.822028961483566],["nuevo",-8.82206617476202],["mayor",-8.82303351179247],["mal",-8.82345444820869],["help",-8.82506575262393],["And",-8.825454837420319],["need",-8.830294970055512],["cada",-8.830327183580632],["weg",-8.83174128182234],["vida",-8.833587152345757],["galement",-8.834756781183378],["down",-8.836676232305777],["ville",-8.838291088715597],["tres",-8.839307298384334],["France",-8.841314229622549],["sido",-8.844113688417973],["toch",-8.845153640665409],["hace",-8.846191545499934],["tous",-8.84630527379609],["mismo",-8.84904940496487],["partido",-8.849417552122578],["W",-8.85326043296875],["years",-8.854619721623031],["primera",-8.855577365625996],["ation",-8.856573119874575],["ju",-8.85747652722542],["vind",-8.858817940535374],["semana",-8.862009060640329],["mijn",-8.862704390701529],["gran",-8.864445411128003],["health",-8.865393078909305],["Ze",-8.867247035579922],["question",-8.874104473303662],["media",-8.874411948973798],["wil",-8.87453229083249],["use",-8.878480840948324],["alle",-8.878757840301088],["should",-8.880587881927148],["euros",-8.881361115230046],["volgen",-8.89025087282931],["hoe",-8.891336148692083],["dont",-8.891940105523734],["know",-8.892696733279806],["mois",-8.894667325581992],["tras",-8.89531849400177],["importante",-8.89564535929324],["embre",-8.896053540846736],["Op",-8.897375786711107],["40",-8.90059326793813],["ministre",-8.900673117598105],["idad",-8.903074718655835],["euro",-8.903343188263875],["otros",-8.905601287851425],["continue",-8.908118191799147],["thing",-8.911765679130284],["cas",-8.91200313164688],["presidente",-8.913364313864651],["agains",-8.915379364510848],["still",-8.916431686655784],["así",-8.919533428612182],["Nous",-8.920122221600632],["21",-8.92385323734481],["después",-8.928349018731922],["último",-8.928757117430287],["Na",-8.929907677623145],["zegt",-8.931398470054738],["déjà",-8.932819016343572],["lugar",-8.933535110515047],["00",-8.934196568271977],["local",-8.936679105259296],["nueva",-8.9366823901678],["nouveau",-8.937227094414624],["Als",-8.939559340903482],["pasado",-8.939890390016371],["heel",-8.940325208345989],["Dans",-8.940885454001403],["22",-8.942521827088441],["don",-8.943014854887426],["Ook",-8.945112692268763],["eerste",-8.950170045811946],["Hij",-8.950397592036285],["nouvelle",-8.950424367892309],["Be",-8.951716909875849],["lopen",-8.954698169863313],["ujour",-8.961934399973234],["quelque",-8.9626362057604],["medio",-8.96318884859991],["será",-8.963596622361372],["certain",-8.964829817390584],["start",-8.967255638796422],["trois",-8.970362878130427],["Re",-8.971847128160185],["three",-8.973389392693846],["zien",-8.974584592146567],["Die",-8.974590098629474],["Z",-8.97584206930269],["vie",-8.976386167747638],["force",-8.977807845915247],["leurs",-8.978163008138093],["made",-8.978214194190972],["tanto",-8.97835099715875],["She",-8.978407336304628],["under",-8.979582138368205],["í",-8.980333571611224],["hem",-8.982201545043903],["Daar",-8.982546728020159],["donc",-8.983559815133436],["iets",-8.984329027812809],["may",-8.98618271748581],["200",-8.986420437896498],["antes",-8.986681953743368],["ça",-8.991048145386765],["look",-8.9936593702119],["Nederland",-8.996011186130458],["mejor",-8.996158988351795],["game",-8.999641832203896],["mo",-8.99986902691232],["Ademá",-9.003609376268006],["via",-9.003923378409443],["hele",-9.00445735849221],["sector",-9.004501186227174],["second",-9.005621558802442],["support",-9.007181944230283],["tussen",-9.007235415833104],["ait",-9.009343622106456],["virus",-9.009922228163212],["Zo",-9.012868078243567],["plusieur",-9.013305055542869],["ico",-9.014339516724595],["sous",-9.015237615115538],["best",-9.016753342387126],["entras",-9.018029212407129],["hecho",-9.018946244328028],["tant",-9.019280718306073],["very",-9.021940046160015],["school",-9.02623067541191],["grote",-9.02895455000036],["trabajo",-9.029002562817722],["semaine",-9.029555274128946],["Me",-9.03026343578637],["otro",-9.031808919726135],["Elle",-9.03207378743226],["test",-9.033111213404567],["dernière",-9.033745132230667],["situation",-9.033805178105075],["ainsi",-9.034050498071414],["match",-9.035190099078374],["sociale",-9.036956233684691],["Au",-9.038550569714278],["alleen",-9.040106292503525],["country",-9.040142897035775],["vol",-9.040340915017307],["change",-9.040951728880884],["heure",-9.048145617293173],["alors",-9.049710555425648],["much",-9.050166232767538],["Esta",-9.05124511930854],["men",-9.052882940767663],["good",-9.053177659456237],["À",-9.053766892407985],["qué",-9.055086188298091],["suite",-9.056027841619839],["Pero",-9.057004550642514],["voir",-9.058458180412334],["Ma",-9.06392313901328],["menos",-9.06417481117224],["projet",-9.064768770476231],["ter",-9.066886218209142],["issue",-9.06700356527184],["So",-9.067688984999943],["ever",-9.06908716830986],["pandemic",-9.069784884899859],["ils",-9.073254299393742],["23",-9.073986604025098],["punto",-9.078953700575816],["water",-9.079153231977543],["dag",-9.07947391561709],["tener",-9.080311466333256],["selon",-9.082134995822113],["number",-9.082356518420177],["ja",-9.082867835871053],["chez",-9.083313682795648],["horas",-9.086431572023656],["homme",-9.086732543470468],["important",-9.08928579374301],["cases",-9.09094030930309],["vers",-9.092167079708133],["service",-9.09271617806725],["business",-9.092803043853397],["Para",-9.093981952498515],["think",-9.094355878164832],["information",-9.096433955121482],["procent",-9.099868959112069],["ahora",-9.100035104800124],["mucho",-9.100359053964823],["come",-9.101133357392023],["There",-9.10211641185036],["Covid",-9.10261363934989],["empresa",-9.103141031518259],["actual",-9.103549012851968],["around",-9.107109280161193],["right",-9.107948503772977],["says",-9.1082341900045],["China",-9.10859033672018],["uego",-9.109290220520114],["Europe",-9.112192619975609],["old",-9.112729890193519],["équipe",-9.112948384381163],["Este",-9.115723699487322],["primer",-9.116215461596713],["ciudad",-9.116270362712147],["calle",-9.117446123424145],["gas",-9.11793208495202],["did",-9.118492142714882],["leven",-9.120237031104313],["age",-9.120313357332575],["these",-9.121701306421098],["For",-9.12242064407659],["heid",-9.124848477045132],["open",-9.125231246818663],["Ukraine",-9.125627206179956],["mil",-9.127046403818948],["acuerdo",-9.127180854574979],["26",-9.127408456426643],["familia",-9.12751565698742],["season",-9.128318223554473],["hard",-9.128919726895774],["finale",-9.130128943586975],["politique",-9.130295452398755],["If",-9.131309578487311],["ga",-9.131343163107406],["Sin",-9.131715371956414],["Su",-9.13202023056887],["beau",-9.132978032896364],["world",-9.137345485154441],["manera",-9.13744943677014],["site",-9.140871931624943],["mundo",-9.14684593911064],["gouvernement",-9.151022497173138],["lot",-9.151658164336528],["grand",-9.153324765877725],["&",-9.153964397236825],["such",-9.15539650350295],["close",-9.157164066773344],["general",-9.158278794662028],["fuero",-9.159068793624503],["estado",-9.159801794330914],["Cett",-9.160743943879286],["hand",-9.161021109745864],["echt",-9.162450085835147],["video",-9.163780830767726],["kun",-9.163896790099564],["US",-9.165892504620262],["afge",-9.166018241560355],["life",-9.166097014163217],["ben",-9.166256158706911],["since",-9.167289689308173],["later",-9.169153926056605],["jusqu",-9.170563954300405],["embargo",-9.17087302755536],["estos",-9.171590377454011],["play",-9.171617057369641],["show",-9.176118396811525],["estaba",-9.179410779601685],["nada",-9.18202271850594],["kwam",-9.182429717614134],["possible",-9.183807863186793],["28",-9.18528537532817],["self",-9.187057958566593],["début",-9.188418193222478],["X",-9.190751219071787],["gobierno",-9.191382432970247],["communit",-9.19255618249862],["tuvo",-9.194696857916718],["Gobierno",-9.194703242655478],["27",-9.196492601458484],["lieu",-9.196505117449945],["especial",-9.197896768296033],["keer",-9.200919246498742],["situa",-9.201134356872275],["zona",-9.202678332469521],["company",-9.20307477689213],["empre",-9.203692322580064],["ch",-9.205012613364607],["altijd",-9.207030640512945],["500",-9.208915061477219],["terug",-9.209826013257032],["proyecto",-9.212794788592225],["60",-9.213385785257815],["eigen",-9.213550833551114],["That",-9.213869058346372],["femme",-9.216562496623649],["État",-9.21741466188865],["came",-9.219582377540727],["family",-9.219968096248714],["president",-9.22014589916093],["servicio",-9.220822729071319],["Dit",-9.223945208635616],["Par",-9.22396355144447],["hoy",-9.22409199224473],["nuestro",-9.225955896455297],["mon",-9.226904622333958],["result",-9.22842939934752],["algo",-9.230385632365696],["hui",-9.230716727514615],["uur",-9.232428085085],["niveau",-9.234066761179648],["report",-9.234904189895634],["waren",-9.236123668077877],["pro",-9.236352445435788],["personal",-9.23642992617875],["national",-9.237978616837097],["gewoon",-9.239505635145939],["including",-9.243277768272488],["faut",-9.246938547962186],["estar",-9.247000786796953],["main",-9.248992358757793],["partir",-9.250473875701974],["next",-9.252322220413575],["record",-9.253010856387144],["Twitter",-9.255562502894488],["ré",-9.256296913931084],["ron",-9.256973747451006],["mogelijk",-9.25720680910028],["vent",-9.260797769655248],["2023",-9.260835330539559],["laten",-9.265048408156819],["cours",-9.26762473495332],["té",-9.267923430724013],["binnen",-9.270492835397935],["venir",-9.27197822644679],["head",-9.27409228369605],["grupo",-9.274304475234437],["Dan",-9.276853155452557],["rix",-9.277531141935583],["groupe",-9.277727995870528],["entreprise",-9.27896430129163],["amos",-9.279628911241208],["notamment",-9.279827451969554],["tan",-9.280963625317277],["crisis",-9.282627941290954],["avai",-9.284261339181718],["recent",-9.284711100389394],["ready",-9.289289455987817],["impact",-9.289769887326676],["grande",-9.289937349961782],["own",-9.290001189594282],["za",-9.291907330356901],["pu",-9.292823369800466],["post",-9.29296580553211],["casa",-9.293077896195458],["To",-9.293306933350596],["poco",-9.293911742614018],["partie",-9.294016561912088],["say",-9.295726632759024],["2018",-9.295762863917272],["rapport",-9.296863645430783],["él",-9.297049059762488],["ging",-9.29748769568062],["line",-9.298052957104645],["Nacional",-9.298063570893241],["política",-9.299463426061628],["zoal",-9.301424924006344],["mes",-9.302255102022556],["Mi",-9.302461671403309],["lang",-9.30262856528321],["person",-9.303055932712734],["student",-9.304964229240081],["Mr",-9.30552842659311],["houden",-9.305783638236978],["care",-9.306389502040751],["put",-9.306622032663501],["You",-9.308534993430829],["travé",-9.308689098665024],["onze",-9.309308229445552],["poder",-9.309411189832911],["ici",-9.30994452752199],["mij",-9.31234245912975],["same",-9.314148664618187],["29",-9.315016109409871],["anti",-9.315837237078611],["Met",-9.3163784982112],["pre",-9.317211837372632],["mar",-9.320014129187362],["top",-9.320394626385513],["between",-9.321344196061482],["told",-9.321609477679694],["werk",-9.321833805123726],["tijden",-9.321995739413051],["tipo",-9.325775741984486],["centre",-9.32653934209287],["Biden",-9.327177166385962],["both",-9.327566230650204],["minder",-9.331174792674684],["drie",-9.33217278536129],["rond",-9.332907501109275],["group",-9.333306265277132],["podría",-9.338457551006146],["President",-9.338741026053938],["air",-9.33940326119544],["large",-9.340177855599627],["control",-9.340470963020762],["staan",-9.340719590911817],["politie",-9.341430920260981],["hospital",-9.342176682639916],["35",-9.342547764537514],["steed",-9.348278962778249],["got",-9.351001481171123],["hombre",-9.351068678641074],["services",-9.35242991994147],["cual",-9.353086908325992],["otra",-9.35414223757492],["ambién",-9.354631232934898],["nother",-9.357709603736321],["extra",-9.357868761885145],["court",-9.35812058674024],["six",-9.358532879938775],["cent",-9.358967723653315],["achter",-9.360072132235672],["Voor",-9.360941589312446],["pris",-9.361190954241613],["Esto",-9.361333014447215],["droit",-9.361685048466324],["won",-9.363295676924785],["great",-9.36389750936008],["dar",-9.365684584305995],["far",-9.366372977022447],["geld",-9.36782933238264],["contact",-9.368466268634615],["problema",-9.370243123461535],["vote",-9.371515815846303],["chose",-9.37766797611254],["problem",-9.377904931323418],["autoridad",-9.378634603009004],["ôt",-9.37927174712219],["bi",-9.379338783356811],["déclaré",-9.37960622632699],["four",-9.379754506597187],["low",-9.379781227750007],["app",-9.3811220426089],["ello",-9.381341178453333],["maal",-9.38234402446021],["Wat",-9.383729104283576],["70",-9.385252128759609],["côté",-9.386635809671663],["alguno",-9.387666932546733],["current",-9.390455004970686],["keep",-9.390903907245104],["jeu",-9.390909093831937],["effet",-9.392759797066143],["medida",-9.392760876623857],["call",-9.394526818451459],["avon",-9.397088913000477],["saison",-9.397146047000849],["travail",-9.401131183612367],["action",-9.402036899638686],["Una",-9.402094455808221],["compte",-9.402646261882937],["haber",-9.403923432505174],["few",-9.4041047739494],["mag",-9.404936491772236],["tien",-9.405043813593736],["Méx",-9.407547327550834],["director",-9.408036948112418],["jaren",-9.41091186749953],["Co",-9.411037093321145],["Europa",-9.411117749449861],["€",-9.411728723462867],["80",-9.412172124190189],["cambio",-9.415934326847404],["bon",-9.415938677351836],["31",-9.416855244717372],["York",-9.417585061661587],["Friday",-9.418492439356097],["coming",-9.418659798060519],["meses",-9.419940816895094],["nuestra",-9.423580993000714],["wereld",-9.424489011287156],["huis",-9.424834949267536],["pendant",-9.42493653730031],["live",-9.427478546521943],["ooit",-9.430065090062836],["actividad",-9.432860760518778],["case",-9.432957660332065],["proceso",-9.438452292116466],["mucha",-9.441686533055401],["State",-9.444098951218475],["Oekraïne",-9.445139688857779],["seule",-9.445394275104563],["notr",-9.445703757971156],["España",-9.445781310590466],["provide",-9.446036299708128],["última",-9.446561283591272],["plaats",-9.447697549195176],["famille",-9.447922446562071],["programa",-9.448345265244427],["Dr",-9.44842276004494],["aient",-9.450208834214543],["American",-9.450997640838093],["ailleur",-9.451510938342459],["laatste",-9.452143980783795],["één",-9.452419621223125],["vier",-9.452741241460437],["nivel",-9.453289146971965],["night",-9.45684517481982],["willen",-9.45705176678824],["condition",-9.4585326141496],["région",-9.458741123729933],["though",-9.459057001724386],["jamai",-9.459214355864962],["election",-9.46054676475978],["Sur",-9.460847990352587],["pourrai",-9.464272109538967],["each",-9.467383458092911],["chef",-9.469397265342604],["Rusland",-9.469610199887313],["Ver",-9.470052247739162],["Saint",-9.470588184620325],["Sa",-9.471545543122602],["direct",-9.472136171424092],["seguridad",-9.472332415031104],["aurai",-9.472607297473884],["different",-9.473192300207621],["Du",-9.475361679628033],["jeudi",-9.476219016287892],["pouvoir",-9.476231532479462],["zij",-9.47875180520074],["eront",-9.480388167316708],["month",-9.480577918775182],["cosa",-9.481446374671995],["centro",-9.485112189914545],["ès",-9.4883343177434],["online",-9.490329682541422],["Volgen",-9.49075468711413],["red",-9.490785640733078],["tour",-9.491241750211746],["stad",-9.49334849390979],["junto",-9.493958087732713],["mercredi",-9.494026777232783],["Russisch",-9.494552617897098],["joueur",-9.495162457942852],["love",-9.495350357675115],["city",-9.495455820144013],["Selo",-9.496004725968008],["historia",-9.496439969904683],["win",-9.497133105856655],["annoncé",-9.498507428643023],["system",-9.498692104804025],["kinder",-9.499034133842962],["dimanche",-9.499104590803057],["otras",-9.49970135608018],["found",-9.500072608969813],["unos",-9.500655514085384],["90",-9.501230314289167],["bajo",-9.50167772201219],["Bij",-9.502673026905804],["vía",-9.502953368442597],["cuatro",-9.50303824391547],["near",-9.503397779160238],["include",-9.503905933872833],["mardi",-9.504220841718592],["lundi",-9.505255628093373],["principal",-9.507412775556466],["hizo",-9.507905530959352],["verder",-9.50921838645295],["informa",-9.50924324231995],["alguna",-9.509835929592153],["45",-9.511012850660151],["decision",-9.512019137836475],["vendredi",-9.512071654812509],["produit",-9.5120871423291],["term",-9.512981875105865],["vrai",-9.51421478744718],["russe",-9.514557961974443],["cómo",-9.514822838456887],["zit",-9.515112230708999],["esto",-9.515314901127189],["Russi",-9.515589500356851],["dio",-9.51700908605391],["tenía",-9.517055143498318],["agua",-9.517529359217475],["weten",-9.518789550234429],["full",-9.521242610606185],["lado",-9.5221591979691],["persona",-9.522416341168777],["Unidos",-9.522827940303705],["onderzoek",-9.525238198127294],["dire",-9.525356899013312],["side",-9.525783119614278],["celle",-9.527952754536674],["voorbeeld",-9.52868928423765],["weet",-9.528705180911409],["gebruik",-9.529063331296044],["used",-9.529273598569908],["course",-9.529860724628811],["nieuw",-9.529874992305952],["inform",-9.530173874825977],["vi",-9.530313817743169],["half",-9.53046893146417],["Ha",-9.530773929353153],["population",-9.531676681614105],["reported",-9.532415687559025],["nodig",-9.535605027558766],["mesure",-9.536373906899808],["bedrijf",-9.536431256155655],["charge",-9.536646033451632],["aire",-9.536808827388516],["salud",-9.53701574636083],["across",-9.537198363358389],["resultado",-9.538264124315646],["raison",-9.538997162170919],["blijven",-9.539804840458544],["gente",-9.539848527246027],["fans",-9.539965892815639],["porte",-9.540761703827147],["quand",-9.541426276908263],["série",-9.541690114210201],["unque",-9.54220094548116],["adde",-9.543117907279193],["ban",-9.543218402744346],["Ucrania",-9.543391117741816],["Mo",-9.543869902128396],["capital",-9.545191287122476],["When",-9.545604022155018],["zonder",-9.545628786934326],["parent",-9.548527013041433],["gemaakt",-9.549733669262704],["vient",-9.551774049540331],["give",-9.55208393743636],["aantal",-9.552395196092297],["mettre",-9.553262560275456],["posible",-9.55524763392776],["mort",-9.556150520381358],["Pro",-9.556227597854093],["vooral",-9.559464297588189],["remain",-9.561089561626536],["trata",-9.562309766042404],["jó",-9.563022893850754],["source",-9.563858830797523],["cela",-9.565392309357605],["próximo",-9.566038088647048],["cet",-9.566747802704947],["frente",-9.567425368273874],["sigue",-9.568453597520014],["reste",-9.569417148420115],["minister",-9.570052935381426],["hi",-9.570256593526576],["quatre",-9.570954378058442],["bar",-9.571375432613404],["concern",-9.57152500291641],["big",-9.57214291143838],["project",-9.572951393121876],["samedi",-9.574131783713419],["event",-9.577329450886305],["Son",-9.578062123165251],["Car",-9.57842773780186],["derecho",-9.579415462410749],["working",-9.579612799323796],["ido",-9.58000270967856],["comment",-9.580491943392298],["zone",-9.58210682674877],["maakt",-9.582792019680355],["guerre",-9.582931331196107],["suis",-9.583767899679327],["position",-9.585858944332712],["hour",-9.585984387586148],["bonne",-9.586258542946611],["ullen",-9.587787820969442],["geven",-9.58794554469167],["número",-9.589209887724504],["nacional",-9.590237031444218],["señal",-9.590570897727606],["laat",-9.590625828402267],["encuentra",-9.591680807274638],["oficial",-9.591705304035528],["jarige",-9.592781795894721],["ally",-9.592891424986558],["dólar",-9.593215200667942],["market",-9.593491473198476],["Apple",-9.593942738030908],["Ja",-9.594499786260531],["area",-9.594859682254679],["wij",-9.594919430531625],["ij",-9.595568742280939],["rien",-9.595607808829401],["hit",-9.596268054341873],["TV",-9.596431754102582],["production",-9.596802566193265],["militaire",-9.597923325468493],["entro",-9.598343651667538],["kind",-9.599090370727012],["March",-9.599238259223576],["miento",-9.60062154371657],["grandes",-9.601512687047949],["misma",-9.601984191930793],["price",-9.602640265291022],["prendre",-9.602775007011903],["image",-9.604093738475],["vu",-9.604186085470232],["body",-9.60541267044569],["level",-9.605578549955245],["sistema",-9.605992407682638],["sino",-9.608486017296151],["niño",-9.60848804575568],["effort",-9.609161833245757],["left",-9.609205390593655],["power",-9.609870615022032],["never",-9.60987219035143],["objetivo",-9.610407884906358],["llegar",-9.611028242519243],["according",-9.611337162522851],["occasion",-9.611521065369654],["histoire",-9.611670842780864],["City",-9.612636524272745],["cualquier",-9.614305964965062],["casi",-9.614597409703679],["segundo",-9.615461984431517],["United",-9.61550459106496],["devant",-9.61697950779481],["endo",-9.619320081504267],["St",-9.619802261225725],["decir",-9.6200326750707],["order",-9.621182687550204],["present",-9.621270766471898],["groot",-9.621774836639663],["tra",-9.622378997671788],["mean",-9.625002185478593],["ancien",-9.625143913290815],["hora",-9.625490106915553],["ken",-9.627310323914106],["beter",-9.629305033937888],["muchos",-9.629797429185118],["West",-9.63002354615286],["Of",-9.630455857355372],["return",-9.63057706388355],["snel",-9.631450634382638],["oorlog",-9.632048348101403],["Jean",-9.632462203804016],["nationale",-9.633801260548815],["positive",-9.634793591320907],["something",-9.635161249306094],["Québec",-9.635936889666864],["avond",-9.636810908772372],["statement",-9.636835485053206],["devrai",-9.636897801751779],["Monday",-9.63739989966809],["share",-9.637713711946027],["noche",-9.637995609348174],["nemen",-9.640402101510817],["jeune",-9.640970190852814],["ic",-9.642111341000831],["primero",-9.642231322408168],["pay",-9.64353027252683],["sol",-9.64558547948138],["deuxième",-9.64636811239846],["investiga",-9.647953559968084],["receive",-9.648479230424154],["Nederlands",-9.649102490202694],["elkaar",-9.64952728902127],["enfants",-9.651719693228596],["minuto",-9.652410142488021],["sí",-9.652740136657485],["votr",-9.653055564646706],["believe",-9.653750492275432],["eerder",-9.654110170225515],["bekend",-9.655247547270793],["zitten",-9.655499248257954],["better",-9.655616385137861],["feel",-9.657894191401102],["All",-9.661765237095128],["tion",-9.662257114551398],["ité",-9.662549522039495],["until",-9.663397508008256],["Chine",-9.66446504819415],["com",-9.664489810366089],["must",-9.664654985016327],["Así",-9.665653383780153],["werken",-9.665951353608373],["former",-9.66709079463894],["kon",-9.66794677233732],["chance",-9.66970441205217],["gemeente",-9.670132906292762],["South",-9.671302758513253],["What",-9.671552649372684],["mise",-9.672803781359718],["miljoen",-9.675065031904584],["haci",-9.67510516921114],["wh",-9.675330415906792],["quiere",-9.675438803247356],["quarter",-9.676805231670869],["cargo",-9.676886215996243],["zeker",-9.677233263971793],["soir",-9.677525861506254],["bo",-9.678238933850125],["lunes",-9.678498444375524],["zeggen",-9.679450996125754],["Rusia",-9.679547533789677],["directeur",-9.679693128030591],["bank",-9.680860164347326],["begin",-9.680961184764957],["vario",-9.681147885048796],["sport",-9.68116647280536],["somme",-9.682157086608205],["petit",-9.68224126008624],["stock",-9.682803242166779],["afin",-9.683298989811632],["mer",-9.683412155626925],["children",-9.683620445290114],["trop",-9.683664577353685],["rez",-9.684536628292767],["light",-9.686695924176497],["anders",-9.687164452623097],["expert",-9.687810281334407],["might",-9.689035367905134],["Or",-9.689300127410153],["vehículo",-9.690397838364822],["viern",-9.690419075878681],["does",-9.691170365867052],["Di",-9.693830559117812],["arly",-9.693982099468982],["didn",-9.694614975306525],["ín",-9.695264844077741],["energie",-9.696590824010798],["mercado",-9.697196841674753],["cinco",-9.697303753628198],["serie",-9.698106286440824],["National",-9.699257586012358],["future",-9.699311732831884],["redes",-9.700078944803867],["Man",-9.70125217526834],["away",-9.701304961744423],["front",-9.701478868727865],["months",-9.701918407311908],["público",-9.70238570044323],["five",-9.70256726198662],["here",-9.702991875783527],["iedere",-9.703341515944448],["things",-9.703545332366705],["route",-9.70556376929221],["increase",-9.70692253296155],["nation",-9.707122993133776],["vast",-9.707546742229074],["aujourd",-9.70857910176666],["mujeres",-9.708932365495933],["mujer",-9.709067565124482],["sécurité",-9.70930015724999],["Hoe",-9.710037773514658],["County",-9.711519856868634],["Nu",-9.711565956499726],["vrij",-9.713419988411383],["hijo",-9.715337898321252],["Canada",-9.716282355638134],["réseau",-9.716449322778],["alles",-9.717025727503131],["ciento",-9.718581681277442],["alway",-9.720225494644122],["risk",-9.720308450526382],["producto",-9.720819976256006],["Zij",-9.720918789460832],["sentido",-9.721004246062533],["gan",-9.721405621398775],["Plus",-9.72231121036933],["tendrá",-9.722595697403634],["demande",-9.725254579349983],["ellos",-9.725650448101739],["staff",-9.72680907658745],["affaire",-9.727378805999763],["mañana",-9.727959231856332],["May",-9.72875271099636],["food",-9.729385265148146],["process",-9.729500342314118],["making",-9.731694476925242],["boven",-9.732167838204232],["David",-9.732249281149157],["Black",-9.732374331967069],["samen",-9.732490709499693],["dice",-9.73307101451065],["dad",-9.73312560998275],["brand",-9.73333376864624],["rest",-9.733531534371522],["sábado",-9.733640339357553],["Health",-9.73506939234278],["officer",-9.735723640756474],["Ben",-9.736591553218899],["stay",-9.737068329490672],["Whil",-9.737176712397723],["minutes",-9.73827724103501],["espera",-9.739099032619063],["members",-9.739523612783422],["juego",-9.739932589833437],["spread",-9.739976159533139],["jugador",-9.740043513033422],["erg",-9.740850729240957],["Ya",-9.741701604958909],["With",-9.743259868001704],["Thursday",-9.743669748504587],["realizar",-9.744032450669856],["blijft",-9.744430781890372],["name",-9.74551727994844],["cerca",-9.74670989398588],["become",-9.747795171192507],["global",-9.748970610564985],["went",-9.7490305933925],["aún",-9.749605194447959],["ier",-9.74969038681165],["uso",-9.750298878821944],["Om",-9.75064646510696],["allemaa",-9.75128010023737],["Etat",-9.751900360848513],["víctima",-9.7523458507131],["normal",-9.753440681270462],["idea",-9.755081883399855],["aba",-9.756324466874439],["chaque",-9.756522132966793],["pueda",-9.756995146207178],["veces",-9.757184544282676],["international",-9.757567551678921],["Argentina",-9.758440692001138],["EU",-9.758844623965341],["75",-9.760318033891512],["rol",-9.760652378115648],["Hay",-9.761534065885023],["again",-9.762032760978261],["parti",-9.763266218474216],["Do",-9.764768470526878],["office",-9.764924632328093],["produc",-9.766318223867046],["Sunday",-9.76706944534293],["ard",-9.767584483898272],["domingo",-9.768504048153535],["General",-9.768687109089793],["vaak",-9.7697527463163],["fall",-9.770065212752911],["foto",-9.770779183469706],["doet",-9.771149371300458],["seguir",-9.771530997989865],["law",-9.771540832544456],["super",-9.771545725512238],["quoi",-9.772773040498581],["Entre",-9.772823243405005],["Madrid",-9.772889715724844],["aura",-9.773974349980247],["Tuesday",-9.774373482511047],["One",-9.77501326306259],["risque",-9.776041923293956],["pandemia",-9.77883778907777],["free",-9.779072108551834],["money",-9.779399003080062],["Ces",-9.779922709783303],["crime",-9.780933266814547],["encuentro",-9.783321856909657],["onces",-9.784032220899324],["dollar",-9.784392626437333],["Saturday",-9.784821034283468],["juli",-9.785075096370019],["eves",-9.786931301525014],["gens",-9.78718667026148],["experience",-9.78774583719834],["janvier",-9.787847289591246],["fuera",-9.789521835108697],["32",-9.790394073281941],["lijkt",-9.79146218267508],["puesto",-9.792008889478097],["women",-9.792486996352281],["agit",-9.793532364366119],["incident",-9.793841097824963],["field",-9.794436994790264],["temporada",-9.795286408049954],["%.",-9.795550574360064],["John",-9.797343549218603],["comunidad",-9.798478111658095],["train",-9.799126982627369],["stand",-9.799283807646333],["taking",-9.79930158085358],["buena",-9.799344428954571],["corona",-9.800884704793935],["anté",-9.801195102942131],["allow",-9.801817817807262],["past",-9.80274612014448],["pa",-9.804061664470735],["retour",-9.804338802453948],["edad",-9.805319537769003],["décision",-9.806050064415201],["little",-9.806066208622703],["ligne",-9.806267589956086],["aten",-9.806399572019961],["français",-9.80697461753335],["fecha",-9.807233917539147],["locale",-9.807334616322475],["indic",-9.80780074981395],["crise",-9.808034770722175],["death",-9.808483286138726],["titre",-9.808856442601613],["moest",-9.8096660615671],["Go",-9.810103501170047],["message",-9.810797827596875],["cost",-9.810879411407239],["series",-9.811563396170937],["basis",-9.81263037027248],["â",-9.81369806278257],["Pas",-9.81398628465691],["marché",-9.815244943727198],["find",-9.815538738552352],["pen",-9.815699852433042],["together",-9.81626033488308],["disponible",-9.816835946529505],["etting",-9.81858554672062],["move",-9.818807586690102],["programme",-9.818953173726683],["kijken",-9.819946217991689],["ley",-9.82026263343277],["300",-9.821421115189255],["martes",-9.822287322587385],["wide",-9.823800558694671],["mai",-9.824266481786257],["cinq",-9.826159937347647],["League",-9.826185685150236],["victime",-9.827579622139123],["vraag",-9.827656816981373],["podrá",-9.82841304943324],["activité",-9.82876766096476],["rate",-9.82887481398061],["tarde",-9.828986009594274],["oportunidad",-9.82930702768411],["inclus",-9.82934710126949],["besoin",-9.829549697987638],["tête",-9.829557166881559],["semble",-9.830426962418393],["zetten",-9.830731791976174],["natuurlijk",-9.830894754093933],["job",-9.832412248845813],["veu",-9.83403206959037],["tard",-9.834185610270055],["period",-9.8342881908878],["ago",-9.835912870498255],["Paris",-9.836329306595454],["km",-9.83835149339784],["pai",-9.839006014214721],["popular",-9.83994592563543],["aciones",-9.840017120800137],["iércol",-9.840377154724786],["jeunes",-9.841920084866086],["mars",-9.842816034406214],["carrera",-9.843527739277205],["star",-9.843553542144821],["mask",-9.844428908053793],["cadre",-9.844628609085479],["Deze",-9.844990912812943],["bus",-9.845334804705729],["simple",-9.846415222949737],["federal",-9.84680066991752],["worker",-9.84771973100445],["run",-9.847990076532755],["paso",-9.849090102256621],["aske",-9.849280480990448],["Juan",-9.84969261701611],["marca",-9.850190193915536],["art",-9.851331330603536],["note",-9.851474110738579],["Wednesday",-9.85151238490629],["segunda",-9.85151258884262],["paar",-9.851662733794257],["Howe",-9.851789748388374],["happen",-9.852100228141698],["34",-9.85286546447978],["zelfs",-9.853292879335786],["diferentes",-9.85378175836212],["soort",-9.854826114639968],["aller",-9.854828381662216],["vrouw",-9.85696695726689],["principale",-9.857232466562579],["house",-9.858414401737381],["couple",-9.858436946152185],["taken",-9.85881051606041],["fil",-9.860084268025766],["program",-9.860297972912555],["clear",-9.86049379791885],["having",-9.860513815207563],["33",-9.860530437565195],["shares",-9.860533450952794],["ki",-9.86121258734451],["dici",-9.861427908702568],["Q",-9.861616637249853],["appel",-9.863001654968922],["société",-9.863318780629282],["hope",-9.864027976543367],["ster",-9.866131463674119],["poste",-9.866678132360732],["several",-9.868638549989218],["militar",-9.868912894692905],["Facebook",-9.869327312141786],["complete",-9.869384134647396],["po",-9.869819744943438],["solution",-9.869906457587946],["document",-9.870036559552329],["ensemble",-9.870142168004719],["inter",-9.870729052990306],["cuerpo",-9.870856005035758],["che",-9.871195648413817],["matin",-9.871357029393494],["+",-9.871983327061358],["version",-9.872219644736367],["décembre",-9.872610198411898],["respecto",-9.87299634806023],["licht",-9.873188758594942],["dagen",-9.873417451613731],["mission",-9.873604528337594],["internacional",-9.874029654399767],["vec",-9.874913264526285],["pública",-9.875962969080632],["hoofd",-9.876259136112136],["trade",-9.876359637471385],["patients",-9.877118368795864],["create",-9.87863568802307],["Joe",-9.878683757488819],["conocer",-9.878792260563241],["passe",-9.879081756777651],["lockdown",-9.880841012222655],["wa",-9.882060268400942],["zei",-9.883188895657147],["using",-9.88339239463659],["ko",-9.884394538718597],["individual",-9.885237581077957],["organisation",-9.885695061029894],["woning",-9.885843613094089],["juist",-9.886699110434039],["announced",-9.887501866520505],["Union",-9.888054608225147],["landen",-9.888445113103156],["particular",-9.888535687284278],["ministro",-9.889699952949229],["explique",-9.890046579787164],["annonce",-9.890719983670609],["dado",-9.891019856885258],["today",-9.891180416870961],["fire",-9.891250397171039],["reg",-9.8916639075893],["général",-9.8924178797978],["responsable",-9.892939499376611],["wie",-9.89297292613569],["India",-9.893763409171791],["race",-9.89400332098013],["enquête",-9.894044397141776],["varia",-9.89648227742846],["milliard",-9.897384128767008],["indiqué",-9.897460445459473],["given",-9.897581144205368],["young",-9.89805276253529],["passé",-9.898312361440343],["along",-9.898700362770995],["ven",-9.900321250075528],["Bar",-9.9011714979662],["least",-9.901266021505755],["Todo",-9.90147078699176],["vis",-9.90172605698617],["duidelijk",-9.90211081365523],["secteur",-9.902516223546009],["autorité",-9.902528405158705],["genomen",-9.903340788675266],["Premier",-9.904199984858849],["Police",-9.904314254145689],["took",-9.905665414650842],["Minister",-9.905738115640325],["After",-9.905896929598292],["Jan",-9.906100367966713],["prueba",-9.906370781068677],["val",-9.907384702210877],["journée",-9.907639940536562],["aide",-9.907807581962773],["36",-9.90785678250204],["Paul",-9.908023024137268],["fuerza",-9.909568953393778],["sinds",-9.90989599713205],["presente",-9.91024815022726],["weekend",-9.910326475141751],["posición",-9.910509363169876],["held",-9.910683173988257],["système",-9.910977665054727],["joven",-9.91103064344988],["verschillen",-9.911121495567398],["accord",-9.912474284994396],["simismo",-9.913328437852973],["valor",-9.913562701736907],["option",-9.915064306121366],["precio",-9.915308467254281],["miss",-9.91548279319866],["presse",-9.915743836181058],["similar",-9.916129029133433],["client",-9.916520274128183],["core",-9.917072721198686],["falta",-9.918167075590201],["padre",-9.918206591224326],["political",-9.918508552130124],["Washington",-9.919532327456531],["période",-9.919545308398082],["tweede",-9.920958126608072],["eerst",-9.921005008841608],["libre",-9.921196708039188],["campagne",-9.922971702586752],["legó",-9.923718978469125],["board",-9.9247489000977],["rencontre",-9.925087491513834],["enero",-9.92558642469696],["geef",-9.92629871892526],["pueblo",-9.926422821153581],["largo",-9.926611868952275],["José",-9.92662309793765],["fi",-9.926900379518104],["vice",-9.926902181453645],["familiar",-9.927275589605225],["ring",-9.927684333119224],["officials",-9.928309929396733],["Red",-9.928778783526084],["gelede",-9.929227221639945],["claim",-9.929249362522441],["administration",-9.929917832757386],["gek",-9.93048599631102],["aron",-9.930526587172423],["PC",-9.931003388388678],["iemand",-9.931971592727121],["Macron",-9.932006457800394],["informe",-9.932229846591397],["ólo",-9.932234709815592],["igual",-9.93223755756182],["Como",-9.932597757358117],["North",-9.932744285133516],["Cela",-9.933337712653021],["Unis",-9.93426297146156],["ismo",-9.93450401677708],["breng",-9.934935591460537],["Ministerio",-9.935120688585108],["My",-9.935164753155252],["doesn",-9.93534760533619],["dollars",-9.935616385073303],["interview",-9.936020411877067],["violence",-9.936862361325367],["membres",-9.936908947356407],["maison",-9.937329827159594],["uillet",-9.937461727745559],["provincia",-9.93793250337854],["400",-9.938428597812944],["talk",-9.938523841354629],["nunc",-9.938885077181212],["línea",-9.938922486455837],["apoyo",-9.939253474199987],["bit",-9.939753449931953],["cut",-9.939765436776657],["muerte",-9.940391831315162],["sión",-9.940922362478936],["Carlo",-9.941519813078077],["adas",-9.941604840513154],["meeting",-9.942634634541175],["party",-9.943291034159575],["novemb",-9.943481932530121],["lead",-9.94359676643342],["campaign",-9.943859872964808],["budget",-9.94386178767304],["war",-9.944347418169283],["organiza",-9.944572050107594],["prochain",-9.945169267357336],["población",-9.945620388967246],["buiten",-9.947224269157008],["arrive",-9.94737842658574],["municipio",-9.947384904403265],["fuerte",-9.947393514637035],["problème",-9.947407526654693],["debido",-9.947468767942997],["small",-9.947860164914346],["moi",-9.948137405128382],["désor",-9.94835389305161],["genoeg",-9.949154336778815],["short",-9.949420506364207],["figure",-9.949838944481463],["Ils",-9.949900170869107],["Sam",-9.950756349949405],["2014",-9.951592832490336],["gezien",-9.952346855814199],["guerra",-9.952700657030993],["among",-9.952781219486024],["permet",-9.953163688591076],["fact",-9.95334638607671],["expres",-9.953496505746747],["milieu",-9.954242988974563],["manier",-9.954357075075494],["justice",-9.955776513472397],["respect",-9.956001230701217],["actuelle",-9.956119183352955],["ness",-9.956474959362883],["players",-9.956706910527636],["bijna",-9.95712103304109],["seul",-9.957349515189563],["rue",-9.957825626360783],["Mar",-9.958657854888418],["école",-9.95910473594509],["third",-9.959867273143491],["House",-9.960002958486914],["denk",-9.9612094084173],["poner",-9.961327689913967],["ejemplo",-9.963398641280335],["mayoría",-9.964195674661358],["pues",-9.96502385396657],["further",-9.965206508884581],["wedstrijd",-9.9652238440916],["model",-9.966024017813833],["asegur",-9.966766545588975],["strong",-9.967005308467083],["major",-9.967960275787071],["jornada",-9.96879493846814],["certaine",-9.96906819993058],["publique",-9.969113337066158],["direction",-9.970701029455405],["élection",-9.971244666410488],["ive",-9.972008271601453],["évrier",-9.972407739302751],["fund",-9.972582166602331],["legal",-9.974550620818803],["Que",-9.974874990247978],["festival",-9.97591699672325],["zie",-9.977954680296445],["espacio",-9.979067948022472],["availab",-9.979248041598364],["souven",-9.979564764792205],["Amerikaans",-9.979997960753279],["maanden",-9.980360063264467],["central",-9.980939298126874],["stop",-9.981401597973921],["font",-9.981847440645822],["grave",-9.98317724124325],["enkele",-9.983195612233995],["Universit",-9.984233143505389],["2015",-9.984976765555277],["Instagram",-9.98515871485491],["verwacht",-9.985311710241588],["markt",-9.985625216373155],["Bo",-9.986029126513884],["continu",-9.986653024250082],["hausse",-9.988295141423492],["Luis",-9.988385565483888],["chien",-9.9887852663669],["late",-9.988871027646532],["38",-9.989122317583949],["value",-9.989236370951954],["How",-9.989287350958136],["consider",-9.989578185376002],["sexual",-9.990800632712798],["rapide",-9.990940708026654],["recht",-9.99122316472532],["football",-9.99254987587734],["pez",-9.992588269098242],["passer",-9.992790672721174],["estamo",-9.993221181581676],["sub",-9.994914093222167],["causa",-9.997258278004066],["estas",-9.997311139008634],["combat",-9.998804088907987],["soutien",-9.999825343178488],["mensaje",-9.999903362153445],["hold",-9.999941445869235],["ú",-10.000244700390592],["37",-10.00043194667732],["buy",-10.000605814028884],["genera",-10.001131431493803],["turn",-10.001313038716082],["tema",-10.002339667904108],["Yo",-10.00236240516876],["utant",-10.00291704923427],["objectif",-10.003715355324516],["exemple",-10.003953566077495],["FC",-10.004436966864159],["once",-10.005428512494621],["llevar",-10.005866183491143],["recurso",-10.005870445857427],["internationale",-10.006320940198924],["unidad",-10.006592724103944],["stond",-10.006803266796526],["goede",-10.00705051180435],["avance",-10.00775503353772],["ayuda",-10.007879611396936],["evento",-10.00852700655409],["berg",-10.008867109309305],["weinig",-10.009291395466601],["octob",-10.009292172641832],["Real",-10.010815198711427],["attack",-10.012065532041987],["offre",-10.012793747555222],["World",-10.013051681679087],["score",-10.0131709452765],["form",-10.01396127115218],["septemb",-10.014260823892158],["pesos",-10.01476059112571],["groep",-10.015779360775042],["straat",-10.016383437437797],["líder",-10.016829006640585],["decisi",-10.018283222670142],["ement",-10.018294276255427],["attend",-10.018657481830346],["état",-10.018860985850921],["partij",-10.018976771859553],["following",-10.018992985017816],["done",-10.01942378152151],["coach",-10.019500218702886],["demand",-10.020032439219833],["transport",-10.021308760560565],["measure",-10.021362094136606],["fight",-10.021582102968253],["nough",-10.021904865962028],["gedaan",-10.02341177791801],["armée",-10.023463095706703],["ran",-10.024227278076562],["Grand",-10.024303837699811],["propuesta",-10.024445018652944],["profesional",-10.02493664143342],["fiscal",-10.025429048586851],["ger",-10.025902070483262],["junio",-10.026455094143802],["propio",-10.028240079062183],["policía",-10.028253254844476],["bedrijven",-10.028494603019483],["amelijk",-10.028960903442357],["grow",-10.029545232162075],["interest",-10.029992667569283],["Qatar",-10.030154406240486],["dinero",-10.03045731546084],["starte",-10.030562314915286],["Final",-10.030662008127823],["try",-10.031486314647275],["fille",-10.033570126650034],["48",-10.033991276937607],["%)",-10.034121301098471],["abord",-10.034152630578063],["natural",-10.034683536949617],["vanaf",-10.035485047326045],["Waar",-10.037343508573422],["type",-10.037981035614203],["travel",-10.03808205579741],["estará",-10.039016318459774],["meter",-10.039212698860364],["official",-10.0395351772578],["serai",-10.039546538139284],["communiqué",-10.039785979172915],["tell",-10.039828175283242],["dejar",-10.039912855110412],["civil",-10.040153968307148],["viene",-10.040231891341563],["99",-10.040926430835519],["ataque",-10.041138503156294],["economic",-10.041812989240967],["comunicado",-10.043662811347831],["quelle",-10.044091522100606],["ish",-10.044325599022997],["importanc",-10.044519541585727],["halen",-10.045601111638293],["octubr",-10.045611100507557],["percent",-10.046061993238336],["ría",-10.046132453218128],["visit",-10.046637191636915],["plein",-10.046857785311728],["seizoen",-10.047561742528764],["wear",-10.047599221060457],["rijden",-10.048009216497913],["55",-10.04971796240408],["challenge",-10.049998652332633],["kree",-10.050400155486203],["sujet",-10.050616712961002],["Donald",-10.051464059707333],["novi",-10.052028046483525],["muestra",-10.052035967285079],["box",-10.052100973418856],["meilleur",-10.053128715670958],["économique",-10.053431248743738],["woman",-10.053603149552995],["beetje",-10.053847063025128],["expected",-10.05457162409325],["Durant",-10.055271645577218],["avril",-10.055488967974872],["appear",-10.056075445264222],["scène",-10.056504254640625],["Per",-10.0573206159451],["trabajador",-10.057850009617972],["forme",-10.058381021384013],["blijk",-10.058579749097039],["parole",-10.05873441620346],["precios",-10.058826983883137],["require",-10.058910240874681],["platform",-10.059143976600813],["événement",-10.05931039675509],["eigenlijk",-10.0593448420197],["Ga",-10.059582075607016],["hotel",-10.059920653673597],["confirmed",-10.060402825635295],["stead",-10.060431568362873],["bring",-10.060801193372559],["security",-10.061611299091604],["firm",-10.061815979681402],["prochaine",-10.06185361949006],["busca",-10.062211827166326],["spite",-10.062284539974344],["terme",-10.062653070284231],["gewe",-10.062698788223257],["alta",-10.062905408754336],["ig",-10.06429189744178],["vijf",-10.065816627605413],["septi",-10.06601841575861],["ruso",-10.066184881571147],["desarrollo",-10.066211403418563],["opportunit",-10.067212703459893],["evitar",-10.067478315099633],["loi",-10.067482799286974],["previous",-10.067508087512294],["fun",-10.067514389725872],["feu",-10.068238876736075],["watch",-10.068973721282658],["rating",-10.070596228330933],["geval",-10.070939183153826],["April",-10.071266753858781],["américain",-10.07139161863746],["terwij",-10.071619032052645],["obra",-10.071881840044117],["environ",-10.071907352942297],["difficile",-10.071919447095674],["necesario",-10.073253557265112],["Door",-10.074387917818324],["commune",-10.07474573526065],["Mundial",-10.075257681158892],["hub",-10.075537479889569],["Santa",-10.075719031483228],["compañía",-10.077265532051978],["parce",-10.07727612782779],["cción",-10.078187871360743],["É",-10.078480221361538],["training",-10.079257140629917],["futuro",-10.079563617852848],["known",-10.079824725301297],["gest",-10.079829018807914],["seem",-10.079834798071909],["nom",-10.079912235642453],["soci",-10.079952712639104],["propose",-10.080381238667872],["account",-10.080524089592792],["encontrar",-10.0808194027368],["leader",-10.08114953746131],["pan",-10.081156618624162],["tenido",-10.081229522645966],["Policía",-10.081294455577787],["Not",-10.081376953365414],["sería",-10.081402885209041],["culture",-10.082943571402506],["riesgo",-10.083858937842262],["realidad",-10.084050114065752],["unique",-10.085020451809081],["comes",-10.085087760210357],["attaque",-10.085195835973177],["release",-10.085232484490062],["experiencia",-10.085348285559299],["worth",-10.085385884996164],["space",-10.085426429533523],["cher",-10.085546366980138],["candidat",-10.085934323253252],["ho",-10.086174251970434],["outside",-10.086420957823304],["ruim",-10.08841020253541],["troisième",-10.089421512435038],["existe",-10.089732564999839],["vue",-10.09008345980607],["donner",-10.090614891652582],["shot",-10.09094614303334],["matter",-10.094072638519147],["candidate",-10.09416690825412],["weken",-10.095220753949313],["act",-10.095373292396674],["vont",-10.096809382273504],["Tout",-10.096888544484921],["dicho",-10.096985553824037],["Ju",-10.097358009608353],["pri",-10.09756574594071],["potential",-10.097575107869655],["June",-10.098490879367887],["Kie",-10.098637455408776],["centrale",-10.098790908961341],["Niet",-10.098881017781796],["Over",-10.101305286726625],["prijs",-10.101776213223271],["According",-10.10181975556448],["dossier",-10.101884181794773],["forward",-10.102471748914645],["baar",-10.102749069281728],["human",-10.10309515474247],["mano",-10.103226227711321],["Even",-10.103232840666479],["Ar",-10.103795404815802],["effect",-10.104954992339241],["ham",-10.105400465274826],["companies",-10.105783778611512],["performance",-10.1060205396113],["accione",-10.106091183340705],["zorgen",-10.106255040851194],["safe",-10.106534376403362],["Bank",-10.106559398777714],["Robert",-10.107242252248367],["Some",-10.107481341834431],["billion",-10.107838135773694],["actor",-10.108132755701337],["wind",-10.10881919459511],["aumento",-10.108945639620043],["application",-10.10995503310728],["cabo",-10.110110112508245],["contract",-10.11024936419695],["recherche",-10.110518208549788],["65",-10.11117946187847],["thought",-10.111367570381105],["asse",-10.112023182294394],["développement",-10.112124255911258],["Tour",-10.113457314089352],["°",-10.114117181210549],["Mark",-10.114137764494181],["wege",-10.11425411247049],["page",-10.11498413420189],["games",-10.115729623911134],["œuvre",-10.115759817706984],["internet",-10.11590786318326],["story",-10.115951914245473],["ziet",-10.115968015804032],["victoire",-10.11620498807701],["gaz",-10.116299951302205],["weeks",-10.116514659923872],["Comme",-10.11695434034165],["formation",-10.117759826747001],["protest",-10.11833194667194],["jeux",-10.119385025148421],["hoor",-10.119488090234775],["prijzen",-10.119504951327158],["table",-10.119871094599638],["material",-10.120043186016098],["présent",-10.120850486035952],["jouer",-10.120938246371482],["band",-10.121400370137938],["store",-10.122254746683842],["province",-10.122494329298863],["original",-10.123205526200977],["color",-10.123796995803179],["eind",-10.1239309050756],["maakte",-10.123990376405636],["énergie",-10.12459947638908],["petite",-10.12466845312877],["room",-10.124828309081359],["avantage",-10.12515518501694],["news",-10.125438543003094],["resto",-10.125590994604853],["average",-10.125764998023229],["reden",-10.12576766388743],["ligt",-10.126207342222122],["bal",-10.126337151910292],["Google",-10.126710468355455],["remos",-10.127848366253255],["quick",-10.128051750762523],["prison",-10.128592852449472],["gebied",-10.129239588091158],["aucun",-10.130233872025052],["Cha",-10.13130777013832],["ajouté",-10.131396789237883],["râce",-10.13279116885007],["ministère",-10.133065138767947],["whe",-10.135436061473094],["regard",-10.136470954868702],["probleem",-10.137325282995285],["ity",-10.137362518410804],["prise",-10.137980808129502],["août",-10.13808845875965],["residents",-10.138229079042867],["denken",-10.138262718730303],["Mon",-10.138558494035893],["rying",-10.13877705197764],["saying",-10.138800895730483],["opération",-10.139192360317306],["respuesta",-10.139493475877096],["construction",-10.140423220242523],["accident",-10.140821378042968],["posibilidad",-10.141079990389368],["député",-10.14146343544974],["bio",-10.141518175258676],["capacidad",-10.141569977960902],["vandaag",-10.141603811959467],["Club",-10.141606248032035],["fan",-10.141637287790784],["station",-10.141729993304434],["mogen",-10.141811383607859],["neem",-10.142222473823566],["list",-10.143008848396644],["aldu",-10.143042597242808],["limite",-10.145530161789669],["autour",-10.145595245181951],["económica",-10.145890193291425],["necesidad",-10.145899780705275],["restriction",-10.145954260084526],["participa",-10.14660136461356],["maintenan",-10.147069136068257],["infection",-10.147351798316933],["inicio",-10.148101816129628],["agreg",-10.148439255718952],["conseil",-10.148510487465032],["rij",-10.148726776993707],["bad",-10.14884110926899],["Tras",-10.149692348869838],["campaña",-10.1502212810053],["vrouwen",-10.151360514795021],["PS",-10.152103822493427],["voiture",-10.152368135313626],["camino",-10.152407334419934],["prensa",-10.152432012956286],["manière",-10.152652870676896],["America",-10.15266469483708],["druk",-10.153844949575404],["44",-10.154120754370362],["rôle",-10.154537314665234],["explicó",-10.154621899391502],["thuis",-10.156870016455926],["fer",-10.157809291525385],["vragen",-10.157895194109273],["Fue",-10.158246354925707],["Johnson",-10.158332443239459],["research",-10.158922303568161],["haut",-10.159846963965098],["42",-10.16146365217856],["donné",-10.16150050182317],["gosto",-10.161837941746844],["ida",-10.162344621440443],["digital",-10.16246258726813],["stellen",-10.162766380729826],["39",-10.163373740140013],["Ka",-10.164830325838293],["parece",-10.165076677939865],["difícil",-10.165465339769126],["association",-10.1654779685642],["response",-10.166426209226122],["terrain",-10.166616120791051],["book",-10.167465559175906],["God",-10.167533657679606],["medical",-10.1676086454151],["Hospital",-10.167663145479587],["vo",-10.167796577156992],["43",-10.168640075157509],["municipal",-10.16868984909991],["nosotros",-10.168895009822819],["kosten",-10.1689523888992],["estadounidense",-10.169865784647474],["Conseil",-10.169922500366848],["seis",-10.170074399977683],["Ten",-10.170107157889374],["haya",-10.171445139433796],["special",-10.171637573821268],["cifra",-10.172169957439161],["elección",-10.172438725329966],["pré",-10.172555282425956],["reason",-10.17277273012975],["résultat",-10.174285679524658],["target",-10.174428476465646],["amigo",-10.174854932437277],["Dus",-10.174877577781025],["esos",-10.175068933477505],["pued",-10.175723917711178],["vecino",-10.176591905168763],["calidad",-10.176690114852757],["naast",-10.17744233059694],["park",-10.177665778221591],["miembro",-10.178725732677291],["reçu",-10.178726129398797],["Amazon",-10.178764196385714],["condicione",-10.178906830034055],["Center",-10.17942928445655],["Ram",-10.180446762425866],["claro",-10.180589837165321],["kant",-10.182195773429228],["trabajar",-10.182364974415375],["financial",-10.18241437873898],["mayo",-10.182786908257738],["industr",-10.182852116491205],["California",-10.182998422603827],["energía",-10.183190963877284],["choi",-10.183701295124564],["permis",-10.184007582242952],["stage",-10.184318654375993],["tomar",-10.184742428693445],["Jul",-10.185043317562926],["morning",-10.185433669289818],["presencia",-10.185880216865765],["carrière",-10.186030933320083],["gún",-10.18623925927708],["bureau",-10.186543717149522],["pareja",-10.187355012135544],["„",-10.187663799906376],["Afrique",-10.187669569664425],["drive",-10.187900750954938],["maand",-10.188043784154443],["Air",-10.188129575982629],["ander",-10.188269509146332],["personnel",-10.189026678425995],["Emmanuel",-10.18991109553485],["behind",-10.189924911287074],["voi",-10.19012636550411],["Vou",-10.190342767021889],["idée",-10.190377275189848],["trouver",-10.19067046771617],["website",-10.192273197050845],["cha",-10.192749663452895],["voter",-10.192763724376844],["uando",-10.193200212583223],["prend",-10.193356723479123],["gracia",-10.19432245385006],["palabra",-10.194426626611765],["Día",-10.195232650925776],["Iran",-10.19524047380539],["deaths",-10.195240622079304],["Her",-10.19544317783468],["Centre",-10.19570048742401],["vond",-10.195833923071271],["countries",-10.196728669488072],["sociedad",-10.196748171106051],["echter",-10.197305508619618],["pandémie",-10.198950847955839],["zaterdag",-10.198950972269406],["double",-10.199748525873623],["tie",-10.199819041041097],["econom",-10.201218656899638],["Day",-10.201312306911761],["pic",-10.201661627650772],["town",-10.201786772269063],["werkt",-10.202152810953436],["entidad",-10.20231016956074],["single",-10.203352136643895],["Department",-10.203515011625635],["Salud",-10.2035923187659],["arrivée",-10.203592841491162],["bent",-10.204008385922982],["vorig",-10.204099534237184],["pasar",-10.204332753103785],["planne",-10.205744279721],["madre",-10.206453549626186],["zorg",-10.206652718326914],["web",-10.206782789077222],["middels",-10.206984015904808],["départ",-10.207161635133794],["enige",-10.207392843443612],["connu",-10.207938958864997],["ayant",-10.209057861521316],["Central",-10.210312547987403],["feature",-10.2104722415474],["check",-10.21384361752428],["abril",-10.214231516021275],["85",-10.214816830371594],["gré",-10.215449344290228],["ck",-10.215514276246328],["venta",-10.21552405443864],["entire",-10.21567869929334],["ambos",-10.215891338884923],["design",-10.216249463786593],["key",-10.216336529149826],["regering",-10.217205950146543],["violencia",-10.21727938255832],["focus",-10.217990908874771],["Da",-10.218984650548114],["gelijk",-10.21936968284335],["Centro",-10.219591078622285],["woensdag",-10.2195935271432],["chi",-10.220910293232013],["46",-10.223054703664591],["zoude",-10.223313143718524],["building",-10.22406635408841],["Poetin",-10.224243068897483],["Now",-10.226446486070314],["Venezuela",-10.226570320795512],["édition",-10.226570956370853],["heden",-10.22695204209852],["Ri",-10.227755989766553],["Nord",-10.227783900894643],["vos",-10.227794183125024],["alto",-10.227864888998232],["overheid",-10.228001588863723],["August",-10.229414008192325],["press",-10.23031333485628],["produce",-10.230627507808615],["rente",-10.230665497165804],["released",-10.230767692057977],["ruimte",-10.230842608959023],["conjunto",-10.231189327305696],["senior",-10.231329306847025],["history",-10.231435073582954],["plut",-10.231527363084549],["vivienda",-10.232710835918962],["pesar",-10.233007026282191],["photo",-10.233262641936587],["additional",-10.233395350526738],["territoire",-10.233596078722117],["Super",-10.233638177069269],["moyen",-10.233857592892882],["lleva",-10.234400114479818],["père",-10.234712384682211],["Park",-10.235219865818811],["amente",-10.2355965368219],["Open",-10.235935727020916],["ganar",-10.236156182365722],["radio",-10.236158972164215],["mí",-10.236196053250112],["mantener",-10.236279924707212],["role",-10.236343058086003],["Ro",-10.236967242943606],["manifest",-10.23714109084841],["doctor",-10.237587803573375],["mannen",-10.237631094495235],["recibi",-10.23769053423948],["update",-10.237719962498705],["involve",-10.237827886285825],["delito",-10.238170174737073],["febrero",-10.238331962031284],["kabinet",-10.238408058206803],["décidé",-10.238475911966272],["anterior",-10.238632476063604],["ió",-10.2390979483749],["volver",-10.239258404810734],["Michael",-10.240689963668554],["village",-10.241057718210971],["motor",-10.241669474723619],["199",-10.241773678290958],["área",-10.241842263300278],["surprise",-10.242237806637846],["maandag",-10.243083863892895],["Po",-10.243872906870044],["demanda",-10.244374814060933],["succès",-10.245423389685893],["James",-10.246003436122894],["relate",-10.246733475752091],["content",-10.246853878423424],["belle",-10.247224087111675],["virtual",-10.247797694411265],["sortie",-10.247832882774745],["gen",-10.248001976792931],["proche",-10.248027236280869],["employee",-10.248665455343207],["reunió",-10.249899204605347],["façon",-10.250184985600463],["liste",-10.250365146910847],["goal",-10.250819309086143],["600",-10.251449923603683],["gevolg",-10.251622895996542],["Martin",-10.251668985754286],["lives",-10.25210487883226],["arse",-10.252959169603578],["venes",-10.253133290832249],["habitant",-10.253264255109723],["leave",-10.253629592042834],["visite",-10.25405798583535],["Qué",-10.25406978475717],["único",-10.255218994638422],["afirm",-10.25543599934598],["travers",-10.256040736316343],["reciente",-10.25620226681215],["trabaja",-10.25683422283969],["region",-10.256841659115015],["phone",-10.257223857197829],["Suisse",-10.25740581218436],["vrijdag",-10.257520744633869],["ves",-10.258391635039054],["favor",-10.259409349195042],["regen",-10.25948881899847],["Ló",-10.259634514410516],["Street",-10.259829414111337],["dood",-10.260379822360505],["II",-10.260856803660673],["ball",-10.260900181790081],["often",-10.261170082048622],["Ni",-10.261222919521838],["?”",-10.261962969596114],["familie",-10.261989239563558],["attention",-10.262224953769781],["hoog",-10.262701627163196],["ista",-10.262892716751828],["dû",-10.263240427312908],["meest",-10.263341850814165],["vidéo",-10.26426203308365],["Ho",-10.264471385967603],["animal",-10.265583652761137],["ingreso",-10.26569990538448],["alrededor",-10.265996519508452],["regular",-10.266399937004717],["anunci",-10.266987559157236],["presenta",-10.267050287777575],["enfermedad",-10.267053281497095],["mov",-10.267252294108102],["concert",-10.267295903337057],["saw",-10.267465738132131],["White",-10.267792515149289],["round",-10.267895476165824],["development",-10.267910822700518],["suspect",-10.268931885048387],["operation",-10.269211695209435],["debate",-10.269597016814451],["salir",-10.270027465460881],["recover",-10.27006175085391],["95",-10.271009245937233],["safety",-10.271085133948628],["ette",-10.271277762082024],["intérêt",-10.271924104995442],["profit",-10.272069206472043],["baja",-10.272957494889905],["nuit",-10.27343206419976],["emment",-10.273432436916542],["zat",-10.273457516576851],["donnée",-10.27348051488448],["Putin",-10.273525861624261],["hoger",-10.273732037541679],["diferencia",-10.274369093337878],["customer",-10.27477747089174],["grootste",-10.274875249485087],["cierto",-10.275986305311665],["proces",-10.276204175225164],["66",-10.276548146940495],["UK",-10.276562410503807],["cuanto",-10.276837956608567],["plataforma",-10.276854317904302],["Service",-10.276966675422834],["raise",-10.277236834038408],["lever",-10.278331470176713],["propos",-10.27847006132255],["ées",-10.278661096994838],["acht",-10.279196944727325],["character",-10.27950069580237],["español",-10.279721124761654],["franc",-10.281432330532992],["letter",-10.281513681675301],["benefit",-10.2818153228763],["Ahor",-10.282459014335153],["nacht",-10.283046842107925],["aquí",-10.283271966449494],["count",-10.283672077759853],["kort",-10.283876909649948],["ukrainien",-10.283956700386565],["black",-10.28456879654751],["150",-10.284788112834924],["dienst",-10.284925192339411],["confirm",-10.285200680023337],["factor",-10.285418513302119],["significant",-10.285468954505502],["menor",-10.285625578223518],["spelen",-10.286483072136392],["cantidad",-10.28672105638707],["graag",-10.286773291417617],["iPhone",-10.286850297447977],["situatie",-10.2868951080813],["iba",-10.286906427912983],["Bi",-10.286921324903284],["zaak",-10.286941030001127],["ère",-10.286970697627737],["avion",-10.287495349625924],["hoge",-10.28751042719326],["Our",-10.28801236513352],["donne",-10.288712007295242],["rang",-10.289094867831883],["vehicle",-10.289165929167318],["AFP",-10.289529724068775],["began",-10.29006281987671],["41",-10.290215862703002],["expect",-10.290698563751752],["Dur",-10.291299827426958],["eur",-10.291523178522686],["ieron",-10.291620669638178],["betalen",-10.291634813402684],["victoria",-10.291698841087022],["detail",-10.29175435210905],["plazo",-10.29185061508126],["gave",-10.292097804692585],["marz",-10.29279017419141],["etc",-10.29287610889233],["child",-10.293629133055113],["52",-10.294095357952488],["http",-10.29412733326267],["Liga",-10.294394271451033],["isation",-10.294411321917902],["meet",-10.294724153973025],["track",-10.295444743152974],["gang",-10.295792879166383],["lograr",-10.296181474819141],["motivo",-10.297058794982142],["Ante",-10.297752314230255],["jefe",-10.297785731529405],["argent",-10.298186650173413],["49",-10.29837221641256],["langer",-10.298806407146312],["Ko",-10.299179247834173],["vaccine",-10.299734211832668],["pago",-10.299767779255703],["elke",-10.299782241163157],["reduce",-10.30010006480363],["naam",-10.300270426195816],["realiz",-10.300435227205558],["arme",-10.301138753777554],["inflación",-10.301765467350513],["efecto",-10.302168233130718],["humano",-10.302900087756855],["midi",-10.303079178963674],["comenz",-10.303321619062045],["friends",-10.303454432930874],["coût",-10.303626393495636],["¡",-10.304103450408547],[":/",-10.30411852855313],["ciudadano",-10.304507672616541],["offer",-10.305018213417693],["abilit",-10.305040586933039],["iving",-10.305129882356741],["carte",-10.305559201765355],["usuarios",-10.305669203399876],["George",-10.305920273511235],["Vi",-10.306501940135963],["camera",-10.30671892735264],["War",-10.307320671185021],["Hier",-10.308160488595181],["cap",-10.308176695163557],["member",-10.308321268196622],["ither",-10.308510168578314],["doive",-10.308551606592527],["47",-10.308700050395121],["technique",-10.308866330553784],["viaje",-10.308933211561074],["qualité",-10.309398787800905],["Francisc",-10.309722879080649],["llev",-10.31028574219824],["article",-10.311412835654142],["sabe",-10.311788366346413],["effective",-10.31185254371589],["bord",-10.312470180714556],["beste",-10.31288811956233],["bas",-10.313430066783322],["access",-10.313577018550749],["económico",-10.31430738921635],["hôpita",-10.3143244513933],["étude",-10.31439332189348],["artista",-10.314629463368993],["outbreak",-10.314844762200213],["read",-10.315156058799095],["juste",-10.31557104878534],["Court",-10.315867829889688],["tribunal",-10.31689830721136],["spend",-10.317162325998442],["vallen",-10.317998900205595],["gros",-10.318137939876342],["duda",-10.318241659539183],["exist",-10.318535716551049],["esté",-10.318546462228525],["bill",-10.318768881645392],["buen",-10.31883503144195],["enorme",-10.319270763159082],["tier",-10.319387153595386],["haciendo",-10.319587636546958],["européenne",-10.31964412273469],["camp",-10.320556467241387],["vente",-10.321332957662428],["His",-10.32138349221356],["800",-10.32141858230026],["rie",-10.321491950980402],["Qu",-10.32168172919776],["active",-10.322190365784607],["totaal",-10.322650906365416],["permite",-10.324047363236524],["gegeven",-10.32453078109078],["families",-10.3247961531556],["savoir",-10.32495681033928],["institu",-10.325703357628136],["grado",-10.326762973632007],["unning",-10.32693702482566],["Netflix",-10.327145130598574],["dinsdag",-10.32716682057843],["ayer",-10.327177564269455],["noticia",-10.327189267736907],["follow",-10.328681323184131],["lucha",-10.32900396159646],["orden",-10.32913152385558],["cre",-10.329222867864289],["mail",-10.329290105326123],["amor",-10.329562828002823],["shows",-10.329601338222023],["fast",-10.329668589468882],["película",-10.329729517157713],["principio",-10.329734857598762],["punt",-10.330399913238073],["compromiso",-10.330698217486468],["livre",-10.33078331408991],["UE",-10.331586106222371],["peine",-10.331938143770206],["opera",-10.332093600286598],["private",-10.332340742494011],["ahí",-10.332384602087103],["ningún",-10.332405710394795],["cœur",-10.332421923667097],["acceso",-10.332789724259738],["lancé",-10.33299460226376],["Belgi",-10.333203945634802],["ary",-10.333215237203685],["protection",-10.333365738026304],["corps",-10.333433180789156],["sort",-10.334274421613191],["indique",-10.33461084682965],["directe",-10.334880684319998],["bout",-10.33582309923047],["times",-10.335906168486321],["Tom",-10.336198366031741],["pense",-10.336571092135713],["Ciudad",-10.3374019731834],["valt",-10.337456284000062],["pequeño",-10.337521435783868],["visto",-10.337868226193546],["leden",-10.338227255516072],["mejore",-10.339024549962007],["communication",-10.342068924266513],["music",-10.342202277748228],["opposition",-10.342256328513756],["trav",-10.342547492522748],["initiative",-10.342802371364385],["investigation",-10.3428946070438],["modelo",-10.343444691464924],["valeur",-10.343720036105207],["interior",-10.343852203373238],["stuk",-10.343898533408336],["Jo",-10.345373310313812],["negocio",-10.345571474614694],["générale",-10.345780260350883],["trouve",-10.347099200730845],["Pi",-10.347831732139003],["Januar",-10.348028838984195],["Michel",-10.348771518499483],["break",-10.349147902640402],["terre",-10.349399638754981],["protect",-10.350208790050257],["lijk",-10.351090921386394],["mode",-10.351516616058476],["comunica",-10.351964526516916],["média",-10.352165757859591],["Eso",-10.352286578645868],["nombreuse",-10.352331546330653],["winter",-10.352441584157901],["habría",-10.353335186092485],["Mc",-10.353815554329206],["langs",-10.353969930827041],["propre",-10.354028391126516],["Pen",-10.35403628205431],["Green",-10.354594371267034],["chief",-10.354598370665883],["rendre",-10.355119846809332],["moeder",-10.356334269539879],["ensure",-10.356665251650469],["modo",-10.35727089216262],["nadie",-10.35742397976605],["zondag",-10.358595640602445],["wait",-10.35879571951313],["aucune",-10.359837160829596],["gekomen",-10.360361617651971],["States",-10.3604011516574],["Wij",-10.360515883559525],["volledig",-10.361282812007918],["sept",-10.361501252450374],["someone",-10.362744259149437],["earlie",-10.362752977414925],["walk",-10.363102549194078],["zeer",-10.363379779617892],["Can",-10.363670557530718],["Villa",-10.363777273157162],["rá",-10.363787579892577],["mundial",-10.363880446453098],["Texa",-10.364290885516095],["lista",-10.364414916103115],["pied",-10.364579022112158],["Cor",-10.364828790837532],["Alle",-10.364983837344246],["PP",-10.365459743852163],["playing",-10.366784423728422],["Pierre",-10.366895132694825],["verhaal",-10.368594665880156],["Daniel",-10.369079714300327],["nécessaire",-10.369312091293146],["Barcelon",-10.369312261544685],["donderdag",-10.369324272214975],["Smith",-10.369365848834073],["playe",-10.369907160142642],["oud",-10.370272304601846],["danger",-10.370552487885783],["difficult",-10.37064757778489],["plek",-10.370673672656078],["road",-10.370889815115875],["Commission",-10.371004522125206],["fundamental",-10.371357797308708],["serious",-10.372118794054945],["Japan",-10.372639354242654],["toward",-10.372691767680788],["Federal",-10.372765191173041],["Tu",-10.373168849557839],["sign",-10.373305771601622],["ña",-10.373479605302219],["contrôle",-10.37362461399034],["gol",-10.374126030097514],["necesita",-10.374446692620186],["activit",-10.374657052099835],["Oekraïens",-10.374710211187349],["emergenc",-10.374724755565815],["plu",-10.375075711166252],["André",-10.375172766937384],["Colombia",-10.375238236796648],["luz",-10.37557032811187],["Peter",-10.37560282498448],["mère",-10.375696381249142],["ance",-10.376432717932156],["School",-10.376491814198124],["Don",-10.376841183282762],["Wie",-10.376854720068739],["capacit",-10.37703314405186],["ploeg",-10.377075597864577],["leggen",-10.377327001894386],["economía",-10.377572114215845],["programma",-10.377613747089562],["authorit",-10.378153156068848],["Group",-10.378220213205623],["Ra",-10.37861985212175],["celebra",-10.379593146313493],["genre",-10.379632611175651],["mooi",-10.379759096899146],["ernández",-10.379950070339973],["eleccione",-10.380117638143286],["próxima",-10.380137630039197],["disease",-10.380140752651783],["Rutte",-10.380147863815676],["heart",-10.380201608329255],["structure",-10.380546947288314],["beleid",-10.380843799992537],["punten",-10.380877698236407],["veld",-10.381297209956752],["gebruikt",-10.381531836408897],["Inter",-10.381715525990902],["miles",-10.381802873400268],["jij",-10.382490203708212],["gauche",-10.382890969229138],["organisatie",-10.38293745067168],["mother",-10.382961436290218],["nature",-10.383328135055798],["uiteindelijk",-10.384011490964351],["sanction",-10.385395661556172],["soon",-10.385838161705145],["assure",-10.386240055243523],["ización",-10.386355529601254],["ras",-10.386618803213729],["vista",-10.387077318281587],["précisé",-10.387120414778003],["rappel",-10.387364339587208],["Ali",-10.387489045760843],["puerta",-10.388337399000665],["signe",-10.38923932545662],["sanitaire",-10.38931422657363],["57",-10.389808097769096],["hablar",-10.39001416383408],["72",-10.390143589059711],["siete",-10.39047186321171],["richting",-10.390555096789713],["María",-10.390776467820348],["fase",-10.390984086633523],["matière",-10.391102644589845],["territorio",-10.391356638721259],["reach",-10.392944726250217],["nord",-10.392993271057788],["regel",-10.393544091093727],["visita",-10.394069890621754],["suggest",-10.394074522786294],["ongeveer",-10.394295602505661],["llí",-10.394514206312412],["victim",-10.394545171344872],["jugar",-10.395787626255764],["International",-10.396102795330767],["llega",-10.396405471558197],["covid",-10.396626527057782],["maire",-10.396997311903263],["Max",-10.397605073179074],["Est",-10.39826304074008],["fútbol",-10.398358371155183],["sch",-10.398676679530716],["executive",-10.399370557462266],["pudo",-10.399753735774548],["eron",-10.399819584484838],["Manuel",-10.400092029478252],["phase",-10.400130818158118],["changement",-10.401074241662544],["soi",-10.401983491780888],["paciente",-10.402147646525076],["periodista",-10.40237738740138],["waarom",-10.40292592872606],["única",-10.403622260060967],["Hoy",-10.404145400992778],["Star",-10.404275830360914],["waardoor",-10.404852581599481],["agent",-10.404902049099203],["Brit",-10.404970491796355],["pot",-10.405351948144174],["district",-10.406347276614476],["bra",-10.406404186447817],["welke",-10.406897111792837],["cara",-10.407427575090097],["elemento",-10.407435159102125],["compare",-10.407604929518183],["Después",-10.407725602212114],["communauté",-10.407725670735893],["tarjeta",-10.407725940345117],["siguiente",-10.40785788359438],["explica",-10.408719469438736],["liggen",-10.40911679964528],["ordre",-10.409358593467996],["speak",-10.410217174701692],["immediate",-10.410526703506239],["transition",-10.41056219842775],["espace",-10.410715522541643],["expérience",-10.413335678545007],["concerne",-10.413387982717026],["ground",-10.41386878539285],["Amsterdam",-10.414115159031454],["zaken",-10.415154005157609],["ble",-10.415647487247377],["clave",-10.416067032901728],["práctica",-10.416152579247074],["économie",-10.41615270619346],["People",-10.416157814363679],["quartier",-10.416229474665833],["estime",-10.416271985342393],["criminal",-10.416725569049582],["deben",-10.416774780955762],["64",-10.417543322671666],["vak",-10.417581770382341],["cliente",-10.418298944222665],["wante",-10.418394937455144],["Charles",-10.418400161041045],["particulière",-10.418977440865486],["pratique",-10.418978943696654],["wilde",-10.419165247581693],["gestion",-10.419200618948672],["Want",-10.419201397402253],["escenario",-10.419354701140623],["career",-10.419844138153394],["grond",-10.420297467220761],["ful",-10.420406327760174],["rechter",-10.420862286634643],["player",-10.421528609117098],["argument",-10.421560587356392],["modèle",-10.42181057693561],["September",-10.421810672823344],["crecimiento",-10.421815317129298],["wrot",-10.421970823965989],["marque",-10.422166214597993],["Nigeria",-10.422177329211436],["objet",-10.42272316809955],["journaliste",-10.42351399190594],["needs",-10.42352697250401],["campo",-10.423530187441887],["vamo",-10.424712857401401],["industrie",-10.4249326010838],["belangrijk",-10.425185034263723],["Luc",-10.425478767430972],["girl",-10.42589344246296],["arm",-10.425929390324523],["agente",-10.425985330686132],["agenda",-10.426396610247423],["estudio",-10.426911306751038],["técnico",-10.427074158161929],["houdt",-10.427166471276518],["54",-10.427333352951514],["miljard",-10.427916122211236],["nothing",-10.428176103996424],["Novemb",-10.429274180379629],["partner",-10.429421297576646],["vin",-10.430292326109967],["Congreso",-10.430655908285296],["pool",-10.430718594430829],["friend",-10.431046394399996],["seconde",-10.43118776570062],["zoveel",-10.432047019551959],["llowed",-10.432215971441975],["Plan",-10.432515077033685],["institution",-10.432927656328324],["titular",-10.43308125513777],["Octob",-10.433228050805798],["More",-10.43332185855969],["Pedro",-10.433618846066643],["entrée",-10.43383851311792],["ocho",-10.433984435814457],["ieder",-10.434113132377],["parler",-10.434176201567842],["EE",-10.434256917040159],["movie",-10.43438288404099],["dieron",-10.43475760869275],["58",-10.435225136739412],["Marc",-10.435519350299975],["ending",-10.435818367308478],["talent",-10.435870976269047],["amount",-10.436829252276068],["élu",-10.43704808762108],["address",-10.437396490797626],["boeren",-10.437983895116918],["76",-10.438518795228688],["68",-10.438594546450766],["plaza",-10.438969305926861],["Chief",-10.439004932360035],["tic",-10.44004193803352],["zomer",-10.440381093772308],["prévu",-10.441095641759883],["perfect",-10.441155637030551],["study",-10.44188225360828],["discussion",-10.441937471407758],["bied",-10.441940441791717],["67",-10.442112209553667],["réussi",-10.443396566459338],["seguro",-10.444035093114445],["acto",-10.444248985923734],["música",-10.4447668256946],["bu",-10.44569202204503],["Nation",-10.446339872983383],["Australia",-10.446665551327794],["esas",-10.447218340063205],["bouw",-10.447381382331294],["2010",-10.447412140591453],["République",-10.447690671574126],["Universidad",-10.447691558217768],["62",-10.448606014114635],["hoop",-10.449178354899612],["ampoco",-10.449459232155252],["Toda",-10.450423780156653],["fond",-10.450473140116667],["máximo",-10.450589249009148],["college",-10.45060366734348],["habrá",-10.450736529063892],["distinto",-10.45110316058016],["derde",-10.452455873539936],["doute",-10.453478483144316],["vuelta",-10.453533837806614],["Coupe",-10.453601219760866],["República",-10.453752165617082],["trans",-10.45388094683367],["deliver",-10.454111869173405],["responsables",-10.454321444992253],["suma",-10.45457175892906],["mini",-10.45528933913334],["accè",-10.455382424943664],["propia",-10.455496813892676],["localidad",-10.455938452620476],["Play",-10.456454375932033],["defensa",-10.456471957296918],["accidente",-10.456592887778948],["conclu",-10.456802015521166],["2000",-10.457015537073694],["forte",-10.45706564702865],["actie",-10.457248196480691],["iones",-10.457601208780044],["rare",-10.458343051927486],["oferta",-10.458368864047891],["niks",-10.458524959194552],["dix",-10.45866560576567],["leaders",-10.458796207842143],["político",-10.459333388971421],["présence",-10.459388954247743],["ouvert",-10.459512026873787],["location",-10.459691262026409],["loin",-10.460141681234326],["permettr",-10.460448829800779],["entrada",-10.461311496294083],["hart",-10.461516975562526],["decade",-10.461933856855243],["mantiene",-10.461981404556559],["iste",-10.4621935504131],["movimiento",-10.462350691398282],["white",-10.462526864471883],["rrière",-10.462723001990748],["cho",-10.462851413632137],["mondiale",-10.462936168954318],["prima",-10.463768199331147],["2012",-10.464694701558226],["min",-10.464768920519225],["parties",-10.464957377985378],["artiste",-10.465182125009218],["Civil",-10.465322344671245],["montre",-10.466024452561221],["schedule",-10.466173360517764],["sait",-10.466443120610675],["micro",-10.46697907431522],["impacto",-10.467472951548013],["representa",-10.468264767224696],["Thomas",-10.468277969606072],["daily",-10.468414738660854],["voto",-10.468628527924706],["Democrat",-10.468737887234129],["eeded",-10.469340629183531],["OS",-10.469454072806442],["élève",-10.469579805400535],["89",-10.469650449295585],["loopt",-10.471114046442906],["interven",-10.471456049829897],["kleine",-10.471580558874155],["quedar",-10.471815707258553],["garde",-10.472726106708837],["seek",-10.472775214422395],["gar",-10.47294188606445],["53",-10.473287488027783],["citoyen",-10.473993455298604],["défense",-10.474069785027236],["attempt",-10.474258269683371],["saber",-10.474355165913305],["contrat",-10.474548452128094],["Sud",-10.474713761866699],["album",-10.474988910465203],["retrouve",-10.475036701072646],["Just",-10.475190490776633],["beteken",-10.475230870307549],["alcalde",-10.475837775231717],["scene",-10.475983181088807],["song",-10.476238666147346],["others",-10.476283062589491],["Israël",-10.476420316561965],["russes",-10.47696613649161],["presentar",-10.477001740797753],["cita",-10.477004247937872],["entrega",-10.47818700494284],["Bien",-10.478210610082149],["250",-10.478236587609361],["cabeza",-10.478236599120745],["tax",-10.479290400038533],["opge",-10.4794520694984],["beeld",-10.479491553242678],["différente",-10.479878347150708],["78",-10.47997556272422],["father",-10.4801775409315],["mejorar",-10.480193859041847],["vive",-10.480226783894235],["multiple",-10.480297734325468],["growth",-10.48047645564921],["contar",-10.480581277618276],["longer",-10.480825553461202],["Col",-10.481123184998589],["kopen",-10.483280017423994],["interés",-10.483407176995435],["centrum",-10.483442299653504],["Social",-10.484526427722086],["jou",-10.485300521557399],["vorige",-10.48551378980925],["lorsqu",-10.485542052680731],["totale",-10.486124322263525],["ach",-10.486187890921705],["époque",-10.486275814025388],["ergens",-10.486523777386704],["kille",-10.48656734580719],["bigge",-10.486926454095627],["prêt",-10.486961973726192],["termin",-10.487759334103409],["tenga",-10.488634714462316],["kilómetro",-10.489284552079656],["Aan",-10.489335440390516],["77",-10.491571557756508],["aange",-10.491738453557701],["echnology",-10.49180471434783],["lekker",-10.491985682122362],["juge",-10.492147692660833],["Val",-10.492226283887078],["esfuerzo",-10.49232406948275],["éxito",-10.492324955907716],["cour",-10.492805037820156],["fonction",-10.492806221169833],["Louis",-10.493399303739416],["actions",-10.495189149857751],["minute",-10.495291752045752],["cijfer",-10.49533408968842],["Vladimir",-10.49537282070401],["emploi",-10.495420049887555],["entrevista",-10.49546056555296],["eight",-10.49555528752276],["libertad",-10.495905794980397],["Act",-10.495975982257804],["Bay",-10.496456971167447],["96",-10.496488364257385],["capacité",-10.496918521240335],["manager",-10.49712388920761],["understand",-10.497412889986071],["gobernador",-10.498013455326834],["européen",-10.498178646993658],["reprise",-10.498198862639187],["plane",-10.498269963340407],["título",-10.4984309737136],["VS",-10.498615785585512],["marco",-10.498680465558568],["Musk",-10.498719864643675],["bueno",-10.49876518615887],["rendu",-10.49918576540615],["ros",-10.499217644981552],["origine",-10.49997752429311],["Ville",-10.500297868703987],["usual",-10.500414032361462],["88",-10.500516156796468],["Consejo",-10.501498435044143],["enfant",-10.50178528954053],["Bueno",-10.502226030551913],["Wel",-10.50236640645182],["différents",-10.503314495642623],["wanne",-10.503427999475527],["regional",-10.503494297420744],["klimaat",-10.504222533924882],["demandé",-10.504291045652847],["participar",-10.50434470018087],["Africa",-10.50460018557179],["Government",-10.504772820373322],["aban",-10.505725704295843],["periode",-10.50587378944666],["fuego",-10.50598423199941],["ochtend",-10.50766775622457],["essential",-10.507670121900425],["argentino",-10.507722119876064],["Maroc",-10.507782737090746],["responsabilidad",-10.507836887542023],["pod",-10.507885810183389],["Ba",-10.50824034580666],["capitale",-10.50836838461485],["industria",-10.508611584148255],["droite",-10.50909800701061],["Chi",-10.50912885071876],["longue",-10.509538355006377],["Mac",-10.50960188523025],["practice",-10.509983805732896],["hulp",-10.510103096046887],["bezig",-10.510339456596402],["Gu",-10.51047099215425],["ship",-10.510695778330545],["escuela",-10.510855302695449],["ayudar",-10.511542218059517],["distanc",-10.511611466532493],["dicht",-10.51162166379736],["management",-10.511831515916159],["daarom",-10.51188919338542],["ecember",-10.511919977740899],["rise",-10.511972423283668],["grands",-10.512086269980323],["perdu",-10.512797019698462],["detalle",-10.51374670303981],["mental",-10.513832087999539],["guy",-10.513856601990813],["tecnología",-10.513863312058099],["smartphone",-10.513880865531895],["middag",-10.514293486497984],["maatregelen",-10.514385367739658],["lutte",-10.51465117827535],["Bas",-10.51511130651938],["zag",-10.51613353819894],["driver",-10.516162184367325],["dura",-10.516706367739786],["positivo",-10.516789106454667],["audience",-10.51697965229993],["iniciativa",-10.516983724390558],["relationship",-10.517008358942336],["labor",-10.517057008084542],["exact",-10.517194727537781],["Februar",-10.517219164326978],["accusé",-10.517598829307955],["serve",-10.517664557315513],["vader",-10.517837226994056],["appelé",-10.518682974160178],["systeem",-10.518708094673926],["incluye",-10.519997781397425],["década",-10.520342955412612],["multi",-10.520542440258229],["eguridad",-10.521118905413378],["Mijn",-10.521293906855089],["Casa",-10.521779356608256],["inside",-10.521947054578881],["funciona",-10.521976159180703],["revenue",-10.522069115716462],["metros",-10.5221305883],["69",-10.522278666498945],["telle",-10.522349547487519],["hacen",-10.52272573950767],["aider",-10.523324047705389],["Poutin",-10.523324110203319],["volume",-10.52333538877673],["nieuws",-10.523537925688036],["propert",-10.52358113844097],["wife",-10.523602915278543],["meilleure",-10.523756487046196],["63",-10.524959175868554],["rend",-10.525950471815065],["América",-10.526226794445694],["avez",-10.52630560085008],["extrême",-10.526383025091736],["debería",-10.526533772917595],["écran",-10.526675763964244],["pression",-10.526789433179246],["Ça",-10.52789846872369],["Mario",-10.528045446891117],["quality",-10.528351956719536],["News",-10.528588882230874],["view",-10.528878050793843],["tengo",-10.529186725315906],["Sport",-10.529425295654912],["particulier",-10.529537613633241],["example",-10.529563839829443],["quarantine",-10.529572418302651],["ofrece",-10.529952792135091],["précise",-10.530000758770683],["Comis",-10.531560661348935],["precie",-10.531598451309396],["tasa",-10.53168572403986],["olie",-10.532216062705942],["mouvement",-10.532621075189919],["class",-10.532674467302373],["infrastructure",-10.532702377291411],["CEO",-10.532825907158797],["ient",-10.533036558354105],["ninguna",-10.534266010172754],["Net",-10.534486267827024],["atteint",-10.534538576175658],["Many",-10.534742286121771],["59",-10.534858482904731],["Antoni",-10.535301912565838],["tension",-10.535326180871591],["Gar",-10.53552853100878],["américaine",-10.535623323835388],["whole",-10.535681021066281],["honderd",-10.535810299968617],["voie",-10.535861426668092],["states",-10.535929254458816],["huidig",-10.536202140110584],["flink",-10.536544419119114],["pie",-10.536956677626426],["presión",-10.537175912067038],["doel",-10.537498707929382],["imp",-10.537561253990903],["française",-10.537703489173234],["armes",-10.538353059567921],["rester",-10.538399623975206],["lucht",-10.538756462671744],["établissement",-10.539065035682817],["majorité",-10.539979351198415],["adelant",-10.540147405162017],["policier",-10.540191178675869],["trekken",-10.540226507343167],["mètre",-10.54135991476745],["vertelt",-10.54156650611365],["lluvia",-10.542277440060833],["plateforme",-10.54231204302317],["écrit",-10.542524262819473],["Ex",-10.54263676883836],["liet",-10.542729342932034],["particip",-10.542874217070416],["añadi",-10.54291438496277],["contrato",-10.543237498579416],["Ains",-10.544197730161219],["makes",-10.544422509369632],["AP",-10.54450406611178],["Bill",-10.54464137194135],["revenu",-10.544844327828525],["clase",-10.54499619211306],["ving",-10.545158061340027],["alcohol",-10.54539013973633],["fácil",-10.545474306191757],["superior",-10.545480635305578],["product",-10.546153051082943],["sitio",-10.546358575751977],["policy",-10.54644420969871],["lower",-10.546490771439913],["populaire",-10.546616895249237],["acte",-10.546775944130115],["vaccin",-10.546831129235066],["slag",-10.54754602668536],["étant",-10.54820149247265],["guien",-10.54824041655236],["urgence",-10.548491249047084],["Association",-10.548676952864064],["Duitsland",-10.54869862759561],["Florida",-10.548744062041616],["happ",-10.548771620978211],["pick",-10.548914989325354],["vacuna",-10.549012522878112],["Toen",-10.549014556031173],["llamado",-10.549189863649524],["describe",-10.549588706376866],["51",-10.549987053252721],["partijen",-10.550208302060192],["teste",-10.550762916366695],["golpe",-10.550951306591543],["créer",-10.550992585154855],["inflation",-10.55160442525142],["tests",-10.551901076630942],["temperatura",-10.551902851052521],["inscrit",-10.551946404399612],["organization",-10.552045068021002],["Christian",-10.552106024180379],["hors",-10.552591492369302],["gebracht",-10.553048675054125],["invers",-10.553093384697853],["rival",-10.553109303452247],["arrêt",-10.553158769597884],["daarna",-10.553298503894624],["candidato",-10.5536840038798],["voit",-10.554086575234379],["mot",-10.554219027846283],["ix",-10.554269526598453],["peuple",-10.554279650703204],["restaurant",-10.554542473797817],["step",-10.555023131087067],["retrouver",-10.55527710865998],["commission",-10.55567563975799],["pou",-10.555764819051504],["zelfde",-10.555837695384238],["q",-10.555845622561527],["barrio",-10.55602326436605],["tjes",-10.556888573560693],["gevallen",-10.557457438432579],["sûr",-10.558263221016533],["compagnie",-10.558386227407176],["vot",-10.558468841534676],["halve",-10.558494664815834],["helpen",-10.558905160506939],["Ti",-10.55979022568084],["marcha",-10.561286087017344],["detenido",-10.562041785731818],["Russen",-10.563503107417798],["Copa",-10.563835380387458],["accuse",-10.564965678693255],["gedrag",-10.565084002464964],["vision",-10.565326980039378],["73",-10.565529371254605],["facilit",-10.566336793473212],["hechos",-10.56643056490207],["initial",-10.566574298657343],["films",-10.567132069797967],["patient",-10.567499054566358],["relatie",-10.567568655649291],["education",-10.567775254185616],["crea",-10.567829675072659],["user",-10.567934770369138],["purchase",-10.567941370840629],["meeste",-10.567977554170167],["Disney",-10.568190254768695],["conocido",-10.568322009607243],["strijd",-10.568845873471863],["dirigeant",-10.569221395381746],["ogen",-10.56981659605723],["Même",-10.571479306638016],["justicia",-10.57154017952709],["expliqué",-10.57160964176409],["700",-10.57161818004965],["cast",-10.57192020782966],["ask",-10.571974085601987],["ocurri",-10.572300471218558],["Lors",-10.57236482604956],["kilometer",-10.573176274247237],["balance",-10.573204019651604],["transporte",-10.573393801701968],["pop",-10.573704655424418],["jury",-10.573847017639237],["56",-10.574057270889238],["ouders",-10.574593899479574],["analyse",-10.574661335539902],["mexicano",-10.574779529908543],["diputado",-10.57485187716734],["regio",-10.575091418927808],["salida",-10.575160330971649],["présente",-10.575240530168847],["range",-10.575453547144477],["request",-10.575507896317141],["Cruz",-10.575651460861563],["meerdere",-10.576031038827498],["representante",-10.576196261047032],["vorm",-10.576351116980677],["WK",-10.576917114395924],["card",-10.576951533608543],["huizen",-10.577112640160841],["klaar",-10.577596734841052],["rechts",-10.577825043563786],["blessure",-10.578095921365328],["Justice",-10.578111195814731],["standard",-10.578295239694242],["ándose",-10.57840926837147],["répond",-10.578530101536542],["âge",-10.579354019472259],["hoeveel",-10.579480968933336],["tro",-10.579636912681082],["ski",-10.579659087390798],["construc",-10.580103420712309],["title",-10.580513425935173],["cal",-10.580757490311203],["technologie",-10.580811567892276],["leg",-10.581070584548936],["zoek",-10.581223338115306],["rekening",-10.581306881833378],["Montréal",-10.581318049450662],["waarschijnlijk",-10.581429452008162],["intervention",-10.58165104122238],["Gran",-10.581694224362725],["affirmé",-10.58226454369526],["79",-10.583396306922287],["leuk",-10.583605627962193],["vivre",-10.583776167460012],["materia",-10.584171769577807],["réalité",-10.584758475396974],["relative",-10.584778196487001],["comercial",-10.585475570553392],["contacto",-10.58579228622171],["print",-10.585867729424194],["groter",-10.586267809737892],["tri",-10.58676208634257],["pagar",-10.586860495936115],["officielle",-10.586961287603646],["véhicule",-10.5870124121344],["anyon",-10.587885234442343],["enjoy",-10.58806360027607],["summer",-10.588147341321225],["manque",-10.58900405534575],["resource",-10.591999586034047],["gevoel",-10.593030679663007],["Com",-10.59351914525137],["genes",-10.594107376875439],["variant",-10.594148562707735],["fair",-10.594211185445111],["distinta",-10.594850810054137],["estudiante",-10.595077946922878],["distance",-10.596822373306967],["manage",-10.596840920238382],["isme",-10.597186749683354],["soldat",-10.597915173446449],["84",-10.597957101514066],["privé",-10.598199809244049],["recibir",-10.598324403311981],["wood",-10.59874551501809],["DC",-10.598959235746651],["Director",-10.59905770753599],["represent",-10.599158368972233],["meld",-10.599774950928703],["firma",-10.60009531068037],["kids",-10.600123172939384],["tir",-10.600410255514408],["baby",-10.600709078264039],["Qui",-10.601180341667941],["daughter",-10.60150276949135],["estrategia",-10.60158286875662],["oplossing",-10.60162964053568],["Bre",-10.60194491339589],["eran",-10.601990026450036],["Prime",-10.602245781586884],["treatment",-10.602295895318965],["loos",-10.602494402992237],["lange",-10.603129741955872],["mind",-10.603501878713182],["stress",-10.603688530258578],["zin",-10.603711518949336],["vite",-10.603829950836793],["etapa",-10.60398114615436],["build",-10.60495437430508],["réponse",-10.604983170764527],["Miguel",-10.60498396625655],["categoría",-10.605095681698451],["rio",-10.605173451221104],["cultura",-10.605245353384886],["allá",-10.605570450706423],["ncia",-10.606649154809348],["opening",-10.607145399060478],["error",-10.607239765198397],["realiza",-10.607527431936905],["papel",-10.60796809301227],["politiek",-10.608107990948792],["Mosco",-10.608185400811601],["dizaine",-10.608399423901352],["auteur",-10.608547029614206],["rusa",-10.609020361895212],["kamer",-10.60935356721362],["Garc",-10.609412378421336],["MP",-10.609659726664301],["reports",-10.609973066586875],["capable",-10.611434778429313],["cover",-10.611597392130594],["spel",-10.611694198778178],["voetbal",-10.611873420566827],["brough",-10.611937933699398],["ther",-10.611951345526833],["critique",-10.61199262482758],["tech",-10.612134763472802],["employé",-10.612230296931095],["Sch",-10.612464813933007],["patron",-10.612493330032533],["lack",-10.61281100362011],["fiesta",-10.613115872522435],["administra",-10.613201443569912],["passage",-10.613512016599955],["voyage",-10.613896604678619],["center",-10.614428649926722],["leading",-10.614861388436445],["encourage",-10.614964863068565],["habla",-10.615147430063443],["€™",-10.61526099453599],["étape",-10.615712030280857],["voorbij",-10.615884166513448],["fonds",-10.615946717963002],["ische",-10.616252583834893],["imagen",-10.616439415386328],["voy",-10.616443148511273],["98",-10.616449387535418],["quite",-10.616948113163069],["travailler",-10.616955678428905],["diario",-10.617276281067818],["arrêté",-10.617682504117756],["felt",-10.618591567048062],["commerce",-10.618753859908814],["facile",-10.618780124975563],["emergencia",-10.61880792145966],["presqu",-10.61885394431421],["Israel",-10.618909557763537],["arte",-10.619336026535851],["nam",-10.619515664261652],["cash",-10.619990229755658],["ng",-10.6204549468032],["East",-10.621410286245702],["High",-10.621538115708521],["ición",-10.62192185131556],["Kan",-10.622024831468352],["vakantie",-10.622139719463723],["soirée",-10.62242272797528],["Bal",-10.622939334091596],["obras",-10.623190492360308],["boek",-10.623537593193614],["style",-10.6239843094733],["judicial",-10.624687021535848],["completa",-10.625698172113461],["dingen",-10.625715554635022],["decided",-10.625782701271202],["documento",-10.626341727991758],["alleged",-10.627010716776905],["approach",-10.627056176475527],["conflicto",-10.627182839765936],["Mont",-10.627187563213727],["ajoute",-10.627592895799797],["libro",-10.627600111160453],["figura",-10.62771944016254],["ige",-10.628661214429167],["Hast",-10.629039699321599],["trimestre",-10.629123037377571],["mandatario",-10.629311064899124],["llegada",-10.629451946571915],["conflit",-10.629722772384],["Más",-10.629778610970614],["Chile",-10.629801218740498],["Toch",-10.629849582708317],["nummer",-10.630341973843272],["above",-10.630406155036173],["themsel",-10.630420981833229],["pena",-10.630572399174135],["blij",-10.63119234332732],["destino",-10.63133415844741],["Port",-10.631823570970004],["winning",-10.63189729210696],["inflatie",-10.632390868666556],["augmentation",-10.632642289747428],["torneo",-10.63265366960082],["schools",-10.633076550383654],["deberá",-10.633120503675267],["moeilijk",-10.633465277263742],["coment",-10.633731170602463],["pasada",-10.633738981275574],["fail",-10.633990254558956],["consumo",-10.634017919535868],["Congress",-10.634383466464364],["amenaza",-10.634889447959218],["conductor",-10.635325510319882],["horen",-10.635542947771379],["subi",-10.63602518942613],["aught",-10.636779787928894],["ried",-10.636920289853814],["prevent",-10.63715969863328],["probablement",-10.63771172931731],["considera",-10.637901489013814],["realizado",-10.637978433624983],["trial",-10.637997826249963],["verkiezing",-10.63853881776988],["gre",-10.638678988193861],["Every",-10.639275116803617],["Instituto",-10.639337289375431],["Va",-10.639341651705436],["River",-10.639390397566643],["limit",-10.639449023864675],["oog",-10.639540516678101],["lijn",-10.639585863168122],["reforma",-10.63961196027761],["conférence",-10.639648614204248],["Festival",-10.639696078121371],["Fiscalía",-10.639723999073638],["cambiar",-10.639731615553579],["comité",-10.639829771170085],["simplement",-10.641128175295469],["estatal",-10.641202923438163],["Français",-10.641376768564971],["relations",-10.641744291297972],["Uni",-10.641805107629615],["eten",-10.642199919598408],["host",-10.642432962317972],["voorzitter",-10.64282360401543],["baisse",-10.642923191265725],["thousand",-10.643229170127151],["ities",-10.643267693609232],["ballot",-10.644284977449296],["icieron",-10.645009432795293],["achat",-10.645220239941532],["vivir",-10.645338975021744],["publié",-10.645392819860803],["gne",-10.645724613583278],["moved",-10.64572814018825],["Public",-10.645774135840982],["imos",-10.645907735997685],["Fi",-10.64591994754431],["worke",-10.645938198528935],["disfrutar",-10.64649614124681],["mediante",-10.646499011426393],["obstant",-10.646729499409957],["diverse",-10.647300490620115],["review",-10.647468014965241],["professionnel",-10.647778120015754],["ronde",-10.64811692816101],["82",-10.648740159788417],["ouverture",-10.649122818442116],["86",-10.649734212315131],["civile",-10.64981815223532],["block",-10.650150504055546],["denuncia",-10.650192979578303],["commencé",-10.650287178638294],["Ángel",-10.650289587352171],["tenu",-10.650649666308635],["mitad",-10.650683039600562],["devenu",-10.651448987518819],["Force",-10.651946277158046],["specific",-10.65206374598732],["venu",-10.652327926699437],["necessar",-10.652368266630525],["poll",-10.652484286906414],["buscar",-10.653353506700665],["rust",-10.653786825374045],["François",-10.653858430819485],["véritable",-10.653858478823107],["anderen",-10.654029836036129],["stelt",-10.654181154497174],["roi",-10.654487069696835],["uitge",-10.654789815980537],["Mike",-10.655628146100874],["souligne",-10.65618659586033],["cumplir",-10.656384415216888],["piece",-10.656741455308055],["chaîne",-10.657404229810819],["muziek",-10.65744462495945],["empleo",-10.65746363616713],["Democrati",-10.65779077508756],["join",-10.658488621404661],["encontraba",-10.658633563687943],["rich",-10.658717694274095],["Office",-10.65889485888891],["commercial",-10.65970532630767],["Bou",-10.659980705816814],["duizend",-10.66030673899439],["belasting",-10.660771346078745],["compra",-10.660802133387616],["huge",-10.6608505425393],["ziekenhuis",-10.66103837979383],["Bruxelles",-10.661041110141532],["gone",-10.661147130924366],["vit",-10.661219075825276],["pur",-10.661271986345529],["Kamer",-10.662117785304183],["Angeles",-10.662202824099985],["rouge",-10.662442481493104],["opinion",-10.662663577181334],["studio",-10.662817537116839],["declar",-10.66307797173419],["foot",-10.663353356185972],["crear",-10.663386608137596],["Aire",-10.663721500323918],["niemand",-10.664244350124338],["historique",-10.66465032862974],["extreme",-10.664663327757115],["avocat",-10.664828473368278],["klein",-10.664845143305902],["gemiddeld",-10.664866452827868],["tierra",-10.665251662403357],["ogró",-10.665501523892033],["incendie",-10.665778155596428],["provincial",-10.66639675979718],["wegen",-10.66663145229726],["conflict",-10.667127386099262],["toekomst",-10.66756352800319],["damage",-10.667577117798466],["domaine",-10.66770371187216],["Groningen",-10.668273360833403],["rápida",-10.668274196655952],["ukrainienne",-10.66864402151689],["department",-10.669177775212633],["feeling",-10.66919394767293],["affirme",-10.669202050992808],["tur",-10.669669371835024],["Mal",-10.669852022190637],["jonge",-10.670441401940296],["tre",-10.670488512390731],["beide",-10.67083185719664],["golf",-10.67127695690073],["cree",-10.671456785000053],["policial",-10.671931000970808],["création",-10.671965502875665],["teams",-10.672124131838988],["elles",-10.672700013608546],["vroeg",-10.673664463617067],["drugs",-10.673937643072309],["code",-10.67412096386066],["mandat",-10.674854817290935],["étudiant",-10.674858725270974],["rán",-10.675514402737694],["Rodríguez",-10.675559077871227],["continúa",-10.675559111449004],["impuesto",-10.675572305553036],["wijk",-10.675840705438972],["estimate",-10.676039944418005],["éviter",-10.676118514313378],["instant",-10.676134584657904],["various",-10.676239947085133],["réunion",-10.677438952246378],["engagement",-10.677781913058098],["macht",-10.677999546721718],["agree",-10.678444820829391],["develop",-10.678531694188054],["marge",-10.678575543381152],["answer",-10.678726847652365],["gevon",-10.678933957982832],["inten",-10.679061979204603],["sense",-10.67931759066673],["reactie",-10.679322609349475],["prime",-10.679364959691723],["border",-10.6795592846475],["moyenne",-10.679623618545403],["contenido",-10.679794984835514],["steun",-10.679927992511839],["directa",-10.680236478095356],["Blue",-10.680260097806988],["tweet",-10.681578395877613],["pourra",-10.681632980660048],["importe",-10.68196905919457],["minuten",-10.682099429295718],["réalisé",-10.682786573689016],["cámara",-10.68289857346187],["aanwezig",-10.682899266522455],["nchester",-10.684386383581092],["cancer",-10.684563868344565],["hacerlo",-10.684667172875642],["74",-10.684778170148064],["mont",-10.685154787200837],["nez",-10.685250562392476],["professional",-10.685461418715466],["vervolgen",-10.685680992334968],["conference",-10.686048259279033],["probabl",-10.686374877743578],["Verenigd",-10.68660438984552],["ated",-10.686909694745136],["organismo",-10.687159250252627],["dés",-10.687879767425196],["temas",-10.687968622529944],["machine",-10.689556320922538],["spokes",-10.689729310488111],["rent",-10.690068271692674],["Nueva",-10.690322947316641],["Brasil",-10.690355482840832],["transfer",-10.690444498630608],["eventual",-10.690675781415113],["tercera",-10.690985235747554],["prett",-10.691064349510318],["dezelfde",-10.69109329304928],["avis",-10.69148779478753],["boy",-10.692084405232356],["African",-10.692758136562741],["deja",-10.69291751895654],["cité",-10.69339606034799],["conversation",-10.694080979204767],["liberté",-10.694213471481415],["Duitse",-10.694378386895984],["episode",-10.694634822441412],["creo",-10.69467972778586],["save",-10.694858045067177],["conséquence",-10.69489124473969],["ruta",-10.694891527266822],["présenté",-10.694958371709644],["Cup",-10.695245411217337],["aspecto",-10.69525230697219],["buurt",-10.695372237552],["surface",-10.696071568059843],["dirigente",-10.696478895774636],["Council",-10.697352396313173],["absence",-10.697741623752687],["supplémentaire",-10.697744336351604],["addition",-10.697841627809648],["frontière",-10.697877273039149],["décè",-10.698243095489694],["teacher",-10.698447748569928],["estoy",-10.69915246224859],["Hu",-10.69921765322615],["bijzonder",-10.699945077440814],["idió",-10.700569829507485],["deep",-10.70075053351645],["menores",-10.70094937310248],["verdad",-10.701185922373721],["enkel",-10.701416328539448],["voel",-10.701483282045833],["maximum",-10.701486669104426],["protec",-10.70157691494221],["représentant",-10.70173344606446],["ira",-10.70181493887723],["European",-10.702174347407972],["incremento",-10.702393362946781],["iza",-10.702910521408263],["science",-10.703099717065335],["Tho",-10.703321058089399],["lid",-10.703356849356311],["commence",-10.703711806098159],["Chris",-10.703746100896185],["estructura",-10.703810161219987],["mooie",-10.704525974872212],["winkel",-10.7048125588111],["Jorge",-10.705276332841942],["Costa",-10.705316526126616],["bleek",-10.705911789968152],["stroom",-10.706009825304529],["learn",-10.706232651557634],["ë",-10.706383861311387],["lezen",-10.706567104529988],["Onder",-10.706822552295872],["betrokken",-10.706957614543597],["arreste",-10.70698893031952],["Inc",-10.707076517492226],["Cour",-10.707386157029775],["Williams",-10.707979310460427],["zi",-10.708376786611783],["Since",-10.70840975489673],["UU",-10.708541892688416],["imá",-10.708766891836207],["Wi",-10.708979809452916],["medewerker",-10.70898824945266],["£",-10.709019409882998],["Río",-10.709027286500977],["massive",-10.709048316857698],["energy",-10.709418567995002],["pakken",-10.709437105067149],["easy",-10.709617159369014],["status",-10.70962015751552],["quant",-10.710254897557082],["chemin",-10.710703306767563],["municipale",-10.711064248413898],["hile",-10.7111811087426],["winst",-10.711749338886907],["liep",-10.712123649799526],["Eric",-10.712451372723752],["arned",-10.712532158217893],["encontr",-10.712664149021002],["intention",-10.71269894892994],["partenaire",-10.712829067240616],["Secretaría",-10.712966946124325],["reduc",-10.713068609702397],["helft",-10.713089133228118],["égale",-10.713515569428854],["asegura",-10.713535247611608],["Bu",-10.714429864498287],["learning",-10.715010170948975],["Will",-10.715715082519417],["café",-10.716780605647319],["hiver",-10.716902648255363],["tratar",-10.716928310059187],["tuvier",-10.717013906419485],["honor",-10.717353313283859],["cultural",-10.718156419576154],["assuré",-10.718485148721632],["dosis",-10.718862439653194],["verdachte",-10.718916108822537],["97",-10.71918593398339],["terecht",-10.71938183577587],["musical",-10.719764752912754],["preocupa",-10.719966670566691],["depend",-10.72016563191309],["fiets",-10.720286941445877],["Justicia",-10.720429171808114],["Richard",-10.720461170900567],["avoid",-10.720512481735067],["Mat",-10.720896316199397],["paz",-10.720973397985164],["texte",-10.721153269296664],["personeel",-10.721227638185795],["norte",-10.721355347995871],["beat",-10.72214048336679],["kennen",-10.722161991794984],["mur",-10.722183046096292],["compris",-10.722278552301402],["aandacht",-10.722625568155108],["trouvé",-10.723321054449633],["ducación",-10.72369613560559],["peor",-10.724013527890525],["mobile",-10.72408303029447],["artículo",-10.72425778264396],["Suprem",-10.724271649852021],["Victoria",-10.724436045280722],["leger",-10.724441825492537],["queda",-10.724976035752267],["podía",-10.725338379015021],["Gi",-10.725392049032703],["banque",-10.725613491142141],["drone",-10.72562441942701],["lijst",-10.726648793872588],["Home",-10.727023480787164],["ador",-10.727817957257198],["cinéma",-10.728059172597739],["suficiente",-10.728064709605281],["empez",-10.728093090178572],["élément",-10.72810366878024],["OM",-10.728212560709077],["gesprok",-10.728239234008747],["wachten",-10.728453623671093],["King",-10.728719296750459],["Geen",-10.728769763873583],["speed",-10.728855033405399],["electoral",-10.729062426828893],["true",-10.729342911063453],["gaf",-10.729448118872591],["gezet",-10.72968887478573],["Deux",-10.730684053216066],["Cu",-10.731232597107471],["habl",-10.731275046416172],["generar",-10.731343334172687],["symptom",-10.73196364324804],["Ayuntamiento",-10.73196494022947],["evidence",-10.731965122909827],["physique",-10.731965245461115],["cuarto",-10.731966208532214],["sommige",-10.731968140825806],["mocht",-10.731981772173192],["item",-10.7320541600293],["amplia",-10.732071442856759],["mond",-10.732196037573049],["09",-10.732290212183992],["souligné",-10.732319419214122],["incendio",-10.732667755841193],["81",-10.732694279883152],["maladie",-10.732878346860423],["tren",-10.732902633514003],["stem",-10.733270755479289],["assurer",-10.733994004452388],["brief",-10.734147982094012],["obteni",-10.73447956975325],["woord",-10.734936815402715],["engage",-10.735560530757684],["functie",-10.735841294757938],["collection",-10.735867640005111],["investissement",-10.73591415040082],["Noord",-10.735972710005422],["From",-10.736324302631747],["promo",-10.737072185190367],["cri",-10.73725984976019],["participant",-10.738022311776424],["loc",-10.73831557783885],["sortir",-10.738383376297683],["principe",-10.739312961812299],["chacun",-10.739769991658783],["cantante",-10.739956874968358],["millier",-10.739981277761526],["physical",-10.740278071485008],["warm",-10.740361816172491],["investment",-10.74040135724633],["alcanzar",-10.740403427942141],["possibilité",-10.740425820805632],["Dé",-10.740751332544347],["ocasione",-10.74102511810726],["Har",-10.741383214501795],["ï",-10.741566804353614],["registr",-10.741700959571087],["flight",-10.742310381088672],["conocimiento",-10.742432824203249],["conseguir",-10.742812019847598],["spot",-10.743473440724244],["Cámara",-10.743638957632491],["London",-10.743703380529118],["ways",-10.743765913812089],["By",-10.743920618190254],["supporters",-10.744066780280079],["common",-10.744895786660692],["Anne",-10.745400931778901],["gesprek",-10.746289778852937],["schade",-10.74631181859625],["vio",-10.74660187257032],["shop",-10.747073381964718],["sterk",-10.747471663309984],["Carolina",-10.747589256209114],["centaine",-10.747606166008168],["holding",-10.748532287972534],["slecht",-10.748536737440814],["Uno",-10.748620298054629],["Big",-10.748685077148476],["eerd",-10.749052931710082],["recupera",-10.74912835578582],["bare",-10.749147697122602],["informatie",-10.749274508624524],["improve",-10.749372704227719],["size",-10.750118664727978],["sorte",-10.750157404144721],["rock",-10.750342749502808],["operativo",-10.750727403125623],["armas",-10.750913795576981],["products",-10.751093750871245],["propriétaire",-10.75149678544719],["scolaire",-10.751501276361566],["natuur",-10.751513527328743],["climatique",-10.751524194956525],["voulai",-10.75185204920148],["reality",-10.751933359882653],["elk",-10.751981735790745],["120",-10.752002850907175],["gezegd",-10.75202880876795],["decidi",-10.752531764947763],["ating",-10.752579227444123],["atrás",-10.752614769238338],["tarea",-10.752634529193132],["rait",-10.752682436364882],["sports",-10.752922365295877],["aquello",-10.754016078693212],["aspect",-10.754273819803633],["hear",-10.754356179046798],["acteur",-10.754377195937884],["threat",-10.75474568956093],["Chicago",-10.755449503744432],["husband",-10.75544969525826],["Harry",-10.755480065540223],["ONU",-10.755484376883159],["België",-10.755489911096548],["deur",-10.755767299333057],["Road",-10.755882125129123],["push",-10.75623978324178],["71",-10.757188992185036],["Marie",-10.757627237589933],["choice",-10.758763086871689],["payment",-10.75897104073751],["Alex",-10.759069862588568],["software",-10.759154483728105],["raad",-10.759176633566847],["slechts",-10.75921234942226],["januari",-10.759417643835988],["Gabriel",-10.759423107921137],["mostr",-10.759423160301955],["niña",-10.759458584458937],["Ejecutivo",-10.759679554701261],["étranger",-10.759835113225819],["rece",-10.760273214809946],["drop",-10.760652434344848],["signé",-10.760749370891983],["German",-10.76077124399621],["huit",-10.760978742468968],["earning",-10.761060860544777],["campus",-10.76124244902492],["bol",-10.761349278290798],["Meanw",-10.761420892470714],["gebeurt",-10.762039634029708],["choisi",-10.76213389562931],["invasion",-10.762654936154608],["spent",-10.762661507718185],["réc",-10.762806665015402],["herramienta",-10.763401672493945],["edificio",-10.763402822366407],["woordvoerder",-10.76341172027351],["spreken",-10.763456643841174],["Malgr",-10.763690363110198],["secretario",-10.763833668844443],["credit",-10.76447770640952],["Watch",-10.764880813692118],["circuit",-10.764945993695434],["daarme",-10.765011386360998],["gratis",-10.765349319266475],["suivr",-10.76577410484706],["ker",-10.765810672384452],["environment",-10.766187399108368],["email",-10.766272386872462],["juicio",-10.767007526907669],["bastante",-10.767420738093978],["contexto",-10.767488404936598],["Haag",-10.767529615825826],["fac",-10.768149666147725],["Internacional",-10.76826364010159],["voulo",-10.768327477461561],["Men",-10.768526872473744],["economie",-10.769314043819396],["profiter",-10.769563725636557],["fut",-10.769604300911988],["Bull",-10.769899847620238],["manos",-10.770145415701418],["Franci",-10.770356351407397],["Ana",-10.770405729684112],["ag",-10.771395860196453],["ucraniano",-10.771417742642905],["piste",-10.771419790264352],["vulnerable",-10.771421514612534],["compétition",-10.771424416902562],["musique",-10.771433765115034],["risico",-10.771455904501526],["Ligue",-10.771523725078826],["winnen",-10.77157025497351],["Mari",-10.771635159562756],["tandis",-10.771681165504255],["vert",-10.772092376796127],["humain",-10.772722274373159],["periodo",-10.772736290286582],["beelden",-10.77301706424486],["Post",-10.773047249135722],["2008",-10.773776420338958],["session",-10.774400403778547],["politic",-10.77441982671593],["implement",-10.77443242776176],["voice",-10.774755322557361],["absolu",-10.774784311307618],["gagner",-10.775360994413543],["Pablo",-10.775450203884883],["Euro",-10.775678151835951],["revealed",-10.775698528716397],["médico",-10.776015302154306],["influence",-10.777206694288143],["denkt",-10.777355348677105],["coche",-10.777399913731655],["links",-10.777402362899423],["sacar",-10.777738769054656],["fédéral",-10.778508470940505],["curso",-10.778968957397494],["pese",-10.779015008421734],["poor",-10.779462777060786],["terminar",-10.779592375090434],["league",-10.7796905022692],["zoeken",-10.779845236903029],["char",-10.779925091984891],["begon",-10.780063595113688],["montant",-10.780125867701937],["hará",-10.780188443230735],["ratio",-10.780274680019609],["verano",-10.780833987939062],["souhaite",-10.78086279361731],["fuentes",-10.780986196484527],["1er",-10.781235172976299],["joué",-10.781504592543122],["sound",-10.781593127538287],["carga",-10.781977543415861],["cross",-10.782367250555517],["estrella",-10.782375719719647],["destac",-10.782392406337493],["arma",-10.783399876634915],["verschil",-10.783430298121836],["Microsoft",-10.78356455206811],["faudra",-10.783566476860134],["épisode",-10.7835974481815],["bâtiment",-10.783758126798807],["aving",-10.78400772134855],["wild",-10.784033404831654],["rules",-10.784086484769542],["reducir",-10.784125764386197],["pouvai",-10.784465639871627],["!”",-10.784504260982299],["loop",-10.784707798114137],["véhicules",-10.784876451414064],["volvi",-10.785204249481467],["mesa",-10.785501050263058],["slachtoffer",-10.78644903576702],["ores",-10.786556757902375],["aar",-10.786593058809345],["sloten",-10.78681423631745],["vons",-10.786861083495005],["perdi",-10.786998196433707],["IT",-10.787576133153753],["planning",-10.787917462318966],["significa",-10.78810551598896],["champion",-10.788838061868049],["ritten",-10.789673443698502],["gasto",-10.789703916506781],["difficulté",-10.789709536441723],["émission",-10.790046849818012],["normale",-10.790109386663676],["baan",-10.790140924057454],["ok",-10.79026866209055],["changer",-10.79090665643973],["venue",-10.79115782605643],["ière",-10.791529733187796],["wrong",-10.79174532611312],["oficina",-10.791750704484887],["leadership",-10.792219605149958],["bak",-10.793459827920493],["Municipal",-10.793539938679936],["showe",-10.793544494797683],["frontera",-10.79398168209594],["citizens",-10.794121074506588],["precis",-10.794374046945013],["trokken",-10.794560549301558],["peso",-10.794940909714196],["mark",-10.79541800321045],["comenzar",-10.795629201202772],["pompiers",-10.795803756679142],["mid",-10.795846497804002],["numérique",-10.795858838004762],["máxima",-10.795858838995951],["término",-10.795858862704236],["caída",-10.795859344428521],["belge",-10.796276787302418],["declaraciones",-10.796320304671053],["ejercicio",-10.796432920039994],["dig",-10.796952296342283],["perder",-10.797292401057305],["throw",-10.797338404246895],["présidentielle",-10.797713295773843],["voorkomen",-10.797730652132218],["paper",-10.7979759281057],["pensar",-10.798129627397639],["chat",-10.798706448687597],["continuar",-10.798785361937133],["apena",-10.799156598359133],["quotidien",-10.799430132917468],["deuda",-10.79964420084054],["launch",-10.799662191294455],["handen",-10.799898709256755],["restaurants",-10.799944425688842],["Zelensky",-10.799991095860278],["supply",-10.799993516389446],["premio",-10.800003465731265],["competencia",-10.80000714380703],["Radio",-10.800680241053698],["Fernand",-10.801379520353972],["ouverte",-10.801544274490357],["lie",-10.802085005583844],["Toute",-10.802676617940524],["anim",-10.802704997570942],["afectado",-10.803233409456988],["sostuv",-10.80335806629083],["wagen",-10.80350565354556],["eurs",-10.80388174347857],["Cabe",-10.803903242960363],["pérdida",-10.804140981320986],["annual",-10.804157353335519],["Cómo",-10.80416232128299],["papier",-10.804190402916891],["hermano",-10.804192551777316],["banda",-10.804257450725352],["vlucht",-10.804277641149609],["agence",-10.804353368030359],["zeg",-10.804494972201608],["rappelle",-10.805024997015355],["panel",-10.805429602252584],["entrar",-10.805529946064961],["Banco",-10.805722184718492],["pose",-10.806237142828472],["Côte",-10.806354825772711],["sentir",-10.806431268459216],["porter",-10.80660983500225],["fera",-10.807113219126373],["bond",-10.807258733801152],["concept",-10.807507280647954],["trip",-10.807567023559882],["sung",-10.807612322686943],["analyst",-10.80765222638064],["Torre",-10.808201690089946],["Tal",-10.80825603313021],["Vlaams",-10.808307354339615],["électrique",-10.808308089850245],["género",-10.808309597259456],["pressure",-10.808357426863843],["kop",-10.808399691607969],["neer",-10.808525360284811],["heard",-10.808528008862293],["beginnen",-10.808739933644569],["triunfo",-10.808827104088074],["colabora",-10.810048291815875],["quart",-10.810305041928402],["tercer",-10.81069565649241],["financier",-10.810862661251345],["indica",-10.810942291997574],["marqué",-10.811329746834346],["graden",-10.81151599065273],["sell",-10.811991349467835],["élevé",-10.812301989093605],["Bon",-10.812372924662938],["Team",-10.812514613241998],["procè",-10.812517288767587],["fines",-10.812768079098875],["pedido",-10.813227586788466],["fear",-10.813296526831152],["integrante",-10.813385617160247],["giving",-10.81350991172436],["William",-10.81365092245835],["mate",-10.81396527321808],["inderda",-10.814004079868269],["Messi",-10.814424882252958],["finance",-10.814738145214779],["photos",-10.814911297289033],["aria",-10.815148272730553],["clair",-10.815239449752985],["einde",-10.816390649446129],["Bel",-10.816473440984476],["Capital",-10.816499710906857],["estadio",-10.81650150094419],["diálogo",-10.816692942131386],["atteindr",-10.816693413839806],["électrici",-10.816721478848011],["instala",-10.81687039303922],["usted",-10.816917250859122],["tratamiento",-10.816934465562568],["network",-10.817100437345857],["estimé",-10.817207129750823],["nuclear",-10.817364584967674],["usar",-10.817460206327063],["bre",-10.817589480434734],["negocia",-10.81786191035926],["vic",-10.818130974308676],["uren",-10.81826331237097],["continuer",-10.818590329395168],["goes",-10.81901065016524],["nivele",-10.819022052954033],["sum",-10.819047515793509],["Ku",-10.81934020593514],["carry",-10.819796726254985],["mondial",-10.820701108384206],["lancer",-10.820883670712178],["échange",-10.820892202880321],["Kremlin",-10.820912331878528],["faisant",-10.82115253805998],["señala",-10.821178250385216],["participation",-10.82122964436052],["arrivé",-10.82129642833582],["spring",-10.821537527841286],["remember",-10.821542391520069],["acteurs",-10.821700085005865],["Ou",-10.821881139011431],["strak",-10.822121157437419],["comprend",-10.82245472017793],["rath",-10.82258375040183],["direc",-10.82304884606986],["imply",-10.823095919202533],["è",-10.823566852852736],["Last",-10.82387463063862],["classes",-10.824306493786988],["juez",-10.824733253060417],["trainer",-10.82473407490459],["soms",-10.825218096563809],["Mer",-10.825263882381137],["viel",-10.82529443139251],["escribi",-10.825397742088864],["Franse",-10.825673284672602],["appeal",-10.825862332130638],["Face",-10.825910053134336],["clara",-10.826205866770689],["Lake",-10.826773459090848],["agents",-10.827144687758501],["ventaja",-10.827324655835426],["delante",-10.827398933869357],["affiche",-10.827557313544007],["izar",-10.827559061418672],["income",-10.82803811752214],["storm",-10.828226252581857],["scale",-10.828488432073875],["completo",-10.828718487850868],["fiance",-10.828723230201193],["Senat",-10.828842919932104],["Indian",-10.829132640128577],["intérieur",-10.829404917733335],["Cuba",-10.829512286215133],["empleado",-10.82964150821743],["mostrar",-10.829673017376686],["invité",-10.830423332810241],["ancienne",-10.83045786790143],["ocas",-10.830606852670108],["Kar",-10.83064825216661],["buil",-10.831030568515963],["cro",-10.831487141382816],["viol",-10.831502874527867],["hot",-10.831718681459485],["trust",-10.83177033644648],["bezoek",-10.831927466553093],["parc",-10.832071913072898],["faisai",-10.832912604559283],["viven",-10.83297785431056],["voldoende",-10.833323355617416],["spectacle",-10.833679201909504],["followed",-10.834276126656011],["televis",-10.834306347777995],["Pat",-10.83454789717157],["respond",-10.834617246169998],["elijk",-10.834693562008272],["uff",-10.835077484720609],["judge",-10.835169578489548],["instance",-10.835465025232061],["moral",-10.835542960504924],["auron",-10.835564042922142],["peur",-10.836167667319081],["suivi",-10.836573905568281],["preuve",-10.836660932464941],["Well",-10.83669365280532],["toma",-10.837019090973595],["mari",-10.837451922338687],["kracht",-10.837750552404025],["amarilla",-10.83794747127672],["alternative",-10.83797512116477],["jobs",-10.838102881255168],["manifestation",-10.838232676143292],["confianza",-10.838301649328642],["link",-10.838505411634953],["constante",-10.83854679565249],["gusta",-10.838672035368187],["roll",-10.838871567416493],["success",-10.838877275215811],["Uit",-10.839772103095761],["Veel",-10.83997078824332],["turne",-10.840138440033673],["touche",-10.840144805583423],["verantwoordelijk",-10.840459849591547],["bot",-10.840867298068908],["juni",-10.841063435997818],["61",-10.841129305457788],["Berg",-10.841195926162023],["begint",-10.841269678836467],["probable",-10.841315477673263],["bri",-10.841326830889386],["pleine",-10.841411853056382],["Tri",-10.841458178666347],["aid",-10.841731265691372],["vague",-10.842178415326703],["83",-10.842179267421749],["sommet",-10.842216601915933],["artist",-10.842332270161364],["Brown",-10.842338508290052],["nou",-10.842809024320626],["presidenti",-10.842856589892909],["cumple",-10.842997228397486],["convertir",-10.843212620033567],["quería",-10.843426654576458],["Republican",-10.844211140443438],["reache",-10.844688567934407],["ieurs",-10.845062299202937],["standing",-10.845191868565799],["BA",-10.84542247054517],["funcionarios",-10.846189811558364],["Puerto",-10.846610908358997],["judiciaire",-10.846613719358434],["cierre",-10.846652287148274],["sueño",-10.846682821543613],["Party",-10.846710272525923],["logement",-10.846727685677164],["zwaar",-10.846754557380873],["razó",-10.846857425882032],["Otro",-10.847074252356506],["supuesto",-10.847201896891658],["Martín",-10.847238727403415],["planta",-10.847702045315128],["VVD",-10.848534469261876],["fête",-10.8486769268563],["Zuid",-10.848950538694337],["ramp",-10.848966815525474],["passed",-10.849112945405462],["calles",-10.849201160607034],["speelt",-10.849447768405621],["alimentos",-10.849852214201523],["Britse",-10.85053315407853],["pull",-10.850931178858804],["importa",-10.851714826423432],["rode",-10.852275634896914],["haga",-10.853759337031299],["Arm",-10.853825475362367],["afecta",-10.853831262181252],["registro",-10.854000703668131],["referencia",-10.854399099087487],["cuidado",-10.854448278387556],["kost",-10.854684988952876],["Frank",-10.854858359356886],["Ministr",-10.85513302726049],["teléfono",-10.855324248645008],["nucléaire",-10.855324249992549],["Alejandr",-10.855324485773973],["pequeña",-10.855324601380145],["combustible",-10.85532606305014],["lager",-10.856888625665544],["dacht",-10.857397650430226],["locatie",-10.857759784827792],["coin",-10.859410205423284],["Heb",-10.859665493966851],["necesaria",-10.859710289410252],["Presidente",-10.859898630625697],["podium",-10.86001276291673],["plainte",-10.860054911651151],["cor",-10.860297193770734],["wonen",-10.860589739576124],["battle",-10.861207894324268],["diferente",-10.86229243839286],["storie",-10.862468696700232],["banco",-10.862862892512998],["trein",-10.863145415793248],["sleep",-10.863298583343832],["dorp",-10.863633070001182],["publiek",-10.86373182939996],["gebeur",-10.863835729345205],["Minnesota",-10.864115665424453],["First",-10.864123429099852],["England",-10.86412483317487],["abogado",-10.864290848254093],["remporté",-10.86459007269584],["discours",-10.864698925314922],["llegado",-10.864927841383102],["gue",-10.865099732294661],["noir",-10.865335551871242],["Rob",-10.865752349409583],["division",-10.866153260955457],["volk",-10.867024270334827],["Bat",-10.867072114060232],["Nada",-10.867374535279879],["lance",-10.86777247052855],["Most",-10.86786689299665],["secret",-10.867910590085469],["sentiment",-10.867925597989366],["OTA",-10.868099687002765],["NL",-10.868607167340851],["vertrouwen",-10.869191490784303],["king",-10.869213959786485],["critical",-10.870337737526206],["premiers",-10.870625526551109],["dolor",-10.870781001756141],["comprar",-10.87098169534838],["noem",-10.871241905981464],["plaatsen",-10.871309129216908],["87",-10.871957968505244],["adolescente",-10.872269558827835],["magne",-10.872647085318079],["laag",-10.872647653574251],["har",-10.872860561316823],["increasing",-10.87298689331153],["brother",-10.873042054506325],["llamada",-10.873059548098045],["guard",-10.87310508039777],["Fox",-10.87330343626046],["drug",-10.873335475085184],["régime",-10.873390883913455],["koers",-10.873495059338346],["ium",-10.873555031199889],["Tesla",-10.873752717912001],["collaboration",-10.873817144558021],["quién",-10.873855937732069],["recordar",-10.87402671824148],["cadena",-10.874036432726168],["broad",-10.874177834035265],["Marine",-10.874324047986422],["Alberto",-10.874444742910468],["défi",-10.874702744607632],["ullie",-10.875213919381974],["Scott",-10.875365947212828],["klanten",-10.875612270506842],["ienne",-10.876062459251033],["Champions",-10.876164856310094],["commun",-10.876258526440902],["journalist",-10.877421036469922],["González",-10.877449008575798],["offensive",-10.877449468739044],["abierta",-10.877456729681352],["cuál",-10.877478712133703],["común",-10.877497777464527],["successful",-10.877580714346319],["représente",-10.877627331851288],["taine",-10.877632693492943],["begrijp",-10.877916378879762],["abilidad",-10.877932341445938],["Tim",-10.878488126165092],["tient",-10.87868005718408],["Belgisch",-10.878796274018892],["Jones",-10.879094330995713],["maintain",-10.879736844630568],["Jim",-10.880271323101073],["encima",-10.880347874354062],["rule",-10.88037069473073],["marche",-10.880489466614064],["entorno",-10.880504886586497],["assist",-10.880518910334446],["schrijft",-10.881001703717144],["zware",-10.881004471714427],["kar",-10.881059013600378],["endroit",-10.881102554964105],["Certain",-10.88144389565028],["Obrador",-10.881936127676411],["Ajax",-10.88193914210003],["Martínez",-10.881960448340452],["grens",-10.882587165009376],["Daarnaa",-10.882746101608905],["korte",-10.882844531414136],["notice",-10.882844703166125],["bedrag",-10.883109271004948],["titel",-10.883196015801605],["muerto",-10.883387174351046],["excuse",-10.883718367249152],["touch",-10.883733260599548],["hoogte",-10.88400074500021],["county",-10.884646535901936],["progress",-10.885266229077208],["claire",-10.88534226122924],["Santé",-10.885528787677604],["hout",-10.886345795731188],["Elizabeth",-10.886437820917518],["Santiago",-10.886451545520913],["hundred",-10.886452541753457],["découvrir",-10.88648434680823],["Patrick",-10.886542658212079],["abierto",-10.886544290077296],["considere",-10.887081927817075],["uch",-10.887115762213654],["tendencia",-10.887258283922577],["klink",-10.88770143477819],["personaje",-10.887703851352445],["streaming",-10.888025423876663],["served",-10.88895092964409],["rat",-10.889390706603287],["insist",-10.889693883930573],["retrouvé",-10.88972229720514],["D66",-10.890410737086121],["página",-10.890962705836685],["física",-10.890962711278032],["temperature",-10.890962851434882],["discurso",-10.89104576281181],["rendez",-10.891067838954662],["examen",-10.891107526577379],["futur",-10.891276566500105],["Adam",-10.891359859172978],["Tribunal",-10.891559168985806],["tué",-10.891690951383026],["adding",-10.891854660284736],["courant",-10.89196190949556],["exchange",-10.892280395767784],["obtener",-10.892298781730233],["comis",-10.892569244347719],["département",-10.8925942541852],["ocurrido",-10.893051095198258],["gain",-10.893057469921828],["september",-10.893183923976988],["aventure",-10.89363255885841],["ministra",-10.89384735797001],["ujourd",-10.89457052551686],["parcours",-10.894642984186731],["hoeft",-10.894825340483923],["politieke",-10.895184428840206],["móvil",-10.895341607883163],["puissance",-10.89554893577601],["elektrisch",-10.895581509875106],["afstand",-10.895582095555941],["perte",-10.895710121534263],["déclaration",-10.895932784868409],["tool",-10.896202545043742],["Ch",-10.897121303348117],["plant",-10.897599134778499],["funding",-10.898508511589162],["flu",-10.898943600971105],["search",-10.899252173051927],["Perú",-10.900181909419214],["universit",-10.900443379121478],["salaire",-10.900859642920244],["vluchtelingen",-10.901040298375232],["tráfico",-10.90107058222196],["Mor",-10.901179188751868],["agreement",-10.901454511011671],["Corte",-10.901476483304613],["prove",-10.902540860919645],["positie",-10.90256769158174],["Xi",-10.902634262625842],["stap",-10.902842136030786],["legt",-10.902971667495585],["abri",-10.903010576608885],["BB",-10.90302341213951],["règle",-10.903514159666795],["realizará",-10.903758100001134],["Mercedes",-10.904686644196563],["presupuesto",-10.90475909389469],["ambiente",-10.904912654629182],["stemmen",-10.905064974520219],["médica",-10.90523159075611],["sali",-10.905236723672584],["Station",-10.905323703134215],["rose",-10.905433751926394],["wall",-10.905991534712186],["versie",-10.906068043675859],["Royal",-10.906120991104128],["entretien",-10.906354724840531],["climate",-10.90644070855608],["asking",-10.906484646505676],["nette",-10.906750211667454],["attendr",-10.906856023538134],["médecin",-10.90690996587759],["herido",-10.90697107081565],["Ter",-10.90726791457761],["porté",-10.90728660118237],["Hill",-10.907397731354386],["refuse",-10.907787321167223],["movement",-10.90820333754912],["actuel",-10.908334914506591],["finish",-10.908367104626187],["screen",-10.908390395576067],["espère",-10.90862561569769],["bag",-10.90868675700571],["konde",-10.908688229891588],["unit",-10.908766067926553],["complex",-10.908946029226273],["Rotterdam",-10.90920120692457],["Two",-10.909206488698889],["Rock",-10.909215968085075],["section",-10.909224873306936],["britannique",-10.909269820402628],["régulière",-10.909272056118063],["agency",-10.9092770556204],["hor",-10.909300621340604],["neuf",-10.909348760280507],["río",-10.909788185024622],["entrenador",-10.909893876665887],["zeven",-10.910097270332749],["keuze",-10.910379000626394],["omgeving",-10.910648453043269],["espacios",-10.91080678871124],["stappen",-10.911427964458746],["utiliser",-10.91171452324072],["réforme",-10.912529900625646],["Alleen",-10.912785644813574],["environnement",-10.912875867290898],["scenario",-10.913304871938877],["stikstof",-10.913899647469815],["voormalig",-10.913905643336179],["disposición",-10.914203195864816],["Agenc",-10.914453442040077],["audio",-10.91448654692553],["cuest",-10.914809810757557],["Hall",-10.914898846273992],["verbod",-10.91513566514213],["Juli",-10.915430186562407],["augmenter",-10.916223851503842],["fu",-10.916430640625865],["langue",-10.918002389613708],["esperar",-10.918442599960109],["departamento",-10.918550704279717],["Alemania",-10.91855098772637],["espoir",-10.918557120332036],["nueve",-10.918568467437126],["obligation",-10.918654756495116],["Han",-10.918895332606986],["assistance",-10.918977969691365],["violent",-10.919006014457132],["productie",-10.91905881918232],["cine",-10.919256030754608],["export",-10.919427703098876],["launche",-10.920466232667913],["compter",-10.920700514318563],["conoce",-10.920753282676245],["ura",-10.921388030069352],["laboral",-10.921872952917617],["affect",-10.922063873564824],["bat",-10.922236820422818],["rigen",-10.922586742762793],["kilo",-10.922876432026882],["veille",-10.922933730368644],["electric",-10.92318604802106],["allait",-10.923211689877325],["Pérez",-10.923238911705056],["offrir",-10.923248034616403],["ontwikkeling",-10.923640547513386],["confirmé",-10.923769215642748],["provid",-10.923989635580192],["leider",-10.924570379045552],["reporter",-10.925016585719153],["personnage",-10.925571769078541],["FA",-10.925622084034117],["novel",-10.925677341113712],["belangrijke",-10.92581649842726],["infecte",-10.92583888180863],["tar",-10.926641836528486],["campe",-10.92684572352469],["Grande",-10.926990250662389],["omos",-10.927123178455515],["menace",-10.9274014473107],["ultra",-10.92745789798743],["touché",-10.927597712398462],["ebruar",-10.927598905678238],["négociation",-10.927918345677872],["cuyo",-10.92792912772568],["habitual",-10.927942992079833],["Verstappen",-10.927996200290089],["altura",-10.92804552114119],["geweld",-10.928059763724528],["vuelve",-10.928098618151902],["favorite",-10.928120896605197],["wing",-10.928172971195993],["Oost",-10.92832986068909],["hands",-10.928445331820921],["Game",-10.928904697417758],["Za",-10.92916490966294],["prévue",-10.929365017148498],["diez",-10.929477278407752],["emp",-10.929692560744282],["invite",-10.929792974569999],["overall",-10.92979616209201],["suele",-10.930058639084045],["studenten",-10.93009162510933],["permanente",-10.930142029774348],["antwoord",-10.930204766295905],["funcione",-10.930361354655723],["94",-10.930732871118206],["sufri",-10.930997935915048],["âgé",-10.931143127789865],["worst",-10.931351778466732],["kieze",-10.931986845880107],["istas",-10.932445966828205],["ria",-10.932511837739547],["responsabilité",-10.932636083428708],["kilomètre",-10.932662311437529],["alimentaire",-10.932677442938488],["distribution",-10.932695521675655],["Comité",-10.932733729005385],["equipment",-10.932767019647487],["chiffres",-10.932791151595275],["promotion",-10.932812847945247],["gener",-10.93301271896735],["visible",-10.933035614809388],["hockey",-10.933049436170462],["drama",-10.933094152328543],["promedio",-10.933653142296249],["vuelo",-10.9337931082224],["Avant",-10.933903510320537],["asocia",-10.934231968298832],["cia",-10.935075543777177],["voeren",-10.935515618329298],["log",-10.93628196033702],["Mayor",-10.936298338297236],["arrest",-10.936714088582505],["enfrentar",-10.936902272837518],["1000",-10.937063105952964],["pad",-10.937167114543229],["pourron",-10.93725030683699],["enorm",-10.937323520932331],["correspondiente",-10.937375143905614],["TikTok",-10.937375361962932],["persoon",-10.93756541534545],["comida",-10.937627149737882],["proposition",-10.938008143687643],["investigador",-10.938198099190354],["sumar",-10.938268302040784],["absolute",-10.938298323098726],["hou",-10.938300143705654],["robo",-10.938312431327137],["aná",-10.938908443823205],["contexte",-10.939237209636957],["ará",-10.939399455270507],["naturale",-10.939659850111529],["Simon",-10.939851725608136],["normaal",-10.940018684969015],["relacione",-10.940709419741356],["sturen",-10.940721569627899],["celebrate",-10.94095592001819],["primar",-10.941911253741367],["mínimo",-10.94213827346683],["pobre",-10.942305916763925],["NFL",-10.942314710684881],["roman",-10.942373256420467],["wan",-10.942463966335747],["participer",-10.942586951766943],["diseño",-10.94272415789008],["RS",-10.942798344595829],["91",-10.942941944618944],["belang",-10.942975355730201],["pid",-10.942994339159762],["bepaalde",-10.943094867279086],["doble",-10.943300434576186],["mix",-10.943475646641136],["subject",-10.943499384532053],["recibido",-10.943512076036397],["sometime",-10.94380882463509],["Twee",-10.944059495532994],["reconnu",-10.944121424494217],["activa",-10.94422162798729],["rechtbank",-10.944345407923741],["wist",-10.944377353045262],["unité",-10.944552147939335],["yond",-10.945533295549836],["Valencia",-10.946779784298625],["ram",-10.94699689627845],["tournoi",-10.947034589565835],["Londr",-10.947087882640105],["Andrew",-10.947129926708893],["attente",-10.94718540056318],["ën",-10.94743411667976],["kerk",-10.947466901992675],["liever",-10.947950941570948],["gesloten",-10.948223167277122],["balle",-10.948231933694068],["pos",-10.948385221134899],["ministerie",-10.948503345292439],["shooting",-10.948513076382131],["Liver",-10.94873445249548],["Pan",-10.949258361832397],["ibilidad",-10.94937597361898],["anual",-10.949448440993493],["parle",-10.950062857910593],["NH",-10.95062270795875],["endant",-10.951029166194228],["jug",-10.951425683195227],["situé",-10.951447606732305],["Sol",-10.95151640791494],["secrétaire",-10.951728950692264],["venezolano",-10.951728977412392],["Frankrijk",-10.951742282651189],["Sergi",-10.951746571614022],["respective",-10.951856772312933],["stoppen",-10.952462335896836],["Tot",-10.953175587249374],["explaine",-10.953259011770127],["Here",-10.955607132821644],["excellent",-10.95567411168298],["arriver",-10.955743648087441],["bericht",-10.95588990238178],["utilisé",-10.956063973481157],["técnica",-10.956450408010479],["schrijven",-10.956559895492642],["mening",-10.956679499851564],["acusa",-10.956723923594643],["guideline",-10.956808037154474],["vienne",-10.956820933848496],["nforcement",-10.956849884998775],["liefst",-10.956890141652792],["feit",-10.956897997679846],["políticos",-10.957014057633213],["reed",-10.957087325338389],["decline",-10.957336918294745],["revanch",-10.957357386067548],["offering",-10.957620872187618],["personen",-10.95785053377589],["economisch",-10.957931640688429],["Nog",-10.958109273961398],["obtenu",-10.958358475113583],["tradition",-10.958421399161413],["compara",-10.95846577705522],["Beau",-10.95981342964333],["contain",-10.959967099311518],["complet",-10.960192638974043],["graves",-10.960853084480666],["supone",-10.961004109993025],["étrangère",-10.9614142380039],["Portugal",-10.961414250218304],["carretera",-10.961414339714082],["appareil",-10.961484002106644],["géant",-10.961509192076573],["empresario",-10.961610060395035],["gun",-10.961629014250878],["Oscar",-10.961695652566156],["efectivo",-10.962265178133311],["affecte",-10.962920278783363],["tacó",-10.96455437121114],["burn",-10.96464925754231],["modern",-10.964680152640916],["charges",-10.96478872866373],["española",-10.965422315376074],["Miam",-10.965566278231355],["membre",-10.966040327100309],["cérémonie",-10.966292286386206],["burgemeester",-10.96629244845947],["volonté",-10.966303799371126],["asistencia",-10.966483583209145],["Prince",-10.966555619200102],["funcionario",-10.966812494014796],["fourth",-10.967091166183476],["laisser",-10.967386877153402],["Dieg",-10.967723481076913],["Defens",-10.968085969736881],["outre",-10.9681605617251],["poca",-10.968672018785703],["vlak",-10.969065743220362],["dividend",-10.96921268166643],["ouest",-10.969692842956178],["hol",-10.96975423283629],["cul",-10.969873048612417],["registrado",-10.969907532944976],["jongeren",-10.970169840700294],["burger",-10.970227603346636],["Sp",-10.970499002641585],["Bor",-10.970855047309513],["crowd",-10.970905369618036],["sectore",-10.970964676601039],["génération",-10.97100131683962],["coraz",-10.97107257571789],["siècle",-10.971194249268063],["numéro",-10.971194262347634],["blood",-10.971218414683591],["accusation",-10.971271514619929],["dispositivo",-10.971275190550422],["picture",-10.971626197440875],["investor",-10.971787344374725],["ubicado",-10.971964433135065],["Quan",-10.97207384250617],["conferencia",-10.972757269373183],["garantizar",-10.97313691306212],["union",-10.973206283175063],["hija",-10.973338939427467],["inwoners",-10.973998225337551],["alone",-10.974052232348008],["Nic",-10.974072956338269],["Kim",-10.97456012878147],["discover",-10.974633803481563],["veilig",-10.974639482188488],["SA",-10.974679591901772],["registrar",-10.97472278323479],["répondr",-10.975269838526469],["talló",-10.975653007117664],["bevolking",-10.975738632446298],["lugare",-10.975841611570573],["tenue",-10.976424146922378],["provincie",-10.976546673175813],["implica",-10.97674070647723],["boom",-10.976964087829078],["truck",-10.977080009518087],["draw",-10.977109012373845],["ferme",-10.977212259293754],["cam",-10.977528358620424],["cat",-10.97756361508915],["tekort",-10.977624564159221],["termijn",-10.97791145664787],["echte",-10.978075033256053],["remise",-10.978170278214751],["Santo",-10.978246239034327],["entendu",-10.978274899112726],["dog",-10.97840766836909],["Tous",-10.978514745336325],["objeto",-10.978700540324262],["aplica",-10.978740528948439],["Justin",-10.978932333237765],["92",-10.979021857495113],["mill",-10.979086274359883],["estima",-10.97919715745492],["council",-10.979321031644627],["slow",-10.979478675108256],["plat",-10.981061128883459],["izquierda",-10.981070849323967],["championnat",-10.981074395544596],["YouTube",-10.98107556494128],["maatschappij",-10.981109587308403],["installation",-10.98111703122802],["entraîneur",-10.981119698617615],["defense",-10.981131610738235],["beginning",-10.981163786107452],["craft",-10.981219777780254],["geloof",-10.981485457194486],["hacía",-10.981526407132982],["missile",-10.981607498284646],["hall",-10.98163618231218],["jouw",-10.981796389893855],["elected",-10.982073332626294],["forcé",-10.982302070887684],["ought",-10.982646727137789],["Rafael",-10.982981733229492],["utilizar",-10.983325149469469],["fit",-10.983436434252015],["gesteld",-10.983504816542315],["raconte",-10.983524917151492],["declara",-10.983629422769457],["peligro",-10.98375457070583],["Media",-10.983773211285218],["frère",-10.983819491817941],["mor",-10.9838968621454],["index",-10.984092356595315],["comprendre",-10.98416714450391],["Sá",-10.984425882100592],["rêve",-10.98494781166383],["diensten",-10.985252657071992],["Hace",-10.985287607883677],["groei",-10.985691909105507],["Marco",-10.985778246206412],["besluit",-10.985906612880807],["Sports",-10.985953739767286],["débat",-10.985985267682345],["Nigerian",-10.986029423721671],["church",-10.986047469132455],["ktober",-10.986054824993932],["District",-10.986093858801059],["fraude",-10.986204712837775],["hield",-10.986352684893024],["Norte",-10.986457919850265],["vaya",-10.98647040786218],["collega",-10.986557719182493],["voz",-10.986562902690794],["Pol",-10.986597698100859],["anuncio",-10.98682265646351],["gui",-10.987142261912663],["publicado",-10.987694970414395],["eros",-10.987706253580349],["ward",-10.988760961230925],["contribu",-10.989318557224927],["obliga",-10.989360663120207],["nood",-10.989855599358599],["permett",-10.990020604253985],["woon",-10.99086740191387],["énergétique",-10.991045973537227],["kwaliteit",-10.991045997559242],["negative",-10.99104628729551],["dochter",-10.9910476901931],["comercio",-10.991054722169814],["Christmas",-10.99105487906711],["Management",-10.991058197176987],["propiedad",-10.991077953327476],["persoonlijk",-10.991088998950445],["promise",-10.991144047539912],["privado",-10.991211513226132],["winner",-10.99121660803728],["betref",-10.991505625906214],["vele",-10.991851657009729],["93",-10.991985012897146],["épreuve",-10.992633959558656],["Nee",-10.99287271961921],["consumer",-10.992915605720238],["succes",-10.993113270736838],["acusado",-10.994135269886357],["twintig",-10.995150202855239],["iniciar",-10.995513778817491],["•",-10.99607109916439],["croissance",-10.99607280275808],["consommation",-10.996087222271104],["approve",-10.996097033854223],["docente",-10.99614011082251],["tennis",-10.996343594420015],["generation",-10.996437946578347],["ducation",-10.996516944290745],["domicilio",-10.996642761018519],["leren",-10.996736195426694],["revenir",-10.996932846695284],["sancione",-10.996943678406165],["transmis",-10.997137173789538],["productor",-10.997276869187456],["couleur",-10.997480296813123],["tonne",-10.997544433281808],["tienda",-10.997910434154601],["kin",-10.998014453812084],["2025",-10.998290561328385],["texto",-10.998555174259138],["pit",-10.99865362785684],["street",-10.998705145528838],["hop",-10.998780287497386],["victor",-10.999010306751256],["dak",-10.99905547230562],["lejo",-10.99919019637083],["é",-10.999296422084756],["sprake",-10.99944801193937],["recuperar",-10.999503950595194],["Mali",-10.999558564561351],["derecha",-10.99974019436149],["potencia",-10.999912980104703],["Misschie",-11.000021700306654],["Esa",-11.000130155463577],["noemen",-11.000221612650888],["aumentar",-11.000313635912171],["Ru",-11.000361834014347],["approche",-11.000590460721321],["futbolista",-11.00094927344873],["quatrième",-11.001121608005622],["issent",-11.001361656425612],["herida",-11.00154449319086],["quitter",-11.00160394551309],["presentado",-11.00160657094736],["actualidad",-11.002040735064675],["erhaps",-11.002084088557982],["retire",-11.002152770837196],["pantalla",-11.002606579124125],["entend",-11.002739117914171],["fout",-11.002816656418107],["enter",-11.00301655400082],["marketing",-11.003143010639059],["foreign",-11.003317173075498],["console",-11.003913684988964],["industrial",-11.003995480098213],["pair",-11.00408918636683],["parking",-11.004376841190048],["trás",-11.004430877256004],["digitale",-11.004793959083411],["display",-11.004920487016717],["Fund",-11.005047157791877],["bras",-11.005301333588466],["favorable",-11.005430289642344],["pr",-11.00569747194455],["Ber",-11.005919195419112],["Sobre",-11.005969185999483],["Fire",-11.006017400996654],["velocidad",-11.006197813789178],["museum",-11.006197886831412],["poursuit",-11.006267060691144],["agencia",-11.006385366306771],["vitesse",-11.006409826139985],["vital",-11.006431104848918],["contrario",-11.006499916363065],["Jack",-11.006675855461417],["keren",-11.006976633133265],["univers",-11.007256892212384],["bilan",-11.007510323309813],["stations",-11.007525777116793],["Algérie",-11.007802078768],["named",-11.007852760590929],["contraire",-11.008365773519735],["shut",-11.008721557404154],["proper",-11.009087663619393],["Tijden",-11.00949779452315],["lien",-11.00976288697611],["remove",-11.010169399883186],["estilo",-11.011216844297744],["terreno",-11.0112721715029],["difference",-11.011305355785659],["College",-11.011306451068403],["Cristin",-11.011331042596034],["delivery",-11.011596991316328],["pronto",-11.011669133191122],["Series",-11.01178874952585],["condamné",-11.011845188574995],["conclusion",-11.011908940909755],["900",-11.01258445897116],["penal",-11.013048467857804],["kzij",-11.014512521218961],["cible",-11.014531697477496],["requiere",-11.015059143911916],["employment",-11.015381405172981],["tafel",-11.015436806591758],["Nov",-11.016031681155983],["célèbre",-11.016427992294547],["05",-11.0164875072267],["Staten",-11.016689855235988],["Ley",-11.016878405183242],["explosion",-11.017226116412054],["Far",-11.017375597851643],["rural",-11.017523761607004],["siglo",-11.01770728602764],["woorden",-11.01793180776028],["larga",-11.018307473953175],["spraak",-11.018387460846892],["ête",-11.018412323211729],["tip",-11.018505465997334],["spelers",-11.018596004020486],["Ag",-11.018673968734792],["Ferrar",-11.018828483583714],["fondo",-11.018933075985968],["explain",-11.020022146507658],["pone",-11.020200943038265],["fresh",-11.020324687355533],["financière",-11.020421714181364],["liée",-11.020660883639398],["kept",-11.021299320699654],["chu",-11.021394597319027],["quasi",-11.021805024478413],["solu",-11.021968798545487],["BTC",-11.022322439374433],["droga",-11.022589266538485],["época",-11.023022823599785],["Var",-11.0231640715288],["producten",-11.023259619878573],["puisqu",-11.023316366022506],["empezar",-11.023355003796855],["pol",-11.023494705867515],["classe",-11.023499485027227],["durée",-11.023894086663969],["payer",-11.024070571622847],["Cap",-11.024115679484908],["gingen",-11.024429113989694],["maxima",-11.02444407512566],["flow",-11.024507508444767],["Parti",-11.025157947678029],["cio",-11.025540549630284],["moto",-11.025685183790507],["Brussel",-11.025804520758896],["Char",-11.02591542481142],["mani",-11.026076708120069],["draaien",-11.026190922940254],["barre",-11.026204040560543],["Boris",-11.02621233402568],["Pública",-11.02676397862669],["histórico",-11.026764024631262],["infraestructura",-11.026764142692656],["domicile",-11.026764444524332],["rápido",-11.026770145510577],["Alexander",-11.026830576626061],["purpose",-11.02684625774517],["2007",-11.027232585959537],["Educación",-11.027732653436049],["accept",-11.027795226559151],["ás",-11.028829704610914],["var",-11.029011616217193],["zorgt",-11.029132635546805],["bestaan",-11.029238485619011],["ambas",-11.029538189293508],["Nederlanders",-11.029612303802672],["Any",-11.029921136493277],["eken",-11.029943840031855],["pide",-11.030114760584182],["visitante",-11.030554462616898],["melding",-11.030559902807578],["impose",-11.030573153069158],["lokale",-11.030994482977775],["trend",-11.03106883189625],["stream",-11.031134869763974],["micron",-11.0311526870811],["pregunta",-11.031302205054365],["Times",-11.031669442810685],["mez",-11.03176137182254],["tendance",-11.031884397664806],["subray",-11.031895869515186],["passion",-11.031913874949916],["perspective",-11.031972312041233],["stratégie",-11.031972327737222],["passenger",-11.032027807472645],["dialogue",-11.032032520148505],["conduct",-11.032317180968978],["impossible",-11.032561607299925],["guide",-11.032759964855156],["franchise",-11.032936405388817],["Regional",-11.033300705682588],["dieren",-11.033344239595325],["taxe",-11.033725220541859],["2030",-11.033865162988498],["advance",-11.034072253468366],["kijkt",-11.034221673562948],["artikel",-11.034430036030159],["rain",-11.034937914401532],["bou",-11.035686381634385],["wave",-11.036021400829755],["Nou",-11.03647751666942],["clean",-11.036630895196517],["col",-11.036949589663518],["moitié",-11.037208247642193],["Global",-11.037209253058082],["Philippe",-11.037221915921474],["geschiedenis",-11.037224554893248],["troupe",-11.037313066469569],["Partido",-11.037396376373234],["verlies",-11.037574811722143],["sorti",-11.03763008288886],["namen",-11.038134264336541],["salario",-11.038135333692894],["Other",-11.038297662510079],["solicitud",-11.03830095498505],["concluy",-11.038469225204295],["ideas",-11.03905827881448],["bid",-11.039802743481122],["mbo",-11.040098514766221],["darle",-11.040216714209762],["cabinet",-11.040467155731026],["Fin",-11.040800431004541],["siège",-11.040829937346682],["cultuur",-11.040917864344514],["crew",-11.0410972342075],["dicen",-11.041122277626513],["gift",-11.041360064387908],["continent",-11.04174109935314],["Sinds",-11.042111964456522],["rally",-11.042333814525948],["NAVO",-11.042476527627823],["esprit",-11.042561510276844],["recuerda",-11.042778099272304],["governor",-11.043071958910712],["laisse",-11.0430920346877],["Wall",-11.043385268157838],["dicha",-11.043515593350554],["amour",-11.044157680261325],["dragen",-11.044504311663669],["insiste",-11.044519781061922],["présenter",-11.044687799164464],["usage",-11.044794478747201],["koop",-11.045779473793058],["born",-11.046063495406205],["bois",-11.046339120632032],["feet",-11.046472931432199],["rates",-11.046836726632069],["introduce",-11.047157428595124],["voertuig",-11.04776510731552],["collective",-11.047795943546515],["Vincent",-11.047841275106494],["Ab",-11.047946935601573],["segment",-11.047954098664583],["dejado",-11.048114665640771],["ressource",-11.048182188765303],["couldn",-11.04820021744706],["mine",-11.048201882034087],["ús",-11.04865801030256],["derrota",-11.048713120693385],["kaart",-11.04872068795211],["veulen",-11.049060706978718],["SP",-11.04906158480235],["Long",-11.049077573692946],["Wa",-11.049296604984264],["podem",-11.049408501118343],["bouwen",-11.049598439613945],["Cal",-11.049608409950558],["leiding",-11.049893575067948],["Hi",-11.050064865971216],["lisi",-11.050296054526122],["asunto",-11.05057250453061],["MC",-11.050658960137156],["Dios",-11.050685233787384],["surance",-11.050763506902488],["expertos",-11.050872291394658],["évolution",-11.050933820934093],["november",-11.050971604070241],["yester",-11.051511932998167],["facility",-11.051563888877542],["stade",-11.051907530986679],["ería",-11.052269145675432],["socio",-11.052385341828433],["ofrecer",-11.05259482061686],["spoke",-11.052678772012555],["mejora",-11.052855032353133],["faible",-11.052959040693334],["búsqueda",-11.053088138568128],["geschr",-11.053111270116549],["previa",-11.05320526190037],["horario",-11.053252533305267],["tank",-11.053484372375852],["terroriste",-11.053777984774934],["blanc",-11.053786269046121],["ië",-11.053988222863449],["intent",-11.05405219817803],["gevraagd",-11.054438811051702],["protesta",-11.054692316075858],["señalar",-11.05471676427332],["bloque",-11.054875628206837],["esposa",-11.054949306500102],["cay",-11.055158969271684],["Pre",-11.05522191135884],["abrir",-11.05551362293499],["utiliza",-11.055521230648228],["ww",-11.056367111831388],["claime",-11.056512527707222],["Mil",-11.05672746178676],["fiscale",-11.057074732444354],["seguirá",-11.057131966605617],["fell",-11.057171419466494],["sister",-11.057204809778003],["Asocia",-11.057241535479095],["Mag",-11.057444273298849],["contenu",-11.057713428126192],["directo",-11.057928662203004],["prepara",-11.05798720833095],["veiligheid",-11.058113432338686],["Boy",-11.058135718685207],["Sénégal",-11.058334935400556],["Assemblée",-11.058430645946771],["finding",-11.058653872031604],["afectada",-11.058747557958796],["crash",-11.058973699896907],["constant",-11.059064475984869],["Ford",-11.059237272402516],["maker",-11.059316892760641],["servir",-11.059351517616204],["loan",-11.05940799644436],["cell",-11.0594804572407],["appelle",-11.059733209435924],["quiero",-11.059955951303738],["Hamil",-11.060419262282217],["hauteur",-11.060493136819975],["consecuencia",-11.060646890099983],["Island",-11.060897354449104],["compañeros",-11.061425296207558],["mando",-11.06148827550286],["rot",-11.061612165498179],["canal",-11.062038612437679],["aime",-11.062053691716859],["Bru",-11.062178180561475],["ties",-11.062506134124412],["atender",-11.063098289996784],["welcome",-11.063446848564151],["tough",-11.063493688787101],["travailleur",-11.063548065002605],["toernooi",-11.063805200696594],["límite",-11.063805998731473],["síntoma",-11.063811780356161],["obvious",-11.06383066952153],["voorlopig",-11.063844415212992],["Board",-11.063994218373109],["amp",-11.064057414635698],["Marvel",-11.064365476230375],["Marcel",-11.064515201042662],["gehaald",-11.064553917370844],["schap",-11.064558253278236],["Olivier",-11.064771839735336],["gathering",-11.064880672083014],["Verder",-11.065292835859761],["resolu",-11.065447067475048],["relation",-11.065750084131865],["lastig",-11.066093665907207],["aard",-11.0662002994818],["enregistré",-11.066269755200064],["straf",-11.06665177172806],["Sub",-11.067075149793817],["Tar",-11.067725919608502],["roepen",-11.06790613571677],["GB",-11.068014111244597],["tuin",-11.068228652547017],["habitantes",-11.068472302401803],["ervoor",-11.068615905122401],["CO",-11.068711705115032],["impression",-11.06917850635514],["matériel",-11.069206609772786],["holiday",-11.06921211006718],["instruction",-11.069234257074857],["Parlement",-11.069250669624981],["inició",-11.069260251744431],["devra",-11.06930069496345],["Noël",-11.0693109112006],["détail",-11.069320590186148],["podcast",-11.069370699060585],["comentario",-11.069409298931976],["conseiller",-11.069853160130123],["acceder",-11.069887260079579],["poi",-11.069917525171],["majorit",-11.070033440418158],["reporte",-11.070037638657691],["Wil",-11.070351850388285],["advies",-11.0705019171844],["CD",-11.070792094034637],["dijer",-11.071112206014593],["hôtel",-11.071641757282123],["write",-11.071903637417183],["champ",-11.072247522398236],["tengan",-11.072260646516366],["alert",-11.072372926104215],["vacunación",-11.072508541753296],["Top",-11.072878801857158],["Cre",-11.07337363727623],["treat",-11.073412140148989],["peace",-11.074537721566642],["madrugada",-11.074645356814912],["sales",-11.074675274349925],["nomination",-11.074696493411567],["trasladado",-11.0747482418208],["morgen",-11.07476318515113],["Direc",-11.075084524354915],["burg",-11.075245198826254],["portavo",-11.0754449723442],["bang",-11.075721639695956],["fra",-11.07574746014539],["attendu",-11.07608540949493],["financement",-11.07613021133852],["clubs",-11.076385574780623],["catch",-11.076476113280798],["identifie",-11.07700192369487],["posterior",-11.07721696489675],["Water",-11.077560909277471],["vivo",-11.077711405087378],["haute",-11.07771893905283],["permanent",-11.077850964993093],["áreas",-11.078102457867491],["placé",-11.078222839215012],["tomó",-11.078568703520304],["vrienden",-11.07865231486015],["Dar",-11.07867136319418],["Trois",-11.078823955929607],["reopen",-11.079117108646361],["beneficios",-11.079266284574818],["nacionales",-11.079282288009914],["Président",-11.079467008436598],["aquella",-11.079495933271268],["bloed",-11.079623321352479],["imagine",-11.079723183663024],["scientifique",-11.080109832735232],["catégorie",-11.080109832842783],["lichaam",-11.080109855838518],["dénonce",-11.080116931346137],["tentative",-11.080118693974558],["privada",-11.080133624058346],["évidem",-11.080141188421031],["classique",-11.080154688768406],["competition",-11.080172719524704],["financië",-11.080207887978364],["opvang",-11.080336445577885],["miedo",-11.080361522208968],["retraite",-11.080557427561066],["nouvel",-11.081454001410869],["zoon",-11.081576412396641],["cook",-11.081638863926656],["kick",-11.081732771672936],["geraakt",-11.081791513241473],["participante",-11.081852138978853],["nie",-11.082014741540574],["reconocimiento",-11.082120841047255],["toll",-11.083112409951495],["ciclo",-11.083142806769722],["Gra",-11.083286045979866],["Ave",-11.083323164216294],["verwachting",-11.083526970576063],["defender",-11.083619489005649],["scherm",-11.08377583817483],["siente",-11.085330955379183],["turno",-11.085403235734024],["Why",-11.085549951968684],["ü",-11.085580368482718],["réduir",-11.085615582649908],["Grupo",-11.085620382957387],["establecimiento",-11.085633476295985],["téléphone",-11.085636408135176],["kozen",-11.086060499052431],["joint",-11.086124774735843],["geldt",-11.08638138820591],["master",-11.08661753467497],["bro",-11.086624355677934],["verandering",-11.086872974590902],["respeto",-11.087049163685654],["Ger",-11.08724952360484],["sluiten",-11.087358585823083],["NBA",-11.087407809437021],["sche",-11.087866441413551],["AI",-11.088059774477788],["rug",-11.088153821554439],["engagé",-11.088834843430895],["informar",-11.089049229226191],["semi",-11.089073813155116],["suelo",-11.089199741326807],["Art",-11.089209961967896],["wapen",-11.0894197620405],["organisé",-11.08954579342831],["hurt",-11.089839170907775],["hearing",-11.08999655434162],["nier",-11.090012845688758],["amid",-11.09017487972306],["Bad",-11.090294085788383],["sky",-11.090493330013913],["tendría",-11.090542337125994],["liga",-11.091003222191691],["acerca",-11.091007201397804],["straight",-11.091129226961282],["minimum",-11.091130863369791],["speech",-11.09113129982401],["ario",-11.091213730490427],["plicación",-11.091257396754678],["terminé",-11.09138746538924],["Sept",-11.09141074535264],["ajouter",-11.09153899464761],["Like",-11.091764072416765],["upon",-11.091784505375045],["putting",-11.091870377167773],["schuld",-11.092548697956502],["Nicol",-11.092555318268033],["usine",-11.092903721051417],["centra",-11.093228348277933],["quiera",-11.093565427082716],["Free",-11.093701122735688],["trabaj",-11.094089419950272],["revient",-11.09413610731944],["Ray",-11.094249220786985],["pilote",-11.094365316261579],["subir",-11.094437654505683],["wonder",-11.094535919299403],["Reg",-11.094817805571342],["île",-11.09523413357876],["hip",-11.095245546233315],["sloot",-11.095394350247828],["migrant",-11.095476206834308],["diverso",-11.095742174332377],["caus",-11.095801512901804],["cerr",-11.09588554713162],["ID",-11.09597359352162],["daarvan",-11.096296472077094],["accessible",-11.096714746824226],["grève",-11.096774788628473],["prévenu",-11.0968718587401],["Press",-11.097164790100326],["extend",-11.097311208258947],["owner",-11.09745794771812],["rem",-11.097617001712232],["tegenover",-11.097687320338737],["adore",-11.09776643519674],["entender",-11.097782415259491],["bestuur",-11.097796163564405],["Jackson",-11.097916992245253],["réaction",-11.09801468995773],["degree",-11.09839996003808],["cero",-11.098717294985466],["ocupa",-11.098875709360387],["voisin",-11.099121222115667],["revel",-11.099254092718404],["Antwerpen",-11.099317501587958],["verkeer",-11.099430233133361],["norma",-11.099721989207435],["Solo",-11.10024064235936],["précédent",-11.100687292290091],["declare",-11.10079205759303],["isch",-11.100880164240968],["producer",-11.10122196207805],["climat",-11.101277220899494],["Hug",-11.101325164782864],["oins",-11.101521241496052],["militant",-11.101538653689346],["path",-11.101598284580696],["adulto",-11.102010244123655],["volunteer",-11.10227140702266],["procédure",-11.102272659903058],["WhatsApp",-11.102274918506726],["izado",-11.102295520603617],["delantero",-11.102324667361948],["cancel",-11.102569902224236],["fier",-11.103216921632981],["society",-11.103584522620254],["device",-11.103725232372364],["ñ",-11.103941466827358],["viral",-11.104024154365309],["zon",-11.104201574775352],["destaca",-11.10438808150976],["ément",-11.104389566871975],["esión",-11.104450064754367],["oui",-11.104756919753699],["burgers",-11.10486466313634],["volgend",-11.105024441002517],["ended",-11.105142225626064],["hair",-11.105301916225386],["kunst",-11.105436628758952],["audiencia",-11.105439982125832],["ndroid",-11.10549863296798],["Auto",-11.105953923200948],["actif",-11.106112526675656],["intentar",-11.106344555003687],["asegurar",-11.106572163602214],["adult",-11.106576486213388],["mention",-11.106827620223415],["1990",-11.10693176893454],["ateur",-11.10728850280833],["Quant",-11.107586645349912],["lumière",-11.107917716999001],["Hollywood",-11.10793539584094],["Guinée",-11.107981615742021],["Isabel",-11.108188737251375],["commencer",-11.108441436432923],["ions",-11.108574292788589],["Cada",-11.108674947048653],["jar",-11.108697536715376],["threaten",-11.10889722097838],["democracia",-11.108904118236055],["middle",-11.108912597622513],["aanval",-11.109200346734374],["souten",-11.109302112353133],["classement",-11.109439243100834],["especialista",-11.109571552833035],["amiento",-11.109913502457252],["passen",-11.10996906161399],["overigen",-11.110241516165344],["diversa",-11.110398620997607],["bringing",-11.110762892727244],["elling",-11.110815595851994],["plante",-11.11115819635604],["animale",-11.11154546557789],["officiel",-11.111947979323842],["connection",-11.11231055835719],["IA",-11.112791593245156],["cerrar",-11.113090843282347],["professeur",-11.113540748026606],["Business",-11.11354421183874],["Toronto",-11.113584612750646],["dream",-11.113634333441679],["alumno",-11.113634699338066],["esperanza",-11.113729216683714],["Governor",-11.113786892268244],["chambre",-11.113838996831424],["escolar",-11.113975217163933],["weather",-11.114043134675521],["poursuivr",-11.11484396014632],["speelde",-11.114863863892804],["weight",-11.115042609380643],["chiffre",-11.115123179832747],["beroep",-11.115162517340544],["operate",-11.11518379487763],["struggle",-11.115250170230603],["fondos",-11.11551020949604],["calls",-11.115514174548935],["waarde",-11.115577802320654],["Tra",-11.11563008868074],["Mensen",-11.115776226569842],["matche",-11.115861627539244],["costo",-11.115989144767635],["tourism",-11.116102575936868],["arrière",-11.116153677390354],["incredibl",-11.116554031782378],["Up",-11.116656614951179],["escuchar",-11.11668492604629],["leiden",-11.11695408000291],["Mexic",-11.116992283504228],["sprong",-11.117902749790007],["Tro",-11.118114073314281],["fri",-11.118368405524052],["Bart",-11.118700905300825],["laissé",-11.119000996274409],["pens",-11.119015870417819],["vaste",-11.119091825374102],["Committee",-11.119220861569232],["Internet",-11.119229291290747],["Bra",-11.11926173713934],["circulation",-11.119305693686563],["afternoon",-11.119386535247695],["contribution",-11.119639830756212],["Lewis",-11.120102150967362],["Hé",-11.120477183915208],["file",-11.120892584591068],["ouvrir",-11.121052654588418],["returne",-11.121143108711994],["sneller",-11.121398439987598],["onderzoeker",-11.121711740659347],["migrante",-11.121923176459985],["Castillo",-11.122564908539516],["lum",-11.12260439615936],["PM",-11.122615127233034],["desarrollar",-11.122866045318293],["distribu",-11.122928418088488],["especie",-11.12295595563598],["committee",-11.123218049925418],["sujeto",-11.1232296144833],["Ban",-11.123506257639184],["bier",-11.12366741126937],["telefoon",-11.124712255261947],["Desarrollo",-11.124935147867955],["exercice",-11.124935161275928],["dagelijks",-11.124989691212193],["destination",-11.125044123863145],["Cet",-11.125160095025777],["april",-11.125318843043246],["envie",-11.125335453396097],["manche",-11.125473826709971],["rendimiento",-11.125702375508908],["older",-11.125962804847559],["tend",-11.126019578479],["Guardia",-11.126337942017479],["activos",-11.126998917280847],["frappe",-11.127175604385966],["informado",-11.127254899952732],["justo",-11.127566598482355],["capture",-11.127601922425974],["Rac",-11.127619469832467],["Rome",-11.128385766967543],["exception",-11.129141990417732],["leeftijd",-11.129252647550812],["connaîtr",-11.129283817404012],["taal",-11.12931555934022],["grade",-11.129593027347394],["goles",-11.130403315764063],["immers",-11.130537923275616],["blanco",-11.130596099583235],["período",-11.130682297781323],["rap",-11.130711799837233],["publishe",-11.13104161493011],["vait",-11.131072371778968],["coalition",-11.131139085479722],["precisa",-11.13118187726728],["fruit",-11.131727457054396],["Monte",-11.131928109452268],["chang",-11.132662707119504],["makkelijk",-11.132816917794889],["existen",-11.133309936495817],["waarvan",-11.13434595754377],["agression",-11.134392726344906],["wise",-11.134481028247784],["lettre",-11.13466736165583],["piloto",-11.134853858869839],["ervaring",-11.135038663907412],["Sun",-11.135193509233925],["seguidor",-11.135599688226922],["profesor",-11.13623039858702],["reveal",-11.13626583415613],["Secretar",-11.136278025861664],["Occident",-11.136425122771534],["ucraniana",-11.136462630202276],["procedure",-11.13646275014135],["FIFA",-11.136463727634304],["europeo",-11.136464737645547],["Derecho",-11.136468982677396],["samenwerking",-11.136494661457151],["habitude",-11.136556592341254],["praten",-11.136589565035756],["previsto",-11.136788918562814],["organisme",-11.137285368356604],["relief",-11.13729258152287],["domestic",-11.137327948583417],["recorde",-11.137332594496634],["evening",-11.137354717877823],["aproximada",-11.138001596656459],["chain",-11.138466088751318],["expand",-11.138762420307268],["surge",-11.139091396290233],["gelukkig",-11.139231534315446],["ocurre",-11.140119318971525],["iteit",-11.140243118731071],["focuse",-11.14048563382645],["publication",-11.140732551863291],["pain",-11.140772571766131],["Affaire",-11.141302588683896],["aim",-11.141617866094805],["feest",-11.141633703864235],["Love",-11.14173244788962],["Está",-11.141840959591534],["contest",-11.14188186366292],["dispose",-11.141930192616652],["eléctrica",-11.142273816297042],["ámbito",-11.14227658553246],["extranjero",-11.142276592033408],["plaisir",-11.142277496243462],["adversaire",-11.142279670306888],["procureur",-11.142364672333716],["lawyer",-11.142381103602961],["duur",-11.142489534571286],["negro",-11.142566560248829],["Hong",-11.142772105197977],["farm",-11.142780423903611],["Control",-11.14287160448271],["experiment",-11.143025149715896],["committe",-11.143028262497745],["distancia",-11.143157089696373],["resume",-11.143396169127454],["Actual",-11.143573629280407],["permit",-11.143607589828829],["verkoop",-11.143886509761874],["wijzen",-11.14389572025918],["prévoi",-11.144183297361096],["CBS",-11.144283853501042],["IS",-11.144325342469616],["stil",-11.144860985282342],["outil",-11.145241183762238],["complexe",-11.145526705287676],["krege",-11.145831730673427],["traditional",-11.146026385699336],["corto",-11.146717505296847],["Bob",-11.147055549989785],["cou",-11.14714379833763],["Vol",-11.147188920466846],["alza",-11.147325836274888],["concierto",-11.147565162652835],["definite",-11.147916553671605],["tag",-11.148044660977783],["faveur",-11.14812584948977],["signature",-11.148137480420552],["Palacio",-11.148138134300822],["positif",-11.14815710861218],["Ham",-11.148283119884185],["vaccination",-11.148387789551153],["NN",-11.14870130779714],["arts",-11.148730056969566],["complètement",-11.148853598350058],["entière",-11.149198343961201],["accueillir",-11.149543247519617],["ambition",-11.149811956030812],["volle",-11.14989629492879],["fallecido",-11.150074236058577],["afirma",-11.150102068229252],["Bri",-11.150281497565347],["ault",-11.150441281652444],["apoyar",-11.15086935186461],["bos",-11.151417065728188],["citie",-11.151484464155528],["Plata",-11.152461281692428],["please",-11.1527686766124],["Laurent",-11.153213714516816],["triste",-11.153525430513163],["Pay",-11.153793167706837],["Jong",-11.153861420857918],["ependant",-11.153936990460299],["olympique",-11.154006884483083],["protéger",-11.154006922752636],["kwartaal",-11.154044953628262],["Creo",-11.154340301278928],["créé",-11.154347543445864],["choc",-11.154451834168842],["rights",-11.154609403916327],["tramo",-11.154720864008357],["Afghan",-11.154741157586418],["Valley",-11.154990986759302],["assurance",-11.155948848657243],["5G",-11.155974494838329],["destacar",-11.156908095325562],["invasi",-11.157025429080445],["trabajos",-11.157712671148573],["correct",-11.15776056066034],["vais",-11.158021691593053],["chico",-11.158123472931123],["passant",-11.158133389051113],["superar",-11.158156733967086],["montrer",-11.158238271791546],["RE",-11.158302940173613],["Brun",-11.158328162413468],["chant",-11.158503126671896],["apertura",-11.158538697485849],["lesquel",-11.158666623539487],["december",-11.159120955481495],["talento",-11.159128306355488],["onge",-11.159136084932763],["middel",-11.15931901292586],["Unie",-11.159393007593824],["consumidor",-11.159936954027543],["hubiera",-11.159940521688288],["Boston",-11.160034572952416],["recorrido",-11.160316714694364],["Hernández",-11.160338429026995],["disposition",-11.160350245156083],["Local",-11.160443048242648],["firmado",-11.160738428528404],["warne",-11.161136805698096],["Russe",-11.161172914167006],["01",-11.161262673941133],["Bro",-11.16172703822069],["presidenta",-11.161773851547839],["moord",-11.161974684461384],["SE",-11.161995080162201],["Australian",-11.162009600500443],["gate",-11.162019842304755],["actrice",-11.162122900551578],["gezin",-11.162578043478614],["intento",-11.163199821694022],["Jé",-11.163292237448932],["discus",-11.163355704350206],["crédito",-11.163616504814712],["alerta",-11.163821383023748],["poursuivi",-11.163953290287257],["enir",-11.16399212232929],["midden",-11.164372925552446],["row",-11.164478760252404],["hous",-11.16457698750022],["dam",-11.164835182794533],["réaliser",-11.164839702904041],["ilegal",-11.16489314373705],["homes",-11.164947913022031],["entendre",-11.165335881900116],["EL",-11.165474681577077],["abuse",-11.165556417630324],["demander",-11.165617634473996],["température",-11.16587690586375],["French",-11.165877048420207],["lanzamiento",-11.165909574945093],["corruption",-11.165978179041678],["honest",-11.166017225011508],["trap",-11.166262741814215],["pire",-11.16633733492211],["pieza",-11.166470936851159],["survive",-11.166531082492913],["Bovend",-11.16659201230455],["invloed",-11.166774731096035],["cierta",-11.167037225052109],["AS",-11.16705912543],["perdido",-11.167080788589542],["gra",-11.167143248452243],["08",-11.167566016021397],["directora",-11.167772888993795],["ideal",-11.167794931537905],["clasifica",-11.16794131687057],["sick",-11.16815453907321],["deportivo",-11.168586995013506],["plekke",-11.168975216781462],["vrije",-11.169445414088717],["helpe",-11.169564293183615],["ticket",-11.16984069156134],["Utrecht",-11.169942440040387],["provoc",-11.169943465968231],["jardin",-11.170199862996565],["Ryan",-11.170355901718175],["formal",-11.170457474119653],["querido",-11.170578063380898],["parquet",-11.170622023693195],["confirmar",-11.170731532773656],["pedir",-11.17087232476412],["extérieur",-11.171806600874069],["réfugié",-11.171864444341193],["característica",-11.171864444498066],["honneur",-11.171864580603897],["porcentaje",-11.17186479797175],["ciudadanía",-11.171867119449473],["Taylor",-11.17187983812953],["utilisation",-11.171912174692627],["accueil",-11.171916065291239],["magasin",-11.171945885568107],["bor",-11.17196222921715],["chargé",-11.172383649330225],["gewon",-11.17247207522418],["intelligence",-11.172640713499188],["consistent",-11.1726439338828],["Javier",-11.172782343533905],["amis",-11.172891612130929],["Wal",-11.172898294729213],["protocol",-11.17295047701355],["Delh",-11.173113031950134],["oli",-11.173355481128867],["Fort",-11.173524364359654],["razon",-11.173687259475585],["observe",-11.173826743984275],["institucion",-11.173862822625896],["debt",-11.174065729337963],["Both",-11.174091348707229],["offere",-11.174194683848828],["dur",-11.174205740368812],["decide",-11.174536086234536],["agricultur",-11.175035859493521],["exterior",-11.175241422570178],["Also",-11.175255536759597],["pack",-11.175305350106836],["implemente",-11.175834704965581],["pelea",-11.176353790557698],["Genè",-11.176527407835064],["estudios",-11.176626459346384],["Él",-11.177532545588491],["murder",-11.177547821642346],["*",-11.177859861409924],["responsibilit",-11.177888540865286],["Chelsea",-11.177889281953],["sanctie",-11.177890744427286],["Bernard",-11.177932630606104],["vacance",-11.17795536799708],["Unido",-11.178017383510342],["vivi",-11.178306083499452],["wish",-11.178332041314725],["solucione",-11.178555773961257],["fini",-11.178696355323037],["vriend",-11.17879305306214],["august",-11.178865902803555],["télé",-11.178917376415223],["listen",-11.178922468109107],["bande",-11.17897031795524],["ang",-11.179249881278675],["pendiente",-11.179298184136535],["dependencia",-11.179452317069536],["Albert",-11.179561707573463],["sier",-11.179934960412556],["Was",-11.179962433049248],["verleden",-11.18004243945376],["cycle",-11.180116373747392],["Nick",-11.180281556219818],["getroffen",-11.180477576338303],["kent",-11.180494714414166],["turismo",-11.180851685201674],["cru",-11.18085615848133],["130",-11.180976871701663],["compartir",-11.181022912374559],["Tweede",-11.181340187718147],["IB",-11.181483163476745],["elli",-11.181563225433576],["reflect",-11.181829230405768],["ún",-11.18218986941146],["Asia",-11.182381449455152],["chute",-11.18265267632293],["Sony",-11.182874452527383],["perro",-11.183059644425164],["Steven",-11.18308582874643],["locate",-11.183318978870872],["shift",-11.183837553115069],["dando",-11.183940878592407],["Público",-11.18394914679089],["doubt",-11.18395100152771],["pandemie",-11.183960614693572],["responsibl",-11.183982826064131],["transmission",-11.184067768339577],["valore",-11.184405467790064],["angst",-11.184569310518128],["fijn",-11.184632515082027],["relacionado",-11.184659779714458],["mener",-11.185559667907835],["kill",-11.185681987156784],["Nor",-11.185720045122135],["destacado",-11.185727288584584],["médicos",-11.18625130525745],["aï",-11.186264977257753],["viento",-11.186291099253204],["belangrijkst",-11.186339435779214],["urió",-11.186449788309492],["VA",-11.186632859033084],["Matt",-11.187173354778755],["interna",-11.187197509836727],["vino",-11.1872797386594],["Korea",-11.187883891745786],["proposé",-11.187903143615827],["journal",-11.188049644361358],["éni",-11.188396208361205],["référence",-11.189110263634086],["abandon",-11.189212485681155],["Steve",-11.189490099788445],["ciudade",-11.189711535509016],["travaille",-11.189810235820609],["wijze",-11.18983896326893],["exclu",-11.189945035609606],["rythme",-11.190104916553778],["rou",-11.190462164755422],["relève",-11.190517926678398],["interese",-11.190632827592324],["esperan",-11.190989688277703],["showing",-11.19099533900378],["segura",-11.191206082814572],["actri",-11.191335442536728],["overleden",-11.191336921709809],["señalado",-11.191536803126805],["comparti",-11.19190054337828],["tijdelijk",-11.19211987354819],["green",-11.192222020152963],["piso",-11.19223827870789],["mono",-11.19245586520234],["Rem",-11.192643750429763],["deporte",-11.192705995160622],["bewust",-11.193362772454691],["Officer",-11.19370803674386],["provider",-11.193787881406266],["larges",-11.193798706531625],["owie",-11.193909271481235],["element",-11.194277787219551],["ping",-11.194487675631029],["setting",-11.195031451609495],["régimen",-11.195622830451917],["Onze",-11.195659389011775],["raakte",-11.195739398878086],["jeugd",-11.1961994413575],["observa",-11.196231649129352],["06",-11.196318510379196],["attende",-11.196341963544596],["traitement",-11.196516122396979],["discuss",-11.196711892860437],["blessé",-11.1967468858984],["defeat",-11.196920486080252],["Tech",-11.197249813010647],["Space",-11.197281308209707],["verkopen",-11.1973020321775],["carta",-11.197357811718884],["vuelto",-11.197418027294916],["zak",-11.197476690405793],["erreur",-11.198079063427128],["carbon",-11.198099519433253],["north",-11.198360365915223],["02",-11.198503949053013],["aéroport",-11.199280050947031],["resolver",-11.199523466556734],["vertelle",-11.199932019107377],["maak",-11.200559826094247],["agres",-11.20056527629024],["policie",-11.201143087094042],["Maria",-11.201208182034808],["uses",-11.20152019778709],["vliegtuig",-11.201543649566307],["gardien",-11.20215821157782],["surveillance",-11.202354517364787],["presunto",-11.202368406743089],["procedimiento",-11.202370208889729],["blue",-11.202378425957033],["parlement",-11.202456672117657],["cool",-11.20267326599609],["blessés",-11.202691103064133],["eyes",-11.202773245874976],["menu",-11.20308592116715],["Rosa",-11.203111166766714],["immédiate",-11.203218430143266],["stijgen",-11.203812601665394],["polis",-11.203875555385707],["précédente",-11.204399130688635],["wouldn",-11.204417034213408],["strike",-11.206377055568169],["emps",-11.20655380545177],["FB",-11.206885292775095],["Gov",-11.207135044082863],["revis",-11.207259038351427],["priorit",-11.208230325918567],["fotografía",-11.208565738001184],["samenleving",-11.2085663349722],["joine",-11.208675791340143],["exploitation",-11.208681345466976],["thème",-11.208695032837019],["colectivo",-11.20870638481827],["durable",-11.209014409748825],["torno",-11.209053660641693],["intense",-11.209288729073787],["actief",-11.209460138505179],["suministro",-11.209473721869042],["vermogen",-11.209510076931684],["clé",-11.20975402399985],["yourself",-11.21006760248616],["Harris",-11.210199173435196],["slachtoffers",-11.210444800413839],["joue",-11.210570032014294],["ible",-11.21082938564804],["verlor",-11.211534416468991],["boot",-11.211665987781156],["calor",-11.211792911555861],["jan",-11.212221289447818],["flat",-11.21270371961647],["indicate",-11.213144766432837],["Rica",-11.213275109988201],["luxe",-11.213706261038864],["sensible",-11.213873300760191],["liefde",-11.214434360063471],["sang",-11.214497223311119],["beslissing",-11.214815748842815],["comienza",-11.214815757807871],["salarié",-11.214818352421393],["Nuevo",-11.214826156941921],["incluido",-11.214842445112197],["parlementaire",-11.21489209866877],["Coronavirus",-11.2148955617568],["separate",-11.215025008327494],["inmediata",-11.21503737697983],["kijk",-11.215063413830904],["household",-11.215078564805719],["associate",-11.21510834449538],["snelheid",-11.21538058322507],["Departamento",-11.215460088072192],["nice",-11.215521374599685],["escena",-11.215883073188895],["conversa",-11.215997897471741],["mené",-11.216530331610253],["beneficio",-11.216605781091364],["université",-11.216766714010905],["smart",-11.216815544407089],["llevado",-11.217117858653314],["protagonista",-11.21725581333377],["Fed",-11.217352469497676],["segui",-11.217420882053105],["chair",-11.217659333713776],["BC",-11.2179095611523],["DE",-11.217925794693267],["tenté",-11.218458530092791],["omzet",-11.21847764366159],["installer",-11.218635912102712],["frais",-11.218703697815062],["blee",-11.218897135373778],["protester",-11.218943311368232],["merken",-11.218952575217717],["steps",-11.21946136794222],["expression",-11.219697779664106],["telling",-11.219769872121384],["Mosc",-11.219893081100448],["actuar",-11.219974642477313],["divers",-11.220089469530278],["Porque",-11.220229968675527],["celebrar",-11.220521699169248],["Constitu",-11.22098621452427],["kamp",-11.221083889732455],["démocratie",-11.221105005109946],["homicidio",-11.221105005335668],["terrible",-11.221106311370256],["taxi",-11.22110655075323],["weapon",-11.221112300582558],["permettra",-11.221119689960453],["floor",-11.221179039636251],["déplacement",-11.221303201030555],["Company",-11.221378546815625],["fly",-11.221626682174904],["connect",-11.221760754389305],["Oct",-11.221809469114259],["computer",-11.221966079653487],["Mol",-11.222156569807993],["mir",-11.222537633078527],["Best",-11.222606608603844],["tenter",-11.223024868739527],["ène",-11.223259246203806],["Down",-11.22344816773725],["conocida",-11.22381653631369],["Ros",-11.223991108206086],["gold",-11.224344806983876],["killing",-11.224367822744984],["défaite",-11.224504210914631],["bajar",-11.224566552813865],["voelen",-11.224742388931016],["eeuw",-11.224831283467594],["decía",-11.225000998918222],["envoyé",-11.22533993472117],["chip",-11.22568896765715],["EC",-11.225754857833099],["merk",-11.22579840422651],["gira",-11.226009664234224],["potencial",-11.226125388475197],["exporta",-11.227283737309012],["secure",-11.2273436326063],["akkoord",-11.227432970343155],["espectáculo",-11.227434119061538],["carburant",-11.227435194736483],["alternativa",-11.227442299515232],["asil",-11.227457106232517],["suerte",-11.227458334352558],["chauffeur",-11.227474655967415],["vídeo",-11.227494355183183],["legislador",-11.227496127424347],["instancia",-11.22749831266661],["identidad",-11.22756829700283],["Finland",-11.22773586228272],["concurrent",-11.227850210909446],["remis",-11.22790472444362],["améliorer",-11.227920220506736],["anunciado",-11.228174424775757],["handel",-11.228275206163325],["fic",-11.228536713909024],["exposition",-11.228969406483994],["350",-11.229058950675913],["gor",-11.229161446199175],["heet",-11.229184338945897],["corrup",-11.22929708081917],["autor",-11.229524851416524],["Holland",-11.229669462481782],["estaría",-11.229763475217549],["apuesta",-11.23008959517351],["skin",-11.230423760175414],["incidente",-11.23059332463587],["habita",-11.230689223781502],["contagios",-11.231161857376568],["condi",-11.231249720633558],["suisse",-11.232340925091615],["Italia",-11.232385908474914],["AT",-11.232409166078103],["Ven",-11.232433072913528],["divis",-11.23245498830493],["relevant",-11.232473321206928],["TP",-11.232901752957023],["avenida",-11.232916397894476],["comienzo",-11.233803782335215],["convocatoria",-11.233804882402165],["respectiva",-11.233808090208932],["Canadian",-11.23380980753274],["pétrole",-11.233812734618514],["Alguno",-11.233819640172424],["Ecuador",-11.233837636728332],["Espagn",-11.233875467055414],["ritmo",-11.233902487576623],["geluid",-11.234014940634179],["begonnen",-11.23403971780144],["violation",-11.234075476615757],["Good",-11.234201939050486],["changé",-11.234282588189672],["snap",-11.234343478353168],["Virginia",-11.234478034127953],["ington",-11.234544524013176],["hogar",-11.23477289772448],["brandweer",-11.234812460993368],["aquel",-11.234863030762412],["dará",-11.234964235794077],["poging",-11.235192125311958],["apunt",-11.23534008312209],["aware",-11.23536442925155],["lancement",-11.235485375493404],["writing",-11.23555243869977],["independent",-11.235589371521195],["independiente",-11.236046563479928],["plastic",-11.236065290288703],["establecer",-11.236184156063814],["Mary",-11.236205417721775],["drivin",-11.236209260031902],["continua",-11.236397701509217],["LA",-11.236760991788131],["stick",-11.237070400909094],["aprovech",-11.237201049669471],["Jordan",-11.237375959421936],["permitirá",-11.237426753737328],["puesta",-11.237765724406415],["volgt",-11.23822340241757],["Anna",-11.238458799043455],["atrice",-11.238497676183052],["Université",-11.238580215199399],["GP",-11.23858919167592],["fui",-11.23864180569687],["III",-11.239398671403096],["souhait",-11.23947196456555],["constat",-11.239742810358349],["boost",-11.239815731606033],["CDC",-11.239859927603348],["thinking",-11.23991786561562],["múltiple",-11.240213801998745],["légère",-11.240216313802868],["rencontré",-11.240236751759074],["récord",-11.240259909235927],["gezicht",-11.240499546217439],["avanzar",-11.240527615960529],["generatie",-11.240754934729598],["isolation",-11.24087691314012],["broken",-11.240984705522983],["Camp",-11.241377464680802],["públicos",-11.24196009994395],["groeien",-11.2422652640022],["ong",-11.242499112444861],["statut",-11.242501543015731],["tegenwoordig",-11.242511468535783],["kov",-11.242607671293914],["Servicio",-11.242811447124291],["inicial",-11.242911922258862],["winnaar",-11.243045253368976],["?\"",-11.243246480681467],["Prix",-11.243540100026328],["krant",-11.24357435616546],["CO2",-11.243581802026757],["regreso",-11.243868393000088],["Nederlander",-11.244023751943354],["logrado",-11.244239125422517],["arrêter",-11.24439552057655],["circula",-11.24480792797691],["develope",-11.245217975757573],["kennis",-11.245231000413444],["née",-11.245393013398475],["bewoners",-11.245500480579015],["mens",-11.245590097042857],["anteriores",-11.245739609684698],["verdacht",-11.246129627287758],["tente",-11.246141218807372],["gehoude",
[...]
