{"version":"1.0","truncation":null,"padding":null,"added_tokens":[{"id":0,"special":true,"content":"<UNK>","single_word":false,"lstrip":false,"rstrip":false,"normalized":false},{"id":1,"special":true,"content":"<SEP>","single_word":false,"lstrip":false,"rstrip":false,"normalized":false},{"id":2,"special":true,"content":"<MASK>","single_word":false,"lstrip":false,"rstrip":false,"normalized":false},{"id":3,"special":true,"content":"<CLS>","single_word":false,"lstrip":false,"rstrip":false,"normalized":false}],"normalizer":null,"pre_tokenizer":{"type":"Whitespace"},"post_processor":null,"decoder":null,"model":{"type":"Unigram","unk_id":0,"vocab":[["<UNK>",0.0],["<SEP>",0.0],["<MASK>",0.0],["<CLS>",0.0],["s",-2.5215889970398457],["de",-3.2643651989254607],[",",-3.3557072272191757],[".",-3.51552485565969],["e",-3.62908966692423],["’",-3.6612653147434155],["la",-4.003745292235001],["l",-4.059959513269531],["a",-4.191087711039716],["d",-4.212381622730543],["le",-4.261058013458033],["à",-4.278511925932117],["et",-4.491216768666726],["'",-4.54395735728691],["t",-4.547892725120157],["les",-4.613296804486673],["en",-4.663681166302496],["n",-4.7181819166821715],["un",-4.800419752605121],["-",-4.818846813002873],["des",-4.871232661943532],["est",-4.876929112036956],["du",-4.902376624126031],["une",-5.058666451157142],["pour",-5.072447752384859],["que",-5.138528061465447],["ont",-5.211954176192673],["dans",-5.260127251745091],["qui",-5.3015968919987255],["au",-5.315265370852924],["r",-5.4183389686824555],["sur",-5.449878010215601],["ment",-5.46857021843698],["ce",-5.475061368375057],["par",-5.502083269609596],["«",-5.565823671592447],["il",-5.5901237309908005],["pas",-5.608261769049005],["Le",-5.773893997714504],["plus",-5.790129190239485],["i",-5.798739069569445],["c",-5.849511063855413],["son",-5.910653243547749],["on",-5.923968789919941],["qu",-5.926251525935314],["\"",-5.931692868189241],["u",-5.9416329027469885],["avec",-5.942801862506199],["nt",-5.943262412699003],["aux",-5.959786770738964],["C",-5.98317764112595],["été",-6.023019432467809],["La",-6.105178615540334],["(",-6.116321948609359],["L",-6.128371725342875],["x",-6.23417015951307],["ent",-6.254396856439165],["y",-6.3097294600693274],["o",-6.335425236372014],["Il",-6.377322695457838],["leur",-6.396371191050019],["A",-6.410733579131156],["Les",-6.4214828881174455],["mais",-6.4479548016635135],[":",-6.453918898704799],["cette",-6.493017279484768],["ou",-6.502881752796656],["fait",-6.509001619064092],["é",-6.527155704014527],["étai",-6.536296851733059],["tout",-6.56233096860978],["»,",-6.5639512938970785],["elle",-6.621191359616782],["»",-6.655349023559106],["être",-6.670614482354255],["puis",-6.684061827185825],["nous",-6.6884268732786385],["20",-6.721028135781129],["jour",-6.736990163362831],["deux",-6.744172025386863],["ans",-6.7627316042867935],["autre",-6.7988650567422315],["même",-6.80075996422182],["En",-6.8053781158866045],["avait",-6.816444071564623],["vou",-6.818751561250629],["comme",-6.830860345592637],[")",-6.843962133163652],["ant",-6.8647430751876986],["aussi",-6.865198328962331],["lui",-6.911576010885005],["eux",-6.942205991016362],["faire",-6.943824779302856],["après",-6.965015404527876],["lors",-6.998047589249211],["bien",-7.016132210244583],["année",-7.019922854015111],["avoir",-7.022491756348331],["m",-7.023086961992104],["j",-7.06109389725867],["M",-7.072055058211274],["fois",-7.084194475807103],["rès",-7.098127871669196],["entre",-7.110294317445701],["D",-7.189790094524042],["On",-7.200051823900318],["v",-7.201936735506931],["pays",-7.206933513943419],["je",-7.213382445964283],["contre",-7.213834400682897],["Pour",-7.2173444765044605],["peu",-7.227078713034238],["S",-7.23315198994324],["oit",-7.248963038246895],["%",-7.252013447152853],["personne",-7.264407413594376],["2",-7.279915805671749],["Un",-7.282439184459337],["coup",-7.285103463323117],["près",-7.290759735142637],["Ce",-7.29561191215825],["temp",-7.30263016054156],["avant",-7.306549712095037],["Mais",-7.311632242360859],["encor",-7.319671227155731],["peut",-7.320676414084659],["dernier",-7.3441555248275625],["1",-7.35474576613257],["Je",-7.359698149940254],["ces",-7.364172988529646],["ai",-7.365196231697319],["».",-7.37312386539045],["z",-7.374069312015159],["fin",-7.374467707081505],["p",-7.37458026915921],["premier",-7.376396293908273],["ù",-7.382049538125451],["De",-7.4117452990372],["toute",-7.412563016623813],["19",-7.414619324337972],["P",-7.4153290737839495],["Une",-7.41986464527556],["sera",-7.42363674981578],["Et",-7.425586256947701],["J",-7.4393531052687445],["monde",-7.442297805759265],["f",-7.444302184283653],["3",-7.4632403922291015],["ait",-7.463545728815144],["président",-7.4635980092107514],["moin",-7.475266800446167],["égale",-7.475754097553401],[").",-7.489429508974557],["première",-7.497226558147694],["me",-7.51826912752015],["2022",-7.525133739631283],["sans",-7.526053071454949],["place",-7.53997279429409],["\",",-7.551795046924478],["5",-7.554287299016344],["ministre",-7.564836585558035],["Dans",-7.5701068708521255],["mois",-7.571674948797578],["va",-7.571678730826736],["ation",-7.573824995611797],["4",-7.575262356170184],["ux",-7.580203009072666],["ette",-7.581677074122243],["tous",-7.582530513550107],["Nous",-7.583180326847105],["vie",-7.5903611166671565],["…",-7.59328094370198],["déjà",-7.598193444401855],["“",-7.598765376167719],["tou",-7.601422695645411],["nouveau",-7.602390955509473],["nouvelle",-7.620807483555291],["mi",-7.623756617775214],["quelque",-7.627018684772321],["elon",-7.63014816408169],["dit",-7.630286823408239],["trois",-7.6350732350114905],["Elle",-7.648805229997185],["donc",-7.656631107647113],["point",-7.663833546342442],["France",-7.665867843639561],["ez",-7.67367499597558],["plusieur",-7.676876508987771],["grand",-7.679040087557697],["semaine",-7.695106600172859],["tre",-7.697496801728842],["dernière",-7.699141101205229],["ainsi",-7.703074720991429],["ville",-7.703447121378679],["?",-7.707553520874072],["tant",-7.708038181070924],["sous",-7.711090877072041],["À",-7.7220339828486235],["ils",-7.722602546374273],["heure",-7.723973524223343],["),",-7.732313884739828],["cas",-7.7526778389092454],["homme",-7.752709613795748],["beau",-7.753261160674032],["projet",-7.759241062041745],["h",-7.764180326496566],["ça",-7.767351101726366],["équipe",-7.775864312486824],["000",-7.792539540519392],["politique",-7.801916901918838],["E",-7.804677250894672],["Si",-7.807719002665764],["voir",-7.810684947193522],["Au",-7.818239684847141],["6",-7.821414200533817],["pri",-7.831166018498041],["gouvernement",-7.832443674369495],["jusqu",-7.834779125479074],["Ukraine",-7.836341851919178],["partie",-7.848461745892868],["lieu",-7.864298858255851],["début",-7.86575701110549],["”",-7.878188187539573],["femme",-7.8819397492832195],["7",-7.883245046767299],["État",-7.883758500240504],["million",-7.890479670332456],["embre",-7.890703839300426],["faut",-7.898043389872407],["groupe",-7.9243432916643215],["venir",-7.930818947776444],["pendant",-7.9327053089807285],["service",-7.933057806256771],["Des",-7.944009532398201],["entreprise",-7.945066687242102],["notamment",-7.945370061832909],["T",-7.945803941343997],["B",-7.95680289471197],["10",-7.967574190879668],["match",-7.968935988000163],["part",-7.974726926352525],["2021",-7.976867327870339],["avai",-7.978587312707546],["nos",-7.9835602498104254],["moment",-7.984170984724953],["I",-7.991892705776599],["hui",-8.004331330835114],["face",-8.004669427282927],["certain",-8.00618936192571],["cours",-8.009252078374441],["vers",-8.010678233878135],["grande",-8.01102253037119],["O",-8.012532321287646],["nombre",-8.015239133578294],["non",-8.01839940631128],["avon",-8.01991016461159],["suite",-8.020766437835956],["jeu",-8.030494243942382],["droit",-8.034699927895602],["8",-8.03978120164211],["déclaré",-8.045015651525532],["compte",-8.051574532223906],["côté",-8.052080895888583],["travail",-8.052600459166252],["ès",-8.05775132068317],["effet",-8.058342499852765],["question",-8.066655059020297],["saison",-8.06748387737462],["ement",-8.06913920725977],["té",-8.076015841500183],["ôt",-8.096097813658387],["ons",-8.109647110500458],["famille",-8.113406773942756],["ci",-8.114998808192937],["reste",-8.116408323364947],["ailleur",-8.122068706930385],["région",-8.129369437103104],["euros",-8.133228285424256],["porte",-8.137051707689505],["jeudi",-8.141625371153868],["pouvoir",-8.14163587570715],["9",-8.150683837963161],["situation",-8.153159404735451],["in",-8.15325278875451],["hez",-8.15482400516542],["quan",-8.156825329786873],["mercredi",-8.15939581951459],["mal",-8.16021084912093],["joueur",-8.160601099549194],["sept",-8.161393412763093],["long",-8.162241551069705],["annoncé",-8.163831691922502],["dimanche",-8.165317191541646],["car",-8.166596410318054],["mardi",-8.169519820013825],["lundi",-8.170680408118663],["chose",-8.175263656088209],["niveau",-8.175433989714861],["vendredi",-8.177448031907668],["film",-8.182040153691066],["rapport",-8.186246294134403],["produit",-8.187438424468525],["N",-8.188504640343417],["vent",-8.191346662288137],["vrai",-8.191523630646035],["aurai",-8.192473385849437],["ité",-8.193640888719361],["mesure",-8.196406509596954],["russe",-8.20046380347854],["chef",-8.201951818496543],["public",-8.202170184485094],["Saint",-8.205409915354359],["Russi",-8.207630708784011],["série",-8.21056081340452],["–",-8.211124776360958],["Selo",-8.211640378070632],["vo",-8.220277047281485],["18",-8.224631930063307],["raison",-8.225290725866085],["30",-8.225341531924983],["R",-8.228462877478211],["/",-8.232618138513438],["dire",-8.233342838674227],["quatre",-8.236311300703306],["cela",-8.239778685499044],["samedi",-8.240554790243682],["alor",-8.241157252792068],["suis",-8.244030760854155],["celle",-8.249398037617711],["ici",-8.251163866756904],["guerre",-8.257154322783245],["devant",-8.259386355597005],["centre",-8.261133515159887],["Uni",-8.27344928562815],["pourrai",-8.273680932050839],["jeune",-8.276284060206681],["histoire",-8.277100836599878],["mettre",-8.277181718057253],["mon",-8.27724459648848],["bon",-8.27769538697073],["mort",-8.289429494003858],["devrai",-8.291056880480564],["finale",-8.296131491261457],["15",-8.297189702430508],["but",-8.299951129706347],["membre",-8.300594584922138],["veu",-8.300852646554386],["Québec",-8.303898296303602],["mis",-8.309919634668498],["prendre",-8.310635207617986],["deuxième",-8.311826333989249],["bonne",-8.312271166692007],["ma",-8.312349803779556],["otr",-8.315151407450784],["police",-8.318472080710512],["force",-8.320630976602967],["enfants",-8.32118298857748],["aient",-8.329847091570628],["ancien",-8.33223556295599],["afin",-8.334805489923124],["seule",-8.337030440990183],["F",-8.343767513903916],["mise",-8.345824469993307],["ir",-8.347678873518108],["G",-8.34952610555468],["petit",-8.35038302881787],["rien",-8.353630293042873],["site",-8.354408521095003],["demande",-8.361987728037107],["0",-8.365563238540007],["soir",-8.36709378932898],["aujourd",-8.372307608374733],["réseau",-8.380372094105297],["sécurité",-8.382927632618483],["somme",-8.390280952106611],["cet",-8.39695266722385],["pris",-8.402740475809999],["24",-8.40419999790424],["age",-8.409427249159204],["main",-8.410785708225305],["Etat",-8.4169347881205],["plan",-8.426667068468685],["17",-8.434322360362502],["tour",-8.435350822593708],["Par",-8.43553962004606],["janvier",-8.45320918038888],["affaire",-8.453461987628753],["possible",-8.454879577907644],["français",-8.456087074510116],["Ave",-8.458652606297697],["risque",-8.464189481650184],["quoi",-8.464228898132568],["nationale",-8.466737967075392],["seron",-8.467062172360386],["chaqu",-8.468684050238938],["pu",-8.47121315590142],["jama",-8.47361068396303],["titre",-8.473731301512863],["14",-8.475110538310702],["victime",-8.476259882917898],["anté",-8.479962868844012],["Jean",-8.480528789939708],["marché",-8.481636805299114],["décision",-8.483776869633726],["occasion",-8.49191516625384],["cinq",-8.493083737383259],["activité",-8.493447994218332],["gens",-8.493518236584155],["appel",-8.49414364773671],["besoin",-8.494685926711778],["tête",-8.497017183781999],["aura",-8.502788922666275],["jui",-8.5038691973707],["retour",-8.504434812747647],["parti",-8.505245336057293],["général",-8.507477313479551],["12",-8.508846690518403],["ligne",-8.509270912478048],["25",-8.510152299731477],["trop",-8.512310093815628],["serai",-8.513897267020003],["important",-8.514338075719238],["information",-8.514692635141753],["16",-8.517360303160164],["jeunes",-8.519187650476818],["explique",-8.525164399091661],["crise",-8.529252216068556],["société",-8.529719539422135],["agit",-8.530725706307685],["seul",-8.53328521949941],["semble",-8.537488532578763],["cadre",-8.537912390567975],["décembre",-8.537978724957787],["mars",-8.543538680026646],["nov",-8.544830385867048],["passé",-8.546088101908124],["permet",-8.54713996727066],["mai",-8.55435206298376],["bre",-8.560025784617025],["rue",-8.561225123298318],["milliard",-8.562768898817009],["indiqué",-8.562955312488334],["annonce",-8.56332525928492],["ensemble",-8.564076525434107],["no",-8.567470248090363],["autorité",-8.567886265211555],["secteur",-8.56897982572228],["journée",-8.573376258451276],["matin",-8.576742294197501],["rait",-8.577725048864034],["prochain",-8.580534699852137],["système",-8.584811205104323],["période",-8.584945796199198],["nom",-8.585463428109055],["Sur",-8.586637871479798],["rencontre",-8.588788801735259],["200",-8.590459090198127],["militaire",-8.593453963448766],["201",-8.594847813845576],["maison",-8.59856114430136],["g",-8.602144890843729],["Ils",-8.603458980942449],["simple",-8.604329165704357],[".»",-8.604391119120123],["enquête",-8.604614471959698],["population",-8.609233994817068],["fil",-8.61048780097191],["k",-8.61067694279517],["responsable",-8.610748999774298],["cause",-8.611298062203998],["problème",-8.612781494137707],["ur",-8.613030342843766],["image",-8.613162882187858],["13",-8.61665161004802],["offre",-8.618378007257437],["désor",-8.623250779265192],["uillet",-8.6244943447892],["école",-8.62867852961893],["!",-8.632120971715166],["accord",-8.633848272100288],["actuelle",-8.635394375791527],["élection",-8.636675966834545],["évrier",-8.638606794318484],["moi",-8.640881133924337],["minute",-8.643227565030053],["mment",-8.649017173227303],["Europe",-8.649319219989058],["presse",-8.652402035114141],["publique",-8.652452116621326],["octo",-8.652848842135661],["souven",-8.655858453659693],["11",-8.660338893439587],["zone",-8.665286977208552],["directeur",-8.6654504489318],["national",-8.668609580230166],["objectif",-8.669034020167011],["exemple",-8.675323845389403],["Ces",-8.676199185216529],["€",-8.6846672658626],["état",-8.684784813742532],["Cela",-8.689993363419827],["ing",-8.691084368101217],["armée",-8.691278273494296],["soutien",-8.69505119427146],["club",-8.697445491809955],["loi",-8.702094319729499],["meilleur",-8.702584429188963],["aide",-8.712023513201139],["certaine",-8.715116471980696],["\".",-8.716339752294992],["communiqué",-8.716868750313754],["V",-8.718137293524343],["hausse",-8.719090919322342],["terme",-8.719198361635623],["rapide",-8.719846189460558],["font",-8.721387141207737],["partir",-8.72463334399619],["événement",-8.724703454304242],["américain",-8.7252098813535],["passe",-8.729787674145896],["50",-8.73302523287063],["programme",-8.733176062596037],["Paris",-8.734938791651633],["passer",-8.737215182006942],["difficile",-8.737763045363625],["Covid",-8.740668287602919],["environ",-8.742624567678646],["fort",-8.742720977135843],["économique",-8.744682576508552],["Tout",-8.74526378468364],["b",-8.745959375609168],["tard",-8.746242779774704],["attaque",-8.748518737704673],["quelle",-8.750921838583137],["commune",-8.751654480016079],["troisième",-8.754848725947191],["vez",-8.757683883866621],["parole",-8.760228898401367],["K",-8.761359480524924],["prochaine",-8.76202811985514],["candidat",-8.765246424618761],["organisation",-8.766264478093529],["total",-8.767665107239075],["nuit",-8.769220733441344],["ter",-8.7695019676317],["présent",-8.769508667151717],["action",-8.769601181741258],["H",-8.772624783320948],["scène",-8.773095087878524],["développement",-8.77776977530944],["aucun",-8.778652611221705],["Son",-8.780099857473102],["victoire",-8.781578802079327],["aller",-8.78370886793066],["œuvre",-8.78389583725847],["feu",-8.785054959177266],["U",-8.789580246842334],["énergie",-8.790235761168777],["route",-8.790570723612756],["jeux",-8.794406918654104],["haut",-8.796224706041006],["grâ",-8.796316906734486],["ajouté",-8.79678518813953],["ministère",-8.798452156082632],["août",-8.803146816225933],["opération",-8.80470198707695],["production",-8.806773526522655],["député",-8.806946886990396],["conseil",-8.810023675735627],["autour",-8.813037448845941],["recherche",-8.813317826805665],["Comme",-8.813615924085266],["donné",-8.816553936449814],["manière",-8.81778825297666],["avantage",-8.820987690757278],["sujet",-8.821503301111619],["vue",-8.823225703013481],["fond",-8.82350172394587],["voiture",-8.82392653982135],["campagne",-8.826531351016225],["abord",-8.828080173429916],["rôle",-8.830522380539087],["prise",-8.834867572616957],["résultat",-8.839660446146453],["trouver",-8.840801271489923],["2023",-8.84089597572862],["condition",-8.842769687596471],["loin",-8.844339254971647],["base",-8.84441970369097],["petite",-8.846309298290716],["reçu",-8.846326223712719],["forme",-8.847019624694472],["attend",-8.849728395346926],["Afrique",-8.85306010275572],["jouer",-8.854566437043456],["donner",-8.85499963220339],["formation",-8.856111034679724],["elles",-8.856578232208662],["Macron",-8.85753838764565],["Conseil",-8.861210297998042],["Vou",-8.86355231515858],["terrain",-8.864254570034877],["pandémie",-8.864327505275014],["départ",-8.867339030230532],["six",-8.867969220156557],["idée",-8.869233592918889],["$",-8.869749133533194],["choi",-8.870564657866455],["parce",-8.870937756552559],["source",-8.872433543763536],["connu",-8.876132669826992],["arrivée",-8.8765591643414],["juste",-8.87693887001253],["permis",-8.878314685350533],["ayant",-8.88024196026696],["charge",-8.882607441491519],["dollars",-8.88422343601774],[".\"",-8.885687895256062],["édition",-8.891988574730409],["moyen",-8.898483326930801],["territoire",-8.898969863056251],["décidé",-8.903829860694483],["sein",-8.908230530848002],["succès",-8.910881044825228],["forte",-8.910894125302464],["direction",-8.912871756541913],["proche",-8.913167591561937],["22",-8.913682714416872],["plut",-8.913772976412465],["père",-8.91543245387792],["client",-8.918023261459233],["Canada",-8.925377339030753],["100",-8.929750767211328],["travers",-8.930564742069839],["dû",-8.93107447149272],["trouve",-8.932733292619908],["pense",-8.93407871797486],["sortie",-8.935312023005274],["intérêt",-8.937312084735982],["vidéo",-8.937586903151468],["40",-8.93846348642993],["21",-8.942005799721166],["indique",-8.948825851815204],["ukrainien",-8.949104355410395],["soci",-8.951135988190845],["W",-8.952124776227588],["urant",-8.958848652935904],["rend",-8.961890652113293],["façon",-8.963012820497354],["gaz",-8.964386123432412],["donnée",-8.966940777524982],["milieu",-8.971348891785116],["habitant",-8.972599038100274],["maintenan",-8.973512723813164],["fille",-8.973840649984778],["qualité",-8.975439594928698],["marque",-8.977825419811044],["hôpita",-8.979698232747804],["acteur",-8.980898908860837],["soi",-8.982555564043633],["coût",-8.983491352813033],["Suisse",-8.984628600815615],["européenne",-8.985211715137963],["gré",-8.98970936466678],["association",-8.989943559298979],["étude",-8.990236771861527],["or",-8.991431483595854],["date",-8.993965120626177],["doive",-8.995527721259673],["lancé",-9.004405410449827],["lorsqu",-9.005476744732864],["midi",-9.005811697222128],["peine",-9.006978682642226],["valeur",-9.00932934704505],["dossier",-9.010751422626846],["belle",-9.011182304148367],["co",-9.014308761488401],["nombreuse",-9.018696198215455],["cœur",-9.019192446145471],["plein",-9.020864678575997],["Belgi",-9.02118285599883],["espace",-9.02203384516293],["corp",-9.0267100690537],["rendre",-9.026821480181782],["savoir",-9.030908589988346],["27",-9.031433554047466],["donne",-9.033340321762353],["nécessaire",-9.034685870955384],["pied",-9.035985961038811],["propre",-9.037371891050352],["propos",-9.037825230994041],["contrôle",-9.037850434756113],["livre",-9.039043545606543],["média",-9.03966178450268],["lutte",-9.042843852797013],["combat",-9.045351778185163],["justice",-9.047943864548532],["aucune",-9.048577985819481],["voi",-9.05137792783567],["utant",-9.051773135755578],["23",-9.051918175149373],["précisé",-9.052522331657428],["carte",-9.054771513843237],["solution",-9.055829059713268],["Emmanuel",-9.056455507405257],["matière",-9.056461584349666],["Nord",-9.057056090395367],["mère",-9.058680679228717],["26",-9.05946950567435],["violence",-9.061991177298399],["chance",-9.061992623082258],["changement",-9.063373965557789],["Sa",-9.064594084779678],["ordre",-9.065814033805717],["argent",-9.068508252885273],["gauche",-9.070978993832448],["communauté",-9.073106131616635],["perdu",-9.075803733498438],["train",-9.07670009221287],["nord",-9.077312828988404],["expérience",-9.078805048273352],["Plus",-9.078888072367445],["permettr",-9.080124147448295],["ré",-9.081635570108437],["quartier",-9.08167215261313],["maire",-9.08387589183408],["particulière",-9.084373396945754],["économie",-9.08464642235872],["sanitaire",-9.084709858578265],["internationale",-9.086520811449493],["modèle",-9.087184862856194],["pratique",-9.088018889178684],["Du",-9.089522221035816],["estime",-9.089571583358794],["mer",-9.089922980476526],["prévu",-9.090898707208613],["course",-9.091384000160938],["ouvert",-9.092509627941133],["poste",-9.094313371962958],["générale",-9.097069017542175],[";",-9.098426371866605],["auteur",-9.099030464469276],["juge",-9.10234071108183],["parler",-9.107923257587029],["28",-9.109188347097334],["rix",-9.109578241185153],["journaliste",-9.110810345813325],["disponible",-9.115963023388186],["objet",-9.115965258264263],["République",-9.115968510507606],["avion",-9.116422941784943],["manque",-9.116616279926347],["propose",-9.117376089180688],["Quan",-9.125254383175772],["60",-9.125972764668099],["montre",-9.127703098699289],["présence",-9.127712250950834],["relation",-9.130595529332794],["Premier",-9.130677840988934],["salle",-9.131440923615674],["revenu",-9.133985524230837],["prend",-9.134901080646841],["mission",-9.136400103034738],["entrée",-9.136591461031966],["élu",-9.13690665467555],["terre",-9.138565054469264],["citoyen",-9.138959724581074],["technique",-9.138975458464444],["Coupe",-9.139100828988692],["comment",-9.139355101215322],["sûr",-9.141276763020318],["artiste",-9.144321403275015],["ront",-9.14461482841229],["port",-9.145771925948917],["rendu",-9.14685054007695],["différente",-9.150929947502233],["époque",-9.151723087098073],["Union",-9.152362433792518],["trav",-9.153042241210603],["doute",-9.153061060992155],["prêt",-9.154576809201865],["élève",-9.154616476739811],["importante",-9.155534242375047],["fonction",-9.156256001683637],["seconde",-9.157175369366163],["tir",-9.158208210441115],["air",-9.159236117144129],["appelé",-9.159373729940622],["retrouve",-9.159478489516005],["défense",-9.159554818070667],["insi",-9.160040595960352],["capacité",-9.160750810824432],["emploi",-9.160752426851566],["russes",-9.160799346363193],["européen",-9.163320627552311],["bout",-9.163896108147657],["dix",-9.165336007985223],["demandé",-9.167411451924643],["transport",-9.16751344228324],["carrière",-9.168880082747371],["ensuit",-9.169847457803986],["gros",-9.170343445490836],["voie",-9.171362363651749],["500",-9.175510953886022],["enfant",-9.175673455668521],["différents",-9.176787975239115],["garde",-9.177130176077007],["précise",-9.177911731662576],["Grand",-9.179285843079704],["art",-9.179303492634094],["Maroc",-9.179353591705322],["atteint",-9.17967736572069],["Or",-9.180206446560844],["réussi",-9.180963841312701],["armes",-9.181026774376248],["it",-9.184668814005228],["Pierre",-9.186226423574734],["reprise",-9.186955839080799],["arrive",-9.187870581463415],["Poutin",-9.18863651949993],["longue",-9.189887697685846],["visite",-9.189930392442001],["extrême",-9.191756818964201],["écrit",-9.191775015100827],["écran",-9.19192423780666],["mot",-9.195230582140839],["capitale",-9.196779922631059],["accè",-9.197583324639044],["accusé",-9.198205986229656],["gne",-9.19871399315311],["Ça",-9.202090100848512],["arrêt",-9.203576904299556],["policier",-9.20443981963557],["majorité",-9.204486382184701],["établissement",-9.2045379514575],["ve",-9.205016881178217],["mondiale",-9.207453032426088],["vente",-9.208187343325168],["message",-9.214813466463301],["meilleure",-9.21514690321392],["étant",-9.21585313289966],["vivre",-9.217259350118823],["peuple",-9.217509805760894],["plateforme",-9.21754662364828],["Mosco",-9.217840387240885],["unique",-9.218060696201146],["plu",-9.218155437753431],["créer",-9.219929018924],["Ville",-9.220304217991115],["mouvement",-9.222079953883636],["sociale",-9.22217582886039],["personnel",-9.223679213457165],["impact",-9.223844330142759],["américaine",-9.226189637696596],["presqu",-9.227130704249323],["isme",-9.227349715754524],["vol",-9.227951237515738],["aider",-9.229573764658408],["aine",-9.230544220856213],["française",-9.232927856730218],["origine",-9.233597957736006],["dirigeant",-9.233782884059782],["voit",-9.23432417434802],["Même",-9.236878426654748],["affirmé",-9.236911664825925],["parent",-9.238568994018497],["locale",-9.239932819058236],["compagnie",-9.240153304067917],["droite",-9.240838431902727],["véhicule",-9.242469932011137],["âge",-9.243470549088421],["rester",-9.246052835808573],["bureau",-9.247589263190836],["principale",-9.249004583421497],["expliqué",-9.249811858409654],["mètre",-9.249836096556333],["bas",-9.249836826851492],["réalité",-9.250133934798367],["nombreu",-9.254766296089983],["errière",-9.257766864875565],["version",-9.257875694987307],["arrêté",-9.260830650012588],["ël",-9.260956098042119],["accident",-9.262359175248582],["AFP",-9.26362257800756],["hors",-9.26489217450938],["répond",-9.266795992397558],["Montréal",-9.2668330297817],["construction",-9.267109791954235],["ajoute",-9.26916746477601],["officielle",-9.269168213625749],["réponse",-9.270356941666861],["dizaine",-9.273769943852717],["rez",-9.27398477376032],["prison",-9.276812259664496],["70",-9.27689214923888],["employé",-9.2772314248172],["grave",-9.278955916184593],["km",-9.279018918744514],["Car",-9.279027438577023],["80",-9.279143972285667],["égal",-9.280081531848921],["étape",-9.280703596626132],["continue",-9.282966768508107],["présente",-9.28333061493093],["Français",-9.283405067664436],["telle",-9.283883533652968],["facile",-9.28417400037566],["X",-9.285871961299666],["genre",-9.287592962755046],["Z",-9.287643526632309],["soirée",-9.287989086868517],["professionnel",-9.29098457959385],["publié",-9.29290458207365],["souligne",-9.293593432080986],["conflit",-9.294515433365728],["Est",-9.296251324714678],["liste",-9.296370099121122],["profit",-9.296962598508458],["affirme",-9.297440259175687],["29",-9.297607118723764],["augmentation",-9.298068900686456],["mes",-9.299723451581901],["international",-9.300234082849013],["retrouver",-9.30087544144574],["allait",-9.301462913276756],["Twit",-9.30241463051393],["rare",-9.304965445439525],["conférence",-9.3052887025134],["baisse",-9.305907166482577],["travailler",-9.30837417415529],["agent",-9.308786889867793],["Chine",-9.308865261940177],["voyage",-9.311453499558013],["achat",-9.312271048257166],["devenu",-9.314599416135916],["Lors",-9.315422087671717],["village",-9.315663079001396],["commencé",-9.315664672647543],["étudiant",-9.318806678767524],["véritable",-9.319232215639772],["critique",-9.320690690765876],["ouverture",-9.322761879613793],["gestion",-9.323191461854625],["camp",-9.323494792305512],["court",-9.323612227663236],["Sud",-9.323885393953926],["Isra",-9.324215111698583],["sanction",-9.32454041129484],["Centre",-9.326354812679176],["Bruxelles",-9.326413799396345],["incendie",-9.32674640160717],["position",-9.32793709935699],["avocat",-9.33002391108727],["réalisé",-9.330722153500815],["domaine",-9.33144521135439],["historique",-9.333151847816293],["avri",-9.33327575768792],["ukrainienne",-9.334358914558841],["représente",-9.334538660372516],["administration",-9.337283330935382],["viru",-9.340381653138417],["ère",-9.340754772707449],["éviter",-9.341427309375398],["centrale",-9.342175773781776],["réunion",-9.342339195772556],["venu",-9.34267283952439],["présenté",-9.344524882048674],["contrat",-9.34460367783446],["moyenne",-9.345374764505117],["création",-9.34540356216526],["souhaite",-9.345531283589827],["PS",-9.345640550749959],["social",-9.34999648875721],["New",-9.35628358423266],["vien",-9.359013191383996],["liberté",-9.359385467433103],["urgence",-9.359393929964419],["conséquence",-9.359421742284649],["province",-9.359430117299677],["PC",-9.359479439296909],["pré",-9.359983885504807],["avance",-9.360093733391494],["supplémentaire",-9.36311877444642],["inflation",-9.36313637484323],["frontière",-9.363143467766855],["décè",-9.363250417632834],["danger",-9.36352725867546],["tribuna",-9.365153458847168],["assure",-9.365645412043854],["représentant",-9.366943778759264],["tenu",-9.367144310702049],["vos",-9.368867495518595],["met",-9.369002491054196],["not",-9.374050831293335],["compris",-9.374260058352593],["particulier",-9.374393191154503],["vite",-9.375821975933206],["199",-9.376867865302138],["assuré",-9.381032751110148],["record",-9.38198536516909],["partenaire",-9.381987583032624],["rouge",-9.3822072083914],["type",-9.382465155118915],["1er",-9.387325767097195],["lien",-9.387587045606644],["François",-9.389632067306836],["sol",-9.389905638773861],["Pas",-9.390356230513703],["privé",-9.390380768513218],["No",-9.390601825454345],["trouvé",-9.392583526182541],["ch",-9.392868900464094],["élément",-9.393579924798544],["Deux",-9.395797270656258],["—",-9.39733871859049],["souligné",-9.397657640397803],["obteni",-9.397697179813992],["mode",-9.398748042910404],["assurer",-9.399319494894009],["huit",-9.400617086367129],["cinéma",-9.401205899783786],["investissement",-9.401275517108445],["maladie",-9.401507644923846],["texte",-9.403585171766636],["possibilité",-9.405093021197434],["chacun",-9.405157333669512],["millier",-9.405272462316974],["anti",-9.408648130551855],["application",-9.409126546398243],["banque",-9.409676137442238],["Malgr",-9.412175321218154],["pourra",-9.413547345512555],["andis",-9.414016364094755],["centaine",-9.414101057898028],["climatique",-9.416903606292085],["continuer",-9.420278214329594],["second",-9.420703465516883],["populaire",-9.420804061227445],["hiver",-9.420843235616164],["rappel",-9.423022629235518],["vote",-9.424494241002531],["étranger",-9.425721645361254],["inscrit",-9.427628780699592],["champion",-9.428449172721084],["passage",-9.429057302069216],["35",-9.429920608860272],["Cha",-9.431087311071646],["voulai",-9.43161207945002],["physique",-9.432656967404299],["31",-9.435473336847021],["cher",-9.436146687246968],["musique",-9.43679182026278],["compétition",-9.436803193498521],["opposition",-9.436826995342884],["initiative",-9.436925907900312],["humain",-9.438408095806965],["sens",-9.438517779581362],["expert",-9.440956815685974],["effort",-9.440980475853532],["Bien",-9.441419732095834],["clair",-9.441429508553167],["mandat",-9.443294036543483],["fédéral",-9.44358002602712],["Y",-9.443828844342605],["hier",-9.444397672037699],["bord",-9.446905140560155],["émission",-9.448490986571763],["épisode",-9.44894067576656],["faudra",-9.449189278231099],["bâtiment",-9.449359906156094],["week",-9.452859073947922],["scolaire",-9.453047470780126],["difficulté",-9.453070887131133],["ier",-9.45431791102937],["protection",-9.457194857732361],["double",-9.458182929213075],["sait",-9.45824644097543],["The",-9.459460949868738],["ion",-9.459902149394253],["élevé",-9.460776546376135],["Allema",-9.461009373729006],["numérique",-9.461400932423928],["joué",-9.462042449918988],["véhicules",-9.462638786914138],["choisi",-9.46385716524885],["quotidien",-9.464430473659782],["propriétaire",-9.465246524398301],["présidentielle",-9.465794767312222],["belge",-9.466416706190921],["pompiers",-9.470127023754216],["arrivé",-9.47232741747736],["chaîne",-9.475280696931215],["montant",-9.477379888905126],["asse",-9.477428973093586],["agence",-9.478272002880932],["vi",-9.47959802167602],["vril",-9.480189747722825],["demi",-9.480328173896627],["attendr",-9.480983258843894],["pouvai",-9.481100834974956],["Côte",-9.481378517242007],["signé",-9.48502635094303],["article",-9.486753128294506],["faisant",-9.487043058909629],["puisqu",-9.487505684125804],["90",-9.489837664148693],["rappelle",-9.493318649989853],["marqué",-9.494458791092104],["suivi",-9.49514852587821],["acte",-9.495754906342754],["mondial",-9.496087879630279],["ancienne",-9.496668128700612],["table",-9.497663390374584],["Ma",-9.497860613496778],["sort",-9.500686869724849],["man",-9.500921495379837],["preuve",-9.501810682230538],["sortir",-9.50213815532099],["via",-9.502171335959481],["technologie",-9.503300187631394],["laisse",-9.503579445102407],["Toute",-9.504911251743012],["culture",-9.50542432782666],["sommet",-9.506567370112304],["cité",-9.50657538412807],["of",-9.507220602620139],["note",-9.507312727349014],["quart",-9.507361854427238],["électrique",-9.507706537755114],["Ligue",-9.507869680154883],["endroit",-9.50805081025343],["John",-9.508415949842812],["suivr",-9.50843525275857],["sorte",-9.508483864783248],["spectacle",-9.51198340065027],["logement",-9.51224741471842],["45",-9.514604180294416],["ouverte",-9.515098148802332],["Cour",-9.515177134063883],["football",-9.5154804075853],["faisai",-9.515543690707124],["large",-9.515849314799446],["probable",-9.51649861412739],["fête",-9.517322325170605],["intervention",-9.518733614150806],["manifestation",-9.520724374248353],["nucléaire",-9.520831164644303],["vingt",-9.521133524586876],["atteindr",-9.523507807423297],["échange",-9.524506653983046],["judiciaire",-9.525082152533237],["Paul",-9.527084181733509],["plainte",-9.529339860820915],["franc",-9.52975947720287],["gagner",-9.530022970431709],["remporté",-9.530536787118484],["procè",-9.531910212641405],["interne",-9.532003603425888],["%)",-9.53335643136186],["retrouvé",-9.533895914663923],["conclu",-9.536557949906179],["noir",-9.53703591078937],["invasion",-9.53840847119658],["tué",-9.53894447376559],["enir",-9.538948848225498],["affiche",-9.539591379004552],["changer",-9.540131496486474],["document",-9.540558157794404],["existe",-9.540611434155515],["transition",-9.540807256728439],["communication",-9.542350572394387],["concerne",-9.543665495258434],["cour",-9.544292828742213],["régime",-9.544843994906405],["chemin",-9.547118877190123],["ujourd",-9.55037196488506],["découvrir",-9.551867294326971],["médecin",-9.553023264667308],["commun",-9.553769496904547],["Santé",-9.554203662053098],["porté",-9.555931762859498],["stade",-9.55687759583019],["libre",-9.556928128324266],["respect",-9.559103543322504],["département",-9.561484502261713],["+",-9.561498893871626],["déclaration",-9.561669966450326],["pleine",-9.561716848759879],["Ben",-9.563695780585036],["électrici",-9.565182933263074],["budget",-9.56544815529],["salaire",-9.565532334429555],["règle",-9.566298109846043],["pression",-9.568882714592476],["°",-9.569075571467167],["É",-9.570086592473986],["fut",-9.57087791167326],["confirmé",-9.570905229947076],["réforme",-9.57102937355815],["commence",-9.573999379551239],["réce",-9.57414574664051],["britannique",-9.574643599702501],["neuf",-9.574676328268408],["principal",-9.576188901912047],["espère",-9.576274912755473],["entretien",-9.576848969961246],["contact",-9.577190198566285],["touché",-9.577687050035607],["estimé",-9.578975877892795],["intérieur",-9.579228815070625],["commerce",-9.579713027091278],["Kie",-9.579878876051247],["perte",-9.580445639891106],["âgé",-9.580644318045895],["personnage",-9.580762625452937],["vague",-9.58113682060323],["”.",-9.582630060842128],["environnement",-9.583137735559603],["Tour",-9.5831667936706],["utiliser",-9.583293693698934],["espoir",-9.583938500486717],["langue",-9.584214483958501],["répondr",-9.586728066682761],["confian",-9.588064109265302],["quant",-9.588515096803771],["option",-9.590724304173381],["direct",-9.59083918333295],["photo",-9.592940138775235],["contexte",-9.593489941250056],["vert",-9.593661443101485],["lié",-9.593811262818472],["Ni",-9.594362392431444],["figure",-9.595951819257717],["kilomètre",-9.59803232595742],["alimentaire",-9.59804106315421],["responsabilité",-9.598041731346632],["Louis",-9.598273684104985],["piste",-9.598883713220197],["Michel",-9.599279726133673],["puissance",-9.599354949042908],["discour",-9.599508728933237],["situé",-9.60096156317756],["Van",-9.601724658963471],["Certain",-9.602265289709193],["rang",-9.60328593361648],["reconnu",-9.603503109587901],["process",-9.603531216183631],["%.",-9.604951113089193],["raconte",-9.605390612821651],["chiffres",-9.605876035130905],["négociation",-9.607273286500726],["phase",-9.608205494763908],["utilisé",-9.608945204377513],["civil",-9.610427222023112],["tournoi",-9.612309820595154],["aventure",-9.61253916889232],["outre",-9.61386909845728],["attente",-9.614288761551906],["avis",-9.615257325982508],["eurs",-9.615737749574997],["régulière",-9.616898752010295],["secrétaire",-9.617111443821091],["able",-9.618761272120489],["invité",-9.619399986883021],["balle",-9.619800294364635],["page",-9.619913734115443],["prévue",-9.620579858016084],["lusieur",-9.621758738671975],["nature",-9.622689226220604],["Marc",-9.624942389959244],["étrangère",-9.62680040458714],["géant",-9.62685308460995],["appareil",-9.628513167051203],["unité",-9.629595843860605],["soldat",-9.631733651148629],["volonté",-9.631823082129973],["cérémonie",-9.631839940492709],["crime",-9.632256035648524],["marche",-9.632670247671811],["Q",-9.633132249899095],["engagement",-9.634530458222438],["débat",-9.634861990929965],["génération",-9.636254008243387],["siècle",-9.636777171515185],["festival",-9.640943980445403],["augmenter",-9.64206194571615],["actuel",-9.64513518223428],["lance",-9.646215052973968],["championnat",-9.646448321817047],["entraîneur",-9.647343858355391],["comprendre",-9.649283036212406],["numéro",-9.650893084267611],["frère",-9.651378446915302],["approche",-9.65200062204214],["Mon",-9.652134579783262],["UE",-9.653003222709227],["poursuit",-9.653915324732019],["défi",-9.654607264039988],["compter",-9.655329576188624],["condamné",-9.655808455438592],["énergétique",-9.656419752871155],["financier",-9.656420638430355],["contraire",-9.656425480848203],["Go",-9.656673165402028],["rêve",-9.65670638857236],["Avant",-9.656816296619539],["pouv",-9.65784586424125],["vaccin",-9.658154432621306],["épreuve",-9.658256237607688],["joue",-9.658486328172733],["parc",-9.658637776346179],["courant",-9.659870553038063],["concerna",-9.661066653374998],["capable",-9.661315240556355],["croissance",-9.661446891640622],["consommation",-9.661466963590385],["appelle",-9.6618441156784],["couleur",-9.661969826133692],["peur",-9.662447459103095],["arme",-9.663246370087794],["remise",-9.666359632758068],["quatrième",-9.666495391790267],["commission",-9.666594979957258],["proposition",-9.66670015059146],["fera",-9.667129074899163],["Algérie",-9.66917846212377],["lancer",-9.669822668908903],["travaille",-9.669996199268073],["blessure",-9.671584501257595],["institution",-9.671622874849986],["patient",-9.671789400259062],["vitesse",-9.671910075077239],["instant",-9.672630096779418],["actions",-9.673674748073502],["offrir",-9.674801260632771],["porter",-9.675506065743985],["classe",-9.676891304281757],["limite",-9.67860603749826],["Martin",-9.680562397533187],["anim",-9.68137941653924],["célèbre",-9.681801773116323],["sport",-9.682811853123425],["financière",-9.683183659670956],["surprise",-9.683657937807109],["participer",-9.683806929716924],["profiter",-9.685906138481787],["bilan",-9.68710735923817],["comité",-9.687123697169138],["totale",-9.687281129272707],["veille",-9.687779125107635],["Face",-9.688636761129562],["durée",-9.692457575622694],["ois",-9.695362076512744],["industrie",-9.696988097713971],["stratégie",-9.697346140376112],["York",-9.697349777606664],["tendance",-9.697536966515395],["bande",-9.697762326141248],["patron",-9.6996106555298],["David",-9.700018207538236],["tension",-9.700042310319885],["envie",-9.70058499865339],["Tous",-9.70069511551685],["revien",-9.700878632432826],["importe",-9.70093432874038],["parcours",-9.701981656053945],["intention",-9.702485073015264],["moitié",-9.702583477126446],["station",-9.702738798696476],["souten",-9.702869309999826],["regard",-9.703391902484931],["nation",-9.704436003538543],["analyse",-9.70554562300285],["absence",-9.707845365888577],["domicile",-9.708071446510544],["enregistré",-9.712287232011791],["ressource",-9.713252269286924],["esprit",-9.713373145636968],["évolution",-9.713668355078166],["contenu",-9.714030181771562],["issue",-9.714053022731424],["Pen",-9.714221057398403],["menace",-9.715895371716066],["Vladimir",-9.718455045067572],["endant",-9.71923229306121],["aime",-9.719818491570205],["siège",-9.721888144806428],["Sans",-9.722339491789047],["Sénégal",-9.723677643953199],["Assemblée",-9.72380476677454],["von",-9.724979815753336],["hauteur",-9.72537949264892],["tient",-9.725707475285578],["directe",-9.72578337355242],["obtenu",-9.726285508541721],["ouest",-9.726527410976775],["travailleur",-9.726742002891026],["comprend",-9.727778442143622],["outil",-9.728927510003551],["ais",-9.729140073556364],["ferme",-9.732742541970538],["placé",-9.7337287676954],["devien",-9.73499340385668],["engagé",-9.736550201969537],["détail",-9.737480946101599],["conseiller",-9.739397240093552],["quasi",-9.740254101477564],["structure",-9.741568689963053],["forcé",-9.743351411422957],["Président",-9.743369136669767],["nouvel",-9.743967841273399],["organisé",-9.744937604467278],["tenue",-9.74527585210631],["financement",-9.745376415876102],["scientifique",-9.745501360396549],["classique",-9.745510069548668],["évidem",-9.745574449490958],["amour",-9.745781566790189],["participation",-9.745964026224867],["catégorie",-9.746070075251918],["dénonce",-9.746110093638016],["payer",-9.746281933052577],["2015",-9.746855105801302],["quitter",-9.747087698651747],["ête",-9.748101078660788],["réduir",-9.75115694233195],["précédent",-9.751188451996512],["Noël",-9.751271062022287],["téléphone",-9.751314619906676],["laisser",-9.75335167002739],["dispose",-9.753739452800524],["particip",-9.754155513595308],["touche",-9.75629975335357],["île",-9.756707536891941],["retraite",-9.757907757772337],["essus",-9.75826794912815],["troupe",-9.758269130744956],["officiel",-9.759323809288965],["réaction",-9.762457351581247],["prévenu",-9.762635896588463],["Trois",-9.763292972978665],["puisse",-9.766673149041203],["300",-9.767108291763192],["procédure",-9.767648929748923],["grève",-9.767682605851551],["claire",-9.76788267121906],["arrière",-9.768007163246356],["liée",-9.768065877097158],["ba",-9.769897669654343],["importan",-9.770562066907859],["lumière",-9.773305526308736],["attention",-9.776053955056712],["Marie",-9.77618497658738],["bois",-9.776197219497654],["discussion",-9.778912832893724],["terroriste",-9.779146991188643],["restaurant",-9.779341239761237],["laissé",-9.781806903092578],["chiffre",-9.78325436343919],["arriver",-9.783496350347527],["classement",-9.785310339386637],["matériel",-9.785582077938248],["super",-9.78571066446263],["terminé",-9.785835470515117],["Nation",-9.786974552530939],["star",-9.787112413186758],["Parti",-9.787203893714434],["vienne",-9.790079693175905],["exercice",-9.790308929310326],["Entre",-9.791183629410671],["hôtel",-9.791380411234085],["Quant",-9.79199946193165],["dose",-9.79205499968488],["sorti",-9.792333800001924],["Que",-9.793482439218874],["ser",-9.793541703506687],["attendu",-9.794388206852108],["chambre",-9.796230258373619],["agression",-9.796350810056186],["devra",-9.798237199519555],["entendu",-9.798744647434347],["lettre",-9.798908375433227],["suspect",-9.799689741228683],["principe",-9.801836399967101],["infrastructure",-9.801837446341167],["habitude",-9.801886943195084],["Affaire",-9.802074579437875],["fer",-9.803403455598232],["univers",-9.803907469820588],["civile",-9.804265017577977],["vot",-9.806414198735531],["amis",-9.807497561111],["adversaire",-9.807650512430783],["plaisir",-9.807651270802243],["Charles",-9.808601590464402],["prévoi",-9.811410239249666],["positif",-9.813492580329154],["Commission",-9.813522521750881],["voisin",-9.813528854767894],["créé",-9.81434242470666],["complètement",-9.81582903580868],["accueillir",-9.816496926776207],["entend",-9.816817267414285],["extérieur",-9.816969795136572],["frappe",-9.817388996881085],["St",-9.817406767211008],["pire",-9.81815882314558],["revanch",-9.819327934794252],["olympique",-9.81939991443343],["circuit",-9.819455227316785],["accusation",-9.819543840965608],["protéger",-9.819574829094986],["vais",-9.819867047207762],["haute",-9.820207020558883],["entendre",-9.82184789716144],["militant",-9.822707786416954],["Mm",-9.824409950927814],["connaîtr",-9.824918071576672],["tentative",-9.825299168786774],["installation",-9.825313378680939],["faveur",-9.825320904564567],["Pro",-9.826199903673533],["Beau",-9.826310294479853],["réaliser",-9.827475222222368],["Nic",-9.827967659401338],["ard",-9.828528493885786],["blessé",-9.828776589441192],["température",-9.83130092720503],["permett",-9.831605157996158],["poursuivi",-9.832251731544067],["75",-9.83646687506839],["proposé",-9.836509687243776],["réfugié",-9.837238223666724],["pa",-9.838657819234697],["parquet",-9.83942187889399],["présenter",-9.839678362560557],["parle",-9.841640606761153],["cherche",-9.842763761399627],["vacance",-9.843269228898908],["inter",-9.844054085174117],["blanc",-9.84623691388245],["lesquel",-9.847408147037113],["partage",-9.848886433789822],["magasin",-9.849265108875183],["vis",-9.849284401651646],["honneur",-9.849323634752416],["organisme",-9.849441990371403],["Philippe",-9.850123950084072],["futur",-9.850359489203797],["couple",-9.850936818011052],["ajouter",-9.85256913130862],["référence",-9.854545399574398],["rythme",-9.855425183386053],["disposition",-9.855437469825944],["utilisation",-9.855533372693689],["Russe",-9.857413717056817],["leader",-9.859315673385618],["individu",-9.86044322544545],["Fond",-9.861298250775091],["incident",-9.861575888526286],["actif",-9.862180829391967],["traitement",-9.862412634979194],["Luc",-9.86329416591241],["performance",-9.864137419244969],["vision",-9.864436113006688],["professeur",-9.864613265676908],["montrer",-9.866545999409874],["pilote",-9.866985593591687],["gardien",-9.867243184005318],["ault",-9.86736030202061],["faible",-9.86774329720816],["vise",-9.86982849454564],["99",-9.870009406767796],["final",-9.870786459669532],["Olivier",-9.873959056050873],["circulation",-9.874052898222018],["TV",-9.87462883700489],["thème",-9.874832307719135],["frais",-9.875930504476319],["poi",-9.876030495062079],["salarié",-9.880214284668298],["procureur",-9.880253020736859],["université",-9.880472354547425],["32",-9.880829278819675],["fans",-9.883096010807158],["blessés",-9.88375554074334],["Mali",-9.884661705204348],["Marine",-9.884664816627012],["démocratie",-9.886478784224932],["précédente",-9.886864375132944],["déplacement",-9.887140145944688],["reprendr",-9.888267737748844],["erreur",-9.888547297749144],["passant",-9.888692820672087],["concert",-9.89038159726167],["défaite",-9.89140275286984],["visible",-9.892468393434218],["améliorer",-9.893878517408165],["Genè",-9.894217946422014],["tier",-9.894370111215872],["remis",-9.894465053630007],["effectué",-9.894576177483822],["journal",-9.897353114395827],["Espagn",-9.899077649144825],["pétrole",-9.899223909212687],["exposition",-9.899350716178414],["cible",-9.89971095241209],["participant",-9.90037589820978],["accueil",-9.902548594321907],["lancement",-9.904222090367382],["obligation",-9.905590827807849],["aéroport",-9.905592768930767],["légère",-9.905602102501152],["Guinée",-9.905665836065726],["rencontré",-9.905743626710553],["lin",-9.907533671543263],["ouvrir",-9.90780072936135],["Parm",-9.908942899687673],["suisse",-9.910778741710844],["achete",-9.910992926034087],["198",-9.911508018818232],["maximum",-9.912039277315474],["Amazon",-9.912053291842417],["Université",-9.912203505675325],["chargé",-9.913850653070975],["Joe",-9.915148651716141],["poursuivr",-9.915204371194545],["commencer",-9.91536241672925],["demander",-9.917172551702802],["phénomène",-9.918541912031909],["réduction",-9.918685872411496],["augmenté",-9.918796301925159],["vice",-9.919101016865788],["mené",-9.919201547217138],["Aucun",-9.920730747384034],["relève",-9.92140236910299],["alerte",-9.92162596319972],["réalisateur",-9.925123518539033],["barre",-9.925242353146817],["Patric",-9.926938642940609],["arbre",-9.928546887178328],["manche",-9.928560299861385],["demeure",-9.930162122757427],["tenter",-9.930324835317496],["entière",-9.930477680530135],["studio",-9.931695658554055],["hommage",-9.931701432437528],["devai",-9.932628250724708],["400",-9.933549615750898],["voulu",-9.934341234345016],["chute",-9.93568246743435],["constitue",-9.935828540069986],["arrêter",-9.937773983283737],["spectateur",-9.938270455060447],["producteur",-9.938273069568268],["examen",-9.938277038250666],["ski",-9.938864443833706],["LR",-9.938892947527265],["majeur",-9.939848347481702],["Apple",-9.940125986096954],["vait",-9.940383362998817],["immédiate",-9.940446953529033],["recour",-9.9411997926809],["oir",-9.941682960663293],["offert",-9.942766805674772],["pluie",-9.942829006642496],["sportif",-9.944950539634767],["consommateur",-9.944951694901672],["Défen",-9.945017884827301],["absolu",-9.945420543165156],["argement",-9.946059946908269],["FA",-9.946370986164123],["africain",-9.946994615959175],["Bid",-9.948775649623784],["usine",-9.949221434473028],["continu",-9.950542752028365],["33",-9.951105067496949],["anglais",-9.951306396264766],["audience",-9.9516492196645],["abilité",-9.954867094927764],["Not",-9.955129976609891],["box",-9.955625067907967],["normale",-9.955763243035195],["sentiment",-9.956374157301369],["Canadien",-9.957986345617527],["agricole",-9.9584051555034],["attaquant",-9.958460121071266],["priorité",-9.958505264599694],["collectif",-9.958713834948778],["refusé",-9.95961107682658],["potentiel",-9.960539971306481],["eur",-9.96233881058242],["enseignant",-9.963399682027088],["quitté",-9.963471915131361],["Re",-9.964403483003164],["&",-9.965207666247629],["permettra",-9.96522304474946],["fini",-9.965514196746419],["durable",-9.965981029716298],["envers",-9.966459092665042],["développer",-9.96674078221095],["bras",-9.9667968923988],["ix",-9.968247410273143],["visage",-9.971269596632297],["smartphone",-9.972057076708804],["manifestant",-9.972119535381019],["vit",-9.972476684889731],["ashington",-9.972655276693224],["défenseur",-9.972818327028294],["tenté",-9.974229024291326],["dialogue",-9.974336386051085],["impression",-9.976368693650153],["ner",-9.976554711318684],["signe",-9.977525734246985],["Maison",-9.978647801294336],["COVID",-9.97895354313566],["collègue",-9.97895373738665],["vélo",-9.979632084522715],["comportement",-9.980386486783232],["allemand",-9.980724824184643],["roi",-9.980840292988347],["Bre",-9.98247776957093],["Qu",-9.984005357968293],["FC",-9.984589137559304],["men",-9.985212658710363],["ément",-9.985313965553832],["différence",-9.985585327751608],["isation",-9.98581016245829],["climat",-9.987211551633731],["médaille",-9.98741076374288],["allon",-9.988895602356717],["croir",-9.989333325142137],["spécialiste",-9.99297975827826],["surface",-9.99537375328821],["aire",-9.996118989755242],["Laurent",-9.996158968366998],["36",-9.997310840528787],["Ouest",-9.99778679287962],["mauvais",-9.99827218126348],["résidence",-9.999035350154607],["israélienne",-10.000361199254563],["Parlement",-10.000438167295073],["rappelé",-10.000708696179306],["2000",-10.00078208018469],["gagné",-10.00127807303242],["pose",-10.001577645439067],["éducati",-10.001994626733428],["oins",-10.002286746959385],["Ivoir",-10.002874344527683],["auron",-10.004713057914511],["candidature",-10.007108839484498],["interdit",-10.008324552254681],["mauvaise",-10.00871105034857],["conservateur",-10.008902087188975],["Al",-10.010301647222164],["efficace",-10.01034258073315],["prenne",-10.011367972392268],["constaté",-10.012538660177162],["chercher",-10.013602447245638],["identité",-10.014223464965392],["énorme",-10.01434701120154],["réserve",-10.014959294589854],["précis",-10.015559708208073],["Italie",-10.017401098403454],["changé",-10.019583479218415],["mainten",-10.020050616912815],["Royaume",-10.021365109206126],["venue",-10.021380039701622],["fais",-10.021509019793399],["collaboration",-10.02159585046364],["démarche",-10.022325177804394],["appris",-10.022453145152042],["menée",-10.024405307368134],["préparer",-10.026673611958842],["assurance",-10.028613923403759],["ciel",-10.028742581896859],["missile",-10.028783716536736],["pro",-10.029210334138833],["commis",-10.02946395260298],["ami",-10.03011920303399],["souvenir",-10.030421726982368],["connaissance",-10.030559792315435],["retard",-10.034212740404328],["lancée",-10.034508921572112],["proposer",-10.035214514901929],["carburant",-10.035877265841197],["dispositif",-10.035915515621719],["vécu",-10.035929052907743],["parlementaire",-10.035941922705186],["rejoindr",-10.035966857033678],["visiteur",-10.037131648562927],["garder",-10.037145276452108],["Nicola",-10.037667180592653],["confirme",-10.038085107237325],["envoyé",-10.039205474834848],["renforcer",-10.039790926517739],["RT",-10.04012619870413],["commande",-10.041008875822335],["Quelque",-10.041348808812984],["Robert",-10.041431896105017],["change",-10.042330135598352],["Peu",-10.042664341503967],["héro",-10.043171499657287],["Lorsqu",-10.043229856749024],["décennie",-10.043261462772985],["détention",-10.043267043265882],["gamme",-10.043270560026293],["atelier",-10.04327951113521],["exploitation",-10.043501759454362],["scénario",-10.043633246213759],["vaccination",-10.043970414800835],["reveni",-10.04469104930376],["jeunesse",-10.045021352186641],["appui",-10.04681170033831],["Anne",-10.048565845964397],["55",-10.049801055880065],["Ukrainien",-10.050167237308148],["essentiel",-10.050173966956326],["directrice",-10.05086710312679],["connaît",-10.050913544706258],["tiré",-10.052120042813467],["corona",-10.052278183220468],["00",-10.052575806736172],["34",-10.053868429681348],["ung",-10.055701615145564],["usage",-10.056411431044243],["iers",-10.056570280892942],["ménage",-10.05675097826579],["canadien",-10.05764705921608],["tomber",-10.058018100104363],["opportunité",-10.058183907246889],["chantier",-10.058249754235987],["organisée",-10.058668672490946],["pai",-10.05924895501464],["entier",-10.059273916614544],["réelle",-10.05987843518406],["mur",-10.06010903494769],["Qatar",-10.060319111867596],["score",-10.060696691897778],["code",-10.061617748066805],["apporter",-10.06369908398251],["utilise",-10.063739878995525],["Leur",-10.063754905811567],["spéciale",-10.064753403650544],["décédé",-10.06517202398997],["Netflix",-10.06565001748064],["Facebook",-10.065657864631305],["offensive",-10.065662664831244],["immeuble",-10.065666364647328],["nécessité",-10.065819996044809],["degré",-10.065875250658905],["livraison",-10.0659001347574],["connue",-10.065932831165368],["professionnelle",-10.066051874223282],["construir",-10.066855551956712],["oui",-10.0669127313754],["personnages",-10.070789964823238],["post",-10.07081588759803],["personnalité",-10.073225793148618],["échec",-10.073232079440643],["métier",-10.073256623877903],["séance",-10.073675302200954],["émotion",-10.073765297167038],["montré",-10.073951987924813],["devoir",-10.075412553687627],["ulement",-10.076221515295106],["ondre",-10.07791838084244],["ouloir",-10.079648526256761],["complexe",-10.079804060116789],["œ",-10.080222198342735],["jardin",-10.08051589308658],["stratégique",-10.0808562308507],["trafic",-10.08085939827016],["promotion",-10.081191652470967],["chanson",-10.081405886963331],["Vincent",-10.081508526009308],["installé",-10.081605595681562],["législative",-10.0817500038752],["perdre",-10.082142159179929],["Claude",-10.0822315991052],["statut",-10.08229721522512],["dépense",-10.084566116799586],["champ",-10.084980348338352],["neige",-10.08528686389672],["crois",-10.085454150166374],["sélection",-10.086256735055677],["âgée",-10.086276125828764],["trouvai",-10.086975946087591],["subi",-10.088027651762973],["électorale",-10.088100039938809],["solidarité",-10.088551726003168],["trimestre",-10.088551906710673],["proximité",-10.088552801758485],["mémoire",-10.088554014571756],["Fédération",-10.088554290219188],["Zelensky",-10.088586653914259],["partenariat",-10.088651854281775],["sondage",-10.08888225610032],["humaine",-10.089724459892256],["constat",-10.090183459261372],["réagi",-10.090284251087207],["souhait",-10.090626505576207],["penser",-10.090706676612136],["ions",-10.091191619109559],["remettr",-10.091584282780467],["tarif",-10.095618797309601],["régionale",-10.096011901440736],["rentrée",-10.096916448950326],["défendr",-10.097387728393958],["chaleur",-10.09741683130246],["vendu",-10.097535408423472],["com",-10.09783743053396],["II",-10.098034178835075],["lourd",-10.098321756972478],["Puis",-10.098900415575514],["installer",-10.09921690322589],["clé",-10.09922124890987],["adresse",-10.09961029652914],["Donc",-10.099956146739165],["bus",-10.100428128848423],["197",-10.101273114529176],["è",-10.10186186880135],["privée",-10.102643721172974],["auto",-10.10284658318315],["possède",-10.104116361602944],["impôt",-10.104129985069553],["organisateur",-10.104133566167118],["médicament",-10.104133716167944],["moindre",-10.104204613488283],["billet",-10.104495002359467],["chercheur",-10.104928274617569],["tente",-10.104966305230406],["ck",-10.105801948567503],["servir",-10.106201389720864],["portée",-10.106204908202187],["pénurie",-10.106303063993913],["naissance",-10.106657365670761],["logique",-10.107374049171407],["sexuelle",-10.108062835765733],["Iran",-10.108785014390687],["ague",-10.110712494862302],["quinz",-10.111270738378426],["bénéfice",-10.111990244571702],["utilisateur",-10.112019210258708],["local",-10.112037792888636],["réduit",-10.112331525015604],["affronter",-10.113124428649499],["cabinet",-10.114589560948627],["supérieur",-10.114614874602886],["Ses",-10.115204038593461],["ajout",-10.115206551256067],["Man",-10.115328186141468],["Celle",-10.117804475150553],["49",-10.119274183104086],["pauvre",-10.119927924675157],["camion",-10.119941116207968],["con",-10.120079293886615],["coopération",-10.120358227564957],["expliquer",-10.121707104082088],["entraînement",-10.12193332826283],["prime",-10.122598414428333],["eth",-10.125641527120642],["Cet",-10.126635895681993],["israélien",-10.127531693630917],["caméra",-10.12802968900063],["ennemi",-10.128100083118387],["War",-10.128678164073758],["soutenu",-10.129947389419417],["Non",-10.130691399406613],["bio",-10.133076464566788],["entrer",-10.13501372999077],["lire",-10.135585438176124],["théâtre",-10.135991416330823],["évoqué",-10.13611434272454],["battu",-10.136423340368133],["elui",-10.13660744182446],["adulte",-10.136945079811625],["go",-10.137547874517164],["concerné",-10.138600330932107],["top",-10.139134378660072],["pièce",-10.139489073002384],["Autre",-10.140065600194117],["témoin",-10.14034564289129],["photos",-10.141408800033464],["Lion",-10.141804548516273],["ène",-10.143293492155815],["37",-10.14398067710166],["conducteur",-10.14413801494471],["aérienne",-10.144363502809842],["tâche",-10.144624486158595],["Eric",-10.144657119109343],["musée",-10.144924405448698],["coalition",-10.145094031778001],["talent",-10.145196669917308],["masque",-10.146448981383493],["pièces",-10.14877911240016],["exprimé",-10.150036225833428],["DG",-10.150305480253754],["garçon",-10.15232005621365],["cinquième",-10.15239443764909],["instance",-10.152413259992947],["adjoint",-10.152448795032832],["fuite",-10.153259898282107],["promis",-10.153307892108208],["Éri",-10.15330878489189],["vivant",-10.153875390711672],["chien",-10.154994131691685],["partisan",-10.155437622554933],["pprovisionnement",-10.15544825272205],["jugé",-10.155565377685157],["quelqu",-10.157904245769352],["taille",-10.158496445474384],["Red",-10.158909181540402],["hockey",-10.159142189339756],["détenu",-10.160021329680518],["Institut",-10.160318553048125],["album",-10.160587126531015],["Première",-10.160597618197528],["restriction",-10.160605212727623],["athlète",-10.16061577391445],["variant",-10.160900643757715],["présidence",-10.16169599139002],["front",-10.162185438819954],["tonne",-10.16320819717627],["jaune",-10.163352981622392],["considéré",-10.16347615195834],["Su",-10.16424457807113],["déclare",-10.164556150489659],["Oui",-10.16455632568035],["console",-10.164876922240826],["retrait",-10.165537332002282],["ouvre",-10.166846011669476],["découverte",-10.167812791729908],["résident",-10.16805557591712],["nommé",-10.168351791531352],["humanitaire",-10.168916133795378],["fermeture",-10.168923577247735],["planète",-10.168971679249633],["solide",-10.17102241243316],["alité",-10.171927647750787],["située",-10.172832816625847],["coin",-10.173225592295996],["resté",-10.175261490225976],["loc",-10.175328517288957],["bar",-10.175561286643866],["rump",-10.176203371638838],["tourner",-10.176270592003057],["volontaire",-10.17703565557867],["papier",-10.177322052419672],["incroyable",-10.177401226685031],["oublier",-10.178013944731696],["finance",-10.1788265665091],["Comment",-10.17928648729668],["̀",-10.180127051217593],["récente",-10.18172101096383],["passée",-10.182500408950688],["soin",-10.18366402371892],["accessible",-10.185714137810798],["Qui",-10.185755970510286],["Luxembourg",-10.185790608291061],["échelle",-10.18580704675021],["Otan",-10.185822657387494],["mobile",-10.186183842165962],["délégation",-10.186407086079836],["distance",-10.186987273862925],["établir",-10.187724696441592],["partager",-10.189388651591344],["reine",-10.190119733486384],["allié",-10.190681189201406],["naturel",-10.190965121195006],["partis",-10.191315689906261],["régional",-10.193600478097984],["repris",-10.193619985386505],["fruit",-10.19409458246757],["multiple",-10.194297783864272],["Festival",-10.194372735495659],["sang",-10.194403508066134],["soleil",-10.194501099401446],["tombe",-10.196108962977725],["choisir",-10.196177741528166],["ambition",-10.196370338734182],["Mari",-10.196640625264733],["38",-10.196853188764655],["publication",-10.197887796683254],["battre",-10.197956827657531],["automn",-10.199300814042893],["bi",-10.199366738780013],["Val",-10.199699050769716],["violent",-10.199761602397274],["tombé",-10.200444362341443],["w",-10.200892257950894],["fermé",-10.201774544550213],["iste",-10.202295264911932],["lever",-10.202808999981382],["Association",-10.202965216340576],["indépendance",-10.203066767108387],["suffi",-10.203505291193379],["impossible",-10.203753848593273],["chasse",-10.205803580011334],["immense",-10.205920310015179],["fédérale",-10.205952257536804],["tirer",-10.206505577196108],["drame",-10.206678559127102],["diplomatique",-10.206798484824535],["excellent",-10.207533485639793],["ine",-10.209618030952921],["Goo",-10.209799506723478],["Star",-10.21030480526812],["chinois",-10.210319985122771],["recette",-10.211127529773519],["exception",-10.211631338312344],["principau",-10.211657067145829],["explosion",-10.211665047624201],["mains",-10.211959182797852],["essentielle",-10.212247130141407],["côte",-10.212898626501559],["Banque",-10.212932282691737],["révélé",-10.21325010118833],["séjour",-10.215430804189268],["foule",-10.216948979184888],["devenue",-10.217473152798387],["dynamique",-10.217521436830776],["cation",-10.217636904067552],["faux",-10.218169991519044],["Bo",-10.219340018279706],["réel",-10.219592481869253],["radio",-10.2199224728138],["divers",-10.219952453147394],["déroule",-10.220336284896973],["fi",-10.220408640152478],["réalisation",-10.220597388349564],["influence",-10.220634546077672],["aix",-10.221619745204181],["signifie",-10.223579157020652],["aliment",-10.223800496961115],["bénéficier",-10.223814557533913],["apprendre",-10.223912434697343],["Air",-10.224198094105894],["Pays",-10.224763187159315],["gérer",-10.224771960743487],["respecter",-10.22561278465841],["pouce",-10.226448095182118],["normal",-10.228273472636499],["devron",-10.228404414050562],["favorable",-10.22924637251555],["perspective",-10.229283151775293],["obligatoire",-10.229288884330042],["roman",-10.229923637351337],["écrir",-10.230143764860966],["paiement",-10.230369289185107],["choc",-10.230561149532303],["industriel",-10.230818127270567],["bel",-10.230959776615904],["passager",-10.231125210832872],["dénoncé",-10.231219246513966],["Agenc",-10.23168942559807],["Bas",-10.231747402920407],["concour",-10.234614387124065],["confie",-10.23472096106494],["télé",-10.235807357703067],["bleu",-10.235807952602508],["science",-10.236742435023844],["Fas",-10.237790993402676],["espèce",-10.238207140760334],["forêt",-10.238207723053293],["compétence",-10.238226805389889],["anniversaire",-10.238281095002097],["montagne",-10.238289677624989],["concurrence",-10.238293503036715],["essence",-10.238371986337816],["rejoint",-10.23850166849471],["supporter",-10.239001865873849],["moteur",-10.239497224288407],["style",-10.239933668584941],["active",-10.239978588233281],["mari",-10.240103024208672],["armé",-10.240637797190791],["ONG",-10.241208649660583],["Jacque",-10.241450258845209],["utile",-10.242207819893647],["San",-10.242275868028498],["écart",-10.242875739557057],["performances",-10.243431713547572],["maintien",-10.244004497290074],["iège",-10.244511365024785],["passion",-10.244515609510302],["portant",-10.245049255134472],["Américain",-10.245187430483359],["goût",-10.245306641014622],["canadienne",-10.246508653027387],["similaire",-10.247216622220861],["Stéphan",-10.247226604544979],["navire",-10.247233980973196],["marge",-10.247252764280274],["Jusqu",-10.247270396011896],["secondaire",-10.247397122844541],["animation",-10.247949041324677],["amateur",-10.24828048451208],["découvert",-10.248449908568164],["vive",-10.248474906859744],["facture",-10.248594704310984],["Brun",-10.252280814738494],["quête",-10.252599549416098],["grosse",-10.252992355807699],["48",-10.253072904250843],["intégr",-10.253977539779623],["crédit",-10.254923907596567],["accompagné",-10.255610579713045],["récit",-10.255783481706993],["micro",-10.256603479874546],["étoile",-10.256962206645209],["opérateur",-10.258998970963216],["Parc",-10.259307635840303],["vigue",-10.261793903661658],["lain",-10.262026473969158],["établi",-10.26216813478586],["exécutif",-10.263101381083642],["réussite",-10.263182862573478],["pou",-10.263217914442645],["équipement",-10.263386655113074],["qualification",-10.265490523477508],["circonstance",-10.265500225187127],["attentat",-10.265502998114581],["colère",-10.265555058466573],["lecture",-10.265591516273652],["Burkina",-10.265630450451916],["municipalité",-10.265932837432707],["déposé",-10.266150932507394],["destination",-10.266474686168],["isent",-10.266977230879284],["agissai",-10.267799203560983],["rassemblement",-10.26825502706851],["ologne",-10.268838764385812],["fournir",-10.26915360321327],["efficac",-10.269857882445582],["égard",-10.271859216455557],["développé",-10.27251382251217],["George",-10.273580087174938],["norme",-10.274323484874536],["fondateur",-10.274788155468158],["meurtre",-10.27479727383379],["artistique",-10.274822875618174],["témoignage",-10.274894964704474],["diversité",-10.275038091421875],["quantité",-10.275310722631838],["saga",-10.275378321126428],["47",-10.27564378855613],["Ou",-10.275657965200926],["US",-10.277787681270066],["Québécois",-10.277890687255812],["enseignement",-10.278817566270936],["continent",-10.283329250219246],["séquence",-10.284149313434991],["aspect",-10.284239653647798],["43",-10.284337845611066],["socialiste",-10.284349855000567],["présentation",-10.286162242405947],["accompagner",-10.286962601361651],["francophone",-10.287605181491383],["Co",-10.288047400222252],["souci",-10.288062812485794],["imposer",-10.288091095244326],["cancer",-10.288290284212472],["Alexandr",-10.290508881795702],["volet",-10.29086997939817],["150",-10.291567232782842],["décide",-10.292415214002599],["complet",-10.29334215355089],["appartement",-10.293520543152088],["Christian",-10.293597636317568],["sensible",-10.293788264291582],["expression",-10.29379654801496],["Valérie",-10.29385617197045],["emmour",-10.294463726114028],["confié",-10.294692944071983],["qualifié",-10.294875011551099],["limiter",-10.295012797412873],["métrage",-10.295080847139225],["rapporté",-10.295425381188782],["faute",-10.295698208945346],["h30",-10.295957576918406],["vaut",-10.29895269634589],["soft",-10.299755327315195],["Dr",-10.300144828299327],["Tou",-10.301333605699178],["ntendo",-10.301558665961753],["gare",-10.30177035166431],["personnelle",-10.30183629568224],["invite",-10.301883537584192],["prestation",-10.303050395296818],["fournisseur",-10.303173434714001],["sœur",-10.303207179341333],["capitaine",-10.30324804806537],["Justice",-10.303304574121778],["dés",-10.303465532973412],["sauver",-10.304111605227922],["adopté",-10.30431752637441],["néan",-10.304358243591789],["tels",-10.304520898498923],["finir",-10.306220143846943],["Ha",-10.306573968230847],["Terre",-10.306848823138035],["amende",-10.306864659861423],["Krem",-10.307694924324782],["Moham",-10.30770128109356],["exacte",-10.307897637819277],["dommage",-10.308047503866014],["complète",-10.308598394379777],["évoque",-10.30959376564202],["accepté",-10.31002441958116],["municipal",-10.310180792021736],["Ali",-10.312044258226859],["doigt",-10.31266313450718],["secret",-10.312673372055574],["automobile",-10.312702412707326],["temporaire",-10.312743307976149],["sportive",-10.312904365621304],["ambiance",-10.3130785578877],["résolution",-10.313079258843734],["témoigne",-10.313414596880456],["électeur",-10.313462437471596],["bataille",-10.314024412065777],["Simon",-10.3144637380969],["intéressant",-10.315062046214578],["44",-10.315256024183771],["ballon",-10.31587274425555],["égalité",-10.316723867083002],["monter",-10.316823992229159],["concept",-10.320906584976466],["Mi",-10.321193809746234],["récent",-10.322286097158951],["Grâce",-10.322368280017601],["spécifique",-10.322368378142297],["interdiction",-10.322425165568994],["adaptation",-10.322474728533095],["Thomas",-10.322904866662983],["ordinateur",-10.323024769212386],["occupe",-10.323753728646622],["profil",-10.324186275263385],["malheureuse",-10.325730188927377],["visan",-10.325731603264236],["Nouvelle",-10.325986232846269],["‘",-10.326397022485098],["gle",-10.327780002252595],["malade",-10.328175948933488],["pont",-10.328924113819964],["africaine",-10.329133599477306],["Occident",-10.32968447120236],["ON",-10.33066602091966],["lourde",-10.330706688636358],["pierre",-10.331386563140489],["actrice",-10.33218390626211],["abonné",-10.332254049249624],["immobilier",-10.332377950340696],["vérité",-10.33241323395422],["che",-10.332447469210994],["plage",-10.332485878355799],["étage",-10.332780054079363],["collective",-10.333000565231815],["coupable",-10.333497724683141],["surveillan",-10.33387406731716],["sourire",-10.333983892443603],["Cameroun",-10.33413409842835],["travaillé",-10.33570411570971],["mineur",-10.335894938660806],["Prix",-10.336443868415964],["André",-10.339031584649344],["culturel",-10.33936176494795],["surpris",-10.33968437755249],["dame",-10.340202788240656],["lende",-10.340626030658417],["interview",-10.340716635751686],["rencontrer",-10.341764279391178],["propriété",-10.34195477161579],["accéder",-10.34209673052392],["mobilisation",-10.342097752617715],["vainqueur",-10.342114602430438],["65",-10.342590756084729],["facteur",-10.344494983441269],["organiser",-10.345080400310628],["élevée",-10.345543391974392],["rappele",-10.346568986705215],["machine",-10.346584098365],["amp",-10.347132391340242],["filet",-10.347152347041902],["pensai",-10.347603497023002],["conduit",-10.347707730302712],["réjoui",-10.348788345960998],["ka",-10.349052757176706],["Tunisie",-10.349629909986781],["provoqué",-10.350684575175194],["fermer",-10.351162185115282],["juridique",-10.352073186858778],["relative",-10.352075267881965],["palais",-10.352076226093164],["gouverneur",-10.352092669950295],["évènement",-10.352350130261499],["défaut",-10.352529006167403],["dépôt",-10.352600272320059],["conscience",-10.352932405081077],["préparation",-10.35371140487842],["dos",-10.35403816743094],["sortant",-10.354204106103175],["Jér",-10.354389651340977],["minim",-10.355309577990933],["agir",-10.355772263128882],["dédié",-10.357151227231085],["Mont",-10.357262790601595],["riche",-10.361208869975634],["contribu",-10.361924022790832],["migrant",-10.362165773758967],["circonscription",-10.362174255166904],["batterie",-10.36218641299547],["Japon",-10.362237806382034],["Gabon",-10.362248124510973],["massive",-10.36227004753928],["800",-10.362344585094622],["définitive",-10.362448321634341],["déterminer",-10.36262515226424],["infection",-10.363386285047925],["écologique",-10.363922155847481],["quotidienne",-10.36451994373498],["drapeau",-10.364972831386552],["parfaitement",-10.365172393487462],["Denis",-10.365668119111817],["noter",-10.365911535340919],["parlé",-10.366751168894783],["Play",-10.368869776568996],["secour",-10.368878479498754],["détruit",-10.368960708190677],["Australie",-10.370226473914112],["algérien",-10.371958168983532],["bateau",-10.372349948371571],["église",-10.372378434637824],["révèle",-10.372378649838314],["promesse",-10.372388046483227],["récupérer",-10.372402915273554],["télévision",-10.372435952934364],["mobilité",-10.37269966547154],["originaire",-10.372763191928527],["Chambre",-10.373105778722536],["accuse",-10.373156643113791],["produir",-10.373516245056125],["composé",-10.373794357644982],["Rouge",-10.374636796917521],["frappé",-10.375602289853038],["fixé",-10.37661275554753],["refus",-10.37754335658385],["issu",-10.378173073160728],["profond",-10.378418641031843],["ultra",-10.380002009115454],["présentée",-10.380347556810031],["Voic",-10.381022779402603],["nette",-10.381334288039003],["tte",-10.381532430110084],["recul",-10.381619182199975],["formule",-10.381924849524559],["ient",-10.382104961806878],["démocratique",-10.382687734699678],["signature",-10.382689304832125],["calendrier",-10.382708928388997],["Macky",-10.382802713028406],["investisseur",-10.382808174360306],["dégât",-10.382808605959678],["écrivain",-10.382811293147478],["tournée",-10.382885492798952],["42",-10.383214624113808],["affrontement",-10.383415920362353],["naturelle",-10.383667805601796],["animal",-10.383755712669647],["Outre",-10.384106926718154],["Sams",-10.384108750603804],["causé",-10.384627659846394],["600",-10.384909996001316],["po",-10.384944852730886],["the",-10.385154573090313],["épouse",-10.385199563110586],["souhaité",-10.385289061400478],["For",-10.387245941123872],["rie",-10.387584449551305],["Sall",-10.387753718490849],["awa",-10.387788272632195],["gain",-10.3880830942446],["oi",-10.389164992801742],["59",-10.39042185741828],["bénévole",-10.390602891793366],["vendre",-10.392935131424128],["coach",-10.392951774830465],["foyer",-10.393143457560665],["analyste",-10.393152736987306],["existence",-10.393210975080876],["patrimoine",-10.39323900647874],["transfert",-10.393507659882577],["localité",-10.393517155789874],["livré",-10.394777023260108],["poser",-10.395093407830224],["vin",-10.395483490834945],["cuisine",-10.396805098316378],["trouble",-10.396896599760836],["convainc",-10.399100151626913],["investir",-10.400741387556423],["calme",-10.40214489152585],["gar",-10.403275835707387],["mène",-10.403415701154824],["Intérieur",-10.403630536028388],["considère",-10.40363063097751],["conclusion",-10.403735374781675],["amélioration",-10.403769560457407],["mairie",-10.403873863440287],["méthode",-10.404000605331841],["distribution",-10.404062089982869],["syndicats",-10.404835004572355],["taxe",-10.405381276504531],["dure",-10.405958089759196],["MR",-10.406056139963777],["nomination",-10.406181943870319],["micron",-10.406899764790351],["annuel",-10.407704695964522],["64",-10.40779421819613],["salon",-10.407837481959938],["Vi",-10.407991272448175],["Ro",-10.408127929711728],["collection",-10.408305773757228],["ire",-10.409471540265518],["ri",-10.410005402736369],["Sport",-10.410107294024474],["canton",-10.410241768796318],["venai",-10.41068701915383],["ance",-10.41096700221025],["diffusé",-10.411424266519234],["play",-10.411952818434145],["réalisée",-10.412771059998455],["ronde",-10.412901807945019],["iens",-10.413193771869913],["montée",-10.413482531544538],["cap",-10.413664200490839],["évaluation",-10.41435885628902],["génér",-10.415212855658872],["essayer",-10.415643358820343],["primaire",-10.415750251039668],["MS",-10.417186527926095],["intéresse",-10.417194775722887],["Daniel",-10.418787518863745],["euro",-10.423070643560479],["perd",-10.423278899201286],["bruit",-10.424112518853187],["entrepreneur",-10.424584546700338],["pic",-10.42479402390667],["Service",-10.42512579214735],["ambassadeur",-10.426462049458191],["fier",-10.428195021780331],["saisi",-10.428686065036523],["tienne",-10.428930044106242],["disparu",-10.428998991032032],["levée",-10.429211370409622],["So",-10.429730163765779],[".”",-10.431619087382376],["froid",-10.43178860867155],["Ri",-10.431821224009095],["marquer",-10.431859565401165],["62",-10.432473149809162],["pourron",-10.433021684897092],["familiale",-10.433293602547389],["délai",-10.433296667610874],["compliqué",-10.433509085891949],["concurrent",-10.433846390211569],["règlement",-10.43393040673035],["imposé",-10.434383128545583],["syndicat",-10.434700132787416],["intense",-10.434731243872264],["q",-10.435639340446407],["instruction",-10.43589129784227],["déchet",-10.435892890472376],["poursuite",-10.435899993518593],["explication",-10.436020286470981],["confinement",-10.436133502199533],["arrestation",-10.436151950028108],["Alpe",-10.436493924340123],["indice",-10.43655668021658],["glace",-10.43658203001964],["portable",-10.43676630318257],["voyageur",-10.437591909583286],["gagne",-10.439448377274534],["ball",-10.439526791861285],["municipale",-10.44049323977743],["pêche",-10.441515798083755],["1000",-10.442124957714709],["préfère",-10.442468685859666],["Corée",-10.442537846016325],["déplore",-10.443943309070946],["accueilli",-10.444133391021072],["dévoilé",-10.444379882141202],["atrice",-10.444642379015711],["griculture",-10.445354609840171],["apporté",-10.445869782472293],["caractère",-10.446881720655536],["islamique",-10.44689767185335],["opinion",-10.44690768584766],["considérable",-10.44694234684766],["préoccupation",-10.446953619236073],["commentaire",-10.447217167923633],["Richard",-10.447236324039922],["pause",-10.447363146844587],["destiné",-10.447424158639883],["fallu",-10.447444891523293],["drogue",-10.447752252158534],["maître",-10.449461118533595],["cesse",-10.450208086012276],["ière",-10.45039009752485],["ème",-10.451198774003354],["suivant",-10.451951379242205],["gratuite",-10.45271602453153],["décrit",-10.455134012452334],["majeure",-10.455360931472736],["effectuer",-10.455362559668323],["formé",-10.45616255377222],["fonctionne",-10.456265576217337],["candidate",-10.456627899819509],["puissant",-10.456774281021428],["locau",-10.45709588838053],["41",-10.457588480897014],["Voil",-10.457653192680816],["National",-10.457726142937817],["catastrophe",-10.457991209251489],["Disney",-10.457994175962972],["réflexion",-10.458021501517532],["informatique",-10.458154568334459],["Guerre",-10.458576204541263],["session",-10.458813860354207],["tradition",-10.458894092484233],["relevé",-10.458948739998004],["sais",-10.459121704597692],["statistique",-10.459378542124401],["enseigne",-10.460959939995798],["souri",-10.461550420133426],["libération",-10.46164594265877],["quitte",-10.461714711652427],["Ott",-10.462360861154384],["éventuelle",-10.463709603888123],["regarder",-10.46522213899462],["foi",-10.465269172854198],["traité",-10.465959898822788],["Super",-10.46668618845581],["abri",-10.46681874797169],["attendue",-10.467196408805485],["Tu",-10.468085327056867],["inquiète",-10.469229006876514],["fidèle",-10.469229234085418],["électronique",-10.46923031146705],["ouvrage",-10.469262776023221],["élenchon",-10.469318667657724],["mariage",-10.469514052445703],["prévision",-10.46978891232217],["blanche",-10.469966521463288],["démontre",-10.470039272996509],["duel",-10.470662046179495],["Haut",-10.470925124086968],["tennis",-10.47207547921887],["division",-10.47223430901077],["fonctionnement",-10.47314539683683],["inverse",-10.473908492035314],["interpellé",-10.474626529630775],["prendra",-10.475987847049883],["croit",-10.476421081128613],["différent",-10.47743409603939],["intégrer",-10.477599347402322],["content",-10.478808028605869],["empêcher",-10.479130278517335],["Haute",-10.479306589362432],["débuté",-10.479432830375407],["réuni",-10.479724513409638],["Lausann",-10.48049834194832],["volume",-10.48064420849984],["opposant",-10.480656449330702],["préfet",-10.480688786352564],["automatique",-10.48075461947879],["marocain",-10.480939568445791],["alternative",-10.480953119677807],["scrutin",-10.48115881824454],["excuse",-10.48165590250197],["Open",-10.482116301332272],["mérite",-10.48264924481782],["souvien",-10.483186077616955],["collecte",-10.483695533789142],["auquel",-10.484940999891041],["Aux",-10.485199195681364],["Jame",-10.485898377628867],["convaincu",-10.487149947921765],["ntaine",-10.4875705332148],["habitation",-10.488774013499427],["stock",-10.48950932591358],["insist",-10.491357851297105],["accueille",-10.491919763165171],["apparition",-10.492085075954364],["Nouveau",-10.49208620409415],["solidaire",-10.49208744644884],["podium",-10.492123471470492],["quarantaine",-10.492123795623867],["Amérique",-10.492152350871084],["bonheur",-10.492167651904474],["écriture",-10.492181006974802],["manqué",-10.492195064570414],["vaste",-10.493117219930454],["enjeu",-10.49375307108849],["Phon",-10.494395838389972],["voter",-10.49462742396571],["Bernard",-10.495163218139393],["Micro",-10.495334172018268],["adolescent",-10.495725832342064],["Inter",-10.495784079221856],["Mo",-10.496501929511322],["récolte",-10.498431042452994],["défis",-10.500915329043902],["Dieu",-10.50196895873847],["allant",-10.501984083167063],["bénéfici",-10.502150297627367],["augmente",-10.502619743730694],["associé",-10.502791732028328],["impose",-10.502793634387722],["Belge",-10.503404983515603],["Black",-10.503541603129083],["Ange",-10.50357626188141],["Marseill",-10.503595591129555],["ultime",-10.50367300100296],["constructeur",-10.503712960594438],["communautaire",-10.503714336468494],["décret",-10.503771544728231],["automobiliste",-10.503827642115741],["office",-10.503967039008739],["carré",-10.505073932872381],["tempête",-10.50511910729304],["avancée",-10.506084511987556],["ombre",-10.506236389003089],["enquêteur",-10.5072222563442],["constate",-10.50772535629909],["menaces",-10.509188328834155],["positive",-10.50927251593354],["(+",-10.509459771226458],["identifié",-10.509533704381226],["Gabriel",-10.509752443062375],["litre",-10.509787688465833],["chev",-10.510054408573785],["Yve",-10.510440156556452],["annuelle",-10.510914718784196],["justement",-10.511557751493521],["mettant",-10.512832916425594],["plat",-10.513891499880728],["chargée",-10.51445999328661],["banc",-10.514518097390269],["ga",-10.515186193370486],["gendarme",-10.515467664507383],["commerçant",-10.515493844591663],["autonomi",-10.515548627136589],["huitième",-10.515556502879656],["52",-10.516005104287348],["cadeau",-10.5162001585588],["City",-10.516347649810067],["Sous",-10.516601185408886],["commercial",-10.51681070594644],["dirigé",-10.518117529606364],["posé",-10.51827858796657],["envoye",-10.518917275059614],["Christophe",-10.518952825870747],["gratuit",-10.521098468491292],["ône",-10.521160756110753],["publiée",-10.521301863290812],["Alex",-10.522373263563878],["Mondial",-10.522846139811897],["Syrie",-10.523766449456609],["lit",-10.523988352421533],["250",-10.52415145682937],["averti",-10.525289014887502],["café",-10.525931589602003],["spécial",-10.527347989631977],["disparition",-10.52738243044666],["épidémie",-10.527382449327387],["Monaco",-10.52738731352662],["Musk",-10.527418717650587],["and",-10.527436103736656],["Comité",-10.527464112254272],["procédé",-10.52750039126212],["acquisition",-10.52750185817581],["actualité",-10.527674652506903],["couverture",-10.52769068339911],["innovation",-10.527717606236477],["masse",-10.528276203516207],["Wi",-10.52852111517496],["maman",-10.528869189472736],["terminer",-10.529032423788488],["aimé",-10.529597444623967],["capital",-10.5306426608491],["resse",-10.531467751533135],["Angle",-10.531922818751593],["Bon",-10.53456789142869],["67",-10.534859786835286],["précision",-10.534966293121009],["85",-10.536486312845984],["ro",-10.536730584393148],["aérien",-10.539169210997503],["alcool",-10.53943507196151],["Finance",-10.539465163267547],["plastique",-10.539589278448346],["bloc",-10.53969289560422],["avortement",-10.53986275349622],["exceptionnelle",-10.53993894542921],["licence",-10.539951257960844],["opposé",-10.54016411352854],["symbole",-10.540513813837304],["lie",-10.54054929392559],["Frédéric",-10.540682021770225],["berg",-10.540754944153633],["sauf",-10.541537137586849],["ixième",-10.542230935046407],["viol",-10.543274072902795],["remporter",-10.543540536484128],["tion",-10.543541818880957],["sert",-10.54367883272937],["respective",-10.543689313350672],["commerciale",-10.543721035568566],["renforce",-10.544088887617534],["voil",-10.544364380369494],["enfan",-10.544764391518356],["Grande",-10.545848379704465],["Don",-10.545880146620163],["chat",-10.54598583116067],["effective",-10.546184960062618],["ième",-10.54719962520129],["game",-10.549198150723992],["baisser",-10.549242374950786],["Photo",-10.54939828451334],["décor",-10.549424619485269],["signalé",-10.551253768467943],["humanité",-10.551636643184953],["cheffe",-10.551836090499576],["défend",-10.551972803497028],["bombardement",-10.552268271262182],["effectif",-10.553574118378531],["fleur",-10.554142945079978],["informe",-10.554154209175188],["occupé",-10.554707749591072],["moto",-10.555472945246546],["globale",-10.555843325506267],["indépendant",-10.556077027556437],["découvre",-10.55633047746756],["juif",-10.556334495751534],["sacré",-10.55640064483065],["Merci",-10.5572025652549],["crée",-10.557601905925592],["servi",-10.557915417880935],["Vert",-10.55794948453936],["tableau",-10.558057238757508],["apprend",-10.558979835639178],["horizon",-10.561453240485601],["Tom",-10.561732952983398],["relai",-10.561880075005583],["ster",-10.562089733597478],["vêtement",-10.56388071278311],["Dakar",-10.563991416667939],["contribution",-10.564085589429364],["autorisation",-10.564138966500156],["reconnaissance",-10.564308081116447],["geste",-10.564671385691568],["souffre",-10.564856223007244],["adapter",-10.565155788633865],["46",-10.565507999412711],["conduite",-10.56732989617214],["construit",-10.567627811469253],["ver",-10.567669524681714],["partagé",-10.567690126320702],["plateau",-10.569171802706798],["empêche",-10.569708478129886],["Var",-10.571406133658096],["54",-10.572444492081566],["vide",-10.57266445912257],["39",-10.57284072837996],["OS",-10.573709761109843],["médicale",-10.574324479358626],["Madri",-10.575613814128356],["ous",-10.575733183070017],["marin",-10.576039055806167],["léger",-10.576150117904785],["pouvant",-10.576415815559745],["magnifique",-10.576471422275294],["négatif",-10.576471442472489],["bébé",-10.576474767411986],["magistrat",-10.576604035159043],["Justin",-10.5768444905741],["château",-10.576855179234563],["drone",-10.576898832162488],["essai",-10.576969405949608],["coeur",-10.577032816859976],["adapté",-10.580874989487127],["déployé",-10.581265621022705],["attendai",-10.581363573086092],["prépare",-10.581384294813382],["accordé",-10.58140163208284],["assise",-10.58150544661687],["diverse",-10.581604622651867],["Région",-10.582771827272667],["58",-10.583230107365337],["supérieure",-10.584976973180769],["discuter",-10.58526056300649],["Mario",-10.586273767485402],["mini",-10.586569138912461],["Maxim",-10.587063085788094],["uprême",-10.588322444218335],["tiendra",-10.589037795802938],["inscrir",-10.589153781837016],["progr",-10.58918680066867],["profondeur",-10.589535017517889],["Lyon",-10.589617439456614],["âme",-10.589664941329037],["rumeur",-10.589950267247211],["arrondissement",-10.59013266798282],["57",-10.590397549260654],["intéressé",-10.590635676116364],["initiale",-10.591014618163605],["suspendu",-10.591438162263245],["chaud",-10.593366538464426],["autorisé",-10.59377351727896],["trace",-10.59584452363682],["communal",-10.595846294740703],["William",-10.596158115793788],["peau",-10.596707934851555],["assemblée",-10.597357027990569],["insiste",-10.599667792862071],["parfait",-10.599849820613766],["chôm",-10.600676195523164],["terroris",-10.600692453744967],["constater",-10.600757678658796],["née",-10.600824833243738],["résume",-10.60154249712544],["humour",-10.6019548845676],["rivière",-10.601986195778192],["transformation",-10.6020170780677],["fonctionnaire",-10.60204587593404],["joie",-10.60226470487219],["prince",-10.602267246167415],["certe",-10.602412051416724],["lycée",-10.602506559641013],["Vers",-10.602695767251246],["crainte",-10.60295637274255],["investi",-10.60300534950207],["off",-10.604124073331795],["Seul",-10.604230793222918],["admis",-10.604644438707037],["72",-10.60639032475669],["arabe",-10.606425785890664],["élite",-10.606493370804415],["core",-10.606645865763731],["Petit",-10.60666417380107],["fausse",-10.608413789418877],["logiciel",-10.608771799617177],["féminin",-10.609036182500855],["ressenti",-10.609719558032927],["Cap",-10.609919879464266],["lot",-10.610293911911462],["reçoi",-10.612865442531765],["salué",-10.612951945897365],["boutique",-10.613458276292743],["remonte",-10.613819245039199],["erie",-10.61458220816046],["équilibre",-10.614818582382789],["occupation",-10.614888234119153],["sécuritaire",-10.614937175699158],["laboratoire",-10.614937338949357],["progression",-10.615002011399888],["constitutionnel",-10.61510032332465],["raconté",-10.615140933358987],["documentaire",-10.615193949064007],["silence",-10.615280964026793],["officier",-10.615335127590331],["violation",-10.615479297924892],["cru",-10.616120557405125],["Pala",-10.616330658622955],["Euro",-10.616432682696686],["branche",-10.616441241103526],["Vo",-10.616972506990368],["unie",-10.617115372712895],["Wallon",-10.617255873771729],["voulo",-10.617362834040366],["franchise",-10.617422812984703],["77",-10.617843976327435],["viven",-10.618527620738545],["53",-10.61903835772791],["présumé",-10.619975415372199],["confronté",-10.620415623199204],["marchés",-10.62063593018457],["couteau",-10.621749646538806],["Turqu",-10.62176900648782],["contraint",-10.62263823906509],["utilisée",-10.622827011816469],["internation",-10.62320218333683],["Blue",-10.623391513772976],["émis",-10.62357756148199],["apporte",-10.623801312453619],["devienne",-10.625492476170141],["argument",-10.626711534341677],["central",-10.627744957993038],["garantie",-10.627966473512743],["administrative",-10.628095085770777],["inondation",-10.628098940698806],["homologue",-10.628110010309161],["préfecture",-10.628113867170056],["Société",-10.628176268144472],["ham",-10.628513135943125],["Sébasti",-10.628625412395738],["verre",-10.62864439238988],["convien",-10.628874094850826],["enceinte",-10.629045386663933],["(…)",-10.62906366712227],["voté",-10.629404185199377],["cache",-10.629785606383834],["retourner",-10.629887720692706],["douleur",-10.630177406744115],["décider",-10.630284992662812],["traditionnel",-10.6324504087262],["conduir",-10.632755623849455],["Samu",-10.632925182565288],["llez",-10.634073156313825],["douz",-10.634094416246247],["impliqué",-10.634095087200294],["suffisam",-10.634740710272819],["progressive",-10.63501366310056],["engage",-10.63504048640293],["tourne",-10.635223946404885],["Tel",-10.635285294683479],["viv",-10.635287468662796],["guide",-10.6355032047518],["diplomati",-10.635664520299727],["acquis",-10.636056836988836],["bruxellois",-10.636616529086552],["renseignement",-10.63662268500405],["québécois",-10.637176896687974],["ley",-10.637739376620758],["amedi",-10.637937858186461],["proposée",-10.638234541299258],["land",-10.63871069877333],["désir",-10.63872110778571],["avancer",-10.639303177442955],["Duran",-10.639606983063821],["criminel",-10.63988196975584],["remarque",-10.639970776183613],["envisage",-10.640260117142265],["infraction",-10.640652791932068],["fou",-10.64070110084209],["Di",-10.641296199701285],["discipline",-10.641428403764852],["démocrate",-10.641428405263023],["policière",-10.641430403300749],["contamination",-10.641434301807806],["inquiétude",-10.64147889421825],["doublé",-10.641500257084306],["Libre",-10.641508185480232],["fédération",-10.641524856338945],["corruption",-10.641528238594091],["touristique",-10.641565371874655],["extraordinaire",-10.641707316609448],["délégué",-10.641901783092255],["panne",-10.64197602453223],["parking",-10.642149906126134],["RN",-10.64341485102721],["mobilisé",-10.6435328097279],["suit",-10.643687991602464],["Henri",-10.643781128987069],["bombe",-10.643918531498478],["Jo",-10.644004208425184],["ours",-10.64476178667784],["avenue",-10.647448513937515],["oupol",-10.648518195758939],["annoncer",-10.64965028545772],["vraie",-10.65020103393082],["réussir",-10.650961431630002],["chant",-10.651237073895302],["restaur",-10.651645116399308],["récompense",-10.651912372918483],["pousser",-10.65362913041504],["entré",-10.654130676829102],["monnaie",-10.654935260368191],["Switch",-10.654942953139862],["universitaire",-10.65494312184521],["sauvage",-10.654945597849688],["Antoine",-10.65494981804456],["maillot",-10.654980855713786],["assassinat",-10.655001122222583],["Michael",-10.655004952819535],["exportation",-10.655009616417727],["prévention",-10.655048543746961],["matinée",-10.655493501615073],["plongé",-10.655534456731457],["immigration",-10.655699501486815],["Mainten",-10.656530342422093],["sérieuse",-10.656815472230189],["osité",-10.656857876712472],["payé",-10.656872346284786],["exigence",-10.656941084923986],["assister",-10.657286993589187],["2008",-10.658050203714161],["chanteur",-10.66031360462774],["é",-10.662294007922373],["iez",-10.662551244290878],["menacé",-10.663324883309837],["exprimer",-10.6633967362467],["acheté",-10.664132478520262],["rentrer",-10.664752377980749],["subvention",-10.665149448398468],["63",-10.665753793562146],["avancé",-10.665852434658024],["ées",-10.66605811861195],["Personne",-10.666162273173441],["exprime",-10.666189460024015],["axe",-10.666218144902505],["dérouler",-10.666887944497821],["vacciné",-10.666927340451254],["NU",-10.668425846643515],["OM",-10.668478514083564],["cinéaste",-10.668640649161093],["Club",-10.668643177447573],["Rivière",-10.668649261706197],["recommandation",-10.668673472127136],["récolté",-10.668847915137947],["commissaire",-10.669306290510288],["classes",-10.669785290052697],["fasse",-10.670535279836283],["myr",-10.671574633297652],["accepter",-10.67216925352486],["heureuse",-10.672483759165182],["douce",-10.674340290873513],["sexuel",-10.675196792313177],["700",-10.675219538131392],["préféré",-10.676472212273367],["bons",-10.676659289818158],["Domini",-10.676817057653956],["financer",-10.676820534889153],["écoute",-10.676900860118955],["reconnaît",-10.67806462623777],["traditionnelle",-10.678491098715241],["van",-10.6792845618448],["spécialisé",-10.679335403219477],["Sony",-10.68073215943568],["manifeste",-10.680860922266785],["tourné",-10.680865103400286],["installée",-10.681287381471094],["Port",-10.68241520916758],["provisoire",-10.682529442131555],["Instagram",-10.682532252455172],["Eliza",-10.682552680587202],["gendarmerie",-10.682581051534473],["fenêtre",-10.682794449599228],["Palestinien",-10.68283817375588],["employeur",-10.682886928178764],["Volod",-10.683293134669746],["Néan",-10.683318840126237],["Guy",-10.683323180093055],["oeuvre",-10.683567571532034],["Bar",-10.683706867707585],["extension",-10.68419240104451],["adopter",-10.68450735473759],["chinoise",-10.684678968335325],["mar",-10.685283309659948],["rose",-10.685459938151077],["Mar",-10.685472058340626],["entraîné",-10.68549383072913],["Canne",-10.685937897030275],["jugement",-10.686672491346574],["Brésil",-10.690106090240558],["poussé",-10.690249884759268],["mille",-10.69062238295368],["Force",-10.692972780968633],["Blanche",-10.694087668745151],["visé",-10.69466359633984],["Max",-10.694852065957],["calcul",-10.694966613322913],["vic",-10.695120284422615],["terres",-10.695147706214534],["89",-10.695687153904268],["dimension",-10.69626056546237],["exceptionnel",-10.69642758535355],["Brunswick",-10.696538465915335],["collaborateur",-10.696618021303335],["Office",-10.696639568001562],["World",-10.696647140090883],["76",-10.6966684424156],["diffusion",-10.696698623204293],["animé",-10.697017286551901],["engager",-10.697149258490104],["fixe",-10.697307036366324],["Bourse",-10.698353392250077],["attirer",-10.699672828456176],["Ba",-10.700198446650198],["suivante",-10.700434770388842],["transformer",-10.701070986195688],["volant",-10.701827954403452],["cyber",-10.702505679650034],["réagir",-10.702603109912298],["accompli",-10.703185562920265],["évident",-10.703736680999542],["ko",-10.704037712431257],["couper",-10.704525969120768],["moderne",-10.704550488531952],["78",-10.705028629610151],["prenant",-10.705169383892493],["usager",-10.70581336008245],["Péc",-10.706757730825565],["Enfi",-10.70759250348061],["insta",-10.7079927396519],["restera",-10.708715440830371],["blessée",-10.708744562401254],["alheureuse",-10.709203357163442],["loyer",-10.71018228379711],["rénovation",-10.71090026718948],["résistance",-10.710906517088247],["problématique",-10.710907172929499],["éditeur",-10.710919690743605],["assistance",-10.710953365674431],["confrère",-10.711029915658674],["cycliste",-10.71107512606631],["To",-10.711321938410935],["Manche",-10.71150222327157],["essayé",-10.711536677313525],["concertation",-10.7119996921849],["juive",-10.712015328169748],["identifier",-10.712055968927721],["auxquel",-10.71208504102642],["suspension",-10.712591156216604],["sélectionneu",-10.71311347483589],["combattant",-10.713141095121813],["réunir",-10.713378704163988],["isait",-10.713428342063086],["publicité",-10.7141368148285],["touriste",-10.714303436593843],["CI",-10.71442243084551],["120",-10.714460192108632],["Île",-10.714546916460858],["ambassade",-10.71481645291928],["réclame",-10.715315375182705],["destin",-10.715662472601998],["retirer",-10.716021979832036],["moral",-10.716224772324692],["intervien",-10.71635541694811],["fourni",-10.71788173196531],["Charler",-10.718499939363948],["Interne",-10.71852782419068],["équipé",-10.719244587448507],["venant",-10.71946054925164],["inscription",-10.719973119021251],["ki",-10.720262336200616],["courte",-10.72031688383603],["interrogé",-10.720443364532425],["observe",-10.720637005198633],["AQ",-10.720675877349564],["conçu",-10.721146993193116],["seuil",-10.721205084567064],["républicain",-10.721387051732787],["Quel",-10.721530922237072],["73",-10.72261660740875],["prononcé",-10.722841416453615],["limité",-10.72290968599691],["prête",-10.723899883565071],["mann",-10.724547921923037],["Roy",-10.724597369608222],["hydro",-10.724864013059733],["soumis",-10.725243507540126],["NH",-10.725312092676582],["Vendredi",-10.725392413904544],["Jeudi",-10.72540455975765],["critère",-10.725415642297257],["importation",-10.725463947836104],["Lundi",-10.725504993011022],["symbolique",-10.725573611509304],["nourriture",-10.725659358153464],["alliance",-10.72572279512177],["escalade",-10.725794956540708],["Reste",-10.72604689014905],["Actuelle",-10.726050553146521],["gouvernementale",-10.726171115363066],["consultation",-10.72617477537192],["202",-10.726437823824288],["collège",-10.726600139746093],["courage",-10.726903051589002],["Elon",-10.727067388376547],["Sept",-10.728131721083244],["foulée",-10.728269667670716],["aimerai",-10.728308664393378],["marquée",-10.72908276503486],["oire",-10.730004480038115],["tuer",-10.730098001187624],["!»",-10.730662530781371],["contribuer",-10.733194811310703],["cha",-10.733784384581366],["commenté",-10.734205597798784],["semblai",-10.734501412518352],["préciser",-10.734747800708316],["informé",-10.734869314537741],["immédiat",-10.735551760903551],["revue",-10.736051534442385],["Tchad",-10.736130781015309],["annulé",-10.736451264345064],["disant",-10.736618938560621],["Peter",-10.737302698714611],["ôme",-10.737325679083703],["Déj",-10.737375858942258],["mont",-10.737481552854565],["allai",-10.737522253474415],["Art",-10.737946539068787],["tweet",-10.738328770643339],["cellule",-10.738700953497279],["manger",-10.739374087671724],["Constitution",-10.739700118619897],["Los",-10.739882424578406],["voudrai",-10.739977209388563],["Anderlecht",-10.74001726008919],["urbain",-10.74004444975167],["mécanique",-10.740098878762929],["bourgmestre",-10.740103022143877],["maritime",-10.740103543086086],["Pascal",-10.740182378485958],["bidjan",-10.74024436583097],["conversation",-10.740250271892533],["tournage",-10.74027151587952],["51",-10.740422865750556],["stockage",-10.740679965507944],["culte",-10.740903155568358],["info",-10.741176358552263],["disque",-10.74149529963847],["destinée",-10.741528541585064],["section",-10.741874249072243],["comédie",-10.742926827745631],["Thierr",-10.743083728023503],["musicale",-10.74319026181573],["excellente",-10.743437829119518],["erine",-10.743710532424462],["évoluer",-10.74515497711348],["luxe",-10.745546271056618],["garantir",-10.746571716449086],["56",-10.747480550908406],["attaquer",-10.74800877962293],["basé",-10.74836191944664],["libéral",-10.748902026509107],["dépend",-10.749059558333627],["ariat",-10.749733579712633],["future",-10.750484803817521],["imaginer",-10.751276472376123],["comédien",-10.751666366391685],["Nos",-10.751812969510617],["Adam",-10.75205207926242],["doté",-10.754309166253325],["Seule",-10.754851183099092],["rupture",-10.755023983538589],["Marvel",-10.7550273094271],["Pokémon",-10.755041853292063],["fonctionnalité",-10.75505053593362],["joueuse",-10.755075863031035],["procéder",-10.755081972682856],["chauffeur",-10.755119075542073],["mécanisme",-10.755141325628903],["parvenu",-10.755191579240972],["autoroute",-10.755294108736827],["Bureau",-10.755728038362664],["polémique",-10.755763513076031],["gène",-10.755803764999495],["68",-10.755819433809055],["illégale",-10.755975738830903],["psychologique",-10.75603252506803],["recueilli",-10.757231845257332],["repas",-10.757388086944474],["dépasse",-10.757933204312717],["Laval",-10.758018337140143],["Sports",-10.758859150425128],["originale",-10.759122687979408],["culturelle",-10.759415246808363],["énorm",-10.759888397936779],["matériau",-10.760121280022172],["bert",-10.760277870670958],["sûre",-10.761812924682499],["éventuel",-10.76288729489989],["morceau",-10.762967397053647],["Julien",-10.764027716315258],["organise",-10.764624714846565],["fa",-10.764814994493026],["95",-10.766101763238563],["confort",-10.766335302703371],["débats",-10.766340880470498],["occidentale",-10.766376242044348],["remplacé",-10.766870117032163],["Kev",-10.766899103665098],["Diable",-10.767537780484266],["exposé",-10.768092895807833],["bloqué",-10.768199804118614],["gagnant",-10.768528704110112],["palestinien",-10.76968326305128],["piscine",-10.77017519389251],["majoritaire",-10.770176192196649],["clinique",-10.770201430185192],["Britannique",-10.770221945005066],["locataire",-10.770393543485971],["communiste",-10.770446522327152],["clientèle",-10.77064139999249],["médiatique",-10.771106047907733],["espagnol",-10.77113840907042],["forfait",-10.77137645145804],["88",-10.77151272919754],["termine",-10.77162625593699],["retenu",-10.771918400402983],["Quatr",-10.772594219860125],["québécoise",-10.775032917542088],["exploit",-10.77728724956481],["paraît",-10.778504899702906],["sombre",-10.77879170817698],["Game",-10.779417890381323],["llah",-10.779927572633731],["ramene",-10.780014630870891],["releve",-10.780759997447829],["limitée",-10.781237745263603],["libéré",-10.781356001200013],["ignore",-10.78137219614259],["dépassé",-10.781531800218211],["remplacer",-10.781571359440088],["isolé",-10.781575293139941],["attaqué",-10.781618863875615],["Mer",-10.781822380221413],["réchauffe",-10.782519435519387],["remerci",-10.783025641349901],["triste",-10.783045254161472],["italien",-10.785154413868646],["fraude",-10.785200611081095],["boîte",-10.785221615245305],["thématique",-10.785339021998107],["69",-10.78552930099927],["administratif",-10.785559813928916],["spectaculaire",-10.785559815244406],["internaute",-10.7855599127172],["chanteuse",-10.785565104350471],["hospitalier",-10.785565906455545],["évacuation",-10.78556601379061],["banlieue",-10.785566207878713],["complété",-10.785706758560952],["sélectionné",-10.785706984710256],["emblématique",-10.785972875794231],["représentation",-10.785990977893235],["Alliance",-10.786045834876374],["savent",-10.786137092824106],["abonnement",-10.78680344290278],["actionnaire",-10.786819034474927],["phrase",-10.786972818410621],["engin",-10.787378735108767],["usines",-10.78748014680626],["terminée",-10.787521443086222],["ferai",-10.788362620957862],["former",-10.788694609730502],["entente",-10.788948518023233],["imanche",-10.788970197110215],["fondation",-10.789014604640087],["pensé",-10.78906438945689],["digne",-10.789438457714773],["Groupe",-10.790862913168603],["menu",-10.792631802712094],["mentionné",-10.7926646003853],["nouveauté",-10.792923216507717],["flamme",-10.792996533268543],["mo",-10.793227515347482],["entité",-10.793424141721019],["abattu",-10.794042241969656],["fan",-10.794494787337815],["lisab",-10.795582145855565],["Albert",-10.795753211242431],["partielle",-10.796033123016862],["congé",-10.796730022232737],["livrer",-10.796847317041692],["biais",-10.799134414001784],["compagnon",-10.799222734088001],["DF",-10.799355819815947],["vidéos",-10.79942628912822],["rire",-10.799479647269388],["durer",-10.799904161187051],["Guilla",-10.800511278408003],["aperçu",-10.80064594003628],["regrette",-10.801124256415752],["symptôme",-10.801184797288766],["hectare",-10.80118479910044],["comparaison",-10.801186090224128],["indispensable",-10.801187444637382],["boulevard",-10.80120409837653],["coéquipier",-10.801229679627998],["horaire",-10.801236316534986],["condamnation",-10.801293778229411],["colonel",-10.801351694049746],["incontournable",-10.801564538100717],["sévère",-10.801693424865135],["Fête",-10.801868261297919],["apprentissage",-10.801877639416727],["vaccinal",-10.802060778923721],["illustre",-10.802495994044994],["repos",-10.80305455101846],["promet",-10.803288080268954],["dessin",-10.804213321821269],["autochtone",-10.804253833044754],["Strasbourg",-10.804678021517038],["provenance",-10.804785896806546],["familial",-10.80507825292005],["déplacer",-10.805759239021853],["signer",-10.80577632031564],["solaire",-10.80617460641395],["aidé",-10.80667031056919],["pèse",-10.806711792191912],["casque",-10.807074440602326],["reconnaîtr",-10.807208969235361],["GM",-10.80815989250245],["oré",-10.808269682622866],["exclu",-10.808349150516815],["situe",-10.809467805391709],["66",-10.809629104706186],["Berlin",-10.810655280057478],["pensée",-10.810946558594429],["inédite",-10.810978247863027],["PG",-10.811721407118583],["allé",-10.811803197399236],["haine",-10.812813635260078],["stream",-10.812982555492875],["ienne",-10.813260144006179],["format",-10.813952667782136],["obligé",-10.814996276891081],["occident",-10.815357655937127],["provenan",-10.816129596696172],["Sénat",-10.816183343185816],["profession",-10.816368782429779],["basée",-10.816502416026708],["RD",-10.81657761010244],["coordinat",-10.816855547553939],["déficit",-10.816982194492747],["Organisation",-10.81706169330152],["compatriote",-10.817063179854298],["autonome",-10.817072628364013],["Journée",-10.817084126159838],["légende",-10.817097733724715],["Heureuse",-10.817221587240255],["ique",-10.81722788311314],["avère",-10.817281367632777],["intelligence",-10.817456894750435],["trophée",-10.8174612530727],["protocole",-10.81751103671045],["filière",-10.817606615369886],["Aussi",-10.817659068957932],["transformé",-10.817797499373444],["décédée",-10.818129981441666],["accompagne",-10.81844483094936],["envoi",-10.818589941758233],["barrage",-10.818914305229166],["paysage",-10.820070824459668],["coureur",-10.820254207790136],["aménagement",-10.820283333815151],["flambée",-10.82031795403798],["parfaite",-10.820457032489887],["ry",-10.820569769219373],["pompe",-10.821078451541036],["virtuelle",-10.82157370643895],["ékin",-10.821602047339114],["International",-10.82307859123598],["souffle",-10.823743917022213],["18h",-10.824679014928545],["angle",-10.825018938817408],["reprend",-10.826053528071157],["stress",-10.826656842791877],["correspond",-10.827294581196625],["engagée",-10.827314754498651],["couvert",-10.828297720606095],["apprécié",-10.83024289349768],["opu",-10.830903268995959],["Moi",-10.831518610743512],["Bi",-10.83173268594198],["représenté",-10.832157119860554],["196",-10.832564409131109],["convention",-10.832936445453864],["rece",-10.83295567282876],["Trude",-10.832982196108462],["HD",-10.833074749445892],["chapitre",-10.833186941389865],["téléphonique",-10.833190275947484],["interprète",-10.833221651786383],["carbone",-10.833233219699885],["hasard",-10.833254525867158],["équivalent",-10.833350205887033],["adhésion",-10.833447804927467],["caché",-10.833621287522751],["imposée",-10.83385761763976],["Carlo",-10.834311116626377],["observé",-10.834995320749599],["archive",-10.835134771288846],["Cath",-10.835942185524994],["inspiré",-10.836205585486987],["sénégalais",-10.836734378195562],["richesse",-10.83676140919001],["consacré",-10.836892529980414],["démission",-10.839011385805106],["rempli",-10.83979442584547],["coûte",-10.84158728488371],["ordinaire",-10.84178960779451],["TP",-10.841882425184751],["Asi",-10.841905368307026],["chère",-10.842559643698984],["Dan",-10.842978934585652],["absent",-10.843259132197689],["électoral",-10.843577244287848],["doi",-10.846602388252759],["tranche",-10.847061529343616],["mentionne",-10.847186575416547],["consiste",-10.847412477238523],["plaque",-10.848492466162774],["Portuga",-10.849258911940275],["Benjamin",-10.849580315459908],["concrète",-10.849583118060648],["fabrication",-10.849585072286168],["Toronto",-10.849596231896419],["écologiste",-10.849603816248353],["implication",-10.849615872714807],["révélation",-10.849635930325704],["vant",-10.849815866142702],["terrible",-10.84992732921167],["susceptible",-10.850389311252746],["affiché",-10.850406391272255],["foot",-10.850593754675593],["entraîne",-10.850772298851133],["assaut",-10.850777789300395],["faciliter",-10.85106885305601],["pur",-10.851181473091764],["Blanc",-10.85132480713152],["championne",-10.851608393206348],["Real",-10.852234378313575],["néerlandais",-10.852486706906035],["suffisant",-10.8527709441614],["fumée",-10.853214117452714],["encourager",-10.853247493336724],["mention",-10.853290416936709],["déroulé",-10.854135802409996],["nfin",-10.855478099503447],["suscité",-10.855888153869602],["beauté",-10.85632599703793],["occuper",-10.856896272490523],["verra",-10.85750838362953],["sentir",-10.858811704536517],["toucher",-10.859222713681053],["etsk",-10.859572240329246],["fermée",-10.860170182063488],["placée",-10.860225886973758],["Quelle",-10.860239076733219],["Serie",-10.860757421076773],["désert",-10.860853727136098],["déposer",-10.861123083408511],["religieu",-10.862390166860337],["reproche",-10.862591673869538],["connaiss",-10.863022682910316],["fiscale",-10.864849882457834],["web",-10.865084619951595],["nécessite",-10.865837629098337],["logistique",-10.866248271676934],["attitude",-10.866249412411658],["scandale",-10.866395240205607],["SSD",-10.866429618286748],["vocation",-10.866566555541961],["ressemble",-10.866733071749211],["dinar",-10.866812887072815],["titulaire",-10.867095117157001],["98",-10.867178702422887],["Alger",-10.86725999254793],["riches",-10.867607799953847],["Congo",-10.867868594960974],["abandonné",-10.867989614231512],["conséquent",-10.86877710954861],["Fin",-10.869200098143352],["Monde",-10.869397488547776],["appliquer",-10.869507430151549],["Born",-10.869599158981238],["encontre",-10.870034648828764],["religieuse",-10.870055686560175],["expertise",-10.870291513697921],["chaussée",-10.870522164486857],["ite",-10.871407406141984],["plante",-10.871812782113965],["rock",-10.873152626160191],["location",-10.87318023266927],["épaule",-10.873408967397733],["Ceci",-10.873479635373341],["per",-10.874355552129378],["urs",-10.87596159375424],["bilité",-10.876869458747638],["indépendante",-10.877159429692012],["transporté",-10.877858014999315],["Lui",-10.879998679301092],["atteinte",-10.880891549761953],["abus",-10.881473845011847],["major",-10.881871105003825],["lauréat",-10.882016958028563],["cong",-10.882031082951453],["parallèle",-10.883196122889768],["Jonathan",-10.883202551396568],["sensibilisation",-10.883211937781635],["Académi",-10.883228034573238],["casting",-10.883439058744532],["plaidé",-10.883500567472595],["Maritime",-10.883677371229144],["recrutement",-10.883706268182468],["vedette",-10.88372184735671],["gen",-10.883853384319284],["global",-10.884136211853528],["règne",-10.884150872090537],["CAN",-10.884307143598395],["fossile",-10.88440082807276],["â",-10.884970792555972],["Front",-10.885287392395622],["Sein",-10.885291723534229],["favori",-10.885577624633983],["critiqué",-10.885822244326619],["retraité",-10.887093283518583],["réalise",-10.887634013102339],["ède",-10.887711404788899],["refuse",-10.887743963780391],["Rappel",-10.887953338673462],["ï",-10.888415342758435],["rachat",-10.889889761847346],["conserver",-10.889909001053041],["composée",-10.889961565238599],["contrainte",-10.890300974676148],["survenu",-10.890921517115721],["écho",-10.890949371154512],["im",-10.891689954130387],["Inde",-10.891768200888908],["trente",-10.891847768295214],["clos",-10.891849529257396],["franchi",-10.894286208249646],["cycle",-10.89516485379252],["relance",-10.896373063086397],["écouter",-10.896904668571992],["ger",-10.897586609664888],["Jack",-10.8986218172832],["libérer",-10.900095805189094],["océan",-10.900358777495324],["levé",-10.900369162625946],["vulnérable",-10.90043748678161],["sécheresse",-10.900439374973608],["technologique",-10.900440692194785],["occupant",-10.90044337247691],["collectivité",-10.900443390590684],["mélange",-10.900444294955603],["trajet",-10.90044856855122],["exécution",-10.900448927545384],["prolongation",-10.900451185146196],["dangereuse",-10.900453241547215],["échappé",-10.900495772289148],["recommandé",-10.900743155143001],["jury",-10.900749724574975],["covid",-10.900806638499931],["LE",-10.90091948368454],["fierté",-10.900920021928542],["développeur",-10.900969725665918],["Monsieur",-10.90099040543605],["onnant",-10.901507443573095],["revers",-10.90179333340172],["brigade",-10.903310010772145],["conquête",-10.903343134807983],["conclur",-10.903364927061283],["estiment",-10.904333227555377],["Boris",-10.904720899474771],["parlement",-10.905025261954606],["testé",-10.906049733652342],["Sam",-10.90676856094833],["Tim",-10.9068194333528],["jambe",-10.907767504813787],["satisfait",-10.909541557445053],["Bay",-10.90996770635585],["intégré",-10.910133433162589],["conscient",-10.910773500822987],["appartenan",-10.911700651287687],["défendu",-10.91171764529392],["conjoint",-10.91208636112507],["potentielle",-10.912458085929341],["by",-10.912552223440507],["fiction",-10.912685202897888],["Bel",-10.913369149219061],["noire",-10.914607275633255],["tournant",-10.91550186842684],["éclairage",-10.91674596025717],["iranien",-10.917502931351805],["médical",-10.917716174379219],["catalogue",-10.917981417674163],["hypothèse",-10.917981861483153],["annulation",-10.918008073105398],["modification",-10.918039892877282],["motif",-10.918044029996334],["destruction",-10.918096403269592],["prisonnier",-10.918102603396592],["agréable",-10.918126124543253],["raconter",-10.918128932238826],["Donbas",-10.918142835002232],["Street",-10.918772129821537],["désigné",-10.918853875286665],["poisson",-10.919471267060533],["échapper",-10.920222578080875],["modifier",-10.920223180080683],["valoi",-10.920315176876755],["signal",-10.920384677016745],["touchée",-10.920459505653067],["promouv",-10.920807981830038],["contrôler",-10.923308712212553],["puissante",-10.923466110253017],["brut",-10.924535739858662],["Bleus",-10.924684602903843],["rejet",-10.92559411263095],["intervenu",-10.92598406828352],["pape",-10.926880696676783],["BA",-10.927668017244219],["ira",-10.927707262414229],["char",-10.928102851970252],["favoriser",-10.928306448911922],["évolue",-10.928310049362352],["étion",-10.928796035177477],["pain",-10.929312108057392],["dépasser",-10.930414699757836],["87",-10.930914048038463],["Toulon",-10.931030895184001],["Gi",-10.931096489955868],["support",-10.932996614830707],["Cert",-10.933757529086149],["ume",-10.93426842041066],["arabes",-10.934279540612854],["déposée",-10.934656893844988],["AS",-10.935057827818332],["noté",-10.93538085249535],["compatible",-10.935762288491969],["budgétaire",-10.935838489071458],["référendum",-10.93583849334053],["vétéran",-10.935841843169374],["intermédiaire",-10.935877692023404],["animateur",-10.935878677879451],["Roland",-10.935880833771167],["Directeur",-10.935888624641375],["sensibiliser",-10.93594614331013],["céréale",-10.936437936091728],["pousse",-10.936658366705558],["manœuvre",-10.936931276861106],["Mard",-10.937356623117303],["coupure",-10.93738998147791],["Gaza",-10.937616012922046],["passionné",-10.937786457267801],["qualifier",-10.937895239773667],["Hél",-10.938117644548885],["citoyenne",-10.939801392777305],["interroge",-10.940130244875462],["Savoi",-10.94041582860482],["zér",-10.940722732051535],["françaises",-10.940859333937356],["tombée",-10.940942605789761],["96",-10.941015577572678],["tenant",-10.941291016677106],["apparaît",-10.941304647822914],["modeste",-10.94133119452642],["musulman",-10.941537385042682],["nuage",-10.941781549226087],["violente",-10.942323150960531],["libér",-10.94298124550967],["participe",-10.943224104798816],["disputé",-10.943424175353453],["disputer",-10.943515720324331],["Loire",-10.943646395070486],["rebelle",-10.944258565840435],["multi",-10.945584486875072],["nvironnement",-10.945949355348407],["GO",-10.945977413112292],["onze",-10.946228747438182],["monté",-10.949081363957077],["pension",-10.949740649264783],["ressort",-10.951760662536353],["ney",-10.952037444307006],["étendr",-10.952093536206043],["sapeur",-10.952870653814049],["apprête",-10.952969127980266],["classé",-10.953577181367695],["bouteille",-10.953654162659817],["mentale",-10.953897255787151],["météo",-10.953949099199829],["exige",-10.953997471623149],["horreur",-10.954025082235233],["ores",-10.954065085976598],["Smith",-10.9540797021611],["chronique",-10.954094313583454],["incertitude",-10.954164448957329],["urbaine",-10.95420676521941],["alentour",-10.954218409472738],["organe",-10.954235298364882],["Light",-10.954247831199382],["Rie",-10.95429798345593],["borne",-10.954367727811785],["réputation",-10.954421933344989],["technicien",-10.954477217883651],["Rem",-10.954567769796364],["fusillade",-10.954571321698943],["routier",-10.954833158482083],["raté",-10.954934330532748],["RÉ",-10.955100737552105],["finit",-10.955208982353323],["suicide",-10.955296986994341],["habitué",-10.956057236733345],["artisan",-10.956434627734073],["PME",-10.956569958322195],["recevo",-10.956824724419628],["cinquant",-10.9571761293438],["aîné",-10.957390132692241],["71",-10.957707997008614],["prétend",-10.958469010757293],["visiter",-10.959216013866087],["imagine",-10.959903578940235],["Gu",-10.960150229644507],["essaie",-10.960273430667268],["vertu",-10.960752004286466],["profite",-10.96243365481152],["permanent",-10.964148251285948],["‘’",-10.964739118591442],["ge",-10.964818353083501],["condamne",-10.965106199057155],["individuelle",-10.965556233873365],["révolution",-10.966115433693014],["Côt",-10.966507784378944],["mette",-10.967144132848047],["Roger",-10.968619036826054],["voisine",-10.969129353283257],["habituelle",-10.96915977117369],["ambitieu",-10.969195142813042],["créée",-10.969638561494847],["aissant",-10.971693592776818],["tech",-10.971806698202453],["musicien",-10.97207619723761],["regarde",-10.972401378196192],["pollution",-10.972539830743225],["régler",-10.972543305082658],["résoudr",-10.97255200047196],["Ibrahim",-10.972556452995768],["dirige",-10.972588423089999],["bancaire",-10.97260987124028],["observation",-10.972635601147216],["programmation",-10.9726554266649],["standard",-10.972690572326446],["septième",-10.972952781159453],["composition",-10.973072951006476],["Galax",-10.973265702120202],["vallée",-10.973299913411548],["accessoire",-10.973370604966622],["Josep",-10.97359930732721],["dispute",-10.973815325339174],["abandonner",-10.973966715864199],["lecteur",-10.974111411999665],["CGT",-10.97440281965281],["voyai",-10.974403011735037],["viande",-10.974922941623552],["Certaine",-10.97539198787598],["porteur",-10.975529431593532],["Fabien",-10.9757614390523],["!\"",-10.975773188353976],["folle",-10.977234101867657],["réservé",-10.979686921396777],["souligner",-10.979993790491116],["Mathi",-10.980453608699927],["Sah",-10.980699623535449],["emprunt",-10.981128470212811],["nez",-10.981512504908132],["entrevue",-10.982368707377915],["existent",-10.983195039399146],["frein",-10.9835657203177],["froide",-10.98380989518336],["paraîtr",-10.984101971385975],["Xavi",-10.984316924725187],["japonais",-10.984345016602],["justifier",-10.984858909542755],["parvien",-10.986113512550357],["design",-10.986277584221606],["concernée",-10.987246229727065],["fui",-10.987947424622963],["réception",-10.988223145065646],["tranquille",-10.988938540047336],["clés",-10.989260269870348],["handicap",-10.989590801966798],["Borde",-10.989853677045097],["ercredi",-10.990284034534833],["rayon",-10.990945256223531],["baptisé",-10.991205895052833],["possession",-10.991385954464153],["infirmière",-10.991407931236859],["hélicoptère",-10.991411328035653],["Juif",-10.991411576866943],["pourcentage",-10.991412713955164],["défunt",-10.991415037510158],["éliminatoire",-10.991420226790773],["réparation",-10.991480691782256],["correctionnel",-10.9915032929061],["renouvelable",-10.991553596638402],["comble",-10.991580011405945],["conception",-10.99159999262124],["bassin",-10.99161603083587],["Arabi",-10.991627498005874],["observateur",-10.991627524375396],["firme",-10.991642103884962],["souveraineté",-10.991796949949642],["Alpha",-10.991837539709753],["empêché",-10.991859733137666],["arbitre",-10.99218798567854],["orientation",-10.99262639420009],["préserve",-10.992789465283686],["huile",-10.992830821007978],["incarne",-10.993227466911762],["comptai",-10.993501488615989],["ification",-10.993746229605021],["original",-10.995280356279197],["disai",-10.995563713915665],["rice",-10.997459811408516],["commandant",-10.997799556347882],["rebond",-10.998001671677958],["soixant",-10.998987233242895],["Royal",-10.999018885745079],["couvre",-10.999799459826876],["serre",-11.000480071217776],["hospitalisé",-11.000708828885726],["visa",-11.001016504392087],["salem",-11.001398534876328],["télétravail",-11.001545196227418],["entraîner",-11.001877401607768],["veiller",-11.00195914327732],["cercle",-11.002165086399788],["caisse",-11.002330781289],["stricte",-11.002945860538011],["pénale",-11.003085491701004],["ligue",-11.003629119456557],["Va",-11.004076868690522],["rejeté",-11.004851820066119],["Ontari",-11.005632614588015],["oît",-11.00657683090464],["IB",-11.007461526806205],["nombr",-11.00803656259398],["initial",-11.008552870798619],["détien",-11.008738720853927],["West",-11.009059539708876],["accompagnement",-11.009558542142365],["Républicain",-11.010637531824841],["religion",-11.01063811387446],["hospitalisation",-11.010640490364585],["économiste",-11.010641181757348],["discrimination",-11.010643313402863],["doléance",-11.010644714951544],["créateur",-11.010645717623888],["consécutive",-11.010677667089322],["bière",-11.010706167045004],["défilé",-11.0107736858791],["courrier",-11.0108828632655],["dramatique",-11.010920398085094],["invitation",-11.010965910924067],["Oscar",-11.011101244381852],["colonne",-11.011169621949621],["descente",-11.011514333633418],["turc",-11.01151751761688],["promo",-11.011747079216105],["fameu",-11.012191046258451],["tuée",-11.012338735588717],["longueur",-11.012510175262662],["approuvé",-11.013513880331496],["sensation",-11.013740235112826],["Harr",-11.013825847633306],["kilo",-11.013850439246276],["gestes",-11.014008159984773],["viendra",-11.01441717174572],["comporte",-11.014654731848177],["syndicale",-11.01551581565031],["diffusée",-11.016127460056632],["ado",-11.016145605778165],["arrête",-11.01640057473427],["pot",-11.01658449012861],["remonter",-11.0168593609015],["Tra",-11.016885352718903],["mark",-11.01694435319053],["casse",-11.017034584415406],["Stan",-11.017418524565551],["79",-11.01760821251312],["commercia",-11.017705577028552],["Dami",-11.017971585645508],["appuye",-11.018539547337395],["volé",-11.02007392966346],["préparé",-11.020861687192195],["for",-11.021500884498876],["soulign",-11.022460075637396],["couloir",-11.023308796260013],["Né",-11.02339979346963],["confirmer",-11.023504784598448],["épression",-11.024283842617649],["Soit",-11.024411627547202],["multiplie",-11.02473461479175],["Plan",-11.024851559219416],["allemande",-11.025202097076907],["CD",-11.026072264758847],["Mexi",-11.028140277340508],["couche",-11.029062085524977],["marocaine",-11.029649672674607],["ivoirien",-11.029791601547583],["politicien",-11.029796447374203],["apport",-11.02982313072088],["diplomate",-11.030245362654393],["prédécesseur",-11.030245362677567],["Théâtre",-11.030245687054187],["obstacle",-11.030245929928444],["métropole",-11.030248226519802],["souffrance",-11.030250813522336],["refuge",-11.03025633282579],["célébrer",-11.030278823341158],["fréquence",-11.030285186739418],["Suite",-11.03036760793092],["capteur",-11.030372529327465],["détaille",-11.030484848586626],["estimation",-11.030488390231877],["stationnement",-11.03050999540611],["ingénieur",-11.030616596811086],["Carolin",-11.030743835380946],["audition",-11.030787572516491],["Loi",-11.030865043753229],["René",-11.03093205386897],["61",-11.030942901804464],["portefeuille",-11.031056983479235],["assisté",-11.031415964718189],["fibre",-11.031880863841717],["lement",-11.031906001590139],["Rh",-11.032021128855687],["solde",-11.032064069591872],["prenai",-11.032528624982845],["Ki",-11.033581274543419],["istes",-11.034839284139087],["alarme",-11.035100468713424],["géré",-11.035352970416007],["composant",-11.035651791448114],["relancer",-11.036621710839633],["Environ",-11.0370729516865],["bref",-11.037339242201902],["rement",-11.037370299686236],["bruxelloise",-11.037389706620989],["Games",-11.037403217831187],["excellen",-11.037771005791814],["gamer",-11.038004892745771],["line",-11.038174164669893],["oux",-11.038897833173207],["bouton",-11.039113711996928],["Andro",-11.039364263468924],["Liban",-11.039576613471029],["oiseau",-11.040253728852417],["TF1",-11.040287778081684],["convoi",-11.041239780188544],["bo",-11.041437490021057],["soignant",-11.041478268029678],["Didi",-11.041486583736454],["ray",-11.041960820752328],["assis",-11.042146483054497],["tagne",-11.042260026491055],["Transport",-11.04276425129774],["lois",-11.043348653897446],["Prime",-11.043398586040048],["grandi",-11.043763161538832],["protégé",-11.04381164979051],["vaudois",-11.04387907413589],["engagements",-11.043945708229934],["Nova",-11.044185362898862],["our",-11.044204776405437],["feron",-11.044446564049743],["Day",-11.04447406905743],["Bell",-11.044847918449168],["intéressante",-11.04538098701769],["ND",-11.045533802627505],["montr",-11.04726476671919],["terrasse",-11.047696378345641],["monument",-11.047849153268375],["hâte",-11.048180290406275],["ong",-11.048197937963069],["Rome",-11.048935664371285],["délais",-11.049896549807212],["ourir",-11.049990096414827],["AIP",-11.049991277390731],["environnementale",-11.049993179609745],["Général",-11.05000495788261],["Taïwan",-11.050245977863183],["métro",-11.050253925269894],["filiale",-11.050267376374745],["équipage",-11.0502955083423],["compléter",-11.050296319571753],["projection",-11.050300048544658],["ouvrier",-11.050394569626299],["célébration",-11.050429027713236],["tablette",-11.050447254084387],["félicité",-11.050532760541326],["exclusive",-11.05067820298581],["Milan",-11.050709689906158],["Bois",-11.050756505744797],["algérienne",-11.0512088118886],["négocier",-11.051213738092041],["portrait",-11.051467492574623],["expulsion",-11.051624054962717],["bronze",-11.051661008637216],["Nanc",-11.05192955886667],["av",-11.052513882236783],["oppose",-11.052888713984732],["soviétique",-11.052896180396743],["réfléchir",-11.05306549834918],["Chris",-11.05316601656177],["écurité",-11.053552238686644],["positionne",-11.053615214763658],["900",-11.053623988507841],["Eh",-11.05366484751445],["Désor",-11.053727310529977],["King",-11.053893766324208],["combattre",-11.05393827001234],["concentrer",-11.054388305421625],["carton",-11.054644385521314],["vigilan",-11.054968049221841],["idéal",-11.055048112730306],["fonctionner",-11.055787988650163],["saisie",-11.056431478161716],["provien",-11.056647270500083],["Colombie",-11.057484234935847],["représenter",-11.058271436938998],["bourg",-11.058518089378413],["féminine",-11.059622750637505],["jou",-11.059667470644046],["profonde",-11.060056661801784],["affecté",-11.061490713952441],["repoussé",-11.063995800075856],["CF",-11.06423126922771],["singe",-11.064608039326433],["cisme",-11.065223947665661],["étrange",-11.065934340258938],["cent",-11.066062754242878],["Frank",-11.066311107400795],["Park",-11.066391148759738],["Tes",-11.067240172110244],["dirigée",-11.067446659702732],["étendue",-11.069742882325395],["accent",-11.069771239799957],["isjordanie",-11.069886842825426],["présidentiel",-11.069924536604752],["craign",-11.07038161562926],["significative",-11.07065352697994],["Interrogé",-11.07065359788436],["évidence",-11.070653746219984],["pétrolier",-11.070653754073371],["Culture",-11.070653843746316],["Flandre",-11.070654007100273],["collision",-11.070654775126854],["mythique",-11.070655326955022],["éhéra",-11.070655764466327],["Djoko",-11.070656991391488],["investigation",-11.070659044420088],["basket",-11.070686700032057],["Jordan",-11.070716834725978],["Finland",-11.070770365566961],["conseillère",-11.070827071384592],["bénéficiaire",-11.070857833860384],["démontré",-11.070949383616718],["loisir",-11.071094895202917],["chèque",-11.07115883552542],["poche",-11.07126007299585],["théorie",-11.07127639417067],["illustration",-11.07127693684017],["irection",-11.071289219192812],["littérature",-11.071762973552683],["mett",-11.072709032226054],["ning",-11.072718230759927],["criminelle",-11.07275246101738],["Florid",-11.073472226916731],["architecture",-11.074282268078356],["Contrai",-11.074569743193992],["gouvernan",-11.075081741728777],["royale",-11.075373413513704],["feuille",-11.075735180871224],["dévoile",-11.075848505628155],["marquant",-11.07601536029359],["fondé",-11.076724089002127],["unanim",-11.077337147783046],["revendique",-11.077435747784985],["dominé",-11.078190738148578],["déçu",-11.07830399675319],["accepte",-11.080644614450263],["tique",-11.081508683896772],["tribune",-11.081675276116954],["onald",-11.08200409398558],["Allemand",-11.08209659470635],["migration",-11.08228262577699],["84",-11.083251266564716],["ordonné",-11.084554938307667],["flotte",-11.085203379633077],["évoquer",-11.085351771483346],["provinciale",-11.08615337295107],["5G",-11.086859525915903],["impressionnant",-11.087369534959029],["compt",-11.088563167269474],["trait",-11.088739823766744],["81",-11.089124888631098],["trou",-11.089310292806323],["suscite",-11.089847624587975],["unis",-11.090208557910834],["recrue",-11.090690264764834],["poo",-11.091258802128674],["proportion",-11.091329303477636],["compagne",-11.09140213378788],["fraîche",-11.0914868592618],["indicateur",-11.091487011520899],["législation",-11.091487015727862],["Concern",-11.091487203680803],["tactique",-11.091492329541408],["élimination",-11.091509679264238],["Ousman",-11.091522278486302],["magazine",-11.091523336797994],["sénateur",-11.09152740535039],["perturbation",-11.091564129052625],["massif",-11.091569432714492],["vestiaire",-11.091569604820856],["Netanyah",-11.09157017610126],["amitié",-11.09166785016127],["reproché",-11.09171545869992],["district",-11.091725844832048],["édifice",-11.091738594564921],["Sea",-11.09177058241092],["Espagnol",-11.091821904631537],["évoquant",-11.092039010904168],["évolué",-11.092188922136593],["agenda",-11.092424113230337],["Pi",-11.092662909322346],["requis",-11.093052309559123],["extrait",-11.093111164234838],["Serge",-11.093199370876157],["trio",-11.093586430742198],["déploiement",-11.093640431654311],["survie",-11.093736679628847],["phare",-11.093754061504228],["orange",-11.094172939803622],["Bou",-11.094367768595337],["craint",-11.094482944435592],["massacre",-11.094532103040974],["enregistrée",-11.095096680619857],["morale",-11.095429975021965],["Monc",-11.095800935339232],["fuir",-11.096884934335284],["monte",-11.097390239233132],["artificielle",-11.097560455508994],["souverain",-11.098123083080388],["provoque",-11.098232989710647],["Claire",-11.098315826368632],["observer",-11.098409733403411],["conjointe",-11.098590162246872],["appartien",-11.09859258069178],["aming",-11.099002653470624],["dollar",-11.099486239078924],["spécialisée",-11.099665965143355],["market",-11.100223241016353],["Argentine",-11.10058859515331],["bouche",-11.100753411078662],["bat",-11.101179739854299],["tara",-11.1024314144241],["asile",-11.1031183179881],["contacté",-11.104189780000276],["légitime",-11.104216879338383],["basse",-11.10439397065198],["Kon",-11.104440442616195],["Free",-11.10477870858313],["nage",-11.10548564986938],["baril",-11.105693037481227],["Gille",-11.10610251911731],["Mac",-11.107076790194437],["arc",-11.10812228632818],["diriger",-11.108421836174283],["évacué",-11.10927284082345],["réplique",-11.109279698025919],["retenue",-11.10970465751872],["Meta",-11.111101724354857],["espagnole",-11.111408265812647],["canon",-11.11154309381941],["amené",-11.11241813165052],["·",-11.11276345499757],["Conakry",-11.112763459013975],["Championnat",-11.112763748765113],["routière",-11.112772243679657],["Histoire",-11.112772896238237],["Sophi",-11.112775861226432],["fabricant",-11.112776196404525],["allure",-11.112779973945631],["motivation",-11.112791108645172],["héroïne",-11.11279689468182],["manager",-11.112813118121634],["Musée",-11.112829379913403],["connexion",-11.11284626264298],["inacceptable",-11.112875200545393],["Sarah",-11.112878887193261],["vendeur",-11.112945717944003],["accélérer",-11.112986254681218],["Leclerc",-11.113000004241583],["diminué",-11.113020097646142],["mixte",-11.11307757102577],["gérant",-11.113109516200854],["favoris",-11.113312978801819],["Bénin",-11.113715965050448],["signale",-11.113767550207129],["Diall",-11.113971385292105],["faille",-11.115425903836085],["Nationale",-11.115492143222884],["kg",-11.115594152993262],["nationalité",-11.116054036187375],["Nada",-11.116331043860349],["tire",-11.11786001443547],["gel",-11.1180350217955],["Belle",-11.119454245106832],["74",-11.119566409309742],["TT",-11.119840838384897],["Alexi",-11.120649445892326],["Code",-11.121203696573913],["recharge",-11.121275663978267],["accordée",-11.12160122039051],["fortune",-11.122231385285279],["renouvelle",-11.122389383689718],["pointé",-11.122649946356635],["abandon",-11.122729887459105],["suivie",-11.12464210687808],["oubli",-11.12466313760411],["verge",-11.124716722609058],["130",-11.124793442020826],["contribue",-11.125025867656243],["ouffer",-11.125427657207412],["start",-11.12604777126504],["saut",-11.127127368657773],["union",-11.127835291527216],["rond",-11.127960620743085],["manquer",-11.12813581499814],["développe",-11.12874739831766],["llement",-11.129981301506376],["emporté",-11.130368564179166],["mine",-11.130390398714436],["individuel",-11.1306622680058],["Jan",-11.130906992240913],["solo",-11.131637292895405],["réservation",-11.13207350155981],["joli",-11.13207528357842],["retiré",-11.132130568919035],["délit",-11.132194834285412],["refuser",-11.132689112819957],["détermin",-11.133591332377698],["accus",-11.133980113487437],["fiche",-11.134043141190478],["bain",-11.134071382198758],["™",-11.134502585432353],["déception",-11.134502592798533],["thermique",-11.134509381553002],["revendication",-11.134509569168722],["satellite",-11.134510019382517],["bâton",-11.134510533149262],["introducti",-11.134528009283095],["isolement",-11.13456656809551],["superbe",-11.134586107045205],["Namur",-11.134681263210677],["cimetière",-11.134706685350054],["ordonnance",-11.134796630269447],["rappeur",-11.134895642958092],["monstre",-11.134997348763527],["Chacun",-11.135119421382402],["BFM",-11.135374752377423],["milliardaire",-11.135386618978771],["Texa",-11.13559402158069],["Croix",-11.135924205218394],["bête",-11.136073022252909],["acheteur",-11.136173436503185],["inconnu",-11.13666623759535],["traiter",-11.137419217943952],["prévien",-11.137659781322022],["dan",-11.138181565871077],["3D",-11.138232705431484],["prouver",-11.138419739512557],["Hu",-11.138743836570198],["Édu",-11.139005409220285],["copie",-11.139344518932418],["offran",-11.13981723900396],["adressé",-11.140946299505224],["oblige",-11.141101748841798],["Ar",-11.14121276638648],["remet",-11.141969310120675],["FM",-11.142401883738392],["instrument",-11.142427502558792],["bénéficie",-11.14275055403975],["ourage",-11.143116798898763],["pérer",-11.143117382625627],["entretenu",-11.143300041969013],["Bill",-11.144006458863178],["cou",-11.144387865865717],["remarquer",-11.144430811665442],["contien",-11.144621593891227],["ha",-11.145644889694196],["considérée",-11.14633536717477],["traduit",-11.146725267978983],["Stade",-11.14688778294526],["ulent",-11.147660709237558],["radicale",-11.147932334166624],["débuter",-11.148179113123568],["maintenu",-11.14837484888795],["stable",-11.148592191353744],["Fi",-11.14901089454237],["éclat",-11.149061256106133],["consulte",-11.149620980661979],["oreille",-11.149767036254389],["clou",-11.149851196659773],["pop",-11.14993572050668],["way",-11.149994608454003],["transféré",-11.150824246699647],["Ray",-11.151206070951787],["indiqu",-11.15223134611453],["igny",-11.152388054822122],["DH",-11.152624546278917],["subir",-11.1532076369562],["mandant",-11.153485043599325],["plonge",-11.154485117968928],["réunis",-11.15509519603959],["interdir",-11.155683909868678],["masculin",-11.156209544112022],["parisien",-11.15624790064929],["photographe",-11.156724807846674],["Afghan",-11.156725066003284],["fragile",-11.156725493007798],["atmosphère",-11.156725877634289],["trésor",-11.156726237948666],["conviction",-11.156727406096746],["remarquable",-11.15672912440963],["Dijon",-11.156730079249291],["Tokyo",-11.156738279474265],["prioritaire",-11.156740310665826],["héritage",-11.156759071097781],["séparatiste",-11.156759189329911],["embauche",-11.156760724434323],["meeting",-11.156768864176733],["considération",-11.156773282440561],["avertissement",-11.156980784462785],["censé",-11.156988905196016],["littéraire",-11.156994589590134],["adverse",-11.157051153459639],["douard",-11.157077252964221],["motion",-11.157096328697444],["Togo",-11.157178472644581],["finaliste",-11.157363765347943],["abordable",-11.157382352719129],["hébergement",-11.157546389728136],["Karim",-11.157731798889294],["correspondant",-11.158144673526325],["wi",-11.158186987640093],["prolonger",-11.15829805108427],["disparaîtr",-11.158316098923466],["III",-11.158591240117582],["Ho",-11.158591333675057],["bouger",-11.159222611354693],["orage",-11.159494691256315],["satisfaction",-11.159745043936459],["poursuiv",-11.16030774402935],["grimper",-11.1606888974013],["insulte",-11.160733570635593],["garanti",-11.160934462884667],["Mike",-11.160940614224295],["«»",-11.16129367066215],["étudier",-11.161377567538679],["Raphaël",-11.162591801098785],["helem",-11.163226884527104],["justifie",-11.163433434113266],["gan",-11.16402191677972],["lier",-11.164811288404277],["sprint",-11.165203818379888],["repartir",-11.165598134149638],["repose",-11.166261433091698],["83",-11.16665011276014],["implique",-11.166795681191893],["stage",-11.167228903717328],["patiente",-11.167263034009189],["350",-11.167286119738275],["suiv",-11.167300822895625],["dédiée",-11.168783558954898],["transaction",-11.169124604721992],["staff",-11.169256128860827],["VR",-11.169372982883166],["continuité",-11.169870530694084],["obten",-11.170001969105261],["Champions",-11.170138644413582],["conserve",-11.170612706363789],["Xi",-11.172854128388003],["Économi",-11.173141619687522],["audio",-11.173166854888645],["Dame",-11.17318483443015],["avoue",-11.174541257869738],["09",-11.174778422325096],["communale",-11.175031917341661],["min",-11.175100294268196],["oublié",-11.175421199457537],["territoriale",-11.176116861898139],["inclu",-11.17657466419977],["publier",-11.176620482927852],["Chef",-11.17667207040193],["spatiale",-11.176914859323619],["introduit",-11.178406661474423],["adolescente",-11.178765589540795],["musical",-11.179136111748448],["régulier",-11.17920724678718],["inférieur",-11.179318738944414],["Cinq",-11.179388789833082],["Communauté",-11.179452132226196],["cosmétique",-11.17945219264639],["suppression",-11.179454195959266],["Standard",-11.179454310673114],["caractéristique",-11.179454501398627],["variable",-11.179464035820708],["Ministre",-11.179469871248612],["Sahara",-11.17946989523118],["confrontation",-11.17947775857974],["préalable",-11.179483762934458],["cerveau",-11.179488106113526],["craindr",-11.179523773379202],["compromis",-11.179535274841452],["monétaire",-11.179540185361988],["ralentissement",-11.17958305997328],["concentration",-11.179630882553324],["PI",-11.179642553395915],["diagnostic",-11.17972166117399],["ransparenc",-11.18002237909758],["peinture",-11.180139461071374],["italienne",-11.180178143823293],["chasseur",-11.180536878282446],["uniforme",-11.180638342227198],["flamand",-11.180936508833318],["processeur",-11.180997369984372],["décrocher",-11.181338373114494],["remercier",-11.181543413317696],["populari",-11.181850064499192],["évaluer",-11.182026266758614],["hybride",-11.183094560000173],["istan",-11.183206884079887],["docteur",-11.183926807218967],["enthousiasme",-11.184585531977515],["Franc",-11.184929197316702],["portai",-11.185330299948195],["pouvo",-11.185405538609402],["05",-11.186002836036641],["traverser",-11.186104842479207],["affirma",-11.186305220040495],["maternelle",-11.186732282547467],["tait",-11.187534281286432],["accorder",-11.187555188229641],["trône",-11.18760477122417],["provincial",-11.187830060786055],["Californie",-11.18845039428718],["saisir",-11.188594609515857],["attache",-11.189215699006622],["revienne",-11.189246049253509],["sable",-11.18966436184936],["supprimer",-11.190183685412904],["IA",-11.190463811364321],["Julie",-11.190986488595106],["convoqué",-11.19200084601235],["provoquer",-11.192587327471836],["Tribuna",-11.192887976467244],["MONT",-11.193847020469851],["compare",-11.19475495691518],["médecine",-11.196417011700497],["aille",-11.197513400365011],["clôture",-11.197931201346588],["Mb",-11.198110507866275],["Féli",-11.198668216889635],["jouai",-11.199260902329407],["sentier",-11.199692785021679],["SAN",-11.199937691696645],["validé",-11.199991113336523],["entamé",-11.200577723267873],["éliminé",-11.200913189111166],["déclenché",-11.201119565351007],["cri",-11.20134917026737],["immersi",-11.202087694444154],["hésion",-11.202382375135047],["consécutif",-11.20270789443203],["junior",-11.20270817310738],["cardiaque",-11.202708223361142],["explosif",-11.202708876132203],["cliché",-11.20271120509554],["disponibilité",-11.202711931592308],["Hollywood",-11.202713551659542],["relatif",-11.202713998522375],["ressortissant",-11.202726642426974],["inspiration",-11.202730719925349],["Cheikh",-11.20274363555312],["fantastique",-11.202756519386382],["catholique",-11.202784761160697],["Atlantique",-11.202785410175917],["Azur",-11.202793427601652],["tunnel",-11.202793611166376],["Département",-11.202804026814192],["systématique",-11.202805194089349],["exploration",-11.202822029261194],["Golf",-11.202822581052796],["promoteur",-11.20283621867099],["écosystème",-11.202873986936778],["semestre",-11.202894178206398],["Kher",-11.202969445482431],["blocage",-11.203152572906232],["Anvers",-11.20318588128195],["terrestre",-11.203545488981087],["déplacé",-11.203701219537475],["chaise",-11.20375731267462],["leçon",-11.203830228539546],["néo",-11.204242232369417],["Sky",-11.204414156770241],["revu",-11.204472480168588],["afficher",-11.204821945410416],["accompagnée",-11.204835445644953],["communiquer",-11.204899858629016],["82",-11.205530434728763],["Nup",-11.205809723775126],["annuler",-11.205868702011388],["notion",-11.20619292879702],["guère",-11.207202145557249],["témoign",-11.207310865547766],["compliquée",-11.207950956685021],["Isabell",-11.208307291894888],["Ouat",-11.208402242954662],["circuler",-11.209167289229482],["concentre",-11.209335841028802],["nier",-11.209828830538514],["connais",-11.210140688204547],["roy",-11.210771747346667],["disposer",-11.21202242955269],["Berne",-11.21277109021225],["hor",-11.2131952730319],["Fall",-11.213436930592138],["VA",-11.213604294123996],["rendue",-11.213692015758784],["toile",-11.214437048747108],["Dona",-11.214977004699787],["exercer",-11.216368891058943],["arros",-11.21763041449763],["duré",-11.217790276031376],["Group",-11.21856607303527],["TVA",-11.218786438083532],["86",-11.219191600710772],["Wall",-11.219328349718221],["partagée",-11.219387106997438],["épargne",-11.219517964024767],["utter",-11.219771774996985],["dirai",-11.219788861518852],["ateur",-11.220284419578853],["joint",-11.220587663716795],["apprécie",-11.220892693948729],["franche",-11.221863774943172],["mondi",-11.222867507182647],["assurant",-11.222884652289405],["GR",-11.223015195963466],["vieille",-11.223614774233706],["sexe",-11.224857345263933],["Début",-11.224913670031942],["détaillé",-11.225744917631683],["célébré",-11.226178247927239],["honnête",-11.226209193455304],["encourage",-11.226237925771576],["show",-11.226477985666525],["chaussure",-11.22651837542019],["Horizon",-11.226525697992871],["sincère",-11.226534330614758],["raciste",-11.226539497142108],["complémentaire",-11.226549960175532],["rédaction",-11.22655343881128],["SNCF",-11.226688304800202],["détruir",-11.22680021119163],["charbon",-11.22686351021778],["NFT",-11.226906183284969],["intervenant",-11.22697684869841],["poing",-11.22702140169547],["Clément",-11.227054241292747],["vérifier",-11.227207045123311],["Bruge",-11.227212886844494],["Ahmed",-11.227269815047986],["progresser",-11.227321868801473],["paquet",-11.227344957489363],["météorologique",-11.227430500260345],["inutile",-11.227629749395456],["fiscal",-11.227713147725435],["soulage",-11.227830409212931],["passeport",-11.227910617664085],["chaude",-11.228000379765664],["Jay",-11.228036329159048],["Ti",-11.228099020921594],["inconnue",-11.228142031278221],["Top",-11.228368050980142],["Rabat",-11.228478066225044],["tnik",-11.228518493363334],["coupé",-11.228832005720978],["Liver",-11.22968032304275],["Chels",-11.229877116809533],["enregistrement",-11.230006090450006],["Green",-11.23022203467764],["pure",-11.23049105964582],["Place",-11.23063549778931],["habituel",-11.230996720416496],["capture",-11.231557533546264],["dispos",-11.231668191270762],["aborder",-11.231729534368585],["roues",-11.231848455731615],["empreinte",-11.23210920609153],["abrite",-11.232368917746314],["doré",-11.233557714648285],["recommande",-11.234632262589198],["toi",-11.234731017242417],["liquide",-11.235168928318535],["Pr",-11.235844936425064],["Steven",-11.236262557731877],["WT",-11.236279368748013],["Évi",-11.236961160290873],["Bob",-11.237347127405352],["Dix",-11.238513787918924],["effectue",-11.238592834291637],["Gil",-11.2390196841349],["félicite",-11.23917247899792],["God",-11.23918609432103],["Dio",-11.23927147885829],["dois",-11.240474128349975],["han",-11.240759658516065],["nulle",-11.241104055319338],["franchir",-11.241431628394619],["allée",-11.241586423872278],["news",-11.242579856101008],["qualifiée",-11.244640576705343],["traversé",-11.2448354355441],["résolu",-11.246336780670557],["dépit",-11.246337857456751],["hésite",-11.24684264296458],["franco",-11.24690811388745],["achant",-11.24708809907105],["F1",-11.24748315307835],["industrielle",-11.248332970819881],["ressent",-11.249494124814703],["fêter",-11.250102504859575],["résumé",-11.250165209075304],["conservé",-11.250166542123237],["permettrai",-11.250208264097376],["guinéen",-11.250520447415976],["Egypt",-11.250579724608746],["wer",-11.250596051674238],["certificat",-11.250774273425911],["remarqué",-11.25082281891539],["Rwanda",-11.250907804804264],["Sûre",-11.250907924962636],["reflète",-11.25091041810977],["interprétation",-11.250913502455951],["dégradation",-11.250916668232389],["riverain",-11.2509195154105],["précipitation",-11.25093038891328],["complicité",-11.25093249422936],["interlocuteur",-11.25093443043258],["précaution",-11.250934446999125],["minorité",-11.250937541540996],["costume",-11.250957288590413],["cannabi",-11.250958211002963],["munition",-11.250995592267156],["ruine",-11.251036148559278],["fabriqué",-11.25107909177169],["peintre",-11.251086947729119],["bourse",-11.251095820463386],["FIFA",-11.251153205500394],["regrett",-11.251228642858276],["ain",-11.251402936162481],["parisienne",-11.251454182472896],["Sénégalais",-11.251484187351124],["Mamadou",-11.25148538860168],["arts",-11.251603101238874],["diplôme",-11.251637940054755],["créant",-11.251856416019542],["soumise",-11.25190296185778],["Tech",-11.25213387406438],["visité",-11.25218912097024],["Marocain",-11.252393566896197],["explorer",-11.252407128314289],["LED",-11.252436838897392],["sauvegarde",-11.252535282567242],["illégal",-11.252686926328824],["19h",-11.252751001577256],["connecter",-11.252834688511065],["prière",-11.252937314794735],["retrouvée",-11.253128217132875],["Ving",-11.253165528447244],["Lapi",-11.253524658907253],["configuration",-11.253559068834011],["Radio",-11.25369879332029],["dépendance",-11.253711225116826],["Irland",-11.25372147155025],["Cond",-11.254022201258014],["contrôlé",-11.254042325615604],["étudiante",-11.254139051582598],["orum",-11.254470809589733],["robot",-11.254939810098112],["élue",-11.255170103391523],["couvrir",-11.255544641118584],["réserver",-11.255591962489511],["conformé",-11.256387740982525],["lieutenant",-11.256453959478023],["Big",-11.256854921177197],["arrivai",-11.256910032554543],["pin",-11.257048142438038],["alloir",-11.25743150122015],["Sala",-11.25757850830613],["baissé",-11.257701996358165],["grosses",-11.2583617204912],["graphique",-11.259055054700465],["cherch",-11.259574834746969],["japonaise",-11.26013810998472],["Long",-11.260495261078535],["circule",-11.260618525628828],["Gand",-11.260818046453718],["Six",-11.261588962459783],["oigner",-11.261779345751892],["grandir",-11.262127933313641],["restée",-11.262257450859805],["Tant",-11.262611169288697],["connectée",-11.263005097515437],["Alexand",-11.26329774146469],["présentant",-11.263470794510642],["environnemental",-11.263854006671757],["Finale",-11.265475803944746],["pren",-11.265764077572719],["optique",-11.265829147252255],["adaptée",-11.266431650765474],["natal",-11.266622993866118],["opérationnel",-11.26668379412996],["jugée",-11.266808477378044],["remplir",-11.2683394781346],["occupée",-11.268501997399408],["Fer",-11.269297546673405],["nié",-11.26964980136972],["alerté",-11.270085117486776],["intime",-11.27051243010504],["parlant",-11.27061124711288],["recev",-11.271116498887485],["assume",-11.272323771962746],["Luka",-11.272486407984376],["Time",-11.27332931787767],["sports",-11.273675797406034],["voyant",-11.273686830251728],["royal",-11.274825497238977],["photographie",-11.275692679231797],["Méditerranée",-11.275907662047462],["Gouvernement",-11.275907662109148],["tragédie",-11.275907662180773],["protagoniste",-11.275907682074134],["Résultat",-11.275907689382374],["interruption",-11.275907877563455],["administrateur",-11.275908015002168],["répète",-11.275909248840927],["Autorité",-11.275911630424813],["prudence",-11.275913367576319],["considérer",-11.27591960734207],["abstention",-11.275928478850894],["Andrew",-11.275938183985014],["Nigeria",-11.275959305686204],["ticket",-11.275964241226667],["domestique",-11.275990235256042],["centime",-11.275990236739952],["répétition",-11.276020498341342],["tapis",-11.276046297663372],["esthétique",-11.276082395849565],["parrainage",-11.276257369556589],["denrée",-11.276261254779788],["OLED",-11.276276633880357],["séparé",-11.276328157960243],["pack",-11.276463206230757],["intrigue",-11.276592438188114],["contenant",-11.276613062319292],["José",-11.27663497442523],["connaisse",-11.276729032785049],["barrière",-11.276789395722043],["transmission",-11.2769002332979],["sauvetage",-11.276914612940436],["joindr",-11.276951161341485],["senti",-11.277061471740108],["anglaise",-11.277205570773514],["riv",-11.278014918047363],["patrouille",-11.278165707938523],["répété",-11.278193531447926],["puce",-11.278297728802416],["anticipe",-11.27835689149272],["piège",-11.279192291332881],["précéde",-11.279308275601359],["Christin",-11.28043807628435],["aît",-11.280991876699504],["Ryan",-11.281446864344726],["retourné",-11.281923878300297],["Angel",-11.282183730983803],["ium",-11.282382243110288],["attire",-11.282927523851718],["Mark",-11.282952211186961],["Moussa",-11.283263712830149],["enveloppe",-11.28348452902031],["inaugur",-11.283542018325019],["répondant",-11.283555967720593],["Casab",-11.284570606328726],["opéré",-11.28459230028859],["USA",-11.284599828526307],["manifester",-11.28520517278317],["Camar",-11.285323879276302],["97",-11.285584291276288],["marine",-11.285714534807546],["roulant",-11.285794489821134],["méga",-11.286373114104777],["spéci",-11.286383990090563],["résister",-11.286716954260399],["ège",-11.286723937679442],["demandeur",-11.286856634252382],["blé",-11.287225453072084],["appé",-11.28751177692176],["salariale",-11.287821548509154],["COP",-11.287935917606656],["enchère",-11.288208915858215],["four",-11.288859453609376],["maximale",-11.28895225409892],["respecté",-11.289043321612168],["gramme",-11.289168798979203],["lanca",-11.290475867157737],["mm",-11.290969184845842],["Mat",-11.290973973279948],["lâche",-11.291426494838953],["patien",-11.292350829484018],["pair",-11.292824101515045],["Fort",-11.2928319907181],["vre",-11.29315756795683],["Pék",-11.29492327797793],["stand",-11.296075245445547],["mensonge",-11.296284816794028],["Thi",-11.29680849469729],["assemblement",-11.297041731584741],["percuté",-11.297149043241204],["Mohammed",-11.297193479933618],["racine",-11.29725961977969],["Rio",-11.297862182753049],["mail",-11.29810273812573],["Mauric",-11.298210337973504],["ford",-11.298218836119265],["adoptée",-11.298382613206789],["constituer",-11.29846380121864],["Capitale",-11.299948964652863],["Orient",-11.300068509551402],["Européen",-11.301051643937647],["œuf",-11.301365318798926],["formidable",-11.301548689837706],["Égypt",-11.30154871032278],["substance",-11.301548771245862],["décisive",-11.30154929478175],["élevage",-11.30154964021827],["bulletin",-11.301560195598586],["schéma",-11.301561099995478],["cryptomonnaie",-11.301566600097683],["gestionnaire",-11.301579816073058],["apparence",-11.301580178877693],["burkinab",-11.301582808404753],["bagage",-11.30158321488846],["Provenc",-11.301594844305669],["interpellation",-11.301602239139429],["récupération",-11.30162447329953],["mosquée",-11.301652531145523],["variol",-11.30188861623265],["Rafael",-11.30188984706529],["Jacob",-11.301929846710125],["roquette",-11.301979615025509],["déploré",-11.302150873066655],["Château",-11.302184472233915],["chauffage",-11.302226672423638],["proie",-11.302229874517758],["Cong",-11.302275464316459],["folie",-11.302289356786497],["Armée",-11.302291359790711],["inspection",-11.302404498727967],["chapeau",-11.302476200192931],["ailier",-11.302584658581273],["grippe",-11.302612798514136],["aube",-11.302976224919721],["antenne",-11.303091266951238],["fière",-11.30315480649891],["AL",-11.303588228653968],["empire",-11.304504276488961],["dougou",-11.304725440785248],["justifié",-11.304781378080811],["deviendra",-11.30481265405514],["rassemblé",-11.304892625874876],["RE",-11.304912602218812],["brutale",-11.305349700408918],["Bertra",-11.305521972957653],["agira",-11.305717464023722],["fameuse",-11.305787714837802],["Maire",-11.30595065684826],["réconcili",-11.306328310387444],["prêter",-11.306760492784125],["ob",-11.306958512060339],["encadre",-11.307027395552208],["Maria",-11.307327458716426],["Pix",-11.307556633883253],["Pog",-11.307575323378497],["rival",-11.3076024630798],["emplacement",-11.307977545890111],["survenue",-11.308117331825189],["gamin",-11.30900561863487],["anonyme",-11.309141989002786],["rondelle",-11.309687475480402],["agriculteurs",-11.310008367882087],["Char",-11.31043455479384],["compteur",-11.31059105147353],["occidental",-11.310831314445808],["envisager",-11.311101932033989],["restai",-11.31204156515771],["prononcer",-11.312164307581105],["cite",-11.312862973841533],["Yanni",-11.313465978499154],["report",-11.313611330685537],["leaders",-11.313809546597042],["Marcel",-11.313811478128189],["progress",-11.313830781288733],["Algérien",-11.313866940060404],["bloquer",-11.31436138216408],["Roi",-11.314773809858934],["auf",-11.315183319416384],["rendement",-11.315257660980667],["Juste",-11.316064100967873],["amont",-11.316227383956832],["construite",-11.317095398053738],["habite",-11.317514309119549],["Boy",-11.31831071191835],["èle",-11.318496746988622],["Bour",-11.318776743283927],["manga",-11.319034434688684],["balance",-11.321236204744752],["amako",-11.321339797960976],["gère",-11.322215859670106],["plaide",-11.322267199735348],["neutrali",-11.322267520286392],["Rock",-11.322421452867902],["3000",-11.322469094814542],["échanger",-11.323077902904277],["étroite",-11.323430571157921],["applique",-11.32417331807834],["demand",-11.324661685701129],["impliqua",-11.325063593996006],["vivai",-11.325457063043308],["oix",-11.325799264667229],["médic",-11.326456781505529],["réduite",-11.326847975648132],["envoie",-11.326885510717482],["pêcheur",-11.327032243625128],["révision",-11.327421610400084],["compréhension",-11.32756192258536],["Abdoul",-11.327603300953852],["juridiction",-11.327864477162063],["ferroviaire",-11.327864477170028],["poignée",-11.327864672594485],["Élysée",-11.327870713755171],["carbure",-11.327871681578896],["activiste",-11.327904112166737],["provocation",-11.327939943065129],["rémunération",-11.327957373454659],["penalty",-11.328034528209882],["allégation",-11.328046216348525],["Master",-11.328132408948967],["récession",-11.328170099434313],["iranienne",-11.328605458775035],["colline",-11.32861723074606],["ador",-11.328741098597915],["comté",-11.328877772230605],["Hôtel",-11.329003357971072],["dérive",-11.329004431365838],["synonyme",-11.329152260832494],["ransition",-11.329552592642536],["blague",-11.3297229765022],["multiplié",-11.32980791750435],["éclaté",-11.329840508408761],["touchant",-11.33050040735892],["Drummondvill",-11.330549032054437],["tester",-11.330849861394908],["explose",-11.331196358880014],["ber",-11.33139948380283],["École",-11.331535544876889],["CNR",-11.331847646305345],["Watch",-11.332101346602677],["installe",-11.332412057359358],["gravit",-11.332964567357367],["mérité",-11.33305077759126],["maîtriser",-11.333213921854234],["demandai",-11.333252682287661],["buteur",-11.333253724324774],["Africain",-11.334552037700321],["Abou",-11.334650617334484],["Mada",-11.335099124661092],["Met",-11.335294048626901],["déterminé",-11.336887339641176],["Pa",-11.336971196113868],["Lille",-11.337085127151957],["rassurer",-11.337456610097622],["saint",-11.337772634441569],["inédit",-11.338527919187623],["valu",-11.338974719337244],["PL",-11.339717865434743],["Souven",-11.34062697925061],["assumer",-11.341669606350735],["tissu",-11.342498247988505],["essais",-11.342574216994736],["robe",-11.342894490188332],["emporter",-11.343567134456055],["verser",-11.343569591873024],["Anti",-11.343596462919677],["surprenant",-11.344169896196188],["rendra",-11.344349435143299],["Steve",-11.344412669844969],["concern",-11.345127386978247],["maîtrise",-11.345969605555519],["déployée",-11.346083240930128],["estivale",-11.346193180195462],["amassé",-11.346513171107855],["citer",-11.346790804385837],["Pri",-11.34794126924352],["5000",-11.34794479498418],["Dia",-11.348228728857897],["poule",-11.34826530189035],["()",-11.348416334318967],["Natha",-11.34843259511236],["Ver",-11.349106150452211],["Mary",-11.349271993894959],["AGE",-11.349313749047393],["riz",-11.349392396347337],["Marco",-11.349988426665112],["historien",-11.350249164695432],["présentent",-11.350300938120494],["Victor",-11.350304436831571],["ogo",-11.35045907323901],["JO",-11.350881649093967],["défensive",-11.351001102689802],["Mille",-11.351240749019775],["papa",-11.352239812871549],["Antho",-11.352518552252894],["voler",-11.352691617699355],["bou",-11.352773941210783],["analyser",-11.352802106964134],["Anna",-11.353057385987599],["chrono",-11.353981111884261],["gardé",-11.354612160602358],["exigé",-11.354891639827706],["cortège",-11.354891658319321],["légendaire",-11.354892005581103],["canicule",-11.354892591843747],["Ndiaye",-11.354903146373298],["vétérinaire",-11.35490553361524],["Confédération",-11.354923631264775],["royaume",-11.354932551756685],["marchandise",-11.354939322765311],["Gérald",-11.354939675878123],["meurtrier",-11.354946608232915],["exclusion",-11.354968449401062],["trailer",-11.354978219152631],["géopolitique",-11.35498459203661],["féministe",-11.354999226828872],["langage",-11.355027050395492],["Orange",-11.355068612129017],["douzaine",-11.355082704013062],["plafond",-11.355098483286456],["110",-11.355104379553616],["Commerce",-11.355135043895643],["ambulance",-11.355159322741422],["remboursement",-11.355211540017352],["Météo",-11.35537703651494],["Kenya",-11.35540006277485],["délibéré",-11.355459768315798],["spécialité",-11.355580239416133],["échéance",-11.356210167202976],["otage",-11.356263513938421],["renoncer",-11.356462031996333],["DN",-11.356518422658418],["supermarché",-11.356765965799285],["triple",-11.35777923784984],["vend",-11.35788454141691],["cote",-11.358058276093491],["ouvain",-11.358106910722],["souhaitai",-11.358630194556994],["aboutir",-11.358807314875408],["Gen",-11.359438250345429],["préfér",-11.359556295244944],["oublie",-11.359832184078906],["malien",-11.35992630997018],["amene",-11.36014166312649],["olsonar",-11.36043954207784],["libérale",-11.36080846136428],["CO2",-11.361048948803287],["Américaine",-11.361087551315475],["92",-11.361308493294517],["roule",-11.362345613104775],["ab",-11.362540309622007],["éco",-11.362567634389716],["Francis",-11.3629873356301],["sobri",-11.364054786961841],["transmis",-11.364187124288975],["privilégié",-11.364382582788156],["entouré",-11.364603180249386],["ini",-11.364847423069904],["125",-11.364940055840407],["hi",-11.365018382036801],["croi",-11.365053974872122],["agénaire",-11.36553844640172],["salue",-11.365923613696934],["amie",-11.366925182305504],["adore",-11.367098791898744],["regret",-11.367371564071926],["Messi",-11.367964845084765],["prêté",-11.369779300522323],["mouri",-11.369970756219626],["Pel",-11.370032559302063],["pharmacie",-11.37027175390649],["Thor",-11.370655334674563],["versé",-11.370974230650013],["patin",-11.371641623754856],["02",-11.372210118606919],["appuie",-11.372358140118378],["domine",-11.372641504984536],["Ferra",-11.373213084503332],["positions",-11.373594372412324],["vain",-11.373670660923462],["nazis",-11.37426959958846],["effectuée",-11.3748621226066],["tilisant",-11.375629468550462],["Khark",-11.375775803964299],["circul",-11.375789494355988],["sénégalaise",-11.37655345702778],["thèse",-11.378129086303021],["débarque",-11.378694945283106],["réaliste",-11.378893578135761],["inspire",-11.379389733626134],["soutenue",-11.379441769337024],["stein",-11.379539409200191],["Ky",-11.380159480776326],["planche",-11.380555030802835],["publie",-11.381772636911979],["acquér",-11.381998392451287],["chut",-11.382142552415235],["Telegra",-11.382309919003914],["quarant",-11.382595295134402],["scénariste",-11.382669283501883],["permanence",-11.38266958523797],["intègre",-11.382670192321909],["fleuve",-11.382670270337194],["Israélien",-11.382670926373311],["Crimée",-11.382673641778016],["distributeur",-11.38267527488453],["humoriste",-11.382676097510245],["Panther",-11.382680969351188],["Montpelli",-11.38268423917403],["Grégo",-11.382686791006044],["Charlotte",-11.38269700268226],["boulot",-11.382705846110035],["préventive",-11.382711758971439],["indemnité",-11.382747673427648],["agresseur",-11.382749691508685],["panier",-11.382794203256443],["trottinette",-11.382822717060595],["tabac",-11.382884723269967],["exigeant",-11.382890919967435],["trajectoire",-11.382913012120538],["Mor",-11.382915684357386],["institut",-11.38312501842125],["Munich",-11.383185154285409],["pédagogique",-11.383248432216472],["Second",-11.383343111843502],["câble",-11.383452339465368],["inégalité",-11.383548708254242],["examiner",-11.38370221542021],["semi",-11.38371631160005],["cheval",-11.383746579473321],["mbledo",-11.38386716163144],["sonore",-11.383899567441429],["réacteur",-11.383925592322562],["souffrir",-11.384144948758632],["galerie",-11.38456993905557],["expérimenté",-11.384683441246361],["rêver",-11.38479853165034],["Arnau",-11.384803628484386],["définition",-11.385060722312796],["panique",-11.385366122951226],["plate",-11.385513493055972],["examiné",-11.385915045923374],["grille",-11.38604928355187],["manette",-11.38639199116241],["inclus",-11.38643567039243],["détour",-11.386512283439743],["composer",-11.386549998118495],["onsieur",-11.386638578330826],["animée",-11.38687406549761],["Hama",-11.386909783025791],["quai",-11.386913783244536],["cédé",-11.386983062481274],["fondée",-11.387203699625974],["magi",-11.387312747499859],["soulevé",-11.387414589444816],["devr",-11.38743417726824],["rive",-11.387575824860859],["Trembla",-11.38762296257483],["urnes",-11.388090432601109],["absolue",-11.388768394668306],["dépens",-11.389159382251355],["terminal",-11.389514143137689],["diminuer",-11.38951537147891],["remplacement",-11.389810826638918],["qualifie",-11.390154983217437],["Do",-11.390199651692427],["1500",-11.390308590969392],["Prince",-11.390313466472174],["exploite",-11.390657599606646],["intensif",-11.39109556370661],["live",-11.39229470737077],["transforme",-11.392444382830679],["Fed",-11.392548108899161],["verte",-11.392586000107626],["cesser",-11.392764121995915],["restant",-11.39282807562763],["apparten",-11.392910549066492],["attribué",-11.39323915513909],["SE",-11.393578680199926],["démarrer",-11.39395361286612],["Barc",-11.394064600394634],["genevois",-11.394111908481214],["Brad",-11.394129555132213],["résilien",-11.394476808869271],["Marchand",-11.394658155611587],["EO",-11.394751536459543],["ombien",-11.395432359237923],["montage",-11.39571495531276],["connecté",-11.39582164425749],["connaissai",-11.398311806506886],["meuble",-11.398834518861943],["93",-11.399378365462667],["averse",-11.399813853419126],["fusion",-11.400296825921004],["dévoiler",-11.400541575523704],["Mur",-11.401220427745168],["riez",-11.40171244387079],["résidentiel",-11.402191335263236],["perçu",-11.402439953296385],["correcte",-11.402700662610624],["accept",-11.40280778384726],["virtuel",-11.403111869312639],["180",-11.403239064926574],["machines",-11.40404794882808],["appelée",-11.404949940635834],["consacrée",-11.404987614619943],["Lac",-11.405048873838147],["bu",-11.405668511995628],["écrite",-11.405994936105465],["festiv",-11.406370599349694],["lice",-11.406667773592318],["urgent",-11.40768868941822],["ov",-11.407896395834861],["erez",-11.408438234781874],["glisse",-11.409332343333583],["Ya",-11.409874517110705],["Bal",-11.410503577927681],["imant",-11.410723715122579],["coréen",-11.410818187555861],["Hor",-11.411086752517049],["dignit",-11.41118495647309],["mutation",-11.411231406106202],["´",-11.411240710538241],["contraste",-11.411240970701604],["pelouse",-11.411241366182992],["inscriv",-11.41124636292118],["épicerie",-11.411250901289195],["gazoduc",-11.411258081813479],["accroît",-11.411278012271593],["accélération",-11.411279751879508],["randonnée",-11.411283274120407],["complexi",-11.411305708659913],["liaison",-11.41131074137406],["protestation",-11.411351249482506],["Homme",-11.411354771882966],["posture",-11.411406094886877],["Anglais",-11.41142954021179],["pavillon",-11.41143056860555],["inématographique",-11.411500813290136],["herbe",-11.411620149820184],["recruté",-11.41163961433298],["diminution",-11.411682641732337],["requête",-11.411875512749734],["Adrien",-11.411962171342898],["variété",-11.41196836035577],["orchestre",-11.41203362846749],["éthique",-11.412119342794442],["distinction",-11.41218528600352],["écouteur",-11.412359640758464],["job",-11.412399461253893],["GP",-11.412852687261308],["incapable",-11.412956940470774],["Ghan",-11.413120264402622],["turque",-11.41327625876347],["convenu",-11.413443353551916],["break",-11.413455960332797],["cyclable",-11.413731837290772],["pens",-11.413814572517648],["cage",-11.414073968183967],["bleue",-11.41423574269625],["jeté",-11.414469892319598],["faiblesse",-11.414977440969084],["entent",-11.414997449239799],["?\"",-11.415010838409875],["Spu",-11.415021621023715],["ama",-11.415327665698035],["Benz",-11.415768424911441],["Aviv",-11.416034010197468],["altitude",-11.416174275160127],["déploy",-11.41631729920664],["distribué",-11.416865042285085],["insécurité",-11.417477013086895],["comprenne",-11.417562919714232],["And",-11.417801364076803],["commente",-11.417981944658994],["dévoilée",-11.418532973827567],["can",-11.418728278090509],["rapproche",-11.4190451884343],["Ka",-11.419390242371541],["modifié",-11.419538727878226],["réclamé",-11.419856052017888],["sollicité",-11.420937486778376],["04",-11.421161744637232],["Rousse",-11.421401793750121],["arrêtée",-11.42158040706975],["gri",-11.422797587367528],["nommée",-11.422912808427736],["extérieure",-11.423169761320088],["Miss",-11.424916941698443],["fréquent",-11.425303657326323],["renforcé",-11.425499385062],["My",-11.425581541472086],["mobiliser",-11.425676626794612],["tendre",-11.425796266666081],["Ex",-11.425799500633019],["mortel",-11.426066542810123],["91",-11.426963356117955],["Africa",-11.427335066046371],["Unite",-11.427522074218299],["apparente",-11.427931950727999],["fur",-11.428279887147188],["chao",-11.428442619576533],["marcher",-11.428882177144175],["ustin",-11.429072749574686],["vins",-11.429482561545878],["socio",-11.430052683026195],["enlevé",-11.430878859905311],["amène",-11.431729917701675],["alement",-11.432007422879778],["Bout",-11.432007748706345],["posée",-11.432090871098985],["obtien",-11.432531943181779],["déroulée",-11.433270574828526],["rage",-11.43348743169434],["Far",-11.433810229467149],["réside",-11.433955129858687],["Bang",-11.435344301872263],["confirmée",-11.435948947032538],["opposer",-11.436808496483554],["priori",-11.437309176312057],["suisses",-11.437568624031247],["visuel",-11.437623207511562],["précieu",-11.437633172591173],["Concr",-11.437725070955313],["arcè",-11.437730915746366],["rentré",-11.437731130600582],["admet",-11.437775476075657],["confiée",-11.437915100513196],["amuse",-11.438230186285693],["PT",-11.438249083664502],["serveur",-11.438891433369646],["Trop",-11.439132267132388],["idéale",-11.439530685083184],["BB",-11.439666867009564],["abordé",-11.440542915259757],["intérim",-11.440584047355864],["Burund",-11.440624369754659],["raisonnable",-11.440636161321146],["révéler",-11.440652476123066],["artifice",-11.440652483251496],["Église",-11.440652599608315],["psychologue",-11.440652761492924],["America",-11.440654579523605],["homicide",-11.440654883234778],["créature",-11.440656841008554],["définitif",-11.440658782580089],["téléviseur",-11.440665642654213],["diesel",-11.440671963139476],["Moyen",-11.440672877489607],["CEDEA",-11.44067352625225],["catastrophique",-11.44071221683312],["injection",-11.440716533309468],["façade",-11.440720617378785],["pilier",-11.440767211086508],["progressiste",-11.440772419075056],["Final",-11.440843497363819],["inévitable",-11.440844070632071],["virage",-11.440919423122336],["Hugh",-11.44099150682608],["manifesté",-11.441075362555049],["Global",-11.441088310862105],["inculpé",-11.441137835503358],["Titan",-11.441144334299723],["arrivant",-11.441288269121387],["rembourser",-11.441299147172497],["Romain",-11.441557278143176],["suspens",-11.441688803269283],["charte",-11.44169319689388],["renverser",-11.441859291187258],["Space",-11.441882316223053],["nourrir",-11.442354444526131],["cherché",-11.442446254005707],["assiste",-11.442492544927333],["boucle",-11.442688293758236],["malaise",-11.44273591258221],["Énergie",-11.442743654202557],["merci",-11.442749939334067],["slogan",-11.443378331030607],["épou",-11.444044308241264],["redonner",-11.444543560963542],["insoumis",-11.44460767027481],["ralentir",-11.44556070239755],["IV",-11.445862420357928],["baie",-11.446107458815646],["promenade",-11.446457382710314],["Rouman",-11.446712003858455],["th",-11.446818579009818],["Baie",-11.44682057857404],["magique",-11.44684026358861],["signalement",-11.44699046042786],["mond",-11.447868228296322],["dalle",-11.448711594456295],["Sarr",-11.448894271339444],["Liz",-11.449320366845763],["génie",-11.449539551617368],["érusal",-11.449681076543545],["renseigne",-11.449879992937142],["apprécier",-11.449943388468528],["offerte",-11.450707024131603],["boire",-11.450810988492565],["statue",-11.451086356241735],["Jim",-11.45122784388515],["soumettr",-11.45132617938489],["concentré",-11.451381642618237],["loup",-11.451424502006212],["chanter",-11.451515297956863],["étroit",-11.45171799236092],["ang",-11.451842625968165],["REM",-11.452222480886858],["céder",-11.452409510482283],["Ram",-11.452656852160256],["Mal",-11.452979218739099],["étonnant",-11.453029305948474],["soupçonné",-11.45319931076322],["espére",-11.453914293393682],["existant",-11.454096830086279],["golf",-11.4541502379276],["permanente",-11.454200967110394],["sommeil",-11.454629373135443],["intitulé",-11.454654613635475],["intelligent",-11.4547210028169],["riposte",-11.454853024794046],["195",-11.45489421689057],["apparaîtr",-11.455027967538605],["Ros",-11.455402177631646],["balade",-11.455453737910247],["Point",-11.455662849923462],["travaillai",-11.456592575566074],["issé",-11.45723419417723],["Jin",-11.457248816115849],["Even",-11.458172823301625],["exemplaires",-11.458198827765463],["fai",-11.458271922632061],["espér",-11.459439379954944],["140",-11.459781981296095],["autorisée",-11.460182462860615],["lits",-11.460787706603613],["Ant",-11.461126813611799],["Ta",-11.461329257321117],["chi",-11.461364445423797],["Racin",-11.461438352598954],["neuv",-11.462569904459286],["cence",-11.463580166330743],["dam",-11.464201779175212],["tisme",-11.464606744247364],["Will",-11.464673248071584],["philosophi",-11.464905744648256],["intellectuel",-11.465226010275362],["Dane",-11.465406017849295],["consensu",-11.46599985066805],["hésit",-11.466188299201079],["oalition",-11.467306834981958],["DC",-11.467699415569081],["Gar",-11.468725655290605],["cris",-11.468726201156693],["Mayo",-11.46882850393406],["renvoyé",-11.468864044564507],["Rama",-11.468956312263078],["réparer",-11.469148869082035],["HC",-11.469213937059372],["drôle",-11.469980489097388],["offensif",-11.470639453001912],["Web",-11.470802735389679],["perquisition",-11.470825226620125],["cacher",-11.470896471654152],["wallon",-11.47093777941786],["hebdomadaire",-11.470955505550235],["crédible",-11.470955590244373],["respiratoire",-11.47095581188829],["dépistage",-11.470955963340172],["incidence",-11.470956545254166],["réglementaire",-11.470957193944912],["pénétr",-11.470957586858209],["détresse",-11.470957783981788],["drastique",-11.470958150409949],["pixel",-11.470959161609628],["Olympique",-11.47096142596796],["fichier",-11.470963985828],["verdict",-11.470966877548085],["Thibau",-11.470969298722318],["Gérard",-11.470970147873164],["blindé",-11.470974492783887],["bibliothèque",-11.470981810253196],["implantation",-11.470994877056123],["infirmier",-11.471034759772696],["mystère",-11.471041020818985],["contestation",-11.47108244910347],["peloton",-11.47113370440466],["fauteuil",-11.47113378644387],["pôle",-11.471153654990262],["déjeuner",-11.471198835877308],["consultant",-11.471236654288163],["asiatique",-11.47124649657978],["Virgini",-11.471250226952678],["agglomération",-11.471259754186152],["Darman",-11.471275137306367],["col",-11.471311069228449],["Vienne",-11.471353537101265],["protège",-11.47140483322939],["Autrich",-11.471418761435952],["tunisienne",-11.471432223329453],["princesse",-11.471570702399095],["adepte",-11.471584181611867],["incarné",-11.471659605291748],["malienne",-11.471781594059483],["coopérative",-11.472051864777065],["inquiet",-11.472104492317488],["Brig",-11.47218981252389],["successeur",-11.47243824902495],["relate",-11.47270284348414],["index",-11.472767725520411],["demeurer",-11.472969368210087],["exploitant",-11.473107964901478],["contacter",-11.473154820962165],["furent",-11.47322287802525],["canal",-11.473331319055013],["\"\"",-11.473735817969086],["ètement",-11.473818902260087],["GT",-11.474322307519968],["taxi",-11.474703383932903],["tweeté",-11.474743809630091],["footballeur",-11.474833285371805],["glissement",-11.475024830011616],["partition",-11.475251286187845],["sache",-11.475746961278968],["Ah",-11.476077933269304],["prononcée",-11.476353301450619],["pr",-11.476577430066751],["détecté",-11.477223345004436],["logo",-11.477248421015489],["pareil",-11.477331446990329],["transmettr",-11.477512529241451],["autoriser",-11.47777881461742],["20h",-11.47837891242515],["imentation",-11.478792362223494],["genou",-11.479121314403823],["Po",-11.480386600977472],["aye",-11.480665717997041],["March",-11.48099625741595],["embarque",-11.481182724419048],["agi",-11.4817324136025],["pleur",-11.48240818478222],["conseille",-11.482564143745368],["contesté",-11.482580886992862],["fixer",-11.483017461720937],["amendement",-11.483126481724694],["mortelle",-11.483229518397648],["Nas",-11.483261732582315],["UD",-11.48341688012918],["Rein",-11.484004316897305],["prétext",-11.48401474748123],["RC",-11.484433853329557],["Ga",-11.48522072691448],["polonais",-11.485581844891009],["parcelle",-11.48575202940211],["gang",-11.486634708849635],["divise",-11.487098172064652],["apparu",-11.487438099554238],["contemporain",-11.487830005449032],["mettra",-11.487957073112169],["Jeff",-11.489146225681397],["adresser",-11.490369933891856],["lassan",-11.490441156037535],["mensuel",-11.491295204301787],["ario",-11.491386192446088],["Aliou",-11.4918082843288],["auter",-11.492097326646968],["empare",-11.49252548570167],["intégral",-11.492969643450865],["my",-11.493506535140067],["Hongr",-11.493639678874342],["Noir",-11.494189795734805],["entreten",-11.494368148242836],["fonctionn",-11.494645689656728],["blanchi",-11.49560444055667],["foire",-11.495886707430515],["landais",-11.496533104776807],["placement",-11.49665821461494],["mystérieu",-11.49719638749299],["arrache",-11.497315644407218],["Bin",-11.497465353327732],["Fair",-11.497524699392205],["Nicole",-11.498708671784433],["survivant",-11.498798918359812],["saoudi",-11.499625369800329],["remontée",-11.499657555664891],["gains",-11.50009723521692],["hyper",-11.500166801769577],["bulle",-11.500250699688104],["Kne",-11.500806848295433],["prouve",-11.501429739687527],["tunisien",-11.501718693816146],["appliquée",-11.502100369759734],["indiquer",-11.502151759773419],["toxique",-11.502164039794337],["satisfai",-11.50216924584776],["pacifique",-11.502205506231581],["décisif",-11.502205529807997],["idéologique",-11.502205638478909],["mercenaire",-11.502205705952614],["Secrétaire",-11.502206072104219],["démonstration",-11.502206099736972],["discrète",-11.502206159870553],["fantôme",-11.502207613054917],["sinistre",-11.502209223167512],["inclusif",-11.502210407020662],["compositeur",-11.50221134039091],["Hassan",-11.502215445378317],["réglementation",-11.502215616701251],["Libye",-11.502223528936437],["vérification",-11.502229262502112],["régulation",-11.5022412362543],["arkozy",-11.502257340892648],["échoué",-11.502352626284717],["Niger",-11.502369939489737],["valable",-11.502385479712068],["interrogation",-11.502402565837357],["explosé",-11.502453637552897],["Somme",-11.502505729728938],["Mons",-11.502529159573601],["potable",-11.502729361392994],["Award",-11.502836929247108],["fillette",-11.502839956591142],["renfort",-11.502857382618583],["allocation",-11.502871025246328],["domination",-11.502923259201427],["évité",-11.502932866630264],["Programme",-11.503081048243896],["Contre",-11.50308149275535],["metteur",-11.50309287481278],["sacrifice",-11.50309575477985],["confortable",-11.503171634957669],["Dragon",-11.503296827046608],["pâte",-11.50358040896373],["TAN",-11.503728736627934],["entame",-11.503802999876456],["remplaçant",-11.504084663464042],["république",-11.504173776734142],["Cyril",-11.504293864399234],["procurer",-11.504343249612582],["Wout",-11.504356666106819],["ascension",-11.504721531694532],["rouler",-11.50480253479629],["engou",-11.505373375956886],["guise",-11.505669641622147],["hôte",-11.50583933888251],["négative",-11.50601431759925],["fournit",-11.506154915901394],["lumin",-11.506463656212032],["avoué",-11.506515253439241],["Robin",-11.506897782734471],["enregistrer",-11.507028485883227],["21h",-11.507128650027257],["grossesse",-11.507353132586447],["consta",-11.507661384750747],["rassembler",-11.507920693826918],["treiz",-11.507934932844387],["animer",-11.508224710722077],["conservati",-11.508336770139756],["iser",-11.50864850018684],["plonger",-11.508757096368967],["enregistre",-11.508846815859265],["vif",-11.509230157049856],["Cité",-11.509486147403955],["relâche",-11.510328347402659],["tendu",-11.51053349949519],["Bennet",-11.510648127821284],["failli",-11.51094061483499],["manquement",-11.511283890531573],["exécuté",-11.511732381053434],["imposant",-11.511933803491935],["Bonne",-11.512172434639048],["aylor",-11.512334368497633],["entamer",-11.512385687319632],["jihadiste",-11.512740340011845],["correct",-11.51356916999622],["itte",-11.513701235855633],["Lo",-11.513884826942023],["Wan",-11.51411563293855],["diplômé",-11.514308167246153],["Noire",-11.514398176980663],["Yo",-11.515223931343765],["attiré",-11.515591286240898],["prudent",-11.515712497866128],["Parisien",-11.516368391536014],["fondamenta",-11.516428554025733],["annonçai",-11.517046425650788],["ino",-11.517870490529884],["réputé",-11.518239980524879],["bris",-11.51853208429019],["couver",-11.519486366116226],["Retour",-11.519739427322532],["sécurisé",-11.520060760000748],["aimai",-11.520237990457128],["endommagé",-11.520627164897412],["11h",-11.520642613634385],["pneu",-11.520798763316783],["définir",-11.520848993196648],["restreint",-11.520957678659379],["Shaw",-11.521249960221512],["intégrée",-11.521303500574804],["étend",-11.5214749146742],["06",-11.521535724709981],["programmé",-11.521681442011248],["inquiétant",-11.521842155342473],["ker",-11.52248995861963],["croissant",-11.52254220583649],["Hou",-11.522587225095632],["honte",-11.523311698386639],["pirate",-11.523831277566002],["recense",-11.524725514050125],["croisé",-11.52498483467828],["témoigner",-11.525198149210764],["ime",-11.525566066945245],["ivité",-11.52565874464279],["affirmer",-11.526049432132094],["ignon",-11.527071391208644],["inspirée",-11.528505576284005],["islam",-11.529148596592123],["grec",-11.529345780505981],["achète",-11.529724996731696],["bascule",-11.529733265613716],["remporte",-11.529812523549683],["nçant",-11.530253670854995],["amine",-11.530699994094975],["ouvrant",-11.531259552831319],["All",-11.53155844464539],["chimique",-11.531775098952101],["Canal",-11.53256405428184],["remplie",-11.532739272773508],["Aer",-11.532750575413237],["Antoni",-11.532794320114338],["Camp",-11.533520151801062],["devise",-11.533618567440058],["exagon",-11.533980654511934],["Toulous",-11.533995219670466],["Bruxellois",-11.534463570089274],["envergure",-11.534463570627743],["propagation",-11.534463577163002],["Émirat",-11.534463612118147],["rafraîchissement",-11.534465426554098],["approbation",-11.534467473024293],["indemnisation",-11.534474769337907],["miracle",-11.534506235516222],["Développe",-11.534541283964476],["Studio",-11.53456863570406],["bitcoin",-11.534610826909072],["icône",-11.5347635678104],["décroché",-11.534789907039483],["Franck",-11.534791522144467],["reportage",-11.534802970520794],["secrète",-11.534833091570913],["débours",-11.535137107681877],["Stream",-11.535143056432451],["palestinienne",-11.535520733754113],["leadership",-11.53555603506659],["effondrement",-11.535714353717001],["corriger",-11.535825758393573],["Raymond",-11.53583299322123],["SPV",-11.535975810808658],["économiser",-11.53598089097358],["ota",-11.536199727373186],["Rése",-11.536371184310589],["détenteur",-11.536416487776982],["portion",-11.536517223081997],["existai",-11.536679612695576],["autrice",-11.536809055257546],["valide",-11.536934377008373],["tirage",-11.536973649203452],["séduit",-11.537013710818352],["Tandi",-11.537132676322031],["Total",-11.537208663371056],["transporter",-11.537212181207792],["94",-11.5372210719023],["lizzard",-11.537838905650318],["limitation",-11.537909086505758],["15h",-11.537957867970817],["syrien",-11.538027572695862],["160",-11.538056064471643],["neutre",-11.538123827200874],["généré",-11.538175472572389],["funérai",-11.538784254344344],["parvienne",-11.539080242993816],["voy",-11.539429278089834],["rayonne",-11.539445020035224],["Fernand",-11.540029605480957],["futurs",-11.540566403444997],["partant",-11.540922624877254],["Hong",-11.54110421481078],["Kent",-11.541174560013278],["Amado",-11.541663615890004],["établie",-11.54171616549327],["sèche",-11.541823356885068],["démarré",-11.54195465469828],["raz",-11.54357933735417],["démenti",-11.544336058462834],["SB",-11.545549683019324],["descendr",-11.545725561816425],["Dub",-11.54694507314538],["menacée",-11.547271681135959],["cassé",-11.547331100067487],["Kan",-11.548383757297515],["traduir",-11.548662951971568],["Rue",-11.548701306822693],["militante",-11.54892917318425],["Na",-11.54939222585478],["transactions",-11.549530078089397],["marchand",-11.54985528818347],["imaginé",-11.549957972741872],["vaccinée",-11.550060122632294],["commiss",-11.551246913856993],["pénal",-11.551796308847699],["évalué",-11.552596223290347],["émerge",-11.553187880983508],["sauvé",-11.553351164313224],["luxembourgeois",-11.553823603669493],["Croat",-11.553924733143731],["Polic",-11.553962051844897],["tube",-11.554026254758906],["municipa",-11.554230358284258],["chalet",-11.554241238536772],["deuil",-11.554294639684718],["fixée",-11.554298062762824],["incarner",-11.554317590640611],["maires",-11.554677443523982],["constitué",-11.555302457607066],["congolais",-11.555572684700271],["Hid",-11.555649183338453],["Fortn",-11.555739843294322],["assistant",-11.555839043458292],["Am",-11.556175983073006],["amélioré",-11.556268900116487],["inon",-11.556387487561848],["visée",-11.556481285886198],["sacre",-11.556563234071648],["contenter",-11.55680213636277],["vois",-11.556939418376801],["réalis",-11.557296374616206],["andry",-11.55744738556939],["ani",-11.557942525063336],["Modern",-11.5580665636697],["thérapie",-11.558746767133194],["Roussel",-11.558838675246006],["exclur",-11.55888835015264],["ccès",-11.55924221230884],["Grè",-11.559419584543736],["éleveur",-11.561076664135966],["RM",-11.5612358730802],["Chant",-11.561267201082643],["Sho",-11.561672689850848],["constitution",-11.561777264571116],["label",-11.561797296772998],["écologi",-11.562174410633627],["SG",-11.562353152888116],["aisé",-11.562570878612021],["NF",-11.562906948073412],["Hier",-11.56346496273865],["low",-11.563758042599055],["interdite",-11.564002825979712],["03",-11.56415977073845],["élan",-11.564508015223215],["ervent",-11.56462738863959],["bé",-11.564921561664685],["pente",-11.565416753407622],["gala",-11.565535548876442],["ng",-11.566413253626433],["fusil",-11.567009413406304],["placer",-11.567107832425874],["Bleu",-11.567181304447265],["australien",-11.567309467523302],["16h",-11.567541229475538],["Journal",-11.56762403847421],["propagand",-11.567659452849293],["emblée",-11.567686052669163],["crypto",-11.567770707673153],["²",-11.567796903396616],["curiosité",-11.56779691391386],["Hôpita",-11.56779699174571],["artillerie",-11.567797219396098],["suggère",-11.56779783622028],["cigarette",-11.56779908662524],["Chevalier",-11.567812594373224],["courriel",-11.56781532841308],["fourniture",-11.567827765432199],["XIX",-11.567830127528527],["externe",-11.567848540944862],["Arrivé",-11.567865514715752],["modalité",-11.567870784716389],["Neuve",-11.567878627614022],["insecte",-11.567922088864925],["permette",-11.56795196276984],["renversé",-11.567969308963349],["écurie",-11.567999463018074],["Pedro",-11.568021539734033],["tragique",-11.56810058178961],["urgences",-11.568104772780572],["cyberattaque",-11.568170682177362],["forum",-11.568180102865709],["optimiste",-11.56824649560181],["illustré",-11.568275545456421],["Travail",-11.568297914178636],["réitéré",-11.568311592810723],["cathédrale",-11.56848999411972],["Ronald",-11.5685000749802],["emprise",-11.568534524087546],["étiquette",-11.568566698349901],["compenser",-11.568603978222711],["légume",-11.568678836057103],["escroquerie",-11.56867918102839],["dîner",-11.568998903358688],["camping",-11.569325590694968],["AWA",-11.569444542579838],["envahi",-11.569602505936484],["ïv",-11.569618276922153],["Fox",-11.56963104001711],["brisé",-11.56980188774926],["cross",-11.569989260774491],["biologique",-11.570120822069246],["orthodoxe",-11.570177841940902],["lanceur",-11.570314474953879],["repère",-11.57064604102704],["Boucher",-11.570791249494398],["carrefour",-11.57101248406412],["LG",-11.571138582635394],["financé",-11.571408049301075],["cloche",-11.571812700070684],["citant",-11.572903326807284],["permettai",-11.573098391806719],["vendue",-11.573152949167696],["battant",-11.573883656411008],["Sy",-11.574868300889307],["Sau",-11.574906404831165],["ému",-11.575011549298392],["consomme",-11.575237647706686],["Berger",-11.575337482366676],["échangé",-11.575389810484817],["race",-11.575399755725076],["filtre",-11.575527730898806],["criminalité",-11.575942001754765],["compose",-11.5761828304945],["frapper",-11.57700031997551],["proteste",-11.57729662127144],["formelle",-11.57751586041955],["passera",-11.578910615443293],["échantillon",-11.579022772494474],["précoce",-11.579044398696654],["pleure",-11.579464514553456],["importé",-11.580370064564136],["croissante",-11.580705623247201],["Nor",-11.580885477947803],["strict",-11.581219061728843],["ho",-11.581715930127231],["neuve",-11.581727843001588],["module",-11.581778095492265],["ignan",-11.582568489405308],["10h",-11.583053827532126],["voile",-11.583071720826391],["onko",-11.583432869545831],["débutera",-11.583750544135162],["agro",-11.584501667333349],["AC",-11.584877501403124],["tracé",-11.584982248628169],["recensé",-11.585041222982513],["Dep",-11.585102718134376],["supprimé",-11.585107334196397],["injuste",-11.585268797768578],["charme",-11.585868727300326],["renforcée",-11.586016507409592],["ttention",-11.586578325291866],["Dian",-11.586822589623015],["boisson",-11.587814142333356],["confrontée",-11.587855017599917],["atténue",-11.587924544732967],["tort",-11.58801779403056],["Min",-11.588110206345599],["traite",-11.588293488567992],["abouti",-11.588581102048007],["réhabilit",-11.58894712569462],["Feder",-11.589161567300946],["ien",-11.58928906133793],["ARS",-11.589876034890365],["Petite",-11.590182713193656],["ralenti",-11.59071618803112],["parvenue",-11.590767152477166],["tenai",-11.590781690653035],["appuyé",-11.59094500602841],["prédi",-11.592193944321432],["illon",-11.592754521694316],["feuilles",-11.592894431874264],["PN",-11.593198512414213],["renchéri",-11.593243577538619],["Ch",-11.594094660085952],["regroupe",-11.594277735302375],["rac",-11.594289550383873],["suffisante",-11.594887968653483],["classée",-11.595195454165147],["nommer",-11.596038094697514],["viation",-11.596268136087703],["échelon",-11.596495312006185],["Rose",-11.596665402347394],["subit",-11.597000887566775],["tation",-11.597214629956508],["envol",-11.597672028723174],["ui",-11.597772776670485],["challenge",-11.598098932247817],["XX",-11.598403160745056],["parfum",-11.599342243786474],["croyai",-11.599776160002342],["truc",-11.601191976470641],["démarre",-11.601588398818132],["Per",-11.601671924814802],["17h",-11.601933468006486],["vaincu",-11.601950184321181],["valorisation",-11.602195513513584],["architecte",-11.602279662240933],["portugais",-11.602279727775763],["suffrage",-11.602279928465943],["stupéfiant",-11.602280280938272],["Wagner",-11.602280379057577],["immigré",-11.602280705309207],["complice",-11.60228123917503],["préliminaire",-11.602281248082821],["échevin",-11.60228189599906],["trilogie",-11.602281996879455],["Lorrain",-11.602284078621173],["Windows",-11.602285065624207],["particularité",-11.602285711910454],["Cédri",-11.60229237575733],["Ouaga",-11.602293250010064],["publicitaire",-11.6022953545522],["paisible",-11.602298882623234],["Norvégien",-11.602300195261657],["indication",-11.602300995077236],["Knight",-11.602302152932669],["restaurateur",-11.602309805291696],["Hydro",-11.60232120223258],["Elysée",-11.602321826367788],["Irak",-11.602356535663567],["attraction",-11.602366951775293],["juré",-11.60238698791588],["confusion",-11.60239699127348],["AG",-11.60242626127336],["brill",-11.602503472782022],["essay",-11.602527996494],["pénalité",-11.602578752007622],["valise",-11.602612469453383],["directive",-11.602612929751007],["pomme",-11.602728641826612],["facilité",-11.602737935955869],["détri",-11.602892887863032],["stopper",-11.60289666758767],["couronne",-11.60302877038472],["Tampa",-11.603045761900054],["masculine",-11.603084682707742],["générer",-11.603116613417932],["nuance",-11.60316960813438],["Norv",-11.603206522371197],["consigne",-11.603232314528206],["ourism",-11.60341982726963],["VI",-11.603630839486195],["combattu",-11.6036948771185],["Xiaomi",-11.603817766324516],["prénom",-11.60389070723992],["reporter",-11.604005618182436],["radar",-11.604170474708006],["affrontent",-11.604298041115367],["ping",-11.604401520952004],["coca",-11.604582652538273],["couler",-11.60466614887562],["Villeneuv",-11.604689393577381],["ww",-11.6047103101996],["notable",-11.604826902504879],["Holland",-11.604868636824353],["contente",-11.605032829435364],["Swiss",-11.605133900143642],["gilet",-11.605292930449119],["travaillant",-11.60530333150281],["dynamis",-11.605357026223782],["Kim",-11.605365476737054],["CHU",-11.605581372939392],["médian",-11.605816412656885],["Lucas",-11.605924862981208],["Atlas",-11.606432504333563],["Lewi",-11.60732979428272],["consommer",-11.607407266544623],["dépouille",-11.60744672518473],["SM",-11.607782748540561],["requise",-11.60787979519826],["admire",-11.608362262453973],["aimer",-11.608744173181869],["Pont",-11.608896277090798],["gissant",-11.609323768225819],["cuir",-11.609383952662451],["Andre",-11.609713203132623],["Mars",-11.609937951224152],["consulté",-11.610281136030782],["représentai",-11.610347553446681],["cave",-11.611125962276567],["Can",-11.611367355496455],["susciter",-11.611642375126397],["enseignante",-11.61165700335085],["distingue",-11.61166358682087],["igne",-11.611705287188341],["lunette",-11.6121690473365],["Rocket",-11.612293717160503],["déclin",-11.612382822596985],["démarque",-11.613888019993848],["UA",-11.614086466487525],["lâché",-11.61519357160495],["opérationnelle",-11.615697112676022],["Anni",-11.615761738324318],["Roche",-11.616275060947132],["ban",-11.61781512219144],["Call",-11.618312047514173],["Camill",-11.618540570154497],["Fo",-11.618774709255684],["ifficile",-11.61879313494059],["ouer",-11.619060076630868],["?»",-11.61912215536753],["ange",-11.619301327262084],["BE",-11.619940883852674],["Présent",-11.620534582317937],["ménager",-11.620599907318313],["serré",-11.62074586402923],["dira",-11.620906466552912],["perturbé",-11.621245543589188],["FE",-11.621405097242036],["mange",-11.621462233255613],["Milla",-11.621887510597503],["reposer",-11.622053284765993],["Riche",-11.622439476023212],["impliquée",-11.622595704004997],["expliqu",-11.622666244672217],["envolée",-11.622848422507442],["circulai",-11.623027941213637],["avéré",-11.6230590469123],["Benn",-11.623146767477966],["terie",-11.623896907589543],["plomb",-11.624209143832772],["agressé",-11.624315871599624],["modéré",-11.625212584808375],["soupçon",-11.625259968751262],["déplace",-11.625926664491868],["Ultra",-11.626176859750746],["RS",-11.626510359227368],["Temp",-11.626547122176301],["syndical",-11.627027135756538],["réfléchi",-11.627048523968877],["approfondi",-11.627061348475733],["Sorti",-11.627562805103],["aidant",-11.627881878856465],["ièrement",-11.62807107329612],["recherché",-11.628120188420318],["ôté",-11.629304788343378],["soudaine",-11.62950452011231],["tinction",-11.629926388861971],["Pacifi",-11.630012402665347],["exploité",-11.63008586248485],["fondamentale",-11.630723995889952],["gant",-11.631404422174809],["Cup",-11.631611430610636],["urbanis",-11.631850270938207],["Matt",-11.631916457727533],["08",-11.632761741584051],["exil",-11.633013367896679],["boss",-11.633122680474816],["flou",-11.633338334743122],["Kir",-11.633918378049476],["RA",-11.633994393479659],["Camero",-11.634039505856375],["mines",-11.634058419115895],["guider",-11.635210002553137],["bienvenue",-11.635397658461487],["prévoir",-11.635804854607208],["intemp",-11.63609133901093],["ert",-11.636516001317176],["tronçon",-11.636576124883867],["14h",-11.636779557066106],["vache",-11.637305249114618],["piéton",-11.637486081116988],["YouTube",-11.637549947991738],["révéla",-11.637864582222361],["lâcher",-11.637891467235963],["complot",-11.63791824703689],["hygi",-11.637974105260962],["préjudice",-11.637994006547158],["oligarque",-11.637994035905518],["bagarre",-11.637994155776207],["frustration",-11.63799417802464],["camarade",-11.637994437300021],["Square",-11.637994809270939],["horrible",-11.637995806460635],["succéder",-11.637995924799185],["interrogatoire",-11.637997151777016],["Economie",-11.637997264894903],["TotalEnergie",-11.63800152595796],["Brown",-11.638002063587471],["Grenobl",-11.638008503632559],["Azov",-11.638013634858442],["forestier",-11.638029003611791],["Isaac",-11.63802993459978],["pavé",-11.63803172565541],["périmètre",-11.638032587398436],["Roman",-11.638036818623725],["manipulation",-11.638064036140907],["imaginaire",-11.63807092302684],["revalorisation",-11.638200745532979],["Brussel",-11.638222330479842],["planification",-11.638387318254683],["rentable",-11.63842581331133],["BS",-11.638539978711247],["guinéenne",-11.638719901134168],["paramètre",-11.638743463207177],["eï",-11.638875574876929],["Twitch",-11.638910972416324],["erbie",-11.639053849917714],["censée",-11.639195149315269],["comédienne",-11.639195360197832],["involontaire",-11.639283521179713],["Philip",-11.63934614344178],["Nante",-11.639358496075971],
[...]
