{"version":"1.0","truncation":null,"padding":null,"added_tokens":[{"id":0,"special":true,"content":"<UNK>","single_word":false,"lstrip":false,"rstrip":false,"normalized":false},{"id":1,"special":true,"content":"<SEP>","single_word":false,"lstrip":false,"rstrip":false,"normalized":false},{"id":2,"special":true,"content":"<MASK>","single_word":false,"lstrip":false,"rstrip":false,"normalized":false},{"id":3,"special":true,"content":"<CLS>","single_word":false,"lstrip":false,"rstrip":false,"normalized":false}],"normalizer":null,"pre_tokenizer":{"type":"Whitespace"},"post_processor":null,"decoder":null,"model":{"type":"BPE","dropout":null,"unk_token":"<UNK>","continuing_subword_prefix":null,"end_of_word_suffix":null,"fuse_unk":false,"vocab":{"<UNK>":0,"<SEP>":1,"<MASK>":2,"<CLS>":3,"!":4,"\"":5,"$":6,"%":7,"&":8,"'":9,"(":10,")":11,"*":12,"+":13,",":14,"-":15,".":16,"/":17,"0":18,"1":19,"2":20,"3":21,"4":22,"5":23,"6":24,"7":25,"8":26,"9":27,":":28,";":29,">":30,"?":31,"A":32,"B":33,"C":34,"D":35,"E":36,"F":37,"G":38,"H":39,"I":40,"J":41,"K":42,"L":43,"M":44,"N":45,"O":46,"P":47,"Q":48,"R":49,"S":50,"T":51,"U":52,"V":53,"W":54,"X":55,"Y":56,"Z":57,"`":58,"a":59,"b":60,"c":61,"d":62,"e":63,"f":64,"g":65,"h":66,"i":67,"j":68,"k":69,"l":70,"m":71,"n":72,"o":73,"p":74,"q":75,"r":76,"s":77,"t":78,"u":79,"v":80,"w":81,"x":82,"y":83,"z":84,"~":85,"£":86,"¦":87,"«":88,"®":89,"°":90,"²":91,"³":92,"´":93,"·":94,"º":95,"»":96,"¼":97,"½":98,"À":99,"Á":100,"Ä":101,"Å":102,"Ç":103,"È":104,"É":105,"Ê":106,"Î":107,"Ï":108,"Ô":109,"Ö":110,"×":111,"Ø":112,"Û":113,"à":114,"á":115,"â":116,"ã":117,"ä":118,"å":119,"æ":120,"ç":121,"è":122,"é":123,"ê":124,"ë":125,"ì":126,"í":127,"î":128,"ï":129,"ð":130,"ñ":131,"ó":132,"ô":133,"õ":134,"ö":135,"ø":136,"ù":137,"ú":138,"û":139,"ü":140,"ā":141,"ă":142,"ć":143,"č":144,"ē":145,"ğ":146,"ļ":147,"ł":148,"ń":149,"Ō":150,"ō":151,"Œ":152,"œ":153,"ř":154,"ş":155,"Š":156,"š":157,"ū":158,"Ÿ":159,"ž":160,"ș":161,"̀":162,"́":163,"̂":164,"̈":165,"̧":166,"α":167,"а":168,"е":169,"с":170,"ᵉ":171,"‐":172,"‑":173,"‒":174,"–":175,"—":176,"―":177,"‘":178,"’":179,"“":180,"”":181,"‡":182,"•":183,"…":184,"‰":185,"′":186,"″":187,"‹":188,"›":189,"₂":190,"€":191,"™":192,"−":193,"▪":194,"▶":195,"◆":196,"☹":197,"♦":198,"✍":199,"✓":200,"❤":201,"➢":202,"➤":203,"":204,"ﬁ":205,"ﬂ":206,"️":207,"﻿":208,"es":209,"en":210,"on":211,"de":212,"an":213,"le":214,"re":215,"ou":216,"er":217,"ai":218,"ti":219,"qu":220,"la":221,"ent":222,"is":223,"ne":224,"ar":225,"au":226,"et":227,"in":228,"te":229,"ur":230,"pr":231,"les":232,"or":233,"our":234,"se":235,"tion":236,"ce":237,"it":238,"que":239,"il":240,"des":241,"ch":242,"un":243,"tr":244,"om":245,"si":246,"ment":247,"al":248,"du":249,"dé":250,"av":251,"ant":252,"as":253,"di":254,"ont":255,"est":256,"li":257,"ans":258,"par":259,"me":260,"us":261,"ré":262,"té":263,"une":264,"el":265,"pour":266,"ait":267,"con":268,"at":269,"ation":270,"ri":271,"ci":272,"oi":273,"ais":274,"qui":275,"ag":276,"pl":277,"eu":278,"ac":279,"dans":280,"com":281,"am":282,"sur":283,"vi":284,"pro":285,"po":286,"pas":287,"tre":288,"ec":289,"res":290,"ous":291,"és":292,"ouv":293,"ée":294,"ap":295,"ain":296,"son":297,"ab":298,"ter":299,"ff":300,"ol":301,"urs":302,"pu":303,"ois":304,"su":305,"ale":306,"aux":307,"aire":308,"mi":309,"ès":310,"Le":311,"plus":312,"ni":313,"end":314,"ét":315,"ser":316,"ère":317,"ons":318,"per":319,"ces":320,"ran":321,"ité":322,"ex":323,"été":324,"20":325,"im":326,"né":327,"tou":328,"por":329,"elle":330,"avec":331,"os":332,"che":333,"ra":334,"ers":335,"man":336,"pe":337,"ux":338,"pré":339,"cu":340,"ve":341,"sa":342,"oir":343,"co":344,"pé":345,"lu":346,"tes":347,"fi":348,"sé":349,"ge":350,"ques":351,"tu":352,"La":353,"for":354,"ette":355,"lle":356,"ie":357,"sont":358,"mes":359,"mo":360,"der":361,"mb":362,"ses":363,"ins":364,"jour":365,"mé":366,"ille":367,"Il":368,"age":369,"ma":370,"ir":371,"Les":372,"min":373,"oc":374,"ien":375,"gr":376,"entre":377,"ten":378,"pa":379,"mar":380,"lé":381,"fin":382,"ts":383,"ue":384,"mais":385,"sion":386,"ad":387,"ro":388,"so":389,"près":390,"ors":391,"cé":392,"aut":393,"aine":394,"mp":395,"ction":396,"mis":397,"fait":398,"ot":399,"puis":400,"cette":401,"00":402,"eur":403,"peu":404,"mon":405,"ence":406,"vo":407,"»,":408,"deux":409,"op":410,"cer":411,"ssi":412,"pre":413,"dis":414,"parti":415,"ob":416,"gé":417,"ven":418,"ance":419,"gi":420,"ants":421,"don":422,"cont":423,"tout":424,"cou":425,"aient":426,"En":427,"bu":428,"eux":429,"tri":430,"st":431,"ann":432,"ations":433,"déc":434,"ens":435,"je":436,"pris":437,"être":438,"ême":439,"cr":440,"teur":441,"ouver":442,"nous":443,"dent":444,"leur":445,"lon":446,"premi":447,"port":448,"nes":449,"eau":450,"aires":451,"nement":452,"vé":453,"mil":454,"sou":455,"cour":456,"met":457,"tres":458,"202":459,"tique":460,"comm":461,"able":462,"pla":463,"avait":464,"derni":465,"tions":466,"jou":467,"gu":468,"était":469,"endre":470,"comme":471,"nouv":472,"comp":473,"ner":474,"tin":475,"alement":476,"vous":477,"ver":478,"vis":479,"ord":480,"aussi":481,"ys":482,"alis":483,"même":484,"avoir":485,"inter":486,"lui":487,"no":488,"person":489,"ér":490,"rer":491,"ard":492,"faire":493,"ème":494,"bli":495,"omb":496,"and":497,"oire":498,"rap":499,"prés":500,"après":501,"pi":502,"ils":503,"car":504,"Ce":505,"Ch":506,"ren":507,"ph":508,"em":509,"contre":510,"qué":511,"pri":512,"ble":513,"sie":514,"trav":515,"bien":516,"vers":517,"ure":518,"uni":519,"mer":520,"teurs":521,"19":522,"Je":523,"ca":524,"dev":525,"gran":526,"minis":527,"lis":528,"enti":529,"ég":530,"Un":531,"lo":532,"tif":533,"ron":534,"sui":535,"ler":536,"jours":537,"fois":538,"aff":539,"quel":540,"publi":541,"lors":542,"depuis":543,"Et":544,"poli":545,"lan":546,"ui":547,"avant":548,"acc":549,"jet":550,"col":551,"att":552,"ats":553,"ail":554,"tour":555,"ves":556,"soci":557,"jus":558,"hi":559,"tement":560,"va":561,"rait":562,"dire":563,"cher":564,"pli":565,"pays":566,"ig":567,"main":568,"présent":569,"vent":570,"coup":571,"Mar":572,"fa":573,"sor":574,"ine":575,"On":576,"très":577,"Fran":578,"ju":579,"nation":580,"Pour":581,"eff":582,"plu":583,"ités":584,"prési":585,"nu":586,"ense":587,"core":588,"cons":589,"ères":590,"fon":591,"Mais":592,"ici":593,"temp":594,"tis":595,"Qu":596,"elles":597,"ul":598,"aille":599,"kr":600,"enne":601,"sans":602,"ang":603,"off":604,"tant":605,"ments":606,"Au":607,"peut":608,"milli":609,"jeu":610,"».":611,"encore":612,"pos":613,"autres":614,"temps":615,"dit":616,"part":617,"ali":618,"diff":619,"lig":620,"ents":621,"Par":622,"ion":623,"mbre":624,"ées":625,"trois":626,"do":627,"ist":628,"leurs":629,"tra":630,"De":631,"pres":632,"\",":633,"éle":634,"sera":635,").":636,"Une":637,"év":638,"également":639,"ante":640,"bon":641,"où":642,"ains":643,"nées":644,"ombre":645,"ric":646,"all":647,"lement":648,"fr":649,"hom":650,"itu":651,"int":652,"oy":653,"monde":654,"aison":655,"moins":656,"ing":657,"rou":658,"og":659,"vie":660,"ture":661,"président":662,"lar":663,"pel":664,"ête":665,"cent":666,"cert":667,"dont":668,"équi":669,"nombre":670,"produ":671,"opé":672,"ures":673,"cré":674,"cours":675,"cas":676,"place":677,"tous":678,"bi":679,"posi":680,"its":681,"sy":682,"2022":683,"tive":684,"indi":685,"fran":686,"non":687,"rie":688,"ct":689,"sieurs":690,"th":691,"vre":692,"ages":693,"ique":694,"mois":695,"org":696,"but":697,"can":698,"cri":699,"jà":700,"annon":701,"fil":702,"ris":703,"pec":704,"alité":705,"An":706,"année":707,"Dans":708,"ché":709,"erre":710,"mat":711,"premier":712,"Nous":713,"men":714,"bles":715,"lè":716,"contr":717,"arri":718,"pend":719,"déjà":720,"),":721,"cul":722,"personnes":723,"sol":724,"sant":725,"cap":726,"anis":727,"form":728,"lation":729,"inté":730,"ay":731,"pouv":732,"dernier":733,"gouver":734,"sement":735,"trouv":736,"cin":737,"mont":738,"anci":739,"cip":740,"pon":741,"tiques":742,"sous":743,"tent":744,"gar":745,"géné":746,"rê":747,"cur":748,"201":749,"nel":750,"donc":751,"rus":752,"semb":753,"amé":754,"000":755,"bé":756,"première":757,"France":758,"ise":759,"ministre":760,"dou":761,"plusieurs":762,"tru":763,"alors":764,"mal":765,"toujours":766,"fer":767,"tés":768,"rit":769,"ru":770,"péri":771,"ième":772,"autre":773,"bou":774,"ainsi":775,"tiv":776,"trans":777,"bil":778,"cla":779,"deman":780,"hu":781,"ales":782,"cor":783,"oupe":784,"cre":785,"ass":786,"Ukr":787,"régi":788,"iste":789,"permet":790,"selon":791,"déf":792,"proch":793,"suite":794,"grand":795,"servi":796,"titu":797,"projet":798,"ça":799,"fé":800,"beau":801,"clu":802,"ori":803,"cha":804,"notre":805,"organis":806,"rest":807,"cteur":808,"dre":809,"gouvernement":810,"In":811,"Al":812,"long":813,"Com":814,"sig":815,"mor":816,"Si":817,"ga":818,"prix":819,"amment":820,"conn":821,"là":822,"née":823,"cation":824,"Elle":825,"travail":826,"Des":827,"génér":828,"ges":829,"situ":830,"uti":831,"prise":832,"Cette":833,"not":834,"enf":835,"10":836,"soit":837,"toute":838,"ville":839,"vol":840,"char":841,"prof":842,"aines":843,"chan":844,"agne":845,"Ukraine":846,"sus":847,"prendre":848,"import":849,"ari":850,"expli":851,"Ét":852,"confi":853,"cl":854,"ber":855,"porte":856,"Con":857,"rée":858,"dro":859,"ple":860,"vient":861,"vr":862,"médi":863,"cô":864,"peti":865,"pendant":866,"ez":867,"da":868,"face":869,"amp":870,"hab":871,"fem":872,"nos":873,"nouveau":874,"années":875,"jusqu":876,"eure":877,"lais":878,"fam":879,"fu":880,"quer":881,"voi":882,"ables":883,"nom":884,"voir":885,"ôt":886,"décla":887,"nent":888,"cep":889,"ger":890,"hui":891,"loc":892,"ach":893,"ton":894,"équipe":895,"public":896,"hist":897,"ailleurs":898,"vu":899,"unes":900,"mani":901,"bre":902,"tel":903,"notamment":904,"seu":905,"vel":906,"cet":907,"faut":908,"bat":909,"id":910,"ration":911,"mom":912,"jam":913,"cli":914,"quelques":915,"30":916,"début":917,"match":918,"Rus":919,"emp":920,"prin":921,"chi":922,"2021":923,"possi":924,"ajou":925,"conom":926,"nouvelle":927,"beaucoup":928,"aus":929,"préc":930,"pes":931,"15":932,"ta":933,"Su":934,"rien":935,"rés":936,"appel":937,"utilis":938,"ront":939,"ences":940,"som":941,"lieu":942,"millions":943,"franç":944,"moi":945,"iter":946,"avons":947,"partie":948,"ba":949,"lég":950,"ctions":951,"suis":952,"ole":953,"bas":954,"Mon":955,"venir":956,"cela":957,"ban":958,"one":959,"elon":960,"Tou":961,"eurs":962,"aise":963,"effet":964,"maine":965,"vendre":966,"sep":967,"position":968,"ellement":969,"ill":970,"réalis":971,"mettre":972,"undi":973,"sions":974,"rent":975,"groupe":976,"manche":977,"ck":978,"économ":979,"région":980,"dur":981,"dom":982,"chez":983,"jourd":984,"itaire":985,"prob":986,"contin":987,"doit":988,"déclaré":989,"sent":990,"nant":991,"politique":992,"pen":993,"étu":994,"mise":995,"différ":996,"autor":997,"prises":998,"san":999,"moment":1000,"nat":1001,"porté":1002,"voit":1003,"credi":1004,"vier":1005,"tte":1006,"eng":1007,"Av":1008,"Selon":1009,"sal":1010,"étaient":1011,"Ils":1012,"voy":1013,"Di":1014,"mission":1015,"go":1016,"jamais":1017,"pons":1018,"tir":1019,"édi":1020,"velop":1021,"euros":1022,"Ar":1023,"forme":1024,"atta":1025,"ds":1026,"ente":1027,"ène":1028,"tien":1029,"action":1030,"medi":1031,"heure":1032,"ites":1033,"éb":1034,"Après":1035,"atre":1036,"pouvoir":1037,"ili":1038,"pan":1039,"mée":1040,"gique":1041,"heur":1042,"saison":1043,"jeudi":1044,"ode":1045,"ak":1046,"popu":1047,"nationale":1048,"time":1049,"aint":1050,"vrai":1051,"semaine":1052,"dernière":1053,"mercredi":1054,"aî":1055,"quand":1056,"auc":1057,"viron":1058,"aug":1059,"actu":1060,"nive":1061,"dimanche":1062,"sécur":1063,"homme":1064,"mardi":1065,"dévelop":1066,"lundi":1067,"soi":1068,"rique":1069,"hé":1070,"lt":1071,"mu":1072,"vendredi":1073,"tal":1074,"vou":1075,"br":1076,"prom":1077,"venu":1078,"he":1079,"compte":1080,"uses":1081,"commun":1082,"oin":1083,"dr":1084,"asse":1085,"chef":1086,"film":1087,"sour":1088,"prend":1089,"bes":1090,"seront":1091,"ches":1092,"trop":1093,"Russie":1094,"anti":1095,"grande":1096,"situation":1097,"reg":1098,"plan":1099,"communi":1100,"bo":1101,"toutes":1102,"meille":1103,"ainien":1104,"national":1105,"côté":1106,"18":1107,"seil":1108,"jec":1109,"quatre":1110,"améric":1111,"tré":1112,"représent":1113,"jeunes":1114,"tenir":1115,"russe":1116,"terr":1117,"samedi":1118,"inf":1119,"vil":1120,"Co":1121,"\".":1122,"cit":1123,"veu":1124,"lent":1125,"ôle":1126,"avaient":1127,"pose":1128,"respons":1129,"ances":1130,"site":1131,"tifs":1132,"dat":1133,"rir":1134,"visi":1135,"uel":1136,"ini":1137,"cident":1138,"spé":1139,"arrê":1140,"centre":1141,"annoncé":1142,"arti":1143,"enfants":1144,"afin":1145,"jan":1146,"retour":1147,"répon":1148,"gement":1149,"reste":1150,"cad":1151,"devant":1152,"publique":1153,"votre":1154,"Li":1155,"ût":1156,"environ":1157,"dus":1158,"ébec":1159,"vic":1160,"tie":1161,"tech":1162,"empl":1163,"Québec":1164,"guerre":1165,"ligne":1166,"Br":1167,"question":1168,"cond":1169,"cir":1170,"gram":1171,"augment":1172,"14":1173,"gré":1174,"gie":1175,"ose":1176,"air":1177,"niveau":1178,"éli":1179,"rier":1180,"éch":1181,"vée":1182,"cel":1183,"12":1184,"Mi":1185,"Uni":1186,"camp":1187,"deuxième":1188,"certains":1189,"um":1190,"compag":1191,"heures":1192,"50":1193,"aite":1194,"police":1195,"affir":1196,"cue":1197,"pit":1198,"pass":1199,"téri":1200,"esp":1201,"trouver":1202,"Ré":1203,"cau":1204,"Re":1205,"Sa":1206,"point":1207,"jeune":1208,"tot":1209,"tôt":1210,"ok":1211,"èrement":1212,"atte":1213,".»":1214,"soir":1215,"élec":1216,"Saint":1217,"nor":1218,"poin":1219,"ire":1220,"quant":1221,"cham":1222,"porter":1223,"aurait":1224,"tenu":1225,"cal":1226,"posé":1227,"décis":1228,"histoire":1229,"mie":1230,"aujourd":1231,".\"":1232,"ert":1233,"dien":1234,"minu":1235,"candi":1236,"Eur":1237,"europé":1238,"spéci":1239,"éner":1240,"anim":1241,"pren":1242,"assu":1243,"rése":1244,"sécurité":1245,"Ma":1246,"tives":1247,"possible":1248,"français":1249,"Can":1250,"conf":1251,"act":1252,"ards":1253,"na":1254,"formation":1255,"concer":1256,"rapport":1257,"eaux":1258,"pourrait":1259,"sup":1260,"emb":1261,"vue":1262,"moy":1263,"raison":1264,"ath":1265,"oli":1266,"celui":1267,"fonction":1268,"ement":1269,"souv":1270,"200":1271,"lit":1272,"profes":1273,"activ":1274,"ukr":1275,"let":1276,"précis":1277,"sance":1278,"16":1279,"ukrainien":1280,"bar":1281,"famille":1282,"Ces":1283,"Car":1284,"rem":1285,"const":1286,"raî":1287,"gue":1288,"hô":1289,"quête":1290,"expl":1291,"pect":1292,"olog":1293,"cès":1294,"rière":1295,"termin":1296,"Avec":1297,"matin":1298,"cité":1299,"occa":1300,"senti":1301,"Gu":1302,"Ni":1303,"Jean":1304,"raient":1305,"particu":1306,"chaque":1307,"ancien":1308,"pression":1309,"janvier":1310,"déce":1311,"mai":1312,"2020":1313,"dée":1314,"télé":1315,"lin":1316,"étr":1317,"illet":1318,"quoi":1319,"17":1320,"retrouv":1321,"inves":1322,"crit":1323,"tribu":1324,"Bel":1325,"tée":1326,"viol":1327,"personne":1328,"agit":1329,"solu":1330,"aura":1331,"çon":1332,"ide":1333,"ép":1334,"istes":1335,"gens":1336,"santé":1337,"éco":1338,"rec":1339,"olo":1340,"13":1341,"els":1342,"ceux":1343,"vision":1344,"24":1345,"No":1346,"fais":1347,"lex":1348,"celle":1349,"cinq":1350,"Euro":1351,"nés":1352,"isse":1353,"vid":1354,"série":1355,"occu":1356,"tine":1357,"demande":1358,"déci":1359,"program":1360,"antes":1361,"25":1362,"suc":1363,"mag":1364,"sc":1365,"vin":1366,"aud":1367,"lec":1368,"tenant":1369,"passé":1370,"serait":1371,"to":1372,"art":1373,"Af":1374,"mble":1375,"prim":1376,"particuli":1377,"œu":1378,"connu":1379,"juin":1380,"cle":1381,"feu":1382,"lée":1383,"passe":1384,"mars":1385,"marché":1386,"société":1387,"Son":1388,"peuvent":1389,"Sur":1390,"fier":1391,"princip":1392,"résu":1393,"État":1394,"décembre":1395,"die":1396,"occasion":1397,"abil":1398,"devrait":1399,"Mac":1400,"Ou":1401,"simp":1402,"offici":1403,"ral":1404,"oct":1405,"Unis":1406,"bonne":1407,"cess":1408,"lations":1409,"Du":1410,"sau":1411,"bor":1412,"démie":1413,"mondi":1414,"tière":1415,"rési":1416,"nombreux":1417,"femmes":1418,"val":1419,"era":1420,"ensemble":1421,"cherche":1422,"droit":1423,"ril":1424,"memb":1425,"trice":1426,"justi":1427,"mment":1428,"icile":1429,"indiqué":1430,"dos":1431,"ha":1432,"neur":1433,"vembre":1434,"explique":1435,"accus":1436,"maines":1437,"service":1438,"membres":1439,"Jo":1440,"cro":1441,"ël":1442,"points":1443,"çu":1444,"journ":1445,"donner":1446,"syst":1447,"femme":1448,"As":1449,"St":1450,"appar":1451,"semble":1452,"savoir":1453,"tête":1454,"we":1455,"béné":1456,"Franç":1457,"tard":1458,"novembre":1459,"entraî":1460,"tembre":1461,"ane":1462,"tex":1463,"accue":1464,"lus":1465,"âce":1466,"èle":1467,"diri":1468,"fort":1469,"anger":1470,"développe":1471,"exemp":1472,"maj":1473,"use":1474,"ateur":1475,"dès":1476,"ry":1477,"entreprise":1478,"gag":1479,"ock":1480,"désor":1481,"comment":1482,"11":1483,"sait":1484,"Depuis":1485,"septembre":1486,"veut":1487,"ao":1488,"États":1489,"continu":1490,"bal":1491,"ines":1492,"cadre":1493,"habit":1494,"nage":1495,"tient":1496,"objec":1497,"crise":1498,"four":1499,"aide":1500,"associ":1501,"souh":1502,"général":1503,"cen":1504,"gent":1505,"illes":1506,"désormais":1507,"joueurs":1508,"juillet":1509,"Dé":1510,"ace":1511,"surtout":1512,"Cela":1513,"cée":1514,"loi":1515,"capit":1516,"Pi":1517,"fév":1518,"ps":1519,"poser":1520,"commer":1521,"Tr":1522,"illi":1523,"presse":1524,"tention":1525,"ateurs":1526,"mul":1527,"étab":1528,"véhi":1529,"ensi":1530,"partir":1531,"clas":1532,"vacc":1533,"ager":1534,"oise":1535,"be":1536,"Sé":1537,"oix":1538,"obre":1539,"Europe":1540,"véhicu":1541,"février":1542,"mieux":1543,"nécess":1544,"gros":1545,"ly":1546,"rédu":1547,"haus":1548,"itaires":1549,"assur":1550,"passer":1551,"commen":1552,"compl":1553,"ément":1554,"six":1555,"réus":1556,"pion":1557,"sommes":1558,"accord":1559,"entreprises":1560,"quit":1561,"isme":1562,"isation":1563,"souvent":1564,"services":1565,"explo":1566,"Paris":1567,"période":1568,"octobre":1569,"autant":1570,"font":1571,"titre":1572,"décision":1573,"atique":1574,"dol":1575,"ic":1576,"seul":1577,"manif":1578,"Pre":1579,"semaines":1580,"fédé":1581,"artis":1582,"Is":1583,"Lu":1584,"cy":1585,"nelle":1586,"ade":1587,"dernières":1588,"effec":1589,"rez":1590,"dition":1591,"donné":1592,"seulement":1593,"trait":1594,"orité":1595,"imp":1596,"journée":1597,"gen":1598,"doi":1599,"tan":1600,"évé":1601,"club":1602,"vraiment":1603,"Ne":1604,"Se":1605,"vidé":1606,"Or":1607,"entes":1608,"autorités":1609,"attend":1610,"El":1611,"annonce":1612,"zon":1613,"mobil":1614,"constru":1615,"ier":1616,"ète":1617,"avril":1618,"iser":1619,"fav":1620,"tère":1621,"événement":1622,"vain":1623,"ètres":1624,"esti":1625,"nie":1626,"mort":1627,"connais":1628,"”,":1629,"profession":1630,"ate":1631,"net":1632,"gal":1633,"vict":1634,"crois":1635,"électri":1636,"az":1637,"directeur":1638,"nature":1639,"confir":1640,"exemple":1641,"direc":1642,"Covid":1643,"derniers":1644,"Ph":1645,"enquête":1646,"chose":1647,"dés":1648,"cause":1649,"nique":1650,"milliards":1651,"aller":1652,"état":1653,"dépu":1654,"grap":1655,"tur":1656,"proche":1657,"territ":1658,"culture":1659,"communiqué":1660,"vont":1661,"réf":1662,"ada":1663,"adminis":1664,"érence":1665,"table":1666,"tomb":1667,"parce":1668,"troisième":1669,"comman":1670,"rapide":1671,"séqu":1672,"bour":1673,"jeux":1674,"test":1675,"ze":1676,"abord":1677,"hommes":1678,"dollar":1679,"secteur":1680,"opération":1681,"22":1682,"2019":1683,"matique":1684,"ty":1685,"yer":1686,"consi":1687,"nouvelles":1688,"amen":1689,"système":1690,"Tout":1691,"vaccin":1692,"tran":1693,"travaille":1694,"Premi":1695,"mas":1696,"grâce":1697,"numé":1698,"produits":1699,"charge":1700,"rue":1701,"défense":1702,"gaz":1703,"août":1704,"manifest":1705,"Gran":1706,"gau":1707,"lage":1708,"aliste":1709,"besoin":1710,"initi":1711,"Pa":1712,"ports":1713,"autour":1714,"phot":1715,"lance":1716,"petit":1717,"fus":1718,"ensuite":1719,"important":1720,"pelle":1721,"aute":1722,"ouvert":1723,"mili":1724,"vant":1725,"sujet":1726,"hy":1727,"grav":1728,"cru":1729,"bel":1730,"résult":1731,"développement":1732,"cs":1733,"sens":1734,"maison":1735,"40":1736,"telle":1737,"prê":1738,"aucun":1739,"Mal":1740,"loin":1741,"fs":1742,"venus":1743,"Ber":1744,"ions":1745,"qua":1746,"Comme":1747,"Pro":1748,"21":1749,"las":1750,"2023":1751,"cat":1752,"rac":1753,"cier":1754,"Char":1755,"formations":1756,"date":1757,"œur":1758,"connaî":1759,"bénéfi":1760,"éc":1761,"parole":1762,"condu":1763,"mesure":1764,"ministère":1765,"sique":1766,"rencontre":1767,"travers":1768,"Ri":1769,"jouer":1770,"quelle":1771,"manière":1772,"Afrique":1773,"ek":1774,"ies":1775,"père":1776,"iller":1777,"consom":1778,"ception":1779,"hausse":1780,"gn":1781,"forces":1782,"Macron":1783,"appli":1784,"ève":1785,"autom":1786,"voul":1787,"oires":1788,"propos":1789,"ore":1790,"ond":1791,"armée":1792,"Etat":1793,"enir":1794,"pandémie":1795,"times":1796,"expéri":1797,"Es":1798,"taux":1799,"propri":1800,"quelque":1801,"offre":1802,"Conseil":1803,"Alors":1804,"gues":1805,"production":1806,"Vous":1807,"choix":1808,"dollars":1809,"sub":1810,"pati":1811,"wit":1812,"tem":1813,"preu":1814,"ajouté":1815,"hon":1816,"len":1817,"vit":1818,"tro":1819,"oses":1820,"Vi":1821,"sein":1822,"tron":1823,"permis":1824,"nouveaux":1825,"juste":1826,"teau":1827,"ON":1828,"poursui":1829,"xim":1830,"campagne":1831,"muni":1832,"ras":1833,"tier":1834,"programme":1835,"Em":1836,"cra":1837,"dio":1838,"ouvrir":1839,"finale":1840,"tivement":1841,"Me":1842,"inst":1843,"Don":1844,"rant":1845,"èg":1846,"endu":1847,"olu":1848,"instal":1849,"plutôt":1850,"ayant":1851,"étudi":1852,"population":1853,"iques":1854,"pai":1855,"risque":1856,"champion":1857,"êtes":1858,"chois":1859,"financi":1860,"succès":1861,"23":1862,"pense":1863,"péti":1864,"estiv":1865,"précé":1866,"Lors":1867,"bais":1868,"actions":1869,"partici":1870,"présid":1871,"constitu":1872,"garde":1873,"bilité":1874,"prochain":1875,"chiff":1876,"abilité":1877,"ets":1878,"soutien":1879,"nuit":1880,"démo":1881,"texte":1882,"fou":1883,"suff":1884,"airement":1885,"arrivée":1886,"circu":1887,"minutes":1888,"100":1889,"dû":1890,"Canada":1891,"scène":1892,"Ser":1893,"af":1894,"ki":1895,"ret":1896,"unis":1897,"syn":1898,"œuvre":1899,"pie":1900,"ditions":1901,"collec":1902,"aé":1903,"ège":1904,"ara":1905,"direction":1906,"intérê":1907,"ciné":1908,"nal":1909,"lection":1910,"univers":1911,"mod":1912,"assez":1913,"objectif":1914,"vale":1915,"quent":1916,"base":1917,"candidat":1918,"vais":1919,"euse":1920,"affi":1921,"victoire":1922,"od":1923,"mesures":1924,"soli":1925,"dats":1926,"land":1927,"trai":1928,"rom":1929,"particip":1930,"terrain":1931,"décidé":1932,"droi":1933,"multi":1934,"oot":1935,"sû":1936,"rappel":1937,"cam":1938,"sin":1939,"quali":1940,"faits":1941,"poni":1942,"fac":1943,"vois":1944,"bâ":1945,"reçu":1946,"alle":1947,"venue":1948,"lancé":1949,"60":1950,"neu":1951,"fini":1952,"prison":1953,"grands":1954,"PS":1955,"gence":1956,"vite":1957,"enseig":1958,"clé":1959,"fai":1960,"hor":1961,"pous":1962,"rale":1963,"parten":1964,"toutefois":1965,"énergie":1966,"Mo":1967,"vention":1968,"trib":1969,"russes":1970,"hôpit":1971,"ke":1972,"labor":1973,"personnel":1974,"école":1975,"doivent":1976,"iné":1977,"tration":1978,"sir":1979,"aisons":1980,"pare":1981,"citoy":1982,"rôle":1983,"ablement":1984,"façon":1985,"change":1986,"aucune":1987,"seule":1988,"identi":1989,"Ben":1990,"départ":1991,"lim":1992,"aliment":1993,"conse":1994,"mala":1995,"disponi":1996,"avantage":1997,"sociaux":1998,"27":1999,"choses":2000,"agé":2001,"force":2002,"employ":2003,"oti":2004,"dépl":2005,"midi":2006,"intéres":2007,"organisation":2008,"durant":2009,"investis":2010,"Pou":2011,"occup":2012,"For":2013,"soulig":2014,"maintenant":2015,"justice":2016,"of":2017,"lou":2018,"dossi":2019,"vidéo":2020,"auteur":2021,"ienne":2022,"conseil":2023,"marque":2024,"considé":2025,"haut":2026,"anal":2027,"Bou":2028,"dy":2029,"conclu":2030,"indique":2031,"provin":2032,"données":2033,"regis":2034,"ball":2035,"conser":2036,"28":2037,"AF":2038,"Pas":2039,"rendre":2040,"van":2041,"régu":2042,"ainte":2043,"pom":2044,"écrit":2045,"difficile":2046,"adi":2047,"règ":2048,"atten":2049,"respec":2050,"élè":2051,"politiques":2052,"cations":2053,"pens":2054,"isla":2055,"indus":2056,"accompag":2057,"abon":2058,"nombreuses":2059,"lier":2060,"total":2061,"dirige":2062,"sements":2063,"habitu":2064,"condam":2065,"26":2066,"Lou":2067,"vos":2068,"avez":2069,"front":2070,"ative":2071,"mouv":2072,"route":2073,"corps":2074,"Emman":2075,"frap":2076,"indre":2077,"vien":2078,"Suisse":2079,"édition":2080,"Man":2081,"ky":2082,"lème":2083,"zone":2084,"fication":2085,"volont":2086,"dan":2087,"rat":2088,"armes":2089,"argent":2090,"terme":2091,"souff":2092,"Maroc":2093,"réseau":2094,"remp":2095,"auté":2096,"ami":2097,"extr":2098,"fond":2099,"droits":2100,"sage":2101,"liv":2102,"premiers":2103,"Mos":2104,"Nord":2105,"élé":2106,"oupes":2107,"quet":2108,"conditions":2109,"acité":2110,"ambi":2111,"sortie":2112,"Belgique":2113,"prochaine":2114,"étrang":2115,"ls":2116,"joueur":2117,"199":2118,"80":2119,"maire":2120,"nord":2121,"quée":2122,"quarti":2123,"sud":2124,"perdu":2125,"prévu":2126,"donne":2127,"effectu":2128,"gauche":2129,"mation":2130,"secon":2131,"évolu":2132,"actuellement":2133,"réseaux":2134,"activités":2135,"Plus":2136,"réuni":2137,"comb":2138,"gée":2139,"mê":2140,"pou":2141,"informations":2142,"chés":2143,"my":2144,"dix":2145,"accep":2146,"hier":2147,"estime":2148,"quis":2149,"américain":2150,"responsable":2151,"enregis":2152,"dépend":2153,"conséqu":2154,"ouverture":2155,"plate":2156,"alistes":2157,"projets":2158,"ko":2159,"parfois":2160,"territoire":2161,"han":2162,"laquelle":2163,"adap":2164,"produit":2165,"économique":2166,"victimes":2167,"Jus":2168,"lant":2169,"épo":2170,"étant":2171,"commune":2172,"Emmanuel":2173,"mère":2174,"dénon":2175,"petite":2176,"tréal":2177,"cœur":2178,"évo":2179,"obser":2180,"objet":2181,"certaines":2182,"améli":2183,"meilleur":2184,"quoti":2185,"second":2186,"plai":2187,"ape":2188,"sive":2189,"procé":2190,"coû":2191,"oblig":2192,"République":2193,"milieu":2194,"précédent":2195,"kin":2196,"parler":2197,"chaî":2198,"laire":2199,"qualité":2200,"sex":2201,"chau":2202,"attaque":2203,"droite":2204,"Cor":2205,"dez":2206,"militaire":2207,"ordre":2208,"problème":2209,"voire":2210,"meur":2211,"rapidement":2212,"gres":2213,"lib":2214,"préf":2215,"trouve":2216,"Union":2217,"Ain":2218,"CO":2219,"vari":2220,"rend":2221,"ess":2222,"recherche":2223,"dét":2224,"travaux":2225,"Quand":2226,"traté":2227,"malgré":2228,"estival":2229,"dépar":2230,"présence":2231,"affaire":2232,"finalement":2233,"différents":2234,"engage":2235,"européenne":2236,"Coupe":2237,"seur":2238,"pace":2239,"affaires":2240,"tements":2241,"nels":2242,"Alle":2243,"accès":2244,"70":2245,"manque":2246,"buts":2247,"compli":2248,"bout":2249,"établis":2250,"mir":2251,"longtemps":2252,"plein":2253,"ologie":2254,"500":2255,"Face":2256,"ani":2257,"vide":2258,"gestion":2259,"idée":2260,"auprès":2261,"négal":2262,"célé":2263,"Premier":2264,"Cô":2265,"vés":2266,"super":2267,"époque":2268,"jo":2269,"sci":2270,"dipl":2271,"accident":2272,"propose":2273,"pén":2274,"bure":2275,"contrôle":2276,"sources":2277,"straté":2278,"habitants":2279,"Isra":2280,"PC":2281,"mau":2282,"viennent":2283,"Ju":2284,"Val":2285,"foot":2286,"ka":2287,"ordin":2288,"atoire":2289,"course":2290,"liste":2291,"thé":2292,"photo":2293,"Ainsi":2294,"lay":2295,"vivre":2296,"Pierre":2297,"iens":2298,"Inter":2299,"syndi":2300,"oun":2301,"dérou":2302,"peine":2303,"carrière":2304,"permettre":2305,"Poutine":2306,"tor":2307,"docu":2308,"Bar":2309,"belle":2310,"cus":2311,"lot":2312,"incen":2313,"anté":2314,"Mari":2315,"clair":2316,"sept":2317,"Fin":2318,"négo":2319,"Montréal":2320,"capitale":2321,"démocra":2322,"Twit":2323,"Ça":2324,"aider":2325,"avent":2326,"fique":2327,"rendu":2328,"voiture":2329,"sac":2330,"parmi":2331,"majorité":2332,"blan":2333,"fla":2334,"join":2335,"française":2336,"Ab":2337,"sés":2338,"aces":2339,"image":2340,"rester":2341,"Lig":2342,"ey":2343,"retrouver":2344,"agres":2345,"compéti":2346,"exper":2347,"céré":2348,"Brux":2349,"solution":2350,"fille":2351,"refus":2352,"abs":2353,"terre":2354,"créer":2355,"environnement":2356,"tiers":2357,"affirmé":2358,"activité":2359,"Cour":2360,"Ville":2361,"uri":2362,"lieux":2363,"agri":2364,"combat":2365,"abri":2366,"polici":2367,"mains":2368,"Moscou":2369,"mage":2370,"usement":2371,"train":2372,"rées":2373,"réser":2374,"mine":2375,"phone":2376,"hôpital":2377,"dg":2378,"démar":2379,"adop":2380,"ritan":2381,"voie":2382,"victime":2383,"résident":2384,"écri":2385,"inqui":2386,"doute":2387,"demandé":2388,"techn":2389,"dossier":2390,"29":2391,"Même":2392,"fié":2393,"matière":2394,"ctor":2395,"source":2396,"pectac":2397,"Go":2398,"bur":2399,"inten":2400,"pourtant":2401,"presque":2402,"montre":2403,"précise":2404,"Sh":2405,"hér":2406,"atu":2407,"longue":2408,"municip":2409,"Alex":2410,"rég":2411,"faci":2412,"enfant":2413,"Col":2414,"cale":2415,"hors":2416,"pir":2417,"perfor":2418,"expliqué":2419,"bri":2420,"ague":2421,"AFP":2422,"Sam":2423,"gne":2424,"spectac":2425,"diz":2426,"alisation":2427,"lorsque":2428,"sorti":2429,"voix":2430,"expérience":2431,"entrée":2432,"suppl":2433,"sûr":2434,"ite":2435,"réalité":2436,"piers":2437,"phy":2438,"précisé":2439,"présidenti":2440,"km":2441,"kil":2442,"dispar":2443,"extrême":2444,"Tour":2445,"parents":2446,"ouverte":2447,"orique":2448,"contribu":2449,"séri":2450,"mari":2451,"grandes":2452,"économie":2453,"réussi":2454,"Grand":2455,"Mer":2456,"mus":2457,"spec":2458,"unal":2459,"divers":2460,"ack":2461,"impli":2462,"matéri":2463,"fut":2464,"assurer":2465,"particulièrement":2466,"gam":2467,"idé":2468,"iner":2469,"pied":2470,"Cam":2471,"II":2472,"cteurs":2473,"progres":2474,"gine":2475,"poste":2476,"intérêt":2477,"Deux":2478,"ah":2479,"chance":2480,"témoi":2481,"sélection":2482,"mondiale":2483,"Français":2484,"New":2485,"preuve":2486,"So":2487,"avan":2488,"tenue":2489,"phon":2490,"juge":2491,"assure":2492,"Twitter":2493,"Est":2494,"âge":2495,"dég":2496,"révé":2497,"appu":2498,"aler":2499,"celles":2500,"simple":2501,"fron":2502,"isra":2503,"estre":2504,"exer":2505,"lutte":2506,"version":2507,"unique":2508,"allait":2509,"performan":2510,"lob":2511,"mètres":2512,"gies":2513,"Chine":2514,"générale":2515,"voyage":2516,"ption":2517,"pil":2518,"agi":2519,"fie":2520,"Sud":2521,"Centre":2522,"oré":2523,"avais":2524,"parle":2525,"tées":2526,"migr":2527,"derrière":2528,"vérit":2529,"internationale":2530,"intéri":2531,"clients":2532,"inflation":2533,"Sy":2534,"2018":2535,"médias":2536,"achet":2537,"travailler":2538,"joint":2539,"gés":2540,"écu":2541,"isé":2542,"chant":2543,"budg":2544,"hiver":2545,"équipes":2546,"différentes":2547,"Joh":2548,"Bruxelles":2549,"supplément":2550,"%.":2551,"destin":2552,"liber":2553,"acteurs":2554,"commis":2555,"judi":2556,"construction":2557,"citoyens":2558,"Israël":2559,"AN":2560,"dant":2561,"espace":2562,"oubli":2563,"information":2564,"avoc":2565,"mique":2566,"terror":2567,"nav":2568,"lau":2569,"orig":2570,"proté":2571,"hique":2572,"indivi":2573,"ajoute":2574,"commencé":2575,"bâti":2576,"Gen":2577,"Roy":2578,"déb":2579,"souligne":2580,"huit":2581,"restau":2582,"hos":2583,"ition":2584,"taire":2585,"phé":2586,"éviter":2587,"ennes":2588,"propre":2589,"institu":2590,"conférence":2591,"favor":2592,"ader":2593,"inv":2594,"atteint":2595,"véhicule":2596,"Amé":2597,"més":2598,"trim":2599,"questions":2600,"international":2601,"communauté":2602,"visite":2603,"continuer":2604,"association":2605,"afric":2606,"35":2607,"fils":2608,"poi":2609,"wi":2610,"effor":2611,"résultats":2612,"israéli":2613,"Pau":2614,"bru":2615,"cture":2616,"demi":2617,"suit":2618,"premières":2619,"Cham":2620,"ia":2621,"ow":2622,"mouvement":2623,"Hu":2624,"essa":2625,"devenu":2626,"tection":2627,"méde":2628,"vente":2629,"signé":2630,"véhicules":2631,"genre":2632,"quartier":2633,"négoci":2634,"Cert":2635,"davantage":2636,"envoy":2637,"ars":2638,"défi":2639,"livre":2640,"mour":2641,"libér":2642,"ham":2643,"icul":2644,"oie":2645,"plupart":2646,"élection":2647,"assis":2648,"record":2649,"chauff":2650,"spor":2651,"veille":2652,"pétr":2653,"court":2654,"2017":2655,"béc":2656,"affirme":2657,"mêmes":2658,"Dav":2659,"infr":2660,"sition":2661,"sées":2662,"certaine":2663,"retrouve":2664,"Gr":2665,"pol":2666,"obtenir":2667,"pha":2668,"origine":2669,"week":2670,"1er":2671,"Lau":2672,"lois":2673,"naire":2674,"alli":2675,"avenir":2676,"conten":2677,"annu":2678,"sort":2679,"élections":2680,"positions":2681,"écran":2682,"rece":2683,"chac":2684,"endra":2685,"piè":2686,"térieur":2687,"Aus":2688,"Ste":2689,"reux":2690,"alu":2691,"proces":2692,"étaire":2693,"adres":2694,"coups":2695,"américaine":2696,"impact":2697,"Malgré":2698,"écou":2699,"trie":2700,"dure":2701,"mode":2702,"décès":2703,"tourn":2704,"soirée":2705,"augmentation":2706,"détail":2707,"Bu":2708,"Bor":2709,"Mont":2710,"sensi":2711,"siè":2712,"alités":2713,"semblée":2714,"familles":2715,"épis":2716,"souligné":2717,"analy":2718,"avance":2719,"personn":2720,"création":2721,"cinéma":2722,"quotidien":2723,"31":2724,"Ap":2725,"vation":2726,"chu":2727,"trui":2728,"exception":2729,"images":2730,"impression":2731,"marqué":2732,"étude":2733,"Mich":2734,"attendu":2735,"Ad":2736,"tirer":2737,"qués":2738,"ork":2739,"fix":2740,"importante":2741,"matchs":2742,"commerci":2743,"tandis":2744,"tend":2745,"ving":2746,"ède":2747,"déclar":2748,"lancer":2749,"collabor":2750,"social":2751,"présente":2752,"empê":2753,"baisse":2754,"valeur":2755,"tar":2756,"”.":2757,"essenti":2758,"aie":2759,"dial":2760,"vir":2761,"appro":2762,"prépar":2763,"maxim":2764,"Etats":2765,"arrive":2766,"Pe":2767,"SS":2768,"tié":2769,"lace":2770,"lie":2771,"voil":2772,"François":2773,"Bien":2774,"UE":2775,"har":2776,"magne":2777,"sée":2778,"pourra":2779,"accueilli":2780,"administration":2781,"judici":2782,"cés":2783,"faud":2784,"stru":2785,"via":2786,"45":2787,"FA":2788,"The":2789,"ong":2790,"deur":2791,"dessus":2792,"ado":2793,"difficul":2794,"sanctions":2795,"tribunal":2796,"Ex":2797,"Mé":2798,"lés":2799,"forte":2800,"peuple":2801,"alisé":2802,"double":2803,"paix":2804,"John":2805,"ala":2806,"scol":2807,"èmes":2808,"ètement":2809,"rela":2810,"urgence":2811,"oly":2812,"sortir":2813,"faisant":2814,"simplement":2815,"devenir":2816,"anne":2817,"ash":2818,"exclu":2819,"parer":2820,"ting":2821,"vasion":2822,"appelé":2823,"sommet":2824,"compagnie":2825,"moyenne":2826,"liberté":2827,"gri":2828,"yp":2829,"endro":2830,"exprim":2831,"puisque":2832,"solid":2833,"pompiers":2834,"Allemagne":2835,"diplom":2836,"ati":2837,"mét":2838,"rations":2839,"quin":2840,"compris":2841,"Plu":2842,"Te":2843,"Van":2844,"avis":2845,"meu":2846,"sons":2847,"militaires":2848,"Beau":2849,"élu":2850,"unité":2851,"protection":2852,"lées":2853,"carte":2854,"garder":2855,"Algé":2856,"signi":2857,"suffis":2858,"Pr":2859,"bord":2860,"ctu":2861,"demain":2862,"excel":2863,"peur":2864,"milliers":2865,"petits":2866,"modèle":2867,"CE":2868,"lour":2869,"épi":2870,"conne":2871,"cole":2872,"nements":2873,"accor":2874,"historique":2875,"musique":2876,"VI":2877,"bois":2878,"lien":2879,"chemin":2880,"mées":2881,"tenti":2882,"parties":2883,"renfor":2884,"Aujourd":2885,"village":2886,"responsables":2887,"Côte":2888,"Pri":2889,"arb":2890,"débu":2891,"détermin":2892,"exécu":2893,"publié":2894,"achat":2895,"promo":2896,"ige":2897,"vac":2898,"enfin":2899,"leader":2900,"pourquoi":2901,"compar":2902,"imag":2903,"joué":2904,"gagner":2905,"fédéral":2906,"plateforme":2907,"Rob":2908,"cemment":2909,"consu":2910,"maî":2911,"lèmes":2912,"human":2913,"Bur":2914,"tation":2915,"tari":2916,"provo":2917,"ouvre":2918,"capacité":2919,"réguli":2920,"Ligue":2921,"policiers":2922,"Rou":2923,"ana":2924,"allu":2925,"aver":2926,"former":2927,"sole":2928,"lorsqu":2929,"élector":2930,"continue":2931,"sanitaire":2932,"souhait":2933,"souhaite":2934,"électricité":2935,"football":2936,"pau":2937,"vres":2938,"arme":2939,"pourraient":2940,"nuclé":2941,"problèmes":2942,"tait":2943,"lequel":2944,"débat":2945,"sala":2946,"Chris":2947,"attendre":2948,"changement":2949,"Sénégal":2950,"Per":2951,"lait":2952,"issu":2953,"concur":2954,"mandat":2955,"finance":2956,"opposition":2957,"rappelle":2958,"présenté":2959,"conflit":2960,"origin":2961,"monie":2962,"vote":2963,"positif":2964,"ilip":2965,"réunion":2966,"adien":2967,"by":2968,"hie":2969,"outi":2970,"soient":2971,"passage":2972,"aï":2973,"yeux":2974,"reur":2975,"eth":2976,"invasion":2977,"vice":2978,"interro":2979,"ailles":2980,"salle":2981,"exploit":2982,"chiffres":2983,"bureau":2984,"ritannique":2985,"pal":2986,"stu":2987,"édu":2988,"changer":2989,"apon":2990,"tradition":2991,"remporté":2992,"connaître":2993,"élèves":2994,"videmment":2995,"incendie":2996,"présidentielle":2997,"cie":2998,"mand":2999,"groupes":3000,"privé":3001,"fonds":3002,"possibilité":3003,"arrêt":3004,"réponse":3005,"transition":3006,"province":3007,"département":3008,"kilom":3009,"vingt":3010,"99":3011,"Be":3012,"Mme":3013,"Pen":3014,"Ren":3015,"nis":3016,"ladi":3017,"secré":3018,"trou":3019,"trent":3020,"iev":3021,"message":3022,"lève":3023,"concernant":3024,"bourg":3025,"Santé":3026,"Ver":3027,"ya":3028,"viv":3029,"milit":3030,"rendez":3031,"certain":3032,"fré":3033,"noir":3034,"âgé":3035,"ouest":3036,"procès":3037,"étape":3038,"immédi":3039,"formes":3040,"suivi":3041,"ogue":3042,"trouvé":3043,"arrêté":3044,"Notre":3045,"récemment":3046,"endant":3047,"compter":3048,"sociale":3049,"At":3050,"Bour":3051,"relations":3052,"seurs":3053,"découvrir":3054,"versaire":3055,"proches":3056,"volu":3057,"CA":3058,"Ro":3059,"morts":3060,"Esp":3061,"Ge":3062,"bomb":3063,"delà":3064,"indépend":3065,"aban":3066,"ray":3067,"études":3068,"atteindre":3069,"moyens":3070,"mondial":3071,"Cas":3072,"Kiev":3073,"Pu":3074,"aque":3075,"tières":3076,"passion":3077,"giques":3078,"collè":3079,"rouge":3080,"bert":3081,"croy":3082,"Net":3083,"usi":3084,"audi":3085,"civi":3086,"niques":3087,"technique":3088,"candidats":3089,"salari":3090,"atiques":3091,"den":3092,"lade":3093,"nies":3094,"distribu":3095,"moyen":3096,"Ama":3097,"bus":3098,"dence":3099,"chir":3100,"Ang":3101,"confiance":3102,"meilleure":3103,"représente":3104,"véritable":3105,"ram":3106,"veux":3107,"reli":3108,"appr":3109,"veill":3110,"discours":3111,"Che":3112,"devait":3113,"suivre":3114,"posée":3115,"constat":3116,"participer":3117,"Plusieurs":3118,"Nouv":3119,"wa":3120,"pratique":3121,"note":3122,"colon":3123,"utiliser":3124,"villes":3125,"nais":3126,"orer":3127,"énor":3128,"levé":3129,"cependant":3130,"tral":3131,"partis":3132,"centrale":3133,"montant":3134,"films":3135,"type":3136,"processus":3137,"90":3138,"Por":3139,"TV":3140,"inée":3141,"appré":3142,"appare":3143,"inscri":3144,"auto":3145,"stade":3146,"répondre":3147,"violence":3148,"Blan":3149,"pê":3150,"outre":3151,"convain":3152,"contexte":3153,"potenti":3154,"particulier":3155,"Philip":3156,"connaît":3157,"employés":3158,"75":3159,"AS":3160,"gh":3161,"nam":3162,"existe":3163,"station":3164,"fonda":3165,"transport":3166,"régions":3167,"député":3168,"disponible":3169,"mant":3170,"lever":3171,"aime":3172,"chent":3173,"décé":3174,"conte":3175,"procu":3176,"matiques":3177,"Entre":3178,"profiter":3179,"réalisé":3180,"énergé":3181,"quitter":3182,"document":3183,"hospit":3184,"gor":3185,"ny":3186,"aste":3187,"atar":3188,"comprend":3189,"étais":3190,"tenus":3191,"Avant":3192,"nécessaire":3193,"assuré":3194,"chaîne":3195,"intérieur":3196,"budget":3197,"secrétaire":3198,"Tru":3199,"ame":3200,"festival":3201,"hou":3202,"psy":3203,"uré":3204,"uns":3205,"sif":3206,"comprendre":3207,"amis":3208,"formé":3209,"dispu":3210,"trième":3211,"guer":3212,"devraient":3213,"élevé":3214,"arriver":3215,"locaux":3216,"musi":3217,"députés":3218,"neuf":3219,"industri":3220,"%,":3221,"odes":3222,"sai":3223,"sais":3224,"ciel":3225,"soins":3226,"Parmi":3227,"ctures":3228,"contrat":3229,"espoir":3230,"Louis":3231,"seconde":3232,"Paul":3233,"Sans":3234,"Tous":3235,"ples":3236,"esse":3237,"devient":3238,"ina":3239,"acte":3240,"mot":3241,"entrer":3242,"consci":3243,"montrer":3244,"domaine":3245,"heureusement":3246,"augmenter":3247,"accusé":3248,"volonté":3249,"chacun":3250,"Aff":3251,"sport":3252,"écol":3253,"chin":3254,"agir":3255,"roy":3256,"personnage":3257,"concerne":3258,"Elles":3259,"revenir":3260,"auront":3261,"récu":3262,"rang":3263,"célè":3264,"missions":3265,"puissance":3266,"pire":3267,"évalu":3268,"régime":3269,"emploi":3270,"Certains":3271,"page":3272,"vites":3273,"parcours":3274,"med":3275,"mises":3276,"uite":3277,"Quel":3278,"contrô":3279,"arrivé":3280,"fera":3281,"princi":3282,"maladie":3283,"compétition":3284,"Nor":3285,"entour":3286,"pron":3287,"parlement":3288,"réfu":3289,"pourront":3290,"acteur":3291,"mière":3292,"grès":3293,"pales":3294,"patron":3295,"caté":3296,"famili":3297,"dirigeants":3298,"individu":3299,"truire":3300,"sis":3301,"recher":3302,"quar":3303,"ames":3304,"supéri":3305,"arrière":3306,"titude":3307,"publics":3308,"quatrième":3309,"tempé":3310,"rassemb":3311,"étudiants":3312,"engagement":3313,"Algérie":3314,"Bon":3315,"Ban":3316,"Oli":3317,"Ti":3318,"ote":3319,"çant":3320,"défini":3321,"membre":3322,"fe":3323,"faite":3324,"dement":3325,"gure":3326,"sorte":3327,"présidente":3328,"box":3329,"directement":3330,"rempla":3331,"éléments":3332,"kilomètres":3333,"Cap":3334,"gou":3335,"rage":3336,"èrent":3337,"avions":3338,"parc":3339,"poursuit":3340,"agence":3341,"plainte":3342,"aper":3343,"pay":3344,"vise":3345,"198":3346,"quels":3347,"élimin":3348,"croissance":3349,"prêt":3350,"consommation":3351,"bécois":3352,"York":3353,"lux":3354,"recomman":3355,"ome":3356,"oine":3357,"acces":3358,"pul":3359,"marche":3360,"joue":3361,"durée":3362,"communication":3363,"principal":3364,"initiative":3365,"Bi":3366,"Sou":3367,"US":3368,"dra":3369,"her":3370,"sel":3371,"récla":3372,"concert":3373,"agers":3374,"respect":3375,"fic":3376,"mart":3377,"visage":3378,"rencontr":3379,"ancienne":3380,"classi":3381,"laisser":3382,"moitié":3383,"législa":3384,"européen":3385,"ologique":3386,"Trois":3387,"estimé":3388,"automob":3389,"Vladi":3390,"xi":3391,"espr":3392,"aume":3393,"offrir":3394,"ariat":3395,"climatique":3396,"ryth":3397,"David":3398,"Ra":3399,"cos":3400,"ji":3401,"rité":3402,"vali":3403,"ley":3404,"tini":3405,"archi":3406,"affront":3407,"laisse":3408,"journaliste":3409,"belge":3410,"Vladimir":3411,"Dr":3412,"Vin":3413,"équ":3414,"lir":3415,"libre":3416,"instant":3417,"somme":3418,"domicile":3419,"veulent":3420,"confirmé":3421,"cérémonie":3422,"tab":3423,"rement":3424,"recru":3425,"inte":3426,"libé":3427,"profon":3428,"modi":3429,"espère":3430,"application":3431,"lâ":3432,"mun":3433,"raisons":3434,"scé":3435,"zz":3436,"émo":3437,"reprises":3438,"traite":3439,"quelles":3440,"Assemblée":3441,"administra":3442,"scienti":3443,"Ali":3444,"dres":3445,"pap":3446,"évent":3447,"acu":3448,"raconte":3449,"stock":3450,"diffus":3451,"large":3452,"opérations":3453,"pouvez":3454,"2015":3455,"bilan":3456,"conseiller":3457,"conséquences":3458,"LR":3459,"Président":3460,"blo":3461,"gend":3462,"espé":3463,"arr":3464,"inscrit":3465,"aliser":3466,"risques":3467,"résultat":3468,"quasi":3469,"Jac":3470,"âtre":3471,"oui":3472,"assi":3473,"dir":3474,"agents":3475,"méd":3476,"placé":3477,"populaire":3478,"article":3479,"ukrainienne":3480,"accueil":3481,"numérique":3482,"revan":3483,"alter":3484,"acté":3485,"appelle":3486,"minim":3487,"obtenu":3488,"Enfin":3489,"Parti":3490,"largement":3491,"Michel":3492,"Mor":3493,"RT":3494,"ènes":3495,"écr":3496,"évidemment":3497,"envie":3498,"instru":3499,"payer":3500,"mention":3501,"norm":3502,"Noël":3503,"numéro":3504,"absence":3505,"récupé":3506,"300":3507,"faute":3508,"sante":3509,"enqu":3510,"revient":3511,"entend":3512,"incar":3513,"dies":3514,"exis":3515,"Marie":3516,"aître":3517,"Univers":3518,"ologue":3519,"commencer":3520,"zones":3521,"physique":3522,"DC":3523,"Dis":3524,"Sch":3525,"britannique":3526,"ano":3527,"anni":3528,"entendu":3529,"astru":3530,"coût":3531,"missi":3532,"renouv":3533,"couple":3534,"Quant":3535,"intégr":3536,"monter":3537,"2016":3538,"infec":3539,"influ":3540,"embour":3541,"partenaires":3542,"spectacle":3543,"Cons":3544,"cab":3545,"ed":3546,"çons":3547,"plon":3548,"approche":3549,"tera":3550,"discus":3551,"racont":3552,"aéro":3553,"mauvais":3554,"tournoi":3555,"olymp":3556,"vitesse":3557,"réfugi":3558,"Bo":3559,"Bas":3560,"Ital":3561,"glob":3562,"rence":3563,"del":3564,"attention":3565,"agent":3566,"Marc":3567,"capable":3568,"nelles":3569,"connue":3570,"importance":3571,"Lé":3572,"èse":3573,"reven":3574,"chale":3575,"déplace":3576,"récent":3577,"importe":3578,"coin":3579,"pleine":3580,"exerci":3581,"faudra":3582,"LE":3583,"lor":3584,"oins":3585,"stitu":3586,"encour":3587,"line":3588,"partout":3589,"courant":3590,"nouvel":3591,"travailleurs":3592,"centaines":3593,"symb":3594,"client":3595,"Toute":3596,"attaques":3597,"Nice":3598,"faisait":3599,"classe":3600,"artiste":3601,"Charles":3602,"affiche":3603,"étrangères":3604,"siècle":3605,"connec":3606,"FC":3607,"FI":3608,"ov":3609,"ald":3610,"offensi":3611,"blessés":3612,"réduire":3613,"choisi":3614,"infrastru":3615,"scén":3616,"cant":3617,"nour":3618,"élus":3619,"anmoins":3620,"rienne":3621,"agis":3622,"commission":3623,"proposé":3624,"peler":3625,"entretien":3626,"Pourtant":3627,"froi":3628,"prennent":3629,"investi":3630,"fourn":3631,"plaisir":3632,"Har":3633,"Nation":3634,"Que":3635,"Sim":3636,"Tur":3637,"xe":3638,"cien":3639,"ambas":3640,"éton":3641,"devra":3642,"pouvait":3643,"suspen":3644,"probablement":3645,"actuelle":3646,"bras":3647,"aventure":3648,"issue":3649,"pronon":3650,"33":3651,"Den":3652,"Vo":3653,"glis":3654,"ttes":3655,"remise":3656,"entendre":3657,"comité":3658,"contact":3659,"commence":3660,"complex":3661,"devoir":3662,"besoins":3663,"fourni":3664,"complètement":3665,"événements":3666,"participation":3667,"conserva":3668,"accueillir":3669,"revanche":3670,"ambassa":3671,"Dès":3672,"atis":3673,"reconnu":3674,"ault":3675,"auraient":3676,"ressources":3677,"statu":3678,"ington":3679,"opéra":3680,"Commission":3681,"iden":3682,"écoles":3683,"entraîneur":3684,"protéger":3685,"nucléaire":3686,"Bé":3687,"Mus":3688,"Pendant":3689,"fans":3690,"sil":3691,"prét":3692,"occident":3693,"prochaines":3694,"profit":3695,"penser":3696,"classement":3697,"joindre":3698,"efforts":3699,"judiciaire":3700,"températ":3701,"CN":3702,"Cet":3703,"Mali":3704,"bloc":3705,"mou":3706,"quart":3707,"chet":3708,"dique":3709,"récol":3710,"confront":3711,"acquis":3712,"internation":3713,"cade":3714,"présenter":3715,"francs":3716,"2014":3717,"bande":3718,"phénom":3719,"négociations":3720,"Cel":3721,"pin":3722,"portes":3723,"verse":3724,"istance":3725,"changé":3726,"côtés":3727,"résil":3728,"tempor":3729,"phase":3730,"Min":3731,"h30":3732,"hauteur":3733,"ination":3734,"dép":3735,"surprise":3736,"forcé":3737,"portant":3738,"Cependant":3739,"réaliser":3740,"magas":3741,"grave":3742,"phones":3743,"Philippe":3744,"fête":3745,"pont":3746,"revenus":3747,"urb":3748,"parquet":3749,"agu":3750,"céder":3751,"évacu":3752,"assin":3753,"ajouter":3754,"portée":3755,"retrouvé":3756,"vacances":3757,"36":3758,"voc":3759,"ètre":3760,"incident":3761,"cié":3762,"agn":3763,"comédi":3764,"satis":3765,"opport":3766,"vert":3767,"ministres":3768,"situé":3769,"illus":3770,"économiques":3771,"multipli":3772,"industrie":3773,"scolaire":3774,"400":3775,"AM":3776,"Né":3777,"gur":3778,"sang":3779,"ôme":3780,"oration":3781,"diction":3782,"ates":3783,"cite":3784,"grève":3785,"discu":3786,"intervention":3787,"tisme":3788,"clairement":3789,"connaissance":3790,"experts":3791,"32":3792,"Tunis":3793,"cis":3794,"zi":3795,"èles":3796,"olé":3797,"extérieur":3798,"fir":3799,"soldats":3800,"utilisation":3801,"propriétaire":3802,"stratégie":3803,"célèbre":3804,"Air":3805,"Fer":3806,"San":3807,"rons":3808,"lah":3809,"seig":3810,"cule":3811,"compét":3812,"demander":3813,"génération":3814,"locale":3815,"artistes":3816,"professionnels":3817,"dange":3818,"évolution":3819,"Olivier":3820,"Her":3821,"eroun":3822,"tiré":3823,"arab":3824,"dédi":3825,"abat":3826,"puisqu":3827,"franco":3828,"menace":3829,"ferme":3830,"heureux":3831,"hôtel":3832,"solutions":3833,"circulation":3834,"dynam":3835,"condamné":3836,"Bri":3837,"Mas":3838,"Mad":3839,"ica":3840,"naires":3841,"ski":3842,"édé":3843,"écar":3844,"inclu":3845,"lumière":3846,"venant":3847,"communes":3848,"interpel":3849,"salu":3850,"totalement":3851,"Nico":3852,"Déf":3853,"championnat":3854,"frontière":3855,"Affaires":3856,"sites":3857,"vê":3858,"champ":3859,"prévue":3860,"soutenir":3861,"blement":3862,"197":3863,"entis":3864,"répond":3865,"animaux":3866,"terminé":3867,"journalistes":3868,"patients":3869,"financement":3870,"Espagne":3871,"55":3872,"Clau":3873,"DG":3874,"vague":3875,"envers":3876,"ital":3877,"dul":3878,"lic":3879,"condition":3880,"passant":3881,"prévoit":3882,"Chaque":3883,"Marine":3884,"bonnes":3885,"frais":3886,"Anne":3887,"permettant":3888,"ario":3889,"promis":3890,"commerce":3891,"faveur":3892,"règles":3893,"Genève":3894,"pétrole":3895,"Ke":3896,"Met":3897,"ice":3898,"mail":3899,"ung":3900,"radi":3901,"mots":3902,"mach":3903,"puisse":3904,"peux":3905,"gué":3906,"allée":3907,"banque":3908,"regard":3909,"violences":3910,"technologie":3911,"maximum":3912,"34":3913,"Mc":3914,"Pé":3915,"ile":3916,"jui":3917,"lles":3918,"vils":3919,"reç":3920,"allon":3921,"avion":3922,"chement":3923,"fiques":3924,"mén":3925,"montré":3926,"langue":3927,"Martin":3928,"Auc":3929,"consta":3930,"bâtiment":3931,"Amazon":3932,"esprit":3933,"CI":3934,"Lo":3935,"Peu":3936,"belles":3937,"haute":3938,"lages":3939,"ares":3940,"chat":3941,"algé":3942,"moder":3943,"actuel":3944,"ockey":3945,"tellement":3946,"consomma":3947,"trodu":3948,"landais":3949,"qualifi":3950,"déploy":3951,"améliorer":3952,"Université":3953,"Biden":3954,"We":3955,"pt":3956,"sh":3957,"arité":3958,"ama":3959,"dispose":3960,"signal":3961,"effets":3962,"aît":3963,"voulu":3964,"ONU":3965,"sexu":3966,"établissement":3967,"tendance":3968,"approvision":3969,"TA":3970,"Tu":3971,"smart":3972,"rejet":3973,"retrait":3974,"ouse":3975,"tension":3976,"affec":3977,"permettra":3978,"futur":3979,"meilleurs":3980,"responsabilité":3981,"échap":3982,"vouloir":3983,"honneur":3984,"chiffre":3985,"supplémentaires":3986,"Apple":3987,"rythme":3988,"Ac":3989,"Th":3990,"retraite":3991,"chron":3992,"termes":3993,"rales":3994,"construire":3995,"allons":3996,"laissé":3997,"prenant":3998,"ukrainiens":3999,"dizaines":4000,"performance":4001,"adoles":4002,"endroit":4003,"énergétique":4004,"anie":4005,"issement":4006,"cho":4007,"trés":4008,"avir":4009,"livr":4010,"seraient":4011,"touché":4012,"mécan":4013,"consac":4014,"tivité":4015,"voitures":4016,"chefs":4017,"arrêter":4018,"lancement":4019,"pénur":4020,"blanc":4021,"Améric":4022,"personnages":4023,"VID":4024,"Iran":4025,"Seu":4026,"Wash":4027,"remis":4028,"aig":4029,"entôt":4030,"isés":4031,"intention":4032,"dévoil":4033,"sures":4034,"respon":4035,"rad":4036,"auton":4037,"interdit":4038,"pions":4039,"prime":4040,"million":4041,"tenter":4042,"coron":4043,"correspon":4044,"orient":4045,"médica":4046,"book":4047,"Guinée":4048,"Luc":4049,"Patri":4050,"investissement":4051,"facile":4052,"poids":4053,"37":4054,"Mau":4055,"Mat":4056,"Zel":4057,"bran":4058,"fre":4059,"mons":4060,"tt":4061,"île":4062,"introdu":4063,"chap":4064,"siège":4065,"actes":4066,"abeth":4067,"cesse":4068,"session":4069,"marchés":4070,"gion":4071,"blessé":4072,"Ukrainien":4073,"développer":4074,"barre":4075,"preuves":4076,"faible":4077,"accessi":4078,"Défense":4079,"MS":4080,"ye":4081,"subi":4082,"sépar":4083,"présents":4084,"anglais":4085,"milliard":4086,"frères":4087,"mené":4088,"engag":4089,"populations":4090,"téléphone":4091,"balle":4092,"démocratie":4093,"réfugiés":4094,"Washington":4095,"49":4096,"Gi":4097,"bons":4098,"jard":4099,"ony":4100,"remb":4101,"secours":4102,"ell":4103,"compor":4104,"2024":4105,"Maison":4106,"alition":4107,"organisé":4108,"tirs":4109,"poursuivre":4110,"COVID":4111,"syndic":4112,"Res":4113,"grés":4114,"mit":4115,"rection":4116,"lix":4117,"réforme":4118,"sert":4119,"immobil":4120,"figure":4121,"distin":4122,"inet":4123,"suisse":4124,"matériel":4125,"épisode":4126,"Jeux":4127,"Ly":4128,"nants":4129,"aga":4130,"nier":4131,"2000":4132,"entrepren":4133,"lande":4134,"partage":4135,"filles":4136,"aye":4137,"restent":4138,"chargé":4139,"utilisé":4140,"Ouest":4141,"dizaine":4142,"éducation":4143,"Nations":4144,"Sal":4145,"danger":4146,"ney":4147,"inno":4148,"due":4149,"faites":4150,"cartes":4151,"publiques":4152,"Parlement":4153,"view":4154,"Russes":4155,"officielle":4156,"électrique":4157,"sivement":4158,"régulièrement":4159,"Dom":4160,"Ivoire":4161,"Lux":4162,"Qui":4163,"gol":4164,"juri":4165,"ester":4166,"riens":4167,"civils":4168,"post":4169,"apporter":4170,"perte":4171,"patri":4172,"géant":4173,"chercher":4174,"climat":4175,"établissements":4176,"céléb":4177,"Laurent":4178,"Cr":4179,"Po":4180,"SP":4181,"bra":4182,"sen":4183,"revenu":4184,"inde":4185,"chon":4186,"chée":4187,"virus":4188,"maroc":4189,"marquer":4190,"finir":4191,"ventions":4192,"carbur":4193,"attente":4194,"the":4195,"quitté":4196,"photos":4197,"voulait":4198,"poursuivi":4199,"acheter":4200,"difficultés":4201,"Puis":4202,"Gar":4203,"Ses":4204,"cents":4205,"fis":4206,"hen":4207,"reprise":4208,"out":4209,"avor":4210,"absolu":4211,"mite":4212,"cuis":4213,"croire":4214,"fémin":4215,"augmenté":4216,"réduction":4217,"circuit":4218,"avocat":4219,"psych":4220,"Gé":4221,"are":4222,"din":4223,"gner":4224,"piste":4225,"relève":4226,"chasse":4227,"plant":4228,"acti":4229,"amour":4230,"préparer":4231,"anges":4232,"créé":4233,"menac":4234,"signe":4235,"petites":4236,"répondu":4237,"souvenir":4238,"gueur":4239,"référence":4240,"disponibles":4241,"Italie":4242,"65":4243,"Jon":4244,"Ru":4245,"atives":4246,"otes":4247,"ange":4248,"illé":4249,"chans":4250,"restri":4251,"oss":4252,"préoccup":4253,"alisme":4254,"devons":4255,"hommage":4256,"bientôt":4257,"And":4258,"gardien":4259,"défaite":4260,"Royaume":4261,"renforcer":4262,"civile":4263,"avirus":4264,"(.":4265,"cles":4266,"fab":4267,"lai":4268,"tter":4269,"deme":4270,"reprendre":4271,"unités":4272,"dia":4273,"atoires":4274,"accélé":4275,"maisons":4276,"oppos":4277,"décen":4278,"direct":4279,"effic":4280,"américains":4281,"européens":4282,"graphique":4283,"analyse":4284,"AI":4285,"SE":4286,"blé":4287,"sit":4288,"perman":4289,"final":4290,"gui":4291,"visant":4292,"importants":4293,"printemps":4294,"jeunesse":4295,"techniques":4296,"minute":4297,"principale":4298,"Joe":4299,"journal":4300,"rappelé":4301,"alimentaire":4302,"secondes":4303,"enregistré":4304,"héros":4305,"Austral":4306,"déclaration":4307,"Fédé":4308,"Qatar":4309,"hau":4310,"jau":4311,"nait":4312,"oit":4313,"ciens":4314,"agon":4315,"micro":4316,"trices":4317,"loge":4318,"tenté":4319,"fermet":4320,"humains":4321,"embar":4322,"vaccination":4323,"changements":4324,"sensibil":4325,"audience":4326,"salariés":4327,"Cit":4328,"flix":4329,"vait":4330,"enri":4331,"recours":4332,"troupes":4333,"avou":4334,"contres":4335,"cine":4336,"accu":4337,"immeu":4338,"touche":4339,"finan":4340,"anda":4341,"attent":4342,"tourner":4343,"canadi":4344,"semblent":4345,"tels":4346,"chambre":4347,"manifestants":4348,"Facebook":4349,"Netflix":4350,"usine":4351,"exercice":4352,"Zelens":4353,"Jér":4354,"fant":4355,"lits":4356,"rais":4357,"émission":4358,"diminu":4359,"lire":4360,"paravant":4361,"cible":4362,"appris":4363,"sond":4364,"sure":4365,"tué":4366,"places":4367,"accro":4368,"centres":4369,"crimi":4370,"crimin":4371,"prochains":4372,"tateurs":4373,"échec":4374,"nécessaires":4375,"lendemain":4376,"gamme":4377,"pièces":4378,"bombar":4379,"principe":4380,"classique":4381,"demeure":4382,"AR":4383,"Non":4384,"hockey":4385,"kh":4386,"âteau":4387,"remer":4388,"rejoindre":4389,"détention":4390,"ries":4391,"amas":4392,"proxim":4393,"abor":4394,"perdre":4395,"fortement":4396,"mém":4397,"dist":4398,"rues":4399,"continent":4400,"sentiment":4401,"graphie":4402,"participé":4403,"valeurs":4404,"refusé":4405,"séries":4406,"promotion":4407,"Robert":4408,"Burkin":4409,"Vincent":4410,"phénomène":4411,"Dou":4412,"rav":4413,"roi":4414,"souver":4415,"score":4416,"échange":4417,"tire":4418,"iss":4419,"dépla":4420,"astrop":4421,"viendra":4422,"contrer":4423,"diffici":4424,"symp":4425,"Institu":4426,"expliquer":4427,"principalement":4428,"directrice":4429,"financière":4430,"traitement":4431,"identité":4432,"extrêmement":4433,"collaboration":4434,"Zelensky":4435,"proximité":4436,"Ha":4437,"Lond":4438,"Pet":4439,"bres":4440,"illég":4441,"allé":4442,"dite":4443,"riches":4444,"proposition":4445,"proposer":4446,"exam":4447,"mini":4448,"donnée":4449,"star":4450,"mener":4451,"anciens":4452,"athlè":4453,"étranger":4454,"nécessité":4455,"manifestation":4456,"chinois":4457,"enquê":4458,"Nicolas":4459,"Luxembour":4460,"Fédération":4461,"Londres":4462,"38":4463,"tâ":4464,"yé":4465,"dette":4466,"relation":4467,"til":4468,"rép":4469,"raf":4470,"geois":4471,"couleurs":4472,"logement":4473,"lancée":4474,"poss":4475,"visiteurs":4476,"objectifs":4477,"nalités":4478,"structure":4479,"pêche":4480,"aéroport":4481,"forcément":4482,"Ed":4483,"Sau":4484,"ref":4485,"aval":4486,"vieux":4487,"prévenu":4488,"oto":4489,"Chr":4490,"trafic":4491,"critiques":4492,"organisations":4493,"brux":4494,"représentants":4495,"professeur":4496,"gagné":4497,"invité":4498,"chute":4499,".”":4500,"AT":4501,"mos":4502,"top":4503,"exposition":4504,"imm":4505,"opti":4506,"privil":4507,"lignes":4508,"fru":4509,"moments":4510,"différence":4511,"attaquant":4512,"litté":4513,"Donc":4514,"camion":4515,"combats":4516,"soleil":4517,"Oc":4518,"Rom":4519,"tian":4520,"tième":4521,"intel":4522,"réjou":4523,"récomp":4524,"rite":4525,"étaires":4526,"bum":4527,"frère":4528,"contraire":4529,"tomber":4530,"installer":4531,"coûts":4532,"appui":4533,"méth":4534,"excell":4535,"procureur":4536,"coronavirus":4537,"Az":4538,"CF":4539,"Kar":4540,"RC":4541,"adul":4542,"pée":4543,"épreuve":4544,"préfé":4545,"vég":4546,"play":4547,"alisée":4548,"critique":4549,"fili":4550,"tente":4551,"sauv":4552,"Associ":4553,"catastrop":4554,"collectif":4555,"effectué":4556,"performances":4557,"trimestre":4558,"solidarité":4559,"consul":4560,"décédé":4561,"catégor":4562,"48":4563,"AD":4564,"Fré":4565,"Thom":4566,"remettre":4567,"isée":4568,"prest":4569,"illon":4570,"coopération":4571,"mond":4572,"vécu":4573,"quées":4574,"formu":4575,"permettent":4576,"défendre":4577,"réalisateur":4578,"rentrée":4579,"sanitaires":4580,"meilleures":4581,"décisions":4582,"intérêts":4583,"étrangers":4584,"contenu":4585,"recevoir":4586,"Claude":4587,"He":4588,"Sta":4589,"èque":4590,"reine":4591,"lac":4592,"desc":4593,"chaus":4594,"attr":4595,"attribu":4596,"rid":4597,"dissement":4598,"déclen":4599,"renseig":4600,"devront":4601,"maintenir":4602,"crédit":4603,"Ant":4604,"cinqui":4605,"locales":4606,"battu":4607,"salaires":4608,"pointe":4609,"officiel":4610,"roman":4611,"idées":4612,"exploitation":4613,"Toutefois":4614,"canton":4615,"statut":4616,"catégorie":4617,"47":4618,"CR":4619,"Del":4620,"Tri":4621,"ira":4622,"sti":4623,"vaut":4624,"œil":4625,"issent":4626,"insu":4627,"tec":4628,"album":4629,"dépen":4630,"surface":4631,"surveill":4632,"prolong":4633,"exig":4634,"internet":4635,"Qué":4636,"posent":4637,"gare":4638,"passée":4639,"constitution":4640,"agression":4641,"migration":4642,"oublier":4643,"dialogue":4644,"Ukrainiens":4645,"Cou":4646,"Fre":4647,"OS":4648,"Pal":4649,"citer":4650,"faux":4651,"set":4652,"lets":4653,"titres":4654,"quanti":4655,"invit":4656,"limite":4657,"réaction":4658,"logique":4659,"Autre":4660,"thème":4661,"intég":4662,"Comment":4663,"vols":4664,"ologne":4665,"seuls":4666,"prêts":4667,"présidence":4668,"aérien":4669,"habitude":4670,"militants":4671,"offensive":4672,"Celui":4673,"cinquième":4674,"Eli":4675,"Eric":4676,"Japon":4677,"Oui":4678,"atement":4679,"jon":4680,"Éric":4681,"ende":4682,"etc":4683,"incroy":4684,"endo":4685,"nér":4686,"sty":4687,"rencontres":4688,"entier":4689,"suiv":4690,"franch":4691,"menée":4692,"garanti":4693,"nommé":4694,"banc":4695,"salles":4696,"planète":4697,"majeur":4698,"associations":4699,"facilement":4700,"Cameroun":4701,"discussions":4702,"constaté":4703,"Mil":4704,"Mag":4705,"Tch":4706,"atrice":4707,"bap":4708,"dons":4709,"fallait":4710,"taille":4711,"délég":4712,"pourrez":4713,"concep":4714,"vez":4715,"gérer":4716,"quelqu":4717,"canadien":4718,"2013":4719,"local":4720,"uels":4721,"lettre":4722,"confirme":4723,"allemand":4724,"livres":4725,"institution":4726,"certainement":4727,"pénurie":4728,"absolument":4729,"Luxembourg":4730,"Dani":4731,"Festival":4732,"Grou":4733,"Otan":4734,"mété":4735,"tic":4736,"chard":4737,"chante":4738,"détru":4739,"cide":4740,"terie":4741,"séjour":4742,"mess":4743,"mobi":4744,"cées":4745,"lise":4746,"bio":4747,"ruption":4748,"boule":4749,"servir":4750,"choisir":4751,"participants":4752,"limit":4753,"procédure":4754,"alerte":4755,"supplémentaire":4756,"législatives":4757,"Fi":4758,"MI":4759,"PI":4760,"Tim":4761,"ker":4762,"mam":4763,"nance":4764,"rares":4765,"tiens":4766,"istique":4767,"prati":4768,"choc":4769,"omie":4770,"liés":4771,"usage":4772,"agré":4773,"terres":4774,"néga":4775,"inspi":4776,"montée":4777,"telles":4778,"résidence":4779,"professionnel":4780,"Bern":4781,"automne":4782,"financier":4783,"modèles":4784,"Alexand":4785,"commiss":4786,"maîtr":4787,"Trump":4788,"équili":4789,"consommateurs":4790,"Christ":4791,"Dar":4792,"Dur":4793,"EA":4794,"Jour":4795,"Sté":4796,"dor":4797,"xes":4798,"neige":4799,"simil":4800,"débar":4801,"concent":4802,"code":4803,"durable":4804,"promet":4805,"attendant":4806,"Pays":4807,"université":4808,"facil":4809,"respecter":4810,"olympique":4811,"icace":4812,"Patrick":4813,"intellig":4814,"CH":4815,"Ky":4816,"Str":4817,"scru":4818,"up":4819,"vul":4820,"éter":4821,"écla":4822,"€.":4823,"quait":4824,"isent":4825,"secteurs":4826,"cht":4827,"vig":4828,"apprendre":4829,"ffe":4830,"pertur":4831,"examen":4832,"métro":4833,"tensions":4834,"log":4835,"affron":4836,"alier":4837,"transports":4838,"Alain":4839,"échelle":4840,"Red":4841,"principaux":4842,"frappe":4843,"terroriste":4844,"pièce":4845,"studio":4846,"indépendance":4847,"Banque":4848,"déplacement":4849,"mémoire":4850,"Fas":4851,"dité":4852,"king":4853,"nante":4854,"ood":4855,"toi":4856,"érie":4857,"antaine":4858,"quie":4859,"aintes":4860,"perspec":4861,"option":4862,"content":4863,"véri":4864,"efficace":4865,"offert":4866,"oyer":4867,"tentative":4868,"rêve":4869,"prendra":4870,"représentant":4871,"circonst":4872,"bénévo":4873,"major":4874,"tests":4875,"détails":4876,"immédiatement":4877,"scénario":4878,"Occident":4879,"2e":4880,"44":4881,"Fe":4882,"Ram":4883,"Tor":4884,"asi":4885,"ld":4886,"épar":4887,"éclair":4888,"’’":4889,"repris":4890,"tice":4891,"isté":4892,"arra":4893,"auteurs":4894,"dict":4895,"dium":4896,"liers":4897,"tream":4898,"mane":4899,"coalition":4900,"forê":4901,"coupe":4902,"crimes":4903,"située":4904,"régional":4905,"niveaux":4906,"espè":4907,"supporter":4908,"ologiques":4909,"cyc":4910,"ONG":4911,"multiples":4912,"oft":4913,"flamb":4914,"appareil":4915,"approvisionnement":4916,"AL":4917,"Bla":4918,"Lam":4919,"cais":4920,"ogique":4921,"tons":4922,"vaise":4923,"ît":4924,"isant":4925,"infor":4926,"ores":4927,"lié":4928,"vigueur":4929,"cession":4930,"métr":4931,"rappeler":4932,"lante":4933,"blessures":4934,"visions":4935,"Star":4936,"hypo":4937,"bénéficier":4938,"propriété":4939,"partenariat":4940,"accompagner":4941,"médecin":4942,"vingtaine":4943,"infrastructures":4944,"comportement":4945,"Association":4946,"Stéph":4947,"%)":4948,"Gabon":4949,"OT":4950,"Rap":4951,"drap":4952,"ja":4953,"laté":4954,"auparavant":4955,"sec":4956,"liées":4957,"plans":4958,"étoi":4959,"contest":4960,"cron":4961,"tradu":4962,"fermer":4963,"confie":4964,"réflex":4965,"investissements":4966,"analys":4967,"déroule":4968,"frontières":4969,"migrants":4970,"supérieur":4971,"rencontré":4972,"anniversaire":4973,"cabinet":4974,"Institut":4975,"War":4976,"Willi":4977,"gas":4978,"mn":4979,"wan":4980,"égi":4981,"inaire":4982,"démission":4983,"sonne":4984,"imposé":4985,"impossible":4986,"rare":4987,"gées":4988,"interview":4989,"196":4990,"colère":4991,"larité":4992,"sign":4993,"graves":4994,"bénéfici":4995,"documents":4996,"écrire":4997,"Soci":4998,"institutions":4999,"virtu":5000,"Peti":5001,"excellent":5002,"influence":5003,"agissait":5004,"Burkina":5005,"Ble":5006,"Bay":5007,"Bru":5008,"GT":5009,"Hol":5010,"Im":5011,"Off":5012,"RE":5013,"Voi":5014,"atie":5015,"cins":5016,"ht":5017,"laires":5018,"ws":5019,"prouv":5020,"réagi":5021,"vivent":5022,"ousse":5023,"exist":5024,"radio":5025,"patrim":5026,"adjoint":5027,"monte":5028,"Environ":5029,"annes":5030,"préser":5031,"entièrement":5032,"posés":5033,"dose":5034,"produire":5035,"criti":5036,"chances":5037,"150":5038,"emplois":5039,"ondation":5040,"Jusqu":5041,"ordinaire":5042,"potentiel":5043,"restrictions":5044,"CD":5045,"Ry":5046,"Zem":5047,"jur":5048,"saisons":5049,"émer":5050,"indé":5051,"tez":5052,"dessin":5053,"sifs":5054,"déposé":5055,"cieux":5056,"Leur":5057,"rance":5058,"légi":5059,"humain":5060,"berg":5061,"fédérale":5062,"foule":5063,"limiter":5064,"obligation":5065,"diversité":5066,"électorale":5067,"revendi":5068,"fournisse":5069,"agnol":5070,"fabric":5071,"Québécois":5072,"43":5073,"Nint":5074,"Os":5075,"Pologne":5076,"Thi":5077,"mur":5078,"mestre":5079,"vas":5080,"refu":5081,"secre":5082,"rév":5083,"confort":5084,"ater":5085,"vienne":5086,"League":5087,"iennes":5088,"adversaire":5089,"alisés":5090,"bleu":5091,"ogle":5092,"utile":5093,"importantes":5094,"artifi":5095,"circons":5096,"totale":5097,"valor":5098,"accusations":5099,"systèmes":5100,"référ":5101,"provinci":5102,"objets":5103,"coûte":5104,"mauvaise":5105,"Google":5106,"wick":5107,"signifie":5108,"exécutif":5109,"drame":5110,"Agence":5111,"Blu":5112,"Der":5113,"SN":5114,"ks":5115,"mait":5116,"tom":5117,"éro":5118,"devenue":5119,"degrés":5120,"aimer":5121,"aro":5122,"incl":5123,"réno":5124,"actifs":5125,"propres":5126,"pein":5127,"cool":5128,"sécu":5129,"contour":5130,"ouvertes":5131,"ventes":5132,"2010":5133,"défis":5134,"chantier":5135,"suspect":5136,"panne":5137,"sauver":5138,"professionnelle":5139,"sujets":5140,"Donald":5141,"Valérie":5142,"théâtre":5143,"difficulté":5144,"Jacques":5145,"possède":5146,"William":5147,"Zemmour":5148,"Nintendo":5149,"Celle":5150,"Mu":5151,"Mou":5152,"Tom":5153,"fas":5154,"mac":5155,"émissions":5156,"ône":5157,"reuse":5158,"repous":5159,"queur":5160,"diens":5161,"actif":5162,"imposer":5163,"coach":5164,"fica":5165,"moindre":5166,"euro":5167,"dispositif":5168,"partisans":5169,"priorité":5170,"cales":5171,"égalité":5172,"organisme":5173,"échanges":5174,"hamed":5175,"assurance":5176,"doig":5177,"Justice":5178,"pilote":5179,"restaurant":5180,"affronter":5181,"éventu":5182,"chaleur":5183,"fournir":5184,"décennies":5185,"Ah":5186,"Aca":5187,"Bal":5188,"Sav":5189,"Ve":5190,"had":5191,"éré":5192,"arma":5193,"inique":5194,"prun":5195,"pratiques":5196,"ellois":5197,"provis":5198,"resse":5199,"exac":5200,"portés":5201,"disposition":5202,"obli":5203,"rencontrer":5204,"ign":5205,"partager":5206,"routes":5207,"erreur":5208,"organisée":5209,"engagé":5210,"Lions":5211,"œuvres":5212,"officiellement":5213,"réduit":5214,"Première":5215,"candidature":5216,"évoqué":5217,"envoyé":5218,"adresse":5219,"palais":5220,"logements":5221,"Thomas":5222,"3e":5223,"BA":5224,"Play":5225,"gra":5226,"iran":5227,"saga":5228,"ètes":5229,"ôts":5230,"nez":5231,"urg":5232,"ita":5233,"liens":5234,"vivant":5235,"export":5236,"extra":5237,"tence":5238,"disci":5239,"stand":5240,"ération":5241,"emprun":5242,"ronde":5243,"hésion":5244,"feuille":5245,"Trans":5246,"grosse":5247,"amener":5248,"libération":5249,"Grâce":5250,"épisodes":5251,"Prix":5252,"syndicats":5253,"distance":5254,"circonscri":5255,"4e":5256,"Aux":5257,"Fon":5258,"ME":5259,"Sainte":5260,"oo":5261,"twe":5262,"ena":5263,"retard":5264,"sieur":5265,"déli":5266,"diver":5267,"paris":5268,"répu":5269,"concours":5270,"riques":5271,"aises":5272,"collection":5273,"orizon":5274,"sances":5275,"développé":5276,"espaces":5277,"Canadien":5278,"entraînement":5279,"accueille":5280,"capitaine":5281,"naturel":5282,"réflé":5283,"défenseur":5284,"constitue":5285,"Mohamed":5286,"sérieux":5287,"révélé":5288,"brut":5289,"médecins":5290,"pollu":5291,"outils":5292,"recherches":5293,"dynamique":5294,"Pékin":5295,"efficacité":5296,"circonstances":5297,"Ceux":5298,"Gol":5299,"Ot":5300,"Ori":5301,"Ter":5302,"bris":5303,"genti":5304,"los":5305,"ling":5306,"pag":5307,"vus":5308,"zaine":5309,"enjeux":5310,"dehors":5311,"tiendra":5312,"pru":5313,"dienne":5314,"accéder":5315,"surpris":5316,"néanmoins":5317,"venait":5318,"vélo":5319,"menaces":5320,"féli":5321,"organiser":5322,"généralement":5323,"remlin":5324,"ologies":5325,"souhai":5326,"fédération":5327,"manifestations":5328,"conduit":5329,"Lorsque":5330,"enregistre":5331,"municipal":5332,"témoig":5333,"essentiel":5334,"surveillance":5335,"délégation":5336,"600":5337,"Cy":5338,"Fab":5339,"Kremlin":5340,"Mam":5341,"Pales":5342,"Terre":5343,"Thé":5344,"nau":5345,"deau":5346,"tienne":5347,"armer":5348,"chées":5349,"parfai":5350,"révolu":5351,"acités":5352,"amor":5353,"vio":5354,"terri":5355,"fortes":5356,"roï":5357,"cris":5358,"soutenu":5359,"évè":5360,"cancer":5361,"assassin":5362,"connus":5363,"sourire":5364,"établi":5365,"réussite":5366,"clubs":5367,"graphi":5368,"voulons":5369,"voisin":5370,"intéressant":5371,"frappé":5372,"uniquement":5373,"arbit":5374,"médaille":5375,"alterna":5376,"températures":5377,"Tunisie":5378,"André":5379,"parfaitement":5380,"42":5381,"800":5382,"Là":5383,"ache":5384,"fuite":5385,"gon":5386,"rants":5387,"sung":5388,"za":5389,"recue":5390,"argu":5391,"chets":5392,"sénégal":5393,"llement":5394,"patient":5395,"disent":5396,"interdiction":5397,"biens":5398,"publication":5399,"présentation":5400,"ogo":5401,"2012":5402,"transfer":5403,"Inst":5404,"calend":5405,"animation":5406,"décide":5407,"électriques":5408,"essence":5409,"Samsung":5410,"israélienne":5411,"immeuble":5412,"59":5413,"Fondation":5414,"HD":5415,"vété":5416,"dements":5417,"ande":5418,"rejoint":5419,"ettes":5420,"ino":5421,"réun":5422,"conc":5423,"fid":5424,"grat":5425,"prior":5426,"capacités":5427,"pouvons":5428,"confié":5429,"tonnes":5430,"salaire":5431,"vraie":5432,"Sah":5433,"lecture":5434,"Macky":5435,"Outre":5436,"installation":5437,"ambiance":5438,"dégâ":5439,"déterminer":5440,"concurrence":5441,"Quelques":5442,"palestini":5443,"scientifique":5444,"Simon":5445,"Australie":5446,"fermeture":5447,"difficiles":5448,"optimis":5449,"46":5450,"Cer":5451,"Mes":5452,"SI":5453,"fos":5454,"ms":5455,"anche":5456,"levée":5457,"neurs":5458,"lesquels":5459,"aco":5460,"alem":5461,"modes":5462,"marques":5463,"lématique":5464,"contam":5465,"vérité":5466,"comptes":5467,"compagne":5468,"noter":5469,"égard":5470,"sociales":5471,"justement":5472,"ther":5473,"Ander":5474,"malheureusement":5475,"akar":5476,"candidate":5477,"olique":5478,"obligatoire":5479,"religi":5480,"saisi":5481,"vocation":5482,"dépenses":5483,"$.":5484,"1000":5485,"Dj":5486,"Hy":5487,"ements":5488,"japon":5489,"pur":5490,"recul":5491,"lam":5492,"lat":5493,"convi":5494,"consécu":5495,"vière":5496,"décrit":5497,"mettent":5498,"pier":5499,"fame":5500,"fonctions":5501,"aménage":5502,"travaillé":5503,"noms":5504,"battre":5505,"matches":5506,"circul":5507,"passagers":5508,"vidéos":5509,"consid":5510,"adopté":5511,"préparation":5512,"Nouvelle":5513,"énorme":5514,"conscience":5515,"récupérer":5516,"dangereux":5517,"rembour":5518,"Faso":5519,"Ham":5520,"PA":5521,"oeu":5522,"rebon":5523,"illa":5524,"dées":5525,"civil":5526,"vies":5527,"viend":5528,"protest":5529,"micron":5530,"volet":5531,"cryp":5532,"soup":5533,"rapporte":5534,"fermé":5535,"Intérieur":5536,"fonctionnement":5537,"ukrainiennes":5538,"investir":5539,"Grande":5540,"conseils":5541,"accepté":5542,"dénoncé":5543,"distribution":5544,"appareils":5545,"papier":5546,"existence":5547,"conservateur":5548,"privilégi":5549,"41":5550,"F1":5551,"Nig":5552,"Omicron":5553,"Vers":5554,"ket":5555,"lori":5556,"pés":5557,"sants":5558,"tap":5559,"évi":5560,"invite":5561,"infir":5562,"ordon":5563,"dier":5564,"expression":5565,"portion":5566,"osité":5567,"lutter":5568,"complet":5569,"tissement":5570,"thèse":5571,"crime":5572,"Andre":5573,"demandes":5574,"titution":5575,"organisateurs":5576,"ampleur":5577,"électeurs":5578,"électron":5579,"mobilisation":5580,"propriétaires":5581,"Chambre":5582,"essayer":5583,"empêcher":5584,"fréquent":5585,"Denis":5586,"machine":5587,"patrimoine":5588,"57":5589,"Brésil":5590,"Gaz":5591,"Laus":5592,"Nu":5593,"Neu":5594,"bag":5595,"denti":5596,"ft":5597,"his":5598,"stri":5599,"yn":5600,"arch":5601,"arrest":5602,"uno":5603,"républic":5604,"compos":5605,"néer":5606,"métier":5607,"gratu":5608,"adou":5609,"voter":5610,"2011":5611,"restre":5612,"champions":5613,"concernés":5614,"occupe":5615,"magis":5616,"Org":5617,"pouces":5618,"bâtiments":5619,"exprimé":5620,"convaincre":5621,"Turquie":5622,"concept":5623,"Christop":5624,"dégâts":5625,"Dim":5626,"Sec":5627,"à":5628,"adé":5629,"fallu":5630,"gyp":5631,"menti":5632,"pâ":5633,"yant":5634,"èlement":5635,"envis":5636,"rette":5637,"entr":5638,"lesquelles":5639,"duel":5640,"ambu":5641,"amateurs":5642,"pole":5643,"exige":5644,"figur":5645,"séance":5646,"certi":5647,"vendu":5648,"statis":5649,"interpr":5650,"caract":5651,"logi":5652,"tournée":5653,"allant":5654,"frau":5655,"humaine":5656,"profité":5657,"utilisateurs":5658,"communaut":5659,"Liège":5660,"télévision":5661,"épouse":5662,"explosion":5663,"conducteur":5664,"lenchon":5665,"considér":5666,"handi":5667,"précédente":5668,"stratégique":5669,"agriculture":5670,"avocats":5671,"sportif":5672,"écolog":5673,"missiles":5674,"correspond":5675,"canadienne":5676,"calendrier":5677,"CS":5678,"Ci":5679,"Gabri":5680,"Ob":5681,"Ret":5682,"gel":5683,"ômes":5684,"enjeu":5685,"oni":5686,"auquel":5687,"autés":5688,"aven":5689,"parlé":5690,"réel":5691,"riche":5692,"composé":5693,"abou":5694,"miques":5695,"range":5696,"peau":5697,"décro":5698,"découvert":5699,"rapporté":5700,"sortant":5701,"jugé":5702,"pects":5703,"curité":5704,"signer":5705,"bataille":5706,"banques":5707,"régionale":5708,"goût":5709,"brû":5710,"constate":5711,"Guerre":5712,"accusés":5713,"masque":5714,"adaptation":5715,"Corée":5716,"meurtre":5717,"préfec":5718,"spectateurs":5719,"endroits":5720,"naissance":5721,"Disney":5722,"écart":5723,"smartphone":5724,"carburant":5725,"jaune":5726,"immense":5727,"Frédé":5728,"Bernard":5729,"39":5730,"Gir":5731,"LN":5732,"Sall":5733,"dron":5734,"djan":5735,"has":5736,"him":5737,"uil":5738,"çait":5739,"œurs":5740,"oute":5741,"tise":5742,"armées":5743,"acts":5744,"tennis":5745,"découverte":5746,"cros":5747,"mettant":5748,"loy":5749,"Marse":5750,"Parce":5751,"douce":5752,"Super":5753,"réalisation":5754,"sanction":5755,"regret":5756,"visible":5757,"attein":5758,"animal":5759,"croit":5760,"ballon":5761,"mobilité":5762,"considéré":5763,"quartiers":5764,"effectuer":5765,"Mélenchon":5766,"Johnson":5767,"complexe":5768,"incroyable":5769,"Durant":5770,"Voici":5771,"Er":5772,"Open":5773,"Var":5774,"iers":5775,"rages":5776,"xy":5777,"regarder":5778,"inaug":5779,"desti":5780,"trom":5781,"résolution":5782,"projec":5783,"pois":5784,"ters":5785,"veiller":5786,"oirs":5787,"coles":5788,"marge":5789,"portent":5790,"listes":5791,"maintien":5792,"offres":5793,"postes":5794,"cettes":5795,"utilise":5796,"communautés":5797,"classes":5798,"enseignement":5799,"enseignants":5800,"hôpitaux":5801,"abonnés":5802,"dénonce":5803,"démarche":5804,"musée":5805,"trentaine":5806,"normale":5807,"magasin":5808,"médicaments":5809,"Lyon":5810,"adultes":5811,"scrutin":5812,"révolution":5813,"handicap":5814,"58":5815,"Bro":5816,"Cal":5817,"Cro":5818,"James":5819,"Lac":5820,"Lap":5821,"MT":5822,"Nos":5823,"Tan":5824,"Vol":5825,"fan":5826,"pis":5827,"oud":5828,"ingé":5829,"active":5830,"actrice":5831,"prot":5832,"podium":5833,"apporté":5834,"courir":5835,"privée":5836,"Alpes":5837,"légèrement":5838,"oké":5839,"sentir":5840,"mairie":5841,"Richard":5842,"alimentation":5843,"conclut":5844,"bureaux":5845,"Christian":5846,"opportunité":5847,"intégrer":5848,"messages":5849,"forêt":5850,"révèle":5851,"tweet":5852,"Lausanne":5853,"caractère":5854,"%).":5855,"(+":5856,"67":5857,"May":5858,"Tok":5859,"dois":5860,"mène":5861,"nité":5862,"prême":5863,"allo":5864,"avi":5865,"parfait":5866,"ature":5867,"compré":5868,"chev":5869,"mann":5870,"disant":5871,"ouverts":5872,"soutient":5873,"plas":5874,"versé":5875,"vesti":5876,"ulaire":5877,"cente":5878,"producteurs":5879,"Ange":5880,"blessure":5881,"pouvant":5882,"ories":5883,"talent":5884,"cellu":5885,"Micha":5886,"Guil":5887,"scand":5888,"sociétés":5889,"Phone":5890,"évoque":5891,"physi":5892,"navi":5893,"voilà":5894,"Nouveau":5895,"fondateur":5896,"unswick":5897,"automobil":5898,"scientifiques":5899,"National":5900,"ménages":5901,"Black":5902,"évident":5903,"250":5904,"Ca":5905,"Cont":5906,"ES":5907,"Kh":5908,"Sar":5909,"Sous":5910,"flot":5911,"gin":5912,"nable":5913,"oles":5914,"rai":5915,"encontre":5916,"invent":5917,"délai":5918,"ouvri":5919,"suites":5920,"percu":5921,"expul":5922,"tenait":5923,"finit":5924,"montrent":5925,"québécois":5926,"église":5927,"rup":5928,"possibles":5929,"Dieu":5930,"retourner":5931,"calme":5932,"supprim":5933,"Vict":5934,"paiement":5935,"suffit":5936,"pieds":5937,"partenaire":5938,"élève":5939,"élément":5940,"conséquence":5941,"amélioration":5942,"syndicat":5943,"agricole":5944,"déclarations":5945,"arbres":5946,"provoqué":5947,"outil":5948,"fréqu":5949,"collègues":5950,"automobile":5951,"sondage":5952,"métrage":5953,"souhaité":5954,"Marseille":5955,"Ger":5956,"Lab":5957,"Pla":5958,"RN":5959,"Ros":5960,"recettes":5961,"lable":5962,"alcool":5963,"récit":5964,"concentre":5965,"compati":5966,"profi":5967,"osé":5968,"advers":5969,"puissant":5970,"puissent":5971,"leroi":5972,"ultra":5973,"bonheur":5974,"crée":5975,"Comité":5976,"voient":5977,"appels":5978,"Monaco":5979,"Bruno":5980,"athan":5981,"sauf":5982,"Charleroi":5983,"expériment":5984,"financiers":5985,"voisins":5986,"investisseurs":5987,"témoigne":5988,"Prin":5989,"débuté":5990,"consult":5991,"maître":5992,"pause":5993,"quarantaine":5994,"actéris":5995,"Voil":5996,"internationales":5997,"City":5998,"style":5999,"52":6000,"Bol":6001,"Cis":6002,"dait":6003,"gation":6004,"mages":6005,"nai":6006,"pages":6007,"vaud":6008,"émis":6009,"onne":6010,"arron":6011,"trac":6012,"dément":6013,"usalem":6014,"rétab":6015,"agnes":6016,"nière":6017,"tuer":6018,"tués":6019,"caractéris":6020,"policier":6021,"tourisme":6022,"pluie":6023,"lard":6024,"trouvent":6025,"plani":6026,"Brunswick":6027,"spéciale":6028,"remporter":6029,"magni":6030,"textes":6031,"continuent":6032,"Sébas":6033,"gault":6034,"conduite":6035,"écriture":6036,"livré":6037,"variant":6038,"ordinateur":6039,"réglement":6040,"Syrie":6041,"Amérique":6042,"africaine":6043,"Rouge":6044,"Georg":6045,"nourrit":6046,"Musk":6047,"Alexandre":6048,"Frédéric":6049,"Voilà":6050,"Gre":6051,"Jack":6052,"Lec":6053,"MC":6054,"Wor":6055,"atif":6056,"bot":6057,"batt":6058,"faus":6059,"glace":6060,"lons":6061,"tat":6062,"ister":6063,"ura":6064,"chien":6065,"polé":6066,"mix":6067,"mérite":6068,"soumis":6069,"allés":6070,"positifs":6071,"garan":6072,"féri":6073,"enfance":6074,"déclare":6075,"tawa":6076,"différent":6077,"salon":6078,"héber":6079,"terminer":6080,"artistique":6081,"vainqueur":6082,"tombe":6083,"aérienne":6084,"technologies":6085,"disparition":6086,"diverses":6087,"destination":6088,"débats":6089,"grim":6090,"leaders":6091,"originaire":6092,"parlementaire":6093,"rassemblement":6094,"minimum":6095,"Aucun":6096,"Ottawa":6097,"Cé":6098,"Dan":6099,"Dakar":6100,"Ko":6101,"Rock":6102,"nations":6103,"lem":6104,"oux":6105,"oué":6106,"nette":6107,"arts":6108,"dimen":6109,"apprend":6110,"exc":6111,"cheffe":6112,"veau":6113,"décret":6114,"Chez":6115,"traver":6116,"sortis":6117,"centaine":6118,"trouvait":6119,"chargée":6120,"Mondial":6121,"Toutes":6122,"Dire":6123,"entement":6124,"communal":6125,"énergies":6126,"occupé":6127,"Station":6128,"établir":6129,"grosses":6130,"complète":6131,"Photo":6132,"députée":6133,"islamique":6134,"compliqué":6135,"voyageurs":6136,"scolaires":6137,"pauvre":6138,"Angle":6139,"récente":6140,"LED":6141,"ambassade":6142,"compétences":6143,"Jérusalem":6144,"Organis":6145,"85":6146,"Bat":6147,"Ici":6148,"Jeu":6149,"Rien":6150,"Wil":6151,"far":6152,"fol":6153,"io":6154,"nin":6155,"vage":6156,"vard":6157,"reconnaissance":6158,"tible":6159,"quette":6160,"aurez":6161,"viens":6162,"pot":6163,"abus":6164,"niers":6165,"mande":6166,"insisté":6167,"Ensuite":6168,"décor":6169,"courses":6170,"verser":6171,"ysté":6172,"pharma":6173,"privés":6174,"ultime":6175,"offer":6176,"montagne":6177,"média":6178,"tiennent":6179,"voulais":6180,"Région":6181,"françaises":6182,"Très":6183,"sixième":6184,"catal":6185,"instance":6186,"ambition":6187,"effort":6188,"alliés":6189,"Beaucoup":6190,"suffisamment":6191,"humanitaire":6192,"émotion":6193,"discuter":6194,"bruxellois":6195,"maman":6196,"Angleterre":6197,"Abi":6198,"Actu":6199,"BF":6200,"Da":6201,"Gau":6202,"Gala":6203,"Lan":6204,"Main":6205,"caux":6206,"fau":6207,"fur":6208,"fact":6209,"gagne":6210,"mette":6211,"sap":6212,"stres":6213,"tac":6214,"vité":6215,"élar":6216,"teaux":6217,"chô":6218,"délé":6219,"réchauff":6220,"progrès":6221,"suprême":6222,"fiée":6223,"moin":6224,"insiste":6225,"oth":6226,"obs":6227,"stop":6228,"coupable":6229,"office":6230,"ings":6231,"domin":6232,"akh":6233,"quitte":6234,"installé":6235,"solide":6236,"dossiers":6237,"livrer":6238,"combatt":6239,"plateformes":6240,"adapter":6241,"réserve":6242,"résidents":6243,"individus":6244,"invités":6245,"envoyer":6246,"humanité":6247,"fondament":6248,"renouve":6249,"entrepreneur":6250,"financer":6251,"vulnér":6252,"Cent":6253,"Heure":6254,"Ken":6255,"Lin":6256,"NF":6257,"Na":6258,"Wi":6259,"alar":6260,"fun":6261,"iPhone":6262,"rô":6263,"stream":6264,"éloi":6265,"êtres":6266,"esses":6267,"lecht":6268,"erait":6269,"indis":6270,"chage":6271,"ducation":6272,"liée":6273,"atch":6274,"sug":6275,"opin":6276,"disait":6277,"portable":6278,"devaient":6279,"politi":6280,"posant":6281,"annoncer":6282,"mater":6283,"humour":6284,"ajoutant":6285,"autorité":6286,"boî":6287,"oko":6288,"spécial":6289,"Guy":6290,"chercheurs":6291,"doses":6292,"connaissent":6293,"territoires":6294,"tombé":6295,"baisser":6296,"qualifié":6297,"procédé":6298,"Côté":6299,"Finances":6300,"mineurs":6301,"sorties":6302,"disparu":6303,"pétroli":6304,"approuv":6305,"Madrid":6306,"réflexion":6307,"magistr":6308,"(…":6309,"64":6310,"77":6311,"CP":6312,"Ir":6313,"Mous":6314,"Yves":6315,"bac":6316,"é":6317,"fen":6318,"anes":6319,"dessous":6320,"réunis":6321,"agram":6322,"filet":6323,"mélan":6324,"marquée":6325,"certes":6326,"annuel":6327,"présu":6328,"istan":6329,"défend":6330,"fusion":6331,"domaines":6332,"pouvoirs":6333,"actualité":6334,"olie":6335,"cyber":6336,"alimentaires":6337,"règle":6338,"dirigeant":6339,"préfet":6340,"avancer":6341,"terroristes":6342,"épidémie":6343,"averti":6344,"écologique":6345,"froid":6346,"acquisition":6347,"livraison":6348,"quantité":6349,"armerie":6350,"aménagement":6351,"4K":6352,"54":6353,"62":6354,"Ba":6355,"Bam":6356,"Rol":6357,"Swit":6358,"Thier":6359,"You":6360,"bass":6361,"centi":6362,"gy":6363,"pent":6364,"usion":6365,"çants":6366,"épreuves":6367,"iso":6368,"inn":6369,"chton":6370,"eld":6371,"convient":6372,"Legault":6373,"implant":6374,"coeur":6375,"moteur":6376,"inspec":6377,"majeu":6378,"géo":6379,"Ener":6380,"stations":6381,"renforce":6382,"lisabeth":6383,"socialiste":6384,"tempête":6385,"défaut":6386,"resté":6387,"Alli":6388,"prince":6389,"Maxi":6390,"occuper":6391,"tableau":6392,"amende":6393,"règlement":6394,"précédentes":6395,"Mario":6396,"piration":6397,"âgées":6398,"inscrire":6399,"recommand":6400,"ambassadeur":6401,"internationaux":6402,"dévoilé":6403,"accessible":6404,"récompen":6405,"similaire":6406,"Société":6407,"circonscription":6408,"gypte":6409,"majeure":6410,"Cu":6411,"Gér":6412,"LG":6413,"Pré":6414,"RS":6415,"Sports":6416,"Té":6417,"Tot":6418,"Volo":6419,"Xbox":6420,"bit":6421,"bie":6422,"clo":6423,"hés":6424,"hol":6425,"mass":6426,"nats":6427,"pistes":6428,"sœur":6429,"vaste":6430,"enchaî":6431,"rel":6432,"oupol":6433,"trée":6434,"ave":6435,"astique":6436,"parking":6437,"apes":6438,"pertes":6439,"manqué":6440,"péd":6441,"oph":6442,"discrimin":6443,"déclin":6444,"renon":6445,"suivant":6446,"avantages":6447,"nationales":6448,"nul":6449,"gouverneur":6450,"transfé":6451,"geste":6452,"Toujours":6453,"populaires":6454,"Libre":6455,"Micros":6456,"normal":6457,"téléphon":6458,"vaccins":6459,"agénaire":6460,"accepter":6461,"Marioupol":6462,"Colomb":6463,"Syl":6464,"africains":6465,"fixé":6466,"diplomatique":6467,"constater":6468,"évaluation":6469,"Capit":6470,"diffusé":6471,"Constitution":6472,"silence":6473,"magasins":6474,"immobilier":6475,"innovation":6476,"indemn":6477,"cuisine":6478,"chanson":6479,"enquêteurs":6480,"exactement":6481,"Sébastien":6482,"chômage":6483,"120":6484,"53":6485,"BC":6486,"Clu":6487,"Haute":6488,"MA":6489,"inement":6490,"joie":6491,"naie":6492,"pant":6493,"tures":6494,"zo":6495,"tige":6496,"destru":6497,"chait":6498,"alie":6499,"dévoi":6500,"déchets":6501,"coéqui":6502,"ophie":6503,"plateau":6504,"visé":6505,"transformation":6506,"corruption":6507,"restera":6508,"drogue":6509,"fonctionne":6510,"2008":6511,"programmes":6512,"gene":6513,"bénéfice":6514,"automatique":6515,"qualification":6516,"facture":6517,"PS5":6518,"intéresse":6519,"kov":6520,"essai":6521,"démocratique":6522,"africain":6523,"diplomatie":6524,"libéré":6525,"émotions":6526,"autonomie":6527,"athlètes":6528,"Antoine":6529,"Daniel":6530,"Stéphane":6531,"Christophe":6532,"Switch":6533,"Microsoft":6534,"Haut":6535,"Los":6536,"One":6537,"PDG":6538,"Sor":6539,"bron":6540,"couverture":6541,"fabri":6542,"lez":6543,"inverse":6544,"uration":6545,"trag":6546,"asser":6547,"convo":6548,"console":6549,"accompli":6550,"abi":6551,"immigration":6552,"fiés":6553,"crits":6554,"compt":6555,"diter":6556,"clés":6557,"claire":6558,"nomination":6559,"Arab":6560,"héroï":6561,"américaines":6562,"Max":6563,"ather":6564,"matinée":6565,"décider":6566,"victoires":6567,"traité":6568,"faibles":6569,"danse":6570,"1990":6571,"myr":6572,"mariage":6573,"terrorisme":6574,"restaurants":6575,"israélien":6576,"bruit":6577,"Tech":6578,"tarifs":6579,"quasiment":6580,"instruction":6581,"dépôt":6582,"salué":6583,"engagés":6584,"littér":6585,"Anderlecht":6586,"Maintenant":6587,"Club":6588,"56":6589,"Hô":6590,"IA":6591,"PG":6592,"Ray":6593,"dures":6594,"gain":6595,"ivoi":6596,"masse":6597,"ning":6598,"reconnaît":6599,"aides":6600,"chaud":6601,"trot":6602,"alon":6603,"alig":6604,"parent":6605,"répons":6606,"étapes":6607,"sédu":6608,"motiv":6609,"finances":6610,"otte":6611,"dents":6612,"souci":6613,"courte":6614,"personnalités":6615,"phil":6616,"café":6617,"hip":6618,"aliers":6619,"élevés":6620,"rieurs":6621,"contrats":6622,"morce":6623,"équipements":6624,"pension":6625,"engager":6626,"dram":6627,"spécialiste":6628,"Sony":6629,"entraîner":6630,"dirigé":6631,"installations":6632,"secondaire":6633,"blanche":6634,"musul":6635,"progression":6636,"attendue":6637,"commercial":6638,"structures":6639,"significa":6640,"encourage":6641,"Aucune":6642,"jardin":6643,"souvenirs":6644,"Eliz":6645,"Palestini":6646,"Instagram":6647,"considère":6648,"Niger":6649,"arrestation":6650,"avenue":6651,"arrondissement":6652,"réponses":6653,"700":6654,"Henri":6655,"Rog":6656,"Som":6657,"Wallon":6658,"bille":6659,"camé":6660,"mans":6661,"rin":6662,"rain":6663,"wn":6664,"yme":6665,"envisage":6666,"relever":6667,"issant":6668,"inations":6669,"tein":6670,"château":6671,"duc":6672,"assemb":6673,"mid":6674,"impose":6675,"admis":6676,"couleur":6677,"longues":6678,"2025":6679,"ennemi":6680,"ogne":6681,"équival":6682,"transformer":6683,"game":6684,"décisi":6685,"spécialistes":6686,"succes":6687,"favori":6688,"culturel":6689,"Malheureusement":6690,"étudiant":6691,"etsk":6692,"déplore":6693,"occupation":6694,"sacré":6695,"restauration":6696,"faudrait":6697,"exprimer":6698,"accordé":6699,"catég":6700,"définitivement":6701,"profondeur":6702,"gendarmerie":6703,"Néanmoins":6704,"arabe":6705,"dédié":6706,"vêtements":6707,"Américains":6708,"formule":6709,"vigil":6710,"soupçon":6711,"Maxime":6712,"Bre":6713,"Gal":6714,"Mel":6715,"Péc":6716,"Poké":6717,"Tar":6718,"Ul":6719,"Win":6720,"brou":6721,"feux":6722,"hec":6723,"lom":6724,"mille":6725,"rentrer":6726,"tni":6727,"envol":6728,"lauré":6729,"istre":6730,"orge":6731,"duo":6732,"délais":6733,"détenus":6734,"dig":6735,"meurs":6736,"convers":6737,"ata":6738,"ago":6739,"eusement":6740,"proven":6741,"passent":6742,"octr":6743,"crètement":6744,"guiné":6745,"pic":6746,"carbon":6747,"unies":6748,"calade":6749,"traî":6750,"élevée":6751,"central":6752,"annoncée":6753,"gouvernements":6754,"Contr":6755,"réalisée":6756,"autorisation":6757,"attaquer":6758,"préciser":6759,"résume":6760,"capital":6761,"lyw":6762,"attendent":6763,"atelier":6764,"applications":6765,"foulée":6766,"Service":6767,"identifier":6768,"dymyr":6769,"respectivement":6770,"témoign":6771,"Blanche":6772,"housi":6773,"avortement":6774,"souveraine":6775,"bénévoles":6776,"étoiles":6777,"Gabriel":6778,"préfecture":6779,"Michael":6780,"magnifique":6781,"Volodymyr":6782,"Elizabeth":6783,"51":6784,"Bure":6785,"Elon":6786,"My":6787,"Not":6788,"Rés":6789,"Sha":6790,"Vendre":6791,"fes":6792,"pav":6793,"spati":6794,"vor":6795,"remont":6796,"relais":6797,"revoir":6798,"reprend":6799,"aimé":6800,"audio":6801,"inond":6802,"alé":6803,"détec":6804,"réagir":6805,"témoins":6806,"attirer":6807,"plui":6808,"vive":6809,"propositions":6810,"manger":6811,"fications":6812,"sécher":6813,"voté":6814,"opposé":6815,"interventions":6816,"attentes":6817,"centrales":6818,"produc":6819,"biais":6820,"curi":6821,"semblait":6822,"douze":6823,"assistance":6824,"défendu":6825,"Inde":6826,"travaillent":6827,"responsabil":6828,"scènes":6829,"balles":6830,"limites":6831,"conseill":6832,"accompagné":6833,"prévues":6834,"Internet":6835,"adopter":6836,"écrivain":6837,"Merci":6838,"sélectionneur":6839,"assister":6840,"bécoise":6841,"lourd":6842,"apprentis":6843,"appréci":6844,"familiale":6845,"supérieure":6846,"suspendu":6847,"température":6848,"juridique":6849,"Géné":6850,"perturb":6851,"perspective":6852,"opinion":6853,"Pécresse":6854,"pluies":6855,"66":6856,"Do":6857,"Dés":6858,"Kou":6859,"Lundi":6860,"Mex":6861,"PN":6862,"RD":6863,"Stre":6864,"TI":6865,"Tes":6866,"bis":6867,"fleur":6868,"horizon":6869,"nd":6870,"repas":6871,"retirer":6872,"relevé":6873,"enthousi":6874,"injec":6875,"inféri":6876,"section":6877,"und":6878,"aly":6879,"division":6880,"paru":6881,"répar":6882,"répli":6883,"poursuite":6884,"ataires":6885,"rire":6886,"plomb":6887,"propag":6888,"apporte":6889,"étendu":6890,"prévention":6891,"saou":6892,"cop":6893,"modé":6894,"journées":6895,"cédé":6896,"couteau":6897,"interne":6898,"intervenir":6899,"présentée":6900,"fati":6901,"partag":6902,"alifor":6903,"diffusion":6904,"garçon":6905,"correction":6906,"gade":6907,"charger":6908,"batterie":6909,"conomie":6910,"résistance":6911,"appelés":6912,"probable":6913,"Samedi":6914,"épau":6915,"primaire":6916,"web":6917,"Déjà":6918,"réussir":6919,"nellement":6920,"commandes":6921,"allez":6922,"meurtri":6923,"expert":6924,"imaginer":6925,"souhaitent":6926,"Portu":6927,"Blanc":6928,"remplacer":6929,"abattu":6930,"sexuelles":6931,"chronique":6932,"fruits":6933,"Tchad":6934,"Office":6935,"provisoire":6936,"Dimanche":6937,"physiques":6938,"nourriture":6939,"Jeudi":6940,"Actuellement":6941,"billets":6942,"Vendredi":6943,"88":6944,"GE":6945,"Laval":6946,"h00":6947,"lites":6948,"vot":6949,"tibles":6950,"aurais":6951,"prête":6952,"chand":6953,"aspect":6954,"assemblée":6955,"riv":6956,"rice":6957,"amou":6958,"absent":6959,"immer":6960,"précip":6961,"forts":6962,"intervient":6963,"publiée":6964,"accent":6965,"Pourquoi":6966,"angle":6967,"solli":6968,"défensi":6969,"signature":6970,"habil":6971,"antici":6972,"causes":6973,"spécifique":6974,"Canadi":6975,"précisément":6976,"retrouvent":6977,"violent":6978,"Afric":6979,"ralenti":6980,"appartement":6981,"traités":6982,"pensent":6983,"souffle":6984,"ambiti":6985,"préfère":6986,"engagements":6987,"flam":6988,"jointe":6989,"essayé":6990,"essentiellement":6991,"solidaire":6992,"raconté":6993,"interpellé":6994,"accuse":6995,"Peter":6996,"Groupe":6997,"mobile":6998,"espèces":6999,"doigt":7000,"PlayStation":7001,"statistiques":7002,"plastique":7003,"Georges":7004,"World":7005,"Abidjan":7006,"Thierry":7007,"témoignages":7008,"89":7009,"Cla":7010,"Cannes":7011,"Dam":7012,"Gas":7013,"Matt":7014,"PL":7015,"TR":7016,"bla":7017,"bro":7018,"fê":7019,"gs":7020,"gène":7021,"maires":7022,"sk":7023,"savait":7024,"savent":7025,"ètent":7026,"éti":7027,"anony":7028,"reurs":7029,"revers":7030,"regarde":7031,"isées":7032,"armés":7033,"sier":7034,"anth":7035,"congé":7036,"convention":7037,"vières":7038,"proportion":7039,"ection":7040,"termine":7041,"toucher":7042,"rak":7043,"mands":7044,"sév":7045,"ford":7046,"océ":7047,"couper":7048,"stabil":7049,"Chi":7050,"rendus":7051,"Marvel":7052,"Quatre":7053,"allen":7054,"arrivent":7055,"formés":7056,"doublé":7057,"côte":7058,"appelons":7059,"Monde":7060,"dommages":7061,"visiblement":7062,"normes":7063,"tenues":7064,"apparition":7065,"commenté":7066,"habitation":7067,"accords":7068,"impôt":7069,"tranqu":7070,"conduire":7071,"science":7072,"Julien":7073,"contribution":7074,"lacement":7075,"abandon":7076,"documentaire":7077,"quarts":7078,"stockage":7079,"espérer":7080,"licence":7081,"Reste":7082,"tâche":7083,"végét":7084,"Palais":7085,"équilibre":7086,"transfert":7087,"concili":7088,"adversaires":7089,"garantir":7090,"Bureau":7091,"72":7092,"95":7093,"DH":7094,"Mis":7095,"Mol":7096,"Sil":7097,"West":7098,"beaux":7099,"fêtes":7100,"mations":7101,"py":7102,"ramener":7103,"sco":7104,"systé":7105,"tunis":7106,"vations":7107,"âme":7108,"lections":7109,"incontour":7110,"déri":7111,"détour":7112,"diques":7113,"paraît":7114,"combien":7115,"profil":7116,"proto":7117,"apparti":7118,"appropri":7119,"aindre":7120,"manquer":7121,"coordin":7122,"geant":7123,"ménage":7124,"marqu":7125,"options":7126,"grandi":7127,"hieu":7128,"jugement":7129,"tiste":7130,"angl":7131,"partagé":7132,"producteur":7133,"arrivés":7134,"corri":7135,"histoires":7136,"banlieu":7137,"économies":7138,"représentent":7139,"cadres":7140,"Real":7141,"calcul":7142,"sauve":7143,"complété":7144,"ateliers":7145,"séquence":7146,"initialement":7147,"pousser":7148,"procéder":7149,"sacri":7150,"contribué":7151,"contribuer":7152,"Adam":7153,"quinze":7154,"autochton":7155,"gendarmes":7156,"arrête":7157,"franchise":7158,"détruit":7159,"assassinat":7160,"inondations":7161,"Afin":7162,"Flori":7163,"Jam":7164,"Jose":7165,"Kir":7166,"Men":7167,"Ven":7168,"dam":7169,"gla":7170,"gest":7171,"vend":7172,"âgée":7173,"èche":7174,"én":7175,"enva":7176,"lables":7177,"labo":7178,"trant":7179,"débuts":7180,"parfaite":7181,"réd":7182,"conçu":7183,"confrères":7184,"agno":7185,"ouvoir":7186,"perd":7187,"extension":7188,"adis":7189,"opus":7190,"soudre":7191,"alise":7192,"pierre":7193,"renvoy":7194,"coré":7195,"signes":7196,"moral":7197,"volant":7198,"chanteur":7199,"confinement":7200,"huitième":7201,"climatiques":7202,"bateau":7203,"pensé":7204,"regrette":7205,"villages":7206,"citant":7207,"embau":7208,"précision":7209,"accusation":7210,"cycle":7211,"construit":7212,"nett":7213,"patience":7214,"instau":7215,"financières":7216,"cinéaste":7217,"III":7218,"laume":7219,"empêche":7220,"concertation":7221,"clientèle":7222,"Peut":7223,"moderne":7224,"déplacer":7225,"sympt":7226,"Stras":7227,"secret":7228,"indispens":7229,"Alliance":7230,"caméra":7231,"Front":7232,"Flor":7233,"GO":7234,"Nan":7235,"Ron":7236,"Tro":7237,"atifs":7238,"mètre":7239,"ptions":7240,"âgés":7241,"’«":7242,"entin":7243,"reconnaître":7244,"oul":7245,"entente":7246,"itation":7247,"déses":7248,"liqui":7249,"usagers":7250,"compatri":7251,"provenant":7252,"mément":7253,"mémor":7254,"matières":7255,"guide":7256,"rapports":7257,"tournage":7258,"jusque":7259,"igne":7260,"pressions":7261,"frus":7262,"feront":7263,"voici":7264,"Arn":7265,"héli":7266,"troph":7267,"arrêtés":7268,"augmente":7269,"espagnol":7270,"Surtout":7271,"commerçants":7272,"Sénat":7273,"lycée":7274,"collective":7275,"dénoncer":7276,"agricoles":7277,"Samuel":7278,"éduca":7279,"énormément":7280,"Port":7281,"aperçu":7282,"intégration":7283,"fournit":7284,"suspension":7285,"agues":7286,"Dominique":7287,"Sauf":7288,"catastrophe":7289,"insul":7290,"supporters":7291,"drapeau":7292,"extraordinaire":7293,"néerlandais":7294,"excuses":7295,"provenance":7296,"76":7297,"Ga":7298,"Ho":7299,"Hong":7300,"Lar":7301,"Nad":7302,"Tel":7303,"faction":7304,"gale":7305,"gations":7306,"gnant":7307,"haine":7308,"xion":7309,"ench":7310,"issus":7311,"réformes":7312,"atti":7313,"rivière":7314,"aggrav":7315,"passes":7316,"exprime":7317,"iron":7318,"souvient":7319,"verra":7320,"lantique":7321,"Mardi":7322,"indice":7323,"filé":7324,"contrairement":7325,"médicale":7326,"localité":7327,"jamin":7328,"Toulon":7329,"goû":7330,"causé":7331,"occasions":7332,"valoir":7333,"complément":7334,"effectivement":7335,"impôts":7336,"territori":7337,"fusil":7338,"Berlin":7339,"installée":7340,"rompu":7341,"mouvements":7342,"Justin":7343,"procédures":7344,"Certaines":7345,"SSD":7346,"judiciaires":7347,"lourde":7348,"tarif":7349,"volume":7350,"colonel":7351,"convaincu":7352,"symbolique":7353,"infrastructure":7354,"arabes":7355,"Kevin":7356,"maillot":7357,"chapit":7358,"féminin":7359,"prestation":7360,"boulevard":7361,"intelligence":7362,"Petit":7363,"préserver":7364,"évènement":7365,"Guillaume":7366,"réchauffement":7367,"Heureusement":7368,"philos":7369,"Wallonie":7370,"Pokémon":7371,"Cri":7372,"ED":7373,"Fo":7374,"Mur":7375,"ND":7376,"Ous":7377,"Tam":7378,"boy":7379,"fri":7380,"gère":7381,"mys":7382,"rents":7383,"zer":7384,"leu":7385,"incer":7386,"seau":7387,"chiens":7388,"siens":7389,"durer":7390,"dépassé":7391,"diag":7392,"parts":7393,"réactions":7394,"conso":7395,"endom":7396,"manches":7397,"prépare":7398,"culer":7399,"séna":7400,"grou":7401,"peuples":7402,"monu":7403,"dissi":7404,"dispositions":7405,"géré":7406,"donnent":7407,"découvre":7408,"visiter":7409,"ysée":7410,"phère":7411,"touristes":7412,"igno":7413,"tisation":7414,"Anton":7415,"culte":7416,"rum":7417,"organismes":7418,"longs":7419,"suscep":7420,"clos":7421,"dame":7422,"voies":7423,"seuil":7424,"éditions":7425,"airs":7426,"passés":7427,"vaccinal":7428,"numériques":7429,"instar":7430,"landaise":7431,"maladies":7432,"volontaires":7433,"prochainement":7434,"évoluer":7435,"municipale":7436,"municipalité":7437,"Aussi":7438,"tares":7439,"suffisant":7440,"bourgmestre":7441,"Trudeau":7442,"principales":7443,"familial":7444,"archite":7445,"algérien":7446,"faciliter":7447,"Toront":7448,"oeuvre":7449,"Victori":7450,"profite":7451,"Organisation":7452,"diterran":7453,"carbone":7454,"Portugal":7455,"Strasbourg":7456,"69":7457,"78":7458,"Cre":7459,"Cin":7460,"Game":7461,"Kon":7462,"OMS":7463,"ax":7464,"bol":7465,"billet":7466,"clan":7467,"foi":7468,"gnée":7469,"ros":7470,"sable":7471,"way":7472,"zéro":7473,"demeur":7474,"report":7475,"requis":7476,"sey":7477,"châ":7478,"chester":7479,"sives":7480,"asme":7481,"réellement":7482,"rémun":7483,"cia":7484,"prolon":7485,"ders":7486,"bulle":7487,"visée":7488,"ordanie":7489,"Ceci":7490,"quérir":7491,"lots":7492,"langues":7493,"boutique":7494,"Alger":7495,"situations":7496,"charges":7497,"Congo":7498,"pleinement":7499,"huile":7500,"réalisés":7501,"techni":7502,"compagnies":7503,"animé":7504,"conflits":7505,"terminée":7506,"entraîné":7507,"appliquer":7508,"proposent":7509,"tribue":7510,"Benjamin":7511,"limité":7512,"quettes":7513,"agricul":7514,"inquiète":7515,"écoute":7516,"personnalité":7517,"quinzaine":7518,"Près":7519,"Personne":7520,"collègue":7521,"encourager":7522,"symbole":7523,"comédie":7524,"reçoit":7525,"flambée":7526,"fournisseurs":7527,"réunir":7528,"fossi":7529,"religieux":7530,"stric":7531,"dimension":7532,"stress":7533,"atherine":7534,"diagnos":7535,"73":7536,"AC":7537,"CAN":7538,"Pol":7539,"Sport":7540,"Sand":7541,"Sara":7542,"TE":7543,"couvert":7544,"gné":7545,"hes":7546,"hal":7547,"mè":7548,"mité":7549,"vagues":7550,"yo":7551,"éni":7552,"élabor":7553,"remet":7554,"revue":7555,"reconnais":7556,"inti":7557,"urée":7558,"unte":7559,"trente":7560,"parall":7561,"parrain":7562,"rédi":7563,"aissent":7564,"ouvrage":7565,"pers":7566,"rarement":7567,"veurs":7568,"adhésion":7569,"rose":7570,"monnaie":7571,"portait":7572,"pique":7573,"emprison":7574,"pline":7575,"casting":7576,"gars":7577,"bébé":7578,"autoroute":7579,"communications":7580,"européennes":7581,"prenait":7582,"naz":7583,"2009":7584,"critères":7585,"recy":7586,"toit":7587,"commerces":7588,"estiment":7589,"expériences":7590,"Donetsk":7591,"camér":7592,"qualifier":7593,"PSG":7594,"conserver":7595,"souffre":7596,"fondation":7597,"Juli":7598,"ritanniques":7599,"contenus":7600,"annuelle":7601,"écouter":7602,"collaborateurs":7603,"électoral":7604,"nucléaires":7605,"libérer":7606,"écrans":7607,"hauts":7608,"tâches":7609,"excellente":7610,"chanteuse":7611,"commissaire":7612,"majoritaire":7613,"sénégalais":7614,"LNH":7615,"hectares":7616,"responsabilités":7617,"apprentissage":7618,"Toronto":7619,"AP":7620,"Am":7621,"Cul":7622,"Fu":7623,"Hz":7624,"Hen":7625,"Hom":7626,"Hist":7627,"Lui":7628,"Moi":7629,"Muni":7630,"Ndi":7631,"fail":7632,"ière":7633,"savons":7634,"étions":7635,"€,":7636,"reté":7637,"chang":7638,"trau":7639,"déposer":7640,"dévas":7641,"ast":7642,"agone":7643,"appeler":7644,"aba":7645,"2030":7646,"touchés":7647,"portu":7648,"fice":7649,"admi":7650,"voler":7651,"soud":7652,"plage":7653,"nera":7654,"union":7655,"langer":7656,"Francis":7657,"nationaux":7658,"trajet":7659,"ogol":7660,"menu":7661,"capables":7662,"amén":7663,"Albert":7664,"suscité":7665,"utilisés":7666,"Monsieur":7667,"différente":7668,"rempl":7669,"particuliers":7670,"Seine":7671,"initiatives":7672,"poussé":7673,"citoyen":7674,"Manchester":7675,"départs":7676,"réserves":7677,"progressivement":7678,"pilotes":7679,"favoriser":7680,"assises":7681,"alliance":7682,"Boris":7683,"régulière":7684,"Bourse":7685,"rayon":7686,"collège":7687,"industriels":7688,"chinoise":7689,"contrôler":7690,"luxe":7691,"archives":7692,"discussion":7693,"occidentaux":7694,"mith":7695,"méthode":7696,"météor":7697,"Bleus":7698,"fabrication":7699,"Académie":7700,"hasard":7701,"rupture":7702,"streaming":7703,"catégories":7704,"banlieue":7705,"63":7706,"68":7707,"BI":7708,"Clé":7709,"Camp":7710,"Gil":7711,"Gouver":7712,"Ja":7713,"Lor":7714,"Pos":7715,"Poli":7716,"Vé":7717,"Vir":7718,"Wh":7719,"doc":7720,"fasse":7721,"gre":7722,"hin":7723,"sports":7724,"tables":7725,"var":7726,"épuis":7727,"‘’":7728,"ene":7729,"ander":7730,"remarque":7731,"print":7732,"orie":7733,"ith":7734,"design":7735,"dues":7736,"réception":7737,"conquête":7738,"congrès":7739,"composée":7740,"vié":7741,"enda":7742,"exposé":7743,"nég":7744,"prévenir":7745,"prévus":7746,"covid":7747,"forfait":7748,"ota":7749,"obst":7750,"décol":7751,"crue":7752,"soula":7753,"courage":7754,"intermédi":7755,"tours":7756,"tourné":7757,"angers":7758,"casse":7759,"gardé":7760,"boute":7761,"demandent":7762,"correc":7763,"médiatique":7764,"laissant":7765,"utilisée":7766,"légère":7767,"fonctionnaires":7768,"officielles":7769,"ralentis":7770,"résidenti":7771,"diriger":7772,"manifes":7773,"Sept":7774,"racisme":7775,"Lorsqu":7776,"enseignant":7777,"laboratoire":7778,"malades":7779,"observe":7780,"intentions":7781,"libéral":7782,"sportive":7783,"sportifs":7784,"chacune":7785,"relativement":7786,"comparaison":7787,"modifier":7788,"mentionné":7789,"résilien":7790,"évacuation":7791,"échapper":7792,"jardins":7793,"marocain":7794,"informatique":7795,"jury":7796,"artifici":7797,"discipline":7798,"crises":7799,"graphiques":7800,"navires":7801,"(…)":7802,"gameplay":7803,"Street":7804,"gestes":7805,"endommag":7806,"Amb":7807,"Féli":7808,"Lav":7809,"Loire":7810,"Nam":7811,"Pel":7812,"RI":7813,"Rem":7814,"TO":7815,"Taï":7816,"Ye":7817,"gâ":7818,"gnon":7819,"ghan":7820,"têtes":7821,"ww":7822,"win":7823,"«»":7824,"refour":7825,"remonte":7826,"tisé":7827,"qualités":7828,"inés":7829,"mentale":7830,"dépasse":7831,"dios":7832,"réelle":7833,"atou":7834,"cessite":7835,"soin":7836,"jouent":7837,"verre":7838,"québécoise":7839,"évit":7840,"homologue":7841,"culp":7842,"tentatives":7843,"rumeurs":7844,"beauté":7845,"Suède":7846,"portées":7847,"Diff":7848,"affirmant":7849,"2007":7850,"ologues":7851,"apparaît":7852,"habitant":7853,"beek":7854,"assurant":7855,"connaissances":7856,"commande":7857,"milieux":7858,"gnants":7859,"subst":7860,"Donbass":7861,"neutr":7862,"personnelles":7863,"identifié":7864,"règne":7865,"plaidé":7866,"détaille":7867,"acheté":7868,"favorable":7869,"élue":7870,"hospitalier":7871,"jihad":7872,"arros":7873,"prononcé":7874,"opérateurs":7875,"francophones":7876,"smartphones":7877,"livraisons":7878,"brahim":7879,"Jonathan":7880,"affrontements":7881,"asile":7882,"analyste":7883,"référendu":7884,"Savoie":7885,"Certes":7886,"fameux":7887,"infirmi":7888,"fraude":7889,"automobilistes":7890,"Asie":7891,"Bret":7892,"Far":7893,"Gor":7894,"Jan":7895,"Jui":7896,"MON":7897,"Rappelons":7898,"Slo":7899,"UN":7900,"Vis":7901,"Wal":7902,"bin":7903,"caus":7904,"gers":7905,"noire":7906,"ppe":7907,"sav":7908,"tun":7909,"zu":7910,"âte":7911,"çus":7912,"onze":7913,"eront":7914,"quad":7915,"lateur":7916,"arre":7917,"informer":7918,"ted":7919,"orth":7920,"trations":7921,"alentour":7922,"assou":7923,"témoin":7924,"conju":7925,"contempor":7926,"sursis":7927,"eck":7928,"étage":7929,"nécessite":7930,"culé":7931,"inscrits":7932,"enceinte":7933,"bul":7934,"tins":7935,"alisées":7936,"rapproche":7937,"cache":7938,"entière":7939,"igh":7940,"Martine":7941,"juges":7942,"frag":7943,"crédi":7944,"annonces":7945,"intégré":7946,"humaines":7947,"générations":7948,"manipu":7949,"basée":7950,"articles":7951,"Europé":7952,"Maj":7953,"Trav":7954,"types":7955,"écos":7956,"collecte":7957,"enseigne":7958,"conséquent":7959,"céréales":7960,"policière":7961,"adoption":7962,"implication":7963,"navig":7964,"sensible":7965,"débute":7966,"concurrents":7967,"troubles":7968,"CAQ":7969,"parlementaires":7970,"raconter":7971,"olympiques":7972,"FCFA":7973,"opérateur":7974,"hension":7975,"psychologique":7976,"dinars":7977,"chansons":7978,"sensibiliser":7979,"attentats":7980,"souverain":7981,"athlète":7982,"répété":7983,"météo":7984,"OTAN":7985,"refuse":7986,"Blue":7987,"Fonds":7988,"argument":7989,"Gaza":7990,"ingéni":7991,"Angeles":7992,"scandale":7993,"Roland":7994,"caméras":7995,"Ari":7996,"BT":7997,"Bos":7998,"CGT":7999,"Catherine":8000,"Gren":8001,"Games":8002,"Hou":8003,"Plan":8004,"PME":8005,"Spi":8006,"She":8007,"Smith":8008,"Tra":8009,"Ur":8010,"XI":8011,"ajus":8012,"festiv":8013,"foyer":8014,"gan":8015,"ize":8016,"mins":8017,"pp":8018,"pape":8019,"devez":8020,"repos":8021,"relance":8022,"aidé":8023,"entam":8024,"intitu":8025,"illu":8026,"chette":8027,"als":8028,"dési":8029,"déni":8030,"assé":8031,"parvient":8032,"confon":8033,"attitude":8034,"amus":8035,"pointé":8036,"exempl":8037,"portrait":8038,"osse":8039,"rase":8040,"rachet":8041,"manie":8042,"péra":8043,"insou":8044,"mérit":8045,"oble":8046,"consiste":8047,"indica":8048,"garçons":8049,"transpar":8050,"Alpha":8051,"médical":8052,"vues":8053,"communiste":8054,"18h":8055,"totalité":8056,"lines":8057,"fierté":8058,"valu":8059,"justifier":8060,"journaux":8061,"lymp":8062,"commencent":8063,"nettement":8064,"hydro":8065,"hydr":8066,"belges":8067,"tellectu":8068,"Rivières":8069,"déploi":8070,"Pascal":8071,"observa":8072,"essaie":8073,"photograp":8074,"Interro":8075,"expertise":8076,"déficit":8077,"abandonner":8078,"industriel":8079,"signalé":8080,"elloise":8081,"sensibilisation":8082,"attentat":8083,"ATP":8084,"préféré":8085,"prolongation":8086,"suivante":8087,"existent":8088,"Environnement":8089,"critiqué":8090,"Ryan":8091,"indépendant":8092,"valorisation":8093,"réputation":8094,"recueilli":8095,"pauvreté":8096,"sapeurs":8097,"Palestiniens":8098,"ambitieux":8099,"\"\"":8100,"71":8101,"900":8102,"Ag":8103,"Bois":8104,"Cré":8105,"Dre":8106,"Gam":8107,"Gui":8108,"GMT":8109,"Ibrahim":8110,"Mons":8111,"SA":8112,"SAN":8113,"gage":8114,"ix":8115,"rur":8116,"wer":8117,"yst":8118,"erie":8119,"tile":8120,"tick":8121,"auts":8122,"intellectu":8123,"itage":8124,"unt":8125,"tront":8126,"avier":8127,"usines":8128,"résoudre":8129,"pourcent":8130,"conver":8131,"ataire":8132,"atmos":8133,"rine":8134,"poly":8135,"exas":8136,"rachat":8137,"veur":8138,"fiant":8139,"fiction":8140,"tume":8141,"patrou":8142,"vertu":8143,"vistes":8144,"lerc":8145,"Autant":8146,"possession":8147,"doté":8148,"franc":8149,"erreurs":8150,"contraint":8151,"bilités":8152,"assist":8153,"organise":8154,"importations":8155,"clô":8156,"septième":8157,"illant":8158,"aku":8159,"soix":8160,"visibles":8161,"atteig":8162,"lettres":8163,"particulière":8164,"gagnant":8165,"confirmer":8166,"vaccinés":8167,"bénéfices":8168,"facteurs":8169,"Moham":8170,"intéressé":8171,"souligner":8172,"habitudes":8173,"chaînes":8174,"COP":8175,"International":8176,"incendies":8177,"agressions":8178,"intensi":8179,"spectaculaire":8180,"maritime":8181,"Mercredi":8182,"avancé":8183,"navire":8184,"Champion":8185,"médecine":8186,"exceptionnelle":8187,"fixe":8188,"imagine":8189,"originale":8190,"privées":8191,"immédiat":8192,"Netan":8193,"musicale":8194,"profondément":8195,"infections":8196,"illustre":8197,"champs":8198,"préoccupations":8199,"AIP":8200,"exigences":8201,"aériennes":8202,"agréable":8203,"exportations":8204,"électronique":8205,"Directeur":8206,"renforcement":8207,"Total":8208,"coordination":8209,"!»":8210,"98":8211,"Bra":8212,"Bref":8213,"Hor":8214,"Ki":8215,"Lon":8216,"Mir":8217,"Pan":8218,"fui":8219,"ho":8220,"ikh":8221,"ken":8222,"nan":8223,"rock":8224,"urer":8225,"wallon":8226,"çue":8227,"èdent":8228,"redou":8229,"remonter":8230,"inédi":8231,"prouver":8232,"illis":8233,"chers":8234,"unanim":8235,"trées":8236,"troupe":8237,"dépasser":8238,"démons":8239,"répression":8240,"répéti":8241,"conception":8242,"cib":8243,"aisse":8244,"agner":8245,"survenu":8246,"polit":8247,"abè":8248,"format":8249,"mark":8250,"coul":8251,"Encore":8252,"stable":8253,"inex":8254,"Ontari":8255,"possé":8256,"allaient":8257,"menson":8258,"contro":8259,"cinquant":8260,"permettrait":8261,"fumée":8262,"nommée":8263,"publicité":8264,"seules":8265,"attaqué":8266,"actuels":8267,"promen":8268,"promesse":8269,"promouvoir":8270,"Liban":8271,"gramme":8272,"Républic":8273,"personnelle":8274,"constructeur":8275,"subvention":8276,"participe":8277,"constituent":8278,"Series":8279,"inédit":8280,"employé":8281,"frappes":8282,"rature":8283,"rempli":8284,"ambitions":8285,"acceptable":8286,"adapté":8287,"observé":8288,"amélior":8289,"quotidienne":8290,"rendent":8291,"départements":8292,"accidents":8293,"rendue":8294,"Abdou":8295,"Light":8296,"compétitions":8297,"réservé":8298,"régler":8299,"spectacles":8300,"Soit":8301,"israéliens":8302,"pratiquement":8303,"écras":8304,"missile":8305,"juive":8306,"chaussée":8307,"garantie":8308,"limitée":8309,"éclairage":8310,"Oscar":8311,"rénovation":8312,"catalogue":8313,"recommandations":8314,"sécheresse":8315,"symptômes":8316,"rummond":8317,"failli":8318,"Ontario":8319,"%),":8320,"Bob":8321,"Code":8322,"God":8323,"Glob":8324,"IN":8325,"MR":8326,"Sin":8327,"TF1":8328,"Vaud":8329,"cous":8330,"itions":8331,"joi":8332,"oît":8333,"spir":8334,"tali":8335,"yne":8336,"èques":8337,"ïs":8338,"encad":8339,"deviennent":8340,"lette":8341,"relancer":8342,"quat":8343,"arbre":8344,"intri":8345,"ordonné":8346,"ilité":8347,"triste":8348,"alo":8349,"déces":8350,"désir":8351,"digne":8352,"paraître":8353,"congol":8354,"cifique":8355,"ressenti":8356,"prévoy":8357,"prévision":8358,"prédéces":8359,"satel":8360,"iez":8361,"géants":8362,"contac":8363,"stabilité":8364,"guér":8365,"comptent":8366,"verts":8367,"noté":8368,"1980":8369,"locu":8370,"Frank":8371,"rouges":8372,"cton":8373,"Anti":8374,"formée":8375,"tentent":8376,"sembler":8377,"périodes":8378,"assaut":8379,"basé":8380,"bases":8381,"réalise":8382,"cks":8383,"représentation":8384,"arrêts":8385,"térieure":8386,"Mah":8387,"retrouvés":8388,"programmation":8389,"officiels":8390,"commente":8391,"hausses":8392,"cruci":8393,"honor":8394,"Med":8395,"championne":8396,"conclure":8397,"pensait":8398,"abonnement":8399,"condamnation":8400,"myt":8401,"démarches":8402,"intense":8403,"brigade":8404,"dégra":8405,"dégrad":8406,"appuyer":8407,"exceptionnel":8408,"indépendante":8409,"décédée":8410,"payé":8411,"recrutement":8412,"prétend":8413,"firme":8414,"francophone":8415,"italien":8416,"sexuelle":8417,"consacré":8418,"accessibles":8419,"menacé":8420,"Jérôme":8421,"bombardements":8422,"descend":8423,"Trib":8424,"biodiversité":8425,"négatif":8426,"Journée":8427,"panneaux":8428,"gentine":8429,"fidèle":8430,"japonais":8431,"archie":8432,"considérablement":8433,"destiné":8434,"compréhension":8435,"naies":8436,"élarg":8437,"rôles":8438,"massac":8439,"souveraineté":8440,"Canadiens":8441,"tranquille":8442,"incontournable":8443,"fossiles":8444,"obstac":8445,"pourcentage":8446,"Ay":8447,"Die":8448,"Drummond":8449,"MRC":8450,"Stu":8451,"Suite":8452,"To":8453,"Ya":8454,"couv":8455,"couvre":8456,"flu":8457,"nons":8458,"raux":8459,"vra":8460,"escalade":8461,"envoi":8462,"deaux":8463,"ariste":8464,"ory":8465,"ormais":8466,"tram":8467,"avère":8468,"réper":8469,"contra":8470,"rions":8471,"comble":8472,"cott":8473,"irs":8474,"addition":8475,"coupé":8476,"lone":8477,"couru":8478,"guée":8479,"visites":8480,"internau":8481,"tournant":8482,"ennemis":8483,"casque":8484,"suspects":8485,"Concer":8486,"légende":8487,"autorisé":8488,"Dix":8489,"Direction":8490,"Didier":8491,"Art":8492,"sécuritaire":8493,"terrains":8494,"élite":8495,"espagno":8496,"fonctionner":8497,"chercheur":8498,"effectifs":8499,"gny":8500,"droid":8501,"pompe":8502,"Finalement":8503,"combattre":8504,"Royal":8505,"déblo":8506,"analyses":8507,"impressionnant":8508,"Tele":8509,"exécution":8510,"interroge":8511,"énergétiques":8512,"formément":8513,"RTX":8514,"Nationale":8515,"Bénin":8516,"juif":8517,"entrepreneurs":8518,"excellence":8519,"Milan":8520,"mobiles":8521,"urgences":8522,"Orient":8523,"Théâtre":8524,"viendront":8525,"Roger":8526,"équivalent":8527,"Mexique":8528,"protocole":8529,"autochtones":8530,"laborer":8531,"Taïwan":8532,"Netanya":8533,"cinquantaine":8534,"internautes":8535,"5G":8536,"Califor":8537,"DI":8538,"Eh":8539,"Fau":8540,"Fland":8541,"Hon":8542,"King":8543,"Math":8544,"Poi":8545,"UR":8546,"Xavier":8547,"akr":8548,"gang":8549,"gabon":8550,"hâte":8551,"jette":8552,"jordanie":8553,"mm":8554,"zy":8555,"éché":8556,"évid":8557,"rele":8558,"entré":8559,"istiques":8560,"neau":8561,"urnes":8562,"ceci":8563,"trains":8564,"sivité":8565,"avre":8566,"pari":8567,"aca":8568,"aby":8569,"porteurs":8570,"prévisions":8571,"veil":8572,"sovié":8573,"distri":8574,"plat":8575,"pires":8576,"collis":8577,"attach":8578,"Devant":8579,"ogie":8580,"créée":8581,"risquent":8582,"Android":8583,"monté":8584,"douleur":8585,"bouche":8586,"oriques":8587,"austral":8588,"tax":8589,"Diables":8590,"ako":8591,"camps":8592,"emblématique":8593,"oline":8594,"litre":8595,"Belge":8596,"connues":8597,"directe":8598,"massive":8599,"bénéficié":8600,"rassemble":8601,"universitaire":8602,"Benoît":8603,"Force":8604,"accompagnement":8605,"hana":8606,"évoquer":8607,"obligations":8608,"Finlande":8609,"essay":8610,"Borne":8611,"commerciale":8612,"approfon":8613,"quinqu":8614,"disputé":8615,"classiques":8616,"administratif":8617,"plonge":8618,"Harry":8619,"adolescents":8620,"célébrer":8621,"sauvet":8622,"PIB":8623,"logistique":8624,"Rapha":8625,"réfléchir":8626,"Sahel":8627,"Djoko":8628,"interprète":8629,"Cisjordanie":8630,"vaudois":8631,"Arabie":8632,"vigilance":8633,"Contrairement":8634,"Désormais":8635,"Joseph":8636,"Nancy":8637,"Culture":8638,"inédite":8639,"130":8640,"3D":8641,"5e":8642,"DA":8643,"EM":8644,"FF":8645,"Gri":8646,"Hé":8647,"Lion":8648,"Olymp":8649,"RDC":8650,"Tig":8651,"fraî":8652,"kg":8653,"kara":8654,"laient":8655,"mol":8656,"ping":8657,"savais":8658,"toire":8659,"ud":8660,"vins":8661,"éoli":8662,"demment":8663,"isations":8664,"itant":8665,"chen":8666,"chère":8667,"chissement":8668,"traces":8669,"sière":8670,"esthé":8671,"lice":8672,"licen":8673,"river":8674,"agences":8675,"acing":8676,"accompagne":8677,"propo":8678,"polon":8679,"pure":8680,"perp":8681,"exhor":8682,"raté":8683,"fiées":8684,"léger":8685,"puissante":8686,"disque":8687,"jeurs":8688,"tresse":8689,"viser":8690,"notes":8691,"carré":8692,"1970":8693,"riez":8694,"rêves":8695,"Commun":8696,"Congrès":8697,"achats":8698,"possibilités":8699,"taxe":8700,"légis":8701,"héran":8702,"antisé":8703,"représenter":8704,"télétravail":8705,"violents":8706,"magaz":8707,"primes":8708,"haï":8709,"Stan":8710,"entraîne":8711,"attendait":8712,"commandant":8713,"sûrement":8714,"facteur":8715,"horreur":8716,"personnels":8717,"malade":8718,"conclusions":8719,"réunions":8720,"observer":8721,"coûté":8722,"municipalités":8723,"favorables":8724,"chauffeur":8725,"Prime":8726,"énormes":8727,"recommandé":8728,"enquêtes":8729,"conservateurs":8730,"récolté":8731,"cadeaux":8732,"Metz":8733,"show":8734,"Mathieu":8735,"séparatis":8736,"situe":8737,"littérature":8738,"concentrer":8739,"mélange":8740,"Téhéran":8741,"Libreville":8742,"Colombie":8743,"Floride":8744,"architecture":8745,"Bretagne":8746,"SANA":8747,"évidence":8748,"350":8749,"61":8750,"Ak":8751,"Abou":8752,"Belle":8753,"Gilles":8754,"Kam":8755,"Land":8756,"Mb":8757,"Mob":8758,"Xi":8759,"axe":8760,"câ":8761,"cann":8762,"cath":8763,"cèlement":8764,"eting":8765,"rail":8766,"saut":8767,"sombre":8768,"tas":8769,"devenus":8770,"remarqu":8771,"armé":8772,"déro":8773,"asy":8774,"dic":8775,"dine":8776,"parvenir":8777,"récents":8778,"cime":8779,"plé":8780,"amont":8781,"survie":8782,"vine":8783,"viande":8784,"étendre":8785,"étages":8786,"pertin":8787,"extrait":8788,"rati":8789,"peines":8790,"préven":8791,"file":8792,"tue":8793,"ller":8794,"gris":8795,"marquant":8796,"finales":8797,"miste":8798,"oton":8799,"donnant":8800,"start":8801,"visu":8802,"cardi":8803,"phrase":8804,"Jeff":8805,"low":8806,"rond":8807,"suivie":8808,"colo":8809,"touristique":8810,"ignor":8811,"jume":8812,"fondé":8813,"Aut":8814,"blessées":8815,"solue":8816,"gouvernance":8817,"ferait":8818,"Conakr":8819,"empre":8820,"dommage":8821,"Argentine":8822,"écho":8823,"remment":8824,"étro":8825,"Nova":8826,"simples":8827,"officier":8828,"Stand":8829,"développeurs":8830,"continué":8831,"culturelle":8832,"testé":8833,"hybri":8834,"èvement":8835,"honn":8836,"poursuivent":8837,"camions":8838,"horri":8839,"conclusion":8840,"provinces":8841,"pensée":8842,"évolué":8843,"évoquant":8844,"matériaux":8845,"libéraux":8846,"Steven":8847,"commerciaux":8848,"lourds":8849,"René":8850,"évaluer":8851,"remplacé":8852,"instrument":8853,"normalement":8854,"froide":8855,"temporaire":8856,"opportunités":8857,"Web":8858,"carburants":8859,"rafraî":8860,"fruit":8861,"filière":8862,"inspiré":8863,"Fabien":8864,"alternative":8865,"communautaire":8866,"drones":8867,"Leclerc":8868,"alarme":8869,"bronze":8870,"conseillère":8871,"appartient":8872,"chapitre":8873,"consoles":8874,"Sarah":8875,"Juifs":8876,"alentours":8877,"Concernant":8878,"Conakry":8879,"(-":8880,"09":8881,"79":8882,"81":8883,"Britannique":8884,"EN":8885,"FN":8886,"Fil":8887,"Fed":8888,"Khar":8889,"Nd":8890,"PO":8891,"Rome":8892,"Télé":8893,"cence":8894,"card":8895,"dys":8896,"fall":8897,"flou":8898,"gê":8899,"mous":8900,"pain":8901,"yen":8902,"Éducation":8903,"encais":8904,"deurs":8905,"repé":8906,"remarquer":8907,"aigu":8908,"enter":8909,"cevoir":8910,"sible":8911,"ansk":8912,"contient":8913,"atter":8914,"agenda":8915,"proché":8916,"pool":8917,"passera":8918,"cessé":8919,"porteur":8920,"pement":8921,"vey":8922,"majeurs":8923,"marchan":8924,"vendus":8925,"stars":8926,"crète":8927,"placée":8928,"guère":8929,"érap":8930,"Chac":8931,"présentant":8932,"ull":8933,"offrant":8934,"presti":8935,"itude":8936,"oyers":8937,"larmes":8938,"équipage":8939,"productions":8940,"positive":8941,"mensu":8942,"solo":8943,"périphé":8944,"volé":8945,"explication":8946,"explications":8947,"laissent":8948,"location":8949,"suisses":8950,"olet":8951,"duré":8952,"problématique":8953,"Diallo":8954,"ake":8955,"promesses":8956,"souris":8957,"spécialisé":8958,"concernées":8959,"faisaient":8960,"feuilles":8961,"commentaires":8962,"Sécurité":8963,"mobilisés":8964,"installés":8965,"voisine":8966,"keting":8967,"citoyenne":8968,"mirats":8969,"sciences":8970,"laye":8971,"démocrate":8972,"gaming":8973,"avocate":8974,"annulé":8975,"sièges":8976,"truite":8977,"attendues":8978,"harcèlement":8979,"débuter":8980,"concurrent":8981,"stationnement":8982,"rangs":8983,"élimination":8984,"éliminatoires":8985,"infection":8986,"globale":8987,"cadeau":8988,"urbain":8989,"rejeté":8990,"Croix":8991,"marocaine":8992,"accélérer":8993,"opposant":8994,"avoue":8995,"accumu":8996,"bruxelloise":8997,"renseignement":8998,"hypoth":8999,"pollution":9000,"prudence":9001,"félicité":9002,"gratuite":9003,"contaminations":9004,"compatible":9005,"polémique":9006,"BFM":9007,"délégué":9008,"approuvé":9009,"lywood":9010,"conciliation":9011,"indispensable":9012,"Nadal":9013,"Namur":9014,"déploiement":9015,"Netanyahu":9016,"6e":9017,"Cos":9018,"Cris":9019,"EC":9020,"Foot":9021,"Hab":9022,"Jos":9023,"Kan":9024,"Lég":9025,"Nas":9026,"Rhô":9027,"Sky":9028,"Tit":9029,"Tay":9030,"Togo":9031,"Wol":9032,"grec":9033,"iti":9034,"kar":9035,"murs":9036,"nou":9037,"nar":9038,"rab":9039,"somb":9040,"tations":9041,"tcha":9042,"vet":9043,"vaient":9044,"€™":9045,"envelop":9046,"relâ":9047,"quants":9048,"quante":9049,"laï":9050,"informé":9051,"orange":9052,"descente":9053,"chèque":9054,"allég":9055,"détenu":9056,"démontre":9057,"désigné":9058,"déposée":9059,"démontré":9060,"défilé":9061,"dign":9062,"meeting":9063,"accou":9064,"ressemble":9065,"ressortis":9066,"oiseaux":9067,"mba":9068,"staff":9069,"vélos":9070,"placer":9071,"comptait":9072,"verges":9073,"visent":9074,"alisations":9075,"interdire":9076,"unior":9077,"caché":9078,"suicide":9079,"socio":9080,"alière":9081,"trace":9082,"press":9083,"bonus":9084,"fragi":9085,"oyen":9086,"produite":9087,"pouvaient":9088,"bouger":9089,"transmission":9090,"transformé":9091,"demandant":9092,"signée":9093,"Six":9094,"gala":9095,"vront":9096,"utilisent":9097,"baï":9098,"Moncton":9099,"Dijon":9100,"talents":9101,"compagnon":9102,"2002":9103,"Caroline":9104,"commentaire":9105,"associé":9106,"compléter":9107,"Isab":9108,"traiter":9109,"amené":9110,"mascul":9111,"défenseurs":9112,"subir":9113,"Serge":9114,"universités":9115,"affiché":9116,"allemande":9117,"attendus":9118,"enregistrés":9119,"Maritimes":9120,"négocier":9121,"aventures":9122,"Abdel":9123,"idéal":9124,"avancée":9125,"exercer":9126,"Gene":9127,"Champions":9128,"mourir":9129,"doubler":9130,"provoquer":9131,"pauvres":9132,"interrogé":9133,"traditionnel":9134,"civiles":9135,"apprécié":9136,"saisir":9137,"USB":9138,"réclame":9139,"médailles":9140,"déplacements":9141,"Musée":9142,"Meta":9143,"algériens":9144,"adolescent":9145,"aignent":9146,"engagée":9147,"sondages":9148,"espèce":9149,"fournisseur":9150,"discipl":9151,"Tokyo":9152,"grimper":9153,"présumé":9154,"isolement":9155,"téléphonique":9156,"dramatique":9157,"Général":9158,"NDLR":9159,"Ousmane":9160,"parallèle":9161,"Histoire":9162,"ortho":9163,"clôture":9164,"unanimité":9165,"Rhône":9166,"!\"":9167,"96":9168,"Fla":9169,"Lim":9170,"Mul":9171,"Sab":9172,"Tran":9173,"Temp":9174,"Texas":9175,"Zi":9176,"achar":9177,"bec":9178,"ding":9179,"fo":9180,"flui":9181,"fleurs":9182,"gard":9183,"junte":9184,"lité":9185,"lants":9186,"pèse":9187,"vallée":9188,"éte":9189,"envir":9190,"reti":9191,"requ":9192,"isol":9193,"isses":9194,"audition":9195,"illage":9196,"dule":9197,"dégag":9198,"aveu":9199,"réhabil":9200,"concré":9201,"convoi":9202,"oivent":9203,"ageux":9204,"compromis":9205,"Lee":9206,"préala":9207,"ieuses":9208,"entrevue":9209,"patin":9210,"trio":9211,"craint":9212,"crainte":9213,"gueu":9214,"interlocu":9215,"1960":9216,"vents":9217,"sortent":9218,"Quelle":9219,"Autri":9220,"douard":9221,"transporté":9222,"huis":9223,"titudes":9224,"orial":9225,"signat":9226,"utiles":9227,"configur":9228,"côtes":9229,"basse":9230,"régionales":9231,"sane":9232,"voyager":9233,"actuelles":9234,"voud":9235,"boos":9236,"info":9237,"affirmer":9238,"oke":9239,"atteinte":9240,"fonctionnalités":9241,"lettes":9242,"continuité":9243,"turc":9244,"tombée":9245,"tranche":9246,"Victor":9247,"championnats":9248,"constituer":9249,"afficher":9250,"prisonniers":9251,"Forum":9252,"précédents":9253,"essais":9254,"pénale":9255,"sacs":9256,"refuser":9257,"héritage":9258,"longueur":9259,"avancées":9260,"israéliennes":9261,"assisté":9262,"vivants":9263,"abandonné":9264,"religion":9265,"conscient":9266,"luxembour":9267,"Rafa":9268,"cosmé":9269,"conseillers":9270,"urbaine":9271,"satisfaction":9272,"déployé":9273,"mécanisme":9274,"orientation":9275,"introduction":9276,"index":9277,"criminels":9278,"remercié":9279,"richesse":9280,"Karim":9281,"Stade":9282,"Free":9283,"invitation":9284,"perspectives":9285,"cyclistes":9286,"refuge":9287,"violation":9288,"vétér":9289,"priorités":9290,"décrocher":9291,"expulsion":9292,"vulnérables":9293,"destruction":9294,"Tesla":9295,"correctionnel":9296,"mystéri":9297,"Cinq":9298,"atmosphère":9299,"Djokovic":9300,"Standard":9301,"environs":9302,"''":9303,"-,":9304,"05":9305,"Aw":9306,"Bâ":9307,"Big":9308,"Claire":9309,"Fri":9310,"GP":9311,"Long":9312,"Sun":9313,"Sant":9314,"Sol":9315,"Xe":9316,"Ze":9317,"fins":9318,"flé":9319,"hai":9320,"savez":9321,"wis":9322,"zen":9323,"ÉAL":9324,"éman":9325,"ître":9326,"ïn":9327,"enaire":9328,"ennu":9329,"ondre":9330,"regroupe":9331,"arc":9332,"sea":9333,"omi":9334,"décou":9335,"débor":9336,"assa":9337,"procla":9338,"pop":9339,"tremb":9340,"serre":9341,"motion":9342,"moto":9343,"gren":9344,"marketing":9345,"otage":9346,"crètes":9347,"plages":9348,"placés":9349,"érences":9350,"paysage":9351,"présentes":9352,"ligue":9353,"Parc":9354,"roues":9355,"présidents":9356,"thérap":9357,"Anvers":9358,"soldes":9359,"ponctu":9360,"fermée":9361,"autrement":9362,"tivités":9363,"féminis":9364,"gouvernementale":9365,"Commer":9366,"morte":9367,"bref":9368,"jambes":9369,"voyages":9370,"édie":9371,"éditeur":9372,"mutu":9373,"communiquer":9374,"représenté":9375,"Mike":9376,"dirigée":9377,"Dépar":9378,"Berne":9379,"proposant":9380,"rappelant":9381,"volontaire":9382,"volontairement":9383,"rattr":9384,"futurs":9385,"négociation":9386,"records":9387,"sportives":9388,"annuler":9389,"Bordeaux":9390,"empêché":9391,"connexion":9392,"accorder":9393,"Espagnol":9394,"coloni":9395,"entourage":9396,"global":9397,"prononcer":9398,"Votre":9399,"machines":9400,"mécanique":9401,"remercier":9402,"filiale":9403,"prestations":9404,"commissariat":9405,"obligé":9406,"Sahara":9407,"ordonnance":9408,"logici":9409,"écologiste":9410,"fausses":9411,"funér":9412,"conversation":9413,"défensive":9414,"TRÉAL":9415,"anglaise":9416,"fusillade":9417,"MONTRÉAL":9418,"écosyst":9419,"Républicains":9420,"Tribunal":9421,"Californie":9422,"collision":9423,"Raphaël":9424,"Communauté":9425,"législation":9426,".,":9427,"CG":9428,"Dame":9429,"Gant":9430,"Jen":9431,"Kher":9432,"LS":9433,"PE":9434,"Pog":9435,"Place":9436,"Soli":9437,"Tre":9438,"Tant":9439,"Top":9440,"Wars":9441,"foyers":9442,"ides":9443,"kan":9444,"lune":9445,"ots":9446,"von":9447,"vante":9448,"éprouv":9449,"repose":9450,"aid":9451,"entrées":9452,"ity":9453,"descen":9454,"sine":9455,"défin":9456,"débou":9457,"détient":9458,"dépou":9459,"ason":9460,"réci":9461,"comporte":9462,"ressort":9463,"abis":9464,"ablan":9465,"absolue":9466,"extré":9467,"raff":9468,"prévient":9469,"prévenus":9470,"cumu":9471,"vedette":9472,"tenance":9473,"marcher":9474,"gén":9475,"annul":9476,"craindre":9477,"ordan":9478,"interprét":9479,"versée":9480,"tourne":9481,"présentées":9482,"jugés":9483,"franchir":9484,"soldat":9485,"anisme":9486,"formant":9487,"russo":9488,"équipement":9489,"basket":9490,"penal":9491,"Arth":9492,"aka":9493,"popularité":9494,"voulez":9495,"heim":9496,"publiquement":9497,"Liver":9498,"norme":9499,"mondiaux":9500,"classé":9501,"impac":9502,"azz":9503,"séquences":9504,"prêter":9505,"proposée":9506,"instances":9507,"étudier":9508,"participent":9509,"sinc":9510,"horaire":9511,"amitié":9512,"Julie":9513,"intenses":9514,"implique":9515,"impliquant":9516,"annulation":9517,"Johnny":9518,"apprête":9519,"TVA":9520,"inscription":9521,"ght":9522,"élevées":9523,"contrôles":9524,"éventuel":9525,"récentes":9526,"exercices":9527,"block":9528,"récolte":9529,"dédiée":9530,"algérienne":9531,"médicament":9532,"branche":9533,"sitôt":9534,"canadiens":9535,"prolonger":9536,"vérifier":9537,"hypothèse":9538,"Hollywood":9539,"provincial":9540,"SNCF":9541,"repoussé":9542,"éventuelle":9543,"Ahmed":9544,"iranien":9545,"Nupes":9546,"républicain":9547,"gratuit":9548,"logiciel":9549,"supprimer":9550,"traverser":9551,"Galaxy":9552,"NFT":9553,"héroïne":9554,"enthousiasme":9555,"inférieur":9556,"étendue":9557,"amoureux":9558,"trophée":9559,"trauma":9560,"artificielle":9561,"référendum":9562,"perpétu":9563,"Département":9564,"Kherson":9565,"ablanca":9566,"02":9567,"AG":9568,"Aur":9569,"Bir":9570,"Cau":9571,"Celles":9572,"CFA":9573,"Dy":9574,"Fit":9575,"JO":9576,"Kin":9577,"MP":9578,"Mbap":9579,"Nath":9580,"Pont":9581,"Pass":9582,"Rw":9583,"Rabat":9584,"Sû":9585,"ben":9586,"cord":9587,"cités":9588,"pun":9589,"sab":9590,"Économie":9591,"enver":9592,"dé":9593,"repartir":9594,"remarqué":9595,"ties":9596,"incul":9597,"informe":9598,"sez":9599,"semi":9600,"semestre":9601,"itent":9602,"trône":9603,"sia":9604,"dépit":9605,"démique":9606,"désert":9607,"ases":9608,"parvenu":9609,"paroles":9610,"télés":9611,"elsea":9612,"convenu":9613,"contribue":9614,"cibles":9615,"cieuse":9616,"oite":9617,"acar":9618,"ouvrent":9619,"étend":9620,"cheur":9621,"peint":9622,"cohésion":9623,"séances":9624,"llerie":9625,"ador":9626,"partiellement":9627,"gérant":9628,"triom":9629,"courri":9630,"courrier":9631,"plaque":9632,"plafon":9633,"andais":9634,"Chelsea":9635,"rench":9636,"renom":9637,"uniforme":9638,"merveille":9639,"suici":9640,"affai":9641,"publier":9642,"attara":9643,"Mary":9644,"effondre":9645,"offrent":9646,"tantes":9647,"bière":9648,"indig":9649,"cani":9650,"Anth":9651,"trouvaient":9652,"transaction":9653,"humor":9654,"creus":9655,"historiques":9656,"précau":9657,"tateur":9658,"illent":9659,"dominé":9660,"actionnaires":9661,"citée":9662,"Unies":9663,"spécialisée":9664,"précisant":9665,"hôte":9666,"exploration":9667,"télévis":9668,"Sonko":9669,"principes":9670,"Ouattara":9671,"accusent":9672,"fournis":9673,"artisan":9674,"impacts":9675,"naturelle":9676,"bourgeois":9677,"abords":9678,"circuler":9679,"conservé":9680,"anime":9681,"écriv":9682,"Alexander":9683,"présidentiel":9684,"disparaître":9685,"gamer":9686,"progresser":9687,"destinée":9688,"origines":9689,"infraction":9690,"adressé":9691,"diplomatiques":9692,"Atlantique":9693,"Casablanca":9694,"Cheikh":9695,"disputer":9696,"royale":9697,"administrative":9698,"renouvel":9699,"mauvaises":9700,"FIFA":9701,"proposées":9702,"glise":9703,"complexes":9704,"incidents":9705,"qualifiée":9706,"frein":9707,"chapeau":9708,"fiscale":9709,"reflè":9710,"Azur":9711,"métropole":9712,"déroulera":9713,"virtuelle":9714,"témoignage":9715,"Mamadou":9716,"composants":9717,"cellule":9718,"flotte":9719,"folle":9720,"genevois":9721,"océan":9722,"intermédiaire":9723,"Félix":9724,"transparence":9725,"mythique":9726,"espagnole":9727,"Flandre":9728,"magazine":9729,"séparatistes":9730,"falloir":9731,"Liverpool":9732,"Mbappé":9733,"$,":9734,"04":9735,"84":9736,"87":9737,"Bet":9738,"Dem":9739,"Eu":9740,"Egypte":9741,"FE":9742,"Four":9743,"Fall":9744,"Fête":9745,"Gou":9746,"Had":9747,"MM":9748,"Mété":9749,"OLED":9750,"Py":9751,"Prom":9752,"Rod":9753,"Tremb":9754,"Vu":9755,"atri":9756,"bain":9757,"bos":9758,"hel":9759,"joli":9760,"nap":9761,"pus":9762,"ptes":9763,"pack":9764,"sprint":9765,"tam":9766,"Élisabeth":9767,"ésie":9768,"élég":9769,"enser":9770,"degré":9771,"ané":9772,"repê":9773,"tiser":9774,"aré":9775,"itations":9776,"chou":9777,"trand":9778,"aspects":9779,"lique":9780,"réité":9781,"résolu":9782,"conformément":9783,"atté":9784,"atures":9785,"rive":9786,"composition":9787,"amie":9788,"aints":9789,"auxquels":9790,"touchées":9791,"fig":9792,"field":9793,"inspiration":9794,"méga":9795,"métiers":9796,"matri":9797,"lématiques":9798,"rovi":9799,"moni":9800,"montrant":9801,"cercle":9802,"coun":9803,"coureurs":9804,"stan":9805,"plau":9806,"verte":9807,"interpelle":9808,"rappeur":9809,"emporter":9810,"devan":9811,"publiés":9812,"cherch":9813,"Mark":9814,"nationalité":9815,"dits":9816,"Parfois":9817,"évol":9818,"équipé":9819,"créant":9820,"menées":9821,"titulaire":9822,"oriz":9823,"charbon":9824,"future":9825,"taxes":9826,"résister":9827,"utilisant":9828,"économiste":9829,"domes":9830,"soigner":9831,"promette":9832,"échanger":9833,"assumer":9834,"retrouvée":9835,"issements":9836,"fortune":9837,"Début":9838,"explorer":9839,"professionnelles":9840,"initial":9841,"honte":9842,"munitions":9843,"baissé":9844,"collectivités":9845,"cameroun":9846,"singe":9847,"conseille":9848,"disponibilité":9849,"soulignant":9850,"pensais":9851,"quisition":9852,"sexuels":9853,"rendant":9854,"complicité":9855,"célébr":9856,"diplô":9857,"stratégiques":9858,"inquiétude":9859,"impliqué":9860,"agira":9861,"Steph":9862,"commerciales":9863,"Méditerran":9864,"détermination":9865,"humanitaires":9866,"traditionnelle":9867,"Bourg":9868,"bombe":9869,"chirur":9870,"Chef":9871,"Chelem":9872,"dispute":9873,"saisie":9874,"Quelque":9875,"joueuses":9876,"stocks":9877,"bloqué":9878,"mentionne":9879,"annick":9880,"connecter":9881,"comédien":9882,"illustration":9883,"diminué":9884,"réjouit":9885,"baptisé":9886,"Group":9887,"affrontement":9888,"épargne":9889,"étoile":9890,"analystes":9891,"imposées":9892,"bénéficiaires":9893,"secrets":9894,"oblige":9895,"réfléch":9896,"protagon":9897,"chevaux":9898,"combattants":9899,"récompenses":9900,"morceaux":9901,"tnik":9902,"Résul":9903,"flammes":9904,"systématique":9905,"agriculteurs":9906,"prestigi":9907,"Isabelle":9908,"3000":9909,"8e":9910,"Ath":9911,"BO":9912,"Bit":9913,"Bill":9914,"Cat":9915,"Cop":9916,"Dor":9917,"Gand":9918,"Ini":9919,"Louv":9920,"RPG":9921,"Rassemb":9922,"Souv":9923,"Sophie":9924,"VR":9925,"Yannick":9926,"bers":9927,"blin":9928,"britanniques":9929,"dal":9930,"gains":9931,"hensi":9932,"sché":9933,"vence":9934,"Évidemment":9935,"çois":9936,"deviendra":9937,"retenu":9938,"relay":9939,"retenue":9940,"regrou":9941,"tics":9942,"entamé":9943,"isolé":9944,"secou":9945,"chré":9946,"chestre":9947,"omes":9948,"omique":9949,"démontrer":9950,"détruire":9951,"démenti":9952,"parlent":9953,"poursuites":9954,"conjoint":9955,"oiff":9956,"agg":9957,"respir":9958,"applau":9959,"mirac":9960,"serie":9961,"exi":9962,"expé":9963,"impéra":9964,"rateur":9965,"cot":9966,"coins":9967,"coopéra":9968,"tueux":9969,"tuées":9970,"formid":9971,"entretenir":9972,"marin":9973,"légu":9974,"soy":9975,"votes":9976,"cerveau":9977,"disposer":9978,"dissements":9979,"obus":9980,"contacté":9981,"craignent":9982,"noy":9983,"Champ":9984,"emporté":9985,"suivent":9986,"colore":9987,"cherchent":9988,"vieille":9989,"larus":9990,"indiquant":9991,"contraintes":9992,"aya":9993,"transmis":9994,"cret":9995,"organisées":9996,"connait":9997,"situés":9998,"chargés":9999,"suscite":10000,"ceptions":10001,"histor":10002,"Suisses":10003,"appelée":10004,"régionaux":10005,"hésite":10006,"campus":10007,"passait":10008,"chambres":10009,"minuit":10010,"2003":10011,"violente":10012,"Afghan":10013,"appartenant":10014,"appartements":10015,"Pix":10016,"tester":10017,"ègre":10018,"précédemment":10019,"considérer":10020,"considérée":10021,"accompagnée":10022,"souffert":10023,"combin":10024,"secondaires":10025,"variole":10026,"burkin":10027,"progress":10028,"sélectionné":10029,"appuie":10030,"Syn":10031,"accordée":10032,"stupé":10033,"immédiate":10034,"George":10035,"musical":10036,"Radio":10037,"bloquer":10038,"plongé":10039,"LEGO":10040,"Ministre":10041,"italienne":10042,"Maurice":10043,"golf":10044,"criminelle":10045,"constitutionnel":10046,"Bleu":10047,"tomon":10048,"terrible":10049,"alternatives":10050,"cryptomon":10051,"figurent":10052,"communautaires":10053,"hébergement":10054,"Batman":10055,"Moussa":10056,"LGBT":10057,"Nigeria":10058,"rédaction":10059,"Clément":10060,"Mohammed":10061,"sauvetage":10062,"cannabis":10063,"Autorité":10064,"Chacun":10065,"Rafael":10066,"Sûreté":10067,"évolue":10068,"Résultat":10069,"Rassemblement":10070,"110":10071,"5000":10072,"Alas":10073,"Cant":10074,"Fant":10075,"Gon":10076,"Gro":10077,"IV":10078,"Ji":10079,"Lille":10080,"Maire":10081,"Nat":10082,"RA":10083,"Sw":10084,"TT":10085,"Ta":10086,"Thor":10087,"beur":10088,"bassin":10089,"couver":10090,"couvrir":10091,"dences":10092,"flux":10093,"folie":10094,"naient":10095,"pat":10096,"pili":10097,"rassurer":10098,"sté":10099,"sité":10100,"zième":10101,"escla":10102,"relle":10103,"redres":10104,"ouf":10105,"quai":10106,"intes":10107,"incit":10108,"inacceptable":10109,"itte":10110,"challen":10111,"oma":10112,"aves":10113,"rival":10114,"ciers":10115,"agée":10116,"agran":10117,"procher":10118,"abatt":10119,"exter":10120,"chemins":10121,"fiche":10122,"fibre":10123,"ados":10124,"otter":10125,"optique":10126,"disposent":10127,"stage":10128,"jeun":10129,"crates":10130,"plaît":10131,"visuel":10132,"intervenus":10133,"blioth":10134,"Chap":10135,"Château":10136,"jeter":10137,"color":10138,"effond":10139,"synon":10140,"thèmes":10141,"rêver":10142,"ferrovi":10143,"cort":10144,"restés":10145,"clinique":10146,"portefeuille":10147,"fuir":10148,"heureuse":10149,"Liber":10150,"Salah":10151,"spéciaux":10152,"prenez":10153,"concerts":10154,"2001":10155,"barrage":10156,"épous":10157,"passées":10158,"tox":10159,"résumé":10160,"artisans":10161,"naturelles":10162,"tombées":10163,"manifester":10164,"Bertrand":10165,"traversé":10166,"subventions":10167,"candidatures":10168,"sinon":10169,"employeurs":10170,"remplir":10171,"joints":10172,"intensité":10173,"Camara":10174,"Montpel":10175,"tendances":10176,"Sénégalais":10177,"studios":10178,"trouble":10179,"guerres":10180,"globalement":10181,"confrontés":10182,"Seulement":10183,"féminine":10184,"préoccupation":10185,"opposants":10186,"aborder":10187,"sauvages":10188,"maîtriser":10189,"diversi":10190,"vétéran":10191,"palestinien":10192,"tapis":10193,"envisager":10194,"Lapid":10195,"fréquence":10196,"factures":10197,"boîte":10198,"Bamako":10199,"centimes":10200,"discrimination":10201,"ivoirien":10202,"lauréat":10203,"nettoy":10204,"diagnostic":10205,"neutralité":10206,"Martinez":10207,"observateurs":10208,"spiritu":10209,"Drummondville":10210,"soviétique":10211,"marchandis":10212,"Transition":10213,"Méditerranée":10214,"BM":10215,"BS":10216,"Benne":10217,"Dév":10218,"Dane":10219,"DEA":10220,"Fait":10221,"Lis":10222,"Lel":10223,"Spor":10224,"Sole":10225,"Ton":10226,"VM":10227,"Vos":10228,"XV":10229,"Zap":10230,"bré":10231,"bous":10232,"gus":10233,"lr":10234,"niste":10235,"taient":10236,"vatoire":10237,"yan":10238,"Îles":10239,"éri":10240,"–,":10241,"eneu":10242,"envoie":10243,"demie":10244,"rera":10245,"ouer":10246,"ailier":10247,"aube":10248,"inég":10249,"proie":10250,"serez":10251,"siers":10252,"déception":10253,"avers":10254,"param":10255,"révision":10256,"récession":10257,"conde":10258,"aty":10259,"cio":10260,"cipales":10261,"plais":10262,"plaide":10263,"sué":10264,"imprim":10265,"cheveux":10266,"rate":10267,"préco":10268,"culation":10269,"coor":10270,"codes":10271,"irait":10272,"minor":10273,"robe":10274,"sobri":10275,"monsieur":10276,"oppose":10277,"contacts":10278,"portables":10279,"guit":10280,"guise":10281,"nergie":10282,"versement":10283,"internes":10284,"phases":10285,"égyp":10286,"loyer":10287,"afflu":10288,"uitement":10289,"hiop":10290,"maintenu":10291,"présentent":10292,"routier":10293,"mato":10294,"cipation":10295,"chargement":10296,"vrais":10297,"break":10298,"légend":10299,"réalisées":10300,"aki":10301,"héri":10302,"terrasse":10303,"condolé":10304,"animateur":10305,"suppression":10306,"2006":10307,"litres":10308,"Bell":10309,"Belges":10310,"justifie":10311,"associés":10312,"nécessairement":10313,"ics":10314,"genres":10315,"vaincu":10316,"estimant":10317,"directeurs":10318,"hyper":10319,"Provence":10320,"Charlot":10321,"municipales":10322,"solides":10323,"trailer":10324,"sûre":10325,"occupants":10326,"dépendance":10327,"préfér":10328,"environnemental":10329,"Sher":10330,"sûrs":10331,"budgétaire":10332,"poignée":10333,"libérale":10334,"chauffage":10335,"détaillé":10336,"analyser":10337,"préparé":10338,"grippe":10339,"Christine":10340,"Verts":10341,"potentiellement":10342,"house":10343,"espoirs":10344,"royal":10345,"Tik":10346,"USA":10347,"récupération":10348,"incarne":10349,"intégrité":10350,"Léon":10351,"occidental":10352,"satisfait":10353,"adolescente":10354,"autonome":10355,"permanent":10356,"examens":10357,"méthodes":10358,"consulter":10359,"descendre":10360,"stimu":10361,"éclaté":10362,"traduit":10363,"légiti":10364,"prudent":10365,"évènements":10366,"arbitre":10367,"patienter":10368,"gratuitement":10369,"Secré":10370,"piscine":10371,"consultation":10372,"Green":10373,"renoncer":10374,"Capitale":10375,"dévoile":10376,"tragédie":10377,"convoqué":10378,"musulmans":10379,"coptère":10380,"ogolais":10381,"Gouvernement":10382,"Européens":10383,"configuration":10384,"Rwanda":10385,"Anthony":10386,"Afghanistan":10387,"condoléances":10388,",.":10389,"--":10390,"74":10391,"Clou":10392,"Elisabeth":10393,"Gh":10394,"Grég":10395,"Hel":10396,"IS":10397,"Id":10398,"Jer":10399,"Jordan":10400,"Mit":10401,"Orange":10402,"PD":10403,"Pres":10404,"Prés":10405,"Roi":10406,"Rach":10407,"Rousse":10408,"Sk":10409,"Vie":10410,"Vér":10411,"WA":10412,"bai":10413,"cers":10414,"cits":10415,"dî":10416,"foc":10417,"fleu":10418,"lain":10419,"nac":10420,"otique":10421,"soc":10422,"tain":10423,"tois":10424,"tail":10425,"yl":10426,"École":10427,"Égypte":10428,"encer":10429,"devienne":10430,"recharge":10431,"relie":10432,"oum":10433,"laf":10434,"enten":10435,"ours":10436,"déser":10437,"asc":10438,"diam":10439,"divor":10440,"lière":10441,"parcs":10442,"parlant":10443,"réconciliation":10444,"conque":10445,"consoli":10446,"cienne":10447,"plaintes":10448,"surprises":10449,"survivre":10450,"vives":10451,"pros":10452,"poche":10453,"ressent":10454,"abond":10455,"teries":10456,"mier":10457,"exil":10458,"manquent":10459,"cure":10460,"veillé":10461,"pénal":10462,"agement":10463,"minaire":10464,"mistes":10465,"mono":10466,"partition":10467,"Ensemble":10468,"découvertes":10469,"craintes":10470,"soulevé":10471,"19h":10472,"ministéri":10473,"lissement":10474,"lore":10475,"langage":10476,"fondée":10477,"trajec":10478,"alloc":10479,"positives":10480,"franchi":10481,"menés":10482,"douzaine":10483,"défavor":10484,"Condé":10485,"Confédération":10486,"1500":10487,"utilisateur":10488,"bala":10489,"probation":10490,"Arc":10491,"soires":10492,"soignants":10493,"communale":10494,"Saône":10495,"spéciales":10496,"spécifiques":10497,"animations":10498,"conférences":10499,"Carlos":10500,"demandeurs":10501,"justifié":10502,"mobiliser":10503,"confirmée":10504,"directs":10505,"tombés":10506,"sensation":10507,"instants":10508,"étudiante":10509,"cinémato":10510,"intéressante":10511,"Fort":10512,"Louise":10513,"enregistrées":10514,"Israéli":10515,"footbal":10516,"écrite":10517,"révélations":10518,"véritablement":10519,"destinés":10520,"infractions":10521,"phare":10522,"Steve":10523,"sensibles":10524,"exclusion":10525,"comparu":10526,"indépendants":10527,"denrées":10528,"procure":10529,"quarante":10530,"recommande":10531,"tabac":10532,"diffusée":10533,"placées":10534,"nourris":10535,"occidentales":10536,"confrontation":10537,"temporairement":10538,"introduit":10539,"milliardaire":10540,"illégal":10541,"adulte":10542,"déclenché":10543,"toile":10544,"drapeaux":10545,"Bruges":10546,"doigts":10547,"délicat":10548,"fidèles":10549,"électroniques":10550,"ouvriers":10551,"rétablir":10552,"renouvelables":10553,"fenêtre":10554,"fenêtres":10555,"innoc":10556,"coéquipiers":10557,"Hôtel":10558,"trottine":10559,"hélicoptère":10560,"EDF":10561,"Ndiaye":10562,"tunnel":10563,"prédécesseur":10564,"district":10565,"remarquable":10566,"cimetière":10567,"penalty":10568,"Nathalie":10569,"atténu":10570,"schéma":10571,"Montpellier":10572,"Danemark":10573,"06":10574,"Ani":10575,"Bis":10576,"Bli":10577,"Blo":10578,"Bah":10579,"Cli":10580,"Cru":10581,"DE":10582,"DJ":10583,"DS":10584,"Fou":10585,"Fig":10586,"Ghana":10587,"Hi":10588,"H00":10589,"IR":10590,"Isa":10591,"Médi":10592,"Miss":10593,"SU":10594,"Spu":10595,"Sing":10596,"Ten":10597,"Watch":10598,"aw":10599,"ades":10600,"cœurs":10601,"dames":10602,"gnent":10603,"lét":10604,"lins":10605,"mâ":10606,"maux":10607,"nalité":10608,"oe":10609,"pte":10610,"pente":10611,"tage":10612,"ule":10613,"èce":10614,"dem":10615,"rect":10616,"tiend":10617,"news":10618,"urgent":10619,"prenne":10620,"ilie":10621,"alpin":10622,"décer":10623,"dépens":10624,"aville":10625,"paraly":10626,"récur":10627,"elop":10628,"plantes":10629,"acquérir":10630,"composer":10631,"survenue":10632,"vices":10633,"procur":10634,"auxquelles":10635,"nié":10636,"manu":10637,"coff":10638,"péren":10639,"mécont":10640,"tendu":10641,"paquet":10642,"adverse":10643,"monétaire":10644,"décri":10645,"ensus":10646,"mettra":10647,"interven":10648,"carton":10649,"entiel":10650,"entités":10651,"hiques":10652,"hiér":10653,"igan":10654,"tissant":10655,"Quoi":10656,"Park":10657,"bilaté":10658,"organe":10659,"canon":10660,"pectateurs":10661,"cines":10662,"humi":10663,"organisateur":10664,"restait":10665,"susciter":10666,"confiée":10667,"appelant":10668,"bateaux":10669,"engou":10670,"Diop":10671,"drôle":10672,"180":10673,"visibilité":10674,"140":10675,"125":10676,"Saï":10677,"2005":10678,"téléphones":10679,"croquer":10680,"Ass":10681,"gazo":10682,"bénéficie":10683,"Vieux":10684,"kiv":10685,"retar":10686,"singu":10687,"déploré":10688,"accompagnés":10689,"souffrir":10690,"quotidiens":10691,"sexe":10692,"CO2":10693,"variété":10694,"théorie":10695,"Maria":10696,"inquiétudes":10697,"kilos":10698,"futures":10699,"News":10700,"favoris":10701,"processeur":10702,"Michelle":10703,"épicer":10704,"ware":10705,"colonnes":10706,"royaume":10707,"esprits":10708,"valier":10709,"sommeil":10710,"Jacob":10711,"plonger":10712,"confronté":10713,"modern":10714,"qualifications":10715,"retraites":10716,"consacrée":10717,"Américain":10718,"efficaces":10719,"immeubles":10720,"criminel":10721,"illégale":10722,"végien":10723,"insule":10724,"maîtrise":10725,"similaires":10726,"concentration":10727,"revendications":10728,"sénégalaise":10729,"Messi":10730,"thermique":10731,"atteints":10732,"mixte":10733,"spatiale":10734,"réplique":10735,"Hongrie":10736,"Crimée":10737,"incertitude":10738,"résilience":10739,"exemplaires":10740,"Interrogé":10741,"patrouille":10742,"Telegram":10743,"cardiaque":10744,"empreinte":10745,"enveloppe":10746,"allégations":10747,"dignité":10748,"masculin":10749,"voudrait":10750,"cosmétiques":10751,"Commerce":10752,"Initi":10753,"Louvain":10754,"Dévelop":10755,"Sputnik":10756,"+.":10757,",…":10758,"92":10759,"Amer":10760,"Aert":10761,"Agri":10762,"Aviv":10763,"Dro":10764,"Gra":10765,"Gill":10766,"Hal":10767,"Hélè":10768,"Haï":10769,"Ivan":10770,"Kos":10771,"Moyen":10772,"Noire":10773,"Pin":10774,"Pad":10775,"Panth":10776,"Rous":10777,"Racing":10778,"Sig":10779,"Space":10780,"Swi":10781,"Wim":10782,"Zuri":10783,"boire":10784,"béton":10785,"cable":10786,"dri":10787,"doré":10788,"fat":10789,"iles":10790,"narra":10791,"raine":10792,"slog":10793,"wen":10794,"yon":10795,"îles":10796,"redonner":10797,"tiles":10798,"insécurité":10799,"insec":10800,"inévit":10801,"omètre":10802,"simu":10803,"mental":10804,"altitude":10805,"détent":10806,"avo":10807,"avé":10808,"dictions":10809,"partant":10810,"rétr":10811,"ridi":10812,"rica":10813,"viole":10814,"trer":10815,"ouvrant":10816,"sonaro":10817,"abe":10818,"exagone":10819,"osc":10820,"précieux":10821,"sachant":10822,"cote":10823,"cock":10824,"sélections":10825,"forment":10826,"motif":10827,"inspire":10828,"iro":10829,"mines":10830,"ocarb":10831,"adan":10832,"misme":10833,"opposer":10834,"obtient":10835,"anna":10836,"soumettre":10837,"soumise":10838,"soutenue":10839,"soutiens":10840,"versions":10841,"interrompu":10842,"noti":10843,"carrés":10844,"renti":10845,"cacher":10846,"présentés":10847,"coupures":10848,"Marchand":10849,"faça":10850,"Franco":10851,"tisée":10852,"angois":10853,"posté":10854,"homici":10855,"routière":10856,"indiquer":10857,"indiquent":10858,"lèvent":10859,"culti":10860,"cultures":10861,"solaire":10862,"fermés":10863,"rug":10864,"transactions":10865,"chaos":10866,"Intel":10867,"généraux":10868,"nouveautés":10869,"voile":10870,"localités":10871,"idal":10872,"taï":10873,"lieutenant":10874,"illés":10875,"rente":10876,"aînés":10877,"hédr":10878,"voudr":10879,"heb":10880,"assume":10881,"2004":10882,"160":10883,"étrange":10884,"lexi":10885,"œufs":10886,"apparu":10887,"icili":10888,"cycla":10889,"constructeurs":10890,"massivement":10891,"voulaient":10892,"faces":10893,"pousse":10894,"employeur":10895,"régulier":10896,"remplacement":10897,"rendra":10898,"compliquée":10899,"thématique":10900,"abrite":10901,"Alexis":10902,"musées":10903,"dégus":10904,"africaines":10905,"Hugh":10906,"loisirs":10907,"contenant":10908,"écouteurs":10909,"Adrien":10910,"essentielle":10911,"maximale":10912,"CEDEA":10913,"promoteur":10914,"Burundi":10915,"souhaitait":10916,"original":10917,"noirs":10918,"bombes":10919,"audière":10920,"comprends":10921,"papa":10922,"RTL":10923,"diesel":10924,"multiplient":10925,"dangereuse":10926,"Brig":10927,"consommateur":10928,"Seuls":10929,"comportements":10930,"célébré":10931,"activer":10932,"fantastique":10933,"diminuer":10934,"diminution":10935,"mosquée":10936,"Antwer":10937,"débarque":10938,"signalement":10939,"Thib":10940,"aimerait":10941,"modeste":10942,"Andrew":10943,"Retour":10944,"percuté":10945,"Bolsonaro":10946,"Cissé":10947,"caractéristiques":10948,"entrepreneuri":10949,"magistrat":10950,"dévoiler":10951,"pavillon":10952,"réparation":10953,"immersion":10954,"envah":10955,"Arnaud":10956,"ignore":10957,"susceptibles":10958,"majoritairement":10959,"Munich":10960,"festivités":10961,"satellites":10962,"logiciels":10963,"téléspectateurs":10964,"figures":10965,"cortège":10966,"eneuve":10967,"sobriété":10968,"Hélène":10969,"ocarbures":10970,"hédrale":10971,"Antwerp":10972,"()":10973,"//":10974,"83":10975,"://":10976,"AV":10977,"Bap":10978,"Bran":10979,"Bang":10980,"Baie":10981,"Comb":10982,"Day":10983,"Emb":10984,"Even":10985,"Font":10986,"Garros":10987,"Hass":10988,"Horizon":10989,"Op":10990,"Pl":10991,"Pit":10992,"Rec":10993,"Sci":10994,"Shi":10995,"WTA":10996,"Xia":10997,"cens":10998,"cler":10999,"dd":11000,"dric":11001,"junior":11002,"nale":11003,"pc":11004,"saint":11005,"Él":11006,"Île":11007,"élan":11008,"échan":11009,"écurité":11010,"relig":11011,"reproch":11012,"reproche":11013,"revenue":11014,"oue":11015,"ismes":11016,"auph":11017,"inci":11018,"omé":11019,"sien":11020,"déjeun":11021,"antenne":11022,"ascen":11023,"réparer":11024,"comté":11025,"composi":11026,"surpren":11027,"surveiller":11028,"poing":11029,"apais":11030,"absor":11031,"mile":11032,"èses":11033,"ends":11034,"exces":11035,"immi":11036,"impéri":11037,"immatri":11038,"néo":11039,"cheval":11040,"pez":11041,"copie":11042,"péné":11043,"fiants":11044,"fichi":11045,"entretenu":11046,"admet":11047,"adore":11048,"ainement":11049,"miss":11050,"dispositifs":11051,"géri":11052,"contenir":11053,"plafond":11054,"jouait":11055,"notion":11056,"éru":11057,"phe":11058,"emment":11059,"priori":11060,"bleue":11061,"bledon":11062,"devants":11063,"loger":11064,"cherché":11065,"Marcel":11066,"consensus":11067,"offs":11068,"intègre":11069,"roule":11070,"équipés":11071,"biblioth":11072,"riss":11073,"montage":11074,"défunt":11075,"Concrètement":11076,"médicaux":11077,"clip":11078,"appellent":11079,"domad":11080,"édifice":11081,"soirées":11082,"Coalition":11083,"Liz":11084,"United":11085,"cauche":11086,"animée":11087,"athlon":11088,"oliques":11089,"sentiers":11090,"anciennes":11091,"octor":11092,"bornes":11093,"réside":11094,"exemples":11095,"Lula":11096,"estimations":11097,"culturels":11098,"abordable":11099,"hygi":11100,"gnante":11101,"traitements":11102,"qualifie":11103,"bâton":11104,"lancées":11105,"tribune":11106,"occupés":11107,"occupée":11108,"louse":11109,"conserve":11110,"1992":11111,"1994":11112,"1997":11113,"myst":11114,"accepte":11115,"sexuel":11116,"libres":11117,"déroulé":11118,"dérouler":11119,"abstention":11120,"environnementale":11121,"véritables":11122,"intérim":11123,"chanter":11124,"CEO":11125,"accorde":11126,"provoque":11127,"Roumanie":11128,"avertissement":11129,"militant":11130,"Anglais":11131,"apprécier":11132,"définition":11133,"accessoires":11134,"zzard":11135,"Aliou":11136,"intégralité":11137,"dépist":11138,"satisfaire":11139,"Américaine":11140,"Seul":11141,"célébration":11142,"accélération":11143,"difficilement":11144,"Romain":11145,"crédits":11146,"bancaire":11147,"Darman":11148,"Occidentaux":11149,"informatiques":11150,"inclus":11151,"peintre":11152,"Transports":11153,"parisien":11154,"parisienne":11155,"violations":11156,"ordonna":11157,"drone":11158,"inauguration":11159,"Prince":11160,"Kenya":11161,"Gérard":11162,"Gérald":11163,"pédag":11164,"littéraire":11165,"motivation":11166,"perturbations":11167,"rivaux":11168,"précipitations":11169,"fêter":11170,"philosophie":11171,"nazis":11172,"Autriche":11173,"Solid":11174,"interprétation":11175,"bersécurité":11176,"agglom":11177,"formidable":11178,"burkinabè":11179,"synonyme":11180,"ferroviaire":11181,"trajectoire":11182,"Wimbledon":11183,"hebdomad":11184,"CEDEAO":11185,"religieuses":11186,"',":11187,".-":11188,"82":11189,"86":11190,"93":11191,"BE":11192,"Cav":11193,"Fam":11194,"Jim":11195,"Kent":11196,"Kor":11197,"Kni":11198,"Océ":11199,"PP":11200,"Pap":11201,"UA":11202,"VO":11203,"Wat":11204,"blon":11205,"bach":11206,"coiff":11207,"dation":11208,"dalle":11209,"htt":11210,"joy":11211,"kou":11212,"maient":11213,"nois":11214,"olig":11215,"pts":11216,"puni":11217,"sœurs":11218,"vette":11219,"«»,":11220,"épan":11221,"endes":11222,"debout":11223,"dettes":11224,"deuil":11225,"anxi":11226,"recette":11227,"reviennent":11228,"retiré":11229,"aile":11230,"label":11231,"invo":11232,"urne":11233,"celone":11234,"définir":11235,"détresse":11236,"dira":11237,"esty":11238,"lion":11239,"live":11240,"lige":11241,"parfu":11242,"riz":11243,"agan":11244,"agés":11245,"eut":11246,"commémor":11247,"absur":11248,"abrit":11249,"Leurs":11250,"états":11251,"perf":11252,"cesser":11253,"ranger":11254,"manager":11255,"coh":11256,"fient":11257,"geoise":11258,"inspir":11259,"mad":11260,"iront":11261,"ming":11262,"marine":11263,"dissu":11264,"disper":11265,"génie":11266,"buteur":11267,"triple":11268,"jouera":11269,"gurer":11270,"visité":11271,"interruption":11272,"renverser":11273,"merci":11274,"mercen":11275,"caï":11276,"publie":11277,"posture":11278,"dites":11279,"partent":11280,"istère":11281,"frac":11282,"rouler":11283,"organ":11284,"canal":11285,"annoncés":11286,"mena":11287,"doux":11288,"boulot":11289,"boulanger":11290,"transmettre":11291,"transforme":11292,"permettait":11293,"Desjardins":11294,"suspec":11295,"habite":11296,"locataire":11297,"seuse":11298,"légers":11299,"autoriser":11300,"engin":11301,"engend":11302,"salue":11303,"datant":11304,"Liby":11305,"grammes":11306,"affirment":11307,"Canal":11308,"époux":11309,"faisons":11310,"magie":11311,"lecteurs":11312,"mondiales":11313,"apparaître":11314,"entraîneurs":11315,"lyn":11316,"réduite":11317,"assurances":11318,"cybersécurité":11319,"effectif":11320,"Seconde":11321,"tableaux":11322,"Patrice":11323,"gravité":11324,"gravement":11325,"conducteurs":11326,"baseball":11327,"participant":11328,"respecte":11329,"habituellement":11330,"frapper":11331,"souffrance":11332,"livrés":11333,"étrangère":11334,"dénoncent":11335,"superbe":11336,"ordinateurs":11337,"photographie":11338,"Barcelone":11339,"incendi":11340,"démarrer":11341,"technologique":11342,"brio":11343,"impliqués":11344,"matériels":11345,"Camer":11346,"témoigner":11347,"révéler":11348,"tournois":11349,"fixer":11350,"hospitalisations":11351,"industrielle":11352,"arrivées":11353,"réclament":11354,"modification":11355,"incarcé":11356,"renouvellement":11357,"offensif":11358,"agissant":11359,"glisse":11360,"complexité":11361,"occidentale":11362,"profitent":11363,"Brian":11364,"1972":11365,"juifs":11366,"modernes":11367,"déployés":11368,"correspondant":11369,"décennie":11370,"permanence":11371,"amassé":11372,"sauvage":11373,"Millau":11374,"pratiquer":11375,"bénéficient":11376,"Derrière":11377,"peinture":11378,"Williams":11379,"enregistrement":11380,"arguments":11381,"fameuse":11382,"rembourser":11383,"remboursement":11384,"bagages":11385,"tweeté":11386,"consultations":11387,"furent":11388,"tactique":11389,"politiciens":11390,"maternelle":11391,"YouTu":11392,"transféré":11393,"saoudite":11394,"ralentir":11395,"Damien":11396,"désespé":11397,"compatriote":11398,"châtel":11399,"Jays":11400,"docteur":11401,"correctement":11402,"ralentissement":11403,"jihadistes":11404,"intitulé":11405,"contacter":11406,"dégradation":11407,"riverains":11408,"Novak":11409,"Kharkiv":11410,"ressortissants":11411,"fragile":11412,"orthodo":11413,"mystérieux":11414,"Météo":11415,"cryptomonnaies":11416,"fleuve":11417,"échantil":11418,"Darmanin":11419,"https":11420,"7e":11421,"AA":11422,"Aï":11423,"Boi":11424,"Bak":11425,"Céli":11426,"Déb":11427,"Dow":11428,"EL":11429,"Ev":11430,"Gag":11431,"Hier":11432,"Hexagone":11433,"Jin":11434,"Jason":11435,"Kim":11436,"Loi":11437,"Mans":11438,"Ole":11439,"Pâ":11440,"Pow":11441,"RO":11442,"Ris":11443,"Rose":11444,"SD":11445,"Will":11446,"Zo":11447,"apo":11448,"aér":11449,"blu":11450,"barri":11451,"cm":11452,"cage":11453,"cède":11454,"dil":11455,"dangers":11456,"flexi":11457,"henti":11458,"h15":11459,"nui":11460,"naise":11461,"pne":11462,"saient":11463,"wal":11464,"Église":11465,"èvre":11466,"épon":11467,"élor":11468,"escroquer":11469,"endi":11470,"onde":11471,"revu":11472,"reuses":11473,"rebelles":11474,"tia":11475,"tille":11476,"tirés":11477,"entame":11478,"issait":11479,"arque":11480,"audit":11481,"indu":11482,"incur":11483,"inconnue":11484,"siff":11485,"déco":11486,"débour":11487,"résor":11488,"révol":11489,"conjointe":11490,"attire":11491,"agas":11492,"surprenant":11493,"poel":11494,"abouti":11495,"oll":11496,"supé":11497,"mières":11498,"éthique":11499,"servent":11500,"rante":11501,"immun":11502,"cumul":11503,"lumine":11504,"forcer":11505,"authenti":11506,"coulis":11507,"gués":11508,"verdict":11509,"ardo":11510,"andre":11511,"rapides":11512,"lisme":11513,"entité":11514,"publiées":11515,"jeté":11516,"socialistes":11517,"justes":11518,"présentement":11519,"Franck":11520,"effac":11521,"nutri":11522,"anga":11523,"aliments":11524,"vieillis":11525,"opéré":11526,"bijou":11527,"annoncent":11528,"menant":11529,"blessée":11530,"anciers":11531,"gardes":11532,"transporter":11533,"restée":11534,"profits":11535,"clôt":11536,"nouveauté":11537,"batteries":11538,"emplacement":11539,"aussitôt":11540,"Toulouse":11541,"réaliste":11542,"économiser":11543,"domicili":11544,"engins":11545,"Arri":11546,"campagnes":11547,"espèrent":11548,"Réseau":11549,"Reine":11550,"constamment":11551,"éping":11552,"donnera":11553,"apparence":11554,"continuera":11555,"lycé":11556,"Luk":11557,"adeptes":11558,"attendaient":11559,"estimée":11560,"commandement":11561,"quare":11562,"lash":11563,"installe":11564,"Moder":11565,"tribun":11566,"pareil":11567,"conservation":11568,"condamnés":11569,"1991":11570,"1999":11571,"coûter":11572,"stratégies":11573,"thématiques":11574,"toral":11575,"blancs":11576,"adoptée":11577,"Shak":11578,"alerté":11579,"pilo":11580,"naval":11581,"devenues":11582,"adresser":11583,"dialo":11584,"diplomate":11585,"Vancouver":11586,"Robin":11587,"souhaitez":11588,"potentiels":11589,"procurer":11590,"familiales":11591,"rassembler":11592,"validé":11593,"Drag":11594,"profonde":11595,"administratives":11596,"dresse":11597,"médail":11598,"cabine":11599,"Léo":11600,"nourrir":11601,"prétendu":11602,"multiplié":11603,"compétence":11604,"radic":11605,"pénuries":11606,"juridiques":11607,"seni":11608,"jaunes":11609,"bombardement":11610,"ARS":11611,"ravi":11612,"pêcheurs":11613,"récompense":11614,"chaussures":11615,"quantités":11616,"caisse":11617,"légitime":11618,"provinciale":11619,"Golfe":11620,"félicite":11621,"japonaise":11622,"consécutive":11623,"Retr":11624,"aboutir":11625,"loyers":11626,"atteintes":11627,"destinées":11628,"compréhensi":11629,"Princip":11630,"Irlande":11631,"accomplir":11632,"Notamment":11633,"épaule":11634,"sévère":11635,"compatriotes":11636,"demeurent":11637,"recycla":11638,"néglig":11639,"hydrocarbures":11640,"photographe":11641,"Lightning":11642,"esthétique":11643,"polonais":11644,"Landry":11645,"luxembourgeois":11646,"funérailles":11647,"canicule":11648,"reflète":11649,"Bennett":11650,"Secrétaire":11651,"Rousseau":11652,"Blizzard":11653,"déjeuner":11654,"mercenaires":11655,"élorus":11656,"'\"":11657,")-":11658,"+,":11659,"03":11660,"08":11661,"?\"":11662,"BN":11663,"Cité":11664,"Dal":11665,"EP":11666,"FO":11667,"GRC":11668,"Hamas":11669,"Jes":11670,"Knes":11671,"Lune":11672,"Nade":11673,"OM":11674,"SL":11675,"Stream":11676,"Trus":11677,"VA":11678,"Vill":11679,"Vienne":11680,"bés":11681,"férence":11682,"h45":11683,"icô":11684,"ké":11685,"lop":11686,"navant":11687,"rari":11688,"sat":11689,"tante":11690,"vons":11691,"Émirats":11692,"éche":11693,"écur":11694,"êmes":11695,"….":11696,"espion":11697,"engran":11698,"enlevé":11699,"reb":11700,"rets":11701,"rejoi":11702,"reproché":11703,"enton":11704,"isait":11705,"istant":11706,"auda":11707,"etta":11708,"intr":11709,"inant":11710,"insuffis":11711,"secour":11712,"quemment":11713,"dessa":11714,"chor":11715,"chants":11716,"tril":11717,"aldo":11718,"désig":11719,"asque":11720,"dive":11721,"parvenue":11722,"pourparler":11723,"cies":11724,"cière":11725,"quier":11726,"amène":11727,"vième":11728,"prop":11729,"potable":11730,"ouvrages":11731,"abî":11732,"persu":11733,"rances":11734,"expositions":11735,"imposant":11736,"touches":11737,"rajou":11738,"rayer":11739,"cope":11740,"cohér":11741,"forma":11742,"forum":11743,"foresti":11744,"mesurer":11745,"mérité":11746,"ocol":11747,"marins":11748,"rot":11749,"row":11750,"roquettes":11751,"anny":11752,"croix":11753,"véni":11754,"jouant":11755,"tination":11756,"tinction":11757,"ardin":11758,"piège":11759,"carrefour":11760,"Chan":11761,"bienveill":11762,"case":11763,"devrez":11764,"grandir":11765,"attle":11766,"sortes":11767,"jugée":11768,"construite":11769,"dows":11770,"istent":11771,"trafi":11772,"élevage":11773,"homose":11774,"ingue":11775,"roulant":11776,"peloton":11777,"indices":11778,"annonçait":11779,"Anna":11780,"contraste":11781,"culaire":11782,"solaires":11783,"pouvais":11784,"montagnes":11785,"doulou":11786,"boucle":11787,"assent":11788,"organisés":11789,"restaura":11790,"Comm":11791,"Commiss":11792,"charme":11793,"expliquent":11794,"cloud":11795,"nommés":11796,"princesse":11797,"utilisées":11798,"domination":11799,"attachement":11800,"panique":11801,"panier":11802,"grandement":11803,"russels":11804,"inflig":11805,"inic":11806,"augmentations":11807,"éligi":11808,"échoué":11809,"embal":11810,"emblée":11811,"baril":11812,"terminal":11813,"Guiné":11814,"épais":11815,"Africa":11816,"primor":11817,"passeport":11818,"officiers":11819,"sauvé":11820,"balance":11821,"censé":11822,"Lucas":11823,"croissant":11824,"zema":11825,"Programme":11826,"alley":11827,"neuvième":11828,"enseignante":11829,"Benzema":11830,"déplor":11831,"Fortni":11832,"considération":11833,"habitués":11834,"combus":11835,"Juste":11836,"superfi":11837,"retrouvera":11838,"réserver":11839,"démarré":11840,"inquiét":11841,"acheteurs":11842,"oublié":11843,"Buff":11844,"siècles":11845,"chuté":11846,"lourdes":11847,"débutera":11848,"allure":11849,"Publi":11850,"Amadou":11851,"apprécie":11852,"inscriptions":11853,"psychi":11854,"musiciens":11855,"réclamé":11856,"chaleure":11857,"investigations":11858,"récolter":11859,"aguen":11860,"Ferrari":11861,"fermement":11862,"reçus":11863,"chrono":11864,"embarque":11865,"sympath":11866,"examiner":11867,"rafric":11868,"ADN":11869,"renseignements":11870,"Journal":11871,"contenter":11872,"Stéphanie":11873,"enregistrer":11874,"transferts":11875,"crypto":11876,"infirmière":11877,"décroché":11878,"poissons":11879,"Tandis":11880,"automobiliste":11881,"Contre":11882,"ouvrira":11883,"leadership":11884,"offerts":11885,"faune":11886,"Hôpit":11887,"morceau":11888,"décisif":11889,"propagation":11890,"propagande":11891,"anticipé":11892,"PLQ":11893,"stabiliser":11894,"corriger":11895,"enchères":11896,"rémunération":11897,"mènent":11898,"Homme":11899,"manifeste":11900,"causés":11901,"Sinon":11902,"intrigue":11903,"guéris":11904,"quinquen":11905,"rafraîchissement":11906,"Taylor":11907,"interlocuteur":11908,"signatures":11909,"écosystème":11910,"Arthur":11911,"envergure":11912,"Souvent":11913,"Alassane":11914,"engouement":11915,"épicerie":11916,"Élysée":11917,"ascension":11918,"dépistage":11919,"Knesset":11920,"pourparlers":11921,"homosex":11922,"Fortnite":11923,"Ale":11924,"Bad":11925,"Bow":11926,"DT":11927,"DÉ":11928,"Dion":11929,"Ei":11930,"Hil":11931,"Hay":11932,"Haz":11933,"Irak":11934,"Jad":11935,"Ka":11936,"Kong":11937,"Lag":11938,"Lang":11939,"Odessa":11940,"Pent":11941,"Rue":11942,"SQ":11943,"Sui":11944,"Sarr":11945,"SMS":11946,"Tin":11947,"Toy":11948,"UC":11949,"UL":11950,"UDC":11951,"Vit":11952,"Wout":11953,"Wagner":11954,"alage":11955,"ativité":11956,"axes":11957,"epoel":11958,"gl":11959,"gatoire":11960,"m2":11961,"mers":11962,"oil":11963,"sand":11964,"tos":11965,"vège":11966,"work":11967,"zan":11968,"zar":11969,"»«":11970,"Étienne":11971,"êve":11972,"reau":11973,"remor":11974,"retenir":11975,"revê":11976,"quiste":11977,"intime":11978,"pror":11979,"selle":11980,"chis":11981,"trons":11982,"déchi":11983,"répé":11984,"tén":11985,"concrètes":11986,"cile":11987,"quipe":11988,"agadou":11989,"plante":11990,"activement":11991,"ams":11992,"proli":11993,"provient":11994,"posera":11995,"apé":11996,"apeur":11997,"ffer":11998,"old":11999,"expan":12000,"imes":12001,"impu":12002,"immen":12003,"impul":12004,"touchée":12005,"manga":12006,"préli":12007,"précon":12008,"culine":12009,"péni":12010,"teste":12011,"moteurs":12012,"make":12013,"gras":12014,"adhé":12015,"otti":12016,"montréal":12017,"vendeur":12018,"contente":12019,"couche":12020,"couler":12021,"trip":12022,"soutenus":12023,"2026":12024,"2027":12025,"plats":12026,"guin":12027,"compteur":12028,"compenser":12029,"prière":12030,"logo":12031,"façons":12032,"nulle":12033,"nuits":12034,"Quentin":12035,"Auto":12036,"placement":12037,"franchement":12038,"mentions":12039,"malaise":12040,"bouton":12041,"assiste":12042,"servira":12043,"restant":12044,"Indus":12045,"Alsa":12046,"chars":12047,"chantiers":12048,"clin":12049,"habi":12050,"déclarer":12051,"localement":12052,"ajoutent":12053,"réalisateurs":12054,"cke":12055,"pensons":12056,"voyait":12057,"drome":12058,"souri":12059,"iniques":12060,"artillerie":12061,"Bros":12062,"12e":12063,"Mieux":12064,"Mick":12065,"umés":12066,"moyennes":12067,"athon":12068,"simpli":12069,"apparente":12070,"Française":12071,"Luis":12072,"opérationnel":12073,"massif":12074,"masculine":12075,"manifesté":12076,"prêté":12077,"Berger":12078,"racines":12079,"consommer":12080,"proposés":12081,"démocrates":12082,"circule":12083,"rompre":12084,"sinis":12085,"otidien":12086,"considérés":12087,"régulation":12088,"condamnée":12089,"Marocains":12090,"effectue":12091,"chaude":12092,"PCR":12093,"flamand":12094,"intensifs":12095,"sérieusement":12096,"impliquer":12097,"oublie":12098,"Gros":12099,"essentiels":12100,"Pedro":12101,"exclure":12102,"exclusivement":12103,"déterminée":12104,"Rendez":12105,"Renault":12106,"militante":12107,"Attention":12108,"passionné":12109,"célèbres":12110,"Norvège":12111,"entouré":12112,"individuel":12113,"payés":12114,"1987":12115,"architec":12116,"affrontent":12117,"exister":12118,"plongée":12119,"cantons":12120,"étonnant":12121,"blocage":12122,"Herz":12123,"inclusif":12124,"déployer":12125,"TAWA":12126,"distinc":12127,"Point":12128,"avoué":12129,"aborde":12130,"répète":12131,"intégrée":12132,"négatifs":12133,"OTTAWA":12134,"contamination":12135,"conviction":12136,"pierres":12137,"Neuve":12138,"considérable":12139,"écologie":12140,"Croatie":12141,"piscines":12142,"Sarko":12143,"grossesse":12144,"metteur":12145,"stopper":12146,"automatiquement":12147,"Raymond":12148,"successeur":12149,"Windows":12150,"ndlr":12151,"partagée":12152,"liquide":12153,"territoriale":12154,"Fox":12155,"Tampa":12156,"monument":12157,"Antonio":12158,"techniciens":12159,"portug":12160,"météorologiques":12161,"hydrogène":12162,"soixantaine":12163,"atteignant":12164,"Abdoulaye":12165,"congolais":12166,"massacre":12167,"combler":12168,"Stanley":12169,"préalable":12170,"Tremblay":12171,"Charlotte":12172,"dîner":12173,"cinématographique":12174,"Développement":12175,"Panthers":12176,"Roussel":12177,"Evenepoel":12178,"Hassan":12179,"Libye":12180,"Céline":12181,"'«":12182,"91":12183,"?»":12184,"Abu":12185,"Aren":12186,"Aig":12187,"Bau":12188,"Bin":12189,"Bus":12190,"DR":12191,"Dus":12192,"Fr":12193,"FPS":12194,"FMI":12195,"Got":12196,"Imp":12197,"Jéré":12198,"Ker":12199,"Kaz":12200,"Len":12201,"Mini":12202,"Ok":12203,"Spe":12204,"Situ":12205,"Vau":12206,"Way":12207,"bê":12208,"balis":12209,"brer":12210,"foire":12211,"gle":12212,"horiz":12213,"job":12214,"kur":12215,"laine":12216,"nables":12217,"rassur":12218,"sla":12219,"ster":12220,"ut":12221,"xie":12222,"Énergie":12223,"ensé":12224,"det":12225,"dedans":12226,"rep":12227,"rey":12228,"repli":12229,"reporter":12230,"remises":12231,"retraités":12232,"aiment":12233,"isants":12234,"nei":12235,"ary":12236,"aurons":12237,"té":12238,"chons":12239,"chaise":12240,"déo":12241,"dévi":12242,"détri":12243,"détéri":12244,"démén":12245,"délibéré":12246,"astre":12247,"astes":12248,"dieux":12249,"lions":12250,"rétro":12251,"répartis":12252,"conquis":12253,"agen":12254,"agro":12255,"ageuse":12256,"acadé":12257,"comprenant":12258,"profond":12259,"ressentir":12260,"approbation":12261,"puces":12262,"Lewis":12263,"serment":12264,"randonnée":12265,"porno":12266,"manœuvre":12267,"mandats":12268,"prévoir":12269,"prétexte":12270,"préjudi":12271,"coordonna":12272,"pédia":12273,"lut":12274,"filets":12275,"gep":12276,"tube":12277,"minorité":12278,"grais":12279,"adjointe":12280,"dissant":12281,"géni":12282,"donnait":12283,"contes":12284,"contagi":12285,"Enseig":12286,"trique":12287,"mettait":12288,"présumés":12289,"pice":12290,"piéton":12291,"bleus":12292,"bienvenue":12293,"uniques":12294,"loint":12295,"lers":12296,"tournent":12297,"Marco":12298,"fonte":12299,"Quotidien":12300,"alifa":12301,"from":12302,"opérer":12303,"caser":12304,"crire":12305,"mathé":12306,"capteur":12307,"cinquante":12308,"gardiens":12309,"fermées":12310,"humil":12311,"gouvernementales":12312,"All":12313,"morale":12314,"travaillant":12315,"confinements":12316,"clai":12317,"cliniques":12318,"déclarés":12319,"achu":12320,"Russel":12321,"empire":12322,"légal":12323,"légale":12324,"bandes":12325,"pensées":12326,"différences":12327,"voyant":12328,"tirant":12329,"Arts":12330,"dates":12331,"retours":12332,"augmentent":12333,"Made":12334,"Maham":12335,"bars":12336,"succom":12337,"magique":12338,"sauter":12339,"apparaissent":12340,"Piet":12341,"réussis":12342,"Seig":12343,"Sebas":12344,"Pacifique":12345,"cathédrale":12346,"applique":12347,"substitu":12348,"paiements":12349,"estivale":12350,"sinistre":12351,"faim":12352,"Boucher":12353,"condamne":12354,"1996":12355,"perdue":12356,"évolutions":12357,"observations":12358,"variants":12359,"variable":12360,"gestionnaire":12361,"diplôme":12362,"tort":12363,"Twitch":12364,"municipaux":12365,"sortira":12366,"contribuent":12367,"allié":12368,"virage":12369,"meubles":12370,"Atlas":12371,"individuelle":12372,"1989":12373,"réclamer":12374,"rencontrés":12375,"lâche":12376,"lâcher":12377,"accueillis":12378,"connectés":12379,"Bélarus":12380,"comédiens":12381,"Néer":12382,"incluant":12383,"reçoivent":12384,"échappé":12385,"Seule":12386,"cessez":12387,"fisc":12388,"guider":12389,"accroître":12390,"criminalité":12391,"échecs":12392,"réjoui":12393,"Azov":12394,"déclencher":12395,"débarquer":12396,"Fede":12397,"traduire":12398,"Petite":12399,"artifice":12400,"fascin":12401,"témoigné":12402,"témoignent":12403,"palestiniens":12404,"palestinienne":12405,"consécutif":12406,"restreint":12407,"vestiaire":12408,"cellules":12409,"Cédric":12410,"Rocket":12411,"fondamentaux":12412,"magistrats":12413,"Energies":12414,"ophob":12415,"indemnisation":12416,"coéquipier":12417,"littéralement":12418,"curieux":12419,"sauvegarde":12420,"Ronaldo":12421,"énig":12422,"remplis":12423,"Virgin":12424,"bouteille":12425,"www":12426,"Difficile":12427,"répétition":12428,"Oscars":12429,"hybride":12430,"itinér":12431,"Pogacar":12432,"inculpé":12433,"humoriste":12434,"réitéré":12435,"légumes":12436,"Swiss":12437,"Sporting":12438,"entendus":12439,"intervenants":12440,"Zurich":12441,"Xiaomi":12442,"hygiène":12443,"agglomération":12444,"cohérence":12445,"Nadeau":12446,"Truss":12447,"Villeneuve":12448,"Sarkozy":12449,"(«":12450,"01":12451,"07":12452,"450":12453,"97":12454,"Bes":12455,"Blin":12456,"Bey":12457,"Brussels":12458,"Damas":12459,"Ever":12460,"Education":12461,"Economie":12462,"FM":12463,"FR":12464,"Faire":12465,"Ford":12466,"Fabri":12467,"Gris":12468,"Greg":12469,"Han":12470,"Hos":12471,"Hez":12472,"Hidal":12473,"José":12474,"Ku":12475,"Kel":12476,"Kab":12477,"Kenne":12478,"Kings":12479,"LA":12480,"Las":12481,"Log":12482,"Mass":12483,"Mose":12484,"Mada":12485,"NE":12486,"Nantes":12487,"Nature":12488,"Pelle":12489,"Poin":12490,"Rim":12491,"Tw":12492,"VPN":12493,"Wa":12494,"Wan":12495,"Yo":12496,"bs":12497,"bir":12498,"bér":12499,"bête":12500,"cran":12501,"ich":12502,"lun":12503,"lentement":12504,"male":12505,"mères":12506,"nand":12507,"ova":12508,"pét":12509,"rentre":12510,"tendre":12511,"élo":12512,"ému":12513,"émeu":12514,"élites":12515,"…\"":12516,"encadre":12517,"revalorisation":12518,"inconnu":12519,"incapacité":12520,"inciter":12521,"inutile":12522,"orchestre":12523,"ceu":12524,"illages":12525,"chats":12526,"try":12527,"alth":12528,"déçu":12529,"dépê":12530,"désigner":12531,"astron":12532,"lian":12533,"parvenus":12534,"parlait":12535,"ator":12536,"attiré":12537,"riposte":12538,"cial":12539,"accompl":12540,"prodi":12541,"provocation":12542,"treize":12543,"puits":12544,"éth":12545,"serré":12546,"perquisition":12547,"imposée":12548,"mante":12549,"cook":12550,"fices":12551,"gro":12552,"pad":12553,"pala":12554,"marchand":12555,"opter":12556,"oba":12557,"venaient":12558,"ston":12559,"stal":12560,"stat":12561,"croc":12562,"crites":12563,"portail":12564,"couron":12565,"courts":12566,"joueuse":12567,"compens":12568,"viste":12569,"visés":12570,"rapprocher":12571,"Cha":12572,"Chic":12573,"emprise":12574,"versés":12575,"19e":12576,"look":12577,"présentait":12578,"juger":12579,"tissu":12580,"partagent":12581,"ingrédi":12582,"créés":12583,"casser":12584,"ried":12585,"matur":12586,"lèche":12587,"arrivait":12588,"douleurs":12589,"clari":12590,"Alber":12591,"Communi":12592,"10e":12593,"profils":12594,"expliquait":12595,"confidenti":12596,"clus":12597,"clée":12598,"nostal":12599,"nommer":12600,"locataires":12601,"tone":12602,"Monte":12603,"septu":12604,"éditeurs":12605,"Ard":12606,"sécuritaires":12607,"venues":12608,"drastique":12609,"arrêtée":12610,"camping":12611,"portera":12612,"nazi":12613,"professeurs":12614,"Carl":12615,"Ouagadou":12616,"Dubois":12617,"borne":12618,"baly":12619,"iness":12620,"habitations":12621,"assurent":12622,"assurément":12623,"zona":12624,"croissante":12625,"naturellement":12626,"administrations":12627,"tablette":12628,"bourse":12629,"vacciner":12630,"circuits":12631,"affichent":12632,"neutre":12633,"PS4":12634,"employée":12635,"islam":12636,"habituel":12637,"Loug":12638,"adaptés":12639,"cussions":12640,"resteront":12641,"inquiétant":12642,"inquiètent":12643,"spectre":12644,"spectateur":12645,"progressé":12646,"destinations":12647,"Grèce":12648,"fixée":12649,"sommets":12650,"financements":12651,"traditionnels":12652,"Renaud":12653,"lèvement":12654,"vivait":12655,"Roch":12656,"Roche":12657,"entourant":12658,"Bank":12659,"éliminé":12660,"recruter":12661,"espérons":12662,"fauteuil":12663,"aéroports":12664,"sillon":12665,"dépôts":12666,"opportun":12667,"AMD":12668,"affecté":12669,"choco":12670,"immobiliers":12671,"distinction":12672,"Quick":12673,"marocains":12674,"fiscal":12675,"permanente":12676,"déplacés":12677,"catastrophes":12678,"CHU":12679,"propriétés":12680,"Warner":12681,"fabricant":12682,"éventuelles":12683,"Palestine":12684,"réunit":12685,"circulait":12686,"rebond":12687,"regretté":12688,"projection":12689,"poisson":12690,"aviation":12691,"planification":12692,"réglementation":12693,"fausse":12694,"traverse":12695,"boîtes":12696,"pétrolier":12697,"inspection":12698,"Capitole":12699,"faiblesse":12700,"trott":12701,"significative":12702,"Notons":12703,"fatigue":12704,"spécifiquement":12705,"Jamais":12706,"complémentaire":12707,"susceptible":12708,"bollah":12709,"strictement":12710,"bouteilles":12711,"manifestement":12712,"assoupl":12713,"Boston":12714,"racheter":12715,"Championnat":12716,"obstacle":12717,"rassemblements":12718,"licenci":12719,"Football":12720,"réhabilitation":12721,"Rodri":12722,"domestique":12723,"stupéfiants":12724,"Lelandais":12725,"Soleil":12726,"précoce":12727,"TikTok":12728,"légitimité":12729,"Israéliens":12730,"Isaac":12731,"incidence":12732,"cauchemar":12733,"épanou":12734,"perfection":12735,"pneus":12736,"escroquerie":12737,"supérieurs":12738,"tribunaux":12739,"expansion":12740,"Hezbollah":12741,"Hidalgo":12742,"Ouagadougou":12743,"750":12744,"BD":12745,"BL":12746,"Brent":12747,"Cés":12748,"Cab":12749,"Cup":12750,"Dol":12751,"EI":12752,"G7":12753,"Jou":12754,"Map":12755,"Mot":12756,"Mand":12757,"Musi":12758,"Métro":12759,"Nvi":12760,"Nombre":12761,"Nadi":12762,"PM":12763,"PT":12764,"Pris":12765,"PLR":12766,"Ric":12767,"RAM":12768,"Rhin":12769,"Sus":12770,"Square":12771,"Ty":12772,"Tony":12773,"Vert":12774,"Whi":12775,"Wall":12776,"bans":12777,"back":12778,"baig":12779,"cac":12780,"dge":12781,"daient":12782,"fal":12783,"fres":12784,"hale":12785,"iOS":12786,"jj":12787,"sins":12788,"ues":12789,"ventre":12790,"yi":12791,"èler":12792,"équit":12793,"éclai":12794,"enlever":12795,"devis":12796,"anec":12797,"ré":12798,"refaire":12799,"recrue":12800,"quage":12801,"quise":12802,"ish":12803,"autes":12804,"insur":12805,"inois":12806,"orbi":12807,"ceau":12808,"itée":12809,"tristes":12810,"trêve":12811,"sié":12812,"alté":12813,"démi":12814,"dépenser":12815,"ava":12816,"estu":12817,"parviennent":12818,"ust":12819,"répan":12820,"réouverture":12821,"confor":12822,"confusion":12823,"rig":12824,"aisément":12825,"comprennent":12826,"survient":12827,"surfaces":12828,"vif":12829,"vire":12830,"viers":12831,"poésie":12832,"olz":12833,"sucre":12834,"endur":12835,"endor":12836,"étou":12837,"perçu":12838,"excus":12839,"impatience":12840,"touchant":12841,"manœuvres":12842,"cules":12843,"copi":12844,"coïn":12845,"cocaï":12846,"lucra":12847,"fizer":12848,"turer":12849,"mesur":12850,"messe":12851,"motor":12852,"mépris":12853,"males":12854,"adon":12855,"robo":12856,"géno":12857,"gia":12858,"décré":12859,"crist":12860,"guay":12861,"tino":12862,"verti":12863,"visages":12864,"now":12865,"piano":12866,"rendement":12867,"affili":12868,"lances":12869,"collaborer":12870,"valable":12871,"présentera":12872,"couples":12873,"effray":12874,"ailler":12875,"Augus":12876,"Depp":12877,"éleveurs":12878,"éval":12879,"into":12880,"larisation":12881,"pelouse":12882,"créateur":12883,"créateurs":12884,"cassé":12885,"ctur":12886,"annonçant":12887,"générer":12888,"maltrait":12889,"malfai":12890,"périmètre":12891,"demandons":12892,"assass":12893,"mortes":12894,"générosité":12895,"Conférence":12896,"médiation":12897,"tonne":12898,"clichés":12899,"pencher":12900,"ébran":12901,"sourit":12902,"jectif":12903,"visio":12904,"Brune":12905,"concerné":12906,"embras":12907,"athlé":12908,"baromètre":12909,"Carlo":12910,"Carrefour":12911,"remporte":12912,"constante":12913,"explosé":12914,"Notez":12915,"issez":12916,"succéder":12917,"primaires":12918,"résidences":12919,"Pier":12920,"explosif":12921,"icale":12922,"artistiques":12923,"Elysée":12924,"mortalité":12925,"turque":12926,"tombent":12927,"Riche":12928,"gnons":12929,"oreilles":12930,"subissent":12931,"poursuivra":12932,"financièrement":12933,"constitué":12934,"suffrages":12935,"conseillé":12936,"respecté":12937,"extrêmes":12938,"1993":12939,"1995":12940,"effectués":12941,"observation":12942,"préfèrent":12943,"pénit":12944,"syndical":12945,"syndicale":12946,"syndicales":12947,"déroulent":12948,"déroulée":12949,"sacre":12950,"démarrage":12951,"technologiques":12952,"appuy":12953,"commissions":12954,"protégé":12955,"inviter":12956,"wilay":12957,"envoyés":12958,"Austin":12959,"chutes":12960,"Express":12961,"relate":12962,"relative":12963,"métal":12964,"Beauce":12965,"renforcé":12966,"imaginé":12967,"averse":12968,"électorat":12969,"interrogatoire":12970,"palmar":12971,"départemental":12972,"volumes":12973,"rayons":12974,"Angel":12975,"reliant":12976,"hospitalisé":12977,"écolo":12978,"définitive":12979,"costume":12980,"valider":12981,"lâché":12982,"mund":12983,"physiquement":12984,"racontent":12985,"multiplie":12986,"interpellation":12987,"1979":12988,"dévoilée":12989,"autonomes":12990,"Mauri":12991,"introduire":12992,"engagées":12993,"Salon":12994,"juridiction":12995,"menacée":12996,"battue":12997,"invitée":12998,"garanties":12999,"Kylian":13000,"cycliste":13001,"contesté":13002,"contestation":13003,"signaler":13004,"virtuel":13005,"Bayer":13006,"existait":13007,"indéni":13008,"confortable":13009,"références":13010,"aimerais":13011,"macron":13012,"standard":13013,"standards":13014,"religieuse":13015,"Hydro":13016,"ambulance":13017,"exigeant":13018,"interprété":13019,"Obser":13020,"Brown":13021,"Mayotte":13022,"Germain":13023,"combattant":13024,"implantation":13025,"séduit":13026,"Ultra":13027,"digit":13028,"octroi":13029,"Shawin":13030,"Africains":13031,"mairesse":13032,"coréen":13033,"sénateur":13034,"Victoriaville":13035,"Gilbert":13036,"Lorraine":13037,"Police":13038,"Travail":13039,"Grenoble":13040,"XIXe":13041,"indicateurs":13042,"recueillir":13043,"intensifier":13044,"TotalEnergies":13045,"démonstration":13046,"couloirs":13047,"talibans":13048,"Medve":13049,"gabonais":13050,"australien":13051,"rails":13052,"vétérinaire":13053,"Awards":13054,"Bâle":13055,"lunettes":13056,"effondrement":13057,"protagonistes":13058,"systématiquement":13059,"miracle":13060,"exigé":13061,"nettoyage":13062,"Sherbro":13063,"Cloud":13064,"atténuer":13065,"façade":13066,"rugby":13067,"Hughes":13068,"mystère":13069,"YouTube":13070,"coulisses":13071,"nutrition":13072,"immenses":13073,"Russell":13074,"Lougansk":13075,"Nvidia":13076,"anecdo":13077,"cocaïne":13078,"Shawinigan":13079,".)":13080,"94":13081,"9e":13082,"Ala":13083,"BB":13084,"Cir":13085,"Call":13086,"Clar":13087,"Cole":13088,"Dun":13089,"FT":13090,"HC":13091,"Hus":13092,"IM":13093,"Iron":13094,"Istan":13095,"Jur":13096,"Lot":13097,"Mouv":13098,"Mines":13099,"More":13100,"NA":13101,"Nul":13102,"Nathan":13103,"PQ":13104,"Pes":13105,"Pape":13106,"Plante":13107,"Pfizer":13108,"Ring":13109,"TG":13110,"Tal":13111,"achemin":13112,"cend":13113,"cali":13114,"fous":13115,"flan":13116,"hur":13117,"icon":13118,"mne":13119,"nit":13120,"noct":13121,"pleur":13122,"pairs":13123,"tol":13124,"tacti":13125,"vest":13126,"vants":13127,"yt":13128,"édit":13129,"échangé":13130,"ïv":13131,"́e":13132,"devenant":13133,"anément":13134,"leau":13135,"reposer":13136,"refroi":13137,"oua":13138,"aimait":13139,"timi":13140,"laus":13141,"nets":13142,"arde":13143,"arché":13144,"incon":13145,"inser":13146,"inage":13147,"inture":13148,"prô":13149,"oro":13150,"orage":13151,"sect":13152,"queurs":13153,"ild":13154,"destine":13155,"chy":13156,"trous":13157,"alou":13158,"duquel":13159,"dédu":13160,"dépression":13161,"dépense":13162,"avel":13163,"dieu":13164,"liban":13165,"libaly":13166,"parado":13167,"parcourir":13168,"mel":13169,"république":13170,"ato":13171,"propul":13172,"provoc":13173,"ouvez":13174,"abé":13175,"abais":13176,"oises":13177,"subli":13178,"nir":13179,"extérieure":13180,"20h":13181,"impasse":13182,"rake":13183,"fière":13184,"mati":13185,"mate":13186,"entretient":13187,"marqués":13188,"robot":13189,"autoc":13190,"autop":13191,"eures":13192,"vole":13193,"vola":13194,"ophon":13195,"partielle":13196,"obel":13197,"vées":13198,"souviens":13199,"mets":13200,"ordres":13201,"alisent":13202,"alisant":13203,"colle":13204,"aillon":13205,"Mars":13206,"sorts":13207,"Onu":13208,"Franc":13209,"présidé":13210,"ultérieure":13211,"offri":13212,"diffé":13213,"oyé":13214,"larges":13215,"centrafric":13216,"équiper":13217,"créatures":13218,"cast":13219,"Annie":13220,"contracté":13221,"solde":13222,"solitaire":13223,"sollic":13224,"généré":13225,"currence":13226,"douter":13227,"malien":13228,"malheureux":13229,"boulever":13230,"permettront":13231,"travaillait":13232,"famine":13233,"nomme":13234,"Suzu":13235,"réalisations":13236,"sentent":13237,"autorisés":13238,"vraisemb":13239,"représentante":13240,"Brab":13241,"passages":13242,"posées":13243,"animer":13244,"animale":13245,"confis":13246,"concernent":13247,"barrages":13248,"explor":13249,"sentiments":13250,"particularité":13251,"recense":13252,"succession":13253,"entraînements":13254,"multination":13255,"établie":13256,"mobilisé":13257,"vaincre":13258,"connaissait":13259,"subit":13260,"Vik":13261,"tronçon":13262,"démoli":13263,"universitaires":13264,"modalités":13265,"affiches":13266,"enseignements":13267,"identifiés":13268,"intéressés":13269,"dirigeante":13270,"condamner":13271,"souffrant":13272,"poule":13273,"amélioré":13274,"Allemands":13275,"PCF":13276,"Valentin":13277,"déroulés":13278,"fillette":13279,"inquiété":13280,"hérap":13281,"régimes":13282,"Colon":13283,"Touré":13284,"sérieuse":13285,"Merce":13286,"Camille":13287,"révélation":13288,"libertés":13289,"favorise":13290,"chauffer":13291,"Buck":13292,"quotidiennement":13293,"Adminis":13294,"UEFA":13295,"Teb":13296,"imaginaire":13297,"Rober":13298,"électorales":13299,"interrogations":13300,"vivons":13301,"fréquemment":13302,"salariale":13303,"amel":13304,"industries":13305,"agirait":13306,"éliminer":13307,"Soudan":13308,"Dragon":13309,"modifié":13310,"modifications":13311,"papiers":13312,"écrou":13313,"incarner":13314,"connectée":13315,"brasserie":13316,"évacué":13317,"inclut":13318,"Logi":13319,"mécaniques":13320,"consacrer":13321,"freiner":13322,"Géorg":13323,"Jones":13324,"Australien":13325,"embargo":13326,"Roberto":13327,"examiné":13328,"stig":13329,"stipu":13330,"Autrement":13331,"jonction":13332,"détruits":13333,"messager":13334,"limitation":13335,"inspirée":13336,"Kyïv":13337,"bénévole":13338,"forêts":13339,"Lambert":13340,"fasc":13341,"Acadie":13342,"iranienne":13343,"circulaire":13344,"certification":13345,"protège":13346,"inventer":13347,"Jackson":13348,"battus":13349,"pharmaceu":13350,"renouveler":13351,"géopolitique":13352,"ophone":13353,"séduire":13354,"conversations":13355,"anonymat":13356,"aggraver":13357,"philosop":13358,"Victoria":13359,"crédible":13360,"ingénieur":13361,"Spider":13362,"couloir":13363,"débloquer":13364,"Lionel":13365,"exhorté":13366,"Gantz":13367,"blockbus":13368,"prestigieux":13369,"Pixel":13370,"Grégoire":13371,"soccer":13372,"procureure":13373,"Figaro":13374,"slogan":13375,"homicide":13376,"Brigitte":13377,"bibliothèque":13378,"pédagogique":13379,"Jinping":13380,"trilogie":13381,"prorus":13382,"répéter":13383,"détriment":13384,"Sebastian":13385,"Virginie":13386,"Moselle":13387,"statue":13388,"White":13389,"palmarès":13390,"Istanbul":13391,"(),":13392,"9h":13393,"Action":13394,"Abe":13395,"Bab":13396,"Bris":13397,"BCE":13398,"DL":13399,"Emp":13400,"French":13401,"Fnac":13402,"HL":13403,"Hur":13404,"Ix":13405,"JM":13406,"Kas":13407,"Let":13408,"Lit":13409,"Mak":13410,"Miller":13411,"Menton":13412,"Oran":13413,"Pren":13414,"RON":13415,"SR":13416,"Sas":13417,"Stel":13418,"TM":13419,"Trésor":13420,"Ving":13421,"Villa":13422,"Yu":13423,"Zé":13424,"baie":13425,"baye":13426,"cav":13427,"ep":13428,"failles":13429,"gour":13430,"ivre":13431,"jac":13432,"jazz":13433,"ku":13434,"mites":13435,"oxy":13436,"paire":13437,"pès":13438,"saura":13439,"sky":13440,"spont":13441,"tet":13442,"tori":13443,"tolé":13444,"Édouard":13445,"’,":13446,"essu":13447,"encla":13448,"encre":13449,"enbeek":13450,"onique":13451,"demeu":13452,"reaux":13453,"rebelle":13454,"retenus":13455,"reconnus":13456,"ero":13457,"tilis":13458,"quets":13459,"ardi":13460,"arro":13461,"injuste":13462,"incapable":13463,"see":13464,"ceinture":13465,"choré":13466,"una":13467,"sienne":13468,"décompte":13469,"déambu":13470,"aspor":13471,"diaux":13472,"divisions":13473,"esté":13474,"ligé":13475,"réson":13476,"réélection":13477,"récits":13478,"répartition":13479,"rigueur":13480,"cides":13481,"aissance":13482,"comités":13483,"amo":13484,"ampli":13485,"amine":13486,"apprê":13487,"mitisme":13488,"micycle":13489,"Leon":13490,"serai":13491,"serveurs":13492,"20e":13493,"ima":13494,"race":13495,"manda":13496,"sad":13497,"fiers":13498,"fiable":13499,"filer":13500,"ficat":13501,"geance":13502,"tumes":13503,"paremment":13504,"finaliste":13505,"puissants":13506,"obtention":13507,"venons":13508,"vendue":13509,"décour":13510,"décentr":13511,"décalage":13512,"ands":13513,"présentiel":13514,"pix":13515,"Chant":13516,"cate":13517,"devais":13518,"colis":13519,"touristiques":13520,"maintient":13521,"nuis":13522,"nuages":13523,"postu":13524,"istants":13525,"produisent":13526,"cription":13527,"lène":13528,"culaires":13529,"captur":13530,"montants":13531,"gardent":13532,"généreux":13533,"boune":13534,"boucli":13535,"demandait":13536,"assise":13537,"défauts":13538,"Allen":13539,"signés":13540,"charte":13541,"expliquant":13542,"empi":13543,"peser":13544,"15h":13545,"basses":13546,"bascule":13547,"problématiques":13548,"tirage":13549,"Archi":13550,"citation":13551,"inions":13552,"spécialité":13553,"Mati":13554,"Mala":13555,"professe":13556,"16h":13557,"remportant":13558,"hôtes":13559,"Assur":13560,"entraînant":13561,"11e":13562,"exploiter":13563,"explosions":13564,"genou":13565,"Sean":13566,"attendais":13567,"Phil":13568,"culturelles":13569,"opérationnelle":13570,"numéros":13571,"Rio":13572,"gnan":13573,"gnait":13574,"tempo":13575,"paie":13576,"Serbie":13577,"collectifs":13578,"affichage":13579,"traitée":13580,"bâtir":13581,"enseignes":13582,"occupent":13583,"Formu":13584,"louer":13585,"habituels":13586,"adaptée":13587,"Corse":13588,"manquements":13589,"péninsule":13590,"blanchi":13591,"burg":13592,"kilo":13593,"chancelier":13594,"phonie":13595,"dégage":13596,"Huit":13597,"Hugo":13598,"Hubert":13599,"relatif":13600,"exprimés":13601,"déterminé":13602,"souhaitant":13603,"départementale":13604,"passionnés":13605,"business":13606,"Chevalier":13607,"hospitalisés":13608,"arrivera":13609,"musicien":13610,"motos":13611,"évalué":13612,"Bongo":13613,"valide":13614,"Scholz":13615,"Boe":13616,"investit":13617,"Harris":13618,"prononcée":13619,"Ministère":13620,"évacuer":13621,"comédienne":13622,"discuté":13623,"ziz":13624,"Airlines":13625,"dédiés":13626,"Master":13627,"qualifiés":13628,"signalés":13629,"Acti":13630,"monstre":13631,"distingue":13632,"distinguer":13633,"SPVM":13634,"hautement":13635,"tilité":13636,"Delta":13637,"constitutionnelle":13638,"bancaires":13639,"Times":13640,"Impossible":13641,"préservation":13642,"éventuellement":13643,"accueillera":13644,"Cyr":13645,"Cyril":13646,"prioritaire":13647,"circulent":13648,"rebonds":13649,"fréquentation":13650,"Neuchâtel":13651,"républicains":13652,"statistique":13653,"douceur":13654,"moindres":13655,"bitcoin":13656,"renoncé":13657,"fabriquer":13658,"tragique":13659,"envolée":13660,"productivité":13661,"meurtrier":13662,"sollicité":13663,"anticiper":13664,"flamme":13665,"blague":13666,"anonyme":13667,"coréenne":13668,"Florence":13669,"prolongé":13670,"technicien":13671,"Véran":13672,"substance":13673,"rapprochement":13674,"ingénieurs":13675,"Traoré":13676,"illusion":13677,"ticket":13678,"mensonges":13679,"faillite":13680,"Global":13681,"obstacles":13682,"répercussions":13683,"antisémitisme":13684,"préventive":13685,"honnête":13686,"sombres":13687,"renommée":13688,"précaution":13689,"chirurgi":13690,"blindés":13691,"impératif":13692,"coopérative":13693,"progressiste":13694,"challenge":13695,"inégalités":13696,"légendaire":13697,"Idriss":13698,"hiérarchie":13699,"Swift":13700,"dorénavant":13701,"Fontaine":13702,"compositeur":13703,"Cameron":13704,"Arrivé":13705,"recyclage":13706,"icône":13707,"superficie":13708,"inquiétante":13709,"Hôpital":13710,"Jadot":13711,"Alsace":13712,"Herzog":13713,"Mahamat":13714,"Federer":13715,"Blinken":13716,"Fabrice":13717,"compensation":13718,"Chicago":13719,"génocide":13720,"malfaiteurs":13721,"Medvedev":13722,"Mouvement":13723,"Mercedes":13724,"Tebboune":13725,"Ixelles":13726,"Vingt":13727,"demeurer":13728,"!»,":13729,".).":13730,"Ams":13731,"Ecolo":13732,"Fay":13733,"Fêtes":13734,"Hop":13735,"Hér":13736,"IB":13737,"Kur":13738,"LFI":13739,"Mail":13740,"Nom":13741,"Nobel":13742,"Ol":13743,"Omar":13744,"PH":13745,"Pay":13746,"PTA":13747,"Potter":13748,"RFI":13749,"SM":13750,"SO":13751,"Sen":13752,"Sac":13753,"Saguen":13754,"Vale":13755,"Vand":13756,"Yan":13757,"Yam":13758,"YPTA":13759,"acier":13760,"ativement":13761,"ev":13762,"fle":13763,"faille":13764,"gir":13765,"hap":13766,"iv":13767,"kaz":13768,"nisme":13769,"oah":13770,"pins":13771,"pendre":13772,"pôle":13773,"path":13774,"pacte":13775,"rois":13776,"rable":13777,"riller":13778,"ravis":13779,"str":13780,"sing":13781,"sages":13782,"scep":13783,"vec":13784,"voise":13785,"war":13786,"wand":13787,"yang":13788,"Être":13789,"écor":13790,"évite":13791,"éclaire":13792,"élaborer":13793,"êle":13794,"ôles":13795,"enfon":13796,"oné":13797,"anc":13798,"leçons":13799,"représ":13800,"requête":13801,"remontée":13802,"retraité":13803,"regardé":13804,"outr":13805,"eri":13806,"quateur":13807,"arche":13808,"arques":13809,"arna":13810,"arrange":13811,"autrice":13812,"auditions":13813,"infini":13814,"orages":13815,"orches":13816,"seg":13817,"sere":13818,"queue":13819,"sidé":13820,"avéré":13821,"asses":13822,"libr":13823,"paradis":13824,"réelles":13825,"réagit":13826,"ciment":13827,"plée":13828,"actée":13829,"polis":13830,"terrestre":13831,"sul":13832,"perdent":13833,"itées":13834,"extinction":13835,"impré":13836,"improvis":13837,"touchent":13838,"fine":13839,"fidé":13840,"séré":13841,"séparer":13842,"tuée":13843,"moti":13844,"miner":13845,"marges":13846,"marty":13847,"monarchie":13848,"opère":13849,"gig":13850,"coureur":13851,"décors":13852,"london":13853,"courante":13854,"verb":13855,"versel":13856,"visa":13857,"avoirs":13858,"intercep":13859,"interdite":13860,"Cho":13861,"Cher":13862,"renversé":13863,"phine":13864,"unilaté":13865,"universel":13866,"quelconque":13867,"hia":13868,"hias":13869,"coupables":13870,"Marin":13871,"consentement":13872,"tistes":13873,"Parall":13874,"roue":13875,"oga":13876,"créativité":13877,"syrien":13878,"Ankara":13879,"lège":13880,"contrainte":13881,"capteurs":13882,"aniste":13883,"semblé":13884,"rumeur":13885,"autrefois":13886,"férer":13887,"chaer":13888,"utilité":13889,"arios":13890,"Connor":13891,"illois":13892,"rentré":13893,"durables":13894,"natale":13895,"Arsen":13896,"actionnaire":13897,"asseoir":13898,"arrêtées":13899,"14h":13900,"caution":13901,"soirs":13902,"spécialisés":13903,"prenons":13904,"raisonnable":13905,"fonctionnalité":13906,"Nik":13907,"Nick":13908,"Nicole":13909,"Jeanne":13910,"lingu":13911,"170":13912,"personnellement":13913,"antesque":13914,"Duh":13915,"Duty":13916,"sauce":13917,"habitat":13918,"classée":13919,"Parisien":13920,"traits":13921,"Elden":13922,"professionn":13923,"confirmant":13924,"tablettes":13925,"Granby":13926,"21h":13927,"raciste":13928,"Media":13929,"choisissent":13930,"participa":13931,"Services":13932,"Forces":13933,"frontaliers":13934,"Mané":13935,"1998":13936,"pouce":13937,"poudre":13938,"adaptées":13939,"améliore":13940,"boutons":13941,"démocratiques":13942,"flamande":13943,"Bruxellois":13944,"Courtois":13945,"combattu":13946,"réservoir":13947,"faciles":13948,"Collège":13949,"pirates":13950,"idéologique":13951,"Deuxième":13952,"harmon":13953,"exclusivité":13954,"exécuté":13955,"distribuer":13956,"appréhen":13957,"saisis":13958,"définitif":13959,"1982":13960,"affrontera":13961,"recrues":13962,"recruté":13963,"profondes":13964,"bloqués":13965,"espérant":13966,"normalisation":13967,"incarné":13968,"symboles":13969,"scénariste":13970,"scénarios":13971,"prétendre":13972,"CNRD":13973,"blocs":13974,"phénomènes":13975,"urbanisme":13976,"multiplier":13977,"abattre":13978,"regardant":13979,"Thun":13980,"mécanismes":13981,"branches":13982,"chasseurs":13983,"accéléré":13984,"AIEA":13985,"fermetures":13986,"accrocher":13987,"consultant":13988,"CRI":13989,"CRYPTA":13990,"Magh":13991,"canadiennes":13992,"efficacement":13993,"asiatique":13994,"prouve":13995,"exacer":13996,"emprunt":13997,"rondelle":13998,"circonscriptions":13999,"réputé":14000,"brutale":14001,"considèrent":14002,"viendrait":14003,"privilégié":14004,"inauguré":14005,"projections":14006,"Calais":14007,"vaudoise":14008,"battant":14009,"Wild":14010,"offerte":14011,"suggère":14012,"Cuba":14013,"hollyw":14014,"enchaîner":14015,"Sylvain":14016,"comptabil":14017,"guinéen":14018,"Doha":14019,"chroniqueur":14020,"Gaspé":14021,"anthro":14022,"sévères":14023,"tunisienne":14024,"éducatif":14025,"ignorer":14026,"reportage":14027,"élaboré":14028,"élaboration":14029,"emprisonnement":14030,"portuaire":14031,"Francisco":14032,"trajets":14033,"aménager":14034,"soulagement":14035,"infirmières":14036,"soixante":14037,"promenade":14038,"Poitiers":14039,"catholique":14040,"hypothéc":14041,"booster":14042,"Auréli":14043,"écrivains":14044,"renouvelé":14045,"helvé":14046,"Bourgogne":14047,"marchandises":14048,"divorce":14049,"gazoduc":14050,"Initialement":14051,"Agriculture":14052,"insectes":14053,"Baptiste":14054,"immigrés":14055,"hebdomadaire":14056,"Lukaku":14057,"dialogues":14058,"quinquennat":14059,"DÉCRYPTA":14060,"gloire":14061,"ingrédients":14062,"Sherbrooke":14063,"insertion":14064,"Brabant":14065,"représailles":14066,"hollywoo":14067,"DÉCRYPTAGE":14068,"\":":14069,"(\"":14070,"220":14071,"Avoir":14072,"Avey":14073,"Bil":14074,"Bul":14075,"BBC":14076,"Caisse":14077,"D2":14078,"Dail":14079,"Eni":14080,"Etienne":14081,"Fa":14082,"Frid":14083,"GI":14084,"H30":14085,"Idem":14086,"Kins":14087,"Lomé":14088,"Mai":14089,"M23":14090,"Nie":14091,"Pér":14092,"Phi":14093,"QUE":14094,"Rangers":14095,"Sami":14096,"Scott":14097,"Tau":14098,"UF":14099,"UI":14100,"Unes":14101,"Uber":14102,"Water":14103,"Zu":14104,"aqu":14105,"boss":14106,"brésilien":14107,"dar":14108,"dop":14109,"fit":14110,"gant":14111,"hack":14112,"kine":14113,"lph":14114,"lantes":14115,"mens":14116,"otisme":14117,"pale":14118,"paient":14119,"pseu":14120,"pèler":14121,"ritu":14122,"rables":14123,"rouvert":14124,"savou":14125,"sculp":14126,"tors":14127,"tères":14128,"uelle":14129,"vrer":14130,"vapeur":14131,"wwi":14132,"çaient":14133,"çante":14134,"çoit":14135,"estion":14136,"encl":14137,"ondes":14138,"lecteur":14139,"real":14140,"reconstruction":14141,"reviendra":14142,"remake":14143,"tièmes":14144,"tiano":14145,"lacs":14146,"entou":14147,"infil":14148,"prou":14149,"ilée":14150,"omo":14151,"oman":14152,"omni":14153,"alys":14154,"dépour":14155,"désol":14156,"défaites":14157,"dérange":14158,"définit":14159,"ashi":14160,"aska":14161,"dif":14162,"estom":14163,"liaison":14164,"paro":14165,"parois":14166,"rétor":14167,"réanimation":14168,"réveil":14169,"pourrais":14170,"conjoin":14171,"concession":14172,"atur":14173,"ciation":14174,"actives":14175,"access":14176,"polaire":14177,"apport":14178,"ffec":14179,"urst":14180,"pub":14181,"minement":14182,"LeBlanc":14183,"nifer":14184,"perdus":14185,"impl":14186,"immin":14187,"portier":14188,"rafa":14189,"mandes":14190,"mange":14191,"peurs":14192,"prédit":14193,"prénom":14194,"coc":14195,"lumin":14196,"fia":14197,"motifs":14198,"mbura":14199,"instin":14200,"maïs":14201,"grille":14202,"entrepris":14203,"tens":14204,"tenaient":14205,"pacifique":14206,"marte":14207,"admissi":14208,"authier":14209,"misère":14210,"ott":14211,"ottes":14212,"puissances":14213,"oppositions":14214,"opinions":14215,"disques":14216,"venti":14217,"coude":14218,"coupure":14219,"cross":14220,"ouvertement":14221,"ness":14222,"soutenant":14223,
[...]
