{"version":"1.0","truncation":null,"padding":null,"added_tokens":[{"id":0,"special":true,"content":"<UNK>","single_word":false,"lstrip":false,"rstrip":false,"normalized":false},{"id":1,"special":true,"content":"<SEP>","single_word":false,"lstrip":false,"rstrip":false,"normalized":false},{"id":2,"special":true,"content":"<MASK>","single_word":false,"lstrip":false,"rstrip":false,"normalized":false},{"id":3,"special":true,"content":"<CLS>","single_word":false,"lstrip":false,"rstrip":false,"normalized":false}],"normalizer":null,"pre_tokenizer":{"type":"Whitespace"},"post_processor":null,"decoder":null,"model":{"type":"Unigram","unk_id":0,"vocab":[["<UNK>",0.0],["<SEP>",0.0],["<MASK>",0.0],["<CLS>",0.0],["s",-2.6873678346817016],["de",-3.3892050125616375],[".",-3.449127396978975],["e",-3.4774659374333474],[",",-3.485552504289961],["a",-3.7967476603380774],["t",-4.103870225974347],["en",-4.108475892088473],["la",-4.3002000765118105],["d",-4.387261603787822],["’",-4.672759249973067],["y",-4.7277809596304134],["the",-4.735604054602041],["n",-4.744703682808968],["que",-4.85104213782868],["in",-4.856610213781735],["l",-5.009973873361194],["el",-5.067250068341812],["to",-5.1166214223952515],["o",-5.206907213558493],["-",-5.217409025513456],["le",-5.267716027138665],["un",-5.31213554662096],["of",-5.367785972160515],["on",-5.395727763535197],["and",-5.426997892102348],["'",-5.450133642284353],["is",-5.491946667664429],["u",-5.568801763979177],["i",-5.599981959652007],["à",-5.630447786417037],["er",-5.700564193781201],["van",-5.712973965991901],["ing",-5.811324807740368],["les",-5.8239291328522285],["het",-5.833031161009865],["los",-5.8633052295448085],["een",-5.8907614038085665],["\"",-5.900169536580597],["al",-5.90401264129299],["r",-5.928614826961391],["“",-5.986053353460431],["est",-6.04029462206244],["ó",-6.041592735774811],["du",-6.061715051271378],["con",-6.107861393220023],["del",-6.16343994648337],["op",-6.21595678853752],["dat",-6.222519439254619],["no",-6.245199235847842],["A",-6.246992651153418],["be",-6.260778064978286],["ción",-6.277489421063612],["(",-6.291403869804798],["por",-6.317846002461248],["for",-6.319071978095188],["that",-6.349184078787445],["para",-6.371633172296988],["De",-6.38703982458976],[":",-6.4029430946880215],["é",-6.408584085539262],["ly",-6.411627049584837],["une",-6.432384383073538],["La",-6.433078828063435],["pour",-6.433754382466978],["it",-6.455524832238412],["re",-6.459306959912038],["una",-6.492425240977232],["The",-6.502426046612497],["je",-6.51157188776075],["was",-6.519246156706467],["I",-6.52592354689267],["qui",-6.54777989800249],["c",-6.592450130260932],["au",-6.613973654590328],["m",-6.614901176103633],["lo",-6.6193891510723315],["C",-6.6220439356446406],["an",-6.629396240193929],["voor",-6.634506721789432],["dans",-6.634601087288592],["met",-6.641840874460517],["with",-6.642294268040555],["il",-6.651598124478669],["ce",-6.662890022919214],["«",-6.681616266918512],["sur",-6.681814281430073],["die",-6.724373963909633],["par",-6.728115812636441],["zijn",-6.740682096026957],["niet",-6.759358290729649],["pas",-6.764132675022358],["om",-6.77332135188497],["En",-6.776766854926157],["las",-6.7889767792355045],["p",-6.797618154995639],["ment",-6.799901648238658],[")",-6.807256997758149],["El",-6.827649992009949],["f",-6.847869552292083],["ha",-6.872528657540656],["Le",-6.8963156314581955],["S",-6.911360021817993],["we",-6.950571637979589],["aan",-6.965236878640374],["más",-6.980400517733814],["he",-6.980666048624856],["L",-6.987302945606984],["are",-7.01023692750327],["?",-7.028063716026601],["z",-7.03744880759197],["have",-7.0555184252572385],["or",-7.0801923776014135],["over",-7.080382880262777],["ont",-7.092805566201086],["said",-7.1011873857273],["me",-7.104298806422259],["plus",-7.118325228996348],["son",-7.121697237336534],["h",-7.141246206068139],["k",-7.15320494982692],["19",-7.155755420757412],["qu",-7.180305902751332],["1",-7.180581079398472],["ook",-7.182612006695241],["como",-7.214962998233913],["by",-7.2271978448803385],["from",-7.230841528077956],["g",-7.2315069962108005],["ze",-7.231821687699137],["has",-7.250235982313951],["aux",-7.251044277665718],["uit",-7.263811233025869],["20",-7.271032871065447],["”",-7.280021360975978],["bij",-7.292922559977001],["will",-7.294008145322087],["avec",-7.297589849597877],["not",-7.301006286291823],["ge",-7.311634603023652],["E",-7.312981109366934],["maar",-7.31861206967891],["In",-7.319682461624437],["2",-7.324869032690568],["mente",-7.343628112905197],["ver",-7.344421252634914],["été",-7.3737558163391395],["had",-7.392198517672082],["ik",-7.4007939798815325],["dan",-7.403131928612057],["ent",-7.431949535018347],["this",-7.443252493127337],["%",-7.46254599470161],["T",-7.464201200726901],["his",-7.480447220101041],["Het",-7.486429678565868],["nog",-7.491245026279586],["‘",-7.4930575522702565],["mi",-7.503505201602714],["este",-7.516193706885932],["3",-7.533441268049167],["but",-7.535204623615263],["you",-7.5416644780940985],[".”",-7.545552851480084],["M",-7.548805849351957],["zo",-7.549721882576142],["can",-7.552395927347595],["out",-7.553701735847357],["her",-7.5603993576157595],["ou",-7.564417570827937],["sus",-7.566770709322414],["”,",-7.5671252197745655],["door",-7.574371271563622],["entre",-7.5760198906277445],["5",-7.59109062553442],["D",-7.6005944945784805],["their",-7.600948766923157],["»",-7.62835336383349],["wel",-7.631544936717914],["up",-7.637499249125934],["4",-7.639046742282559],["F",-7.647367202714152],["x",-7.649670256051776],["P",-7.649856470894861],["man",-7.6536310497602855],["naar",-7.6613418670474704],["als",-7.6617333357643425],["who",-7.685729880636893],["ión",-7.686978202960141],["»,",-7.691290917304855],["Il",-7.696511827440455],["sont",-7.700414132153346],["heeft",-7.703879913395937],["ciones",-7.7257093635639436],["all",-7.738878396110389],["We",-7.753436055564597],["b",-7.753859342996877],["000",-7.762972729660378],["dit",-7.763763377031598],["Les",-7.769868743759398],["ar",-7.787152719799911],["fue",-7.79035510040258],["been",-7.793421877884594],["they",-7.800142616874977],["va",-7.804219776920011],["more",-7.815656400753472],["B",-7.824562337734314],["dos",-7.825935423244264],["were",-7.826022153644303],["N",-7.8294912039744435],["hij",-7.833165882568768],["6",-7.837093277047812],["cette",-7.842463116421108],["meer",-7.843685956316248],["one",-7.845779208694237],["fait",-7.848143344405701],["j",-7.85998246634918],["mais",-7.860091209143555],[",”",-7.8711714294321595],["v",-7.873145982157064],["étai",-7.880954912091305],["O",-7.886329724279388],[").",-7.889161611355906],["kan",-7.893051791663169],["hebben",-7.896988002686943],["ant",-7.907264603314275],["moet",-7.912042897845364],["mos",-7.913667911586874],["G",-7.914509993986485],["about",-7.923059627666467],["pero",-7.925834715112048],["people",-7.931339539485819],["jaar",-7.934428225875765],["also",-7.934918706202064],["bien",-7.935210606699348],["elle",-7.942352513473619],["ve",-7.942403109638402],["word",-7.945806796010327],["time",-7.950679209288525],["tout",-7.957224751502867],["10",-7.95969204559808],["worden",-7.959990123490938],["años",-7.9632879016643905],["han",-7.965844841880401],["It",-7.969188807530266],["$",-7.978500356396525],["esta",-7.979877715661727],["co",-7.988602269532956],["per",-7.992483452504951],["He",-8.002080797606718],["if",-8.004148768212703],["puis",-8.01277198089505],["”.",-8.016496463718909],["être",-8.020948254305203],["wat",-8.025725465775762],["which",-8.030032111995801],["No",-8.030417681089169],["On",-8.035862296082236],["8",-8.0373312643679],["nous",-8.039610931909115],["7",-8.043743916545889],["\",",-8.047436512021887],["leur",-8.051771816245969],["también",-8.055498451632618],["even",-8.059326346840686],["está",-8.061330068326447],["waar",-8.063380661198332],["R",-8.064550892192289],["Un",-8.068744669702339],["like",-8.087006184464123],["Dat",-8.088137164457079],["–",-8.090550129682674],["Je",-8.091015197288808],["tiene",-8.093020407522369],["year",-8.0966106028837],["deux",-8.099541869108418],["sobre",-8.101434675986894],["our",-8.103981605840788],["ndo",-8.106429518284575],["),",-8.108655767284398],["…",-8.109710448156555],["día",-8.111454118993919],["ón",-8.122564768294566],["Ik",-8.125827478961874],["would",-8.127656546287815],["new",-8.138946944131678],["/",-8.139010683870588],["ies",-8.142446345290788],["2022",-8.144366217751715],["Los",-8.146346733854584],["lui",-8.154107710536467],["9",-8.155101059253603],["même",-8.155836213797945],["autre",-8.156073584839458],["go",-8.15722746125421],["Y",-8.161051775619937],["K",-8.163893088322187],["avait",-8.173038974621507],["comme",-8.174487455584858],["ado",-8.174867015867234],["geen",-8.17569906158648],["Al",-8.177747829280529],["U",-8.181324252110638],["w",-8.186721644768154],["fin",-8.193387749447705],["ir",-8.195144392209807],[";",-8.203063481605483],["zich",-8.212353414294203],["30",-8.213083787250488],["J",-8.215299062314378],["aussi",-8.218557212973938],["other",-8.22049535547954],["vous",-8.222149757419078],["when",-8.225239527521182],["after",-8.235444714438652],["Si",-8.239590898597001],["werd",-8.242241211327759],["place",-8.246400184959663],["0",-8.247811443078604],["day",-8.257527872259072],["—",-8.260284125226931],["cause",-8.26357918944054],["ma",-8.27528790393971],["todo",-8.276042287982557],["kunnen",-8.28006108371922],["week",-8.280489618302298],["just",-8.284053406965683],["she",-8.288766202134537],["puede",-8.290718850279777],["faire",-8.294990631781992],["part",-8.298180806042803],["á",-8.302082512854575],["ando",-8.302255054662233],["veel",-8.303145683067237],["there",-8.30410066712867],["onder",-8.304552314274664],["what",-8.30724469290173],["!",-8.308221928833136],["parte",-8.309121127515365],["eux",-8.310482103436255],["ans",-8.314153586347691],["2020",-8.31447039623501],["daar",-8.316704584733632],["après",-8.323689649479793],["car",-8.32629880693423],["hun",-8.326870220991301],["muy",-8.32731051850853],["some",-8.329035255499836],["gaan",-8.330478546312056],["than",-8.334671035952308],["15",-8.337462164751301],["point",-8.338559105999323],["Se",-8.34385177618286],["V",-8.343872807563287],["ía",-8.346569825708876],["país",-8.349615502382477],["».",-8.353899076420518],["año",-8.357495877760378],["ex",-8.36784030708042],["Maar",-8.371306371823007],["gaat",-8.373522399468406],["année",-8.374890373278387],["16",-8.378020029673355],["mensen",-8.379536145461177],["now",-8.383923997790829],["avoir",-8.386801676090629],["Por",-8.390025706864282],["get",-8.39264906839799],["17",-8.3956011994605],["hasta",-8.399574382812485],["rès",-8.401849740193587],["ci",-8.407394843226623],["able",-8.40772128862142],["plan",-8.408498527605275],["them",-8.413546271383794],["first",-8.413557442996828],["land",-8.418296042104176],["H",-8.418750968995163],["my",-8.4205044709804],["zou",-8.421976307207121],["public",-8.423208384322605],["tegen",-8.425215746467677],["two",-8.428628432879016],["weer",-8.429202576686524],["12",-8.435495495838527],["fois",-8.435951445435611],["its",-8.442370421312035],["2021",-8.446558966817435],["want",-8.449499853835771],["hay",-8.451046088010738],["back",-8.454341893158837],["how",-8.455072256920543],["million",-8.45509059616935],["oit",-8.45621236890841],["án",-8.457578879834696],["desde",-8.46278845026934],["deze",-8.466140336425832],["ca",-8.468395707187284],["him",-8.468736195757717],["11",-8.472969564016225],["ante",-8.473426596614317],["moment",-8.478221507202633],["ba",-8.481209966238808],["18",-8.48244957856561],["ux",-8.482893746935057],["personas",-8.4914687174177],["24",-8.494988999077322],["cuando",-8.503941011640624],["long",-8.504175666606539],["ación",-8.50554952278508],["donde",-8.518227922416383],["contre",-8.518587262947431],["durant",-8.522327089807018],["contra",-8.52528890908924],["nos",-8.537633221190596],["ces",-8.538486857507607],["state",-8.547988026573089],["lors",-8.555634244598497],["This",-8.559443078871855],["pays",-8.561742657394657],["haar",-8.56210698255462],["Een",-8.564265430476468],["most",-8.566317495143508],["Pour",-8.566871662141303],["But",-8.56961269190083],["your",-8.576173793273096],["caso",-8.577582197557287],["13",-8.586897222004428],["jour",-8.588317272974944],["peu",-8.588364492041915],["toda",-8.589376465547097],["could",-8.590821326740402],["ur",-8.597003737473873],["temp",-8.605465264086241],["dijo",-8.608383675715395],["th",-8.6106698735139],["coup",-8.611694405017463],["COVID",-8.613148582660955],["Con",-8.613573296091541],["goed",-8.615511302431656],["komen",-8.617392078799789],["W",-8.618642613684079],["total",-8.619607250982298],["egún",-8.620562561257547],["work",-8.621825820495408],["mee",-8.625621476815162],["auto",-8.629539979174275],["zelf",-8.630300663925826],["into",-8.63301168723914],["personne",-8.634823111317676],["près",-8.640963613879023],["14",-8.641122608111674],["any",-8.642322805019642],["heb",-8.646160241911566],["vez",-8.649214753233693],["final",-8.65694901573141],["last",-8.65927145523207],["ation",-8.661009218400428],["porque",-8.663536770087266],["kom",-8.663572448858913],["25",-8.664244971034467],["Mais",-8.666379784644189],["premier",-8.667726177926802],["peut",-8.668431293020058],["face",-8.668855357708098],["staat",-8.669000835691348],["avant",-8.670997916254901],["take",-8.671129143918211],["through",-8.684412114238594],["mis",-8.686350236087396],["hier",-8.687416233001539],["twee",-8.687502514385384],["mo",-8.688837045292495],["being",-8.691141871123964],["tot",-8.695338238429516],["way",-8.697040182476567],["Trump",-8.697218381371314],["momento",-8.69872509790646],["50",-8.698970710208625],["dernier",-8.699202995830912],["social",-8.703364967097963],["forma",-8.703633538591006],["tiempo",-8.705162091380481],["¿",-8.705661490030415],["real",-8.708185212011934],["andere",-8.713587930635825],["police",-8.714331044624462],["toute",-8.716548410690395],["during",-8.721599560076857],["make",-8.724360671389313],["solo",-8.725206611122857],["off",-8.728888266834613],["había",-8.731483085936556],["galement",-8.732906385053223],["era",-8.7348088835016],["ù",-8.73609751863852],["Lo",-8.741565292495487],["Van",-8.74316993283773],["doen",-8.743968485810331],["home",-8.744130636160925],["Re",-8.746620453171552],["where",-8.74755509414975],["quien",-8.749721768017018],["iendo",-8.749812424620435],["nombre",-8.751023376530998],["coronavirus",-8.751714444107758],["millones",-8.75534339464469],["well",-8.759392641845071],["Et",-8.762858698256236],["hacer",-8.763374442275925],["base",-8.769777928070804],["maken",-8.772082519509812],["San",-8.77305970737277],["tijd",-8.777086290099488],["todos",-8.779741979339311],["Une",-8.78390418915026],["sera",-8.784796345474387],["Er",-8.78725994767182],["ter",-8.793124055127581],["team",-8.793702994275087],["krijg",-8.794320536752112],["nieuwe",-8.79517491846783],["every",-8.798086756841464],["high",-8.799184552799924],["monde",-8.799489938266],["going",-8.800235395012447],["mal",-8.800969632013135],["Na",-8.802100694914543],["government",-8.803271737787238],["idad",-8.805995105524179],["use",-8.809258504262178],["many",-8.809405099717265],["président",-8.81488900505211],["New",-8.815161134599673],["down",-8.817705602844846],["film",-8.818611878422471],["100",-8.820173218573586],["í",-8.82123584700074],["weg",-8.821672197466931],["club",-8.823213093537452],["Be",-8.826584551828702],["whil",-8.826806198035385],["están",-8.82709522067],["media",-8.827466543189047],["ait",-8.828966591393947],["cada",-8.829220435081009],["moin",-8.829467687397038],["cuenta",-8.830014552189699],["thos",-8.83082124374602],["zal",-8.830998092518065],["Z",-8.831076818178056],["mayor",-8.833245490258548],["equipo",-8.834574465398347],["before",-8.834695023594747],["Estado",-8.835935491565026],["And",-8.83885686775428],["première",-8.839656981300873],["vida",-8.83988647332548],["sans",-8.84014136157391],["nuevo",-8.842519028138877],["help",-8.842720942500023],["gran",-8.843196026935416],["ju",-8.844073246578258],["ville",-8.844335259024078],["tres",-8.844398995768511],["encor",-8.846346321129598],["alle",-8.846801208078443],["need",-8.847396130145453],["emos",-8.852108160944733],["cas",-8.860128976120414],["France",-8.861429005843679],["tous",-8.864331736201859],["hace",-8.866615579716605],["partido",-8.867308214928403],["toch",-8.867332061538377],["ico",-8.868660982045473],["mismo",-8.869838209152714],["40",-8.872409646686904],["mijn",-8.874500380353615],["question",-8.874640365244009],["years",-8.875399305285319],["primera",-8.876609504243113],["vol",-8.87807905613062],["sido",-8.878795046469058],["vind",-8.879901625025534],["ré",-8.879979245033795],["semana",-8.882506142945978],["health",-8.885845617664055],["Ze",-8.88594567505369],["tras",-8.88913462433603],["Op",-8.890076674254647],["wil",-8.895035540859507],["ch",-8.898790695570545],["ja",-8.898830479525023],["should",-8.900462151626314],["euros",-8.901636786964264],["volgen",-8.905198811467237],["know",-8.913169616272985],["00",-8.913682275263241],["hoe",-8.913708356764246],["otros",-8.914437667468244],["21",-8.91633582600631],["dont",-8.916646655181163],["importante",-8.917060610985466],["mois",-8.917387933908856],["22",-8.918463219027075],["ministre",-8.921346728564252],["embre",-8.922194092501272],["ga",-8.922728790550977],["euro",-8.924236097353914],["don",-8.925892582306714],["antes",-8.928675117581655],["continue",-8.928846652779594],["Ma",-8.929875352346828],["still",-8.929954589578404],["thing",-8.931076327483211],["presidente",-8.934677552243782],["force",-8.935807219435592],["agains",-8.935947248452365],["local",-8.937911522465146],["así",-8.939804110681912],["Nous",-8.940604074787494],["Me",-8.94375893413654],["men",-8.94461347244531],["under",-8.946750299907997],["después",-8.948801491693779],["último",-8.948933730993973],["zegt",-8.951937772050952],["lopen",-8.952138427374084],["lugar",-8.952923102328835],["déjà",-8.953271498585277],["So",-8.95357937120723],["certain",-8.95486562381262],["start",-8.955126234988242],["nueva",-8.957137603695301],["nouveau",-8.957670455514862],["eerste",-8.959583235685932],["heel",-8.960972763273306],["pasado",-8.961212406347318],["hem",-8.961470096373148],["She",-8.963785907262555],["zien",-8.964665091724843],["Ook",-8.965587297163822],["Dans",-8.965690500239763],["via",-8.96724090363909],["nouvelle",-8.970623362462021],["Hij",-8.97091210477364],["medio",-8.972614596124748],["vie",-8.974403556556913],["Als",-8.97559385771497],["Daar",-8.976733733105586],["Die",-8.979230548273168],["ujour",-8.97975536014641],["tant",-8.980539560255519],["quelque",-8.983304769226844],["será",-8.983318115408796],["leurs",-8.985840299753587],["age",-8.986301720950262],["trois",-8.991462175288488],["may",-8.993852688343527],["three",-8.993878129426584],["Au",-8.99517615357404],["ça",-8.996057276439082],["tanto",-9.000307153591821],["donc",-9.00387782339127],["iets",-9.004491458932549],["made",-9.005646615127059],["200",-9.00664719760562],["ron",-9.007337310346802],["Zo",-9.009113102680889],["look",-9.009171648316448],["mejor",-9.010338082038583],["qué",-9.011878034556588],["sector",-9.011983818904273],["pro",-9.014593474438733],["Su",-9.015869229470487],["Nederland",-9.016052803439429],["game",-9.01897220987549],["best",-9.02235750658067],["Ademá",-9.024158129330687],["second",-9.02495153209269],["support",-9.02704744104836],["tussen",-9.027679075628974],["hele",-9.028865446636338],["virus",-9.03041011745454],["school",-9.031196420163822],["plusieur",-9.033711506516557],["vers",-9.034340167181785],["sous",-9.037290893290567],["hecho",-9.039371086220726],["match",-9.039788600140167],["entras",-9.041049845666032],["test",-9.042089478320698],["very",-9.043330680231197],["grote",-9.047107631717443],["trabajo",-9.049332445519441],["semaine",-9.050011952637512],["otro",-9.050809335199087],["Elle",-9.054090076177609],["dernière",-9.054197537022759],["situation",-9.054299712346943],["ainsi",-9.054573339679116],["sociale",-9.059826841810276],["change",-9.060589526894512],["country",-9.060596763725874],["alleen",-9.061976124099907],["water",-9.064612841897727],["Esta",-9.065815328829604],["voir",-9.067670045455692],["heure",-9.068742854156413],["much",-9.06953204057272],["dag",-9.07088251951102],["alors",-9.071715685376358],["good",-9.073666797228785],["À",-9.074219314515926],["tener",-9.075491381117821],["23",-9.07639246693888],["suite",-9.07758250178333],["menos",-9.078666504339434],["X",-9.078924724778027],["Pero",-9.079553714253777],["hand",-9.079942761256573],["For",-9.080292067674687],["projet",-9.085242765056549],["issue",-9.087523247464333],["old",-9.088681608618074],["pandemic",-9.09023743369598],["homme",-9.093188347343945],["punto",-9.099693182480191],["right",-9.10045681473213],["number",-9.102792689698898],["selon",-9.103092960382128],["Para",-9.103128096034027],["chez",-9.105400563850418],["lot",-9.10566151795923],["horas",-9.107922390767383],["important",-9.108564844462258],["procent",-9.110353296482014],["actual",-9.111048561175961],["cases",-9.11154350486754],["za",-9.112434921435778],["ever",-9.11252788685978],["come",-9.112780089662953],["service",-9.112957105686707],["open",-9.113090068087859],["business",-9.113256192163433],["gas",-9.113719493269704],["heid",-9.113927570527645],["think",-9.114780984434526],["ils",-9.116758912605238],["information",-9.117003805212665],["did",-9.117542987541182],["Sa",-9.1183868394786],["leven",-9.11952095954899],["ahora",-9.120339205489117],["mucho",-9.120929093650586],["Covid",-9.123066868427747],["empresa",-9.123620152858223],["26",-9.123905754212647],["mil",-9.124348107610917],["echt",-9.124558788982206],["There",-9.125658761602061],["China",-9.128210146816055],["To",-9.128261895434633],["around",-9.128665354409462],["says",-9.12922165958328],["uego",-9.129477492725634],["Europe",-9.131447096188413],["équipe",-9.133423523711375],["Este",-9.134827426365211],["vi",-9.135158489167278],["ciudad",-9.135574205712924],["primer",-9.135819704426325],["calle",-9.139189528420578],["hard",-9.14286239180299],["début",-9.143752547427926],["mon",-9.144089788229735],["familia",-9.144708690677625],["Ukraine",-9.1460796308474],["afge",-9.146348642025707],["acuerdo",-9.147633750436384],["season",-9.148808915742663],["these",-9.148965711375475],["politique",-9.150751064727014],["ben",-9.153393862757447],["beau",-9.153888619428596],["Sin",-9.154421474881659],["If",-9.154563934871511],["grand",-9.155443014279188],["ici",-9.156659332084704],["world",-9.157801681931979],["manera",-9.158157191423001],["nada",-9.158752809192285],["tan",-9.160386097957087],["US",-9.161165877850088],["video",-9.163001276174104],["finale",-9.163497455646315],["tion",-9.16445525782143],["site",-9.164459371025021],["general",-9.16640173352696],["mundo",-9.167301778134409],["28",-9.169930241651928],["since",-9.170095060606684],["gouvernement",-9.171453262855795],["60",-9.173577821317133],["&",-9.174416819344765],["play",-9.175119673428041],["possible",-9.177170101759835],["close",-9.178437446288255],["vent",-9.179786918986537],["such",-9.180637131762321],["show",-9.180756030160202],["estado",-9.183649164272854],["Cett",-9.1851855216326],["terug",-9.18543190506568],["life",-9.18674586527628],["mar",-9.18923283836714],["estos",-9.190146138971249],["jusqu",-9.191006155677186],["embargo",-9.191325455071457],["kun",-9.191803834726624],["fuero",-9.193287193650171],["Par",-9.194808956739385],["27",-9.19632632593852],["later",-9.196780653538177],["té",-9.197937472614859],["pre",-9.202401382517058],["kwam",-9.202897242996197],["uur",-9.203506050026576],["keer",-9.204319573095209],["Mi",-9.204463799884614],["Dan",-9.206204828564735],["estaba",-9.206625807675572],["self",-9.20874827287749],["situa",-9.209448876426162],["amos",-9.210195991014501],["gobierno",-9.211834874186884],["communit",-9.214293716955744],["tuvo",-9.21440891630019],["Gobierno",-9.21515567232428],["especial",-9.215807737316215],["company",-9.223562018151597],["empre",-9.223870956866351],["zona",-9.223994578415436],["pu",-9.224112652568184],["anti",-9.224730367770038],["eigen",-9.225940581891436],["altijd",-9.227672449723961],["lieu",-9.2278142592235],["500",-9.229401107559017],["hui",-9.231538578580153],["proyecto",-9.233247312644163],["That",-9.233742480656439],["Co",-9.236535756991284],["femme",-9.237015140912465],["algo",-9.23777197721656],["État",-9.23786755550696],["report",-9.237890117867629],["president",-9.238162069277053],["ido",-9.238822035941883],["put",-9.239362405136255],["él",-9.239485231144272],["family",-9.24042062042996],["servicio",-9.241276325322385],["post",-9.241991620877108],["came",-9.242163201465427],["gewoon",-9.24233053285603],["personal",-9.243251999043057],["result",-9.243829348215057],["head",-9.244363432282046],["hoy",-9.245577593399254],["bi",-9.245871545437371],["nuestro",-9.246408416733654],["national",-9.24817835097527],["Dit",-9.248773731043206],["record",-9.252092060406742],["niveau",-9.254912010204777],["lang",-9.256439573159028],["waren",-9.257616604673467],["aire",-9.26023158764539],["including",-9.263719546613604],["faut",-9.266277597023695],["line",-9.266631365339222],["main",-9.269144684606232],["app",-9.269778331017568],["partir",-9.271388616577774],["air",-9.272514623624122],["next",-9.272861313124334],["estar",-9.272937676048265],["mes",-9.273904194008287],["ging",-9.274711239164244],["Twitter",-9.27601498219216],["rond",-9.27719948904216],["groupe",-9.277420099370012],["mogelijk",-9.278847906139138],["laten",-9.279499520756524],["houden",-9.280488301266901],["2023",-9.281299730882669],["ic",-9.281726569100918],["werk",-9.287602457228715],["cours",-9.288997876825237],["rapport",-9.290773685017752],["venir",-9.291102632546266],["binnen",-9.291158092184432],["impact",-9.291810500672465],["Met",-9.29204368227202],["recent",-9.293467913185587],["grupo",-9.294760897150304],["entreprise",-9.298857168893749],["Ver",-9.298912551239557],["notamment",-9.300283170348894],["person",-9.3009889904231],["crisis",-9.302962261438015],["partie",-9.306516841577157],["29",-9.306924118917747],["own",-9.307148853277143],["avai",-9.307330804073128],["low",-9.307453958678407],["ready",-9.309811274871471],["staan",-9.310016792033814],["grande",-9.312966637748936],["poco",-9.31438676467658],["cent",-9.314619557089427],["2018",-9.316330571332621],["achter",-9.318096463513243],["Nacional",-9.31849359152034],["casa",-9.319239400671389],["política",-9.319357939278634],["centre",-9.319998076858006],["You",-9.321287430766017],["say",-9.322123227221649],["hospital",-9.322448258578039],["zoal",-9.32272922447239],["bon",-9.323400858743085],["far",-9.32343261410169],["student",-9.325282913533227],["ij",-9.327556545202036],["travé",-9.329310347410667],["Mr",-9.330625824080968],["poder",-9.330706899505959],["onze",-9.331353140891824],["drie",-9.331895078284731],["mij",-9.33342943444108],["mag",-9.3346611337845],["both",-9.33559927866696],["same",-9.335807666918502],["contact",-9.33620518966378],["extra",-9.338742827683738],["tipo",-9.339912242748943],["care",-9.340527132260926],["tijden",-9.340690681410198],["Ha",-9.34149922249355],["between",-9.34179960708706],["rix",-9.343197894909835],["group",-9.343274145763754],["told",-9.34348766559723],["politie",-9.344496180476973],["Biden",-9.347688851917122],["minder",-9.351837219092294],["top",-9.352546760226053],["got",-9.35633916583701],["control",-9.357350583572542],["court",-9.35759792769585],["President",-9.358072760116759],["podría",-9.358923878090451],["large",-9.359763650246695],["geld",-9.360848575917132],["tra",-9.361125295763728],["mer",-9.361280977112969],["35",-9.362477873638769],["pris",-9.365720699812947],["Voor",-9.366698676463514],["Esto",-9.368090886978184],["steed",-9.368698051103692],["hi",-9.370789415153723],["hombre",-9.37153652138278],["dar",-9.372161325615872],["services",-9.37308803705162],["huis",-9.373769167406344],["ambién",-9.374458375549146],["Mo",-9.37471524832127],["bo",-9.374805770341812],["otra",-9.37594777834736],["Du",-9.378821226965705],["droit",-9.380625355790645],["ello",-9.380644708175922],["80",-9.382885063995246],["six",-9.383643156417834],["won",-9.383830003673214],["Wat",-9.384141764842571],["great",-9.384451243773238],["problem",-9.385406452181847],["nother",-9.385631523507252],["red",-9.390508215683798],["four",-9.390604376132114],["problema",-9.391705759448968],["vote",-9.392459675779143],["live",-9.392854120994233],["ôt",-9.39453352021538],["cual",-9.395657838787326],["aient",-9.39698768526316],["autoridad",-9.39910230571189],["haber",-9.399408628178781],["déclaré",-9.400058869930497],["chose",-9.400305953760771],["tien",-9.401844626761449],["31",-9.402127126401185],["saison",-9.402496735175545],["70",-9.40602289263586],["côté",-9.407088919298978],["travail",-9.407735811859487],["maal",-9.407825071973686],["alguno",-9.408126045394308],["keep",-9.410789584784709],["current",-9.410880773935151],["York",-9.412147285257994],["com",-9.412672445938366],["medida",-9.413231077513514],["effet",-9.413233186773324],["call",-9.41360699797147],["action",-9.418017562632357],["avon",-9.418110385702015],["jeu",-9.418224532285333],["wereld",-9.418652212699321],["few",-9.424625417837253],["Méx",-9.425452187607519],["Una",-9.425738006167231],["compte",-9.426780004745591],["director",-9.42815679093523],["ban",-9.4288425235534],["Europa",-9.431569358471103],["jaren",-9.43194176066256],["€",-9.43218812857424],["ooit",-9.43424450993379],["cambio",-9.43658140796471],["win",-9.436690413046929],["Friday",-9.438845616890799],["coming",-9.439889712502676],["meses",-9.440757049493744],["Pro",-9.443188855900193],["Dr",-9.443618223917886],["eront",-9.443868009072538],["nuestra",-9.444033570929363],["pendant",-9.449532267964472],["Di",-9.452133318712619],["actividad",-9.453264232233991],["ailleur",-9.456143125410605],["informa",-9.45669441357851],["ité",-9.457150380640103],["plaats",-9.45801160797845],["night",-9.45909953536726],["proceso",-9.459131430086774],["Sur",-9.459403431263251],["aba",-9.460032058077243],["adas",-9.460043206836318],["case",-9.461213206310534],["mucha",-9.46327495121795],["vier",-9.463488384943624],["State",-9.4641781735156],["Oekraïne",-9.46508533206638],["bar",-9.465489927616241],["nivel",-9.46606591214304],["provide",-9.466217189164038],["España",-9.466234302699736],["última",-9.466547235546537],["90",-9.467470432110414],["famille",-9.46837542742485],["programa",-9.470068671536445],["condition",-9.47034010827636],["ement",-9.470784599129482],["American",-9.471467337821977],["laatste",-9.472460493053639],["één",-9.472983659956231],["sol",-9.473217785115818],["seule",-9.474714329885273],["pa",-9.474804778536845],["direct",-9.475316209604783],["though",-9.478903561521523],["région",-9.479064259472578],["willen",-9.479471047945719],["tour",-9.479985311418595],["zij",-9.480499983349542],["election",-9.481028685254236],["jamai",-9.481458385131303],["St",-9.482412869327726],["historia",-9.485633589382918],["stad",-9.48655525807591],["vía",-9.486793002471462],["pourrai",-9.488094899719941],["side",-9.488543847856707],["each",-9.489196835664892],["Saint",-9.489979904846265],["Rusland",-9.490072072471477],["junto",-9.490235277856554],["chef",-9.490447447561634],["seguridad",-9.492657023674518],["different",-9.49354476566585],["dio",-9.493784135672392],["kinder",-9.496629687719638],["jeudi",-9.496679947220082],["pouvoir",-9.496692091100133],["aurai",-9.497105556097395],["ken",-9.4990177278344],["ig",-9.500701191528822],["month",-9.501068594498593],["lado",-9.501099618610294],["half",-9.501274135076546],["nieuw",-9.502575147633836],["centro",-9.50277257144005],["cosa",-9.503728390437333],["Bij",-9.50540943223015],["celle",-9.50755898087936],["inform",-9.50765975143543],["aron",-9.507925805794198],["ive",-9.509864843494647],["nodig",-9.510397027088933],["online",-9.51108600677161],["ès",-9.511203829652242],["Volgen",-9.51121389388753],["mort",-9.511322075056597],["ally",-9.511441985316388],["found",-9.512038335787466],["che",-9.51314150521982],["porte",-9.513626552682666],["mercredi",-9.514488578677852],["system",-9.51450458370122],["Russisch",-9.51511544754466],["joueur",-9.51566414803429],["term",-9.51685429418141],["otras",-9.516936873954606],["trata",-9.517376938792317],["agua",-9.517472019938642],["city",-9.517835766605366],["love",-9.518132261685938],["persona",-9.518430486332669],["annoncé",-9.518963988556301],["ría",-9.519469516016638],["dimanche",-9.519516693162888],["45",-9.520383054729724],["weet",-9.52047757240916],["bajo",-9.52109373442439],["principal",-9.522335471423041],["Selo",-9.52283302449759],["po",-9.522853039600033],["russe",-9.523459183403117],["cuatro",-9.523510583846335],["mesure",-9.523803164107425],["unos",-9.523817116652863],["mardi",-9.524698426960825],["include",-9.525140234041995],["lundi",-9.525712460601348],["Q",-9.525992480744346],["hizo",-9.526952301654468],["near",-9.527656832594085],["tenía",-9.529865087005096],["alguna",-9.530304537882975],["verder",-9.530393027378558],["vrai",-9.531724372474953],["Ja",-9.531900616194628],["weten",-9.532017830610513],["Car",-9.532306063566658],["decision",-9.532373955193723],["vendredi",-9.532524998683598],["produit",-9.532546439816564],["salud",-9.532728095016747],["Go",-9.532840516422315],["bedrijf",-9.533759330805282],["Mar",-9.534679610198395],["cómo",-9.534872559932285],["Russi",-9.535096548502485],["notr",-9.535675682926442],["zit",-9.5377015697465],["full",-9.539111407445906],["Unidos",-9.543317464109382],["onderzoek",-9.545140933491005],["ier",-9.545385615986753],["dire",-9.546373065339518],["capital",-9.546456424529094],["Or",-9.547245246757704],["gebruik",-9.54825654100103],["used",-9.548924920031723],["voorbeeld",-9.549183715520876],["blijven",-9.55088118422238],["course",-9.551756158527576],["parent",-9.552038429627093],["population",-9.552130435355718],["Man",-9.552480804411983],["reported",-9.552992066442458],["esto",-9.554100806708544],["charge",-9.555420750864286],["across",-9.557114046545529],["vu",-9.55723783285254],["raison",-9.557617560643635],["gente",-9.557787162168868],["resultado",-9.558865820646137],["ven",-9.560663342581105],["wij",-9.560705469963079],["endo",-9.561304024711747],["quand",-9.562352257772348],["série",-9.56376501006094],["fans",-9.563834862845729],["Ucrania",-9.563843541682548],["zonder",-9.564577210725208],["When",-9.566650034956151],["vient",-9.567031874441192],["unque",-9.567288582518719],["cela",-9.567710595494479],["mettre",-9.567741382888448],["adde",-9.568740726800167],["project",-9.570552375918462],["gemaakt",-9.571274648784046],["jó",-9.571981473343154],["give",-9.572612933689406],["Son",-9.572800423499931],["aantal",-9.573057376885325],["maakt",-9.573819479907868],["posible",-9.575703639183029],["ullen",-9.57702837144689],["March",-9.580059594449036],["remain",-9.580971197262242],["Of",-9.582177541201688],["vooral",-9.582883342793076],["source",-9.584109319688514],["laat",-9.584657967767427],["guerre",-9.585481823311376],["market",-9.58605663193303],["próximo",-9.586490511808176],["sigue",-9.586592823655739],["oficial",-9.5877908966424],["super",-9.588297011177506],["frente",-9.589170938400533],["minister",-9.590318492326395],["concern",-9.590427174735433],["quatre",-9.591440886805591],["big",-9.593653158284894],["samedi",-9.594397689773906],["event",-9.594903919147818],["reste",-9.596771142196435],["hit",-9.596959243402544],["señal",-9.597492258091307],["position",-9.598233549384236],["geven",-9.598540356623296],["comment",-9.59901111309215],["derecho",-9.59988240875581],["working",-9.600306877182135],["rien",-9.602093680744087],["jarige",-9.603433855919956],["zone",-9.604748731277624],["present",-9.605648681866395],["suis",-9.605921606169954],["sport",-9.60629274714228],["bonne",-9.606747715317393],["hour",-9.60737600472567],["cet",-9.609427503209309],["número",-9.609662314942687],["nacional",-9.610564441073272],["eerder",-9.610961142489941],["left",-9.611469358628806],["casi",-9.612065255038257],["encuentra",-9.61213328320391],["dólar",-9.613711412951657],["Apple",-9.61471500176522],["TV",-9.61654166183977],["production",-9.617343378708581],["militaire",-9.618320448018295],["prendre",-9.618502931259098],["kind",-9.619891171938846],["inter",-9.620688366471647],["grandes",-9.622324657935843],["misma",-9.622611368121282],["gan",-9.62293129263589],["price",-9.623652234478962],["image",-9.624470341732035],["body",-9.625557993174787],["sistema",-9.626461727389557],["level",-9.626616912251723],["pen",-9.626697243603578],["area",-9.628057170460298],["nemen",-9.62894848286134],["niño",-9.629210121640455],["effort",-9.62961826117393],["never",-9.630569592965854],["power",-9.630591302557644],["objetivo",-9.63086038630017],["llegar",-9.631701028948678],["according",-9.63190831511124],["occasion",-9.631949330840346],["histoire",-9.632123743732773],["entro",-9.63267811669752],["City",-9.63360298195115],["sino",-9.634702369421053],["investiga",-9.63474356432207],["cualquier",-9.634769415356644],["segundo",-9.635914697241613],["United",-9.635960165964967],["vast",-9.636054331949211],["hora",-9.636513470928406],["stock",-9.636952726305086],["groot",-9.637105126734689],["light",-9.637511497644997],["West",-9.63821948163044],["devant",-9.638604540100086],["decir",-9.640682044733527],["order",-9.643055975677276],["snel",-9.64481494086821],["ancien",-9.64563429270843],["mean",-9.64758020128549],["avond",-9.647722561917337],["fi",-9.64887837333088],["rez",-9.649295110431291],["return",-9.650159423814124],["beter",-9.65022672468232],["muchos",-9.650517221443614],["oorlog",-9.652500910486832],["Jean",-9.653460994000472],["werken",-9.653590318970226],["statement",-9.654638902139064],["positive",-9.655326183981991],["something",-9.655606729171716],["nationale",-9.65585065513848],["Québec",-9.656389653955141],["devrai",-9.657269310783809],["Monday",-9.657901769192396],["ín",-9.65793251856889],["noche",-9.658287513886616],["share",-9.658876511612394],["zitten",-9.659019617514247],["kon",-9.660073879161434],["Do",-9.660292045988742],["ring",-9.660346621869802],["Ar",-9.660660630566735],["bank",-9.66307426613804],["primero",-9.663168343889637],["jeune",-9.663185061498806],["Hoe",-9.663849797093555],["All",-9.664172428631655],["energie",-9.664988737352374],["deuxième",-9.666830615362619],["ster",-9.667819754650854],["elkaar",-9.66831590385583],["vrij",-9.668323102382871],["receive",-9.668626903963471],["Nederlands",-9.669233821994759],["pay",-9.669713815312136],["enfants",-9.672240958090908],["minuto",-9.672795708075427],["zeker",-9.673107475452168],["believe",-9.673877413614417],["bekend",-9.674403557249907],["Ga",-9.674413943970759],["mise",-9.675854792892075],["zeggen",-9.676034314385834],["sí",-9.676066978533228],["better",-9.676109544608657],["Nu",-9.676200078011291],["quarter",-9.676755988503647],["miento",-9.677793259540337],["May",-9.678345113315565],["Ben",-9.678444008751399],["feel",-9.67899028738718],["votr",-9.679116207278408],["name",-9.681539899174599],["trop",-9.681782897782494],["petit",-9.683037763612244],["samen",-9.68305716972504],["Chine",-9.683263088870874],["ko",-9.683587523383757],["until",-9.683947613062127],["â",-9.684230217333846],["chance",-9.684585964395135],["wh",-9.685236066821439],["jugador",-9.685439799219944],["must",-9.68585315574541],["Así",-9.686194176903102],["soir",-9.686697676715205],["vo",-9.687301274337667],["serie",-9.6875209287564],["South",-9.689428538975701],["sécurité",-9.689674643896169],["former",-9.689840414231213],["gemeente",-9.690318851421182],["somme",-9.691526131535387],["What",-9.692035674285329],["haci",-9.692788415208787],["route",-9.693448925212198],["anders",-9.693617749866927],["pri",-9.695023245750829],["miljoen",-9.695320320911359],["ger",-9.697507164323376],["cargo",-9.697686348827762],["rest",-9.697718495465836],["reg",-9.698462383736388],["afin",-9.698918752819555],["lunes",-9.699518035181402],["Rusia",-9.700005152686906],["directeur",-9.700197318861868],["begin",-9.700822484836905],["viern",-9.702635385036434],["quiere",-9.703419537339606],["children",-9.704079571975365],["vario",-9.70460743960848],["arly",-9.704843971597592],["away",-9.705844550627813],["With",-9.70604940228171],["expert",-9.708017444343724],["Ya",-9.708773204109065],["does",-9.708901643330416],["might",-9.709488254045883],["art",-9.71037955474119],["vehículo",-9.710850260580893],["ity",-9.711111664575935],["Om",-9.71413449981292],["didn",-9.715816968875444],["ard",-9.716303416136638],["mercado",-9.717647083656175],["cinco",-9.717781676097903],["National",-9.71865166215687],["front",-9.719374785924254],["future",-9.720642275816083],["nation",-9.720831448266171],["months",-9.722568676325],["público",-9.7226960378203],["iedere",-9.722887852659753],["tie",-9.723042179716003],["process",-9.723558016373765],["five",-9.723839110094973],["val",-9.723923520831187],["produc",-9.724231021777438],["things",-9.724605708400215],["ki",-9.72536290457959],["uso",-9.725795619493312],["here",-9.726949854641774],["erg",-9.72711847245707],["increase",-9.72737524941309],["wa",-9.728292895123497],["redes",-9.728338711011883],["aujourd",-9.729292370039257],["mujer",-9.729439268934106],["mujeres",-9.72946567770161],["bus",-9.730730873837786],["Per",-9.731996943324246],["County",-9.732125008153993],["Bo",-9.733898640363858],["fall",-9.734652987409087],["idea",-9.736304097421439],["cut",-9.737183826893421],["hijo",-9.737561202271884],["Canada",-9.737962293485175],["réseau",-9.7380873009303],["ciento",-9.739236160071762],["normal",-9.741011748310406],["producto",-9.741168177550103],["risk",-9.741296616635445],["stand",-9.741462394999004],["sentido",-9.74149635793825],["+",-9.742303724745488],["brand",-9.74250961915196],["alles",-9.742616055597765],["alway",-9.742672484236241],["Zij",-9.74271064126776],["Plus",-9.74276715983987],["tendrá",-9.743218113045774],["parti",-9.744991752739168],["corona",-9.745844586054272],["demande",-9.746750760280054],["staff",-9.747478815686371],["affaire",-9.748016859229288],["ellos",-9.74838397846851],["mañana",-9.748406937302732],["train",-9.749038776181646],["etting",-9.749381827566044],["dice",-9.749683878926657],["food",-9.749840394390578],["making",-9.752108987287926],["David",-9.75270848173731],["Black",-9.752843865009245],["boven",-9.753066012958053],["rol",-9.753883429768365],["sábado",-9.754092810355903],["seguir",-9.755173448963513],["Health",-9.755522515128995],["75",-9.755978978831532],["officer",-9.75668700332897],["espera",-9.75782769840415],["stay",-9.757855464560816],["Whil",-9.758150165232697],["Entre",-9.758497674138265],["minutes",-9.758811922949455],["field",-9.758895860889119],["members",-9.759672364747018],["juego",-9.76045251604535],["house",-9.760533244633748],["spread",-9.760555003143466],["cha",-9.760623218995418],["star",-9.761580551277014],["agit",-9.762038960007812],["global",-9.76357769159943],["Thursday",-9.76412215131988],["indic",-9.764583656501156],["blijft",-9.764860773565623],["realizar",-9.765690722723582],["foto",-9.766075389050673],["cerca",-9.766329518693386],["past",-9.766358586159328],["become",-9.76850593479567],["dad",-9.768928840050801],["went",-9.770195575090046],["aún",-9.771037869837457],["allemaa",-9.77123306265306],["ho",-9.771961067179866],["Etat",-9.772436562995207],["víctima",-9.77279827287211],["international",-9.776895887335321],["doet",-9.777544198596349],["veces",-9.777979251835722],["Argentina",-9.778957944180494],["EU",-9.779549379850646],["chaque",-9.779798180315318],["Vi",-9.77986469061753],["pueda",-9.780251555110059],["incident",-9.782225710831982],["again",-9.783082369123864],["free",-9.783243332025886],["cost",-9.784382053457628],["Hay",-9.784871659318641],["office",-9.784884097631334],["Sunday",-9.787529917757453],["ago",-9.787913824721539],["Jan",-9.78794305028704],["fil",-9.78858093617516],["domingo",-9.788989323116773],["tard",-9.789052080879951],["General",-9.78916113565888],["vaak",-9.790426443191539],["Paul",-9.79164656396119],["quoi",-9.792999947957368],["Madrid",-9.793342184726358],["mai",-9.79377936974656],["Tuesday",-9.794825937902914],["allow",-9.795984313711912],["licht",-9.796356487850707],["aten",-9.796378209432596],["aura",-9.796723766860126],["risque",-9.796928157599048],["pandemia",-9.799290341371911],["money",-9.799938328364222],["ck",-9.799980690356232],["lijkt",-9.801126051018274],["32",-9.801362820289853],["law",-9.802313832702588],["falta",-9.803148455517675],["crime",-9.803534886508636],["encuentro",-9.803774300571199],["eves",-9.803821274819647],["One",-9.804246548443924],["message",-9.804370294211651],["ida",-9.804382817614211],["dollar",-9.804694302779293],["rate",-9.804700511512333],["Saturday",-9.805273470296177],["juli",-9.805545498539914],["Ces",-9.806857620905081],["hoofd",-9.806887467214025],["onces",-9.80704218876191],["puesto",-9.808221563789346],["janvier",-9.808308634295857],["experience",-9.808311696965385],["semble",-9.808972586729219],["%.",-9.809047985021802],["fuera",-9.809777272596522],["cadre",-9.810290463412322],["programme",-9.810735844841442],["fecha",-9.811340792114965],["mask",-9.811816995071602],["anté",-9.812512764192274],["women",-9.812960610346444],["document",-9.814006722948642],["temporada",-9.815727086921854],["John",-9.817213863530544],["edad",-9.817893082731953],["aciones",-9.818392827123004],["miss",-9.818903827591045],["comunidad",-9.818941140083016],["sub",-9.819148519949309],["taking",-9.819829736528238],["buena",-9.820282560789316],["pai",-9.82049008285874],["vis",-9.82069724980581],["ées",-9.821119945992388],["ley",-9.822920161606934],["300",-9.82345444055732],["Howe",-9.82386909227202],["retour",-9.82397941540125],["gens",-9.824834315919453],["ligne",-9.825620121490626],["français",-9.82627857912965],["décision",-9.826502538352834],["little",-9.826521154101286],["crise",-9.827301434863628],["ismo",-9.827593082444121],["series",-9.828370147328616],["death",-9.82935117548829],["titre",-9.82960074498283],["clear",-9.830498868832972],["move",-9.830729205644786],["moest",-9.831388629141301],["turn",-9.833116079372061],["basis",-9.833740530458291],["locale",-9.833896334975922],["pan",-9.834716161658047],["marché",-9.835634834415997],["inclus",-9.836319334277292],["together",-9.836751099303514],["chi",-9.836864540653735],["zetten",-9.837151731630394],["aller",-9.837288330278987],["disponible",-9.83728836870449],["popular",-9.838083396380373],["find",-9.840263395498056],["kijken",-9.84139233794879],["wide",-9.842108181712195],["martes",-9.84280889265888],["34",-9.84349536214755],["Pas",-9.84634626173627],["cinq",-9.846608003192099],["League",-9.846646137239256],["33",-9.847290584409196],["vraag",-9.84766136338196],["victime",-9.848747510277427],["podrá",-9.849194988602076],["activité",-9.84927483747498],["oportunidad",-9.849759470507696],["besoin",-9.850016987156195],["veu",-9.850235536462808],["tête",-9.850422702023835],["natuurlijk",-9.851351877483589],["job",-9.852809855284054],["period",-9.853274569361693],["Ka",-9.854621932044271],["bu",-9.855256949168513],["paar",-9.855686660233788],["Paris",-9.85737366860156],["marca",-9.857873483081857],["mars",-9.857981039789276],["soort",-9.859334820839564],["sión",-9.859392236223128],["war",-9.859817737021386],["iércol",-9.860851981929649],["Bar",-9.861135062705838],["varia",-9.862156847914868],["jeunes",-9.862500545833454],["km",-9.863454960219858],["expres",-9.863632772118011],["carrera",-9.863981842202538],["Sam",-9.86473959851039],["Ko",-9.864757963674503],["core",-9.865077234539811],["tarde",-9.865516480584802],["Deze",-9.866376723885686],["federal",-9.866383350694543],["vice",-9.867119311863956],["cuerpo",-9.867178523858623],["simple",-9.86729072575782],["bit",-9.86863533778553],["program",-9.868971080311114],["mission",-9.869601997364496],["Juan",-9.870345581477618],["worker",-9.87062369361929],["hope",-9.870628255509612],["Wednesday",-9.871964807065066],["segunda",-9.871965444789286],["happen",-9.872590197892755],["using",-9.87419964940042],["diferentes",-9.874292725941235],["explique",-9.874316355645476],["zelfs",-9.874796627905283],["paso",-9.8751117618504],["ness",-9.87527355667029],["conocer",-9.875426736264558],["aske",-9.875592802154639],["général",-9.875786198544805],["appel",-9.876382735536145],["contract",-9.876439039245662],["poste",-9.87665097141749],["vrouw",-9.876836271080506],["woning",-9.876932694271268],["36",-9.876934092994357],["continu",-9.877295598697469],["dici",-9.877587657364124],["organisation",-9.878431411122484],["buiten",-9.878819537072513],["particular",-9.879438479822522],["couple",-9.879471579914718],["fuerza",-9.880019494559326],["duidelijk",-9.880255185346217],["shares",-9.881172345119191],["having",-9.881197446922494],["taken",-9.88128103331573],["Mon",-9.881631174425586],["société",-9.883776194176338],["dagen",-9.88399250537385],["Po",-9.885031120898077],["ish",-9.885629845138258],["principale",-9.885676547482515],["wedstrijd",-9.886506995149865],["trade",-9.887593948193576],["pré",-9.887606014143014],["note",-9.887639644397282],["militar",-9.88821577095089],["interview",-9.888280909241018],["young",-9.88883755793994],["several",-9.889165862720787],["Facebook",-9.88978116772037],["solution",-9.89018436843001],["complete",-9.890489205785602],["ensemble",-9.891583157570663],["décembre",-9.893078218851784],["version",-9.893217746267968],["matin",-9.893477610110725],["accord",-9.893925251869772],["respecto",-9.893979020320153],["dado",-9.89435517943202],["posición",-9.894778920253053],["internacional",-9.895132373777248],["Joe",-9.895587910424975],["pública",-9.896134308932274],["ble",-9.896738301984167],["ú",-9.897416712243961],["run",-9.897451891014022],["patients",-9.897638381523622],["act",-9.897952920610232],["eerst",-9.89939139797373],["create",-9.900520201912617],["verwacht",-9.90053521603042],["lockdown",-9.901297907940819],["passe",-9.901417897110878],["vec",-9.901625370045299],["geef",-9.901775015292781],["gar",-9.90179708964974],["individual",-9.902113221897867],["fact",-9.902325212703076],["ran",-9.905904619196527],["landen",-9.906955979445232],["arse",-9.907404105294505],["juist",-9.90741184277089],["fer",-9.907413351114947],["announced",-9.908022418177845],["presente",-9.908085456607349],["Union",-9.908524173679659],["gek",-9.908891253732904],["libre",-9.909075813916388],["gen",-9.910021898631086],["ministro",-9.910207743379583],["annonce",-9.910538256166525],["today",-9.911510090995936],["cho",-9.912340374127574],["fire",-9.912507829509277],["zei",-9.912778514323112],["responsable",-9.913076019037275],["groep",-9.913617910736228],["PC",-9.914034870285422],["India",-9.91431762637512],["enquête",-9.91445104628242],["race",-9.916289210811073],["milliard",-9.917813380461322],["indiqué",-9.917913068480704],["passé",-9.918109847289724],["given",-9.91848780333011],["min",-9.918534709688775],["Cha",-9.918995817203974],["My",-9.919441625927426],["wie",-9.919474700595439],["igual",-9.919656607251772],["short",-9.920070168578661],["400",-9.92034378017956],["least",-9.92215196315435],["secteur",-9.922971470885773],["autorité",-9.922991964027098],["Todo",-9.923227904349218],["genomen",-9.923661029095776],["respect",-9.924475492746662],["Premier",-9.924652879908843],["breng",-9.924714328647429],["Police",-9.92483258134862],["cre",-9.924963812590992],["along",-9.9257181466135],["Minister",-9.926172733955433],["After",-9.926352703003737],["prueba",-9.926629330870377],["passer",-9.92716548926633],["Red",-9.927443544306335],["journée",-9.928099676192435],["weekend",-9.930831462576922],["held",-9.930842643748747],["bal",-9.931219401021917],["système",-9.931428097759962],["joven",-9.93148663372359],["verschillen",-9.931579650492843],["valor",-9.93188322736773],["transport",-9.931922170152884],["sinds",-9.932876421120403],["simismo",-9.933869135284851],["99",-9.934537228248349],["precio",-9.934874487705013],["Como",-9.93577546405522],["markt",-9.935800788072129],["client",-9.935903202109792],["presse",-9.936075782188098],["Que",-9.936380614275166],["similar",-9.936561422703294],["línea",-9.936562590757685],["ió",-9.936562841311748],["eur",-9.937057389638738],["aide",-9.937179281242603],["nom",-9.9372664934937],["option",-9.937267032552846],["claim",-9.937288962433719],["bra",-9.93729363401011],["House",-9.937650303276229],["padre",-9.938089512684638],["ólo",-9.938163259876692],["took",-9.938470570483886],["lead",-9.938849400695865],["political",-9.939116962998778],["nunc",-9.939666829263349],["Washington",-9.939984374786295],["période",-9.940008518496182],["fund",-9.940047682706323],["ham",-9.940875063659256],["tweede",-9.942295255427588],["campagne",-9.943424179011783],["legó",-9.944508727335434],["rencontre",-9.945112106227803],["board",-9.945238005561894],["pueblo",-9.946875349186971],["largo",-9.947150470226976],["José",-9.947174243850565],["tri",-9.947529894829852],["enero",-9.948013196333948],["officials",-9.948910025267352],["iemand",-9.94981937920298],["administration",-9.950395495051172],["zie",-9.950591736661977],["Macron",-9.952158594139863],["recht",-9.95382586388904],["Unis",-9.953976388945357],["North",-9.954051331546449],["familiar",-9.954360260362268],["Ministerio",-9.95557644882701],["Cela",-9.955749950395257],["informe",-9.955862399883628],["doesn",-9.95611166651955],["dollars",-9.95625047579653],["FC",-9.956708988735407],["space",-9.956851494898762],["moi",-9.956931021804131],["violence",-9.957316255231213],["maison",-9.957749463096418],["membres",-9.957796721747357],["uillet",-9.957855071438372],["provincia",-9.958767485942104],["rue",-9.958927269845107],["gelede",-9.959040830469668],["talk",-9.959124484193268],["apoyo",-9.9597547852546],["muerte",-9.960847659463603],["ayuda",-9.961404689624882],["prochain",-9.961852269461428],["festival",-9.962696555004964],["organiza",-9.962793076619182],["novemb",-9.962930334405034],["meeting",-9.963115795615723],["seul",-9.96351560942512],["stond",-9.963882262109234],["campaign",-9.964312321499833],["budget",-9.964315605931272],["Ri",-9.964688957817707],["Carlo",-9.964990113090881],["party",-9.965557573809415],["tell",-9.96603545126317],["población",-9.966072819297434],["berg",-9.967464555758957],["abord",-9.96756243480052],["arrive",-9.96778331279471],["municipio",-9.967837490185794],["fuerte",-9.967849569815062],["problème",-9.96786510078168],["debido",-9.967947677629578],["small",-9.968034733794559],["rá",-9.968514472503546],["55",-9.9686400428854],["désor",-9.969308888017814],["asegur",-9.969358667827585],["genoeg",-9.969608329727986],["maanden",-9.970773742512119],["figure",-9.971362136440423],["Ju",-9.971461334146541],["2014",-9.972239893544263],["Ils",-9.972401677540017],["38",-9.97265058104848],["guerra",-9.97316106761269],["among",-9.973258090457506],["Pi",-9.973473879155733],["gezien",-9.973827460061868],["milieu",-9.974815638927776],["Her",-9.975193515823143],["manier",-9.975445460687478],["vijf",-9.975886801213031],["justice",-9.976072626878581],["actuelle",-9.976301287220657],["once",-9.976313707500378],["bijna",-9.977604536009526],["poner",-9.977913701623937],["Yo",-9.978787793859055],["37",-9.978857134377513],["players",-9.978973538011493],["pues",-9.980004068657358],["third",-9.980330723895651],["baar",-9.980374104468039],["école",-9.980400298894743],["civil",-9.980572596509758],["unidad",-9.98159206079501],["permet",-9.982367791466036],["denk",-9.982480758847586],["cher",-9.983670935327428],["ejemplo",-9.983851072873062],["attack",-9.983857152449932],["mayoría",-9.984678797519553],["further",-9.9856651894693],["model",-9.985884984106459],["major",-9.986058982815075],["utant",-9.986857315619615],["legal",-9.986964863186595],["strong",-9.987465079301245],["jornada",-9.989247509760462],["publique",-9.989986545975238],["central",-9.990889480636586],["form",-9.991053696387224],["mensaje",-9.99107101272658],["direction",-9.991191116034344],["élection",-9.991509449763592],["évrier",-9.992860204458422],["llevar",-9.994024063677976],["zorg",-9.996076998889848],["rie",-9.997609656993497],["hold",-9.9992270320059],["espacio",-9.999370770915903],["availab",-9.99987805885764],["partij",-10.000027989765858],["measure",-10.000149192956739],["Amerikaans",-10.000458021910877],["souven",-10.000472901244457],["font",-10.0005448927908],["ruim",-10.000658085276577],["late",-10.001324247724597],["viene",-10.00168754969063],["protest",-10.002433808541266],["stop",-10.003684921690546],["recurso",-10.004120886397],["enkele",-10.00420909629178],["travel",-10.00446483955884],["consider",-10.004523410860784],["Universit",-10.00507234237827],["pez",-10.00516652359121],["Instagram",-10.005610737752939],["2015",-10.005642697919736],["hausse",-10.005969373113206],["certaine",-10.00620183674947],["Ro",-10.007031715335659],["Luis",-10.008684926782243],["soutien",-10.009106308022506],["effect",-10.010553627567297],["value",-10.010840657229714],["sexual",-10.011314346749355],["tic",-10.01140980500023],["motor",-10.011851520354636],["halen",-10.011917949333556],["football",-10.01296878927312],["ista",-10.014873806298244],["coach",-10.015687216357493],["chien",-10.01572960660038],["causa",-10.016234300370204],["rapide",-10.01711767074735],["combat",-10.01730196039458],["tema",-10.01790278398354],["demand",-10.01855995756631],["novi",-10.018574872200965],["estamo",-10.02063171342305],["bedrijven",-10.020654868041774],["septemb",-10.0211318087268],["grave",-10.021797939368046],["serai",-10.021990782156582],["rijden",-10.023685796587193],["challenge",-10.023838245061102],["buy",-10.024125577282888],["objectif",-10.024177442309405],["exemple",-10.024374697008902],["dicho",-10.024421472156245],["É",-10.025829665499563],["estas",-10.026915287097644],["avance",-10.028108963810874],["internationale",-10.028369974673144],["octob",-10.029752590067737],["weinig",-10.029753021634454],["straat",-10.030419934334148],["amente",-10.030469233843071],["goede",-10.030479369143926],["evento",-10.030591422186706],["starte",-10.030640643069944],["meter",-10.03215813004838],["attend",-10.032981081500612],["stead",-10.033155841882026],["offre",-10.033199407468409],["World",-10.033505038125234],["pesos",-10.035456143494319],["Real",-10.035584576518115],["genera",-10.035621509761445],["líder",-10.037286044413605],["alta",-10.039170076625615],["état",-10.039377333163912],["following",-10.039472859094284],["ataque",-10.04065991185686],["48",-10.041181208160104],["fight",-10.041458355829205],["list",-10.041472732062003],["Mark",-10.041607092344432],["score",-10.04243358723161],["fiscal",-10.043141527604611],["gedaan",-10.043455844155567],["visit",-10.044035713600032],["armée",-10.04418825205532],["firm",-10.044596198723577],["Grand",-10.044875384170272],["propuesta",-10.044905700966005],["profesional",-10.045389581298746],["watch",-10.046169728430268],["pic",-10.0463177147956],["junio",-10.046489247297316],["Da",-10.04731992632923],["participa",-10.047688983035997],["done",-10.04866267612348],["propio",-10.048695315289454],["policía",-10.048707319564308],["bio",-10.049265652337777],["rij",-10.049545604511733],["box",-10.049953850300595],["prijs",-10.050420835549746],["natural",-10.050458232627577],["Qatar",-10.050608761843767],["grow",-10.050624108353523],["decisi",-10.050943425833687],["dinero",-10.051062203144488],["amelijk",-10.051491178949082],["Final",-10.051631835920588],["interest",-10.052594060082534],["hotel",-10.053252266954331],["ros",-10.053317172875275],["ruso",-10.053842784027005],["tro",-10.054301096432209],["%)",-10.054410279796404],["vanaf",-10.056276580309385],["gewe",-10.056432062509497],["fille",-10.05665023029391],["Robert",-10.057665520099263],["try",-10.057831048017638],["Waar",-10.058030639048468],["événement",-10.05830399818821],["type",-10.058575031860398],["sch",-10.059011962735504],["official",-10.059802199088487],["communiqué",-10.060238448793276],["PS",-10.061333744571055],["plein",-10.061398919347056],["Even",-10.061772487409634],["economic",-10.062303382240435],["dejar",-10.06442090671762],["comunicado",-10.064813922257628],["quelle",-10.065642057982394],["octubr",-10.066063553183795],["percent",-10.066629528957844],["obra",-10.066753084357263],["environ",-10.066893198138457],["seizoen",-10.068014466641895],["forme",-10.068454990897017],["hub",-10.070144557655059],["sujet",-10.070864535941425],["kree",-10.071367240601099],["rôle",-10.071890623997385],["Donald",-10.071917661814084],["ña",-10.072072695702163],["meilleur",-10.072435198919571],["soci",-10.072654062535028],["muestra",-10.07284783333471],["estará",-10.072972084518785],["band",-10.073196133329972],["wear",-10.073817394461056],["économique",-10.073883672945541],["avril",-10.073884419000017],["woman",-10.074033868084204],["beetje",-10.074457714433786],["wind",-10.074623445966122],["Kie",-10.074840350540752],["expected",-10.07506635256271],["book",-10.075534040663577],["scène",-10.075893066974666],["Durant",-10.075944020366208],["human",-10.075949336849792],["busca",-10.07654928657838],["appear",-10.076631077809957],["ance",-10.076833768043862],["How",-10.076895601769017],["trabajador",-10.078485244241824],["parole",-10.079312125492748],["precios",-10.079518674010412],["platform",-10.079598221418868],["require",-10.079668916515388],["eigenlijk",-10.079919784936392],["confirmed",-10.080982571442554],["bring",-10.081476996331833],["security",-10.081753444461821],["gest",-10.082151538599724],["importanc",-10.082819271207136],["spite",-10.082910636660289],["room",-10.083054104851756],["Bi",-10.0847038462976],["65",-10.085346602433777],["terme",-10.085370739912117],["gaz",-10.085485524718703],["weken",-10.085921616102025],["existe",-10.085997803378419],["fun",-10.086046373060206],["gelijk",-10.086225042538242],["prochaine",-10.0865696629409],["septi",-10.086728895322514],["desarrollo",-10.086751153719618],["blijk",-10.087194751017334],["cap",-10.087209468880145],["asse",-10.087875966240485],["Sch",-10.087944327610757],["previous",-10.088011462526358],["evitar",-10.088048789305653],["opportunit",-10.088541795616365],["shot",-10.088871720567916],["américain",-10.090739890765526],["feu",-10.090754601754252],["culture",-10.091292490358637],["geval",-10.091622467569612],["April",-10.091726082935848],["rating",-10.09191200186064],["terwij",-10.092173373896571],["difficile",-10.092396943069192],["Ho",-10.092403864734276],["cción",-10.092553561602108],["mano",-10.092635514819907],["necesario",-10.09370603938176],["loi",-10.093716478661886],["cri",-10.093826722851077],["table",-10.094631453076065],["Over",-10.09488695037987],["Door",-10.095098480514032],["eron",-10.095602660331439],["Mundial",-10.095710151637956],["ette",-10.096097941728104],["Santa",-10.096431595716048],["commune",-10.096748302097287],["unique",-10.097459995138571],["compañía",-10.097717954297512],["imp",-10.097753961663066],["account",-10.097851078439305],["seem",-10.097950311415818],["bad",-10.098105052099143],["parce",-10.099489476655537],["fan",-10.09998972260621],["training",-10.100067538778783],["futuro",-10.100261856135305],["rang",-10.100725423401007],["known",-10.101045216054617],["remos",-10.101643135533504],["Policía",-10.101747698637748],["encontrar",-10.101791900750115],["tenido",-10.102245830273933],["leader",-10.10227843088966],["propose",-10.102292088643127],["thought",-10.102334208732326],["centrale",-10.103015271039162],["park",-10.103229915484027],["druk",-10.103935483386493],["candidat",-10.104189893096107],["riesgo",-10.104243821609717],["page",-10.104576882294529],["realidad",-10.104618876175682],["présent",-10.104889474792358],["attaque",-10.105117936027712],["experiencia",-10.105802457957495],["worth",-10.105866427768799],["release",-10.106147281428484],["vue",-10.106294017153562],["regard",-10.106699669661277],["protect",-10.10689007971273],["outside",-10.106895523006479],["comes",-10.107079279747381],["Tour",-10.109478360965076],["voi",-10.109589297015468],["troisième",-10.109880177751364],["accione",-10.11010207945078],["Some",-10.110263102830777],["actor",-10.111041035030691],["donner",-10.111358276126737],["sería",-10.1119451585004],["Air",-10.11283252816401],["vont",-10.11403210814166],["thuis",-10.114229374595192],["mí",-10.114369819855888],["matter",-10.11462928342012],["Not",-10.114704945122169],["père",-10.115567425304617],["Tout",-10.115593732411782],["check",-10.115612251212836],["candidate",-10.115757785334104],["Col",-10.11641759789143],["station",-10.117113501204937],["anunci",-10.117302608341468],["potential",-10.118028479489134],["June",-10.119858788165004],["Niet",-10.120636894701942],["building",-10.122066292343508],["According",-10.122273901816303],["dossier",-10.12238471809269],["nough",-10.122432046346177],["neem",-10.12298591230285],["forward",-10.12315201476337],["gebied",-10.124727609106362],["companies",-10.126230826359016],["performance",-10.126316124721379],["Bank",-10.127086970570055],["ras",-10.12750487167201],["billion",-10.128276812737393],["eind",-10.128445326796253],["Cor",-10.129551042570675],["aumento",-10.12959482178442],["safe",-10.130385389634887],["application",-10.13040744560701],["recherche",-10.130579778368809],["zorgen",-10.130698659712522],["games",-10.131309348665747],["cabo",-10.131629080503895],["développement",-10.132497948555262],["ball",-10.132657232954529],["39",-10.133820778822052],["prise",-10.133972551184343],["°",-10.13456960331849],["eerd",-10.13562952236381],["connu",-10.135669280858231],["material",-10.13585207554704],["œuvre",-10.136174377089517],["ziet",-10.136522594525175],["internet",-10.136585168658142],["victoire",-10.136657458544612],["Ni",-10.137619584354663],["hoor",-10.137768324733697],["weeks",-10.138025490364],["Comme",-10.138508299190317],["formation",-10.139844428927933],["prijzen",-10.139876910032115],["maakte",-10.13993048528599],["jeux",-10.140520904919287],["vragen",-10.14083039204337],["vrouwen",-10.141024747947789],["color",-10.141496135057082],["bord",-10.141816437116457],["store",-10.14226275833995],["story",-10.142497942955929],["jouer",-10.142604146277844],["original",-10.142943683588364],["province",-10.142946832512557],["kant",-10.142982217343],["wege",-10.14462139426405],["Ti",-10.144783289647705],["económica",-10.145051879242317],["énergie",-10.145051913390997],["avantage",-10.145694733815557],["reden",-10.146219709926008],["average",-10.146275441653497],["Google",-10.147163501051727],["rying",-10.147766454216805],["petite",-10.14780675664521],["ligt",-10.148654373131947],["44",-10.149045646158436],["aucun",-10.149068856710674],["prison",-10.149215003888557],["doctor",-10.149295435823618],["quick",-10.149580586014274],["Mc",-10.150476692418147],["vond",-10.151458857503819],["ajouté",-10.152039048866307],["resto",-10.152305528388496],["râce",-10.153204232448154],["ministère",-10.15351757131156],["overheid",-10.153793620562434],["mogen",-10.153884802260713],["stellen",-10.154977781218705],["news",-10.155537146834284],["probleem",-10.157777788705715],["denken",-10.15800832648545],["ère",-10.158513760517597],["residents",-10.158670267655873],["accident",-10.159243924114225],["saying",-10.159362572822726],["août",-10.159514050957501],["opération",-10.159518439363286],["respuesta",-10.15995207492753],["posibilidad",-10.160133354763952],["construction",-10.161183241242036],["Gu",-10.1613872280015],["député",-10.161918632850494],["capacidad",-10.162019421091987],["vandaag",-10.162056684170533],["Club",-10.162059301437608],["bureau",-10.162985765495499],["God",-10.163585460862812],["agreg",-10.165136502916347],["Val",-10.1655606885945],["digital",-10.165966967250538],["necesidad",-10.166352273887263],["autour",-10.166412866838002],["restriction",-10.166431627227404],["43",-10.167807767720358],["infection",-10.168059225626013],["42",-10.168125507696178],["limite",-10.168171536289815],["maintenan",-10.168367966106086],["tur",-10.168426107794971],["voiture",-10.168549982008027],["inicio",-10.168603697140302],["Don",-10.168997339817913],["conseil",-10.169305405538234],["haut",-10.170639215678243],["campaña",-10.170681481773812],["Can",-10.171011570380475],["Fue",-10.171135746473148],["iste",-10.171641845799519],["round",-10.17180464799872],["camino",-10.172868030059252],["prensa",-10.172902379152259],["America",-10.173082531117277],["aldu",-10.173279477382597],["manière",-10.173285922432441],["whe",-10.173824069172953],["gré",-10.173949206284664],["drive",-10.174845862947073],["special",-10.174941020644553],["Ram",-10.175006568171167],["explicó",-10.175095633682437],["stage",-10.176338650891559],["lijk",-10.178436602445966],["Johnson",-10.178781231324063],["research",-10.178909172968865],["double",-10.179435363826311],["ary",-10.180099247650421],["donné",-10.180842965126596],["parece",-10.182407476803679],["gosto",-10.18320835381234],["difícil",-10.1859177622649],["association",-10.185940982310708],["46",-10.186333088675262],["lleva",-10.186753201606908],["response",-10.186910717638655],["Ra",-10.186997040736895],["Jo",-10.187132029288104],["municipal",-10.187966471784154],["Hospital",-10.18811556922015],["terrain",-10.188172885400071],["medical",-10.188286514079929],["Tras",-10.18906371204089],["nosotros",-10.189373110704974],["estadounidense",-10.190318206764703],["Hu",-10.190352069002932],["Conseil",-10.190398653528625],["Cu",-10.190482981953748],["echter",-10.190500058865464],["vos",-10.190690865355759],["kosten",-10.191379192399674],["haya",-10.191969804932242],["Ten",-10.192484907939125],["cifra",-10.1927277177994],["elección",-10.193008515016324],["reason",-10.193419507225654],["résultat",-10.194738101651266],["target",-10.195003854114983],["pued",-10.195092720610896],["esos",-10.195132490908062],["town",-10.195300650713875],["mayo",-10.195687627884961],["werkt",-10.195913502844917],["amigo",-10.196472405480556],["ige",-10.196713884568693],["ker",-10.196945341621145],["vecino",-10.197056768064002],["calidad",-10.197093253372131],["profit",-10.197279662364089],["85",-10.198442588319356],["active",-10.198467088945211],["Inter",-10.199047682193779],["rente",-10.19915525423598],["miembro",-10.199178705430064],["reçu",-10.199179409742214],["Amazon",-10.199217428196256],["Center",-10.200139913946213],["ieron",-10.200341277569475],["ach",-10.200342736368679],["rio",-10.200849306550825],["claro",-10.200937594345344],["Com",-10.201780929618323],["break",-10.20218308652197],["condicione",-10.202673324445485],["naast",-10.202823454462097],["permis",-10.20283999713056],["financial",-10.202934093981835],["industr",-10.203270538727221],["California",-10.203482743905884],["web",-10.203536251273874],["energía",-10.203643781072554],["trabajar",-10.203842918791825],["content",-10.204180088881301],["radio",-10.204834526808998],["morning",-10.205893008563116],["prend",-10.206026673927692],["presencia",-10.206576712331758],["carrière",-10.206602808609496],["gang",-10.206678807161191],["idée",-10.207804454318655],["pareja",-10.207940363109174],["„",-10.208116222014317],["Afrique",-10.208128028589389],["seis",-10.208520789733491],["gros",-10.210088235829998],["Emmanuel",-10.21036353481124],["behind",-10.210367896662856],["regering",-10.210388968763912],["personnel",-10.210577427717636],["trouver",-10.210878535352506],["Nord",-10.210935508619446],["tomar",-10.211383968906286],["Vou",-10.212386677506093],["Dus",-10.212599785528983],["website",-10.212726265108117],["Martin",-10.213062320232808],["II",-10.213796800166234],["design",-10.21422147700321],["ización",-10.214492665432942],["gracia",-10.214823404952234],["palabra",-10.214881607980388],["maand",-10.2148882646005],["opera",-10.215052786884527],["voter",-10.215223175306642],["gún",-10.215390152119083],["deaths",-10.215927633568356],["Día",-10.215937512406587],["Iran",-10.21609585259119],["countries",-10.217154321901088],["sociedad",-10.217201729660216],["Centre",-10.21784956662946],["pandémie",-10.219403387508716],["zaterdag",-10.219403493555056],["phone",-10.21942273049672],["abilit",-10.21968928207198],["venta",-10.220368392224895],["vallen",-10.221056599848541],["talent",-10.22112394154463],["départ",-10.221315995548316],["econom",-10.221628876902376],["ruimte",-10.221653485245803],["role",-10.221961514032145],["mail",-10.223017224242827],["vorig",-10.22344084764293],["entidad",-10.223447590227755],["baja",-10.223546437451928],["Day",-10.223871700291422],["49",-10.223898583426813],["Department",-10.2239677992808],["Salud",-10.22399551061914],["arrivée",-10.224670844736131],["ves",-10.225092866802132],["single",-10.225613224519492],["liste",-10.226194514094173],["UE",-10.22651220505162],["ayant",-10.227029922062226],["bent",-10.227166747988107],["madre",-10.227257288159585],["planne",-10.22811492810633],["multi",-10.229967998554919],["regular",-10.229994041931775],["War",-10.230897384748332],["feature",-10.231203602759026],["middels",-10.231345438137165],["Central",-10.231488947245662],["dienst",-10.232061077372204],["camera",-10.233728388999625],["key",-10.234279959637608],["meest",-10.234409280822648],["produce",-10.234814486236715],["abril",-10.236163428185382],["ambos",-10.236630778644898],["focus",-10.237301060173431],["violencia",-10.23773215934184],["entire",-10.238054677621225],["nacht",-10.238172914839915],["hoog",-10.238238258580004],["enige",-10.238474984870974],["ander",-10.23849074946397],["heden",-10.238554699221368],["Jul",-10.23888929460578],["press",-10.239271197095185],["Super",-10.24001799964186],["woensdag",-10.240045950477926],["Centro",-10.240217301917523],["600",-10.241017321543158],["development",-10.241025504915747],["bas",-10.242026928512049],["demanda",-10.242883568044164],["pasar",-10.243041918034695],["dood",-10.243059064727486],["ncia",-10.244345460343737],["manifest",-10.244575263112559],["Poetin",-10.244697728196622],["zoude",-10.245106468804478],["mov",-10.245494048952708],["choi",-10.246361883286196],["Venezuela",-10.247022750757637],["édition",-10.247023882358187],["sort",-10.247261842290166],["Now",-10.247384814939696],["Star",-10.248954595769227],["August",-10.250096752197202],["gre",-10.25051462530499],["proces",-10.251239340782476],["released",-10.251732557238984],["senior",-10.251802955122496],["conjunto",-10.251808318974568],["history",-10.251957779193614],["alto",-10.252052024900348],["vivienda",-10.253223422655473],["Ex",-10.25326825336766],["plut",-10.253286384142108],["exist",-10.253314922049867],["recibi",-10.253738586739786],["pesar",-10.25381762585619],["additional",-10.253955036995716],["territoire",-10.254048500970107],["afirm",-10.254302194259562],["moyen",-10.254491692476527],["kort",-10.254564361476252],["photo",-10.254581063912996],["orden",-10.254584099069296],["mannen",-10.254861187980651],["wait",-10.255705318018226],["Park",-10.255766196051955],["mantener",-10.256226401276034],["Social",-10.25642621931757],["naam",-10.256728042615336],["aban",-10.256835736813386],["Qu",-10.257379806229547],["gestion",-10.25759218998093],["punt",-10.257901216403784],["volver",-10.258149486145768],["update",-10.25829651438945],["involve",-10.25849850874981],["anterior",-10.258649913912738],["febrero",-10.2587887114245],["kabinet",-10.258891673013295],["décidé",-10.259067545862342],["Open",-10.25916440992821],["delito",-10.259633598370696],["ganar",-10.25981601294726],["vin",-10.26019854661887],["199",-10.260490591381487],["47",-10.260931879152078],["Michael",-10.261143384636526],["sortie",-10.261217863865042],["Est",-10.261239724195942],["village",-10.26166836863879],["Bu",-10.261695471401374],["área",-10.262122815338408],["llev",-10.262457414311626],["surprise",-10.262992666444942],["isation",-10.26319103643894],["maandag",-10.263554273901786],["favor",-10.265631447927998],["succès",-10.265868964864698],["propos",-10.266368890699216],["concert",-10.266571591279838],["James",-10.266615466619815],["Ló",-10.267170822674242],["visite",-10.26760648105574],["institu",-10.267655649877806],["arme",-10.267686102133329],["indique",-10.268013470248661],["ière",-10.26806331394402],["character",-10.268242707541074],["virtual",-10.268250311387314],["proche",-10.26863521194803],["destac",-10.26909804567607],["tribunal",-10.269189914704445],["employee",-10.26930454320443],["66",-10.269354519977735],["regen",-10.270241447729749],["hoge",-10.270428980399306],["façon",-10.270636584607015],["reunió",-10.271671524977052],["Luc",-10.271708845655056],["belle",-10.272893541801444],["cara",-10.273069801884372],["tar",-10.273185564219103],["travers",-10.273187677670695],["situatie",-10.273356847958038],["relate",-10.273532102939985],["habitant",-10.273845392537176],["leave",-10.273883804150405],["venes",-10.274040068573267],["gue",-10.274529269209282],["Qué",-10.274923513634413],["gave",-10.27534808929827],["goal",-10.275666274742202],["único",-10.275688428127623],["region",-10.27630560071024],["reciente",-10.276456052039725],["gra",-10.277343329474785],["tjes",-10.277410457349173],["article",-10.27744289072689],["comenz",-10.277557570715253],["iba",-10.277715074948407],["Suisse",-10.277864235922266],["vrijdag",-10.277990085469549],["lives",-10.278722662317957],["operation",-10.278904542131427],["trav",-10.27999428085199],["Street",-10.28028634216654],["track",-10.280908671870993],["gevolg",-10.281452773956797],["ag",-10.281908505212627],["?”",-10.282253617793295],["familie",-10.282299290965579],["attention",-10.282656230189197],["Michel",-10.283115393705849],["often",-10.283576612235096],["dû",-10.284303880403376],["vidéo",-10.284420947261065],["franc",-10.284891763256525],["unning",-10.28555645514524],["animal",-10.285626347333434],["Gar",-10.285632908866098],["stuk",-10.286031604218557],["ingreso",-10.286280806657704],["alrededor",-10.286498293579733],["capacit",-10.286808543102087],["iving",-10.287304109772073],["enfermedad",-10.287505708697896],["suspect",-10.288238732961801],["trouve",-10.288278660767507],["White",-10.288326712644224],["mooi",-10.28917027625586],["lever",-10.289496871976185],["trabaja",-10.289505862225372],["factor",-10.289507003126797],["detail",-10.290297485419908],["saw",-10.290770076953184],["Tom",-10.29103995289141],["camp",-10.291153339907375],["41",-10.29118501272745],["salir",-10.29123659449742],["safety",-10.291636444080492],["expect",-10.291807774118436],["95",-10.292212038356027],["intérêt",-10.29237652710917],["langer",-10.29260826714396],["recover",-10.292832116525812],["confirm",-10.29300410008841],["presenta",-10.293149324450278],["amor",-10.293472803328505],["tier",-10.293904926524196],["debate",-10.294216381084603],["Putin",-10.294423055288302],["diferencia",-10.294821516017034],["média",-10.294879690713579],["donnée",-10.295115138278495],["grootste",-10.295211614702524],["customer",-10.295391123231735],["clave",-10.295548564712742],["cor",-10.295992638070075],["cierto",-10.29661374004187],["School",-10.297277779228867],["cuanto",-10.297302582663018],["Service",-10.297304378206341],["plataforma",-10.297306280099317],["hoger",-10.297349842497091],["emment",-10.297397194079833],["UK",-10.297594732831154],["gebruikt",-10.29783350138251],["raise",-10.297950172552708],["Gi",-10.298460430316904],["child",-10.29847945580473],["español",-10.299396674682598],["acht",-10.300106640119875],["plek",-10.300594675111904],["Alle",-10.300854504846011],["PP",-10.301660625697393],["grado",-10.302110981471282],["benefit",-10.302266740918988],["Ahor",-10.302342411459463],["vit",-10.30244859954477],["letter",-10.30245186988416],["grond",-10.302485862189187],["campo",-10.302860392881854],["aquí",-10.30318264152325],["danger",-10.303532539486316],["necesita",-10.303738255091545],["count",-10.303955663713484],["uando",-10.304216552003986],["eleccione",-10.30429316472421],["ukrainien",-10.304392651783282],["económico",-10.304661690010448],["significant",-10.304817231212702],["black",-10.305140861668722],["150",-10.305461785228388],["zat",-10.306231571217328],["spelen",-10.306681826121185],["menor",-10.306767951842488],["cantidad",-10.307181326684805],["graag",-10.307274106977342],["iPhone",-10.307325256039997],["etc",-10.30885171923406],["realiz",-10.309086882750641],["bol",-10.309251201229372],["vehicle",-10.30961836967623],["nadie",-10.309764075390763],["efecto",-10.309767618088411],["AFP",-10.309912554670486],["reduce",-10.309932658693565],["access",-10.310201036833295],["Our",-10.310443033614654],["avion",-10.310511997026316],["donne",-10.310617151755329],["began",-10.31107626570542],["Pen",-10.31196099382163],["victoria",-10.312162247932733],["betalen",-10.312273840539184],["plazo",-10.312350699630274],["maire",-10.31276387407111],["nuit",-10.31321423260611],["structure",-10.313264216054705],["read",-10.31354955055605],["Ba",-10.313657857755867],["lancé",-10.313781076457365],["midi",-10.313918942917645],["http",-10.314571629890427],["Liga",-10.314991621923015],["800",-10.315044771990186],["zaak",-10.316230045140994],["52",-10.316930358862237],["elke",-10.317381267770273],["motivo",-10.317747779106199],["leg",-10.318179946938406],["argent",-10.31837045718662],["Chi",-10.318574043291935],["jefe",-10.318582117896284],["lograr",-10.318609676733757],["road",-10.318789526417142],["gobernador",-10.319628233445446],["pago",-10.32008362567337],["Ante",-10.321508532510236],["meet",-10.321678468859103],["vaccine",-10.321687499248505],["inflación",-10.322125314403307],["signe",-10.322861832031858],["coût",-10.323329548676774],["Tu",-10.32367010465778],["friends",-10.324052959929082],["humano",-10.32421542489855],[":/",-10.324266531874294],["gekomen",-10.324416277829435],["¡",-10.324608442344699],["ciudadano",-10.324975933699545],["cul",-10.325146805312599],["carte",-10.32538201049687],["viaje",-10.32598031227831],["usuarios",-10.326179045549729],["pense",-10.326399887200068],["heart",-10.326633401559818],["élu",-10.327051051649848],["His",-10.327507818687042],["offer",-10.327641170447379],["member",-10.328312281306808],["technique",-10.32901461963312],["Hier",-10.329183171464546],["Wij",-10.329225865798762],["assure",-10.329615514740201],["qualité",-10.329880749116427],["cal",-10.330159031959976],["doive",-10.330308614183222],["ither",-10.330549863439145],["Bal",-10.330812216226425],["Court",-10.332088933183552],["George",-10.332241184207323],["effective",-10.332352346542981],["Francisc",-10.332470422001933],["aria",-10.33251894377962],["isme",-10.333869670142203],["ful",-10.333923948824957],["hôpita",-10.334776875040266],["étude",-10.334874366211366],["leden",-10.334944796435753],["beste",-10.335145909376667],["outbreak",-10.335386577322755],["artista",-10.33643092843197],["duda",-10.336452827307216],["vente",-10.336653499197553],["bill",-10.3373330795454],["ship",-10.337465940169487],["fast",-10.338822903590899],["winter",-10.339516826890678],["spend",-10.339844734277591],["haciendo",-10.340047668445727],["européenne",-10.340110315743601],["Dur",-10.340461145469494],["juste",-10.34069298683858],["enorme",-10.34075899762258],["plu",-10.341038002648753],["pod",-10.34130211874081],["leggen",-10.342098677242081],["totaal",-10.343695295853923],["sabe",-10.344275714314069],["families",-10.345400334728645],["gegeven",-10.345417381073128],["permite",-10.34554693350656],["moeder",-10.345608890329192],["savoir",-10.346403769127361],["Netflix",-10.347597552767123],["dinsdag",-10.347621372237414],["noticia",-10.347652534953461],["argument",-10.347669251288806],["ated",-10.348288141484126],["Va",-10.348315286904008],["communication",-10.34835258344604],["lucha",-10.348441906965002],["follow",-10.349018771236516],["marz",-10.349031341053912],["ix",-10.350069113056303],["ayer",-10.350079717757911],["película",-10.350182030131894],["principio",-10.350188907472113],["ahí",-10.350411544212367],["livre",-10.350941090997214],["buen",-10.350991785608787],["compromiso",-10.351198611804243],["view",-10.35137588776114],["shows",-10.35258136743104],["Belgi",-10.352733306575821],["private",-10.352772635293999],["ningún",-10.352863686843634],["cœur",-10.35293730468483],["peine",-10.352996025432784],["acceso",-10.353253625789607],["protection",-10.353879749044639],["terre",-10.354342817587789],["AP",-10.354736723204724],["trans",-10.355362122708733],["Daniel",-10.356052268578921],["corps",-10.357207468789946],["pied",-10.357405189159987],["Ciudad",-10.357846607250803],["pequeño",-10.35797393718707],["contrôle",-10.358006057603902],["bre",-10.358921475429494],["ario",-10.359014265962415],["visto",-10.359197981468268],["Max",-10.35959726653307],["manager",-10.361337118505258],["genre",-10.361465853069483],["times",-10.36160335877561],["music",-10.361829428711376],["esté",-10.362229338899164],["opposition",-10.362801028350901],["initiative",-10.36328485485988],["investigation",-10.363438808950436],["bout",-10.363482661121054],["pot",-10.363568979405823],["modelo",-10.36421890990658],["interior",-10.36429126439588],["mejore",-10.36436884674712],["sign",-10.364421401144867],["cabeza",-10.364543265307098],["valt",-10.365135046455208],["valeur",-10.365610182612755],["modo",-10.365819453968102],["soon",-10.365934809710671],["negocio",-10.366058047534866],["oud",-10.366309997417368],["gol",-10.36667451166577],["pie",-10.366786277497585],["Mat",-10.366867154294768],["57",-10.367059803946574],["chief",-10.367373344367293],["luz",-10.368444421512816],["Januar",-10.368491836695158],["Ali",-10.36900403938116],["comunica",-10.369611320603152],["institution",-10.370422718781903],["celebra",-10.370428785383684],["actie",-10.37110443264583],["vista",-10.371255883368503],["nord",-10.37136373582598],["Green",-10.372953759729732],["arm",-10.373127612577314],["nombreuse",-10.373276770272831],["Eso",-10.373747901544998],["habría",-10.373799394149774],["OS",-10.373944620435498],["propre",-10.374926378958811],["mini",-10.375731667201551],["rendre",-10.375825755447856],["Wie",-10.378096102004292],["regel",-10.378139423828802],["ensure",-10.378262929747864],["rendu",-10.378402432170244],["générale",-10.378721577348093],["zondag",-10.379060728583243],["bouw",-10.379565357172222],["agent",-10.379649611547496],["rechter",-10.379924690246671],["ending",-10.38038305058153],["hablar",-10.381115470971784],["States",-10.381286318371355],["hart",-10.381367145224605],["volledig",-10.381742394093802],["lie",-10.38233820995034],["aucune",-10.382397773858745],["explica",-10.382484594923833],["walk",-10.382614604204473],["hoop",-10.38269064570252],["someone",-10.383258504570257],["directe",-10.384148028808527],["mundial",-10.384314802898352],["72",-10.384410847378867],["bond",-10.384466985512613],["earlie",-10.384644734809676],["Texa",-10.38473274767735],["Villa",-10.384757704562105],["64",-10.385321327606283],["cita",-10.386791311632791],["playing",-10.387452722706772],["Pierre",-10.38746763675395],["punten",-10.388234542282774],["Kan",-10.388647659913886],["organisatie",-10.388727856061731],["langs",-10.388839144525129],["verhaal",-10.388990218290182],["nécessaire",-10.389764513811436],["Barcelon",-10.38976471570736],["donderdag",-10.389778187729423],["ische",-10.389817859006007],["Smith",-10.389828748866458],["ores",-10.390308865971047],["tre",-10.390487483842485],["difficult",-10.390810203280433],["fundamental",-10.390819988264566],["Commission",-10.390922390618432],["plane",-10.391084206780532],["lista",-10.39216469010328],["construc",-10.392318110823465],["serious",-10.39257190885169],["programma",-10.393013691322874],["tivo",-10.393070640529146],["Japan",-10.393147280816343],["EE",-10.393348027615243],["Federal",-10.393373139907919],["mont",-10.393630642727862],["beeld",-10.393933588805268],["toward",-10.394192694525703],["playe",-10.394833634389116],["Oekraïens",-10.395162633298959],["emergenc",-10.395199891503733],["Colombia",-10.395231151089053],["fase",-10.395805334394968],["André",-10.395843582531606],["ving",-10.396084832334079],["veld",-10.396123141576883],["Peter",-10.396279088061359],["rend",-10.396301633648955],["mère",-10.396469646812593],["Group",-10.39647194076426],["activit",-10.396747494844861],["ploeg",-10.39727429492838],["economía",-10.39844104118633],["gui",-10.39890376022797],["ernández",-10.400369297952128],["próxima",-10.400590052553646],["disease",-10.400593845220822],["Rutte",-10.400607642819088],["sept",-10.400627331196624],["68",-10.400904784919287],["ient",-10.401119198454216],["dura",-10.401153223086574],["nature",-10.401360447750381],["beleid",-10.401429682383263],["zeer",-10.40148042951537],["funciona",-10.401496675124676],["jij",-10.403092075099238],["miles",-10.403190027940635],["gauche",-10.40335134645559],["uiteindelijk",-10.404542117098655],["richting",-10.405111835697468],["mother",-10.405149918398868],["opening",-10.405281503806725],["sanction",-10.405809593231787],["player",-10.405837666945526],["authorit",-10.405922785203105],["visita",-10.407490268682771],["précisé",-10.40781243191137],["criminal",-10.408707922914031],["puerta",-10.408791108898615],["sanitaire",-10.408804632777287],["rappel",-10.409397335906563],["slag",-10.409843426508285],["atie",-10.410279696258693],["Just",-10.410395449778846],["Wel",-10.410464428054787],["mode",-10.411260145273838],["siete",-10.411283518063861],["territorio",-10.411539496643886],["matière",-10.411566748960158],["María",-10.411614676078472],["58",-10.412081601968866],["Brit",-10.412401202288851],["perdu",-10.412705133802872],["boeren",-10.413437430537408],["victim",-10.413790880049145],["suggest",-10.414287940494727],["cour",-10.41455394024765],["ouvert",-10.414579601957668],["ongeveer",-10.414769083625963],["compare",-10.415490124229905],["Bra",-10.415610520009611],["serve",-10.415796206538433],["appelé",-10.41599395988121],["reach",-10.41607009073007],["llega",-10.416164583595528],["jugar",-10.416214295533255],["International",-10.416591426238135],["cijfer",-10.417051697001195],["covid",-10.417068043113677],["vive",-10.417282759728831],["vak",-10.417951470352858],["fútbol",-10.418772167481755],["Mac",-10.4197728199192],["executive",-10.419821402655245],["Manuel",-10.41988767990972],["More",-10.419959409871435],["dés",-10.419993097685438],["pudo",-10.420242134816913],["houdt",-10.420523528538876],["dieron",-10.420563787995025],["micro",-10.420692538121658],["eurs",-10.42086678226417],["voy",-10.421025008699065],["phase",-10.421071960622358],["propia",-10.421135564299545],["changement",-10.42148172940588],["espace",-10.421810542957743],["paciente",-10.422600656936982],["periodista",-10.422896494997978],["aange",-10.422962238285834],["entrada",-10.423239685193032],["waarom",-10.423698342440805],["única",-10.424174189056071],["mark",-10.424283534900802],["waardoor",-10.425294191323184],["wilde",-10.426622097260386],["district",-10.426663279794576],["Hoy",-10.42695758515185],["welke",-10.42765547751408],["elemento",-10.428044563483233],["Después",-10.428178035799174],["communauté",-10.428178115468533],["tarjeta",-10.428178765142516],["siguiente",-10.428324142538402],["iones",-10.429319148784275],["liggen",-10.4296562512666],["écrit",-10.429740211338418],["ordre",-10.429927160575303],["speak",-10.430103136656026],["contrat",-10.430588542961654],["76",-10.430909683650945],["oog",-10.430928497518813],["immediate",-10.430979132346383],["transition",-10.431045228931747],["fond",-10.43151284161991],["origine",-10.431773633160558],["jou",-10.431988733736787],["54",-10.432471808905241],["expérience",-10.433788101489924],["llí",-10.434249483125608],["ground",-10.434456774609359],["Amsterdam",-10.434462816200645],["estime",-10.43579504700984],["concerne",-10.436237078702261],["conclu",-10.436354579529596],["práctica",-10.436605001404127],["économie",-10.436605171099245],["People",-10.436611648850299],["quartier",-10.436715587114794],["llowed",-10.437524572253036],["zaken",-10.437688489991674],["quant",-10.438200495827438],["adelant",-10.43822199985999],["rem",-10.438524588625524],["particulière",-10.439429869242547],["pratique",-10.439432812898016],["agente",-10.439542319072544],["Charles",-10.439545509858675],["prévu",-10.439848308573465],["réussi",-10.440345445434582],["escenario",-10.44043087811001],["cliente",-10.440526796030733],["Want",-10.44062100859928],["termin",-10.440863802436905],["facilit",-10.440889661946695],["67",-10.44194309929438],["Nigeria",-10.442057255825585],["career",-10.442237081634088],["técnico",-10.442260568431362],["September",-10.442262721422116],["modèle",-10.44226312312507],["crecimiento",-10.442273259677243],["wrot",-10.44252047644037],["objet",-10.442800609862902],["deben",-10.443629187365207],["belangrijk",-10.44386189852476],["sait",-10.444032169466466],["ieder",-10.44445239472405],["journaliste",-10.444479266103336],["marque",-10.444662813220308],["prêt",-10.444846724956598],["industrie",-10.444970840599982],["vamo",-10.444999234961866],["honor",-10.445232152585149],["needs",-10.445742647402202],["Casa",-10.446237135161724],["girl",-10.446830403636262],["agenda",-10.44718747322172],["representa",-10.44757781570872],["wante",-10.447930326096134],["miljard",-10.448162907235346],["nothing",-10.448724277840805],["ocho",-10.449040894828308],["title",-10.44909676709084],["Novemb",-10.449447528322228],["estudio",-10.449567935493274],["partner",-10.449573596035933],["lid",-10.450877800768621],["class",-10.450974096008897],["Congreso",-10.451122781233174],["friend",-10.451265107215232],["pool",-10.451290153790275],["62",-10.451507710446634],["Plan",-10.451601020292419],["rrière",-10.45241081882334],["movie",-10.452411318586435],["zoveel",-10.452547767808554],["Bien",-10.453169697931742],["78",-10.453375962130874],["titular",-10.453518764702991],["Octob",-10.45368167271361],["parties",-10.454043942375607],["Pedro",-10.454115926336295],["entrée",-10.45450298132275],["Bay",-10.454678581944506],["soi",-10.4548356231465],["q",-10.455175648702038],["parler",-10.455431010638382],["eight",-10.455535958309394],["zag",-10.455703183176592],["bied",-10.455901759145586],["ará",-10.455944420679296],["ira",-10.456208833940718],["pou",-10.456293312944299],["address",-10.456540115082733],["amount",-10.456701622801948],["seconde",-10.456943835128541],["kleine",-10.457401773954912],["interven",-10.457981671934746],["77",-10.458071438158754],["perfect",-10.458200673950737],["ating",-10.458233555809189],["esas",-10.458371028653481],["Chief",-10.459470837975932],["kilometer",-10.459473260591693],["gusta",-10.459844240926268],["acto",-10.45997766009392],["plaza",-10.460205724206936],["opge",-10.460654656400894],["Act",-10.461258610441863],["zomer",-10.461351638876762],["study",-10.462337142164714],["discussion",-10.462414245343167],["rival",-10.463302859302274],["Bas",-10.46422666926669],["Mont",-10.464700449396531],["seguro",-10.464891993269067],["música",-10.46521925619386],["accè",-10.465223309061919],["var",-10.46524079155504],["ities",-10.465322642633236],["trekken",-10.465820981522327],["leuk",-10.46625824849498],["Australia",-10.466923182203875],["fri",-10.467034827760926],["tir",-10.467671585879518],["Nation",-10.467833584294413],["rán",-10.46791170663111],["2010",-10.467958290448284],["République",-10.468150103079351],["Universidad",-10.468160079996242],["Marc",-10.4687606645791],["88",-10.468818624806401],["mejorar",-10.469509214215606],["ampoco",-10.470234928873083],["suma",-10.471016288326886],["máximo",-10.471041666343865],["college",-10.471078369516423],["habrá",-10.471217841395234],["distinto",-10.471787772364657],["strijd",-10.473052570501572],["deliver",-10.47361385321012],["vuelta",-10.47398705988467],["loos",-10.474145506836035],["Coupe",-10.47416004916506],["República",-10.474264064077936],["doute",-10.474767863356787],["responsables",-10.475141072505206],["rise",-10.47566148134969],["prima",-10.475931171635352],["político",-10.476222544490522],["localidad",-10.476558740721433],["53",-10.476572170173188],["Democrat",-10.476881027523307],["defensa",-10.476930881629496],["Play",-10.47712434135734],["mètre",-10.477819750114707],["2000",-10.477942392284643],["hors",-10.478281405096935],["Toda",-10.478324199190782],["accidente",-10.478352052111482],["juge",-10.478708094629113],["gezet",-10.479164914269829],["forte",-10.479387030694799],["leaders",-10.479501357328886],["présence",-10.479842189302229],["precie",-10.479921233908128],["oferta",-10.480024107487608],["niks",-10.480109423228757],["location",-10.480346498247222],["vot",-10.481088758875014],["Port",-10.481236331991028],["labor",-10.481368378959207],["dix",-10.482018904894954],["movimiento",-10.482799216016748],["mantiene",-10.482913635572405],["white",-10.482994507603504],["96",-10.48308339552813],["agree",-10.484471103442068],["mondiale",-10.484479318309521],["russes",-10.484527553613635],["decade",-10.484585631103634],["2012",-10.485247594696487],["permettr",-10.485754320188466],["schedule",-10.485763590124618],["Civil",-10.485780327785175],["beteken",-10.486220724356171],["ria",-10.486550535612867],["vert",-10.486593453304593],["artiste",-10.487700868782401],["ogen",-10.488101660569265],["nam",-10.488730860072316],["Thomas",-10.48873364590943],["daily",-10.488892627826823],["impacto",-10.489102311966937],["élève",-10.490138782146584],["loopt",-10.490331452363463],["particip",-10.49088533609255],["Har",-10.491301079071793],["voie",-10.491415387799659],["Qui",-10.492118392392097],["89",-10.494190651483684],["citoyen",-10.494412895623752],["défense",-10.494485416356532],["klimaat",-10.49467995140735],["attempt",-10.494716959514317],["voto",-10.495025273928082],["lorsqu",-10.495112330578824],["retrouve",-10.495178131220666],["album",-10.495359403228825],["saber",-10.495520585525263],["poll",-10.49588832192045],["ador",-10.496043278542945],["alcalde",-10.49626882191836],["tax",-10.496276750298009],["vader",-10.496343674052994],["product",-10.496527135281505],["montre",-10.496633922452602],["Israël",-10.496696383266409],["scene",-10.497049147393374],["hulp",-10.497068418258312],["entrega",-10.49731030717468],["seek",-10.497532242956723],["rare",-10.497784826965539],["others",-10.498527759983826],["pur",-10.49862603597234],["250",-10.498676351803612],["mind",-10.499411656700868],["bri",-10.49957362092604],["father",-10.500648509772677],["différente",-10.500669662902464],["iza",-10.50077390962634],["multiple",-10.500803018786204],["growth",-10.500978092827522],["encourage",-10.501207389261115],["Za",-10.501390248162853],["eeded",-10.501673730673872],["bare",-10.502394236492169],["elijk",-10.5025520370096],["contar",-10.503015718056819],["voetbal",-10.50317187004038],["moeilijk",-10.503188315443866],["roll",-10.503382806721014],["Sud",-10.503722739762825],["Bou",-10.503843101716685],["interés",-10.503964218938457],["centrum",-10.504491034789641],["chat",-10.504659411414917],["derde",-10.504691968151725],["kille",-10.504966268789108],["Fi",-10.505428509947292],["vision",-10.50562001433314],["longer",-10.505836205306004],["presentar",-10.506290219754302],["uitge",-10.50665126510977],["nummer",-10.506739393833769],["époque",-10.506743252706395],["arrêté",-10.50685005413698],["raad",-10.506863341312021],["Arm",-10.507128863095538],["kopen",-10.50716782012914],["capable",-10.507297219509184],["vorige",-10.507497084624093],["lower",-10.507630647005566],["quedar",-10.508267618421332],["ergens",-10.508346294363285],["mental",-10.50840872190059],["bigge",-10.50851680874862],["pagar",-10.50861441194894],["guy",-10.509513694503617],["tenga",-10.509652363239736],["kilómetro",-10.509736984435367],["loin",-10.510433189333497],["reprise",-10.510714836246887],["song",-10.511869599460875],["echnology",-10.512201787402802],["systeem",-10.512775018452437],["mouvement",-10.512776476683761],["esfuerzo",-10.512776504073104],["éxito",-10.512777852327083],["pop",-10.512862097815384],["Louis",-10.512896237849755],["fonction",-10.513084723101098],["lekker",-10.513284075344341],["exact",-10.51380183361734],["understand",-10.514878142100606],["actions",-10.514957975850937],["user",-10.515006830319525],["minute",-10.515343160947245],["pression",-10.515766844895937],["Vladimir",-10.515825246531023],["emploi",-10.515884929187088],["entrevista",-10.515936206361113],["libertad",-10.516464239876225],["dicht",-10.516642036782756],["uff",-10.516853547427552],["vaccin",-10.51700127885649],["tech",-10.517808772243605],["capacité",-10.517917975663604],["sitio",-10.518023016717326],["européen",-10.518614706920474],["garde",-10.5188159931393],["partijen",-10.518874951043738],["título",-10.518883417265414],["Musk",-10.519375316226267],["bueno",-10.51962801198334],["marco",-10.520158516535737],["King",-10.520462069143667],["69",-10.520584312940517],["Mal",-10.520698742506504],["card",-10.520809246324625],["rester",-10.52082490171707],["Ville",-10.520926332829745],["usual",-10.521093388764506],["doel",-10.521504434530518],["imos",-10.521881906749144],["Consejo",-10.521950867737786],["VS",-10.52218360912126],["enfant",-10.52219126118946],["Bueno",-10.522255533616793],["regional",-10.522956757122143],["différents",-10.523841434625597],["Aan",-10.523890585521162],["industria",-10.52396298952499],["candidato",-10.52413663081019],["wanne",-10.524709017338925],["Africa",-10.524761177300999],["mid",-10.525083135215166],["Government",-10.525222616718299],["demandé",-10.525589421014757],["stem",-10.525664582852915],["marcha",-10.526547067955862],["nieuws",-10.526722117361619],["fuego",-10.527619229571012],["Maroc",-10.52799190739613],["alcohol",-10.52811554466344],["essential",-10.52812055980513],["ochtend",-10.528122626896856],["argentino",-10.528179744342676],["olie",-10.52818131291172],["responsabilidad",-10.52829057108491],["periode",-10.528605952653002],["DC",-10.529448526711294],["rekening",-10.530410369422802],["longue",-10.53054842023235],["practice",-10.530698765911197],["distanc",-10.530783527423022],["bezig",-10.530836008943915],["cast",-10.531112119128473],["ecember",-10.531162486305682],["escuela",-10.53131376407294],["participar",-10.531862414980782],["management",-10.532275593219719],["clara",-10.532446322905209],["daarom",-10.532505742033722],["bak",-10.53288983871158],["79",-10.533200113060767],["capitale",-10.533318859822723],["droite",-10.533526084139112],["bot",-10.533642194612941],["studio",-10.534135529261611],["vorm",-10.534193911957994],["tecnología",-10.534315735283423],["smartphone",-10.534335216521317],["lutte",-10.53453847228343],["department",-10.534744127370505],["middag",-10.5347840758138],["cultura",-10.5348807525817],["maatregelen",-10.534881676404318],["Bat",-10.534900684252984],["detalle",-10.534942755663696],["positivo",-10.535128249777392],["rust",-10.535791717279753],["59",-10.536367235186873],["trip",-10.536472735151658],["ayudar",-10.536578251198726],["block",-10.536642924820665],["ski",-10.536899123756726],["Ru",-10.536929326661923],["Français",-10.537430999733107],["audience",-10.537432172452501],["iniciativa",-10.537439369433876],["relationship",-10.537468083629857],["driver",-10.537666407066586],["Februar",-10.537747103176951],["étudiant",-10.537939274228231],["accusé",-10.538227628090976],["grands",-10.538367154557296],["rich",-10.538797628949073],["metros",-10.539912953528551],["administra",-10.5402397925574],["Bel",-10.540269529937921],["huizen",-10.540730178713888],["década",-10.541062743045487],["eguridad",-10.541410890588047],["build",-10.541752000911604],["Mijn",-10.541874643047443],["aider",-10.542643743062992],["Poutin",-10.543799283895899],["volume",-10.543837462651375],["répond",-10.543926551438814],["inside",-10.543971784984366],["revenue",-10.544040036229923],["wife",-10.544068694741979],["incluye",-10.544321907392368],["hacen",-10.544597840363775],["meilleure",-10.546049741616507],["América",-10.546483250365036],["extrême",-10.546835447201703],["debería",-10.547067025703111],["écran",-10.54719215417033],["fra",-10.547597408739783],["51",-10.547636092175974],["propert",-10.547791813827471],["quality",-10.547975206339501],["Ça",-10.54839571792596],["Mario",-10.549200808752383],["acte",-10.549250388316892],["Sport",-10.549373092022247],["dig",-10.54941714263018],["Prime",-10.549494457765627],["tension",-10.549919184635666],["particulier",-10.549990063507764],["example",-10.54999452177054],["quarantine",-10.550026982755977],["précise",-10.550097152165588],["FA",-10.550110227910476],["genes",-10.550153832516909],["News",-10.55027414871206],["tengo",-10.55052558304654],["curso",-10.55068954276012],["Men",-10.550729026131098],["avez",-10.552296481368767],["elles",-10.552435563681659],["63",-10.552780380100677],["infrastructure",-10.553154976084965],["presión",-10.553368664812764],["CEO",-10.55341230817248],["mot",-10.553674557156803],["jonge",-10.55384015673485],["atteint",-10.553843309859102],["amenaza",-10.553901131179707],["ninguna",-10.554788480634318],["étant",-10.555226372939199],["tasa",-10.555323986972802],["Comis",-10.555477827791133],["Antoni",-10.55561996767114],["honderd",-10.556301026414127],["print",-10.55678589376604],["huidig",-10.556804296276507],["whole",-10.556978546910232],["flink",-10.557150018860153],["Tri",-10.557309895920934],["states",-10.557908086275491],["américaine",-10.557908563494259],["range",-10.557983887955604],["happ",-10.558061253908761],["totale",-10.55819039939858],["Net",-10.558259599326949],["voit",-10.558751143104445],["limit",-10.558861361601252],["lucht",-10.5592041664392],["Many",-10.55935962823314],["spot",-10.559431337008867],["établissement",-10.559521015671844],["liet",-10.55963934940291],["describe",-10.559882752623626],["cro",-10.560197268705835],["française",-10.560378659677301],["majorité",-10.560622774512591],["policier",-10.56092834762648],["73",-10.561284514679514],["vertelt",-10.562157420355614],["añadi",-10.562608124083516],["lluvia",-10.56273552488838],["plateforme",-10.56275873898115],["ofrece",-10.56377529028592],["Bill",-10.564336763966145],["revenu",-10.564505120515308],["armes",-10.56451644629967],["ï",-10.564658290690176],["zin",-10.565062269164416],["contrato",-10.565392925796022],["pick",-10.565410791294266],["zoek",-10.565676447953049],["fácil",-10.56593238122463],["superior",-10.565948794274377],["clase",-10.566079335916186],["Ains",-10.566166809538558],["aï",-10.5667108062892],["policy",-10.566933138705412],["meeste",-10.566984936286882],["makes",-10.567423463574396],["56",-10.567939345006153],["vacuna",-10.568264196738738],["bou",-10.568300908214816],["vroeg",-10.5684088795201],["sûr",-10.568455089522212],["populaire",-10.568722571237302],["golpe",-10.568985984883552],["urgence",-10.569051995874013],["Association",-10.569129383467002],["inflation",-10.569129607078114],["Duitsland",-10.569152375581522],["réalité",-10.569173967288325],["Florida",-10.569203548491112],["cio",-10.569864632494863],["llamado",-10.569904476346284],["arrêt",-10.569977610514126],["ición",-10.57102598309234],["initial",-10.571298861971691],["analyse",-10.571317676535227],["gevallen",-10.571713513695439],["daarna",-10.57200279046907],["créer",-10.572290209200503],["temperatura",-10.572355359257802],["necessar",-10.572356006881996],["inscrit",-10.572439378433696],["Christian",-10.572575043273478],["organization",-10.572577419038003],["stroom",-10.572983303016834],["transporte",-10.573380181248242],["gebracht",-10.573539790774614],["restaurant",-10.573617438067114],["peuple",-10.574629282990498],["invers",-10.574773832943153],["instant",-10.574793586705315],["zelfde",-10.574907014853625],["patron",-10.574941860138448],["tests",-10.575490808449926],["commission",-10.575585210064233],["significa",-10.575643334538077],["ándose",-10.576020337393443],["balance",-10.576201668003549],["step",-10.576205586739412],["retrouver",-10.576585999598159],["fu",-10.576610064348607],["barrio",-10.577138601461888],["halve",-10.577373639498099],["guien",-10.577938949664588],["mor",-10.578657542516716],["judicial",-10.578757639503573],["leading",-10.578765389750707],["compagnie",-10.578838634745335],["daughter",-10.578878512977553],["regio",-10.579132081381019],["teste",-10.58013070968779],["Copa",-10.580627068959052],["helpen",-10.580789172073604],["Toen",-10.581561347366922],["detenido",-10.581933448270712],["SA",-10.582881770853348],["klaar",-10.583558531451045],["Blue",-10.583575222624829],["accuse",-10.583816916093456],["Russen",-10.584187097874258],["ü",-10.584775732792785],["Bre",-10.58530720761831],["inflatie",-10.585364409131584],["gedrag",-10.58544083965902],["ask",-10.586546273362863],["ocurri",-10.58699083420364],["char",-10.58703933325315],["papel",-10.587399466680399],["hechos",-10.587565000437777],["patient",-10.588086379998314],["conocido",-10.588474043853282],["relatie",-10.588525310037795],["purchase",-10.588578820365466],["Disney",-10.588642847693492],["education",-10.58881861866916],["represent",-10.589017933952782],["telle",-10.589051903838955],["dirigeant",-10.58982082828257],["center",-10.590487118953618],["rusa",-10.590984284524566],["gne",-10.59107717024029],["Même",-10.591931784485816],["justicia",-10.591990008689134],["expliqué",-10.592134473444085],["700",-10.592823510372721],["è",-10.593300260271835],["MP",-10.59340071794642],["vite",-10.593613826695032],["nie",-10.59376371144419],["86",-10.59409848108963],["jury",-10.594912541418456],["mexicano",-10.595231948106978],["diputado",-10.595232009198986],["salida",-10.595877077574286],["request",-10.5961181568716],["kamer",-10.596161152068543],["lange",-10.596290493004439],["rechts",-10.596622099414876],["meerdere",-10.596685791269465],["Cruz",-10.59671735007936],["representante",-10.596826949972865],["carga",-10.598047039085642],["WK",-10.598134536974246],["ouders",-10.598390688086983],["blessure",-10.598551525471333],["Justice",-10.598570056152067],["Lors",-10.598599606287221],["fonds",-10.598659250731812],["standard",-10.598766929444748],["tuvier",-10.598817084154282],["films",-10.59898938453721],["belasting",-10.599017583576385],["affirmé",-10.599269168906588],["hoeveel",-10.59991786402773],["âge",-10.600264120055918],["comercial",-10.600356057830158],["kost",-10.600603330498107],["uch",-10.600959673919556],["error",-10.601156238500039],["technologie",-10.601190393657363],["eten",-10.601489274666946],["Gran",-10.601535926480663],["Montréal",-10.601765162227945],["présente",-10.601829248107235],["waarschijnlijk",-10.601881752129769],["intervention",-10.602264714813998],["mate",-10.603300449837537],["arte",-10.603518736982814],["anyon",-10.604738799883632],["materia",-10.604831467663384],["relative",-10.605266321432659],["vivre",-10.605622361516403],["ng",-10.605679106627132],["venu",-10.606688721621559],["style",-10.606882664712362],["véhicule",-10.607308823656467],["habla",-10.607412116752087],["subi",-10.607562271334304],["officielle",-10.607633341099557],["contacto",-10.608106225791076],["summer",-10.608634002763708],["firma",-10.609689714493733],["vio",-10.6098586451871],["lack",-10.61088557778394],["variant",-10.611824441863726],["enjoy",-10.612551475609541],["rait",-10.612555150120041],["meld",-10.612814633960912],["Tra",-10.612822157885066],["gevoel",-10.612997305323823],["resource",-10.613139547036575],["fair",-10.613965300745168],["vlucht",-10.614741489164388],["amp",-10.614937353583898],["distinta",-10.615318488368512],["estudiante",-10.6156069262917],["figura",-10.615886911723091],["84",-10.616408867395815],["learn",-10.616782365050785],["voyage",-10.616941453519221],["privé",-10.617240389930139],["groter",-10.617577273069783],["machine",-10.618005617500097],["nez",-10.618202433016783],["distance",-10.618538151069902],["gun",-10.618977379264724],["denuncia",-10.619140635526392],["drugs",-10.619279254233621],["soldat",-10.619367597382993],["wood",-10.619529083269814],["manage",-10.61966317908955],["poor",-10.61971605677724],["ñ",-10.61998404457804],["considera",-10.620112428791884],["Ku",-10.620162151269074],["blij",-10.620440093603209],["Director",-10.620596815220214],["recibir",-10.620985762091411],["coment",-10.621152008642099],["Inc",-10.621182068188086],["kids",-10.621303410882192],["estrategia",-10.622035808434475],["oplossing",-10.622083690538604],["critique",-10.622111264292077],["stress",-10.622130889271542],["host",-10.622179783678687],["dingen",-10.622281735785979],["treatment",-10.622736154772603],["border",-10.622983345387684],["manque",-10.62307882814089],["promo",-10.62309644776272],["baby",-10.623295348593581],["plant",-10.623556601834103],["eran",-10.624006745055588],["vivir",-10.624607783632843],["réponse",-10.625435627058726],["Miguel",-10.625436620796616],["categoría",-10.625566206621482],["code",-10.625703283027683],["etapa",-10.625766363050055],["preocupa",-10.625865950713909],["ried",-10.626995911694245],["klein",-10.627319752258316],["reed",-10.627363529974843],["CO",-10.627520254744795],["allá",-10.627782346435648],["politiek",-10.628362190490247],["Mosco",-10.628479075178209],["cité",-10.628545490395787],["suficiente",-10.628848525465799],["dizaine",-10.628853066928059],["lijn",-10.628887037410614],["auteur",-10.629169260600072],["commercial",-10.62948120552182],["winst",-10.629532328802085],["rent",-10.629776102004353],["voorbij",-10.631740850452635],["Victoria",-10.631829100272828],["conductor",-10.632358587343605],["brough",-10.632428072194578],["employé",-10.632800269531876],["estimate",-10.633002689831152],["passage",-10.63350706882521],["fiesta",-10.63403436873671],["spel",-10.63414566334183],["moved",-10.63467788772348],["reports",-10.634875235301948],["signé",-10.635340335171662],["Alex",-10.635346241269922],["Char",-10.635366891825992],["diario",-10.635658034973396],["€™",-10.635713339817336],["specific",-10.63582486957964],["Mor",-10.636151044020393],["étape",-10.636259310805114],["compra",-10.636317879371841],["prevent",-10.636694034819936],["aught",-10.636707253758438],["toma",-10.636778438017537],["quite",-10.63709042997683],["fail",-10.637307460604664],["imagen",-10.637552232647533],["zi",-10.638052112085209],["pol",-10.638512024452421],["travailler",-10.638519309060715],["Israel",-10.638846349824181],["crea",-10.639069803597433],["commerce",-10.6392197875522],["facile",-10.639256572314363],["emergencia",-10.639281274996915],["eros",-10.639426822222623],["mur",-10.639893115191699],["felt",-10.6400701774592],["realiza",-10.640418916305114],["pose",-10.640745468311366],["East",-10.641399923064139],["cash",-10.641523664542856],["taine",-10.64196307609841],["High",-10.642042128682178],["cover",-10.642167423115236],["98",-10.642264633195378],["vakantie",-10.642593665805132],["deur",-10.642600482600596],["BA",-10.642724872026783],["soirée",-10.64299522581792],["dam",-10.642996892982215],["prime",-10.643450449698525],["boek",-10.643764038173508],["izar",-10.644811609304064],["obras",-10.644943689608219],["cambiar",-10.645341939250343],["importe",-10.64553771100385],["aar",-10.645819534474075],["presqu",-10.64595150934153],["alleged",-10.646153742278162],["approach",-10.646359665368571],["decided",-10.646380878017624],["mari",-10.646540930154657],["conflicto",-10.64788142377055],["documento",-10.648237786541777],["winkel",-10.648488160344558],["libro",-10.648502894962348],["trimestre",-10.649574729704216],["above",-10.649604769762473],["mandatario",-10.649760385694108],["golf",-10.649829564792928],["llegada",-10.649931333986343],["themsel",-10.650282363529213],["conflit",-10.65034898577507],["Más",-10.650428630017625],["Hast",-10.65046926541774],["completa",-10.65069871678373],["Toch",-10.65071497527127],["ajoute",-10.65156880616717],["82",-10.651610800663775],["destino",-10.652054893334812],["Chile",-10.652056869996382],["winning",-10.652393763914569],["crear",-10.652616253315346],["augmentation",-10.653099859037624],["torneo",-10.653109239435686],["kop",-10.653589112564372],["roi",-10.654089432171627],["avis",-10.654233137120926],["deberá",-10.654490720638634],["Congress",-10.654820000079123],["ther",-10.6549287182646],["consumo",-10.655068889239553],["wing",-10.655111157237961],["pad",-10.656374690712418],["inten",-10.65678766630074],["pasada",-10.656904385821518],["simplement",-10.657031551048401],["probablement",-10.657662120564805],["Garc",-10.657736611098196],["ok",-10.658407703030123],["realizado",-10.658631954756729],["verkiezing",-10.659055084888927],["absolu",-10.659065165442605],["brief",-10.659446437286146],["schools",-10.659474530648286],["River",-10.659860071933277],["horen",-10.659899155962336],["Every",-10.65990011081769],["Instituto",-10.6599013669674],["tren",-10.660063049948928],["conférence",-10.660101035978341],["Festival",-10.660163146094478],["Fiscalía",-10.660182921929813],["comité",-10.66038952427442],["cree",-10.661230588219645],["estatal",-10.661737300621116],["relations",-10.66227133372173],["continuer",-10.662287595166116],["mitad",-10.66242264409123],["venue",-10.663159052809059],["reforma",-10.663420263202784],["wijk",-10.66366692545617],["thousand",-10.663684041920789],["Brussel",-10.663689360046604],["trial",-10.663957999147296],["assuré",-10.664022708533523],["nchester",-10.66415261791239],["tweet",-10.66431172614207],["review",-10.664483968591986],["voorzitter",-10.66454091167812],["ballot",-10.664793122049643],["publié",-10.664921923379733],["Public",-10.665447010045778],["74",-10.665732180244737],["baisse",-10.666304683404997],["mediante",-10.666907135103589],["ienne",-10.66710333646703],["obstant",-10.667182482872377],["disfrutar",-10.66799210719449],["Uni",-10.66803870719567],["professionnel",-10.668254034662741],["declar",-10.669145340926768],["ouverture",-10.669379965469647],["diverse",-10.66974915865527],["pena",-10.6699841399371],["commencé",-10.67073968469043],["Ángel",-10.670743075577953],["devenu",-10.67287090463654],["Force",-10.673246290163148],["foot",-10.67339441594839],["handel",-10.673651458684535],["Ou",-10.673790363006141],["istas",-10.673855168199935],["François",-10.674310852905922],["véritable",-10.674310980450302],["stelt",-10.674613730151865],["achat",-10.674800017170806],["tenu",-10.674946862103308],["civile",-10.675110387453707],["gesteld",-10.675752318506634],["souligne",-10.676090972777617],["join",-10.676151592260354],["drop",-10.676234024649109],["Mike",-10.676374817491116],["cumplir",-10.676446287048513],["Gra",-10.676656415188376],["buscar",-10.676765299611239],["wegen",-10.677750032814744],["chaîne",-10.677846460672512],["muziek",-10.677897586155847],["empleo",-10.677922756186478],["piece",-10.67794324883781],["anderen",-10.678127535260803],["worke",-10.678327244639286],["Office",-10.678824849095594],["Tar",-10.679236861972491],["Ch",-10.679337854538293],["encontraba",-10.679396407670684],["chemin",-10.68050090388563],["duizend",-10.680804312576406],["flu",-10.681161859915974],["Bruxelles",-10.68149223869828],["medewerker",-10.681499431953636],["ziekenhuis",-10.681523425081334],["élément",-10.681580039657302],["huge",-10.681628705004144],["iers",-10.68174492340199],["macht",-10.68234999921664],["lum",-10.682745707380864],["Kamer",-10.682980212054911],["Angeles",-10.683114080205527],["opinion",-10.68320560110126],["rouge",-10.683350579802834],["gone",-10.683364107007236],["conference",-10.683969615082553],["oli",-10.684616999010554],["icieron",-10.684694182352686],["historique",-10.685102334806182],["extreme",-10.685122026458457],["niemand",-10.685214920079758],["avocat",-10.685315266877254],["gemiddeld",-10.685380418365936],["asegura",-10.685750963236739],["tierra",-10.685980063856423],["cultural",-10.68617218926093],["provincial",-10.68620102434333],["ogró",-10.686398412576024],["kieze",-10.686588345747937],["Eric",-10.687594509838632],["conflict",-10.687606795002063],["toekomst",-10.687623017938224],["domaine",-10.688274118939756],["damage",-10.688294469326681],["cia",-10.688409564557634],["incendie",-10.688428004530152],["Groningen",-10.68872596365783],["rápida",-10.688727585979905],["amiento",-10.6889470437007],["ukrainienne",-10.689120642649357],["depend",-10.68945800776942],["feeling",-10.689749924314839],["screen",-10.68985803341323],["Aire",-10.690910275269623],["univers",-10.69100224630519],["ronde",-10.69217096544614],["indica",-10.692241122697274],["Democrati",-10.692383159913291],["policial",-10.692392051424846],["création",-10.69245588810319],["trust",-10.692657107777887],["beide",-10.693095064037934],["mine",-10.69339816656398],["ë",-10.694013137624854],["steun",-10.694097041058214],["kracht",-10.694449530953147],["acteur",-10.694687689001576],["deep",-10.695400000723865],["réc",-10.695403849340483],["obteni",-10.695417004249059],["affirme",-10.695648535694012],["teams",-10.695826198896322],["Rodríguez",-10.696011499979235],["continúa",-10.696011542752252],["impuesto",-10.696030142100746],["intention",-10.69645192214454],["département",-10.696461313074355],["hor",-10.69655838441659],["éviter",-10.696707535699728],["various",-10.696756055493179],["develop",-10.696881700227095],["encontr",-10.696894823223161],["banque",-10.697369758629534],["mandat",-10.697467995710198],["wan",-10.697777467804114],["engagement",-10.698059401888681],["answer",-10.698184802813515],["IT",-10.69836699279158],["panel",-10.698522106065623],["réunion",-10.699054740039482],["Capital",-10.699681671100945],["moyenne",-10.700103411647888],["contenido",-10.700296218591175],["reactie",-10.700740958556876],["rock",-10.7014548145522],["voel",-10.701771527382895],["success",-10.702003929316174],["vons",-10.70210906578691],["réalisé",-10.702154024504551],["pourra",-10.702565904763421],["minuten",-10.702828597273973],["warm",-10.702975339576977],["cámara",-10.703351014534977],["aanwezig",-10.703351883458705],["Pre",-10.703628668550742],["vic",-10.70375838972296],["RS",-10.704296316792732],["marge",-10.704362080613498],["magne",-10.70459154546949],["wild",-10.704741445017028],["Pri",-10.704996899850263],["cancer",-10.705126354938407],["lijst",-10.705582858409663],["probabl",-10.705623272153783],["hacerlo",-10.705636230048146],["Mari",-10.705674196683908],["temas",-10.705824011138038],["professional",-10.70594378648443],["fiets",-10.706361679621416],["Big",-10.706601567109942],["mobile",-10.706880485533619],["sense",-10.706884916425647],["Verenigd",-10.707066806228019],["credit",-10.707195675948157],["organismo",-10.707717304589105],["habl",-10.707848274591598],["dacht",-10.708127464687443],["Onder",-10.708996192746561],["amplia",-10.70942263669367],["Min",-10.709430697521153],["vervolgen",-10.7099797962188],["transfer",-10.710228529846678],["spokes",-10.71030610853747],["decidi",-10.710370422480182],["Nueva",-10.710781994962039],["Brasil",-10.710877138319473],["dezelfde",-10.711043537285429],["cinéma",-10.711191396350648],["eventual",-10.711192105097055],["Post",-10.711255232741896],["prett",-10.711609642935358],["cat",-10.711652797658228],["tercera",-10.712131913026495],["gevon",-10.712677724145086],["mond",-10.71277271911938],["king",-10.713257493047319],["African",-10.713379080633688],["Duitse",-10.71436136581843],["conversation",-10.714566141526515],["liberté",-10.714763199660627],["présenté",-10.715112935583754],["financier",-10.715150606132255],["episode",-10.715156990690588],["ruta",-10.71522438004845],["conséquence",-10.715353603738711],["buurt",-10.715923978266346],["aspecto",-10.715974995839844],["surface",-10.716876399818943],["dirigente",-10.717023539053681],["Council",-10.717810436504188],["protec",-10.71799293688387],["addition",-10.718113628415654],["absence",-10.718194259489248],["supplémentaire",-10.71819774774955],["frontière",-10.718288104514233],["registr",-10.71830735504927],["gaf",-10.718369896845306],["Fernand",-10.718935933558914],["décè",-10.718987324089056],["teacher",-10.719068427319765],["Bull",-10.719102746341402],["har",-10.71943738413535],["estoy",-10.719690196054957],["creo",-10.719816515311997],["sum",-10.719841744574726],["hile",-10.720371354988359],["bijzonder",-10.720371655538155],["rot",-10.720465643080935],["log",-10.72078596398633],["Chris",-10.721411370051513],["boy",-10.72156459728324],["menores",-10.72161602655021],["verdad",-10.721722882465487],["maximum",-10.721939456401326],["enkel",-10.72216185400137],["représentant",-10.722229493577142],["status",-10.722607631934157],["save",-10.722667282078248],["incremento",-10.722915135112572],["European",-10.723248160551577],["Costa",-10.723264243528643],["science",-10.723544578160666],["retrouvé",-10.723549778925157],["commence",-10.723640958923884],["recupera",-10.724097630301173],["Ministr",-10.724104074097545],["directa",-10.724152277717703],["Cup",-10.724449132937307],["reduc",-10.725066562799281],["estructura",-10.725391098509634],["Dé",-10.72542607727009],["Jorge",-10.725736630127328],["avoid",-10.72630884344363],["Williams",-10.726324649077913],["bleek",-10.72648826082288],["uren",-10.726617672584382],["imá",-10.727033455973254],["betrokken",-10.727462271029541],["ram",-10.727936646528416],["lezen",-10.728044281010089],["UU",-10.728044801263504],["fut",-10.728120512448879],["Since",-10.729148771264414],["peor",-10.729232098143637],["Pan",-10.729471219414057],["£",-10.729471831990939],["médecin",-10.729472284730377],["Río",-10.729483354697804],["massive",-10.729521093268433],["arreste",-10.729559064796183],["crowd",-10.729673385857343],["energy",-10.729894732502013],["Kar",-10.730492258504],["mooie",-10.730497763026303],["liep",-10.73057701727756],["pakken",-10.73064065807655],["emp",-10.731074786932894],["ward",-10.731470019554944],["easy",-10.731771193416442],["woord",-10.73178018080798],["queda",-10.732237479748564],["rat",-10.732513694181064],["tank",-10.733077763352215],["helft",-10.733269185405456],["partenaire",-10.73328951083196],["Secretaría",-10.73341932442317],["municipale",-10.7335003075883],["idió",-10.733976524128515],["wall",-10.734505770879336],["contribu",-10.734545632450011],["fac",-10.734598321399563],["Ter",-10.734919317010917],["Wi",-10.735115876237861],["ways",-10.735437839059866],["verdachte",-10.735652410820773],["pedido",-10.735925187678182],["lance",-10.735927078696964],["Cour",-10.736211931511741],["learning",-10.736243248500326],["deja",-10.736937954421444],["neer",-10.737141272223287],["modern",-10.737241848108491],["café",-10.737283191297553],["arned",-10.737361599555832],["influence",-10.738232308083415],["hiver",-10.738496043115738],["loc",-10.73889272854759],["Will",-10.738901218563996],["musical",-10.73903889352285],["97",-10.740014909097518],["ië",-10.740225179236583],["terecht",-10.740268032388846],["sports",-10.740304566818322],["aff",-10.740730465613147],["Justicia",-10.74088249693365],["Richard",-10.740916958360327],["personeel",-10.741733383931697],["compris",-10.741788664913003],["norte",-10.741905847535962],["zwaar",-10.742340904692394],["aandacht",-10.742458170797596],["gesprok",-10.742967055782493],["trouvé",-10.743065338186657],["texte",-10.743247702006599],["ducación",-10.744121865873872],["respond",-10.74426048253392],["reducir",-10.74433320073311],["Noord",-10.744383231715421],["paz",-10.744434681866071],["ium",-10.744434979638337],["perdi",-10.744592750070757],["artículo",-10.744710206074675],["Suprem",-10.744726446431674],["comprend",-10.744755109979149],["bur",-10.745131750773206],["dosis",-10.745653823927537],["wachten",-10.745772363124496],["podía",-10.746176224381669],["balle",-10.746205869124827],["empez",-10.746605781973905],["drone",-10.746952404432905],["lim",-10.747097636276358],["kennen",-10.747141905560277],["lancer",-10.747443870531374],["Home",-10.747893449731997],["81",-10.748264032504245],["beat",-10.748277854591803],["electoral",-10.748369766290814],["Tho",-10.748425120112485],["tratar",-10.748480464108656],["BB",-10.74884812514081],["speed",-10.749390491793285],["rece",-10.74979400261083],["pensar",-10.750097373966284],["leger",-10.75015237352548],["pair",-10.750951588910823],["Hill",-10.751289514426114],["Deux",-10.751656225781046],["isch",-10.752030905083327],["09",-10.752175993132216],["ible",-10.752308024772695],["symptom",-10.75241534720083],["Ayuntamiento",-10.752417362929652],["evidence",-10.752417596856864],["physique",-10.752417735233559],["sommige",-10.75242193207503],["cuarto",-10.752422853995176],["mocht",-10.752447300313868],["risico",-10.752495421201122],["souligné",-10.752852987349868],["moto",-10.753383425830219],["straf",-10.753390975828427],["maladie",-10.753482216446665],["incendio",-10.75348415614188],["item",-10.75355066496386],["earning",-10.754664745697143],["assurer",-10.755158460975233],["generar",-10.755851973290019],["functie",-10.756293958792813],["keuze",-10.75629657888587],["collection",-10.756341417451202],["investissement",-10.756377928974485],["engage",-10.756550176323344],["schade",-10.756669311127286],["From",-10.75693325122878],["participant",-10.757568681823692],["Geen",-10.758303584560569],["Ana",-10.758377164041356],["sortir",-10.759504816478298],["colabora",-10.759540454649784],["secretario",-10.760178250249073],["chacun",-10.760249586869163],["cantante",-10.760441924242532],["millier",-10.760602410114476],["Euro",-10.760708257565412],["Sp",-10.76097928325456],["investment",-10.761014182401887],["possibilité",-10.761026023391302],["physical",-10.76126133896544],["sentir",-10.761361006230366],["manos",-10.761506687721148],["principe",-10.761538708447317],["Mil",-10.762143464139289],["conocimiento",-10.76247891041018],["conseguir",-10.76281190926267],["sorte",-10.763319718017714],["true",-10.763347430299547],["flight",-10.763446141259065],["Cámara",-10.764091164047251],["London",-10.76416263431085],["ventaja",-10.764435320023374],["supporters",-10.764657386613045],["alcanzar",-10.765519396070804],["common",-10.765529839985506],["rode",-10.766037406578175],["quería",-10.766190145331729],["Anne",-10.766285456061194],["gesprek",-10.76693782657138],["slecht",-10.767233591009854],["sterk",-10.767269492227616],["centaine",-10.76807372499734],["direc",-10.768102811214199],["ocasione",-10.768229532167732],["Carolina",-10.768326122273582],["holding",-10.769080870724643],["OM",-10.769400712264225],["ministra",-10.76943191555005],["push",-10.769749946373892],["informatie",-10.769855468046117],["aving",-10.7700239037602],["guard",-10.770179220891215],["armas",-10.770467352076345],["operativo",-10.770998248950013],["natuur",-10.771939351297702],["propriétaire",-10.771949207671696],["scolaire",-10.771956297106318],["climatique",-10.771985911328178],["improve",-10.771999287621977],["shop",-10.77204666953832],["size",-10.772134869343045],["gezegd",-10.772211485254422],["reality",-10.772546299833248],["voulai",-10.772551908080263],["120",-10.772968156182142],["By",-10.77300520704776],["atrás",-10.773670923906511],["burg",-10.773698729441325],["served",-10.77375486974411],["aquello",-10.773885851680735],["sostuv",-10.773988205209266],["aspect",-10.774560683808774],["perder",-10.774894611820715],["threat",-10.775001801383523],["tarea",-10.775015642049066],["nou",-10.775451638650546],["71",-10.775771981072616],["Chicago",-10.775902022233485],["husband",-10.775902245618138],["Uno",-10.775916467627706],["Harry",-10.775933460704183],["België",-10.775945135205612],["ONU",-10.776072628784206],["Road",-10.776519286757356],["Simon",-10.776754797644566],["mostr",-10.776981184104184],["concept",-10.77709761369928],["ties",-10.777494776817026],["elk",-10.777762711403685],["products",-10.77809950810467],["publiek",-10.778623505032343],["implement",-10.779108937065919],["choice",-10.779217375023048],["payment",-10.779367786136307],["januari",-10.779870098955966],["slechts",-10.779874694325365],["Gabriel",-10.779877872017337],["niña",-10.779936087025485],["confirmé",-10.779995001334983],["Ejecutivo",-10.78014449009447],["kar",-10.780222604005873],["étranger",-10.780386544971204],["software",-10.780846862419915],["choisi",-10.781317608231966],["anim",-10.781933929996477],["campus",-10.782165304402813],["gel",-10.782191780223766],["enter",-10.782230555032115],["Meanw",-10.782294104884711],["empleado",-10.78258031127163],["viol",-10.782893353601839],["gebeurt",-10.783106398106153],["German",-10.78324214423526],["invasion",-10.783514629464634],["daarme",-10.78357382928679],["herramienta",-10.783854094754467],["edificio",-10.783854098740814],["woordvoerder",-10.783866524771323],["subray",-10.783905299546388],["spreken",-10.783917654122874],["hear",-10.784232343547606],["spent",-10.784571617953805],["Malgr",-10.784579964935851],["circuit",-10.785153967433162],["ería",-10.785199230941451],["Marie",-10.785343328640957],["SP",-10.785379363091884],["Watch",-10.78550806443593],["éri",-10.785656690059213],["environment",-10.786178720188163],["suivr",-10.786259118138123],["juicio",-10.787405696910294],["wagen",-10.787492637045377],["bastante",-10.787878687775118],["Haag",-10.788083665946392],["contexto",-10.788121155669865],["volvi",-10.78840448965842],["Internacional",-10.78885475538815],["beelden",-10.788871541288886],["loop",-10.789039016355185],["iek",-10.789043769724197],["dorp",-10.78914594578063],["voulo",-10.789438900600622],["gratis",-10.789620927213681],["economie",-10.78981219320626],["convertir",-10.79037602336278],["rule",-10.790793834221084],["profiter",-10.790861766816914],["ramp",-10.790864797037841],["groei",-10.791029471504462],["huit",-10.79119392143091],["humain",-10.791400236723248],["Franci",-10.79166094169524],["winnen",-10.79178259517472],["ucraniano",-10.7918701658738],["Ligue",-10.791876164747816],["vulnerable",-10.791878254306253],["compétition",-10.791878741360758],["baan",-10.79188170952781],["musique",-10.791890412627417],["ritten",-10.792371700459462],["negocia",-10.792389344841999],["bag",-10.792722779986537],["tandis",-10.793596495359553],["politic",-10.793670111007135],["periodo",-10.793863632972574],["SE",-10.794116219570743],["2008",-10.79429053487328],["koop",-10.794322061758105],["session",-10.794779626434124],["pese",-10.794807695371857],["ions",-10.795032949395264],["tient",-10.795195039146659],["mostrar",-10.795307277194475],["email",-10.795537032343738],["hija",-10.795583328758905],["links",-10.795708044973532],["voice",-10.795752407470259],["gagner",-10.795877075172683],["Pablo",-10.795902761266992],["estrella",-10.796024903842204],["revealed",-10.79617014442277],["médico",-10.796376221248],["Bon",-10.796668608322161],["coche",-10.79722902897361],["importa",-10.797414286820608],["cru",-10.797559224036291],["strak",-10.797768438037394],["fédéral",-10.797820663603865],["jug",-10.798211901663365],["piste",-10.798880170570929],["izado",-10.799267190835465],["precis",-10.799655906736621],["denkt",-10.79980638134277],["league",-10.800273119667462],["zoeken",-10.800335025360853],["begon",-10.800624097960885],["koers",-10.800731136671647],["rules",-10.800733270992986],["souhaite",-10.800809015806694],["prove",-10.800921591864647],["ratio",-10.80098088386318],["rath",-10.801195743747833],["sacar",-10.801631253791975],["fuentes",-10.801642282058538],["verano",-10.801666178253555],["montant",-10.802177283931675],["Banco",-10.802202231512062],["bro",-10.80231255469021],["sound",-10.802381299688461],["cross",-10.80244983752993],["joué",-10.802612803337857],["einde",-10.803399059609777],["artist",-10.803414417594492],["verschil",-10.80389400098165],["Microsoft",-10.804017058915147],["faudra",-10.804020202500212],["épisode",-10.804062300082265],["bâtiment",-10.804276033698132],["dog",-10.804385280479718],["pouvai",-10.804990345631738],["nette",-10.805419054971967],["véhicules",-10.805519051582895],["!”",-10.805981288810099],["slachtoffer",-10.806471220566197],["storm",-10.806549246322529],["abri",-10.806601619127608],["terminar",-10.807192016841512],["Rob",-10.807354157552737],["Torre",-10.807437064090173],["instala",-10.807633911317438],["Bri",-10.808163389569454],["planning",-10.808387649844505],["Cabe",-10.808476533584368],["champion",-10.80911781975453],["Heb",-10.80992810619902],["señala",-10.810374491257548],["difficulté",-10.810602768325111],["chant",-10.810727797548402],["ijn",-10.8110491105142],["aim",-10.811190442044001],["émission",-10.811218321852936],["handen",-10.811460676111789],["citizens",-10.81151033507658],["entend",-10.812063988682631],["wrong",-10.812199043073928],["oficina",-10.812205700087112],["pompiers",-10.81221089203907],["61",-10.812218887978387],["Municipal",-10.812610830317357],["leadership",-10.81270138375056],["frontera",-10.812968040612258],["mbo",-10.813925441066736],["peur",-10.814125902873945],["gasto",-10.814693633078193],["changer",-10.814754529252863],["bezoek",-10.81476336163563],["trokken",-10.814864837628583],["paper",-10.8154210113752],["peso",-10.815480065909913],["voorkomen",-10.815998854300448],["máxima",-10.816311260055084],["numérique",-10.816311260307398],["término",-10.816311299454025],["caída",-10.816312022192157],["ejercicio",-10.816317620406657],["pr",-10.816373245762989],["declaraciones",-10.816766004668857],["Marine",-10.816841550632649],["belge",-10.81686532548117],["sloten",-10.817001512740886],["rep",-10.817220981753051],["clair",-10.81776388076846],["link",-10.817834859762081],["throw",-10.817838923004569],["présidentielle",-10.818089050451189],["ouverte",-10.818466893559826],["commun",-10.818477455147521],["mut",-10.819158983114335],["launch",-10.819296743622122],["hará",-10.819352989047866],["hol",-10.819413778929828],["quotidien",-10.819794846785367],["comenzar",-10.820004309169914],["Vo",-10.820036727783368],["Zelensky",-10.820443526323775],["supply",-10.820446650460337],["premio",-10.820459370475263],["competencia",-10.820464896079095],["Sol",-10.820512118065006],["apena",-10.820556604610323],["Radio",-10.820622616383062],["spring",-10.820668959482418],["restaurants",-10.820695552525823],["hield",-10.820716083455999],["arma",-10.820878993733889],["deuda",-10.821120183268846],["Mer",-10.821741990668116],["usted",-10.82204864851013],["showe",-10.822347527692859],["sell",-10.822400147251729],["pos",-10.822497190735493],["volk",-10.822853106852511],["continuar",-10.823627468193664],["afectado",-10.82382025381169],["rappelle",-10.82398915728346],["pérdida",-10.824594392263755],["annual",-10.824615011827351],["Cómo",-10.824623701306718],["papier",-10.824661824142026],["hermano",-10.824851401704848],["llamada",-10.824856954217204],["agence",-10.82489173372562],["mesa",-10.825451527617624],["Toute",-10.825475357700661],["acteurs",-10.825979805307602],["analyst",-10.82695261301329],["Gen",-10.827122210262385],["Côte",-10.827219458247576],["normale",-10.827245866614717],["hip",-10.827378089635701],["1er",-10.82741001360106],["zeg",-10.828108802202946],["Wa",-10.828529321809846],["género",-10.828759560217254],["Vlaams",-10.828759873482689],["électrique",-10.82876061811784],["pressure",-10.828819663617907],["fines",-10.82915755414366],["beginnen",-10.829209403652369],["wi",-10.829585755950081],["heard",-10.829658904119412],["triunfo",-10.829847665331599],["entrar",-10.830141938823234],["tercer",-10.830146589602585],["conoce",-10.830313368718642],["marqué",-10.83053146869259],["quart",-10.830726909731448],["progress",-10.831023592136033],["graden",-10.83117396496099],["élevé",-10.831888868070301],["Ber",-10.832279884520464],["provincie",-10.83294363805968],["Team",-10.832976868558678],["procè",-10.83297802696391],["fier",-10.833194376050244],["porter",-10.833393938564887],["bé",-10.833699287816863],["hum",-10.833813977502512],["integrante",-10.833956477196988],["ura",-10.833994135280115],["standing",-10.83416107487463],["giving",-10.834206799825125],["banda",-10.834220371140031],["Messi",-10.834632821610246],["finance",-10.834871980896569],["moral",-10.834899779113801],["sung",-10.834935498608084],["fear",-10.8350860977163],["photos",-10.835223590594248],["turne",-10.83546597311409],["boom",-10.836180074266919],["inderda",-10.836205893583395],["productor",-10.836241432230125],["William",-10.836451345689085],["Cal",-10.836871975847387],["prepara",-10.8368951915051],["estadio",-10.837034817092402],["battle",-10.837050275412668],["diálogo",-10.837145322693232],["atteindr",-10.837145986985893],["électrici",-10.837176765498207],["tratamiento",-10.837384760931712],["gener",-10.837422479959828],["network",-10.837591721964259],["estimé",-10.83780320780268],["nuclear",-10.837812412870878],["Rock",-10.838311623904508],["pire",-10.83909780780031],["mondial",-10.839610310524497],["arrivé",-10.840706672102936],["imply",-10.84126936476822],["Kremlin",-10.84136477099386],["faisant",-10.841643510425795],["participation",-10.84184033945143],["sali",-10.842001516365563],["échange",-10.842599293503653],["viel",-10.842665700352622],["goes",-10.843390885547876],["remember",-10.843506227143816],["83",-10.843866407062377],["fera",-10.843891423831007],["trend",-10.84391039440434],["juez",-10.844390743013232],["classes",-10.844904070686297],["Tal",-10.845166031841153],["nivele",-10.84536593415822],["carry",-10.845689084591374],["electric",-10.845736229019002],["Cap",-10.846081619046487],["Franse",-10.846113172880955],["bat",-10.84626912523923],["Face",-10.846520442491972],["affiche",-10.847191726890323],["Lake",-10.847494194132796],["appeal",-10.84755478624743],["trainer",-10.847577621853622],["burn",-10.847745762575988],["Last",-10.848276314116127],["usar",-10.848506235708797],["chu",-10.848717665744752],["torio",-10.848818772586476],["Ab",-10.848849746132988],["trein",-10.848893911389982],["Senat",-10.849312829410863],["Indian",-10.849439518549662],["completo",-10.849464452035381],["nood",-10.849484440428952],["exclu",-10.849585261133235],["intérieur",-10.849857348072845],["amarilla",-10.849865064382534],["scale",-10.8500979278178],["Cuba",-10.850368236498289],["income",-10.85040902149536],["ancienne",-10.851014193568716],["uses",-10.851222923674891],["invité",-10.851356110929757],["agents",-10.851517113621401],["buil",-10.852053440576064],["touch",-10.852374987807423],["distribu",-10.852384558401724],["AS",-10.852668345107094],["televis",-10.853264875960697],["voldoende",-10.85364530581344],["Pat",-10.853851250393006],["faisai",-10.854105205337447],["spectacle",-10.85413219082108],["agricultur",-10.85416772010345],["judge",-10.854195693516921],["fiance",-10.854528242227996],["followed",-10.854775910298374],["MC",-10.854871054833751],["suivi",-10.855904359428006],["titel",-10.855955663431716],["soms",-10.855993344615127],["instance",-10.856512442626954],["preuve",-10.856783010282795],["alternative",-10.858429664600802],["Well",-10.858622155529362],["jobs",-10.858721829322292],["manifestation",-10.858746195350903],["confianza",-10.858895240173753],["hout",-10.859605907745323],["constante",-10.860089763471063],["Ger",-10.86056949711926],["cumple",-10.860576325729001],["reache",-10.860736826619256],["Veel",-10.86092891777692],["juni",-10.861321716905664],["hou",-10.86139648212346],["verantwoordelijk",-10.861650464601404],["noir",-10.861775127132425],["rant",-10.861896802839155],["viven",-10.862055837999485],["Beau",-10.862392411482736],["Berg",-10.862536669501711],["jan",-10.862546242903818],["auron",-10.862807925744114],["Brown",-10.862839151476877],["vague",-10.863051695492178],["IS",-10.86337550712581],["begint",-10.863717968559193],["87",-10.863882049312547],["Republican",-10.864523573986254],["bestuur",-10.864544713479827],["probable",-10.864771712770953],["contest",-10.865132339565054],["sommet",-10.865269382935022],["korte",-10.86530548477295],["touche",-10.86544394401919],["Th",-10.8654783028229],["presidenti",-10.865819667183166],["escribi",-10.866020534934767],["funcionarios",-10.866783168101431],["Uit",-10.866828761555503],["Puerto",-10.867064037542962],["judiciaire",-10.867068069333115],["cierre",-10.867139854805444],["sueño",-10.86717701327823],["Party",-10.867198795876645],["logement",-10.86724413051099],["NS",-10.867344056370966],["supuesto",-10.867689554983706],["Martín",-10.867707590256703],["hot",-10.867793756758662],["Zuid",-10.867939752926585],["Otro",-10.86796909690744],["futur",-10.868081352146564],["afecta",-10.868416925286692],["fête",-10.868536422429568],["VVD",-10.86894729096683],["campe",-10.869421450848524],["marche",-10.869509685423496],["ieurs",-10.869516921760937],["pull",-10.870005904880777],["alimentos",-10.870326586340852],["parc",-10.87047742924748],["llama",-10.870493341052622],["passed",-10.87080086366555],["aid",-10.870889286384472],["Britse",-10.871168472848382],["speelt",-10.871342264152187],["spraak",-10.8714400021804],["Frank",-10.871551509878076],["calles",-10.872248281658708],["habit",-10.873456955364027],["kerk",-10.87347183514569],["cuidado",-10.874217895329764],["rou",-10.87445937669903],["referencia",-10.874648888464314],["vital",-10.874690507892197],["MS",-10.87476084996719],["registro",-10.875079530986895],["porté",-10.875089540414177],["pleine",-10.875632937658228],["teléfono",-10.875776670899441],["nucléaire",-10.875776672795208],["Alejandr",-10.87577693779932],["pequeña",-10.87577728169736],["combustible",-10.875779549836974],["slow",-10.876060989878225],["asocia",-10.876099567722612],["ID",-10.877554701071293],["laag",-10.87757645822553],["plainte",-10.87786204154734],["kin",-10.878668947465616],["leren",-10.878714828658387],["sentiment",-10.878966272761897],["locatie",-10.878989018327108],["visible",-10.879876045572011],["necesaria",-10.880162771565045],["podium",-10.880200444511473],["rug",-10.88156596662727],["razó",-10.881898163610085],["signal",-10.881978715242322],["wonen",-10.88201048750188],["schap",-10.882178467449114],["diferente",-10.882584442066449],["drama",-10.882668726282464],["cuest",-10.882810737865043],["aventure",-10.883008080105242],["Sha",-10.8830949236913],["gebeur",-10.883582446098274],["Mag",-10.883694781208645],["woon",-10.883730467194235],["sleep",-10.884066334786528],["hall",-10.88429653929381],["Minnesota",-10.88456810645214],["condamné",-10.884568274272585],["England",-10.884579653692562],["First",-10.884580410534511],["banco",-10.884704775398706],["abogado",-10.884749931519568],["discours",-10.885174214486113],["remporté",-10.885184937237037],["llegado",-10.885541015387318],["Presidente",-10.885636265552785],["pid",-10.885766855273554],["storie",-10.885900831816121],["division",-10.886471752608863],["plat",-10.886905781680355],["planta",-10.887020025403046],["Media",-10.887509711522531],["secret",-10.888224243328668],["plaatsen",-10.888379909358495],["transmis",-10.889011340289981],["Most",-10.88901410502006],["OTA",-10.889121878167503],["haga",-10.889357928462523],["cam",-10.88993513476396],["vertrouwen",-10.890787558094084],["kilo",-10.890834772850928],["ás",-10.891215272387159],["é",-10.891312825042778],["dolor",-10.891333073810944],["représente",-10.89143937619921],["noem",-10.891879835307837],["critical",-10.892247403917846],["premiers",-10.892296342770457],["invite",-10.892306599004954],["insist",-10.892821846029673],["adolescente",-10.893211119260418],["Scott",-10.893399313653601],["rain",-10.893402172055762],["increasing",-10.893439349948768],["brother",-10.89352289903945],["file",-10.893565870652004],["régime",-10.89361613662],["comprar",-10.893732026009417],["Fox",-10.893890804657815],["AT",-10.894301056332239],["Tesla",-10.894332951525346],["quién",-10.894547096888786],["tienda",-10.89470988821453],["dic",-10.894736898664888],["NL",-10.894790178917921],["ocas",-10.895023309632201],["Alberto",-10.895070306989368],["cadena",-10.895077762741824],["lager",-10.895243782952033],["broad",-10.895257550906347],["défi",-10.895747733600565],["Daarnaa",-10.895755892012351],["collaboration",-10.895970183372913],["klanten",-10.89621557879753],["Champions",-10.896632137151968],["journalist",-10.896725614119969],["duur",-10.897063144447928],["cou",-10.897449600046826],["drug",-10.897583176817765],["González",-10.89790143068388],["offensive",-10.897902197982138],["abierta",-10.897911360054687],["cuál",-10.897948754896461],["común",-10.897973229327164],["successful",-10.89805596723212],["assist",-10.898254273868154],["begrijp",-10.898486846473862],["PI",-10.898568909664533],["Ki",-10.898916151905198],["maintain",-10.899063198028188],["Belgisch",-10.899510273183594],["recordar",-10.899519377738642],["delante",-10.899594818508863],["Camp",-10.899657821271697],["Certain",-10.89966128882224],["Jones",-10.899783746377445],["scherm",-10.899818759490227],["Nada",-10.900222836667066],["Jim",-10.900722530057092],["encima",-10.900755660347485],["pit",-10.900872572951709],["perte",-10.90106540776401],["entorno",-10.901115852588617],["stap",-10.901196658384334],["schrijft",-10.901360086150403],["positie",-10.901565165129899],["ullie",-10.90167975915178],["zware",-10.902253730663551],["adding",-10.902350796335536],["fit",-10.902384188618349],["Obrador",-10.902388884495892],["Ajax",-10.902393043069615],["Martínez",-10.90241576661165],["endroit",-10.902551733365158],["veilig",-10.90315589825575],["Che",-10.903202155277139],["notice",-10.903252527635527],["excuse",-10.903831619205034],["muerto",-10.903838551405212],["arrest",-10.903882562822993],["bedrag",-10.90400851312307],["col",-10.904435516520122],["hoogte",-10.90466629409362],["county",-10.905050681588294],["Tim",-10.905704658835461],["Santé",-10.906497837627123],["Oost",-10.906554400790927],["geweld",-10.90687852505187],["Elizabeth",-10.906890243732704],["Santiago",-10.906905752590745],["hundred",-10.906907708892273],["découvrir",-10.906949248717886],["abierto",-10.90701192203722],["Patrick",-10.907025560271858],["cua",-10.907266931232302],["agreement",-10.907454907979844],["lastig",-10.907749751965476],["tendencia",-10.90823746536064],["Juli",-10.90838710188464],["streaming",-10.908439428267304],["personaje",-10.908549839419173],["klink",-10.90856058480846],["affect",-10.908835988487187],["Art",-10.908994628363022],["considere",-10.91069412106641],["D66",-10.910977370067434],["página",-10.911415128930187],["física",-10.911415140240031],["temperature",-10.91141537957596],["discurso",-10.911493017368805],["examen",-10.911524094176361],["rendez",-10.911550206627513],["rose",-10.911621426795271],["Adam",-10.911821829603516],["maker",-10.911933882387391],["Tribunal",-10.912025642783284],["born",-10.91238409731032],["tué",-10.912792531365636],["coin",-10.912961224605056],["exchange",-10.912990544643261],["obtener",-10.91305975026484],["vlak",-10.913168867967732],["bloque",-10.913171297297593],["grens",-10.913486256765687],["ocurrido",-10.91358284859899],["courant",-10.913696512798783],["Hace",-10.91494328099412],["september",-10.9151437698723],["ño",-10.915693317154455],["móvil",-10.915792451923938],["elektrisch",-10.915960582573518],["déclaration",-10.915976240587316],["puissance",-10.916016535921926],["afstand",-10.91605677483539],["hoeft",-10.916283124072946],["pregunta",-10.91660322217492],["tool",-10.91667149228304],["estima",-10.916831713413083],["politieke",-10.917090536644661],["roman",-10.917128120863122],["doble",-10.917331205029544],["río",-10.91767586105209],["ujourd",-10.917930678219314],["funding",-10.919447908671074],["search",-10.919498640434798],["aplica",-10.919691211512138],["parcours",-10.9199270796746],["feit",-10.920469379072486],["nier",-10.920510820423047],["foreign",-10.920533445544267],["vluchtelingen",-10.92053360476838],["Perú",-10.920696195111704],["implica",-10.920896368950528],["compara",-10.921099579316596],["tráfico",-10.921560323522947],["salaire",-10.921615251920002],["comis",-10.921805487167575],["tip",-10.92185950721135],["Corte",-10.92240032285687],["experiment",-10.92303218651126],["sky",-10.92324654730748],["gain",-10.923247311025051],["alone",-10.923778236757514],["règle",-10.92398301752548],["industrial",-10.92451341025585],["Mercedes",-10.92514704124049],["éni",-10.925194048971186],["Two",-10.925196795181687],["presupuesto",-10.925223976166249],["omgeving",-10.925480882346422],["ambiente",-10.92556062341584],["stemmen",-10.925634349008238],["médica",-10.925844838632528],["diensten",-10.926066926422774],["Station",-10.926079263965697],["complex",-10.926202789389157],["mani",-10.92627601186755],["poca",-10.926453506911272],["claire",-10.926642921896189],["asking",-10.92694522346719],["entretien",-10.927053009320762],["realizará",-10.927110220243176],["cine",-10.927180405731736],["Wal",-10.927372783837228],["Royal",-10.92745444875887],["pone",-10.927735163087817],["finish",-10.927976358346779],["bid",-10.928186732224926],["climate",-10.92837395043112],["herido",-10.928395083172308],["versie",-10.928459592119603],["voeren",-10.928639612568826],["movement",-10.928698583947856],["abilidad",-10.928928145266223],["omos",-10.9290921539587],["actuel",-10.929166594304373],["Rotterdam",-10.929628672111374],["section",-10.929670305027905],["export",-10.929691017873445],["britannique",-10.929722242534169],["régulière",-10.92972522215037],["agency",-10.9297379773767],["entrenador",-10.92975900990508],["neuf",-10.92982833594861],["espère",-10.929850910291467],["appelle",-10.929902079231235],["ries",-10.930377150015314],["poi",-10.930987008130716],["robo",-10.931078293625209],["ateur",-10.931216628348658],["espacios",-10.931639466271374],["Sub",-10.931690120225834],["infecte",-10.93207812597969],["stappen",-10.932306521531267],["legt",-10.932340196900654],["utiliser",-10.93263851870822],["scenario",-10.932751203943614],["zeven",-10.932823702506372],["mir",-10.93316203354671],["Xi",-10.933584889043974],["environnement",-10.93361728310418],["refuse",-10.933955116177705],["réforme",-10.93423862953594],["stikstof",-10.934352095690322],["voormalig",-10.934361668196976],["disposición",-10.934526893870192],["violent",-10.934587271452639],["Agenc",-10.935043864558438],["verkoop",-10.935097867530718],["issent",-10.935152622942455],["audio",-10.93521794166641],["unité",-10.93545816659271],["verbod",-10.935573872804845],["universit",-10.935670808952802],["fic",-10.93603861283465],["activa",-10.936171672459558],["Alleen",-10.936544020713477],["fout",-10.936992939395093],["augmenter",-10.937074186731376],["leider",-10.937299691990596],["konde",-10.93793358593602],["CA",-10.938091619954307],["prévue",-10.938771209742885],["departamento",-10.939003117434094],["Alemania",-10.939003512968137],["posterior",-10.939009017002542],["espoir",-10.939012834375097],["nueve",-10.939025903084627],["génération",-10.939097236578698],["obligation",-10.939158878302282],["assistance",-10.939598956451068],["servir",-10.939636583224598],["productie",-10.939663209837473],["allait",-10.939805326354548],["langue",-10.939952592050446],["Hall",-10.94029727867872],["requiere",-10.940322657372047],["adore",-10.940718390158981],["Han",-10.940721566911794],["ën",-10.940989020966608],["EC",-10.94123168229537],["Cre",-10.941261669393835],["laboral",-10.941575959003156],["launche",-10.942000384460066],["mill",-10.942190663689427],["attendr",-10.9422763954356],["veille",-10.94233301641652],["rec",-10.94236346135532],["provid",-10.94278652748239],["dak",-10.943658270591751],["Pérez",-10.943684094526144],["offrir",-10.943725219269233],["sche",-10.944054181049637],["compter",-10.944161823286283],["ontwikkeling",-10.944164041861042],["esperar",-10.944696380514129],["Nicol",-10.945119945238659],["quiera",-10.945691815978218],["Ham",-10.945878693338646],["personnage",-10.945880497689462],["sufri",-10.945882042721806],["index",-10.94590801070311],["kill",-10.946282230981053],["novel",-10.946674672670929],["unit",-10.94681210466473],["touché",-10.947295213665495],["belangrijke",-10.947426037641213],["menace",-10.947790223460576],["ebruar",-10.948000085607248],["ultra",-10.948011914560091],["tado",-10.948015163504088],["négociation",-10.94837076779158],["cuyo",-10.948385159397905],["habitual",-10.948415918329914],["Verstappen",-10.948464312945376],["altura",-10.948574305749943],["favorite",-10.94858927353609],["vuelve",-10.94860142403412],["favorable",-10.948795469091483],["rum",-10.948983268178164],["approche",-10.949172323518535],["burger",-10.949391081807192],["reporter",-10.949625155190995],["trap",-10.950026245621174],["Grande",-10.950077539460594],["ong",-10.950338364473023],["âgé",-10.950446424273544],["Nov",-10.950473966164358],["Tan",-10.950902291435],["antwoord",-10.951038013684379],["overall",-10.951150856530694],["studenten",-10.951218500091464],["permanente",-10.951674918376899],["funcione",-10.95169869467788],["dict",-10.951954329469977],["worst",-10.952100216651774],["vuelo",-10.95246746062238],["Game",-10.952662813653415],["responsabilité",-10.95308855576134],["equipment",-10.95309092923301],["1000",-10.953110651560378],["kilomètre",-10.953118013745367],["alimentaire",-10.953171697636588],["distribution",-10.953210036873532],["Jack",-10.953259892624828],["Comité",-10.953266780004137],["promotion",-10.953309835158162],["ME",-10.953347618734366],["chiffres",-10.953378192798805],["hockey",-10.95349619442625],["Tro",-10.953520771239642],["Fort",-10.953719847511643],["rigen",-10.953820927687595],["promedio",-10.953971890804084],["Avant",-10.954821668662696],["diez",-10.954838146971289],["suele",-10.955279287172708],["registrar",-10.955902411275297],["Any",-10.956088370499081],["94",-10.956282535522353],["solu",-10.956447910680282],["91",-10.956655253733008],["socio",-10.956874105459743],["enorm",-10.957269641105478],["correct",-10.95741617581875],["TikTok",-10.957827212982558],["correspondiente",-10.957827755915028],["subject",-10.957829189234957],["belang",-10.95795003395563],["persoon",-10.958073199512135],["gesloten",-10.95832839718986],["comida",-10.958349661810963],["utilizar",-10.958400428336073],["proposition",-10.958629749695426],["shut",-10.958799685146445],["Rac",-10.958813095903746],["ich",-10.95885697159832],["absolute",-10.95895465000757],["Mayor",-10.95926103649266],["lien",-10.959385226417961],["enfrentar",-10.959551049442162],["dora",-10.960033576819335],["Ros",-10.960200090509728],["investigador",-10.960306441140439],["normaal",-10.960569076456466],["contexte",-10.960632854110889],["ocupa",-10.96066269171148],["relacione",-10.9607820674991],["ferme",-10.9611458569016],["celebrate",-10.96183849022548],["pourron",-10.962298261146778],["mínimo",-10.962591289793494],["NFL",-10.96261099537552],["adult",-10.962761613669954],["rechtbank",-10.962824838180559],["pobre",-10.962911776621493],["naturale",-10.96320597783513],["diseño",-10.963215536718145],["taal",-10.963678859962936],["sumar",-10.963830799526594],["sometime",-10.963917752219889],["fraude",-10.963925910787331],["recibido",-10.964024469868189],["ibilidad",-10.9640570356819],["bepaalde",-10.964118553443077],["sturen",-10.964182350018588],["anual",-10.964503084720654],["Kevi",-10.96496142127145],["wist",-10.965035764687325],["nforcement",-10.965177022354121],["participer",-10.96540911034498],["UN",-10.965461284968598],["lier",-10.965612418677788],["autor",-10.965617323303626],["NH",-10.965750187796814],["reconnu",-10.965895835095711],["mix",-10.96597314448396],["Twee",-10.966019393250832],["yond",-10.966687814418817],["plante",-10.966751860811703],["Valencia",-10.967223211492948],["técnica",-10.967373472888344],["bewust",-10.96737386821926],["tournoi",-10.967497445514827],["Londr",-10.967586151142187],["Andrew",-10.967608497420638],["attente",-10.967666986542067],["obliga",-10.967712207568567],["liever",-10.967960892705044],["profesor",-10.96840968212122],["ministerie",-10.969034643656109],["complet",-10.969243806303083],["shooting",-10.969369364288248],["leiding",-10.969770334662847],["romp",-10.969962594580796],["protesta",-10.969982172867802],["primar",-10.970040356264963],["Liver",-10.97004619219848],["ST",-10.97042801946331],["situé",-10.971238434272811],["secrétaire",-10.97218137405168],["venezolano",-10.972181375218383],["Frankrijk",-10.972197952185464],["Sergi",-10.972204247899658],["membre",-10.972231938180009],["respective",-10.972395176263834],["decline",-10.972951057164469],["stoppen",-10.973037967046094],["CC",-10.973226357477277],["IA",-10.973507181722574],["explaine",-10.97471949212402],["Far",-10.974781414273544],["endant",-10.974810499051998],["excellent",-10.974974311480516],["utilisé",-10.975445609820262],["bericht",-10.975827185821595],["Pol",-10.976260215962867],["parle",-10.976872440762968],["schrijven",-10.97701230333041],["ktober",-10.977026837571142],["guideline",-10.977277801118532],["liefst",-10.97738773495911],["geloof",-10.977500343217152],["snap",-10.97762816492277],["revanch",-10.978036645046913],["políticos",-10.97810860956698],["offering",-10.978208942465344],["hands",-10.978429868451563],["arriver",-10.978533554333215],["economisch",-10.978688692892213],["graves",-10.978691844603437],["obtenu",-10.978979719928276],["Nog",-10.979569039466766],["gingen",-10.980066857637755],["vienne",-10.980232153965808],["mening",-10.98077038642287],["acusa",-10.980879216820444],["Dar",-10.981250708952256],["personen",-10.981459497143138],["pendiente",-10.981615251630313],["supone",-10.981787400871795],["Quan",-10.981806951356635],["étrangère",-10.981866661761902],["Portugal",-10.981866680166133],["carretera",-10.981866833844197],["contain",-10.981937801981388],["appareil",-10.981947387796144],["géant",-10.982012621520486],["tradition",-10.98207912126203],["empresario",-10.982165522906584],["Oscar",-10.982232409142473],["efectivo",-10.982693592132774],["sluiten",-10.982941128555385],["fijn",-10.983165010401876],["pens",-10.983809268632735],["Bos",-10.984022218458005],["CD",-10.98478661310994],["laisser",-10.9848560330549],["Tous",-10.984897864991865],["Ave",-10.984998900670366],["affecte",-10.985213705542803],["jar",-10.985325441879711],["humor",-10.985350641429852],["Defens",-10.986578136492295],["extérieur",-10.986744707768768],["cérémonie",-10.986744710197907],["burgemeester",-10.98674493417171],["twintig",-10.986747533176924],["volonté",-10.986760941453163],["Prince",-10.987002797345905],["Angel",-10.987089374893653],["funcionario",-10.987138746523586],["española",-10.987421470306904],["zak",-10.987448331196973],["Miam",-10.98760779150664],["fourth",-10.98770811138031],["charges",-10.987963081190141],["definite",-10.988321650705226],["entendu",-10.988467269884516],["jongeren",-10.98880467424519],["accept",-10.989072857980707],["Bor",-10.98945611023695],["dividend",-10.989495039017061],["asistencia",-10.98956531303778],["vel",-10.989638246302244],["kzij",-10.989828975690074],["Ag",-10.990447970770148],["registrado",-10.990548772982653],["union",-10.990706158973438],["siècle",-10.99164667379151],["numéro",-10.991646703775256],["blood",-10.991677461304066],["dispositivo",-10.991732798978099],["accusation",-10.991740233560073],["conferencia",-10.991849426866416],["picture",-10.99193247728268],["truck",-10.992047661656738],["investor",-10.992448596975958],["ubicado",-10.992598365296947],["ément",-10.993412348245894],["bevolking",-10.993477872715339],["inwoners",-10.994469542492531],["garantizar",-10.994851737962602],["permett",-10.995069883612825],["discover",-10.995272474593392],["ús",-10.995699186741628],["Santo",-10.996206116834895],["ouest",-10.99622686250138],["talló",-10.996281697580216],["ête",-10.99678259262533],["Marco",-10.996900817397117],["ica",-10.997645782765977],["92",-10.997884159657557],["draw",-10.997955430825485],["tekort",-10.998303582848157],["tenue",-10.998405140592663],["shift",-10.998420111312868],["idas",-10.998601171377445],["outre",-10.998704197048577],["Tot",-10.998821854504122],["termijn",-10.998980407600303],["iteit",-10.999117899372488],["echte",-10.999348924381495],["remise",-10.999512595505072],["sprake",-10.999633051131415],["objeto",-10.999645751835427],["council",-10.999827280493811],["Parti",-11.000152771997033],["voz",-11.000410198746462],["terroriste",-11.000511349877609],["Justin",-11.000807554249782],["izquierda",-11.001523271533284],["championnat",-11.001527186676375],["Kim",-11.001527684350748],["YouTube",-11.00152779353989],["sectore",-11.00153355654702],["maatschappij",-11.001567113027972],["installation",-11.00158101523013],["entraîneur",-11.001584069408914],["defense",-11.001599298282107],["beginning",-11.001620204556428],["gr",-11.001685955222236],["craft",-11.001705085085245],["Here",-11.002135711063135],["missile",-11.002180896616895],["hacía",-11.002183910705554],["ought",-11.002355973202746],["jouw",-11.002357876652077],["elected",-11.002518058533916],["tuin",-11.002679647937688],["forcé",-11.003199665938816],["Rafael",-11.003429722225832],["dieren",-11.003756078845432],["93",-11.003972330102629],["peligro",-11.004024191979166],["frère",-11.004249607470962],["resolu",-11.00435491051303],["ouvrir",-11.0045045085294],["lugare",-11.004776108741662],["DE",-11.004850738100373],["Wall",-11.005212656029109],["eken",-11.005276402965539],["hop",-11.00528341238487],["comprendre",-11.005288298562359],["Hé",-11.005413936386518],["débat",-11.005941755780817],["church",-11.006501465750148],["stations",-11.006504019771024],["District",-11.006559971481067],["Sports",-11.006714595520231],["maak",-11.006829310110723],["Nigerian",-11.006884920644431],["Norte",-11.006965084855818],["collega",-11.00712662782977],["ambas",-11.007172005037166],["zon",-11.007691864343492],["répondr",-11.008748109154283],["bras",-11.008748749969492],["vise",-11.008861437074694],["besluit",-11.0089999693277],["publicado",-11.009228039692971],["coraz",-11.009425095134326],["wonder",-11.009480473732975],["vaya",-11.00952616385776],["anuncio",-11.009842816909707],["larga",-11.01130394736762],["claime",-11.011330519373182],["énergétique",-11.011498395646514],["kwaliteit",-11.011498425781543],["negative",-11.01149907003698],["dochter",-11.01150030257456],["privado",-11.011502235724805],["propiedad",-11.011505947085645],["Christmas",-11.01151361446825],["comercio",-11.01151386692289],["Management",-11.01151491114134],["persoonlijk",-11.01160049795978],["raconte",-11.011681515980632],["winner",-11.011771516367997],["betref",-11.011969956078964],["boost",-11.012172139724234],["cell",-11.012301142303844],["franchise",-11.012461211378252],["LA",-11.012622804892843],["succes",-11.012697190871823],["tonne",-11.012856766307152],["MA",-11.013050978364408],["épreuve",-11.013425405914152],["promise",-11.013494711094545],["vir",-11.013673539594153],["EL",-11.014008255794224],["consumer",-11.014220777925415],["bron",-11.014446040270473],["wave",-11.014600188466495],["acusado",-11.014856071287069],["divis",-11.015430789104693],["Nee",-11.015454711209479],["illo",-11.015489582452009],["ducation",-11.01575385539038],["sancione",-11.016309553019234],["corte",-11.016383130311496],["•",-11.01652352127233],["croissance",-11.016526027370428],["consommation",-11.016546250960117],["approve",-11.016560673380699],["Mali",-11.016562431317023],["docente",-11.016563463275187],["tennis",-11.017019148063618],["generation",-11.017066741365332],["domicilio",-11.017123505584058],["Nic",-11.017616279139567],["PD",-11.01779671103868],["AC",-11.01822423586226],["iniciar",-11.018285086136995],["couleur",-11.018408140068136],["rêve",-11.01848148227409],["namen",-11.018524943533905],["2025",-11.018835440117037],["Wil",-11.018960374710748],["street",-11.01904904299154],["revenir",-11.019089600393091],["murder",-11.019302989118518],["lejo",-11.01976099023043],["texto",-11.019772173014958],["Misschie",-11.020302559569636],["derecha",-11.020337533039907],["bouwen",-11.020665638895817],["potencia",-11.020827419078099],["900",-11.020839256321143],["nazi",-11.020866855824647],["noemen",-11.020999643622542],["retire",-11.021097551481681],["critic",-11.021347748793398],["futbolista",-11.021371853873687],["Occident",-11.021574027241533],["quatrième",-11.02157403364599],["pantalla",-11.021578870083278],["lokale",-11.02160982469076],["teur",-11.021613091932192],["master",-11.021818585301846],["quitter",-11.022459068073873],["victor",-11.022483538575873],["actualidad",-11.022601173923391],["tig",-11.022746558069478],["erhaps",-11.022768745802441],["presentado",-11.022814984193369],["impression",-11.022977539245415],["déc",-11.023173212795077],["recuperar",-11.02391171109564],["ES",-11.024037789945696],["uck",-11.024047466365666],["marketing",-11.024097163683603],["abandon",-11.024222212230882],["Dieg",-11.024344200046981],["mono",-11.024383891496052],["herida",-11.0243845029305],["console",-11.024592059646825],["Gal",-11.025174305190355],["Fund",-11.025317176597973],["proper",-11.025512562280849],["viral",-11.0255231294107],["display",-11.025548528266967],["trás",-11.025556554799113],["semi",-11.025630284917158],["poursuit",-11.025702359603105],["parking",-11.0258420705819],["cible",-11.025918640283635],["keren",-11.026230009346211],["05",-11.026295325835893],["Sobre",-11.026485286848429],["velocidad",-11.026650255244052],["museum",-11.02665037072483],["vitesse",-11.026880785913669],["agencia",-11.02696290995627],["aumentar",-11.027087177223374],["contrario",-11.027114075775668],["geschr",-11.027649770645658],["Algérie",-11.0280245864492],["Esa",-11.028117600250525],["bilan",-11.028613921484732],["declara",-11.028951929585102],["digitale",-11.029015408478553],["penal",-11.02957652114403],["Tijden",-11.029990344910804],["surge",-11.030192656063006],["stal",-11.030479958657512],["cerr",-11.030717821935855],["contraire",-11.030796556929786],["pide",-11.030968380330346],["Cristin",-11.031756270973421],["difference",-11.031757989444706],["College",-11.031764118284684],["mat",-11.031850892762],["Fire",-11.03185547763271],["terreno",-11.031862456615954],["delivery",-11.031984387860835],["path",-11.032211396667687],["pronto",-11.032247378503445],["conclusion",-11.032379349695596],["Ven",-11.032398219097843],["estilo",-11.032399540457826],["Series",-11.032554680277272],["derrota",-11.033019394702446],["named",-11.033929315751275],["volle",-11.034391915728953],["BC",-11.034692315802278],["RE",-11.034791535888344],["turno",-11.034970925849066],["zar",-11.035016931786368],["middel",-11.035238073716167],["puisqu",-11.035373223877713],["revel",-11.035864470133543],["employment",-11.036026871496603],["Cho",-11.036070858236744],["tafel",-11.036327869037308],["aime",-11.036566033652564],["gira",-11.036696482924174],["célèbre",-11.036880414407065],["rural",-11.036892136276098],["IN",-11.03708876542555],["explosion",-11.0377434772488],["vele",-11.038007135328872],["Staten",-11.038347283242063],["woorden",-11.038688590600293],["liter",-11.038695214271108],["siglo",-11.039138150781755],["explain",-11.03945597770538],["spelers",-11.039643608748674],["Ferrar",-11.039692945652872],["fondo",-11.040022961275206],["flow",-11.040027846422955],["fresh",-11.04054091973973],["kijk",-11.040541189296803],["gate",-11.040593333082668],["Was",-11.040780822447108],["financière",-11.040890998823276],["liée",-11.041585854817008],["kept",-11.041590877129241],["effectué",-11.042083635049437],["bloed",-11.042100249125985],["quasi",-11.042303663101965],["Rosa",-11.042929245704894],["BTC",-11.04310336814087],["droga",-11.043240017203228],["mic",-11.04370858408154],["época",-11.043897546797176],["Bro",-11.044365330355035],["hurt",-11.04441200144506],["durée",-11.044615933026613],["offert",-11.044853563882633],["mando",-11.044889908630644],["aná",-11.044930660480123],["empezar",-11.045002405888326],["remove",-11.045285334576274],["Bru",-11.045485763032094],["ative",-11.045723695325051],["App",-11.045896322756128],["aard",-11.046082828926234],["producten",-11.046086901589604],["Boris",-11.04684018323514],["Trois",-11.046928714133067],["Pública",-11.047216400744627],["histórico",-11.047216458737815],["infraestructura",-11.04721668397466],["matériel",-11.047216690916677],["domicile",-11.047216994155487],["rápido",-11.047227312696773],["Alexander",-11.047295187902684],["purpose",-11.047319524021825],["payer",-11.047714915065464],["2007",-11.047728748593961],["Educación",-11.048120952004272],["Var",-11.048699498878905],["deporte",-11.048728049612716],["établi",-11.04881369739299],["draaien",-11.049080471380911],["melding",-11.04968660517843],["EN",-11.050033760758254],["Auto",-11.050296189615654],["barre",-11.05033311456431],["Ley",-11.050373504322103],["adapt",-11.050514019114171],["Nederlanders",-11.050536295501528],["onge",-11.050653291026046],["rates",-11.050831364856956],["stream",-11.050961704448135],["bestaan",-11.050974373870668],["Mexic",-11.051014191768775],["suisse",-11.051075646469942],["maxima",-11.051288148563497],["visitante",-11.05141628947958],["Solo",-11.052091068169222],["pedir",-11.052309110615177],["Times",-11.052309815695509],["tendance",-11.052371971399381],["passion",-11.052387458651928],["perspective",-11.052424734353297],["stratégie",-11.05242474419221],["impossible",-11.052457626146396],["dialogue",-11.052488680380634],["passenger",-11.052503410578081],["sorti",-11.052510487329931],["advance",-11.052513776738405],["classe",-11.052712002861652],["esposa",-11.052785228880218],["grade",-11.052818937216525],["gezin",-11.052918040322758],["micron",-11.052945478255953],["fell",-11.053167349425035],["bier",-11.05318806011913],["Asocia",-11.053492298859297],["Regional",-11.053784743568027],["artikel",-11.053962575203766],["Pr",-11.05399850376287],["subir",-11.054303924256914],["2030",-11.054476519159916],["impose",-11.05488224612643],["merk",-11.055508520086656],["Reg",-11.05581623462929],["joy",-11.056098552922167],["bor",-11.05614695012228],["rally",-11.056588833485193],["clean",-11.056603852492405],["taxe",-11.056680148480034],["kick",-11.056861501439943],["alert",-11.057244868223215],["geschiedenis",-11.05766033616377],["eléctrica",-11.057660336367373],["moitié",-11.057660856466855],["Global",-11.057662395264213],["Philippe",-11.057687203049225],["connect",-11.057792087267098],["troupe",-11.05783019109367],["Partido",-11.05787836521401],["gift",-11.057910482393039],["gold",-11.05801487847193],["cultuur",-11.058118846739626],["verlies",-11.05824642922204],["kijkt",-11.05852748148041],["solicitud",-11.05883388509407],["hang",-11.058953194501715],["Other",-11.059030323765839],["salario",-11.059252773997102],["Dios",-11.059544371211407],["invasi",-11.059876016136162],["concluy",-11.060003446978381],["cabinet",-11.060536027715681],["mez",-11.060745023014126],["conduct",-11.060895377231462],["zorgt",-11.060930867347876],["Gr",-11.060977555128847],["continent",-11.060992970822689],["ping",-11.061029350310825],["DA",-11.061064841163367],["siège",-11.061317163249571],["darle",-11.061751205942961],["leeftijd",-11.061851292228521],["pil",-11.061892759514146],["inch",-11.062493846669614],["elling",-11.062641559817727],["NAVO",-11.06293220200537],["Wood",-11.062946900903682],["esprit",-11.06306343302398],["Sinds",-11.063075463875453],["extend",-11.063139604688054],["laisse",-11.063259665856048],["recuerda",-11.063285020329847],["crew",-11.063360801409761],["governor",-11.0635479187414],["dragen",-11.063553564114429],["amour",-11.063554712586722],["krant",-11.064102041208958],["dicha",-11.065345269762176],["centra",-11.065363551695805],["usage",-11.06563510760704],["domin",-11.065895992415875],["Long",-11.066047491316843],["Nou",-11.066048939900448],["insiste",-11.066198520775037],["intent",-11.066722320212754],["upon",-11.067177996184736],["feet",-11.067284937829521],["collect",-11.067311542125587],["invest",-11.067367504372491],["tag",-11.067480032007772],["angst",-11.067727329714282],["Sun",-11.067820408306957],["ö",-11.067840194099858],["présenter",-11.068088382746353],["segment",-11.068185484840376],["voertuig",-11.068218694318894],["anglais",-11.06827918244697],["collective",-11.068288962363859],["aña",-11.068297647367833],["Vincent",-11.068320120174883],["dejado",-11.068672784528694],["ressource",-11.068709518335261],["usine",-11.06904764690363],["Best",-11.069228875757243],["ari",-11.06927252832757],["veulen",-11.06958301035533],["loze",-11.069774607758697],["hair",-11.070104569619286],["roepen",-11.070122649335048],["AI",-11.070326015629124],["Hi",-11.070433879326405],["évolution",-11.070872758477016],["cool",-11.071058692054832],["bois",-11.071073242497901],["actif",-11.071078994839635],["suelo",-11.07116947466761],["asunto",-11.07118045413874],["couldn",-11.071356329283596],["expertos",-11.071407606094244],["dicen",-11.07145357990208],["arán",-11.071558138608363],["ideas",-11.07195679630767],["introduce",-11.072154151916017],["surance",-11.072339855900129],["ical",-11.072530335934932],["ún",-11.072874914282728],["november",-11.073196218625686],["faible",-11.073421922963401],["blanc",-11.073452405630777],["búsqueda",-11.073540521746258],["ww",-11.073614509511096],["horario",-11.073835230982482],["canal",-11.073877659521806],["facility",-11.074124830929332],["gevraagd",-11.074298081071053],["Hol",-11.074381712613883],["previa",-11.07496502843427],["yester",-11.07510749752242],["wor",-11.0753248273762],["mejora",-11.075495568961955],["Président",-11.07551614647681],["kaart",-11.075860453706497],["joue",-11.075868784233737],["ofrecer",-11.07620257044521],["criminel",-11.076732799961313],["pont",-11.077029510258],["lig",-11.07717388149327],["cero",-11.07754605134621],["asil",-11.077634974626221],["cancel",-11.077675834331451],["older",-11.077898402305912],["spoke",-11.078187345692104],["constant",-11.078281654343789],["veiligheid",-11.078431729295184],["crash",-11.078487246868432],["contenu",-11.078692829566851],["Sénégal",-11.078781944505042],["Assemblée",-11.078883125329998],["abrir",-11.079149289719464],["afectada",-11.079225499495646],["finding",-11.079242030259195],["distancia",-11.080010045426178],["Fin",-11.080155559812557],["ended",-11.080315036020785],["quiero",-11.080867074140066],["Island",-11.08089993267701],["consecuencia",-11.080948808314595],["fiscale",-11.081158877881476],["hauteur",-11.081378590859337],["Hamil",-11.081419375240028],["compañeros",-11.081972414582225],["wijzen",-11.082036591048304],["directo",-11.082083576369687],["seguirá",-11.082250444817388],["strateg",-11.082271379714289],["GP",-11.082487539402045],["Mol",-11.082702295466163],["guide",-11.08314588270585],["protester",-11.083538892862085],["sister",-11.083716970552299],["sales",-11.08377296980791],["welcome",-11.083936015778995],["Sab",-11.083946009361373],["telefoon",-11.08399942159323],["clubs",-11.084042452569394],["travailleur",-11.084127999464371],["toernooi",-11.084257640364209],["límite",-11.084258970476025],["síntoma",-11.084266086225004],["obvious",-11.084284965327365],["voorlopig",-11.08430298616101],["Marvel",-11.08436163118894],["Board",-11.084523515337308],["Ste",-11.085090175907478],["gehaald",-11.085252626427938],["Verder",-11.085279507343271],["référence",-11.085313694347885],["gathering",-11.085349331787228],["Olivier",-11.085422864920178],["atender",-11.085572442846928],["enregistré",-11.085577395642908],["ault",-11.085882844313367],["stil",-11.086060168499689],["Marcel",-11.086221238620801],["stade",-11.086267351853266],["Boy",-11.086919420188728],["write",-11.086991906953248],["relation",-11.087081007357689],["trabaj",-11.087254099805055],["chair",-11.088238626082724],["alerta",-11.088560866773278],["Ford",-11.08902449416981],["habitantes",-11.089191671086132],["liga",-11.089260793091984],["revis",-11.089472348901946],["señalar",-11.089605710381125],["holiday",-11.089665283097197],["Parlement",-11.089706387818364],["instruction",-11.089709897368323],["inició",-11.089723163287909],["Noël",-11.089776417870777],["détail",-11.089824878940167],["podcast",-11.089856011554946],["comentario",-11.08998738124935],["GB",-11.090166385030287],["gericht",-11.090262389322863],["Tech",-11.090364886975014],["conseiller",-11.090425317004053],["acceder",-11.09044479137338],["Hor",-11.09048324912914],["tough",-11.09066019825331],["amid",-11.09075886815397],["advies",-11.090999904649998],["Direc",-11.091022122160641],["toll",-11.091142789166383],["Market",-11.091185121852956],["devra",-11.091394975419043],["Press",-11.091812559529949],["tengan",-11.092682613283902],["vacunación",-11.092848835372374],["hôtel",-11.093105185466808],["champ",-11.093195814475887],["pack",-11.094060181361776],["tend",-11.094555060767824],["spin",-11.094622655602741],["peace",-11.095007552726528],["leiden",-11.095025977242887],["madrugada",-11.09509778287311],["CS",-11.09514013458965],["nomination",-11.095175408260337],["trasladado",-11.095265420705967],["morgen",-11.095300393462741],["VA",-11.095541711540513],["portavo",-11.095898558081908],["dijer",-11.096176764450853],["nacionales",-11.096362231998985],["hoek",-11.096485857095832],["financement",-11.096562067480942],["attendu",-11.096679626390296],["permanent",-11.097031844436769],["majorit",-11.097250146629138],["AD",-11.097309065075507],["placé",-11.097336872415454],["treat",-11.097365283999753],["catch",-11.097612276224584],["identifie",-11.097631239667528],["rap",-11.098284505971424],["studie",-11.098314193922445],["Br",-11.098446265564103],["loan",-11.098590358793363],["tomó",-11.099263962298739],["áreas",-11.099441418017719],["aquella",-11.099615277136635],["aliment",-11.099682151462764],["vrienden",-11.099711676325061],["beneficios",-11.099848775174106],["previsto",-11.099886701889274],["elijke",-11.100534464810053],["scientifique",-11.10056225485108],["catégorie",-11.100562255108184],["lichaam",-11.100562302654088],["privada",-11.100563686057871],["dénonce",-11.10057151935141],["tentative",-11.100577487276187],["évidem",-11.100603684816306],["classique",-11.10061803965945],["competition",-11.100655138866276],["financië",-11.100656175029666],["Water",-11.100747805754693],["miedo",-11.100858373315848],["opvang",-11.100966334297159],["strike",-11.101043201980193],["rendimiento",-11.101293797646816],["mens",-11.101335167174142],["bang",-11.101379389305045],["retraite",-11.101430807899602],["NN",-11.101438732675724],["reporte",-11.101714430862904],["nouvel",-11.101724065273388],["Top",-11.101952114056633],["Fo",-11.102099958610463],["reopen",-11.102193063924808],["imagine",-11.102217196087441],["aanval",-11.10244943123595],["geraakt",-11.102486082941354],["climat",-11.102503046853677],["boot",-11.10264506685585],["ciclo",-11.102711369087015],["rijk",-11.10275403238531],["reconocimiento",-11.102924781769879],["evening",-11.104098196318864],["defender",-11.104281682265857],["listen",-11.104295021744736],["participante",-11.104591057070213],["burgers",-11.104862510000729],["eyes",-11.104956310058643],["verwachting",-11.10511689401848],["riz",-11.105507121802384],["bande",-11.105696873512663],["souten",-11.105775497357817],["esión",-11.105915090991333],["Bell",-11.106050174209722],["appartement",-11.106057953274377],["réduir",-11.106074795872974],["Grupo",-11.106086027876291],["establecimiento",-11.106091530210586],["téléphone",-11.106092477738546],["kozen",-11.106537772013992],["wijze",-11.106933044251758],["éré",-11.107030709969013],["Like",-11.107232136479482],["verandering",-11.107338559821162],["Why",-11.107361310297168],["cur",-11.10752618027496],["respeto",-11.107607131182021],["joint",-11.107772169899803],["haute",-11.107776418921212],["waarde",-11.107849180505955],["cay",-11.108107932356635],["engagé",-11.108134405536326],["travaille",-11.108293342211816],["NBA",-11.108371540955135],["zoon",-11.10877905433531],["organisé",-11.109103720492282],["Quant",-11.109240879918485],["ang",-11.110072313600849],["volgend",-11.110469972595347],["hearing",-11.110548544454755],["plicación",-11.110940510717182],["terminé",-11.111443897993187],["wapen",-11.111444354009013],["straight",-11.111581660276077],["minimum",-11.111583831390739],["speech",-11.111585483577361],["ration",-11.111752546611307],["Sept",-11.111967503138807],["vivo",-11.112219496623334],["tendría",-11.112314212856436],["schuld",-11.112390584602728],["putting",-11.11245344541417],["geldt",-11.113013976762172],["arts",-11.113452480312716],["ajouter",-11.113886588739945],["ganador",-11.114111121226463],["vais",-11.114474229203577],["Tr",-11.114477359492605],["jardin",-11.114478606515565],["MI",-11.114541349823012],["gor",-11.1146221768193],["migrant",-11.114628630934964],["01",-11.114662425976448],["revient",-11.114721305043018],["reflect",-11.114814483671102],["verkeer",-11.115199570790637],["daarvan",-11.116136088983083],["Jong",-11.116661982803066],["siente",-11.1166633561983],["voisin",-11.11672242595989],["diverso",-11.116773865856505],["grève",-11.117153871547442],["III",-11.11717169400395],["accessible",-11.117185999514739],["île",-11.117330212582264],["prévenu",-11.117410237112074],["apparent",-11.117639432859278],["negro",-11.118178107190229],["utiliza",-11.11823762587884],["Antwerpen",-11.118430201322122],["Jackson",-11.118460275769444],["tegenover",-11.118510175492176],["Ban",-11.118700540150048],["PA",-11.118813314294862],["réaction",-11.119136966133098],["Ray",-11.11948383326314],["erie",-11.119604567913594],["degree",-11.11972457647353],["oui",-11.11975050251019],["précédent",-11.1200951539625],["zette",-11.12070321195257],["militant",-11.120853814949275],["Vol",-11.121008967853157],["speelde",-11.121421087594248],["kunst",-11.12168273661355],["acerca",-11.121718075452302],["owner",-11.122260604239413],["entender",-11.122281692506604],["Free",-11.122398857289305],["Nieuw",-11.122688178402093],["volunteer",-11.122723861039045],["procédure",-11.12272529395064],["WhatsApp",-11.12272831816423],["delantero",-11.122799891634973],["sensible",-11.12283822807181],["norma",-11.123282045289319],["manche",-11.123359432267542],["adulto",-11.123712271540729],["society",-11.1240233429414],["declare",-11.12415634896551],["leef",-11.124540547701667],["afirma",-11.125854453708602],["chain",-11.12585569953582],["producer",-11.125855765049202],["ndroid",-11.125918455182198],["audiencia",-11.126004242094083],["pilote",-11.126104500748356],["cab",-11.126243550304778],["caus",-11.126536028404288],["arc",-11.126727762510331],["provoc",-11.126832997183396],["1990",-11.127458182415605],["Bad",-11.127977216123728],["mention",-11.128290834392338],["Dor",-11.12830915130071],["Guinée",-11.128362182463132],["Hollywood",-11.128393397439469],["lumière",-11.128396296073737],["connection",-11.128443015951817],["middle",-11.128495667144232],["Isabel",-11.128653640478284],["aga",-11.129049155800834],["sloot",-11.129072528255286],["intentar",-11.129237110982702],["Cada",-11.12945896825959],["democracia",-11.129563322859095],["threaten",-11.129632634674415],["seguidor",-11.129720348716198],["alza",-11.129781010317746],["commencer",-11.129922232031726],["classement",-11.130088689385417],["especialista",-11.130411666455576],["Maria",-11.130674228982157],["rico",-11.130716592117233],["télé",-11.130717934346599],["overigen",-11.130809290866246],["gie",-11.130975103222106],["bringing",-11.131295852187828],["boss",-11.13159725938388],["parlement",-11.131871193119718],["choc",-11.131949950782747],["farm",-11.132030778650886],["Fas",-11.132145285855046],["passen",-11.132444860064103],["officiel",-11.132486335302335],["diversa",-11.133008702989244],["device",-11.133094289003417],["Fed",-11.133109166892805],["diep",-11.13376474009821],["jugé",-11.13378841326493],["piso",-11.13388124053321],["formal",-11.133906943475377],["professeur",-11.133993899252342],["Business",-11.133997116278177],["Toronto",-11.13404227521546],["dream",-11.134120679360047],["alumno",-11.13414772350895],["esperanza",-11.134210515500662],["Governor",-11.134258345814462],["chambre",-11.13434911585253],["corrup",-11.134368724597149],["escolar",-11.134449751853301],["pieza",-11.134469670689814],["weather",-11.13451362326986],["cerrar",-11.134594506963161],["chiffre",-11.13523835046075],["vivi",-11.135312517488977],["06",-11.135593092392437],["blad",-11.135685915219593],["weight",-11.135851376942732],["IB",-11.135866728306699],["beroep",-11.136078426576846],["réuni",-11.136176482482082],["fondos",-11.136193576812502],["struggle",-11.13642766121711],["oins",-11.136604468770445],["operate",-11.136611154867484],["incredibl",-11.136788833583875],["Mensen",-11.136816839403174],["tourism",-11.137242463874358],["chute",-11.137580382105172],["animale",-11.137595696546338],["poursuivr",-11.137777925392147],["Work",-11.13853449858454],["calls",-11.13861907686422],["Ser",-11.13866261134429],["sprong",-11.138705437937071],["Shar",-11.138800488428014],["escuchar",-11.138870074807468],["née",-11.139089093607716],["laissé",-11.13949263779799],["Committee",-11.139673284164537],["enseignant",-11.139673557988868],["Internet",-11.139684775213283],["arrière",-11.139811792891315],["afternoon",-11.1398403154816],["asegurar",-11.139866647656401],["circulation",-11.139867289739215],["ervoor",-11.140009287678158],["contribution",-11.14018323273838],["costo",-11.140218546552639],["Jordan",-11.140237134185544],["carbon",-11.14032346686572],["ideal",-11.140509702386609],["Lewis",-11.140586201126585],["infec",-11.14066398221432],["inspire",-11.140708397756079],["PM",-11.140779683567605],["Bart",-11.140983230201599],["method",-11.141126012742053],["AR",-11.141301022013039],["pelea",-11.141717101730986],["sneller",-11.142503559358932],["genoemd",-11.142580360029385],["gardien",-11.14260790290627],["Castillo",-11.143114848892974],["migrante",-11.143228077000348],["Up",-11.14325815226837],["ray",-11.143284448728458],["entier",-11.143396719013529],["Out",-11.143767161287919],["especie",-11.14397192634646],["sujeto",-11.144449235512738],["pped",-11.144492025528741],["committee",-11.144661299011382],["onderzoeker",-11.145041124563296],["Desarrollo",-11.145387570859796],["exercice",-11.14538759668357],["dagelijks",-11.145457983978767],["destination",-11.145527059956624],["desarrollar",-11.145580328723762],["bajar",-11.145792280310001],["april",-11.14600611357166],["appui",-11.14601628605814],["permit",-11.14621488815341],["frappe",-11.146391523002585],["Guardia",-11.1467138148492],["returne",-11.147095060178945],["vor",-11.1471547474397],["abuse",-11.147462702098359],["relat",-11.147738965503837],["Rome",-11.147963044522205],["exception",-11.148728626571383],["immers",-11.148748870952183],["constat",-11.148893983416418],["matche",-11.149297695117145],["activos",-11.149518471381235],["informado",-11.14959488822877],["feest",-11.14964810141565],["Steven",-11.150362517069052],["function",-11.150731868185359],["flat",-11.150866027637779],["bos",-11.15102453508366],["período",-11.151134729302417],["blanco",-11.151330186604921],["publishe",-11.151344598080806],["escala",-11.15148920709458],["Cat",-11.151644060906152],["coalition",-11.15168120204272],["ET",-11.15188543554833],["ependant",-11.15201371553353],["fruit",-11.152074931541293],["makkelijk",-11.152265512534486],["envie",-11.152359805997953],["Cet",-11.152624318314077],["informar",-11.153335381290795],["Fu",-11.153342931013533],["kov",-11.153515962103743],["existen",-11.153530024184853],["observa",-11.153618394839512],["justo",-11.153842305385183],["Sal",-11.153958696391182],["Ré",-11.154027150184099],["connaîtr",-11.154235209144401],["trait",-11.15440114727207],["Ak",-11.154610949062452],["journal",-11.154656339676501],["goles",-11.154755742198653],["waarvan",-11.15478904547031],["agression",-11.154867570334307],["lettre",-11.155461976973601],["ocurre",-11.155539113819867],["ervaring",-11.155746208039567],["chang",-11.155931522970821],["piloto",-11.156213687809162],["wise",-11.156260343441797],["advoca",-11.156336028571626],["Secretar",-11.156394369875311],["polis",-11.156604935839372],["reveal",-11.156745218989805],["ucraniana",-11.156915060868236],["procedure",-11.156915239239874],["domestic",-11.156915792257992],["FIFA",-11.156917029599715],["europeo",-11.15691808838348],["Derecho",-11.156924989144555],["jeugd",-11.15693202826454],["samenwerking",-11.156955602750777],["refiri",-11.157047247837557],["habitude",-11.157084360013581],["vaste",-11.157476756977314],["praten",-11.157491301489094],["consciente",-11.157851289264922],["committe",-11.157897534965825],["organisme",-11.15793785157221],["relief",-11.15797217958293],["expand",-11.158070571201046],["sier",-11.158408813468874],["aproximada",-11.158544308374452],["Canadien",-11.158630645093716],["Dom",-11.159328975108886],["08",-11.159370801268448],["GT",-11.160146747913927],["gelukkig",-11.160523090077533],["capture",-11.161026143743062],["AM",-11.161636754140641],["publication",-11.161652901729603],["ON",-11.161853667201443],["Está",-11.162107141394785],["Affaire",-11.1621733866273],["ámbito",-11.162729016679512],["extranjero",-11.162729027245472],["plaisir",-11.162730342731027],["adversaire",-11.162732530043378],["Actual",-11.162791550422375],["procureur",-11.162793414569661],["Control",-11.162801280517463],["lawyer",-11.162854815195427],["Love",-11.16287521294289],["Research",-11.16294304645383],["Hong",-11.163350560317493],["statut",-11.163505315706757],["focuse",-11.163818498066618],["construir",-11.164132594234735],["simpel",-11.16427271792935],["male",-11.16437944008146],["massa",-11.16509824940344],["prévoi",-11.165321994482351],["CBS",-11.165795547622253],["robot",-11.166452689596282],["survive",-11.166678924300939],["complexe",-11.167010346162197],["traditional",-11.16704526186506],["mina",-11.167771174451811],["outil",-11.167869877390299],["concierto",-11.168077788788134],["positif",-11.168525515791833],["faveur",-11.168579006773955],["signature",-11.168597707070706],["Palacio",-11.168599091873919],["controle",-11.168784626591556],["verkocht",-11.168807987971343],["vaccination",-11.168914162364324],["precisa",-11.168917519104836],["ough",-11.168963598894084],["radi",-11.169192632651313],["complètement",-11.169295564198887],["Monte",-11.169350308041036],["divers",-11.169352625243928],["recorde",-11.169413287676036],["Á",-11.169836775195357],["vait",-11.169841962596099],["accueillir",-11.170320217924607],["ambition",-11.170341862345603],["entière",-11.170471549831134],["fallecido",-11.170602824266151],["defend",-11.170643005943639],["interdit",-11.170754015138899],["dispose",-11.17098438902363],["Bob",-11.171515353768942],["smart",-11.171608588702231],["vriend",-11.171934444687302],["Rem",-11.171963936677502],["dark",-11.172417926761696],["plekke",-11.172496557813155],["please",-11.172900454803353],["Laurent",-11.173341597664837],["ice",-11.173382866459143],["Finland",-11.173391927199914],["cook",-11.173798688479334],["triste",-11.174110887409832],["créé",-11.174204656133224],["olympique",-11.174459307616473],["protéger",-11.174459386019524],["kwartaal",-11.174500393096228],["corto",-11.174573914841863],["Plata",-11.175069811134048],["marc",-11.175127847499372],["Pay",-11.175190016106004],["Afghan",-11.175213301416356],["Good",-11.175363645112263],["elli",-11.175560530975712],["Italie",-11.175756300365679],["hur",-11.175943370667174],["assurance",-11.176177380033485],["tak",-11.176232793142688],["vendu",-11.176343229954151],["lip",-11.176350767067632],["Creo",-11.176414440354034],["Valley",-11.17642753070986],["row",-11.176465968979084],["mus",-11.176675515137685],["passant",-11.177167778277548],["apoyar",-11.177797484212197],["resume",-11.177942104043538],["5G",-11.178221141664352],["hous",-11.178364688849275],["pain",-11.178433990332575],["homes",-11.178650451314724],["destaca",-11.17912418647748],["apertura",-11.179155082749226],["trabajos",-11.179361171669445],["rail",-11.179436435822534],["CE",-11.179461828220656],["montrer",-11.17974689435108],["lesquel",-11.179863906369697],["RD",-11.179913627055303],["Nor",-11.18000981225992],["consumidor",-11.180378971692477],["hubiera",-11.1803975214077],["VI",-11.180469019489735],["december",-11.180470935884069],["toria",-11.180518267074717],["Boston",-11.180565753795626],["recorrido",-11.180691648151448],["chico",-11.180781212764058],["disposition",-11.180831103084271],["Hernández",-11.180863599150918],["Local",-11.180924015803978],["Bovend",-11.180963711948491],["advirti",-11.181092351404024],["Cam",-11.18136487974051],["Russe",-11.18182598835579],["midden",-11.182117616040777],["relevant",-11.182337484319511],["Australian",-11.182868699491681],["actrice",-11.18293530629872],["tramo",-11.183191334350141],["talento",-11.18321399019391],["discus",-11.183571934454273],["moord",-11.183943640283335],["prop",-11.184144246600468],["ziekte",-11.184354236186248],["Unie",-11.184419497758409],["intento",-11.184423014311548],["poursuivi",-11.184587832016621],["superar",-11.184849867390035],["ington",-11.185078747977759],["crédito",-11.185290797194451],["destacar",-11.185332741271804],["warne",-11.18534034904204],["réaliser",-11.185532295398257],["tica",-11.185611730299176],["citie",-11.185849263522618],["Hou",-11.186152657545964],["température",-11.186329769711733],["French",-11.186330032270359],["lanzamiento",-11.186360444849704],["corruption",-11.186480776305899],["entendre",-11.186626177411238],["author",-11.186770562140604],["firmado",-11.186957666351004],["deportivo",-11.18710781336768],["invloed",-11.187248163691422],["Brun",-11.187528373302584],["perdido",-11.187619662983511],["ène",-11.187698434300152],["honest",-11.187709030318898],["cierta",-11.187733182535993],["urió",-11.18794130775768],["ilegal",-11.188067202489067],["presidenta",-11.188211922250677],["sick",-11.188593637368559],["chip",-11.189095144573031],["firme",-11.18926490876444],["estudios",-11.189772774335774],["segura",-11.190205822470576],["ticket",-11.190240315452035],["Utrecht",-11.190313161791044],["clasifica",-11.190562547509613],["turismo",-11.190821114574371],["rights",-11.19084883894725],["querido",-11.190855225347812],["Tur",-11.191373295001766],["parquet",-11.19158317221897],["demander",-11.191714441374433],["chargé",-11.191737604406203],["protocol",-11.19176534193768],["TO",-11.192035608714757],["promet",-11.192211825580925],["réfugié",-11.192316866450533],["característica",-11.192316866705994],["honneur",-11.192317114656516],["porcentaje",-11.192317270592454],["ciudadanía",-11.192319741983285],["Suriname",-11.192324240633292],["Taylor",-11.192332430656178],["utilisation",-11.192375653037384],["directora",-11.192383266250989],["beschikbaar",-11.192396610695358],["magasin",-11.192413829505021],["130",-11.192755474034499],["cycle",-11.192777441357634],["accueil",-11.192945922661421],["Hug",-11.193053447484118],["gewon",-11.193067244787837],["consistent",-11.19317766829477],["agres",-11.193188509798523],["intelligence",-11.193198789264503],["Javier",-11.193368621752207],["Jé",-11.193540680059055],["racist",-11.193858717268164],["eeuw",-11.194209390940891],["sang",-11.194343837099836],["razon",-11.194568096751016],["dur",-11.194575542377285],["observe",-11.194911172843817],["exterior",-11.19555110838796],["confirmar",-11.195589213467066],["owie",-11.195758858928723],["chev",-11.196167336501704],["Both",-11.196273471520364],["Ryan",-11.196731163925627],["stick",-11.197091622633696],["vino",-11.19715546253693],["tiré",-11.197370198910958],["interna",-11.197592104941116],["Also",-11.197615732342225],["solucione",-11.19830720101648],["*",-11.198312861974316],["responsibilit",-11.198340963070045],["Chelsea",-11.198342041853838],["sanctie",-11.198344697451226],["offere",-11.198347563204646],["wish",-11.198362273160111],["Bernard",-11.19839983294435],["vacance",-11.198409815994975],["rib",-11.198572823119603],["Albert",-11.198882151774214],["Unido",-11.198958671369411],["wezen",-11.199114610580013],["vari",-11.199197042872703],["Viv",-11.199346447827043],["bleu",-11.199627975333375],["august",-11.199651016390714],["02",-11.199798779604937],["debt",-11.19990290734891],["establecer",-11.199976486561482],["dependencia",-11.200226609325084],["vermogen",-11.200241515898924],["kent",-11.20051200120713],["verleden",-11.200539575931622],["Nav",-11.200719383549517],["crois",-11.200924696813782],["Tweede",-11.200989146272608],["Nick",-11.201011243478273],["Cast",-11.201035569545116],["NA",-11.201046708973305],["getroffen",-11.201091606668905],["avanzar",-11.201868371351726],["reserva",-11.201920098401718],["helpe",-11.202037192409971],["Delh",-11.202093856776406],["alter",-11.202206923414074],["Asia",-11.202795646470593],["rig",-11.202891379786717],["Ang",-11.203505349744049],["compartir",-11.203608026298863],["Público",-11.204401568902915],["doubt",-11.204404739942397],["pandemie",-11.204417968101431],["responsibl",-11.204453257749357],["transmission",-11.204525422401721],["réduit",-11.204543132790995],["fermer",-11.20459642571906],["podem",-11.204807566799817],["Sony",-11.204817055786812],["implemente",-11.20494454393108],["vrije",-11.205110592297922],["relacionado",-11.205535252615444],["locate",-11.205805238468432],["mener",-11.206465225645992],["destacado",-11.206617653794765],["Él",-11.206811052758908],["belangrijkst",-11.206886768215563],["maat",-11.206917845016104],["médicos",-11.207282479502869],["pill",-11.207291818347548],["alarm",-11.207448869352664],["tenter",-11.207711634032655],["comparti",-11.207893196841777],["Genè",-11.20797442775655],["proposé",-11.208068185941986],["ntes",-11.208170875987822],["Korea",-11.208207698517434],["viento",-11.208303567637092],["institucion",-11.208768532660354],["krege",-11.20879324440261],["ER",-11.20951261208404],["import",-11.209959560082652],["valore",-11.20998520592303],["esperan",-11.210218237520458],["Steve",-11.210315252119363],["ung",-11.210335494060942],["rythme",-11.210580360577406],["relève",-11.21107018612545],["interese",-11.211303634279473],["Master",-11.211371766269078],["éro",-11.211448095201135],["ubica",-11.211823277734755],["perro",-11.211865528997421],["bail",-11.211907926765942],["overleden",
[...]
