{"version":"1.0","truncation":null,"padding":null,"added_tokens":[{"id":0,"special":true,"content":"<UNK>","single_word":false,"lstrip":false,"rstrip":false,"normalized":false},{"id":1,"special":true,"content":"<SEP>","single_word":false,"lstrip":false,"rstrip":false,"normalized":false},{"id":2,"special":true,"content":"<MASK>","single_word":false,"lstrip":false,"rstrip":false,"normalized":false},{"id":3,"special":true,"content":"<CLS>","single_word":false,"lstrip":false,"rstrip":false,"normalized":false}],"normalizer":null,"pre_tokenizer":{"type":"Whitespace"},"post_processor":null,"decoder":null,"model":{"type":"Unigram","unk_id":0,"vocab":[["<UNK>",0.0],["<SEP>",0.0],["<MASK>",0.0],["<CLS>",0.0],["s",-2.6410245237617236],["e",-2.8776494482159816],["a",-3.199348835156721],["de",-3.340589128797406],[",",-3.3607278549883848],["l",-3.4749071878370135],[".",-3.6001172609549457],["n",-3.7480962747544364],["que",-3.8898812546369808],["o",-3.9653493294846758],["y",-4.0240039874149165],["la",-4.029289248446929],["d",-4.153010750135497],["en",-4.437168965360543],["los",-4.744853653474266],["ó",-4.746385834419931],["el",-4.81605346225332],["con",-5.014133144603589],["u",-5.0877810369020064],["un",-5.110606168225946],["es",-5.111645966722689],["del",-5.117634188433225],["por",-5.128065460018432],["para",-5.163607883842731],["las",-5.266628625061063],["una",-5.3142403844299615],["ción",-5.331634964051714],["“",-5.782697621124649],["más",-5.797555199159152],["i",-5.847952364289357],["\"",-5.856053287196332],["r",-5.881636001100475],["El",-5.97124642497721],["E",-6.013001362884911],["como",-6.014238488359069],["ha",-6.036942744073134],["La",-6.061811281548476],["mente",-6.1397960216660135],["su",-6.203078730776518],["se",-6.304902324388813],["m",-6.346751110111942],["este",-6.351499506584924],["A",-6.352172675640601],["(",-6.37286468310295],["no",-6.3874457132051266],["t",-6.395180517885484],[":",-6.409417451426643],["lo",-6.449015001227311],["ón",-6.482475650699159],["ación",-6.488944270421767],["En",-6.563449213388147],["S",-6.591997095455405],["L",-6.599889781340339],["os",-6.609524842292375],["fue",-6.6302491666852035],["on",-6.648213471073257],["sus",-6.664893650331779],["esta",-6.669975373211942],["al",-6.672872999192377],["-",-6.691006837624334],["”",-6.718863969110382],["pero",-6.7439391280290195],["años",-6.750892002901127],["mos",-6.7598115394576315],["tiene",-6.791411657989427],["c",-6.809468898199555],["está",-6.816237522180591],["también",-6.817160495175106],["”,",-6.83258662395883],["p",-6.890685698424621],["ciones",-6.911407624490884],["sobre",-6.922754879401982],["entre",-6.946261949648484],["desde",-6.9573261916955484],[")",-6.9717745308153685],["h",-6.975734969551814],["«",-6.998975492567519],["han",-7.000302255200966],["puede",-7.0049626646620595],["ión",-7.023162861383961],["»",-7.023283630767102],["é",-7.049549290606631],["día",-7.050505535513139],["todo",-7.0653442696393025],["Los",-7.069702703424417],["ndo",-7.07638865194314],["%",-7.077979797368524],["dos",-7.079474675841837],["muy",-7.109202678491397],["país",-7.114753969496898],["parte",-7.134823114529445],["año",-7.15814153124106],["”.",-7.168164403945712],["C",-7.1685392540926705],["z",-7.171702574830246],["hasta",-7.177609869541832],["ando",-7.17820645787776],["Por",-7.206165281652834],["hay",-7.2445753792860375],["1",-7.248639698126763],["í",-7.2641530470304785],["cuando",-7.269892090426309],["personas",-7.2717840377543155],["donde",-7.2784019232833215],["Y",-7.293305967003876],["T",-7.31684367225742],["v",-7.324912500926611],["ser",-7.380313274658223],["sin",-7.382276379309571],["No",-7.398758961658648],["2",-7.399543044736332],["contra",-7.404198632892422],["si",-7.416024292004962],["quien",-7.423148289806439],["momento",-7.462849390416108],["porque",-7.463164669934065],["¿",-7.470529578574095],["hora",-7.474419479934576],["tiempo",-7.478415356861065],["as",-7.483292363838404],["había",-7.4964490285967225],["caso",-7.511748245716774],["todos",-7.516302921018293],["egún",-7.517368375924037],["millones",-7.524162615254644],["do",-7.5253481115511995],["son",-7.5335444688073405],["P",-7.53868129765056],["?",-7.541824429692192],["3",-7.561105867088825],["hacer",-7.566647463392207],["forma",-7.576669655452604],["De",-7.577668379813421],["á",-7.584856829988897],["'",-7.5855572142102226],["5",-7.589173949844577],["ante",-7.590109466010597],["tras",-7.596257865975993],["emos",-7.598702730740842],["vez",-7.604538350078358],["amos",-7.614944055682085],["iendo",-7.615322936536914],["4",-7.616100307877629],["cuenta",-7.6167960373617625],["Estado",-7.6198533060386335],["nuevo",-7.624633334775601],["hace",-7.626252554543463],["equipo",-7.626784325595126],["est",-7.636201480911592],["partido",-7.640720103509695],["mismo",-7.641782283689234],["20",-7.654998701966797],["están",-7.6676361881616195],["semana",-7.673976923976476],[";",-7.674926635720794],["mayor",-7.678773317737526],["D",-7.679428042969981],["lugar",-7.6800614316871165],["ron",-7.6834283440149385],["vida",-7.683885042596686],["ía",-7.687313253465464],["toda",-7.688004002074085],["mejor",-7.6892682466634295],["cada",-7.690226720820337],["primera",-7.690940415247471],["presidente",-7.692649563126679],["mi",-7.700831378864555],["después",-7.715853100058503],["último",-7.726618821060484],["nos",-7.730575981287872],["otros",-7.7361889319250725],["pasado",-7.738480616003097],["19",-7.751770676992645],["tres",-7.75773908988754],["nueva",-7.769738518251869],["gran",-7.772883666538351],["M",-7.774891578318625],["ijo",-7.780399339914092],["Ademá",-7.783906282640064],["primer",-7.784026590692835],["tanto",-7.786617785934051],["6",-7.786967749266622],["social",-7.79011846159408],["bien",-7.802203805195991],["medio",-7.812827548598387],["8",-7.81993885569994],["F",-7.820316831385451],["hecho",-7.821292209400298],["ver",-7.823047034840908],["así",-7.8236406938490966],["N",-7.8329340523359035],["Las",-7.833812905604085],["ciudad",-7.841734366216527],["2022",-7.850190188628735],["trabajo",-7.856357767514873],["menos",-7.860378465412282],["9",-7.8627803483832945],["inform",-7.866773366555812],["Pero",-7.869368368082398],["Si",-7.870508643182755],["final",-7.872177055061008],["sido",-7.891079031251641],["solo",-7.898219953939085],["punto",-7.899393301634563],["durant",-7.900950122718775],["uego",-7.901611488158263],["mucho",-7.9029561626974525],["empresa",-7.905868328509388],["000",-7.906993612747395],["importante",-7.920818959741318],["Con",-7.921797727588967],["manera",-7.922337440267929],["sión",-7.930940468820426],["otro",-7.932226214761355],["tener",-7.937126994643705],["familia",-7.939808015177973],["mundo",-7.9403994692712585],["acuerdo",-7.940703328389986],["\",",-7.945280632338879],["idad",-7.952240970885396],[").",-7.9603042005989035],["Para",-7.963804007988509],["‘",-7.965504175684765],["7",-7.9679025830079135],["antes",-7.968876372468752],["aciones",-7.9699130137432705],["embre",-7.976434176622114],["Gobierno",-7.980026752475186],["gobierno",-7.980629029641225],["estado",-7.9822259575633465],["10",-7.983381132376056],["ahora",-7.985680168359218],["estos",-7.987419476778719],["amente",-7.9895558056142315],["estaba",-7.991126603471847],["qué",-7.992491430804947],["esto",-7.99987404614254],["zona",-8.000147780540711],["embargo",-8.003710889682399],["fuero",-8.004473884873285],["proyecto",-8.012540700280297],["mil",-8.014042622221488],["),",-8.022088465740405],["nuestro",-8.024325885411013],["Este",-8.025959401592658],["será",-8.029059827374006],["Esta",-8.035382066496904],["te",-8.035683433688872],["hoy",-8.042262593239757],["U",-8.043997216942241],["unque",-8.046968127467597],["Sin",-8.0482229381978],["empre",-8.051270227869425],["\".",-8.0545566118122],["era",-8.05546701934751],["Un",-8.055993038065655],["30",-8.057229041555994],["R",-8.061403142162412],["algo",-8.065639143336584],["grupo",-8.070485297068497],["Se",-8.073757138133669],["aron",-8.077352482449035],["Nacional",-8.08963686092468],["me",-8.097029990497498],["política",-8.097147754183684],["trav",-8.101029199118074],["Es",-8.104405982532425],["poco",-8.1050010571845],["poder",-8.111073730667156],["estar",-8.11504331941042],["és",-8.119976608118208],["debe",-8.123510887127221],["podría",-8.12388844908499],["servicio",-8.126885396773037],["201",-8.13354234649885],["tipo",-8.13558450947039],["co",-8.142870659958085],["va",-8.144411210151969],["ico",-8.146251854902843],["hombre",-8.147207494985963],["problema",-8.167768283755224],["ambién",-8.168223548758785],["autoridad",-8.169848511480293],["’",-8.169858448504822],["total",-8.170834214020706],["sector",-8.188731304661442],["medida",-8.190396256878751],["nivel",-8.192913076528352],["alguno",-8.196961514337683],["Méx",-8.197264239579466],["Al",-8.204844659834933],["haber",-8.209494810650119],["cual",-8.213147757310566],["B",-8.219870986896444],["meses",-8.221398538212629],["ras",-8.226052339849087],["Una",-8.22708654958511],["actividad",-8.229002821710665],["I",-8.232919722334351],["programa",-8.23363538007946],["ieron",-8.235652865199851],["cambio",-8.236942060984179],["proceso",-8.24047714790468],["San",-8.24068074860855],["nuestra",-8.241163128354435],["tuvo",-8.243514047829265],["b",-8.243771053806327],["uno",-8.244251157821228],["mucha",-8.245287608636708],["España",-8.246174407853239],["principal",-8.250524386348143],["última",-8.25407627177158],["Esto",-8.254907170976656],["seguridad",-8.263923625739984],["persona",-8.264571696197834],["2021",-8.269556739430058],["G",-8.26967874584545],["/",-8.27479949394841],["gente",-8.284458253603114],["historia",-8.291433658215821],["ones",-8.292213573487853],["cuatro",-8.293980465417775],["junto",-8.29425458718212],["cómo",-8.295986656532266],["local",-8.304375377185224],["0",-8.306604034727386],["O",-8.309757693561023],["Unidos",-8.31129661630616],["centro",-8.312191252267542],["dij",-8.316779682453681],["alguna",-8.320482411448783],["mient",-8.321375160255892],["er",-8.321913691902008],["12",-8.322070209882087],["casa",-8.325673555353296],["resultado",-8.32585793226043],["f",-8.332854508498404],["tenía",-8.333152104497607],["Ucrania",-8.333356828804813],["salud",-8.33906551070493],["ello",-8.339981675996901],["posible",-8.341163933586039],["bajo",-8.341423570870852],["general",-8.347437149843296],["in",-8.348898663244935],["15",-8.349339143010972],["grande",-8.353026510291247],["próximo",-8.361193731506324],["g",-8.364157136262408],["señal",-8.369287961839529],["agua",-8.370630307575166],["número",-8.376233646890592],["derecho",-8.378991280517564],["án",-8.383331346529879],["Lo",-8.38493107420969],["18",-8.386059457367406],["hiz",-8.386285819994145],["trata",-8.387514706120147],["fin",-8.389258981076383],["muchos",-8.392368857228025],["nacional",-8.398544312947784],["cualquier",-8.399764471487352],["sistema",-8.40080078104371],["dólar",-8.402475186162533],["objetivo",-8.403941031398208],["encuentra",-8.404180267670853],["frente",-8.410887015716956],["segundo",-8.411131263998197],["tan",-8.41413055665959],["oficial",-8.41649176029144],["especial",-8.421438225644401],["otra",-8.422107888064904],["actual",-8.422442003369007],["misma",-8.425924986926866],["casi",-8.435979448196235],["cas",-8.437965809469834],["otras",-8.439417153230117],["minuto",-8.44232227567445],["llegar",-8.444009197789631],["tema",-8.445280879875433],["decir",-8.44718982191037],["les",-8.45480124546289],["redes",-8.458074394958054],["ten",-8.465494182078228],["sigue",-8.465690750574723],["V",-8.469176200633878],["nada",-8.469414767946631],["Su",-8.474242011349657],["noche",-8.475184756107208],["ellos",-8.478855839104313],["vehículo",-8.479640685101725],["lunes",-8.480124411897542],["mujer",-8.486636151585522],["mercado",-8.489675664919556],["quiere",-8.49208920564379],["cinco",-8.493189189508763],["11",-8.493848002127812],["urante",-8.49781628110398],["euros",-8.500442652151465],["personal",-8.50231209647395],["mujeres",-8.502440524702028],["producto",-8.50554839899695],["cerca",-8.51153443662383],["público",-8.51542075858762],["jugador",-8.515683044654304],["haci",-8.518186474384889],["sentido",-8.519499754458424],["mañana",-8.51958241606783],["sábado",-8.523254719881399],["tendrá",-8.524846352718564],["juego",-8.53085441777451],["…",-8.530938509728621],["ciento",-8.53603285188288],["víctima",-8.537678900239019],["obra",-8.54192068998817],["par",-8.548925681798131],["viern",-8.549173603968814],["veces",-8.54921853113514],["unos",-8.55676039268009],["domingo",-8.557244529271244],["sino",-8.561072897540399],["qu",-8.5641008840301],["pandemia",-8.564245060622829],["Argentina",-8.567950080513654],["$",-8.570141533992164],["primero",-8.570405726411703],["H",-8.573438164533087],["pueda",-8.576449373074793],["realizar",-8.585869611331074],["temporada",-8.58593348247997],["seguir",-8.588252248937607],["cargo",-8.593752971880996],["to",-8.595500405332215],["re",-8.596896179864565],["comunidad",-8.601366056901336],["fecha",-8.603430141770197],["respect",-8.607061911867277],["14",-8.607775628442157],["24",-8.611726719277808],["podrá",-8.613694365784074],["fuera",-8.615951190383077],["oportunidad",-8.616436757196826],["puesto",-8.617659950325065],["encuentro",-8.620744540159858],["espera",-8.62513056098225],["aún",-8.627837075291382],["iércol",-8.628512410660925],["Des",-8.63045474196163],["13",-8.630832904220439],["buena",-8.634868958913236],["carrera",-8.638278710418922],["posición",-8.639305569714683],["lado",-8.64026518358335],["ido",-8.64060607500663],["00",-8.646038810642917],["diferentes",-8.648168662417193],["200",-8.650312232664723],["partir",-8.652772974446787],["segunda",-8.65295314311093],["tarde",-8.65507375129787],["Rus",-8.657696079469048],["internacional",-8.658796271838868],["ra",-8.65960918383436],["cuerpo",-8.659621498362046],["vario",-8.659886255900616],["valor",-8.662668115437008],["j",-8.669182224811387],["ex",-8.669541336649853],["ú",-8.676976462260239],["25",-8.683015498290882],["cosa",-8.683775152888252],["16",-8.686449469176512],["ministro",-8.687204836417179],["pública",-8.689844021358107],["17",-8.691556342652444],["conocer",-8.695108119419109],["falta",-8.697158727837714],["50",-8.701426033647984],["inclus",-8.702204890965891],["miento",-8.702339013469716],["Todo",-8.705765708328535],["fuerza",-8.710752469098278],["joven",-8.71460553192402],["indic",-8.715792726669726],["pueblo",-8.716626159872654],["tra",-8.717841216387372],["Ministerio",-8.722575412987688],["prueba",-8.723075909332831],["simismo",-8.724808456297122],["Juan",-8.727346215184749],["línea",-8.727587475002476],["asegur",-8.729401605153278],["población",-8.7312925117469],["ella",-8.73235590454635],["municipio",-8.732828451978346],["padre",-8.733029113899],["present",-8.738256136270444],["com",-8.743037128806193],["fuerte",-8.743286489258466],["serie",-8.744518265959496],["largo",-8.745035768542442],["dio",-8.747796216392544],["muerte",-8.747860604062874],["guerra",-8.749610926832815],["provincia",-8.750190084980199],["mayoría",-8.750346851155774],["precio",-8.752290274499932],["jornada",-8.754140623275191],["debido",-8.754240258591405],["paso",-8.756463381434406],["na",-8.759646013802051],["apoyo",-8.762497823195723],["Hay",-8.762704657562438],["ejemplo",-8.763618392090311],["varia",-8.771814056045333],["marca",-8.778570470348843],["dice",-8.782893650452918],["espacio",-8.783353820538519],["causa",-8.784055170251857],["ayuda",-8.788038118953185],["ca",-8.790362816033237],["nunc",-8.791307986176424],["mes",-8.791451996847796],["igual",-8.791604705844374],["mensaje",-8.797309169214511],["Como",-8.798647414949878],["pues",-8.800587371191924],["pesos",-8.800898362513122],["dar",-8.802902188348321],["líder",-8.80398876343326],["junio",-8.80406197222832],["ya",-8.808422817809294],["nombre",-8.809261115245686],["marte",-8.80996795837314],["produc",-8.813141357320038],["Jos",-8.813580651019326],["ismo",-8.816493307429614],["propuesta",-8.81690130916573],["real",-8.820112646656511],["entro",-8.821338047560815],["policía",-8.822843228491585],["profesional",-8.824190295737576],["director",-8.825633675998398],["expres",-8.826046748911203],["recurso",-8.827605581761379],["trabajador",-8.82908656883398],["unidad",-8.829709155267857],["estará",-8.829839380373826],["2020",-8.83005758214155],["club",-8.832200608098312],["Madrid",-8.832348149521199],["octubr",-8.833395864508017],["pas",-8.834900379334359],["dinero",-8.835458760817822],["dad",-8.836387484967474],["res",-8.839525133516483],["calle",-8.840648685528446],["ta",-8.842954776473109],["viene",-8.846650264638335],["precios",-8.847063456769188],["evento",-8.854632394580879],["propio",-8.857006951662033],["plan",-8.857536724776406],["ataque",-8.859405675764464],["Mundial",-8.860685697755375],["alto",-8.862675239483602],["compañía",-8.862811203147526],["enero",-8.862816580076068],["control",-8.863593789547124],["cción",-8.863624579511438],["novi",-8.865254507787322],["Policía",-8.86663263009418],["40",-8.867816044988135],["futuro",-8.868999954587625],["realidad",-8.870156851043483],["–",-8.87065873744838],["dato",-8.873673261850389],["legó",-8.874122814614942],["desarrollo",-8.87571838778259],["muestra",-8.87778408179133],["experiencia",-8.8783070780133],["22",-8.878396238138325],["21",-8.881455946757587],["po",-8.882041154122994],["llevar",-8.884869038878024],["investiga",-8.886252020349229],["onces",-8.88889763253875],["van",-8.893955876952813],["100",-8.894205921040015],["riesgo",-8.894357094586201],["capital",-8.896507067157216],["informa",-8.899255912127002],["gún",-8.899615053780465],["necesario",-8.901861372040795],["busca",-8.90363440452106],["comunicado",-8.904757229140703],["arzo",-8.904886085427076],["J",-8.907293689444707],["evitar",-8.914331844280895],["posibilidad",-8.91469332581235],["parece",-8.915040319831391],["ruso",-8.918610385683994],["agreg",-8.921114768628705],["dicho",-8.92171987726857],["estas",-8.925175057429186],["poner",-8.925484341929906],["respuesta",-8.925497927553852],["juli",-8.930211005825226],["tenido",-8.931522509322624],["necesidad",-8.933743395139086],["baja",-8.934847324692424],["campaña",-8.93577038788334],["tu",-8.936179180847553],["gosto",-8.93618321024899],["aumento",-8.93811278534393],["Luis",-8.93842207861039],["Entre",-8.940250405555425],["tenga",-8.942037227492186],["Europ",-8.94317654759493],["remos",-8.945536492882026],["prensa",-8.94849259599991],["edad",-8.949635734741731],["dici",-8.949879662789591],["explicó",-8.951169290731423],["difícil",-8.95216729274414],["2023",-8.953446062013741],["cre",-8.954157522322177],["ba",-8.9576709950522],["Tras",-8.957733131601056],["ni",-8.958064704958066],["nosotros",-8.960538724097992],["mano",-8.962778431556973],["estadounidense",-8.963514617140792],["video",-8.963829084059608],["per",-8.965933589196535],["calidad",-8.967447444269325],["alta",-8.96765347617444],["buen",-8.967721812823864],["miembro",-8.969159524200954],["municipal",-8.970980648540866],["económica",-8.971824006893987],["inicio",-8.972559442032173],["encontrar",-8.974799761418229],["sabe",-8.976128226810932],["mayo",-8.9763532870694],["Ahor",-8.977326027327681],["vecino",-8.977944733980625],["energía",-8.97984308510469],["ías",-8.98039387101084],["elección",-8.981200938929835],["Carlo",-8.982879081970935],["pez",-8.983255128558866],["sociedad",-8.986027767260534],["cabo",-8.986173594139721],["palabra",-8.986440522956135],["mo",-8.98655964145507],["cia",-8.988791056431701],["amigo",-8.992589762402647],["sería",-8.992886943180435],["pareja",-8.992989924789278],["afirm",-8.99547637111268],["cifra",-8.997867264238891],["trabajar",-8.9999514595964],["violencia",-9.002625610703614],["Día",-9.004186505752251],["tomar",-9.004578221355663],["Salud",-9.006509407270872],["capacidad",-9.007224070022621],["lleva",-9.008924034416296],["entidad",-9.00903435225586],["or",-9.013408930389629],["familiar",-9.015383515224006],["ar",-9.015848349739926],["gracia",-9.016520005204459],["madre",-9.017813584465062],["an",-9.020716434930442],["febrero",-9.025522546731452],["le",-9.02587769228569],["claro",-9.026039765479066],["presencia",-9.026182833382247],["conjunto",-9.02624836815517],["fiscal",-9.027267609509998],["Fue",-9.02780774127715],["pesar",-9.02800799107425],["situa",-9.030027600850826],["anterior",-9.03358413237376],["accione",-9.033955544846032],["ólo",-9.034410737200059],["Centro",-9.034571081501404],["grave",-9.03585500692314],["pasar",-9.036489395592955],["delito",-9.036627394178383],["vivienda",-9.036934081813513],["reunió",-9.042233844656394],["español",-9.044663368895879],["venta",-9.044878144808166],["camino",-9.04803417914577],["vía",-9.048839079099151],["destac",-9.049329354442012],["Est",-9.049403855615694],["ado",-9.05134208083238],["único",-9.051646775620803],["dejar",-9.051898018694395],["reciente",-9.05320777540625],["Durant",-9.054892458176386],["eron",-9.05833342338215],["mantener",-9.060109829524535],["alrededor",-9.06024335735578],["plataforma",-9.062489268328548],["enfermedad",-9.063178377395548],["abril",-9.065136649357747],["comenz",-9.066683573204688],["haya",-9.066758172883489],["cantidad",-9.072383510773856],["salir",-9.076242512818936],["cuanto",-9.077195529236212],["reg",-9.079400755386331],["llev",-9.084041431158129],["área",-9.08462227953987],["ganar",-9.087535042278716],["inflación",-9.087897172294568],["23",-9.087998082536007],["menor",-9.088403300229256],["victoria",-9.089071515477574],["anunci",-9.090278214044865],["Twitter",-9.09203134489022],["General",-9.093577830319607],["usuarios",-9.094901869509695],["60",-9.095218435455124],["Mi",-9.100547251497963],["x",-9.102152778864395],["diferencia",-9.105871662021878],["ciudadano",-9.106503198981809],["plazo",-9.107431091348822],["haciendo",-9.107823689345022],["aquí",-9.107977679343806],["ingreso",-9.108706251676495],["demanda",-9.111430366652499],["esté",-9.11432350641019],["película",-9.11517018920333],["compromiso",-9.117879944568912],["ningún",-9.120891229593695],["principio",-9.121740863254981],["jefe",-9.122063374419547],["ve",-9.122446409674271],["viaje",-9.1231698325822],["ahí",-9.124453136049672],["acceso",-9.125194582401384],["noticia",-9.127361284436713],["motivo",-9.127693822953354],["humano",-9.132756068126156],["genera",-9.133249468063468],["económico",-9.134793746827171],["realiz",-9.135410137798978],["habría",-9.138806995205332],["Ciudad",-9.138911445474754],["¡",-9.13997125497376],["hub",-9.14012752532414],["pequeño",-9.140188687057105],["modelo",-9.140549072961239],["él",-9.141051392761485],["presente",-9.147242950163253],["media",-9.147742301752677],["pago",-9.148389794924242],["mar",-9.151118660104885],["mundial",-9.152269806899277],["gan",-9.152603154581545],["todav",-9.154704158469684],["Santa",-9.154706974325777],["dado",-9.155291053483694],["lograr",-9.1625089166293],["volver",-9.165002399659588],["recibi",-9.167384185115015],["metro",-9.167392500585974],["resto",-9.170818438234866],["permite",-9.173664411055139],["visto",-9.17368677548111],["deben",-9.175191717113936],["ent",-9.175419108495198],["nadie",-9.17562614877706],["visita",-9.17595978254957],["efecto",-9.17775436951045],["negocio",-9.180721085645086],["fútbol",-9.182145233676763],["duda",-9.184000403120276],["territorio",-9.18410406539932],["ernández",-9.184751322009213],["Liga",-9.185089121836821],["explica",-9.185595258381413],["economía",-9.186463104080262],["periodista",-9.18781425711818],["Ante",-9.188061360225497],["ro",-9.193187642508889],["Después",-9.193208181911995],["X",-9.19536448660713],["cierto",-9.195728842474216],["tarjeta",-9.19810355963446],["escenario",-9.198530354886831],["María",-9.200079883961472],["base",-9.200771315531998],["jugar",-9.202132773291089],["puerta",-9.202145018342486],["libre",-9.206860222507693],["crecimiento",-9.207861823021386],["próxima",-9.20979894826113],["26",-9.210322482823258],["condicione",-9.211686410070978],["hablar",-9.212555910288952],["27",-9.217072452226919],["k",-9.217477958323471],["elemento",-9.218247359827027],["paciente",-9.219271114202321],["Congreso",-9.2206325104289],["luz",-9.221389972880292],["fu",-9.222843763659068],["logr",-9.22372592179379],["ayer",-9.226325543586476],["técnico",-9.22676916573991],["idea",-9.22755316630526],["demá",-9.227778409576088],["hospital",-9.227809947231467],["decisi",-9.228057453449782],["estudio",-9.228653501786033],["ofrece",-9.228953549341117],["modo",-9.229422278469187],["28",-9.230629070292297],["declar",-9.230872660324987],["grado",-9.232460676466882],["ley",-9.23279472601023],["siguiente",-9.234102477064827],["gas",-9.235081459754518],["habrá",-9.236141002291838],["popular",-9.237588117653477],["Universidad",-9.238388211986031],["República",-9.238966783292181],["tenció",-9.239261328926968],["música",-9.239584771384957],["mantiene",-9.242756685944741],["ampoco",-9.242822776446893],["localidad",-9.244386962958025],["máximo",-9.244412129974261],["Hoy",-9.24471428093952],["única",-9.24568969241319],["movimiento",-9.247780106869687],["Venez",-9.248449814297548],["presenta",-9.250571873114637],["campo",-9.25478202619999],["!",-9.255451131651196],["defensa",-9.255963922730453],["manifest",-9.256477429856375],["clave",-9.259545344457852],["necesita",-9.259803882425434],["impacto",-9.260047539097751],["lucha",-9.260086657092076],["500",-9.265619734355766],["gobernador",-9.266338999922041],["entrada",-9.26789417814241],["distinto",-9.268241983868112],["acto",-9.268453468691568],["político",-9.268518993552224],["interés",-9.268938196767587],["eleccione",-9.271199026888825],["titular",-9.27323275143016],["participa",-9.274045249817018],["kilómetro",-9.274609118541079],["central",-9.276454852147683],["éxito",-9.277723923828844],["cliente",-9.2789120728781],["artista",-9.279784189537276],["lista",-9.282337788483972],["oferta",-9.283525348033997],["accidente",-9.284162940366457],["entrega",-9.284455728619001],["libertad",-9.285889514474356],["gol",-9.286012005145082],["título",-9.286795974884608],["esfuerzo",-9.286976200311706],["Consejo",-9.289564684433618],["representa",-9.290254355599194],["cabeza",-9.290669783046397],["adelant",-9.291282138714024],["Colombia",-9.29174377598371],["ánche",-9.29193907240695],["hechos",-9.292034921438027],["responsabilidad",-9.293962546690512],["teng",-9.296126795830784],["ir",-9.296155007321588],["seguro",-9.296931206894035],["importa",-9.296959004957298],["favor",-9.297063001393926],["vuelta",-9.297162423208505],["ju",-9.29748461944113],["llega",-9.298590871536357],["tecnología",-9.299372642184345],["auto",-9.299633154702265],["mejorar",-9.302307161302021],["iniciativa",-9.302677274858942],["rez",-9.304390380769771],["década",-9.30664766822024],["argentino",-9.307086265799079],["epti",-9.308213287108478],["fuego",-9.308456091732289],["ocho",-9.31211497731784],["interior",-9.313042681672428],["debería",-9.313830245286923],["escuela",-9.314283856615724],["Manuel",-9.315101093435828],["voto",-9.317064074212198],["Ha",-9.31935428554998],["práctica",-9.320431552521878],["da",-9.320922810046557],["mal",-9.322116736473042],["eves",-9.32215107187903],["propia",-9.327561728248426],["tal",-9.327736758600011],["detenido",-9.328170191433856],["situ",-9.328761555664176],["29",-9.329082771482307],["fácil",-9.330788507301076],["za",-9.332001973670138],["vista",-9.332543017843461],["amor",-9.332652333578604],["uso",-9.333331360214995],["ninguna",-9.33439908050759],["contrato",-9.335511242544658],["suma",-9.336428818957062],["América",-9.336547897525929],["iños",-9.33688743939928],["cris",-9.337357101907],["temperatura",-9.337428816720958],["positivo",-9.337719867784518],["cara",-9.33916326228562],["eguridad",-9.343403023858013],["iones",-9.343408889626899],["orden",-9.34353957375053],["saber",-9.343721875407041],["vacuna",-9.344728664381151],["guien",-9.3465388730119],["sitio",-9.347351348375497],["pasa",-9.348128691584634],["llamado",-9.352539842221033],["industria",-9.352784518790017],["entrevista",-9.353566896803382],["marco",-9.354495330039907],["lluvia",-9.356433881774926],["Bueno",-9.35863847735591],["termin",-9.361058703545783],["disponible",-9.361596897616637],["representante",-9.362753662181525],["Me",-9.363678024662201],["natural",-9.363680599543743],["conocido",-9.365778080559176],["sexual",-9.365940668813876],["barrio",-9.3662347149421],["candidato",-9.367584031401272],["informe",-9.368262536839266],["mexicano",-9.369350510584816],["materia",-9.37026090825098],["contacto",-9.372876807875818],["marcha",-9.373492812728593],["vi",-9.37668822365648],["imagen",-9.37733919554801],["ocurri",-9.378345175165414],["confirm",-9.378352077473501],["fundamental",-9.378546721254693],["nte",-9.381844310121682],["Que",-9.383959450249208],["participar",-9.384838936919696],["endo",-9.384964559224906],["sí",-9.385350781330214],["bueno",-9.38706203284412],["contar",-9.387284888050884],["pued",-9.388073561424681],["public",-9.389812834619637],["70",-9.39026420382776],["categoría",-9.390578381230306],["golpe",-9.390935829481897],["ing",-9.391040248352962],["ría",-9.392401109692871],["color",-9.394567872073829],["comercial",-9.395989730275266],["añadi",-9.397347940597744],["estrategia",-9.397612226903107],["militar",-9.398137700773157],["Copa",-9.398788947465814],["China",-9.400308094172136],["Pedro",-9.401084116043222],["31",-9.401302339957882],["eso",-9.401835607537205],["atos",-9.402321709838066],["ma",-9.403155058777475],["calles",-9.40457435027688],["presentar",-9.405652372401835],["genes",-9.40737090203741],["fiesta",-9.408919140267104],["80",-9.41117657739651],["allá",-9.411470194675001],["actor",-9.411486242715013],["uando",-9.411791628456777],["considera",-9.412723400683358],["Real",-9.413024608483905],["conflicto",-9.416134365796156],["alcalde",-9.417461359326722],["realiza",-9.41781484598382],["emergencia",-9.418240877542924],["mandatario",-9.419125124251686],["Yo",-9.41942917333617],["diputado",-9.419429678154394],["estudiante",-9.421046246111867],["estuv",-9.422042897324738],["diario",-9.424053518533213],["deberá",-9.42406848992982],["torneo",-9.424829948065323],["Instituto",-9.425046032676072],["Fiscalía",-9.425109666663394],["distinta",-9.4254633524672],["digital",-9.42635291069207],["presión",-9.4283309754051],["mediante",-9.432240564249163],["olo",-9.432325763048365],["hija",-9.434329915646288],["ayudar",-9.435393950964194],["plaza",-9.43552692334887],["destino",-9.43625880871939],["iba",-9.437127775240668],["llegada",-9.43958219794213],["coment",-9.441332642088764],["documento",-9.443098506919261],["material",-9.44334973171539],["mitad",-9.444036447488177],["tuación",-9.44433311687958],["salida",-9.445726395058365],["deja",-9.446209350778394],["Más",-9.446292885946868],["Ángel",-9.446361326158062],["recibir",-9.447736203369033],["ez",-9.44790388814804],["estatal",-9.449105869056611],["encontraba",-9.450565080218176],["sol",-9.45122271826212],["cita",-9.45237946188354],["ero",-9.454393812790439],["realizado",-9.455128773891069],["web",-9.455515593276449],["probable",-9.456802841485615],["pagar",-9.457195869620794],["K",-9.457667306768588],["tierra",-9.459766149769969],["etapa",-9.46006940265811],["federal",-9.460090883319612],["justicia",-9.461987346783996],["policial",-9.465154498707477],["90",-9.465895607547731],["papel",-9.46619224314814],["celebra",-9.466625439565442],["Casa",-9.468015871061677],["pasada",-9.46870682905031],["reforma",-9.468875664581144],["impuesto",-9.46917135342945],["conductor",-9.4704057613416],["continúa",-9.470732840678698],["trabaja",-9.472008306925517],["Final",-9.47294352733482],["contenido",-9.473490043487303],["Civil",-9.47555902008902],["consumo",-9.47569390034952],["hacen",-9.478281974835232],["asegura",-9.478574896395646],["esa",-9.478963812511527],["Rodríguez",-9.4793302755155],["hicier",-9.482073278219543],["particip",-9.482089967684384],["PP",-9.482217035055385],["amenaza",-9.484355898958876],["cámara",-9.48453812806612],["denuncia",-9.485024926107828],["superior",-9.48695019040499],["hacerlo",-9.487376940129344],["siones",-9.487546552958735],["detalle",-9.48872407578464],["organismo",-9.488785451120432],["Hast",-9.4899741963772],["Miguel",-9.490678952601407],["35",-9.491843937971378],["verdad",-9.491938985515356],["habla",-9.492305586034833],["Cruz",-9.49232017009135],["organiza",-9.493234233212672],["decidi",-9.49348633757055],["di",-9.493616101249579],["regional",-9.493750547323241],["menores",-9.494321704563843],["dirigente",-9.496864164209187],["—",-9.49760716770329],["Secretaría",-9.498143948160902],["vivir",-9.498721338265927],["Nueva",-9.499725841868209],["crear",-9.500423285191104],["tercer",-9.502499157122902],["mí",-9.503025778478223],["libro",-9.50334792141211],["buscar",-9.504548420608751],["compra",-9.50506996322081],["ambo",-9.50554514247045],["Garc",-9.505972543625266],["incremento",-9.506667857044595],["cumplir",-9.507084561306794],["Justicia",-9.509661077087937],["trabaj",-9.510303274883904],["mis",-9.51142820865342],["disfrutar",-9.511675581225782],["ncia",-9.512329226333648],["ducación",-9.512993135767275],["podía",-9.514823947157172],["Mient",-9.516779558386645],["existe",-9.516785566382074],["COVID",-9.51728703594609],["Ayuntamiento",-9.5173347268554],["us",-9.51751881523757],["ste",-9.519007748844242],["Chile",-9.519061931749668],["má",-9.5191288826047],["electoral",-9.520079889079986],["Villa",-9.520472241685606],["aspecto",-9.52071462202377],["artículo",-9.521360057232116],["Brasil",-9.52476753969255],["cantante",-9.52534481077591],["similar",-9.526584347670592],["ruta",-9.526704183649858],["pa",-9.528750123959657],["sta",-9.528800849302426],["Cámara",-9.528990907322981],["conocimiento",-9.529336257083347],["avance",-9.530474760647417],["Presidente",-9.531380235001448],["Putin",-9.532895298142758],["manos",-9.53301584341516],["incendio",-9.533033500106706],["clase",-9.533695339662408],["cambiar",-9.53513942348534],["cuarto",-9.535190696652801],["tercera",-9.538604339841816],["so",-9.544101555636578],["uela",-9.544822561161402],["tarea",-9.548291604086703],["herramienta",-9.548748894322806],["Ejecutivo",-9.548850832259966],["suficiente",-9.550346349344373],["bastante",-9.552914584577131],["periodo",-9.55375229807305],["rápida",-9.555243110056121],["transporte",-9.556499070250803],["edificio",-9.557367414986572],["quedar",-9.557953261450596],["contexto",-9.558854020589095],["cultura",-9.559243418719646],["atrás",-9.559639846677744],["toma",-9.560623454542274],["Francisc",-9.560724590063952],["Internacional",-9.560967485446373],["investig",-9.561466904202021],["45",-9.563530183298656],["operativo",-9.565598669289326],["ucraniano",-9.566699440033858],["judicial",-9.567358994068007],["significa",-9.568010007893506],["habl",-9.56857512857219],["incluye",-9.570278286386078],["institucion",-9.573137095828091],["norte",-9.574046914896083],["agente",-9.57427579605162],["generar",-9.574762635225397],["arte",-9.574969928991788],["señala",-9.575067936634465],["fuentes",-9.575899572191924],["verano",-9.57787375620606],["gusta",-9.578240070766329],["sostuv",-9.578620007929244],["hará",-9.58051676482948],["animal",-9.580630482500238],["funciona",-9.581248539248362],["término",-9.581325753988061],["declaraciones",-9.583643725023336],["Social",-9.583723258465154],["ió",-9.585167219074748],["competencia",-9.585476527065934],["figura",-9.586092569005405],["oficina",-9.586332330517312],["empez",-9.586761429921427],["Aire",-9.58770764487932],["ti",-9.588174202750917],["pérdida",-9.589505590900167],["juicio",-9.589876262173775],["ejercicio",-9.590711872369095],["hemo",-9.591440848367501],["Barcel",-9.592549623092513],["empleo",-9.593230119671984],["quiera",-9.595225080160892],["ia",-9.595497692630016],["Albert",-9.595851534933505],["frontera",-9.595885892404816],["rusa",-9.595896244227085],["juez",-9.596016790786573],["imá",-9.598387103033941],["registr",-9.598735748874379],["máxima",-9.599317088643513],["cos",-9.599443574607353],["is",-9.600940101443442],["integrante",-9.600987479137464],["legal",-9.601187541606901],["Ley",-9.601347314148038],["género",-9.60194197315092],["firma",-9.601988960141634],["alcanzar",-9.602085643638675],["premio",-9.602386624815804],["volvi",-9.602539036242714],["tratamiento",-9.602606508743152],["°",-9.603143279488915],["diálogo",-9.603647395163406],["paz",-9.603743396413957],["peor",-9.604921621730945],["hermano",-9.605329572211145],["gasto",-9.605501316945883],["labor",-9.608926678822266],["pena",-9.610158247919056],["triunfo",-9.611139430136266],["dura",-9.61165814203358],["armas",-9.612329380020904],["mostr",-9.61288847956315],["completa",-9.612903704091766],["médico",-9.61369298400357],["afectado",-9.614412155224564],["reducir",-9.61476760908122],["estadio",-9.615085021177464],["secretario",-9.615156790140242],["pedido",-9.615481567968644],["Jorge",-9.617312442625746],["conseguir",-9.623806607474398],["Banco",-9.623809090842949],["confianza",-9.624150589618374],["Ram",-9.624838926884376],["directa",-9.626422171274822],["aquello",-9.627248418140116],["caída",-9.630306094114104],["haga",-9.630737550916336],["nes",-9.631250287484868],["ventaja",-9.633227321387327],["Franci",-9.633628040939525],["pensar",-9.63422509573593],["opin",-9.634422129461694],["continuar",-9.63589770547988],["Qatar",-9.63628277540038],["referencia",-9.636284165522346],["estrella",-9.63815823023062],["Pablo",-9.638252383980358],["can",-9.639482494350014],["funcionarios",-9.64020393358857],["Martín",-9.640260401791172],["perder",-9.64087988553789],["escribi",-9.641743185155129],["Otro",-9.642916699743989],["teléfono",-9.64384858105748],["amarilla",-9.64713877202734],["indica",-9.647256704663782],["alimentos",-9.648132718733379],["particular",-9.64843153785861],["responsable",-9.648875299905121],["laboral",-9.648880190328214],["quería",-9.65039134614231],["mejore",-9.651029458977083],["cont",-9.651986226343013],["comunica",-9.652475250668726],["supuesto",-9.65248516492377],["queda",-9.652662493586103],["dic",-9.653270387505868],["precis",-9.654041168424751],["tratar",-9.656456780087861],["Biden",-9.656486302083865],["cierre",-9.656506923413406],["detall",-9.656692883961945],["aire",-9.6578099547596],["abogado",-9.660228526694663],["encontr",-9.661803724725338],["ición",-9.662095686672245],["record",-9.662400784324355],["quién",-9.662567884207185],["ese",-9.66367363187832],["banda",-9.663762443391963],["común",-9.665425783717243],["The",-9.667096359722525],["banco",-9.667102944967244],["Ya",-9.667224651724489],["González",-9.667267662813021],["personaje",-9.66795294844897],["gener",-9.66918448186739],["Cabe",-9.669666882917598],["André",-9.670506666483837],["arma",-9.670705526318379],["covid",-9.671052440175178],["lación",-9.67323389611219],["empleado",-9.673635292613255],["curso",-9.674257116146066],["diez",-9.674285697712195],["Covid",-9.67559596893808],["entorno",-9.675919479511442],["página",-9.676464890208631],["coche",-9.678048754170566],["completo",-9.678996206760283],["realizará",-9.680624435653051],["encima",-9.680866698254631],["obtener",-9.681122548821044],["llamada",-9.681200829112887],["Antoni",-9.681374637601499],["pequeña",-9.681627622594718],["espacios",-9.683244615404023],["discurso",-9.683957132093559],["Mar",-9.684212715444573],["perdi",-9.684654288335883],["Perú",-9.686313825868073],["global",-9.686318016930086],["apena",-9.686724694006687],["ocasione",-9.687487727555673],["amplia",-9.689209178379604],["sueño",-9.689849130854872],["aten",-9.690934548705801],["ocurrido",-9.692545884685092],["construc",-9.694159172994746],["entr",-9.694617909331008],["sacar",-9.695182023582312],["Hospital",-9.698374935609682],["error",-9.69870357224345],["man",-9.699212142222379],["debate",-9.70120205490273],["entrenador",-9.70196885597872],["muerto",-9.702284124436401],["disposición",-9.70252761747699],["diferente",-9.702552005176862],["presupuesto",-9.703717306135225],["Alemania",-9.703881859977503],["llegado",-9.705007701221675],["abierta",-9.709829490311403],["das",-9.710350842997395],["departamento",-9.711311137730952],["interven",-9.711541437174617],["cadena",-9.71426188914308],["eran",-9.715815658134362],["%)",-9.71678071208866],["trabajan",-9.717205840751896],["física",-9.717560197630092],["abierto",-9.717716675636781],["comenzar",-9.718149672413523],["deuda",-9.718397919818742],["Alejandr",-9.718479894308402],["Obrador",-9.718587333387685],["tendencia",-9.718870519450403],["móvil",-9.720496162013388],["requiere",-9.721268661972244],["cuidado",-9.72188281352937],["correspondiente",-9.722822318040269],["34",-9.722998019097428],["Municipal",-9.723746305510899],["promedio",-9.724057880768484],["erán",-9.72517732704125],["dolor",-9.72521605791077],["convertir",-9.725407702066768],["ándose",-9.726668661867667],["factor",-9.727187852373566],["mostrar",-9.728876577148705],["estructura",-9.728919021265707],["comprar",-9.728982538929312],["esión",-9.729942904524405],["terminar",-9.730629655257417],["registro",-9.731408792685462],["penal",-9.731581232474014],["habitual",-9.73265140976854],["recordar",-9.733739455083983],["ambiente",-9.734082626181156],["políticos",-9.734557415965387],["des",-9.734642416801035],["planta",-9.735179978914946],["carga",-9.7361970730116],["199",-9.736318031546595],["comida",-9.736455604508002],["mínimo",-9.73710653015921],["recibido",-9.738264443578156],["Uno",-9.738458539276408],["segú",-9.738490449718165],["rival",-9.738876320276324],["ización",-9.739636377590852],["sur",-9.740888164976258],["Son",-9.741719004188905],["iembr",-9.742090133390167],["cuyo",-9.74260119417497],["deci",-9.743488472040003],["venezolano",-9.745301533365208],["go",-9.746611087203435],["Martínez",-9.746935028784332],["gesti",-9.747029702985365],["entrar",-9.748820041549456],["tráfico",-9.752890815783932],["normal",-9.752933119810326],["Puerto",-9.754077079267692],["cultural",-9.754077284394192],["diseño",-9.754268611645514],["carretera",-9.754933063483831],["Torre",-9.75662467578054],["virus",-9.756771785251651],["dispositivo",-9.757395738715102],["llí",-9.757839237321775],["herido",-9.757885039578955],["ejó",-9.75897076195696],["enorme",-9.75901740285682],["supone",-9.760720395053273],["trabajos",-9.76293687034754],["vuelo",-9.76395434387895],["objeto",-9.764229763241437],["conoce",-9.764722737569672],["fase",-9.764879020781217],["necesaria",-9.76529417715301],["ministra",-9.765551259131628],["protesta",-9.766679375151085],["autor",-9.767394992686052],["altura",-9.7683260918402],["hacía",-9.7684186090177],["esperar",-9.768604331046333],["funcionario",-9.77002504138957],["empresario",-9.770095313799553],["delante",-9.770217232220581],["ubicado",-9.770892149027603],["técnica",-9.771124486139101],["Federal",-9.771350431331625],["Santiago",-9.773243906909357],["publicado",-9.77636295450112],["izquierda",-9.776445059058283],["reporte",-9.776844174740905],["propiedad",-9.776927967890707],["registrado",-9.777202063127035],["tod",-9.778068613725125],["vaya",-9.778224664058651],["pide",-9.780017415953147],["afecta",-9.780901272245512],["tuvier",-9.784399791767711],["productor",-9.784665951749773],["futbolista",-9.786375740114192],["pantalla",-9.787740224319663],["pobre",-9.788091790974683],["privado",-9.78831618339047],["Central",-9.78881380758301],["Gran",-9.789774302498817],["efectivo",-9.791268797667074],["velocidad",-9.79154896312587],["combustible",-9.791693878338327],["actualidad",-9.792074905160723],["doble",-9.79210640433565],["enfrentar",-9.792709978538577],["domicilio",-9.793590924302418],["terreno",-9.795976197483892],["Defens",-9.796332811679502],["Instagram",-9.796620342215322],["vive",-9.796924130037821],["sufri",-9.798075237008096],["consider",-9.798103062326728],["comercio",-9.798540065207694],["Fernand",-9.79875020059937],["presentado",-9.799610947787933],["plicación",-9.799932495409116],["Norte",-9.803190418290487],["acusado",-9.80366887492795],["pronto",-9.804045069944216],["garantizar",-9.807140865654397],["época",-9.807320339245768],["Hace",-9.808953398536696],["300",-9.810911295930817],["trás",-9.811097501571258],["peso",-9.811367523182817],["fondo",-9.811763667174901],["infraestructura",-9.812397620141459],["Sur",-9.813961370187464],["investigador",-9.81408759819826],["Per",-9.814897859507205],["visitante",-9.815480107417056],["constante",-9.815750420422031],["Cristi",-9.81589089414493],["Juli",-9.81678514607049],["36",-9.817073810572547],["siglo",-9.81716986637542],["conferencia",-9.819050982937192],["Educación",-9.819473634508476],["part",-9.820152515879553],["rán",-9.821152483045909],["contrario",-9.821638487547249],["ada",-9.821987403323709],["darle",-9.824099103872042],["Pública",-9.82447319599699],["Partido",-9.82535151604741],["texto",-9.826189414355248],["áreas",-9.826583786659407],["derrota",-9.826800327596166],["arse",-9.82685677322775],["solicitud",-9.827241350268606],["preocupa",-9.827946984487697],["asistencia",-9.829123932981794],["Sobre",-9.82924208642894],["pregunta",-9.82973466687163],["histórico",-9.830103677724804],["ín",-9.833361030573943],["española",-9.837408448983101],["mien",-9.8375272666239],["rápido",-9.837783617386698],["Pérez",-9.838427237174226],["búsqueda",-9.838430618362954],["Club",-9.83864402339417],["derecha",-9.841128725925465],["Dios",-9.841572002126899],["75",-9.842044654770326],["usted",-9.843031870936223],["docente",-9.843445392484895],["expertos",-9.84354522949577],["horario",-9.845312166682973],["creo",-9.846317023925504],["herida",-9.84703754184363],["imos",-9.847922325957743],["recuerda",-9.847963726851022],["vo",-9.848151185001157],["asunto",-9.849414012149882],["salario",-9.84967385380206],["consecuencia",-9.849685393778763],["límite",-9.851485090714604],["Costa",-9.852004799535091],["posterior",-9.852354247758118],["síntoma",-9.852860736731271],["vuelve",-9.852930488890738],["clara",-9.853424752319937],["direc",-9.854748476809313],["dejado",-9.855283117650437],["recuperar",-9.855367935332062],["33",-9.855728358817167],["red",-9.85670365618768],["vacunación",-9.859335973000931],["seguirá",-9.861921631129466],["’,",-9.86193082383708],["comentario",-9.864509456734696],["madrugada",-9.865110497257044],["65",-9.86593291375345],["concluy",-9.866013765539378],["trasladado",-9.867126527231973],["reconocimiento",-9.867493155406336],["habitantes",-9.867763008052435],["provincial",-9.868479123859464],["usar",-9.868702583012354],["inició",-9.868808275616836],["verde",-9.872061926467246],["agencia",-9.872170683058124],["tro",-9.872560477761386],["dicha",-9.874665114541093],["turno",-9.875406970057988],["participante",-9.875504018980784],["198",-9.875785417302392],["esposa",-9.875800398656725],["400",-9.875807212942066],["Grupo",-9.876468878929614],["establecimiento",-9.876761354149634],["afectada",-9.878089629800428],["empezar",-9.88031806533506],["regi",-9.881132299537601],["privada",-9.882159412537286],["acceder",-9.88217824973351],["miedo",-9.88226463737504],["ás",-9.883022182464856],["compañeros",-9.8830533882621],["ales",-9.884340103689404],["’.",-9.88460196396057],["administra",-9.885159083419214],["adolescente",-9.886653522020449],["jue",-9.88820438598239],["fondos",-9.888425838056753],["iniciar",-9.888783338327883],["W",-9.89037034546907],["opera",-9.890474881506856],["aumentar",-9.891132292581752],["iete",-9.891958716804165],["delantero",-9.892228849150051],["peligro",-9.893857872753113],["relacione",-9.894350039984985],["Ten",-9.895106359893873],["democracia",-9.896933035262787],["Valencia",-9.897478329583516],["anual",-9.898114773889866],["jó",-9.898316353105379],["audiencia",-9.898947486262063],["respeto",-9.900140230463162],["ciclo",-9.900393090447366],["Europea",-9.90121995145411],["droga",-9.901480205179045],["celebr",-9.901980994751014],["portavo",-9.905773577294864],["especialista",-9.9057833678728],["justo",-9.9060821544895],["ería",-9.907758766046822],["campe",-9.907992629554757],["reduc",-9.908802077758143],["sancione",-9.908902493117623],["decis",-9.909118043530725],["tendría",-9.910491223886934],["coronavirus",-9.910701749020234],["idió",-9.9120801225706],["anuncio",-9.914425551860521],["Toda",-9.914671576225263],["tomó",-9.914774865933923],["Desarrollo",-9.915114365220056],["esperan",-9.915832953993025],["período",-9.916122422462834],["sujeto",-9.916476673145981],["negro",-9.916692266765722],["vio",-9.91761659900811],["Comisi",-9.918362563033257],["adulto",-9.919603979739367],["directo",-9.920533229565054],["gest",-9.920959120285193],["dicen",-9.921478527115896],["potencia",-9.921842902468748],["profesor",-9.923365621972232],["utilizar",-9.923564510953991],["Co",-9.924014219334046],["hogar",-9.925417372344143],["alerta",-9.9257862799419],["Derecho",-9.927340851992708],["previsto",-9.927469534750674],["sentir",-9.927604142358994],["ámbito",-9.927611715078475],["cerrar",-9.927771477591653],["voy",-9.928749438680207],["fines",-9.92879230589061],["alumno",-9.929136765791858],["sub",-9.929742184876986],["Tribunal",-9.930276620986564],["presidenta",-9.930622815895536],["informado",-9.931268091286256],["cumple",-9.931725440256901],["ofrecer",-9.932167801010543],["Z",-9.932312824770916],["Está",-9.932634426817526],["médica",-9.933074789197008],["esos",-9.933214488897903],["estudios",-9.933360233054385],["aquella",-9.933550745522886],["erá",-9.935272653185335],["funcione",-9.936198717972996],["32",-9.936801004397795],["38",-9.937374024056705],["costo",-9.938995157862475],["Cuba",-9.940118994896352],["musical",-9.940574635683038],["ucraniana",-9.941031330274395],["atender",-9.941449822560987],["beneficios",-9.941469083506973],["entender",-9.943152450852898],["estilo",-9.943455867679628],["concierto",-9.943668395508197],["sali",-9.944133110810153],["rigen",-9.94505055590648],["existen",-9.94524900628621],["Palacio",-9.945265886290969],["protec",-9.946045970127685],["europeo",-9.946478636987315],["fallecido",-9.946777340031897],["médicos",-9.946822382383472],["deporte",-9.94763900116084],["extranjero",-9.947940728559256],["crédito",-9.94820004371251],["públicos",-9.948435279178472],["recorrido",-9.950025146116467],["ilegal",-9.950943582516498],["inten",-9.951259329215983],["esperanza",-9.95141867158981],["hubiera",-9.951536518385918],["quiero",-9.9523477929833],["rendimiento",-9.952647889272441],["consumidor",-9.953725216703534],["lanzamiento",-9.953821689251086],["Guardia",-9.95442251974087],["civil",-9.955013352742212],["tas",-9.955380661777305],["porcentaje",-9.957228303937473],["ciudadanía",-9.95756794468251],["desarrollar",-9.957573527413466],["intentar",-9.958402463950133],["agenda",-9.960075690474113],["apertura",-9.960102537335299],["escolar",-9.960144594684937],["Unido",-9.960506376793326],["perdido",-9.960932422111023],["sumar",-9.960979845893855],["coraz",-9.961064605059757],["tien",-9.962004217044452],["eléctrica",-9.962122967259432],["York",-9.96321848060818],["Hernández",-9.96372095661457],["destaca",-9.964197159552295],["tienda",-9.964341189566765],["turismo",-9.966219213499752],["piloto",-9.9663580490824],["Corte",-9.967000171139514],["seguidor",-9.967519999571056],["siente",-9.968072401185808],["norma",-9.968281514954207],["querido",-9.968585676186459],["característica",-9.96939769351486],["blanco",-9.969726193820678],["lejo",-9.973055044722377],["migrante",-9.973344143283946],["chico",-9.973665525222504],["viento",-9.976617608084005],["distancia",-9.977140265493436],["pieza",-9.977847502057745],["Público",-9.97883372348549],["tribunal",-9.979162931342913],["potencial",-9.979561752649982],["siet",-9.980137107030764],["prepara",-9.980314871817733],["revel",-9.9810959103912],["resulta",-9.98159476810796],["fun",-9.982021683649531],["diverso",-9.982496759970502],["nueve",-9.984603234430551],["mesa",-9.984742216936963],["destacado",-9.9852534818964],["ga",-9.98546229795042],["franc",-9.985765095138138],["ment",-9.986110265175093],["corto",-9.986814612300428],["relacionado",-9.987227741091395],["foto",-9.987638666085042],["procedimiento",-9.987804736437665],["señalado",-9.9884969114998],["w",-9.988758239141163],["sept",-9.98900289095651],["original",-9.989467746699809],["marc",-9.990617254813774],["ves",-9.99070927035554],["deportivo",-9.991181371147366],["Creo",-9.991417348234393],["permanente",-9.993988745234919],["incidente",-9.995082963996541],["nacionales",-9.995379863961254],["pendiente",-9.99644718797668],["dentr",-9.996881407353683],["ista",-9.997105012924207],["abrir",-9.99737738255806],["inicial",-9.997712433182144],["result",-9.99789023242517],["tasa",-9.998669282997898],["Nicol",-9.999734519297922],["protagonista",-10.000269752281055],["pedir",-10.000348768021965],["larga",-10.000495400069084],["alza",-10.000699464399492],["entras",-10.000721153587957],["fotografía",-10.001233455438179],["río",-10.001669958630945],["+",-10.002333290114272],["canal",-10.004351276741634],["intento",-10.004429026934087],["presunto",-10.005148010991343],["robo",-10.0051558345982],["mbos",-10.005332571863741],["Departamento",-10.005421691639704],["activos",-10.005737483209945],["firmado",-10.006005369513439],["homicidio",-10.006444513692072],["mejora",-10.008005476064074],["tos",-10.008087819376012],["diversa",-10.008411536226134],["recupera",-10.009902705353394],["carta",-10.010788856292546],["colectivo",-10.011151580787715],["suelo",-10.011545674258928],["bloque",-10.011870407209585],["institu",-10.01256346869344],["comienza",-10.012779938436871],["identidad",-10.013756803109501],["especie",-10.013961116302664],["instancia",-10.014006184691432],["superar",-10.015792685477944],["vídeo",-10.015864342351447],["incluyen",-10.016788630688385],["Cu",-10.017644082775917],["incluido",-10.017743447509066],["amiento",-10.017773109163869],["qui",-10.018015222589664],["utiliza",-10.019312528090612],["convocatoria",-10.019360120245556],["independiente",-10.019830381325262],["firm",-10.02031169222139],["ritmo",-10.021446214678079],["permitirá",-10.02146537330154],["escuchar",-10.021887192936422],["Santo",-10.021945329949359],["beneficio",-10.022864098179397],["David",-10.023148490852325],["espectáculo",-10.023422770554898],["pone",-10.023507359052722],["rse",-10.023897626262546],["destacar",-10.024684425209308],["continu",-10.02547974529746],["razon",-10.025915061583117],["récord",-10.025992099703124],["suministro",-10.025993152574358],["llevado",-10.02643277857089],["Plata",-10.027145172983666],["comienzo",-10.027791838617826],["48",-10.028855206325616],["Solo",-10.029419681665265],["nota",-10.029705409074264],["solucione",-10.029792688248754],["presidencial",-10.029917380505788],["tradicional",-10.03033967010856],["Nuevo",-10.030779894049322],["conocida",-10.030909602754818],["intent",-10.031089630166301],["trimestre",-10.032693722058248],["registrar",-10.033424923917204],["anunciado",-10.034358066754642],["Alguno",-10.034622142973657],["alternativa",-10.034690293726307],["Servicio",-10.035170961414904],["cierta",-10.037795907597998],["Castillo",-10.037871975690244],["produj",-10.038170531245665],["Federación",-10.039031085680328],["recuper",-10.039485013078696],["Sergi",-10.039867470436835],["isla",-10.040049940888848],["pie",-10.040506846901655],["asesinato",-10.041707483891614],["Ju",-10.041766472892608],["logrado",-10.04208618384106],["Porque",-10.042286256953822],["múltiple",-10.043122251340655],["azón",-10.043850865655813],["acerca",-10.044620015973102],["Javier",-10.04519049362614],["Álvar",-10.046143582931329],["calor",-10.0465955810776],["Tiene",-10.048555032097838],["señalar",-10.049066891756496],["Bar",-10.049664717239246],["avanzar",-10.049915527349906],["subida",-10.05106887921559],["ún",-10.052145931975978],["sorpresa",-10.052335706851295],["Reino",-10.052599684987573],["prevé",-10.052905844923716],["suerte",-10.053133616992017],["fuente",-10.053956942442234],["ban",-10.05507463975087],["cielo",-10.055346688505297],["instala",-10.055927986410293],["Moren",-10.056278476658544],["tramo",-10.05689168593736],["demasiado",-10.05700953391008],["estaría",-10.057034358039193],["financiero",-10.057233416146076],["conomía",-10.057926824161942],["asegurar",-10.058717698503775],["consulta",-10.059406034721588],["dificultad",-10.060656436349591],["exterior",-10.061189440337943],["organizacion",-10.061190515996486],["directora",-10.062182939967377],["virtual",-10.063505151007629],["anteriores",-10.064402375118036],["temporal",-10.064495948536875],["celebrar",-10.065169300499278],["avenida",-10.065705325466487],["afirma",-10.066780968609766],["naturale",-10.067159221457985],["convirtió",-10.067292923172678],["poca",-10.069364274680044],["pleno",-10.07013449281408],["car",-10.070671348695756],["tación",-10.071000878059204],["regreso",-10.072171857885873],["residente",-10.072242952486764],["escena",-10.07225193835975],["cancha",-10.072911277119264],["combate",-10.073921789971314],["implica",-10.07441402406197],["actuación",-10.07606149879216],["inmediato",-10.07619432797274],["Fuerza",-10.078379316082433],["petróleo",-10.0784509281395],["restaurante",-10.079590391366503],["llama",-10.080000847500273],["super",-10.080061746130145],["cambi",-10.080509627001483],["torno",-10.081713947288266],["implemente",-10.08264582698558],["provoc",-10.083170788948836],["pre",-10.083701223551529],["construir",-10.083780622096128],["nivele",-10.085553187697343],["consecuencias",-10.085875650685304],["hor",-10.085926011071345],["pelea",-10.086623172481335],["mensual",-10.087064721244733],["actuar",-10.087398791540087],["rueda",-10.089847253652213],["37",-10.09060094662835],["Del",-10.091047208496075],["dirigido",-10.091389631861357],["compartir",-10.091431912301736],["mencion",-10.09150536258452],["apunt",-10.092435660794086],["dependencia",-10.092667210027987],["Plan",-10.093521158340312],["decía",-10.094321011761188],["realizada",-10.095862647630852],["vino",-10.097993636103684],["suele",-10.098373732273913],["previa",-10.098493342179665],["parecer",-10.098827432114074],["Jes",-10.099270039733664],["perro",-10.100414030436802],["reserva",-10.101713204642081],["testigo",-10.102060547242118],["cree",-10.102375291910345],["buscan",-10.102517950534267],["subray",-10.103121392239856],["complejo",-10.103265526346735],["aba",-10.10390698622886],["ciencia",-10.10504167618536],["feliz",-10.105293073788957],["Direc",-10.105495859285169],["estima",-10.106103843514205],["Comunidad",-10.106264730647613],["refiri",-10.106399898964513],["resolver",-10.106449175752221],["apoyar",-10.107415750059067],["mental",-10.108404720529206],["señor",-10.108567176607284],["asegurado",-10.108668384889619],["histórica",-10.109068897371321],["expectativa",-10.109516358990582],["esperaba",-10.109653690018346],["distrito",-10.110125583054035],["Actual",-10.110346972787374],["interna",-10.110349423928723],["inversi",-10.110400905786175],["episodio",-10.110809444324122],["inmediata",-10.111469348180503],["comparti",-10.113802365176738],["Daniel",-10.113896673665767],["cárcel",-10.115043964477787],["concepto",-10.115264452066473],["pasajero",-10.115684773092042],["viajar",-10.116146990118718],["usuario",-10.11759590088365],["cine",-10.11859547155542],["OTA",-10.118670079522774],["proteger",-10.118728805273035],["cáncer",-10.120386290549586],["ganador",-10.120963463751663],["colombiano",-10.12114095740152],["confirmar",-10.121601589811291],["alifornia",-10.121724433374578],["obliga",-10.122056182457026],["Poder",-10.122332375809908],["publica",-10.125199978360882],["puesta",-10.125438894613058],["concreto",-10.12592607062671],["ueve",-10.127522166534217],["vivo",-10.129178083596948],["plane",-10.129899928242867],["acusa",-10.130657115053022],["básico",-10.130883913693125],["cuya",-10.131745341063247],["operacion",-10.13220466890721],["mez",-10.132207941720782],["contagios",-10.133953841623274],["parque",-10.134378132996563],["km",-10.135164444291394],["convertido",-10.136088301453498],["Junto",-10.136666574344865],["tene",-10.136935454528391],["interese",-10.137065426061746],["Unidad",-10.141546833128405],["hotel",-10.142181383579281],["tant",-10.14223784652733],["region",-10.143020541604656],["cercano",-10.143168312059348],["55",-10.143287815623363],["usia",-10.143404432951513],["llegará",-10.143925882263481],["sentencia",-10.144330443165746],["Protecció",-10.144793020936808],["piso",-10.145325476047603],["pretende",-10.145431632040681],["apuesta",-10.145881421789214],["Italia",-10.146181861759857],["nuclear",-10.14632682013977],["Mosc",-10.146785900948139],["permit",-10.14740640729894],["ocurre",-10.147936832829728],["Escuela",-10.148007563319332],["mandato",-10.148045662451306],["ubicada",-10.14818872840992],["trámite",-10.14873835961551],["disparo",-10.14951145159557],["Cultura",-10.150675597154205],["actitud",-10.152460880329514],["previo",-10.152768413512938],["vacacion",-10.153641918455357],["amonestado",-10.153823396391479],["ropa",-10.153990147811141],["empate",-10.154936747412107],["Uruguay",-10.155857476682474],["reconocido",-10.15608642516288],["Messi",-10.15676485506269],["establece",-10.157115026224428],["aplica",-10.159066714946839],["600",-10.160372933968134],["consejo",-10.161157148916647],["encuesta",-10.161460532805041],["asistente",-10.161905903443788],["desafío",-10.162370945330695],["requisito",-10.163518414832485],["imposible",-10.163906532836474],["inglés",-10.164150898712005],["invers",-10.165370180991868],["colabora",-10.165378389922065],["legislador",-10.1659449764749],["lleg",-10.166338614566431],["Re",-10.167483084659686],["Paul",-10.168842991946349],["perfil",-10.16914916204187],["memoria",-10.169461189143203],["responsables",-10.169950488421186],["demos",-10.17006820982036],["solicitar",-10.170206363157977],["negoci",-10.17144841518586],["42",-10.172393465923939],["dueño",-10.172759779865709],["seguido",-10.17647640151349],["establecer",-10.176893938782012],["alianza",-10.177100614801322],["activa",-10.177578925595192],["http",-10.1780906405566],["planeta",-10.178515756598445],["tránsito",-10.179774025298613],["identificado",-10.179796011089834],["pase",-10.179923152707115],["pus",-10.179949955552463],["dej",-10.181319146495222],["explicado",-10.181540889076725],["científico",-10.18177236303491],["trat",-10.181898121876813],["Ent",-10.182054870048212],["ingresar",-10.182269609318135],["Ca",-10.18254269402258],["turista",-10.182947687874325],["Inclus",-10.183117325224618],["acompañado",-10.184507868377572],["Washington",-10.185596760351828],["arriba",-10.185990745110317],["invierno",-10.186016713156327],["vigente",-10.186391878287512],["ocupa",-10.187479392035943],["rá",-10.188320008529505],["razó",-10.189372063717098],["educativo",-10.190505490633052],["plena",-10.190524736115755],["II",-10.190893107772371],["mexicana",-10.1912092460683],["enfrenta",-10.192106096008487],["respondi",-10.192240053995615],["continuará",-10.192562734352375],["ganado",-10.194132679135393],["cuarta",-10.195321592480976],["44",-10.195892198925275],["Gracia",-10.196044881087321],["colegio",-10.196383573851286],["talento",-10.197082391573327],["financiera",-10.197505900210604],["abuso",-10.198399251946471],["organizado",-10.19975672888517],["cuador",-10.199854679347819],["85",-10.20050377359092],["órgano",-10.200919665697699],["Mujer",-10.201036733586697],["sanitario",-10.201124266310057],["celular",-10.201172039871537],["meta",-10.201559559356156],["críticas",-10.201642170351677],["PSO",-10.201785074312305],["viendo",-10.201900639631727],["alcanz",-10.201978795003663],["advirti",-10.202395296338057],["elegir",-10.202480772000824],["playa",-10.202875541934036],["Turismo",-10.203861190078591],["fi",-10.204039272630471],["Par",-10.204511732837961],["197",-10.205472801614562],["confirmado",-10.206052863444693],["Robert",-10.206702567063848],["Gabriel",-10.208503697974223],["Tierra",-10.208620916010018],["dará",-10.209184017367471],["complicado",-10.209566739306968],["Madur",-10.21036927558135],["criminal",-10.210598032497982],["recién",-10.210675581231097],["defender",-10.21103007390054],["cará",-10.21319388774593],["ología",-10.2138881207065],["EU",-10.214223117819706],["juega",-10.214782022463101],["socios",-10.215647224084213],["puerto",-10.21634174374229],["Senado",-10.21695823864069],["órdoba",-10.217435807796438],["absoluta",-10.217679812986887],["isis",-10.21802321069903],["sangre",-10.218551887847436],["tormenta",-10.218760947703771],["campeonato",-10.220167815226311],["escrito",-10.220216294476167],["obst",-10.220312979044689],["referente",-10.220513357115678],["gole",-10.221348575439304],["bajar",-10.22266522764186],["ronda",-10.223480317184226],["sanitaria",-10.223798749632873],["Será",-10.224017099092134],["lanzó",-10.225612681593272],["consciente",-10.225631585805823],["39",-10.225682904258617],["tar",-10.226388866964973],["tamaño",-10.227407325823084],["Rafael",-10.227469942713547],["In",-10.228427935458305],["marcado",-10.228969236957202],["termina",-10.229790668947903],["ejecutivo",-10.229841375869048],["subir",-10.231030880010918],["colonia",-10.231298705705047],["permitir",-10.231767914518322],["Suprem",-10.232296207223254],["bienes",-10.232359749597018],["reconoce",-10.23299276490208],["Plaz",-10.233387391812961],["duelo",-10.233547104410345],["Nos",-10.234054496007833],["US",-10.235305883918597],["Mucho",-10.236156730905076],["ubica",-10.237733669515876],["aument",-10.23785749868108],["individual",-10.238067665821816],["Fundació",-10.23807420327577],["refuerzo",-10.239172591822829],["reto",-10.239340319485049],["pista",-10.239555498230496],["aproximada",-10.23982908002877],["mantenimiento",-10.240132253058722],["Enrique",-10.240204308642422],["infantil",-10.240263243718164],["recuerdo",-10.241303139542904],["150",-10.241374044974581],["vicepresidenta",-10.241934758331116],["variante",-10.242795960791517],["resolu",-10.243813773240111],["convenio",-10.244065517679164],["clima",-10.24439123788506],["Trum",-10.244528909635092],["bilidad",-10.244815675097247],["Mundo",-10.245636202328892],["organiz",-10.246198291142509],["capaz",-10.246371165533873],["avión",-10.246465122220052],["fenómeno",-10.247874976238878],["mbre",-10.24803803499656],["comportamiento",-10.248062790379318],["aplicar",-10.248163660112834],["prioridad",-10.248494144696654],["tus",-10.250577426355388],["alcance",-10.250724902351974],["piel",-10.250778183197237],["ervicios",-10.251170762159823],["novedad",-10.251191543566675],["militare",-10.251327298193695],["reconoci",-10.251534339903206],["puente",-10.251703472397931],["empieza",-10.252705645353698],["llevará",-10.253009585264842],["alegría",-10.253991743913392],["UE",-10.254257191998551],["apunta",-10.254826834341873],["respectiva",-10.25546474506572],["perspectiva",-10.256037762814138],["quizá",-10.256137073072267],["Agencia",-10.257348297470562],["realizan",-10.257972926136993],["circunstancia",-10.25917309683447],["factura",-10.261186787898092],["fotos",-10.261262785019444],["cter",-10.261399909326727],["continua",-10.262504535294344],["jug",-10.263066273921297],["aficionado",-10.263283236025925],["necesitan",-10.263289081895312],["99",-10.263506058879308],["zo",-10.26450898149635],["mínima",-10.264984195814034],["sabía",-10.265982192597289],["sirve",-10.266472421361208],["cercana",-10.266661916657537],["lugare",-10.266725329619652],["Dominican",-10.26758242432232],["FC",-10.267964067017536],["rimen",-10.267994385502345],["46",-10.268714217055535],["Selección",-10.26928326585362],["Diputado",-10.269565361915673],["considerado",-10.270069659390977],["observa",-10.270413084035436],["43",-10.270559189921705],["árbol",-10.270837067929541],["esas",-10.27102518075731],["dispuesto",-10.271287352463009],["monto",-10.271989312191426],["parcial",-10.273144671044843],["Puede",-10.273418780400622],["Trabajo",-10.274711570379612],["llevan",-10.275063838968224],["ojos",-10.275268934460476],["sostenible",-10.275766909129647],["invitado",-10.27577935877898],["ven",-10.27589107442877],["800",-10.277206172894736],["precisa",-10.27763281550547],["uales",-10.278538305092606],["Regional",-10.280814126877626],["cuadro",-10.281936070235698],["regular",-10.28199026327199],["aeropuerto",-10.282336589650633],["Ricardo",-10.282831233830134],["hayan",-10.28360258186457],["iento",-10.284017785361108],["Igual",-10.284079550019781],["interesante",-10.28482305190508],["físico",-10.284951170769851],["cerrado",-10.286234893373157],["medi",-10.287052212231655],["falleci",-10.288380650808836],["Gustav",-10.288953931946157],["bebé",-10.288958109681229],["visitar",-10.289368950961848],["dijer",-10.28958058420434],["Latina",-10.289671919377486],["show",-10.28980646491036],["pelota",-10.290117767774394],["Ma",-10.29192272824399],["Isabel",-10.2923248760316],["rural",-10.2928649729534],["piensa",-10.293066348105668],["ideal",-10.294268596364228],["Rica",-10.294398227276787],["automóvil",-10.295241730281916],["permita",-10.295255761683336],["conciencia",-10.2953775619129],["presunta",-10.295536983672939],["Sistema",-10.29580579393226],["Di",-10.295933783768929],["deportiva",-10.295967963955327],["descuento",-10.295976904880066],["sospechoso",-10.296480706067406],["segura",-10.29741073830778],["increíble",-10.297677182754],["Ejército",-10.297739817161105],["Roja",-10.298037680085097],["Comis",-10.29848054023552],["evidencia",-10.299789605126778],["elegido",-10.300357651239079],["tabilidad",-10.300927997553547],["debía",-10.301149664863555],["cuota",-10.302530377515918],["jo",-10.302757831137473],["instalación",-10.304029011971885],["propósito",-10.30413936572943],["inversion",-10.304409192464547],["aprobació",-10.304413271774685],["situacion",-10.30466575462766],["Te",-10.304675637676123],["anti",-10.30482659964017],["sab",-10.305182402136332],["nuev",-10.305626640096428],["Zaragoza",-10.305740691100315],["men",-10.307070926039541],["ejército",-10.30773891149303],["aná",-10.307952524040056],["senador",-10.308941814100116],["llamó",-10.31067592822942],["solicit",-10.313010413384433],["izo",-10.313760617078962],["Facebook",-10.314289378350923],["expresidente",-10.314995018549286],["ores",-10.31556587686449],["candidatura",-10.315982957097066],["corte",-10.316732072376805],["abri",-10.31702335517539],["adecuada",-10.317434484103854],["Junta",-10.317716130505445],["Rosari",-10.319004683718191],["gana",-10.31925086344814],["ados",-10.319593094054824],["homenaje",-10.320441562467664],["vuelto",-10.320533970856385],["motor",-10.320656730766306],["esencial",-10.320683574461157],["definitiva",-10.32108813056913],["aliado",-10.321279858551826],["cuest",-10.321327286392695],["voluntad",-10.321785518855027],["turístico",-10.322450855582932],["mecanismo",-10.32298424965144],["52",-10.323561684901046],["integr",-10.324584787022212],["intendente",-10.32509454256708],["identificar",-10.326390562371246],["decidido",-10.32647402941395],["Val",-10.327909070278821],["coste",-10.327999007874084],["App",-10.328343563761887],["gira",-10.328392114402327],["brindar",-10.328489320872112],["importan",-10.329340861504377],["vivi",-10.329394020446575],["chica",-10.329831843555937],["ida",-10.331543685193829],["restric",-10.331759645096296],["Blanca",-10.332044591300722],["57",-10.332281153538482],["acus",-10.333095758839896],["tarifa",-10.335013912228868],["viven",-10.335112030376914],["formato",-10.3357998293242],["ambiental",-10.336304900642853],["corrup",-10.336477705814293],["formar",-10.336507774543385],["triz",-10.337100546521794],["pudier",-10.33748497891358],["istas",-10.337874326207148],["protocolo",-10.33813752916479],["fuer",-10.338234923123343],["garantía",-10.340451548200036],["ceremonia",-10.340573215373801],["contará",-10.341410654806394],["tren",-10.343960796655779],["pregunt",-10.345006689136639],["vot",-10.345541631735665],["defini",-10.345782726603856],["acaba",-10.346528389650347],["frío",-10.346765242394934],["funcion",-10.34681631414336],["menes",-10.348634848222998],["Kirchner",-10.349225269411749],["Comité",-10.34926445567816],["trayectoria",-10.34932414195413],["49",-10.350409524587072],["argentina",-10.350471195571055],["honor",-10.35062147800857],["preparado",-10.350728452197849],["aprob",-10.350991593468345],["resalt",-10.35111924700373],["simple",-10.35208173593528],["gimen",-10.352778689295516],["distribu",-10.352794362279234],["mirada",-10.352971967204414],["Po",-10.353137395768288],["instal",-10.353227870529036],["denunci",-10.35335466023002],["bolsa",-10.353507310752164],["Petro",-10.354020372272647],["propietario",-10.35630097813623],["Canad",-10.356352777048604],["Parque",-10.356505489188276],["encontrado",-10.356675492782962],["recibe",-10.356857281989406],["fallo",-10.357207180532695],["baño",-10.357283476115501],["Judicial",-10.358156634938162],["Iglesia",-10.35816099505426],["Popular",-10.358189273713649],["Haciend",-10.358634312439746],["extra",-10.358760255629361],["cocina",-10.362096255824675],["sencillo",-10.362881796914802],["decena",-10.362884836668353],["Le",-10.363564087782974],["declara",-10.36428492944377],["rostro",-10.365055135066072],["fuga",-10.366021667884512],["batería",-10.367269671719775],["analizar",-10.367729663839189],["votar",-10.368160105534168],["Mari",-10.370381663373593],["disco",-10.371117079276125],["ejecu",-10.371587128924261],["actos",-10.372017668934108],["leyes",-10.372196839217931],["interesado",-10.372218188328498],["aprovechar",-10.37236821878721],["establecido",-10.372864814530399],["feria",-10.373033160801153],["toneladas",-10.373041127087014],["Provincia",-10.3730607875222],["PS",-10.375682687480445],["impulsar",-10.375732095360926],["condicion",-10.376088620128007],["soldado",-10.376152885383599],["caer",-10.376853447235053],["Pro",-10.377441121575881],["inteligencia",-10.378075853110479],["exporta",-10.378374557641061],["Rosa",-10.378428581089747],["extremo",-10.379405618407766],["determinar",-10.380108675988245],["institucional",-10.380197371317337],["venir",-10.380287359775608],["índice",-10.380540790257818],["alcohol",-10.381633852135653],["Nada",-10.381826496788413],["comenzará",-10.381934888112927],["insisti",-10.381939016112621],["industrial",-10.382234067269593],["modelos",-10.382842400767338],["punt",-10.383333288123179],["Tal",-10.3835420409446],["Asamblea",-10.385482453915579],["negativa",-10.38557030145428],["tomado",-10.385744948301618],["encargado",-10.386871220909665],["duro",-10.388418848801702],["compañero",-10.388623733236962],["Exteriores",-10.389235471737289],["202",-10.389340617357671],["escala",-10.390267986268007],["41",-10.390793019554945],["form",-10.391455656811011],["cartera",-10.391502579315055],["aniversario",-10.391817127929974],["climático",-10.392389016692611],["informar",-10.39295567266076],["Medio",-10.393068411362819],["sentimiento",-10.393529159480241],["positiva",-10.393594318612696],["volverá",-10.393933466197373],["Valle",-10.394179499230667],["Juego",-10.395210243194093],["europea",-10.395854113022542],["Kie",-10.396795293525003],["misiones",-10.397454406289096],["integral",-10.39775283494661],["io",-10.398043869181736],["Constitu",-10.398725119826628],["reina",-10.39998704322091],["postura",-10.400732817833996],["Primera",-10.401538534138737],["plato",-10.401779677804996],["parecía",-10.402068874047139],["entregar",-10.402331190456511],["asocia",-10.403759260269785],["controlar",-10.403876518231417],["inicia",-10.404076536246423],["pod",-10.404392050868147],["desarroll",-10.404683183949825],["Wi",-10.40535264079417],["igualdad",-10.406212079523147],["Marco",-10.406652482802478],["Marcel",-10.406885470452453],["bas",-10.40699276664473],["constitucional",-10.407015225383645],["destinado",-10.40744270642828],["diversidad",-10.40755346940599],["obsta",-10.408638692412502],["reuni",-10.409078257883033],["aprobado",-10.409742641591125],["acercar",-10.410013857616295],["diaria",-10.410040643745308],["humana",-10.410114255377945],["añade",-10.410268603356371],["Victoria",-10.410410698002892],["llevaba",-10.41059325796437],["relacionada",-10.410861412742705],["aparece",-10.41260584351835],["Á",-10.41292297010586],["aprender",-10.413467805346723],["fallecimiento",-10.41358880604638],["gratuita",-10.413606893649067],["batalla",-10.41399040269521],["circula",-10.414660131915557],["analista",-10.415381829507695],["Premio",-10.415461235718215],["residencia",-10.416373512554287],["energética",-10.418009894774148],["habido",-10.418266678374476],["convierte",-10.418863276520023],["descanso",-10.419133084922679],["pens",-10.419214771941522],["Guerra",-10.41942101953126],["ente",-10.419703159916706],["festival",-10.420275005051709],["presidencia",-10.421058878599743],["interno",-10.422389642299994],["mantuv",-10.422441628056879],["signo",-10.42340779306781],["inmueble",-10.423525989339435],["report",-10.424090789748814],["complet",-10.425868269456107],["famoso",-10.425973105481173],["Unida",-10.426006511251046],["obtuv",-10.426176865605054],["reclamo",-10.428068964987437],["dejan",-10.42827209269585],["presencial",-10.428424561780094],["permiso",-10.428963028493909],["Jo",-10.429000814854298],["dispar",-10.42915792354798],["maestro",-10.42929018784233],["decreto",-10.42931481746822],["regla",-10.429426087365695],["debut",-10.429903699849763],["responder",-10.43007553470401],["negocia",-10.431244901826577],["Jalisc",-10.432910247123191],["electrónico",-10.433599593640322],["supuesta",-10.434086306501058],["bombero",-10.434091242495805],["marcador",-10.434948808316202],["llena",-10.435896693041155],["PC",-10.437568549406159],["considerar",-10.437984289928194],["definir",-10.439368817986466],["empresarial",-10.439543059087772],["doctor",-10.440005012580208],["perfecta",-10.440275142845579],["urbano",-10.440586648510678],["Nuestro",-10.441581806865841],["desconoce",-10.441637269766222],["polémica",-10.441875871477635],["detectar",-10.44191769838719],["superficie",-10.44229046989198],["Atlético",-10.442321009610875],["iz",-10.44273888924855],["comunic",-10.44289114973454],["televis",-10.443848234252965],["venes",-10.444061979672147],["sufrido",-10.445109871011233],["ño",-10.446094920285944],["recibirá",-10.447868104533732],["58",-10.447887683295754],["concurso",-10.448125094627859],["eléctrico",-10.448579158658495],["euro",-10.449636505748188],["acabar",-10.450410372303619],["urgencia",-10.450961275468085],["multa",-10.451616256342197],["Eduard",-10.452141430035589],["cobertura",-10.452294439931682],["modalidad",-10.452363433094888],["enfrentamiento",-10.453300558345017],["osis",-10.453370228173984],["muri",-10.454817439252182],["recomienda",-10.455233414686676],["Respect",-10.455670630768637],["integra",-10.456144585781697],["condena",-10.456499196595622],["recib",-10.456585379500169],["Salvador",-10.456716789850942],["energético",-10.4571902405175],["cuestione",-10.457598795363118],["invita",-10.45816773308571],["deten",-10.458325269323366],["exclusiva",-10.458345681258198],["preven",-10.458514878057574],["llamar",-10.458942141538426],["pasará",-10.459291786563087],["crea",-10.45983486735896],["educativa",-10.460100897760839],["indicado",-10.461251510947921],["ino",-10.461292686024848],["Guti",-10.46132444266085],["entrenamiento",-10.461905881229182],["Guatemal",-10.461996233651334],["criterio",-10.462187652376155],["prevenir",-10.462897298490589],["ahorro",-10.463138417033118],["rojo",-10.463254400600807],["específica",-10.463681679933892],["Felip",-10.463803427089243],["Jim",-10.464026834887669],["lleno",-10.465758890359577],["Boca",-10.465998502784867],["añadido",-10.466157955104816],["sucedido",-10.466712459328818],["clásico",-10.467516343504089],["perfecto",-10.46772035549532],["John",-10.468098530444891],["británico",-10.468135384954035],["revis",-10.468284745952909],["antiguo",-10.47010791649002],["completar",-10.470269275675891],["anunciar",-10.470280367679052],["MI",-10.470586537779091],["TV",-10.471318522796704],["ara",-10.471389401479513],["promover",-10.471410502801259],["medicamento",-10.47217483438886],["creado",-10.472356628028528],["paquete",-10.47301424893094],["ura",-10.473347844872986],["pudiera",-10.474550789107015],["vender",-10.47512542155002],["charla",-10.476328288871551],["brazo",-10.476667518335034],["gasolina",-10.476737803758237],["acá",-10.476839302396387],["radio",-10.47780294919793],["calific",-10.478347241265269],["diagnóstico",-10.478892297370262],["sostiene",-10.479824488799183],["reforzar",-10.480142020813942],["Navarra",-10.48096501360049],["pidi",-10.481407498922138],["700",-10.481807824044067],["enes",-10.48196942334896],["&",-10.482120924770705],["liga",-10.482527949122694],["método",-10.482913514052886],["limpieza",-10.484347179657595],["Moreno",-10.48449692055871],["semifinal",-10.485124545246508],["apoy",-10.485263267533714],["ausencia",-10.485265445388087],["Provincial",-10.485788348934726],["egó",-10.486820373175256],["regres",-10.488308781613004],["Com",-10.488686969377916],["deb",-10.48895936829425],["cuesti",-10.489847847788806],["Jap",-10.4898800528779],["dando",-10.490151983591838],["Ciencia",-10.490325961190912],["básica",-10.49108307428938],["Tamaulipas",-10.492325006600296],["raí",-10.492470942267255],["Ni",-10.493266655002888],["relevante",-10.493348099685903],["Monte",-10.494063153552394],["Presidencia",-10.494409998026915],["permiti",-10.494545647678247],["Car",-10.494622886467075],["ntonc",-10.494801684709294],["sum",-10.496181917885382],["vínculo",-10.496221054611059],["Hemo",-10.49776373220445],["47",-10.498204238613614],["cuestion",-10.498244492707446],["Vi",-10.498727073307002],["Asocia",-10.499204475643436],["podem",-10.499325689821656],["Humano",-10.49978494203654],["ic",-10.500546500789069],["normativa",-10.500782608367437],["line",-10.50292908271439],["camioneta",-10.502985512403754],["tropa",-10.503664813264827],["cuesta",-10.505470005411556],["eliminar",-10.506350123013714],["Posterior",-10.506572433043662],["contento",-10.507295621141044],["Grande",-10.507371196242673],["sucede",-10.5076117649533],["solu",-10.508089956771158],["estable",-10.50815857520315],["ri",-10.50889394085446],["Inter",-10.508998146045247],["preparar",-10.509082249916762],["concentra",-10.510019787576962],["Sebasti",-10.511844224336995],["breve",-10.512029547068666],["pic",-10.512156262325014],["revista",-10.512420660437705],["Armada",-10.512607617291113],["Guillerm",-10.51308555392544],["compara",-10.513601802138798],["conseguido",-10.513673555577148],["aventura",-10.514228513737764],["pris",-10.514534080946849],["enviar",-10.516615790219934],["vier",-10.517138994637616],["66",-10.5173156344372],["cubrir",-10.518998861263384],["aprovech",-10.519138330250911],["segui",-10.519229770963793],["kilo",-10.519416205351781],["Gar",-10.519618203688442],["dispone",-10.519799107098352],["hectáreas",-10.520036198296065],["negativo",-10.52025134464963],["ci",-10.521226122498073],["clínica",-10.52283461104485],["tercero",-10.523577885349642],["Amazon",-10.523727907843018],["Domingo",-10.523777439362952],["teatro",-10.523863011348428],["indígena",-10.523912292974115],["resistencia",-10.525112957018884],["estuvier",-10.525238364207091],["espalda",-10.52554465607433],["Nosotr",-10.525845234529584],["Sus",-10.525974072758416],["octavo",-10.526059581341407],["regalo",-10.526122904581513],["partida",-10.526809904563297],["amba",-10.526921146624836],["arios",-10.526987108306843],["250",-10.527073739077942],["preventiva",-10.5274708906304],["demostrar",-10.527598302296072],["promo",-10.527840941751492],["Rey",-10.528226411991751],["Deporte",-10.528759522526702],["rumbo",-10.529500387993766],["artes",-10.529568084732333],["costa",-10.529858956146995],["Ingl",-10.530711156178649],["Fuente",-10.531219937499742],["correcta",-10.53159329911724],["76",-10.531673955143928],["Ana",-10.532063375868706],["clasifica",-10.532202211013336],["fanático",-10.532267083276997],["aceptar",-10.532267387574105],["ento",-10.532956317099213],["Whats",-10.534229045176879],["vulnerable",-10.534336116011435],["desaparecido",-10.534931828889501],["Ministro",-10.53513339464066],["valore",-10.535256205663808],["sucedi",-10.535292183584946],["presentará",-10.536177453171096],["EE",-10.536582559471675],["personalidad",-10.53712946170877],["nació",-10.538232955828104],["declarado",-10.538535726135493],["trasladar",-10.539749433079251],["invasi",-10.540297354045364],["54",-10.540730767212157],["llegan",-10.541676686878228],["televisi",-10.541879410458968],["mostrado",-10.542173726797234],["Administra",-10.54284794115147],["competi",-10.543394867887315],["cuánto",-10.543640497463098],["Programa",-10.545991511678526],["ingres",-10.546112267507308],["Air",-10.54636321447818],["dirigida",-10.546826570682278],["Estatal",-10.547232233041147],["blanca",-10.547556574882819],["altas",-10.54768541738131],["explicar",-10.547879541258542],["alcanza",-10.548857209460664],["ré",-10.548872611816426],["lesionado",-10.549272157429748],["Andaluc",-10.5497779519953],["Isla",-10.549849203934151],["facilitar",-10.550003487074829],["ça",-10.550495787359544],["ajuste",-10.55117611035957],["Fondo",-10.55128856633237],["vital",-10.55131463902422],["cab",-10.55255368900398],["advierte",-10.552714800337615],["resultar",-10.55329826482132],["defensor",-10.553993359604785],["Sí",-10.554389489774145],["sorteo",-10.554872487073204],["suman",-10.55553855109031],["merece",-10.555588672483335],["producir",-10.555745919449866],["urgente",-10.555807485681651],["hallazgo",-10.555839889732368],["Navidad",-10.555944907370156],["68",-10.55599898291142],["código",-10.556147108699466],["costos",-10.556207153265415],["corresponde",-10.556298161074334],["componente",-10.556631050279897],["delincuente",-10.556872662073145],["fortalecer",-10.557898532257283],["evidente",-10.558183411296183],["esquema",-10.558192183043932],["cero",-10.55869474160886],["plante",-10.55881168163],["firme",-10.558865827732099],["enviado",-10.559349886418222],["silencio",-10.56083306628674],["convers",-10.561264139441011],["discapacidad",-10.561299196602025],["caja",-10.561370260511428],["aviso",-10.56151669752169],["hogare",-10.562929221750329],["produce",-10.564195264965889],["crecer",-10.564437077092137],["quier",-10.564463165383362],["primaria",-10.564489845870998],["aban",-10.564564126536432],["vuelva",-10.564635369230619],["listo",-10.56507974302783],["viral",-10.56546588832002],["regresar",-10.56551831760271],["jugará",-10.565538388884612],["secretaria",-10.56645078909457],["cerr",-10.566800090785296],["máquina",-10.567006596422335],["incertidumbre",-10.567029986638744],["lanzar",-10.56765749837377],["quedan",-10.567765061772903],["Medi",-10.56799274017381],["diputada",-10.568265216197602],["nces",-10.56894565774397],["matrimonio",-10.569601144371916],["preguntas",-10.569621611416164],["litro",-10.570132168795999],["brasileño",-10.571743585859416],["sindicato",-10.571819792981398],["proveedor",-10.572166199413648],["plantas",-10.57250620052529],["concejal",-10.573981814949924],["asever",-10.57401956222478],["colabor",-10.574050586681402],["mencionar",-10.575220086995333],["ona",-10.575227981230018],["87",-10.575265606867958],["aumenta",-10.575353579532376],["habilidad",-10.575947923416038],["sufrir",-10.576444223841511],["hermana",-10.576719586491633],["odido",-10.577812783918835],["útbol",-10.577947175317853],["piedra",-10.578200152996104],["finalizar",-10.578477844590417],["presentada",-10.578649545196999],["salarial",-10.57871541682427],["verdadera",-10.579123820831505],["nacido",-10.579213178022934],["95",-10.579245227794274],["envió",-10.579276907197592],["descenso",-10.580753820664803],["compar",-10.580951035293104],["azul",-10.581216340991475],["aseguran",-10.581397683772717],["boca",-10.581558824178797],["Panam",-10.58165968004717],["embajador",-10.581702378025472],["entreg",-10.582181782645893],["Tanto",-10.583083258328365],["consigui",-10.583379483089065],["rescate",-10.583670092484086],["Carmen",-10.58391734571309],["caliente",-10.584070616565002],["recomend",-10.584357095718337],["moto",-10.585026495023449],["demuestra",-10.585310675231778],["ganas",-10.585540627937954],["discusi",-10.586766426209762],["américa",-10.587764369007747],["ch",-10.588106498116787],["cumplimiento",-10.58903340514068],["bonaerense",-10.589178710016347],["Municipio",-10.589266401508668],["tre",-10.589305436474572],["camiseta",-10.58933331324401],["plantilla",-10.589355372059252],["Interior",-10.589444152949017],["inferior",-10.58966501435495],["ina",-10.590952772429372],["independencia",-10.591201101444181],["Red",-10.591227520915862],["Castro",-10.591943224054216],["llegue",-10.592135741862265],["placa",-10.592261556525756],["préstamo",-10.594195743559604],["Mario",-10.594459417996518],["vers",-10.5946692616045],["existencia",-10.595619444155027],["utilizado",-10.596112960829643],["renuncia",-10.596205686457717],["conversacion",-10.596631449033618],["retirar",-10.596904302684555],["uros",-10.599263500339209],["moral",-10.60001294431439],["mascarilla",-10.600572985801794],["Festival",-10.600613841768261],["capítulo",-10.600765844789608],["Granada",-10.601175953768365],["hi",-10.601566216750326],["pertenece",-10.601584940463459],["levantar",-10.60161957886045],["apareci",-10.601690811763028],["frase",-10.601936381135648],["corta",-10.602010776819366],["déficit",-10.602052047402358],["intenta",-10.602964237869873],["posee",-10.602991851450335],["antecedente",-10.60357990408473],["app",-10.603921318883733],["efectiva",-10.603991693338331],["árbitro",-10.604315424195335],["luchar",-10.605183994435585],["viv",-10.605254852184059],["sonido",-10.605626244547976],["Go",-10.605710315599765],["eficiente",-10.605831193370193],["extrema",-10.605865391997146],["esquina",-10.605883774456958],["ito",-10.606505101776147],["misil",-10.606642417829892],["Ru",-10.607586895047216],["reiter",-10.607587132467767],["Sa",-10.60823765014684],["aclar",-10.60906308502546],["Baja",-10.609219088356742],["ac",-10.609320864012137],["invit",-10.609756678205606],["entiende",-10.610639991669128],["incluida",-10.610850713088688],["guardia",-10.610925210303792],["Bombero",-10.611239208999528],["cubano",-10.611520668128582],["adecuado",-10.61162407410641],["crítico",-10.611990562163928],["utilizan",-10.612262870109213],["previ",-10.613173941149011],["racha",-10.613565281034514],["subi",-10.614143880927],["individuo",-10.614678695134124],["interne",-10.61524661216456],["Comercio",-10.616924858351586],["cruce",-10.618699677922724],["Nadi",-10.61915029918605],["hincha",-10.620323319965104],["Sala",-10.620664347430811],["administr",-10.62068139034983],["audio",-10.621005061433543],["viviend",-10.6225604411395],["Romer",-10.623228869447445],["Debid",-10.623362596766281],["observar",-10.624209294197321],["ira",-10.624456298854842],["radical",-10.625292190412221],["subraya",-10.625458336363655],["crítica",-10.62572483713597],["mando",-10.62581962095999],["logra",-10.626844418546034],["choque",-10.62688157723488],["Nuestra",-10.62785830710775],["conjunta",-10.627922352329142],["érre",-10.628634662089608],["elevado",-10.628936658167312],["sexo",-10.629295094867647],["estadística",-10.629853094855688],["nacimiento",-10.630010966603184],["aterra",-10.630196528350435],["celebrará",-10.630306656678801],["Radio",-10.630348824744168],["territorial",-10.630502257691123],["remarc",-10.630518148478966],["estudiar",-10.631879210528727],["mala",-10.632139965517135],["denuncias",-10.63286008519856],["parlamentario",-10.633026505658927],["agradeci",-10.633064194614516],["enfatiz",-10.63309607569597],["Señor",-10.633546323274269],["socialista",-10.633568400122702],["tesis",-10.63379599105793],["finaliz",-10.634216344783635],["ampliar",-10.634467098086509],["Parlamento",-10.634818007644668],["Netflix",-10.635424398420255],["emocional",-10.635516184466887],["cuidar",-10.635667714236146],["variedad",-10.635945914917738],["ces",-10.637791035967084],["condenado",-10.637868109830361],["verá",-10.638091698393673],["producido",-10.638244339669656],["Colegio",-10.638297333264976],["liderazgo",-10.63846378883585],["Podem",-10.638761332985887],["consejero",-10.63950304859302],["aporte",-10.641309351792398],["depende",-10.641646484609204],["ambulancia",-10.641666903268849],["comer",-10.641733780007623],["Flori",-10.64245818971606],["69",-10.642601436946578],["licencia",-10.643132618159674],["op",-10.643334235882055],["ministerio",-10.64400782720882],["captura",-10.644229948491045],["carne",-10.644849909970208],["respaldo",-10.645056450569221],["bi",-10.647531905286964],["foco",-10.647661996004253],["asesor",-10.647702022699153],["micro",-10.648573902089721],["PRI",-10.648685123922025],["recinto",-10.648772515646153],["asesinado",-10.648814652261313],["reconocer",-10.649326831343316],["ampli",-10.649334668557],["pasan",-10.649419640437308],["influencia",-10.64950640307828],["alimentación",-10.650246188437063],["venida",-10.650820704147709],["mas",-10.65138229620748],["excelente",-10.651532866641723],["ros",-10.651875332645432],["INE",-10.652437338444773],["oblig",-10.652762311233545],["activista",-10.653249299863761],["viaj",-10.653531260628506],["bar",-10.65355796890325],["citado",-10.655711462256862],["demostrado",-10.656009023679788],["trataba",-10.656012974420296],["Tex",-10.65613532899976],["civile",-10.656477548542128],["51",-10.656894109963542],["quie",-10.656968055515314],["siga",-10.657345488209678],["bandera",-10.657697810696863],["volum",-10.658559737223971],["brió",-10.658683447105858],["Champions",-10.659416859256234],["digo",-10.659593022983398],["Cambio",-10.659647035865031],["avanza",-10.660001777730908],["vecina",-10.660111830359213],["ña",-10.660371683605375],["Sol",-10.660581152690117],["falsa",-10.660718783131678],["mencionado",-10.661169365664556],["clar",-10.66140999081054],["riesgos",-10.661410155171577],["67",-10.66165570344134],["asumir",-10.661897824284676],["combatir",-10.661932573181478],["cerebro",-10.662058682153052],["Penal",-10.663509511317912],["verdadero",-10.664304422513958],["micron",-10.664469930500957],["mortal",-10.664565676194119],["ide",-10.664670098484192],["aparente",-10.6658204271437],["79",-10.666244215021571],["argumento",-10.666253609095449],["Australia",-10.666576255418178],["tecnológica",-10.667017138745646],["bebida",-10.667216310334398],["chileno",-10.667367336384846],["rama",-10.667518831684607],["músico",-10.668342047647663],["mill",-10.668391029502265],["adquirir",-10.668404364694094],["eléctricos",-10.669344962742844],["balance",-10.669680853721694],["Caraca",-10.671186837335993],["89",-10.671290297576924],["Bolivia",-10.671629841622734],["cadáver",-10.671642306304726],["probabilidad",-10.671701445661352],["vigilancia",-10.671744467654595],["maniobra",-10.671811618925528],["chino",-10.672186049814455],["infec",-10.67311854901958],["trabajado",-10.673429281993965],["garantiza",-10.6738043185699],["Barrio",-10.674196196916132],["instituci",-10.674379539904688],["contempla",-10.674495797263091],["flujo",-10.67469757170326],["frica",-10.674793676437346],["tuv",-10.6751236491646],["Debe",-10.675428846432457],["cambiado",-10.675735135499089],["armado",-10.675751443757026],["Canaria",-10.675778192680923],["Punta",-10.675786880223015],["Pa",-10.675819575395554],["culpa",-10.676386497580111],["traslado",-10.676436359934936],["prima",-10.676452805227155],["saludable",-10.676688730771808],["conducir",-10.677325154425814],["experto",-10.677711759970425],["ónde",-10.677849067514623],["Transporte",-10.67789226157624],["sueldo",-10.6789365400939],["Organiza",-10.679187568931098],["transforma",-10.680246100320366],["86",-10.680275191699106],["toca",-10.680469080265267],["gerente",-10.680888215188109],["adicional",-10.68115138858133],["mediado",-10.681306629043167],["cumpli",-10.681384901120554],["ciudade",-10.681495183076684],["ja",-10.681500099884301],["conoci",-10.68231688688971],["pese",-10.682332913799526],["viejo",-10.682587925228304],["Israel",-10.683925600298728],["temor",-10.684124182421394],["Municipalidad",-10.684480473966707],["Claudi",-10.684754664446098],["firmar",-10.685286041423186],["renovación",-10.685894529283592],["seleccionado",-10.686498073878928],["lamentable",-10.686610268240162],["Vega",-10.687182175295971],["Mucha",-10.687187490583597],["occidental",-10.687849041597271],["pri",-10.68785163017538],["Museo",-10.688105181387836],["útil",-10.689170197305375],["escritor",-10.689929337585578],["expresar",-10.690156018133823],["permanece",-10.690575879785014],["barco",-10.69068605960883],["ayud",-10.690819435495621],["tapa",-10.691614617237168],["suceso",-10.691634593864908],["River",-10.691845823226817],["53",-10.692634282042427],["ita",-10.69285460398607],["famosa",-10.69295289488641],["provincias",-10.693042056875107],["Corea",-10.69355553813614],["rechazo",-10.693638226320008],["modifica",-10.693808811516636],["acudir",-10.694365093783095],["ocas",-10.69444407089],["Agreg",-10.694932374491607],["Luna",-10.695225023319239],["solicitado",-10.695576094784679],["New",-10.696085705679346],["roja",-10.696228725195823],["venía",-10.696398417712107],["intensidad",-10.696746491899933],["pensamiento",-10.696825929442745],["estándar",-10.697013778764074],["determin",-10.698159918025755],["falla",-10.698274331220869],["edi",-10.698411659957117],["posicione",-10.698767649326744],["comerciante",-10.699958691590322],["qued",-10.700371716189732],["alcanzado",-10.700390704614158],["prevista",-10.701033956544192],["61",-10.701417181398721],["creen",-10.701490473468374],["64",-10.701922503112227],["talleres",-10.702226337270282],["cultivo",-10.702294768039426],["alquiler",-10.702991476380845],["inseguridad",-10.703295948523806],["To",-10.703885154864949],["rechaz",-10.703963377258798],["mu",-10.704225352672015],["78",-10.704558543272126],["ctor",-10.704954055004794],["hablan",-10.705231095782272],["ocasion",-10.70587753203143],["corriente",-10.706150456133177],["intercambio",-10.706397657440846],["pi",-10.707444159831056],["escribir",-10.707756318215349],["actuacion",-10.707832429846611],["lateral",-10.70795759908122],["tr",-10.708376063204902],["fan",-10.708894768162839],["agresor",-10.7091013125287],["transferencia",-10.709264026605496],["mbas",-10.70963513524893],["escuch",-10.709861222256183],["Dos",-10.710151260323245],["promesa",-10.710197933038236],["Dij",-10.711169329736588],["visible",-10.711628146340814],["cost",-10.712391144125734],["terapia",-10.713097824126358],["Feria",-10.713620592427091],["revisar",-10.713816690590933],["96",-10.713916311091612],["entra",-10.714658994160931],["femenino",-10.714878416183268],["Man",-10.715360193201017],["bicicleta",-10.715813270693143],["ciudadana",-10.716184407171735],["presentan",-10.71684350435919],["enfoque",-10.717278757113913],["indicar",-10.71734480092848],["Martin",-10.717465794125228],["expediente",-10.718656772870807],["IB",-10.7188221352374],["residuo",-10.718921536389086],["Nunc",-10.719377642224146],["desarrollado",-10.719440547270885],["activo",-10.71984013129713],["plantea",-10.721237660974058],["arán",-10.721899566050837],["frecuencia",-10.721916752982324],["Gobernador",-10.721945505434475],["Gerard",-10.722006326008557],["violento",-10.722271481970907],["directivo",-10.722840523437798],["recibiero",-10.723105044074268],["visit",-10.723127819125517],["vial",-10.723279135694488],["revela",-10.723994482907468],["Feijóo",-10.72404904196916],["impulso",-10.72406454469883],["Semana",-10.72500012065702],["desaparici",-10.725157066698989],["Fiscal",-10.725210612067254],["ofreci",-10.726147962349554],["supermercado",-10.727044673210269],["alidad",-10.727455507370337],["Lorenzo",-10.728159525509525],["salido",-10.72912434596485],["amiga",-10.729467759048347],["recordado",-10.730181889870067],["humor",-10.730360377765805],["implement",-10.730862720193977],["imputado",-10.731096874579446],["pro",-10.731126906876753],["ilidad",-10.731406793366409],["responde",-10.732360490236879],["guía",-10.732406364717455],["lectura",-10.732472150819465],["stán",-10.732605278060406],["afectar",-10.73371782807077],["63",-10.73376714895684],["esposo",-10.733803193404768],["incidencia",-10.734288588647424],["moneda",-10.734302026859979],["Marian",-10.734485246362565],["tranquilo",-10.734934235900127],["circuito",-10.73499041561767],["inteligente",-10.735149716299697],["Or",-10.735472059501703],["Londr",-10.73584664760539],["vari",-10.73598996635966],["declarar",-10.735997550217272],["mantendrá",-10.736060888234398],["56",-10.736277793369084],["fruta",-10.737827799675497],["olonia",-10.738719504514842],["inscrip",-10.738811039343457],["registra",-10.739041337009713],["Guzm",-10.73907749273941],["instrumento",-10.739359853842231],["aporta",-10.739520712259846],["Krem",-10.739575250073553],["quedará",-10.739681647398783],["sustancia",-10.739968788304363],["bordo",-10.74015353948882],["pe",-10.740575730440357],["salvar",-10.740694127334137],["lógica",-10.741158899091158],["pierna",-10.74129540171895],["aprobar",-10.741560423651606],["reunir",-10.742371961174666],["representan",-10.74300654164016],["comparte",-10.743069426019977],["republicano",-10.743207964209905],["ección",-10.743765254199626],["hoja",-10.744142900788809],["Palma",-10.744477991122489],["ntes",-10.745322772218838],["avanzado",-10.745569323339264],["sacado",-10.745914550689289],["transmisi",-10.746002707606948],["confes",-10.746103762476846],["ños",-10.746140061948198],["colocar",-10.746798507942238],["indicador",-10.74681664417988],["direct",-10.746922768668242],["significativa",-10.747121415261095],["obligado",-10.747958915929937],["cirugía",-10.74820278987017],["sean",-10.748265261493831],["vicepresidente",-10.74888929275986],["íz",-10.74895036967035],["Intern",-10.749020873871302],["profundo",-10.749690640007397],["orgullo",-10.750104690140725],["Ro",-10.750141098535046],["asistir",-10.750362333788603],["exposi",-10.750434952852448],["registrada",-10.750788856672761],["abandonar",-10.750918632707844],["abordar",-10.75133145722301],["mira",-10.751989409936613],["Mat",-10.752455785355323],["cerrada",-10.752559528707213],["respetar",-10.75342760349348],["pu",-10.753693127221506],["ofensiva",-10.753894963068397],["acumula",-10.755534536542225],["plata",-10.755855047069158],["envío",-10.755962400143002],["cumpl",-10.756609117231115],["justa",-10.757500140910132],["enemigo",-10.758108808160216],["techo",-10.758723922930802],["ur",-10.759018233707891],["adas",-10.759055916743698],["Mayor",-10.759106080830959],["triste",-10.759667186515955],["ordenó",-10.760245336444221],["Servicios",-10.76064778004905],["limita",-10.760981389342575],["Guadalajara",-10.761375143056604],["comisi",-10.761389312670715],["pronóstico",-10.761543183633488],["entregado",-10.761659291255892],["Sociedad",-10.76192359015809],["tabla",-10.76261845333319],["Boric",-10.762814887321477],["Peña",-10.763041273561456],["recoge",-10.763202422991277],["operador",-10.764874462825153],["patrimonio",-10.765624271337414],["esper",-10.765731308215083],["disciplina",-10.765882679939958],["Quier",-10.766019786825062],["Cultural",-10.766178043391857],["72",-10.766650110363734],["propone",-10.766881162938045],["Record",-10.767898466291342],["moda",-10.769744363927082],["consecutivo",-10.769744628250823],["Castill",-10.770433549955499],["pierde",-10.770453223935261],["relato",-10.770945721200079],["acab",-10.771075663603177],["74",-10.771177397343708],["testimonio",-10.771350931461043],["cometido",-10.77167535364235],["afuera",-10.77168158261916],["dinámica",-10.77188910109397],["portal",-10.772099675952159],["existente",-10.772281314714725],["fundador",-10.772484847766584],["admiti",-10.772832159373113],["vestido",-10.773434497148159],["canciller",-10.77394094244847],["73",-10.774156483987287],["amplio",-10.77452378815437],["Vicent",-10.77457897510246],["tecnológico",-10.77459203059254],["tragedia",-10.775048571356596],["reconocida",-10.77519378959865],["Zelenski",-10.77546023985408],["subsidio",-10.775680471644757],["enfrentará",-10.775689190048372],["Constitucional",-10.77588485558655],["realice",-10.775988157293904],["Energía",-10.776962143499642],["Mend",-10.77739504464687],["dictadura",-10.777413024106771],["Fin",-10.77764828677856],["lujo",-10.77779020670017],["supera",-10.77827315524424],["sitúa",-10.778336284149159],["acept",-10.778739510765021],["proyec",-10.779029238631775],["plantel",-10.77946767280505],["Deportivo",-10.779894018886825],["utiliz",-10.779945036259683],["refleja",-10.780182948848779],["bal",-10.781106910347862],["Estadio",-10.7813188902715],["asociado",-10.781674142133518],["periódico",-10.781912381248802],["cumplido",-10.782239211611486],["marcar",-10.782440600863413],["peti",-10.782476479662819],["conducta",-10.782478284224059],["once",-10.783451853588133],["Rodrig",-10.78355028940679],["post",-10.783888855013846],["Ambient",-10.784442537015384],["comprometido",-10.784877897200728],["espectacular",-10.784972914220013],["jugada",-10.785146664485152],["Mart",-10.785888355121013],["quinto",-10.786715666889172],["Lima",-10.7868936898392],["venezolana",-10.78702610116142],["secreto",-10.787066760880212],["st",-10.787160626732465],["lisi",-10.78833878617192],["gratuito",-10.78878375461835],["contundente",-10.788784260465146],["idioma",-10.789017358248564],["120",-10.790029459568895],["Massa",-10.790536059245252],["organizar",-10.791712538821294],["espacial",-10.792012996066916],["gama",-10.792321601078427],["colore",-10.792500862314728],["Super",-10.792501905541624],["hí",-10.793575100420453],["alcaldesa",-10.79385044508848],["expus",-10.794700772821642],["trastorno",-10.794949318223491],["denunciar",-10.795155348525864],["pondrá",-10.795288611022658],["consideran",-10.795400551492575],["Ba",-10.79542719278433],["Quien",-10.795484891123541],["provoca",-10.795945781675705],["document",-10.79621126385662],["antigua",-10.797225696965357],["probar",-10.797858840838765],["cabe",-10.798773539284966],["refiere",-10.798827523044489],["che",-10.799277024909689],["transform",-10.799305394654832],["RD",-10.79949018685124],["compuesto",-10.800088891628079],["relat",-10.800287037388369],["acudi",-10.800592178997322],["77",-10.800939557523396],["favorable",-10.801225348142395],["mir",-10.801286174445174],["colega",-10.801697481656404],["secundaria",-10.802361573055009],["tiroteo",-10.802660391908137],["generado",-10.802868755848756],["leyenda",-10.80289280459154],["publicidad",-10.803512152471491],["semestre",-10.803977470163435],["inici",-10.804975565957358],["jugado",-10.805136619720127],["gra",-10.805649768426496],["intensa",-10.8058288342608],["hac",-10.806003265224119],["junta",-10.806365694930017],["Ciudadano",-10.806373050964357],["medalla",-10.80640911217603],["Teatro",-10.806624148583062],["socio",-10.806700871084914],["confirma",-10.807077423386904],["Ver",-10.807712992595981],["parecen",-10.807947530888601],["incorpora",-10.8081333122817],["marido",-10.808324244798598],["triple",-10.809295501529263],["certificado",-10.809678480007445],["obtenido",-10.809904455331521],["aceite",-10.810019267347048],["determinado",-10.810263034096614],["Director",-10.810333962890834],["amistad",-10.81060747391126],["especializado",-10.810685504623462],["acompañar",-10.810716478982986],["mover",-10.81108494470551],["éste",-10.811139210541171],["ninguno",-10.811564580765022],["problemática",-10.811783808151322],["opositor",-10.811883642086148],["consenso",-10.812824610074387],["caus",-10.813740891869065],["Galic",-10.814912884553726],["numeroso",-10.816116802182005],["Núñez",-10.81656103476305],["Relacion",-10.816602866653366],["Aun",-10.8166436842023],["sigui",-10.816678686621973],["Oscar",-10.81675400887959],["dedicado",-10.816788517513078],["cuándo",-10.81743569317031],["afrontar",-10.818294601897616],["cam",-10.818435709196075],["City",-10.818627092832044],["Puebl",-10.81887272514913],["involucrado",-10.81948859661657],["olvidar",-10.822099907387862],["Existe",-10.822795793222298],["aprendizaje",-10.822811056406502],["bio",-10.822998810469961],["violenta",-10.823421480462578],["capit",-10.823608140398466],["Hub",-10.824235821062064],["Víct",-10.824397776941606],["urió",-10.824430777925034],["murier",-10.824448366692772],["vale",-10.824629849611139],["Camp",-10.824706067962106],["impus",-10.825006117017573],["Caribe",-10.825598231032263],["Occident",-10.826010988820835],["viajero",-10.826460213356512],["lengua",-10.826705583457501],["dominicano",-10.826833025047215],["Zona",-10.82780086667159],["conduc",-10.828082104934243],["cuadrado",-10.828634284678525],["ab",-10.828737565435961],["decidir",-10.829166511027903],["comunicó",-10.829877785523127],["basada",-10.830214223298658],["Ó",-10.830483530342836],["Ki",-10.830555768882757],["detenida",-10.830739483870182],["Portugal",-10.830847711270938],["álbum",-10.830900350001176],["ganancia",-10.831191435593066],["humanidad",-10.831364278057205],["argument",-10.83160297838555],["dirigir",-10.831616156414494],["universidad",-10.832111541507125],["narco",-10.832456485633095],["disputa",-10.832515276944871],["cumbre",-10.833163377478934],["Col",-10.83328280486381],["incorporar",-10.834055707405863],["protecci",-10.834234347496228],["Algo",-10.834350700333722],["illa",-10.834359770885776],["Laur",-10.834425509567303],["62",-10.83463660315017],["bomba",-10.834641577780111],["mantenido",-10.835680504618297],["situaci",-10.835696788045764],["fiscalía",-10.835929656465519],["artificial",-10.836258224489985],["agrícola",-10.836850960541],["autonomía",-10.836976987032994],["aborto",-10.83843281968236],["inter",-10.838460887433193],["evolu",-10.838573837589347],["fila",-10.838615868005183],["tradicionales",-10.839182089401962],["viola",-10.839246430275711],["ecosistema",-10.839329553305209],["correcto",-10.839774288432636],["59",-10.840433537694775],["logía",-10.84061243293159],["grito",-10.840742915271052],["evaluar",-10.840895601376893],["evita",-10.841033559959193],["Arena",-10.84132582581761],["tuvi",-10.841575096086906],["recalc",-10.842940857755762],["Catalu",-10.84334515328605],["billete",-10.843368847774105],["Cor",-10.84414426196364],["contiene",-10.845182313748317],["TikTok",-10.845339489493423],["fábrica",-10.845375333628747],["preocup",-10.845579413395196],["equilibrio",-10.84567001811229],["Oaxa",-10.845850780923925],["criptomonedas",-10.846126064939956],["represent",-10.846144018838066],["contado",-10.846218636743329],["procedente",-10.846500538124078],["adicionales",-10.846526280419031],["exacta",-10.846594725867966],["profunda",-10.8468153872323],["fabricante",-10.847102820789571],["aportar",-10.847129148804953],["superado",-10.847294121921324],["cumpla",-10.847304156004384],["III",-10.84734352529021],["favorito",-10.847669278297621],["Juzgado",-10.847791903496741],["ponga",-10.848677696353837],["evilla",-10.84885933510581],["sufre",-10.848985020431414],["mentira",-10.849286855353938],["continente",-10.849297821199423],["Marru",-10.84963068013547],["escándalo",-10.850073623831845],["uanajuat",-10.850442693575172],["agresi",-10.850701803438831],["tono",-10.85086356350731],["brinda",-10.851545964140382],["venido",-10.851720133392545],["ormalidad",-10.851959641362203],["eficiencia",-10.852104524300469],["italiano",-10.85241306098493],["defendido",-10.853031998921395],["hecha",-10.8531175524517],["participan",-10.854389248232167],["notable",-10.854572900400587],["dirigi",-10.854663916235097],["destacan",-10.854884705832504],["Q",-10.855248464657322],["compartido",-10.856263777080894],["Campo",-10.856308889601348],["observ",-10.856384835376419],["terrorista",-10.85724056443139],["ús",-10.858995231500305],["serio",-10.859277000316816],["Oficina",-10.860162644728895],["provocado",-10.860217893348745],["corre",-10.860443077553617],["Pueblo",-10.860718946743052],["videojuego",-10.860947098047589],["atractivo",-10.861285788305189],["moviliza",-10.861502571394324],["bono",-10.862842948459345],["calendario",-10.862868306014608],["Mon",-10.862892430888422],["archivo",-10.863553180716698],["Flores",-10.86412428647311],["arquero",-10.864701128797769],["conectar",-10.865206669336128],["Carolina",-10.865439741739344],["contrat",-10.86582173797079],["centr",-10.86621044970303],["descubrir",-10.867178338624136],["nacionalidad",-10.867182730800378],["ábam",-10.867533002213506],["Primero",-10.868187990743552],["solidari",-10.868363707810472],["terminado",-10.868682316721149],["funcionaria",-10.868912995804163],["denunciado",-10.868956653750182],["universitario",-10.86940850238317],["trans",-10.869564904314705],["ponen",-10.869953529812403],["creciente",-10.870272491025059],["daño",-10.870541972796024],["presentaba",-10.870551503616738],["bonos",-10.870878753331095],["circular",-10.87144549621226],["gremio",-10.871847267229178],["escucha",-10.871942786388953],["eventual",-10.872172281958562],["quis",-10.872459126926849],["participará",-10.872923328957981],["elevada",-10.873052757650589],["soporte",-10.873112901593835],["discu",-10.873315891352615],["queja",-10.873717199059467],["vinculado",-10.874498679222546],["ogle",-10.87483241207555],["irá",-10.875159201218151],["Año",-10.875166647103885],["elenco",-10.875394281397497],["medicina",-10.875521509512364],["llegaba",-10.876032774966227],["Electoral",-10.876300058570777],["én",-10.876829571231006],["prisi",-10.877161485249085],["despacho",-10.87727566220588],["manejo",-10.877884250747528],["excep",-10.878146765200203],["Universitario",-10.878789235407472],["Ayer",-10.879642652440866],["tú",-10.88024377318099],["investigar",-10.880648571779346],["plástico",-10.880899561488562],["espíritu",-10.880969952931016],["organizada",-10.880970736116799],["masculino",-10.882365125358199],["defendi",-10.882565626116659],["consultar",-10.882911909301086],["Capital",-10.88317491584956],["osas",-10.883260049308195],["basado",-10.883664975295002],["científica",-10.883723227436821],["disputar",-10.88379345957599],["ñez",-10.884181332356084],["ali",-10.884486010696019],["prepar",-10.884911274574089],["terror",-10.884950398012727],["ertamen",-10.88566254536331],["rebote",-10.886984015188336],["pid",-10.8887146807045],["acudier",-10.888718548071068],["basura",-10.889999236913773],["belleza",-10.890141360434468],["Academia",-10.890259008205046],["Superior",-10.89045544985089],["célula",-10.890872269357985],["stas",-10.891075626579326],["Bogot",-10.891428388558229],["ayudará",-10.892106084652902],["acumulado",-10.89217598732294],["Distrito",-10.89265785822493],["reúne",-10.893809155996209],["dejará",-10.893916638687873],["logro",-10.894183797261217],["documental",-10.89425114741202],["formas",-10.894497109837575],["señalan",-10.894608624908468],["investigado",-10.894846974545102],["receta",-10.894950812656738],["conexi",-10.895322893085353],["fraude",-10.895369216112428],["consigue",-10.895827975025597],["autónoma",-10.896239816197385],["descubierto",-10.896437716492066],["tán",-10.897074971424832],["Mercado",-10.897303809942589],["creer",-10.897384732382577],["trato",-10.897482850776425],["reducido",-10.898389224397295],["carbon",-10.898523277101303],["cambia",-10.89859338076376],["Morale",-10.898963338190441],["recuperado",-10.89963666616006],["cha",-10.90028515451665],["sospecha",-10.900318339727988],["divisa",-10.900327958888516],["exceso",-10.900450564425459],["permitido",-10.900914672889677],["alimentaria",-10.900983468777108],["asumi",-10.901025764770196],["Veracruz",-10.901129340121194],["extraordinaria",-10.901499168125305],["91",-10.901869803448662],["bloqueo",-10.90189657190201],["botella",-10.902405856316646],["gestionar",-10.902945664191076],["siniestro",-10.903469700335439],["pusier",-10.903487273856062],["defiende",-10.903627962524286],["All",-10.903636400241018],["mán",-10.903872359881865],["invertir",-10.903970888309049],["correr",-10.903986265181732],["inversor",-10.904004758487511],["expuesto",-10.904134688332952],["demostr",-10.904219266732007],["numerosa",-10.905057461324098],["iniciado",-10.905339304240657],["estré",-10.905394561716582],["Bull",-10.905410978874645],["conversa",-10.905582754314251],["académico",-10.905750828924274],["pintura",-10.905881625098026],["Ella",-10.90591209444898],["Especial",-10.905969301793228],["cama",-10.907470119774342],["Jame",-10.907531830935966],["vis",-10.907568421597976],["Aten",-10.907694276652713],["aéreo",-10.90818705026585],["desempeño",-10.908350536422535],["Rural",-10.90842443830147],["evalua",-10.90842820879248],["omos",-10.90848765620072],["ble",-10.909226304619056],["manifestado",-10.909555455040188],["aspirante",-10.909674436335358],["jurado",-10.909705345366026],["particulares",-10.909948412781818],["brind",-10.910121500218736],["BA",-10.910432714418036],["cursos",-10.910462480987304],["´",-10.91053582115278],["ant",-10.910896697618584],["eague",-10.911225835854113],["lanzado",-10.911585907172599],["ter",-10.911632872160723],["acompañamiento",-10.911701418554895],["tratado",-10.912102989195636],["Merced",-10.913123783467872],["causar",-10.91352849842608],["creador",-10.91406282537498],["bo",-10.914681644624704],["solar",-10.915181069364973],["emiti",-10.915257316081977],["Sub",-10.915703998722513],["Política",-10.915969651601786],["ingeniero",-10.916053872634155],["€",-10.916057608222536],["(…)",-10.91649779182989],["crecien",-10.916934840084327],["hablado",-10.91695965474097],["puntualiz",-10.918003218897674],["Agua",-10.918311316824566],["notó",-10.9188061151877],["alarma",-10.919074944562258],["pies",-10.91958837526817],["provocar",-10.919682433300867],["98",-10.920143550665514],["detener",-10.920982409934904],["Profesional",-10.921593283177058],["Había",-10.921663102175286],["Tucu",-10.9221403941584],["veía",-10.922253947783485],["corredor",-10.922270375117915],["vivido",-10.922490723593937],["falso",-10.922520408696704],["Quién",-10.92348948197877],["disputado",-10.923607645826504],["boleto",-10.924425662564932],["bajó",-10.925333424729054],["migo",-10.925727620681778],["ho",-10.925835447289309],["vacío",-10.925842257101449],["recomenda",-10.92603732888039],["vota",-10.926098152462242],["consiste",-10.926795637729818],["condi",-10.926980792712067],["iban",-10.927220484080333],["estreno",-10.92818068980404],["comisaría",-10.928506724975758],["caído",-10.929124875684504],["descarga",-10.929594109452353],["capacita",-10.929824398244682],["Negro",-10.92994445357068],["esperado",-10.929952702447572],["vencer",-10.93111020725351],["aquel",-10.931163442789426],["pos",-10.931373735944788],["expansión",-10.931473219469293],["matar",-10.931605893065228],["incrementar",-10.93180899167989],["196",-10.932046012176825],["ad",-10.932086413761269],["900",-10.932149104226605],["comprador",-10.93271659961783],["coordinador",-10.932737522112761],["cri",-10.933104889602738],["abre",-10.933798550984111],["combina",-10.934353207144012],["mantenga",-10.934519074265491],["tiro",-10.934923759090836],["refugiado",-10.935150760941031],["Seguro",-10.93568719322636],["ran",-10.935852334709306],["novela",-10.936040872287109],["Bo",-10.93624092562063],["elimina",-10.93626585407664],["Don",-10.936904376078896],["Alfred",-10.937049468777584],["profundidad",-10.93727505035383],["infancia",-10.937277207276331],["Azul",-10.93800742141922],["ton",-10.938064897914424],["brote",-10.938095978670766],["gusto",-10.938871079472655],["izquierdo",-10.939436422262439],["Guerrero",-10.940202972703485],["disputará",-10.941366632681666],["divis",-10.941509486152423],["polvo",-10.94236248155736],["vende",-10.942553345223056],["escapar",-10.9432552220511],["ruptura",-10.943279767804277],["ibilidad",-10.943401039280346],["muchísimo",-10.944053255636785],["aga",-10.944470174486792],["colaborador",-10.944635220279682],["Mauric",-10.944828138065468],["destinada",-10.94534027520028],["convocado",-10.945907869145628],["Control",-10.946043564288606],["intenso",-10.946376131592771],["88",-10.946471706313364],["universo",-10.947322820460146],["artística",-10.947453082950851],["dije",-10.947740116551824],["suyo",-10.947848376441744],["retiro",-10.948682710175394],["comis",-10.948942799612174],["traje",-10.949309934187998],["Cre",-10.950196987531164],["mezcla",-10.950329011237685],["reclam",-10.950457965933957],["costado",-10.950555957230419],["baj",-10.950933410871123],["BC",-10.950992440761791],["pacto",-10.951713521035153],["FP",-10.952135624408303],["peligroso",-10.95213616547128],["estratégica",-10.952191527974536],["conservador",-10.952292638025913],["concluir",-10.952351973669558],["romper",-10.952441476206133],["crece",-10.952868492493913],["quinta",-10.95308638165691],["juventud",-10.953137787380278],["precedente",-10.953266047820104],["culpable",-10.953331607908044],["ama",-10.95361440690074],["Teng",-10.953708466839217],["transparencia",-10.95391781271098],["competir",-10.954577889500307],["taron",-10.954762623566392],["Digital",-10.954985643386353],["convivencia",-10.95536264358719],["Torneo",-10.95547213541429],["buscará",-10.95584171535927],["2000",-10.955918411560459],["divers",-10.956124758699502],["deseo",-10.956426511161364],["parecido",-10.956693066014587],["aúl",-10.957366183526926],["ñ",-10.957417596936198],["exige",-10.957576075705894],["comprobar",-10.957885524420368],["propuesto",-10.95829867372505],["manifestante",-10.958495516415052],["im",-10.958623861092292],["urbana",-10.9586324170124],["corresponden",-10.95886694705612],["atentado",-10.95891093958286],["argas",-10.958977091123353],["aclarar",-10.959519240312236],["Hondur",-10.960402397986954],["cort",-10.960438358065247],["anticip",-10.960676131657785],["vivía",-10.960822948477425],["cariño",-10.961328320736904],["cu",-10.961353828068454],["ayuntamiento",-10.961618037677766],["Cuenta",-10.961869076432468],["museo",-10.961924101040688],["tó",-10.962384944239773],["Ri",-10.962512668777418],["Bi",-10.96274344479955],["traer",-10.96351009663885],["surgi",-10.96377876506525],["regula",-10.963882408950983],["Casi",-10.964047134289302],["dur",-10.964349952718205],["ésta",-10.965551015916509],["Unite",-10.965741606711557],["vocero",-10.966239817904237],["otorga",-10.967202498910336],["Roma",-10.967249436701117],["Pe",-10.967310172977164],["Alto",-10.9675046132014],["agrega",-10.967731958943332],["VI",-10.96826757125028],["creció",-10.96835445636322],["lin",-10.968694388791555],["disfruta",-10.96871519604381],["comprender",-10.969255188011875],["usado",-10.969269155694004],["Ourens",-10.969616755983028],["motocicleta",-10.969646805593491],["mascota",-10.969655445844886],["riqueza",-10.969744794503336],["comité",-10.969751285270393],["iglesia",-10.969847783579059],["iPhone",-10.970063231473473],["teoría",-10.970094150054896],["remate",-10.97011676111236],["delegado",-10.970369012097855],["imponer",-10.97038546723724],["pension",-10.970556644209822],["82",-10.970946291036835],["viajaba",-10.971531244322877],["omo",-10.971678245468938],["específico",-10.972477328416275],["dirige",-10.972967686921699],["candidata",-10.973147354354762],["71",-10.974304531305636],["dades",-10.97439888629193],["conserva",-10.974457583931796],["Sal",-10.974470609016832],["Hé",-10.974679631574356],["aprobada",-10.974733610588146],["publicada",-10.97476519492064],["celebrado",-10.975328417475366],["cotiza",-10.975445759761328],["ancho",-10.975457765973285],["83",-10.975637307074408],["MW",-10.975779386831082],["climática",-10.975832633153601],["masiva",-10.97639253959122],["importar",-10.976418053757417],["sal",-10.977069562332112],["quitar",-10.97721545270752],["nube",-10.977403045491606],["situado",-10.978583205566629],["abilidad",-10.978833879858666],["equipamiento",-10.979013846125987],["sindical",-10.97929284250214],["critic",-10.979443017193047],["rtistas",-10.979467347694044],["especializada",-10.979858536660858],["instalar",-10.98036510801693],["interpreta",-10.9804326649903],["jurídico",-10.980754763428532],["dicie",-10.981361195590289],["moción",-10.98157556861369],["implementar",-10.981725220130654],["Manch",-10.981994077109482],["Señal",-10.982503390455328],["India",-10.982674552093801],["81",-10.982701506236353],["negra",-10.982803055811463],["prometi",-10.983105363643123],["construcci",-10.98339058598286],["Marina",-10.9838064116616],["vas",-10.984326208612314],["diplomática",-10.984483772417061],["comunicar",-10.984872560865156],["contaba",-10.985436188601966],["Divisi",-10.98570764164809],["actri",-10.985727562476189],["huelga",-10.98631423372936],["variable",-10.986335775952117],["piscina",-10.986344488546514],["Orteg",-10.986456873743144],["CEO",-10.986604321955374],["renovable",-10.986705437904092],["diligencia",-10.986870282337824],["financiamiento",-10.987096255533856],["Valenciana",-10.987365016651143],["enseñanza",-10.987435164951286],["for",-10.987475117131375],["electrici",-10.988498218699364],["programado",-10.989052652592402],["acontecimiento",-10.989146014366767],["comenta",-10.989210595691215],["enlace",-10.989521179060535],["huella",-10.99015457117256],["dormir",-10.99019912167834],["97",-10.990220337825056],["Han",-10.990233286603125],["ció",-10.990416969584395],["publicar",-10.990699784490086],["fruto",-10.99098047966353],["grati",-10.991428328046112],["bombardeo",-10.991708621056983],["Herrera",-10.992024348055427],["administrativa",-10.99206015138597],["madera",-10.992125648705283],["cruzar",-10.992267742713992],["continuó",-10.992596808670129],["sugiere",-10.992597275037777],["afect",-10.993243625482751],["CO",-10.993396966307142],["francesa",-10.993534956519628],["Segund",-10.99375652594221],["significativo",-10.993929586841887],["determina",-10.994040614705941],["renta",-10.994121959110352],["papa",-10.99471954628315],["potente",-10.994790399822929],["encargada",-10.99495254637176],["emprendimiento",-10.995138932305366],["transacci",-10.995263888619812],["Hu",-10.995783755507789],["ventana",-10.995822525866995],["compras",-10.995915732596],["Mo",-10.996032425073619],["brecha",-10.996094912699956],["insumo",-10.996701437946967],["invas",-10.996777093192803],["salvo",-10.996999365738677],["embarazo",-10.997654301039233],["pasaba",-10.998592449491923],["necesit",-10.998600314243955],["autoriza",-10.998808243965616],["colectiva",-10.999057350949723],["menud",-11.00032015323739],["atacar",-11.000529028828847],["veinte",-11.000595404876996],["reportado",-11.001586127450116],["concret",-11.001707542385102],["ubic",-11.002651642588418],["Obra",-11.002683582510262],["Jujuy",-11.003146226053016],["Muñ",-11.003237329773327],["Campeonato",-11.003342304650806],["imiento",-11.003800438465003],["disminu",-11.00411848514527],["Local",-11.00444924491115],["Asia",-11.004487340274682],["propias",-11.004756742535772],["directiva",-11.005527740812429],["núcleo",-11.005723010117542],["incluy",-11.005753486730004],["val",-11.005894751323993],["clasific",-11.006343203246269],["Va",-11.006602754144975],["nublado",-11.006671820533485],["sorprendi",-11.007509592002915],["sabor",-11.00765821143112],["09",-11.007853088345772],["Blanco",-11.007929136404465],["sequía",-11.008119987463258],["traslad",-11.008205017187437],["import",-11.008312710554417],["inaugur",-11.008358612258988],["dulce",-11.008662884617106],["BB",-11.009541720639557],["agricultor",-11.009585380774805],["oper",-11.009989037777595],["dominio",-11.010039812467575],["futura",-11.010166348578739],["mirar",-11.010606730251073],["restante",-11.010895082508487],["predio",-11.011044753120299],["supo",-11.011241454064796],["Macri",-11.011298383592685],["Pas",-11.011339530701008],["venció",-11.011580055453539],["Español",-11.012153899842598],["q",-11.012279360749408],["laborale",-11.012644552075226],["generan",-11.014210208328581],["caminar",-11.014334712932277],["operar",-11.014416942004083],["version",-11.014525112817076],["querer",-11.014763790484007],["humanitaria",-11.01481727571322],["recorrer",-11.015725492968606],["guarda",-11.015892611624782],["libr",-11.016793512884266],["anteriormente",-11.016924301663138],["sola",-11.017113442976516],["custodia",-11.017821713189939],["Argentino",-11.018182788614164],["solucionar",-11.018299837789957],["84",-11.01874960195093],["Cad",-11.018828577662873],["masivo",-11.01888354766042],["mueve",-11.019507403025795],["impact",-11.019530342263646],["atendido",-11.02037454147043],["ª",-11.02038421787696],["Vladimir",-11.020390486134694],["juvenil",-11.020417508166327],["Silva",-11.020769836302279],["Estam",-11.020991260654746],["Orient",-11.02122414958407],["Oficial",-11.021306911396753],["descubri",-11.021662858170082],["jurídica",-11.022321275421438],["goleador",-11.023135458802566],["lidad",-11.023291278387052],["diseñado",-11.023367393892542],["sencilla",-11.023504230472394],["vieja",-11.024169060942356],["bala",-11.024251150050993],["incluir",-11.024337331748766],["panor",-11.024515843792134],["tejido",-11.024626869165221],["oca",-11.024682803545915],["gua",-11.024725551551796],["explosi",-11.024879286324193],["aumentado",-11.025308408728543],["emoción",-11.025621604129782],["voluntario",-11.02592841233555],["Alguna",-11.02598608977749],["delega",-11.026593476689996],["seguida",-11.026839264809869],["robar",-11.027710298473806],["Libertad",-11.027804081636612],["columna",-11.027961608236282],["Investiga",-11.028776158278088],["analiza",-11.02888595865468],["recurrir",-11.029407977649903],["Rivera",-11.02984140446797],["Ga",-11.03063413618677],["constituye",-11.030671274468972],["temprano",-11.031404378580032],["Europeo",-11.032068976832353],["Ar",-11.032297565615817],["Play",-11.032315796581752],["Verde",-11.032719186759422],["acompañada",-11.03274340196826],["democrática",-11.03407660560897],["estim",-11.034083970170244],["leche",-11.034087656340581],["caracteriza",-11.03452927652829],["Somo",-11.03588982648443],["viol",-11.035958436026691],["aérea",-11.03614488954879],["Mayo",-11.036373509234352],["deterioro",-11.036547924146072],["cuidados",-11.036869905241016],["ofrecerá",-11.036992578244861],["cuent",-11.037384645746199],["Mexican",-11.037409610855713],["•",-11.037928077526084],["Vázque",-11.03796539236117],["Nicarag",-11.038021591874333],["felicidad",-11.038093341124613],["preliminar",-11.038098317180168],["intérprete",-11.038256568996777],["rente",-11.038425524073844],["innova",-11.03862484932158],["abuelo",-11.038638447739736],["ligera",-11.038791553584264],["concretar",-11.039006850007429],["atleta",-11.039104872080783],["comun",-11.039154359911212],["cercanía",-11.040433169413518],["motiv",-11.040462875041747],["disminuir",-11.040790614698683],["lenguaje",-11.040910397281902],["orgulloso",-11.041356289897006],["toque",-11.042065709202994],["hurac",-11.042199064722753],["levant",-11.04231544551236],["stá",-11.042466411372693],["adaptar",-11.042879977462103],["Ber",-11.043064703915196],["buscaba",-11.043249687112649],["quita",-11.043359991666241],["sensible",-11.043864333940245],["tura",-11.044064921847966],["Sport",-11.044104270774717],["tomada",-11.044581556009982],["capac",-11.045084072191619],["sa",-11.045599431062477],["espectador",-11.045926811449899],["productivo",-11.046092938624234],["cinta",-11.047250480329307],["tocar",-11.047462811019535],["encanta",-11.048173989383336],["encontra",-11.04823697555043],["conforme",-11.049466892153433],["lanza",-11.04951364323659],["democrático",-11.050396262639794],["coordina",-11.050451784619282],["GT",-11.050630254047448],["yendo",-11.050914947243385],["dichos",-11.05134936418142],["causado",-11.051489962843995],["dedica",-11.051517681558305],["taller",-11.05157499977734],["agradecido",-11.052176634609072],["mini",-11.052370257574061],["coloca",-11.052437756891141],["expresado",-11.052687307183735],["juzgado",-11.052839739086512],["Alon",-11.052961359349279],["mono",-11.053426919498678],["visual",-11.053621992988315],["bancaria",-11.054893079487599],["diga",-11.055547096066864],["detalla",-11.055592788757313],["magnitud",-11.055808355484768],["fiscale",-11.055841054077526],["Código",-11.055868347916668],["vigor",-11.056109506170959],["concreta",-11.056239538352521],["lidera",-11.056478769962947],["habita",-11.05647943925943],["ahor",-11.05675529181952],["Industria",-11.056904063420577],["aerolínea",-11.05738758829419],["extraordinario",-11.058361353599288],["transi",-11.058406049450177],["escase",-11.059822582810735],["Donald",-11.059897921964836],["Médico",-11.061090079938207],["deje",-11.061606585153154],["demócrata",-11.061739168120504],["coali",-11.06225234176804],["colombiana",-11.062564956422264],["Autónoma",-11.06287948547092],["magistrado",-11.063021613396817],["comodidad",-11.063244264287729],["tranquil",-11.063813048640045],["convencido",-11.063914493998281],["china",-11.064364012164527],["caballo",-11.064993310387829],["volante",-11.065344532213519],["software",-11.066010414742276],["Nº",-11.066595706428664],["luce",-11.066877095083552],["pes",-11.067041978962084],["ndroid",-11.067130875803826],["Macro",-11.06746114598733],["compleja",-11.067515601605717],["Olímpico",-11.067838532275058],["forestal",-11.06806204693977],["barrera",-11.068439949126713],["libra",-11.068998278569428],["ingresa",-11.069143755106573],["ánimo",-11.06999940065057],["pasaje",-11.070289644000184],["huevo",-11.070375722581595],["dependien",-11.070831453625429],["jubilado",-11.071054596994639],["frenar",-11.072009115729276],["avanzada",-11.072229745087185],["dispus",-11.072727729394407],["08",-11.073009601785756],["paga",-11.07394965191463],["Quizá",-11.073975128621079],["Black",-11.073993072488433],["fórmula",-11.074207141712504],["Monterre",-11.074217719777216],["Arabia",-11.074307572527514],["Alianza",-11.074368884205901],["interpret",-11.074400793366818],["Univers",-11.075215625878302],["festejo",-11.07573399780083],["Agust",-11.076133796149454],["GP",-11.076265618046106],["lares",-11.07631279482769],["turística",-11.077131154689853],["ván",-11.077143353371584],["Patrici",-11.077214761218993],["Be",-11.077227583378685],["frecuente",-11.077526882506742],["bancada",-11.077531157065991],["cubana",-11.077578983823482],["camione",-11.077759976560293],["Sanidad",-11.07816843161043],["rutina",-11.078465665396534],["equivalente",-11.078950183536856],["92",-11.079385084879219],["derivado",-11.079433090129125],["nero",-11.080082232857187],["exitosa",-11.08064221862653],["necesitaba",-11.080686360100751],["test",-11.080913571382013],["estratégico",-11.081500332854754],["comenzado",-11.082069884141312],["Asoci",-11.082390207686311],["export",-11.082670010343566],["anuncia",-11.083391997034447],["economista",-11.084065902708527],["entretenimiento",-11.08493209375451],["ayó",-11.085049930442766],["93",-11.08585118127739],["oz",-11.08611451173256],["emitido",-11.086149204550725],["prenda",-11.086578454231221],["satisfac",-11.087047555467972],["proces",-11.088141833953106],["tom",-11.088675604018714],["graba",-11.088733331577085],["manten",-11.08893366737127],["fabrica",-11.08896922511126],["Oro",-11.090104497545648],["pico",-11.090346911867092],["eros",-11.09036063958506],["morir",-11.090409263805007],["iéndose",-11.09138750092124],["compart",-11.091448484273323],["elaborado",-11.091802364959415],["aproximad",-11.092205939816472],["héroe",-11.092467117291722],["YouTube",-11.09248587021809],["Reserva",-11.09254089365288],["perteneciente",-11.09254926628302],["Alfons",-11.092790523112157],["odio",-11.093100990210136],["Balear",-11.09341996056119],["marg",-11.093459591476126],["propus",-11.094459938707868],["laboratorio",-11.094620019294243],["externo",-11.094629586135987],["Federic",-11.094732224706874],["Tene",-11.094784726844768],["funcionar",-11.095017717938553],["ascenso",-11.095044667642556],["asesinada",-11.09667452221412],["condado",-11.097286830967317],["iguen",-11.097418240244023],["Historia",-11.097589154128702],["acompaña",-11.097975214495797],["exigencia",-11.098083948981635],["facilita",-11.098310139997198],["obligatorio",-11.09870771454149],["legado",-11.099625649816208],["explicación",-11.09965532063641],["secuestro",-11.099821456627065],["cobrar",-11.09993924627985],["bienvenida",-11.100823180814706],["asalto",-11.101221526688311],["monetaria",-11.101699013238408],["foro",-11.102072881307013],["comunitario",-11.102181111200617],["kovic",-11.102184884633344],["Asunto",-11.102237770848054],["cordó",-11.10267059106917],["comentado",-11.103535967533153],["ejecutar",-11.104048155174848],["Libertador",-11.104099147061348],["abandon",-11.104128536073938],["Ta",-11.104457392687644],["mile",-11.104475587323616],["complicada",-11.10457601717733],["estableci",-11.105013516669597],["cable",-11.105092540435178],["cortes",-11.105594714891868],["beneficiario",-11.105865753911399],["rebaja",-11.106221558468034],["autos",-11.106256277687955],["Estaba",-11.10636712007928],["OS",-11.107500926113222],["pelear",-11.107863649189719],["manejar",-11.108768952613492],["repetir",-11.109372087562885],["británica",-11.109374848997891],["cumpleañ",-11.109679776597964],["otorg",-11.109772609900164],["quedaba",-11.11111576711816],["asisti",-11.111118290760187],["helicóptero",-11.11135348161758],["Generalitat",-11.111354873725936],["certeza",-11.111420879048183],["vestuario",-11.11142389955122],["sis",-11.112740074371482],["acompañ",-11.1134120696797],["Emergencia",-11.113514178473572],["comisiones",-11.113669793775397],["bol",-11.113679852816253],["dedicada",-11.114395987047047],["encia",-11.115002634695886],["reemplazado",-11.115123863628517],["patria",-11.116362861413696],["futbol",-11.116401314110917],["crí",-11.116477066168462],["integrado",-11.116758543718507],["tercio",-11.116810332930097],["tor",-11.116871039963005],["seguía",-11.117109135551791],["llas",-11.117905037552198],["compartida",-11.117964510763569],["Bolson",-11.118445553350458],["correo",-11.11846463480384],["ntro",-11.119294320424979],["temprana",-11.119412652460824],["Mejor",-11.120184112165933],["electo",-11.120338563803134],["evoluci",-11.120433138711338],["amistoso",-11.120480872319277],["ará",-11.121641715050615],["ocup",-11.121813758344512],["He",-11.122364981787165],["reclama",-11.122530306435674],["risi",-11.123340555852629],["calificado",-11.123420686957603],["desarrollará",-11.123865808322861],["tros",-11.124638244477705],["rela",-11.125186037886346],["saldo",-11.125314325345197],["puntual",-11.125651042437529],["Park",-11.126698398946242],["sostener",-11.126854312502404],["cartel",-11.126972440531109],["legislativa",-11.12779811720133],["débil",-11.128331526355684],["absoluto",-11.128473889276554],["gigante",-11.12883273491526],["incorpor",-11.12922475476136],["atraviesa",-11.129225302345692],["cor",-11.129802036411192],["Era",-11.130027416864758],["GB",-11.130040350171386],["irregular",-11.13065938381959],["Leonard",-11.130688118366827],["Movimiento",-11.13070847547346],["trayecto",-11.130721835892212],["ingrediente",-11.130723932648806],["desarrolla",-11.13082685043686],["meter",-11.130985826460591],["apoya",-11.131137203894903],["impresionante",-11.131252409791056],["fortuna",-11.13186000958643],["botó",-11.13193402682909],["discrimina",-11.132193177340373],["ago",-11.132194355062582],["sibilidad",-11.132201217914327],["Vene",-11.132579816419788],["retorno",-11.132656810434298],["explican",-11.132770827517577],["Pilar",-11.132789465664708],["enfrent",-11.133233428263622],["excusa",-11.133259931355246],["prohibi",-11.13375916759845],["viva",-11.13404743513134],["Proyecto",-11.13406398264876],["º",-11.134591137453594],["transformar",-11.135453485379633],["atacado",-11.135523712850063],["implicado",-11.135851873826935],["desigualdad",-11.136210634424748],["relativa",-11.136348948043725],["sumado",-11.13649119205661],["atacante",-11.136501717375989],["Secretario",-11.137183074717456],["armada",-11.137235919135088],["saldrá",-11.137439578341386],["separado",-11.137522957659002],["hábito",-11.137870491484161],["dejaro",-11.138189729009593],["temática",-11.13871224185695],["Fuero",-11.13884170481793],["Hotel",-11.13979707479347],["sid",-11.140299908772203],["votante",-11.140432828386878],["adapta",-11.140614727575732],["giro",-11.140770984164172],["apartado",-11.14079220148119],["peruano",-11.141200354068225],["Buen",-11.141229471244689],["comuna",-11.141450177385892],["considerando",-11.14165693604437],["jefa",-11.142098887249794],["panel",-11.142308717019342],["activ",-11.143657872440539],["cómodo",-11.143851477753469],["zuela",-11.144418534751347],["reportar",-11.144936118854929],["exigi",-11.145299737600757],["gnacio",-11.145404049946912],["alcaldía",-11.14541894423797],["complica",-11.145757087297405],["ocupar",-11.146241384227334],["escuchado",-11.146419589306646],["Foto",-11.147277385069007],["patrulla",-11.14784468759165],["financia",-11.148333332999048],["Tu",-11.148828975238223],["libera",-11.149044588653203],["extranjera",-11.149053638657602],["niega",-11.149200863587225],["mart",-11.149752256240792],["asoci",-11.149780494973374],["congresista",-11.150168912503759],["Facultad",-11.150193423984721],["cien",-11.150283200213439],["pulgadas",-11.150377637854],["interanual",-11.150403547748839],["módulo",-11.150530147176246],["Representante",-11.150555863423625],["preocupado",-11.15070647950955],["iraní",-11.150755647299336],["Alex",-11.151021975453055],["referido",-11.151114312733842],["Sant",-11.151334337792452],["NI",-11.15226159457946],["concluye",-11.152585764627098],["pen",-11.15267315680843],["agregado",-11.153054098406264],["acepta",-11.153759145203496],["contamina",-11.153799524945466],["cintur",-11.153862641194738],["proporcionar",-11.15415012351188],["Persona",-11.155108713279507],["actualiza",-11.15525040082203],["Esper",-11.155258004688003],["Añadi",-11.155389002296388],["contribuir",-11.155478939494202],["Claro",-11.155497472761787],["divisi",-11.155696259186616],["desarrollando",-11.155910402280202],["IA",-11.156047502275403],["finalidad",-11.156234775922478],["borde",-11.156622057385103],["Tri",-11.157660951746891],["delictivo",-11.158282995026559],["ruido",-11.158614067160945],["Dr",-11.158688569257235],["asiento",-11.158860550526187],["humo",-11.159093845940246],["rumore",-11.159497002072598],["bosque",-11.159580546741054],["empat",-11.160168567474674],["Max",-11.160379672642575],["Personal",-11.160503369548039],["voce",-11.160788807905467],["argen",-11.161392595234414],["arranc",-11.161737602310776],["ènci",-11.16174648054739],["actu",-11.16185006363667],["chef",-11.161953457226398],["valenciano",-11.162403105581868],["nieve",-11.162721804050753],["94",-11.16299518257589],["amparo",-11.163080729330128],["Gu",-11.164042396600774],["pode",-11.16423316243639],["gust",-11.164350764319492],["prefiere",-11.164437584642087],["poderoso",-11.164637879048042],["he",-11.164841282806258],["especialidad",-11.164924500706311],["Camino",-11.164957919827115],["abajo",-11.166849748012957],["afectan",-11.166978201193078],["esencia",-11.16726075012343],["busc",-11.167899537247969],["patio",-11.168117016064292],["compr",-11.168763290188336],["autoriz",-11.169122377316054],["fomentar",-11.169161889657993],["amarillo",-11.169540349773744],["compatible",-11.16985867301642],["Disney",-11.170210661617693],["gubernamental",-11.17022318696021],["facilidad",-11.170367635865924],["pertenencia",-11.17039424838841],["fund",-11.170612004407111],["ung",-11.170645370691638],["irregularidad",-11.170649726610343],["escaño",-11.171034632056982],["limitado",-11.171196369510469],["Cort",-11.171287495717653],["encuentr",-11.171399086608231],["Aguilar",-11.171499169080466],["desfile",-11.17165060696773],["Regi",-11.171659907412497],["Ciudadana",-11.1717211577539],["automática",-11.171868368197103],["fija",-11.172093966013414],["eje",-11.17241921040085],["tem",-11.172847583132931],["inunda",-11.172880471577415],["aislamiento",-11.172995227719085],["gestione",-11.17308246285608],["destacada",-11.174046359778973],["Presupuesto",-11.174286224975459],["Star",-11.174291303320766],["ificación",-11.17436129761984],["productiva",-11.174363081120093],["autónomo",-11.174421910576743],["académica",-11.174554960178332],["Chihuahua",-11.174565745440912],["nsula",-11.174836109451794],["pensado",-11.175117157817192],["anotar",-11.175663557868985],["Press",-11.176413884542907],["coopera",-11.176924567263965],["Patria",-11.176927377904631],["BI",-11.176952925485853],["integrar",-11.176953652186537],["Estudiante",-11.177060163024848],["oras",-11.177064363193955],["arco",-11.177417479125499],["Jaime",-11.17821454535696],["flore",-11.178258573423737],["naranja",-11.178387266329876],["film",-11.179188613437269],["Aguas",-11.179268135552666],["soluci",-11.17949362227164],["Ayu",-11.179531894847656],["ejemplar",-11.17964120097987],["difundido",-11.1800456033154],["dieta",-11.180757921463297],["doce",-11.18146426103323],["Pi",-11.181666508276262],["centra",-11.18198129979391],["Trabajador",-11.182071275321087],["gimnasio",-11.182080456119028],["apuntado",-11.18216965825501],["rio",-11.182672985790095],["vidas",-11.183430709302046],["renovar",-11.183822717785905],["comune",-11.184033353724892],["erró",-11.184235888462329],["carro",-11.185643664505394],["identificación",-11.185687183304516],["retir",-11.18574975178901],["telefónica",-11.185773759740114],["funda",-11.186086221018927],["escalada",-11.186116224373702],["Can",-11.186280404094626],["avanz",-11.186424699549256],["revoluci",-11.186893758766967],["obvia",-11.186966633556171],["estrecha",-11.187035618534608],["montaña",-11.187454154286858],["preso",-11.187841721522638],["bras",-11.188750347543364],["sirvi",-11.188953568938238],["artístico",-11.189569791692971],["retirada",-11.189646047174165],["Hid",-11.18968121149194],["ocupado",-11.189781362215118],["ica",-11.190096630365264],["presta",-11.190099109664686],["camp",-11.190566183940597],["bolsillo",-11.190628073140239],["imprescindible",-11.190736242985441],["05",-11.190743449400674],["catálogo",-11.19079534789567],["Global",-11.190870067713895],["actúa",-11.190905553556584],["determinada",-11.190965180543804],["molestia",-11.190993700151038],["Michael",-11.190997780751779],["Xi",-11.191009009502373],["denominado",-11.191538893641217],["negociar",-11.191928865909055],["vehicular",-11.19195053018478],["militante",-11.192476560833533],["arresto",-11.193114902303703],["Autoridad",-11.193342738828726],["inmedia",-11.193576160172778],["Franco",-11.193669922873957],["ki",-11.193696642654164],["accesible",-11.1942757671601],["alert",-11.194303963901737],["Fi",-11.19548175830544],["suicidio",-11.195511014473604],["110",-11.195848087566066],["Sandr",-11.195991007479634],["grav",-11.196675501354807],["Camil",-11.196800843296005],["uruguayo",-11.197086944364061],["Ferrar",-11.197398943145275],["mex",-11.197666411670406],["berg",-11.1976915106289],["sienta",-11.197769422686147],["maestra",-11.197792120249222],["lección",-11.198280093867602],["evalu",-11.198287534710598],["rubro",-11.19852625143307],["arrestado",-11.198805174009992],["privilegio",-11.199059709348965],["elimin",-11.199227195061342],["unir",-11.200974292075973],["sometido",-11.201250248796175],["iniciará",-11.20175487210616],["hici",-11.202463440427406],["hallado",-11.202744446312826],["aje",-11.202763266395284],["favorita",-11.202795463308984],["met",-11.202940145838632],["Lu",-11.203213389584565],["servir",-11.20353037732892],["sos",-11.204074863490376],["propi",-11.20452728141447],["preguntar",-11.205334725071044],["circul",-11.205581812425846],["sufr",-11.205587077347964],["Ra",-11.206000364191063],["asciende",-11.206003565573393],["cho",-11.206123038857452],["estuviera",-11.207049110093157],["confía",-11.207141579642895],["pyme",-11.207510343408483],["ración",-11.2075536977984],["iga",-11.207874051949684],["moviliz",-11.208195116449781],["anima",-11.208413015734962],["interesada",-11.208957988206688],["refugio",-11.209918399780522],["Micro",-11.210018763492291],["Muy",-11.21005049617748],["deportes",-11.210222378552988],["iruela",-11.210430763177673],["estimado",-11.210786516727516],["buque",-11.210836611838713],["Mbapp",-11.211434167154398],["Padre",-11.21146004190869],["Virg",-11.211465031962595],["despliegue",-11.212039314691971],["Cuan",-11.212145831202264],["Usted",-11.212679024802013],["iza",-11.212758176570889],["arranque",-11.213357043221583],["Marc",-11.2136813368534],["permanecerá",-11.215263703312633],["Bal",-11.215419192760644],["villa",-11.215474226475026],["terminal",-11.215840474846416],["intern",-11.216004968970397],["porteño",-11.216044937390667],["tomaron",-11.21692742429073],["localizar",-11.217136108134152],["jueza",-11.217315507862244],["Indic",-11.21738337522628],["Fe",-11.217783630257292],["cuello",-11.217905298275],["registran",-11.217934872042386],["extraña",-11.218070543897213],["broma",-11.219148492322306],["asesino",-11.219237535877879],["rodilla",-11.219387884227082],["Jefe",-11.220156028421275],["soft",-11.220604533451734],["originario",-11.221421355121734],["identificada",-11.222393403071571],["suspendido",-11.222804421306035],["legislativo",-11.223535934043907],["trabajadora",-11.224102843361276],["exigir",-11.224641694380777],["cobro",-11.22468536563845],["optar",-11.224859348032673],["Mal",-11.224926489423064],["manual",-11.225024530883442],["proporciona",-11.225053419748573],["pan",-11.225396352802566],["sostenido",-11.225665663513947],["subsecretario",-11.226043342504937],["130",-11.226635021301098],["Arte",-11.22760814119226],["lla",-11.227776557472643],["rock",-11.228064046996133],["ingresado",-11.228872071646578],["Má",-11.229087385226865],["PRO",-11.229624901827616],["esperada",-11.229687996444405],["hospitalizado",-11.229813605306825],["consecutiva",-11.229895988933496],["retraso",-11.230019465281872],["Ant",-11.230318838127769],["copa",-11.231322284122204],["conclusi",-11.231550570297362],["levanta",-11.23155232160602],["iedad",-11.231943901765636],["extraño",-11.232351375957299],["israelí",-11.232829215456375],["canadiense",-11.233009917044086],["Cualquier",-11.233213070114656],["inconveniente",-11.233443455536761],["ardín",-11.233799625107132],["rentabilidad",-11.23385444628427],["alma",-11.233886533424013],["Rock",-11.23426292327163],["Eugeni",-11.234352811777713],["gobernante",-11.234416223764253],["ingeniería",-11.23474640277859],["otable",-11.234861990354513],["agradable",-11.235691265229324],["fría",-11.235711748502213],["utilizada",-11.235824697803443],["reaccion",-11.23658734604791],["tuit",-11.236887726385028],["símbolo",-11.236917148466741],["Catar",-11.237267529986289],["embarazada",-11.237307247136501],["stante",-11.237422315884412],["American",-11.237667288582637],["obtiene",-11.237977648570475],["AP",-11.23812882285446],["haría",-11.238290938701244],["alojamiento",-11.238410498317851],["estancia",-11.239005189535686],["almacena",-11.239737651310763],["Vera",-11.240002603170257],["acordar",-11.24009430949686],["paralelo",-11.240380884066598],["acerc",-11.241010010230307],["rel",-11.241241732800965],["direcci",-11.241276287926278],["Campeon",-11.24145637112067],["valioso",-11.24157718181072],["arquitect",-11.241715511970543],["deceso",-11.241854042382428],["vendido",-11.242235077991896],["rus",-11.24237038687291],["sentado",-11.242684214256514],["tard",-11.24272591815047],["salga",-11.24287676980926],["tenista",-11.242900666647039],["Familia",-11.242915341722288],["reglamento",-11.24303868731027],["veterano",-11.243266315460051],["Económico",-11.243337341690149],["olívar",-11.244334108453735],["indican",-11.24455503342073],["cruz",-11.24466863990027],["experimentado",-11.245018862193163],["Belgra",-11.2453709920402],["novia",-11.245599420519934],["segur",-11.246276893011135],["fijo",-11.246438535862882],["acostumbrado",-11.246559135102626],["sto",-11.247075419231688],["prestar",-11.247296239709776],["pensaba",-11.247584196139638],["cuadra",-11.247935365044723],["pres",-11.248185480263986],["Mark",-11.248269591902698],["abogada",-11.248329822473767],["encuentre",-11.24867904902382],["pensa",-11.248916685947126],["atiende",-11.249058549870806],["instruc",-11.249310268273168],["impulsada",-11.249720230066808],["Michoac",-11.250300418111578],["salto",-11.250418314914365],["NASA",-11.250883194089983],["auxilio",-11.251165100574823],["franquicia",-11.251343873719193],["estam",-11.252714910213653],["formal",-11.252982691829173],["consultado",-11.253153687454798],["retomar",-11.253395253307032],["caro",-11.25342677696747],["vendedor",-11.253665918433253],["moderno",-11.253849276317544],["administrativo",-11.25385624083701],["paisaje",-11.25394126597486],["pertinente",-11.254499259734164],["mercancía",-11.254571339798034],["Independiente",-11.254571520220923],["cálculo",-11.254646142732316],["terrestre",-11.255011282138135],["rescatar",-11.255270236122119],["adquisi",-11.255341148704723],["descubrimiento",-11.255398477127994],["exhibi",-11.255478700932319],["the",-11.255619835816695],["incumplimiento",-11.255731222041852],["rí",-11.255945189452355],["Shak",-11.256188764890457],["agradecimiento",-11.257420744807309],["cosecha",-11.257591823486331],["nómina",-11.257801622829856],["emprendedor",-11.257902758820844],["Williams",-11.258477153806862],["echar",-11.258489062295823],["ell",-11.258532230649571],["feminista",-11.258763824272123],["unta",-11.259519110742506],["mapa",-11.259915021368979],["advertencia",-11.260107382224444],["crecido",-11.260960281307208],["aspira",-11.261125701168815],["criticado",-11.261258161926492],["soberanía",-11.261574908642103],["reunirá",-11.261646817438493],["representar",-11.261708429165495],["suba",-11.261805747679977],["subido",-11.261809277651995],["vilidad",-11.26186405042964],["rector",-11.26266527572904],["ventos",-11.262774178888279],["XXI",-11.263714718755526],["apari",-11.263929723878352],["Belar",-11.264049338310372],["Bravo",-11.264204743028941],["barra",-11.264994686035331],["gris",-11.265063274699916],["pierda",-11.265076057607267],["crónica",-11.265674759532324],["prohibido",-11.265989725986204],["cierra",-11.266128831176545],["avione",-11.26666709621813],["dosi",-11.267007608624652],["ora",-11.267077587903902],["Emili",-11.267272038513111],["reloj",-11.26733888664652],["abinete",-11.267416076448313],["disfrut",-11.267565235632272],["compañera",-11.267911727292566],["abrirá",-11.269054543820646],["trasladada",-11.269065027251703],["italiana",-11.269122098621008],["acordado",-11.270065668182857],["gastar",-11.270437943236612],["patronal",-11.270731111601332],["inst",-11.270794254810763],["protege",-11.271331745620902],["gesto",-11.271384692110601],["enfermo",-11.27138593351362],["contener",-11.271482797780429],["excepcional",-11.271837542202995],["define",-11.271961794540012],["and",-11.272129858627888],["universitaria",-11.274122652217319],["cantar",-11.274376250715989],["carg",-11.274385142521284],["imagin",-11.27497667149857],["fracaso",-11.275107148985667],["virtud",-11.275129570904154],["imón",-11.275714793713927],["barato",-11.275973666171126],["religiosa",-11.27610279336276],["Dom",-11.276103185939675],["gradual",-11.276123086607784],["Oeste",-11.276363943390281],["market",-11.276428458153017],["terrible",-11.276728636755312],["proviene",-11.277052333007324],["considerada",-11.277056137420296],["cometer",-11.278428034390092],["reporta",-11.27844074407359],["costas",-11.27850278364816],["bús",-11.278639283417792],["Cár",-11.278723898271142],["primavera",-11.279119555453377],["Ben",-11.279137821121441],["Mallor",-11.279398417281167],["mism",-11.279536299425919],["Tour",-11.279682238635328],["financiar",-11.280133661857823],["Murcia",-11.28019939023715],["it",-11.280600223817828],["hablaba",-11.280665528347694],["sigla",-11.281118750287654],["decirle",-11.281166805531113],["cio",-11.2811678867591],["Liver",-11.281878129243404],["mencionada",-11.281952037044366],["disparar",-11.282012650738416],["implementa",-11.282104402088734],["líquido",-11.282663920116313],["much",-11.28338576356741],["cotidiana",-11.283910622354279],["interpretar",-11.284072392223486],["bonito",-11.284326167762783],["modificar",-11.284551586895937],["progreso",-11.285034515250102],["limpia",-11.285973691131309],["verse",-11.286224101372019],["zar",-11.286428719237808],["reflexi",-11.28651481714341],["llamas",-11.286651743597634],["illas",-11.287041906210318],["canasta",-11.287527733641262],["combinado",-11.287738122932836],["efectuar",-11.287835101894629],["aría",-11.288747515596633],["disparado",-11.289288818300463],["estudi",-11.290199997754884],["localizado",-11.290411158066775],["diplomático",-11.290417104806739],["Cristian",-11.290593031283924],["Soto",-11.291416670541574],["rnos",-11.291499552510754],["bra",-11.291543972204483],["agregar",-11.291557946453375],["DT",-11.29211390863266],["Bien",-11.292249330140237],["igencia",-11.292274858082056],["impide",-11.292414334038115],["femenina",-11.292435362432705],["delincuencia",-11.292471568339677],["descarta",-11.29252785174603],["Hora",-11.292566976960087],["podio",-11.292614904378755],["analiz",-11.292668060892597],["hiciera",-11.293408693694031],["sombra",-11.293888739666722],["inaugura",-11.294350286439851],["retirado",-11.294547953752103],["Johns",-11.294634422845256],["unció",-11.294867858521192],["Paraguay",-11.295429824168561],["Cerca",-11.295533504253193],["rece",-11.296018161176129],["je",-11.296160091882488],["umó",-11.296333173682203],["promueve",-11.296462058583472],["naciones",-11.296576048600407],["Alfa",-11.296757107199547],["ránsito",-11.296775861484646],["pozo",-11.29690100591429],["lazo",-11.296975382867696],["plantear",-11.29704027199395],["acabado",-11.297218794958269],["bajada",-11.29735931161607],["auxiliar",-11.297578649728601],["Puente",-11.297772473605036],["llo",-11.298007054591775],["computadora",-11.298079570503939],["li",-11.298238330206098],["CD",-11.298318170920368],["alt",-11.298487519844361],["Misione",-11.298580189079104],["Sputnik",-11.299398812252287],["Guadalup",-11.299410551081507],["Zamora",-11.299419875509706],["tubería",-11.29966987485585],["patología",-11.299989804960214],["recomendable",-11.300036129829913],["transmis",-11.300335995392903],["ciendo",-11.300579925191613],["Destac",-11.300593127944383],["considerable",-11.30077847468188],["Agricultur",-11.30079009833523],["Joaqu",-11.30082467946466],["cerebral",-11.300899368802849],["hijas",-11.301272804070862],["preferencia",-11.301384757496518],["Fiesta",-11.301473244621551],["Juventud",-11.302159788906721],["creía",-11.302201568081502],["XX",-11.302743074219343],["inmigrante",-11.302994402871796],["sentimental",-11.30329850264759],["sigu",-11.303327150002161],["instituto",-11.303432059550858],["solicita",-11.303715136156228],["Duran",-11.303747579878937],["equip",-11.303755816458478],["Preven",-11.303909048556715],["amante",-11.304101508171566],["copia",-11.304228989461318],["ocasi",-11.304392544425207],["estacionamiento",-11.304408934594145],["guardar",-11.304561641754946],["suspens",-11.305155074781522],["polaco",-11.305193381503344],["gobernar",-11.305385600688329],["indicio",-11.305711585396834],["internado",-11.305801075015768],["verificar",-11.305964995441858],["millonario",-11.306649832217365],["multi",-11.306700339143175],["Alta",-11.308205512495995],["persecu",-11.308376869507068],["dedic",-11.30848931460668],["intentado",-11.308738791539575],["Castelló",-11.308984301022097],["sonrisa",-11.30929216699259],["salía",-11.309862578343957],["baile",-11.310126765060067],["realizaba",-11.310735908125036],["igan",-11.310748391297295],["Monument",-11.311112045161115],["ilícito",-11.311217659131463],["nguez",-11.311493371623513],["descart",-11.311711705255988],["entrenar",-11.312687330562706],["asamblea",-11.312688064693138],["ejercer",-11.312776976845207],["crudo",-11.312828760685537],["jurisdicci",-11.313150584423692],["asociada",-11.313159121892566],["planteado",-11.313431475826402],["01",-11.31366320133565],["facultad",-11.314449634416865],["Gonzal",-11.31448249808178],["eleva",-11.314577323018105],["detectado",-11.314702405748907],["resoluci",-11.315866916129066],["explota",-11.316460142846616],["amo",-11.31719040838564],["deportistas",-11.31835840414518],["desastre",-11.318862242958298],["vacunado",-11.318875294131447],["CV",-11.319034217854766],["señora",-11.319109430301149],["hab",-11.31938564732749],["tradi",-11.319402992303502],["mit",-11.319509829423417],["box",-11.320180874996101],["rdene",-11.320635156386363],["ato",-11.320679108371168],["tes",-11.320768823342863],["cubierta",-11.320826496759038],["ficha",-11.321335101328996],["interac",-11.321447508747031],["adelantar",-11.321466820308402],["toman",-11.321533754374823],["maneja",-11.322713854459778],["maquinaria",-11.322730288029135],["indispensable",-11.322781456623265],["círculo",-11.322789958736408],["06",-11.322809917287849],["proveniente",-11.32282423429367],["hubiese",-11.322968695019732],["obten",-11.323178487326999],["Marvel",-11.323222512525698],["balazo",-11.323246024669704],["dirigencia",-11.323366727771543],["gabinete",-11.323407742572936],["Golf",-11.324074350139306],["colaborar",-11.32418260778813],["sacerdote",-11.324277872610251],["comandante",-11.324314380386522],["verdura",-11.324442560213345],["dió",-11.324662576826952],["Mor",-11.325503329081307],["Colorado",-11.325535638942007],["editorial",-11.325731838259582],["acercamiento",-11.32598178870692],["actua",-11.326166916268878],["efectiv",-11.326334242995676],["Qui",-11.32679711553361],["acia",-11.327285263066898],["instante",-11.327663462121174],["corporal",-11.32795783489498],["pelo",-11.32818958133176],["pistola",-11.32820029981949],["reproduc",-11.328374817878064],["caminos",-11.329068491340653],["cura",-11.32991745963017],["Open",-11.33007721964638],["Salta",-11.330317972464414],["concentr",-11.330703256702074],["reaccionar",-11.331208654599008],["migratorio",-11.33123358385966],["positiv",-11.331431760734898],["alón",-11.33144796008618],["campos",-11.331543638887954],["comunal",-11.331593261927178],["valorar",-11.332026953781803],["enmienda",-11.332499648254402],["Adam",-11.332568836249825],["Fu",-11.332748418905615],["decide",-11.333195453786004],["maltrato",-11.33361505941323],["ónica",-11.333623835784515],["increment",-11.333641185589785],["experimentar",-11.333940769891681],["existir",-11.334256928152795],["intencion",-11.33432783509048],["brutal",-11.334394152389567],["brillante",-11.334466454183865],["mecánica",-11.334483476517516],["clas",-11.334573806947024],["ahorrar",-11.33457721252013],["minero",-11.334956261421338],["Orti",-11.335128428308515],["DC",-11.33514874266994],["CC",-11.335488079800594],["encontrará",-11.335493782980082],["vacunar",-11.335826178576914],["daba",-11.335900897760611],["rango",-11.33608675329435],["reparto",-11.336205856941984],["transmitir",-11.3364699919965],["finaliza",-11.336580034682228],["ber",-11.3376656954233],["grasa",-11.337839348998706],["beca",-11.338036009703648],["dedicar",-11.338401576008154],["americano",-11.338554064974202],["segmento",-11.338563616640426],["república",-11.338907437608633],["etiqueta",-11.33953711376969],["rol",-11.339635713124098],["enfrentan",-11.339690180721536],["Mirand",-11.339865661689188],["sentí",-11.339976384747741],["instalado",-11.340141041930298],["plano",-11.340369979467678],["únic",-11.34040379698369],["etti",-11.340498742947098],["Alvar",-11.340698537010939],["producen",-11.340714644811447],["presione",-11.340921350730639],["acífico",-11.341942427768991],["huir",-11.342005510993808],["Chica",-11.342733332719275],["formado",-11.34401731094463],["An",-11.344284509416559],["pool",-11.344893575574472],["Cristo",-11.345487949189108],["For",-11.345599336736484],["Bank",-11.345736573246],["montó",-11.346759252340942],["montaje",-11.346836917799543],["iami",-11.346899866273214],["desplazamiento",-11.347115602899938],["dirigía",-11.347249529916787],["menciona",-11.34725165106551],["malo",-11.347256916913475],["pretemporada",-11.347309137328857],["nombramiento",-11.347494619095508],["Tigres",-11.347824732519616],["bajos",-11.347825138211626],["poblacion",-11.348157203710777],["convencional",-11.348179678953327],["dependiente",-11.348636629889915],["discutir",-11.348852750502555],["escrita",-11.34896534198616],["adquisitivo",-11.349177805272307],["extender",-11.34919084926274],["Concejo",-11.349593074682481],["Christian",-11.349702660683258],["rehabilita",-11.349915033868744],["More",-11.349982807018161],["Organiz",-11.350113293624975],["mina",-11.350240191503806],["Ja",-11.350279756596802],["aragon",-11.35028947227139],["Cas",-11.350843766713192],["estab",-11.351109480170576],["Tele",-11.351116654569557],["interesa",-11.35116411098773],["disculpa",-11.351276461680959],["ob",-11.351498188786636],["construido",-11.352001613312144],["llos",-11.352035293456863],["gala",-11.352844248504095],["limpiar",-11.354284844389136],["ética",-11.354449704965013],["negar",-11.354592151339116],["Calder",-11.354612028844041],["Reg",-11.354618699050974],["extens",-11.354717545166695],["Sam",-11.356139763931214],["organizador",-11.356183362025554],["Silvi",-11.356239819689016],["insiste",-11.356447778981046],["atriz",-11.356525395436146],["ordenar",-11.356829904459035],["armamento",-11.357289206585495],["falt",-11.357512477491648],["pareci",-11.35772016723665],["sentía",-11.357987377084699],["lix",-11.358375369560292],["intentan",-11.35860298362891],["centrado",-11.359003568473288],["cay",-11.3593312844001],["PJ",-11.359683190747898],["var",-11.359779404320399],["séptimo",-11.360019941996747],["carpeta",-11.360285896172112],["culmin",-11.361006196863176],["leve",-11.361080814029565],["eres",-11.36116610830801],["Stree",-11.361641908407591],["definitivo",-11.362606683401431],["Sab",-11.363013061985267],["contact",-11.363404626719431],["reac",-11.364001635140067],["Bruse",-11.364308411238076],["Lago",-11.36450370499295],["calma",-11.364788449787493],["ector",-11.364802404927396],["Zacate",-11.364847392987583],["apuntan",-11.364987021250249],["Concep",-11.365020026669598],["Ban",-11.365048976650725],["Parece",-11.365530461587301],["aves",-11.365710725744563],["sólido",-11.365927329681792],["proyect",-11.366203130175265],["detallado",-11.366211046561231],["voluntaria",-11.36629608209017],["evit",-11.36637747860428],["Ch",-11.366641781667497],["campeon",-11.367069573528154],["moderna",-11.367346577858331],["acorde",-11.367579955313595],["denominada",-11.367588432549478],["itos",-11.367778377020898],["TC",-11.368090599515446],["hermosa",-11.368118713662707],["deriva",-11.368217135258835],["alemana",-11.368219327653287],["destruc",-11.369002523940717],["emocion",-11.36969611591571],["meti",-11.369876032471673],["Gil",-11.370490905588042],["Grand",-11.371053145061342],["tristeza",-11.371158128610103],["president",-11.37131399985526],["peronismo",-11.371336425973091],["Sabe",-11.371875660540406],["intelectual",-11.372023345927582],["recoger",-11.372152812689155],["vivencia",-11.3724023195259],["extensi",-11.372410504597898],["Militar",-11.372801739229368],["interes",-11.372843003947187],["Vial",-11.374606468084227],["preocupante",-11.374669403757387],["bolet",-11.375008663915802],["servirá",-11.375187248098936],["vergüenza",-11.375237598514587],["riz",-11.375289921055678],["conmemora",-11.375306332199482],["castigo",-11.375620591877759],["eficaz",-11.376516771883487],["azulgrana",-11.376663588724028],["hit",-11.376664392353298],["decidier",-11.376694384759084],["Vivienda",-11.376996775842981],["irán",-11.377325134467654],["preservar",-11.377440275649871],["Montero",-11.378351676590576],["explot",-11.378503831838014],["pidier",-11.378890872055619],["stream",-11.378952738270998],["preci",-11.379120493476176],["programada",-11.379128458445226],["Lucian",-11.37929146909169],["suspender",-11.379984149558933],["trabajaba",-11.380004627748926],["añad",-11.380100254439363],["pague",-11.38018800151956],["XI",-11.38028208676147],["divertido",-11.380325883706467],["Alba",-11.380351037769081],["oscuro",-11.380625856600872],["Infantil",-11.380672547661769],["recogido",-11.380774297362489],["procedi",-11.381001630726953],["seleccione",-11.381592155748125],["mari",-11.382268297399051],["Contr",-11.382414921962628],["Madre",-11.382494410985979],["fic",-11.382700718530812],["colocado",-11.382938218637102],["contribuye",-11.383196147211521],["acing",-11.383313905117951],["reportero",-11.383596433340154],["Empresa",-11.383637742196555],["ilumina",-11.383715622274131],["golpeado",-11.384386950949514],["permanecer",-11.384446761235083],["convoc",-11.384564045643765],["conquista",-11.384823991044245],["complemento",-11.384925336664299],["mont",-11.385107628113705],["ocio",-11.385242575758799],["ensayo",-11.385308648052188],["suave",-11.385394113366896],["censo",-11.386136041272694],["justificar",-11.38628748209226],["añadir",-11.386458472582397],["depósito",-11.386617722735469],["corrupci",-11.38672453511056],["deber",-11.38689725277379],["revelar",-11.38690869175013],["suceder",-11.387059372604963],["respectivo",-11.387291711937937],["elabora",-11.387468846109403],["mentó",-11.388322729834272],["regidor",-11.388623385651478],["sea",-11.388674876782597],["detuvier",-11.388962701698452],["agrupa",-11.389046236662603],["Gal",-11.389075205565224],["otti",-11.389177414806888],["Caja",-11.389559782057999],["sorprendido",-11.389654490611182],["afiliado",-11.38990191228936],["curioso",-11.391066266989544],["pagan",-11.391332131884724],["rég",-11.391348228870964],["Do",-11.391860311032168],["desconocido",-11.392160797095773],["rico",-11.392208687043983],["fortaleci",-11.392342262919964],["letra",-11.39269890193173],["sig",-11.393497011842317],["electric",-11.39361135421702],["portero",-11.393674626663842],["Constituci",-11.394291839472018],["entero",-11.394517913619199],["exista",-11.394993331261624],["iño",-11.3951668040775],["impuls",-11.395892002125128],["víspera",-11.395896243173388],["requerimiento",-11.396043029082286],["Lamentable",-11.396065341240158],["cerveza",-11.396170721685213],["cuarentena",-11.396345777378784],["ciber",-11.396359948234386],["disponibilidad",-11.396382117504887],["Fox",-11.396431466961127],["tropical",-11.396464003658583],["peronista",-11.396585170777652],["inocente",-11.396628407307572],["ciclista",-11.396636078727468],["sentar",-11.396662219176699],["Medicin",-11.396744739267223],["Angel",-11.396771570986099],["obstáculo",-11.396789949205886],["liberar",-11.396862986589984],["195",-11.396955884299228],["felic",-11.396964728284768],["contenedor",-11.396999121497604],["Tercer",-11.39702887263197],["estructural",-11.397176703243833],["World",-11.39761993044518],["creada",-11.397795248623934],["Junior",-11.397866962503883],["impulsa",-11.39804169748379],["repara",-11.3981932744661],["hambr",-11.398211290500052],["agres",-11.398256242175723],["Gallardo",-11.398349701991847],["reduj",-11.39848644732527],["exclusivo",-11.398890913148096],["gricultur",-11.399308085192406],["Media",-11.399708016806693],["Canel",-11.399904261611493],["porta",-11.400732085676093],["visi",-11.40095179745484],["able",-11.401283894597109],["transcur",-11.401938704484865],["ocurrir",-11.402249352384615],["imen",-11.402466432083726],["deportista",-11.402733865698556],["doméstico",-11.403424073052783],["West",-11.405166727421133],["electrónica",-11.405431501043015],["reparar",-11.405472580275097],["socia",-11.405485519957026],["imp",-11.40551268585919],["fronterizo",-11.405640173460792],["Canal",-11.405794509158145],["hotele",-11.405849472402497],["pudi",-11.40622550331417],["entrado",-11.406410876543543],["afirmar",-11.407181282844626],["Quintana",-11.40730765383958],["petrolera",-11.407587936449229],["agujero",-11.407621213670014],["Primaria",-11.40764272496303],["ratific",-11.407882626665822],["chi",-11.408062059171785],["ordenado",-11.408214748582841],["Latino",-11.408227740568712],["calcula",-11.408540552457184],["Dicho",-11.408565709186322],["paseo",-11.40862162591473],["et",-11.408625216619297],["fas",-11.408767465768932],["versi",-11.40899751148908],["mineral",-11.40939691946279],["FM",-11.410042191657745],["sorprende",-11.410732023968313],["poli",-11.410793327290726],["aeronave",-11.411155585580222],["Estudio",-11.411350469239082],["paradero",-11.411463382804987],["carece",-11.4115741926297],["huan",-11.411879545519636],["nieto",-11.411944941355719],["sexto",-11.412346010467557],["locura",-11.412470458882307],["decid",-11.412646287922092],["cabello",-11.412707442332945],["repar",-11.412807440715302],["documenta",-11.412911922909345],["nave",-11.413078421224489],["habit",-11.413532928871597],["ficaci",-11.413906720024288],["gar",-11.41433019622636],["estatu",-11.414560798088266],["secundario",-11.41507643220208],["Quit",-11.415535791114738],["And",-11.415612428398498],["peligrosa",-11.41650346390465],["transparente",-11.416574036392674],["Cristiano",-11.416633829544386],["psicológica",-11.41802878187011],["risa",-11.418349170065017],["194",-11.418649382355264],["embr",-11.418862761725833],["servidor",-11.419151739267882],["campeona",-11.419235537914103],["Meta",-11.419273702952557],["am",-11.419396265868391],["PR",-11.41947602329802],["Escob",-11.419495856491512],["prestacion",-11.419709544551544],["difus",-11.419896550767419],["Pen",-11.420301121223787],["illo",-11.420674310675722],["astro",-11.420759232418277],["encuestado",-11.421240400373424],["forman",-11.42125642328379],["universal",-11.421492715916125],["Tijuana",-11.421495446336955],["Govern",-11.42153907229594],["creatividad",-11.421621474486185],["proteína",-11.421631534452835],["Quintero",-11.421693445293936],["reunido",-11.421776134432536],["belga",-11.421931641554309],["respet",-11.422098515288555],["influencer",-11.422125415735398],["pasaporte",-11.422165151041575],["Av",-11.422424351355321],["Turqu",-11.42261278912149],["Web",-11.423334782500524],["Ken",-11.423353706885798],["cía",-11.423618767809575],["fall",-11.423944962982521],["Artes",-11.423969312064829],["empresaria",-11.424016372551382],["nt",-11.424372656090902],["Dep",-11.424454300362513],["afirman",-11.42447466983631],["metas",-11.42542559106149],["vacante",-11.425693391697877],["concluido",-11.425837820393253],["aplicará",-11.42621974925946],["Luz",-11.426443496981852],["boda",-11.426472722737238],["manifiesta",-11.426534172514724],["sorprendente",-11.426572594725702],["mostraba",-11.426942595780115],["coinciden",-11.427131477971416],["trofeo",-11.427253204080099],["barril",-11.428488895335656],["inmobiliario",-11.428775910222818],["Dice",-11.428794495708063],["extenderá",-11.428805372808611],["alumna",-11.428964813465535],["07",-11.429516729020488],["rechazado",-11.429689882829418],["añ",-11.429827867946821],["obligada",-11.429867089320087],["anim",-11.4300777997752],["Agente",-11.430347008381208],["acelerar",-11.430502423658517],["centenario",-11.430949365830427],["listado",-11.431218698796322],["ambi",-11.431229333291782],["Sara",-11.431253366238169],["promete",-11.431450847359413],["contest",-11.4315256143413],["rendir",-11.43163217270075],["latinoamericano",-11.431698795102047],["precipita",-11.432032845765491],["Serie",-11.432113175207167],["tiros",-11.432266929427051],["arroz",-11.432359311660894],["relacion",-11.432422628961612],["180",-11.432505528882128],["ines",-11.432518232318893],["rompi",-11.432722831709597],["hito",-11.43283280229933],["consolidar",-11.432868221969349],["ocupada",-11.43297430527014],["habitacion",-11.43298718611051],["describi",-11.433489727203295],["lí",-11.43354496231862],["progresiva",-11.433981924138335],["Cá",-11.434987327292259],["ham",-11.435560066502049],["Mexicano",-11.435645716473088],["natal",-11.435675505315253],["caín",-11.435794199268418],["carril",-11.43591298624507],["comedia",-11.43594878137019],["masacre",-11.4360045960531],["producci",-11.436061524597692],["apostar",-11.436364500143238],["fama",-11.43638743088824],["califica",-11.436413600269502],["ubicar",-11.436930705838332],["compensa",-11.43750172000298],["Morel",-11.437847727280616],["perdier",-11.438125845206105],["Dicha",-11.439051044822815],["Rodol",-11.439137493510614],["Robles",-11.439450122330431],["corona",-11.439584786833613],["oza",-11.440009177075606],["percibe",-11.440417341160984],["Conven",-11.441067310205845],["Mac",-11.441256515234489],["azúcar",-11.441742355842845],["vinculada",-11.442062652897336],["revertir",-11.442063809754924],["elaborar",-11.442120457585323],["field",-11.44235485403765],["camas",-11.442707892164714],["elevar",-11.443119446098539],["pecho",-11.44331513682296],["importe",-11.443509611233436],["consigna",-11.444176673206707],["Valor",-11.444325727305692],["accionista",-11.444550543048722],["externa",-11.445083563664658],["tumor",-11.445382797490385],["cortar",-11.445660614878312],["apoyado",-11.446084208175925],["quedad",-11.446605733249692],["filtro",-11.446643311847636],["orient",-11.446901704516003],["itas",-11.447017837649586],["stos",-11.44724095091823],["beneficia",-11.44742307824081],["mueble",-11.447517419906198],["Neymar",-11.44783592601728],["centímetro",-11.447877579582858],["fertilizante",-11.447941510591296],["inminente",-11.44795426928251],["Cuerpo",-11.44822648060514],["coloc",-11.448986029183619],["contribu",-11.449251696677553],["NBA",-11.449619687343283],["extin",-11.449664109264823],["ranking",-11.44973852997457],["ocurrier",-11.449739099462606],["Inform",-11.450074903289753],["representado",-11.45018852955344],["derrot",-11.450311746587088],["id",-11.450316758670432],["Atlántic",-11.450616682156564],["mantenía",-11.450617635306342],["conozca",-11.450618204966226],["Pues",-11.45066738993067],["Tom",-11.45092156464367],["contribuyente",-11.45107834004668],["Contra",-11.451213681255771],["advertid",-11.451475178935418],["Reforma",-11.451518072619567],["Mora",-11.451835399116977],["Hous",-11.451884572584417],["quez",-11.451970557923172],["túnel",-11.45202591392356],["Navarr",-11.452099878771017],["solitario",-11.452691309134467],["alimento",-11.452788879791955],["marcada",-11.453016770585583],["resolvi",-11.453140450337482],["lavado",-11.453162732759662],["ázar",-11.453402293676373],["inscribir",-11.453664715375977],["ganadora",-11.454089404996507],["gica",-11.454625573502257],["madrileño",-11.45472929514919],["premisa",-11.45524776131826],["cometi",-11.455693900518028],["competitivo",-11.456155106917889],["comprometi",-11.456187499278794],["IVA",-11.456231563993974],["instalada",-11.45632601497821],["tenis",-11.457377184879629],["04",-11.4574981265989],["ware",-11.457719412113773],["participad",-11.457727073692453],["pienso",-11.457728169847492],["padece",-11.457813954276386],["ollywood",-11.457984849766131],["cautelar",-11.45810716494622],["privaci",-11.458159666003997],["Encuentro",-11.458711606606188],["fractura",-11.458760295353258],["Músic",-11.459521077426686],["Sports",-11.45959897121196],["psicológico",-11.459719653968243],["barata",-11.459777407061758],["logística",-11.460152071337886],["matemática",-11.460323908882335],["contratar",-11.46035072201897],["unanimi",-11.46069576942525],["precau",-11.460891439960749],["autonómico",-11.461095770936375],["Villarr",-11.461592957574291],["tranquili",-11.46161161790278],["Fuego",-11.462075296648447],["aparatos",-11.462179514292671],["respectiv",-11.462485724737077],["hueco",-11.462743491658117],["abandonado",-11.463004095327735],["aro",-11.463134066137355],["resume",-11.463150600812915],["conectado",-11.463359305507554],["Arce",-11.463818134467472],["humanitario",-11.464018654091907],["situada",-11.464063406101957],["intermedio",-11.464304141678435],["top",-11.46453947876336],["ue",-11.464993236262371],["cer",-11.46502218626772],["Habr",-11.465047866693881],["Asegur",-11.465321309405573],["financi",-11.465469410510579],["pertura",-11.465836319704538],["Zapat",-11.466229784466483],["Van",-11.466635059063695],["ími",-11.466829021097482],["muchísima",-11.467291708661289],["impulsado",-11.46729830492787],["ricos",-11.467709098064958],["extiende",-11.467745256665944],["orienta",-11.467941826847255],["desplazar",-11.468732965257464],["Salón",-11.469211721313991],["residencial",-11.469232226500296],["capacit",-11.46947809786149],["armados",-11.469701623613894],["ésped",-11.469784493095402],["Tener",-11.46991412207533],["ofrec",-11.469972948591126],["rapid",-11.469978435695898],["funcionan",-11.470140562485124],["ML",-11.470361894677335],["contagio",-11.470696367710328],["Molina",-11.470799392803649],["diera",-11.471840686741906],["definido",-11.471989380810825],["Innova",-11.472342060229089],["finca",-11.472422149214449],["clasificar",-11.472457435361086],["malas",-11.4726133746422],["Produc",-11.472780499835297],["chez",-11.47284677187431],["anticipa",-11.472906473470694],["licita",-11.473166490737292],["fallecida",-11.47355652037051],["cua",-11.473749100149272],["ini",-11.473924362516497],["rato",-11.474006487111916],["gato",-11.474437462514118],["Comunita",-11.474747166147857],["banquillo",-11.474852623723795],["garantice",-11.474882810842399],["monarca",-11.474923306314196],["compatriota",-11.47496310315224],["corpora",-11.47506365532061],["universidade",-11.475136052003785],["Scalon",-11.475140912072579],["forense",-11.475185312011234],["chofer",-11.47519206484726],["asiático",-11.475451626963071],["crema",-11.475984161449615],["abuela",-11.476381398900614],["circulaba",-11.476456921864775],["inversionista",-11.476491785865411],["August",-11.476552236097637],["Esperam",-11.476593209246671],["finanza",-11.476705916944919],["construyendo",-11.477155786190613],["dispuesta",-11.477252476284459],["CR",-11.477601337859356],["poste",-11.477786997903987],["recorte",-11.477921017660186],["Brown",-11.478088370781947],["pud",-11.478419982030712],["bloquear",-11.478609870494715],["seguim",-11.478722982227755],["coordin",-11.478780753234012],["exponer",-11.479538160687145],["dign",-11.479548535609863],["humeda",-11.479922850910292],["Andrea",-11.479939180084918],["accesorio",-11.480392978552251],["proceder",-11.480564897235723],["Colonia",-11.481024652745093],["Telegra",-11.481540158856626],["relata",-11.48175057745565],["desempeña",-11.482155382991369],["Mont",-11.482211229519745],["generacion",-11.482942018923472],["gallego",-11.483845904442312],["generalizada",-11.483910637586053],["entendimiento",-11.484579053601637],["conform",-11.484691360749107],["Fre",-11.48499252738139],["especula",-11.485233505574579],["despedida",-11.48602227464731],["Registro",-11.486709510971128],["denomina",-11.486788360038407],["Gaz",-11.48720004872684],["banca",-11.487322069645836],["cuestionado",-11.487482551138614],["claras",-11.488231376223213],["gráfico",-11.488281557852144],["Laguna",-11.489143248320797],["hospitalaria",-11.489197267832159],["cancela",-11.489241249533462],["comprado",-11.489507351472701],["arena",-11.489534818662092],["pesado",-11.489706209827483],["accedi",-11.490149021035824],["lleguen",-11.490208429516546],["aña",-11.490795889160655],["Salto",-11.491236743112042],["transportistas",-11.49175744034649],["comarca",-11.491993174939083],["orígen",-11.492121480638312],["Emple",-11.49255452840238],["ofensivo",-11.492660793194966],["duría",-11.492863726373322],["Donets",-11.493408483499081],["clasificado",-11.493653392510748],["reseña",-11.493913687497486],["encabezada",-11.493946007278852],["Emilia",-11.494103386524827],["identific",-11.49433890874708],["ilícita",-11.494482912123539],["So",-11.494685767590573],["frontal",-11.494802813071225],["procede",-11.495203367184109],["costumbre",-11.496198594072743],["despido",-11.496231561655197],["integran",-11.496274485068373],["Art",-11.496444273748208],["preciso",-11.496828617077107],["consumir",-11.496899770577555],["tremenda",-11.49696791441417],["look",-11.497240274967059],["busque",-11.497623122689692],["ester",-11.497908373216546],["acumul",-11.497972698125674],["ring",-11.498049148805745],["Malv",-11.498051552826684],["dimension",-11.49810711841327],["Amba",-11.498182616495066],["vocal",-11.498206203379755],["comi",-11.4982407805348],["Rom",-11.49845278956764],["aparecer",-11.498491160795242],["exitoso",-11.498784177133073],["expresa",-11.498875163879234],["nteligencia",-11.498877014135294],["consta",-11.49900466358248],["poblado",-11.49900814968837],["conquistar",-11.499207828649048],["profesora",-11.50002257771469],["exam",-11.500354486663886],["cena",-11.500977011987958],["atólica",-11.501102296695324],["marino",-11.501696214605381],["permanencia",-11.502629106880915],["consum",-11.502755541639688],["Género",-11.502785974312303],["Adrian",-11.503077507171469],["Gimnasi",-11.503167512315416],["moderada",-11.503279906699046],["penalti",-11.503395456964983],["mega",-11.503425412961994],["cupo",-11.503472779241378],["Premier",-11.503530267082432],["reemplazar",-11.503728562151217],["vist",-11.50374731583923],["Sierra",-11.503778663008283],["capa",-11.503870820950393],["enterar",-11.503892656020726],["nación",-11.504465992768834],["malestar",-11.504516023687913],["debilidad",-11.50472060332506],["tanta",-11.504850793141397],["metal",-11.504985831960015],["atmósfera",-11.50510559008381],["cancel",-11.50513037836453],["allanamiento",-11.505342176349922],["ka",-11.505409212729155],["ioja",-11.5054166838578],["produzca",-11.506044825277682],["Coahu",-11.506189842540833],["emitir",-11.506405235321758],["coincidi",-11.506417596614611],["amb",-11.506445733129445],["uro",-11.506463625759071],["lausura",-11.506861220243907],["configura",-11.50686335433531],["desaparecida",-11.507105225656218],["placer",-11.507108116680037],["ajustar",-11.507254160624614],["fuese",-11.507400338321794],["empatar",-11.507538023033723],["bate",-11.507582397450673],["Tenía",-11.507725450085449],["monumento",-11.507875410190888],["audiovisual",-11.508109847714246],["zco",-11.508213932790444],["desarrollador",-11.508517098662095],["Calle",-11.508981454277812],["sólida",-11.509102443707743],["apellido",-11.509143317621247],["diente",-11.50919997703455],["provisional",-11.50939916813826],["referir",-11.509507033331246],["escritura",-11.509929216710383],["Che",-11.510044004947094],["tratan",-11.510595669364648],["pronunci",-11.5108453445871],["diése",-11.510955615790568],["alcaldes",-11.510977163130086],["parroquia",-11.51109733194447],["Juventu",-11.51145517765848],["Industrial",-11.511781473785797],["um",-11.51205269140144],["grit",-11.51216708416183],["News",-11.512797760296086],["inas",-11.512832443404594],["habilitado",-11.512842658066859],["predic",-11.51296511028613],["uniformado",-11.513781007007916],["Goberna",-11.514485922769223],["verlo",-11.514698187589811],["Taller",-11.514860161354317],["reun",-11.51486356613546],["legisla",-11.514932325506587],["Roc",-11.515476497258682],["sinti",-11.515680904152566],["Estadística",-11.516060360073272],["impuesta",-11.51639006122312],["maravillosa",-11.516567541539294],["conex",-11.516582320047707],["azo",-11.516624505225185],["gráfica",-11.51702249516708],["eta",-11.517554281383944],["atrapado",-11.51767243172012],["auténtica",-11.517689903773206],["hacerle",-11.517749848573814],["lector",-11.517766751069175],["basta",-11.517942176863905],["permaneci",-11.518065047771117],["uña",-11.518119085752174],["Comunica",-11.518785230269964],["Green",-11.51904113919858],["doctora",-11.519656825643178],["bajado",-11.51970795983606],["ndows",-11.519750530528624],["140",-11.521033763423775],["zapato",-11.521125365312312],["kirchneris",-11.52175988971717],["Campe",-11.522394115365344],["rich",-11.522564722765363],["ce",-11.522747070241609],["Patrimoni",-11.523158806760193],["aprecia",-11.52317644904204],["Luca",-11.52335838383934],["sabiend",-11.523562721270963],["tanque",-11.523622367183968],["Expres",-11.523717501850395],["eliminado",-11.523734044599529],["aprehen",-11.523913150688609],["Gali",-11.523937394534627],["andar",-11.523980378475231],["extremad",-11.524093577524237],["manda",-11.524331375288135],["CG",-11.524408209343042],["viaja",-11.524565111189965],["amenaz",-11.525010842279071],["Du",-11.525148598183684],["conforman",-11.525313848110283],["Cua",-11.52559165231569],["eligió",-11.526002743305293],["Mej",-11.527064313903725],["neutral",-11.527742664225624],["mediano",-11.527850602318829],["Están",-11.52955600199585],["roto",-11.529759325729787],["profundizar",-11.530374470127454],["condici",-11.530799565272073],["secuestrado",-11.530984521420935],["oficio",-11.531045397706219],["baloncest",-11.53124879265717],["matrícula",-11.531324591557333],["canale",-11.531379547547886],["ONG",-11.531433266171025],["confinamiento",-11.531591835595743],["tripulante",-11.532104280940786],["fganis",-11.53228192291552],["optimista",-11.532439091941116],["march",-11.532593521243678],["Tra",-11.532633971506227],["sucursal",-11.532657801415601],["Thomas",-11.532710139474558],["controlada",-11.532807932909197],["bus",-11.533074055978682],["Zulia",-11.533177636981096],["portería",-11.533505886521963],["golpear",-11.533741114240524],["Cabo",-11.53381365330899],["crim",-11.533819499397026],["190",-11.534276840221436],["lágrima",-11.535205511655365],["juga",-11.5352379465695],["corregir",-11.535418292566264],["insuficiente",-11.535474088887533],["masa",-11.535479028614311],["conocía",-11.535673872821276],["sumará",-11.535763367077369],["cubierto",-11.535785887482554],["voc",-11.535831638644549],["smartphone",-11.535862220237428],["pronunciado",-11.536238868132763],["mandar",-11.537352324516526],["nombr",-11.537436270888058],["Toro",-11.537447606196764],["ag",-11.537707286000252],["Marte",-11.537780251997997],["revelado",-11.537884997708378],["fortaleza",-11.53809477891097],["Arroyo",-11.538100560529331],["hipoteca",-11.538128589026655],["illones",-11.53869675518619],["Pleno",-11.538799272908413],["traj",-11.539548310760795],["conden",-11.53973214194056],["respira",-11.540056925217193],["vincula",-11.540154424862752],["perdón",-11.540495984962398],["expuls",-11.541196169473217],["cancelar",-11.541380650159969],["Estrella",-11.541848183439567],["trig",-11.542246805105552],["agravado",-11.542791571935915],["ario",-11.54285431134683],["diseñador",-11.543645409400249],["típica",-11.543727886516962],["abr",-11.544204174284951],["explora",-11.544470717838978],["arnos",-11.54458628840422],["Elon",-11.544673499835355],["Colim",-11.544923617997547],["02",-11.54494115613283],["hermoso",-11.545249469175968],["ebió",-11.545788630460232],["Ser",-11.546307577301565],["consultada",-11.546565039633807],["adquirido",-11.546733735727006],["notar",-11.546769501504176],["recogida",-11.546938444798556],["Investig",-11.547116084968598],["afectará",-11.547120546120128],["lament",-11.547133122309642],["comprende",-11.547145284575368],["ejecutado",-11.547280195750046],["ésto",-11.547685084895736],["aplique",-11.54777961257336],["ris",-11.547851469282458],["establecida",-11.548114284464315],["sociació",-11.548434432937105],["fina",-11.548497050527388],["mand",-11.548568132986414],["adapt",-11.54925455544776],["llave",-11.549284120060577],["conduce",-11.549740914743328],["aprovecha",-11.549830258206114],["echa",-11.549946922335778],["defensiva",-11.550150522024612],["azar",-11.55039797412301],["recorri",-11.550960877908263],["hij",-11.551068917212495],["preparan",-11.551453051036482],["manuel",-11.55167219487004],["consola",-11.552408966226654],["estrecho",-11.552455796008804],["eza",-11.55271193569931],["embajada",-11.553043953962792],["religioso",-11.553350905679062],["orige",-11.553376981522337],["décima",-11.553447710604612],["ego",-11.553448391723407],["convocada",-11.553559460182333],["pagado",-11.553575662299988],["dict",-11.554352182103026],["gustos",-11.554930619591559],["Cha",-11.555014488335326],["séptim",-11.555137532175497],["War",-11.555240924387935],["gripe",-11.55534458355022],["potenciar",-11.555411765271622],["urnas",-11.555545945126424],["danza",-11.555820405075497],["Fr",-11.555902153870491],["flota",-11.55592440604778],["competitiva",-11.556215164721669],["autorizado",-11.557265074312982],["stado",-11.557406193505301],["parado",-11.557780345032054],["pauta",-11.558338730653116],["Precis",-11.558409522986036],["quince",-11.558657315970551],["vegetal",-11.558670186054192],["Andre",-11.559051611366598],["marina",-11.559514198305958],["pesada",-11.559994922423222],["flexible",-11.560550503126194],["protagonismo",-11.560613230864355],["multitud",-11.560633230176862],["príncipe",-11.56065597371163],["bilateral",-11.560752121559315],["Comisaría",-11.560825854416239],["alejado",-11.560834388066791],["terraza",-11.560906602341587],["grabar",-11.561160073087752],["relevamiento",-11.561362849761114],["frent",-11.561869269448598],["confi",-11.562238137118513],["Marí",-11.562582878810002],["Jair",-11.562608041500873],["ayudan",-11.562635336555214],["diabet",-11.562852430978156],["Rubi",-11.562892303417245],["valorado",-11.562932169467825],["curva",-11.562952271212243],["procesado",-11.562968649508859],["abarca",-11.563113467320424],["Cartag",-11.563161139931307],["derrumbe",-11.563453065983628],["Zelensky",-11.563557550747216],["Diario",-11.563562638424647],["severa",-11.564113589270931],["perjuicio",-11.564122634530133],["parlamentaria",-11.564171494298979],["limit",-11.564218952403909],["apuntar",-11.564432999021392],["Ernest",-11.564533798925643],["peticion",-11.56478915021718],["Sindicato",-11.564792263154338],["oficialista",-11.564853352989703],["bélico",-11.56491285349441],["tividad",-11.56524257335862],["palo",-11.565410706587926],["intentaba",-11.565412391111664],["reclamar",-11.566195509439314],["recicla",-11.566348342334692],["pronunciar",-11.566650687257692],["tacó",-11.567020148084602],["Conferencia",-11.567034738784782],["nervios",-11.567144946645163],["ejecut",-11.567173312272836],["reivindica",-11.567522987268791],["AF",-11.568017239231333],["ografía",-11.56821825012939],["suel",-11.5684209701944],["trágico",-11.568460086595167],["actualiz",-11.568637329775349],["filtr",-11.568719832862426],["adversario",-11.568747499272384],["Jon",-11.568902777090353],["Mañana",-11.569485815527372],["utilidad",-11.569494114256745],["act",-11.569791189647804],["catán",-11.569827390500173],["sobr",-11.56990911018266],["cualidad",-11.569917568200086],["portó",-11.570155216017096],["constitu",-11.570362984622983],["diría",-11.57069777574365],["toño",-11.570754503223196],["detect",-11.570800975988348],["eliminatoria",-11.57103546545746],["ofrecido",-11.571382627979839],["disput",-11.57146270989096],["bonita",-11.571575376343766],["atendida",-11.572276330011404],["audita",-11.573461405977532],["envía",-11.573806291885365],["traspas",-11.57386096008272],["fijado",-11.57417554933784],["hielo",-11.574962814037809],["inesperado",-11.575151053413569],["congreso",-11.575218007134803],["frances",-11.57522855705006],["angustia",-11.575399310056396],["Ronaldo",-11.575508103883223],["cruzado",-11.575521202013729],["exigen",-11.57580050881861],["sosteni",-11.575919946176066],["feriado",-11.575979455411156],["surge",-11.576008794661355],["uperó",-11.576060497332485],["sancionado",-11.576076544449286],["abrazo",-11.576768522102494],["tocado",-11.577232298652733],["practicar",-11.577341204470299],["Chel",-11.577416759232154],["Necesita",-11.577554373504423],["Metro",-11.5788367888962],["últim",-11.578861267529822],["escoger",-11.579072539643725],["intervin",-11.579286672521576],["visitado",-11.579454715683962],["iente",-11.579574816117908],["tope",-11.579940111597042],["Correa",-11.58048963062311],["Ger",-11.580788948141393],["SG",-11.581472494346944],["Euro",-11.581960028183627],["digna",-11.582195457943147],["encabezado",-11.582351864422815],["Mé",-11.58255981130471],["acusada",-11.582614683245332],["Cabr",-11.583806559174553],["semi",-11.583870534172188],["Luc",-11.584061971274],["reclaman",-11.584265793807006],["docena",-11.58437931851279],["conviene",-11.58470614622241],["rea",-11.584924240873658],["renunciar",-11.585382001310062],["entusiasm",-11.58571055041744],["Joan",-11.585807890189585],["tuviera",-11.586159263050408],["voca",-11.586264292382078],["afi",-11.586356088906905],["Facu",-11.58639860140779],["lización",-11.587768847756674],["solidar",-11.587784450357868],["confiar",-11.587982351006165],["UCR",-11.588112939126464],["extensa",-11.58814446245113],["pausa",-11.588673186874203],["onomía",-11.589321508099115],["Fed",-11.589512572893826],["revé",-11.589692105813295],["poblador",-11.589704555513133],["consolid",-11.589998833762744],["Gold",-11.590035799368106],["juguete",-11.59007444085067],["favorece",-11.590213754751028],["sepa",-11.590501823350337],["productora",-11.590537908928992],["incrementad",-11.590694868856062],["gasoducto",-11.590920268708572],["farmacia",-11.590922861775514],["porcentual",-11.5910889018087],["progresista",-11.591321034735682],["Bolsa",-11.591503342195372],["complejidad",-11.591535131855967],["televisor",-11.591543972155993],["inevitable",-11.591624595139564],["pretendía",-11.591668936471155],["valiente",-11.591825773534953],["seña",-11.592169767961202],["sexenio",-11.592224773813708],["cayer",-11.592230346978841],["limitar",-11.592344735091064],["típico",-11.592402970792161],["semejante",-11.592436242565892],["elev",-11.59293757615674],["crucial",-11.593424167772008],["vendrá",-11.593527016459982],["algun",-11.593841944311475],["recibida",-11.59426123136314],["Tar",-11.594764994239727],["ordenador",-11.594972429010369],["Justo",-11.595371076435626],["Jean",-11.595425142234566],["aplauso",-11.595613649378702],["existía",-11.595680970630145],["hipó",-11.595712965330772],["Caballero",-11.596121383491287],["lín",-11.596331210786747],["convocar",-11.59692400518673],["Vidal",-11.597246984057287],["Minuto",-11.59732871784579],["donado",-11.597709954843195],["Tuv",-11.598151546611566],["Puig",-11.598207716665144],["hospitaliza",-11.598258968502599],["Josep",-11.598474832957148],["chance",-11.598590207440528],["exposici",-11.598651230771711],["parezca",-11.598842151847897],["guion",-11.59884638599378],["acompañante",-11.599515218912227],["elegante",-11.599652544960094],["híbrido",-11.599762067383606],["IP",-11.600185764314435],["Noticia",-11.60030958581336],["informático",-11.600533888910753],["Vlad",-11.600821867932785],["egislatura",-11.600972032939687],["Chiapa",-11.601036933914795],["conveniente",-11.601092460149495],["éndose",-11.601280209653037],["intervenir",-11.601502873551853],["desemple",-11.601699437617611],["mediana",-11.602217659779058],["CN",-11.602387287609508],["controlado",-11.602396450970764],["resaltar",-11.602579715335764],["desd",-11.602867927104455],["Libre",-11.603049398321295],["inspira",-11.603259311979947],["lamenta",-11.603592183226969],["sustancial",-11.604278354205533],["Henr",-11.604303077823129],["ocupante",-11.604439677452298],["alejar",-11.604521137395237],["ectividad",-11.604691975497337],["Reina",-11.604772155083605],["az",-11.60489018140414],["limitada",-11.604935396247653],["asesora",-11.605917294291636],["delicado",-11.605994525726874],["motore",-11.60637957497847],["respiratoria",-11.606500831756819],["apartamento",-11.606622583542666],["rodado",-11.606661480949926],["nocturno",-11.606938534275667],["derrotar",-11.60705178482365],["muerta",-11.607336846015055],["usan",-11.607477428510816],["off",-11.607727269189041],["Cerro",-11.608594499521743],["deriv",-11.608641595071582],["Papa",-11.608736611211732],["Calv",-11.608926300186727],["Eva",-11.609237782954917],["flor",-11.60942422841663],["360",-11.609601655141956],["sext",-11.60964261525444],["iles",-11.60969985200487],["repite",-11.610162034946185],["Cuánto",-11.61042553894299],["unido",-11.610486085796975],["peligros",-11.610723496281455],["continuo",-11.61107436131229],["justifica",-11.611124391248675],["sobrevivir",-11.611189482344107],["Integral",-11.611284363833699],["llorar",-11.611421117806],["fresco",-11.611617309463641],["tributo",-11.612099575796714],["Forma",-11.612599809942235],["consolida",-11.612859799901408],["volvier",-11.61321077756041],["orilla",-11.613291559442967],["escaso",-11.613417765631883],["Chris",-11.613440080397918],["aislada",-11.613577119429083],["peruana",-11.613800329146185],["ERC",-11.613963418529476],["suspendida",-11.6142081361144],["punta",-11.614761830657633],["percep",-11.614767590999888],["detec",-11.614878890141846],["tion",-11.615142789068369],["buscado",-11.615211797064388],["pedía",-11.615330005903967],["desean",-11.615586464489146],["ford",-11.615807372348215],["ilusi",-11.615944919847959],["Defensor",-11.616089232651847],["William",-11.616523024782582],["convencer",-11.61652849886533],["Eric",-11.616943137746082],["Metropolitan",-11.61698189580934],["opini",-11.617205681396037],["umbre",-11.617400353026964],["onde",-11.617403545532852],["beneficiado",-11.618085694447629],["ictamen",-11.618687535114718],["vice",-11.618987964007342],["analizado",-11.619050804917169],["fichaje",-11.619444655884632],["gestor",-11.619783440756484],["oja",-11.62025351007963],["quirúrgica",-11.620310627302922],["intervencion",-11.620315928931229],["minera",-11.620519105416935],["experta",-11.620838545776206],["decret",-11.621394175742402],["Iber",-11.621413185614053],["lapso",-11.621899828461736],["gustar",-11.62198757433752],["*",-11.622133965293674],["mochila",-11.622175372180136],["tráiler",-11.622191457605185],["Frank",-11.622226640233073],["Galax",-11.622272445018584],["ocurr",-11.622293923359909],["comience",-11.622318483385776],["inquietud",-11.622404166114807],["Corriente",-11.622415564000114],["cohete",-11.62243598577863],["movi",-11.622615229058471],["Bienes",-11.622636496105939],["contribuyen",-11.622735120043753],["reportaje",-11.622779345082],["supervis",-11.622852345655518],["sancion",-11.622941995123046],["AM",-11.622955892500825],["otr",-11.622986848594735],["rest",-11.623100850387075],["intervenci",-11.62312076948873],["arroj",
[...]
