{"version":"1.0","truncation":null,"padding":null,"added_tokens":[{"id":0,"special":true,"content":"<UNK>","single_word":false,"lstrip":false,"rstrip":false,"normalized":false},{"id":1,"special":true,"content":"<SEP>","single_word":false,"lstrip":false,"rstrip":false,"normalized":false},{"id":2,"special":true,"content":"<MASK>","single_word":false,"lstrip":false,"rstrip":false,"normalized":false},{"id":3,"special":true,"content":"<CLS>","single_word":false,"lstrip":false,"rstrip":false,"normalized":false}],"normalizer":null,"pre_tokenizer":{"type":"Whitespace"},"post_processor":null,"decoder":null,"model":{"type":"Unigram","unk_id":0,"vocab":[["<UNK>",0.0],["<SEP>",0.0],["<MASK>",0.0],["<CLS>",0.0],["s",-2.5011132777757794],["de",-3.2745855087100946],[",",-3.4159087000697763],[".",-3.5777361154065463],["e",-3.584275272499955],["’",-3.7209561092487764],["la",-4.023228462397917],["l",-4.028840080531699],["a",-4.051342532362208],["d",-4.180000298810848],["le",-4.189270509367621],["à",-4.338209100547431],["et",-4.472822595355634],["en",-4.564091243998272],["t",-4.571274657594234],["'",-4.603601919828858],["n",-4.678938839257217],["les",-4.69738039206255],["un",-4.84401572599972],["-",-4.878544011411799],["est",-4.9176223824759955],["du",-4.93112032096124],["r",-5.027667504619716],["des",-5.035306641246111],["une",-5.097794652734825],["pour",-5.108217916856971],["que",-5.142145959949289],["ont",-5.218339415590533],["au",-5.249312757005518],["dans",-5.3170024136516485],["qui",-5.346811677523325],["ment",-5.361364716299201],["ce",-5.398624282284409],["i",-5.4208236374440215],["sur",-5.484950470204131],["par",-5.516822168874226],["il",-5.5359183989536636],["c",-5.578187931855428],["«",-5.621731665426255],["pas",-5.661500977704071],["é",-5.6732258523132355],["u",-5.696691478084633],["Le",-5.769255979296588],["on",-5.800475058990813],["plus",-5.849922898275734],["nt",-5.901948487227555],["C",-5.908337285633724],["qu",-5.940774368146915],["son",-5.97888628259666],["aux",-5.991377967659377],["\"",-6.000617294954024],["avec",-6.002065518608054],["o",-6.026661335953699],["y",-6.039372680450807],["été",-6.080512436330643],["L",-6.0908098845696195],["La",-6.107664330408854],["ent",-6.159624395095873],["(",-6.169900684920634],["A",-6.1701525418862815],["x",-6.248132001294412],["ou",-6.2758982395921326],["Il",-6.419686806884227],["leur",-6.43059012626791],["mais",-6.51318859174561],[":",-6.513616097113726],["Les",-6.5178840961924465],["cette",-6.551167192593269],["fait",-6.55344721757878],["20",-6.580153662834103],["étai",-6.586352160262727],["elle",-6.59230063327044],["»,",-6.61909731048619],["ant",-6.622363017399806],["tout",-6.639529593140942],["in",-6.670199470243631],["M",-6.703609177972988],["»",-6.708170911225084],["puis",-6.723740901529004],["être",-6.730043725720671],["nous",-6.746215377753529],["p",-6.74972880406686],["S",-6.767487807309642],["m",-6.76944457099418],["jour",-6.781655016489214],["En",-6.803039857950724],["deux",-6.806124194839901],["ans",-6.814651963339541],["autre",-6.858528224370781],["même",-6.860454751972071],["vou",-6.866219325943321],["avait",-6.875544008974485],[")",-6.884867136639894],["f",-6.885254104853665],["comme",-6.8861292363393805],["j",-6.8999274544587905],["aussi",-6.923649278478283],["lui",-6.929265744627825],["z",-6.964593979224279],["P",-6.990009534664678],["v",-6.994302049798176],["faire",-7.003685193251632],["ai",-7.020321684749577],["après",-7.024937250325223],["D",-7.0346875794740455],["eux",-7.045133389791113],["tre",-7.048457682422699],["bien",-7.048805548406463],["lors",-7.0496060367440485],["avoir",-7.072296950424445],["année",-7.079403133380028],["Ce",-7.082502114227799],["ait",-7.137886984047067],["fois",-7.140786821879127],["entre",-7.14862070865036],["h",-7.148657438538632],["rès",-7.154186100918621],["je",-7.200315244130118],["mi",-7.202163480423292],["19",-7.229864305692411],["2",-7.237678927375767],["oit",-7.242345286917602],["contre",-7.242417991674339],["me",-7.253814753263235],["On",-7.258151634925942],["pays",-7.25913771727679],["De",-7.264062281824625],["E",-7.270637897371211],["Pour",-7.274371106241712],["peu",-7.281249275576852],["B",-7.28295444374049],["J",-7.284082451467657],["1",-7.284261072366234],["ation",-7.305225792280033],["%",-7.3137751282499694],["coup",-7.324746773322002],["temp",-7.326681478247119],["ux",-7.3267506143930845],["no",-7.327507544664517],["personne",-7.329498849810521],["fin",-7.339397445864793],["près",-7.349238469144066],["Je",-7.349776638761544],["Un",-7.3517421789837165],["avant",-7.3653083438622335],["Mais",-7.3700808962375355],["peut",-7.371871468455129],["tant",-7.386830978630738],["encor",-7.393258069021172],["égale",-7.400116248462546],["dernier",-7.403828391018066],["T",-7.406127414336941],["vie",-7.42188495173141],["».",-7.423936349350646],["va",-7.424589042259831],["toute",-7.429663470903128],["premier",-7.4360928082634],["ù",-7.441746736534378],["Une",-7.461049680695506],["Et",-7.462288222833319],["3",-7.470460288524642],["sera",-7.480314353405399],["b",-7.491173579760197],["O",-7.49795817725896],["5",-7.49978751289939],["monde",-7.508389641681179],["président",-7.519565359061815],["k",-7.524077416927446],["moin",-7.52560611781966],["pri",-7.5321582695913785],[").",-7.538101532856126],["place",-7.541737607859082],["première",-7.556924294814781],["sans",-7.557228207643614],["dit",-7.566987619422364],["F",-7.572027933243446],["tou",-7.573287314731498],["g",-7.574399771937806],["2022",-7.58487570471811],["I",-7.588450560005585],["\",",-7.589373256990239],["ci",-7.60295593207889],["…",-7.609165424301852],["té",-7.611721391822091],["ces",-7.614395286207433],["ez",-7.6146065627906685],["elon",-7.614835304276744],["ette",-7.617850910219299],["4",-7.6238686217666745],["ministre",-7.624537552069947],["mois",-7.626399086123263],["Dans",-7.633310705252999],["ma",-7.634578369525913],["Nous",-7.642257147321715],["tous",-7.648100684871657],["“",-7.657250040548331],["déjà",-7.657891300741063],["nouveau",-7.661850394866393],["rait",-7.67017109869596],["G",-7.677796891758173],["nouvelle",-7.680592509018736],["ré",-7.685214205388488],["quelque",-7.685429522917448],["trois",-7.6945591196364305],["N",-7.7018116075597485],["point",-7.705941000997433],["Elle",-7.708619022380294],["donc",-7.713647244708731],["ur",-7.720292554408935],["France",-7.721528995280925],["?",-7.727782433065937],["sous",-7.733670555638857],["ir",-7.73492748371437],["plusieur",-7.736627657943173],["ville",-7.738730732847797],["Au",-7.743071107973436],["Si",-7.748351106547431],["vo",-7.748966871643399],["grand",-7.752239060703293],["semaine",-7.754611338790109],["cas",-7.755762488422714],["ça",-7.756666520806571],["dernière",-7.7588163055003445],["ainsi",-7.763094584233992],["heure",-7.773029178548523],["),",-7.775207092610523],["À",-7.78173118125755],["projet",-7.789770206304609],["homme",-7.7985329339337826],["beau",-7.801125546271811],["suite",-7.805206243597277],["nombre",-7.806172854899272],["10",-7.830333722889259],["équipe",-7.8344063230661005],["000",-7.845152373219408],["6",-7.851145895735522],["politique",-7.856930927955984],["gouvernement",-7.878074084391358],["partie",-7.882122761332494],["jusqu",-7.894775925662842],["Ukraine",-7.895943989758287],["car",-7.90187172947974],["début",-7.905735602322105],["voir",-7.9117952317226905],["V",-7.916011220266791],["ils",-7.917826863540534],["”",-7.921340659066596],["lieu",-7.922945274087483],["H",-7.9229851372676094],["R",-7.924893889137812],["embre",-7.934255407888223],["part",-7.934311374955779],["ch",-7.934535532473992],["femme",-7.941697157026645],["ser",-7.942782173154537],["État",-7.943335122816358],["million",-7.945039490073318],["vers",-7.963619723920789],["groupe",-7.963795081388271],["non",-7.972359945946495],["7",-7.975202026691801],["faut",-7.976441943893788],["or",-7.9808041421497],["pendant",-7.991264927308687],["service",-7.992963096261216],["entreprise",-8.004023881800093],["notamment",-8.005037979197116],["hui",-8.010131310978704],["venir",-8.013192781709009],["ter",-8.019352154603862],["avai",-8.020181292998],["it",-8.025184138753097],["grande",-8.027962610602206],["match",-8.028620507716305],["face",-8.028718301704519],["Des",-8.03434169089034],["2021",-8.036605615527161],["moment",-8.040098389521663],["mal",-8.055554353543496],["co",-8.072119841584556],["mon",-8.07283486395249],["question",-8.076720286955497],["avon",-8.077757274291507],["jeu",-8.078068794998408],["K",-8.081644468466148],["travail",-8.083300052267823],["droit",-8.09935251819999],["ôt",-8.10068830362874],["certain",-8.100907896307277],["déclaré",-8.104815314634493],["saison",-8.107924749101997],["bon",-8.109081417561173],["compte",-8.109766475567122],["ès",-8.111275683970655],["côté",-8.111718539008995],["8",-8.112711670492374],["18",-8.112889692858527],["cours",-8.114460530762571],["vent",-8.119015139535229],["effet",-8.119147448638621],["Par",-8.124449049090204],["ons",-8.125467987320032],["ici",-8.139486684469741],["age",-8.14905499068195],["ité",-8.151017657597713],["ailleur",-8.152756950806836],["ve",-8.154478398241167],["seule",-8.156671919682626],["nos",-8.163993317724803],["aient",-8.165510032365725],["famille",-8.17299994577904],["reste",-8.176014439090702],["région",-8.183608176728493],["porte",-8.184820823098615],["euros",-8.19574710347933],["film",-8.199071749198044],["pouvoir",-8.201300592120699],["jeudi",-8.20131581811054],["veu",-8.211234620506918],["pu",-8.211265833178887],["sept",-8.211331103979564],["long",-8.211646236415445],["situation",-8.212319314911568],["mercredi",-8.219094563116556],["joueur",-8.22038530252968],["annoncé",-8.223523664650422],["dimanche",-8.224313683218119],["mesure",-8.225883874660251],["rapport",-8.227591015680835],["mardi",-8.229203467198236],["30",-8.230182342134093],["lundi",-8.230342886404085],["niveau",-8.23119294990855],["9",-8.23267834320642],["Sa",-8.233566289952236],["chose",-8.23516460924072],["produit",-8.237138892638232],["vendredi",-8.237145491916635],["U",-8.237272525121657],["vrai",-8.238287774889606],["russe",-8.24099847134379],["alor",-8.24401619243628],["celle",-8.247595862041539],["ri",-8.25186855351918],["quan",-8.25590783692741],["public",-8.258222991202867],["chef",-8.262984938760846],["15",-8.263677131334319],["Saint",-8.264974011364409],["raison",-8.265651549275832],["Russi",-8.267290279018141],["série",-8.269949895791255],["–",-8.270821974769884],["im",-8.271569479437396],["17",-8.277003334128153],["Uni",-8.279769910113398],["dire",-8.284517435825716],["14",-8.286081900587916],["/",-8.292315336922364],["quatre",-8.29610260369891],["centre",-8.296689493524813],["suis",-8.300136931470973],["samedi",-8.300924377265098],["mort",-8.306331692168477],["but",-8.309232640170832],["tour",-8.315783045816886],["guerre",-8.316752163687788],["mettre",-8.322464347051461],["devant",-8.322622848688642],["force",-8.325660437871427],["16",-8.327007544314107],["mise",-8.329016332973136],["finale",-8.32903434044474],["jeune",-8.333085921520524],["histoire",-8.336739678809327],["ing",-8.339714383676684],["rien",-8.351534878668287],["membre",-8.356718559529718],["prendre",-8.35919486783902],["bonne",-8.362182023564653],["12",-8.363389915986971],["Québec",-8.363595498884099],["devrai",-8.366402567070132],["deuxième",-8.371587164568526],["bre",-8.372678067903621],["police",-8.378347395933842],["ro",-8.378784013568598],["W",-8.379439947353488],["24",-8.381953098038586],["enfants",-8.383273641024681],["ront",-8.384824098849595],["ancien",-8.391095618819634],["site",-8.398727735846265],["afin",-8.39987776341267],["somme",-8.403721542936196],["soir",-8.404691045677403],["Selo",-8.404921500007122],["main",-8.408138405096809],["mis",-8.409560608907135],["demande",-8.416054219567446],["cela",-8.419853285097162],["13",-8.426371317865534],["petit",-8.42775225159543],["ba",-8.431554592864746],["aujourd",-8.432331111415023],["plan",-8.439171202516889],["hez",-8.441484762418952],["sécurité",-8.441928307163248],["réseau",-8.44222827837319],["cet",-8.449326740611099],["jama",-8.465722949264292],["Ave",-8.466117027075187],["Etat",-8.476469064354113],["man",-8.476538294334492],["nom",-8.477696923025782],["con",-8.482929834493653],["able",-8.486424467287616],["possible",-8.487375172624795],["0",-8.496032048527852],["ner",-8.50001750235424],["risque",-8.50186575844754],["25",-8.508122423651546],["nationale",-8.50998850245954],["janvier",-8.512897265317275],["affaire",-8.513015767609538],["quoi",-8.51363439847058],["anté",-8.515940423302192],["trop",-8.520100071360563],["pris",-8.52144365153654],["cadre",-8.52726361896826],["Ma",-8.527678287176194],["marché",-8.529662611789611],["retour",-8.53104412360546],["décision",-8.531121047755363],["titre",-8.53286103326127],["semble",-8.532997395106664],["appel",-8.533696180447812],["Jean",-8.53370278731212],["français",-8.534103684644503],["agit",-8.53514010420215],["occasion",-8.53524842280684],["victime",-8.535729342277353],["11",-8.536293876586047],["nov",-8.537441687128098],["tte",-8.53956554601746],["rue",-8.546174539699015],["parti",-8.550843537147173],["activité",-8.552785941230777],["cinq",-8.552799614854356],["tête",-8.553633234967712],["besoin",-8.554384514509575],["mai",-8.555934673479932],["gens",-8.556096233881899],["aura",-8.557279779332298],["jui",-8.56496703558081],["ligne",-8.568860920747966],["information",-8.571125486777337],["pa",-8.573453301225781],[".»",-8.574536482623445],["Z",-8.575179636986842],["per",-8.581232651628351],["explique",-8.58187987573856],["bi",-8.582738868318474],["jeunes",-8.586349234781903],["crise",-8.58695867751658],["société",-8.589618582613054],["ga",-8.590242619788082],["important",-8.59073038641053],["eur",-8.590739811171323],["décembre",-8.597799139030947],["général",-8.598174166617486],["Sur",-8.601646649690977],["fil",-8.602217003596802],["annonce",-8.61117083855521],["permet",-8.61541684989666],["matin",-8.615750355882337],["offre",-8.616782944946188],["milliard",-8.62239428821584],["indiqué",-8.622789595617125],["ine",-8.625130985836552],["responsable",-8.625894902177048],["ensemble",-8.627522045182559],["secteur",-8.627581472090117],["autorité",-8.627585744697736],["che",-8.628600316027764],["mars",-8.630540103040243],["passé",-8.630767790781192],["chaqu",-8.631583873501409],["journée",-8.633036015877842],["système",-8.636009419062212],["pré",-8.637949105826248],["cause",-8.63829938194959],["militaire",-8.641175385679364],["période",-8.644623275963507],["rencontre",-8.646324518425548],["\".",-8.648053338320334],["certaine",-8.656403407848684],["simple",-8.65894865821539],["maison",-8.65979577150108],["enquête",-8.663743426302853],["moi",-8.664330244268633],["population",-8.66893080088671],["!",-8.669464348167448],["loi",-8.671978478358188],["isme",-8.67238450605669],["problème",-8.672485106051788],["image",-8.67289948505065],["prochain",-8.676603973990044],["accord",-8.67665311313267],["uillet",-8.67783372011661],["50",-8.678965438913785],["ion",-8.679081640272607],["élection",-8.680979729293568],["désor",-8.68124818680575],["tard",-8.681873513804462],["presse",-8.682818114656378],["ées",-8.683436209398025],["actuelle",-8.686341858299734],["octo",-8.687126928487558],["école",-8.696371607698264],["évrier",-8.697479306267583],["w",-8.701948671431868],["minute",-8.702923770727326],["No",-8.70500266616034],["national",-8.705654747345363],["Europe",-8.70840334825511],["publique",-8.711766270796002],["seul",-8.712692335237165],["ard",-8.716585587530286],["zone",-8.717945812014399],["aurai",-8.719668462660628],["Re",-8.72044870427808],["mment",-8.722187823971614],["Du",-8.72348949982274],["font",-8.72352337476864],["passer",-8.725091611086128],["directeur",-8.725346747028855],["souven",-8.728517436250032],["objectif",-8.728731199397895],["exemple",-8.734349552768425],["200",-8.737148998285912],["état",-8.743679227954939],["€",-8.743930942743066],["Son",-8.744731579421936],["soutien",-8.745733242731756],["armée",-8.748234933564559],["passe",-8.748578870182463],["ier",-8.750588866278791],["club",-8.757142995252027],["hausse",-8.761124894900775],["événement",-8.762922553850451],["Car",-8.76688978241316],["mer",-8.767238829099757],["rapide",-8.76756380717675],["vril",-8.770889147670662],["présent",-8.77099103576216],["action",-8.773449271703198],["organisation",-8.774618794555376],["communiqué",-8.776541460352192],["environ",-8.776684361926193],["économique",-8.778502231366886],["rôle",-8.778520475157048],["terme",-8.778757048596464],["prochaine",-8.77978789861437],["meilleur",-8.780262747892921],["programme",-8.780481837279929],["partir",-8.781153060437783],["quelle",-8.78818669337985],["com",-8.789648494781911],["Paris",-8.793262915342751],["conseil",-8.794263767615703],["Cela",-8.796168654571328],["difficile",-8.797179175476154],["rend",-8.79813469480695],["américain",-8.798598339163615],["fort",-8.799570776650596],["pourrai",-8.799786103075505],["Covid",-8.80033033628381],["fond",-8.801394156188989],["commune",-8.803931152637261],["attaque",-8.80587302108474],[".\"",-8.806079670567371],["aller",-8.808405157590471],["nuit",-8.808662491738962],["Ils",-8.810116441466768],["prise",-8.812106802905806],["troisième",-8.81458420035068],["parole",-8.820195016609565],["feu",-8.821494715780833],["Tout",-8.823230412493398],["donner",-8.825798614337153],["mo",-8.826220263619676],["route",-8.827090453682963],["bo",-8.82966911812504],["charge",-8.831115776875034],["scène",-8.83112819372354],["condition",-8.834508117533446],["go",-8.834667571732826],["production",-8.835033659542058],["vi",-8.835128423485143],["développement",-8.837561166135444],["victoire",-8.841275913711655],["œuvre",-8.841994146097495],["St",-8.84310342967272],["jouer",-8.84581837172761],["candidat",-8.846967556929872],["énergie",-8.849670603110786],["avantage",-8.850966051847017],["jeux",-8.853040896417156],["vol",-8.854596495537251],["vue",-8.855511028208557],["grâ",-8.85603905952959],["ajouté",-8.857374152353575],["ministère",-8.85813611551778],["aucun",-8.85912173011345],["40",-8.860962592297913],["forme",-8.8615426821497],["Comme",-8.861807399405821],["soci",-8.861862025607735],["Or",-8.86221562416891],["pro",-8.862743666907217],["août",-8.863681943630638],["opération",-8.86391000198318],["député",-8.86663991243806],["voi",-8.867263060851494],["sujet",-8.868894046637324],["X",-8.870636400913233],["22",-8.870974309600651],["recherche",-8.871309100270006],["abord",-8.872090353994302],["forte",-8.87368885956744],["ka",-8.874888473970236],["voiture",-8.875387982828471],["fi",-8.87623317638904],["autour",-8.876363768555105],["petite",-8.877623002086255],["manière",-8.877634720077499],["gaz",-8.879923071806232],["Di",-8.883035994710653],["vez",-8.883498981774672],["art",-8.885731693732343],["campagne",-8.886156715067665],["aide",-8.88898341385152],["donné",-8.889437475471098],["haut",-8.892603602368691],["formation",-8.893726369451313],["gré",-8.893806347062775],["É",-8.893911519385124],["elles",-8.894335361019039],["choi",-8.894959501971591],["attend",-8.896467704468606],["po",-8.896743976614754],["base",-8.897083329514205],["Conseil",-8.897157410981531],["résultat",-8.899356657270136],["2023",-8.9006124739182],["idée",-8.901558157822702],["$",-8.901573952138023],["loin",-8.902576137716324],["serai",-8.90258335904851],["trouver",-8.903187159603313],["gne",-8.903337215439084],["reçu",-8.906023538224407],["urant",-8.907386836385799],["ère",-8.907924149694715],["Afrique",-8.912738312935168],["source",-8.915145379573467],["Macron",-8.917237972525296],["six",-8.91860208124377],["Vou",-8.921216063567442],["terrain",-8.923864649976343],["pandémie",-8.924021583507093],["ver",-8.92508684970512],["départ",-8.926288708695804],["total",-8.92732467539005],["indique",-8.92736720931076],["pense",-8.927380481724834],["arrivée",-8.927551425405031],["rie",-8.929009386518791],["juste",-8.931639013323053],["ayant",-8.933277198539177],["père",-8.933994346689184],["sein",-8.935853280035804],["permis",-8.935870974609507],["aire",-8.936645482700712],["fer",-8.939181318215873],["connu",-8.940797726370763],["mé",-8.940949320921936],["dollars",-8.944410174895808],["Ces",-8.945763972606706],["édition",-8.95164960388157],["anti",-8.952596700967906],["ha",-8.95403511085644],["parce",-8.956010175404714],["sortie",-8.957481544841782],["21",-8.958038822987959],["moyen",-8.958438551332613],["100",-8.95862048674863],["territoire",-8.958667056849578],["média",-8.959710158984613],["direction",-8.960364734020844],["plut",-8.96212412859526],["décidé",-8.963567121856588],["succès",-8.970487529015237],["soi",-8.972265384771646],["vidéo",-8.973684413403369],["proche",-8.97448541300075],["façon",-8.97525546867141],["client",-8.975273927573388],["iste",-8.97602207870908],["trouve",-8.979916443069968],["corp",-8.98171392574113],["travers",-8.982274578759244],["Canada",-8.984860138015264],["Na",-8.986990369794444],["th",-8.987596847935784],["dû",-8.993774210357383],["Cha",-8.995528244203122],["intérêt",-8.9969950827347],["donnée",-8.997634425216344],["marque",-9.002367921809336],["acteur",-9.002763340496605],["23",-9.004399885605233],["ig",-9.004408948482212],["lutte",-9.004538150158172],["donne",-9.007254071595131],["ukrainien",-9.009022148842691],["Suisse",-9.01672494047887],["gue",-9.021144922925938],["maire",-9.02268864111787],["27",-9.023228395741913],["midi",-9.026967368065876],["doive",-9.029424789215602],["milieu",-9.031586283054281],["habitant",-9.031953304171232],["fille",-9.034125444146431],["qualité",-9.035942904576737],["ique",-9.037986447495346],["hôpita",-9.039395430511918],["étude",-9.039464364001098],["26",-9.039964506397045],["date",-9.043004534935594],["européenne",-9.044719723197584],["chance",-9.04481541153287],["coût",-9.046083328158183],["port",-9.046972308114736],["ois",-9.047180958406505],["è",-9.047184501184567],["livre",-9.049403844871726],["association",-9.04963995116838],["60",-9.050106377728376],["cœur",-9.05265971479555],["générale",-9.054729845247184],["contrôle",-9.055216496165134],["Co",-9.056373019073478],["justice",-9.057390918465808],["lancé",-9.058014227127407],["train",-9.060401737346861],["maintenan",-9.060690829865703],["Ni",-9.060736444316248],["aine",-9.060756283517481],["peine",-9.06527795457626],["Nord",-9.065779152631514],["mot",-9.065942531988085],["argent",-9.067386316926955],["dossier",-9.07045737026156],["valeur",-9.071499678562045],["Q",-9.07240590331201],["inter",-9.072852071500058],["hi",-9.073852786606793],["Bo",-9.074527294661296],["nombreuse",-9.075743338075567],["dés",-9.077631821194585],["espace",-9.081039927294642],["propre",-9.081140371211816],["aucune",-9.082255970812518],["rendre",-9.082583172718012],["juge",-9.083714471324143],["28",-9.085080152387821],["belle",-9.08616401664931],["Mo",-9.087012530106566],["manque",-9.089832415286462],["combat",-9.090303311726727],["course",-9.091116725415917],["telle",-9.09118554152016],["pied",-9.091802016127971],["nord",-9.092736076225968],["Belgi",-9.093847170795259],["propos",-9.09398365077764],["nécessaire",-9.094383071213247],["carte",-9.10098027477304],["mère",-9.103829768309872],["cher",-9.104285842655312],["ck",-9.104366405634455],["eurs",-9.104851547683275],["asse",-9.105498066984492],["estime",-9.107290789926235],["gauche",-9.10798546487288],["permettr",-9.108345269255512],["sol",-9.112443577825669],["solution",-9.112514954390495],["précisé",-9.112627548118553],["mission",-9.113767345074947],["poste",-9.114646063472078],["Emmanuel",-9.11615268606202],["matière",-9.116157450949492],["op",-9.117837623951928],["Ro",-9.118325286971135],["ordre",-9.12016307178948],["ge",-9.121344278738022],["violence",-9.121705792663922],["appelé",-9.122731607756497],["prend",-9.123716752422844],["changement",-9.123729566439327],["ouvert",-9.125539258443537],["Ri",-9.127589144871314],["écrit",-9.131502866145413],["internationale",-9.132531559413312],["perdu",-9.132626953735421],["sanitaire",-9.132797722516445],["communauté",-9.13279847357202],["doute",-9.133024246975252],["vente",-9.133172021387178],["80",-9.13366623891472],["Ba",-9.136230975514215],["élu",-9.137845652418937],["réussi",-9.137938214190847],["expérience",-9.138406656566932],["plein",-9.138990899128672],["Plus",-9.13938318653933],["Y",-9.140605894454602],["économie",-9.141223574440577],["voie",-9.14123476423083],["quartier",-9.14147096239373],["bas",-9.142842815085409],["trav",-9.142915056338175],["pratique",-9.144049219775157],["particulière",-9.144076700957772],["modèle",-9.146881734270774],["prévu",-9.147490470949755],["impact",-9.149765115346899],["entrée",-9.15086723527487],["position",-9.15118443968155],[";",-9.15257118885059],["terre",-9.152580837190404],["tir",-9.153216059957284],["propose",-9.154769373104102],["auteur",-9.15785647496168],["parler",-9.161004212943446],["liste",-9.161482453780831],["Mon",-9.163117584537],["ateur",-9.164433048552217],["mar",-9.16569024312591],["savoir",-9.16753179179521],["avion",-9.168395707812161],["accè",-9.169852123702446],["relation",-9.169861554258986],["journaliste",-9.170073660345977],["salle",-9.171133153182016],["Ha",-9.17162000596186],["bout",-9.173654355216724],["disponible",-9.17566022159594],["objet",-9.175674448028984],["République",-9.175760114894253],["insi",-9.177281240742904],["cha",-9.177730688854815],["Al",-9.179672383511495],["importante",-9.181854441769062],["montre",-9.184284237487255],["présence",-9.187415015793999],["Est",-9.188062533166983],["Quan",-9.188364689617574],["tra",-9.190071282536657],["Premier",-9.190366531664687],["gros",-9.191236113563495],["table",-9.191783039729895],["500",-9.193621338389061],["revenu",-9.193691488787902],["élève",-9.195660398344524],["Pas",-9.195774569124742],["technique",-9.198157255278872],["met",-9.198168892344409],["Coupe",-9.198478386096763],["défense",-9.19858880292611],["citoyen",-9.198812738031386],["retrouve",-9.200919765068303],["comment",-9.201233309981113],["plu",-9.201701236652305],["Union",-9.202141040003205],["Pro",-9.20226280016703],["message",-9.20232646868008],["artiste",-9.202946331675584],["ière",-9.204176984694326],["différente",-9.204476714162324],["air",-9.20449128507222],["seconde",-9.20591653795346],["Ga",-9.208466651401181],["Mi",-9.209116251299719],["ël",-9.209169900388218],["ho",-9.210389971850926],["époque",-9.211353581213228],["errière",-9.211550249377833],["dix",-9.214260637999555],["Vi",-9.215692780605782],["70",-9.215746871101224],["arrêté",-9.216047087966324],["fonction",-9.216163070826717],["enfant",-9.217135176681001],["mouvement",-9.217395979390453],["précise",-9.21885381446943],["transport",-9.218916868611558],["prêt",-9.219077390631998],["capacité",-9.22044463887017],["emploi",-9.220587277576822],["visite",-9.221107921215792],["européen",-9.223243960034505],["lorsqu",-9.22325286603064],["russes",-9.223556877272308],["vivre",-9.223667425243896],["droite",-9.226234908005734],["tique",-9.22628834808424],["rendu",-9.227114743250208],["demandé",-9.227116832426944],["carrière",-9.22870384985374],["parent",-9.229375272977308],["affirme",-9.229774718250308],["arrive",-9.230882695253534],["accident",-9.232732773192605],["différents",-9.232941641403741],["ki",-9.234110774869926],["reprise",-9.234555019388399],["aider",-9.237197741490208],["ab",-9.237778018172786],["Maroc",-9.238678378750532],["garde",-9.239628857100557],["française",-9.24205568518449],["accusé",-9.242991548755867],["principale",-9.243426394757158],["armes",-9.244490029743915],["lin",-9.244579399206742],["Pierre",-9.24521089120202],["meilleure",-9.245549938353603],["longue",-9.248126168269808],["Poutin",-9.248326371355517],["rez",-9.250085329437425],["bureau",-9.250412478503417],["extrême",-9.251454002825714],["écran",-9.251773475379192],["mondiale",-9.253197434216439],["personnel",-9.253263105511817],["sociale",-9.253862645428562],["capitale",-9.255451616732792],["Ville",-9.2568173013223],["américaine",-9.257339696618054],["Grand",-9.260378071714532],["Français",-9.260947737430262],["atteint",-9.261685381788286],["Ça",-9.261770059404231],["mes",-9.262724246111542],["PS",-9.2630452935986],["établissement",-9.264132867897533],["policier",-9.264133059808064],["majorité",-9.264188033937337],["voit",-9.264672367926106],["quant",-9.264804043464679],["plateforme",-9.267329223420678],["étant",-9.27300967436042],["origine",-9.273748222613932],["gé",-9.27400811031811],["réalité",-9.27412818805563],["retrouver",-9.275732494269215],["unique",-9.275869915613391],["peuple",-9.277301573166124],["créer",-9.277854273560962],["arrêt",-9.278378546694686],["mètre",-9.278976524521777],["Mosco",-9.279792254191769],["Ar",-9.281674382259844],["présente",-9.286357726162912],["locale",-9.286968304719363],["affirmé",-9.292090053398528],["sûr",-9.292943898906971],["répond",-9.293507051269678],["dirigeant",-9.293573444104885],["Même",-9.296550434943967],["genre",-9.296629412923089],["véhicule",-9.296779910820614],["souhaite",-9.298042572544142],["ajoute",-9.299698055521777],["compagnie",-9.299850503725054],["expliqué",-9.300221879369026],["venu",-9.300316868872944],["âge",-9.303276535866715],["sanction",-9.30587393475544],["rester",-9.306488021227906],["camp",-9.308967933960172],["29",-9.309914174941651],["PC",-9.31042666326903],["urgence",-9.313165335682553],["profit",-9.313544005830055],["version",-9.31560256788443],["tor",-9.317738631059973],["cité",-9.319979189007867],["continuer",-9.321802495676874],["Ben",-9.32215987023632],["pouv",-9.323120639467106],["AFP",-9.32327561916402],["officielle",-9.32453082247412],["Lors",-9.325916602506679],["Montréal",-9.326571043079179],["prison",-9.327040994043212],["construction",-9.327487378064223],["réponse",-9.330054224125613],["gestion",-9.330165583040086],["dizaine",-9.333467168325823],["employé",-9.336891738638043],["grave",-9.337002454596554],["continue",-9.337318120481719],["assure",-9.337781334196102],["signé",-9.338047220052303],["km",-9.338474668660366],["ib",-9.33936122374984],["étape",-9.340634620968538],["roi",-9.34081102523585],["Man",-9.342476754685425],["facile",-9.343791861916346],["Ta",-9.34385446008444],["travailler",-9.346069385378621],["So",-9.346728957895646],["court",-9.346817935512316],["bar",-9.346964904376167],["baisse",-9.347167102257693],["presqu",-9.347233069454948],["allait",-9.34741534846329],["soirée",-9.34812171519115],["souligne",-9.350206766954283],["professionnel",-9.350366306099886],["hors",-9.350815667267588],["acte",-9.353738888854686],["conflit",-9.354193356377554],["Isra",-9.354246003268905],["ang",-9.355743249748077],["augmentation",-9.357747312615986],["New",-9.358316116880296],["Go",-9.358729665452108],["â",-9.359359854171956],["rare",-9.359740651711384],["gi",-9.359938734435785],["Twit",-9.360839093443067],["ber",-9.36112079131361],["hiver",-9.361532335027576],["voyage",-9.362712848088636],["rang",-9.363737500827925],["conférence",-9.364719592025484],["ry",-9.365917744796235],["cou",-9.36599739027575],["fa",-9.366211880729988],["agent",-9.367255869662461],["Chine",-9.36847968613003],["représente",-9.368615927245017],["assuré",-9.368634541844916],["avance",-9.369942595061083],["bord",-9.37001303260773],["Bou",-9.371289142137286],["ive",-9.371313986974386],["achat",-9.372361056867089],["large",-9.372646995905502],["publié",-9.37266893200085],["commencé",-9.375359548935212],["village",-9.375442250511046],["vite",-9.37626025836078],["international",-9.377470474651712],["and",-9.378708661904717],["véritable",-9.378929409667778],["critique",-9.378997991562091],["viru",-9.380299862682406],["ouverture",-9.382323016197507],["type",-9.382523200566416],["devenu",-9.384495027934985],["incendie",-9.386110765990313],["Bruxelles",-9.38611088925085],["rouge",-9.386387250397366],["Ra",-9.386409982630521],["vin",-9.386688085943637],["Centre",-9.386814003754974],["Sud",-9.388668786355261],["cour",-9.38883210252617],["historique",-9.389720870406826],["avocat",-9.38972094272695],["90",-9.390301360959445],["domaine",-9.391132301241765],["vote",-9.391180771142107],["chi",-9.392096186695873],["inscrit",-9.393345218231655],["ukrainienne",-9.393723122005785],["tenu",-9.395156004086063],["Ka",-9.396599715045507],["administration",-9.396980420570102],["création",-9.397261306901958],["centrale",-9.398494095923578],["éviter",-9.40069481733298],["étudiant",-9.40203800359011],["réunion",-9.402200824932525],["contrat",-9.404312227561093],["moyenne",-9.404734803405763],["tribuna",-9.404852666922888],["lien",-9.405372604832355],["mandat",-9.407475182593515],["réalisé",-9.410438870779068],["tion",-9.412243097235699],["mode",-9.414960468993101],["possibilité",-9.415363271908266],["note",-9.418498609639915],["liberté",-9.419080911238208],["cinéma",-9.41913936917317],["province",-9.419140127173362],["conséquence",-9.419168847821112],["via",-9.422422913688944],["inflation",-9.422809910159552],["supplémentaire",-9.422812087022447],["frontière",-9.422866637103738],["danger",-9.422885487962642],["Van",-9.424174724268024],["décè",-9.42619785604078],["représentant",-9.426590104650167],["présenté",-9.427579109495236],["compris",-9.428006242841748],["of",-9.42810620204733],["andis",-9.428901815963776],["social",-9.430730279168962],["chemin",-9.430917452346609],["ienne",-9.431409067238793],["hier",-9.432938657071308],["chaîne",-9.433440437561034],["particulier",-9.434090390191296],["arme",-9.435094113169896],["The",-9.437124897577313],["35",-9.438226805730046],["sait",-9.438351532600887],["Cour",-9.43953513280031],["Ou",-9.441474329894547],["record",-9.441682826997415],["partenaire",-9.441692013044054],["huit",-9.443505340272726],["aï",-9.445353211969671],["1er",-9.447083360047502],["engagement",-9.447111667099112],["trouvé",-9.449148694375374],["François",-9.449328759305232],["totale",-9.45009454676846],["loc",-9.45121830564996],["week",-9.453180659745172],["élément",-9.454360271519025],["31",-9.456634050435452],["—",-9.457035916999416],["Deux",-9.457543527231213],["souligné",-9.457854503486615],["texte",-9.459069050580778],["respect",-9.45956805088209],["assurer",-9.459654043432963],["sortir",-9.460861918644056],["maladie",-9.460912240763689],["investissement",-9.460912321710149],["populaire",-9.46091641511951],["bou",-9.461214849202635],["obteni",-9.463326264891359],["millier",-9.46482083260062],["chacun",-9.465105407373233],["Bien",-9.465390076695204],["soin",-9.467746732350957],["ance",-9.46795853697676],["privé",-9.468297804691225],["application",-9.468712162784161],["banque",-9.469224207694152],["isation",-9.471580017097843],["gra",-9.473596203255644],["centaine",-9.474437794853005],["bel",-9.47512437461751],["propriétaire",-9.47656776343683],["scolaire",-9.476575819885968],["climatique",-9.476660618318228],["pourra",-9.477371745687865],["ger",-9.478810447563891],["ko",-9.47959271875626],["directe",-9.479694992953696],["Malgr",-9.480837267180483],["existe",-9.483577406081345],["confirmé",-9.484488793978166],["amp",-9.484941916744162],["ouverte",-9.484961732327925],["étranger",-9.485769825109262],["passage",-9.487246756836253],["second",-9.48808334275254],["physique",-9.48847268589132],["champion",-9.488493127792696],["pression",-9.488611789544848],["suivr",-9.489981178161756],["om",-9.495211274110211],["joue",-9.495801744088707],["Paul",-9.495866752866675],["voulai",-9.496404652407591],["musique",-9.496489323497471],["initiative",-9.496495482797291],["compétition",-9.496504445641442],["tier",-9.496531188412922],["opposition",-9.496651478670735],["rappel",-9.496755109882923],["gagner",-9.49686144297737],["ché",-9.498023030753512],["effort",-9.500580166488165],["expert",-9.500634594955827],["humain",-9.501374715454386],["Bar",-9.503216769080513],["déc",-9.50328250465314],["joué",-9.504618804659813],["fédéral",-9.50549263971337],["+",-9.506528479165251],["ph",-9.506727020578158],["épisode",-9.508640767471434],["John",-9.508641738555507],["protection",-9.508741604615814],["faudra",-9.50906637294553],["bâtiment",-9.510204944215833],["auto",-9.510411913827554],["ak",-9.510756025916182],["commun",-9.512273642826461],["difficulté",-9.512716228580988],["émission",-9.513282600878206],["alité",-9.516282224521282],["double",-9.516658250398223],["Allema",-9.517782535381093],["45",-9.51802626554868],["Dr",-9.51957812792865],["numérique",-9.520929815716242],["élevé",-9.521076125819782],["montant",-9.52246622710056],["sort",-9.523366366949233],["choisi",-9.52360967723619],["culture",-9.523690802341862],["ob",-9.524782232257598],["quotidien",-9.524808703154687],["concerne",-9.525062279757462],["belge",-9.525190345356716],["vos",-9.525685279630066],["présidentielle",-9.525948379204953],["figure",-9.526569458897594],["Toute",-9.527460870442031],["pleine",-9.528721207518723],["can",-9.528794535062453],["véhicules",-9.528921580172225],["agence",-9.529481918991983],["pompiers",-9.530079822314782],["sport",-9.530361720508647],["bra",-9.531889799686407],["électrique",-9.533378092313049],["rac",-9.53498752292576],["échange",-9.535646607807372],["rappelle",-9.535777749342039],["Mar",-9.537070640062495],["Fa",-9.537277004445704],["procè",-9.537622421481256],["Côte",-9.539058367128955],["confian",-9.540772750104313],["fut",-9.541250849452886],["électrici",-9.54176390245111],["atteindr",-9.541764050651125],["estimé",-9.541930970708421],["Ya",-9.54196748599189],["attendr",-9.542752015528698],["marqué",-9.543263122573796],["vert",-9.544132945456525],["sorte",-9.544631370936784],["Gu",-9.545051983280196],["laisse",-9.545325246395326],["technologie",-9.545983358910544],["article",-9.545987569992501],["Louis",-9.546138688278727],["faisant",-9.547006975186072],["vise",-9.54730814909262],["arrivé",-9.547878826568539],["Pi",-9.54844933520129],["Com",-9.549127608710508],["document",-9.550084757004115],["concerna",-9.550221670117043],["mondial",-9.550935186141356],["iers",-9.551384812143064],["conclu",-9.551436183179845],["sommet",-9.553212641878538],["éro",-9.553269256787473],["football",-9.553897059995098],["Jo",-9.554427483446872],["intérieur",-9.55447589653221],["ancienne",-9.555349994174518],["changer",-9.556512075752597],["porter",-9.557288909752234],["claire",-9.558094860884228],["régime",-9.55889536980604],["quart",-9.559365091348118],["preuve",-9.559658154106558],["aix",-9.560152956533425],["Beau",-9.560315247338643],["Tour",-9.560524894636554],["tif",-9.560701212587736],["porté",-9.561138053245497],["station",-9.561975497677604],["permett",-9.56399482929002],["noir",-9.565132080732461],["Ho",-9.56638820708105],["Ligue",-9.567369232283713],["vingt",-9.56739070631488],["suivi",-9.567621208886937],["page",-9.567842215562342],["invité",-9.568209861621119],["lié",-9.568322815539267],["Bi",-9.57085037296444],["tué",-9.571259148607353],["judiciaire",-9.571680587850242],["spectacle",-9.57168058897326],["intervention",-9.571680799806222],["logement",-9.572337647487702],["probable",-9.575763339569276],["fête",-9.576242266367338],["endroit",-9.579333618485027],["Su",-9.57951688689602],["manifestation",-9.58039522934402],["nucléaire",-9.580395231041692],["Bre",-9.581262845998975],["plainte",-9.58480962623369],["ami",-9.587575553928136],["ujourd",-9.58905864002626],["condamné",-9.58973781279312],["commence",-9.58992097754673],["regard",-9.590235134563656],["franc",-9.590821507290084],["remporté",-9.59158132179845],["vis",-9.592313542736942],["%)",-9.594891086855613],["invasion",-9.598055880311286],["communication",-9.598846760418004],["UE",-9.598939287565539],["interne",-9.599003917131139],["transition",-9.599798053835066],["faisai",-9.600869456001904],["affiche",-9.601134463800882],["vision",-9.601218183011364],["Michel",-9.604533675522408],["photo",-9.605452912905399],["pouvai",-9.606026438591794],["balle",-9.606835271695005],["aventure",-9.60702899709572],["min",-9.611071947884009],["découvrir",-9.611619303847288],["département",-9.611639966589891],["stade",-9.612256677819747],["anim",-9.614319544997372],["piste",-9.614354271870102],["libre",-9.61459875771084],["retrouvé",-9.615443457944682],["Santé",-9.61553540959073],["lancer",-9.615710763836042],["endant",-9.616176171464947],["lance",-9.616834009088304],["approche",-9.619487880583435],["financière",-9.620579949417726],["puissance",-9.620695546211682],["déclaration",-9.621219651533792],["marche",-9.622120837016965],["von",-9.623231812118362],["99",-9.623885241418044],["Hu",-9.624096952787326],["règle",-9.624995669233652],["°",-9.625145347216623],["budget",-9.625145428142122],["salaire",-9.625219851607294],["avis",-9.625689771646833],["nation",-9.626728847444893],["courant",-9.6283781178733],["lot",-9.629714984739437],["poi",-9.629874009172706],["contact",-9.630874460162133],["réforme",-9.632612805704941],["veille",-9.632947983655754],["”.",-9.633726385525227],["médecin",-9.634063689183897],["Kie",-9.6341341751978],["espère",-9.634319396704697],["britannique",-9.634340798111566],["régulière",-9.634340798163278],["neuf",-9.634364634816805],["personnage",-9.635253122952012],["prévue",-9.63837613093124],["civil",-9.63900477118013],["commerce",-9.639620823181108],["perte",-9.639672041119756],["entretien",-9.639689474660457],["environnement",-9.639725073775107],["utiliser",-9.63975553963064],["nature",-9.63994100118341],["vague",-9.640770451153031],["%.",-9.641263316248372],["process",-9.642256335002992],["augmenter",-9.642276403575583],["espoir",-9.643641384061315],["patron",-9.643679815866852],["langue",-9.643945625131886],["génération",-9.643952378408457],["Marc",-9.64488634317652],["répondr",-9.646005898401318],["demi",-9.64677549597419],["é",-9.648230958581163],["Po",-9.648265822464673],["offrir",-9.648303316620948],["réce",-9.649063983801277],["clair",-9.651120387421965],["unité",-9.651529168912962],["négociation",-9.652989323457438],["contexte",-9.653259080181709],["touché",-9.653950973310108],["vit",-9.655858965876611],["Cor",-9.656595227852147],["urs",-9.6569944189248],["responsabilité",-9.657706304550958],["kilomètre",-9.657739653563837],["alimentaire",-9.657805405340035],["Martin",-9.658204144926195],["âgé",-9.658398440759882],["discour",-9.658831534456809],["défi",-9.659555481964006],["raconte",-9.660373675677189],["débat",-9.663266236482947],["reconnu",-9.663367627807249],["enir",-9.664239967259004],["ions",-9.664262823675713],["aime",-9.665050776869162],["Ko",-9.667080686204013],["phase",-9.668172259957899],["compter",-9.670795314429196],["menace",-9.671071175488073],["chiffres",-9.671873917995034],["frappe",-9.671928137799416],["tournoi",-9.672012184370171],["attente",-9.672141490716541],["participer",-9.672429715598513],["mou",-9.672433956914993],["vait",-9.674721525167895],["secrétaire",-9.67679996743758],["outre",-9.677156708929719],["Con",-9.678125799628583],["situé",-9.67832742868412],["lusieur",-9.678850010781485],["bois",-9.68047251407873],["Ti",-9.682075236437537],["obtenu",-9.682919025697334],["vaccin",-9.68326848741484],["utilisé",-9.683599222082439],["199",-9.683900958633515],["sorti",-9.683980324771653],["profiter",-9.6846337174403],["cor",-9.686181207473625],["étrangère",-9.686485222236065],["Mont",-9.688610862225133],["géant",-9.688614913528543],["vienne",-9.689014584348023],["laisser",-9.689114394246321],["Pen",-9.689211686778947],["souten",-9.68942793216994],["appareil",-9.690493541193916],["extérieur",-9.691363263019099],["cérémonie",-9.691363277830892],["intention",-9.691364012889636],["volonté",-9.69141263341233],["soldat",-9.69152064389177],["rêve",-9.692454417373519],["crime",-9.692739220617447],["vais",-9.692976207425527],["Certain",-9.693036050975092],["Ré",-9.694730716394192],["Luc",-9.695083227795877],["cru",-9.69509421756383],["bus",-9.695233543400583],["numéro",-9.69626528191804],["siècle",-9.696265307185133],["entendu",-9.69645687259109],["Dé",-9.69732484466885],["appelle",-9.69837700374162],["bé",-9.70013451880856],["festival",-9.700353368446315],["Do",-9.700743179442805],["ête",-9.702366164279374],["Avant",-9.702742539497407],["venue",-9.70291596134049],["forcé",-9.706099761941301],["championnat",-9.706143913633916],["entraîneur",-9.706332087831473],["ouvrir",-9.707215464379658],["leader",-9.707267526496931],["actuel",-9.707401039128808],["comprendre",-9.708321686463016],["travaille",-9.708808165409522],["classe",-9.708998096166983],["frère",-9.710908697202182],["remise",-9.711674950742744],["ong",-9.712343453268321],["essus",-9.713164984876524],["tient",-9.715189148306838],["détail",-9.715731222439668],["énergétique",-9.716116951383395],["financier",-9.71611695485458],["contraire",-9.716117326893201],["militant",-9.71611892807369],["particip",-9.717447627274995],["lier",-9.717536768498466],["futur",-9.719123817803869],["capable",-9.720010566865653],["tri",-9.720104430102463],["épreuve",-9.720152398468977],["croissance",-9.721147389122233],["consommation",-9.721188299496294],["super",-9.721403187123904],["couleur",-9.72372687303817],["arriver",-9.724219543430682],["peur",-9.724424281251544],["comprend",-9.724473230563135],["revien",-9.725359391691118],["quatrième",-9.726192585942862],["commission",-9.72649810533494],["proposition",-9.727104864982723],["istes",-9.729070927367527],["actions",-9.729574257147604],["Qu",-9.730742136986859],["institution",-9.731084907993893],["poursuit",-9.731221495401027],["blessure",-9.731281472277555],["off",-9.731452431012483],["vitesse",-9.731541072327886],["Algérie",-9.732050839117957],["quitter",-9.73207183608847],["subi",-9.73267715985568],["instant",-9.733205525396883],["principal",-9.734117685558946],["hu",-9.734437698473918],["puisqu",-9.735834110379976],["surprise",-9.735928572301317],["limite",-9.736896943688329],["Entre",-9.741350304869622],["célèbre",-9.741498970132863],["ï",-9.742349494369659],["FA",-9.742581303259986],["durée",-9.743209897864192],["structure",-9.744165650283215],["fera",-9.744304081014466],["ène",-9.745642984238005],["effectué",-9.74665362287768],["actif",-9.746747951684299],["bilan",-9.747278210462039],["comité",-9.747421356044338],["amour",-9.748583437756478],["gar",-9.74872877067192],["intégr",-9.749182623222627],["David",-9.749843272292807],["analyse",-9.750340046072388],["ferme",-9.750467737230633],["75",-9.751179392856415],["option",-9.751454427049255],["matériel",-9.751834998633454],["tension",-9.751878495334498],["touche",-9.752425122924638],["patient",-9.75254451882903],["Face",-9.753070573856663],["prévoi",-9.75509814791964],["stratégie",-9.75704330575917],["York",-9.757045143388284],["tendance",-9.757061517831872],["Que",-9.758429280127302],["industrie",-9.76013216991327],["fou",-9.760407992131423],["bande",-9.76043820802461],["importe",-9.761469849964591],["moitié",-9.762279597697091],["terroriste",-9.762405290822116],["tenue",-9.762598044389716],["issue",-9.766154152429927],["entend",-9.76661208468123],["parcours",-9.76686179837761],["suisse",-9.766883103863815],["domicile",-9.767544755861332],["absence",-9.767550026757483],["troupe",-9.767655400893757],["Trois",-9.767788507025069],["outil",-9.769425339354424],["star",-9.76967627126419],["présenter",-9.769962450515537],["men",-9.770948373871718],["évolution",-9.771538146003806],["pire",-9.77157151896509],["roman",-9.77218154914113],["ressource",-9.77286837189664],["esprit",-9.77305617295893],["siège",-9.773424383486024],["contenu",-9.774316950589398],["parc",-9.775795825685492],["nouvel",-9.77625410298933],["ica",-9.776481160361504],["commis",-9.776979785865327],["cri",-9.777629073217286],["faible",-9.777969509775561],["Vladimir",-9.778152204156331],["lit",-9.780161478962881],["aff",-9.781047904184003],["blanc",-9.781723513133446],["Lo",-9.782386756556676],["Président",-9.78296216324787],["Sénégal",-9.783419269608189],["suspect",-9.783499798489297],["Assemblée",-9.78350265307819],["Gi",-9.784464145618177],["lie",-9.786163664527916],["haute",-9.786303292587442],["hauteur",-9.786409679555284],["post",-9.786785781732434],["travailleur",-9.786802053595286],["liée",-9.787243746460046],["Mari",-9.78737994624828],["Tous",-9.78738359202002],["née",-9.78795899731858],["rat",-9.789970135625687],["référence",-9.791071000669621],["enregistré",-9.793386538362324],["top",-9.793979788942258],["conseiller",-9.794562779333972],["absolu",-9.795083930994842],["han",-9.798900754819769],["300",-9.799103295717408],["offert",-9.79974331029814],["quasi",-9.800019765162865],["ham",-9.800855221256548],["arrière",-9.801279510137093],["attendu",-9.801403100840659],["hôtel",-9.802052027960997],["devien",-9.802530914592165],["financement",-9.802915116309281],["oir",-9.804315851681142],["placé",-9.804566090356747],["puisse",-9.804972181891852],["catégorie",-9.805180810476394],["scientifique",-9.805180810549928],["classique",-9.805182025393908],["dénonce",-9.805183213217791],["évidem",-9.805362605550535],["participation",-9.805918097821888],["envie",-9.80602843720532],["dose",-9.80614190946401],["2015",-9.806212979902265],["San",-9.806600357156542],["retraite",-9.806829946317018],["cherche",-9.806957258658821],["payer",-9.80800087682649],["dispose",-9.808990640089606],["Per",-9.809010445939435],["chiffre",-9.809462161540901],["Parti",-9.809482339958596],["ix",-9.809970160368822],["wi",-9.810415548973886],["téléphone",-9.810684575539259],["réduir",-9.810810340301543],["Noël",-9.81098017261473],["allon",-9.81221944263931],["engagé",-9.815978611216611],["organisé",-9.816573401375482],["éré",-9.821143754615074],["isé",-9.822573956178857],["prévenu",-9.822578038588299],["univers",-9.8237440595453],["Sans",-9.823871026752919],["ajouter",-9.824041260203769],["réaction",-9.824473033907543],["officiel",-9.82524781862485],["ski",-9.825346393107809],["procédure",-9.82734890410795],["grève",-9.82742551817746],["précédent",-9.828184431136336],["ban",-9.829105039974877],["connaîtr",-9.829114296519409],["mur",-9.829889046224437],["île",-9.831300575573856],["berg",-9.8324682077651],["journal",-9.832607143519231],["rem",-9.832718186610405],["Mali",-9.83275735986254],["visible",-9.83288868242744],["lumière",-9.832960545012497],["Guinée",-9.832982245113394],["poursuivr",-9.833533246614445],["Mor",-9.833657714116729],["importan",-9.833870001664053],["direct",-9.83418994934961],["abilité",-9.834597170682974],["attention",-9.835814452284591],["classement",-9.838334766460836],["discussion",-9.838610020614516],["professeur",-9.838610033905635],["voisin",-9.838987789534524],["commencer",-9.83899276816437],["restaurant",-9.839244295954533],["télé",-9.839991302885878],["Sou",-9.840494859996763],["Marie",-9.840918418882488],["chute",-9.840962356919723],["entier",-9.842583856704987],["enseignant",-9.844297448573396],["civile",-9.844299154921023],["land",-9.844392957113165],["cible",-9.844778165403643],["FC",-9.846633480990157],["bras",-9.847753131452617],["laissé",-9.848315818516364],["Nation",-9.849665943397355],["exercice",-9.850006125088033],["revanch",-9.85000859084281],["Italie",-9.850105015333362],["appui",-9.850152836333685],["Quant",-9.850318198363734],["gardien",-9.850528178462302],["terminé",-9.851922289202294],["devra",-9.85218653816151],["individu",-9.853427401480126],["commande",-9.855613548930855],["agression",-9.855753286761068],["chambre",-9.855754789801734],["bio",-9.856626830587086],["manche",-9.859091517373194],["box",-9.860593465576766],["concert",-9.861357608916082],["principe",-9.861533599404984],["infrastructure",-9.86153367031347],["habitude",-9.861535016522414],["Affaire",-9.86158577486298],["lettre",-9.861855389863543],["wa",-9.865564809621498],["For",-9.865842739316736],["ouest",-9.866530741767207],["adversaire",-9.867347800656283],["plaisir",-9.86736562262214],["iens",-9.867468627803],["pilote",-9.868069466351773],["van",-9.871094064686524],["ov",-9.872818673336145],["positif",-9.873190007300767],["Commission",-9.873368767353933],["interdit",-9.874379706731087],["amis",-9.875473390013465],["complètement",-9.876214155259568],["vive",-9.876601315015673],["accueillir",-9.877272638075347],["entière",-9.877655722491706],["achete",-9.878158442442325],["Ver",-9.878790361822162],["protéger",-9.879077971330503],["circuit",-9.879078575923552],["accusation",-9.879297014940768],["olympique",-9.879307135139019],["Fond",-9.879690154127843],["partage",-9.880112636448484],["créé",-9.883006400803541],["cap",-9.883076080274092],["entendre",-9.883737142836711],["réserve",-9.883903731938329],["400",-9.883981150500892],["00",-9.88427931014849],["installation",-9.884995102096767],["faveur",-9.885005559835028],["tentative",-9.88501122900445],["viol",-9.885892161869561],["Ru",-9.886128316599951],["nier",-9.887471833209933],["oui",-9.88782703423832],["réaliser",-9.888121473096842],["vendu",-9.889764112263052],["reveni",-9.890225424548852],["Val",-9.890430507661346],["température",-9.890947403205663],["ach",-9.891645952643277],["pin",-9.891729927184398],["erreur",-9.892605919817797],["bleu",-9.894371569336386],["Marine",-9.89461390445565],["poursuivi",-9.89501961384435],["the",-9.896400171315841],["clé",-9.896409346199498],["issant",-9.896647456923583],["accueil",-9.896692112664432],["montrer",-9.896865285028962],["réfugié",-9.896935422091946],["magasin",-9.896935671792685],["Tu",-9.897374048478383],["parquet",-9.898251177787511],["chargé",-9.899250091566655],["demander",-9.899575336104766],["content",-9.901348750846175],["32",-9.90263782697215],["vacance",-9.902972635435138],["tente",-9.903285050873972],["har",-9.90441489782923],["Bra",-9.905398186659113],["ker",-9.905630752764548],["TV",-9.907460940555968],["blessé",-9.90827244301735],["Ch",-9.908498490805819],["honneur",-9.90902061252756],["Philippe",-9.90903045989178],["organisme",-9.909205103644869],["fini",-9.909392703105953],["trans",-9.911323944834322],["lesquel",-9.911371812387992],["tenter",-9.912562215733924],["app",-9.913708388167617],["mené",-9.91469687066298],["Russe",-9.91501900524397],["rythme",-9.915131534683923],["disposition",-9.91513276746679],["relève",-9.915161530593146],["Charles",-9.915215115739713],["utilisation",-9.915305926207136],["continu",-9.916709657137222],["éni",-9.918395221426088],["immédiate",-9.91867295963462],["performance",-9.91868074165303],["proposé",-9.919527817428914],["ég",-9.919870005202228],["og",-9.919945247723774],["fais",-9.920344477674847],["suffi",-9.92072426717344],["Tou",-9.920840427810607],["climat",-9.921107914028205],["impression",-9.921163051605472],["incident",-9.921254599672682],["ali",-9.922026371842927],["traitement",-9.922647052548637],["emp",-9.922729613782893],["q",-9.923931840107059],["by",-9.925303382251636],["remis",-9.92533642733473],["précédente",-9.927193437436834],["Qui",-9.927891730061976],["Ali",-9.928315918548595],["chant",-9.930715261575607],["tiré",-9.930911912279054],["vre",-9.931375308619895],["aéroport",-9.932167318153066],["mène",-9.93349073548152],["Olivier",-9.933654653517117],["soutenu",-9.933699038569662],["thème",-9.933789084578567],["circulation",-9.933806437646986],["frais",-9.933934819276509],["barre",-9.934383058110368],["nommé",-9.93825530007673],["resse",-9.938865965683863],["salarié",-9.939887564918706],["procureur",-9.939934014944528],["université",-9.940215834894422],["normale",-9.94117646245095],["vice",-9.942115640619113],["olo",-9.942495208690094],["servir",-9.942751951985608],["To",-9.942763476471843],["blessés",-9.943249062704282],["constitue",-9.944238128885765],["Ex",-9.944600921990585],["nette",-9.945856481914717],["envoyé",-9.945877264828468],["passant",-9.94615967511701],["démocratie",-9.946175982639815],["défaite",-9.946226841057747],["Genè",-9.946303717810897],["dépense",-9.946319365298145],["Hi",-9.946532455211626],["déplacement",-9.947010877596268],["crois",-9.948623742640471],["Wi",-9.948829740405035],["change",-9.949200975749212],["reprendr",-9.949334963431573],["pose",-9.949680042217075],["mine",-9.950998033060873],["améliorer",-9.952505096555953],["erie",-9.954516377739871],["gri",-9.955266742804653],["changé",-9.955380897801756],["éli",-9.955703902038213],["col",-9.957083480067427],["éducati",-9.957571790602575],["33",-9.958302588126],["Espagn",-9.958693627582043],["ani",-9.95872777923792],["couple",-9.958829329969266],["pétrole",-9.958876279441844],["exposition",-9.958995364343394],["quitté",-9.959456285337732],["participant",-9.960633947094934],["ik",-9.961150039708137],["gan",-9.961366492356433],["atrice",-9.962259442450932],["sentiment",-9.962424629206268],["ague",-9.963357296101165],["arrêter",-9.96350291239182],["obligation",-9.965284782125789],["légère",-9.965316872336523],["lancement",-9.965750477591968],["rencontré",-9.966075242725207],["retard",-9.96627352375409],["Anne",-9.967389940625942],["bu",-9.968604162968592],["ault",-9.969345965724095],["RT",-9.969555095331398],["Bon",-9.970219883841954],["Tr",-9.97116994926503],["maximum",-9.971736392639041],["Université",-9.971736970620913],["Amazon",-9.971737993310398],["36",-9.97286845255763],["aliment",-9.973800481932543],["fans",-9.974112139440336],["LR",-9.976287616008811],["demeure",-9.978146529104311],["phénomène",-9.978229899399654],["réduction",-9.978313550562456],["alerte",-9.978423690217397],["augmenté",-9.978852645276334],["Patric",-9.979149101215508],["II",-9.979197545872358],["Aucun",-9.982216348688787],["logique",-9.982792302302402],["ément",-9.982899168595623],["contribu",-9.983879321709288],["constaté",-9.984624642359478],["Vo",-9.984672643884853],["réalisateur",-9.984800245783546],["prenne",-9.984889027345826],["amb",-9.98589533170486],["Peu",-9.988560722608364],["africain",-9.990893207615214],["studio",-9.991344804404651],["hommage",-9.991442571094577],["pluie",-9.992315144199084],["recour",-9.992354304823913],["voulu",-9.992711671551],["menée",-9.993299893407416],["permettra",-9.99395185405011],["prenant",-9.994807486261575],["mainten",-9.9950983605301],["Joe",-9.995469267910371],["Ivoir",-9.995695641341984],["ira",-9.995842742184458],["US",-9.996830983618505],["grosse",-9.996888643595858],["49",-9.997174593271112],["efficace",-9.997520649889179],["DG",-9.997577834145154],["spectateur",-9.997967310990424],["producteur",-9.997967311619439],["examen",-9.997968860319734],["usine",-9.998489036697261],["h30",-9.998666792191491],["55",-10.000376448259725],["dos",-10.001828654223145],["Col",-10.002201765289534],["Fi",-10.00243125237209],["proposer",-10.003080170761232],["dialogue",-10.004633977552942],["sportif",-10.004642396160097],["consommateur",-10.004643537524043],["Défen",-10.00465202018739],["gui",-10.004772537912856],["Apple",-10.005139366173507],["crédit",-10.005167616840842],["battu",-10.005803140631945],["Am",-10.005967032162879],["envers",-10.00657269091139],["viv",-10.006785768402429],["établi",-10.007192449215495],["apporter",-10.009872528876107],["Dan",-10.010808737084329],["tenté",-10.011229454234837],["pénurie",-10.01134552950727],["audience",-10.011345835684208],["omb",-10.012378409762483],["différence",-10.012983634360598],["ori",-10.012996723227374],["Bas",-10.013448053181545],["eth",-10.014703906352782],["ite",-10.01543077207982],["arbre",-10.016106079194621],["éco",-10.016876943130349],["ire",-10.01728628335438],["majeur",-10.017368366859875],["Canadien",-10.017837227771835],["agricole",-10.018102669454187],["ashington",-10.018107358250152],["attaquant",-10.018134347058005],["neige",-10.018273527981483],["priorité",-10.018360983160946],["collectif",-10.018424841693772],["Nic",-10.018434879314512],["gh",-10.018485227454956],["tic",-10.019474112259285],["34",-10.020353396036661],["refusé",-10.02182438914962],["ciel",-10.022830508554481],["ON",-10.023241475551941],["&",-10.024904864656556],["Ukrainien",-10.02490486469156],["vélo",-10.0249118253714],["durable",-10.025163713916506],["Laurent",-10.026978616443728],["développer",-10.027095283372644],["visage",-10.028385304015362],["final",-10.029619488131912],["micro",-10.030669665371256],["anglais",-10.03121719237229],["manifestant",-10.031754188154123],["smartphone",-10.031754202034547],["gagné",-10.031754614876704],["mor",-10.032215559236834],["my",-10.032958554877656],["CI",-10.03319376706571],["défenseur",-10.033388156584923],["37",-10.034269145634742],["constat",-10.03452699319865],["pic",-10.034688041571581],["lancée",-10.034922300439803],["Lion",-10.035324871238853],["collègue",-10.038650731756249],["COVID",-10.038650739643927],["potentiel",-10.038652839043191],["jardin",-10.038656392272454],["adjoint",-10.038744086932219],["Bid",-10.039633801043871],["comportement",-10.040960411446756],["isent",-10.041824404543739],["imp",-10.04220641187209],["Maison",-10.043331715364147],["Air",-10.043794364522451],["illon",-10.043923364948698],["médaille",-10.04559733679902],["secour",-10.047817516052763],["tar",-10.04934478242297],["Im",-10.049587395493774],["mauvaise",-10.051728373621197],["igne",-10.051807094163104],["War",-10.052006558342363],["taille",-10.052247708347506],["missile",-10.052855661142907],["spécialiste",-10.052875253598927],["front",-10.054009841220234],["signe",-10.054194231747182],["croir",-10.055118333932965],["connue",-10.055132031671247],["surface",-10.056375289939972],["tonne",-10.057369985795741],["penser",-10.057881607547902],["résidence",-10.058455318098192],["voulo",-10.05900189759974],["conservateur",-10.059630436588105],["Robert",-10.05973143521374],["israélienne",-10.059862226719305],["allemand",-10.059940374484745],["Parlement",-10.06014248328222],["Sch",-10.060803041758131],["2000",-10.061380698318786],["Gar",-10.06272482412242],["kh",-10.063493268201544],["ème",-10.064514840485703],["ondre",-10.064517574512717],["ç",-10.064785455621223],["œ",-10.065634424816412],["Ouest",-10.0665816613086],["candidature",-10.067033417167659],["ménage",-10.067220542321785],["Puis",-10.06741913405147],["sélection",-10.06808820513139],["énorme",-10.068118012462797],["prime",-10.068194266542417],["rappelé",-10.068434357677248],["active",-10.06843739525499],["confirme",-10.072805606113352],["carburant",-10.073866407988106],["machine",-10.073867178521123],["identité",-10.073901117913593],["mauvais",-10.074755960672618],["garder",-10.076074967418343],["confié",-10.076258445413142],["Sha",-10.07728709079414],["portée",-10.077609540541761],["chercher",-10.077868498000745],["humaine",-10.080193818839579],["vant",-10.080946444442706],["influence",-10.081059736857679],["Royaume",-10.081062182195584],["démarche",-10.081143218187893],["appris",-10.08133828080399],["collaboration",-10.08139884407126],["ung",-10.081605972638464],["Ange",-10.081766160577807],["ok",-10.083228285662377],["allé",-10.086976083409468],["exprimé",-10.088321206808716],["assurance",-10.088323932505899],["directrice",-10.088332142818581],["connaissance",-10.088403421214576],["champ",-10.088441227515636],["ajout",-10.08848173927166],["organisée",-10.088574918403406],["préparer",-10.088893177427579],["détenu",-10.089522811351173],["local",-10.090255118751728],["fier",-10.090256572378534],["trouvai",-10.091244779843754],["souvenir",-10.091363357235135],["héro",-10.091745029025379],["précis",-10.092741947831193],["adresse",-10.093598830810272],["canadien",-10.09534673691233],["Qatar",-10.0956076172675],["vécu",-10.09560861461884],["dispositif",-10.095612446743104],["rejoindr",-10.095658299021396],["parlementaire",-10.095664427960573],["Nicola",-10.095672036177568],["mont",-10.095908789510236],["Char",-10.09596479532772],["aille",-10.097310380714267],["oli",-10.098142404958166],["spéciale",-10.098343255891846],["visiteur",-10.098491709629695],["mm",-10.098932220572209],["formé",-10.098961986910503],["Quelque",-10.099128645462267],["jeunesse",-10.099725210064456],["reine",-10.101079753250763],["défendr",-10.101611143757772],["renforcer",-10.1016183347813],["65",-10.10193062695922],["isée",-10.102347236958714],["̀",-10.1026253261851],["scénario",-10.10295832802782],["décennie",-10.102958347157882],["gamme",-10.1029680807743],["détention",-10.102975210371039],["atelier",-10.102990814058082],["Jér",-10.103093982839006],["exploitation",-10.103284418285654],["vaccination",-10.103987876447992],["animal",-10.104976817769423],["réagi",-10.10680815842709],["connaît",-10.10762771131228],["Australie",-10.110369580197448],["corona",-10.11045073782423],["aérienne",-10.110536694489179],["développé",-10.11087901075156],["awa",-10.11150686736033],["tombe",-10.112636924654085],["Har",-10.112661860613814],["tomber",-10.113041422573595],["usage",-10.113176721239565],["plat",-10.114074786976877],["sais",-10.1167593496735],["iser",-10.116835095088572],["âgée",-10.116938610046633],["Mer",-10.117573436966062],["stratégique",-10.117828419421038],["opportunité",-10.117891040741316],["goût",-10.118043798470353],["chantier",-10.118253145866731],["venai",-10.121042924199033],["char",-10.122369888866578],["vivant",-10.122809457221802],["essentiel",-10.123014033912206],["bénéfici",-10.124573832020525],["Netflix",-10.125347215913866],["complexe",-10.125347219588075],["révélé",-10.125347456075291],["offensive",-10.125347527129115],["livraison",-10.125349197092099],["Facebook",-10.125354976257778],["immeuble",-10.125417048627448],["nécessité",-10.125799396382263],["confie",-10.126008543190418],["professionnelle",-10.126101326631982],["privée",-10.126195743480167],["utilise",-10.127036157176141],["écrir",-10.127472521426789],["réelle",-10.127556698641074],["construir",-10.128643967713039],["fo",-10.128880593785704],["faute",-10.129435643930258],["gain",-10.129612343932367],["Star",-10.130049562385874],["électorale",-10.13066991664579],["chev",-10.13184211464974],["personnalité",-10.132922982398327],["ambition",-10.132963639916067],["échec",-10.132983861141314],["Claude",-10.133338608485545],["métier",-10.13345422620519],["séance",-10.133480640887981],["émotion",-10.134108326809038],["Port",-10.135137424930322],["montré",-10.135348616380707],["rempli",-10.13567455896824],["dure",-10.13770680213767],["hor",-10.138645728243969],["personnages",-10.139045325757106],["passée",-10.140150426612864],["promotion",-10.14034446725056],["législative",-10.140556561448761],["hockey",-10.14055660793294],["trafic",-10.140557972171795],["statut",-10.140570196184454],["Vincent",-10.140572540776539],["médicament",-10.14058917619893],["chanson",-10.140693087721871],["régionale",-10.140992107143681],["séjour",-10.141025031759693],["monter",-10.141256973225138],["perdre",-10.141507444803702],["ium",-10.141529212435726],["Ses",-10.141736573126416],["recul",-10.142677139734282],["uff",-10.14306972122154],["coin",-10.143173432953663],["décédé",-10.14340736327389],["Bel",-10.143603410235645],["ouvre",-10.146981507625748],["Goo",-10.147121537279098],["tarif",-10.147845075457226],["solidarité",-10.148248868893038],["proximité",-10.148248869366164],["Zelensky",-10.148248869509573],["Fédération",-10.148248869525105],["trimestre",-10.14824909398267],["mémoire",-10.148249160179738],["partenariat",-10.148251401437525],["sondage",-10.148567660444167],["invite",-10.148849097811574],["score",-10.153247015675563],["emb",-10.153466512599326],["ombre",-10.153496036942768],["Inter",-10.15358837128825],["essai",-10.155069587104862],["fermé",-10.155774914507383],["naissance",-10.155778816394628],["athlète",-10.156000833273295],["Institut",-10.156063444491974],["soleil",-10.157011891714719],["Leur",-10.157126414564182],["rentrée",-10.157906924177803],["rin",-10.158462805736283],["anne",-10.15848650157566],["installé",-10.15932500587973],["installer",-10.160532616348451],["remettr",-10.160581359962162],["chaleur",-10.160597156392424],["entrer",-10.160813020441283],["Iran",-10.160991452896914],["sexuelle",-10.161079501390631],["investi",-10.161787788957403],["Donc",-10.162131545423865],["fra",-10.162378002015416],["Red",-10.163520045005718],["possède",-10.163813955335229],["Jacque",-10.163820328299625],["organisateur",-10.163834780338505],["billet",-10.163867130324682],["fixé",-10.163883346750593],["moindre",-10.163965512283351],["perd",-10.164027320435604],["impôt",-10.164163235044395],["quinz",-10.16498247265288],["chercheur",-10.165543216850386],["radio",-10.16603316146819],["Art",-10.166165934801716],["gr",-10.166181305587077],["ado",-10.1674065909801],["degré",-10.167705806055405],["val",-10.169737407137012],["minim",-10.170856812714028],["‘",-10.170944560839317],["line",-10.171251854199761],["jugé",-10.17146597726774],["fri",-10.171680343006562],["bénéfice",-10.17168732260568],["affronter",-10.17168762433696],["accessible",-10.171695451262135],["utilisateur",-10.17172517310171],["Mat",-10.172267091126846],["cabinet",-10.17364323884764],["for",-10.17395331744926],["38",-10.174091147311564],["Ki",-10.175297780299724],["Celle",-10.176307062871349],["souhait",-10.176370943788994],["Bri",-10.1767990813002],["portant",-10.17770080564469],["dévoilé",-10.179624415075263],["tâche",-10.179631260297716],["pauvre",-10.179632707544958],["camion",-10.17975383891919],["coopération",-10.180920759654821],["entraînement",-10.182062667691103],["lourd",-10.182716309061298],["souci",-10.183474901559354],["oire",-10.183656866718543],["masque",-10.186354218529045],["israélien",-10.187384042532724],["lire",-10.187573602950827],["mobile",-10.18759701874992],["frappé",-10.187627464001814],["caméra",-10.187634443314858],["réjoui",-10.187636776859822],["console",-10.18771925490298],["ennemi",-10.187758777118685],["planète",-10.187768260948665],["pont",-10.189242130735419],["oublier",-10.189782372746878],["finance",-10.190185000069043],["signifie",-10.19056273947901],["décor",-10.191058810265227],["réduit",-10.191862694152224],["supérieur",-10.191994600759987],["expliquer",-10.192190452387841],["pièce",-10.194210084138799],["Tunisie",-10.194397794310015],["abri",-10.19548116939509],["théâtre",-10.195688394661182],["évoqué",-10.195689387042286],["musée",-10.1956945713499],["adulte",-10.19570573475719],["allié",-10.197614524157629],["play",-10.197994727702701],["dommage",-10.19802950747151],["mari",-10.199525026807237],["devoir",-10.20127579126952],["située",-10.202105552088975],["connaiss",-10.203284520992135],["témoin",-10.203429701810606],["conducteur",-10.203818428864793],["mineur",-10.204119439166082],["lever",-10.204259132219168],["coalition",-10.204829190632786],["cho",-10.20484496131764],["naturel",-10.205743139351892],["passion",-10.205923663126878],["Autre",-10.206184944611747],["établir",-10.207434760783418],["Lorsqu",-10.208211578707045],["Eric",-10.208453413770275],["Tra",-10.208845013020898],["ième",-10.209062707449913],["Za",-10.210831763375086],["pr",-10.210982350004386],["multi",-10.21114092934947],["talent",-10.211926539557803],["garçon",-10.21201547556683],["cinquième",-10.21201588510036],["intéresse",-10.21202875477194],["instance",-10.212046356819611],["ologne",-10.212215655668084],["découverte",-10.21234278099837],["fuite",-10.212609256615305],["bénéficier",-10.212710321560195],["repris",-10.212733173803937],["pièces",-10.213520073052926],["vaut",-10.213804286710033],["partisan",-10.214862431154367],["photos",-10.21487321246183],["foule",-10.215622538386903],["poser",-10.216237268137723],["promis",-10.216752553217646],["considéré",-10.217093788185032],["concerné",-10.217128589007313],["Éri",-10.217783555921109],["ama",-10.217820126119314],["Non",-10.21814619213432],["visé",-10.218434378143357],["vide",-10.219450024657414],["restriction",-10.220279663422337],["Première",-10.220279893758981],["album",-10.220280091741838],["variant",-10.220292408216157],["rump",-10.220562777136003],["armé",-10.221229820837813],["présidence",-10.221687521723425],["gre",-10.222314747237377],["jaune",-10.223381599747032],["tourner",-10.224263446519817],["cation",-10.224409985697402],["inclu",-10.224454620287126],["Simon",-10.224612404593543],["bert",-10.225514918723055],["iff",-10.226612726754183],["devenue",-10.227100214764791],["récente",-10.227111880622454],["résident",-10.22729025053301],["battre",-10.22757650631182],["fédérale",-10.227581126932005],["chien",-10.227608874151173],["Québécois",-10.228612945372792],["humanitaire",-10.228612947116249],["fermeture",-10.228614131529184],["Pri",-10.228898880941703],["Fo",-10.229043323939385],["her",-10.229506696848771],["déclare",-10.2303189580565],["écart",-10.23049655354842],["traité",-10.230594237697058],["Oui",-10.23076916464029],["accepté",-10.231003330619673],["chasse",-10.23178252628918],["solide",-10.232484883550224],["quelqu",-10.232912060640498],["partis",-10.23505473802176],["OS",-10.235583019773518],["volontaire",-10.235702654895947],["incroyable",-10.237016308164566],["papier",-10.237018619171229],["automn",-10.23703967190502],["multiple",-10.237161741001563],["fruit",-10.237204028188003],["finir",-10.23839704446659],["utile",-10.238952720006461],["pprovisionnement",-10.239525276850861],["partager",-10.240252684843684],["retrait",-10.24073560299723],["bro",-10.241134280487802],["déroule",-10.24198052687233],["SE",-10.244901537991254],["Ber",-10.245211986090217],["Luxembourg",-10.245487434389894],["délégation",-10.245490887211004],["Otan",-10.245524787568815],["échelle",-10.245546886346084],["distance",-10.245569606336229],["gro",-10.245841654763662],["violent",-10.246381801729632],["viendra",-10.246739635432291],["capital",-10.247637379834988],["convainc",-10.247991704466955],["NU",-10.249617275004994],["Comment",-10.250083545508943],["tombé",-10.251868355830837],["concept",-10.253837581131721],["dynamique",-10.25403789621603],["Festival",-10.25410821160687],["montagne",-10.254225320376575],["recevo",-10.255018692910845],["respecter",-10.255465613548552],["48",-10.255572182693998],["ram",-10.255882063468537],["resté",-10.256624379184787],["essentielle",-10.256700520753464],["choc",-10.258878668134983],["publication",-10.259040462133399],["eff",-10.259363674042207],["sang",-10.260550962653724],["choisir",-10.26154616373299],["tirer",-10.262183938974548],["Association",-10.262659052672198],["immense",-10.26265998650861],["maître",-10.26268211633754],["indépendance",-10.263114690754003],["drame",-10.263125937459694],["causé",-10.26318219875549],["régional",-10.263411958937201],["décide",-10.263595046065895],["44",-10.26366658297022],["ange",-10.264139914038484],["impossible",-10.264198391587037],["trou",-10.264654812794813],["normal",-10.26471852917829],["onne",-10.264965029541383],["diplomatique",-10.266523756107926],["gérer",-10.266538437209507],["aval",-10.266698582994035],["recette",-10.270186770325548],["Mm",-10.270576517148406],["exception",-10.271333446521238],["explosion",-10.271354233366608],["provoqué",-10.271354267575287],["principau",-10.271354353660552],["facture",-10.271380216323436],["mérite",-10.271425933933765],["Pays",-10.271445104399866],["science",-10.271467192257553],["colère",-10.271622839935393],["côte",-10.272278675552162],["vir",-10.273507432600734],["mini",-10.273557868845225],["Banque",-10.274239307088584],["ative",-10.276516106819622],["ologue",-10.276742829211116],["Mal",-10.280138769925479],["cancer",-10.28024766570099],["pouce",-10.280288039565335],["essence",-10.280422221324315],["canadienne",-10.280437494441848],["gare",-10.280447627970432],["Sam",-10.280464942591555],["réalisation",-10.280706297255772],["calme",-10.280754418913672],["agir",-10.280927992257215],["apprendre",-10.2818448127821],["moteur",-10.281891287571138],["gle",-10.282035070098491],["industriel",-10.282474016295659],["excellent",-10.283195380740882],["divers",-10.283218052922855],["tels",-10.284560151717733],["era",-10.286597639098236],["Bé",-10.287273930616024],["chinois",-10.287705898493318],["ume",-10.288195921088889],["favorable",-10.288921486619977],["perspective",-10.288975720711093],["obligatoire",-10.288975720788754],["Occident",-10.288975725281224],["associé",-10.28903535773479],["réel",-10.289858812374632],["paiement",-10.29036043540481],["dénoncé",-10.290433505614995],["Agenc",-10.29067447007647],["équipement",-10.290713538865052],["attendue",-10.290922186024364],["maintien",-10.291030430322284],["lourde",-10.29139069705857],["isant",-10.291573894451062],["Alexandr",-10.291871097178564],["riche",-10.293179708312305],["Va",-10.294068197509764],["exacte",-10.29450995160389],["passager",-10.294835314333561],["enseignement",-10.295406078362237],["ordinateur",-10.295688588541475],["vigue",-10.296190484551364],["posé",-10.29641323478118],["voil",-10.29737034634155],["47",-10.297819665792705],["livré",-10.297852072334525],["anniversaire",-10.297904292149473],["compétence",-10.297904301046188],["espèce",-10.297904368750268],["forêt",-10.29790460071976],["autorisé",-10.297920878425703],["concurrence",-10.29796321017708],["amateur",-10.297985014651918],["rejoint",-10.297987220570771],["supporter",-10.298121252105368],["ONG",-10.298870021219315],["chat",-10.30004545790111],["saisi",-10.301000927524392],["argement",-10.30210659624784],["Moham",-10.303131001203496],["Bal",-10.30409695815625],["accompagner",-10.304415189082068],["ini",-10.304505977186546],["43",-10.304563226610188],["faux",-10.304679590889076],["gène",-10.304691582329333],["personnelle",-10.305302793561568],["iège",-10.306234859373221],["récit",-10.30654330573223],["Stéphan",-10.3069133166921],["similaire",-10.30691367931467],["navire",-10.306918431437861],["propriété",-10.30691855045102],["Sall",-10.306939893237857],["Jusqu",-10.306960428781911],["Brun",-10.307030317322969],["secondaire",-10.307220710891695],["marge",-10.307300865863523],["panne",-10.307601795544771],["animation",-10.307776346290328],["istan",-10.307918544669661],["quête",-10.309679179671843],["fournir",-10.309695877964828],["opérateur",-10.309721260037282],["performances",-10.310707577016377],["û",-10.311498536157153],["Don",-10.312036420257702],["concour",-10.312560706211046],["norme",-10.313290050070293],["ô",-10.313616113132321],["nage",-10.314916455932433],["détruit",-10.316004318045831],["disparu",-10.316006528045062],["interview",-10.316009441655176],["justement",-10.316173148084356],["style",-10.316502871941408],["refus",-10.316557669784697],["vendre",-10.316596802963304],["réussite",-10.316943349971083],["Gabon",-10.317039316981997],["réuni",-10.317511285759036],["étoile",-10.31773655208576],["Fin",-10.317764184206524],["mains",-10.318236358126654],["agissai",-10.31837796514781],["continent",-10.318466172336729],["ran",-10.319023970176248],["exécutif",-10.3203331079466],["complète",-10.320453285423003],["moto",-10.32171504815551],["gou",-10.322653186677147],["organiser",-10.322710893218034],["péri",-10.32274236262727],["AS",-10.322873397478455],["Burkina",-10.323772267976143],["Américain",-10.32474908005819],["iller",-10.325107904121825],["euro",-10.325149964795713],["attentat",-10.325178596433847],["circonstance",-10.325179245161085],["lecture",-10.325179367931625],["qualification",-10.325190171617091],["découvert",-10.325274456641367],["ultra",-10.325430057784892],["destination",-10.32563122558015],["municipalité",-10.325655292754739],["Gal",-10.32692888241038],["cré",-10.328017250523459],["hy",-10.328612860352788],["rassemblement",-10.329155509692013],["Fort",-10.32945881750226],["saga",-10.329934861380437],["ES",-10.329959007249581],["fleur",-10.330201680327228],["aye",-10.331346361589445],["SI",-10.331459893014646],["landais",-10.33337096275066],["PA",-10.334283962384394],["accompagné",-10.334319412526925],["complet",-10.334439806181024],["sensible",-10.334448344192822],["artistique",-10.334479264908286],["conduit",-10.334487180949122],["témoignage",-10.33454976249823],["mobilisation",-10.334645330954878],["Petit",-10.33472664887023],["diversité",-10.334746799290736],["fondateur",-10.334925735111021],["meurtre",-10.334995047517513],["opposé",-10.335083778828775],["quantité",-10.33535490525481],["égard",-10.335660428896094],["George",-10.335688747253238],["fermer",-10.336550133871896],["72",-10.336999313344307],["coach",-10.337840068156165],["rencontrer",-10.338006297237968],["habi",-10.338033328635937],["Ser",-10.338617042425117],["600",-10.338978935852204],["ain",-10.33952847206724],["servi",-10.339649197397009],["épi",-10.339922844086207],["ification",-10.340020235772649],["rier",-10.340387122350261],["core",-10.340865323534217],["sœur",-10.341406691239081],["gie",-10.34169866543164],["séquence",-10.343492698103763],["four",-10.34368402813435],["aspect",-10.343783632499767],["collection",-10.343792099901261],["déposé",-10.344057842726983],["socialiste",-10.344634272424098],["envoye",-10.345374643626478],["soft",-10.34597343098535],["francophone",-10.34607852076427],["ling",-10.346288764965632],["présentation",-10.34686895663468],["Dia",-10.34824753200435],["insist",-10.348345861430285],["Her",-10.348647490488283],["devai",-10.348715062802505],["imposer",-10.349811291787884],["Terre",-10.35085805359528],["Ros",-10.351000284190745],["élevée",-10.351653837268334],["gen",-10.3524662202312],["appartement",-10.353217599712178],["Christian",-10.353218578190992],["emmour",-10.353219631130742],["surveillan",-10.35321992268942],["confronté",-10.353221539986592],["métrage",-10.35323821696934],["Valérie",-10.353244064686287],["expression",-10.353403216966532],["efficac",-10.35387453805128],["Cap",-10.354256240697415],["rappele",-10.354336224734318],["ster",-10.354373250476485],["150",-10.354403411729056],["écrivain",-10.355129211394154],["africaine",-10.35526992689178],["évoque",-10.355541579104548],["ntendo",-10.355792890014968],["limiter",-10.35601429968876],["accueilli",-10.356841991691692],["accuse",-10.357019341562175],["pensai",-10.357122530397461],["génér",-10.35776783095767],["témoigne",-10.3585401898126],["bat",-10.35921837155963],["amende",-10.360229507350127],["néan",-10.3606931633367],["apporté",-10.361156613396385],["interpellé",-10.362741348080576],["Justice",-10.362741356233464],["William",-10.362741383685723],["lycée",-10.36274846634255],["prestation",-10.36275743146586],["capitaine",-10.362784792141706],["fournisseur",-10.362997924603057],["culturel",-10.363814699980683],["qualifié",-10.364468934549308],["sauver",-10.364605495464541],["canton",-10.36463122098185],["Min",-10.366008910976513],["tiendra",-10.366220158397113],["fonctionne",-10.366263238317897],["travaillé",-10.367063255426851],["Play",-10.367131511879782],["Krem",-10.367306969403788],["Charle",-10.368190520608017],["occupe",-10.369196836039265],["roy",-10.369744802652473],["ray",-10.371647393907661],["sert",-10.371902564738328],["éra",-10.372201341089003],["produir",-10.372239759178418],["impliqué",-10.372356748005402],["temporaire",-10.372357769251558],["menacé",-10.372358181512064],["doigt",-10.372358477653616],["secret",-10.372378049636719],["ambiance",-10.37238939646955],["palais",-10.37240951509213],["automobile",-10.372446872848261],["Tom",-10.372515570684904],["André",-10.372692610003238],["bataille",-10.372722588075971],["sportive",-10.37284063380169],["égalité",-10.373953349115347],["résolution",-10.374107543035297],["électeur",-10.37414974733861],["ixième",-10.375946018312472],["ballon",-10.376921010001368],["62",-10.377393638615814],["42",-10.378211185409647],["SA",-10.37828905498914],["municipal",-10.378767555855385],["pérer",-10.381621381064175],["interdiction",-10.382065470164592],["intéressé",-10.382065470454432],["Grâce",-10.382065509822851],["spécifique",-10.382066069620063],["désir",-10.382091056891712],["pierre",-10.38227508709359],["adaptation",-10.382307679599982],["Thomas",-10.382338629121406],["adopté",-10.383320459189948],["malheureuse",-10.383357456567406],["averti",-10.38336450862304],["volet",-10.385001529352307],["ronde",-10.385103153015734],["mette",-10.385431656267567],["Nouvelle",-10.386157468185518],["décrit",-10.386847887270328],["profil",-10.387891082821373],["présentée",-10.38816438998452],["dame",-10.388460323596131],["fan",-10.388477446347633],["rapporté",-10.388514932684416],["noter",-10.388967189583692],["former",-10.389342598634606],["pêche",-10.389388230555967],["montée",-10.391050827052723],["souvien",-10.391302019689547],["peau",-10.391750467498571],["collective",-10.391869404128947],["prononcé",-10.391869473323649],["abonné",-10.391884962897205],["immobilier",-10.391909245210542],["actrice",-10.391996400965443],["Sport",-10.392187769343774],["sourire",-10.392189101771153],["Mou",-10.392192868149191],["vérité",-10.392319705945106],["Pr",-10.392583460112622],["intéressant",-10.393489990482589],["800",-10.393520046662253],["étage",-10.393607534499075],["plage",-10.393734439681385],["ow",-10.393882300920666],["Cameroun",-10.393958408353871],["voy",-10.393966433374622],["Rou",-10.394174714283913],["levée",-10.394187685237386],["Prix",-10.394258926143873],["59",-10.395116004612163],["64",-10.39582456101532],["Fas",-10.395932809473434],["coupable",-10.396417535307547],["Mé",-10.396676589228871],["taire",-10.39691407646312],["épouse",-10.397798062671392],["confort",-10.39881980210684],["récent",-10.400393296903104],["malade",-10.401129224502133],["ékin",-10.401685892427786],["concurrent",-10.401749726058636],["vainqueur",-10.401772195258419],["accéder",-10.401798086064975],["Denis",-10.401961550148126],["présumé",-10.402246182126191],["mani",-10.40226266205433],["Wa",-10.403016006845064],["écologique",-10.403654674235309],["nez",-10.403778615126193],["candidate",-10.404167196967794],["tro",-10.404625627790512],["Thi",-10.40557581159156],["facteur",-10.406193504683582],["Alex",-10.406209931686355],["émis",-10.40674605303644],["ball",-10.40719879294754],["vacciné",-10.4078027995679],["juridique",-10.411770384310696],["dépôt",-10.411771007467511],["relative",-10.411775879451802],["gouverneur",-10.41187412880645],["promet",-10.412003848023776],["conscience",-10.412026730462092],["Super",-10.412230172375669],["évènement",-10.412380003305259],["défaut",-10.412401412310455],["prévision",-10.41261722907862],["MI",-10.413326071716916],["préparation",-10.413850748846428],["prendra",-10.41408805529116],["hé",-10.414120866198061],["investir",-10.414453607230671],["feuille",-10.415566919593672],["sortant",-10.415643968223435],["oré",-10.415787665521929],["naire",-10.416284665030215],["tournée",-10.416796889728396],["souri",-10.41695043906142],["surpris",-10.417218168843274],["réalisée",-10.417655688392594],["naturelle",-10.418501910568006],["Cal",-10.418709538922993],["signalé",-10.41874541412407],["code",-10.419025065111395],["pou",-10.420862954261482],["stock",-10.42110274071474],["migrant",-10.421613573499851],["Japon",-10.421791623208762],["circonscription",-10.421871397426795],["définitive",-10.421889144984027],["Yve",-10.421895792812375],["calcul",-10.421902196796854],["batterie",-10.421935458159243],["massive",-10.421980602965796],["drapeau",-10.42199271204455],["déterminer",-10.422083201779138],["quotidienne",-10.422506517918418],["acquis",-10.42272947405366],["infection",-10.423177223237612],["67",-10.424011960712278],["All",-10.42423300970939],["différent",-10.42462542298188],["ino",-10.425091489057447],["parfaitement",-10.425226510872493],["triste",-10.42544706262921],["issu",-10.425956873042608],["cro",-10.426777701365427],["OM",-10.428579771459598],["tuer",-10.429330286173052],["familiale",-10.429668605402412],["cesse",-10.430928899742437],["algérien",-10.431815494078261],["ône",-10.43191753572475],["récupérer",-10.432075480025825],["révèle",-10.432075733339461],["église",-10.43207577976672],["promesse",-10.43207718587631],["Chambre",-10.43212822573695],["télévision",-10.432199080096357],["mobilité",-10.432202186190748],["Rouge",-10.4322132217407],["originaire",-10.432538035209141],["venant",-10.432609117685498],["parlé",-10.433298176812126],["gratuite",-10.4334665852933],["Gra",-10.433739975983865],["dédié",-10.434912764554934],["identifié",-10.435412908791895],["bateau",-10.43638117554785],["SP",-10.43680587000371],["filet",-10.437100766162768],["pres",-10.438081393671736],["Chris",-10.439645262676361],["198",-10.440058834884818],["fourni",-10.440207429903616],["puissant",-10.44032488911934],["lain",-10.441458967079662],["déb",-10.441831675830707],["démocratique",-10.44238475188696],["calendrier",-10.442384752230023],["dégât",-10.442384775463573],["affrontement",-10.44238482469784],["Macky",-10.442387635083413],["moderne",-10.442389841917606],["investisseur",-10.442397102693004],["signature",-10.442412382123624],["suspendu",-10.442782569011378],["payé",-10.443187552039806],["Outre",-10.444828015676451],["composé",-10.445799446484493],["lende",-10.446117807814053],["bénévole",-10.447001417653421],["Ott",-10.447846350338022],["our",-10.448643279699976],["chargée",-10.448919640759188],["terminer",-10.450119309848468],["souhaité",-10.45056783078665],["39",-10.450752058940495],["entrepreneur",-10.452437852594237],["analyste",-10.452801418513943],["transfert",-10.452803811905923],["existence",-10.452927291485627],["patrimoine",-10.452980651302058],["taxe",-10.453036660610318],["dom",-10.453066599403371],["foyer",-10.453194390853684],["localité",-10.453425428658473],["formule",-10.453559211368574],["Corée",-10.454034495140403],["sûre",-10.454643394665464],["trouble",-10.455892749706948],["bourg",-10.456206752318387],["duel",-10.456641875801846],["CA",-10.456674846826653],["ntaine",-10.456764876494404],["lois",-10.458002155913059],["Var",-10.458473668242666],["annuel",-10.458760024580368],["cuisine",-10.460005382907248],["profond",-10.460219773295023],["exclu",-10.460229779277675],["Sy",-10.46134463079925],["ôme",-10.461622301919647],["sacré",-10.46202045711983],["41",-10.462161751487454],["gagne",-10.46329436158279],["amélioration",-10.463327734303036],["Intérieur",-10.463327734862474],["considère",-10.463327740503221],["méthode",-10.463334291139944],["déroulé",-10.463337548625168],["nomination",-10.463338686276735],["distribution",-10.46334242787016],["alcool",-10.463397636686091],["Domini",-10.463410464204545],["conclusion",-10.463555633110897],["acheté",-10.46367526950058],["bruit",-10.463759937628696],["mairie",-10.464288751430617],["masse",-10.465588819272753],["mobilisé",-10.466121812359493],["salon",-10.4664917643168],["micron",-10.46715160443869],["abus",-10.468133507279397],["BA",-10.469238903019328],["portable",-10.46924353780434],["syndicats",-10.46959983443549],["Sams",-10.469753900484754],["effectuer",-10.471272863725236],["alisé",-10.471359318179184],["voté",-10.471668441576023],["52",-10.473320858499036],["conçu",-10.473967159716903],["évaluation",-10.473967714967603],["Gabriel",-10.473978479853482],["essayer",-10.474239630242135],["1000",-10.474495719280915],["Blanc",-10.475043523475037],["réclame",-10.475415651255275],["primaire",-10.476274906007191],["Euro",-10.476562550876636],[".”",-10.476652749550404],["Daniel",-10.478037393124282],["suivant",-10.478213600852817],["issé",-10.478505554097968],["Aux",-10.478725067993311],["municipale",-10.480021200122513],["SS",-10.48100224471477],["poursuite",-10.481298241511878],["tienne",-10.482765096445192],["Can",-10.482782082219249],["suffisant",-10.483607886133207],["voter",-10.4841970765664],["Voic",-10.484630410684613],["inspiré",-10.484718751419035],["préfère",-10.484719606368008],["Marseill",-10.484731620553454],["intense",-10.484741023119966],["Service",-10.484784569415757],["chôm",-10.484802957816434],["habitation",-10.484837253243892],["aménagement",-10.484843512372606],["Micro",-10.484845328345878],["vraie",-10.485133248314641],["majeure",-10.485948615363762],["Turqu",-10.486282254279594],["85",-10.486566820256847],["ambassadeur",-10.48701043343623],["RA",-10.487175200314129],["représenté",-10.487686458330469],["pot",-10.487775532543733],["délai",-10.488484496185993],["anda",-10.488596938372943],["llah",-10.48895748032623],["syndicat",-10.489188060895293],["RN",-10.489224830619246],["dessin",-10.4893191421738],["intégré",-10.489785116334417],["Gen",-10.489882235159573],["ick",-10.490453454604946],["batt",-10.490493381265495],["diffusé",-10.49057552666127],["préféré",-10.492391134277044],["bal",-10.493042057439629],["vêtement",-10.493285057078502],["dépend",-10.494107003676753],["empêcher",-10.494108497518582],["explication",-10.49558828751816],["instruction",-10.495588293007657],["arrestation",-10.495588473692845],["conscient",-10.495589117993408],["confinement",-10.495589893924711],["républicain",-10.495594145032841],["déchet",-10.495625555005685],["division",-10.49575471608457],["règlement",-10.495948130122734],["tradition",-10.496070138857618],["Maxim",-10.496522976067382],["résume",-10.496711668530454],["reuse",-10.497118130130511],["Alpe",-10.49721921607199],["glace",-10.497794557297617],["chaud",-10.497850580571747],["Chi",-10.499065788572612],["voyageur",-10.499402378810665],["léger",-10.49955742388251],["marquer",-10.500538864342548],["imposé",-10.50091310881384],["RE",-10.500967929376909],["indice",-10.501348031543714],["Gre",-10.501976335224038],["ravi",-10.503508271637305],["démission",-10.503893020744531],["déplore",-10.504089172790854],["favoris",-10.50434137327521],["griculture",-10.50456383722329],["57",-10.504889193795774],["Kan",-10.50510172338727],["onnant",-10.505518070354992],["pousser",-10.506306927018752],["caractère",-10.506577298041774],["élenchon",-10.506577829240282],["Bernard",-10.506579261146104],["Richard",-10.506580141654478],["fallu",-10.506581316418245],["opinion",-10.506581494072638],["considérable",-10.506583002627915],["drogue",-10.506594318819936],["islamique",-10.506648105001446],["préoccupation",-10.50672879455647],["Blue",-10.506926906272913],["Dona",-10.507034852185614],["commentaire",-10.507106726109907],["pause",-10.507150209669362],["insiste",-10.509311040459622],["envoi",-10.511377088881012],["compliqué",-10.511859315277018],["froid",-10.511972070581558],["ressenti",-10.512178242628519],["devron",-10.512889257581737],["mettant",-10.513402209417887],["casse",-10.513487212167103],["Voil",-10.514286024888094],["ologie",-10.515457131971019],["publiée",-10.516067563888406],["enseigne",-10.51754327449878],["ü",-10.517688405224714],["catastrophe",-10.517688407655822],["réflexion",-10.517688407816273],["annulé",-10.517688440950002],["informatique",-10.517688554616319],["interrogé",-10.517689119056035],["Disney",-10.517696629996363],["Lausann",-10.517769004921472],["session",-10.517779215518463],["Guerre",-10.517798272374346],["baisser",-10.517949053693684],["café",-10.518052558722058],["classé",-10.518130069621396],["éventuelle",-10.518200551404878],["foi",-10.518701237353508],["statistique",-10.520078702224328],["initiale",-10.520654612936273],["relevé",-10.521017948331732],["libération",-10.521081458143225],["Bat",-10.521163764254622],["engage",-10.521853446078836],["Haute",-10.5224287421191],["démontre",-10.524354281927696],["Open",-10.525248526117696],["allant",-10.525305354619643],["regarder",-10.525529250160904],["éclair",-10.52557140309873],["73",-10.52611835052533],["Ag",-10.526146824215461],["destiné",-10.526272146331173],["progr",-10.527889307659139],["conduite",-10.528889569063171],["électronique",-10.528925026282042],["gagnant",-10.52892507417144],["ouvrage",-10.528926002733261],["fidèle",-10.528926210593365],["inquiète",-10.528930222710876],["blanche",-10.528978703616005],["Blanche",-10.529290750876111],["aérien",-10.529300095696476],["mariage",-10.529340456072326],["intégrer",-10.52944647517831],["cheffe",-10.529581821074304],["nazi",-10.529737306883959],["Syrie",-10.531116668812746],["égal",-10.53170877054044],["cadeau",-10.53195592502146],["Dar",-10.53207144879008],["quitte",-10.532850636455347],["poussé",-10.533011006678322],["récompense",-10.533050619331956],["tennis",-10.533167287069915],["parvenu",-10.533258771840938],["Grande",-10.533750664625149],["rire",-10.533819552424157],["fonctionnement",-10.534385393419983],["otte",-10.534743848048468],["dirigé",-10.535018494609623],["litre",-10.535251941664725],["TP",-10.535288617996418],["National",-10.535628214368582],["défini",-10.536092193363668],["pouvant",-10.536520103324573],["équilibre",-10.536742940740861],["croit",-10.537083997572264],["lumin",-10.53714286941759],["âme",-10.538415551916392],["CD",-10.539318683910224],["mann",-10.539374479994105],["alternative",-10.540288000324004],["opposant",-10.540288064840098],["automatique",-10.540288142083366],["excuse",-10.540288218159231],["scrutin",-10.540290576344546],["permanent",-10.540291497602098],["préfet",-10.540369089523033],["volume",-10.540504121870189],["collecte",-10.540614130347901],["ressort",-10.540674926988995],["culte",-10.540682567529366],["exposé",-10.54069496057745],["auquel",-10.540725575710882],["Lyon",-10.540912616761464],["doté",-10.54109517494995],["constate",-10.541640836440777],["MR",-10.541980638167203],["46",-10.542269777690034],["tourne",-10.542437347889924],["Lui",-10.542520178548006],["vaste",-10.542827165335051],["positive",-10.543080035121939],["salem",-10.543193128157732],["convaincu",-10.54494100000111],["bloqué",-10.54504435125586],["impose",-10.545328546057512],["Vers",-10.545437980994919],["admis",-10.545552579979518],["globale",-10.545593792962102],["inverse",-10.545689032786598],["hydro",-10.545728082227033],["Jan",-10.546471566139841],["trace",-10.547243578261952],["central",-10.547430500654965],["Haut",-10.547802621943873],["défis",-10.548425414855968],["franchi",-10.54852330037994],["Jame",-10.549086917730435],["cache",-10.549119259881401],["ê",-10.549598961514175],["exige",-10.550987812124516],["77",-10.551228181897688],["dépasse",-10.551274648467151],["avancée",-10.551707380267175],["uprême",-10.551782252276913],["apparition",-10.55178229259564],["Amérique",-10.55178229326511],["solidaire",-10.55178255890407],["Nouveau",-10.55178259265352],["bonheur",-10.551784506306635],["podium",-10.55178547550225],["souffle",-10.551787152687808],["récolte",-10.551803557935184],["oblige",-10.551806939816027],["quarantaine",-10.551832328370729],["Black",-10.551836724149469],["Sé",-10.551885291339525],["écriture",-10.551891704875825],["manqué",-10.551892947626927],["Mathi",-10.551908518794178],["Phon",-10.551911184916612],["58",-10.552572728684435],["argument",-10.552975545056427],["accueille",-10.55311363464906],["augmente",-10.553157654836838],["Not",-10.553938529531123],["volé",-10.554433873555553],["arros",-10.555363931992993],["89",-10.555651289117268],["criminel",-10.556375743031172],["78",-10.556424681003872],["annuelle",-10.556798791694916],["She",-10.558031808585554],["marocain",-10.558698016588725],["indépendant",-10.55916421285496],["Mario",-10.559731782469122],["découvre",-10.559841326126723],["dan",-10.561558751490722],["aperçu",-10.561627609186308],["trait",-10.563205334996677],["ultime",-10.563392341680903],["constructeur",-10.563410159189088],["automobiliste",-10.563410167204525],["communautaire",-10.563410647332116],["évident",-10.563426901755857],["office",-10.563464069979982],["Belge",-10.563558291234353],["envisage",-10.563561091814961],["décret",-10.563633845908374],["tempête",-10.564978520660304],["pli",-10.565224567433813],["débuté",-10.565862789004315],["Dieu",-10.5689383161464],["accordé",-10.569459211746022],["(+",-10.569482256621399],["banc",-10.570295856022016],["occupé",-10.570576205793095],["ria",-10.570700901548692],["carré",-10.570874941183579],["enquêteur",-10.571404545901117],["blé",-10.571475198231852],["250",-10.572797877224124],["Pré",-10.572979665075403],["adolescent",-10.573007251673832],["game",-10.573100561731323],["gendarme",-10.575057615281235],["54",-10.575137294144534],["Christophe",-10.575174913218984],["logiciel",-10.57517497048585],["commerçant",-10.575175202531618],["néerlandais",-10.575175345891083],["convention",-10.575175931367433],["Photo",-10.575176955465075],["plastique",-10.575181755986197],["équipé",-10.575182086026018],["multiplie",-10.575192574643886],["ash",-10.575235951056428],["transformé",-10.575255732749532],["City",-10.57526920187965],["huitième",-10.575295878255346],["autonomi",-10.57551882902839],["tranche",-10.575595217362643],["précision",-10.575793609060193],["63",-10.57595894102775],["relai",-10.57677495625061],["retourner",-10.577052425539783],["renforce",-10.577998943184287],["Gro",-10.578790553491986],["76",-10.579945298768298],["Ky",-10.580468999453535],["we",-10.581159713585581],["commerciale",-10.581706281120102],["loyer",-10.58197249297751],["plateau",-10.582549764264213],["Bay",-10.583777372284706],["unie",-10.584401877862227],["Mondial",-10.584541412074472],["médicale",-10.584564741575111],["Vert",-10.585858487326892],["spécial",-10.586613707749866],["informe",-10.586625020530251],["terroris",-10.586803291707557],["remerci",-10.586935125076995],["accompli",-10.587078743955407],["effective",-10.587079629680355],["disparition",-10.587079636143685],["épidémie",-10.587079814583037],["innovation",-10.58708647675363],["Musk",-10.587089410251654],["acquisition",-10.587092239103791],["Monaco",-10.58710396229371],["actualité",-10.587109365416534],["Angle",-10.587130136099084],["commercial",-10.58727753137904],["branche",-10.58748051511272],["Gil",-10.587498995875256],["procédé",-10.587593324854293],["apprend",-10.587628415208318],["couverture",-10.587833918525922],["Comité",-10.58791569147096],["stream",-10.587917015901319],["Région",-10.588380314417176],["observé",-10.58966518489951],["idi",-10.590285238156408],["vic",-10.590687904981436],["ndre",-10.590688280939982],["Gri",-10.590729387903805],["53",-10.590808789031318],["salué",-10.591366426517162],["maman",-10.591397913193541],["crée",-10.593102379438118],["Tar",-10.593907294432864],["abattu",-10.594504238700413],["Kr",-10.594843868703851],["exceptionnelle",-10.59691643031315],["vaccinal",-10.597676034049762],["bilité",-10.59773434048418],["cycle",-10.598598074926176],["PI",-10.599069648701654],["symbole",-10.599127880014038],["oeuvre",-10.599128299543267],["Brunswick",-10.599128577083837],["souffre",-10.599129137703681],["licence",-10.599193390772403],["Finance",-10.599236990034157],["conduir",-10.599265471991725],["Albert",-10.599341737442082],["fédération",-10.599380654230483],["remplacé",-10.599615150940462],["avortement",-10.599674790174856],["ète",-10.599877841032143],["aimé",-10.599897870485403],["bloc",-10.600112561810343],["Frédéric",-10.600423062391503],["informé",-10.601284198672301],["convien",-10.601540858389505],["menaces",-10.601766984919106],["partagé",-10.602506290155459],["remporter",-10.602645983470913],["LE",-10.602884013574684],["Tel",-10.604003428172817],["arc",-10.604039735460654],["Côt",-10.604451495250416],["assemblée",-10.604463797738472],["yer",-10.604769453085439],["construit",-10.605734630173464],["gon",-10.605986517154875],["respective",-10.606123416780175],["bâti",-10.606632423079907],["CO",-10.606775803562314],["enjeu",-10.607884123969132],["plai",-10.608423481927726],["Kar",-10.609573321191164],["artisan",-10.610232232502756],["digne",-10.610604380288219],["effectif",-10.611322952005722],["humanité",-10.611323139816854],["réservé",-10.611327477254571],["cinquant",-10.611467722952419],["regrette",-10.611661373001624],["prenai",-10.612048620330883],["bombardement",-10.612168825969393],["Merci",-10.613098632394442],["diverse",-10.613344846647948],["68",-10.613524604865813],["défend",-10.61403237842098],["mét",-10.61517408011653],["supérieure",-10.616946487681012],["suiv",-10.617424998297732],["pur",-10.617766772312788],["prépare",-10.61875459680546],["geste",-10.61908963084798],["juif",-10.619319952446899],["MS",-10.620917207929093],["utilisée",-10.620975365515932],["rose",-10.621685063454906],["cent",-10.621745954840382],["enfan",-10.62176308048463],["uck",-10.621879565215021],["adapté",-10.621968471245337],["restaur",-10.622116086544352],["Bor",-10.622773864175242],["horizon",-10.623353563269095],["graphique",-10.623543966833282],["occupant",-10.623668624298876],["dimension",-10.623668690104827],["autorisation",-10.623671796248983],["Dakar",-10.62367508661765],["adapter",-10.623780708061968],["contribution",-10.623829255122338],["suffisam",-10.623844112223722],["assis",-10.623945014511428],["reconnaissance",-10.623981779828533],["Rock",-10.62449777687533],["remonte",-10.626935799850674],["raté",-10.629382908934224],["Brésil",-10.629757813512395],["ari",-10.630173629647114],["llez",-10.630223105704161],["vend",-10.63143551237476],["couvert",-10.631915388660651],["Kou",-10.633913269152817],["Yo",-10.634182850791365],["situe",-10.635118042348124],["ota",-10.635405808530276],["79",-10.635412111020305],["emprunt",-10.635901116115985],["Madri",-10.636109893805752],["magnifique",-10.636168622996852],["négatif",-10.636168661901177],["magistrat",-10.636169143540716],["bébé",-10.636334089857742],["semblai",-10.63645847516191],["drone",-10.636561269955802],["Justin",-10.63657218822878],["château",-10.636611888404234],["95",-10.636724708464127],["apporte",-10.637000942241421],["fausse",-10.637364718934325],["empêche",-10.637875505778862],["entraîné",-10.638165296080544],["discuter",-10.638610631634874],["arabe",-10.63864322103436],["gué",-10.639060219315068],["assise",-10.639298443202371],["coeur",-10.63973097160131],["sexuel",-10.640570091162253],["Moi",-10.641212363829805],["Fer",-10.64197462109243],["indi",-10.642278755405078],["marin",-10.643381226660484],["ures",-10.64378380612987],["congé",-10.644035605310304],["HD",-10.644590820856285],["700",-10.644652183485405],["suit",-10.644791318518745],["Rh",-10.644936396293826],["ich",-10.645005936872984],["ulaire",-10.646117210539305],["rejeté",-10.647002166390493],["tableau",-10.648329327228645],["cyber",-10.648707092717734],["myr",-10.648812498471697],["disputé",-10.648826888324042],["conséquent",-10.648826911926367],["attaqué",-10.648841168834297],["inscrir",-10.648844375434258],["élite",-10.64920652188422],["isolé",-10.64935671131148],["clos",-10.649387592538014],["profondeur",-10.649591886346618],["néo",-10.64968701700112],["arrondissement",-10.64985056769959],["bouche",-10.65226339808093],["rumeur",-10.65227198737369],["sauf",-10.65250800432068],["crainte",-10.652732085807052],["transporté",-10.655936317003704],["gg",-10.656451731054087],["AR",-10.657361347394573],["internation",-10.65740588287476],["Wil",-10.657425976671504],["devienne",-10.658212835144912],["RD",-10.659099449514468],["Hou",-10.65924838395242],["compt",-10.66077269436778],["déployé",-10.660904047497876],["repos",-10.660985408986647],["certe",-10.661073457621566],["entré",-10.661118491513001],["proposée",-10.661140234246185],["accepter",-10.661523221064302],["stress",-10.66163059525362],["ö",-10.661647361115698],["obligé",-10.661647464308217],["humour",-10.66164877657171],["joie",-10.661660206374226],["section",-10.661678258999164],["rivière",-10.6617486888225],["ressemble",-10.661773760694885],["fonctionnaire",-10.66187125362506],["transformation",-10.661940756741313],["reçoi",-10.662052079706566],["abandonné",-10.662276586820202],["prince",-10.662503390906348],["Guy",-10.663339554394476],["boutique",-10.66424477768032],["Quel",-10.664303290097738],["Pala",-10.66431275064442],["constater",-10.664316838409198],["frein",-10.66441465543418],["dépassé",-10.66592015446717],["IA",-10.66677604650987],["Bour",-10.66704673077145],["parfait",-10.667125038023723],["prête",-10.667452850930193],["Front",-10.667493153683992],["ouloir",-10.667528816987032],["lisab",-10.667816181993697],["56",-10.670101878445903],["rage",-10.67052329049243],["libéré",-10.670577190403696],["09",-10.670772660754599],["lor",-10.671670129288785],["menu",-10.672536575677661],["gratuit",-10.672865983239799],["66",-10.672884991033175],["testé",-10.673050239426459],["correspond",-10.673159633909215],["Seule",-10.673599036110158],["subvention",-10.673632839436898],["communal",-10.6736394352845],["occupation",-10.674455182844973],["souverain",-10.674580959603029],["sécuritaire",-10.674634374107995],["laboratoire",-10.674634389070317],["officier",-10.674634534831974],["Personne",-10.674702488997465],["cycliste",-10.674715903039054],["raconté",-10.674749078398206],["constitutionnel",-10.67479065726471],["Tchad",-10.674795718802768],["progression",-10.674809809240179],["couteau",-10.674818485484774],["désert",-10.674972546789096],["infraction",-10.67504947367729],["documentaire",-10.675052671047286],["ariat",-10.675345185275415],["silence",-10.675379066340305],["chanteur",-10.67555518381634],["douz",-10.67569631375467],["progressive",-10.676120055914808],["violation",-10.676163440842421],["aka",-10.676287819148419],["courte",-10.676758523997767],["Eli",-10.67676060857341],["franchise",-10.677234907268664],["requis",-10.677743340480031],["encourage",-10.677782580543791],["haine",-10.677866785984033],["oupol",-10.67808889839446],["arch",-10.678119872074152],["financer",-10.67812304653932],["axe",-10.678598192326891],["Hal",-10.678880707792178],["revers",-10.68099700946019],["exprime",-10.681086194809925],["Max",-10.681418924556958],["garantie",-10.682245584341029],["truc",-10.683262482951672],["Wallon",-10.68359741462872],["AL",-10.68447390114437],["visan",-10.685347313200385],["wer",-10.685432441914621],["Far",-10.685595384658944],["nécessite",-10.686161594551887],["féminin",-10.686247162296702],["tendu",-10.686984465651253],["intervien",-10.687035874811173],["décider",-10.687038342161351],["limité",-10.687392127369073],["administrative",-10.687792268839646],["préfecture",-10.687792268839868],["Sébasti",-10.687792276569006],["homologue",-10.687792534004618],["enceinte",-10.687793814035713],["inondation",-10.687794892829176],["Société",-10.687796954488686],["sub",-10.687898195315611],["thé",-10.687903327377773],["FI",-10.687989542478388],["(…)",-10.68801918785622],["î",-10.689116261209461],["gaul",-10.689374645053286],["contribuer",-10.689571583554788],["riv",-10.689575268563413],["douleur",-10.689878942058545],["kilo",-10.690030233593237],["NA",-10.69108261428513],["affiché",-10.691151869184537],["brut",-10.691668267772007],["GM",-10.69200844997161],["88",-10.69208629232913],["Adam",-10.692265459596763],["rian",-10.692380583518084],["Samu",-10.692953113352196],["remarque",-10.69371864793079],["marquée",-10.694273538093707],["diplomati",-10.695162715291136],["King",-10.695696376000756],["animé",-10.696615313691844],["gère",-10.696721971004767],["traditionnel",-10.696846659670094],["pren",-10.69749086848243],["Rem",-10.697655036224752],["renseignement",-10.69981431892995],["contraint",-10.699998621094688],["éclat",-10.700311793617054],["couper",-10.700742806457754],["discipline",-10.70112560218049],["démocrate",-10.701125616793437],["contamination",-10.701125640232135],["policière",-10.701125985088025],["protégé",-10.701125994827615],["Constitution",-10.701132701110717],["délégué",-10.701134864466542],["extraordinaire",-10.701139398899564],["parking",-10.701148845796622],["impressionnant",-10.701153724783582],["inquiétude",-10.70115835751368],["doublé",-10.701158811019344],["bombe",-10.701160423416685],["cong",-10.70116548804226],["corruption",-10.70116671717188],["Libre",-10.70123053541861],["touristique",-10.701232421287635],["TT",-10.701401464270091],["mentionné",-10.701462232881862],["Pre",-10.702015427428643],["réchauffe",-10.702031718125225],["transaction",-10.702201478338159],["plante",-10.702227784687832],["rebond",-10.702500844393626],["amedi",-10.702859185516116],["Nor",-10.703530919596526],["mille",-10.703642671144966],["rement",-10.704215697816347],["69",-10.704884944737431],["Henri",-10.705338916248998],["Néan",-10.705452657574742],["far",-10.705522881106123],["Kon",-10.706242758096016],["manifeste",-10.706972063889102],["rival",-10.707304151352497],["libéral",-10.70781743455865],["avancer",-10.70847929210057],["Tes",-10.708595346316638],["installée",-10.708857566889037],["West",-10.70931230677391],["heureuse",-10.709972418531045],["aît",-10.711675854865934],["Mag",-10.71173156380026],["débuter",-10.71246847130108],["tourné",-10.71347209706239],["Mill",-10.713697635453435],["bruxellois",-10.713839861486676],["emme",-10.713853033695347],["québécois",-10.713899695002546],["affirma",-10.714548065255894],["monnaie",-10.71463183982504],["critiqué",-10.714639117426927],["masculin",-10.714639133436231],["composant",-10.714639225888657],["Switch",-10.714639231398913],["universitaire",-10.714639570092839],["prévention",-10.71463972439998],["Antoine",-10.714640389416179],["sauvage",-10.714645902002388],["Michael",-10.714645985861761],["implique",-10.714646111748056],["plongé",-10.714689158778611],["assassinat",-10.71470316578947],["maillot",-10.71471859576711],["sérieuse",-10.714729853699815],["exigence",-10.714737595658574],["Mainten",-10.714835167236673],["immigration",-10.714861430102605],["exportation",-10.714899828910688],["attendai",-10.714966049656482],["réussir",-10.715571659396286],["matinée",-10.715646449394299],["chinoise",-10.716638916133974],["accent",-10.71675527160779],["flamme",-10.717230559436501],["rot",-10.717260410038119],["2008",-10.717568111571396],["intervenu",-10.71820540804424],["assister",-10.718412769749426],["apprécié",-10.718785768731054],["IB",-10.718872481637106],["trice",-10.719570583221387],["Ham",-10.719669566032549],["moral",-10.72025500613567],["écoute",-10.720463680771479],["51",-10.720546434865515],["portai",-10.720960601318874],["exprimer",-10.72207735594575],["fixe",-10.722463130209846],["blessée",-10.7227679248139],["suivante",-10.723021884667808],["verre",-10.72321466372534],["engager",-10.723403683969117],["avenue",-10.724045331506602],["Kha",-10.7251440635611],["annoncer",-10.725645811363918],["Pat",-10.725888151853326],["fasse",-10.725917917772469],["absent",-10.728058285516628],["rentrer",-10.728081682209675],["Anderlecht",-10.72833774584908],["évacué",-10.728337771142021],["cinéaste",-10.728337923947105],["Rivière",-10.728338313242979],["récolté",-10.728338573393582],["Club",-10.728341919074904],["interroge",-10.728346735586083],["recommandation",-10.728412602932313],["fraude",-10.72873605658789],["Pan",-10.728792798845861],["ric",-10.728973430008388],["commissaire",-10.728979191354753],["versé",-10.729802489800184],["limitée",-10.729980597506536],["déclin",-10.730478431818982],["phi",-10.730779564033828],["Quatr",-10.731289724103824],["roche",-10.731776117590934],["censé",-10.7326241535508],["traditionnelle",-10.732781013200103],["Roy",-10.733252330469014],["Mb",-10.733414803034757],["dérouler",-10.734126486460623],["douce",-10.735058532072827],["reconnaît",-10.735929786108802],["allai",-10.736287447703866],["caisse",-10.736366610145538],["isait",-10.736493612025676],["osité",-10.736747944030531],["transmis",-10.738071723709702],["ert",-10.738076610372403],["Sous",-10.738357179907759],["coûte",-10.739591543598872],["pensée",-10.739630847167431],["ède",-10.739886528484243],["marchés",-10.740962885744697],["ieuse",-10.741104462070254],["Ram",-10.741119667954692],["NH",-10.741941096839263],["Instagram",-10.74222663471262],["musulman",-10.742226634912594],["employeur",-10.742226634923796],["hospitalisé",-10.742226634936213],["provisoire",-10.7422266613271],["inscription",-10.7422266642366],["vaudois",-10.742232831440884],["pompe",-10.742250120672866],["Volod",-10.742268630075344],["avancé",-10.742318003257589],["extension",-10.742372241737378],["gendarmerie",-10.742392379425471],["Eliza",-10.74241256045865],["Peter",-10.742720763531791],["fenêtre",-10.742834790281954],["durer",-10.742861204102875],["occuper",-10.74287428578515],["Manche",-10.743031710856783],["Game",-10.74337092401161],["Palestinien",-10.743878388363648],["joli",-10.744357863904096],["forfait",-10.744763645439722],["repas",-10.745325152842327],["adopter",-10.745491575644413],["destin",-10.745685915059251],["Sony",-10.746445283748132],["live",-10.746742775518516],["verge",-10.747003854927149],["détermin",-10.747014065787143],["Cho",-10.747538405380027],["tech",-10.747697452611355],["fié",-10.74840567798755],["Canne",-10.748855733525486],["wan",-10.74896086397359],["Dj",-10.74904524809062],["ning",-10.750228403216145],["classes",-10.75058881829819],["Inde",-10.751337448814962],["Roch",-10.751539138545308],["poursuiv",-10.751775607424651],["affecté",-10.751897054633247],["déterminé",-10.752515961500489],["Reste",-10.752692887092028],["iez",-10.753025979294598],["jugement",-10.753159713309149],["élé",-10.753709755896502],["And",-10.753913578515656],["ège",-10.754326749825868],["EN",-10.754482344605854],["support",-10.756205863623244],["World",-10.756313806837763],["Office",-10.756318305557771],["vigilan",-10.756321004010125],["collaborateur",-10.756354850929476],["signer",-10.756410236880168],["diffusion",-10.756415709867717],["spécialisé",-10.756776528396358],["Né",-10.756797607136534],["Péc",-10.757043850815752],["roue",-10.75742758781222],["RC",-10.75765566792883],["Force",-10.758292049891477],["Bourse",-10.758908481725516],["exceptionnel",-10.758939027865086],["défendu",-10.760266635374736],["basse",-10.760320940954717],["attirer",-10.760339589248073],["gel",-10.760685804866494],["Che",-10.76072061209419],["comporte",-10.761216639163518],["couche",-10.762169332096239],["urgent",-10.76264181527851],["120",-10.762984280959788],["transformer",-10.763005618155589],["partielle",-10.763915230512772],["restera",-10.76427002208303],["auf",-10.764768152830795],["retirer",-10.765254533461627],["dji",-10.766348698689413],["guide",-10.766722900000111],["volant",-10.767211446916766],["itude",-10.767623526408968],["adressé",-10.768416442500467],["usager",-10.769015213515566],["réunir",-10.76942793009374],["ambassade",-10.769984288506729],["ND",-10.770119374866791],["PG",-10.770527420533426],["problématique",-10.770596856049057],["résistance",-10.770597160611063],["lauréat",-10.77059774016532],["assistance",-10.770598683554814],["rénovation",-10.77059993067018],["Sept",-10.77062686179594],["éditeur",-10.770659367372277],["identifier",-10.770687381963029],["suspension",-10.770759051689456],["Hor",-10.771039163129277],["réagir",-10.771229082940664],["mail",-10.771239453218499],["confrère",-10.771241187128863],["sélectionneu",-10.77134314230117],["disque",-10.77217196949818],["seuil",-10.772277282121621],["concertation",-10.772283930096354],["excellente",-10.773093104654155],["juive",-10.77345996288031],["culturelle",-10.773594045553999],["illégale",-10.773662624889962],["disant",-10.773811361544643],["essayé",-10.773943426956397],["combattant",-10.774101067276863],["DF",-10.774243983607654],["publicité",-10.774262414334475],["Île",-10.774691049129943],["gouvernementale",-10.77474435078102],["format",-10.775642482512673],["Mur",-10.777119641511685],["saut",-10.77744156762067],["auxquel",-10.777461234599041],["DC",-10.777762349662432],["dirige",-10.77804292855852],["morceau",-10.778110965936623],["toi",-10.778117366575248],["courage",-10.778217738146306],["71",-10.778287375425018],["destinée",-10.778525872490178],["consiste",-10.779142357604792],["future",-10.779325985121694],["Laval",-10.77965341729511],["touriste",-10.779663100165816],["sombre",-10.779739224049514],["AQ",-10.779939454367781],["PN",-10.780328586208686],["organise",-10.780411732226728],["Han",-10.781188559221995],["Kev",-10.782141893459212],["terminée",-10.782490292331403],["foulée",-10.7830874852517],["entraîner",-10.784507188927194],["thématique",-10.784576056954712],["optimis",-10.784829573360247],["aîné",-10.785017101577537],["symbolique",-10.785089609668955],["Vendredi",-10.785089610531097],["inférieur",-10.78508961179416],["nourriture",-10.785089747178903],["importation",-10.785090620336787],["Actuelle",-10.785092313232033],["critère",-10.785093601786654],["escalade",-10.785094825491743],["Jeudi",-10.785096921243682],["cellule",-10.785104131598704],["ambitieu",-10.78511615514096],["Lundi",-10.785148459503873],["flamand",-10.785227896116687],["alliance",-10.785708685692779],["consultation",-10.785895667105269],["sélectionné",-10.786061083494992],["golf",-10.78621105015322],["App",-10.786257825643606],["revue",-10.78629914117446],["collège",-10.786345118703958],["Seul",-10.786513130614665],["urbain",-10.786757074961166],["Elon",-10.786922612743423],["biais",-10.786961382893967],["opérationnel",-10.787196263492099],["épression",-10.78764732647031],["musicale",-10.788030489947749],["alheureuse",-10.788767296937923],["entente",-10.788981792158975],["manger",-10.789504959558343],["info",-10.78990842502704],["Interne",-10.790079777210943],["veiller",-10.790570221261593],["verra",-10.790721853804413],["bour",-10.791105861875309],["ock",-10.791517356545233],["!»",-10.79216919383237],["new",-10.793853773099844],["tweet",-10.794512467222756],["soumis",-10.798142812414824],["Bru",-10.798299355219932],["Ger",-10.799579523511202],["bidjan",-10.79979551548103],["mécanique",-10.79979556955589],["bourgmestre",-10.799795686352674],["maritime",-10.799796113306538],["conversation",-10.79979814150126],["scandale",-10.799816400503806],["remplacer",-10.799818706942377],["agréable",-10.799820242010677],["Pascal",-10.799839906148021],["plomb",-10.79984387971987],["stockage",-10.800225187541235],["tournage",-10.800235959165558],["Déj",-10.800302891381882],["olé",-10.800535089591783],["rail",-10.800751259303805],["web",-10.801058962608206],["luxe",-10.801259872213159],["Congo",-10.802186373084568],["préciser",-10.802709062943947],["voudrai",-10.802917062016887],["tagne",-10.802969718953715],["réunis",-10.803007733327085],["coordinat",-10.803466767449038],["pét",-10.803586662761731],["parfaite",-10.805019143452885],["observe",-10.805267954626949],["comédie",-10.805328274683731],["Sports",-10.8060274043537],["essay",-10.806099245967406],["paraît",-10.806162360453051],["Thierr",-10.806316702705914],["originale",-10.806499708026305],["chère",-10.806530698358308],["commenté",-10.807006796637474],["valu",-10.807132158160433],["affect",-10.807271005184447],["évoluer",-10.808075026046062],["́",-10.808732649179099],["comédien",-10.808880898745626],["terres",-10.810440433940819],["87",-10.810460258391894],["releve",-10.810506342983427],["garantir",-10.810752508198977],["Sea",-10.811406328465822],["fermée",-10.811633361850575],["meur",-10.81283099811773],["convoi",-10.813117191148429],["kou",-10.813508005162907],["AC",-10.814004446500812],["imaginer",-10.81407370293359],["oît",-10.814368304565054],["98",-10.814712524159665],["Pokémon",-10.814720869194506],["polémique",-10.81472087257913],["mécanisme",-10.814720950250496],["Portuga",-10.814722230354999],["matériau",-10.81472447215829],["rupture",-10.814733718888203],["ignore",-10.814734136258128],["Marvel",-10.814741915644774],["joueuse",-10.814749608384496],["fonctionnalité",-10.814782234282971],["procéder",-10.814888685760886],["recueilli",-10.81509469992267],["chauffeur",-10.81510860093254],["vocation",-10.815192502626974],["retiré",-10.815210081404354],["autoroute",-10.815269355540057],["Bureau",-10.81535999275033],["atteign",-10.81537102445155],["agi",-10.81543554661052],["québécoise",-10.815538753406813],["déplacé",-10.815573448075813],["abonnement",-10.815679384875896],["boîte",-10.815723453105917],["psychologique",-10.815774659101292],["Diable",-10.816332570633149],["noire",-10.816455857056248],["occidentale",-10.81667880647424],["livrer",-10.816831984887173],["74",-10.81715005438932],["alisation",-10.81798684579029],["révolution",-10.818435024176074],["amie",-10.81855072977953],["Tim",-10.818752618257566],["aimerai",-10.820427003571451],["attaquer",-10.822444430551482],["Dal",-10.82300105705275],["Dub",-10.825173733276817],["ores",-10.825348108717032],["atteinte",-10.82639290465361],["plonge",-10.826865142314997],["pér",-10.82755930214099],["éventuel",-10.829173417885286],["géré",-10.829256893309172],["bur",-10.829374383594509],["palestinien",-10.8296105440299],["profession",-10.82964225365747],["fui",-10.829666296109206],["Britannique",-10.82987238030968],["compatible",-10.82987238037543],["compagnon",-10.829872380637223],["piscine",-10.829872400846996],["majoritaire",-10.829872550657534],["locataire",-10.82987461398275],["déficit",-10.829915738068493],["clinique",-10.829972546162784],["clientèle",-10.829984524470799],["chèque",-10.830036497919878],["repoussé",-10.830121461388227],["Julien",-10.830139795576436],["engagée",-10.830493365637638],["médiatique",-10.830527791909677],["communiste",-10.830843717803425],["Général",-10.83090732599163],["ignon",-10.831435775123104],["démo",-10.831553518887912],["pit",-10.831723716399775],["combi",-10.831802566702958],["Groupe",-10.831939234133216],["exploit",-10.83207930203095],["gor",-10.832348704827824],["abandon",-10.832447534535207],["énorm",-10.832679236318473],["pensé",-10.833090467793316],["ipp",-10.834105762815533],["ramene",-10.83666341980277],["appé",-10.838607294690233],["basé",-10.838868549544006],["Fra",-10.839303857117766],["décédée",-10.839604598268146],["elli",-10.84013797263518],["usines",-10.840255250786317],["libér",-10.840391943785123],["Tri",-10.840445863657362],["paysage",-10.840707476063987],["doré",-10.841784083603967],["GT",-10.841841177617056],["Jack",-10.842626373924318],["erine",-10.843157750986865],["motion",-10.843851285268846],["oux",-10.844310812409173],["accompagne",-10.844972744054182],["italien",-10.845068826788587],["Pal",-10.845093628220983],["spectaculaire",-10.845256995686842],["administratif",-10.845256995687116],["emblématique",-10.845256995695152],["hospitalier",-10.845256995696687],["évacuation",-10.845256996615689],["délicat",-10.845257049716304],["internaute",-10.845257080014326],["complété",-10.845257372900438],["Alliance",-10.845257560706848],["chanteuse",-10.845258312749838],["phrase",-10.845258356331964],["approuvé",-10.845266922474364],["banlieue",-10.84528602732324],["préparé",-10.845511303275185],["représentation",-10.845560741868194],["Cath",-10.845808503216311],["Real",-10.845854301198347],["oigner",-10.845886052497441],["passionné",-10.846058647462929],["engin",-10.846120841499665],["monté",-10.84715058405365],["Rousse",-10.847156873367648],["retenu",-10.84759772129776],["rejet",-10.84780898995746],["actionnaire",-10.84786930770965],["AN",-10.848033957671216],["entraîne",-10.84805604582506],["Kir",-10.84826175042982],["espagnol",-10.848346002045076],["préserve",-10.848414216483402],["MC",-10.848549274458058],["appartien",-10.84890835121056],["Rome",-10.849742223886778],["entité",-10.8502813402419],["fondation",-10.850517412965075],["pèse",-10.850652349966555],["débats",-10.851459762085907],["Bea",-10.85181931702909],["savent",-10.851822134221813],["96",-10.852200379302243],["imposée",-10.85393587824094],["urne",-10.854087457601057],["pouss",-10.854384197444258],["Guilla",-10.854397839648062],["DH",-10.854455743272727],["ë",-10.85466210996941],["pair",-10.85631284739495],["préfér",-10.858154161420574],["nouveauté",-10.85822907042882],["Hy",-10.858926193393593],["cca",-10.858978993400257],["survie",-10.85963031732356],["voisine",-10.859917845995465],["basée",-10.860827108071103],["symptôme",-10.860881995690944],["incontournable",-10.860881995694243],["indispensable",-10.860881995733834],["hectare",-10.860882000962796],["boulevard",-10.860882151057591],["apprentissage",-10.860882353859157],["comparaison",-10.860882513207923],["sévère",-10.86088383012422],["colonel",-10.860886235780402],["IN",-10.860965537733076],["coéquipier",-10.86097600805988],["traversé",-10.861102405067513],["condamnation",-10.861103174940018],["renforcé",-10.86110639517928],["Natha",-10.86111762902927],["placée",-10.861141325462322],["horaire",-10.861169535607214],["inédite",-10.861205926419494],["habitué",-10.861207920990308],["existant",-10.861245184209114],["Berlin",-10.861317932855478],["nuage",-10.861363530280972],["GO",-10.861482892352583],["solaire",-10.861699386178344],["envahi",-10.861808734037798],["finit",-10.862058064594315],["Fête",-10.862523457579975],["Hong",-10.862555944394728],["voyant",-10.86318247176515],["contrôlé",-10.863344022471484],["autochtone",-10.863555809004147],["SSD",-10.863624368631749],["rayon",-10.864150318784944],["fumée",-10.864519239214438],["Mac",-10.865219924396595],["instaur",-10.865235119926808],["Asi",-10.865252862439416],["provenance",-10.865503042417025],["illustre",-10.865852070790318],["Wal",-10.867323726310913],["déplacer",-10.867608112221156],["Mark",-10.86813404514258],["Strasbourg",-10.868518198965443],["médical",-10.86864976585043],["reconnaîtr",-10.868931510153622],["reprend",-10.869058202268949],["tournant",-10.869252718766575],["grandi",-10.869958159071466],["termine",-10.870653067675093],["Fre",-10.8706554227696],["surprenant",-10.870975064372518],["valoi",-10.872646577646877],["Mah",-10.872758791563768],["spéci",-10.872940511527661],["AP",-10.87318163818227],["Wo",-10.874390046866969],["kan",-10.874457402636796],["croi",-10.874675011432604],["angle",-10.87488629395255],["occident",-10.87514420509343],["Sénat",-10.875478667564112],["touchée",-10.875682762461162],["ish",-10.876175488328386],["migration",-10.876495096538871],["protocole",-10.876755014591645],["Organisation",-10.876755040301518],["Journée",-10.876755214493805],["compatriote",-10.876756687450719],["Heureuse",-10.876758433369009],["trophée",-10.87677029723668],["autonome",-10.876781392221776],["légende",-10.87678875610897],["hasard",-10.87686369796414],["avère",-10.876870126957943],["fusion",-10.876873752953532],["barrage",-10.876874177551382],["flambée",-10.87687777772343],["suicide",-10.8769802013951],["Trude",-10.87709990784388],["intelligence",-10.877221237847213],["Aussi",-10.877610503830445],["filière",-10.877786874722979],["neuv",-10.878774356477582],["International",-10.879468791873965],["virtuelle",-10.879697017078584],["rev",-10.879876639952192],["voyai",-10.87990529419998],["prouver",-10.879949555425632],["18h",-10.8806814146115],["familial",-10.881193374751625],["coureur",-10.881523075558718],["amené",-10.882598840742736],["Bur",-10.882969700263224],["ador",-10.88375139798498],["toucher",-10.884795084728871],["sable",-10.885256676186964],["casque",-10.885489290183994],["poli",-10.88720977069239],["opu",-10.88722044863334],["habituelle",-10.887374295527737],["bes",-10.88778184536616],["Noir",-10.888316778971522],["aidé",-10.890436443311668],["SN",-10.890717102286246],["Cri",-10.892725251286784],["ordinaire",-10.892867422473286],["téléphonique",-10.892884043915041],["interprète",-10.892884050669633],["introduit",-10.89288405987789],["chapitre",-10.892884091830378],["équivalent",-10.892884166841124],["océan",-10.89289188342537],["carbone",-10.892903277794268],["archive",-10.892993354564478],["adhésion",-10.89306943482843],["caché",-10.893219781714869],["Carlo",-10.893248113612955],["hâte",-10.893454663168637],["levé",-10.893571465511446],["provenan",-10.893659856789347],["Born",-10.89378733764702],["ney",-10.894749577229934],["religieuse",-10.895109629496162],["org",-10.89516591331046],["richesse",-10.895404803281515],["poche",-10.895787527739241],["attache",-10.896088020277762],["igh",-10.897090316358828],["Hél",-10.897099289184132],["Pel",-10.897518063232521],["électoral",-10.89771860297765],["entretenu",-10.898501437935508],["mentale",-10.899423038484045],["cite",-10.89959334420261],["plaque",-10.899929086944425],["coupé",-10.900035920483045],["commente",-10.900345361014383],["Meta",-10.901599253763942],["kov",-10.902105069983566],["Shi",-10.90231357234742],["61",-10.90323759906375],["mentionne",-10.903238423467867],["Plan",-10.904546494191132],["zer",-10.905690103888768],["Pap",-10.90586286683154],["SM",-10.906974617681543],["sentir",-10.907018525598472],["pension",-10.909244709182085],["susceptible",-10.909277486606447],["implication",-10.909277508430772],["Benjamin",-10.909277548989344],["fabrication",-10.90927756887956],["concrète",-10.909277707484954],["terrible",-10.909277958911048],["réception",-10.909278118119861],["règne",-10.909283290199896],["écologiste",-10.909289515564165],["borne",-10.909296169721173],["révélation",-10.90931759895615],["Toronto",-10.90934584824878],["dinar",-10.909402045749967],["faciliter",-10.909476874025389],["croissant",-10.909668943371706],["Roger",-10.909739019615245],["championne",-10.910353846375621],["oubli",-10.910529506135651],["reproche",-10.910554587859917],["accumul",-10.910694860574006],["assaut",-10.911274120698339],["déposer",-10.911761979974674],["Arc",-10.912750833262528],["Serie",-10.912788240754438],["Royal",-10.913036275250667],["fiscale",-10.913113633557268],["etsk",-10.9135791725694],["Pou",-10.913968420266585],["sénégalais",-10.914398625335128],["Op",-10.91461597648669],["Ant",-10.91509062553817],["bru",-10.915774214992453],["indépendante",-10.91592636095865],["consacré",-10.916206317020087],["foot",-10.916806563471956],["validé",-10.916944439852685],["encourager",-10.917739981316213],["roule",-10.918408008101762],["pha",-10.918559613559857],["musicien",-10.918924657787464],["Ceci",-10.919463079138318],["vidéos",-10.920172771491359],["way",-10.920457381306889],["tendre",-10.920539034119685],["écho",-10.920778519879551],["composée",-10.920858145790767],["uche",-10.920900522985932],["Certaine",-10.92110207883516],["beauté",-10.921313149570068],["unanim",-10.922262460874299],["aliser",-10.922534023798702],["DI",-10.922778551377316],["religieu",-10.923699916029044],["Duran",-10.92378210076114],["suscité",-10.925158101330595],["major",-10.925666403881085],["potentielle",-10.925939072421578],["logistique",-10.925944627884128],["genevois",-10.925944869788573],["attitude",-10.925947677923306],["titulaire",-10.925949259530402],["brigade",-10.925950389004761],["chaussée",-10.925971954920008],["expertise",-10.925986337403753],["épaule",-10.92600500363367],["routier",-10.926007753610307],["éclairage",-10.926387248574947],["salu",-10.926560615944265],["monument",-10.926561628155769],["Alger",-10.926816856135302],["Tan",-10.92688404282245],["Mir",-10.92722100927283],["contrainte",-10.927372054946218],["refuse",-10.927713923720159],["loup",-10.927724416433954],["tuée",-10.928359920634755],["location",-10.92881673941119],["justifié",-10.929079307619979],["You",-10.929393526538428],["Quelle",-10.929406488161645],["météo",-10.929455920323905],["pape",-10.930460825402616],["appliquer",-10.930720026334733],["auron",-10.93152126649723],["Abd",-10.931938673221348],["favoriser",-10.932039386227924],["voler",-10.932096374223926],["magi",-10.932417436133406],["rond",-10.932839567229001],["illage",-10.932885606124326],["vieille",-10.933396453918792],["mention",-10.93348160416505],["disai",-10.93478522401978],["essaie",-10.935838899476344],["nombr",-10.936100492584867],["évolue",-10.936411187200978],["firme",-10.936416341934484],["rock",-10.936709542767787],["cker",-10.936942101475054],["Gui",-10.938757658721658],["créée",-10.939207938180596],["espér",-10.939263456731391],["Stan",-10.939805450856781],["favori",-10.939884577520068],["reli",-10.939957610903384],["ime",-10.94044594713064],["Mard",-10.942469658603285],["parlement",-10.942538007192761],["sensibilisation",-10.942893305840744],["Jonathan",-10.942893307321778],["programmé",-10.942893321033079],["parallèle",-10.94289332879205],["recrutement",-10.942894276982132],["Maritime",-10.942894428794045],["fossile",-10.94290314725431],["casting",-10.94295469290936],["jambe",-10.942967246668186],["Académi",-10.942986933801802],["libérer",-10.9431209212446],["vedette",-10.943157663715343],["manquer",-10.94323336697816],["plaidé",-10.943330364729444],["Ku",-10.943451262632582],["èche",-10.944150308221715],["Kab",-10.944605885297022],["élargi",-10.945051534375175],["tenant",-10.945611062714061],["CAN",-10.946133271705],["Rappel",-10.947017436985323],["trente",-10.947018863182091],["05",-10.94706555283734],["Ontari",-10.947091239906918],["qualifier",-10.947131929569071],["riches",-10.94747903025564],["étion",-10.947613652695065],["arrête",-10.947795508552417],["constituer",-10.948162573283483],["CH",-10.948678565371662],["ander",-10.948691065827555],["consolid",-10.948851376541047],["iane",-10.949073464402874],["Fil",-10.949954154360123],["retraité",-10.950293822706936],["dois",-10.950551094741577],["écouter",-10.951209479772833],["tire",-10.951988443085789],["visiter",-10.952176002372136],["pareil",-10.952774682004733],["relance",-10.95420372444378],["Bell",-10.954363230650044],["puissante",-10.955014051210393],["réalise",-10.956083733625537],["Sein",-10.957227246765978],["colle",-10.957969948775453],["rachat",-10.957997567886279],["conserver",-10.958030712754105],["urbaine",-10.958624171528875],["confi",-10.958669427765473],["My",-10.959002637250588],["imant",-10.959435175608942],["déposée",-10.959778762124616],["vulnérable",-10.960134685170441],["collectivité",-10.960134685632037],["technologique",-10.960134724321202],["baptisé",-10.960134754561274],["sécheresse",-10.960134840990822],["prolongation",-10.960136200829009],["échappé",-10.96013660064718],["dangereuse",-10.960136601371673],["mélange",-10.960142004016618],["covid",-10.960196224134801],["jury",-10.960216367528897],["trajet",-10.960250114541338],["soignant",-10.960275324418992],["exécution",-10.960277420449824],["patin",-10.960534656178043],["conquête",-10.960565273531705],["avoue",-10.960693754701218],["signal",-10.960882742443616],["Monsieur",-10.96091924428257],["Boris",-10.960961219942938],["développeur",-10.961196997725764],["fierté",-10.961419041425987],["recommandé",-10.961420553348077],["recharge",-10.961710219498553],["Sah",-10.96258063949616],["promouv",-10.96296992821934],["RS",-10.964115899768537],["tombée",-10.964558563858454],["violente",-10.96523897784818],["satisfait",-10.96611015151801],["Juli",-10.967573790927876],["termin",-10.967691108175885],["PL",-10.967721476125746],["radi",-10.969145674842993],["poule",-10.969169530690642],["EA",-10.969265676579173],["Cert",-10.969469824434073],["rap",-10.969483804297024],["représenter",-10.969663110562985],["estiment",-10.970183238416869],["bot",-10.97111803222009],["Féli",-10.971406165084723],["Web",-10.971426145548241],["survenu",-10.971444037379246],["planche",-10.97188205044987],["conclur",-10.972431296600854],["Los",-10.97250187117228],["glisse",-10.972915689889295],["fiction",-10.973641630960504],["contien",-10.97464509925205],["progress",-10.975242660824957],["rive",-10.975644528242242],["garanti",-10.976184591914832],["ayer",-10.976296869438354],["iranien",-10.977439435916196],["catalogue",-10.977678544613056],["hypothèse",-10.977678548430296],["annulation",-10.977678548622144],["déclenché",-10.977678659722812],["légitime",-10.97767871989294],["destruction",-10.977679647964596],["modification",-10.977697954176891],["craign",-10.977704788037876],["éliminé",-10.97770587284812],["inquiétant",-10.977713619208632],["Mexi",-10.977761704977862],["standard",-10.97781007668838],["modifier",-10.977882994726894],["bancaire",-10.97788493010736],["pain",-10.977948877608915],["Donbas",-10.977950556450223],["prisonnier",-10.977993966520526],["PT",-10.97802214080415],["inspire",-10.978036655582548],["motif",-10.978330722221493],["Street",-10.97838733048567],["hésite",-10.978437098998418],["apparaît",-10.978504243202938],["poisson",-10.978661016949605],["igny",-10.979274587507403],["bain",-10.979580495744031],["privilégié",-10.979773708095028],["soulign",-10.980698290316566],["échapper",-10.9808142256586],["ova",-10.98090528569378],["noté",-10.98178099832855],["désigné",-10.981790487121106],["incarne",-10.981804930865163],["respecté",-10.984732988019397],["raconter",-10.984748717134789],["intensif",-10.984939580593256],["ER",-10.985226247096795],["résilien",-10.986212737309618],["froide",-10.987125916218936],["tron",-10.987239529633413],["étend",-10.987928106506615],["Ah",-10.988771701029759],["Andre",-10.989472154409537],["DA",-10.989578653113881],["onze",-10.990107645674012],["inaugur",-10.99034422651432],["contrôler",-10.991611532563208],["cercle",-10.991643945111772],["Allemand",-10.991931076666097],["Colombie",-10.993343201043345],["stricte",-10.994083712432662],["maintenu",-10.994126608950534],["Finland",-10.994317605066705],["Toulon",-10.995283160251361],["sensibiliser",-10.995535687563983],["budgétaire",-10.995535687612799],["agriculteur",-10.995535688781889],["clôture",-10.995535737416361],["référendum",-10.995535748896199],["intermédiaire",-10.995535753838132],["gouvernan",-10.995535773795808],["vétéran",-10.99554355728955],["céréale",-10.99556336564765],["bouteille",-10.995584306429148],["apprête",-10.995703647013611],["modeste",-10.995704167480376],["Directeur",-10.99571103368337],["Gaza",-10.995715636606182],["Roland",-10.995937777682393],["animateur",-10.995957439337396],["technicien",-10.9959577060526],["marquant",-10.996180936282371],["TAN",-10.996306154536292],["imagine",-10.9963323053403],["détaillé",-10.996542456796146],["84",-10.997150263579009],["manœuvre",-10.997391705433541],["rebelle",-10.997613765475613],["fameu",-10.998005661109541],["citoyenne",-10.998448165502559],["sensation",-10.998452132784337],["Gor",-10.999608994527826],["accus",-11.000252352395883],["pousse",-11.000341324270483],["dépasser",-11.00038221798849],["accompagnement",-11.001067043066236],["sapeur",-11.001224993774994],["Loire",-11.0020956300015],["intensi",-11.002252564897455],["concernée",-11.002411366270021],["diriger",-11.002582769853404],["appartenan",-11.002929610068083],["immédiat",-11.003148168698726],["coupure",-11.0031545150906],["politicien",-11.003575583353754],["pénal",-11.004204671301153],["couvre",-11.004458425205426],["900",-11.005248407353166],["God",-11.00560538050754],["nvironnement",-11.00576557708803],["recycl",-11.006235392643147],["extra",-11.00630729946126],["oiseau",-11.007718986042924],["disputer",-11.007796008868183],["bris",-11.009397095511765],["vertu",-11.009414152291352],["Xi",-11.010567510404996],["délais",-11.01067857031121],["Bleus",-11.010683652964548],["organe",-11.011118717058443],["insta",-11.012313684910914],["chronique",-11.013124330184624],["compréhension",-11.013717505648607],["contemporain",-11.013717511932914],["réputation",-11.01371756257494],["pharmacie",-11.013717683023353],["déçu",-11.013717966016403],["neutrali",-11.013717996578526],["attribué",-11.013719697167055],["horreur",-11.01372357836159],["Smith",-11.013724468074592],["possession",-11.013736427242048],["Light",-11.01374454238859],["dominé",-11.013758943922078],["proportion",-11.013782962757631],["Alpha",-11.013795614958989],["PME",-11.013806968231407],["alentour",-11.01380887424779],["répété",-11.013809453115206],["Point",-11.01386216404663],["entamé",-11.014054474835273],["Contrai",-11.014088328452214],["fusillade",-11.014345630810933],["incertitude",-11.014353092804228],["senti",-11.014785479679553],["célébré",-11.01503610753378],["habite",-11.015134622754857],["transféré",-11.01582757040174],["stein",-11.015911545966036],["RÉ",-11.018043855106097],["Day",-11.018151707467478],["détaille",-11.018755830530226],["handicap",-11.0191808574938],["remport",-11.01925674128768],["Renau",-11.019507922955183],["dispute",-11.019674458739761],["Free",-11.020169860918301],["individuelle",-11.020704563693997],["low",-11.020758511468106],["parvien",-11.021570855555598],["SAN",-11.022365652100056],["form",-11.022622394395011],["fur",-11.023175140152917],["lecteur",-11.028340012545193],["syndicale",-11.028794858097049],["PE",-11.028932983320889],["gang",-11.030103480354397],["salue",-11.030184573495799],["coordonn",-11.030442337315598],["Environ",-11.0305325852906],["ivité",-11.030643268141855],["allemande",-11.031421350199059],["gramme",-11.032012202131597],["exemplaire",-11.0322360247234],["pollution",-11.03223602493966],["programmation",-11.032236025024996],["amélioré",-11.032236026711582],["Ibrahim",-11.032236027817294],["accessoire",-11.032236057943653],["résoudr",-11.032236492801397],["régler",-11.032247809242211],["gérant",-11.032309051021198],["apparu",-11.032393189042514],["fondé",-11.032470005063637],["abandonner",-11.032499288440242],["Galax",-11.03254336806849],["observation",-11.03255250672629],["Ryan",-11.032576913345018],["Loi",-11.032618492547694],["septième",-11.032866387903951],["condamne",-11.03296055270372],["wal",-11.033089257588216],["vallée",-11.033132263019102],["Josep",-11.033137490358166],["composition",-11.033294055766598],["entouré",-11.033340042475826],["folle",-11.033881262129784],["‘’",-11.033994429265306],["posée",-11.034145914312564],["hur",-11.034293403389803],["montr",-11.034513683420808],["viande",-11.034611027436469],["Africain",-11.034962120151295],["mark",-11.035032032113737],["Xavi",-11.035369441768374],["CGT",-11.035611383777251],["portrait",-11.035698016655171],["06",-11.035751810879031],["Vol",-11.0357790371982],["!\"",-11.036234673355205],["bière",-11.036696109848162],["intimi",-11.036716017830416],["81",-11.03682170761579],["IR",-11.037196990195262],["érer",-11.037618834918021],["hésit",-11.037621784250515],["tranquille",-11.037905308600799],["abrite",-11.039221887321157],["étal",-11.040622927990103],["Sar",-11.04062790619733],["Fabien",-11.041363963886157],["Nova",-11.041372039861557],["Bois",-11.041818419028008],["conjoint",-11.042156257777044],["asile",-11.042216976698617],["ordonné",-11.042365793045738],["entrevue",-11.042389707901044],["Sho",-11.04295946356639],["hôte",-11.043467458230419],["oublié",-11.043499935724554],["diffusée",-11.043533089145061],["Cam",-11.043642109683148],["UN",-11.043688728277967],["réclam",-11.044307389732626],["évolu",-11.04448832338389],["aming",-11.045123659817156],["rite",-11.04581998381654],["existent",-11.046355953437033],["Kh",-11.047187641034235],["porteur",-11.047332082058047],["paraîtr",-11.048422841418544],["apport",-11.049511527461787],["fonctionner",-11.04959542608343],["souligner",-11.04961119854222],["ercredi",-11.049953163109375],["justifier",-11.050000501784092],["connais",-11.050751123582504],["hélicoptère",-11.051103948695154],["infirmière",-11.051103948720003],["éliminatoire",-11.05110395229915],["renouvelable",-11.051104090539859],["cultiv",-11.051104216461951],["Juif",-11.051104609562428],["arbitre",-11.051105154416922],["pourcentage",-11.051109058932894],["Arabi",-11.051129636046172],["orientation",-11.051131783798795],["Frank",-11.051143189125833],["correctionnel",-11.051146808485134],["soixant",-11.051163658071582],["souveraineté",-11.051183276227325],["défunt",-11.051192053679616],["AIP",-11.051211328358484],["réparation",-11.051212998905811],["épargne",-11.051226919015438],["remonter",-11.051344021095794],["ogo",-11.051398620062914],["observateur",-11.051410943030312],["comble",-11.05142728033921],["phare",-11.051460118542046],["conception",-11.051549509829423],["ligue",-11.051730356317591],["bassin",-11.052117529442093],["sprint",-11.052309608656465],["empêché",-11.052590933280012],["COP",-11.053357288891307],["résidentiel",-11.054101642103795],["Savoi",-11.055423934129392],["global",-11.056110767401734],["zar",-11.056509913001824],["design",-11.056700997237165],["Bill",-11.057215309168704],["habituel",-11.057597170593475],["MP",-11.057988974066683],["marocaine",-11.058825724841196],["suivie",-11.059073333193174],["III",-11.060979169102193],["japonais",-11.061484792650653],["commandant",-11.061538423614277],["pénale",-11.061571214904784],["original",-11.061615940256777],["March",-11.06192466451966],["nourri",-11.062329239062036],["fonctionn",-11.062514152118492],["télétravail",-11.062515887707189],["atoire",-11.062743823618835],["Finale",-11.063550377530664],["réfléchi",-11.063732283567706],["recev",-11.065277173147946],["intéressante",-11.067148464718327],["positionne",-11.067550413348673],["médi",-11.067615431327443],["idéal",-11.067677037957418],["Mel",-11.068078318881334],["détien",-11.068393534578949],["itz",-11.069218065851887],["consécutive",-11.070334717926023],["intelligent",-11.070334717989144],["hospitalisation",-11.070334718140344],["endommagé",-11.070334719017563],["isjordanie",-11.070334732362685],["constitué",-11.070334735626048],["conservé",-11.070334779061524],["dramatique",-11.070334807549361],["économiste",-11.070334902778384],["Républicain",-11.070335047369088],["religion",-11.070335304147955],["doléance",-11.070336765926475],["terrasse",-11.070351170177126],["traduit",-11.070365977255392],["Liban",-11.070374908885444],["appuye",-11.070376110949033],["dégage",-11.070442651546124],["colonne",-11.070457136338021],["discrimination",-11.070473665409033],["courrier",-11.070525905965209],["créateur",-11.07056941037085],["défilé",-11.07060343788029],["invitation",-11.070748916484193],["boucle",-11.070813855190107],["orage",-11.070861828445235],["départemental",-11.070965588559922],["DN",-11.0709731607092],["descente",-11.071124863950272],["Philip",-11.071369603648943],["Oscar",-11.071430971482052],["bruxelloise",-11.071476490437309],["turc",-11.071520382223458],["Milan",-11.071546502765894],["vendeur",-11.07188482124798],["terrestre",-11.071967726193055],["statue",-11.072287384733958],["canon",-11.072695449696202],["cédé",-11.072794808187059],["fiche",-11.07282960773502],["saisie",-11.07306950900945],["tara",-11.07337914514146],["enregistrée",-11.073547606025516],["Anti",-11.073985017282462],["longueur",-11.074027271152339],["Prime",-11.074096314206216],["morale",-11.074235374855228],["Wh",-11.07465814408139],["Cond",-11.07469095066869],["Gh",-11.074703582798485],["86",-11.076019520365556],["couloir",-11.076268190944354],["97",-11.076849587635246],["Cong",-11.077432432586276],["FF",-11.077749402456558],["insul",-11.077950497548468],["Maria",-11.078135894630398],["sky",-11.078666383384908],["Dami",-11.079619692594617],["amine",-11.079684372490153],["conjointe",-11.079760934538879],["carton",-11.080092516543365],["promo",-11.080241062579592],["Flo",-11.081658893927326],["spatiale",-11.081867784685178],["provoque",-11.082511000242475],["oppose",-11.082607697143924],["profonde",-11.082686142997556],["04",-11.082828418979938],["unis",-11.082849782048648],["gamer",-11.08336091728939],["provien",-11.083669459599546],["contacté",-11.084086733219845],["poo",-11.084382567366912],["connecté",-11.084408183203589],["accordée",-11.085064313052468],["assim",-11.086292107384091],["robe",-11.086352145085066],["obten",-11.086584666238913],["pure",-11.08676221602662],["Ban",-11.088187833687396],["recommande",-11.088349072156628],["commercia",-11.089145740822405],["joint",-11.089272782052909],["audition",-11.089500183985752],["ivoirien",-11.089741063898444],["diplomate",-11.089942561063243],["intellectuel",-11.08994256110733],["prédécesseur",-11.089942561203003],["Egypt",-11.089942561748046],["refuge",-11.089942566071507],["connexion",-11.089942568492539],["souffrance",-11.08994258135131],["congolais",-11.089942606872334],["Théâtre",-11.089942610298845],["colonial",-11.089943225963399],["patrouille",-11.089943712125061],["ingénieur",-11.089944218801907],["obstacle",-11.089945718642756],["métropole",-11.08994757909564],["stationnement",-11.08994824159619],["fréquence",-11.089970711838916],["capteur",-11.089972092937318],["célébrer",-11.089996249604976],["estimation",-11.090027643981422],["ouffer",-11.090128443530851],["Suite",-11.090210739110693],["Florid",-11.090368431014312],["TF1",-11.090440870474971],["portefeuille",-11.090502721714593],["Nanc",-11.090743496288404],["assisté",-11.090797141310656],["trompe",-11.09096117089375],["Temp",-11.091920053453855],["02",-11.092116897934423],["fibre",-11.09215113730805],["féminine",-11.09225709227671],["alarme",-11.09233811065537],["May",-11.09271988217644],["constant",-11.09277688557767],["VI",-11.092843236102112],["René",-11.09295844917436],["remarqué",-11.09311383588305],["Carolin",-11.093370560833613],["ield",-11.093432481851396],["embarque",-11.093535958258412],["Post",-11.094697613111009],["confirmer",-11.094920977323644],["épou",-11.09499420174043],["disposer",-11.0955230868948],["dévoile",-11.095525665730872],["couler",-11.095979682475694],["environnementale",-11.096265867525958],["médic",-11.096416354536078],["GP",-11.098044871675988],["relancer",-11.098383149775827],["IV",-11.099007090246268],["dirigée",-11.099139478462046],["èle",-11.09920983954558],["Trans",-11.09927702501529],["excellen",-11.09948229392605],["étendr",-11.09992517491483],["réalis",-11.100719262471756],["Borde",-11.100882250196943],["Bob",-11.101157362451364],["déf",-11.101207360736428],["obtien",-11.101290618523402],["suscite",-11.101869503921645],["bouton",-11.102205232609334],["etti",-11.10478627060039],["FE",-11.105645801232685],["bref",-11.10568961226907],["flou",-11.106603392933957],["Soit",-11.107063095675386],["SR",-11.107456999488758],["écurité",-11.108582323621164],["Transport",-11.108594646401512],["trio",-11.109356514577186],["vaincu",-11.109729438297148],["étendue",-11.109782939689353],["̂",-11.109942561063177],["intitulé",-11.109942561306008],["compléter",-11.109942561309424],["soviétique",-11.109942562154991],["projection",-11.109942563490675],["revendique",-11.109942635623227],["Taïwan",-11.109942640688338],["bascule",-11.109944275843239],["ouvrier",-11.10994700639698],["bronze",-11.109948650972328],["œuf",-11.109952400859504],["typique",-11.109963504163852],["filiale",-11.10997344074355],["photographie",-11.109978564672428],["flotte",-11.109990333893467],["équipage",-11.110020539043987],["expulsion",-11.110026546750387],["célébration",-11.110074450923552],["guère",-11.110074738040222],["Orient",-11.110170281834282],["exclusive",-11.110189031115869],["amassé",-11.110192182383926],["chapeau",-11.110220042074952],["Bénin",-11.110326359994932],["soupçonné",-11.110379089406743],["réaliste",-11.11038188275518],["soudain",-11.110384155732383],["algérienne",-11.110455311247069],["métro",-11.110639915870728],["Dor",-11.110863906715572],["érité",-11.110956545354206],["tablette",-11.111268880977093],["séparé",-11.111289568884882],["félicité",-11.111301868894031],["négocier",-11.11136047836539],["Gold",-11.112790966390111],["royale",-11.11288739094314],["83",-11.113770478328913],["fortune",-11.114014131439252],["boss",-11.1149112176789],["érie",-11.115004315261283],["copie",-11.115249052133652],["concentrer",-11.115772175701672],["afflu",-11.116110737537237],["iya",-11.11611778086121],["réfléchir",-11.116913731150019],["entreten",-11.11699665723474],["combattre",-11.117138173749144],["baissé",-11.117994284371951],["Andro",-11.118170615020691],["fondamenta",-11.118880304055388],["évit",-11.120610727161045],["Gou",-11.120865498574652],["comptai",-11.12121412640304],["toile",-11.121532428944077],["exo",-11.121762086920516],["Barr",-11.121790508357872],["franchir",-11.121792023562321],["retenue",-11.122111555834753],["criminelle",-11.122214451695093],["oxy",-11.122811050189064],["yan",-11.12297553165981],["aya",-11.123437049477287],["étrange",-11.123755939561358],["market",-11.123874379017622],["cumul",-11.124036531755612],["ubi",-11.124502138161946],["dévi",-11.12521354849815],["Brig",-11.126726636843074],["présidentiel",-11.127549586299015],["émerge",-11.127699899867899],["Désor",-11.127730641938223],["initi",-11.127987085164506],["ouille",-11.128875488124466],["stage",-11.128932795964847],["Tor",-11.128953103630135],["qualifiée",-11.129050759930877],["instrument",-11.129229079223848],["festiv",-11.129292026093431],["guéri",-11.129755610708255],["spécialisée",-11.12987676762547],["provinciale",-11.1301260954069],["Victor",-11.13027500265352],["résolu",-11.130279105512102],["littérature",-11.13035072452877],["collision",-11.130350730973852],["Culture",-11.130350731258542],["pétrolier",-11.130350748955058],["significative",-11.130350792224895],["mythique",-11.130350808088398],["Interrogé",-11.130350891341731],["évidence",-11.130351193255835],["investigation",-11.13035169026161],["approfondi",-11.130351857224241],["théorie",-11.130353410406034],["Jordan",-11.130353920377498],["Flandre",-11.130367116356759],["immersi",-11.130372806632067],["conseillère",-11.130375817089384],["Djoko",-11.130395770023647],["basket",-11.130405399781779],["éhéra",-11.130406993877402],["démontré",-11.130496477028542],["tribune",-11.130595300700755],["oreille",-11.130700380125571],["bénéficiaire",-11.130723541585816],["rappeur",-11.130751663341753],["robot",-11.130923884774074],["illustration",-11.13122614378674],["singe",-11.131643351082937],["architecture",-11.131646410434247],["loisir",-11.131777415141784],["orange",-11.132409933307692],["évaluer",-11.13386679734862],["Abdel",-11.135188811880926],["atti",-11.136517660632805],["saoudi",-11.136768803734205],["cheval",-11.136804679268783],["EI",-11.13799004084774],["ographie",-11.138092138057818],["considérée",-11.138310006657811],["mouri",-11.138639614332106],["clou",-11.139136228801593],["Franc",-11.13938709432069],["fuir",-11.139472586077604],["Fall",-11.140469012131675],["IT",-11.140588336975664],["Nationale",-11.14106330523305],["regrett",-11.141640557565948],["patiente",-11.142393236205697],["dispos",-11.142660969105215],["Ak",-11.143083579650899],["accepte",-11.144112475614786],["Bir",-11.145255481192251],["dam",-11.14570523111039],["TI",-11.145921687090091],["évoquer",-11.146693507442857],["espagnole",-11.147004800225044],["SB",-11.147168801880929],["conform",-11.147311723583861],["Eh",-11.147390751039328],["opéré",-11.147528691949983],["pointé",-11.147731486346327],["rassemblé",-11.147945281486619],["Wall",-11.148022573078727],["5G",-11.148113087656046],["ré",-11.148302650668326],["07",-11.149632182537067],["Matt",-11.149713731155533],["compagne",-11.150943863356698],["82",-11.150988133384523],["Netanyah",-11.151184057706141],["régulier",-11.151184066750805],["Californie",-11.151184071733931],["fraîche",-11.151184072219673],["édifice",-11.151184073013694],["législation",-11.151184076696815],["jihadiste",-11.151184105976615],["convoqué",-11.151184145913176],["reproché",-11.151184200970242],["vestiaire",-11.15118435078498],["antisémit",-11.151184355463581],["élimination",-11.15118439500735],["compétent",-11.151184593714055],["défensive",-11.151184682036815],["indicateur",-11.15118472736327],["gabonais",-11.151184743429644],["amitié",-11.151184967787733],["magazine",-11.151185130508251],["Concern",-11.151185489715159],["tactique",-11.151188848656433],["évoquant",-11.151194606229875],["massif",-11.151196586881175],["sénateur",-11.151203364353945],["massacre",-11.151214377344926],["district",-11.15123133648475],["agenda",-11.15124707585516],["pneu",-11.151255324232766],["Argentine",-11.151283440340727],["Ousman",-11.151319697314975],["roulant",-11.151325447426421],["perturbation",-11.15137957179624],["humili",-11.151461922580959],["Serge",-11.15151222743621],["MONT",-11.151564551071296],["Espagnol",-11.151784346878415],["Claire",-11.151852470106952],["extrait",-11.152042728622588],["ciblé",-11.152136998410795],["Dix",-11.152138804928793],["bourgeois",-11.152488249091412],["brouill",-11.153083168430491],["percuté",-11.153347061886354],["signale",-11.153427205055777],["dollar",-11.153502833802701],["déploiement",-11.15385020620224],["saisir",-11.15408610124009],["recrue",-11.154745480522092],["offran",-11.154884939837752],["évolué",-11.155042085280998],["artificielle",-11.157600802974681],["Eco",-11.158020612562327],["lov",-11.159476592183616],["observer",-11.160738965491902],["Auto",-11.161444507903193],["réplique",-11.16248189392814],["atta",-11.16391294434337],["prétend",-11.163918559544285],["Harr",-11.164600932743136],["méga",-11.16571047184354],["craint",-11.165945656437867],["radicale",-11.166764634457282],["magn",-11.167300941769414],["uto",-11.167342655048659],["350",-11.169381273596532],["pop",-11.170528024033937],["saint",-11.170576746475046],["Camp",-11.17109092354998],["kg",-11.17131614737307],["végéta",-11.172378270112514],["Long",-11.172392022116973],["·",-11.172460653406496],["accélérer",-11.172460653424569],["Championnat",-11.172460653690617],["fabricant",-11.172460670151693],["motivation",-11.172460678375385],["mystérieu",-11.172460683943562],["Conakry",-11.172460696782947],["Histoire",-11.172460771549938],["honnête",-11.172460788999459],["Économi",-11.172460947382884],["Leclerc",-11.17246098956394],["routière",-11.172461669325497],["perpétu",-11.172462839047139],["multiplié",-11.172463328915065],["Musée",-11.172465075234435],["interpelle",-11.172474054622842],["héroïne",-11.172486252215418],["mixte",-11.172491884344378],["prolongé",-11.172500986447611],["allure",-11.172507481269442],["manager",-11.172518159466005],["Azur",-11.172538708029723],["fabrique",-11.172543586879353],["génie",-11.172549711241977],["dignit",-11.172569425275666],["trône",-11.172605472534187],["Sophi",-11.172606471391914],["Sarah",-11.17273535776162],["inacceptable",-11.172953362748911],["muni",-11.173155996460098],["arcè",-11.173257890102446],["ustin",-11.173264028857957],["Floren",-11.173306137273261],["compromis",-11.173390431429187],["Début",-11.173642899649952],["socio",-11.173685098269122],["racine",-11.173952583135735],["Diall",-11.174194491368567],["Nada",-11.174980573101996],["développe",-11.175396327343584],["diminué",-11.175544986922239],["perçu",-11.175748410440397],["faille",-11.17580095302281],["conserve",-11.175844335013144],["rice",-11.17619513432545],["nationalité",-11.176329386432355],["Jeff",-11.176536798590627],["union",-11.177024075778625],["ford",-11.17825834944879],["Fed",-11.178290163652765],["traverser",-11.178370405701205],["exagon",-11.178520212984832],["renouvelle",-11.178538469498033],["Bleu",-11.178622139255022],["Chef",-11.17902826429561],["erveur",-11.179208212760502],["Steven",-11.179929327523716],["accorder",-11.180191782373846],["Cinq",-11.18027495228232],["start",-11.180582329858613],["Mart",-11.181623628313995],["jouai",-11.182137171241571],["cherch",-11.18219676648401],["Alexi",-11.184441268642992],["Abou",-11.18449969922299],["GR",-11.18578043815696],["ralenti",-11.186651082605064],["baril",-11.186707547780781],["3D",-11.187202748423712],["présentant",-11.187778978088968],["étroit",-11.188013606770394],["dédiée",-11.18814800007956],["emporté",-11.188148739935206],["mandant",-11.188583252392666],["130",-11.188663653386138],["tali",-11.189250878220498],["ménager",-11.190138913709147],["TE",-11.192848462138462],["helem",-11.193208505485202],["Tech",-11.19398528360461],["™",-11.19419978384128],["revendication",-11.1941997839388],["satellite",-11.19419979132725],["ordonnance",-11.194199813120512],["déception",-11.194199844925285],["sollicité",-11.194199868187246],["appuyé",-11.194200030099822],["bâton",-11.194200251282663],["cimetière",-11.19420034348887],["polonais",-11.194200408175293],["introducti",-11.194208213123991],["lâché",-11.194208587243455],["isolement",-11.194209200005693],["impliqua",-11.19422444448008],["BFM",-11.194231233977465],["Croix",-11.19423682793491],["mêle",-11.19424036087496],["réhabilit",-11.194241021003615],["Texa",-11.194241469585105],["thermique",-11.194272636294844],["attaché",-11.19428291724991],["ferai",-11.194346496943043],["nçant",-11.194359338709543],["leçon",-11.194442132347822],["superbe",-11.194509468837312],["transmission",-11.194633204284486],["hyper",-11.194676926077808],["individuel",-11.194740794304888],["Namur",-11.194817718258896],["Prince",-11.195033794363006],["dieu",-11.195112152007752],["Chacun",-11.195638866085138],["monstre",-11.195886751328578],["milliardaire",-11.195987161897365],["bête",-11.196124280719527],["délit",-11.196321740358183],["Roman",-11.196530568710028],["accroche",-11.197621130026452],["acheteur",-11.197942006361362],["Ferra",-11.19824257187526],["riz",-11.19830657881354],["distribué",-11.198396033443814],["dresse",-11.198418510966485],["publier",-11.198580657744186],["œur",-11.198592008851602],["Zo",-11.198623182282432],["communale",-11.2004638821932],["refuser",-11.200848186997003],["traiter",-11.20118354676244],["BB",-11.201532571036076],["bourse",-11.202229817106769],["Stade",-11.202293273592268],["adolescente",-11.202550805334266],["subir",-11.203079932097507],["rural",-11.204318095047263],["désign",-11.204610636937979],["icule",-11.204628445882664],["prévien",-11.205129634992206],["traîne",-11.205597625080639],["Rama",-11.207394032695557],["utilis",-11.207559089693724],["remarquer",-11.208496060335962],["Monc",-11.209127869564195],["lice",-11.210794645754884],["couvrir",-11.211186629691323],["initial",-11.214336644019467],["irection",-11.214346525815166],["over",-11.215458681525128],["hall",-11.215499465811899],["parisien",-11.216184972767815],["rich",-11.216300065801994],["photographe",-11.216422006890364],["remarquable",-11.21642200712248],["littéraire",-11.21642200838389],["satisfaction",-11.21642200918],["héritage",-11.21642200965498],["séparatiste",-11.216422018342325],["Raphaël",-11.216422019605771],["atmosphère",-11.216422022277385],["Afghan",-11.216422024856158],["étudier",-11.216422028190674],["Tokyo",-11.21642202867494],["conviction",-11.216422042806158],["populari",-11.216422955616151],["avertissement",-11.216424053115244],["personnalis",-11.216432003147549],["fragile",-11.216434801663539],["trésor",-11.216436098726163],["mensonge",-11.216448973311213],["prioritaire",-11.21645142523168],["Dijon",-11.216454419946977],["mensuel",-11.216456338485367],["thèse",-11.21646320024442],["évalué",-11.216466154551268],["triple",-11.216481141343412],["considération",-11.216483140897992],["embauche",-11.2164973989795],["alerté",-11.216498081968501],["Champions",-11.216499400746022],["roll",-11.216513339801054],["supprimer",-11.216515281087366],["Sky",-11.216532512979422],["recherché",-11.216564178038414],["meeting",-11.216578015168711],["ping",-11.21659222440952],["constitution",-11.216601985314522],["adverse",-11.21662120094731],["Mike",-11.216662449775471],["réconcili",-11.216690603842686],["accompagnée",-11.216708001247806],["douard",-11.216780033475466],["Karim",-11.216971662252618],["étonnant",-11.217175280594082],["continuité",-11.217503252451028],["pirate",-11.217684133277825],["Togo",-11.21769142209154],["finaliste",-11.218056386650659],["visité",-11.2182757869634],["Anna",-11.218372852337275],["hébergement",-11.218408582615519],["stand",-11.218564494177958],["disparaîtr",-11.218609628894539],["abordable",-11.218669014372471],["orum",-11.218718477277973],["correspondant",-11.21882443083916],["adopti",-11.218872294043095],["raciste",-11.218978613494809],["varie",-11.2192342602868],["natal",-11.219880604250907],["Didi",-11.219880951440334],["staff",-11.220101934877576],["sécurisé",-11.22010365052283],["cage",-11.220378272708906],["concentré",-11.220386542362345],["prolonger",-11.220863480119078],["bouger",-11.2210111986047],["Télé",-11.221105542232491],["restant",-11.222128028471413],["consulte",-11.22245281313656],["occupée",-11.22269923829994],["gardé",-11.222755394223702],["adaptée",-11.22320569709731],["inconnu",-11.223416498128486],["index",-11.223648252165614],["NE",-11.223960261295781],["approprié",-11.224501353958226],["grimper",-11.225022668087535],["VR",-11.225595481897084],["ourage",-11.227147844013292],["grec",-11.227166563575647],["ello",-11.228056173231995],["compliquée",-11.228249215876247],["insulte",-11.228844877484885],["repartir",-11.229827398398479],["ançon",-11.230033136659323],["couru",-11.230078417107443],["audio",-11.23052110855024],["DR",-11.230673535412642],["ario",-11.23067695351136],["cantonal",-11.231272489873206],["jeté",-11.231376349388478],["exercer",-11.232406074546182],["reporté",-11.234511285217884],["fière",-11.234661622383982],["assurant",-11.234880913965524],["exil",-11.235130981863186],["Sarr",-11.235532105885884],["amene",-11.235666910248018],["Arm",-11.236637964399895],["convenu",-11.236846232891125],["justifie",-11.237183601929726],["brill",-11.237628317255062],["diagnostic",-11.239149278791475],["Communauté",-11.239149278940424],["luxembourgeois",-11.239149305020595],["hybride",-11.239149307505715],["cosmétique",-11.23914931313222],["docteur",-11.239149321629906],["fabriqué",-11.239149344393706],["maternelle",-11.239149498584876],["confrontation",-11.23914977736057],["ralentissement",-11.239150213086402],["préalable",-11.239150239296732],["Tribuna",-11.239150323130037],["craindr",-11.239150935929711],["électro",-11.239151060666424],["suppression",-11.239151156226203],["variable",-11.23915253558707],["Standard",-11.23915292575351],["réputé",-11.239155771653753],["monétaire",-11.239158083450107],["Sahara",-11.23917921420659],["Ministre",-11.239193549829022],["ponctu",-11.239219252472857],["décrocher",-11.239226323633481],["peinture",-11.23923850934828],["caractéristique",-11.239238777884811],["obscur",-11.239255735991211],["cerveau",-11.23926037338363],["concentration",-11.23941464977953],["territoriale",-11.239429493518973],["Spi",-11.239462420143191],["uniforme",-11.239532307606083],["italienne",-11.23953647875851],["remercier",-11.23959422358785],["contesté",-11.239637160952217],["Autrich",-11.239871418689502],["dépit",-11.239896119519205],["tnik",-11.240319941445968],["assistant",-11.240340582545674],["processeur",-11.24153010677508],["chasseur",-11.241630843549911],["ransparenc",-11.241640356040634],["revienne",-11.24181556907186],["achant",-11.242061070854295],["fiscal",-11.24215452970867],["soulevé",-11.242339821118748],["islam",-11.242894929075685],["modifié",-11.243351159286107],["piéton",-11.243352519409733],["link",-11.243858879054805],["Camar",-11.243981393735345],["ouer",-11.244168338970498],["égi",-11.244255924685874],["enthousiasme",-11.245041384307845],["écriv",-11.245120416490593],["prouve",-11.245684027051901],["Belle",-11.245900959342277],["clin",-11.246108708956712],["partagée",-11.246195753638558],["Dame",-11.24663509952773],["stal",-11.24775003823245],["Park",-11.248679199369377],["ature",-11.249319980360283],["Top",-11.249342566570318],["92",-11.251440261227197],["narrati",-11.251773717950282],["mondi",-11.252339510348294],["généré",-11.252599978240271],["oya",-11.25363976563645],["compare",-11.254717120298503],["row",-11.25595483631075],["Ray",-11.256110583951008],["trip",-11.257076028680318],["ressent",-11.257267765614639],["connect",-11.25772918593102],["Ana",-11.257956583774373],["Évi",-11.25919186915534],["chrono",-11.259595831747168],["occ",-11.259913139555222],["imanche",-11.260050588067761],["correcte",-11.260401671898952],["musical",-11.26043362613694],["ovic",-11.26164631597442],["Win",-11.261741952961742],["hésion",-11.262174936975835],["hin",-11.26228498756452],["explosif",-11.262405092744341],["consécutif",-11.262405092748919],["disponibilité",-11.262405092751886],["Hollywood",-11.2624050927755],["catholique",-11.262405093034449],["inspiration",-11.262405097884614],["infecté",-11.262405100866168],["Atlantique",-11.262405163023995],["cardiaque",-11.26240531798009],["Département",-11.262405357103232],["Cheikh",-11.26240551627514],["acquér",-11.262405559388462],["anticipé",-11.262405993906405],["junior",-11.262406088952034],["prudent",-11.262410626488323],["Croat",-11.262414450516985],["cliché",-11.262419405899433],["communiquer",-11.26242192642659],["relatif",-11.262423479860951],["semestre",-11.262429590103292],["clip",-11.262432530819742],["tunnel",-11.262434652494115],["fantastique",-11.26247054305821],["ressortissant",-11.262509903547166],["Golf",-11.262530263162624],["franche",-11.262540911494108],["chaise",-11.262549272882957],["Isabell",-11.26263904748057],["Nup",-11.262700639149399],["sauvé",-11.262729297057462],["promoteur",-11.26279521323611],["Lapi",-11.262848243491343],["Anvers",-11.262956057479077],["exploration",-11.263007671225138],["blocage",-11.263026745401579],["écosystème",-11.263047919734786],["Berne",-11.263113665303228],["systématique",-11.263186141430342],["Champ",-11.263296613045862],["Messi",-11.263484092930423],["provincial",-11.263531985834387],["Kher",-11.263577353898718],["rétro",-11.263627331291953],["créativ",-11.263993867276442],["Ouat",-11.26416466261237],["93",-11.264289980868678],["ruine",-11.264405404942522],["arrange",-11.264536203638164],["revu",-11.264784572141606],["prononcer",-11.265163190281777],["examiné",-11.265458137233827],["gravit",-11.265591940129163],["Big",-11.266017577455123],["tribu",-11.26602957267006],["boule",-11.266513848423621],["Trop",-11.26668739852299],["franco",-11.26691391154381],["notion",-11.266941265934868],["concentre",-11.267102803195641],["annuler",-11.267480137172647],["chou",-11.26757761076483],["Tha",-11.267909105313226],["réclamé",-11.268695618694212],["ambi",-11.269023774214823],["céder",-11.27065035664717],["TVA",-11.27067580560799],["provoquer",-11.271339785621151],["circuler",-11.271604258051784],["revoi",-11.272533168794778],["interdir",-11.272725845759807],["Mohammed",-11.272846368744261],["inconnue",-11.27285751680959],["gir",-11.273144216446132],["sexe",-11.273226542621519],["Spe",-11.273337540792816],["connectée",-11.273447363161328],["afficher",-11.274197997758929],["étale",-11.275012952224197],["chut",-11.27546313086501],["guise",-11.275739858769374],["heim",-11.275779777374645],["lâche",-11.279392190222953],["fêter",-11.279609258253187],["fondée",-11.279853958767372],["rah",-11.280034800114699],["Yu",-11.28036822640123],["Gille",-11.28114516455001],["citation",-11.281441583771286],["recru",-11.282166856771845],["Africa",-11.282721419115678],["Roi",-11.284122705037204],["agisse",-11.284896139395634],["peint",-11.286003657432136],["ä",-11.286214616553785],["philosophi",-11.286214616554544],["détruir",-11.286214618650309],["étudié",-11.28621462453273],["empreinte",-11.28621462633467],["financé",-11.286214896632183],["atterri",-11.286215955576248],["ricolore",-11.286216452908324],["chaussure",-11.286216606862986],["capture",-11.286217847038305],["sincère",-11.286218984606855],["funérai",-11.286224695616912],["Ahmed",-11.286231571244993],["arrivai",-11.286241556106328],["SNCF",-11.286245045785847],["Horizon",-11.286253674799898],["vérifier",-11.286285167353363],["complémentaire",-11.28629855381559],["Yanni",-11.2863332251042],["rédaction",-11.286337639015672],["Bruge",-11.286414432036333],["Liver",-11.28642528080665],["Clément",-11.286457780155983],["intervenant",-11.286488333819964],["show",-11.286489526953325],["progresser",-11.286506369841268],["NFT",-11.28670812489665],["variol",-11.286753050214205],["Rabat",-11.287012292097577],["nulle",-11.287149889416112],["Mauric",-11.287159167427856],["météorologique",-11.287159860223795],["charbon",-11.28722513391174],["soulage",-11.287469272109396],["cam",-11.287492958202032],["paquet",-11.287747683493553],["passeport",-11.287805575224876],["liquide",-11.287832004855826],["Jay",-11.288508822797002],["présidé",-11.288564682106232],["own",-11.288663292477459],["Chels",-11.288892782747045],["poing",-11.288938407105686],["Mada",-11.289127686160215],["indiqu",-11.289430559650988],["inutile",-11.289951562928906],["enregistrement",-11.289986746660931],["expérimenté",-11.29032698081093],["aborder",-11.291616725113698],["posté",-11.29175808523745],["alloir",-11.291983375884563],["effectue",-11.292308841999649],["Place",-11.29256341634793],["terie",-11.293437188741507],["cure",-11.293781550711827],["témoign",-11.29448369213264],["jus",-11.294718864373444],["Hama",-11.294868730363794],["Racin",-11.296717720874824],["expose",-11.29686563205096],["cassé",-11.297083564759834],["alpin",-11.29724880954225],["japonaise",-11.297306898065813],["croisé",-11.298667885648397],["pique",-11.29945925440994],["survivant",-11.29989794367815],["réveil",-11.300002282935143],["maxima",-11.301611218642616],["verser",-11.30270390090389],["coûter",-11.303316435497058],["averse",-11.304199048101763],["Berg",-11.304400927791741],["Conn",-11.304541187365448],["aube",-11.304560833910337],["félicite",-11.305984408554947],["hip",-11.306890483226624],["Group",-11.307284320950837],["Pog",-11.307414237107523],["FR",-11.308062180102109],["cote",-11.30841705115214],["résumé",-11.309427248447797],["dépendance",-11.309484122567774],["exploité",-11.309825931876016],["Green",-11.310297495052122],["guinéen",-11.310345809418715],["certificat",-11.310357720634176],["circul",-11.310494580323748],["teuse",-11.310531809563663],["interlocuteur",-11.310604860470928],["précipitation",-11.310604860557772],["configuration",-11.310604860690011],["diplôme",-11.310604863798705],["dégradation",-11.310604864012126],["reflète",-11.310604867354783],["interprétation",-11.310604872333709],["triomph",-11.310605131046948],["Rwanda",-11.310605385779837],["cannabi",-11.31060569328747],["costume",-11.31060571580654],["Sûre",-11.310607627331189],["agénaire",-11.310608207038783],["riverain",-11.310609968147663],["Telegra",-11.31061203202182],["confondu",-11.310614571862054],["Mamadou",-11.310620179038784],["sauvegarde",-11.310623486205937],["minorité",-11.310663235414175],["interrompu",-11.310663877515125],["intime",-11.310667783517989],["complicité",-11.310688933028413],["précaution",-11.31070955989104],["munition",-11.31071844982933],["FIFA",-11.310719844035079],["Luka",-11.310724407734126],["achète",-11.310728950660781],["Burund",-11.31079604288122],["peintre",-11.310796896762527],["explorer",-11.31081943246496],["Radio",-11.310823706952606],["parisienne",-11.310901200339597],["connecter",-11.310933941444754],["Sénégalais",-11.31097636911986],["accru",-11.311024135856615],["télécharge",-11.311258617062176],["optique",-11.311530337157128],["accept",-11.311934113998229],["tram",-11.311957741399059],["LED",-11.311972135875706],["prôn",-11.3123111704739],["Marocain",-11.312757735141549],["assume",-11.31304030524893],["priori",-11.313402496478565],["exigeant",-11.313591741351646],["industrielle",-11.314147454338976],["Four",-11.314306332091629],["créant",-11.31454482384846],["lieutenant",-11.315452201055127],["Cop",-11.316101434889768],["Rai",-11.316962473230987],["prière",-11.31697991883881],["Will",-11.317542609332815],["étroite",-11.317665112830648],["oto",-11.318983065953748],["EO",-11.319316457816615],["otage",-11.320188259213538],["Ving",-11.320256717256349],["Gand",-11.320480927287154],["USA",-11.321122398545452],["emporter",-11.321126323137786],["ignant",-11.32226999275231],["agna",-11.322285645877734],["payant",-11.323541469965553],["grandir",-11.325019545682409],["mettra",-11.325804947502778],["Mary",-11.326729719727844],["conformé",-11.326961044082408],["culé",-11.327557898601455],["pén",-11.328389688044128],["03",-11.328581811976479],["F1",-11.328635322344425],["débarque",-11.328900133863854],["brutale",-11.329389162853307],["tester",-11.3294717641107],["dirai",-11.329877865258274],["admet",-11.331010093818897],["attire",-11.331597384828932],["fédér",-11.332369729969557],["précéde",-11.33285940857661],["gant",-11.333648582711842],["WT",-11.333692183725617],["choisiss",-11.333874977565696],["rendra",-11.334180902293944],["Phil",-11.334823933952304],["joindr",-11.335422824925502],["Méditerranée",-11.33560486045623],["administrateur",-11.335604860456776],["protagoniste",-11.335604860494406],["Résultat",-11.335604860504802],["Gouvernement",-11.33560486067665],["enveloppe",-11.33560486088058],["camerounais",-11.335604860907104],["brûlé",-11.33560486177251],["tragédie",-11.335604862005694],["considérer",-11.33560486225929],["offensif",-11.33560488040977],["prudence",-11.335604889867245],["sauvetage",-11.335605007994747],["interruption",-11.335605049526981],["répète",-11.33560608308786],["intrigue",-11.335606705944024],["esthétique",-11.335607308295746],["domestique",-11.335608189606939],["Autorité",-11.335611940252743],["tranché",-11.335632151091055],["abstention",-11.335659036916159],["Nigeria",-11.335667107058681],["tapis",-11.335700798240463],["Abdoul",-11.335728549459352],["centime",-11.335732927953718],["Christin",-11.335793637709063],["mobiliser",-11.335800221722018],["parrainage",-11.335802852909952],["Andrew",-11.335842443028618],["ticket",-11.335919308861335],["répétition",-11.335920581752097],["Moussa",-11.335935918050147],["parlant",-11.335968355160617],["Irland",-11.336114408971632],["achevé",-11.33613560124417],["OLED",-11.336182776976836],["anticipe",-11.33629619274306],["XVI",-11.336300135591358],["bloquer",-11.336489645523216],["Act",-11.33665389140865],["denrée",-11.336719471727104],["AGE",-11.336753728299147],["environnemental",-11.336782787161681],["maï",-11.336825474875756],["réservation",-11.33693035349991],["flamb",-11.336963125382244],["Météo",-11.337131646225211],["contenant",-11.33713746289109],["José",-11.337339476904907],["itch",-11.33748730162624],["pack",-11.337602872514424],["manga",-11.337677725319987],["Thor",-11.337696486461423],["adéquat",-11.338074149064095],["barrière",-11.338244107266528],["Francis",-11.338439681741797],["ivement",-11.338781127600253],["piège",-11.338941964439076],["Drummondvill",-11.339303981817928],["merci",-11.340011951276148],["balance",-11.34057882274459],["gelé",-11.340890029395712],["circule",-11.341548262123016],["assumer",-11.342438611215854],["salariale",-11.342584437316795],["inauguré",-11.342944996989639],["malien",-11.343642363210153],["JO",-11.34410355688577],["patien",-11.344658760671615],["maximale",-11.344916309633774],["apprécie",-11.345390510226089],["lève",-11.345585160482376],["opposer",-11.345891370004612],["Marcel",-11.345930533969247],["répondant",-11.346419734619424],["installe",-11.348647399215576],["08",-11.349364995739737],["ému",-11.349832146227012],["retourné",-11.35002295772483],["manifester",-11.350032730519924],["Capitale",-11.35071426882035],["édé",-11.35104775825052],["avage",-11.351627139014722],["remplir",-11.352170258506263],["Ter",-11.352531809377728],["boire",-11.352861787510365],["allum",-11.353225185049965],["résister",-11.353749482692523],["enchère",-11.354187890811579],["anonyme",-11.354433955265035],["emplacement",-11.354918619456797],["Casab",-11.355273382935819],["assemblement",-11.35627472023159],["applique",-11.357237207571405],["versement",-11.357647229247556],["abordé",-11.357703930515306],["demandeur",-11.359142676021609],["Gran",-11.359203813142315],["royal",-11.360151420334835],["solde",-11.36075278833129],["Européen",-11.360980102495379],["lanca",-11.361003152092294],["caractéris",-11.36114477566846],["varié",-11.361227001260561],["diplômé",-11.361245886097814],["interpellation",-11.36124588617561],["Égypt",-11.361245886275153],["explose",-11.36124589605806],["formidable",-11.361245914106732],["chauffage",-11.361245995458438],["substance",-11.361246019526483],["décisive",-11.36124610681857],["performant",-11.361246257541378],["Rafael",-11.361246438764477],["Jacob",-11.361246537268165],["mosquée",-11.361246890752499],["élevage",-11.361247478366382],["dynamis",-11.36125032427347],["Juste",-11.361250599274467],["grippe",-11.361251574097727],["bulletin",-11.361257675619438],["cryptomonnaie",-11.3612666394099],["récupération",-11.361271031350174],["Provenc",-11.361281301048017],["burkinab",-11.361284053521912],["apparence",-11.361298262355003],["roquette",-11.36138142659712],["dougou",-11.361386191704254],["Château",-11.361414971259244],["bagage",-11.361423179899006],["divisé",-11.361470321590826],["apparente",-11.361476660618708],["gestionnaire",-11.361516149901352],["schéma",-11.361520714700967],["folie",-11.361564069588901],["antenne",-11.361576027971877],["fascin",-11.361639972228462],["empire",-11.361687590888451],["chrétien",-11.361850968421527],["demandai",-11.361874739415487],["sache",-11.361924892384634],["amako",-11.362116477344397],["sanglant",-11.362133259014252],["respir",-11.362146737022922],["inspection",-11.362240358734931],["démenti",-11.36234171338689],["Armée",-11.362487143870878],["attiré",-11.362685556718695],["Arnau",-11.362807462999584],["déploré",-11.362812289752837],["brillant",-11.362827099874139],["XX",-11.362963105494547],["proie",-11.363013567459028],["UD",-11.363133122611726],["axé",-11.363900968185757],["rendement",-11.36405973175613],["Lang",-11.364459186852134],["report",-11.364544814488447],["back",-11.364551586621603],["fameuse",-11.364564516267592],["cript",-11.364629970310531],["fréquente",-11.364688577334675],["prêté",-11.364892329455081],["hir",-11.364981514193852],["team",-11.365018738487061],["modéré",-11.365591134013911],["dominant",-11.366734868542185],["noise",-11.367416901949895],["rondelle",-11.367675907133744],["primé",-11.367852129516862],["ailier",-11.367923351978442],["Bertra",-11.3679284551529],["amuse",-11.368279389232061],["igné",-11.3688589864271],["citer",-11.369167292384073],["canal",-11.369538522611514],["erre",-11.36997823930226],["regret",-11.372436966828152],["Abb",-11.375941669382712],["hop",-11.37628596978022],["envisager",-11.37640199266896],["Maire",-11.376745740768412],["Rio",-11.376948485109725],["couver",-11.378188103405833],["ignan",-11.378311633213922],["correct",-11.378341718205757],["Pix",-11.378447608408166],["référ",-11.378652713455647],["nié",-11.379757675123818],["maîtrise",-11.379798829781606],["compteur",-11.379887108840899],["stat",-11.380363099555908],["deuil",-11.381535141798611],["assiste",-11.3815392724901],["prêter",-11.382228867355552],["détour",-11.38248775919153],["3000",-11.382506332005116],["détourne",-11.382704158583046],["Ath",-11.382743850543038],["pente",-11.383310337755596],["illégal",-11.38397588436267],["Alexand",-11.385057177485802],["formul",-11.385750694120635],["Blo",-11.38576460748587],["apparaîtr",-11.386384848561049],["explor",-11.386648301625204],["occidental",-11.386780956406263],["stabilis",-11.387522316141487],["juridiction",-11.38756167557128],["rémunération",-11.387561675579184],["ferroviaire",-11.387561675641404],["détecté",-11.387561678481276],["penalty",-11.387561684127803],["synonyme",-11.387561689670523],["Élysée",-11.387561698066273],["perquisition",-11.387561745875928],["challenge",-11.387561978946872],["complot",-11.387562743197023],["Montpelli",-11.38756302161972],["allégation",-11.387563039637477],["mutation",-11.387564083088563],["Fernand",-11.387565506892127],["imaginé",-11.387565845939635],["poignée",-11.387565926350405],["agressé",-11.387566092032234],["historien",-11.387566292515604],["consensu",-11.387566740129522],["Hôtel",-11.387582963747885],["carbure",-11.387599118725284],["raisonnable",-11.387606731230672],["épais",-11.387611244226331],["renchéri",-11.387622358290969],["dérive",-11.387655055337502],["École",-11.387662289391127],["blague",-11.387713348045192],["activiste",-11.387771980592337],["colline",-11.387775446493244],["Sorti",-11.387798854431537],["provocation",-11.38781716282587],["recensé",-11.387919406715456],["récession",-11.38794915296886],["iranienne",-11.387959686036528],["Nik",-11.387982522890665],["renonc",-11.388336332364293],["brésilien",-11.388407557300207],["Antho",-11.388430570754567],["tissu",-11.388467729497604],["Master",-11.38872962697096],["simul",-11.388834470292576],["visibili",-11.388942142155518],["mérité",-11.389126166424083],["révision",-11.389302100792545],["partition",-11.389378619062926],["CNR",-11.389817163904649],["pêcheur",-11.389851918510875],["touchant",-11.38991958506593],["Ghan",-11.389957718879199],["pilot",-11.390040262040458],["Chant",-11.39135168613975],["panique",-11.391362872982286],["suspens",-11.391850758999512],["restreint",-11.39195916615204],["descendr",-11.392465937150055],["merveille",-11.39307798405488],["éclaté",-11.394518203442658],["buteur",-11.394678202158067],["comté",-11.394831818345335],["Gagn",-11.394872890170817],["mange",-11.39496254474088],["break",-11.395041310718696],["chauffe",-11.395156775903065],["maîtriser",-11.395385277408092],["Watch",-11.39808142978656],["ètement",-11.398098460571184],["grain",-11.398539722810149],["Aï",-11.398652715173242],["capit",-11.399031542330167],["mortel",-11.39927374535048],["Spu",-11.399646693694615],["estivale",-11.39968347944619],["cyclable",-11.399866398603852],["Lille",-11.40037531198692],["ransition",-11.400950526116977],["conteste",-11.40259967784117],["consent",-11.403270509625855],["apparten",-11.403560144072191],["puni",-11.404522216563763],["Steve",-11.405280729784993],["raz",-11.408145561419179],["aigu",-11.408543651191799],["5000",-11.408965999980225],["gissant",-11.409077916698502],["adapt",-11.410638742608104],["diab",-11.410676808826244],["facilit",-11.41075745689205],["rassemble",-11.412487285424158],["domine",-11.41276103794066],["inédit",-11.414239087995355],["légendaire",-11.414588704793386],["vétérinaire",-11.414588705570583],["féministe",-11.414588715030824],["affaibli",-11.41458871764667],["souffrir",-11.414588733453286],["Ndiaye",-11.41458880139179],["remboursement",-11.414589024637193],["Gérald",-11.41458906443263],["meurtrier",-11.414589431108613],["ambulance",-11.414589688999794],["bienveillan",-11.414589757415893],["cortège",-11.414590021812431],["imposant",-11.41459018011571],["échéance",-11.41459068499914],["contracté",-11.4145925398114],["exigé",-11.414594104879502],["géopolitique",-11.41459692995957],["Toulous",-11.414601473760928],["royaume",-11.41460329026654],["trailer",-11.41460381642251],["passionnant",-11.414635414935947],["exclusion",-11.414661851494474],["canicule",-11.414680488265578],["délibéré",-11.414701611220474],["Confédération",-11.414753777880032],["langage",-11.414768705145482],["marchandise",-11.414770967401193],["douzaine",-11.414846422897707],["plafond",-11.41488404902402],["Kenya",-11.414922889124846],["amorce",-11.415014505165239],["Commerce",-11.415017760222549],["diminuer",-11.415155565075668],["onsieur",-11.415197580989208],["renoncer",-11.415223211774919],["Orange",-11.415284717364269],["spécialité",-11.415394916972831],["Khark",-11.415440761339017],["Bros",-11.415837941590382],["olsonar",-11.415845304498411],["sobri",-11.416231591074194],["supprimé",-11.416299068102656],["supermarché",-11.416505927345591],["Acadie",-11.41654775847405],["emmené",-11.417583255692193],["110",-11.4180339701772],["exécuté",-11.419113053760281],["cub",-11.419359758840379],["ouvain",-11.419814248926086],["Tunis",-11.420007483051489],["décal",-11.420639116741855],["aboutir",-11.420662077792919],["Poli",-11.422574039500866],["qualifie",-11.423426135712589],["zan",-11.423682625178696],["appare",-11.424154847146289],["blanchi",-11.424914584889427],["opéra",-11.425640669457987],["prédi",-11.426577816105828],["formelle",-11.426600650254475],["papa",-11.427914755243929],["présentent",-11.428992851762178],["bloqu",-11.429570486068288],["transforme",-11.43004557871473],["rog",-11.432487083654664],["illy",-11.432563478190186],["otti",-11.433659859343308],["CO2",-11.434120564134226],["errer",-11.435250567353924],["cence",-11.436030016454808],["Marco",-11.438253460352524],["déploy",-11.438488699458151],["réside",-11.438895019191937],["Even",-11.43907834125471],["kins",-11.439145190846979],["consta",-11.439257705541046],["cadr",-11.44073199215172],["institut",-11.441741767011408],["meuble",-11.442119306136929],["marchand",-11.442199514765797],["quarant",-11.442285076721479],["crypto",-11.442343975027423],["trajectoire",-11.442366480387124],["scénariste",-11.442366480411371],["ministériel",-11.442366483171362],["trottinette",-11.4423664845422],["intègre",-11.442366491805103],["thérapie",-11.442366516499396],["humoriste",-11.442366556903794],["permanence",-11.442366694671595],["agresseur",-11.442366831647941],["câble",-11.442367814291567],["fleuve",-11.44236805882627],["envisagé",-11.44236848289654],["préventive",-11.442368690870955],["Charlotte",-11.442369047037177],["Trembla",-11.442370191666777],["distributeur",-11.44237121260173],["Panther",-11.44237235547171],["mbledo",-11.442375451329104],["Crimée",-11.442381119293067],["Israélien",-11.44238186204144],["Grégo",-11.44238403371694],["clandestin",-11.442389862528692],["attribue",-11.442390322871853],["pédagogique",-11.442397472062812],["éternel",-11.442400487292495],["innovant",-11.442403381873714],["Munich",-11.442411607971508],["galerie",-11.442422547620703],["avéré",-11.442451200553768],["vêque",-11.44249610618145],["indemnité",-11.442545923988206],["examiner",-11.44254680891954],["guitar",-11.442555059362379],["définition",-11.442616127390004],["innocen",-11.442639153886466],["boulot",-11.442864349628548],["suppl",-11.443068616614445],["converti",-11.443104633416144],["curieu",-11.443131273701448],["famili",-11.443156542509938],["Second",-11.443184622245244],["tube",-11.443343672696807],["panier",-11.443424813622975],["naise",-11.444117980659067],["umeur",-11.444586163347514],["serré",-11.4446688390173],["visuel",-11.444890959543201],["sonore",-11.445305958329733],["terminal",-11.44542650169177],["hing",-11.445645168011998],["ibal",-11.445714486157202],["éprouv",-11.446020815520875],["Boy",-11.446174813260297],["inégalité",-11.446191575216147],["tabac",-11.446814392617753],["réacteur",-11.448037903571224],["grille",-11.448154478643188],["montage",-11.448161944397295],["Rob",-11.448763592459882],["composer",-11.449247075028378],["remplacement",-11.449673725872634],["conquis",-11.450600640989173],["1500",-11.45086027410639],["démarrer",-11.45088571932734],["Jak",-11.451094160295831],["Cup",-11.451191913315785],["125",-11.45276740442821],["umba",-11.453290839117782],["Fay",-11.453708884280042],["déclar",-11.454378068368554],["master",-11.45438955565183],["manette",-11.454953557363055],["Kam",-11.455226218339646],["rattrap",-11.455832012314826],["Marchand",-11.45664347463117],["rouler",-11.457634755675754],["affich",-11.458487067314689],["Moyen",-11.461537650637624],["dévoiler",-11.462873362806516],["21h",-11.463121177434708],["raid",-11.463154889027498],["Mobil",-11.465449522489955],["balade",-11.465534875850178],["virtuel",-11.465630647017283],["écarté",-11.465733306462306],["odeur",-11.46734046960861],["Chap",-11.468103289970264],["connaissai",-11.468412362871408],["oût",-11.468971618177743],["honte",-11.469173337078706],["soumettr",-11.469648718239728],["distinct",-11.470567439570695],["stimul",-11.47065082729144],["sacre",-11.470789964113706],["´",-11.470937908947167],["accélération",-11.470937908949502],["remplaçant",-11.47093790980412],["controversé",-11.470937943794391],["Journal",-11.470937983441233],["contraste",-11.47093801240947],["togolais",-11.470938039416097],["pelouse",-11.470938150696085],["complexi",-11.47093817542655],["motivé",-11.47093836115236],["orchestre",-11.470938388896656],["élaboré",-11.47093848636765],["pavillon",-11.470938721345991],["gazoduc",-11.470938809403892],["protestation",-11.470938915182924],["inématographique",-11.470939183967047],["épicerie",-11.470941275099843],["pixel",-11.47094138777113],["altitude",-11.470944500191653],["éthique",-11.470946641723163],["renouvelé",-11.470947750627918],["Homme",-11.47095535212282],["liaison",-11.470959434297118],["inscriv",-11.470993706813324],["diminution",-11.471007768103282],["choqué",-11.471012651803829],["Quoi",-11.47101607795295],["accroît",-11.471022107373226],["posture",-11.471145458640866],["Anglais",-11.471167278248405],["coréen",-11.471177917511737],["Travail",-11.471184607513164],["distinction",-11.471313381729798],["randonnée",-11.471360313585048],["requête",-11.471531103046395],["variété",-11.471582522195343],["recruté",-11.471614872398003],["comprenne",-11.471625712596133],["arbor",-11.471751001442259],["gâch",-11.471814215384837],["Adrien",-11.471867197049043],["faiblesse",-11.47196777617289],["taxi",-11.472484017629345],["bilatéra",-11.472575230450447],["herbe",-11.472576238734614],["tracé",-11.47258438221591],["Concr",-11.47299299841866],["ouvrant",-11.473038134426663],["OG",-11.473168717319624],["vatar",-11.473565207986496],["écouteur",-11.473576294732181],["turque",-11.47372547126834],["malienne",-11.473790345079587],["dépens",-11.47384628014069],["perturbé",-11.473968634735021],["éline",-11.474202965020119],["activé",-11.474216344242972],["REM",-11.475457143509825],["réparer",-11.47600508372647],["180",-11.477964972324603],["rick",-11.478193645354118],["job",-11.478346081959579],["incapable",-11.478521478677626],["mortelle",-11.479237143370277],["Benz",-11.479884269007524],["Aviv",-11.480185893415003],["importé",-11.480228553231886],["paye",-11.480503717675173],["Unite",-11.481543828121755],["dalle",-11.481548586615705],["plonger",-11.483720912000742],["cesser",-11.48418670749962],["Ivan",-11.485733497456723],["bach",-11.487708904416298],["Bang",-11.490048957426831],["chanter",-11.490627418910222],["tilité",-11.493550822831233],["Barc",-11.493936652953787],["compose",-11.494506186266701],["lassan",-11.495166319442186],["diffus",-11.49551281531746],["travaillai",-11.495707732378047],["nana",-11.495991749383808],["insécurité",-11.498560622432693],["Cata",-11.498947072999774],["fusil",-11.499735777794015],["intérim",-11.500210530725933],["catastrophique",-11.500349673653151],["accéléré",-11.5003496740085],["cohérence",-11.500349674063738],["pratiqué",-11.500349674132408],["Église",-11.50034967491767],["CEDEA",-11.500349676714247],["psychologue",-11.500349677538185],["maîtrisé",-11.500349683127016],["révéler",-11.500349689635987],["injection",-11.500349706665263],["artifice",-11.50034974471175],["manifesté",-11.500349758276267],["Énergie",-11.500349772154182],["propagand",-11.500349847466804],["éloigné",-11.500349882338947],["Global",-11.50034999877699],["inévitable",-11.500350085835338],["épargné",-11.500350135779982],["arrivant",-11.50035018385542],["homicide",-11.500350211453712],["téléviseur",-11.500350280001722],["rembourser",-11.500350428163468],["promenade",-11.500350868566883],["lizzard",-11.500351263967968],["conservati",-11.50035131363018],["récompensé",-11.500351356737717],["America",-11.50035253166356],["protège",-11.50035289411555],["diesel",-11.500357277970721],["incliné",-11.500359543333463],["slogan",-11.500393338396918],["créature",-11.500394873405904],["paralys",-11.500422370374647],["déborde",-11.500423986840689],["malaise",-11.500431047539328],["renverser",-11.500458954565604],["Space",-11.500460302094822],["délivré",-11.500527227687407],["définitif",-11.50053716455398],["concession",-11.500545527367052],["façade",-11.50060187332977],["pilier",-11.500646132934603],["progressiste",-11.500932753052291],["Ancien",-11.500965774734595],["Hugh",-11.501027996854951],["inculpé",-11.50102937459926],["Régi",-11.501074794522866],["Titan",-11.501412279532264],["dérange",-11.501637830123908],["charte",-11.501674037551021],["virage",-11.501738994178325],["entrepreneuria",-11.501925213003709],["metteur",-11.502097417102815],["précieu",-11.502247473179798],["redonner",-11.503050203926389],["Romain",-11.503102715842651],["riposte",-11.50357865839273],["actu",-11.503663067382359],["baie",-11.504523224388313],["erry",-11.504848193689762],["Stra",-11.50540225019214],["souhaitai",-11.505445945837897],["bulle",-11.505504092598823],["sanctionné",-11.505838971641499],["cherché",-11.505867092803006],["ition",-11.505939454398245],["prétendu",-11.506379422538995],["sign",-11.50661464515435],["signalement",-11.507356560255475],["Shaw",-11.507356931283802],["coté",-11.507563649763998],["oko",-11.508299049599685],["conten",-11.509081229628162],["Tro",-11.509103895569357],["avoué",-11.51017202871994],["Baie",-11.510193728229176],["magique",-11.511056785562868],["ralentir",-11.51115831004268],["Tch",-11.512408398812358],["insoumis",-11.512500204560931],["nourrir",-11.512584135214517],["idé",-11.512962609665328],["renseigne",-11.513491507598268],["servant",-11.513628513462722],["apprécier",-11.51423602137662],["banni",-11.514908359962991],["itan",-11.515363896657796],["140",-11.517367210873196],["iger",-11.51801365781727],["définir",-11.518221705203356],["Liz",-11.518350860724695],["cacher",-11.518516146436653],["valid",-11.518624143234254],["Coul",-11.518664817187693],["restai",-11.518930378981006],["illard",-11.519229765081365],["strict",-11.51929155473718],["cave",-11.520110545836319],["empare",-11.520287283042487],["Souven",-11.521030070129061],["UR",-11.521355430849926],["handicapé",-11.521558035088097],["mobilis",-11.521819226185396],["Jim",-11.52252467925549],["Rouman",-11.522537014719937],["chao",-11.522689286709646],["satisfai",-11.522762577620181],["descendu",-11.523087362818508],["Thé",-11.523209211904382],["Villa",-11.523589919169343],["étonne",-11.524021711546023],["genou",-11.524061918911869],["andry",-11.52410352360907],["coli",-11.525855842345681],["paie",-11.52663769902842],["oalition",-11.526887774077313],["UF",-11.527299735187768],["ïv",-11.527331663664885],["enregistre",-11.527382372273296],["lection",-11.527469276659987],["mettai",-11.528468151181762],["régn",-11.5285598386213],["boycott",-11.528920428242017],["désol",-11.529161125905643],["Ker",-11.53004016726386],["bibliothèque",-11.53065270395608],["agglomération",-11.530652703956083],["hebdomadaire",-11.530652703956083],["infirmier",-11.530652704125837],["réglementaire",-11.530652705640303],["Virgini",-11.530652705983833],["aménagé",-11.53065270782939],["successeur",-11.530652708527466],["infligé",-11.5306527121456],["verdict",-11.530652740734016],["détecte",-11.530652902580357],["incidence",-11.530652907479368],["crédible",-11.530652909632408],["cauchemar",-11.530652960582284],["Gérard",-11.530653029852207],["mystère",-11.53065325572486],["toxique",-11.530653448893673],["mutuel",-11.530653449035256],["peloton",-11.530653461326839],["dépistage",-11.530653468028245],["asiatique",-11.53065383708122],["drastique",-11.53065418367514],["Zurich",-11.530654816658892],["détresse",-11.530656301045033],["confirma",-11.530658333783578],["blindé",-11.53066015140033],["déjeuner",-11.53066180243215],["fichier",-11.530662801314127],["décevant",-11.530663519825376],["arrache",-11.53066624336848],["respiratoire",-11.530671586739741],["tronçon",-11.530671714016538],["coopérative",-11.53067243967312],["adepte",-11.530675887556647],["incarné",
[...]
