{"version":"1.0","truncation":null,"padding":null,"added_tokens":[{"id":0,"special":true,"content":"<UNK>","single_word":false,"lstrip":false,"rstrip":false,"normalized":false},{"id":1,"special":true,"content":"<SEP>","single_word":false,"lstrip":false,"rstrip":false,"normalized":false},{"id":2,"special":true,"content":"<MASK>","single_word":false,"lstrip":false,"rstrip":false,"normalized":false},{"id":3,"special":true,"content":"<CLS>","single_word":false,"lstrip":false,"rstrip":false,"normalized":false}],"normalizer":null,"pre_tokenizer":{"type":"Whitespace"},"post_processor":null,"decoder":null,"model":{"type":"Unigram","unk_id":0,"vocab":[["<UNK>",0.0],["<SEP>",0.0],["<MASK>",0.0],["<CLS>",0.0],["s",-2.7309153067033822],["de",-3.0272292465046853],[",",-3.3537801395304303],["a",-3.4818865287697847],["la",-3.57839085478364],[".",-3.593235280161611],["que",-3.828667376005889],["en",-3.876315411472536],["e",-3.9167135611864357],["el",-3.917316234500742],["y",-3.972680699933223],["es",-4.175265056195759],["o",-4.533751485490079],["los",-4.636267480506408],["n",-4.6507489211631174],["ó",-4.733265851809518],["un",-4.80903528724283],["del",-4.847971471966895],["ción",-4.897151401295783],["con",-4.920208070148924],["por",-5.084088507511954],["para",-5.122131520331667],["una",-5.2228556125377725],["no",-5.261260574861918],["su",-5.268045080076574],["las",-5.276871895688734],["al",-5.32434136780334],["l",-5.341632015647104],["lo",-5.456643927226276],["El",-5.654379325376349],["más",-5.725772336999743],["“",-5.759012780072705],["r",-5.76995174625031],["La",-5.825825464558678],["ha",-5.831748126957983],["\"",-5.947497434446129],["d",-5.94949053271335],["mente",-5.952777851621779],["como",-5.964018154928512],["A",-6.039304536871532],["ón",-6.153037636366909],["este",-6.1609752516375345],["En",-6.184952811471669],["do",-6.202955131635729],["(",-6.342010751092699],["mos",-6.372043262775401],[":",-6.390608241923541],["on",-6.393930367725217],["esta",-6.4103654931604215],["t",-6.436064334744001],["fue",-6.460344236284968],["ciones",-6.488687291239277],["si",-6.4917870018170625],["S",-6.507594521561602],["i",-6.5102079405239355],["u",-6.528702434755992],["dos",-6.577214879350391],["sus",-6.594792751739384],["m",-6.599683831181304],["”,",-6.655912704706333],["-",-6.659138271757566],["pero",-6.66391909744361],["ndo",-6.685737433154909],["re",-6.693942035485705],["tiene",-6.721353806304604],["años",-6.730131566989034],["ron",-6.772689245600848],["c",-6.772729194102295],["te",-6.781789875101664],["T",-6.785350412487437],["también",-6.797571315366607],["está",-6.802535090818788],["z",-6.81596015255665],["in",-6.8322791978985045],["día",-6.837891154706799],["sobre",-6.851510160702368],["p",-6.856596496337005],["á",-6.862992968319508],["han",-6.871489904940857],["entre",-6.886285902840557],["C",-6.911033139309151],["me",-6.929984963290707],["ser",-6.943785191024633],["”.",-6.967311453800985],["son",-6.975135289166856],["«",-6.976080647900362],["Los",-6.978668775260893],[")",-6.981746944770784],["»",-6.9851262491178545],["”",-6.999968399292962],["todo",-7.025905321379023],["20",-7.029666923239814],["ar",-7.032083297953276],["puede",-7.0511116794072155],["%",-7.053476305187782],["desde",-7.056069274255678],["parte",-7.056321950328737],["muy",-7.075867265455365],["é",-7.093550951652863],["país",-7.095678691861668],["mi",-7.116933682708754],["año",-7.119710536447402],["va",-7.1212045370874275],["1",-7.121691021675978],["No",-7.125735975333699],["Por",-7.134839511787123],["hasta",-7.147914741120176],["R",-7.167385152806676],["ando",-7.181545862024052],["Es",-7.192270377828598],["De",-7.193597741660708],["E",-7.19555803989643],["ía",-7.1990217020344245],["ante",-7.204131393483481],["P",-7.206552238797541],["sin",-7.209785763954175],["L",-7.228954418816037],["personas",-7.2350148504778256],["donde",-7.2365725339017235],["dij",-7.246270542000085],["hay",-7.2485308058906135],["cuando",-7.250044448606871],["contra",-7.258202816124313],["co",-7.270969372861787],["F",-7.277139252780296],["ni",-7.2923816619253055],["caso",-7.303598513047995],["ba",-7.305182824705483],["2",-7.311708827451331],["eron",-7.314579732676906],["ada",-7.323956032998761],["19",-7.324381619793083],["idad",-7.332329108698322],["Y",-7.332841597818873],["hora",-7.336082674193783],["toda",-7.3378338916631245],["ver",-7.341010831180559],["quien",-7.360193240998026],["ado",-7.368664275947551],["era",-7.369147925407914],["h",-7.373902459112638],["ta",-7.3758688596730995],["egún",-7.381576395928745],["án",-7.38929005658527],["forma",-7.390292620489947],["ca",-7.391023009028919],["Se",-7.406053773450756],["momento",-7.439833177100712],["3",-7.445054521312173],["durant",-7.446711135977314],["tiempo",-7.451221347679518],["¿",-7.451720369070993],["f",-7.463010222309563],["?",-7.4703985067159335],["g",-7.4759103594526],["había",-7.4775562466614245],["5",-7.4792425536144505],["N",-7.49756043545353],["O",-7.499091586137621],["millones",-7.501420256292458],["todos",-7.506431115589224],["\",",-7.510928253041624],["mejor",-7.513227194957651],["solo",-7.531238324390236],["'",-7.533176243042112],["emos",-7.543879017575609],["ras",-7.546915892056083],["hacer",-7.5470757132778665],["di",-7.550067699796395],["G",-7.551927861247119],["porque",-7.561552166585592],["ti",-7.561871493581487],["tras",-7.567192533849675],["Al",-7.569627578954977],["vida",-7.571272939401206],["están",-7.572537195367051],["cuenta",-7.57653174853725],["lugar",-7.577750996484028],["Con",-7.5792181121798],["to",-7.580106476445746],["equipo",-7.580590063704487],["hace",-7.582716389684631],["4",-7.583283466425388],["vez",-7.5851959116924865],["nuevo",-7.5885763149813785],["Estado",-7.591010321936676],["les",-7.593049550186927],["cada",-7.597252545952552],["uno",-7.597918647642388],["partido",-7.609823832544117],["mismo",-7.610991466158004],["sido",-7.611576847339601],["nos",-7.612502729643918],["gran",-7.62133275911799],["b",-7.624312529517669],["semana",-7.6283419654935],["primera",-7.629561130201722],["és",-7.641946191255581],["mayor",-7.6425215583312704],["ro",-7.649834082834981],[";",-7.656117426217692],["otros",-7.657164511530309],["presidente",-7.660042234691369],["\".",-7.666280079051392],["tres",-7.668705790306442],["tu",-7.676345476167375],["Si",-7.6824303896475525],["así",-7.684608032110249],["ten",-7.685430443523478],["B",-7.686901891850683],["ico",-7.687880830639769],["después",-7.694860409726803],["último",-7.696973183879718],["M",-7.700671828264198],["pasado",-7.7054544038399735],["nueva",-7.7063956620864955],["embre",-7.710680981385808],["6",-7.725849294167944],["ex",-7.732780636182501],["social",-7.733159351505666],["medio",-7.736167027976395],["tanto",-7.73640881128426],["10",-7.74722169286939],["será",-7.750320491195163],["er",-7.751175314314327],["bien",-7.755586137932023],["D",-7.759320901819409],["Esta",-7.762249988640735],["vi",-7.763038763063826],["ciudad",-7.763748548229517],["iendo",-7.770349108592822],["esto",-7.771668941993307],["Ademá",-7.776405294479348],["U",-7.777337049255466],["tener",-7.781551042814328],["mil",-7.786800952120062],["hecho",-7.787899231724351],["trabajo",-7.797831082657231],["otro",-7.803163662973512],["í",-7.804680187141283],["Pero",-7.821691394972306],["tan",-7.821722657540285],["menos",-7.823867312376963],["8",-7.827117894939805],["ión",-7.829273199144126],["final",-7.8298228958237415],["antes",-7.830067032746045],["2022",-7.831522925349302],["punto",-7.844171226594903],["rse",-7.851889412644775],["Lo",-7.854071806576476],["das",-7.856548440403667],["uego",-7.863382341570684],["mucho",-7.863534355883999],["000",-7.864799161377902],["I",-7.866599936930841],["Las",-7.868133110267158],["empresa",-7.869809626780913],[").",-7.8756251264516415],["primer",-7.878927045423904],["importante",-7.880685934114495],["Este",-7.8819896616451475],["7",-7.8920290677344225],["acuerdo",-7.893697517869934],["Para",-7.8951009773308485],["),",-7.895328403481072],["manera",-7.903415548122049],["ahora",-7.907017483241048],["mundo",-7.910744589312656],["k",-7.913716786917776],["ra",-7.918568986950052],["‘",-7.922873780941663],["qué",-7.926151496317272],["familia",-7.939912942891562],["estado",-7.940271621031221],["estos",-7.941990018093544],["v",-7.943962520578796],["situa",-7.945867726491033],["estaba",-7.949624892724932],["zona",-7.950934199374515],["ir",-7.953065659651934],["tuvo",-7.954580505820903],["aron",-7.954967213528803],["V",-7.957344297230824],["gobierno",-7.95789364503636],["Gobierno",-7.961214527353785],["9",-7.966556540171296],["embargo",-7.9695653094874785],["Sin",-7.974017006192944],["30",-7.974445705684407],["proyecto",-7.978902643024255],["Su",-7.97928537316058],["empre",-7.986970811263494],["servicio",-7.987332721677177],["nuestro",-7.992467126360389],["estar",-7.995060319028668],["Un",-8.000979342693157],["hoy",-8.00575311591178],["nivel",-8.008135986467662],["casa",-8.008209792505088],["ve",-8.00889225577887],["algo",-8.012301151971176],["endo",-8.01491271279341],["go",-8.033609353728544],["trav",-8.034574359960533],["grupo",-8.040807387331553],["ri",-8.041719815118984],["informa",-8.04586795241188],["debe",-8.046377541245505],["ci",-8.046810429046364],["ría",-8.048534838257298],["mo",-8.049350610116099],["política",-8.049852628347917],["poco",-8.05046709974993],["mient",-8.054299666417425],["18",-8.059603501504725],["cual",-8.06366936466932],["sión",-8.068009921350146],["Nacional",-8.068217678857145],["ma",-8.07139480365348],["poder",-8.074462622975473],["tipo",-8.092054449749096],["podría",-8.105114732455842],["San",-8.108172375381669],["12",-8.114191088601594],["total",-8.115002003713737],["’",-8.11588002738225],["dar",-8.116939028100933],["hombre",-8.117522255412187],["Esto",-8.122539765724381],["15",-8.124372368910816],["fin",-8.134045002985903],["Una",-8.13468768000968],["otra",-8.134878603271757],["ambién",-8.135563838226709],["problema",-8.137154101778705],["sector",-8.140205096575553],["autoridad",-8.145298802967947],["haber",-8.1511742291688],["alguno",-8.154205238608238],["medida",-8.159549231440904],["trata",-8.16618028077432],["Méx",-8.171455343181847],["mucha",-8.176537198525605],["nada",-8.177880948568943],["miento",-8.178521934914981],["programa",-8.180145646503792],["cambio",-8.184242195283197],["nuestra",-8.190093534188968],["za",-8.191408568723833],["rá",-8.196129307155216],["actividad",-8.198540251107358],["meses",-8.202647668506057],["proceso",-8.20393002374588],["ones",-8.20401567155867],["bajo",-8.20551904058442],["última",-8.214365252105964],["España",-8.219802395499721],["él",-8.221857276500852],["gente",-8.224171516437922],["historia",-8.225204163894514],["principal",-8.227369731734807],["centro",-8.23066068169202],["vía",-8.236595677730499],["cosa",-8.240673715848065],["local",-8.24442568936135],["seguridad",-8.2446480845129],["2021",-8.250932249610855],["agua",-8.251266734335234],["junto",-8.255297212447353],["/",-8.255990284445309],["tenía",-8.267362124171687],["otras",-8.2702027718762],["cuatro",-8.270666164218758],["cómo",-8.274362455069046],["alguna",-8.276358105273456],["Cu",-8.277763606117599],["señal",-8.2786109662534],["salud",-8.28079965022938],["general",-8.280998338194191],["hiz",-8.289509851145265],["Unidos",-8.289902766954182],["0",-8.2902723552506],["Re",-8.294791214779405],["dato",-8.297881693258285],["mar",-8.298735020607525],["ju",-8.301467244317235],["resultado",-8.307445431260923],["Ucrania",-8.30990241551726],["ntro",-8.316409046792131],["posible",-8.32158445880932],["11",-8.32482347897125],["casi",-8.327269546831417],["sigue",-8.327980306442953],["pa",-8.329381160964726],["nacional",-8.330436971649837],["frente",-8.331246289674272],["próximo",-8.332549404923906],["14",-8.332932334583738],["oficial",-8.33343242275804],["pi",-8.33518726302583],["bi",-8.33815771944746],["H",-8.34148390607886],["personal",-8.344435190297768],["derecho",-8.345927988109032],["dio",-8.346823440276506],["dor",-8.34689843156637],["Me",-8.35130592170999],["actual",-8.35436101915995],["ga",-8.355159800259209],["número",-8.355721282424804],["w",-8.357233053716506],["encuentra",-8.358192656689601],["persona",-8.359245026962231],["dólar",-8.359461685371066],["euros",-8.36085282189699],["17",-8.364201397124258],["grande",-8.368070443721173],["misma",-8.36866720309401],["ent",-8.369922265155566],["especial",-8.370239111622464],["sí",-8.371095090115519],["sistema",-8.371987812598814],["ban",-8.373208904055396],["niño",-8.375260642530879],["ello",-8.375291265223364],["tema",-8.375506316745813],["obra",-8.376318591808474],["objetivo",-8.376918961464384],["cualquier",-8.381177291396614],["segundo",-8.381973283530819],["16",-8.384574937080842],["llegar",-8.38803856756422],["unos",-8.388234757728519],["cu",-8.388960683212197],["muchos",-8.392697940015292],["ismo",-8.4013954089003],["investiga",-8.401742326266291],["noche",-8.401856367913433],["decir",-8.402317806623195],["13",-8.403569546937772],["quiere",-8.403985444048924],["inform",-8.404615484989677],["mes",-8.406429467646305],["zo",-8.406770804898066],["valor",-8.412449626109561],["minuto",-8.41545944800594],["redes",-8.415735704614598],["primero",-8.418171903484708],["tal",-8.420919055533833],["decisi",-8.422781953424572],["K",-8.423133514930292],["jugador",-8.4303444697132],["Así",-8.432813485762804],["tra",-8.434588734217673],["ja",-8.435317408866412],["24",-8.435550624306346],["J",-8.437930676101185],["lunes",-8.439619110787676],["hijo",-8.447529062506465],["viern",-8.448482915298147],["pre",-8.450147765210028],["usia",-8.452556849031941],["ín",-8.454226966493978],["sino",-8.454414598355243],["vehículo",-8.456909140310884],["mujer",-8.46079190295028],["…",-8.462377893118369],["mercado",-8.463693384782355],["per",-8.464987177965916],["uso",-8.465132151856091],["cinco",-8.465149827176734],["público",-8.47162544605725],["cia",-8.472802226285292],["ciento",-8.484846301384302],["paso",-8.485715998921542],["producto",-8.486203172843723],["sentido",-8.487429443930576],["onces",-8.488067727441617],["Des",-8.488460409837732],["edad",-8.489653274967388],["pueda",-8.489866154190175],["mujeres",-8.490461252962241],["tendrá",-8.49069913334359],["lado",-8.490941824239371],["mañana",-8.494465870705074],["espera",-8.495641088467984],["ida",-8.496013128369267],["cerca",-8.4980522787182],["haci",-8.499361667141146],["sábado",-8.500152291976075],["50",-8.502432591735513],["fuero",-8.50325947457707],["ley",-8.503846177587615],["juego",-8.506007681880693],["falta",-8.508823655615974],["vario",-8.509356437149806],["cargo",-8.511917542567176],["amos",-8.517978961557983],["víctima",-8.518857151908787],["aún",-8.519502728635343],["veces",-8.520502171463228],["seguir",-8.52341753276653],["00",-8.53067505865629],["can",-8.532944409732103],["domingo",-8.535003610459185],["man",-8.536086301166446],["25",-8.540545165948204],["plan",-8.542120653626625],["Argentina",-8.543858451008564],["puesto",-8.54461166758376],["pandemia",-8.545349261733321],["eves",-8.547677167224563],["encuentro",-8.549833253079358],["$",-8.55133232448906],["real",-8.551485056396363],["fuera",-8.553419507521644],["fecha",-8.557457381151039],["marca",-8.558158474901163],["temporada",-8.561674232600787],["comunidad",-8.565044309978187],["gan",-8.566811820994424],["realizar",-8.568306180588122],["partir",-8.569704983001474],["ú",-8.571236330916676],["dice",-8.573087544999513],["buena",-8.573181878392274],["Mi",-8.576670543840695],["respect",-8.577134992898428],["bo",-8.57873076580626],["produc",-8.588403634447186],["mal",-8.58852353275989],["marte",-8.591126078011477],["oportunidad",-8.595818274538926],["podrá",-8.601536461416124],["car",-8.603338825618916],["dado",-8.605642956651323],["iércol",-8.606859494960824],["varia",-8.607259864917271],["fi",-8.611104606462915],["carrera",-8.611633691843082],["dici",-8.612455563275503],["cuerpo",-8.613254801041737],["im",-8.613475562250542],["tarde",-8.615410293873051],["segunda",-8.618023697539726],["diferentes",-8.619256683518017],["ayuda",-8.619540495620758],["ministro",-8.620774736403021],["fuerza",-8.62608353816167],["ista",-8.626593743357788],["conocer",-8.626851317116017],["van",-8.628108785070525],["rán",-8.636008699444625],["internacional",-8.638287178074926],["alto",-8.63961595799745],["pública",-8.642455604494543],["ncia",-8.644497837065995],["x",-8.646660538507703],["Ha",-8.647357506583605],["inclus",-8.651324036895621],["par",-8.651399833640301],["ido",-8.653596611982001],["vo",-8.655329216357574],["participa",-8.658885298512065],["Co",-8.661588090991188],["prueba",-8.66399499986811],["igual",-8.667215193067575],["cri",-8.667709747378112],["200",-8.669547337026222],["ter",-8.67084310064451],["Todo",-8.671341474818853],["expres",-8.673358632664405],["joven",-8.677616005906627],["qui",-8.678457000256508],["ch",-8.678702581121781],["Z",-8.680112784137565],["línea",-8.682614456427162],["simismo",-8.683945255931345],["serie",-8.684586883966144],["precio",-8.685495488675913],["novi",-8.686833267149922],["legó",-8.686945768001845],["asegur",-8.688235708185982],["aten",-8.691329752746993],["sabe",-8.69142556191199],["padre",-8.692646626089044],["ing",-8.69289179255928],["pueblo",-8.692934047096017],["largo",-8.69483565050177],["pas",-8.69540192528292],["Juan",-8.698502767700338],["Ministerio",-8.70161449571575],["posición",-8.703442134408315],["Como",-8.704980592524699],["nunc",-8.705087869109246],["rio",-8.706756655772157],["muerte",-8.70695907543432],["apoyo",-8.70825920696365],["indic",-8.709003303278298],["viene",-8.709044192833824],["enero",-8.710547882145688],["Jos",-8.710672306287048],["población",-8.712131846992005],["municipio",-8.713895347681213],["fuerte",-8.713933819285193],["debido",-8.714079039390771],["Vi",-8.715061064698931],["40",-8.71601773287399],["guerra",-8.719362632711796],["gas",-8.72079445657129],["ña",-8.722123774082887],["evento",-8.726352274698902],["causa",-8.726697605983063],["auto",-8.7278033948527],["regi",-8.728109953670398],["ejemplo",-8.72990993829378],["mayoría",-8.73245227416303],["control",-8.732460154186708],["jornada",-8.735306419859425],["pues",-8.735901481665701],["mensaje",-8.737112186286508],["pro",-8.741971198710232],["Hay",-8.745845526958604],["nombre",-8.748263145037928],["espacio",-8.74837116944532],["Mo",-8.749667766864114],["tar",-8.754509752282527],["recurso",-8.757611642583438],["22",-8.75942127494573],["poner",-8.760367852930747],["baja",-8.765816703523118],["alta",-8.7660683817879],["In",-8.767647851147547],["seis",-8.769119125463622],["provincia",-8.769303487670093],["pod",-8.771018655483116],["aba",-8.774210370237613],["dicho",-8.774485527421048],["presenta",-8.775235720353306],["op",-8.775908021070691],["calle",-8.77830809589674],["unidad",-8.778640505524812],["pesos",-8.781664448095166],["llevar",-8.78191133072491],["líder",-8.783333515344786],["director",-8.784979050534437],["junio",-8.785277854173078],["ataque",-8.788169843299926],["mano",-8.789320815749374],["profesional",-8.790928054310033],["propuesta",-8.790976425069935],["capital",-8.79153054712391],["tor",-8.793708717534532],["propio",-8.794750147803835],["policía",-8.794763172265247],["epti",-8.798286264721085],["dinero",-8.799668827029265],["ero",-8.801167842206512],["muestra",-8.80370928788605],["importa",-8.806799316531528],["21",-8.807408503637728],["genera",-8.807456257746216],["Madrid",-8.810176858073017],["trabajador",-8.810590071348688],["X",-8.811395006235522],["octubr",-8.812122427318897],["club",-8.812123298680241],["comunicado",-8.813637654242086],["W",-8.81521943312903],["2020",-8.815453093246273],["tenido",-8.818237117150076],["precios",-8.822131568601645],["or",-8.822304417254601],["ria",-8.823357840611724],["ur",-8.82638159123753],["lleva",-8.827241103731158],["Fue",-8.828343289323701],["ieron",-8.830294703238337],["ble",-8.830386010726714],["ruso",-8.833151212205584],["desarrollo",-8.833754488305939],["media",-8.834335657267907],["ez",-8.835640529479495],["evitar",-8.83712592722176],["necesario",-8.839764817769439],["hemo",-8.839983246532569],["uela",-8.841503582971526],["Mundial",-8.841768877781579],["sería",-8.842020393862235],["Di",-8.842573430005508],["compañía",-8.84377683337528],["futuro",-8.843777485574472],["mí",-8.844419245605504],["Ca",-8.845424503116002],["rela",-8.846510376084865],["Policía",-8.847807941255152],["adas",-8.84832899116116],["realidad",-8.85074478655993],["–",-8.851849527945276],["experiencia",-8.851849530793041],["busca",-8.852019528025867],["riesgo",-8.852992781762183],["estará",-8.8541093778564],["cha",-8.85533701183127],["ólo",-8.858780308960775],["tenga",-8.859529426700423],["Entre",-8.862156798850801],["dejar",-8.867473018022954],["ven",-8.86780992371989],["estas",-8.868712322540079],["accione",-8.870404290129349],["100",-8.873883593111202],["encontrar",-8.873931492288046],["hi",-8.876558601310123],["aumento",-8.877050861312467],["j",-8.877427261304948],["ambo",-8.877474147191105],["video",-8.877804527666438],["fiscal",-8.878362826753449],["gracia",-8.880870702002785],["pasar",-8.882034753045897],["cabo",-8.88239186787142],["Luis",-8.884860855337351],["gún",-8.886963271864731],["jo",-8.888736357818303],["com",-8.889462782312204],["económica",-8.891110761932854],["posibilidad",-8.89379603697483],["idea",-8.895203833558394],["ab",-8.89684807282428],["pued",-8.89750446635622],["juli",-8.897570038604897],["gosto",-8.899828638935174],["agreg",-8.900151131472827],["tomar",-8.904188655648557],["it",-8.90567785897316],["familiar",-8.905737596256607],["respuesta",-8.906050464736579],["red",-8.90696579831268],["parece",-8.908149897436939],["capacidad",-8.908178634800377],["Ro",-8.911128116591392],["necesidad",-8.912410913440638],["trabajar",-8.91270360279534],["inicio",-8.914377283749346],["Car",-8.914383945154714],["campaña",-8.916732752530987],["gol",-8.917279984410257],["che",-8.91809611715884],["camino",-8.91895625058783],["prensa",-8.91896285213394],["dad",-8.920017282175936],["explicó",-8.92110136876908],["Tras",-8.921792520276917],["gi",-8.921849624073564],["pez",-8.92501949231551],["je",-8.92664455517378],["venta",-8.927939950843886],["Europ",-8.928373539016507],["metro",-8.928647433325066],["difícil",-8.931976640385866],["2023",-8.93501365241616],["estadounidense",-8.936377085875108],["elección",-8.936616658264704],["nosotros",-8.937343093511938],["cifra",-8.938658278611872],["comunica",-8.938973438248393],["calidad",-8.940252943683419],["pareja",-8.942773984124429],["vecino",-8.943023527198235],["cara",-8.943999048671934],["afirm",-8.944337952212967],["miembro",-8.945237858006555],["organiza",-8.945342098185964],["amigo",-8.946062144838274],["demanda",-8.946663527114822],["municipal",-8.946789294509909],["energía",-8.949698143020662],["claro",-8.950272265595192],["Yo",-8.95126868466459],["anterior",-8.95276062498398],["volver",-8.955374712552747],["mayo",-8.955620232190928],["recibi",-8.955760695493247],["palabra",-8.960936651346046],["comenz",-8.962242066717513],["sociedad",-8.963194819265713],["entidad",-8.966878298087467],["Día",-8.970268048771885],["madre",-8.97232384042486],["presente",-8.972327509550238],["remos",-8.97370660248277],["abril",-8.974579347854537],["llev",-8.974658084707315],["Salud",-8.974696131010745],["duda",-8.974852788813214],["60",-8.975042900582107],["base",-8.97521483191321],["anunci",-8.977706529809929],["jó",-8.978707778234954],["resto",-8.978825300387424],["permite",-8.979192408967123],["cont",-8.980380777931178],["violencia",-8.983790228227953],["¡",-8.986104823598374],["rez",-8.990090445352962],["cio",-8.990176441504243],["grave",-8.990978483572807],["23",-8.992902986086786],["necesita",-8.995200964488422],["Centro",-8.997818477063124],["sub",-8.998386968450681],["pesar",-8.998609082851415],["vivienda",-9.000543924328925],["mantener",-9.001019073168017],["acto",-9.001925134041581],["febrero",-9.004818812867867],["conjunto",-9.008500909733485],["dura",-9.008701639405668],["ck",-9.009128452069959],["sol",-9.00923543782929],["área",-9.011069790142695],["sur",-9.012093567309382],["esos",-9.015079216989932],["delito",-9.019131670962965],["Durant",-9.019655654448485],["único",-9.022013964182978],["haya",-9.02274574077514],["reciente",-9.023040868410892],["presencia",-9.032340419591076],["alrededor",-9.03309928042643],["llí",-9.033231680880736],["ingreso",-9.033302272914456],["pasa",-9.033382441102987],["enfermedad",-9.03356329798038],["Qué",-9.033654192146882],["color",-9.03388603495917],["Pa",-9.035362500780343],["Ya",-9.035770045364472],["cierto",-9.03597674974065],["Ló",-9.036066742594738],["condicione",-9.036536109277977],["español",-9.036941454087813],["Ar",-9.03769428934074],["pago",-9.038257706153852],["eran",-9.038565891951004],["Ma",-9.039319197799625],["suma",-9.039853102278698],["informe",-9.040691162997717],["diferencia",-9.040880420869229],["ton",-9.041075832299029],["termin",-9.04117142189634],["iz",-9.041827914366333],["lista",-9.041962732782533],["representa",-9.042809647980889],["cuanto",-9.043334014569094],["plataforma",-9.043453659352846],["ganar",-9.044637004916101],["opera",-9.045661096010011],["ho",-9.045667105615433],["menor",-9.046514871621767],["explica",-9.04720318787049],["anti",-9.047478858706835],["campo",-9.048367052283346],["26",-9.048968810476254],["salir",-9.050174963786702],["económico",-9.050720579713918],["amor",-9.0516659351461],["cantidad",-9.053198211358133],["Carlo",-9.053551092409306],["edi",-9.05450016829376],["cción",-9.054808808220715],["llega",-9.055451893958322],["efecto",-9.055677521128946],["vista",-9.055832322393353],["aquí",-9.056531715924663],["plazo",-9.057260900358589],["lograr",-9.058341178417749],["27",-9.058353629986009],["destac",-9.059944248319928],["libre",-9.060008472634642],["28",-9.061144738874777],["victoria",-9.06315884995255],["jefe",-9.063193404623757],["motivo",-9.064643816711042],["gobernador",-9.065739358847058],["General",-9.066225707805629],["Santa",-9.067292409738595],["inflación",-9.068178460824816],["artista",-9.068398238290381],["manifest",-9.068411693199286],["buen",-9.068492886695632],["!",-9.06901130860962],["celebra",-9.069961184789765],["bal",-9.070355194437742],["humano",-9.070751424289575],["usuarios",-9.071170816892803],["ciudadano",-9.071974044879017],["hub",-9.07299307047601],["Twitter",-9.073221504448757],["po",-9.074248180406311],["visita",-9.077038755125361],["viaje",-9.078807089377149],["deben",-9.078977965467562],["arzo",-9.079136170923977],["eleccione",-9.080485110161533],["lucha",-9.086637293804502],["haciendo",-9.086689626872946],["ahí",-9.090672523342542],["grado",-9.091345464022412],["noticia",-9.09366202267983],["visto",-9.095195588631107],["principio",-9.096240410956284],["compromiso",-9.096240414685461],["película",-9.096241826838632],["jóv",-9.097819228765024],["ningún",-9.09886090876513],["funciona",-9.099388288160437],["acceso",-9.09960698161371],["Ante",-9.100138510102918],["pidi",-9.101169330186995],["logr",-9.103774142864363],["pequeño",-9.10403292319181],["modelo",-9.104475007192148],["Mar",-9.105994929279838],["iete",-9.106875232112213],["Que",-9.110811835765702],["orden",-9.111609140221317],["Pi",-9.111951260144236],["Ciudad",-9.11420162107476],["negocio",-9.114517758356431],["gra",-9.115151740737536],["gesti",-9.118122123927254],["habría",-9.119847219280832],["nte",-9.121546611433814],["queda",-9.122728969114128],["nadie",-9.124373844250252],["reunió",-9.127091367429344],["ización",-9.129810823619785],["mundial",-9.130131247054521],["luz",-9.130744466802675],["esté",-9.132977698612365],["inter",-9.134429388577114],["Venez",-9.138444984710352],["illa",-9.138559043072288],["economía",-9.1408215114486],["entrega",-9.142188441818838],["vacuna",-9.14294481879335],["próxima",-9.146648934221433],["ernández",-9.151863978125444],["hablar",-9.152086487464615],["present",-9.152819503936454],["ocurri",-9.153475760792102],["puerta",-9.15484642034459],["popular",-9.1548495863581],["cita",-9.155502608893698],["cor",-9.155667724988445],["territorio",-9.157592988782802],["Liga",-9.157944668576558],["modo",-9.160037333915595],["jugar",-9.161347045428743],["fútbol",-9.163257715656073],["central",-9.164666181594237],["María",-9.16659242976952],["pudo",-9.168031962889662],["paciente",-9.16866746791717],["periodista",-9.168718449562771],["propia",-9.169025328916636],["ofrece",-9.1694061333755],["mb",-9.16948689457772],["cho",-9.16970389571122],["única",-9.169774327344186],["escenario",-9.171520011662235],["elemento",-9.171667664584042],["Después",-9.17423695811869],["tarjeta",-9.174237063558337],["siguiente",-9.174579016841879],["estudio",-9.174809440046493],["tivo",-9.175251915589705],["entrada",-9.175259443307317],["entrevista",-9.175470421510635],["ayer",-9.175502143283486],["gusta",-9.177159433229637],["80",-9.178212511522162],["práctica",-9.182663880638376],["decidi",-9.183898603123678],["clave",-9.18497993366099],["titular",-9.1854893924833],["militar",-9.185711767006318],["ánche",-9.186471687558486],["técnico",-9.188312902285434],["crecimiento",-9.188339571162174],["Aun",-9.190404097853964],["político",-9.191413046652311],["Eso",-9.193285690716515],["toma",-9.194489933896854],["29",-9.194699624789633],["Congreso",-9.196869506665934],["tri",-9.199734796392484],["plaza",-9.201355266046],["deja",-9.20367014745735],["crea",-9.204807009698452],["chi",-9.20507772378247],["pagar",-9.206364080195236],["realiza",-9.206940973264672],["música",-9.211278165577912],["seguro",-9.213507008580283],["amenaza",-9.213555095760078],["hospital",-9.214673093079796],["cal",-9.215991339609147],["máximo",-9.217100545320752],["Universidad",-9.21723240839532],["habrá",-9.217305729362245],["distinto",-9.217330660063553],["70",-9.218008142438958],["accidente",-9.219046212335286],["vuelta",-9.220024607001042],["perdi",-9.220282811811396],["impacto",-9.220362821875462],["República",-9.220492334909279],["hija",-9.221190102512622],["completa",-9.222532328290272],["defensa",-9.222968804740612],["oferta",-9.222978621610043],["Hoy",-9.223036898283091],["Mient",-9.223440768491827],["mejorar",-9.224859401055824],["mantiene",-9.225404308597525],["cliente",-9.225899974163383],["trabaja",-9.226266800914619],["localidad",-9.227543613603956],["realiz",-9.228408917645496],["movimiento",-9.228901413624623],["voto",-9.23004775736988],["Pro",-9.230396589410987],["golpe",-9.234102195637796],["actor",-9.23530325034536],["500",-9.235546594665184],["administra",-9.236504550345881],["material",-9.237122318490616],["ocho",-9.237444647813813],["considera",-9.237818543834091],["presión",-9.23907167238708],["opin",-9.240610051765273],["cabeza",-9.240717579894401],["th",-9.240998104707861],["Per",-9.241837590693548],["favor",-9.241932457201322],["alcalde",-9.241986866771049],["res",-9.24693353943885],["ampoco",-9.24861634891364],["interés",-9.250338840513194],["Bar",-9.250833289261283],["ber",-9.251282656890783],["mis",-9.25168204939077],["kilómetro",-9.255795825497884],["éxito",-9.258835509966769],["esfuerzo",-9.258835526283722],["interior",-9.258835672244647],["candidato",-9.261884395907405],["libertad",-9.261890522239888],["detalle",-9.262679923250252],["Go",-9.263558363060357],["aje",-9.26393540683739],["marcha",-9.26447391965942],["Colombia",-9.264942220719195],["título",-9.264948642728477],["volvi",-9.265604708097865],["clara",-9.265825906727226],["ré",-9.266012171496499],["labor",-9.267147566616966],["contrato",-9.267559626010536],["Consejo",-9.268010672025046],["90",-9.26984523608052],["iba",-9.270203748419913],["directa",-9.271757772191854],["bueno",-9.27230470619224],["fuego",-9.272530783831282],["contar",-9.273684275096548],["responsabilidad",-9.274173045861126],["argentino",-9.274173049555849],["sexual",-9.274197717013568],["saber",-9.274807222431583],["marco",-9.277026366161483],["ran",-9.277201300221263],["ces",-9.277213094003535],["escuela",-9.277374530189924],["tecnología",-9.280374618081488],["ina",-9.28044659015815],["Casa",-9.282666506237073],["positivo",-9.283428675357435],["iniciativa",-9.283583301567159],["ki",-9.285589249203404],["Po",-9.286016256013482],["década",-9.28662664909081],["añadi",-9.287506652078354],["iza",-9.288679638597575],["eguridad",-9.290496423321382],["fun",-9.291553688205784],["quiera",-9.291956995729308],["Man",-9.292904809830048],["debería",-9.294020961787524],["construc",-9.294098516809225],["hacen",-9.296025368208474],["papel",-9.296114438678412],["Manuel",-9.296199784929916],["delante",-9.296491352533938],["ninguna",-9.300430903919787],["Ahor",-9.300711200728458],["Comisi",-9.302743476459472],["mostr",-9.303561769794873],["sitio",-9.303587892977367],["Real",-9.305161907401784],["let",-9.308075037812138],["Bueno",-9.30918449451795],["Be",-9.309378538556508],["América",-9.310546831742268],["curso",-9.310688160906448],["habla",-9.31127146373398],["fácil",-9.311972804955506],["guien",-9.315372798384313],["arte",-9.31636628887697],["temperatura",-9.318414031296932],["lluvia",-9.31841403542753],["arse",-9.319032003242688],["eta",-9.31920084173034],["llamado",-9.32002703859122],["hechos",-9.320247165098397],["clase",-9.321214949508036],["ayudar",-9.321353598497375],["Villa",-9.321384114026245],["ándose",-9.32274971144495],["Ju",-9.325622108040417],["To",-9.328134359968132],["denuncia",-9.328482224792356],["mu",-9.32848278512469],["legal",-9.328649655188839],["barrio",-9.32942648463531],["tasa",-9.329639690654481],["fu",-9.333086306401746],["interven",-9.333774995940026],["tiva",-9.33612081230931],["contacto",-9.336574617483848],["coment",-9.336684305429147],["conocido",-9.337086209184454],["31",-9.3375781928414],["publica",-9.34076764178204],["salida",-9.341099323601924],["genes",-9.34110031464489],["disponible",-9.341290825485686],["mexicano",-9.341290927185963],["significa",-9.341673511830571],["representante",-9.343074611426443],["pus",-9.34329831476067],["justicia",-9.344602105450354],["preocupa",-9.345105084665942],["agente",-9.346783008802305],["firma",-9.347674288451923],["compra",-9.347748634165995],["obst",-9.349111419758948],["comercial",-9.349546822468813],["fundamental",-9.351993400835223],["recibir",-9.353885711353783],["detenido",-9.35406561444459],["cumplir",-9.354915607381011],["imagen",-9.357972612953478],["indica",-9.359304845861846],["hicier",-9.359741871741367],["sean",-9.360794726983942],["distinta",-9.361630372003638],["Copa",-9.362077011693499],["allá",-9.362362805959208],["estudiante",-9.36259652362461],["empez",-9.363720614473685],["cambiar",-9.366420210499097],["laboral",-9.367430913908326],["inversi",-9.367938876853529],["reforma",-9.368012045334222],["estrategia",-9.36809307542414],["China",-9.36830136580318],["industria",-9.369907108242746],["diputado",-9.369945969934562],["PP",-9.370252436698731],["categoría",-9.37149445408805],["etapa",-9.37194855523719],["sali",-9.372996190360286],["35",-9.373575700282373],["tos",-9.373637122498081],["vivir",-9.37466266899581],["Pedro",-9.374960480947399],["cer",-9.377156839564087],["tura",-9.377800970550727],["asegura",-9.379264186852376],["probable",-9.37950660748513],["diario",-9.379954779407637],["documento",-9.381768808504171],["conductor",-9.382182875976977],["fer",-9.382290353293094],["tro",-9.383741604189249],["Com",-9.383818531228197],["emergencia",-9.385226301729396],["fiesta",-9.386942697376274],["lin",-9.388246888553438],["conflicto",-9.388676972582887],["bilidad",-9.38992305619055],["rusa",-9.391261574459918],["calles",-9.391928138647376],["carga",-9.392230975819192],["ñ",-9.392579166291567],["aplica",-9.394773819459113],["destino",-9.395786118076282],["mandatario",-9.395901893231926],["Más",-9.396036449999713],["materia",-9.396393875810922],["llegada",-9.396399011694921],["mer",-9.396922959329348],["pasada",-9.398969196917712],["torneo",-9.399133845112477],["recupera",-9.401786721813032],["señala",-9.401935191748205],["consumo",-9.402233315879588],["Ley",-9.40241936988675],["Instituto",-9.402727100296993],["digital",-9.403659027795833],["Bu",-9.4053120014349],["mitad",-9.405906907249776],["libro",-9.406162157627033],["Fiscalía",-9.406393392915334],["teng",-9.407103707497303],["estatal",-9.407448968248957],["istas",-9.412230398796183],["realizado",-9.41241178513689],["mediante",-9.413027457486855],["Garc",-9.413584101886954],["Final",-9.415760977291395],["Bo",-9.416295722483671],["incluye",-9.420956128060691],["deberá",-9.421736348485881],["empleo",-9.423954582994973],["crear",-9.424227163760523],["amplia",-9.42539163377739],["federal",-9.425877104652981],["encontraba",-9.427379571818971],["Ángel",-9.427551148699749],["web",-9.42757966344757],["tas",-9.427967019902756],["ific",-9.428902193652902],["disfrutar",-9.429355984851536],["prepara",-9.429719937027953],["confirm",-9.43049780114615],["amiento",-9.430593975985222],["tierra",-9.4311766296832],["ros",-9.434338368430163],["rápida",-9.434844999458242],["policial",-9.438424812581708],["instala",-9.440322504463303],["aban",-9.440776284614497],["continúa",-9.442070392391763],["impuesto",-9.442519072876316],["gar",-9.443462379782572],["manos",-9.444304708330705],["Hast",-9.445448260346602],["buscar",-9.446410723283385],["inten",-9.44713993409756],["Ten",-9.448039989338417],["ruta",-9.448105863871774],["natural",-9.448336637077187],["izado",-9.448771406577578],["figura",-9.449403418289378],["cámara",-9.449412063251167],["imá",-9.450551079430177],["pan",-9.450857618598022],["cultura",-9.451634550561607],["organismo",-9.453099998351611],["Civil",-9.4531018237283],["arma",-9.453154375139357],["Fi",-9.453167650037457],["llama",-9.453677569885647],["tarea",-9.45578191828536],["contenido",-9.455845680618275],["—",-9.456803593875016],["Nueva",-9.456803759933946],["aspecto",-9.45680511160355],["participar",-9.457737678784083],["regional",-9.459992078108359],["esas",-9.460337716609374],["Rodríguez",-9.460521065993984],["Cruz",-9.460679537545209],["izar",-9.46088927626005],["peor",-9.462191139197966],["superior",-9.464252842233012],["dirigente",-9.464392963387828],["Chile",-9.464432847218806],["tercera",-9.465976995457513],["bra",-9.4668056523278],["Miguel",-9.46800151727583],["verdad",-9.468167006800108],["cre",-9.46919707632457],["incremento",-9.469286277167685],["creo",-9.472010424575242],["pedido",-9.473554142162762],["adelant",-9.475054293908515],["electoral",-9.475573122266525],["Río",-9.47557483274366],["record",-9.475887830797612],["45",-9.477117112670534],["bu",-9.477698988239656],["alcanzar",-9.478396943913639],["direc",-9.478838525178714],["trabajan",-9.478994692732584],["Secretaría",-9.479319088151883],["similar",-9.479334608003942],["hacerlo",-9.480898331666651],["Ja",-9.480980288261568],["presentar",-9.481621038661265],["cumple",-9.483120885017046],["Cabe",-9.483295590487577],["muri",-9.484684136920379],["vio",-9.485204149507606],["Justicia",-9.486937709046245],["Brasil",-9.486942988439235],["transporte",-9.4869434561847],["norte",-9.487299952991043],["reducir",-9.488968433567809],["menores",-9.489954493882454],["ducación",-9.49020816656379],["ka",-9.490288218109882],["protec",-9.490322171590527],["judicial",-9.490557601121772],["autor",-9.490614247674674],["artículo",-9.490769087048523],["razó",-9.491176127104977],["existe",-9.492188157488188],["podía",-9.494174779369356],["colabora",-9.496456388396005],["aire",-9.497702852339877],["Ayuntamiento",-9.498476244606705],["COVID",-9.498476257683231],["cuarto",-9.498479507599495],["ita",-9.499426821766537],["incendio",-9.500054786366716],["Presidente",-9.50012418973622],["aquello",-9.500213482847425],["Son",-9.500306198767658],["suficiente",-9.501277272002898],["sufri",-9.502429646212391],["avance",-9.506297246476251],["cantante",-9.506306430898611],["Li",-9.506334425801487],["Uno",-9.506926148978003],["generar",-9.508095986132052],["conocimiento",-9.509068866942988],["negocia",-9.50924354055298],["tuvier",-9.510134380723418],["Cámara",-9.510151448883192],["tado",-9.510197957292618],["ventaja",-9.510626865829854],["compara",-9.511327115445845],["animal",-9.51159801309217],["institu",-9.512536260118452],["pena",-9.512939873985854],["armas",-9.513524249643506],["Putin",-9.514086582553478],["operativo",-9.514713033223],["usar",-9.516631595598735],["perder",-9.517381758075327],["pri",-9.518530751086072],["sostuv",-9.518898590002518],["Hu",-9.52097559445227],["declar",-9.522387416296889],["conseguir",-9.52257362632052],["Aire",-9.524528905892616],["empleado",-9.524993747443592],["atrás",-9.526452254908305],["Ejecutivo",-9.526471550413836],["toria",-9.526839553871898],["periodo",-9.527432534015754],["niña",-9.52748481684195],["pone",-9.527586934633337],["herramienta",-9.529912977085651],["edificio",-9.52991304985328],["mesa",-9.530241075707139],["acusa",-9.530665473163486],["paz",-9.531097367416127],["Do",-9.53132208823882],["tur",-9.532544295871533],["ador",-9.533186973048888],["juicio",-9.533590807941247],["bastante",-9.533944209747709],["Lu",-9.534619736584645],["encontr",-9.535178842754181],["secretario",-9.535563446776681],["contexto",-9.536182943247443],["ucraniano",-9.537929037676644],["dosi",-9.541903266734337],["Francisc",-9.542069313517686],["Internacional",-9.542239694732432],["deuda",-9.542251567017438],["entrar",-9.544074857290017],["gasto",-9.544586555639224],["quedar",-9.544598564152135],["particular",-9.545428148060793],["estrella",-9.546040414311403],["fuentes",-9.546797805919132],["verano",-9.54759823158453],["habl",-9.550466704289061],["penal",-9.552298088218546],["Social",-9.553746076102511],["Barcel",-9.554188300455056],["Albert",-9.554328759317723],["sacar",-9.554529056895653],["fo",-9.555799571347972],["productor",-9.555897586723855],["oficina",-9.558258018740656],["convertir",-9.55826421791279],["solu",-9.558821121379806],["ob",-9.56166197751703],["conoce",-9.561789167472558],["tercer",-9.56223476220022],["máxima",-9.562370139009825],["término",-9.562370148565925],["caída",-9.562373787492454],["ejercicio",-9.562400626881143],["frontera",-9.562446575675976],["Ram",-9.562557872958436],["Juli",-9.56317780638377],["declaraciones",-9.564000889110314],["°",-9.566502370392742],["competencia",-9.566502377807769],["premio",-9.56652898671728],["dora",-9.56697008570522],["hermano",-9.567027779419597],["bar",-9.567104085270142],["esión",-9.568455577489178],["able",-9.569174033564122],["planta",-9.569389577377606],["pérdida",-9.570651748047304],["Cómo",-9.570695092174805],["quería",-9.570754794073151],["tica",-9.571724080011862],["cas",-9.571791958235853],["apena",-9.572245470082986],["llamada",-9.572948631701252],["ministra",-9.573080720730042],["género",-9.574818564440012],["peso",-9.574936658223459],["val",-9.57588614041118],["triunfo",-9.576975934860798],["pensar",-9.577734350467292],["escribi",-9.578486051772604],["normal",-9.57852704114534],["médico",-9.580069274938598],["afectado",-9.580703361578255],["integrante",-9.581832936739113],["diálogo",-9.583204206736024],["tratamiento",-9.58446247010183],["banda",-9.584807628377579],["continuar",-9.585713544124516],["juez",-9.586661356360912],["estadio",-9.589076878723553],["completo",-9.589802394323584],["Franci",-9.590454662293673],["Jorge",-9.591661542056853],["reuni",-9.593049841046366],["The",-9.593257250850357],["mostrar",-9.594274714156441],["afirma",-9.594940311961516],["declara",-9.595513818591037],["asocia",-9.59570203259345],["amarilla",-9.595940321090161],["ito",-9.596012879978296],["pos",-9.597280445923246],["derrota",-9.599139076440904],["34",-9.600673691746215],["Banco",-9.601075892106639],["afecta",-9.601897729663733],["confianza",-9.606024756585782],["reduc",-9.607441483938173],["cultural",-9.608743936514832],["EE",-9.60918199901812],["torio",-9.60975073371618],["funcionarios",-9.61020722723893],["resulta",-9.612267327259051],["cierre",-9.61312789481532],["Otro",-9.613820728403274],["coche",-9.613926012008806],["alimentos",-9.61582520494159],["obliga",-9.615896401851817],["fase",-9.61608082614176],["sueño",-9.616087487239948],["Martín",-9.617408693531123],["Qatar",-9.617471500526678],["Pablo",-9.617481237343505],["Val",-9.617714796584565],["tienda",-9.617834340218117],["ño",-9.618190418656988],["clasifica",-9.61856398008014],["rival",-9.61894346899033],["vive",-9.619719561001432],["referencia",-9.620778723955782],["teléfono",-9.62183554980573],["pequeña",-9.621836660073576],["rol",-9.622308478533743],["cuidado",-9.622601825434675],["CO",-9.62339750526051],["institucion",-9.626029672296973],["necesaria",-9.626221530393131],["protesta",-9.626298243398288],["responsable",-9.62637782309753],["ocasione",-9.626608264495381],["pregunta",-9.627133595809479],["registro",-9.627664038772883],["pide",-9.627777098901843],["supuesto",-9.628312334522898],["error",-9.629060423117371],["abogado",-9.631438000564778],["diferente",-9.631650320486177],["pu",-9.632713223823302],["banco",-9.633155332955514],["Cor",-9.633299178025311],["vuelo",-9.635065440035957],["Biden",-9.63540316256362],["tero",-9.635714729449026],["super",-9.636424458363896],["deporte",-9.636446154507373],["llegado",-9.637267775823293],["civil",-9.63774086670984],["Torre",-9.638265432228057],["mas",-9.639239721593764],["quién",-9.63951643178744],["Ru",-9.640478577223316],["diez",-9.64085760452349],["bol",-9.641739606604006],["activa",-9.642283850616487],["estructura",-9.642956030330348],["Gran",-9.64301356719309],["televisi",-9.643796372408016],["abierta",-9.643960676688456],["cadena",-9.643961364190837],["covid",-9.643972020841401],["André",-9.644018888996026],["cuál",-9.644024797443901],["común",-9.644070761252053],["encia",-9.645159053621324],["cree",-9.646157836322244],["encima",-9.64732260664459],["pol",-9.648284030013468],["González",-9.648444614656814],["global",-9.648449251846994],["acerca",-9.648466845790452],["muerto",-9.64866845317627],["Antoni",-9.648892329669394],["personaje",-9.648986084319652],["entorno",-9.649946790362117],["ic",-9.651542145629577],["franc",-9.652380084399601],["Ver",-9.652435375267988],["abierto",-9.652949276419829],["Covid",-9.652952185371912],["recordar",-9.654499761309147],["Ni",-9.655071408874559],["daño",-9.655524583202475],["Hace",-9.655787932695345],["debate",-9.65695910136991],["ambiente",-9.657278455322494],["página",-9.657474009992445],["física",-9.657474022415428],["discurso",-9.657522056073947],["factor",-9.657575554948666],["tendencia",-9.657676000762567],["utiliza",-9.657952254950722],["obtener",-9.658127847647473],["isla",-9.658153619040249],["dolor",-9.658672975210973],["terminar",-9.659345627070834],["Ent",-9.660200812869336],["hará",-9.660983460764417],["móvil",-9.661857996072214],["Du",-9.662833523221373],["pese",-9.663192133467364],["ama",-9.663285001723203],["robo",-9.664892828896939],["tratar",-9.665175716052104],["reserva",-9.665377860258506],["gu",-9.66571717446271],["amba",-9.66650822047803],["tráfico",-9.66667997626865],["futbolista",-9.666742308485475],["Perú",-9.666876027932247],["ocurrido",-9.66695192427677],["virus",-9.667155454393612],["Mari",-9.6684844404191],["registr",-9.669158098509996],["espacios",-9.67028078109475],["nota",-9.670557111165458],["pic",-9.670611587286853],["herido",-9.6713575874731],["presupuesto",-9.67140015569013],["Col",-9.67148754970506],["Ba",-9.672340422485552],["comenzar",-9.672744310509396],["Wi",-9.673438148736969],["Hospital",-9.675781132286765],["entrenador",-9.675867561611593],["precisa",-9.67859407787406],["Pu",-9.678600891559975],["duc",-9.67979677581888],["Sur",-9.68010081932588],["disposición",-9.68104021499953],["larga",-9.68416522548706],["doble",-9.684467681566183],["requiere",-9.685049046367109],["Alemania",-9.685061932172433],["departamento",-9.685061955011415],["nueve",-9.68506341389116],["texto",-9.687100727818418],["comprar",-9.687678701243588],["canal",-9.687864708670219],["ocupa",-9.688888303610698],["rigen",-9.689137598575211],["Alejandr",-9.689734833983676],["usted",-9.68989868022155],["lisi",-9.69349577638636],["vuelve",-9.69443047431511],["cuyo",-9.695179050701595],["cay",-9.697538730193777],["Obrador",-9.69922271901272],["promedio",-9.700292483823533],["campe",-9.700779272507148],["investigador",-9.70103230921237],["altura",-9.701848154366864],["río",-9.702094257128488],["meta",-9.702373367572449],["Municipal",-9.70322600736024],["correspondiente",-9.703885991324565],["realizará",-9.703973561913912],["comida",-9.704367175032054],["pin",-9.706109085870679],["reporte",-9.706313250345902],["anual",-9.707448893249001],["políticos",-9.708236170591645],["habitual",-9.708647908380858],["posterior",-9.708648293076873],["mínimo",-9.708662151666994],["diseño",-9.709871552740655],["continua",-9.710362517250008],["supone",-9.710407259821057],["pobre",-9.713202232907719],["técnica",-9.713431338550484],["profesor",-9.71343579632147],["75",-9.71656806561904],["pase",-9.717388402481959],["Del",-9.717589412549813],["recibido",-9.717916976917532],["venezolano",-9.718240254866505],["36",-9.720602610874096],["coraz",-9.72101946274698],["dic",-9.72137996757984],["extra",-9.721487008756723],["implica",-9.721946973799113],["Puerto",-9.723071884553583],["enorme",-9.723189261186207],["ger",-9.724369417127647],["Ci",-9.725400921095586],["bles",-9.726343717848632],["carretera",-9.727925651970894],["hotel",-9.728080974444152],["Martínez",-9.728114673515936],["provincial",-9.728613094286892],["empresario",-9.729175290374664],["pendiente",-9.729739830603766],["efectivo",-9.72979017423135],["sancione",-9.731248184230752],["trans",-9.732614180961],["objeto",-9.732803896016199],["%)",-9.733531100140748],["mon",-9.734860455831283],["bio",-9.735780644510339],["funcionario",-9.73643888028425],["ino",-9.737625856626963],["conferencia",-9.737706297897066],["dispositivo",-9.737788807470697],["anda",-9.737799131293029],["registrado",-9.739088684939464],["estima",-9.74000005738116],["voy",-9.74059635527479],["directo",-9.74228588826762],["ubicado",-9.742886367732401],["asistencia",-9.74344651345324],["’,",-9.743613921078389],["ocas",-9.744318934994098],["darle",-9.745594082517332],["ili",-9.747227240004396],["garantizar",-9.747441950763823],["izquierda",-9.747582150399325],["hogar",-9.74807819196993],["foto",-9.74814078011465],["Federal",-9.748259779537268],["empezar",-9.749238771674834],["hacía",-9.749738318667902],["mento",-9.74975282103173],["peligro",-9.749820792085774],["funcione",-9.75039921745659],["española",-9.750639494272697],["esperar",-9.75127177700412],["mental",-9.751987308567054],["vaya",-9.752152318415856],["Santiago",-9.752557336784392],["combustible",-9.752599939545345],["33",-9.753375330271124],["her",-9.754081699952408],["motor",-9.7541948654535],["Pas",-9.755719221522845],["Gar",-9.756205999030062],["propiedad",-9.7575575000276],["negro",-9.757560806487556],["privado",-9.757567061721671],["Norte",-9.757612579454042],["comercio",-9.757619886390366],["publicado",-9.758319140918928],["trás",-9.75919907449995],["Br",-9.760336529521894],["He",-9.761875135150003],["domicilio",-9.763160397050168],["dando",-9.763500491284223],["anuncio",-9.766006715685897],["Mon",-9.76616225100593],["derecha",-9.767332467973775],["Central",-9.767640046643415],["pantalla",-9.767647650917555],["utilizar",-9.767737926304946],["acusado",-9.76866515929391],["aná",-9.768762302758637],["lejo",-9.769752058102235],["relacione",-9.770182146766466],["actualidad",-9.770340339385605],["talló",-9.771141775493753],["Mat",-9.771373298462903],["ús",-9.772543405199603],["velocidad",-9.772709094768437],["Sobre",-9.772719606618498],["terreno",-9.772742123712089],["agencia",-9.772835627681951],["Fernand",-9.772955555228195],["bloque",-9.773391049713311],["alerta",-9.773945960016974],["presentado",-9.773983604609487],["Leó",-9.774613361760004],["Defens",-9.775696309659121],["cuesti",-9.776683196637013],["haga",-9.776950449070936],["estilo",-9.77707558434766],["Instagram",-9.777811120969346],["pronto",-9.777836395519259],["32",-9.779588806643712],["Ri",-9.780009248154824],["fondo",-9.78073891413997],["sentir",-9.780841239156988],["médicos",-9.78163280600469],["herida",-9.783155993646032],["tren",-9.783382587998233],["fan",-9.783411225112577],["poca",-9.783933464464667],["naturale",-9.784447014367684],["siglo",-9.784920561932154],["pedir",-9.787064202238078],["presidenta",-9.788061924173512],["época",-9.78893011391106],["señor",-9.789148664867914],["droga",-9.78936055570759],["ig",-9.79086222540932],["300",-9.792273183057015],["pie",-9.792987691330286],["Pública",-9.793275279803261],["histórico",-9.793275280485945],["infraestructura",-9.793287345184059],["rápido",-9.793340235261656],["constante",-9.793397016737952],["Educación",-9.794291676940727],["poli",-9.794454000058098],["cerr",-9.795194792170886],["cero",-9.796044481900399],["Plan",-9.796203400378724],["visitante",-9.796445628618322],["respondi",-9.796575492652092],["concluy",-9.797806255262493],["cr",-9.798211003685022],["tre",-9.798215431045822],["Asocia",-9.79849047183099],["vota",-9.798611503808964],["Costa",-9.798847816481729],["prisi",-9.799916352918313],["exporta",-9.80060887512721],["contrario",-9.800649823791954],["esposa",-9.800938369685662],["’.",-9.801019285015613],["Direc",-9.801655243244259],["eléctrica",-9.803719215245959],["Partido",-9.803772401488],["solicitud",-9.80379114764336],["justo",-9.803880281209373],["enfrentar",-9.804190339503782],["Dios",-9.805567428848455],["salario",-9.805958539558677],["Can",-9.807007578597764],["recuerda",-9.809265019519529],["consider",-9.809516434536302],["abri",-9.809835774764757],["US",-9.811020324352],["Hi",-9.811978032657468],["Toda",-9.81399627193313],["asunto",-9.814600526346048],["MI",-9.81487232015201],["expertos",-9.81614644247653],["ofrecer",-9.8167947228909],["previa",-9.817079435295067],["dicha",-9.817687178943117],["dejado",-9.818915081057085],["construir",-9.819593509853117],["Pérez",-9.81959396662299],["Club",-9.819594766557074],["búsqueda",-9.819625862153433],["crim",-9.819727941294532],["conocida",-9.819757911391003],["docente",-9.820020205881292],["imp",-9.820036736698606],["Cristi",-9.820328608013753],["dicen",-9.820678195756372],["comisi",-9.821433016327923],["horario",-9.821786587798805],["turno",-9.823053890647824],["destaca",-9.823404972498953],["atender",-9.823734266287602],["quiero",-9.825463586392999],["concentra",-9.825468524903785],["compañeros",-9.826241779016392],["Or",-9.82698226219999],["65",-9.827122674836886],["comparti",-9.828067486411543],["afectada",-9.828903384637],["400",-9.829014363976256],["aquella",-9.829043248408235],["public",-9.829045492778278],["límite",-9.830318453460432],["síntoma",-9.830348368398447],["38",-9.83035533158589],["48",-9.83098439800327],["ará",-9.831001137303202],["consecuencia",-9.83113857964921],["Jes",-9.833095372799498],["intentar",-9.834199697267646],["abrir",-9.834881370264139],["mejora",-9.835517414902224],["mina",-9.835646443243029],["produj",-9.835721985306453],["acceder",-9.835869198812992],["siente",-9.836411313316049],["comentario",-9.83673176681262],["áreas",-9.838738497544897],["inició",-9.83907946683551],["norma",-9.840712300884618],["madrugada",-9.841156653176226],["exterior",-9.841156662838735],["habitantes",-9.84120721342289],["trasladado",-9.841654674330774],["portavo",-9.841673258482661],["previsto",-9.84169396002819],["Va",-9.841754178115877],["ubica",-9.84230708446748],["agresi",-9.842818953372413],["beneficios",-9.843308047082878],["acudi",-9.843512848097483],["gui",-9.843917843485611],["privada",-9.846624361913223],["distancia",-9.846624549563867],["jug",-9.846969409288533],["miedo",-9.847449693556111],["Ka",-9.847595691574833],["recuperar",-9.847792754721477],["Nicol",-9.847868968606925],["corte",-9.848261116485773],["reconocimiento",-9.848682810925322],["cine",-9.849845125807468],["costa",-9.84989770146371],["ciclo",-9.850664486302897],["vacunación",-9.85080026094239],["esperan",-9.850837069522377],["apunta",-9.851926331579087],["+",-9.852115639366762],["actri",-9.852182082028566],["establecimiento",-9.852275665082797],["tendría",-9.85263088682553],["entender",-9.852801475005457],["pec",-9.853100791672315],["participante",-9.854096807036381],["respeto",-9.854652640770848],["ntes",-9.855727821900226],["Ex",-9.85692287022814],["ganador",-9.857295700961394],["Grupo",-9.85764307739791],["enfrenta",-9.858166164076149],["Jo",-9.858492043517526],["parque",-9.859123545197491],["Europea",-9.859193380249438],["diverso",-9.859461161478063],["Unió",-9.860483285879333],["observa",-9.860690150763299],["suelo",-9.862170987461408],["aumentar",-9.862320309598218],["diversa",-9.862330125635804],["apunt",-9.862815856588696],["Valencia",-9.86299446710721],["adolescente",-9.863196097161897],["adulto",-9.863196859434456],["Dieg",-9.863627593490149],["iniciar",-9.863628722073862],["bus",-9.863635900102906],["Ana",-9.863875693930378],["costo",-9.86435576751717],["pelea",-9.866389003319458],["potencial",-9.867510736161098],["sigui",-9.867722963390358],["Corte",-9.868087602470416],["alza",-9.868118802318186],["tus",-9.868657590826706],["seguirá",-9.869542140104365],["existen",-9.869905405436034],["delantero",-9.869914210432402],["potencia",-9.870491141639533],["revis",-9.870527394857609],["aga",-9.871851288431627],["pul",-9.872616176610814],["audiencia",-9.873260634118132],["eros",-9.873315028147097],["mor",-9.873776241394518],["Bal",-9.873974933659131],["especie",-9.874404527144002],["sujeto",-9.874414396743475],["iones",-9.874595808148612],["democracia",-9.874643740633998],["viola",-9.874718602868054],["pieza",-9.874924021209223],["precis",-9.875038058443007],["regres",-9.876522346641575],["Cuba",-9.877075487062688],["especialista",-9.87822926991141],["fondos",-9.878834200216104],["agenda",-9.87959219307051],["alumno",-9.880052539907773],["ritmo",-9.880129426447555],["esperanza",-9.880396802207756],["bió",-9.88183310369234],["actuar",-9.882026151685123],["seguidor",-9.882385753837248],["rec",-9.883829025360711],["Ber",-9.8841508565561],["vol",-9.88419770067896],["escolar",-9.885773550182783],["PS",-9.886692800683484],["Gu",-9.889204247131751],["resolu",-9.891130866761227],["Desarrollo",-9.89144683378212],["coronavirus",-9.891469428051142],["termina",-9.893289956684747],["gener",-9.894072800785302],["permiti",-9.894274674140842],["rendimiento",-9.895124405652778],["transi",-9.896770926260348],["activos",-9.897141759154579],["médica",-9.89719362832696],["período",-9.89719373821659],["piloto",-9.89721067528848],["invasi",-9.899596344615183],["liga",-9.901913630733407],["migrante",-9.902493570134364],["trabajos",-9.902736927740204],["ucraniana",-9.90297392132674],["europeo",-9.902974028352563],["Derecho",-9.902976087423937],["refiri",-9.903054198510484],["cerrar",-9.903171882171435],["trat",-9.903305143676917],["tomó",-9.904304697412218],["aproximada",-9.904960752142589],["Está",-9.904972145202468],["ira",-9.905072318059275],["vivi",-9.905288562147867],["transforma",-9.905861227268772],["emp",-9.906114117792699],["ang",-9.906857634016077],["conversa",-9.906944099854428],["extranjero",-9.90878788036093],["Tribunal",-9.908787908974084],["ámbito",-9.908788166657477],["musical",-9.908795155628209],["corto",-9.909730265874732],["ura",-9.911207819435385],["ilegal",-9.911503283094698],["cul",-9.91304333666724],["result",-9.913161745984233],["ún",-9.913690763052559],["blanco",-9.91463769260633],["talento",-9.914860934997627],["dará",-9.91568357963027],["circula",-9.915731482095236],["distribu",-9.916224414635163],["inicial",-9.916607634460782],["llena",-9.91784819265113],["Guardia",-9.91790233591185],["coste",-9.917948640639388],["informado",-9.919331038573874],["lesion",-9.919761895222301],["razon",-9.920026040812594],["advirti",-9.920518228737187],["viento",-9.920898711078554],["intento",-9.921761614034246],["for",-9.921884187856998],["Sol",-9.922279423518638],["deportivo",-9.922671672106954],["mez",-9.923368746236177],["chico",-9.923533864536854],["Ac",-9.924098657971943],["Cal",-9.92443109459337],["segura",-9.924594098312799],["fallecido",-9.925628735078483],["crédito",-9.926435343730038],["Palacio",-9.926445607632338],["hubiera",-9.926448880911542],["consumidor",-9.926482813405915],["concierto",-9.926488858407453],["apertura",-9.927010869749775],["recorrido",-9.927970659720263],["nacionales",-9.92830136629614],["escuchar",-9.928612606188535],["ji",-9.928743699868122],["estudios",-9.928997116003561],["incidente",-9.929775113123632],["Sal",-9.930737791197236],["UE",-9.93117278708964],["interna",-9.931594717846135],["cierta",-9.932404750389605],["lanzamiento",-9.932549082130839],["turismo",-9.932725953660517],["Creo",-9.933193875958086],["acaba",-9.934100389910013],["moviliza",-9.93453030129475],["característica",-9.938375747574451],["porcentaje",-9.938376139926234],["ciudadanía",-9.938377745686385],["querido",-9.938558365895172],["Plata",-9.93866895487098],["ario",-9.939527842576545],["desarrollar",-9.939725671840744],["ocurre",-9.939951952408464],["directora",-9.940441643350304],["quis",-9.941103253778394],["perdido",-9.94186531621533],["var",-9.942169897492892],["gri",-9.943675656900043],["Santo",-9.944002232700829],["York",-9.944407770452031],["ier",-9.94462167238802],["Hernández",-9.944944710957527],["fines",-9.945403970186147],["original",-9.94601472376597],["duro",-9.946686236573306],["Tra",-9.946763450788447],["tribunal",-9.946803828685356],["conoci",-9.947416404526995],["Unido",-9.947556218263436],["presidencial",-9.948773249660182],["dependencia",-9.949535420808873],["of",-9.950081480017431],["gira",-9.950369964097527],["Público",-9.950460447939001],["imos",-9.952269211585794],["Gi",-9.952665228411359],["gue",-9.952722883158234],["relacionado",-9.955211942942388],["superar",-9.955569100196474],["resolver",-9.956566901409603],["condi",-9.95694142966435],["OTA",-9.95724290211911],["cam",-9.957496276594828],["vino",-9.958056458522378],["ult",-9.959397205149404],["destacado",-9.960154142885397],["alifornia",-9.962692996505956],["vuelto",-9.962693115359823],["bot",-9.96280099712832],["perfil",-9.96289746322296],["establecer",-9.9634028850035],["carta",-9.963887092268985],["For",-9.964099600283339],["Solo",-9.964494439156258],["compartir",-9.965050753482277],["sumar",-9.965052793364158],["señalado",-9.965753075930177],["mat",-9.96674245529535],["interese",-9.967558889664934],["segui",-9.967686204498953],["arriba",-9.96769357017342],["apoyar",-9.968751519648038],["Constitu",-9.968865981420464],["presunto",-9.968868412683637],["firmado",-9.9689195000936],["procedimiento",-9.968966417030877],["corrup",-9.969302383156476],["tramo",-9.969706108301635],["marg",-9.970027241966868],["vivo",-9.970726787235492],["ion",-9.971822297308318],["solucione",-9.973293163189894],["puesta",-9.974158185967696],["viajar",-9.974619966779692],["fotografía",-9.975077092186954],["permanente",-9.975077098059877],["colectivo",-9.975332402939458],["bur",-9.97603921552891],["line",-9.977036041558083],["revel",-9.977170641044868],["ag",-9.97790797646159],["37",-9.980633961489733],["protagonista",-9.981326997929072],["comienza",-9.981327105352388],["buscan",-9.981466556251963],["inmediata",-9.98158217758342],["ica",-9.981729871564434],["Departamento",-9.982663650047556],["avanzar",-9.983019051684465],["ment",-9.985017956132605],["calor",-9.985657661244435],["beneficio",-9.986574326199168],["Á",-9.987330821528126],["homicidio",-9.98761630620669],["incluido",-9.987616307077449],["vir",-9.989142273715103],["consulta",-9.989729309858905],["escena",-9.991436612704153],["Ur",-9.9925321623526],["ib",-9.992661821952193],["infec",-9.992869527473122],["espectáculo",-9.993945419966902],["Nuevo",-9.993945482162115],["identidad",-9.993956363304825],["instancia",-9.99402971478575],["suerte",-9.994058523408583],["legislador",-9.994162619764715],["vídeo",-9.994261796413365],["suministro",-9.995772211911767],["públicos",-9.995847123460951],["llevado",-9.996625113706802],["gimen",-9.997473282362968],["anunciado",-9.997996847970668],["ES",-9.998006434622663],["reconoci",-9.998307086794584],["mir",-9.99865236677497],["perro",-9.999444321701755],["comienzo",-10.000314927790047],["trimestre",-10.000315169768198],["alternativa",-10.000315849599858],["convocatoria",-10.000316228639122],["Álvar",-10.000317273310927],["respectiva",-10.000325573126364],["David",-10.000348867127403],["Alguno",-10.000350929607936],["independiente",-10.000383021045042],["anota",-10.000871639281591],["parecer",-10.001987886792946],["pista",-10.002351348860945],["cuestion",-10.002629556506161],["85",-10.003344510904565],["tradicional",-10.003417263333434],["restric",-10.003534365543157],["II",-10.004489851028076],["implemente",-10.004836470922385],["Castillo",-10.00553135383873],["dificultad",-10.006725104475581],["récord",-10.006725717569307],["múltiple",-10.006773649013455],["pretende",-10.006844408009343],["apuesta",-10.006943889452849],["decía",-10.007427694173206],["bor",-10.007903029369206],["fic",-10.008134053138157],["Mu",-10.008654487894145],["torno",-10.008656190998952],["cumpli",-10.009937282578509],["asegurado",-10.010453613397143],["estaría",-10.01051784645438],["ant",-10.011230305049109],["avenida",-10.011314820528174],["promo",-10.011364189373875],["tuvi",-10.01143612305516],["region",-10.011726892898096],["Servicio",-10.01213841364425],["puerto",-10.013016477034949],["permitirá",-10.01351996683208],["subida",-10.013812943054212],["MA",-10.014807914106745],["piso",-10.015154335901386],["Tiene",-10.0156998284086],["Ab",-10.016172408252135],["regreso",-10.019067515411734],["asesinato",-10.019670319459273],["sorpresa",-10.019674815114179],["cida",-10.01967752233994],["discusi",-10.019691617145163],["Federación",-10.019711408387035],["Sergi",-10.019771625523397],["Reino",-10.020122254768655],["solicit",-10.021147340069676],["Ho",-10.022088520831877],["opcion",-10.022264815101103],["logrado",-10.022521633371571],["ropa",-10.02311992321733],["aporta",-10.023546036873405],["Senado",-10.023555491895438],["Inter",-10.024107520604087],["cielo",-10.024515551974888],["iv",-10.02461994413678],["conduc",-10.025346931533146],["44",-10.025959597599039],["financiero",-10.02620617056418],["Javier",-10.026206898262778],["temporal",-10.026207382689554],["pleno",-10.02624398156145],["entr",-10.02655440817776],["Her",-10.02700979886145],["ónica",-10.02730422339535],["planeta",-10.02735811580011],["subray",-10.027489942757004],["viendo",-10.027589483430287],["combate",-10.02783172500148],["pens",-10.027984204267003],["vacacion",-10.028125742588227],["proteger",-10.028677168493239],["gua",-10.029021740533238],["provoc",-10.030564280481205],["Bi",-10.031934612437706],["destacar",-10.032149604792245],["aria",-10.032611057246097],["histórica",-10.032785117836912],["demasiado",-10.032785638107068],["rueda",-10.032787696010063],["criminal",-10.032797681568155],["Italia",-10.032797906708776],["prevé",-10.033032503076955],["Otra",-10.033505698129673],["DE",-10.033917101476504],["monto",-10.03452145582598],["contagios",-10.035610208583932],["reto",-10.036146621901148],["ofreci",-10.036383101786825],["55",-10.036462243846595],["intent",-10.036849549603954],["residente",-10.037594866390668],["fuente",-10.037720747045338],["gana",-10.038473657779756],["ciencia",-10.03860300130863],["condicion",-10.038671956717856],["virtual",-10.039410298645459],["mensual",-10.039432309073291],["inmediato",-10.039613494614251],["tina",-10.040336548555777],["alcanza",-10.04124630281661],["deseo",-10.041869236477464],["habita",-10.042397311907798],["Cha",-10.042399992556987],["previo",-10.04335654887945],["recomenda",-10.04515074011384],["operacion",-10.046064695761345],["convirtió",-10.046074337774442],["absoluta",-10.046074476398621],["Actual",-10.046077071581053],["actuación",-10.046192225588474],["reg",-10.04639266327289],["elegir",-10.04650459200229],["cancha",-10.046822232848111],["pr",-10.046873829737027],["senador",-10.047732264554934],["Ki",-10.047937646986856],["chu",-10.048655465396156],["disparo",-10.048893291178409],["realizada",-10.049136070424847],["tán",-10.049171901436907],["land",-10.049216215607881],["tribu",-10.050996589007525],["Moren",-10.051515506998982],["º",-10.052228849222946],["consciente",-10.052787243463435],["organizacion",-10.053063632610653],["registrar",-10.053128473945266],["colonia",-10.053458118457883],["escrito",-10.05354777645727],["anteriores",-10.05589415395158],["aumenta",-10.056263422715817],["falleci",-10.05752497230814],["arios",-10.058275929953743],["Chi",-10.058555224340342],["supuesta",-10.058878490940732],["petróleo",-10.059542466999646],["Fuerza",-10.059545852894823],["restaurante",-10.059773545375997],["sentencia",-10.061363441596349],["iana",-10.06200848418614],["contempla",-10.062157351017426],["bajar",-10.062224031071523],["ronda",-10.062255493589475],["CE",-10.062693410731953],["capacita",-10.063415764890376],["Sala",-10.063686283435842],["km",-10.063903238720094],["39",-10.06402586796208],["justa",-10.064450409084124],["dirigido",-10.065453019921524],["feliz",-10.06637669440481],["permita",-10.066414144114628],["convertido",-10.067390699191854],["consecuencias",-10.067395696578284],["Paul",-10.068021395008635],["turista",-10.068309459288232],["dona",-10.068929921486266],["concreto",-10.069298764966053],["cuya",-10.069463768535028],["PC",-10.07030618139168],["plena",-10.070793116658344],["Pre",-10.070954275392246],["subir",-10.071217474997441],["establece",-10.07290980159646],["tom",-10.073010262960008],["testigo",-10.073209737611608],["complejo",-10.073234070750619],["brazo",-10.073617134334661],["lleno",-10.073747884882309],["cocina",-10.073762284890101],["Dr",-10.076295305051758],["evalua",-10.077173255727566],["42",-10.078041531920505],["Daniel",-10.079463849689496],["marc",-10.07981723489786],["mencion",-10.079876152158477],["individual",-10.080091054880208],["expectativa",-10.080091055061079],["John",-10.08009885077809],["actitud",-10.08010608112232],["clima",-10.080114724823598],["Inclus",-10.080118241309485],["condena",-10.081752981199273],["doctor",-10.081898584529291],["resalt",-10.082536254622514],["transmisi",-10.082860552342837],["solicitar",-10.082916691929514],["aña",-10.083047076097902],["industrial",-10.083323489938401],["46",-10.084980009917482],["escala",-10.086002460627062],["celebrar",-10.086438943798942],["episodio",-10.087040902712257],["distrito",-10.087046460001822],["concepto",-10.087268677431156],["Comunidad",-10.087359513020338],["pasajero",-10.087691655709484],["invita",-10.088259851387988],["conomía",-10.08855050848436],["intenta",-10.08873869092271],["empate",-10.089649935679734],["colombiano",-10.094028506423372],["cárcel",-10.094028552537786],["básico",-10.094028895019274],["referente",-10.094031929972955],["Organiza",-10.09403304225837],["presta",-10.095175557369602],["Junto",-10.095490568071977],["Qui",-10.098064287426975],["llevan",-10.099120086165787],["cará",-10.099292311749831],["Sh",-10.09985467454228],["lógica",-10.100608993584398],["illo",-10.100699956051198],["órdoba",-10.10107168358936],["asistente",-10.101072484093528],["cáncer",-10.101072581049783],["insisti",-10.101083184836611],["integra",-10.101407428388189],["Poder",-10.101458190977123],["esperaba",-10.102189835677091],["report",-10.102644598466592],["zar",-10.10377559248252],["cía",-10.104176401516035],["pudi",-10.104187216073392],["app",-10.104709112591863],["Mosc",-10.105061924297218],["usuario",-10.10684248723621],["post",-10.107019695266032],["alcanz",-10.10801989669165],["sanitario",-10.108164930665884],["dueño",-10.1081664393962],["parcial",-10.108179810662419],["sostenible",-10.108339368129908],["Unidad",-10.108389057807816],["ubicada",-10.10993328485677],["Tri",-10.111199434438959],["cercano",-10.11381627607949],["requisito",-10.115306453022752],["factura",-10.115347371255439],["excep",-10.115615930196135],["encuesta",-10.11629600130851],["variante",-10.117182694385171],["corta",-10.120158331218036],["exposi",-10.120275965967515],["Ti",-10.120432927106739],["suele",-10.120733400278525],["ff",-10.120820868726856],["Paz",-10.122312331284057],["Escuela",-10.122509166421686],["consejo",-10.12253241347386],["Protecció",-10.122547497226755],["duelo",-10.122572158705179],["nuclear",-10.122603827517203],["St",-10.122797577270266],["gal",-10.123017208194161],["recib",-10.123728756567822],["asegurar",-10.124087486496027],["ejecu",-10.125357911594367],["confirma",-10.125422674421422],["mandato",-10.12579070970736],["rico",-10.126270068264443],["modifica",-10.127172555685185],["cap",-10.127341207680503],["99",-10.129425844203165],["izada",-10.129594543858047],["trámite",-10.129746448673126],["cuarta",-10.129751976494923],["amonestado",-10.129764484874674],["cambi",-10.130028908899465],["met",-10.13018260465225],["ojos",-10.131771712729362],["Sam",-10.132867373870763],["reconoce",-10.132986318083113],["tranquil",-10.13350511852466],["reconocido",-10.133909057955256],["hayan",-10.1355309445087],["partida",-10.136430407014188],["Uruguay",-10.137045708669204],["desafío",-10.137045713203776],["Messi",-10.138417903807973],["cter",-10.138547380137183],["Rey",-10.138733177499375],["600",-10.138965953872406],["sangre",-10.139427239210878],["rina",-10.139762389951851],["viven",-10.139814765630767],["Luc",-10.13989628878916],["refleja",-10.140328094650826],["inicia",-10.14060732508149],["oro",-10.141588792105821],["tivas",-10.142307525107885],["ice",-10.14387304088811],["mexicana",-10.144398661790499],["inglés",-10.144409650153138],["memoria",-10.144435980512066],["playa",-10.144702364895416],["imposible",-10.145546976810074],["abuso",-10.145689033977732],["realizan",-10.145711096107508],["evolu",-10.146533016192109],["defini",-10.147007000653915],["Tu",-10.147138862373946],["Tal",-10.14756048067284],["ió",-10.148380664532247],["responsables",-10.149741317587972],["dejan",-10.150547622031267],["tanta",-10.150701181103832],["caer",-10.151188177174788],["traer",-10.151361744012412],["43",-10.15145500334155],["científico",-10.151806061923084],["educativo",-10.151806368106525],["Robert",-10.151895981611917],["alianza",-10.151899953240054],["juega",-10.152499099967407],["gen",-10.15282266554072],["int",-10.152848053838223],["cerrado",-10.153691049655858],["bolsa",-10.153853108759154],["señalar",-10.155078670588246],["identificado",-10.155782600714158],["ingresar",-10.155928265762189],["acompañado",-10.156027405697042],["Mal",-10.156115039370725],["evidencia",-10.156438894956391],["ería",-10.158252731480289],["explicado",-10.15839544050889],["cabe",-10.158916247100537],["financiera",-10.159268742699231],["http",-10.15926878520784],["tormenta",-10.159276436769616],["adecuada",-10.159282388388075],["honor",-10.159356434209826],["Gracia",-10.159438285729479],["plicación",-10.159743360945257],["tránsito",-10.159789228603815],["incorpora",-10.160048081740008],["raí",-10.16061390731944],["necesitan",-10.162854156758605],["SA",-10.16328433601523],["Trum",-10.164646709488792],["incluyen",-10.165331117985662],["regula",-10.165466153499393],["disco",-10.166749189573562],["Washington",-10.1667875391791],["homenaje",-10.166787550994743],["sanitaria",-10.16678757424755],["colegio",-10.166791347769376],["presunta",-10.16679620236551],["defender",-10.16682374741788],["invierno",-10.166851525009996],["cambia",-10.167148200751345],["Valle",-10.167288565769727],["Cultura",-10.168151817620572],["New",-10.169362747925522],["combina",-10.169379561830507],["cuador",-10.169625142461449],["vigente",-10.169694743313176],["Cad",-10.169696005628666],["ideal",-10.170266860995728],["dispar",-10.170592733577362],["presencial",-10.170685020571046],["Fu",-10.17090978612628],["Fin",-10.17240936236804],["Mor",-10.173100968315756],["reiter",-10.17361404407485],["menes",-10.174120226448704],["Mujer",-10.174395301625617],["libra",-10.17472431997723],["regular",-10.17487003184824],["Ir",-10.175108869300903],["aparece",-10.17523246356788],["debut",-10.17656314601346],["Q",-10.178335801759546],["moto",-10.179349509477454],["mira",-10.17939864983738],["críticas",-10.17941506610438],["micro",-10.180077036786951],["llegará",-10.180802209340897],["acumula",-10.18098516403597],["ko",-10.18187307473356],["órgano",-10.181999766052583],["hermana",-10.182032717321357],["celular",-10.182042145062905],["Kie",-10.182066301713732],["Turismo",-10.182165824531634],["PSO",-10.18277047101019],["FC",-10.183087746547294],["depende",-10.183098968071306],["capaz",-10.184196946631918],["funda",-10.184436033882665],["supera",-10.184765234917426],["sirve",-10.184987212373215],["complicado",-10.185565896159066],["abandon",-10.185643365125406],["ganado",-10.185662220740529],["caja",-10.186652703671609],["confirmado",-10.187244731347235],["mill",-10.187565045927087],["trabaj",-10.188327595275789],["cat",-10.188406456729599],["sucedi",-10.189479273880174],["Tierra",-10.189691417124514],["Gabriel",-10.189707416496926],["Igual",-10.189708168740914],["lanzó",-10.189775125991126],["Mucho",-10.189819633928426],["campeonato",-10.1899087673409],["recién",-10.189986429861712],["tivos",-10.19054801109648],["podi",-10.190749669007559],["vial",-10.190903471994508],["cercana",-10.1913032149502],["aliado",-10.191356211721997],["consigui",-10.191471598089823],["ejecutivo",-10.192176324037474],["Fren",-10.1941806082353],["Kar",-10.194969536842667],["permitir",-10.195005539949824],["Plaz",-10.195398470214313],["ix",-10.197028567689788],["recuerdo",-10.197446572904944],["Administra",-10.197452788977394],["parecía",-10.197471675027737],["analizar",-10.197610523492177],["seguido",-10.198691845487417],["piel",-10.199979743103096],["mando",-10.200275548798263],["52",-10.201227829442356],["actualiza",-10.203512332140267],["organizado",-10.20360808405416],["Madur",-10.204624449039919],["ología",-10.204726101514566],["positiva",-10.205226429621408],["vicepresidenta",-10.205303620986918],["socios",-10.205355447460175],["mala",-10.205947296865295],["Petro",-10.206194819376964],["tamaño",-10.20678120770155],["avanza",-10.207166055562867],["documenta",-10.207366211902066],["ambiental",-10.208626318472827],["bandera",-10.20890013364333],["Rafael",-10.20985068728687],["Fundació",-10.210957557906596],["captura",-10.212107306877783],["aprobació",-10.212512495190786],["refuerzo",-10.21312768469962],["alcohol",-10.213127704998614],["mínima",-10.213129649203825],["convenio",-10.213161425551878],["empieza",-10.213165864737228],["Suprem",-10.213166526693874],["tarifa",-10.213241532638929],["Enrique",-10.213523652753782],["Gó",-10.21449001270683],["mamá",-10.215022560067778],["marcado",-10.215115969350828],["avión",-10.2159218981963],["deportiva",-10.21595128137782],["Pese",-10.216808986106317],["ller",-10.21729194398776],["azo",-10.217810314464366],["aclar",-10.218867988499607],["Será",-10.21900526339096],["continuará",-10.21957582754693],["cama",-10.219942858676784],["Red",-10.21998054560941],["eño",-10.220824370964136],["tion",-10.220856329424835],["infantil",-10.221064189593939],["físico",-10.221064375756503],["mantenimiento",-10.221064443334738],["alcance",-10.221073170952526],["Cer",-10.221123266904854],["vecina",-10.221244667928786],["dispuesto",-10.2212477625832],["puente",-10.221305776486693],["sabía",-10.221314930505097],["pelota",-10.222185032422185],["Monte",-10.22221519681478],["fotos",-10.222632552551406],["Mundo",-10.222886149293673],["pondrá",-10.223346192266366],["ret",-10.223582867731714],["plante",-10.223651324253165],["form",-10.224033240168604],["tabilidad",-10.224251303847325],["199",-10.225556519346918],["ctor",-10.226028117539903],["Sab",-10.226213298706613],["inas",-10.226409399142618],["49",-10.227271350434826],["paro",-10.22807840417685],["aficionado",-10.229064158967862],["prioridad",-10.229064399110033],["fenómeno",-10.229067751715398],["show",-10.229116086619339],["comportamiento",-10.229132782734322],["cuota",-10.22914441563321],["definitiva",-10.2291808283663],["novedad",-10.22920169253447],["rural",-10.229237474879657],["denunci",-10.229344084048645],["alegría",-10.229360361598324],["pregunt",-10.229430636265558],["pon",-10.229957840523637],["ocasion",-10.230193457100253],["apareci",-10.230225666082399],["jar",-10.230466526796526],["Puede",-10.230759690865545],["institucional",-10.230819022940986],["Ch",-10.231696480357485],["azul",-10.231746423148731],["movil",-10.231825362441626],["fuga",-10.232110291670145],["provoca",-10.232204151614837],["armado",-10.23246424609257],["curr",-10.232476055115686],["diaria",-10.232530576702803],["rica",-10.233316635267371],["Rica",-10.233428996011844],["ali",-10.234148318606609],["confirmar",-10.234248007691182],["150",-10.234614093763241],["cuadro",-10.235615255941322],["chica",-10.236483320792932],["circunstancia",-10.237128670030618],["perspectiva",-10.23712867535771],["Agencia",-10.23713191324154],["quizá",-10.237134171392746],["Trabajo",-10.23750340527223],["ografía",-10.237708226523374],["carne",-10.238057728648547],["brinda",-10.238177962568205],["tic",-10.23830816702517],["800",-10.240230786366897],["interpreta",-10.242038909524313],["llamar",-10.243783306017873],["Diputado",-10.244338425403596],["estable",-10.244512616207302],["Debe",-10.24488298321543],["arle",-10.245111349165397],["Dominican",-10.24525876733339],["árbol",-10.245312869658797],["licencia",-10.245336400336711],["elegido",-10.245342054661556],["considerado",-10.245486285318991],["multa",-10.245686021163824],["dedica",-10.245864298786607],["Flor",-10.246211180066801],["rra",-10.246849193783472],["Él",-10.247396772595053],["estuvier",-10.247654974836543],["dign",-10.247766098374747],["visitar",-10.249016216832182],["reina",-10.249057926456327],["nació",-10.250412637514643],["Selección",-10.250824791604241],["baño",-10.251175574462568],["once",-10.251772372139524],["aplicar",-10.251800528909309],["tú",-10.252355288170225],["aeropuerto",-10.252427914495204],["Sí",-10.252436616886698],["Min",-10.252516012967256],["humana",-10.253460296261125],["perfecto",-10.253638441115534],["interesante",-10.253760998166722],["piensa",-10.253769243585047],["TV",-10.253869338938156],["rojo",-10.254719088777382],["invitado",-10.255304804101815],["produce",-10.25695168694142],["formar",-10.257095405485265],["Latina",-10.257201525970807],["obtuv",-10.257306309172195],["guarda",-10.258428668069197],["VI",-10.258505552298995],["aprob",-10.25878951897555],["esencial",-10.259936892397455],["preven",-10.260441125195989],["particip",-10.260454610290289],["acá",-10.260742780161927],["propósito",-10.26171993576898],["américa",-10.261719971693328],["Regional",-10.261727731040573],["Ricardo",-10.26172823058565],["Isabel",-10.261732761794821],["descarta",-10.261942992574177],["coordina",-10.262375340734394],["simple",-10.262407153935296],["Roja",-10.262587940736946],["venir",-10.262688514093048],["firme",-10.262742815331181],["trato",-10.262795692545248],["inc",-10.26316376686021],["signo",-10.263530328027663],["tenta",-10.263962237254908],["añade",-10.26403895625479],["enviar",-10.26439263414311],["inversion",-10.264593886697575],["vender",-10.265547600946611],["tía",-10.26656032780932],["tiro",-10.266585141121666],["concreta",-10.266754674641877],["Agua",-10.266861495089728],["definir",-10.266872588507665],["dispone",-10.267394874915311],["establecido",-10.268025755561915],["Wa",-10.268264722641241],["cuesta",-10.269071456471618],["57",-10.269424740775234],["sospechoso",-10.27005328053892],["concejal",-10.27005364597963],["Gustav",-10.270054327695126],["llamó",-10.270176402379704],["Sistema",-10.270256049123663],["FE",-10.270303803756075],["automóvil",-10.270352049890576],["bebé",-10.270718930216752],["debía",-10.271359100302607],["feria",-10.27141035926667],["fren",-10.27166115770105],["descuento",-10.271689499085618],["41",-10.27392773375326],["Mac",-10.274672405464397],["Junta",-10.274922924344033],["47",-10.275033849204863],["intendente",-10.275162334778022],["dur",-10.275685790883234],["siga",-10.275829353453943],["expresidente",-10.276107097270089],["Vo",-10.276145298331052],["revela",-10.27711409413309],["llevará",-10.277797130861273],["socio",-10.278359135069259],["Ejército",-10.278456630130812],["ejército",-10.278456630133956],["increíble",-10.278632097152983],["conciencia",-10.279356281429305],["surgi",-10.279444670960274],["aument",-10.279675505901453],["Nació",-10.28016277884694],["tru",-10.280667520588826],["ivo",-10.282771072583177],["llegan",-10.283043716052095],["Par",-10.283671689622407],["migra",-10.283924353874902],["Pr",-10.28399711077795],["afi",-10.285240325834092],["corre",-10.285809283217208],["fallo",-10.285903197426492],["misiones",-10.2864480427833],["aprovechar",-10.286834387622505],["argentina",-10.286931271461373],["Zaragoza",-10.286939519764054],["plato",-10.287871032227],["falla",-10.288597622760522],["Porque",-10.289170785488007],["preparado",-10.289236785917485],["mari",-10.289372818249387],["reporta",-10.290141637434935],["identificar",-10.29126247049081],["entregar",-10.29164206883965],["apoya",-10.291660259051735],["Tar",-10.29176574807101],["formato",-10.291891230734986],["escucha",-10.292500644551396],["califica",-10.293157238701028],["ett",-10.294369242733556],["Super",-10.294428731732706],["Facebook",-10.295478214949227],["específica",-10.295478214965952],["candidatura",-10.295478215254885],["voluntad",-10.295478551683397],["Blanca",-10.295480847220086],["turístico",-10.295529435964301],["moneda",-10.2955417435251],["trasladar",-10.29596068793788],["instalación",-10.29615808393033],["Pen",-10.296435739026652],["68",-10.296785871971956],["ard",-10.297983433684735],["controlar",-10.299030302646111],["ándo",-10.299111094917782],["Dos",-10.299139550251919],["mont",-10.299181398207185],["producir",-10.299723109792003],["integral",-10.300485687652795],["CN",-10.300665913252931],["impulsar",-10.301119626451495],["hici",-10.30150618384613],["divi",-10.30213919617184],["quil",-10.302591007616838],["boca",-10.302892651779828],["Rosa",-10.30376727997411],["mecanismo",-10.304100300459396],["contento",-10.30429129829158],["ham",-10.305001233066989],["mini",-10.305278694191328],["asumi",-10.305432596299411],["uri",-10.305482054892584],["decidido",-10.305915839101035],["junta",-10.306153923942356],["votar",-10.306542754412101],["Ko",-10.306679391371347],["gole",-10.307447959574564],["58",-10.308078016071558],["tario",-10.308477540010175],["celebr",-10.308636941457248],["Canad",-10.308983681429774],["responder",-10.309103756776256],["logra",-10.309136048223225],["ponen",-10.310793605163688],["79",-10.311914202269985],["Era",-10.311981910706844],["camina",-10.31262699354901],["protocolo",-10.312794778613927],["sentimiento",-10.312806980834798],["perfecta",-10.313004649512793],["Medio",-10.313141123230867],["78",-10.313756660278262],["frío",-10.31387717345667],["regla",-10.313901211567307],["Aquí",-10.313954910700062],["Rosari",-10.314228498093161],["inaugura",-10.31467388217709],["verde",-10.315704972948328],["toca",-10.316092919725968],["RE",-10.316139923628562],["radio",-10.316213499186038],["Var",-10.316446747214922],["firm",-10.317589892513956],["66",-10.31815070910984],["detalla",-10.31873693507483],["lamenta",-10.318922826948935],["tz",-10.319009970189963],["mirada",-10.319231202134986],["Marcel",-10.319989442133576],["divisi",-10.320756134892957],["ceremonia",-10.321566487414259],["garantía",-10.32156662499913],["eliminar",-10.321936946598191],["aprender",-10.322057028856449],["considerar",-10.322142409676843],["plantea",-10.32418701906251],["Nada",-10.325154796581186],["encontrado",-10.325471529035354],["OS",-10.326341959050989],["Marco",-10.326612897337219],["vice",-10.32724169414987],["presidencia",-10.327437931256704],["Parque",-10.327895172785185],["Che",-10.327954939822883],["interno",-10.328003089985291],["Kirchner",-10.330416044129784],["Investiga",-10.330416044182204],["propietario",-10.330416054494837],["Comité",-10.330416620860706],["trayectoria",-10.330488029323622],["hor",-10.330663909587171],["exclusiva",-10.330675097889998],["exigi",-10.330733509449484],["actos",-10.33146732959802],["sencillo",-10.331717645867979],["índice",-10.331726128334388],["inscrip",-10.332343087839893],["extremo",-10.333262349251175],["iente",-10.333628215242918],["Joe",-10.333902538338695],["vale",-10.334117371982458],["suman",-10.334483035285881],["luc",-10.335255601563667],["76",-10.33554944684198],["reclamo",-10.335746802913487],["decena",-10.337147040415951],["rece",-10.33827312553723],["érre",-10.339023565321664],["tomado",-10.339217437572533],["Iglesia",-10.339344615759279],["Popular",-10.339344984408019],["europea",-10.339345097436878],["defensor",-10.339345254618646],["Judicial",-10.33934718636251],["Haciend",-10.33937288682597],["negativa",-10.339539745607897],["rostro",-10.339635809687081],["continu",-10.33971830033843],["soldado",-10.340036683418127],["interesado",-10.34048783936791],["lic",-10.340838836620796],["meti",-10.34136452304288],["reclama",-10.343011691926321],["voca",-10.343276676181194],["brindar",-10.343433297417096],["paga",-10.343671151971982],["firmar",-10.343982451283086],["dina",-10.346736871844314],["echa",-10.346753015125845],["compañero",-10.34702737468115],["89",-10.347449630878458],["Ó",-10.34835361285975],["correcta",-10.34838384246768],["urbano",-10.348393110182355],["analista",-10.34842897842706],["listo",-10.348684460201618],["competi",-10.348888584577962],["cotiza",-10.34897049102824],["interne",-10.348988326837823],["App",-10.349149997909592],["batería",-10.349244694125316],["financia",-10.349723788925864],["aceptar",-10.349748870227598],["Don",-10.349916665040169],["toneladas",-10.350423001487844],["encargado",-10.351995301263322],["quedan",-10.353620933858345],["contará",-10.354794756280304],["Ben",-10.355135250489269],["medi",-10.356638401532239],["Cuál",-10.35761231276993],["dict",-10.357669052511095],["garantiza",-10.357681723182509],["Primera",-10.357796156035352],["inteligencia",-10.357995403195892],["cubr",-10.358202454457338],["litro",-10.358271089248966],["tropa",-10.358570654190196],["elimina",-10.359191761863684],["vin",-10.359228503489174],["ponga",-10.359455454550794],["tería",-10.360434206815656],["graba",-10.36204170968551],["And",-10.364502533414342],["mono",-10.364617847723816],["tores",-10.364754889137625],["leyes",-10.36489356272754],["aprobado",-10.365262238219923],["irá",-10.365318127363235],["Asamblea",-10.366618846556499],["aniversario",-10.366618847604117],["climático",-10.366618871301405],["cartera",-10.366670816006028],["aporte",-10.366781827762983],["adapta",-10.368118125530211],["relacionada",-10.368383556925545],["maneja",-10.368915021206933],["Juego",-10.369312596829483],["umó",-10.369885331853247],["reforzar",-10.369988128102896],["admiti",-10.370035343763142],["Exteriores",-10.370156431947034],["fabrica",-10.370898059610093],["Ser",-10.371930724531243],["tercero",-10.37269869555574],["implementa",-10.373247767717444],["rum",-10.373952512604667],["aprovech",-10.374049517212363],["icio",-10.375002324416123],["Arte",-10.375543046961866],["bri",-10.37564428327288],["mán",-10.375708091927947],["energética",-10.37587841761848],["convierte",-10.375879458968882],["gratuita",-10.375880759091395],["ahorro",-10.375905727753365],["destinado",-10.375930023462658],["coloca",-10.376081748723685],["batalla",-10.376083773480158],["postura",-10.376195270458988],["limita",-10.37729090408881],["hincha",-10.37772441846042],["hí",-10.378701696389417],["promover",-10.378883446815816],["decreto",-10.381006653487114],["empresarial",-10.38114190034517],["confi",-10.3817940658707],["bienes",-10.381884079789877],["ayud",-10.382085442472611],["igualdad",-10.382749248763783],["desconoce",-10.383198604406491],["comenzará",-10.383272175545235],["registra",-10.38338822138548],["proces",-10.383467856792368],["constitucional",-10.384146118484066],["95",-10.384384012004212],["multi",-10.384487028743326],["renta",-10.384791566977544],["sucede",-10.384938185886849],["Victoria",-10.385224405310588],["Guerra",-10.385225516713483],["Premio",-10.385236329099136],["descanso",-10.385238798551281],["electric",-10.38535299870303],["diversidad",-10.385393377539689],["Tor",-10.385597002293203],["autoriza",-10.386009197234625],["juec",-10.386306569905187],["Hemo",-10.386845409722758],["crecie",-10.386854023832669],["corresponde",-10.38768677779637],["Gre",-10.38842303396846],["cubrir",-10.388602566101312],["eje",-10.389519598765183],["marcador",-10.391010935530339],["costos",-10.393164591445608],["ME",-10.394323148855902],["electrónico",-10.394658150980508],["festival",-10.394658167199879],["silencio",-10.394658537136793],["maestro",-10.394674160193851],["famoso",-10.394708207065875],["habido",-10.39500526261269],["fallecimiento",-10.395064267077899],["onda",-10.395103967179413],["suceso",-10.395131824075484],["completar",-10.395984986691824],["merece",-10.39682665522],["Unida",-10.397244138271319],["tir",-10.397299433263935],["cent",-10.398871826716054],["Provincia",-10.399125322534694],["cruz",-10.399557762092778],["if",-10.402781229966124],["volverá",-10.403079378743449],["superficie",-10.404181683936969],["básica",-10.404181751082323],["bombero",-10.404182305088696],["vuelva",-10.404183942384158],["permiso",-10.40420718512417],["ajuste",-10.404218882749161],["Jalisc",-10.40423374728655],["Ambo",-10.40428936975393],["inmueble",-10.404595146125425],["Guti",-10.405072147404343],["Jim",-10.405492970620209],["eléctrico",-10.405626583078279],["semifinal",-10.405917289326037],["seleccionado",-10.406107958939664],["recibe",-10.406173222335777],["remarc",-10.40619904285667],["actuacion",-10.406224210329952],["concurso",-10.406735777030438],["lica",-10.407028372902872],["acabar",-10.408506320403305],["leg",-10.409540364991777],["pen",-10.409831278384324],["activo",-10.410605213695085],["modelos",-10.41084255605666],["pico",-10.411235327635524],["planifica",-10.411389817882103],["emiti",-10.41204851659052],["charla",-10.412100619258668],["peti",-10.41272434332225],["asever",-10.4132071966485],["polémica",-10.413797057108159],["Nuestro",-10.41379709327395],["educativa",-10.413797498098605],["alicia",-10.41379883554614],["anunciar",-10.413834874194048],["enfatiz",-10.413851003913994],["Guatemal",-10.41397691305812],["rí",-10.414443145776994],["efectiva",-10.414709782812903],["abre",-10.415373007965288],["test",-10.41584950944582],["lanzar",-10.417417023073593],["propone",-10.417734485837327],["Sub",-10.41800421733367],["gusto",-10.418924804739476],["Provincial",-10.418928597710718],["crecer",-10.41958934810252],["64",-10.419750402964054],["llevaba",-10.420030407273053],["mostrado",-10.420315741206537],["conserva",-10.421498088842167],["ólogo",-10.421675886835384],["clásico",-10.423505799418933],["Atlético",-10.42350580855755],["energético",-10.42350612207891],["Sebasti",-10.42350636867237],["Ingl",-10.423564591717902],["País",-10.423625361280047],["urgencia",-10.423625785099137],["reac",-10.4236290486703],["enfrentamiento",-10.42405121707787],["sufrido",-10.424409642212265],["detectar",-10.424786338121626],["paquete",-10.424978598392855],["recomienda",-10.426457241026714],["letra",-10.427174384941447],["traslad",-10.427849804273043],["asesor",-10.427882796927097],["54",-10.428083929132207],["confes",-10.4293563639966],["ker",-10.431044702552136],["sistencia",-10.43132793975148],["impact",-10.431625939497383],["viral",-10.431696658369447],["evita",-10.431751336710251],["comenta",-10.432267395693426],["bre",-10.432527066288138],["posee",-10.43275522108569],["visible",-10.433066593001836],["aseguran",-10.433131578556546],["Eduard",-10.433309735290546],["cobertura",-10.433309941343929],["gasolina",-10.433311954929568],["Respect",-10.433312148997633],["antiguo",-10.433312543791317],["modalidad",-10.433312712009709],["Salvador",-10.433341216880173],["entrenamiento",-10.433468662488515],["determinar",-10.43361269902831],["breve",-10.433788049885067],["relevante",-10.433992866577102],["astro",-10.434590352892634],["conexi",-10.435116132940728],["olvid",-10.435293277506767],["lina",-10.4355102717203],["700",-10.436566208861805],["agradeci",-10.436681208978989],["Boca",-10.437133315757656],["pudiera",-10.437256659309451],["escuch",-10.437546676622613],["Sport",-10.43877262832462],["residencia",-10.44032565573416],["manda",-10.440657581124224],["añadido",-10.442238312081589],["lujo",-10.442669978046226],["Moreno",-10.443154389340705],["Han",-10.443176159919108],["británico",-10.443210727893431],["embajador",-10.443210880031156],["pertenece",-10.443210980037136],["criterio",-10.443211910106927],["empuj",-10.443238573966443],["Musk",-10.443296517824084],["eficiente",-10.443341893461454],["ONU",-10.44348686229839],["69",-10.443547756498457],["Felip",-10.443649602774471],["lidera",-10.443851403400327],["prevenir",-10.443910318970534],["Navarra",-10.444200313615713],["sostiene",-10.445126707396842],["Cre",-10.445527771961963],["solidar",-10.445777983057887],["acompañar",-10.445961336663792],["ganas",-10.446153846548809],["Mont",-10.446995705890128],["indicado",-10.447551300788106],["ster",-10.447606728193614],["sucedido",-10.44962832292926],["narco",-10.449821098265645],["sale",-10.450692787745954],["culpa",-10.450963265148726],["87",-10.451444020806743],["parecen",-10.451749894182639],["innova",-10.452134570745397],["escritor",-10.453064787824362],["medicamento",-10.453210751684498],["ogle",-10.453231804603117],["evidente",-10.453233161971479],["útil",-10.453261534064476],["diagnóstico",-10.453408384656186],["secretaria",-10.453440023980608],["cura",-10.454105318173697],["guer",-10.45453457337726],["etc",-10.454831085639508],["terror",-10.456135319139298],["asigna",-10.456862541253457],["espalda",-10.457856980193508],["egó",-10.45792893607037],["comp",-10.4581901016113],["cep",-10.459234225533343],["ign",-10.45943132146705],["reconocer",-10.45993001161509],["Gra",-10.459983227650286],["Humano",-10.46083003145667],["extrema",-10.460831572281633],["regalo",-10.461224608439462],["cua",-10.462783121261861],["&",-10.463311715267603],["ausencia",-10.4633189603978],["aventura",-10.463333596884059],["limpieza",-10.463358599412935],["Ciencia",-10.463466912003945],["articul",-10.463479321963943],["método",-10.46349245320179],["presentada",-10.463517965513468],["Deporte",-10.46354954892984],["aterra",-10.46358068656907],["normativa",-10.463660977431568],["mortal",-10.463766746043943],["coopera",-10.464134657353721],["revista",-10.465116821569767],["Jap",-10.465692455695187],["96",-10.466340856514295],["villa",-10.467223775347888],["vital",-10.468851139306473],["FA",-10.468987749599439],["analiza",-10.469636440793721],["creado",-10.469759373152554],["pac",-10.470326134454579],["sufrir",-10.471270227692015],["renuncia",-10.47154267834933],["serio",-10.471640341110394],["subraya",-10.471851560325971],["aviso",-10.472765427484536],["proporciona",-10.47319467144412],["Tamaulipas",-10.473515796970705],["clínica",-10.473515799040932],["vínculo",-10.473515965674043],["archivo",-10.473516610098788],["delincuente",-10.47352119581316],["lateral",-10.474198861406872],["amiga",-10.4745006828472],["film",-10.474747458390775],["EU",-10.474894952819206],["misil",-10.47493331019481],["asisti",-10.47526489650642],["seguida",-10.476242257987648],["octavo",-10.47627039832922],["extensi",-10.47642260735741],["luce",-10.476540920052985],["radi",-10.476547409779553],["ça",-10.47695325719158],["EL",-10.47800096006059],["Ban",-10.478328734550846],["iban",-10.478833659200902],["ini",-10.479523618445151],["delega",-10.47957412372644],["Xi",-10.479717687484921],["acudir",-10.479746257417055],["fortalecer",-10.480181375928503],["Tex",-10.480919766422938],["198",-10.482585859696632],["regresar",-10.482609438014919],["elevado",-10.483092548641125],["Posterior",-10.483825078611272],["blanca",-10.48383155063266],["adecuado",-10.483850826983584],["teatro",-10.48393353868027],["rescate",-10.483940215613655],["negativo",-10.484065487844976],["Presidencia",-10.484142297280561],["gr",-10.484186525448195],["disputa",-10.484344990599295],["camioneta",-10.484375952218954],["cuidar",-10.484679306373682],["integr",-10.484913645860539],["Armada",-10.485414421562645],["comer",-10.485574994866582],["BA",-10.485709866380779],["Tur",-10.485961785671995],["urgente",-10.486382263870992],["RD",-10.486577514304242],["ular",-10.486775731994342],["disfruta",-10.487262712144961],["ight",-10.487855133246052],["PA",-10.490347624966029],["cuestione",-10.490869115216688],["fra",-10.49119204346811],["pet",-10.491351517393358],["moral",-10.491467212371665],["radical",-10.49176985103583],["conjunta",-10.492637144854974],["foro",-10.49281535698253],["calific",-10.493387662604077],["Mart",-10.49355033356239],["86",-10.493634998543802],["conseguido",-10.49366031833129],["peg",-10.49370596685127],["porta",-10.493860987997621],["diputada",-10.4939895308029],["hectáreas",-10.494241741967414],["Guillerm",-10.494242858406423],["rumbo",-10.494460775954835],["preventiva",-10.494539204414185],["Bajo",-10.494611172761612],["eficiencia",-10.495555282427317],["Regi",-10.49575072689874],["verdadera",-10.4961385126332],["apari",-10.496547970095207],["IN",-10.496560272278012],["emocional",-10.498445629133276],["experiment",-10.49970855026885],["retirar",-10.4998799773917],["racha",-10.500336642705038],["pasan",-10.500646297169325],["prima",-10.502156519632447],["CC",-10.502225833111623],["planea",-10.502238721680527],["ví",-10.50225512886339],["ático",-10.502416711344207],["CI",-10.502536769888769],["salt",-10.502556208018941],["berg",-10.503145765582822],["puntualiz",-10.50336710028077],["cruce",-10.503694929509425],["venido",-10.504089636334545],["contamina",-10.504213581952314],["indígena",-10.504768057771262],["Domingo",-10.504768074197845],["recauda",-10.504772312026535],["fanático",-10.504825137454354],["iste",-10.504997787516855],["citado",-10.505970178736542],["Amazon",-10.50605634836295],["resistencia",-10.50618005341067],["mezcla",-10.506371489993406],["Ministro",-10.50644974999624],["Isla",-10.506537903086498],["dirigida",-10.506922769961863],["River",-10.50699919122997],["frica",-10.507007034316572],["leer",-10.507490682887433],["72",-10.507499777039783],["INE",-10.507923237065075],["nez",-10.508266909122906],["tratado",-10.50832906436382],["cena",-10.508563412013883],["tapa",-10.509149640049422],["desaparecido",-10.50944778574231],["libera",-10.509494601178618],["Fuente",-10.509562618992518],["placa",-10.5102536462139],["pasará",-10.510437480729168],["asumir",-10.51051335361387],["Dij",-10.510660977900454],["cien",-10.51153875189202],["americano",-10.512277693451352],["250",-10.512484520799866],["acab",-10.512972099553204],["77",-10.513892674843103],["entreg",-10.51408543361465],["cur",-10.51418478351762],["plantas",-10.514334649496373],["pot",-10.514678048144795],["presentará",-10.514777458333059],["Appl",-10.514820635820284],["51",-10.514911897744177],["altas",-10.515311019027735],["advierte",-10.515406372449057],["Programa",-10.515406914963759],["Andaluc",-10.51540834234067],["Whats",-10.515409700016967],["cuánto",-10.515410653708733],["sorteo",-10.515421053764982],["Agreg",-10.51542362904118],["Panam",-10.515489195990188],["vulnerable",-10.515717658517623],["abord",-10.515977453204446],["aprobar",-10.516070216454729],["moda",-10.5170928519126],["lesionado",-10.517277318246844],["aúl",-10.517511546639648],["67",-10.518403148402111],["ingresa",-10.518508820840381],["ist",-10.518621208314208],["lanza",-10.518757796685714],["dirigi",-10.518763330786701],["desarrolla",-10.518941091202144],["recuper",-10.519461694246036],["naciones",-10.520260237210751],["entes",-10.520538069775377],["té",-10.52088924331661],["bit",-10.521002997976279],["declarado",-10.521033372536507],["personalidad",-10.521324983633232],["coordinador",-10.52159374055637],["Mario",-10.52245553581504],["esquema",-10.522521698286582],["AP",-10.522845544619354],["wi",-10.522872577783927],["impulso",-10.522925578709145],["operador",-10.523146922104907],["cé",-10.524541049328288],["finalizar",-10.525224810128755],["lógico",-10.525820675922626],["terapia",-10.526160943492588],["nacido",-10.526193299133649],["Peña",-10.526251763180872],["enviado",-10.526448494285148],["Fondo",-10.526652707322288],["AM",-10.5280019122592],["voce",-10.528964620063913],["incidencia",-10.52905983827253],["Aten",-10.529395393823993],["Estatal",-10.52989239727633],["repara",-10.531589313197955],["desarroll",-10.531886208525172],["guardia",-10.532240748318394],["Quier",-10.532973020752184],["traje",-10.533056590105119],["proyec",-10.533588355582143],["fas",-10.534722924619587],["barco",-10.534795725619539],["pelo",-10.53496450246401],["temor",-10.535348684211062],["74",-10.535695930984508],["BI",-10.535771806636173],["acompaña",-10.536391353129073],["FP",-10.53674526218996],["proveedor",-10.5370324698468],["hallazgo",-10.537033241516463],["Navidad",-10.537034442262701],["código",-10.53703843088612],["ampliar",-10.537063942774783],["primaria",-10.537195065433526],["discapacidad",-10.53720357954079],["componente",-10.537268252713588],["influencia",-10.5374199733816],["entiende",-10.53746945627174],["caus",-10.537590363845254],["existencia",-10.53801491910454],["comune",-10.538129652874119],["Catalu",-10.538164349850067],["preguntas",-10.538412817411125],["leve",-10.53909803254286],["recibirá",-10.539457430750987],["62",-10.539515561126759],["tabla",-10.540556973871826],["adquirir",-10.5406214678253],["pensa",-10.541640471884154],["tono",-10.542542305050704],["responde",-10.543038368788176],["grav",-10.543047970550255],["RA",-10.543691950600255],["Grande",-10.54369632639689],["pata",-10.543933438606146],["complica",-10.54405026724698],["preparar",-10.5443106896379],["roja",-10.544776795643742],["roga",-10.545867646105144],["facilitar",-10.546438324824415],["disciplina",-10.547851088146366],["estableci",-10.548005100843508],["matrimonio",-10.548017619964185],["brasileño",-10.548017620795449],["conclusi",-10.548017809641475],["máquina",-10.548018331563881],["exhibi",-10.548019316019607],["salarial",-10.548033065296151],["demostrar",-10.548049124486841],["Aragó",-10.548094177590793],["incertidumbre",-10.548094368500792],["rechaz",-10.548115871590891],["caliente",-10.548148723678022],["sindicato",-10.548258016154643],["bomba",-10.548402600759019],["sexo",-10.548798034723426],["audio",-10.549661977680731],["tí",-10.549966388761455],["inunda",-10.550559681428318],["utilizado",-10.550669151420767],["ecos",-10.550691443401085],["alimentación",-10.554185721101632],["frase",-10.55453986819349],["venía",-10.555106807945695],["envió",-10.555381452275492],["ora",-10.555674616123357],["sesione",-10.555744085240903],["abordar",-10.555845265536316],["Barr",-10.556048258079352],["habilidad",-10.557540848842518],["53",-10.557911265583886],["73",-10.558155611655422],["solar",-10.558343521522698],["útbol",-10.558533872637899],["piedra",-10.559151190848244],["Carmen",-10.55932295921021],["Mucha",-10.559405528636715],["Tanto",-10.559599529475488],["descenso",-10.56080938114289],["rito",-10.560906601163975],["tesis",-10.561759542908408],["logía",-10.562027693307076],["Intern",-10.56234002481512],["asistir",-10.562340439214676],["Martin",-10.563617101395009],["percib",-10.564033011931707],["fui",-10.564554805368886],["explota",-10.564554822537044],["Im",-10.565100771135928],["digo",-10.566398544512694],["Record",-10.566999632675824],["SS",-10.568108972406897],["reaccion",-10.568475356927614],["llegue",-10.568699561771838],["queja",-10.568716404444391],["Mc",-10.569148858691658],["cumplimiento",-10.569799837772484],["Municipio",-10.5703646861263],["individuo",-10.57036468617936],["bonaerense",-10.5703646862523],["inferior",-10.570364687715127],["incluida",-10.570364688110637],["cerebro",-10.570364705647727],["parlamentario",-10.570364727945371],["opositor",-10.570364908147011],["camiseta",-10.570365107799983],["Interior",-10.570365157339136],["préstamo",-10.570365296426722],["aparente",-10.57037591635839],["plantilla",-10.570446457872116],["balance",-10.570466186524452],["falsa",-10.57058924388245],["exacta",-10.57079936335855],["utilizan",-10.571449305226654],["coali",-10.571857564934856],["61",-10.572153493018147],["Granada",-10.572338053108151],["independencia",-10.572350532008942],["foco",-10.572462153502153],["mantuv",-10.57264753868094],["luchar",-10.57277697106895],["rus",-10.572863920596657],["Castro",-10.57287240520082],["Air",-10.574113767033792],["compensa",-10.57502350962238],["venida",-10.575038656211134],["crítico",-10.577293058350214],["mand",-10.57730802877252],["argumento",-10.57764659242064],["char",-10.577698046448024],["retir",-10.578008495739262],["sonido",-10.578266705678626],["Baja",-10.578851538794938],["esquina",-10.57886128026011],["protagoniz",-10.579123109024618],["abandonar",-10.57946361842692],["avis",-10.579664247013397],["mencionar",-10.580356599704313],["basa",-10.580539635874768],["déficit",-10.581728323225825],["territorial",-10.581728325255101],["capítulo",-10.581728336626927],["antecedente",-10.581728347034304],["árbitro",-10.581728366292932],["mascarilla",-10.581728391422564],["Festival",-10.581728540879581],["sospecha",-10.5817311448988],["estadística",-10.581731450771048],["almacena",-10.581792545914293],["cubano",-10.581804004162205],["profunda",-10.581968805398251],["Bombero",-10.58201651656111],["domin",-10.582046875722074],["NA",-10.582651909802998],["PN",-10.582751238451074],["Debid",-10.583287292115472],["bell",-10.583530623697534],["aval",-10.583579019536828],["anticipa",-10.583661722774465],["micron",-10.584698155216623],["levantar",-10.585099244192977],["ible",-10.585599450673133],["Play",-10.58593530025966],["orienta",-10.586091071140597],["existente",-10.586119269247202],["jer",-10.586620087495644],["mediado",-10.587435906668732],["acepta",-10.588949342564984],["volum",-10.589120056527204],["panor",-10.589338322313136],["alcaldesa",-10.589451751324855],["cancela",-10.590803717100835],["Tele",-10.59080465009073],["determina",-10.59167833345236],["olonia",-10.591922262991728],["jugará",-10.591949048127786],["ub",-10.591959063627815],["satisfac",-10.592525063602963],["hua",-10.592566669476495],["geo",-10.593114849993512],["crítica",-10.593203404328694],["Comercio",-10.593222870125995],["Nuestra",-10.59322347040623],["FIFA",-10.593243748398375],["Señor",-10.593264407675683],["Segund",-10.593308563322648],["DI",-10.59341032710728],["Nadi",-10.593593085102704],["Fra",-10.593714866761246],["88",-10.594244230983886],["cost",-10.594368890972273],["PRI",-10.594564802134933],["Bien",-10.595783661126987],["AN",-10.59589017824278],["temática",-10.59640684642298],["lim",-10.596751899325339],["denuncias",-10.597127197346362],["AR",-10.59746817657459],["Bor",-10.601095317390877],["acta",-10.601656045135545],["aportar",-10.601725529706068],["traslado",-10.601937009370477],["pension",-10.602060169954132],["conversacion",-10.602769468870822],["ético",-10.60280376446873],["prohibi",-10.603360202479656],["portal",-10.603741363494775],["Fiscal",-10.604100692338957],["presentan",-10.60434713561083],["copa",-10.604501266415301],["version",-10.604648054501023],["63",-10.604804021876644],["Especial",-10.604809184428975],["ministerio",-10.604850502888157],["ofensiva",-10.60485054796857],["litera",-10.604905340126551],["rechazo",-10.60494661237882],["combatir",-10.605018292107921],["Radio",-10.605086400553613],["conmemora",-10.605137051050836],["nacimiento",-10.605243225568561],["rama",-10.60525303681202],["motiva",-10.606357991332054],["producido",-10.607372867032211],["consejero",-10.60774503621187],["Parlamento",-10.607867970996033],["conducir",-10.607876454140836],["ética",-10.607927105914275],["part",-10.6083252594929],["cerrada",-10.60850408965101],["Bon",-10.609869573053476],["'.",-10.609885570868915],["ándole",-10.609923438613873],["prevista",-10.610664393134995],["adicional",-10.611623994625209],["respaldo",-10.612176875400873],["Luna",-10.612422156083138],["fri",-10.612765712447207],["Romer",-10.612790753674311],["aut",-10.613002099120829],["ejecut",-10.613467640483279],["revisar",-10.613513486275753],["cambiado",-10.613545320575472],["alma",-10.613576021098616],["solicita",-10.614204738722954],["defendi",-10.614305282663729],["Pri",-10.615847351575434],["levanta",-10.616101364792451],["acó",-10.61627378417672],["Netflix",-10.61661519114902],["arquitect",-10.616615210483758],["excelente",-10.61661522657178],["ambulancia",-10.61661528999484],["discrimina",-10.616615459775307],["Colegio",-10.616616827793397],["músico",-10.61661699817451],["billete",-10.616617387493243],["asesinado",-10.616618976273633],["liderazgo",-10.616618999853143],["explora",-10.616622969475708],["variedad",-10.616664404043714],["cumpla",-10.616717706056512],["permanece",-10.616917403719786],["socialista",-10.617107875004399],["Vox",-10.61721109848747],["centra",-10.617390477363443],["condenado",-10.617954689930679],["top",-10.618601476636929],["emán",-10.618913600600532],["tividad",-10.618951499425705],["cort",-10.619341026578192],["estudiar",-10.61957756987888],["gado",-10.620469618356712],["Cambio",-10.621273744417728],["gor",-10.621877101571506],["explicar",-10.622219974299863],["tista",-10.622327925548065],["pudier",-10.623174093864968],["Bas",-10.623181851041489],["Roc",-10.62470042929699],["IB",-10.625398299278451],["choque",-10.626112798726922],["capit",-10.626151896409937],["americana",-10.626683928822363],["Gua",-10.627131632869466],["estim",-10.62752788226588],["tecnológica",-10.628519962071678],["agrupa",-10.628530460105345],["Transporte",-10.62853553296929],["afuera",-10.628550019222583],["recinto",-10.628609776488991],["ciudadana",-10.628679183332338],["gerente",-10.628727297131222],["Caraca",-10.628810133882894],["ñez",-10.628819658248254],["activista",-10.628963389709668],["traduc",-10.62908519920907],["verdadero",-10.629488770517924],["GT",-10.629595860184374],["explosi",-10.630021710163364],["militare",-10.630026775063754],["logro",-10.63042589665341],["panel",-10.631273581019808],["éndose",-10.631826957987418],["brió",-10.6337131861765],["DA",-10.635155492159544],["mencionado",-10.635175159197171],["arís",-10.635450268324373],["tradi",-10.63545777376347],["gama",-10.635471890935618],["Hora",-10.635820070120376],["deten",-10.63667365161773],["contado",-10.636832815021764],["chino",-10.636944656092663],["98",-10.637156184603514],["82",-10.637255087934616],["ingres",-10.637584051235443],["eléctricos",-10.638740921497963],["Penal",-10.638804551277403],["Tres",-10.639056406410454],["finaliz",-10.639315035373484],["gráfica",-10.639827003845815],["constituye",-10.6399242311856],["bono",-10.64048034128274],["Champions",-10.640568143024177],["incluir",-10.640568211711038],["Rodrig",-10.640568673542361],["espacial",-10.640569130046169],["chileno",-10.640576209682667],["Australia",-10.640584364191177],["bebida",-10.640638010938632],["Canaria",-10.64068181379539],["triste",-10.640809483997753],["deportista",-10.6409071579256],["Barrio",-10.641280043866697],["escrib",-10.641289494444516],["acos",-10.641451573270391],["viva",-10.641636536972722],["rup",-10.64221424090244],["Punta",-10.642294325956573],["plantel",-10.642353545976324],["NI",-10.642385946469975],["posicion",-10.642846535428527],["semi",-10.644044530553533],["eague",-10.644523992948582],["sabor",-10.64464563933052],["Rico",-10.645125756288415],["iento",-10.645170007707577],["udo",-10.64551040934811],["celebrará",-10.645972957362662],["qu",-10.646150729408493],["Occident",-10.646745220684581],["detect",-10.647345665478877],["amplio",-10.647930730915803],["cuadra",-10.648427111974435],["experto",-10.6484472235195],["afectar",-10.649290855918629],["Ari",-10.649555422302981],["corri",-10.649821273887625],["diga",-10.64984789309317],["usan",-10.650004245257781],["the",-10.650728838860733],["mentó",-10.651238514286879],["Camp",-10.651509164667981],["escribir",-10.651919580846853],["nega",-10.651930392951979],["ístico",-10.652089759182775],["BC",-10.65215176114078],["09",-10.65232717047311],["consideran",-10.652431960293551],["occidental",-10.652763264869968],["cadáver",-10.65276331362168],["Bolivia",-10.652763583083685],["probabilidad",-10.65276509050167],["maniobra",-10.652768541788049],["agresor",-10.652769833152695],["reivindica",-10.652773857705204],["violenta",-10.652810675972027],["viejo",-10.652811323364922],["vigilancia",-10.652869877555615],["famosa",-10.652949432933715],["Vega",-10.653376175626228],["significativa",-10.653537056108906],["flujo",-10.653572864365412],["Emili",-10.653622303934501],["fundador",-10.65368208016497],["prenda",-10.653688787084999],["saludable",-10.653696957941257],["beneficia",-10.65388805244405],["directivo",-10.654273978763676],["quita",-10.654437466663348],["acredit",-10.65454249808975],["Corea",-10.654794343927415],["humor",-10.65484211895052],["guía",-10.655220093319091],["ección",-10.657241188785687],["critic",-10.657248676395653],["probar",-10.657380693845912],["descubri",-10.65747910197814],["nube",-10.657515845730828],["ik",-10.657707044554304],["Av",-10.65782992841699],["trataba",-10.658009262241311],["IA",-10.659694068132632],["matar",-10.659720968898062],["habilita",-10.660587136607251],["enlace",-10.661027349670027],["lanzado",-10.661377141854164],["Casi",-10.661685903194146],["agu",-10.662245521051283],["universidad",-10.662600635094662],["representan",-10.662788517158287],["ojo",-10.663049980463043],["IS",-10.664290046316452],["colocar",-10.664337821380737],["alarma",-10.664873580437837],["ancho",-10.664962245412013],["equilibrio",-10.665108944099657],["circuito",-10.665108945428674],["ilumina",-10.665109048666015],["Israel",-10.66511891428675],["papá",-10.665121650557332],["Museo",-10.665136317207988],["renovación",-10.665200353852281],["Claudi",-10.665317628014717],["manten",-10.665322495180124],["lamentable",-10.665401372692202],["plata",-10.665967441807098],["cultivo",-10.666012968749914],["intercambio",-10.666391303015702],["ísimo",-10.666573434624109],["Municipalidad",-10.666836712944441],["fruta",-10.666903601818493],["euro",-10.667016738778733],["rehabilita",-10.667030984076835],["respetar",-10.668852352414627],["ár",-10.668880948948688],["Andre",-10.670401989456245],["uch",-10.67103445935301],["marido",-10.67162357464938],["56",-10.67165837664059],["estándar",-10.672030722210362],["solicitado",-10.672686137250185],["cimiento",-10.67317518315852],["apela",-10.673356378131896],["observar",-10.673782667374443],["Cultural",-10.67534403861944],["canta",-10.675659369740352],["creen",-10.676084944842842],["correr",-10.676823761283842],["pit",-10.677311864479453],["desea",-10.677414852929537],["alcanzado",-10.677514408424809],["comerciante",-10.677611266712812],["profundo",-10.677613882694951],["alquiler",-10.677615228027689],["Londr",-10.67761855021017],["Patrici",-10.677619178842885],["café",-10.677632602851236],["violento",-10.67764331136554],["Krem",-10.677652621429043],["expediente",-10.67768874103146],["cariño",-10.677743150228968],["intensidad",-10.677759987784006],["corriente",-10.677761023274282],["sueldo",-10.678001976792007],["pensamiento",-10.678120866657911],["esposo",-10.678200870533011],["desaparici",-10.678657479236538],["Trans",-10.678870267438164],["enfoque",-10.679136443377573],["correcto",-10.679212270772531],["ruido",-10.67954197237664],["demostrado",-10.679688530510571],["hecha",-10.67968872132883],["cuid",-10.679739204066529],["aprovecha",-10.679843163221935],["Ger",-10.68003576749468],["Fer",-10.680801263972997],["salvar",-10.680905218476623],["acercar",-10.681211250493273],["tranquilo",-10.683726719066588],["visit",-10.683827119596296],["bordo",-10.684199754697259],["meter",-10.684287926379307],["dirige",-10.684645068810369],["intensa",-10.684682272600552],["Manch",-10.685240715857578],["dirigir",-10.685403481813971],["sibilidad",-10.686649532495535],["agrega",-10.687152205517531],["salido",-10.688918459665654],["talleres",-10.689595520032803],["usado",-10.689631899621869],["lector",-10.689822805616075],["Mayor",-10.689928394413563],["inseguridad",-10.690095251025026],["indicador",-10.690193817750945],["femenino",-10.69026717539747],["residuo",-10.690267175806623],["bicicleta",-10.69026718492654],["transferencia",-10.690267187555214],["canciller",-10.690267278059448],["fortaleci",-10.690267750630438],["precipita",-10.690278184619153],["gigante",-10.690284366314483],["Guzm",-10.690432530145543],["favorable",-10.690630782837447],["Feria",-10.690636406568498],["promesa",-10.69085719385418],["vicepresidente",-10.690951000795419],["Nunc",-10.691197558193293],["capa",-10.691880951273628],["Oro",-10.691980958147493],["obten",-10.692798454091243],["colaborador",-10.692932103887323],["toc",-10.693842353835251],["punta",-10.693922686429444],["relato",-10.694130099036236],["hoja",-10.69452270087477],["aprecia",-10.695208064184426],["Mend",-10.695809747099078],["determinado",-10.696326358998096],["registrada",-10.69843883823517],["suspensi",-10.698584668000759],["kilo",-10.70015080955695],["tuit",-10.700161936780866],["elli",-10.701009663966355],["arranca",-10.701021640761525],["elabora",-10.70113603703491],["cumplido",-10.701406289869176],["otorga",-10.702395541276353],["dinámica",-10.703087684856829],["Feijóo",-10.703087685788663],["instrumento",-10.703087691744695],["frecuencia",-10.703087700689984],["concluir",-10.703087701044756],["William",-10.703087718330455],["lectura",-10.703088104852279],["aragon",-10.703119143820597],["Lorenzo",-10.70317617499424],["Gerard",-10.703253814351143],["Semana",-10.7032816923465],["Gobernador",-10.703409482691029],["parecido",-10.703685778678533],["supermercado",-10.703717409876752],["adora",-10.70379555853837],["marcar",-10.703821152258964],["contribuye",-10.705116021947557],["sacado",-10.705508148024993],["recordado",-10.705564417523693],["aspira",-10.706217319145376],["correo",-10.70668370374138],["provincias",-10.707274895767],["recoge",-10.707665546290745],["imputado",-10.708130076215053],["vend",-10.708396681083322],["techo",-10.708571941713132],["ox",-10.708657118177001],["ku",-10.70937949911116],["brind",-10.71118122302645],["alega",-10.7118596312242],["anima",-10.712358628054977],["emocion",-10.712610939087938],["quitar",-10.71285053340419],["emitido",-10.713002627295111],["actu",-10.71325131804267],["Palma",-10.71447551747854],["gica",-10.714677711524562],["Bat",-10.714698486975735],["Sus",-10.714988911214295],["ux",-10.715190409092084],["Marian",-10.715544769006534],["avanzado",-10.715805215317417],["Contr",-10.71593242833346],["inteligente",-10.716074721563757],["nervios",-10.71607583527858],["pierna",-10.716079234126893],["republicano",-10.71612618800447],["evacua",-10.716194645669379],["masa",-10.716244032023694],["envío",-10.716356537909657],["Yu",-10.716655314231378],["pierde",-10.71684898429687],["odio",-10.716887624128344],["Señal",-10.716911079499361],["Destac",-10.717016790543038],["narra",-10.717019292283894],["daba",-10.717237170052039],["hue",-10.71731390052561],["promocion",-10.717684914148247],["mantendrá",-10.717931553039284],["conducta",-10.718413879034845],["disfrut",-10.718449990151516],["pacto",-10.718493921938823],["LA",-10.718627190179113],["jugada",-10.718715100109584],["tti",-10.721443286601092],["incorporar",-10.721636188123652],["cobr",-10.722158761370508],["decidir",-10.722816069581485],["iedad",-10.723346803210621],["Corre",-10.723595852924223],["migo",-10.723733454192747],["desarrollado",-10.723858208828824],["eleva",-10.724202068757787],["extin",-10.724595747770584],["fila",-10.724648930920818],["aprend",-10.724662084407695],["verse",-10.725236861540619],["trabajado",-10.726241110133826],["esperado",-10.726251010151568],["orgullo",-10.726479636538999],["anticip",-10.7270122335608],["itas",-10.72741420874442],["mex",-10.727613319617234],["creador",-10.728705019357104],["construy",-10.728838131500751],["preso",-10.729142893173957],["tira",-10.729212922507363],["cirugía",-10.729232761486358],["uanajuat",-10.729233038723713],["invertir",-10.729234514098508],["subsidio",-10.729234904307852],["vestido",-10.729239737055483],["medicina",-10.729271941208715],["alimenta",-10.72932058406906],["Vicent",-10.729481984607771],["enemigo",-10.729659845835686],["India",-10.729784494515927],["diente",-10.730011262852859],["mover",-10.730223930850931],["carbon",-10.73104934823932],["secreto",-10.732237249654325],["notó",-10.732640271080347],["rdene",-10.73269288753347],["capta",-10.732816782388277],["97",-10.733241976550346],["Tan",-10.733302821426328],["Castill",-10.733570704938572],["rita",-10.733580530117791],["obligado",-10.733621419738597],["incrementar",-10.733731981405636],["Ku",-10.73413124390883],["08",-10.734160515408416],["competir",-10.734596445152594],["bate",-10.734984780737781],["descarga",-10.735216796763492],["evaluar",-10.735486981523685],["ong",-10.735611067127017],["ü",-10.73586626593539],["coger",-10.735911979840784],["Ob",-10.73646769500206],["reconocida",-10.736506774175755],["sindical",-10.737457820618012],["estudia",-10.737768283582419],["verá",-10.738136015496767],["encanta",-10.738210580322026],["descubrir",-10.739950776003973],["eres",-10.74122174900782],["compart",-10.742123559908364],["entregado",-10.742510351604366],["amante",-10.742541216562415],["patrimonio",-10.742565925604616],["Guadalajara",-10.742565925644287],["pronóstico",-10.742565925696372],["testimonio",-10.742565925819623],["venezolana",-10.742565925975402],["tecnológico",-10.742565934344599],["consecutivo",-10.742565955023139],["Sociedad",-10.742565992924987],["Caribe",-10.742578253926897],["Boric",-10.742679304690206],["Virg",-10.74274551333663],["antigua",-10.742820767382424],["extraña",-10.743065174881046],["afe",-10.74337936763903],["conservador",-10.743411350613965],["vincula",-10.743452461868134],["deje",-10.743633635095982],["pur",-10.744708706180038],["Servicios",-10.744734451723392],["señalan",-10.744735085289854],["apoy",-10.744751464454524],["Medi",-10.744795651510898],["ance",-10.744831110748052],["impus",-10.74503304928725],["grada",-10.745757545246096],["flor",-10.746411711585367],["necesit",-10.746933739396479],["Bru",-10.74704689046252],["cometido",-10.747111259126743],["expus",-10.747257997103707],["ordenó",-10.747395711279973],["EN",-10.747401950130328],["ung",-10.747890451513008],["veía",-10.748109276570489],["destacan",-10.748413324261243],["riesgos",-10.748516717754011],["Lima",-10.748742986343448],["Exp",-10.74888250061094],["filtra",-10.749063726994109],["electo",-10.749141715460093],["ace",-10.749290747861174],["saca",-10.75026017174073],["recalc",-10.751926061034286],["Wal",-10.752223524423814],["conectar",-10.752415483986985],["PE",-10.75252107920955],["rota",-10.752521347671578],["gráfico",-10.75451719024759],["siento",-10.754868647092717],["esperada",-10.7548910219369],["colega",-10.755357957174464],["hidr",-10.755969801158026],["´",-10.756079439100013],["espectacular",-10.756079439103072],["periódico",-10.75607945148126],["Zelenski",-10.756079459649463],["Constitucional",-10.75607945971749],["tragedia",-10.756079461761445],["candidata",-10.756079520100347],["Energía",-10.756080850212731],["gratuito",-10.756081041984881],["dictadura",-10.756085418682016],["Deportivo",-10.756109300378931],["quinto",-10.756122691499753],["sitúa",-10.756165597150929],["alimentaria",-10.756255688237445],["Iv",-10.756430801429104],["Divisi",-10.756469461800023],["incluy",-10.756477925831337],["desempeña",-10.756494112548346],["bonos",-10.756498033343235],["detenida",-10.756566423288511],["clar",-10.756679385088265],["ninguno",-10.756680384206046],["Massa",-10.756858241048624],["realice",-10.756966149297948],["Laur",-10.757000761969488],["sustancia",-10.757028236074646],["Fre",-10.757146929760609],["compuesto",-10.75737103465016],["licita",-10.757531240112606],["insta",-10.757544916311852],["designa",-10.757748800938344],["bloqueo",-10.757839987367756],["inici",-10.758528040206617],["landa",-10.758892311199657],["recorrer",-10.759148012539082],["59",-10.759150941264673],["relat",-10.759228398308117],["éste",-10.759443315280869],["tramita",-10.759861717153814],["Bull",-10.76071056025922],["PI",-10.760959622773225],["Estadio",-10.760985216714163],["comprometido",-10.761721091334852],["coca",-10.7619392532361],["71",-10.762714223864847],["creciente",-10.762951559716074],["Año",-10.763557722241991],["sorprendi",-10.76361088423015],["emplaz",-10.763689372672841],["quit",-10.763840047789255],["Ambient",-10.76392860743477],["respeta",-10.765302909871618],["agot",-10.767096386299436],["tele",-10.767172799604618],["ring",-10.767290324554606],["constitu",-10.768158706307945],["eiro",-10.769084087391732],["terna",-10.769088649041048],["prometi",-10.76932931719487],["pusier",-10.769401683453626],["Pol",-10.769608872292707],["secundaria",-10.769778069337848],["numeroso",-10.769778077234982],["contundente",-10.769779012619452],["semestre",-10.769786793364013],["triple",-10.769787856383374],["aceite",-10.769790496089433],["idioma",-10.769791052389007],["rompi",-10.769799111636747],["amistad",-10.769812249894862],["medalla",-10.769818674235182],["referido",-10.769825796780296],["lengua",-10.769899646758399],["Existe",-10.769929266262295],["inst",-10.769968963588791],["encuentre",-10.770036474636337],["leyenda",-10.770092540031957],["Campo",-10.770375085540238],["patria",-10.770393211713083],["configura",-10.770396951731446],["especializado",-10.770664691388308],["trastorno",-10.770960281626715],["Cont",-10.77100617001947],["culmin",-10.771022129794327],["Ciudadano",-10.771386849467067],["carro",-10.771608024947575],["botella",-10.77246816776831],["asociado",-10.773275063302574],["ricos",-10.773854071977713],["importar",-10.77440551688978],["Jame",-10.77458228918641],["kov",-10.774966706396086],["contribu",-10.77592956708464],["cuándo",-10.776104053207282],["cogi",-10.776603496253813],["cencia",-10.776909246434126],["nacionalidad",-10.777428245234077],["ábam",-10.77785709493656],["Hid",-10.778007314379954],["afrontar",-10.778494972806456],["III",-10.778660937993765],["Sch",-10.779461820364233],["fre",-10.779759609751132],["120",-10.780436953691876],["ertamen",-10.780577673131532],["basado",-10.780984603937288],["reactiva",-10.781367029712621],["Cés",-10.78141116958011],["plano",-10.782338619509598],["ich",-10.782605296629905],["Quien",-10.78318372446863],["ésta",-10.783249388163366],["Sara",-10.783558015648257],["€",-10.783666958125888],["problemática",-10.783666973891588],["comunicó",-10.783667000538216],["Teatro",-10.783669771727325],["Oaxa",-10.783671380745044],["brote",-10.783682140427267],["tiroteo",-10.783688682336722],["carril",-10.783764239258279],["hurac",-10.783915834158812],["soporte",-10.783923197893222],["consenso",-10.78400673040413],["obtenido",-10.784386326037112],["mag",-10.784510499514509],["terrorista",-10.784708031757265],["grito",-10.785023416183224],["ED",-10.785298389066103],["publicidad",-10.785382193689212],["declarar",-10.786361399096052],["conforme",-10.786404717710369],["certifica",-10.786932493635586],["pesca",-10.787573139739443],["informar",-10.787657535735667],["bajó",-10.787796597121897],["generado",-10.787804121847596],["divisa",-10.788222590830518],["olvidar",-10.788627998996517],["cartel",-10.789006981972804],["vivía",-10.789040564663495],["Relacion",-10.78930740490285],["escase",-10.789375773737808],["basada",-10.78963555061162],["risa",-10.79072075202097],["comercializa",-10.790872694613942],["consiste",-10.791158921414235],["cuadrado",-10.791244328371327],["Jon",-10.791705021868086],["Algo",-10.79309703339521],["dedicado",-10.793226104916528],["suyo",-10.793499426117641],["anul",-10.793872223970153],["desat",-10.794219834895376],["provocado",-10.79444403641682],["Mag",-10.794601675270483],["certificado",-10.795164257680906],["Rec",-10.795424775732537],["acept",-10.795560447096726],["involucrado",-10.795945778647356],["Van",-10.796083618542589],["posicione",-10.79653267573013],["bolet",-10.797297097386728],["fija",-10.79758254575008],["aprendizaje",-10.797751494736715],["Núñez",-10.79775158951413],["dominicano",-10.797751953583816],["aéreo",-10.797768826631174],["City",-10.797967484904769],["Oscar",-10.798081871530343],["Pan",-10.79824615595659],["Zona",-10.798444795795453],["oculta",-10.79846893129721],["cumbre",-10.798961339418554],["gestionar",-10.79904485180476],["compr",-10.799090807390183],["Víct",-10.79917133994197],["quedará",-10.799597193323974],["empat",-10.799898883809185],["cómodo",-10.799948241209648],["Ib",-10.800609605331658],["mentira",-10.800609833538779],["mada",-10.802500477924163],["demuestra",-10.802660006735731],["convoc",-10.803387408633466],["Somo",-10.803392789160055],["expresar",-10.804350958628222],["colec",-10.804877643862241],["refiere",-10.805001538896787],["rebaja",-10.805204726701314],["disminu",-10.805210078282885],["organizada",-10.805857218961677],["ilusi",-10.805890225240848],["venció",-10.806226641926242],["enfrentará",-10.807008683731624],["viajero",-10.807025215193907],["viviend",-10.807357279463154],["Pueblo",-10.808309011546132],["ligera",-10.809061367644718],["terminado",-10.809842914706556],["jugado",-10.810588502807528],["sirvi",-10.811405533980583],["artificial",-10.812037179535258],["agrícola",-10.812037184557878],["álbum",-10.812037275217733],["Portugal",-10.812037993293746],["continente",-10.812038032295867],["criptomonedas",-10.812038761682246],["humanidad",-10.812047096132481],["autonomía",-10.812057345021229],["aborto",-10.812085069912573],["ecosistema",-10.81219705424774],["Dan",-10.81238021773843],["fortunada",-10.812465411122378],["Silva",-10.812480035416854],["ganancia",-10.812482221784732],["Mauri",-10.812492341412563],["ceder",-10.812694701235326],["embr",-10.812857680592995],["favorito",-10.812974770936531],["funcionaria",-10.812994151384421],["Podem",-10.81327902720754],["ciber",-10.81341709239771],["participan",-10.81369180916868],["mantenido",-10.813706038569705],["limpia",-10.814138976323736],["Art",-10.814530952358737],["oza",-10.814607644403006],["́",-10.814641440146833],["elevada",-10.814840329950016],["provocar",-10.814979145726152],["agro",-10.815347092374726],["implementar",-10.815663000643656],["capac",-10.816146264415014],["receta",-10.816174532564034],["fiscalía",-10.817428922230054],["adicionales",-10.818174245389459],["brill",-10.819442912093113],["garra",-10.819617221545114],["compartido",-10.820011284567686],["mata",-10.820323557486166],["notable",-10.820859604437121],["crí",-10.821600271031615],["Cam",-10.82165391017602],["!”",-10.821704359175781],["acompañ",-10.82226826128907],["Bur",-10.822593935048312],["documental",-10.822611518243427],["admira",-10.824734747055945],["Morale",-10.82637701288985],["ther",-10.826461735696068],["TikTok",-10.826529933154369],["fábrica",-10.82652993459159],["escándalo",-10.826529935867274],["Juzgado",-10.826530059211217],["plástico",-10.826531549167225],["Univers",-10.82654592912861],["Marru",-10.82655525681422],["manejo",-10.826557117047756],["italiano",-10.826569953005993],["atractivo",-10.826782867904333],["Primero",-10.826906344908782],["procedente",-10.827032276636823],["basura",-10.827302857159616],["superado",-10.827405781078465],["fabricante",-10.827408194920885],["escapar",-10.827842025498917],["proyecta",-10.828198382803887],["Coron",-10.828447136715358],["solucionar",-10.829298538769704],["defendido",-10.82943457782643],["imagina",-10.829549483731977],["Puebl",-10.830355258106124],["Orient",-10.830792251094365],["Arena",-10.832739121489821],["Villar",-10.832926416989762],["encabeza",-10.833073062716096],["poste",-10.834105187366438],["sosteni",-10.834228452689384],["Roma",-10.834240082336315],["Auto",-10.834647362814948],["denunciar",-10.83560060469696],["tradicionales",-10.835648263426897],["uli",-10.835765243692478],["cable",-10.836055646755778],["arranc",-10.836133772841348],["decide",-10.836184228100535],["ott",-10.836231934949518],["Star",-10.836459006210609],["urge",-10.836642552185868],["tendr",-10.836793111579677],["Gor",-10.837004261745172],["tocar",-10.838040228168577],["ificación",-10.838161256051901],["papa",-10.83907607257426],["denunciado",-10.839146063922463],["vinculado",-10.83961252327211],["facilita",-10.840050065579536],["corresponden",-10.840311000857255],["restaura",-10.840751669283815],["Í",-10.841235815429986],["universitario",-10.841235815488151],["calendario",-10.841235840451489],["científica",-10.841235851349587],["autónoma",-10.841235891808031],["Oficina",-10.841236102703945],["eventual",-10.841236182936083],["gremio",-10.841236410415704],["Carolina",-10.841238252237481],["inversor",-10.841251277720424],["Veracruz",-10.841261362705247],["urbana",-10.84130372403567],["caído",-10.841328000528696],["fraude",-10.841338621329882],["Azul",-10.841416899890143],["Hug",-10.84164914789803],["rebote",-10.84173962407814],["estreno",-10.842073348326],["camione",-10.842211584000761],["leche",-10.842294888795275],["negra",-10.842313179560788],["Nº",-10.842461984443695],["videojuego",-10.842692016334297],["relativa",-10.843100419124788],["güe",-10.843187048363232],["despacho",-10.843585110440932],["Capital",-10.84363343859869],["inmun",-10.843822412368194],["arquero",-10.843849368658823],["supo",-10.84447049462796],["espíritu",-10.845927403223484],["Vial",-10.846841666323495],["doce",-10.847320861753992],["Hub",-10.849028250544059],["edil",-10.849306306013759],["resultar",-10.849778098960986],["arroj",-10.850946991724982],["hogare",-10.850960201302794],["venga",-10.851629959502958],["viaj",-10.852169690268672],["Jer",-10.852622197806262],["pareci",-10.85305979505886],["acus",-10.85461652178168],["arco",-10.855655044294476],["coge",-10.855771215137889],["masculino",-10.85616120841189],["numerosa",-10.856161226712562],["Universitario",-10.856161264145321],["Comunica",-10.856163474958755],["Electoral",-10.856173159936867],["desempeño",-10.856186801878936],["extraordinaria",-10.856187898673639],["dominio",-10.856221559199383],["crece",-10.856228981764804],["Tru",-10.85625569131393],["falso",-10.856266143611318],["elenco",-10.85628738177437],["cuidados",-10.856454155789727],["quinta",-10.856520333943289],["defiende",-10.856629068113978],["barra",-10.856689621456802],["MLO",-10.856912728135585],["Flores",-10.856923124962549],["cobrar",-10.85695103296213],["Ayer",-10.857319200113977],["circular",-10.857697298044584],["conquista",-10.8581906592448],["reúne",-10.858806547441915],["intenso",-10.859123505599602],["Clar",-10.859163434511682],["organizar",-10.859218875231306],["Pap",-10.860043369761971],["Euro",-10.861079725252317],["Gil",-10.861483778357758],["ejecutar",-10.861869191243823],["presentaba",-10.861980884959689],["Director",-10.864960375632357],["seguía",-10.865153184448294],["salvo",-10.865186799500947],["erg",-10.865268068977581],["otorg",-10.866043258746622],["vivido",-10.86604466581796],["estrena",-10.866505506601264],["prefier",-10.86691845876311],["Alon",-10.867179898129812],["igo",-10.867600714361267],["boleto",-10.867872708737345],["Produc",-10.868024242441834],["legi",-10.868029421547934],["sancio",-10.868916230065711],["Jan",-10.870402443236719],["académico",-10.87131270371853],["democrático",-10.871312705061063],["Distrito",-10.871312767774356],["Academia",-10.871312895561676],["siniestro",-10.87131301329513],["Digital",-10.871313053119604],["Superior",-10.87131325171053],["célula",-10.871315886447453],["Bogot",-10.871316039448498],["rutina",-10.871323268855814],["belleza",-10.871326510566039],["exceso",-10.871350180330387],["(…)",-10.871390122687618],["estré",-10.871482063830353],["92",-10.871608094675167],["preci",-10.871609754370976],["lema",-10.871620152326386],["OMS",-10.871711752996545],["mueve",-10.871944907727208],["polvo",-10.871952700752132],["reducido",-10.871962687482899],["Mercado",-10.871971372094052],["calcula",-10.872171437873195],["acumulado",-10.872338023047107],["Espera",-10.872608404789244],["Hé",-10.87287299564818],["84",-10.872949092704573],["descubierto",-10.873068304401137],["comuna",-10.873094755940546],["Agust",-10.873227885181265],["Merced",-10.873354717677959],["81",-10.873580645757137],["zco",-10.873762235529444],["consigue",-10.873959856714915],["Mál",-10.874204382388717],["caro",-10.875757537820121],["expuesto",-10.875875036419078],["culto",-10.876041719840867],["adjudica",-10.876114525918476],["vencer",-10.876407499704097],["menud",-10.8766365546794],["programado",-10.877057429991755],["exp",-10.87708885354272],["Cap",-10.877440600987873],["sustitu",-10.877470143429242],["900",-10.877558297060965],["kin",-10.877699262680894],["RT",-10.878376554235434],["justifica",-10.878777157667011],["critica",-10.879007689989951],["igi",-10.880553093835811],["permitido",-10.880894870682361],["iniciado",-10.880921151671846],["Obra",-10.881675548507948],["GP",-10.881958503195962],["robar",-10.882346602838538],["Muñ",-10.88349756171338],["creer",-10.88389583139036],["jubila",-10.88449963877844],["Alba",-10.884504859627864],["echar",-10.884718072301329],["acelera",-10.884793439634633],["intencion",-10.88515033890248],["Latino",-10.885200535144048],["Leon",-10.885591957313853],["pies",-10.885831503434925],["Pat",-10.885867461950241],["repetir",-10.886026097063022],["engañ",-10.886238209845553],["nutri",-10.886293908897898],["Mur",-10.886680619292601],["Política",-10.886697352102033],["ingeniero",-10.886697612926879],["patrulla",-10.886697670336467],["voluntario",-10.88669809574383],["Seguro",-10.88670276626291],["aérea",-10.886751485846105],["Rural",-10.886813094327888],["pintura",-10.887000818492952],["futura",-10.887126401153825],["acompañamiento",-10.887197931424305],["repent",-10.887220818251707],["Tucu",-10.887223094108046],["investigar",-10.88723875865914],["jurado",-10.887248923303677],["aspirante",-10.887379857974398],["visa",-10.887664971396608],["legado",-10.887692570343027],["ascenso",-10.888160323621598],["comparte",-10.888358565183289],["retiro",-10.888391628943126],["peligroso",-10.888905593815526],["box",-10.889118286703821],["corpora",-10.88987671801555],["vendi",-10.889996853439381],["manifestado",-10.890920988748352],["Bell",-10.892194046370484],["comprender",-10.89240176067049],["variable",-10.892640824754988],["ON",-10.892803235611943],["91",-10.893054354959933],["jada",-10.893246081985772],["promete",-10.893263276230613],["comprador",-10.893266577766314],["atendido",-10.894080367853748],["Marc",-10.894809572138387],["generan",-10.895186021098047],["parti",-10.895702994458905],["inclusiv",-10.89587525684702],["Lion",-10.895941541703465],["consum",-10.89694998495418],["etti",-10.897025530177643],["umbr",-10.897668019160568],["recuperado",-10.898330710637243],["rodea",-10.898547223916918],["ija",-10.899354323661427],["ándolo",-10.899863558373482],["interesa",-10.900279822168102],["hablado",-10.900992110168328],["pesa",-10.901038967117428],["comprobar",-10.901108676907587],["parada",-10.901976715773225],["Segui",-10.902093894628372],["adquisi",-10.902205978910965],["Profesional",-10.902322319114301],["específico",-10.90232231911774],["democrática",-10.902322319122888],["estratégica",-10.902322320079179],["refugiado",-10.902322320172626],["izquierdo",-10.90232232037546],["comisaría",-10.902322384898357],["expansión",-10.902323066411022],["artística",-10.902323854540239],["embarca",-10.902324512775412],["persecu",-10.902325797101899],["vacío",-10.902332149767169],["Había",-10.90233304975521],["Quién",-10.902339964199474],["dibuj",-10.902348867409202],["destinada",-10.902369614629027],["destruc",-10.90243819117194],["ésped",-10.902502902452298],["potente",-10.902573123146478],["colectiva",-10.902696488307855],["corredor",-10.902890019927952],["alia",-10.903127034156283],["emoción",-10.903396435502895],["convocado",-10.90348384477435],["Hondur",-10.903570818562653],["propuesto",-10.904029896907428],["evilla",-10.904331564513665],["IM",-10.904336461661238],["disputado",-10.90450844069342],["extendi",-10.904848982476892],["83",-10.90488935666497],["Negro",-10.905320266332762],["Alto",-10.905461614777105],["novela",-10.906063776224439],["seria",-10.906166206963725],["ística",-10.906900861314494],["Cant",-10.907733338483276],["exige",-10.907852795027377],["aves",-10.908107136597918],["funcionar",-10.908684241933882],["contribuir",-10.909481325672395],["atacar",-10.9097285094247],["causar",-10.909957726557163],["remate",-10.910405997782325],["fac",-10.910633591430118],["evoluciona",-10.910699422673591],["imponer",-10.911818982295607],["mantenga",-10.912635542446733],["costado",-10.912784620890278],["formado",-10.913079210591015],["Pep",-10.91336727169912],["hum",-10.913378774486228],["cher",-10.913654981853462],["levant",-10.914055727155727],["llegaba",-10.914192463088767],["corona",-10.915209502059414],["ayudará",-10.91523450776651],["lgado",-10.9160476902817],["Leg",-10.916625955655306],["instruc",-10.917677138238764],["IT",-10.91808279168458],["à",-10.91819533497346],["Guerrero",-10.91819533772787],["profundidad",-10.91819534660554],["custodia",-10.91819537675326],["muchísimo",-10.918195396847416],["infancia",-10.918196267842081],["universo",-10.918208772876959],["masiva",-10.918231974473432],["Alfred",-10.91831040975843],["ruptura",-10.918311382854572],["recicla",-10.918592641992554],["Control",-10.918787633552334],["atentado",-10.919313930473987],["prolong",-10.919439515904111],["duría",-10.919762882640688],["cosecha",-10.920119981469567],["particulares",-10.92049465137408],["aprobada",-10.92068570048262],["disputar",-10.921195994981852],["sufre",-10.921250525882666],["consultar",-10.922430774261166],["tard",-10.922656424725464],["cismo",-10.922850057009065],["cina",-10.923210046642804],["monitore",-10.923213155589757],["titud",-10.923228566202361],["verso",-10.924623993321877],["More",-10.925184773388459],["traído",-10.925211104576242],["ficha",-10.926098386755628],["Ze",-10.926303629955775],["ormalidad",-10.926599247738507],["navega",-10.927299621959353],["ML",-10.927435181493859],["Iber",-10.92774868948499],["93",-10.927851860779942],["encarga",-10.928662392744329],["publicada",-10.928930434758877],["romper",-10.929124986414678],["gastr",-10.929518967112319],["invit",-10.93027012443554],["localiza",-10.93033006849343],["revoluci",-10.930478984326694],["caracteriza",-10.930564606387858],["jefa",-10.931396999085262],["bert",-10.931950765632678],["Reye",-10.931952154085177],["terra",-10.932844263002188],["aclarar",-10.932906901100576],["terminal",-10.932931264992458],["UN",-10.93326499952703],["roto",-10.933440967047884],["operar",-10.933969071097007],["fruto",-10.93408679256095],["juventud",-10.934324372740832],["climática",-10.934324375056065],["precedente",-10.934324446789699],["ayuntamiento",-10.934324596085446],["demócrata",-10.93432508631982],["Torneo",-10.93432811089424],["museo",-10.934392161924343],["explican",-10.934617595964909],["transparencia",-10.934624438601869],["especializada",-10.93485307554276],["culpable",-10.934906787435686],["movi",-10.934949368780817],["hir",-10.934952828313854],["Unite",-10.935366623623416],["Cuenta",-10.935938461585728],["vocero",-10.936191437994534],["Marina",-10.936599286506432],["francesa",-10.93667790270068],["ventana",-10.936803895114124],["china",-10.93705717509242],["palo",-10.937245473226639],["atendi",-10.937604533093609],["licia",-10.938286091349251],["difundi",-10.93840080167179],["grit",-10.938858300248238],["sencilla",-10.939343621218885],["viaja",-10.939513477286798],["Max",-10.939555221113729],["complement",-10.939860122912112],["convivencia",-10.94055999403868],["diseñado",-10.94059278610683],["Asia",-10.94102255743108],["neros",-10.941074947379665],["Local",-10.941077332080134],["XI",-10.941227910467154],["contaba",-10.942434061298782],["94",-10.942827708667288],["retomar",-10.942953348516038],["castig",-10.943036368630253],["2000",-10.943160075284638],["sienta",-10.943178150748125],["umbre",-10.94319552888154],["disputará",-10.943774082592896],["beca",-10.94406571342602],["dependien",-10.944537140761852],["calenta",-10.945592166057192],["discut",-10.946105335380887],["sinti",-10.946228876670467],["cuento",-10.94646771853877],["miti",-10.948046207207941],["daría",-10.948786269896356],["creció",-10.949074476316405],["expuls",-10.950417989872879],["decora",-10.950711510452308],["jurídico",-10.950717811576897],["diplomática",-10.95071781165033],["Argentino",-10.950717812416897],["motocicleta",-10.950717812462473],["cubierta",-10.950717813694833],["iPhone",-10.95071781941919],["equipamiento",-10.950717839985403],["iglesia",-10.950717914294799],["mérito",-10.950719566274927],["comité",-10.950721639143659],["mascota",-10.950723102026002],["Ourens",-10.950724416612125],["terrestre",-10.950725701060275],["emprendedor",-10.950727189006976],["sugiere",-10.950744290885947],["enseñanza",-10.950800911738932],["obvia",-10.95080347084119],["estrecha",-10.950810064987113],["riqueza",-10.950841821495926],["delegado",-10.950844145012372],["masivo",-10.9508966702581],["conocía",-10.950921303766656],["teoría",-10.950948518199326],["publicar",-10.951039142327431],["Valenciana",-10.951596510419341],["ambi",-10.951612883165769],["encargada",-10.95190496477116],["significativo",-10.95208864922561],["dejará",-10.952280316604668],["madera",-10.952350143491707],["administrativa",-10.953010775610444],["tismo",-10.953187769305973],["predio",-10.953715720733536],["coincidi",-10.953729364063785],["Ama",-10.953834669925033],["rey",-10.95392858908071],["cantar",-10.955465648761459],["latino",-10.955678940848491],["tendido",-10.955711941713423],["05",-10.956242643715587],["bombardeo",-10.956452098775404],["causado",-10.95659651348383],["pida",-10.956874438456666],["productivo",-10.957329413446562],["peda",-10.958124796283151],["insiste",-10.958132214510908],["ort",-10.958283213706693],["visual",-10.958382585016826],["gh",-10.958849312604709],["audi",-10.959388654370912],["compromet",-10.96003536498138],["Ray",-10.960047327846933],["Mesa",-10.960106656163864],["proporcionar",-10.9603184460799],["adilla",-10.96069710489085],["celebrado",-10.961111937726352],["manifestante",-10.961285144559259],["iner",-10.961334763000218],["cast",-10.96270683617223],["fall",-10.964089472655655],["argument",-10.964300411209694],["arena",-10.96473191296208],["expone",-10.964919536146175],["Cá",-10.965331850091571],["Rivera",-10.966072336254456],["sentar",-10.966198040528024],["fama",-10.966395655864389],["Gri",-10.966967977455067],["continuó",-10.967110044422586],["viajaba",-10.967323478458237],["embarazo",-10.967384487165805],["agricultor",-10.967384509519947],["acontecimiento",-10.967384936486589],["dulce",-10.967385077987007],["manipula",-10.96738626152246],["diligencia",-10.967386871411811],["huelga",-10.967389315605592],["Blanco",-10.967389548432788],["Herrera",-10.967391578949128],["intercept",-10.96739422953148],["piscina",-10.967401401595076],["aterriz",-10.967409505368494],["Español",-10.967411102349816],["renovable",-10.967436320908757],["Orteg",-10.967455096696302],["Alguna",-10.9674822526413],["oficio",-10.967503675612974],["Mejor",-10.967580243598844],["brecha",-10.967648982637018],["Consult",-10.967655061343969],["emprendimiento",-10.967655136356203],["restante",-10.96766707885978],["posesi",-10.967688708346657],["huella",-10.967738589949278],["financiamiento",-10.967923385867568],["dormir",-10.968164256667777],["directiva",-10.968181959110911],["Indic",-10.968185401048988],["supervis",-10.968193568704017],["copia",-10.96830594226738],["pasaje",-10.968348511676325],["incaut",-10.9684558791132],["respond",-10.968517322640022],["Europeo",-10.96904529233792],["Rob",-10.96914749767831],["estudi",-10.969345377598446],["colaps",-10.969547048292428],["concluye",-10.969567679579352],["CEO",-10.969682447018542],["flu",-10.969823462655349],["Explic",-10.970992423077197],["saldo",-10.971551601027857],["06",-10.97172445404341],["rector",-10.971878909859171],["asalto",-10.972321217081651],["ifi",-10.972635971839804],["rato",-10.972921037463381],["impulsa",-10.973682873835472],["anza",-10.974059493080565],["PRO",-10.9743390132769],["TC",-10.974690798614247],["padece",-10.97497921580414],["insumo",-10.975499054876288],["integrado",-10.97596565208546],["caminar",-10.976005498955955],["veinte",-10.976942617371165],["toque",-10.977688236344918],["gestione",-10.97848565069713],["conform",-10.978701405912105],["sentenci",-10.98019613064487],["Dep",-10.980241015263076],["ango",-10.980808022333914],["diz",-10.982289146549576],["futbol",-10.982517207292734],["Cort",-10.983797189720251],["reportado",-10.984041871265758],["humanitaria",-10.9843336290832],["núcleo",-10.98433362918643],["jurídica",-10.984333630980577],["nublado",-10.984337881443185],["Campeonato",-10.984349057978015],["Jujuy",-10.98435839335069],["sequía",-10.98437309596024],["vieja",-10.984440999533383],["bancaria",-10.984449991992864],["especific",-10.984487031654737],["abuelo",-10.984536701418413],["sensible",-10.984570931850588],["exigir",-10.984644762002137],["cinta",-10.98466567635736],["onomía",-10.984949744126881],["querer",-10.985187391040881],["War",-10.98554494852978],["Gesti",-10.985771359918871],["atriz",-10.985805802336664],["cometer",-10.986368388753386],["Ruta",-10.987097226271853],["anteriormente",-10.98726520469586],["Macri",-10.987413090409468],["acompañada",-10.987637804335336],["vot",-10.987758650387143],["Franc",-10.987840029797784],["mirar",-10.988070836038748],["pedi",-10.98846011012862],["morir",-10.988530725929124],["calma",-10.988872766237055],["tomada",-10.98896540772705],["especula",-10.989132261373047],["enseñ",-10.989362984976442],["describi",-10.989542778662848],["PAN",-10.989560308390264],["grati",-10.990777820721508],["cruzar",-10.991096688501717],["civile",-10.991214108962543],["investigado",-10.991669695034965],["aumentado",-10.991728427572419],["Rom",-10.99277342758251],["renovar",-10.995250790197158],["fría",-10.995558843854003],["presa",-10.996604792473335],["reproduc",-10.997458406833374],["Edi",-10.997712201327253],["sumado",-10.997836475107748],["habitacion",-10.998929759675587],["iraní",-10.998967003549895],["uña",-10.999219794077135],["introduc",-10.999622390324383],["q",-11.000095466461163],["presidi",-11.00076967965013],["ª",-11.001575008373859],["columna",-11.00157500850754],["temprano",-11.001575025988746],["Oficial",-11.00157503899215],["compleja",-11.001575044659164],["voluntaria",-11.001575047710624],["neutral",-11.00157506104403],["Vladimir",-11.001575104942338],["hipoteca",-11.001576763803133],["juvenil",-11.001578323712849],["atleta",-11.001584811367238],["agradable",-11.001590634551324],["frecuente",-11.001590943537993],["excusa",-11.001633268439925],["insult",-11.00191020869028],["goleador",-11.001961949903706],["ignora",-11.002056849462422],["tejido",-11.002177166939598],["respald",-11.002278646832712],["vigor",-11.002382237249847],["orgulloso",-11.00250807153329],["deriva",-11.002569386472548],["íba",-11.002693861028604],["sostener",-11.002732725752915],["actúa",-11.002864464420348],["tercio",-11.002948229815047],["traza",-11.003212486782449],["pira",-11.00321327815848],["Mayo",-11.003634835884853],["ocupar",-11.003639805552693],["ejerci",-11.004158531664908],["simula",-11.004470124999923],["far",-11.00453569901517],["entera",-11.004637452343239],["ími",-11.005951809844515],["IF",-11.006127795908151],["Nicarag",-11.006422698082732],["ponía",-11.00706476250732],["deterioro",-11.007419757938429],["Cho",-11.007825164379927],["giro",-11.007925285463],["dispus",-11.008007137348716],["ford",-11.009776756957748],["deceso",-11.01004734590705],["practica",-11.010392959113194],["puntual",-11.010538152708733],["Hor",-11.011018766094066],["argumenta",-11.011048758621557],["regidor",-11.012896439081883],["ocupado",-11.013565068658309],["Teng",-11.014000674822345],["cá",-11.014945193131993],["igencia",-11.014984581448626],["Dor",-11.015333648896188],["XX",-11.016643774104619],["inspira",-11.016850416592577],["Angel",-11.017285155964224],["seca",-11.01764167700777],["perjudica",-11.01766093011955],["definido",-11.017772771058606],["Media",-11.018550750076466],["Libertad",-11.018856547918045],["utiliz",-11.019060391436877],["•",-11.019118868022982],["intérprete",-11.019118868026224],["colombiana",-11.0191188689204],["espectador",-11.01911893327708],["juzgado",-11.019119344218964],["Vázque",-11.019119404028556],["extraordinario",-11.019137543457841],["exitosa",-11.01913820110785],["aerolínea",-11.01917133509209],["cercanía",-11.019212203838991],["preliminar",-11.019219901285956],["Michel",-11.019248305209647],["automática",-11.019250649608555],["lenguaje",-11.019292064588964],["tolera",-11.019328882165027],["Habla",-11.019347638258697],["bailar",-11.019680677213408],["felicidad",-11.019768732083914],["dist",-11.020220427877394],["propus",-11.020565415011788],["disminuir",-11.02155102761552],["taller",-11.021585990086782],["TI",-11.021848614751649],["01",-11.02192072529859],["indigna",-11.021980166117451],["tension",-11.022382511017044],["ampli",-11.023127337433854],["Poco",-11.023354373853152],["atrac",-11.023364331697714],["frenar",-11.023474572576493],["FI",-11.023516823028807],["evit",-11.02353240726713],["situado",-11.023599318136236],["Part",-11.024094642873882],["Mai",-11.02427415604583],["separado",-11.024952135481188],["transmitir",-11.025046645737612],["avanzada",-11.02509757957635],["festejo",-11.02522227728111],["Personal",-11.025553722937481],["relaja",-11.025908372070614],["ponien",-11.025930810122787],["expresado",-11.026442118309102],["indicar",-11.027359768072623],["maí",-11.027858575293408],["recurrir",-11.027888020197905],["buscará",-11.028367317530801],["procedi",-11.028594272490121],["avione",-11.029352224251284],["proporcion",-11.029455749894819],["Forma",-11.029894698910326],["agradecido",-11.03075496200541],["pura",-11.031248960774644],["Asegur",-11.031536390483506],["transporta",-11.031626344881866],["Ant",-11.031837522436904],["Alex",-11.031912578685901],["cordó",-11.032583848643974],["profesi",-11.032848762692993],["armada",-11.033249682368115],["transacci",-11.033620789748564],["bet",-11.03443693191523],["kovic",-11.034904812003182],["activ",-11.034940620405308],["indican",-11.0351357953324],["competitiv",-11.03527385263926],["MW",-11.035750762741529],["felic",-11.036383993650361],["limitado",-11.03640145648422],["Olímpico",-11.03697601088296],["Autónoma",-11.036976010890609],["estratégico",-11.036976010897586],["magistrado",-11.03697601204739],["magnitud",-11.036976096646299],["naranja",-11.036976430280554],["Médico",-11.036977644850754],["software",-11.036987910747522],["Código",-11.036990301394496],["barrera",-11.037005908457076],["externo",-11.037019564562577],["Donald",-11.037039222053961],["turística",-11.037059815268995],["cubana",-11.03708000801542],["forestal",-11.037103661525013],["ndroid",-11.037111282729105],["huevo",-11.037242586213889],["comodidad",-11.037263880162758],["comet",-11.037579494706629],["Charl",-11.03770034730056],["quí",-11.038091564186903],["alberga",-11.038683129055341],["Habr",-11.039151388321166],["difus",-11.039222251708093],["apié",-11.03934039594769],["avia",-11.03936403551219],["volante",-11.039408054905447],["convencido",-11.039724289677597],["portó",-11.039995502841329],["transcur",-11.040008359886613],["Tom",-11.040547962172655],["instalar",-11.041088110882914],["pyme",-11.041234821348436],["concesi",-11.041560101763299],["niega",-11.04157156884407],["notifica",-11.04180723516566],["manual",-11.042286778469586],["presentador",-11.042653779743118],["muni",-11.042827872453511],["unido",-11.043141192219341],["elaborado",-11.043318701144372],["rock",-11.043470546063531],["finaliza",-11.043896144797124],["gasta",-11.044088921857782],["Mexican",-11.044317254929673],["asiento",-11.045499907816435],["ánimo",-11.045862243599778],["mapa",-11.045964528748485],["É",-11.046012948797918],["consultor",-11.0460170198658],["procede",-11.046348157674746],["coincid",-11.046681617034253],["ilidad",-11.047406498466394],["dañ",-11.048044428945435],["landi",-11.048619041019668],["calificado",-11.048833065789857],["prendi",-11.049244522461846],["put",-11.04930782925893],["Anti",-11.049384982452722],["iami",-11.049599775335793],["ocup",-11.05063507748985],["derivado",-11.05090830095322],["Cata",-11.051046999437148],["pasaba",-11.051540341143095],["remonta",-11.052278974459693],["pelear",-11.05271515108885],["iano",-11.053949369186636],["Conven",-11.054156408606724],["gesto",-11.054502239830494],["Goberna",-11.05470205763417],["entretenimiento",-11.055157858443552],["economista",-11.055157925121927],["depósito",-11.055158163734738],["compatible",-11.055158354789747],["imón",-11.055158905390043],["Quizá",-11.055160933385945],["absoluto",-11.055164047844617],["asesinada",-11.05516694521774],["Alianza",-11.055176793313768],["amarillo",-11.05519591352834],["Chris",-11.055218895527133],["enfermer",-11.055221563443332],["Monterre",-11.055242643848008],["Black",-11.05525775013327],["Área",-11.055274093088434],["Consider",-11.055290194553999],["Hotel",-11.05529176441029],["equivalente",-11.055295805484423],["fórmula",-11.055310835316629],["Foto",-11.055388258740468],["reloj",-11.055458908538636],["ógeno",-11.055508703594112],["parezca",-11.05550953905761],["anim",-11.055711104949465],["vali",-11.055830270563888],["Arabia",-11.056006152176451],["Bolson",-11.056399214006394],["Press",-11.056576588272613],["reunir",-11.056707562838977],["Lin",-11.056788810084948],["contest",-11.056803025796127],["rov",-11.056920037936917],["ww",-11.056923027715744],["nave",-11.057001298495159],["punt",-11.057656583451907],["complicada",-11.057804382894702],["jubilado",-11.05788656027045],["Llega",-11.05822290425595],["efectuar",-11.059005514647708],["alinea",-11.059329295259497],["carece",-11.059770090048076],["ónimo",-11.060357396433671],["secuestro",-11.060409816699138],["comenzado",-11.060689832247792],["conozca",-11.060805244218182],["UR",-11.061621791207685],["dimension",-11.061641140799098],["toño",-11.062012155767803],["Cháv",-11.062099550323584],["acerc",-11.062830838719474],["estimado",-11.063496579663727],["bancada",-11.063571949864082],["participará",-11.063693128823669],["obligatorio",-11.064202331095055],["atraves",-11.065884823735562],["out",-11.06621571696416],["pensado",-11.066685502954257],["bús",-11.067245776318732],["denominado",-11.067425230243636],["sepa",-11.06892405019294],["formul",-11.069427212949167],["Sanidad",-11.070267950258316],["demostra",-11.070398027142925],["alert",-11.070600856259112],["recorr",-11.070645194785056],["mbre",-11.070674014515518],["morado",-11.07190881363099],["buscaba",-11.072828490862335],["héroe",-11.073610097983392],["Empresa",-11.073674821566666],["YouTube",-11.073676348520964],["británica",-11.073676352153418],["temprana",-11.07367636268606],["comunitario",-11.073676383952293],["extranjera",-11.073676399927045],["perteneciente",-11.073676421913236],["monetaria",-11.07367645346227],["Alfons",-11.07368052699304],["congresista",-11.073680664057546],["laboratorio",-11.07368919684235],["precau",-11.07368979346872],["Historia",-11.073693197025843],["Reserva",-11.073696705314001],["Balear",-11.07375996362312],["Asunto",-11.073827541831971],["Libertador",-11.073953486753693],["deposit",-11.074155303808487],["beneficiario",-11.07418898929352],["rango",-11.0743736755762],["bienvenida",-11.074397514641365],["exigencia",-11.074509880649353],["halla",-11.075216012845152],["Chica",-11.075514461920198],["trig",-11.07559203933408],["linda",-11.075676043550137],["recolec",-11.076062968394119],["comisiones",-11.076294534689152],["flota",-11.076397246855691],["compartida",-11.077621093628782],["sincer",-11.078285651000451],["caballo",-11.078852985680212],["dedicada",-11.07919124858185],["centrado",-11.079213177393942],["pronunci",-11.079307972782281],["DO",-11.079522108033023],["salva",-11.08043799788717],["determinada",-11.08061521161258],["servir",-11.08061727193872],["registran",-11.08090095193206],["Industria",-11.082405403368485],["inmedia",-11.082462801984905],["opta",-11.082715301156021],["concretar",-11.082875409628787],["CV",-11.08315568374624],["Rui",-11.083655370562209],["descart",-11.084602558579864],["agredi",-11.085030128096516],["financiar",-11.085101354870844],["comentado",-11.0855177299518],["detec",-11.08554308328259],["iño",-11.08622271262184],["GB",-11.086627378498797],["American",-11.088494269440504],["cierra",-11.088629259493507],["adop",-11.089012324292723],["Campeon",-11.089037746102132],["reflexion",-11.0896356263689],["Leo",-11.08992774104276],["chip",-11.09027486751423],["Dar",-11.090409609591354],["IP",-11.090452002421127],["hall",-11.090587896326086],["Joaqu",-11.090830479750057],["amparo",-11.091220001637968],["gres",-11.091387745045965],["distin",-11.091419962018355],["cuer",-11.09179127965362],["gnacio",-11.092447851555795],["helicóptero",-11.092544272108817],["Emergencia",-11.092544272405883],["amistoso",-11.092544644845063],["atraviesa",-11.092544873407686],["débil",-11.092544953478264],["Generalitat",-11.092545234172892],["reemplazado",-11.092545537429192],["certeza",-11.092554522781104],["carpeta",-11.092556244326326],["accesible",-11.092560821454187],["brutal",-11.092560864332013],["vestuario",-11.092565897599306],["Añadi",-11.092571317505154],["porteño",-11.092599798471223],["etiqueta",-11.092656749691033],["resisti",-11.092681696820978],["poderoso",-11.092708167556061],["importe",-11.092712231737739],["atólica",-11.09271450555212],["fichaje",-11.09272204102928],["confía",-11.092757288665569],["stream",-11.092858745942538],["legislativa",-11.09292977656169],["Soy",-11.093469431450476],["huan",-11.093522151513858],["atiende",-11.093683519209574],["Mark",-11.093786980148012],["rich",-11.093875280323461],["consta",-11.094154905199652],["BB",-11.094473299507964],["Federic",-11.09503275834571],["bí",-11.095048058731434],["Mile",-11.095065305769104],["varado",-11.09558714713188],["ènci",-11.096052008275361],["altera",-11.096512451173673],["negociar",-11.096966186019436],["data",-11.097308517915877],["atacado",-11.097647496922809],["ofrecerá",-11.097698708014072],["Tim",-11.097893240660131],["discutir",-11.097917782627798],["Gali",-11.098193298846942],["ioja",-11.09872412808944],["nombrad",-11.099337524694244],["otable",-11.100639020221992],["complet",-11.101193694402198],["Camil",-11.101887520556694],["sext",-11.101933722873097],["cito",-11.102546699604845],["rug",-11.102601707537795],["Park",-11.103229294262237],["reflej",-11.103281001974548],["Audi",-11.103542543254614],["veni",-11.104135105694438],["intervin",-11.104947013398812],["radica",-11.104980702290373],["retorno",-11.105081555050635],["ijo",-11.105408140997243],["Cár",-11.105614705654714],["verifica",-11.105735357573597],["vivencia",-11.105795237676922],["goza",-11.1063861381594],["goberna",-11.106498860503347],["ert",-11.107057272032053],["Berl",-11.107546026278001],["manejar",-11.10759287122769],["irán",-11.107666735950664],["preocupado",-11.10845300086176],["Sigu",-11.108562844540927],["frac",-11.108674585445986],["sufr",-11.109385304804698],["arrib",-11.109647705733895],["Far",-11.109670169144929],["observ",-11.109914491288459],["04",-11.110199279321929],["escaño",-11.110451107485396],["bosque",-11.110776266804713],["Comunita",-11.111605486485574],["trayecto",-11.111617819584476],["Proyecto",-11.111775043442115],["delincuencia",-11.111775057335826],["protegido",-11.111775063460035],["hábito",-11.111775076476354],["ingrediente",-11.111775423466781],["acífico",-11.111775749666581],["Movimiento",-11.11177635361187],["autónomo",-11.111777265347294],["Precisa",-11.111777623569186],["peruano",-11.111779922313405],["Secretario",-11.111797776797646],["desfile",-11.111817706096172],["patio",-11.111839705943135],["apartado",-11.111844202939816],["acordar",-11.111915990506787],["resolvi",-11.111937098952161],["irregular",-11.112011086857496],["Leonard",-11.112031277554628],["atacante",-11.112138319917825],["saldrá",-11.112167510471709],["pool",-11.112209847923507],["consolida",-11.112216457329957],["estancia",-11.112332469334412],["Pilar",-11.112588408604289],["productiva",-11.112770443179633],["relaciona",-11.112851450342383],["Inici",-11.113011861787417],["legisla",-11.113118812251784],["alcaldía",-11.11315875506859],["Serie",-11.113276518934253],["impresionante",-11.11340694327371],["mega",-11.113584430984611],["explicación",-11.113980753436667],["fomentar",-11.114085736413317],["Orti",-11.114336112190713],["lix",-11.114574034177135],["interac",-11.114800461719511],["field",-11.115050194768399],["escrita",-11.115072110164748],["dieta",-11.115408762947446],["guardar",-11.115546412586685],["necesitaba",-11.117429820506896],["cedido",-11.117577411116528],["desigualdad",-11.118504614876965],["Vél",-11.118652949889958],["XXI",-11.118715941360314],["burg",-11.119224327355687],["elevar",-11.119422259030237],["sentado",-11.119754630160424],["suceder",-11.119926201768678],["destacada",-11.120706094851098],["humo",-11.121820859286913],["Cerca",-11.122036967346979],["tuv",-11.122476382506521],["liber",-11.12252539492355],["votante",-11.122547368147346],["visualiza",-11.123094335323493],["escuchado",-11.12316787436562],["agregado",-11.123297787411717],["integrar",-11.123305466839787],["sigla",-11.123430293950069],["Mer",-11.124838641310209],["Franco",-11.125201656145332],["origin",-11.12572055720905],["DT",-11.126489787107412],["Claro",-11.126518374766423],["tacó",-11.126800747890792],["efectu",-11.12721729114312],["Tro",-11.127532352141735],["mac",-11.127571456706741],["Gan",-11.128335225347076],["Smi",-11.128381308919742],["considerando",-11.128500819815327],["Sandr",-11.129962704094963],["fortuna",-11.130531473715621],["Campe",-11.130670842506348],["abinete",-11.130819428402488],["académica",-11.13138288447901],["franquicia",-11.131382885526842],["Facultad",-11.131382892323703],["Estudiante",-11.13138297383978],["módulo",-11.131383106491988],["pulgadas",-11.131383589685472],["Representante",-11.131397624275893],["delictivo",-11.131436403024004],["Ciudadana",-11.13145136864845],["reduj",-11.131517120272743],["Camino",-11.131566650561389],["cintur",-11.131658231813269],["interanual",-11.13182935277306],["Patria",-11.13183597302074],["escalada",-11.132030493657638],["estatu",-11.132039292141812],["TO",-11.132123342250493],["Imag",-11.132159825262164],["Shak",-11.132187500322207],["pagó",-11.132356898824465],["fresca",-11.132471367510279],["maestra",-11.132536718392696],["representar",-11.132720670944186],["Dic",-11.133732327062736],["inyec",-11.133923140314636],["nieve",-11.134166774472929],["llave",-11.134390481370454],["cobar",-11.134940335894305],["marcada",-11.135176460653229],["desarrollando",-11.135225628239546],["estructural",-11.135793366475433],["padr",-11.136093226964611],["madura",-11.136170652881049],["Cro",-11.137289080662008],["gastar",-11.137399670311016],["valenciano",-11.137570123623696],["nic",-11.138536071805804],["fijo",-11.139233788441189],["desbord",-11.13991629922765],["mandar",-11.139974013747636],["denomina",-11.140244920721324],["Estaba",-11.141891624960024],["gestiona",-11.141996835344942],["Vol",-11.14217857794283],["especialidad",-11.142196767011582],["implicado",-11.142330752130505],["mbul",-11.142339544397165],["hinc",-11.14255052581304],["chef",-11.144728833751682],["utilizada",-11.144743201527884],["pared",-11.145861460636555],["gust",-11.146343352339802],["honest",-11.146633984831658],["sustent",-11.147318460012954],["acional",-11.148359165611836],["existi",-11.148616531714747],["redac",-11.149318863463547],["presione",-11.149353012487971],["Rock",-11.1493723995477],["inaugur",-11.149513276979626],["finalidad",-11.14958107460009],["Tam",-11.150412637285273],["equivoc",-11.150648155218228],["igan",-11.150907164717896],["IE",-11.151174132177859],["gubernamental",-11.151382884484397],["Chihuahua",-11.151382886388415],["ejemplar",-11.151382887756734],["Metropolitan",-11.151382907193694],["pertenencia",-11.15138341350365],["Trabajador",-11.151383741183878],["Disney",-11.151385257396743],["Michoac",-11.15138540974168],["artístico",-11.151385418808278],["sometido",-11.151398348726628],["facilidad",-11.151402986695274],["Jaime",-11.151423021758577],["aislamiento",-11.151424501974994],["Micro",-11.151442425497176],["abasteci",-11.151448029732503],["montaña",-11.15149950379439],["Presupuesto",-11.151589658335354],["vendedor",-11.151645875535504],["extorsi",-11.151827986631861],["percep",-11.151856511362357],["telefónica",-11.151886265641409],["impon",-11.151971520286716],["irregularidad",-11.152102582771482],["oral",-11.152116108478545],["asesino",-11.15222032957266],["Maz",-11.152327640180438],["transformar",-11.152577747168191],["retirada",-11.153202018329154],["favorita",-11.153202653238177],["foment",-11.15332946520555],["2007",-11.153569269598801],["gimnasio",-11.153720017717474],["rumore",-11.15386086210519],["rendir",-11.153931644116433],["macro",-11.15424303292557],["existir",-11.154394905442487],["extrac",-11.154978047569532],["Gui",-11.155250646645396],["atrev",-11.155375078845664],["llenar",-11.15541571748901],["DC",-11.155643007725482],["hab",-11.155877496886752],["Aguilar",-11.155991230875216],["07",-11.15616747569096],["cripto",-11.156275258633382],["interesada",-11.156811186434973],["quedaba",-11.1568707638999],["sombra",-11.157025454493493],["identificación",-11.158360413750714],["Gas",-11.158818328085124],["Bad",-11.158854502958112],["federa",-11.15896271491433],["iniciará",-11.159137536068556],["contagi",-11.159813315383758],["paseo",-11.159912553840087],["arresto",-11.160190589942243],["ardín",-11.161229986508966],["difundido",-11.16131478149254],["postul",-11.161688853984234],["previ",-11.162601375951244],["ceda",-11.164111032349775],["apuntado",-11.164532386736592],["Persona",-11.16468945498833],["hambr",-11.164893515172686],["MP",-11.165113687381961],["desarrollará",-11.165213480217801],["fianza",-11.165447318076428],["reflexi",-11.165506797429448],["lavado",-11.166623020826343],["Hol",-11.167579485169345],["ubic",-11.168200339013737],["cobro",-11.168471763724762],["monte",-11.168623346274979],["analiz",-11.169561742164964],["decirle",-11.169630353378935],["prove",-11.17045113934725],["arranque",-11.17132344467662],["Wh",-11.171671409031342],["uruguayo",-11.171791047903794],["vehicular",-11.171791048157978],["privilegio",-11.171791048181834],["catálogo",-11.171791051391898],["imprescindible",-11.171791059046729],["refugio",-11.171791059723043],["excepcional",-11.17179107502975],["molestia",-11.171791263859257],["Taiw",-11.171791925173142],["Atlántic",-11.171792268864575],["misterio",-11.17179371670355],["Autoridad",-11.171794069588216],["vigila",-11.171794974603175],["rubro",-11.171796241438528],["market",-11.17179958921016],["suicidio",-11.171800669845595],["broma",-11.17180400950228],["bolsillo",-11.171805049053834],["Global",-11.171811147059108],["rescatar",-11.171816070713634],["Michael",-11.171831643200893],["Padre",-11.171838856599255],["arrestado",-11.171870214832625],["optar",-11.171963275517014],["Jefe",-11.171971334651179],["asciende",-11.172034789269393],["Ferrar",-11.172065474092577],["extraño",-11.172075954073307],["añadir",-11.172088998255006],["militante",-11.172267929649102],["retraso",-11.172335790881935],["agrava",-11.172439718809764],["Misione",-11.172517744166997],["taxi",-11.172644172504588],["02",-11.172741032087483],["duplic",-11.17276646004921],["ísima",-11.172893965428347],["afec",-11.172921753748568],["disculpa",-11.173329333135884],["repeti",-11.173820483592626],["empeñ",-11.17418660914527],["plantear",-11.174281655333468],["identificada",-11.175086600966221],["OC",-11.176623169804609],["RS",-11.177324466419762],["abarca",-11.177330072227374],["basta",-11.17742378897067],["compañera",-11.177485061272971],["110",-11.177900864169429],["Tour",-11.178661822499791],["natal",-11.178838389534274],["Migra",-11.179169776086303],["rbita",-11.179201566945746],["Chu",-11.182079505805234],["triunf",-11.182160000933447],["clic",-11.182178459174311],["hallado",-11.182551885782903],["multiplic",-11.183439081071793],["volv",-11.183961634677248],["composi",-11.184083038115554],["Quere",-11.184298473025343],["Mira",-11.18454103681829],["traj",-11.184866558886652],["conectado",-11.187101976050137],["Preven",-11.187111165179479],["rodilla",-11.187746046844874],["estafa",-11.188100095589746],["recoger",-11.188935389378347],["Lara",-11.188978579561748],["atento",-11.189155939169755],["flore",-11.189554769414682],["sensacion",-11.189718125475345],["ejercer",-11.189827525940355],["guard",-11.190136750080205],["olor",-11.190277383943597],["recibiero",-11.190978522816046],["neuro",-11.191623863860045],["Alic",-11.191753547539601],["Institu",-11.192095811316378],["despliegue",-11.192624381077188],["kirchneris",-11.19262438109025],["vergüenza",-11.192624384008584],["consecutiva",-11.192624429194522],["Mbapp",-11.192625078832338],["pronostica",-11.192626655735307],["moderno",-11.192652863066915],["NASA",-11.19273882739939],["baile",-11.192784390297055],["felicita",-11.19278464930877],["Usted",-11.192797041370524],["Llev",-11.192801809290197],["legislativo",-11.19288104216048],["abogada",-11.192994690270954],["originario",-11.193027653101673],["soft",-11.193028484579468],["Puente",-11.193036927914935],["Abina",-11.193082423808441],["Már",-11.193549128499074],["calzad",-11.193915467666825],["canto",-11.193931759914246],["paralelo",-11.194184794327619],["ware",-11.194312447660907],["cordia",-11.194328871989084],["enfermo",-11.194368699769875],["referir",-11.194418933734074],["Trata",-11.194656176358407],["comprometi",-11.194817347820253],["subsecretario",-11.195411498426008],["salga",-11.19543453473948],["ultra",-11.195929866662588],["hit",-11.196896528367157],["pague",-11.196941748891383],["suspendido",-11.19705020498887],["ntino",-11.197103108385988],["oblig",-11.197588032085715],["exista",-11.198431044182334],["danza",-11.198563633850956],["acing",-11.19904526077552],["reclam",-11.19926502440418],["tomaron",-11.199808748034899],["cuello",-11.200886708432765],["sostenido",-11.201123940148946],["Fed",-11.20121376275523],["oscur",-11.20176257073425],["clav",-11.20223211826065],["éram",-11.204037941581642],["acorde",-11.204515210472742],["West",-11.205435692024306],["Macro",-11.205787933509738],["protege",-11.205863156143293],["involucra",-11.20618400031019],["asesora",-11.206477678514487],["Fri",-11.206631081757548],["Cabr",-11.207081261182122],["ingresado",-11.20751068571521],["hospitalizado",-11.207747225624072],["Inc",-11.208771457850238],["localizar",-11.208859205527473],["filia",-11.209003073094458],["preguntar",-11.209358325476211],["adelantar",-11.210066331897671],["DH",-11.210264183452152],["salía",-11.210689163304682],["censo",-11.211348302531055],["considerada",-11.21135064403865],["bloquear",-11.211675716497979],["inspec",-11.212201215486845],["recorri",-11.212548533524807],["ratifica",-11.212757681850432],["Alta",-11.213329030078459],["olívar",-11.213461569767192],["embarazada",-11.213900977054728],["Económico",-11.213900981196444],["Eugeni",-11.213900983654526],["feminista",-11.213900984998048],["israelí",-11.213901004180954],["auxilio",-11.213901009795936],["ingeniería",-11.213901013723035],["auxiliar",-11.213901031506147],["paisaje",-11.213901170667018],["canadiense",-11.213901357624103],["alojamiento",-11.213902004366812],["alumna",-11.213902278940134],["símbolo",-11.213902287595396],["veterano",-11.213902540579475],["expandi",-11.213904460997046],["valioso",-11.213910206778825],["entusiasm",-11.213915220792698],["Cualquier",-11.213950178109886],["pierda",-11.213970374959835],["recopila",-11.21397127217327],["primavera",-11.21400973391965],["reglamento",-11.21405495402285],["fresco",-11.214063927941632],["crónica",-11.214094490315983],["rentabilidad",-11.214302460941955],["gobernante",-11.214441695089231],["disparar",-11.214575271741317],["inconveniente",-11.214651151915028],["Catar",-11.214719399496108],["Concep",-11.21500088729545],["pauta",-11.2150411764922],["Adam",-11.215258025156972],["impide",-11.215276016091803],["experimentado",-11.215483568773694],["subido",-11.215883248989694],["administrativo",-11.216161518458312],["nsk",-11.216182597073805],["recomend",-11.216261789010883],["trasladada",-11.216802617599665],["Caja",-11.216814673954861],["impulsada",-11.217071590992663],["130",-11.217142447514002],["privaci",-11.217263753124236],["permanecerá",-11.217571262492742],["ahorrar",-11.21758312407035],["sorprende",-11.218713903438648],["Belgra",-11.218806379795353],["Juventud",-11.219441031721937],["obtiene",-11.220448012865443],["alegr",-11.221517974161568],["nace",-11.22206563628922],["minero",-11.222554267595775],["antander",-11.22280245729775],["ilusion",-11.223323832009132],["comprob",-11.2234522273414],["Tren",-11.223707066063557],["arregl",-11.224003258019502],["Meta",-11.224769137625387],["roba",-11.224963859792377],["vendido",-11.22516635906847],["acostumbrado",-11.226468509778657],["Cree",-11.227041446720278],["ping",-11.227131657976251],["gato",-11.227326044340952],["crema",-11.22741838476593],["comunal",-11.228800506752947],["barril",-11.228858762819241],["aleja",-11.22932757452147],["bajada",-11.230165869790461],["donado",-11.23038547669544],["severa",-11.230458525671041],["Abu",-11.230826270604961],["corporal",-11.231238493014745],["consultado",-11.231834408814317],["play",-11.23188534107185],["Fort",-11.231911696982788],["emitir",-11.232512164630508],["iego",-11.232514505030721],["mática",-11.232628382502885],["pensaba",-11.233227768519388],["grasa",-11.233810945497801],["clip",-11.235497742463409],["millonario",-11.235610255882683],["universitaria",-11.235640107257103],["advertencia",-11.235640108920501],["mecánica",-11.235640112120956],["soberanía",-11.235640143688308],["pertinente",-11.23564014676998],["mercancía",-11.235640164536633],["cálculo",-11.235640215409141],["Legislativ",-11.235641186952874],["ilustra",-11.23564198562499],["italiana",-11.235644657479693],["crecido",-11.235646907779081],["religiosa",-11.235655615298274],["Gonzal",-11.235656034582194],["Bravo",-11.235665984574725],["influy",-11.235667038426431],["Independiente",-11.23567555686735],["intimida",-11.235687393631336],["acordado",-11.235687771432474],["humild",-11.235717569040437],["virtud",-11.235727958463073],["interrup",-11.23583458208783],["conect",-11.235958442037862],["tenista",-11.235995381142402],["descubrimiento",-11.236160197104427],["favorece",-11.236244533216492],["agradecimiento",-11.236289478160199],["Gat",-11.236526837171667],["nómina",-11.236541131924378],["implanta",-11.236666333818633],["barato",-11.23676112218885],["represent",-11.237087189791803],["Cristo",-11.237095006003937],["ndows",-11.237155338327431],["valida",-11.237422904286927],["incumplimiento",-11.237729134386711],["Open",-11.237860643107265],["Grand",-11.23796083690804],["destinar",-11.238134096297397],["enfrent",-11.238144275691214],["off",-11.238221127750666],["Canal",-11.238351215023258],["arnaval",-11.238656320881898],["extender",-11.239102183585294],["patronal",-11.239464796176698],["gradual",-11.239721905311505],["programada",-11.239732059162604],["CU",-11.239854074523649],["Djo",-11.240028853296934],["creía",-11.240396924910973],["Agui",-11.240502623054061],["Necesita",-11.240675382637686],["campeon",-11.240729193156893],["barata",-11.240995647946404],["criticado",-11.241038545096703],["mencionada",-11.242848594791141],["entrenar",-11.243653917619648],["Fabi",-11.243913651743842],["progreso",-11.24451853241738],["experimentar",-11.244599886569254],["peligrosa",-11.244628168583446],["encuestado",-11.245062102835686],["pop",-11.245107162860123],["Belar",-11.245222156236334],["anex",-11.245576441651515],["fracaso",-11.24617096735119],["cardi",-11.246799772500182],["andar",-11.247326166879379],["trascendi",-11.247609486027018],["Calv",-11.247650697392888],["Bank",-11.247854208210153],["ID",-11.248522571521892],["Familia",-11.248711600746777],["prestar",-11.248725522150476],["cómoda",-11.248873726496656],["prohibido",-11.248928904476752],["convocar",-11.24966398593832],["Qu",-11.249693978545437],["ubicar",-11.249775294072643],["retro",-11.250116536832671],["ium",-11.250171266696238],["Sig",-11.25030502513083],["metal",-11.250791303075687],["quina",-11.25099669792245],["Valent",-11.251143773980147],["muer",-11.251372317685162],["demora",-11.25158222186716],["acot",-11.251900545445967],["raza",-11.252198851420314],["hacerle",-11.252410515570945],["interpretar",-11.252797317773254],["ick",-11.253014095718697],["elev",-11.253798786449869],["consigna",-11.253902712606049],["recep",-11.254013963769982],["respira",-11.254032228022574],["olid",-11.254124788669314],["localizado",-11.254640075763069],["accedi",-11.255951089416989],["diagnostic",-11.256895503376807],["flexibili",-11.25774320667535],["diplomático",-11.257862329484059],["femenina",-11.257862336164765],["permaneci",-11.25786235817519],["líquido",-11.257862525103011],["terrible",-11.25786454888879],["debilit",-11.257887058417346],["canasta",-11.25789064832917],["pistola",-11.257892697377446],["bonito",-11.257898846356923],["Paraguay",-11.257901675683549],["Mallor",-11.257908521355459],["computadora",-11.257918784415892],["Monument",-11.257928858853683],["invadi",-11.258039729252125],["promueve",-11.258100796726184],["nguez",-11.258152411878225],["puñal",-11.258168486602885],["Murcia",-11.258193090284323],["indicio",-11.258246445116084],["respectivo",-11.258372517912091],["Soto",-11.258503624062687],["externa",-11.25859079180497],["Germ",-11.258953231665632],["abrirá",-11.259471957205543],["compit",-11.259542067043128],["agallane",-11.259831802326408],["proviene",-11.26005128372007],["pedía",-11.260057961274182],["pozo",-11.260115717270125],["Calder",-11.260235031998445],["convic",-11.260397562106595],["retirado",-11.260501667574042],["Salta",-11.260699388965872],["creativa",-11.260889424385125],["innovador",-11.261196526027366],["andro",-11.261204173271782],["Liver",-11.261668112091478],["fatal",-11.261874223225435],["disparado",-11.261917111997477],["avanz",-11.262765598103393],["pró",-11.262941252859695],["preferencia",-11.263307098519464],["audita",-11.26417377966518],["arrastra",-11.265140210827536],["colaborar",-11.265339709538],["ataca",-11.265845557311028],["desplazar",-11.266129876986808],["ille",-11.26826284674208],["consig",-11.26962755556049],["ocupada",-11.269737972081844],["baj",-11.269878434946886],["observado",-11.27113096331221],["interpret",-11.271956770987432],["plicó",-11.27270733048935],["iéndose",-11.272765416393266],["lenta",-11.272856894649744],["combinado",-11.273477001614555],["iebre",-11.273663608600415],["organizador",-11.273724365896651],["torre",-11.274815810043336],["hip",-11.274982597728451],["ratific",-11.275356188128866],["acabado",-11.275659217997877],["MS",-11.276166872398406],["asociada",-11.276338625557933],["limpiar",-11.276432184953615],["predic",-11.276947344655753],["falt",-11.277373930538],["cker",-11.277873641703293],["Informa",-11.27836861883109],["obligatori",-11.278489908053448],["udó",-11.278758824983859],["ránsito",-11.279069955998098],["ting",-11.279511898878054],["reaccionar",-11.27978369589697],["procura",-11.280354095303139],["Guadalup",-11.28058960298025],["Sputnik",-11.28058960314295],["ilícito",-11.280589605845423],["Emple",-11.280589610264368],["estacionamiento",-11.28058962274074],["asamblea",-11.280589633854097],["cerebral",-11.280589737631635],["facultad",-11.28058990553208],["aprehen",-11.280590054937406],["construido",-11.280591235690386],["tubería",-11.28059339173488],["absorb",-11.280595338885105],["sentimental",-11.280596795398228],["editorial",-11.28060288290574],["Embajad",-11.28062562639853],["Zamora",-11.280639366846994],["crudo",-11.28072721823144],["Procura",-11.28083666373749],["catal",-11.280842183361694],["patología",-11.280854554818605],["Zapat",-11.280874474583435],["polaco",-11.281113953225644],["recomendable",-11.281252877917316],["pecho",-11.281273660637805],["cortar",-11.281415863149595],["Amba",-11.28163062781442],["desastre",-11.281742713328821],["detectado",-11.282367485211203],["sonrisa",-11.282392796303805],["Agricultur",-11.282791631257181],["considerable",-11.283045080842049],["relevan",-11.283669695156995],["tributo",-11.283689465650339],["reparar",-11.283882713991577],["presiona",-11.283964668096335],["inmigrante",-11.284854251737025],["fectó",-11.284970497987176],["instante",-11.284997918152618],["Calle",-11.285283249681964],["instituto",-11.285576318100034],["gobernar",-11.285955569305804],["prob",-11.28596710517159],["hito",-11.286079513685673],["estimula",-11.28664719465631],["internado",-11.286690299798174],["instalado",-11.286989111223368],["limitada",-11.287639406741768],["muro",-11.28773996831247],["compone",-11.288125965210298],["dobla",-11.2888008780392],["Norma",-11.288827560367556],["entrena",-11.289196456514151],["marina",-11.289332242851868],["reunirá",-11.290759363872],["adaptar",-11.290848041890639],["caza",-11.29191450004297],["Cris",-11.292166696142672],["braza",-11.292548537571838],["intentado",-11.292878406119959],["Zu",-11.29321997357298],["trama",-11.293951567918128],["respet",-11.29417920510787],["planteado",-11.294254524315527],["Cristian",-11.294290886760576],["reparto",-11.29499146911283],["Fiesta",-11.295731991351852],["NO",-11.295902532434733],["impuls",-11.296201382548674],["relata",-11.296609398091023],["entendi",-11.296946074271776],["impedir",-11.297836931222182],["hablaba",-11.297842464559452],["permanecer",-11.299373301564872],["placer",-11.300183488407276],["hice",-11.300330981978307],["Castell",-11.3006954432784],["éndole",-11.302125917744702],["preservar",-11.302207427619997],["prestigio",-11.303125988710889],["chat",-11.303202899765823],["colg",-11.303325819447483],["guion",-11.303553849762856],["indispensable",-11.303845416199888],["contabiliza",-11.3038454271729],["círculo",-11.303845460265833],["maquinaria",-11.30384547678268],["proveniente",-11.30384616482673],["Christian",-11.303846544324948],["sacerdote",-11.303847249729635],["Colorado",-11.30384743115593],["comandante",-11.303848098775234],["segmento",-11.303848882769264],["Segura",-11.303866888459785],["poblacion",-11.3038685656351],["Madre",-11.30389190901932],["dedicar",-11.303896493432784],["hubiese",-11.303910752186123],["Alexand",-11.30392660209054],["enmienda",-11.303935274393083],["Marvel",-11.303955818755764],["migratorio",-11.304033330387075],["Golf",-11.304053984131487],["Stree",-11.30406635071929],["ventila",-11.304097206902345],["ordenado",-11.304172518225329],["dirigencia",-11.304185307347595],["confronta",-11.304265260227305],["andaluz",-11.304360169322065],["maltrato",-11.304413172590717],["definitivo",-11.304434845763765],["gabinete",-11.304515776318704],["balazo",-11.304634107824139],["denominada",-11.304923233854533],["replic",-11.305504047746362],["sombr",-11.305547923054657],["acercamiento",-11.305622061229206],["exam",-11.306169909618585],["recompensa",-11.306576067185938],["Cine",-11.306641753941685],["Diputa",-11.306769363160209],["elogi",-11.307168062633082],["Bruse",-11.30755725085951],["brillante",-11.307620027146234],["memor",-11.308072133674425],["centr",-11.308343106363285],["GM",-11.308451965312717],["batir",-11.308478396249305],["banca",-11.308570725846373],["tología",-11.309569688595907],["acude",-11.309572846830793],["huir",-11.309601202976406],["contact",-11.3098814798145],["derrot",-11.310108217974653],["verdura",-11.31044649578926],["Rosal",-11.310489841720381],["vit",-11.310683363745909],["Fé",-11.31086118787556],["USD",-11.311366668415083],["Mirand",-11.311509101163605],["verificar",-11.311550691163847],["rompe",-11.311588031347675],["Ferro",-11.311694303207743],["remat",-11.311949602960475],["cometi",-11.312206769432933],["modificar",-11.31228056575292],["séptimo",-11.3123085395694],["reportero",-11.312384368099602],["comici",-11.3136453047372],["tari",-11.314231637712792],["montar",-11.31437543855962],["ordenar",-11.315154046867356],["jurisdicci",-11.31555327187174],["Eco",-11.315833698525868],["acelerar",-11.315882818945221],["despert",-11.316161187662003],["king",-11.318869613044843],["nata",-11.319070222555576],["admit",-11.319122755428001],["secuencia",-11.320304420675207],["valle",-11.320357623691564],["portero",-11.321047462233809],["Bron",-11.321087431582484],["república",-11.322645051423205],["hospitaliza",-11.322927262109111],["Feli",-11.323787927103758],["pagado",-11.324440867837842],["residencial",-11.32476010489271],["peri",-11.325133068124206],["valorar",-11.325252009404384],["negar",-11.325751800621507],["Brit",-11.32576620409268],["macho",-11.325837257432019],["desvel",-11.3261333669556],["ocurrir",-11.326824006053835],["feminicidio",-11.327654939976387],["convencional",-11.327654940878942],["Democrátic",-11.327654941237062],["fronterizo",-11.327654941427827],["universal",-11.327655217095703],["dirigía",-11.327655360454052],["Concejo",-11.327655464286277],["WWE",-11.327656503927651],["liquida",-11.327658123176866],["Zacate",-11.327660983508299],["peaton",-11.327662337496706],["Estudio",-11.327662560639654],["desplazamiento",-11.32766278841259],["reproch",-11.32767293686901],["sólido",-11.327698682020184],["nombramiento",-11.327713113501126],["CH",-11.327718963016052],["fractura",-11.327803416904583],["exclusivo",-11.327809598754769],["adquisitivo",-11.32783528603908],["Cuidado",-11.327882638889845],["hermosa",-11.32791485941614],["cristal",-11.327918562444879],["montaje",-11.32793445054897],["Parece",-11.328033106698648],["armamento",-11.3280412759444],["Silvi",-11.328212677431267],["ensayo",-11.328369457479784],["honra",-11.328425334570166],["ielorrus",-11.32845722249351],["rebel",-11.328777874704368],["Will",-11.329093918485924],["casual",-11.329146176649022],["cuerda",-11.329325882400278],["querida",-11.329586718257481],["suspender",-11.330011968837175],["viable",-11.330463840545944],["Kat",-11.330795730378957],["puro",-11.330867114234994],["pretemporada",-11.331100628175738],["decret",-11.33114878763605],["ficaci",-11.33174799941358],["advertid",-11.332318922861882],["filtro",-11.332377786276204],["Cuart",-11.332694829664645],["amenaz",-11.332915001857847],["Gaz",-11.3334173634015],["recorte",-11.333842760282295],["cupo",-11.334994380435118],["Maya",-11.335001924374046],["vacunado",-11.335201412814806],["tenis",-11.335259793206587],["imagin",-11.335932015475926],["pido",-11.335943329400687],["reja",-11.33678521815662],["regal",-11.336818424279581],["tag",-11.336950458487731],["entrado",-11.337019684768507],["consumir",-11.338976485417994],["DM",-11.33948772724096],["finca",-11.339714916585411],["detallado",-11.340412413255471],["oscuro",-11.340661174010023],["volc",-11.341199264796181],["forzar",-11.341376284372414],["retorn",-11.341392602477168],["ázar",-11.34159087315502],["boda",-11.341608589033475],["operativa",-11.34183021028162],["sexto",-11.341980756584011],["estabiliza",-11.343442097029365],["castigo",-11.34353143127144],["complemento",-11.343623083408774],["cuente",-11.34404854781622],["sentí",-11.344360908801264],["resume",-11.344876013902576],["digitaliza",-11.344910366556928],["humeda",-11.345226011889947],["mineral",-11.345337456856996],["NBA",-11.345893204252432],["creada",-11.346061423707283],["controlado",-11.346353837311092],["tumor",-11.346593726377955],["Bah",-11.348051754822567],["patr",-11.348872146379914],["rill",-11.350004544433087],["mueble",-11.351092561778627],["liberar",-11.351289003897193],["tripula",-11.351432710084119],["crecen",-11.351569958295276],["incidi",-11.351964034139103],["doméstico",-11.352045090144024],["intelectual",-11.352045183879262],["Vivienda",-11.352045264012473],["Militar",-11.35204559745437],["anfitri",-11.352045638875495],["Georgi",-11.352046030399336],["décima",-11.352046189880825],["reanuda",-11.352046754012786],["progresiva",-11.352047549588931],["curioso",-11.352047569668684],["eficaz",-11.35204811715146],["Infantil",-11.352053582161144],["Músic",-11.352063576103422],["Blue",-11.352070695210092],["electrónica",-11.352077893958127],["multitud",-11.352080680765518],["azulgrana",-11.352092096153095],["legitim",-11.352114741919024],["exhort",-11.352127679191039],["peronismo",-11.352307302988521],["divertido",-11.352318302600667],["Master",-11.35249418078499],["desapareci",-11.352612434855507],["africano",-11.352655695400799],["tristeza",-11.35268150626574],["afiliado",-11.35280117848393],["recogido",-11.352940932857075],["debida",-11.353113229523252],["catalan",-11.35329051664754],["nieto",-11.353606880587051],["ward",-11.353615942532516],["tortura",-11.353740743486373],["reseña",-11.353779409188455],["Guaya",-11.35391517247686],["vocal",-11.354240358277025],["suave",-11.354352630869116],["Valor",-11.354618578101508],["Montero",-11.354653692062705],["preocupante",-11.354774010741522],["Drag",-11.354780134291579],["Cic",-11.354856167841104],["tuario",-11.35513642025315],["SD",-11.355471412638977],["Lucian",-11.355647331901217],["costar",-11.356309411166956],["concurri",-11.35642150517097],["Malv",-11.35672408718126],["Busca",-11.357253678916935],["divulga",-11.357575113092174],["Borr",-11.357759328906038],["manuel",-11.3583273221506],["Duran",-11.358942339594725],["desarrollador",-11.359166733016016],["hueco",-11.359212901013453],["elaborar",-11.359513107946443],["nteligencia",-11.360399958218506],["recalca",-11.360968483892611],["cuadr",-11.361063352837432],["160",-11.361546046343198],["alimento",-11.36162508917372],["revoca",-11.362014669053343],["agregar",-11.362172859862927],["realista",-11.362866634810533],["sorprendido",-11.363196828874923],["Cristiano",-11.3644677863776],["concret",-11.364679597436517],["glia",-11.364850601688879],["350",-11.366456667244467],["Cabo",-11.367030992169104],["Mexicano",-11.367056153689722],["180",-11.367120887690309],["golpeado",-11.367481564265056],["colocado",-11.367614754916486],["muta",-11.368135583439296],["fuma",-11.368595492522472],["paradero",-11.368829799131294],["agradecer",-11.369129928006963],["valencia",-11.369721540552199],["habilitado",-11.369745811710697],["rindi",-11.369950890804828],["rapid",-11.372294965862515],["convers",-11.37235474555664],["tabl",-11.372726954708355],["servirá",-11.373691731523877],["XVI",-11.37472814633497],["terminará",-11.37571871300632],["ectividad",-11.376120436777724],["erife",-11.376324830552614],["dialog",-11.376420462602333],["proclam",-11.376566843381024],["nazi",-11.37658931726503],["INA",-11.37666058509614],["desconocido",-11.376786830853217],["aproxima",-11.376828271703076],["secundario",-11.377045184816021],["disponibilidad",-11.37704518522361],["televisor",-11.377045212546737],["Gallardo",-11.377045226617318],["World",-11.377045264787466],["cautelar",-11.377045269998586],["petrolera",-11.377045308872034],["obstáculo",-11.377045346103236],["transparente",-11.377045349996976],["requerimiento",-11.377045414073581],["prudencia",-11.377045447480077],["angustia",-11.377045930012093],["Lamentable",-11.377046100398793],["agujero",-11.377046235619012],["psicólog",-11.377046286450161],["víspera",-11.377046321060059],["propicia",-11.377046844534613],["Primaria",-11.377047952204272],["contenedor",-11.377048059386306],["tropical",-11.377048549451338],["Rubé",-11.377048878955387],["manifiesta",-11.377049784134048],["inflama",-11.377060475263109],["Quintana",-11.377060866764955],["Tercer",-11.377069378213537],["inocente",-11.377069397495223],["psicológica",-11.377081736347682],["pugna",-11.377127461883866],["Junior",-11.377128340427387],["dispers",-11.377157043074256],["cerveza",-11.377162794770351],["asiático",-11.37716575875818],["dispuesta",-11.377187034319004],["derrib",-11.377194093288137],["aeronave",-11.377258615078416],["Jean",-11.377301379954163],["Espino",-11.377385323714233],["herencia",-11.377410165147655],["cabello",-11.37746106184043],["cuarentena",-11.377480363688353],["peronista",-11.377729983483768],["ciclista",-11.377787994135506],["confecci",-11.378116337756854],["menú",-11.37811814266675],["bati",-11.378266883006876],["Pet",-11.378280906764026],["muerta",-11.378348412843161],["Coordinador",-11.378376389359577],["Medicin",-11.378494474789388],["Dicho",-11.3785539834439],["Fox",-11.37857068683187],["util",-11.378843229110759],["premia",-11.379075792907773],["hidrat",-11.37916273513122],["creativo",-11.380061691215692],["Shi",-11.380094140504559],["protector",-11.380333690772737],["arroz",-11.381237268472152],["prevision",-11.381469833213693],["otti",-11.381575432322801],["servidor",-11.381721988285735],["Dani",-11.382150484043851],["ibilidad",-11.382240906392374],["vinculada",-11.384628091454871],["Carr",-11.385274116684576],["gricultur",-11.385373558088554],["ajustar",-11.38660454857823],["hipó",-11.387328281699627],["obligada",-11.387490931822917],["acostumbra",-11.387717100636918],["reclamar",-11.387771516503092],["Thi",-11.388389863498826],["limitar",-11.38865571683223],["locura",-11.388666102788875],["Turqu",-11.38871441099005],["comarca",-11.389178636617194],["calefac",-11.389184467961222],["Luz",-11.389330431094093],["pilar",-11.390252305319343],["realizaba",-11.39091982998452],["imputa",
[...]
