{"version":"1.0","truncation":null,"padding":null,"added_tokens":[{"id":0,"special":true,"content":"<UNK>","single_word":false,"lstrip":false,"rstrip":false,"normalized":false},{"id":1,"special":true,"content":"<SEP>","single_word":false,"lstrip":false,"rstrip":false,"normalized":false},{"id":2,"special":true,"content":"<MASK>","single_word":false,"lstrip":false,"rstrip":false,"normalized":false},{"id":3,"special":true,"content":"<CLS>","single_word":false,"lstrip":false,"rstrip":false,"normalized":false}],"normalizer":null,"pre_tokenizer":{"type":"Whitespace"},"post_processor":null,"decoder":null,"model":{"type":"WordPiece","unk_token":"<UNK>","continuing_subword_prefix":"##","max_input_chars_per_word":100,"vocab":{"<UNK>":0,"<SEP>":1,"<MASK>":2,"<CLS>":3,"!":4,"\"":5,"$":6,"%":7,"&":8,"'":9,"(":10,")":11,"*":12,"+":13,",":14,"-":15,".":16,"/":17,"0":18,"1":19,"2":20,"3":21,"4":22,"5":23,"6":24,"7":25,"8":26,"9":27,":":28,";":29,"<":30,"?":31,"A":32,"B":33,"C":34,"D":35,"E":36,"F":37,"G":38,"H":39,"I":40,"J":41,"K":42,"L":43,"M":44,"N":45,"O":46,"P":47,"Q":48,"R":49,"S":50,"T":51,"U":52,"V":53,"W":54,"X":55,"Y":56,"Z":57,"`":58,"a":59,"b":60,"c":61,"d":62,"e":63,"f":64,"g":65,"h":66,"i":67,"j":68,"k":69,"l":70,"m":71,"n":72,"o":73,"p":74,"q":75,"r":76,"s":77,"t":78,"u":79,"v":80,"w":81,"x":82,"y":83,"z":84,"~":85,"¡":86,"¢":87,"£":88,"¦":89,"§":90,"¨":91,"ª":92,"«":93,"®":94,"¯":95,"°":96,"²":97,"³":98,"´":99,"·":100,"º":101,"»":102,"¼":103,"½":104,"¾":105,"¿":106,"À":107,"Á":108,"Ä":109,"Å":110,"Ç":111,"É":112,"Í":113,"Î":114,"Ñ":115,"Ò":116,"Ó":117,"Ö":118,"×":119,"Ú":120,"Ü":121,"ß":122,"à":123,"á":124,"â":125,"ã":126,"ä":127,"å":128,"ç":129,"è":130,"é":131,"ê":132,"ë":133,"ì":134,"í":135,"î":136,"ï":137,"ð":138,"ñ":139,"ò":140,"ó":141,"ô":142,"õ":143,"ö":144,"ø":145,"ú":146,"û":147,"ü":148,"ā":149,"ă":150,"ć":151,"ē":152,"ę":153,"ğ":154,"İ":155,"ı":156,"ł":157,"ń":158,"ō":159,"ś":160,"ş":161,"Š":162,"Ÿ":163,"˜":164,"˝":165,"̀":166,"́":167,"̃":168,"μ":169,"н":170,"у":171,"ᵃ":172,"ễ":173,"ỗ":174,"‎":175,"–":176,"—":177,"―":178,"‘":179,"’":180,"“":181,"”":182,"†":183,"‡":184,"•":185,"…":186,"′":187,"″":188,"₂":189,"₡":190,"€":191,"℃":192,"™":193,"−":194,"⏩":195,"⏰":196,"⏱":197,"─":198,"▌":199,"▶":200,"◆":201,"☀":202,"★":203,"☕":204,"☝":205,"⚠":206,"⚽":207,"✅":208,"✊":209,"✓":210,"✔":211,"✨":212,"❉":213,"❗":214,"❣":215,"❤":216,"➡":217,"➤":218,"⬇":219,"⭐":220,"【":221,"】":222,"帽":223,"煤":224,"脕":225,"茅":226,"谩":227,"贸":228,"铆":229,"":230,"ﬁ":231,"️":232,"＊":233,"##e":234,"##r":235,"##i":236,"##y":237,"##v":238,"##g":239,"##n":240,"##a":241,"##s":242,"##o":243,"##t":244,"##m":245,"##d":246,"##x":247,"##c":248,"##z":249,"##k":250,"##l":251,"##p":252,"##h":253,"##7":254,"##4":255,"##á":256,"##f":257,"##u":258,"##é":259,"##b":260,"##j":261,"##F":262,"##A":263,"##ó":264,"##w":265,"##1":266,"##3":267,"##0":268,"##U":269,"##N":270,"##D":271,"##T":272,"##E":273,"##C":274,"##5":275,"##6":276,"##8":277,"##í":278,"##R":279,"##I":280,"##ú":281,"##Z":282,"##G":283,"##)":284,"##,":285,"##ñ":286,"##O":287,"##P":288,"##M":289,"##-":290,"##S":291,"##Y":292,"##H":293,"##B":294,"##”":295,"##.":296,"##ã":297,"##q":298,"##V":299,"##Q":300,"##9":301,"##2":302,"##ë":303,"##è":304,"##ö":305,"##贸":306,"##ü":307,"##L":308,"##́":309,"##X":310,"##J":311,"##\"":312,"##ª":313,"##K":314,"##ò":315,"##º":316,"##ê":317,"##W":318,"##?":319,"##Á":320,"##à":321,"##Ó":322,"##ç":323,"##»":324,"##茅":325,"##ï":326,"##¿":327,"##ì":328,"##/":329,"##î":330,"##*":331,"##'":332,"##Í":333,"##™":334,"##ę":335,"##“":336,"##:":337,"##+":338,"##ş":339,"##ô":340,"##’":341,"##;":342,"##(":343,"##…":344,"##铆":345,"##ā":346,"##«":347,"##Ú":348,"##ä":349,"##€":350,"##¡":351,"##煤":352,"##´":353,"##%":354,"##—":355,"##â":356,"##ø":357,"##ō":358,"##å":359,"##‘":360,"##ﬁ":361,"##ğ":362,"##ı":363,"##õ":364,"##É":365,"##谩":366,"##̃":367,"##–":368,"##Ÿ":369,"##Å":370,"##у":371,"##&":372,"##ă":373,"##°":374,"##!":375,"##Ñ":376,"##ć":377,"##¢":378,"##Ä":379,"##ē":380,"##û":381,"##❤":382,"##˜":383,"##【":384,"##$":385,"##ń":386,"##ỗ":387,"##¨":388,"##н":389,"##ł":390,"##ᵃ":391,"##ễ":392,"##ś":393,"##ß":394,"##Ö":395,"##帽":396,"##Ü":397,"de":398,"##os":399,"##en":400,"##er":401,"##ar":402,"##es":403,"##on":404,"##as":405,"##ci":406,"##ue":407,"##an":408,"##or":409,"##ad":410,"la":411,"en":412,"##al":413,"que":414,"##st":415,"el":416,"##ent":417,"##id":418,"con":419,"un":420,"##ic":421,"##ón":422,"##in":423,"se":424,"##re":425,"##om":426,"##ro":427,"##ra":428,"##ti":429,"##am":430,"##aci":431,"los":432,"est":433,"##ec":434,"##un":435,"par":436,"su":437,"es":438,"del":439,"##ado":440,"in":441,"##do":442,"##te":443,"##ol":444,"##to":445,"##ri":446,"##ta":447,"re":448,"al":449,"por":450,"##le":451,"ha":452,"las":453,"com":454,"##is":455,"##de":456,"para":457,"##ente":458,"##ía":459,"##il":460,"##ación":461,"una":462,"##res":463,"##mp":464,"##di":465,"no":466,"##it":467,"##ist":468,"##ab":469,"##ul":470,"##ones":471,"pro":472,"##ás":473,"##ici":474,"##ur":475,"##idad":476,"##io":477,"per":478,"##ia":479,"##ien":480,"lo":481,"cu":482,"##ada":483,"##el":484,"##ir":485,"ac":486,"des":487,"##tr":488,"El":489,"##ter":490,"##enci":491,"##ier":492,"##go":493,"##ido":494,"##ch":495,"##ma":496,"##la":497,"di":498,"##iz":499,"##ento":500,"##tiv":501,"##od":502,"##ob":503,"ex":504,"##ando":505,"##án":506,"me":507,"##uer":508,"##us":509,"##at":510,"más":511,"##ales":512,"##ica":513,"##mo":514,"##ran":515,"##ción":516,"La":517,"##lo":518,"##ados":519,"##aj":520,"##tor":521,"##ig":522,"como":523,"##se":524,"mu":525,"##ie":526,"##que":527,"##oc":528,"##ac":529,"##ico":530,"En":531,"##qu":532,"##tos":533,"##bi":534,"##tu":535,"##iv":536,"an":537,"##ante":538,"##ión":539,"res":540,"##mos":541,"##da":542,"##tes":543,"##era":544,"tra":545,"##gu":546,"ser":547,"##tar":548,"añ":549,"##tra":550,"##dad":551,"##ues":552,"20":553,"este":554,"##ero":555,"##én":556,"##im":557,"##ador":558,"ap":559,"##ras":560,"##uc":561,"pres":562,"comp":563,"Est":564,"le":565,"##ez":566,"##encia":567,"##um":568,"##aron":569,"sus":570,"##tre":571,"pre":572,"##bl":573,"rec":574,"pr":575,"##ambi":576,"esp":577,"##orm":578,"##iento":579,"ten":580,"##ari":581,"##ce":582,"qu":583,"##añ":584,"##onal":585,"##rim":586,"##ten":587,"##mb":588,"##oci":589,"##ida":590,"man":591,"imp":592,"##tro":593,"pa":594,"##ib":595,"##ay":596,"##aciones":597,"as":598,"fue":599,"##entes":600,"##ana":601,"##uev":602,"##ambién":603,"##és":604,"exp":605,"hab":606,"##po":607,"pers":608,"##ru":609,"pue":610,"##gar":611,"pas":612,"##ens":613,"##gun":614,"lle":615,"entre":616,"##aliz":617,"cas":618,"ar":619,"##jo":620,"Un":621,"##amente":622,"te":623,"##adas":624,"##eg":625,"##amos":626,"”,":627,"##cu":628,"##ca":629,"tod":630,"##ort":631,"##mente":632,"##ún":633,"inf":634,"pero":635,"Es":636,"tien":637,"dis":638,"##ver":639,"to":640,"##ario":641,"años":642,"##co":643,"##baj":644,"esta":645,"##ara":646,"##obre":647,"mil":648,"sol":649,"##tas":650,"##if":651,"prim":652,"##no":653,"ca":654,"##ech":655,"sin":656,"##ís":657,"inter":658,"también":659,"##ina":660,"##der":661,"##ciones":662,"##cl":663,"##per":664,"cons":665,"##cia":666,"ya":667,"emp":668,"##oy":669,"##za":670,"##ora":671,"##ores":672,"ab":673,"está":674,"##con":675,"##enta":676,"si":677,"car":678,"sal":679,"sobre":680,"person":681,"Con":682,"mar":683,"##tros":684,"##duc":685,"##cer":686,"##eci":687,"##itu":688,"##ces":689,"desde":690,"##fer":691,"202":692,"##ano":693,"nuev":694,"trabaj":695,"##ut":696,"han":697,"deb":698,"##tivo":699,"Al":700,"##entos":701,"dos":702,"pod":703,"ob":704,"son":705,"##ud":706,"##ará":707,"##los":708,"”.":709,"fin":710,"Los":711,"##je":712,"reg":713,"##dem":714,"##idades":715,"##fici":716,"##lan":717,"##ismo":718,"ju":719,"##pe":720,"much":721,"cam":722,"ag":723,"##idos":724,"##asta":725,"hay":726,"##00":727,"##aba":728,"##ías":729,"##iemp":730,"pos":731,"##par":732,"In":733,"##cul":734,"##icos":735,"De":736,"##les":737,"mi":738,"fuer":739,"##ga":740,"##min":741,"##mi":742,"##ín":743,"##rg":744,"##emos":745,"ver":746,"##las":747,"##mas":748,"##ista":749,"##esti":750,"muy":751,"pol":752,"##av":753,"Por":754,"##pon":755,"##ov":756,"lu":757,"país":758,"##omb":759,"##arios":760,"todo":761,"##cip":762,"ci":763,"##antes":764,"##den":765,"##cal":766,"contra":767,"##acional":768,"##lti":769,"##unci":770,"##rá":771,"cre":772,"##icas":773,"mun":774,"hasta":775,"au":776,"may":777,"##eces":778,"##lar":779,"##des":780,"tiene":781,"Se":782,"##almente":783,"don":784,"##por":785,"medi":786,"##lic":787,"##ena":788,"##udad":789,"parte":790,"##ba":791,"ter":792,"cor":793,"##ít":794,"##tó":795,"##jer":796,"##man":797,"tan":798,"can":799,"año":800,"personas":801,"##pa":802,"##urante":803,"##ió":804,"##me":805,"##ener":806,"##demás":807,"últi":808,"##tal":809,"##ino":810,"donde":811,"ad":812,"##ust":813,"cuando":814,"inform":815,"col":816,"##orma":817,"##obier":818,"op":819,"gran":820,"##pu":821,"tu":822,"mej":823,"am":824,"tras":825,"##rec":826,"##ios":827,"af":828,"cal":829,"inv":830,"##ipo":831,"##adores":832,"ni":833,"nos":834,"seg":835,"deci":836,"##ona":837,"No":838,"##iones":839,"sig":840,"##ían":841,"soci":842,"##amiento":843,"##gra":844,"##vo":845,"cer":846,"##obierno":847,"##ér":848,"porque":849,"esc":850,"oc":851,"pe":852,"##arse":853,"equ":854,"##úbl":855,"men":856,"##zo":857,"Mar":858,"part":859,"##able":860,"quien":861,"##uel":862,"##ecto":863,"presid":864,"dijo":865,"##so":866,"##udi":867,"##tado":868,"realiz":869,"##ren":870,"conf":871,"prop":872,"\",":873,"hacer":874,"##endo":875,"##xi":876,"nues":877,"##ub":878,"ciudad":879,"reci":880,"An":881,"mes":882,"##tir":883,"mo":884,"##lam":885,"todos":886,"mill":887,"ev":888,"##pañ":889,"##tura":890,"##ble":891,"19":892,"##unto":893,"mom":894,"puede":895,"San":896,"##ern":897,"min":898,"durante":899,"As":900,"comun":901,"##og":902,"##ros":903,"Las":904,"ah":905,"cont":906,"##eros":907,"tiemp":908,"##tiva":909,"Re":910,"##dic":911,"llev":912,"Ch":913,"##et":914,"##teri":915,"##idas":916,"Com":917,"##ular":918,"##ord":919,"##uego":920,"##pués":921,"##ja":922,"rep":923,"dest":924,"##eron":925,"##car":926,"gener":927,"millones":928,"están":929,"##dos":930,"tran":931,"##anos":932,"uno":933,"##iendo":934,"##amil":935,"sec":936,"algun":937,"##anz":938,"cos":939,"mejor":940,"neces":941,"##til":942,"mayor":943,"\".":944,"##itar":945,"solo":946,"día":947,"##pos":948,"##ve":949,"hech":950,"dic":951,"##entro":952,"##sión":953,"segu":954,"pla":955,"inst":956,"lugar":957,"##ño":958,"##ieron":959,"##argo":960,"tiempo":961,"produc":962,"sido":963,"import":964,"hor":965,"ese":966,"##eo":967,"señ":968,"fal":969,"##miento":970,"##uso":971,"##rib":972,"ma":973,"vez":974,"##ific":975,"pes":976,"##teg":977,"emb":978,"actu":979,"famil":980,"cap":981,"##tivos":982,"##ición":983,"empres":984,"##ura":985,"momento":986,"hace":987,"##li":988,"##tras":989,"viv":990,"den":991,"##uen":992,"##ion":993,"##lación":994,"##mbre":995,"bien":996,"##irm":997,"trans":998,"##gen":999,"polít":1000,"co":1001,"resp":1002,"##ias":1003,"pu":1004,"##éc":1005,"cada":1006,"##ven":1007,"##ible":1008,"inici":1009,"otros":1010,"##isión":1011,"##ría":1012,"así":1013,"##ilidad":1014,"cual":1015,"tres":1016,"direc":1017,"##cio":1018,"después":1019,"presidente":1020,"encu":1021,"incl":1022,"##du":1023,"lleg":1024,"vida":1025,"##quier":1026,"def":1027,"Des":1028,"días":1029,"##óm":1030,"##ención":1031,"ch":1032,"##ing":1033,"baj":1034,"##iste":1035,"##ecu":1036,"201":1037,"estado":1038,"ref":1039,"ay":1040,"po":1041,"##uro":1042,"##ed":1043,"##br":1044,"present":1045,"##ícul":1046,"##erg":1047,"##na":1048,"##ton":1049,"había":1050,"##ital":1051,"pasado":1052,"sent":1053,"##cha":1054,"##nos":1055,"ase":1056,"ante":1057,"públ":1058,"##ita":1059,"primera":1060,"mismo":1061,"##end":1062,"##gres":1063,"##entras":1064,"autor":1065,"mis":1066,"forma":1067,"inc":1068,"primer":1069,"sem":1070,"Además":1071,"##ies":1072,"##arro":1073,"señal":1074,"vol":1075,"##omin":1076,"##uy":1077,"##cion":1078,"gra":1079,"eso":1080,"##endi":1081,"dej":1082,"mujer":1083,"dist":1084,"av":1085,"##icip":1086,"les":1087,"ve":1088,"cuenta":1089,"##vici":1090,"segun":1091,"tar":1092,"##alidad":1093,"##ección":1094,"plan":1095,"org":1096,"especi":1097,"##cias":1098,"caso":1099,"##em":1100,"horas":1101,"Pero":1102,"proy":1103,"menos":1104,"##oco":1105,"tanto":1106,"##paña":1107,"2022":1108,"prov":1109,"gan":1110,"##unque":1111,"##encias":1112,"##oria":1113,"##istas":1114,"Car":1115,"situ":1116,"##incip":1117,"),":1118,"sub":1119,"const":1120,"parti":1121,"##rig":1122,").":1123,"estar":1124,"##und":1125,"##ers":1126,"ahora":1127,"era":1128,"fr":1129,"tom":1130,"equipo":1131,"hecho":1132,"lib":1133,"princip":1134,"resul":1135,"##ceso":1136,"trabajo":1137,"10":1138,"##uridad":1139,"##aje":1140,"Seg":1141,"##gos":1142,"val":1143,"##erc":1144,"otro":1145,"temp":1146,"estos":1147,"pan":1148,"pró":1149,"##arrol":1150,"hist":1151,"Le":1152,"esa":1153,"fueron":1154,"##cran":1155,"entr":1156,"##ito":1157,"pues":1158,"sab":1159,"Si":1160,"acuer":1161,"econ":1162,"000":1163,"Este":1164,"Cu":1165,"según":1166,"tener":1167,"her":1168,"##ect":1169,"Me":1170,"Para":1171,"##át":1172,"difer":1173,"##gr":1174,"hi":1175,"##az":1176,"antes":1177,"mucho":1178,"va":1179,"Sin":1180,"manera":1181,"##vers":1182,"##aria":1183,"##orn":1184,"encon":1185,"mundo":1186,"##che":1187,"##ene":1188,"##untos":1189,"##and":1190,"##cho":1191,"##ños":1192,"##tores":1193,"tienen":1194,"##mpl":1195,"nuevo":1196,"##gur":1197,"vis":1198,"organ":1199,"Gobierno":1200,"##arias":1201,"bus":1202,"será":1203,"embargo":1204,"qued":1205,"semana":1206,"##ris":1207,"haci":1208,"##oles":1209,"us":1210,"vi":1211,"partido":1212,"activ":1213,"contin":1214,"Su":1215,"##erv":1216,"servici":1217,"ven":1218,"##ivel":1219,"##aban":1220,"##ómo":1221,"cab":1222,"investi":1223,"##rán":1224,"tend":1225,"hoy":1226,"##ea":1227,"llam":1228,"##iempre":1229,"##atos":1230,"conv":1231,"ofici":1232,"##atro":1233,"qué":1234,"##sta":1235,"fu":1236,"respon":1237,"##uesta":1238,"cl":1239,"»,":1240,"##ancia":1241,"prof":1242,"acuerdo":1243,"nivel":1244,"super":1245,"pri":1246,"jug":1247,"gru":1248,"ne":1249,"##uros":1250,"##ombre":1251,"##fic":1252,"prev":1253,"of":1254,"quier":1255,"mientras":1256,"##vés":1257,"##ece":1258,"##rió":1259,"desarrol":1260,"Pro":1261,"Gu":1262,"Sal":1263,"med":1264,"proble":1265,"apro":1266,"comple":1267,"Lo":1268,"##ensa":1269,"##can":1270,"pon":1271,"##arán":1272,"progra":1273,"cin":1274,"##ele":1275,"rev":1276,"gobierno":1277,"##illa":1278,"través":1279,"Mé":1280,"int":1281,"##jos":1282,"##dió":1283,"pl":1284,"algo":1285,"Nacional":1286,"##embre":1287,"ins":1288,"esto":1289,"poder":1290,"bas":1291,"destac":1292,"municip":1293,"estudi":1294,"30":1295,"##gua":1296,"##das":1297,"enf":1298,"12":1299,"recib":1300,"at":1301,"además":1302,"obje":1303,"regist":1304,"##rad":1305,"próxi":1306,"##ruc":1307,"##ío":1308,"Mun":1309,"form":1310,"pueden":1311,"investig":1312,"Ju":1313,"Qu":1314,"dere":1315,"esper":1316,"dar":1317,"##ña":1318,"##tel":1319,"compr":1320,"siempre":1321,"particip":1322,"aum":1323,"san":1324,"Una":1325,"funci":1326,"##xico":1327,"comunic":1328,"repres":1329,"También":1330,"##tur":1331,"##bol":1332,"##osp":1333,"preci":1334,"asegur":1335,"Ar":1336,"situación":1337,"##ús":1338,"importante":1339,"gas":1340,"##izo":1341,"haber":1342,"##acion":1343,"##dio":1344,"exper":1345,"pel":1346,"##ider":1347,"##clar":1348,"##reg":1349,"##ización":1350,"ellos":1351,"##up":1352,"encuent":1353,"##cel":1354,"Par":1355,"Según":1356,"luego":1357,"México":1358,"aunque":1359,"15":1360,"final":1361,"apoy":1362,"mon":1363,"meses":1364,"todas":1365,"nueva":1366,"##tió":1367,"##mar":1368,"recon":1369,"medio":1370,"otras":1371,"prom":1372,"##ap":1373,"##orte":1374,"fe":1375,"otra":1376,"##ment":1377,"##retar":1378,"##dia":1379,"##ril":1380,"anunci":1381,"##iar":1382,"compar":1383,"doc":1384,"##ral":1385,"##tivas":1386,"Cas":1387,"vac":1388,"##enz":1389,"domin":1390,"vo":1391,"indic":1392,"##uda":1393,"».":1394,"##eb":1395,"algunos":1396,"##íst":1397,"##ración":1398,"España":1399,"##tad":1400,"salud":1401,"explic":1402,"expres":1403,"publ":1404,"sea":1405,"unos":1406,"##bre":1407,"casa":1408,"cent":1409,"cómo":1410,"##tic":1411,"estaba":1412,"logr":1413,"Estados":1414,"permi":1415,"##nes":1416,"elec":1417,"habl":1418,"2021":1419,"minist":1420,"mal":1421,"tipo":1422,"##duci":1423,"cul":1424,"##áb":1425,"ef":1426,"##ho":1427,"##anza":1428,"manten":1429,"##íc":1430,"nacional":1431,"conoc":1432,"##minist":1433,"declar":1434,"##ecer":1435,"hum":1436,"##iso":1437,"##ivers":1438,"##cial":1439,"muer":1440,"seguridad":1441,"##ip":1442,"cambi":1443,"ocur":1444,"él":1445,"gol":1446,"##ep":1447,"##dido":1448,"##ual":1449,"Unidos":1450,"Min":1451,"cuatro":1452,"hizo":1453,"##uela":1454,"##terior":1455,"##úm":1456,"debe":1457,"buen":1458,"sí":1459,"muchos":1460,"##ución":1461,"##icía":1462,"funcion":1463,"poco":1464,"##ortun":1465,"Estado":1466,"toda":1467,"11":1468,"##rist":1469,"Ucran":1470,"local":1471,"intern":1472,"##dial":1473,"casos":1474,"18":1475,"estas":1476,"##cil":1477,"ind":1478,"ello":1479,"Ucrania":1480,"##cid":1481,"compañ":1482,"encontr":1483,"##ental":1484,"económ":1485,"##bio":1486,"apar":1487,"bar":1488,"##tación":1489,"##óg":1490,"##itos":1491,"##zas":1492,"Val":1493,"##uesto":1494,"sociales":1495,"último":1496,"cele":1497,"conoci":1498,"espaci":1499,"autoridades":1500,"total":1501,"dirig":1502,"proyecto":1503,"familia":1504,"##gan":1505,"##mit":1506,"mad":1507,"personal":1508,"Col":1509,"comenz":1510,"Esta":1511,"siste":1512,"via":1513,"##icia":1514,"merc":1515,"##tiz":1516,"##imiento":1517,"Lu":1518,"seguir":1519,"provin":1520,"Co":1521,"##ólar":1522,"ata":1523,"euros":1524,"zona":1525,"lun":1526,"##ientos":1527,"##aran":1528,"decir":1529,"dólar":1530,"Mi":1531,"Pol":1532,"gente":1533,"ir":1534,"##tan":1535,"núm":1536,"viol":1537,"or":1538,"##taron":1539,"tempor":1540,"##sa":1541,"amb":1542,"conc":1543,"##iscal":1544,"leg":1545,"##amp":1546,"##ólo":1547,"llegar":1548,"tal":1549,"Rus":1550,"sino":1551,"profes":1552,"cier":1553,"quienes":1554,"cualquier":1555,"##bles":1556,"grupo":1557,"vic":1558,"trata":1559,"veh":1560,"frente":1561,"##entina":1562,"##tamente":1563,"##adora":1564,"nada":1565,"continu":1566,"contro":1567,"caus":1568,"##bió":1569,"##atal":1570,"##oca":1571,"Bar":1572,"lí":1573,"ún":1574,"ley":1575,"##entar":1576,"má":1577,"termin":1578,"casi":1579,"minu":1580,"Arg":1581,"ingres":1582,"reun":1583,"sector":1584,"Mad":1585,"proceso":1586,"##urs":1587,"##erio":1588,"vier":1589,"##ate":1590,"##ór":1591,"##tados":1592,"##ior":1593,"##ense":1594,"conta":1595,"##ables":1596,"##atur":1597,"##inos":1598,"redes":1599,"##porte":1600,"historia":1601,"public":1602,"##rado":1603,"información":1604,"##stitu":1605,"Así":1606,"Euro":1607,"##tam":1608,"política":1609,"pob":1610,"##ectos":1611,"lunes":1612,"ban":1613,"nuestro":1614,"##tica":1615,"comer":1616,"##ag":1617,"##ería":1618,"países":1619,"hacia":1620,"vuel":1621,"ll":1622,"Rusia":1623,"viernes":1624,"mañ":1625,"##ional":1626,"persona":1627,"puntos":1628,"pad":1629,"##eta":1630,"consider":1631,"quer":1632,"##vi":1633,"vehícul":1634,"podría":1635,"últimos":1636,"datos":1637,"13":1638,"sos":1639,"util":1640,"##ide":1641,"distin":1642,"##ron":1643,"nuestra":1644,"##irmó":1645,"##ef":1646,"rel":1647,"mujeres":1648,"##oso":1649,"sáb":1650,"##ard":1651,"tuvo":1652,"junto":1653,"##tonces":1654,"##rea":1655,"cumpl":1656,"200":1657,"14":1658,"aut":1659,"lado":1660,"ro":1661,"cinco":1662,"nov":1663,"jue":1664,"mé":1665,"social":1666,"mens":1667,"##ícti":1668,"pens":1669,"##olog":1670,"dif":1671,"general":1672,"ofre":1673,"cant":1674,"##ric":1675,"##rera":1676,"mañana":1677,"##eno":1678,"##echa":1679,"aún":1680,"igu":1681,"ella":1682,"posible":1683,"mov":1684,"programa":1685,"##ha":1686,"##quel":1687,"Minist":1688,"vícti":1689,"oportun":1690,"25":1691,"veces":1692,"respons":1693,"edi":1694,"ide":1695,"pal":1696,"Mon":1697,"##va":1698,"perio":1699,"nego":1700,"##cen":1701,"varios":1702,"sábado":1703,"Am":1704,"##cos":1705,"empresa":1706,"Man":1707,"dentro":1708,"desp":1709,"público":1710,"número":1711,"##vid":1712,"agua":1713,"##demia":1714,"sel":1715,"##ira":1716,"##urso":1717,"sentido":1718,"Fran":1719,"centro":1720,"suf":1721,"Desde":1722,"enfr":1723,"##rir":1724,"dio":1725,"cosas":1726,"dólares":1727,"oper":1728,"mos":1729,"eje":1730,"##bor":1731,"energ":1732,"##obern":1733,"segundo":1734,"misma":1735,"domingo":1736,"din":1737,"##edad":1738,"##ológ":1739,"cerca":1740,"Fe":1741,"ej":1742,"id":1743,"##tera":1744,"tenemos":1745,"ayud":1746,"condi":1747,"##lí":1748,"##pti":1749,"##ill":1750,"solici":1751,"pandemia":1752,"hombre":1753,"##aría":1754,"##ál":1755,"##eza":1756,"Argentina":1757,"Ale":1758,"##entas":1759,"16":1760,"##pción":1761,"##rez":1762,"creci":1763,"##gas":1764,"Esto":1765,"##ilo":1766,"##avor":1767,"cir":1768,"jun":1769,"detal":1770,"##rem":1771,"##uerra":1772,"##anci":1773,"##unca":1774,"integ":1775,"cuer":1776,"noche":1777,"17":1778,"institu":1779,"sistema":1780,"##osa":1781,"##cional":1782,"martes":1783,"conse":1784,"estu":1785,"##ueves":1786,"just":1787,"empresas":1788,"sac":1789,"bajo":1790,"utiliz":1791,"##tido":1792,"##lica":1793,"##af":1794,"##ám":1795,"##toria":1796,"valor":1797,"gu":1798,"##abor":1799,"director":1800,"mie":1801,"informó":1802,"diferentes":1803,"##coles":1804,"cr":1805,"##tec":1806,"##ércoles":1807,"vacun":1808,"##dez":1809,"Ex":1810,"da":1811,"servicio":1812,"jueves":1813,"recu":1814,"muchas":1815,"represent":1816,"favor":1817,"##resid":1818,"tenía":1819,"Ci":1820,"##iga":1821,"cambio":1822,"clar":1823,"dici":1824,"##lev":1825,"##omía":1826,"##écn":1827,"miércoles":1828,"tarde":1829,"##ine":1830,"##ibilidad":1831,"peque":1832,"Jos":1833,"##isto":1834,"##acidad":1835,"igual":1836,"00":1837,"##rar":1838,"bu":1839,"##ác":1840,"respecto":1841,"neg":1842,"partir":1843,"españ":1844,"objetivo":1845,"conocer":1846,"acom":1847,"##ber":1848,"##ban":1849,"punto":1850,"hora":1851,"dice":1852,"ejemp":1853,"estamos":1854,"posi":1855,"ub":1856,"organiz":1857,"dep":1858,"niños":1859,"##ulio":1860,"##estión":1861,"##chos":1862,"ident":1863,"##inas":1864,"##iene":1865,"añad":1866,"segunda":1867,"temporada":1868,"##dor":1869,"##ares":1870,"comprom":1871,"recuper":1872,"##oven":1873,"manif":1874,"yo":1875,"##unta":1876,"##ritor":1877,"próximo":1878,"24":1879,"bal":1880,"sup":1881,"especial":1882,"Di":1883,"aplic":1884,"ciento":1885,"asist":1886,"vir":1887,"fuera":1888,"Pa":1889,"mas":1890,"grandes":1891,"bene":1892,"em":1893,"##ula":1894,"##imismo":1895,"##tico":1896,"Ah":1897,"clas":1898,"##quí":1899,"minutos":1900,"aquel":1901,"##cía":1902,"ocas":1903,"mostr":1904,"Per":1905,"##ipos":1906,"##lad":1907,"tri":1908,"joven":1909,"##put":1910,"enero":1911,"##abilidad":1912,"Ac":1913,"siendo":1914,"##rid":1915,"##dan":1916,"señaló":1917,"mercado":1918,"veci":1919,"edad":1920,"enc":1921,"benefici":1922,"ade":1923,"##ama":1924,"orden":1925,"##xic":1926,"##ola":1927,"loc":1928,"usu":1929,"méd":1930,"50":1931,"lín":1932,"sue":1933,"##form":1934,"coment":1935,"##iencia":1936,"##iel":1937,"emple":1938,"##ursos":1939,"ho":1940,"ries":1941,"##rados":1942,"sigue":1943,"Fern":1944,"##ge":1945,"Ministerio":1946,"labor":1947,"##all":1948,"##ria":1949,"prue":1950,"Juan":1951,"Hay":1952,"fun":1953,"jorn":1954,"enfer":1955,"##iva":1956,"educ":1957,"fo":1958,"nunca":1959,"anti":1960,"record":1961,"##iente":1962,"##canz":1963,"##ecn":1964,"máxi":1965,"##ivil":1966,"instal":1967,"Can":1968,"##vil":1969,"##áp":1970,"población":1971,"##imos":1972,"##ospital":1973,"Mart":1974,"Como":1975,"##au":1976,"Asimismo":1977,"interes":1978,"debido":1979,"##mple":1980,"##ques":1981,"problemas":1982,"Ser":1983,"##vieron":1984,"##óp":1985,"##demos":1986,"atención":1987,"hub":1988,"sex":1989,"alcanz":1990,"última":1991,"reconoci":1992,"lanz":1993,"técn":1994,"##eras":1995,"acus":1996,"##usión":1997,"And":1998,"##ecta":1999,"extra":2000,"marc":2001,"ases":2002,"##dida":2003,"##encial":2004,"falta":2005,"##gn":2006,"Mor":2007,"largo":2008,"##arlo":2009,"conj":2010,"relación":2011,"##ile":2012,"##tis":2013,"servicios":2014,"van":2015,"disc":2016,"mayoría":2017,"pesos":2018,"##ología":2019,"22":2020,"##ró":2021,"decisión":2022,"oficial":2023,"##ono":2024,"alim":2025,"ubic":2026,"sólo":2027,"seis":2028,"dese":2029,"juego":2030,"##íf":2031,"entonces":2032,"##gado":2033,"##tubre":2034,"21":2035,"##ández":2036,"encuentro":2037,"##tamiento":2038,"agreg":2039,"guerra":2040,"incluso":2041,"apoyo":2042,"nuevos":2043,"precios":2044,"##anto":2045,"liber":2046,"gobern":2047,"##ev":2048,"##icamente":2049,"refer":2050,"Mu":2051,"capital":2052,"llegó":2053,"líder":2054,"fecha":2055,"mues":2056,"##tuvo":2057,"junio":2058,"José":2059,"manifes":2060,"##rin":2061,"pregun":2062,"región":2063,"##bas":2064,"##blo":2065,"##rio":2066,"##tero":2067,"precio":2068,"espera":2069,"##gue":2070,"##stas":2071,"##ruz":2072,"control":2073,"puer":2074,"##atar":2075,"algunas":2076,"Pe":2077,"paso":2078,"ejemplo":2079,"dispon":2080,"2020":2081,"Madrid":2082,"##enas":2083,"ministro":2084,"cli":2085,"##rido":2086,"financi":2087,"octubre":2088,"partidos":2089,"Cor":2090,"deten":2091,"##ulo":2092,"##ública":2093,"dinero":2094,"Te":2095,"conduc":2096,"serie":2097,"##ptiembre":2098,"acompañ":2099,"##ator":2100,"aprob":2101,"escu":2102,"Inter":2103,"club":2104,"##op":2105,"noti":2106,"carrera":2107,"ent":2108,"medidas":2109,"varias":2110,"dem":2111,"marzo":2112,"diciembre":2113,"##ot":2114,"impac":2115,"disf":2116,"Tod":2117,"##gel":2118,"cargo":2119,"##acionales":2120,"Ciudad":2121,"##ár":2122,"pron":2123,"espacio":2124,"mod":2125,"##ial":2126,"##adio":2127,"uso":2128,"##turo":2129,"prepar":2130,"calle":2131,"aseguró":2132,"investigación":2133,"garan":2134,"##ich":2135,"empez":2136,"defin":2137,"realizar":2138,"septiembre":2139,"buena":2140,"100":2141,"cuar":2142,"ren":2143,"exist":2144,"##ombres":2145,"sigu":2146,"mode":2147,"obl":2148,"desarrollo":2149,"hemos":2150,"provincia":2151,"Ven":2152,"tecn":2153,"der":2154,"seman":2155,"##rito":2156,"indicó":2157,"40":2158,"##iembre":2159,"auto":2160,"volver":2161,"encuentra":2162,"Cam":2163,"pare":2164,"prob":2165,"Policía":2166,"incluy":2167,"Ay":2168,"##leg":2169,"##respon":2170,"plata":2171,"cri":2172,"##zos":2173,"deman":2174,"tema":2175,"##ordin":2176,"docum":2177,"##ves":2178,"##tran":2179,"Cal":2180,"Tras":2181,"##onas":2182,"##ifica":2183,"##dose":2184,"cuerpo":2185,"Entre":2186,"##ducir":2187,"##avía":2188,"Cuando":2189,"noviembre":2190,"Gener":2191,"estable":2192,"##tender":2193,"Mundial":2194,"conte":2195,"realidad":2196,"administ":2197,"evitar":2198,"fac":2199,"##xim":2200,"concl":2201,"arti":2202,"poner":2203,"gust":2204,"##leci":2205,"haya":2206,"fund":2207,"##tando":2208,"perf":2209,"medida":2210,"Luis":2211,"##tbol":2212,"descu":2213,"sign":2214,"##tom":2215,"##anas":2216,"##ala":2217,"consecu":2218,"##ima":2219,"familiar":2220,"##gon":2221,"##nas":2222,"##unid":2223,"viaj":2224,"Yo":2225,"ráp":2226,"noso":2227,"To":2228,"##ya":2229,"##orp":2230,"acciones":2231,"divers":2232,"##osto":2233,"##rac":2234,"actividades":2235,"bol":2236,"julio":2237,"##imo":2238,"estra":2239,"inten":2240,"##dedor":2241,"actividad":2242,"comb":2243,"asp":2244,"deber":2245,"natur":2246,"Univers":2247,"comunidad":2248,"falleci":2249,"cabo":2250,"##enda":2251,"##ivo":2252,"afect":2253,"comunicado":2254,"explicó":2255,"##cidente":2256,"riesgo":2257,"##iano":2258,"Ahora":2259,"Jo":2260,"mús":2261,"prensa":2262,"Rep":2263,"inm":2264,"denunci":2265,"oportunidad":2266,"##jas":2267,"##onar":2268,"##ell":2269,"agosto":2270,"problema":2271,"##ecretar":2272,"alcal":2273,"difí":2274,"unas":2275,"nosotros":2276,"sum":2277,"##ela":2278,"2023":2279,"regres":2280,"Europa":2281,"rus":2282,"##he":2283,"medios":2284,"Nuev":2285,"##útbol":2286,"esos":2287,"inver":2288,"red":2289,"estadounid":2290,"condiciones":2291,"disfru":2292,"Gran":2293,"Pla":2294,"atra":2295,"deter":2296,"##dir":2297,"##trás":2298,"Carlos":2299,"resultado":2300,"celebr":2301,"oblig":2302,"indi":2303,"miemb":2304,"Gar":2305,"tenido":2306,"territor":2307,"##brero":2308,"negoci":2309,"jef":2310,"correspon":2311,"##greso":2312,"futuro":2313,"cif":2314,"arg":2315,"verdad":2316,"calidad":2317,"dicho":2318,"producción":2319,"quiere":2320,"muerte":2321,"Fin":2322,"efec":2323,"pid":2324,"Ma":2325,"pot":2326,"jornada":2327,"tur":2328,"##var":2329,"##wit":2330,"##ñas":2331,"##ajes":2332,"sociedad":2333,"perman":2334,"##omici":2335,"mexic":2336,"productos":2337,"Cab":2338,"Res":2339,"sim":2340,"parece":2341,"priv":2342,"palab":2343,"##iro":2344,"anterior":2345,"##ovid":2346,"##medad":2347,"ima":2348,"conver":2349,"##tiene":2350,"desc":2351,"sería":2352,"puesto":2353,"visit":2354,"##tección":2355,"##eric":2356,"alto":2357,"resid":2358,"abier":2359,"##ativa":2360,"##adie":2361,"##olución":2362,"##laz":2363,"##atura":2364,"mano":2365,"abril":2366,"traslad":2367,"línea":2368,"Martín":2369,"ocu":2370,"pie":2371,"##uras":2372,"raz":2373,"Salud":2374,"Fue":2375,"nombre":2376,"##serv":2377,"nuevas":2378,"Is":2379,"mand":2380,"##alización":2381,"todavía":2382,"mayo":2383,"agregó":2384,"##xto":2385,"equipos":2386,"dañ":2387,"pueblo":2388,"principal":2389,"ucran":2390,"##uta":2391,"actual":2392,"capacidad":2393,"vivien":2394,"##risis":2395,"aumento":2396,"depor":2397,"suce":2398,"23":2399,"Lóp":2400,"##bo":2401,"militar":2402,"Feder":2403,"López":2404,"sorp":2405,"##iera":2406,"dispos":2407,"##érica":2408,"ambos":2409,"claro":2410,"febrero":2411,"fiscal":2412,"pop":2413,"entren":2414,"##rucción":2415,"##osición":2416,"contar":2417,"respe":2418,"pesar":2419,"mantener":2420,"rob":2421,"trad":2422,"trabajadores":2423,"jugar":2424,"##partam":2425,"ayuda":2426,"##lor":2427,"##fo":2428,"conten":2429,"##ingun":2430,"nuestros":2431,"semanas":2432,"General":2433,"crisis":2434,"menci":2435,"##entemente":2436,"##elo":2437,"trabajar":2438,"derecho":2439,"Ro":2440,"recor":2441,"preoc":2442,"avanz":2443,"plante":2444,"violencia":2445,"##ner":2446,"##apar":2447,"##pas":2448,"indust":2449,"recom":2450,"##alizar":2451,"##mientos":2452,"Durante":2453,"kil":2454,"##ianza":2455,"##vió":2456,"alre":2457,"##aja":2458,"hici":2459,"##este":2460,"mejores":2461,"##éctr":2462,"Qué":2463,"enfermedad":2464,"determin":2465,"##uls":2466,"dig":2467,"recursos":2468,"ori":2469,"real":2470,"anim":2471,"##uestas":2472,"tendrá":2473,"Twit":2474,"obra":2475,"enfrent":2476,"identific":2477,"Día":2478,"paci":2479,"vid":2480,"Pal":2481,"vig":2482,"encar":2483,"usuarios":2484,"##ne":2485,"salir":2486,"deben":2487,"tomar":2488,"compañía":2489,"##óven":2490,"##ingún":2491,"resultados":2492,"Venez":2493,"##óvenes":2494,"ra":2495,"conce":2496,"##ilar":2497,"##irma":2498,"cla":2499,"##lante":2500,"##ug":2501,"##omos":2502,"camino":2503,"hechos":2504,"energía":2505,"Ad":2506,"pen":2507,"##eas":2508,"##rb":2509,"##inar":2510,"pap":2511,"Ej":2512,"mul":2513,"tit":2514,"necesario":2515,"derechos":2516,"Ban":2517,"habían":2518,"pasar":2519,"materi":2520,"inicio":2521,"recibir":2522,"CO":2523,"Sol":2524,"norm":2525,"##ién":2526,"##moc":2527,"##rantes":2528,"conjunto":2529,"inflación":2530,"mayores":2531,"gracias":2532,"fil":2533,"##van":2534,"##uir":2535,"menor":2536,"experiencia":2537,"Twitter":2538,"Centro":2539,"##riz":2540,"ningun":2541,"##iedad":2542,"confirm":2543,"respuesta":2544,"estableci":2545,"aquí":2546,"ejer":2547,"##ire":2548,"art":2549,"consegu":2550,"##cis":2551,"##adamente":2552,"alta":2553,"he":2554,"##uales":2555,"##icular":2556,"primeros":2557,"amena":2558,"familias":2559,"Rod":2560,"jóvenes":2561,"##rí":2562,"diput":2563,"##alu":2564,"evento":2565,"difícil":2566,"fuerte":2567,"haciendo":2568,"películ":2569,"internacional":2570,"Aunque":2571,"ningún":2572,"##rían":2573,"##amientos":2574,"##izar":2575,"primero":2576,"consul":2577,"campaña":2578,"2019":2579,"municipio":2580,"mensaje":2581,"##pre":2582,"proce":2583,"##tud":2584,"dise":2585,"interv":2586,"##ámara":2587,"alg":2588,"cuanto":2589,"prác":2590,"afirmó":2591,"pública":2592,"área":2593,"##dep":2594,"alrededor":2595,"##idera":2596,"##tien":2597,"esf":2598,"##gura":2599,"locales":2600,"##mát":2601,"obten":2602,"##ráf":2603,"Municip":2604,"vehículos":2605,"27":2606,"##úa":2607,"##ierra":2608,"jugadores":2609,"fon":2610,"Tra":2611,"##abl":2612,"presencia":2613,"campe":2614,"colabor":2615,"hijos":2616,"estuvo":2617,"hubo":2618,"pareja":2619,"fá":2620,"viene":2621,"##ik":2622,"dec":2623,"##rel":2624,"ado":2625,"##ex":2626,"descon":2627,"##iete":2628,"obst":2629,"ahí":2630,"vamos":2631,"policía":2632,"##metros":2633,"celeb":2634,"único":2635,"ejecu":2636,"nadie":2637,"##tante":2638,"##onia":2639,"mucha":2640,"Santa":2641,"##ribun":2642,"cob":2643,"dado":2644,"hombres":2645,"##uncia":2646,"inme":2647,"##uestos":2648,"dejar":2649,"madre":2650,"contac":2651,"Presid":2652,"brin":2653,"##tin":2654,"##esión":2655,"eleg":2656,"encontra":2657,"##pp":2658,"##idores":2659,"cub":2660,"últimas":2661,"destacó":2662,"%.":2663,"fran":2664,"##bajo":2665,"provoc":2666,"video":2667,"Venezuela":2668,"##ibles":2669,"escen":2670,"Crist":2671,"Ten":2672,"##forma":2673,"pueda":2674,"significa":2675,"##oma":2676,"##lado":2677,"##alo":2678,"elem":2679,"Fernández":2680,"Ya":2681,"ellas":2682,"estará":2683,"##chez":2684,"habit":2685,"entrev":2686,"llevar":2687,"Reg":2688,"fut":2689,"##có":2690,"##lu":2691,"conci":2692,"exig":2693,"##quil":2694,"momentos":2695,"prome":2696,"expresó":2697,"periodi":2698,"foto":2699,"asoci":2700,"dispar":2701,"hijo":2702,"escuch":2703,"algún":2704,"60":2705,"vent":2706,"acceso":2707,"marca":2708,"propuesta":2709,"quedó":2710,"anunció":2711,"Ha":2712,"ba":2713,"##hu":2714,"##reas":2715,"rela":2716,"María":2717,"reunión":2718,"popular":2719,"28":2720,"Ag":2721,"Soci":2722,"euro":2723,"visto":2724,"##tada":2725,"sur":2726,"proces":2727,"serán":2728,"alguna":2729,"tarje":2730,"participación":2731,"emo":2732,"fútbol":2733,"so":2734,"##iado":2735,"##quer":2736,"Conse":2737,"observ":2738,"propio":2739,"convoc":2740,"26":2741,"Buen":2742,"esas":2743,"ambi":2744,"víctimas":2745,"##itario":2746,"##icio":2747,"luz":2748,"##ionales":2749,"pudo":2750,"Después":2751,"ganar":2752,"fron":2753,"Fiscal":2754,"##ij":2755,"##ok":2756,"##be":2757,"informe":2758,"Mientras":2759,"modelo":2760,"##ló":2761,"##umo":2762,"##tio":2763,"##ign":2764,"comenzó":2765,"poc":2766,"reac":2767,"##ánchez":2768,"agrad":2769,"amor":2770,"plazo":2771,"vecinos":2772,"Sánchez":2773,"##ancias":2774,"podemos":2775,"cantidad":2776,"##iza":2777,"secretar":2778,"vehículo":2779,"At":2780,"##óvil":2781,"comien":2782,"##tivamente":2783,"##quis":2784,"Secretar":2785,"ofer":2786,"##ite":2787,"eléctr":2788,"ayer":2789,"titular":2790,"siete":2791,"##VI":2792,"##oría":2793,"resto":2794,"##ampoco":2795,"##siones":2796,"crecimiento":2797,"argent":2798,"##gada":2799,"##zar":2800,"Congreso":2801,"##teriores":2802,"constru":2803,"base":2804,"permite":2805,"Hoy":2806,"Just":2807,"amp":2808,"##uv":2809,"lleva":2810,"intent":2811,"causa":2812,"sosten":2813,"histór":2814,"busca":2815,"legis":2816,"música":2817,"Del":2818,"Pre":2819,"Que":2820,"fel":2821,"zonas":2822,"##graf":2823,"Bol":2824,"Rec":2825,"Tor":2826,"cad":2827,"gestión":2828,"li":2829,"##ance":2830,"necesit":2831,"proyectos":2832,"elecciones":2833,"##uerzo":2834,"##igos":2835,"natural":2836,"República":2837,"agu":2838,"dol":2839,"cuesti":2840,"mundial":2841,"victoria":2842,"fundam":2843,"mín":2844,"##rada":2845,"##ardo":2846,"##uerto":2847,"economía":2848,"hablar":2849,"Universidad":2850,"hospital":2851,"mat":2852,"vari":2853,"Eso":2854,"fís":2855,"##sito":2856,"##ém":2857,"arm":2858,"##ificación":2859,"busc":2860,"ataque":2861,"idea":2862,"##cito":2863,"posibilidad":2864,"Comun":2865,"estudio":2866,"español":2867,"Luego":2868,"##vech":2869,"apun":2870,"amar":2871,"encontrar":2872,"##ej":2873,"##uelo":2874,"##reto":2875,"Ros":2876,"tor":2877,"##son":2878,"hacen":2879,"víctima":2880,"emerg":2881,"Institu":2882,"Colomb":2883,"Ab":2884,"Gal":2885,"pat":2886,"##lá":2887,"##ler":2888,"##ase":2889,"preocup":2890,"kiló":2891,"Mig":2892,"##iana":2893,"cuales":2894,"descar":2895,"recuer":2896,"grave":2897,"económica":2898,"compromiso":2899,"interés":2900,"saber":2901,"estaban":2902,"principales":2903,"jugador":2904,"padre":2905,"jefe":2906,"29":2907,"blo":2908,"naci":2909,"terc":2910,"cambios":2911,"tít":2912,"##ror":2913,"contr":2914,"##inal":2915,"supon":2916,"afec":2917,"refle":2918,"comerci":2919,"libertad":2920,"##yo":2921,"##tán":2922,"##lob":2923,"##ecen":2924,"puedan":2925,"500":2926,"##tagon":2927,"div":2928,"##ace":2929,"escri":2930,"31":2931,"pudi":2932,"##onó":2933,"trabajando":2934,"mejorar":2935,"lluv":2936,"##partamento":2937,"Consejo":2938,"elim":2939,"##atario":2940,"Cons":2941,"##eció":2942,"modo":2943,"golpe":2944,"déc":2945,"tel":2946,"##ota":2947,"##inación":2948,"habrá":2949,"miembros":2950,"repar":2951,"cuad":2952,"acep":2953,"desapar":2954,"metros":2955,"opera":2956,"baja":2957,"pelig":2958,"Colombia":2959,"##ég":2960,"##chas":2961,"audi":2962,"temper":2963,"grupos":2964,"Cl":2965,"cuid":2966,"abs":2967,"calles":2968,"##orneo":2969,"##turas":2970,"Ped":2971,"bomb":2972,"mor":2973,"##íamos":2974,"##one":2975,"##rieron":2976,"Esp":2977,"consum":2978,"obras":2979,"recibió":2980,"ruso":2981,"presente":2982,"campo":2983,"político":2984,"##rismo":2985,"precis":2986,"ninguna":2987,"relacion":2988,"##guez":2989,"%,":2990,"##ian":2991,"##guien":2992,"ciudadanos":2993,"constitu":2994,"crim":2995,"##reo":2996,"marco":2997,"defensa":2998,"adelante":2999,"er":3000,"##ientes":3001,"##dar":3002,"##est":3003,"##aya":3004,"Intern":3005,"mig":3006,"norte":3007,"tas":3008,"env":3009,"particular":3010,"incre":3011,"dejó":3012,"##dieron":3013,"categ":3014,"##culo":3015,"conflic":3016,"##genes":3017,"Manuel":3018,"Ver":3019,"resta":3020,"tengo":3021,"feder":3022,"autom":3023,"##iber":3024,"Liga":3025,"cara":3026,"mí":3027,"ocho":3028,"##illo":3029,"apren":3030,"temas":3031,"impacto":3032,"Todos":3033,"Cent":3034,"##iciones":3035,"encuentran":3036,"crít":3037,"##acio":3038,"##irtió":3039,"media":3040,"Comisión":3041,"políticas":3042,"organización":3043,"Son":3044,"gen":3045,"##cri":3046,"##rag":3047,"acto":3048,"pasa":3049,"importantes":3050,"libre":3051,"35":3052,"mit":3053,"sa":3054,"##álo":3055,"demos":3056,"##tará":3057,"compet":3058,"telev":3059,"##ortal":3060,"papel":3061,"bo":3062,"blan":3063,"mus":3064,"##ág":3065,"habría":3066,"aprovech":3067,"ocup":3068,"lim":3069,"vel":3070,"democ":3071,"derro":3072,"palabras":3073,"ejerci":3074,"Or":3075,"##cas":3076,"##AN":3077,"##tividad":3078,"podrán":3079,"tarjeta":3080,"##ender":3081,"protagon":3082,"##ferencia":3083,"fuerza":3084,"Seguridad":3085,"##ático":3086,"estrateg":3087,"esté":3088,"pagar":3089,"aument":3090,"demanda":3091,"estadounidense":3092,"##hib":3093,"##ilidades":3094,"abog":3095,"territorio":3096,"imagen":3097,"eta":3098,"rom":3099,"##ires":3100,"##lez":3101,"necesidad":3102,"incendi":3103,"cabeza":3104,"entidad":3105,"##ngel":3106,"establ":3107,"##iles":3108,"##torno":3109,"caí":3110,"interior":3111,"##itaria":3112,"revel":3113,"descub":3114,"##rés":3115,"##entales":3116,"##acter":3117,"invit":3118,"propia":3119,"comunicación":3120,"Pedro":3121,"##tific":3122,"##irá":3123,"##irse":3124,"acab":3125,"asegura":3126,"plataforma":3127,"fuego":3128,"##enses":3129,"agres":3130,"polici":3131,"amigos":3132,"Ne":3133,"fies":3134,"##íos":3135,"##americ":3136,"##untamiento":3137,"acción":3138,"necesita":3139,"##vin":3140,"##zquier":3141,"dedic":3142,"elev":3143,"allá":3144,"##atoria":3145,"China":3146,"##ribu":3147,"increm":3148,"Copa":3149,"triun":3150,"Todo":3151,"Nav":3152,"ampl":3153,"##estr":3154,"##entación":3155,"##eccion":3156,"tercer":3157,"vuelta":3158,"máximo":3159,"faci":3160,"conden":3161,"lucha":3162,"elector":3163,"circul":3164,"fácil":3165,"Gon":3166,"impuls":3167,"ayudar":3168,"kilómetros":3169,"Prim":3170,"ol":3171,"reclam":3172,"Ley":3173,"inversión":3174,"García":3175,"for":3176,"##ps":3177,"sust":3178,"proteg":3179,"susp":3180,"fuerzas":3181,"venez":3182,"pruebas":3183,"##stico":3184,"convers":3185,"##ome":3186,"aler":3187,"alguien":3188,"##guay":3189,"##enso":3190,"grande":3191,"realizó":3192,"##ísticas":3193,"profesional":3194,"garantiz":3195,"venezol":3196,"Ram":3197,"eran":3198,"orig":3199,"##inado":3200,"##itor":3201,"mediante":3202,"europe":3203,"Pue":3204,"civil":3205,"##xito":3206,"visita":3207,"buscar":3208,"hicieron":3209,"fan":3210,"tér":3211,"manos":3212,"explica":3213,"especialmente":3214,"Direc":3215,"mitad":3216,"dé":3217,"is":3218,"mir":3219,"##má":3220,"##anía":3221,"extre":3222,"Estamos":3223,"##cap":3224,"inclu":3225,"distintos":3226,"obstante":3227,"Fiscalía":3228,"Instituto":3229,"Sa":3230,"sens":3231,"éxito":3232,"indep":3233,"##isiones":3234,"caracter":3235,"opin":3236,"selección":3237,"##álogo":3238,"Ángel":3239,"##iter":3240,"##tró":3241,"complic":3242,"edición":3243,"##ribunal":3244,"Más":3245,"Tu":3246,"fig":3247,"izquier":3248,"web":3249,"##cipar":3250,"allí":3251,"estoy":3252,"##ival":3253,"compe":3254,"entrega":3255,"hija":3256,"##ística":3257,"alcalde":3258,"Nic":3259,"##ond":3260,"##ste":3261,"##iden":3262,"repor":3263,"##ándose":3264,"espec":3265,"muestra":3266,"il":3267,"##iados":3268,"##ray":3269,"alum":3270,"prueba":3271,"##VID":3272,"Gonz":3273,"Bel":3274,"Fer":3275,"sede":3276,"alter":3277,"##ándo":3278,"##ormente":3279,"##alizado":3280,"podrá":3281,"municipal":3282,"justicia":3283,"escenario":3284,"elementos":3285,"futbol":3286,"##lin":3287,"color":3288,"técnico":3289,"Buenos":3290,"Civil":3291,"Hasta":3292,"mer":3293,"tampoco":3294,"##tid":3295,"salida":3296,"##utin":3297,"cand":3298,"construcción":3299,"lograr":3300,"Ejecu":3301,"##mágenes":3302,"Cruz":3303,"Mo":3304,"ep":3305,"##ético":3306,"aleg":3307,"adv":3308,"logró":3309,"ocurrió":3310,"gobernador":3311,"Rodrí":3312,"Rodríguez":3313,"fer":3314,"##just":3315,"##qui":3316,"##mite":3317,"mater":3318,"añadió":3319,"familiares":3320,"45":3321,"firm":3322,"venta":3323,"##arra":3324,"acce":3325,"##tarse":3326,"##año":3327,"armas":3328,"posición":3329,"menores":3330,"hacerlo":3331,"llevó":3332,"importancia":3333,"presentó":3334,"económico":3335,"Miguel":3336,"Aires":3337,"Bras":3338,"Cos":3339,"PP":3340,"PS":3341,"iba":3342,"lista":3343,"dev":3344,"##ficiente":3345,"sabe":3346,"cifra":3347,"bás":3348,"##ardia":3349,"##cima":3350,"##migo":3351,"cumplir":3352,"EE":3353,"##taciones":3354,"##éf":3355,"##ivos":3356,"marcha":3357,"Alber":3358,"Def":3359,"Real":3360,"llegada":3361,"cierto":3362,"América":3363,"mandatario":3364,"vista":3365,"##gre":3366,"##si":3367,"##ese":3368,"##illas":3369,"##tora":3370,"trabajos":3371,"##ectá":3372,"80":3373,"Po":3374,"##orge":3375,"queda":3376,"accidente":3377,"199":3378,"viaje":3379,"hogar":3380,"sob":3381,"##arla":3382,"##cin":3383,"##igu":3384,"##gram":3385,"niveles":3386,"educación":3387,"artícul":3388,"entrevista":3389,"Secretaría":3390,"Bo":3391,"lar":3392,"univers":3393,"escal":3394,"##dios":3395,"consumo":3396,"##ablemente":3397,"coordin":3398,"##venida":3399,"##ím":3400,"##onado":3401,"asum":3402,"Esc":3403,"##teriormente":3404,"participar":3405,"promo":3406,"disfrutar":3407,"COVID":3408,"70":3409,"atrás":3410,"##tim":3411,"partes":3412,"aband":3413,"creo":3414,"colec":3415,"actualmente":3416,"incor":3417,"llamado":3418,"comentó":3419,"tercera":3420,"##entan":3421,"excl":3422,"pasó":3423,"contag":3424,"distintas":3425,"ocasiones":3426,"clave":3427,"bloque":3428,"Brasil":3429,"##tia":3430,"perder":3431,"existe":3432,"presup":3433,"Chile":3434,"Francis":3435,"Justicia":3436,"ampli":3437,"Vic":3438,"torneo":3439,"##ical":3440,"pago":3441,"##ecido":3442,"judi":3443,"central":3444,"tecnología":3445,"película":3446,"beb":3447,"cic":3448,"imágenes":3449,"##zón":3450,"permit":3451,"##énero":3452,"seguro":3453,"producto":3454,"fuentes":3455,"reconoc":3456,"localidad":3457,"Presidente":3458,"Putin":3459,"sean":3460,"##rami":3461,"iniciativa":3462,"espacios":3463,"conseguir":3464,"##erto":3465,"estruc":3466,"renov":3467,"concluy":3468,"candid":3469,"Cámara":3470,"Mes":3471,"testi":3472,"##ila":3473,"acum":3474,"solu":3475,"##endencia":3476,"herrami":3477,"##tural":3478,"padres":3479,"ofrece":3480,"edifici":3481,"siguiente":3482,"Ayuntamiento":3483,"pacientes":3484,"rad":3485,"estrel":3486,"##olver":3487,"mantiene":3488,"##alizó":3489,"dosis":3490,"única":3491,"instituciones":3492,"duda":3493,"sé":3494,"tro":3495,"pasada":3496,"contrato":3497,"##jeron":3498,"opción":3499,"Anton":3500,"responsabilidad":3501,"vivienda":3502,"##estre":3503,"##ultad":3504,"##iego":3505,"##iver":3506,"podrían":3507,"lugares":3508,"representa":3509,"##atorio":3510,"industria":3511,"Ejecutivo":3512,"##ablo":3513,"exten":3514,"##adoras":3515,"motivo":3516,"ofrecer":3517,"dob":3518,"unidad":3519,"suma":3520,"apenas":3521,"2018":3522,"##endiente":3523,"##ráfico":3524,"Em":3525,"domici":3526,"unidades":3527,"##lement":3528,"adecu":3529,"transporte":3530,"transform":3531,"quieren":3532,"Barcel":3533,"detalles":3534,"manifestó":3535,"Mus":3536,"Rob":3537,"##mor":3538,"##bil":3539,"##ónica":3540,"##ches":3541,"compra":3542,"##orme":3543,"##cep":3544,"disp":3545,"pele":3546,"##epresid":3547,"Europe":3548,"sostuvo":3549,"Cul":3550,"##gó":3551,"##olu":3552,"##isa":3553,"protección":3554,"##imientos":3555,"Ante":3556,"formación":3557,"declaraciones":3558,"intens":3559,"etapa":3560,"##estruc":3561,"términ":3562,"Her":3563,"Pas":3564,"pér":3565,"##ativo":3566,"retir":3567,"requier":3568,"acer":3569,"Unión":3570,"crear":3571,"funcionarios":3572,"##ológico":3573,"glob":3574,"hon":3575,"pin":3576,"##cent":3577,"reducir":3578,"##echo":3579,"agentes":3580,"sectores":3581,"vivir":3582,"herm":3583,"humanos":3584,"adelan":3585,"Nueva":3586,"pidió":3587,"incremento":3588,"90":3589,"Cómo":3590,"fortal":3591,"sir":3592,"vía":3593,"act":3594,"acudi":3595,"sitio":3596,"siguen":3597,"pun":3598,"vin":3599,"voc":3600,"##zul":3601,"evid":3602,"diferencia":3603,"bastante":3604,"recomend":3605,"incorpor":3606,"Francisco":3607,"##onio":3608,"invers":3609,"verano":3610,"señala":3611,"registr":3612,"Finalmente":3613,"sorpren":3614,"limp":3615,"gri":3616,"##itales":3617,"realizado":3618,"nuestras":3619,"entrada":3620,"Casa":3621,"profesionales":3622,"cantante":3623,"Barcelona":3624,"Ap":3625,"##onos":3626,"##entíf":3627,"##ilit":3628,"llega":3629,"Constitu":3630,"centros":3631,"Social":3632,"rendi":3633,"somos":3634,"##ertura":3635,"##rios":3636,"acerc":3637,"##tric":3638,"Uno":3639,"cambiar":3640,"conocido":3641,"ingresos":3642,"contexto":3643,"individ":3644,"dolor":3645,"Dan":3646,"bor":3647,"on":3648,"##esta":3649,"estim":3650,"coleg":3651,"198":3652,"##tillo":3653,"artista":3654,"inmedia":3655,"oferta":3656,"##drá":3657,"##fe":3658,"coloc":3659,"##ribuy":3660,"próximos":3661,"##telig":3662,"periodo":3663,"contacto":3664,"conflicto":3665,"Nos":3666,"gal":3667,"##edi":3668,"##día":3669,"##dica":3670,"conven":3671,"comba":3672,"##rump":3673,"dismin":3674,"juicio":3675,"candida":3676,"adul":3677,"decidió":3678,"cerc":3679,"volun":3680,"Agu":3681,"Domin":3682,"Jorge":3683,"delito":3684,"##enciales":3685,"confirmó":3686,"##endido":3687,"alimentos":3688,"razón":3689,"intervención":3690,"Internacional":3691,"Econ":3692,"Go":3693,"Qatar":3694,"##ticas":3695,"protes":3696,"perten":3697,"extran":3698,"miles":3699,"políticos":3700,"desarroll":3701,"Servici":3702,"pocos":3703,"teléf":3704,"36":3705,"Educ":3706,"Pablo":3707,"##oro":3708,"contó":3709,"##ulación":3710,"levan":3711,"paz":3712,"##rupción":3713,"##ército":3714,"estudiantes":3715,"clientes":3716,"noticia":3717,"administración":3718,"argentino":3719,"título":3720,"dieron":3721,"’,":3722,"simple":3723,"negocio":3724,"ocasión":3725,"convertir":3726,"periodista":3727,"%)":3728,"Bal":3729,"Lat":3730,"sosp":3731,"##ki":3732,"##él":3733,"##tieron":3734,"reserv":3735,"finales":3736,"evalu":3737,"pantal":3738,"barrio":3739,"Francia":3740,"Biden":3741,"Obr":3742,"nav":3743,"sín":3744,"##ice":3745,"realmente":3746,"##ivas":3747,"Estos":3748,"considera":3749,"generar":3750,"denuncia":3751,"Gonzá":3752,"34":3753,"Bor":3754,"Tran":3755,"puso":3756,"tus":3757,"##ónde":3758,"##diendo":3759,"propor":3760,"diez":3761,"diario":3762,"quién":3763,"afirm":3764,"tendrán":3765,"internacionales":3766,"juez":3767,"tradici":3768,"demostr":3769,"Villa":3770,"pág":3771,"trá":3772,"##ry":3773,"suje":3774,"común":3775,"##aca":3776,"recog":3777,"quin":3778,"##ducción":3779,"oposición":3780,"primeras":3781,"Cabe":3782,"Hab":3783,"encima":3784,"##itas":3785,"##reno":3786,"tiempos":3787,"dirección":3788,"ganó":3789,"aquellos":3790,"González":3791,"Covid":3792,"Fuer":3793,"The":3794,"##her":3795,"##édi":3796,"porta":3797,"##tería":3798,"carre":3799,"##mania":3800,"bienes":3801,"##andro":3802,"secretario":3803,"estrategia":3804,"Ol":3805,"Pan":3806,"fab":3807,"##raestruc":3808,"##una":3809,"institución":3810,"médico":3811,"Banco":3812,"obtener":3813,"facil":3814,"hom":3815,"##pec":3816,"##izado":3817,"##ati":3818,"produ":3819,"diálogo":3820,"preten":3821,"implement":3822,"combust":3823,"emergencia":3824,"materia":3825,"aire":3826,"det":3827,"estadio":3828,"coron":3829,"Perú":3830,"amarilla":3831,"Rom":3832,"cay":3833,"##itivo":3834,"Algun":3835,"pese":3836,"prisión":3837,"cierre":3838,"demás":3839,"Gra":3840,"cel":3841,"covid":3842,"grados":3843,"##gles":3844,"##riendo":3845,"##lesc":3846,"ahor":3847,"Rey":3848,"vicepresid":3849,"terminó":3850,"Alej":3851,"máxima":3852,"fru":3853,"jur":3854,"’.":3855,"##tiendo":3856,"##leo":3857,"##dap":3858,"##cionar":3859,"subray":3860,"principio":3861,"prior":3862,"Alemania":3863,"función":3864,"Públ":3865,"##dente":3866,"##enes":3867,"##amá":3868,"habitu":3869,"luch":3870,"cosa":3871,"##áticos":3872,"tasa":3873,"Alberto":3874,"Der":3875,"Hern":3876,"Hospital":3877,"Mas":3878,"Sur":3879,"dud":3880,"otor":3881,"urg":3882,"##eda":3883,"##vent":3884,"##tt":3885,"##olo":3886,"alcan":3887,"##ulos":3888,"Fac":3889,"due":3890,"género":3891,"##gl":3892,"##isc":3893,"versión":3894,"##anzas":3895,"continuar":3896,"instalaciones":3897,"Obrador":3898,"32":3899,"curso":3900,"dura":3901,"fase":3902,"##ke":3903,"##ombi":3904,"##dimiento":3905,"nota":3906,"salió":3907,"confianza":3908,"superior":3909,"pequeño":3910,"correspondi":3911,"Sp":3912,"Ter":3913,"móvil":3914,"##oder":3915,"tenga":3916,"##jeros":3917,"relaciones":3918,"Andrés":3919,"Mac":3920,"Ob":3921,"adap":3922,"áreas":3923,"##ienen":3924,"##enciones":3925,"ano":3926,"conserv":3927,"##onato":3928,"volvió":3929,"Provin":3930,"movimiento":3931,"responsable":3932,"positivo":3933,"categoría":3934,"US":3935,"os":3936,"detec":3937,"##ash":3938,"lament":3939,"##isis":3940,"tratar":3941,"argu":3942,"peor":3943,"##tilla":3944,"##ática":3945,"esfuerzo":3946,"Trans":3947,"##tadas":3948,"##ende":3949,"##estiv":3950,"##tirá":3951,"correc":3952,"escol":3953,"mesa":3954,"declaró":3955,"encontraba":3956,"promedio":3957,"ru":3958,"ép":3959,"##are":3960,"##ork":3961,"##aco":3962,"dispu":3963,"llegado":3964,"mismos":3965,"aproxim":3966,"votos":3967,"concent":3968,"laboral":3969,"Martínez":3970,"Gab":3971,"cora":3972,"ta":3973,"ín":3974,"##tantes":3975,"##uelas":3976,"##tual":3977,"nueve":3978,"##ificar":3979,"públicos":3980,"completo":3981,"próxima":3982,"bueno":3983,"pensar":3984,"disposición":3985,"Antonio":3986,"toc":3987,"tierra":3988,"suminist":3989,"##irus":3990,"destino":3991,"León":3992,"ministra":3993,"recuperación":3994,"Municipal":3995,"federal":3996,"Jes":3997,"pier":3998,"suel":3999,"##árez":4000,"##omas":4001,"delan":4002,"log":4003,"actor":4004,"Estas":4005,"reforma":4006,"subs":4007,"sanciones":4008,"##úsque":4009,"fundamental":4010,"escribió":4011,"Pat":4012,"##rer":4013,"##años":4014,"##ocidad":4015,"pase":4016,"pedido":4017,"Santia":4018,"respec":4019,"##aturas":4020,"adolesc":4021,"caída":4022,"Ben":4023,"Ber":4024,"Sen":4025,"afici":4026,"dia":4027,"mec":4028,"##misión":4029,"##lio":4030,"##ól":4031,"##racia":4032,"prem":4033,"impres":4034,"##rup":4035,"tot":4036,"debería":4037,"tuvieron":4038,"##ológica":4039,"sacar":4040,"alcanzar":4041,"detenido":4042,"Santiago":4043,"33":4044,"Norte":4045,"##idamente":4046,"porcent":4047,"desaf":4048,"puedes":4049,"##echos":4050,"agre":4051,"peso":4052,"profun":4053,"##álisis":4054,"incluye":4055,"IN":4056,"norma":4057,"tir":4058,"##ética":4059,"aclar":4060,"##cepción":4061,"##aliza":4062,"colombi":4063,"ciudades":4064,"diferente":4065,"cultura":4066,"Federal":4067,"Mos":4068,"Puerto":4069,"ajust":4070,"##fa":4071,"##rique":4072,"##taba":4073,"debate":4074,"científ":4075,"propiedad":4076,"modi":4077,"oficiales":4078,"referencia":4079,"300":4080,"dónde":4081,"voy":4082,"##rum":4083,"##olina":4084,"empren":4085,"finalmente":4086,"Insta":4087,"dicen":4088,"actualidad":4089,"vive":4090,"Super":4091,"##ístico":4092,"Central":4093,"televisión":4094,"velocidad":4095,"Sobre":4096,"nar":4097,"##jar":4098,"##oluc":4099,"relev":4100,"continúa":4101,"recordar":4102,"origen":4103,"penal":4104,"Instagram":4105,"Ba":4106,"Dav":4107,"Ger":4108,"Plan":4109,"##ticos":4110,"##pol":4111,"##ortar":4112,"inau":4113,"cuestión":4114,"##teras":4115,"presentación":4116,"voz":4117,"supuesto":4118,"puerta":4119,"pronto":4120,"daños":4121,"triunfo":4122,"electoral":4123,"Blan":4124,"PR":4125,"lig":4126,"##ianos":4127,"##cur":4128,"incon":4129,"rech":4130,"##emen":4131,"indica":4132,"empezó":4133,"doble":4134,"Org":4135,"Pé":4136,"firma":4137,"estatal":4138,"export":4139,"infraestruc":4140,"Deb":4141,"Asoci":4142,"report":4143,"libro":4144,"program":4145,"expertos":4146,"mexicano":4147,"Defensa":4148,"Educación":4149,"fabric":4150,"##úsqueda":4151,"##anda":4152,"envi":4153,"entorno":4154,"delitos":4155,"##encil":4156,"##ieza":4157,"##quez":4158,"niño":4159,"decisiones":4160,"generación":4161,"ambiente":4162,"##grafía":4163,"Dios":4164,"Nues":4165,"dro":4166,"vio":4167,"##dico":4168,"##fac":4169,"##ést":4170,"##AS":4171,"##titud":4172,"cita":4173,"defens":4174,"gratu":4175,"virus":4176,"contenido":4177,"Pos":4178,"##ka":4179,"apre":4180,"##ruguay":4181,"invas":4182,"estudios":4183,"recordó":4184,"discurso":4185,"competi":4186,"famos":4187,"pien":4188,"##ativas":4189,"##ts":4190,"##cios":4191,"separ":4192,"##itarios":4193,"##taria":4194,"entrar":4195,"derecha":4196,"funcionario":4197,"operación":4198,"aplicación":4199,"fondos":4200,"cuidado":4201,"vincul":4202,"75":4203,"atender":4204,"##jero":4205,"deja":4206,"##onados":4207,"deleg":4208,"##icidad":4209,"dific":4210,"experim":4211,"Partido":4212,"mostró":4213,"Cristina":4214,"contrario":4215,"garantizar":4216,"Pérez":4217,"adi":4218,"aten":4219,"coci":4220,"hosp":4221,"demas":4222,"elabor":4223,"##ecciones":4224,"intelig":4225,"##ural":4226,"##ierte":4227,"##rimonio":4228,"arro":4229,"##avirus":4230,"dejado":4231,"planes":4232,"insist":4233,"recibido":4234,"comprar":4235,"human":4236,"compañeros":4237,"banda":4238,"queremos":4239,"colaboración":4240,"Sus":4241,"frac":4242,"ileg":4243,"rum":4244,"##últi":4245,"pedir":4246,"quiero":4247,"cine":4248,"esperar":4249,"madru":4250,"Club":4251,"ejercicio":4252,"síntom":4253,"Gru":4254,"Ra":4255,"sen":4256,"sencil":4257,"##th":4258,"##cidad":4259,"altura":4260,"impos":4261,"##ensión":4262,"comunidades":4263,"Díaz":4264,"supone":4265,"acceder":4266,"Mal":4267,"goles":4268,"##ws":4269,"presenta":4270,"arma":4271,"creación":4272,"opciones":4273,"ofreci":4274,"vacunación":4275,"sorpres":4276,"digital":4277,"Tenemos":4278,"habitantes":4279,"fiesta":4280,"rechaz":4281,"38":4282,"May":4283,"So":4284,"ruta":4285,"##emp":4286,"##mon":4287,"##orta":4288,"ense":4289,"##idar":4290,"##omo":4291,"perdió":4292,"##alizada":4293,"organismo":4294,"usar":4295,"sexual":4296,"presupuesto":4297,"corazón":4298,"',":4299,"400":4300,"Amb":4301,"var":4302,"##entado":4303,"resist":4304,"arte":4305,"solución":4306,"inició":4307,"Desarrol":4308,"objetivos":4309,"declaración":4310,"ocurrido":4311,"ambas":4312,"cuarto":4313,"Diego":4314,"dan":4315,"gesti":4316,"##etas":4317,"##irió":4318,"##sas":4319,"##dado":4320,"##ismos":4321,"##itado":4322,"resal":4323,"regional":4324,"presidenta":4325,"197":4326,"coin":4327,"municipios":4328,"efectos":4329,"frontera":4330,"madrugada":4331,"Cer":4332,"Hum":4333,"##onda":4334,"entender":4335,"acon":4336,"patr":4337,"municipales":4338,"permitir":4339,"operaciones":4340,"décadas":4341,"alterna":4342,"domicilio":4343,"II":4344,"búsqueda":4345,"sesión":4346,"tratamiento":4347,"tengan":4348,"arran":4349,"##nov":4350,"carga":4351,"reciente":4352,"presentar":4353,"##cionales":4354,"puestos":4355,"efecto":4356,"integrantes":4357,"organizaciones":4358,"existen":4359,"viviendas":4360,"respeto":4361,"celebra":4362,"lluvias":4363,"Cap":4364,"Dip":4365,"detrás":4366,"##onel":4367,"Entonces":4368,"presión":4369,"habla":4370,"##voz":4371,"plaza":4372,"valores":4373,"movil":4374,"oportunidades":4375,"encab":4376,"entrenador":4377,"competencia":4378,"opinión":4379,"izquierda":4380,"Europea":4381,"Serg":4382,"homici":4383,"árb":4384,"##cle":4385,"##pl":4386,"deri":4387,"##inales":4388,"##ulas":4389,"despe":4390,"calific":4391,"##endió":4392,"##ránsito":4393,"clim":4394,"comercial":4395,"seleccion":4396,"justo":4397,"directora":4398,"miedo":4399,"fondo":4400,"Nicol":4401,"Jav":4402,"nie":4403,"##pes":4404,"##ulado":4405,"##ató":4406,"lejos":4407,"infl":4408,"Porque":4409,"grab":4410,"toma":4411,"histor":4412,"intención":4413,"ingreso":4414,"##tienen":4415,"Mic":4416,"Mari":4417,"soy":4418,"##tino":4419,"##fas":4420,"##remos":4421,"##iencias":4422,"cumple":4423,"##tarios":4424,"##blos":4425,"esposa":4426,"cree":4427,"escuela":4428,"Valencia":4429,"concre":4430,"procesos":4431,"increment":4432,"Costa":4433,"judicial":4434,"candidato":4435,"teléfono":4436,"Cada":4437,"Emp":4438,"Fu":4439,"He":4440,"Pen":4441,"pilo":4442,"##mento":4443,"##ini":4444,"cuentas":4445,"acord":4446,"##iero":4447,"puedo":4448,"beneficios":4449,"funciones":4450,"disponible":4451,"consecuencia":4452,"campeón":4453,"artículo":4454,"coronavirus":4455,"Desarrollo":4456,"Be":4457,"Pu":4458,"Río":4459,"bel":4460,"##fes":4461,"##AR":4462,"##mpe":4463,"fuertes":4464,"insp":4465,"##ducido":4466,"pequeños":4467,"rusos":4468,"operativo":4469,"portavoz":4470,"Don":4471,"Sh":4472,"Ta":4473,"dur":4474,"ps":4475,"sil":4476,"##arca":4477,"##amento":4478,"tray":4479,"##imen":4480,"tenían":4481,"legal":4482,"minuto":4483,"rápido":4484,"policial":4485,"##estival":4486,"época":4487,"Grupo":4488,"Fr":4489,"##ité":4490,"Depor":4491,"escrib":4492,"moto":4493,"públicas":4494,"principios":4495,"diversos":4496,"diseño":4497,"trim":4498,"vide":4499,"##rue":4500,"##ique":4501,"##ck":4502,"##cado":4503,"##”,":4504,"##erte":4505,"##ienda":4506,"##tualmente":4507,"análisis":4508,"abrir":4509,"##mitió":4510,"necesidades":4511,"llegaron":4512,"representantes":4513,"gusta":4514,"peligro":4515,"temperatura":4516,"modific":4517,"síntomas":4518,"Ese":4519,"Hu":4520,"Hace":4521,"Mil":4522,"Raf":4523,"Sel":4524,"bre":4525,"pena":4526,"##viv":4527,"deuda":4528,"##idor":4529,"##ull":4530,"##bito":4531,"##ime":4532,"consol":4533,"siglo":4534,"costo":4535,"respal":4536,"darle":4537,"Arm":4538,"médicos":4539,"ubicado":4540,"líderes":4541,"deberá":4542,"diputado":4543,"global":4544,"actriz":4545,"65":4546,"OT":4547,"cán":4548,"cár":4549,"hará":4550,"##rás":4551,"##oz":4552,"estat":4553,"##ecía":4554,"suficiente":4555,"alma":4556,"comida":4557,"##deo":4558,"##ierno":4559,"##quina":4560,"premi":4561,"podía":4562,"realizará":4563,"autoridad":4564,"desarrollar":4565,"ataques":4566,"empleados":4567,"critic":4568,"documento":4569,"militares":4570,"diseñ":4571,"##égimen":4572,"Alejandro":4573,"Asociación":4574,"Sil":4575,"fre":4576,"##IF":4577,"deporte":4578,"##ciales":4579,"enorme":4580,"come":4581,"dijeron":4582,"murió":4583,"involuc":4584,"##lament":4585,"eventos":4586,"presentado":4587,"planta":4588,"tomó":4589,"Guardia":4590,"##ticamente":4591,"quería":4592,"empleo":4593,"conductor":4594,"Plata":4595,"industri":4596,"ventaja":4597,"Corte":4598,"Creo":4599,"York":4600,"cruz":4601,"num":4602,"pac":4603,"tam":4604,"vul":4605,"##aro":4606,"##onóm":4607,"##rob":4608,"##amble":4609,"##ili":4610,"##irch":4611,"##tario":4612,"conform":4613,"ciudadanía":4614,"##etido":4615,"principalmente":4616,"programas":4617,"circ":4618,"española":4619,"trip":4620,"Fernando":4621,"recuerda":4622,"edificio":4623,"Hernández":4624,"Diput":4625,"Sab":4626,"mic":4627,"nacionales":4628,"##ato":4629,"##cés":4630,"##íz":4631,"comisión":4632,"descan":4633,"implic":4634,"realiza":4635,"##lamento":4636,"seguidores":4637,"2017":4638,"material":4639,"celebración":4640,"mínimo":4641,"exclus":4642,"48":4643,"Ho":4644,"Pres":4645,"gobier":4646,"rue":4647,"ví":4648,"vas":4649,"Ál":4650,"departamento":4651,"estilo":4652,"surg":4653,"##diz":4654,"resolver":4655,"podido":4656,"Ind":4657,"Señ":4658,"mag":4659,"avance":4660,"revis":4661,"publicado":4662,"clases":4663,"puertas":4664,"artistas":4665,"cifras":4666,"abierto":4667,"figura":4668,"##últip":4669,"Dis":4670,"Mag":4671,"juntos":4672,"##tá":4673,"##ong":4674,"##antil":4675,"##tiles":4676,"activos":4677,"##ock":4678,"##trol":4679,"Esa":4680,"solamente":4681,"##iforn":4682,"regiones":4683,"Inv":4684,"Incl":4685,"propuestas":4686,"sabemos":4687,"Cuba":4688,"participantes":4689,"Joh":4690,"totalmente":4691,"Th":4692,"luc":4693,"##enos":4694,"##ritán":4695,"##ates":4696,"destin":4697,"próxim":4698,"##íodo":4699,"conocimiento":4700,"democracia":4701,"Dirección":4702,"Organ":4703,"invasión":4704,"##irchner":4705,"Ara":4706,"ON":4707,"Tribunal":4708,"##ES":4709,"##uegos":4710,"tienes":4711,"compartir":4712,"##hua":4713,"cadena":4714,"crimen":4715,"37":4716,"Mat":4717,"Sam":4718,"Vil":4719,"amigo":4720,"fisc":4721,"##vel":4722,"##ger":4723,"##bia":4724,"##OE":4725,"período":4726,"##ucle":4727,"##coh":4728,"##ecimiento":4729,"propios":4730,"orgul":4731,"juegos":4732,"desempe":4733,"diversas":4734,"animales":4735,"delantero":4736,"conferencia":4737,"##abel":4738,"##iere":4739,"##arial":4740,"abord":4741,"##écord":4742,"directamente":4743,"publicó":4744,"sufrió":4745,"reconocimiento":4746,"pregunta":4747,"satis":4748,"pérdida":4749,"aproximadamente":4750,"55":4751,"fir":4752,"hin":4753,"tren":4754,"##reras":4755,"##esa":4756,"espectá":4757,"##echas":4758,"fines":4759,"Departamento":4760,"dicha":4761,"esperan":4762,"desplaz":4763,"detalló":4764,"crédi":4765,"noticias":4766,"consecuencias":4767,"legisl":4768,"Jesús":4769,"Fel":4770,"Vol":4771,"múltip":4772,"##rón":4773,"##rus":4774,"##oque":4775,"##jal":4776,"##uerzos":4777,"resolución":4778,"cargos":4779,"regular":4780,"##venir":4781,"Castillo":4782,"habló":4783,"concluyó":4784,"Álvar":4785,"Ja":4786,"Nación":4787,"có":4788,"rit":4789,"récord":4790,"##ósito":4791,"anteriores":4792,"arri":4793,"terror":4794,"maes":4795,"señalado":4796,"estarán":4797,"electr":4798,"publicación":4799,"asistencia":4800,"asesin":4801,"razones":4802,"##mática":4803,"Atl":4804,"##tróleo":4805,"soluciones":4806,"Algunos":4807,"OTAN":4808,"Au":4809,"Cór":4810,"britán":4811,"ros":4812,"urb":4813,"conec":4814,"##icana":4815,"##tig":4816,"estados":4817,"suerte":4818,"nove":4819,"prohib":4820,"cuyo":4821,"cuentan":4822,"##teros":4823,"##ieran":4824,"restric":4825,"impuestos":4826,"Unido":4827,"Inf":4828,"##culos":4829,"calor":4830,"situaciones":4831,"herman":4832,"completamente":4833,"intereses":4834,"concep":4835,"pantalla":4836,"44":4837,"Fon":4838,"Os":4839,"Ric":4840,"régimen":4841,"##arte":4842,"##icías":4843,"delin":4844,"##riel":4845,"##eler":4846,"provincial":4847,"regreso":4848,"estadounidenses":4849,"similar":4850,"ucraniano":4851,"Federación":4852,"Solo":4853,"contagios":4854,"tradicional":4855,"David":4856,"Rafa":4857,"Ital":4858,"Leg":4859,"Oc":4860,"UE":4861,"cá":4862,"ido":4863,"ves":4864,"##óstico":4865,"ingen":4866,"requis":4867,"##erop":4868,"##umbre":4869,"teniendo":4870,"texto":4871,"agenda":4872,"corrupción":4873,"informado":4874,"recientemente":4875,"Reino":4876,"refor":4877,"llamada":4878,"terminar":4879,"recuperar":4880,"robo":4881,"audiencia":4882,"Ca":4883,"##ix":4884,"##ox":4885,"##oper":4886,"##dó":4887,"##MI":4888,"##adal":4889,"estén":4890,"##ánd":4891,"tele":4892,"interpre":4893,"trabaja":4894,"Alf":4895,"agencia":4896,"corto":4897,"##ristas":4898,"dirigente":4899,"##mites":4900,"hotel":4901,"##glés":4902,"dificultad":4903,"Córdo":4904,"42":4905,"lic":4906,"rival":4907,"##dores":4908,"##ñez":4909,"##cina":4910,"##rano":4911,"manda":4912,"pasos":4913,"capa":4914,"coche":4915,"previsto":4916,"destaca":4917,"registró":4918,"sistemas":4919,"administra":4920,"Tal":4921,"cat":4922,"ment":4923,"pul":4924,"tráfico":4925,"##áles":4926,"##ónico":4927,"alcoh":4928,"Está":4929,"informa":4930,"actuación":4931,"##istema":4932,"tendencia":4933,"convirtió":4934,"comercio":4935,"responsables":4936,"Morena":4937,"contemp":4938,"Palacio":4939,"adultos":4940,"carretera":4941,"Javier":4942,"vulner":4943,"46":4944,"Af":4945,"Zel":4946,"hid":4947,"##didas":4948,"##ky":4949,"##uelos":4950,"##ines":4951,"anal":4952,"pasaj":4953,"lesiones":4954,"aumentar":4955,"humano":4956,"beneficio":4957,"acusado":4958,"negocios":4959,"turno":4960,"recorrido":4961,"física":4962,"Aust":4963,"Fund":4964,"Otro":4965,"azul":4966,"nucle":4967,"pis":4968,"##men":4969,"##hab":4970,"##udo":4971,"estad":4972,"parecer":4973,"pueblos":4974,"##arago":4975,"terreno":4976,"escuelas":4977,"##ribución":4978,"heridos":4979,"vacuna":4980,"identidad":4981,"clase":4982,"sueño":4983,"absol":4984,"migrantes":4985,"derrota":4986,"incendio":4987,"aus":4988,"lider":4989,"pide":4990,"rod":4991,"##enten":4992,"perdido":4993,"##quía":4994,"##udic":4995,"petróleo":4996,"repro":4997,"logrado":4998,"causas":4999,"muestran":5000,"Nuevo":5001,"preocupación":5002,"olvid":5003,"proteger":5004,"acerca":5005,"hermano":5006,"puntu":5007,"rendimiento":5008,"Nicolás":5009,"circun":5010,"ast":5011,"##áf":5012,"encan":5013,"##tistas":5014,"##tegra":5015,"repe":5016,"consigu":5017,"##ington":5018,"refug":5019,"constante":5020,"##maras":5021,"centr":5022,"mensajes":5023,"herramientas":5024,"premio":5025,"Sergio":5026,"psic":5027,"Flor":5028,"Quer":5029,"dando":5030,"pic":5031,"##rica":5032,"##val":5033,"##sen":5034,"##tég":5035,"##zan":5036,"debajo":5037,"acces":5038,"expecta":5039,"##cular":5040,"policías":5041,"formas":5042,"posibles":5043,"ciclo":5044,"Constitución":5045,"Servicio":5046,"produjo":5047,"encabez":5048,"trimestre":5049,"John":5050,"85":5051,"Liber":5052,"Pública":5053,"##dados":5054,"##onales":5055,"##sted":5056,"entregar":5057,"turismo":5058,"amones":5059,"tranqu":5060,"secues":5061,"tareas":5062,"oficina":5063,"pleno":5064,"anunciado":5065,"ocurre":5066,"buenas":5067,"##cidentes":5068,"mercados":5069,"comentarios":5070,"probable":5071,"Californ":5072,"feliz":5073,"episo":5074,"porcentaje":5075,"enseñ":5076,"California":5077,"Cla":5078,"##mbito":5079,"##ós":5080,"##eca":5081,"##teci":5082,"reporte":5083,"reiter":5084,"reemp":5085,"##ierto":5086,"##desa":5087,"##ómez":5088,"##ectri":5089,"registrado":5090,"Exp":5091,"afectados":5092,"trasladado":5093,"torno":5094,"abogado":5095,"isla":5096,"inmediato":5097,"demasiado":5098,"coinci":5099,"Ama":5100,"Lor":5101,"Pr":5102,"Poder":5103,"pobre":5104,"##ejo":5105,"##ye":5106,"ens":5107,"enten":5108,"##toc":5109,"##isco":5110,"acad":5111,"exterior":5112,"post":5113,"cancel":5114,"niñas":5115,"socios":5116,"cerrar":5117,"Antes":5118,"contribuy":5119,"llevado":5120,"condición":5121,"entidades":5122,"francés":5123,"peligros":5124,"establecer":5125,"requiere":5126,"Daniel":5127,"cáncer":5128,"Jal":5129,"Ni":5130,"ti":5131,"##vos":5132,"delic":5133,"##ity":5134,"dipl":5135,"##iev":5136,"serv":5137,"compren":5138,"Segu":5139,"afirma":5140,"certific":5141,"propie":5142,"vivo":5143,"mismas":5144,"##endientes":5145,"anuncio":5146,"Actualmente":5147,"lanzamiento":5148,"elegir":5149,"construir":5150,"limit":5151,"alumnos":5152,"Economía":5153,"numeros":5154,"delincu":5155,"Córdoba":5156,"Gómez":5157,"Igu":5158,"UU":5159,"Vi":5160,"hu":5161,"nomb":5162,"tiro":5163,"##via":5164,"##dra":5165,"elección":5166,"hacía":5167,"##enció":5168,"meta":5169,"apertura":5170,"##ficial":5171,"posib":5172,"escena":5173,"2016":5174,"sentir":5175,"lesion":5176,"fuente":5177,"intentar":5178,"registro":5179,"investigaciones":5180,"suelo":5181,"fotos":5182,"rusa":5183,"imag":5184,"década":5185,"temperaturas":5186,"blanco":5187,"registraron":5188,"habitual":5189,"cárcel":5190,"frecu":5191,"ritmo":5192,"52":5193,"piel":5194,"vie":5195,"visión":5196,"##eco":5197,"##tudes":5198,"casas":5199,"hayan":5200,"afecta":5201,"distancia":5202,"##emia":5203,"investigadores":5204,"gasto":5205,"utilizar":5206,"atrac":5207,"advirtió":5208,"estructura":5209,"infraestructura":5210,"CE":5211,"Catal":5212,"Siempre":5213,"ais":5214,"bras":5215,"lidera":5216,"ses":5217,"tab":5218,"ámbito":5219,"##mes":5220,"##mán":5221,"##cán":5222,"requer":5223,"##icios":5224,"##usa":5225,"actuar":5226,"##quiera":5227,"Protección":5228,"pone":5229,"inscri":5230,"pequeña":5231,"hubiera":5232,"pronunci":5233,"aspectos":5234,"rusas":5235,"palabra":5236,"apuntó":5237,"página":5238,"dudas":5239,"##amblea":5240,"Italia":5241,"43":5242,"600":5243,"Cre":5244,"Mer":5245,"Paz":5246,"km":5247,"len":5248,"río":5249,"tari":5250,"##ly":5251,"##ft":5252,"##úan":5253,"##arnos":5254,"##ast":5255,"##tista":5256,"##ector":5257,"sustitu":5258,"propon":5259,"cuán":5260,"aport":5261,"comport":5262,"debemos":5263,"adj":5264,"heridas":5265,"superar":5266,"cultural":5267,"avanzar":5268,"necesitan":5269,"críticas":5270,"combustible":5271,"amonestado":5272,"41":5273,"Tele":5274,"femen":5275,"##ude":5276,"##esper":5277,"innov":5278,"inglés":5279,"manej":5280,"explo":5281,"destacar":5282,"vacaciones":5283,"taller":5284,"##atem":5285,"líneas":5286,"clima":5287,"reveló":5288,"alerta":5289,"características":5290,"Messi":5291,"cayó":5292,"múltiples":5293,"cru":5294,"ech":5295,"fen":5296,"ventas":5297,"##vis":5298,"##mentos":5299,"##kov":5300,"##uos":5301,"##ang":5302,"##ectura":5303,"##itro":5304,"##torio":5305,"Estoy":5306,"recur":5307,"mejora":5308,"##ioso":5309,"ofrec":5310,"Quin":5311,"asegurado":5312,"anticip":5313,"##tismo":5314,"normal":5315,"escuchar":5316,"##émica":5317,"Mosc":5318,":/":5319,"Gobern":5320,"Uruguay":5321,"Wh":5322,"Wash":5323,"hal":5324,"vienen":5325,"##ff":5326,"##rop":5327,"parque":5328,"reducción":5329,"alza":5330,"haga":5331,"comis":5332,"apos":5333,"##ísimo":5334,"canal":5335,"hacerse":5336,"embaj":5337,"explicado":5338,"encontró":5339,"vuelve":5340,"médica":5341,"Campe":5342,"convocatoria":5343,"legisla":5344,"cuestiones":5345,"genera":5346,"://":5347,".,":5348,"Dos":5349,"Mel":5350,"Ru":5351,"tipos":5352,"tránsito":5353,"##para":5354,"##ígen":5355,"presentes":5356,"reca":5357,"capaci":5358,"##lix":5359,"2015":5360,"##edores":5361,"acuerdos":5362,"sangre":5363,"comparación":5364,"##iller":5365,"prácticamente":5366,"##tiende":5367,"términos":5368,"homen":5369,"gobiernos":5370,"cámaras":5371,"Washington":5372,"Kiev":5373,"tonel":5374,"##ativos":5375,"##ans":5376,"##ami":5377,"##digo":5378,"consci":5379,"agra":5380,"cielo":5381,"amist":5382,"invierno":5383,"2014":5384,"resulta":5385,"esperanza":5386,"expresid":5387,"negro":5388,"Mujer":5389,"empezar":5390,"defini":5391,"aspecto":5392,"convertido":5393,"películas":5394,"histórico":5395,"Comunidad":5396,"simplemente":5397,"Público":5398,"Moscú":5399,"Pop":5400,"Trump":5401,"rol":5402,"torm":5403,"órg":5404,"##didos":5405,"##bal":5406,"##jó":5407,"##AM":5408,"##acia":5409,"##riente":5410,"asc":5411,"arch":5412,"caer":5413,"nuevamente":5414,"pose":5415,"defender":5416,"subir":5417,"comenzar":5418,"ropa":5419,"enfrentar":5420,"vacunas":5421,"usuario":5422,"suele":5423,"aliment":5424,"viajes":5425,"abierta":5426,"práctica":5427,"inmedi":5428,"comienzo":5429,"lluvia":5430,"##capacidad":5431,"Turismo":5432,"inaugur":5433,"Frente":5434,"diplom":5435,"'.":5436,"Ed":5437,"Julio":5438,"alej":5439,"actos":5440,"recal":5441,"##alizados":5442,"abus":5443,"recién":5444,"Medi":5445,"clás":5446,"apoyar":5447,"permitirá":5448,"Valle":5449,"movimientos":5450,"solicitud":5451,"antigu":5452,"cuarta":5453,"privado":5454,"periodistas":5455,"naturaleza":5456,"honor":5457,"detención":5458,"celular":5459,"AM":5460,"Kar":5461,"Tur":5462,"band":5463,"##atiz":5464,"##arle":5465,"##ango":5466,"##orado":5467,"##rael":5468,"repu":5469,"progres":5470,"##ienes":5471,"cuál":5472,"acog":5473,"and":5474,"##ucía":5475,"2024":5476,"corte":5477,"realizaron":5478,"horario":5479,"directo":5480,"refirió":5481,"funcionamiento":5482,"seguirá":5483,"cuerpos":5484,"guard":5485,"modelos":5486,"miembro":5487,"Administ":5488,"pudieron":5489,"larga":5490,"Escuela":5491,"próximas":5492,"39":5493,"Pese":5494,"avenida":5495,"##vador":5496,"##ook":5497,"sumar":5498,"alar":5499,"##quen":5500,"##umen":5501,"Unidad":5502,"##cuador":5503,"verde":5504,"corre":5505,"motivos":5506,"segura":5507,"quedaron":5508,"destacado":5509,"objeto":5510,"Maduro":5511,"##vimos":5512,"integr":5513,"representante":5514,"moder":5515,"factores":5516,"viajar":5517,"rápida":5518,"multi":5519,"PSOE":5520,"deriv":5521,"pasajeros":5522,"Gust":5523,"et":5524,"ges":5525,"ur":5526,"##ear":5527,"##mina":5528,"##zada":5529,"##ances":5530,"enter":5531,"##tion":5532,"altas":5533,"##isp":5534,"##ilares":5535,"##itarias":5536,"Enrique":5537,"##tuvieron":5538,"apunta":5539,"##ega":5540,"escas":5541,"llevan":5542,"graves":5543,"segundos":5544,"buscan":5545,"Supre":5546,"mala":5547,"números":5548,"disponibles":5549,"futbolista":5550,"candidatos":5551,"Cultura":5552,"convertirse":5553,"##glesia":5554,"Fundación":5555,"Net":5556,"PC":5557,"Tierra":5558,"cur":5559,"##ks":5560,"##ham":5561,"##table":5562,"remar":5563,"perj":5564,"exac":5565,"##acas":5566,"interc":5567,"cancha":5568,"magn":5569,"avión":5570,"intento":5571,"Mundo":5572,"voto":5573,"conocida":5574,"consideró":5575,"Alex":5576,"lanzó":5577,"materiales":5578,"amenaza":5579,"asociación":5580,"estrella":5581,"inversiones":5582,"Gracias":5583,"Incluso":5584,"mandato":5585,"alcohol":5586,"Bu":5587,"Wil":5588,"sho":5589,"##erse":5590,"##icano":5591,"##ats":5592,"tramo":5593,"recurso":5594,"imput":5595,"arres":5596,"carác":5597,"##itud":5598,"##mitir":5599,"informaron":5600,"##udicial":5601,"##ificado":5602,"denomin":5603,"muertes":5604,"talento":5605,"clasificación":5606,"mostrar":5607,"Plaza":5608,"Resp":5609,"amenazas":5610,"desconoc":5611,"amplia":5612,"##ttps":5613,"Senado":5614,"novedad":5615,"circunst":5616,"fenóm":5617,"homenaje":5618,"carácter":5619,"Riv":5620,"aé":5621,"cámara":5622,"##gación":5623,"##gados":5624,"##oj":5625,"##tamos":5626,"##dentes":5627,"##onomía":5628,"##amb":5629,"quiz":5630,"canción":5631,"respondió":5632,"##turales":5633,"mantenimiento":5634,"buenos":5635,"concreto":5636,"estuvieron":5637,"extraordin":5638,"discusión":5639,"rápidamente":5640,"potencial":5641,"populares":5642,"error":5643,"origin":5644,"vicepresidenta":5645,"imposible":5646,"espectáculo":5647,"91":5648,"AF":5649,"Do":5650,"Ib":5651,"Pon":5652,"Viv":5653,"aerop":5654,"fi":5655,"fij":5656,"ras":5657,"##tía":5658,"##tida":5659,"##dr":5660,"##cada":5661,"##bilidad":5662,"electri":5663,"delante":5664,"##ille":5665,"prove":5666,"perspec":5667,"adqui":5668,"octa":5669,"motor":5670,"Red":5671,"produce":5672,"tarea":5673,"tendría":5674,"150":5675,"ideas":5676,"##ífico":5677,"detenidos":5678,"aprobación":5679,"documentos":5680,"mencionó":5681,"enfermedades":5682,"brindar":5683,"Galicia":5684,"Selección":5685,"Rica":5686,"Sch":5687,"dará":5688,"flu":5689,"vaya":5690,"##ié":5691,"##lores":5692,"##ph":5693,"##ualmente":5694,"##real":5695,"rema":5696,"protoc":5697,"acos":5698,"diver":5699,"exposición":5700,"carta":5701,"presidencial":5702,"directa":5703,"planeta":5704,"##teca":5705,"residentes":5706,"Ángeles":5707,"suministro":5708,"Rafael":5709,"800":5710,"Cel":5711,"Ecuador":5712,"Jul":5713,"Sub":5714,"bon":5715,"fechas":5716,"nub":5717,"##iores":5718,"##bu":5719,"##úl":5720,"##ulip":5721,"pasando":5722,"abrió":5723,"Comer":5724,"viven":5725,"iniciar":5726,"visitar":5727,"vender":5728,"prevé":5729,"##ísticos":5730,"marcó":5731,"visitantes":5732,"Isabel":5733,"pocas":5734,"elimin":5735,"Latina":5736,"rueda":5737,"posibilidades":5738,"brasile":5739,"57":5740,"Agr":5741,"Gol":5742,"Pers":5743,"cruc":5744,"ger":5745,"huel":5746,"mamá":5747,"##MS":5748,"parlament":5749,"##teo":5750,"rein":5751,"##ocas":5752,"sindic":5753,"interna":5754,"##inato":5755,"siquiera":5756,"tantos":5757,"convenci":5758,"Juárez":5759,"leyes":5760,"##amaulip":5761,"técnica":5762,"perfil":5763,"estratég":5764,"potencia":5765,"esfuerzos":5766,"Trabajo":5767,"adop":5768,"Agencia":5769,"automóvil":5770,"jurí":5771,"Gustav":5772,"piso":5773,"##rero":5774,"##cón":5775,"##30":5776,"##teor":5777,"##usieron":5778,"##acción":5779,"impuesto":5780,"empate":5781,"carreras":5782,"Comp":5783,"productores":5784,"transmisión":5785,"quedar":5786,"clara":5787,"clín":5788,"monta":5789,"##ebook":5790,"encontraron":5791,"económicos":5792,"reuniones":5793,"##límp":5794,"##formas":5795,"comienza":5796,"precisó":5797,"precisamente":5798,"increí":5799,"##stedes":5800,"subrayó":5801,"capaz":5802,"Az":5803,"Camp":5804,"Les":5805,"Prem":5806,"Zarago":5807,"feste":5808,"ojos":5809,"##moria":5810,"##zado":5811,"##IC":5812,"##eran":5813,"##oni":5814,"##orías":5815,"##adero":5816,"##ale":5817,"##encio":5818,"exc":5819,"##rante":5820,"##seg":5821,"##acu":5822,"compon":5823,"##land":5824,"bajas":5825,"llamó":5826,"querido":5827,"autón":5828,"solicitar":5829,"incluyendo":5830,"permanente":5831,"Ejército":5832,"mecan":5833,"Ricardo":5834,"bra":5835,"batal":5836,"duelo":5837,"trist":5838,"##eos":5839,"conex":5840,"##américa":5841,"estás":5842,"aceler":5843,"desper":5844,"mez":5845,"memoria":5846,"sola":5847,"Allí":5848,"evolución":5849,"empresarios":5850,"distrito":5851,"ganado":5852,"quedado":5853,"responder":5854,"insu":5855,"profesor":5856,"controlar":5857,"##osotros":5858,"ubicada":5859,"celebrar":5860,"diputados":5861,"voluntad":5862,"Facebook":5863,"hospit":5864,"piloto":5865,"fiscales":5866,"FC":5867,"Hemos":5868,"oro":5869,"sorte":5870,"Él":5871,"##ket":5872,"##UU":5873,"##amentos":5874,"inci":5875,"integra":5876,"deseo":5877,"##izada":5878,"##uera":5879,"##atas":5880,"##tumb":5881,"comprob":5882,"##cate":5883,"carb":5884,"personaje":5885,"##grama":5886,"peti":5887,"Marcel":5888,"costos":5889,"chil":5890,"##edas":5891,"diferencias":5892,"##iversario":5893,"rode":5894,"instalación":5895,"asesinato":5896,"Petro":5897,"probablemente":5898,"Regional":5899,"democrá":5900,"EEUU":5901,"sospech":5902,"respectivamente":5903,"expresidente":5904,"Gustavo":5905,"App":5906,"Otra":5907,"Sí":5908,"duro":5909,"ital":5910,"tribunal":5911,"##itivos":5912,"##yas":5913,"##uri":5914,"retom":5915,"##lex":5916,"actores":5917,"##igue":5918,"##ivamente":5919,"disput":5920,"siente":5921,"jubil":5922,"##metro":5923,"secund":5924,"resultó":5925,"formar":5926,"monto":5927,"docentes":5928,"conoce":5929,"muerto":5930,"dirigentes":5931,"vuelto":5932,"Será":5933,"plataformas":5934,"Torres":5935,"civiles":5936,"hogares":5937,"alcance":5938,"tamaño":5939,"Investi":5940,"arriba":5941,"Zaragoza":5942,"Aquí":5943,"Bomb":5944,"Hor":5945,"Junta":5946,"Ste":5947,"Za":5948,"bur":5949,"cari":5950,"far":5951,"mental":5952,"##iamente":5953,"##tales":5954,"##mer":5955,"##ko":5956,"decía":5957,"##onso":5958,"##sto":5959,"medic":5960,"##usiones":5961,"anual":5962,"##éndose":5963,"consist":5964,"cerem":5965,"cerró":5966,"contam":5967,"destru":5968,"instancia":5969,"transpor":5970,"subida":5971,"llama":5972,"dato":5973,"añade":5974,"alcanzó":5975,"reconoció":5976,"Joe":5977,"eléctrica":5978,"buscando":5979,"consumidores":5980,"alegría":5981,"acumul":5982,"escolar":5983,"Álvarez":5984,"51":5985,"Kirchner":5986,"Má":5987,"Tom":5988,"dil":5989,"fra":5990,"hel":5991,"ola":5992,"radio":5993,"usted":5994,"##ipe":5995,"##ianas":5996,"##vención":5997,"##ker":5998,"##íp":5999,"##ilio":6000,"design":6001,"exter":6002,"excel":6003,"##ajas":6004,"impon":6005,"asunto":6006,"##ficiencia":6007,"Ana":6008,"millón":6009,"reform":6010,"##cionado":6011,"conviv":6012,"superfici":6013,"hablando":6014,"provincias":6015,"Canad":6016,"privada":6017,"Dominicana":6018,"índic":6019,"restricciones":6020,"Haci":6021,"hos":6022,"##gadas":6023,"##óc":6024,"##osos":6025,"eng":6026,"##ramos":6027,"estre":6028,"##isos":6029,"##ilib":6030,"perm":6031,"apuesta":6032,"sala":6033,"margen":6034,"trabajan":6035,"chicos":6036,"quedan":6037,"prevent":6038,"ofens":6039,"complejo":6040,"plena":6041,"encuentros":6042,"banco":6043,"acompañado":6044,"crip":6045,"aspir":6046,"concierto":6047,"Rosario":6048,"comerciales":6049,"aprender":6050,"musical":6051,"establece":6052,"complicado":6053,"toneladas":6054,"Popular":6055,"Da":6056,"Vamos":6057,"bril":6058,"gira":6059,"prac":6060,"##gü":6061,"##uma":6062,"##TE":6063,"##dol":6064,"remo":6065,"alquil":6066,"##itan":6067,"cuya":6068,"discu":6069,"personales":6070,"equip":6071,"equilib":6072,"realizando":6073,"Comité":6074,"inicial":6075,"señalar":6076,"distribución":6077,"funciona":6078,"compartió":6079,"llegará":6080,"bancos":6081,"ejército":6082,"españoles":6083,"organizado":6084,"asistentes":6085,"jornadas":6086,"cliente":6087,"deportivo":6088,"procedimiento":6089,"aguas":6090,"división":6091,"cuadro":6092,"promoción":6093,"ilegal":6094,"historias":6095,"micro":6096,"satisfac":6097,"Canadá":6098,"Edu":6099,"Mov":6100,"Op":6101,"Pel":6102,"do":6103,"hall":6104,"vino":6105,"##ey":6106,"##NA":6107,"##íti":6108,"incu":6109,"altos":6110,"alem":6111,"perci":6112,"##teral":6113,"##imas":6114,"adver":6115,"turistas":6116,"afron":6117,"niña":6118,"cerr":6119,"escritor":6120,"dich":6121,"bajar":6122,"sentencia":6123,"##endiendo":6124,"plantas":6125,"femin":6126,"lograron":6127,"internet":6128,"##ague":6129,"falleció":6130,"término":6131,"correspondiente":6132,"Organización":6133,"Zelens":6134,"49":6135,"Fal":6136,"Har":6137,"Jun":6138,"bru":6139,"fren":6140,"mol":6141,"##hi":6142,"##OS":6143,"recha":6144,"pagos":6145,"expan":6146,"expedi":6147,"camion":6148,"cientos":6149,"canciones":6150,"decidido":6151,"##edor":6152,"ganas":6153,"Exteriores":6154,"mexicanos":6155,"vigil":6156,"ejecución":6157,"Especi":6158,"incendios":6159,"colectivo":6160,"pretende":6161,"sorpresa":6162,"Diputados":6163,"##seguridad":6164,"Bra":6165,"Baj":6166,"On":6167,"Sistema":6168,"XX":6169,"https":6170,"rin":6171,"ronda":6172,"viendo":6173,"##crib":6174,"intro":6175,"##teles":6176,"##ultura":6177,"resc":6178,"impul":6179,"expon":6180,"escrito":6181,"realizan":6182,"propósito":6183,"plazas":6184,"esperaba":6185,"muertos":6186,"ingresar":6187,"efectivo":6188,"venezolanos":6189,"promover":6190,"##ventud":6191,"adolescentes":6192,"Blanca":6193,"inteligencia":6194,"homicidio":6195,"vídeo":6196,"reemplaz":6197,"pobreza":6198,"99":6199,"Aut":6200,"Er":6201,"Judicial":6202,"Med":6203,"Na":6204,"Var":6205,"cort":6206,"catal":6207,"misión":6208,"ocul":6209,"vuelos":6210,"##ído":6211,"##ecut":6212,"cuidad":6213,"##torias":6214,"presunto":6215,"Estudi":6216,"##eche":6217,"personajes":6218,"posici":6219,"Sebas":6220,"Asamblea":6221,"necesaria":6222,"productor":6223,"señor":6224,"embara":6225,"transpar":6226,"semif":6227,"completa":6228,"gastos":6229,"Parque":6230,"##tización":6231,"pobl":6232,"Ambi":6233,"balón":6234,"preguntas":6235,"provocó":6236,"##ragón":6237,"##americana":6238,"videos":6239,"Ge":6240,"Guerra":6241,"Tiene":6242,"ce":6243,"##san":6244,"##tios":6245,"rey":6246,"##illos":6247,"prol":6248,"actitud":6249,"##izó":6250,"aniversario":6251,"asal":6252,"empu":6253,"abor":6254,"sale":6255,"adquis":6256,"cercan":6257,"dejando":6258,"especiales":6259,"saben":6260,"participaron":6261,"jueces":6262,"##ológicos":6263,"ejecut":6264,"diciendo":6265,"igualdad":6266,"riesgos":6267,"demues":6268,"denuncias":6269,"sumó":6270,"##máticas":6271,"Trabaj":6272,"campeonato":6273,"agresión":6274,"Victoria":6275,"aficionados":6276,"54":6277,"58":6278,"Nosotros":6279,"bici":6280,"nación":6281,"nombres":6282,"##yos":6283,"##gamos":6284,"##jes":6285,"##jado":6286,"##BA":6287,"##ame":6288,"estación":6289,"##ectoria":6290,"suman":6291,"incidente":6292,"##rigo":6293,"retro":6294,"##del":6295,"##itán":6296,"logra":6297,"##elas":6298,"Ella":6299,"pref":6300,"pros":6301,"disco":6302,"crecer":6303,"aux":6304,"colores":6305,"avent":6306,"profund":6307,"Guti":6308,"pelota":6309,"relig":6310,"##ologías":6311,"Muchos":6312,"inmue":6313,"inmun":6314,"fiestas":6315,"##americano":6316,"herramienta":6317,"convenio":6318,"diagn":6319,"##idaridad":6320,"trayectoria":6321,"concepto":6322,"recaud":6323,"circunstancias":6324,"ceremonia":6325,"Du":6326,"Jim":6327,"cit":6328,"fom":6329,"fich":6330,"grado":6331,"##pia":6332,"##uña":6333,"##berg":6334,"##AC":6335,"##ív":6336,"##ung":6337,"##ello":6338,"##igh":6339,"##quit":6340,"prefer":6341,"recl":6342,"explos":6343,"interp":6344,"motiv":6345,"generales":6346,"actuaciones":6347,"Mexic":6348,"Guatem":6349,"ambul":6350,"##ólogo":6351,"positivos":6352,"definir":6353,"dispositivo":6354,"Primera":6355,"tropas":6356,"combate":6357,"sujeto":6358,"Ambos":6359,"47":6360,"68":6361,"62":6362,"95":6363,"Div":6364,"vuelo":6365,"##rones":6366,"##rores":6367,"##zgo":6368,"##wn":6369,"##orio":6370,"##ader":6371,"esque":6372,"paque":6373,"habido":6374,"influ":6375,"salv":6376,"salario":6377,"##ficientes":6378,"cooper":6379,"asever":6380,"tomado":6381,"expresión":6382,"##tamen":6383,"considerado":6384,"País":6385,"reconocido":6386,"notific":6387,"histórica":6388,"nació":6389,"televis":6390,"original":6391,"Provincial":6392,"drogas":6393,"sencillo":6394,"expectativas":6395,"Jalisco":6396,"ofrecen":6397,"CN":6398,"For":6399,"##cla":6400,"##zó":6401,"##line":6402,"##ane":6403,"##todo":6404,"##let":6405,"##oda":6406,"##guen":6407,"##imnas":6408,"##iosa":6409,"##ets":6410,"generó":6411,"fallo":6412,"estaría":6413,"Salvador":6414,"##regular":6415,"compañero":6416,"irregular":6417,"ideal":6418,"integral":6419,"virtual":6420,"Moreno":6421,"deberán":6422,"mexicana":6423,"paciente":6424,"Boliv":6425,"policiales":6426,"Navarra":6427,"conversación":6428,"Ramón":6429,"pelea":6430,"Gabriel":6431,"Administración":6432,"electricidad":6433,"Hacienda":6434,"66":6435,"bi":6436,"hectá":6437,"tera":6438,"ustedes":6439,"##dicos":6440,"##ware":6441,"##onada":6442,"##ant":6443,"##rey":6444,"##amás":6445,"##undo":6446,"rem":6447,"retras":6448,"exhib":6449,"artes":6450,"soldados":6451,"debut":6452,"##onaer":6453,"196":6454,"llevaron":6455,"llevará":6456,"seguido":6457,"dejan":6458,"frío":6459,"votación":6460,"aparece":6461,"comenzaron":6462,"marcador":6463,"aprobó":6464,"modern":6465,"criter":6466,"gravedad":6467,"relacionados":6468,"restaur":6469,"correspondientes":6470,"narco":6471,"ONU":6472,"crédito":6473,"Atlético":6474,"Respecto":6475,"Guatemala":6476,"700":6477,"Dist":6478,"Imp":6479,"Jap":6480,"dorm":6481,"grad":6482,"vend":6483,"ór":6484,"##bel":6485,"##ER":6486,"##ade":6487,"##idez":6488,"esca":6489,"reti":6490,"acre":6491,"divid":6492,"tensión":6493,"abra":6494,"agric":6495,"##érrez":6496,"Rev":6497,"entradas":6498,"oficinas":6499,"prevención":6500,"denunció":6501,"daño":6502,"dispositivos":6503,"ejecutivo":6504,"fotograf":6505,"bomberos":6506,"impulsar":6507,"venezolano":6508,"europeos":6509,"Musk":6510,"descanso":6511,"Felipe":6512,"Austral":6513,"fenómeno":6514,"Eduardo":6515,"Sebasti":6516,"Ast":6517,"Bur":6518,"Pad":6519,"UC":6520,"lin":6521,"##EM":6522,"alianza":6523,"##ley":6524,"##icidio":6525,"prevenir":6526,"Unidas":6527,"Esper":6528,"agr":6529,"##ogle":6530,"votar":6531,"##mitido":6532,"##inete":6533,"aquellas":6534,"factura":6535,"similares":6536,"Podemos":6537,"sirve":6538,"protesta":6539,"Reyes":6540,"Derechos":6541,"Provincia":6542,"argument":6543,"subsid":6544,"resaltó":6545,"climático":6546,"aisl":6547,"comportamiento":6548,"etc":6549,"Gutiérrez":6550,"PI":6551,"Tamaulip":6552,"bot":6553,"dra":6554,"##bla":6555,"##TA":6556,"##ífic":6557,"##ça":6558,"##alición":6559,"quem":6560,"conqu":6561,"##ricio":6562,"##ack":6563,"##quia":6564,"arrib":6565,"puente":6566,"llegan":6567,"refuerzo":6568,"##itat":6569,"aseguran":6570,"encontrado":6571,"añadido":6572,"comprome":6573,"puerto":6574,"afectadas":6575,"efectivos":6576,"vigente":6577,"decreto":6578,"desconoci":6579,"afectado":6580,"aceptar":6581,"conversaciones":6582,"básicos":6583,"fortalecer":6584,"Google":6585,"cocina":6586,"Tamaulipas":6587,"53":6588,"61":6589,"Bos":6590,"Era":6591,"Hist":6592,"Jef":6593,"cero":6594,"vín":6595,"##iada":6596,"##nal":6597,"##sos":6598,"##mic":6599,"##zgado":6600,"##orada":6601,"estren":6602,"##deos":6603,"analiz":6604,"##ariamente":6605,"asign":6606,"Ing":6607,"autos":6608,"informes":6609,"optim":6610,"entró":6611,"Mej":6612,"revisión":6613,"gole":6614,"económicas":6615,"##cenas":6616,"dinám":6617,"guar":6618,"especialistas":6619,"Tex":6620,"intendente":6621,"argentina":6622,"efectu":6623,"sucedido":6624,"animal":6625,"elegido":6626,"reacción":6627,"intentó":6628,"errores":6629,"escala":6630,"reconocer":6631,"estrellas":6632,"almacen":6633,"Indust":6634,"Legis":6635,"requisitos":6636,"dificultades":6637,"64":6638,"Bern":6639,"Rel":6640,"UN":6641,"dom":6642,"hí":6643,"pista":6644,"##írez":6645,"##ciles":6646,"entra":6647,"##dedores":6648,"acaba":6649,"##lace":6650,"##ocal":6651,"mantuvo":6652,"implica":6653,"obtuvo":6654,"regal":6655,"##ína":6656,"opos":6657,"presidencia":6658,"formato":6659,"resultaron":6660,"Profes":6661,"atac":6662,"##tamientos":6663,"juega":6664,"##ológicas":6665,"institucional":6666,"aprobado":6667,"naturales":6668,"negociación":6669,"determinar":6670,"físico":6671,"testigos":6672,"##habilit":6673,"hectáreas":6674,"Dic":6675,"cog":6676,"##vies":6677,"##gal":6678,"##cor":6679,"##ames":6680,"cuáles":6681,"##elos":6682,"desf":6683,"excep":6684,"espal":6685,"cau":6686,"cartera":6687,"socio":6688,"##ribuir":6689,"presentaron":6690,"##endas":6691,"quedarse":6692,"completar":6693,"dirigido":6694,"enfrenta":6695,"negociaciones":6696,"ucranianos":6697,"conseguido":6698,"frances":6699,"argentinos":6700,"títulos":6701,"extremo":6702,"##iverso":6703,"limpieza":6704,"duración":6705,"##IFA":6706,"hermanos":6707,"Amaz":6708,"aeropuerto":6709,"CC":6710,"Clar":6711,"Luna":6712,"Merc":6713,"Pi":6714,"cál":6715,"tre":6716,"viento":6717,"##rom":6718,"##ridos":6719,"##villa":6720,"##garon":6721,"##ny":6722,"##ax":6723,"##aremos":6724,"conme":6725,"##icales":6726,"##ecas":6727,"reina":6728,"##isas":6729,"desac":6730,"##odía":6731,"exitos":6732,"excepción":6733,"infer":6734,"camp":6735,"corpor":6736,"instrum":6737,"venir":6738,"Guiller":6739,"gastr":6740,"límite":6741,"250":6742,"representación":6743,"descri":6744,"piezas":6745,"identificado":6746,"circulación":6747,"Ramírez":6748,"reconoce":6749,"bienestar":6750,"premios":6751,"increíble":6752,"Apple":6753,"##ócra":6754,"Japón":6755,"56":6756,"Bro":6757,"Boca":6758,"Hol":6759,"Mario":6760,"Neg":6761,"Ur":6762,"VI":6763,"Vir":6764,"fras":6765,"lóg":6766,"mac":6767,"vidas":6768,"##han":6769,"##enzo":6770,"##orar":6771,"##alla":6772,"##idal":6773,"##ins":6774,"estacion":6775,"hagan":6776,"##abilidades":6777,"producir":6778,"##iob":6779,"##obili":6780,"Energ":6781,"analizar":6782,"habilit":6783,"arre":6784,"solidaridad":6785,"colonia":6786,"coste":6787,"2010":6788,"lesión":6789,"enfoc":6790,"enfatiz":6791,"experiencias":6792,"culmin":6793,"compañías":6794,"vice":6795,"sufrir":6796,"sufrido":6797,"Dijo":6798,"vecino":6799,"perfecto":6800,"##ney":6801,"cubrir":6802,"Domingo":6803,"Posteriormente":6804,"rumbo":6805,"breve":6806,"reforzar":6807,"nuclear":6808,"superficie":6809,"Cari":6810,"FMI":6811,"Rub":6812,"bro":6813,"gana":6814,"##drán":6815,"##aso":6816,"##ind":6817,"paro":6818,"cuesta":6819,"##iras":6820,"acá":6821,"##terra":6822,"arras":6823,"discapacidad":6824,"sobreviv":6825,"Alm":6826,"Inform":6827,"creado":6828,"Chi":6829,"fuga":6830,"previo":6831,"asegurar":6832,"gasolina":6833,"permitió":6834,"límites":6835,"llen":6836,"lleno":6837,"mascul":6838,"Andal":6839,"marcas":6840,"marcado":6841,"preparación":6842,"siguientes":6843,"permanecer":6844,"ucraniana":6845,"raíz":6846,"encontramos":6847,"conciencia":6848,"eléctrico":6849,"protagonista":6850,"protestas":6851,"ausencia":6852,"Whats":6853,"hallaz":6854,"republ":6855,"show":6856,"Sebastián":6857,"Cá":6858,"Dr":6859,"Han":6860,"Juegos":6861,"Ríos":6862,"Vlad":6863,"gig":6864,"##tón":6865,"##jan":6866,"##ír":6867,"##anes":6868,"estabilidad":6869,"incer":6870,"##ritu":6871,"##its":6872,"perd":6873,"perió":6874,"perros":6875,"cuan":6876,"cump":6877,"desen":6878,"##tral":6879,"rescate":6880,"##ueve":6881,"infantil":6882,"camis":6883,"equival":6884,"especies":6885,"##áticas":6886,"previa":6887,"bases":6888,"doctor":6889,"indicado":6890,"pequeñas":6891,"mostrado":6892,"digitales":6893,"encargado":6894,"diputada":6895,"cobertura":6896,"sostenible":6897,"afectar":6898,"eliminar":6899,"desapareci":6900,"New":6901,"mirada":6902,"transformación":6903,"dueño":6904,"científicos":6905,"exportaciones":6906,"reportó":6907,"resistencia":6908,"magist":6909,"sesiones":6910,"Andalucía":6911,"incertid":6912,"72":6913,"Aragón":6914,"Fútbol":6915,"Mc":6916,"pendiente":6917,"##yó":6918,"##vera":6919,"##viera":6920,"##by":6921,"##App":6922,"elig":6923,"##ices":6924,"##amo":6925,"escon":6926,"inoc":6927,"restos":6928,"Estatal":6929,"leer":6930,"prést":6931,"mantienen":6932,"##utri":6933,"##ítica":6934,"evit":6935,"##ions":6936,"panor":6937,"econom":6938,"recibe":6939,"cualquiera":6940,"únicamente":6941,"dependencia":6942,"aplicar":6943,"mascar":6944,"brind":6945,"bombar":6946,"permiten":6947,"Humanos":6948,"78":6949,"79":6950,"Bus":6951,"Gre":6952,"Sar":6953,"Tanto":6954,"bonaer":6955,"eres":6956,"fa":6957,"##ty":6958,"##EC":6959,"##EP":6960,"decenas":6961,"##inaria":6962,"##uno":6963,"##untamente":6964,"subió":6965,"reto":6966,"reduci":6967,"produci":6968,"peron":6969,"activa":6970,"##enciar":6971,"antec":6972,"##ibil":6973,"posteriormente":6974,"siga":6975,"cereb":6976,"actuales":6977,"hacemos":6978,"avances":6979,"ganador":6980,"París":6981,"Coleg":6982,"energética":6983,"clasific":6984,"afectada":6985,"confirmado":6986,"establecimiento":6987,"prácticas":6988,"##quero":6989,"secretaria":6990,"eléctricos":6991,"triunf":6992,"extranjeros":6993,"firme":6994,"Fondo":6995,"agrav":6996,"conexión":6997,"Guillermo":6998,"anteced":6999,"71":7000,"AP":7001,"Fo":7002,"Lib":7003,"Reci":7004,"Rosa":7005,"Sud":7006,"vemos":7007,"##vez":7008,"##gando":7009,"##sula":7010,"##ást":7011,"##onía":7012,"##entó":7013,"sug":7014,"##éndo":7015,"importa":7016,"salarios":7017,"Interior":7018,"confes":7019,"capít":7020,"dejaron":7021,"libros":7022,"panel":7023,"llamar":7024,"Guan":7025,"registros":7026,"##tell":7027,"localidades":7028,"continuación":7029,"continuidad":7030,"consideran":7031,"cumplimiento":7032,"Monte":7033,"despl":7034,"aquella":7035,"interesante":7036,"Todas":7037,"consulta":7038,"Torre":7039,"défici":7040,"independencia":7041,"evidencia":7042,"cercano":7043,"Panamá":7044,"silencio":7045,"camioneta":7046,"##micron":7047,"63":7048,"Festival":7049,"FIFA":7050,"Lam":7051,"Pl":7052,"rig":7053,"som":7054,"##rador":7055,"##iales":7056,"##éro":7057,"deterior":7058,"##arc":7059,"lab":7060,"##icción":7061,"##reta":7062,"inn":7063,"reiv":7064,"aliados":7065,"##abil":7066,"##rana":7067,"##ive":7068,"##ucum":7069,"carne":7070,"regionales":7071,"Segun":7072,"realizada":7073,"empresario":7074,"Medio":7075,"prima":7076,"pelo":7077,"Miami":7078,"##ampions":7079,"consejo":7080,"laborales":7081,"sexo":7082,"financiero":7083,"clubes":7084,"deberían":7085,"identificar":7086,"escenarios":7087,"tasas":7088,"enviar":7089,"acabar":7090,"artículos":7091,"asumir":7092,"Roberto":7093,"online":7094,"proporcion":7095,"Massa":7096,"Sport":7097,"suelen":7098,"colombiano":7099,"perspectiva":7100,"acostumb":7101,"Bomberos":7102,"WhatsApp":7103,"Lond":7104,"Mis":7105,"Mir":7106,"Mau":7107,"az":7108,"ater":7109,"ago":7110,"bio":7111,"jard":7112,"vías":7113,"##nto":7114,"envió":7115,"##stru":7116,"esco":7117,"##temp":7118,"##dimientos":7119,"peru":7120,"digo":7121,"##ánico":7122,"##qué":7123,"traer":7124,"apla":7125,"precip":7126,"impar":7127,"tienda":7128,"discip":7129,"sinies":7130,"finalizar":7131,"trasc":7132,"partida":7133,"comunes":7134,"seguimiento":7135,"##uración":7136,"presentan":7137,"volumen":7138,"especie":7139,"Carmen":7140,"Castro":7141,"comenzará":7142,"Barça":7143,"##viamente":7144,"rojo":7145,"asistir":7146,"asesor":7147,"conductores":7148,"incluyen":7149,"fallecido":7150,"Granada":7151,"contará":7152,"preocu":7153,"aprovechar":7154,"condena":7155,"incluidos":7156,"sensación":7157,"bebé":7158,"candidatura":7159,"hermana":7160,"inmediata":7161,"combatir":7162,"Latino":7163,"luchar":7164,"Debido":7165,"##cleta":7166,"telef":7167,"Florida":7168,"episodio":7169,"Comercio":7170,"batalla":7171,"diagnóstico":7172,"87":7173,"Den":7174,"Vox":7175,"baño":7176,"bille":7177,"festival":7178,"pies":7179,"rent":7180,"rub":7181,"##tti":7182,"##com":7183,"##zca":7184,"##pan":7185,"##flix":7186,"##EA":7187,"##BC":7188,"suces":7189,"##aces":7190,"trató":7191,"arquit":7192,"toque":7193,"postura":7194,"posterior":7195,"Indep":7196,"Santo":7197,"costa":7198,"2013":7199,"vein":7200,"convierte":7201,"neu":7202,"esperando":7203,"Parlamento":7204,"##rilla":7205,"golpes":7206,"apareció":7207,"Polonia":7208,"difun":7209,"creciendo":7210,"modalidad":7211,"fallecidos":7212,"corresponde":7213,"elemento":7214,"Navidad":7215,"ilum":7216,"trámite":7217,"concentración":7218,"variedad":7219,"árboles":7220,"motoci":7221,"consolid":7222,"estatales":7223,"orgullos":7224,"Netflix":7225,"adquirir":7226,"practic":7227,"incertidumbre":7228,"reivin":7229,"Famil":7230,"Juntos":7231,"Rico":7232,"Tres":7233,"Us":7234,"mara":7235,"ul":7236,"##pro":7237,"##íg":7238,"##LO":7239,"parecía":7240,"esquina":7241,"##istos":7242,"##ierras":7243,"##laterra":7244,"extender":7245,"##igual":7246,"##énez":7247,"caf":7248,"poderos":7249,"agente":7250,"termina":7251,"plane":7252,"puesta":7253,"Metro":7254,"organismos":7255,"indicaron":7256,"culp":7257,"##ciller":7258,"Acad":7259,"educativo":7260,"alimentación":7261,"descenso":7262,"Municipio":7263,"Agreg":7264,"ambiental":7265,"ofertas":7266,"constitucional":7267,"categorías":7268,"independiente":7269,"edificios":7270,"Servicios":7271,"aclaró":7272,"respaldo":7273,"tranquilidad":7274,"Marcelo":7275,"69":7276,"Guer":7277,"Luc":7278,"Radio":7279,"aer":7280,"liter":7281,"moles":7282,"tú":7283,"tribun":7284,"##té":7285,"##merc":7286,"##enco":7287,"##ciona":7288,"##ster":7289,"##tiza":7290,"inund":7291,"##ella":7292,"despa":7293,"##trado":7294,"imper":7295,"ciudadano":7296,"recientes":7297,"llevaba":7298,"Champions":7299,"necesarios":7300,"maqu":7301,"captur":7302,"llegue":7303,"proyec":7304,"Caracas":7305,"sabía":7306,"Programa":7307,"legales":7308,"continuará":7309,"detalle":7310,"residencia":7311,"sucede":7312,"contenidos":7313,"Presidencia":7314,"abogados":7315,"fanáticos":7316,"colegio":7317,"disminuy":7318,"extranjero":7319,"demostrado":7320,"páginas":7321,"facilitar":7322,"normativa":7323,"aconteci":7324,"alternativa":7325,"rostro":7326,"órgano":7327,"Inglaterra":7328,"Texas":7329,"Colegio":7330,"76":7331,"CA":7332,"Crim":7333,"Otros":7334,"Tri":7335,"Wal":7336,"hipo":7337,"harán":7338,"##ses":7339,"##áver":7340,"##bit":7341,"rebaj":7342,"porte":7343,"##diales":7344,"##dimos":7345,"##itros":7346,"##istado":7347,"perse":7348,"##acciones":7349,"##bita":7350,"seres":7351,"compras":7352,"casti":7353,"teatro":7354,"interno":7355,"march":7356,"Alcal":7357,"##ave":7358,"creen":7359,"mediados":7360,"realización":7361,"propias":7362,"contund":7363,"destinos":7364,"incluir":7365,"avis":7366,"aviso":7367,"League":7368,"revista":7369,"humor":7370,"conoció":7371,"llena":7372,"representan":7373,"claramente":7374,"balance":7375,"interesados":7376,"financiera":7377,"##atorias":7378,"moda":7379,"factor":7380,"You":7381,"recomienda":7382,"cadáver":7383,"mínima":7384,"variante":7385,"##dicato":7386,"cercana":7387,"Romero":7388,"gratuita":7389,"consiguió":7390,"criptom":7391,"Australia":7392,"panorama":7393,"cerebro":7394,"67":7395,"Av":7396,"aun":7397,"abajo":7398,"fas":7399,"ilí":7400,"mente":7401,"nu":7402,"peg":7403,"##ood":7404,"##ED":7405,"##IA":7406,"lav":7407,"contes":7408,"inde":7409,"##rirá":7410,"accidentes":7411,"murieron":7412,"aportar":7413,"preserv":7414,"##rimiento":7415,"artic":7416,"##cura":7417,"milit":7418,"abre":7419,"abuso":7420,"camión":7421,"mediodía":7422,"occid":7423,"playa":7424,"##ionado":7425,"Desta":7426,"recibieron":7427,"sanitaria":7428,"permita":7429,"##ábamos":7430,"cambiado":7431,"concurso":7432,"ciertos":7433,"sacó":7434,"negó":7435,"depende":7436,"especialista":7437,"Israel":7438,"ucranianas":7439,"sucedió":7440,"confirmaron":7441,"fotografía":7442,"recuerdo":7443,"migra":7444,"romp":7445,"ampliar":7446,"renovación":7447,"pérdidas":7448,"prioridad":7449,"diag":7450,"PRI":7451,"adicional":7452,"Villar":7453,"británico":7454,"centrales":7455,"urban":7456,"Willi":7457,"Premio":7458,"rechazo":7459,"Dec":7460,"Krem":7461,"Ofici":7462,"Pin":7463,"Tar":7464,"flo":7465,"vieron":7466,"##tz":7467,"##tidos":7468,"##mana":7469,"##king":7470,"##ure":7471,"##PS":7472,"aloj":7473,"ace":7474,"##ierta":7475,"##izados":7476,"ans":7477,"recep":7478,"entreten":7479,"entregó":7480,"arreg":7481,"##cuito":7482,"empieza":7483,"Portu":7484,"##denes":7485,"contratos":7486,"##medi":7487,"2012":7488,"vale":7489,"Guz":7490,"Guadal":7491,"promoci":7492,"declarado":7493,"barrios":7494,"temporal":7495,"movilidad":7496,"solicitó":7497,"encuesta":7498,"acusaciones":7499,"Corea":7500,"renunci":7501,"establecimientos":7502,"##ijó":7503,"cuestion":7504,"matrimonio":7505,"específ":7506,"sober":7507,"galle":7508,"reservas":7509,"Fuerzas":7510,"senador":7511,"industrial":7512,"Claudi":7513,"talleres":7514,"alquiler":7515,"aseveró":7516,"fotografías":7517,"déficit":7518,"Baja":7519,"Dig":7520,"Iglesia":7521,"Tik":7522,"ciencia":7523,"liga":7524,"nerv":7525,"tap":7526,"án":7527,"##yendo":7528,"##ván":7529,"debió":7530,"conducir":7531,"##olín":7532,"reún":7533,"reper":7534,"propa":7535,"##izaciones":7536,"##uero":7537,"maniob":7538,"##alizadas":7539,"##utamente":7540,"Sevilla":7541,"correr":7542,"195":7543,"Christ":7544,"necesarias":7545,"choc":7546,"señalaron":7547,"distribu":7548,"veter":7549,"##risdic":7550,"participó":7551,"mone":7552,"monitor":7553,"ministros":7554,"considerar":7555,"Feijó":7556,"utiliza":7557,"descuento":7558,"Municipalidad":7559,"Puede":7560,"firmado":7561,"##olucion":7562,"intensidad":7563,"evidente":7564,"afirmado":7565,"desafío":7566,"luces":7567,"definitiva":7568,"incumpl":7569,"81":7570,"96":7571,"Bas":7572,"Bay":7573,"Fre":7574,"Nunca":7575,"darse":7576,"har":7577,"sól":7578,"##éis":7579,"##jera":7580,"##íes":7581,"##ñar":7582,"unif":7583,"##timos":7584,"##ambio":7585,"inseguridad":7586,"##ulta":7587,"##ieren":7588,"dije":7589,"tex":7590,"advers":7591,"evacu":7592,"Santos":7593,"##uracán":7594,"viviendo":7595,"coalición":7596,"supermerc":7597,"humana":7598,"##cidencia":7599,"Argent":7600,"##mpleo":7601,"sexuales":7602,"Cambio":7603,"documentación":7604,"concluir":7605,"diversidad":7606,"mencionar":7607,"establecido":7608,"emocion":7609,"restaurante":7610,"crítica":7611,"extensión":7612,"alcanza":7613,"escribir":7614,"absolutamente":7615,"antiguo":7616,"novedades":7617,"Legisla":7618,"William":7619,"Feijóo":7620,"59":7621,"77":7622,"73":7623,"86":7624,"89":7625,"CD":7626,"Gas":7627,"Oax":7628,"Punta":7629,"Tampoco":7630,"ed":7631,"fres":7632,"has":7633,"iP":7634,"riv":7635,"sit":7636,"tum":7637,"tono":7638,"test":7639,"tribu":7640,"vay":7641,"##iti":7642,"##iración":7643,"##gía":7644,"##tadores":7645,"##bar":7646,"##we":7647,"##ertos":7648,"conces":7649,"estima":7650,"##tega":7651,"portal":7652,"##itana":7653,"##irán":7654,"exam":7655,"extin":7656,"##atamente":7657,"##acruz":7658,"##gust":7659,"##tarán":7660,"prepara":7661,"explor":7662,"tiendas":7663,"debía":7664,"camin":7665,"versiones":7666,"##licó":7667,"plantilla":7668,"libres":7669,"continúan":7670,"cabe":7671,"oficialmente":7672,"quieres":7673,"haberse":7674,"experto":7675,"cambió":7676,"sacado":7677,"mostraron":7678,"discrim":7679,"cuartos":7680,"autob":7681,"fallecimiento":7682,"claves":7683,"disparo":7684,"reactiv":7685,"agradeció":7686,"##émico":7687,"Cultural":7688,"acudir":7689,"ahorro":7690,"vicepresidente":7691,"Fuentes":7692,"Lorenzo":7693,"adjudic":7694,"innovación":7695,"remarcó":7696,"medicamentos":7697,"esquema":7698,"##habilitación":7699,"Guzmán":7700,"82":7701,"Audi":7702,"Cés":7703,"Ga":7704,"Mich":7705,"Naciones":7706,"Pes":7707,"gl":7708,"listo":7709,"siento":7710,"“¿":7711,"##my":7712,"##menta":7713,"##enn":7714,"##olos":7715,"##ánica":7716,"meter":7717,"##aju":7718,"compens":7719,"prece":7720,"asuntos":7721,"habrían":7722,"tem":7723,"empe":7724,"salido":7725,"cere":7726,"##pañas":7727,"cotid":7728,"char":7729,"privi":7730,"complement":7731,"culturales":7732,"trataba":7733,"cumplen":7734,"mensual":7735,"utilizando":7736,"aplicaciones":7737,"sueños":7738,"técnicos":7739,"existencia":7740,"gustaría":7741,"alcaldesa":7742,"ratific":7743,"normas":7744,"##iremos":7745,"armado":7746,"invitados":7747,"Museo":7748,"Económ":7749,"legisladores":7750,"##ígenas":7751,"tormenta":7752,"Suprema":7753,"brasileño":7754,"índice":7755,"Londres":7756,"privileg":7757,"Aún":7758,"Ce":7759,"Dur":7760,"Mur":7761,"Nú":7762,"Oro":7763,"br":7764,"cóm":7765,"jamás":7766,"rap":7767,"rural":7768,"##eto":7769,"##ata":7770,"##cara":7771,"##áz":7772,"##bum":7773,"##DA":7774,"##IS":7775,"departam":7776,"##arlos":7777,"##ani":7778,"##anc":7779,"inca":7780,"producido":7781,"activo":7782,"metro":7783,"##ajara":7784,"resuel":7785,"serio":7786,"presencial":7787,"pred":7788,"quiso":7789,"pasan":7790,"##alizaciones":7791,"trabajador":7792,"campañas":7793,"polémica":7794,"crea":7795,"seguros":7796,"generaciones":7797,"Suárez":7798,"cabal":7799,"120":7800,"objetos":7801,"aumenta":7802,"##mart":7803,"totalidad":7804,"pensando":7805,"manifies":7806,"Paul":7807,"ordenó":7808,"detener":7809,"renuncia":7810,"##mático":7811,"Región":7812,"fundamentales":7813,"advierte":7814,"sépti":7815,"Boric":7816,"INE":7817,"Nuestro":7818,"Penal":7819,"inspir":7820,"orgullo":7821,"urbano":7822,"reiteró":7823,"liderazgo":7824,"embajador":7825,"bandera":7826,"dichos":7827,"impulso":7828,"cooperación":7829,"Bolivia":7830,"acredi":7831,"bonaerense":7832,"Kremlin":7833,"Guadalajara":7834,"74":7835,"92":7836,"Fil":7837,"Fab":7838,"Lar":7839,"Lula":7840,"Mendo":7841,"ecos":7842,"gama":7843,"vital":7844,"ál":7845,"##radas":7846,"##wa":7847,"##RA":7848,"##BI":7849,"##icanos":7850,"##iría":7851,"desin":7852,"trage":7853,"apel":7854,"esposo":7855,"especta":7856,"importar":7857,"pasión":7858,"temor":7859,"trabajado":7860,"##ped":7861,"traslado":7862,"cerrado":7863,"mover":7864,"194":7865,"dictad":7866,"actualización":7867,"respuestas":7868,"llegando":7869,"señalan":7870,"convir":7871,"responde":7872,"jugó":7873,"atle":7874,"emisiones":7875,"regresar":7876,"obligación":7877,"piden":7878,"residuos":7879,"respetar":7880,"disparos":7881,"batería":7882,"Sociedad":7883,"emocional":7884,"operativos":7885,"aumentó":7886,"fans":7887,"reportes":7888,"dispuesto":7889,"acudieron":7890,"sujetos":7891,"Derecho":7892,"rutas":7893,"Raúl":7894,"código":7895,"petición":7896,"sospechoso":7897,"excelente":7898,"percib":7899,"Zelenski":7900,"Amazon":7901,"enfatizó":7902,"Caribe":7903,"César":7904,"Mendoza":7905,"Pac":7906,"guer":7907,"idi":7908,"lad":7909,"mando":7910,"oeste":7911,"éste":7912,"##íritu":7913,"##eria":7914,"##asco":7915,"##amor":7916,"estaciones":7917,"rebo":7918,"aliv":7919,"##acer":7920,"tratando":7921,"##uestamente":7922,"Estadio":7923,"##tream":7924,"impuso":7925,"pasará":7926,"abst":7927,"colon":7928,"inicia":7929,"choque":7930,"incom":7931,"forman":7932,"Coordin":7933,"energético":7934,"entrenamiento":7935,"recorrer":7936,"ninguno":7937,"Rodrigo":7938,"reflexi":7939,"desaparición":7940,"aprendiz":7941,"estrategias":7942,"suspensión":7943,"incluido":7944,"competir":7945,"individual":7946,"bordo":7947,"implementación":7948,"alternativas":7949,"contempla":7950,"Cataluña":7951,"amistad":7952,"clásico":7953,"desconoce":7954,"gerente":7955,"café":7956,"-,":7957,"Añ":7958,"Ase":7959,"Cin":7960,"Hub":7961,"River":7962,"Sim":7963,"Sha":7964,"Vie":7965,"iban":7966,"veg":7967,"veo":7968,"##nik":7969,"##tana":7970,"##onedas":7971,"##ander":7972,"hac":7973,"Ellos":7974,"dim":7975,"##torios":7976,"ant":7977,"##dador":7978,"quis":7979,"##trop":7980,"simp":7981,"##ferencias":7982,"jurisdic":7983,"lujo":7984,"tantas":7985,"recinto":7986,"tranquil":7987,"empresarial":7988,"respira":7989,"vientos":7990,"quiera":7991,"moneda":7992,"publicidad":7993,"recordado":7994,"muestras":7995,"ponerse":7996,"visitante":7997,"tradición":7998,"plantel":7999,"##ráfica":8000,"encontraban":8001,"necesitamos":8002,"descubrir":8003,"Vicente":8004,"cicl":8005,"requieren":8006,"adelantó":8007,"%).":8008,"droga":8009,"quizás":8010,"vigilancia":8011,"Ambiente":8012,"Relaciones":8013,"##ázquez":8014,"Bl":8015,"City":8016,"Dar":8017,"EL":8018,"Il":8019,"James":8020,"Lima":8021,"Ren":8022,"TV":8023,"Tes":8024,"boca":8025,"ec":8026,"firmó":8027,"gala":8028,"nomin":8029,"pusieron":8030,"raci":8031,"toca":8032,"##fi":8033,"##EN":8034,"##VA":8035,"lat":8036,"contras":8037,"##reci":8038,"##urales":8039,"cuándo":8040,"custo":8041,"##irman":8042,"resgu":8043,"##uca":8044,"sitios":8045,"salieron":8046,"Algo":8047,"reglas":8048,"tuvimos":8049,"afuera":8050,"decidir":8051,"equiv":8052,"ciudadana":8053,"inclusión":8054,"misiles":8055,"tomando":8056,"valenci":8057,"##azar":8058,"llamadas":8059,"Sala":8060,"ponen":8061,"estudiar":8062,"docente":8063,"Castilla":8064,"##íctor":8065,"cierta":8066,"ciertas":8067,"sostiene":8068,"cirug":8069,"viral":8070,"Teatro":8071,"volverá":8072,"demandas":8073,"Joa":8074,"visitas":8075,"contactos":8076,"europeo":8077,"figuras":8078,"reporta":8079,"futbolistas":8080,"evaluación":8081,"tradicionales":8082,"demostrar":8083,"quinto":8084,"adolescente":8085,"Nuestra":8086,"apreci":8087,"calificó":8088,"Oscar":8089,"cuánto":8090,"clínica":8091,"sorteo":8092,"semifinales":8093,"órdenes":8094,"precipit":8095,"discipl":8096,"Agregó":8097,"diagnos":8098,"Núñez":8099,"Avenida":8100,"Dentro":8101,"Star":8102,"Víctor":8103,"flex":8104,"lici":8105,"odio":8106,"rup":8107,"##len":8108,"##pó":8109,"##éut":8110,"##osas":8111,"##ónicos":8112,"##amas":8113,"reduc":8114,"##leza":8115,"Laura":8116,"##tuario":8117,"##tara":8118,"aporte":8119,"##ezca":8120,"##garse":8121,"regul":8122,"agrup":8123,"##lares":8124,"admitió":8125,"config":8126,"captura":8127,"cop":8128,"destacan":8129,"participan":8130,"comunicó":8131,"indígenas":8132,"aparición":8133,"concur":8134,"##órm":8135,"autonóm":8136,"Ahí":8137,"##ield":8138,"empleos":8139,"enferm":8140,"celebró":8141,"verdadero":8142,"privados":8143,"jugará":8144,"Roja":8145,"observar":8146,"emergencias":8147,"patrimonio":8148,"nacimiento":8149,"federales":8150,"amplio":8151,"feria":8152,"ajuste":8153,"piensa":8154,"adicionales":8155,"movilización":8156,"árbitro":8157,"Deportivo":8158,"Occidente":8159,"ingenier":8160,"vulnerables":8161,"Queremos":8162,"numerosos":8163,"lengu":8164,"consciente":8165,"integración":8166,"alemán":8167,"inmueble":8168,"restaurantes":8169,"agríc":8170,"PIB":8171,"##íficamente":8172,"Energía":8173,"labores":8174,"maravil":8175,"criptomonedas":8176,"Oaxaca":8177,"álbum":8178,"Flores":8179,"Tam":8180,"Tecn":8181,"cron":8182,"cursos":8183,"huy":8184,"pendientes":8185,"##iadas":8186,"##uf":8187,"##Tok":8188,"##cipe":8189,"entiende":8190,"##allas":8191,"paral":8192,"esencial":8193,"##tag":8194,"cuota":8195,"desigual":8196,"##terrán":8197,"##tornos":8198,"##quir":8199,"trato":8200,"serían":8201,"##uce":8202,"quit":8203,"##aña":8204,"salvar":8205,"salarial":8206,"marido":8207,"finalizó":8208,"posiciones":8209,"Ins":8210,"canales":8211,"canciller":8212,"calend":8213,"event":8214,"##dujo":8215,"semestre":8216,"hermos":8217,"Produc":8218,"Quiero":8219,"conocimientos":8220,"period":8221,"positiva":8222,"ocasion":8223,"Canarias":8224,"siguió":8225,"Adri":8226,"papá":8227,"normalidad":8228,"videoj":8229,"fronter":8230,"pudiera":8231,"ocupación":8232,"europea":8233,"coordinación":8234,"##ímenes":8235,"adecuada":8236,"impresion":8237,"Empres":8238,"##ruecos":8239,"octavos":8240,"demuestra":8241,"Guanaju":8242,"Portugal":8243,"TikTok":8244,"Guanajuato":8245,"Air":8246,"Form":8247,"Nº":8248,"Sue":8249,"Somos":8250,"War":8251,"crist":8252,"fl":8253,"gre":8254,"tierras":8255,"##igo":8256,"##yn":8257,"##tador":8258,"##lín":8259,"perpe":8260,"##tráf":8261,"##laga":8262,"##igas":8263,"comput":8264,"tej":8265,"cartel":8266,"escánd":8267,"Marruecos":8268,"##tillas":8269,"capitán":8270,"iniciativas":8271,"defien":8272,"defendido":8273,"presentará":8274,"construc":8275,"investigar":8276,"estudiante":8277,"Valenci":8278,"novia":8279,"negativa":8280,"referente":8281,"preguntó":8282,"financiación":8283,"perfecta":8284,"difíciles":8285,"Grande":8286,"territorios":8287,"privadas":8288,"describ":8289,"pieza":8290,"plantea":8291,"observa":8292,"Comunic":8293,"tercero":8294,"refleja":8295,"criminal":8296,"Veracruz":8297,"ilusión":8298,"Constitucional":8299,"levantar":8300,"Fuerza":8301,"móviles":8302,"agrega":8303,"hospitales":8304,"Hugo":8305,"inscripción":8306,"afrontar":8307,"División":8308,"reivindic":8309,"##tráfico":8310,"Cár":8311,"Nov":8312,"Van":8313,"cél":8314,"mort":8315,"some":8316,"tes":8317,"##uido":8318,"##ju":8319,"##RE":8320,"##II":8321,"##MA":8322,"##arme":8323,"##anim":8324,"##raciones":8325,"supo":8326,"inesper":8327,"perdieron":8328,"Elector":8329,"##ters":8330,"##quín":8331,"podrás":8332,"verse":8333,"Semana":8334,"mediano":8335,"certamen":8336,"##ubern":8337,"vivió":8338,"2011":8339,"volv":8340,"Carolina":8341,"jugando":8342,"sanitario":8343,"culpa":8344,"mantenido":8345,"Amér":8346,"ayudas":8347,"solicitado":8348,"ubica":8349,"técnicas":8350,"Ayer":8351,"invertir":8352,"celebrará":8353,"simul":8354,"deportiva":8355,"confirmar":8356,"nacido":8357,"moral":8358,"particulares":8359,"botel":8360,"protagonistas":8361,"Primero":8362,"Puebla":8363,"Bogo":8364,"judiciales":8365,"frust":8366,"anotó":8367,"competición":8368,"cocin":8369,"absoluta":8370,"Igualmente":8371,"femenino":8372,"Gobernador":8373,"protocolo":8374,"triste":8375,"permiso":8376,"##dolfo":8377,"equilibrio":8378,"influencia":8379,"frase":8380,"hallazgo":8381,"camiseta":8382,"antecedentes":8383,"dictadura":8384,"(…":8385,"83":8386,"98":8387,"Bla":8388,"Bull":8389,"Lin":8390,"eficiencia":8391,"naciones":8392,"nutri":8393,"éx":8394,"##eja":8395,"##dencia":8396,"##SS":8397,"decl":8398,"congel":8399,"##redo":8400,"##unción":8401,"injust":8402,"reales":8403,"noc":8404,"perro":8405,"acud":8406,"desn":8407,"##tesis":8408,"##onald":8409,"##ayo":8410,"asi":8411,"##oya":8412,"Conce":8413,"Alonso":8414,"luci":8415,"audio":8416,"millon":8417,"bajos":8418,"autorización":8419,"##ectados":8420,"vial":8421,"venido":8422,"vencer":8423,"##atrocin":8424,"quieran":8425,"formal":8426,"sanitarios":8427,"conocidos":8428,"violación":8429,"concretar":8430,"terminaron":8431,"banc":8432,"supuestamente":8433,"alcanzado":8434,"Morales":8435,"Muchas":8436,"financieros":8437,"##atorios":8438,"##ecretario":8439,"turístico":8440,"capacidades":8441,"fábr":8442,"reparación":8443,"sobres":8444,"adecuado":8445,"Agust":8446,"urgencia":8447,"defensor":8448,"ofreció":8449,"rechazó":8450,"Capital":8451,"cumpleaños":8452,"Deportes":8453,"tabla":8454,"Merce":8455,"AMLO":8456,"reformas":8457,"preventiva":8458,"Jiménez":8459,"Oficina":8460,"aprendizaje":8461,"(…)":8462,"97":8463,"Azul":8464,"Glob":8465,"Lle":8466,"OMS":8467,"Win":8468,"coca":8469,"dup":8470,"gimnas":8471,"lectura":8472,"pec":8473,"somb":8474,"típ":8475,"##gica":8476,"##dom":8477,"##ñado":8478,"##ania":8479,"ende":8480,"##strucción":8481,"elenco":8482,"conmo":8483,"##tique":8484,"estrés":8485,"##oli":8486,"##olas":8487,"##itores":8488,"##istar":8489,"##istán":8490,"##gui":8491,"impun":8492,"cama":8493,"mira":8494,"creer":8495,"##ernos":8496,"llevando":8497,"inclus":8498,"sabor":8499,"Juzgado":8500,"doce":8501,"personalidad":8502,"cumplido":8503,"difund":8504,"##cender":8505,"circuito":8506,"acusación":8507,"Peña":8508,"Universitario":8509,"corresponden":8510,"relacionadas":8511,"blanca":8512,"extrema":8513,"firmar":8514,"urgente":8515,"correcto":8516,"profundo":8517,"apreh":8518,"insistió":8519,"Armadas":8520,"desempeño":8521,"comprender":8522,"archivo":8523,"contaminación":8524,"Málaga":8525,"cuidados":8526,"paquete":8527,"Distrito":8528,"inferior":8529,"Academia":8530,"espectacular":8531,"calendario":8532,"Bogotá":8533,".”":8534,"84":8535,"88":8536,"900":8537,"AN":8538,"AC":8539,"Br":8540,"Cir":8541,"Lion":8542,"Neces":8543,"Nadal":8544,"Our":8545,"St":8546,"Tener":8547,"bos":8548,"háb":8549,"ja":8550,"poca":8551,"patrocin":8552,"ran":8553,"##iri":8554,"##iona":8555,"##yen":8556,"##tías":8557,"##lim":8558,"##fía":8559,"##ód":8560,"##GT":8561,"quede":8562,"suceso":8563,"alber":8564,"##abe":8565,"procur":8566,"cumbre":8567,"acor":8568,"##izan":8569,"anuales":8570,"expuso":8571,"persecu":8572,"infección":8573,"discul":8574,"intercep":8575,"marcar":8576,"debes":8577,"posesión":8578,"aust":8579,"corta":8580,"tanta":8581,"decidieron":8582,"realizadas":8583,"generando":8584,"señales":8585,"fall":8586,"coches":8587,"autores":8588,"previamente":8589,"plen":8590,"insul":8591,"recibiendo":8592,"Quién":8593,"##rillo":8594,"explicar":8595,"hablado":8596,"hablamos":8597,"roja":8598,"negativo":8599,"manifestado":8600,"acompañamiento":8601,"inmig":8602,"abiertas":8603,"Isla":8604,"kilos":8605,"penales":8606,"sof":8607,"soporte":8608,"felici":8609,"Bols":8610,"eliminación":8611,"relacionado":8612,"##cripción":8613,"romper":8614,"electorales":8615,"Feria":8616,"nave":8617,"afición":8618,"famoso":8619,"hinchas":8620,"analistas":8621,"repetir":8622,"delincuentes":8623,"propone":8624,"Ruiz":8625,"intercambio":8626,"cruce":8627,"expansión":8628,"prolon":8629,"espalda":8630,"Mauricio":8631,"tragedia":8632,"diagnostic":8633,"Lionel":8634,"BC":8635,"Bon":8636,"Doc":8637,"ES":8638,"Gil":8639,"Hond":8640,"Ir":8641,"IP":8642,"Irán":8643,"Men":8644,"Tucum":8645,"bonos":8646,"cens":8647,"citado":8648,"dul":8649,"ign":8650,"trem":8651,"##vas":8652,"##gular":8653,"##don":8654,"##bur":8655,"##\",":8656,"##eramente":8657,"##org":8658,"##ors":8659,"##orro":8660,"suficientes":8661,"##rista":8662,"aline":8663,"##resent":8664,"##ulla":8665,"desesper":8666,"presion":8667,"compuesto":8668,"espíritu":8669,"manejo":8670,"interrump":8671,"consiste":8672,"abund":8673,"Inten":8674,"##mios":8675,"colum":8676,"##iosos":8677,"calcul":8678,"contribuir":8679,"##ificó":8680,"##endieron":8681,"##risa":8682,"plano":8683,"registra":8684,"Arte":8685,"reunió":8686,"vuelva":8687,"##idemi":8688,"distinto":8689,"utilizan":8690,"preparado":8691,"bolsa":8692,"aspira":8693,"ocupa":8694,"materias":8695,"habitación":8696,"exige":8697,"reaccion":8698,"Record":8699,"reflex":8700,"condenado":8701,"izquierdo":8702,"específicamente":8703,"humanidad":8704,"gestionar":8705,"belleza":8706,"Señal":8707,"revisar":8708,"tiroteo":8709,"frecuencia":8710,"capacitación":8711,"inmediatamente":8712,"mecanismo":8713,"narcotráfico":8714,"Negro":8715,"capítulo":8716,"nubl":8717,"noctur":8718,"Tucumán":8719,"09":8720,"Dra":8721,"Pri":8722,"Tig":8723,"aver":8724,"bono":8725,"##rida":8726,"##otas":8727,"##mado":8728,"##lería":8729,"##hone":8730,"latino":8731,"conti":8732,"##inó":8733,"##ole":8734,"##oler":8735,"##rile":8736,"rehabilitación":8737,"##terías":8738,"diarios":8739,"meteor":8740,"##acán":8741,"2000":8742,"presunta":8743,"prestig":8744,"##blio":8745,"##ariales":8746,"manip":8747,"habilidades":8748,"Unite":8749,"##arato":8750,"##ísima":8751,"##ecieron":8752,"juventud":8753,"Democ":8754,"verdes":8755,"signos":8756,"##etidos":8757,"destinado":8758,"plato":8759,"bajó":8760,"superó":8761,"jugado":8762,"jugada":8763,"intenta":8764,"enfoque":8765,"sanción":8766,"anuncios":8767,"explican":8768,"maltra":8769,"detalla":8770,"conjunta":8771,"bols":8772,"inmobili":8773,"atrap":8774,"Precis":8775,"comerciantes":8776,"absolu":8777,"universidad":8778,"galard":8779,"subrayado":8780,"hidro":8781,"tarifas":8782,"alimentaria":8783,"exactamente":8784,"Rivera":8785,"AFP":8786,"Autón":8787,"aborto":8788,"aventura":8789,"persegu":8790,"aceite":8791,"rivales":8792,"ruptura":8793,"maravillos":8794,"Mercedes":8795,"Honduras":8796,"08":8797,"AD":8798,"Có":8799,"Ve":8800,"ces":8801,"ida":8802,"leche":8803,"litros":8804,"rique":8805,"##ián":8806,"##cre":8807,"##fin":8808,"##éticos":8809,"##bes":8810,"##ciende":8811,"##ides":8812,"contado":8813,"contiene":8814,"conoz":8815,"universo":8816,"##int":8817,"##ampe":8818,"parcial":8819,"##isible":8820,"##ultores":8821,"##uría":8822,"dign":8823,"##bios":8824,"##tuales":8825,"##imir":8826,"compos":8827,"arquero":8828,"empat":8829,"Control":8830,"colap":8831,"petrol":8832,"generado":8833,"alguno":8834,"mejoras":8835,"transición":8836,"chica":8837,"refiere":8838,"superado":8839,"participado":8840,"sancion":8841,"ministerio":8842,"dirige":8843,"dirigida":8844,"madrile":8845,"continuó":8846,"controles":8847,"pobres":8848,"cumplió":8849,"selecciones":8850,"solicitudes":8851,"masco":8852,"##opera":8853,"garantiza":8854,"gusto":8855,"mencionado":8856,"##ríamos":8857,"Tengo":8858,"ventajas":8859,"relató":8860,"emoción":8861,"Atención":8862,"Internet":8863,"aprovechó":8864,"acabó":8865,"venezolana":8866,"extrem":8867,"abandonar":8868,"permitido":8869,"disminución":8870,"evaluar":8871,"facilit":8872,"Patri":8873,"Superior":8874,"influen":8875,"abordar":8876,"electrónico":8877,"secuestr":8878,"numerosas":8879,"dilig":8880,"convivencia":8881,"Vargas":8882,"auxil":8883,"vínculo":8884,"periódico":8885,"equivoc":8886,"Valenciana":8887,"02":8888,"93":8889,"Ciencias":8890,"Dom":8891,"Ev":8892,"Edi":8893,"Héc":8894,"Ign":8895,"Olímp":8896,"PN":8897,"Rio":8898,"Sólo":8899,"Tre":8900,"Torneo":8901,"foco":8902,"huev":8903,"techo":8904,"##ré":8905,"##ys":8906,"##mir":8907,"##uci":8908,"##juy":8909,"##FE":8910,"##IT":8911,"estric":8912,"incidencia":8913,"ret":8914,"remon":8915,"##onesa":8916,"##mac":8917,"##izadas":8918,"##use":8919,"app":8920,"preca":8921,"pais":8922,"Españ":8923,"solar":8924,"solid":8925,"primaria":8926,"carn":8927,"salvo":8928,"Contin":8929,"regalo":8930,"##ínsula":8931,"##aval":8932,"##ombros":8933,"americ":8934,"decis":8935,"Marina":8936,"Asia":8937,"mate":8938,"presentada":8939,"hijas":8940,"quedará":8941,"continente":8942,"desarrolló":8943,"funcionaria":8944,"madres":8945,"irse":8946,"autonomía":8947,"mensuales":8948,"integrante":8949,"guía":8950,"supera":8951,"educativa":8952,"manifestantes":8953,"documental":8954,"regresó":8955,"atravies":8956,"fiscalía":8957,"concej":8958,"fronteras":8959,"históricos":8960,"competencias":8961,"dedicado":8962,"elevado":8963,"circular":8964,"voces":8965,"incorporación":8966,"recoge":8967,"combustibles":8968,"enviado":8969,"famosa":8970,"delegación":8971,"Mayor":8972,"triple":8973,"Señor":8974,"propietario":8975,"##ftware":8976,"comisaría":8977,"escasez":8978,"intercambi":8979,"proveedores":8980,"Investigación":8981,"cariño":8982,"ofensiva":8983,"Medina":8984,"transparencia":8985,"profundidad":8986,"ambulancia":8987,"retiro":8988,"desplie":8989,"sitúa":8990,"Electoral":8991,"Ourense":8992,"Héctor":8993,"01":8994,"Nadie":8995,"Pod":8996,"Pens":8997,"Rol":8998,"cuel":8999,"gubern":9000,"horm":9001,"nú":9002,"olímp":9003,"vest":9004,"##eño":9005,"##visión":9006,"##sar":9007,"##cción":9008,"##uo":9009,"##úrg":9010,"##adura":9011,"##icultura":9012,"inda":9013,"comenta":9014,"##ilos":9015,"anteriormente":9016,"tratamientos":9017,"##gues":9018,"##iment":9019,"compati":9020,"tengamos":9021,"quitar":9022,"##gará":9023,"saldo":9024,"##uth":9025,"juz":9026,"juven":9027,"campos":9028,"cambia":9029,"cortes":9030,"menudo":9031,"Marcos":9032,"partid":9033,"presidentes":9034,"##ube":9035,"Char":9036,"##eth":9037,"importaciones":9038,"horarios":9039,"##venientes":9040,"iniciado":9041,"incent":9042,"aval":9043,"herido":9044,"##andra":9045,"tendremos":9046,"previos":9047,"basura":9048,"registrados":9049,"Jujuy":9050,"esperamos":9051,"conocen":9052,"viajeros":9053,"victorias":9054,"causar":9055,"jueza":9056,"dependiendo":9057,"referentes":9058,"preparar":9059,"derrum":9060,"probabilidad":9061,"territorial":9062,"visitó":9063,"consultas":9064,"decre":9065,"provocado":9066,"asociaciones":9067,"tarjetas":9068,"Pueblo":9069,"##ándole":9070,"merece":9071,"abandon":9072,"bebidas":9073,"Mesa":9074,"detectar":9075,"programación":9076,"refugiados":9077,"tranquilo":9078,"Mujeres":9079,"recalcó":9080,"carbono":9081,"##ight":9082,"criterios":9083,"dormir":9084,"Profesional":9085,"Guerrero":9086,"iPhone":9087,"()":9088,"Ala":9089,"ER":9090,"Iván":9091,"Je":9092,"Junto":9093,"Zona":9094,"cien":9095,"ecu":9096,"emitió":9097,"fues":9098,"irá":9099,"males":9100,"punta":9101,"##tencia":9102,"##lando":9103,"##pera":9104,"##IN":9105,"deud":9106,"detuvo":9107,"##icen":9108,"##roid":9109,"parecen":9110,"##resión":9111,"##istencia":9112,"dibu":9113,"##izon":9114,"##aragua":9115,"abas":9116,"sienten":9117,"trabajó":9118,"##utina":9119,"podían":9120,"sonido":9121,"India":9122,"correo":9123,"admi":9124,"signo":9125,"##érpre":9126,"Angel":9127,"Chá":9128,"costar":9129,"emble":9130,"vivido":9131,"charla":9132,"gratis":9133,"llamas":9134,"fui":9135,"inscrib":9136,"efica":9137,"nacionalidad":9138,"terminado":9139,"2008":9140,"autén":9141,"creció":9142,"compromisos":9143,"bala":9144,"dispone":9145,"entus":9146,"garantía":9147,"tecnologías":9148,"parejas":9149,"denunciar":9150,"suceder":9151,"avanzado":9152,"vigor":9153,"conciertos":9154,"disparó":9155,"relato":9156,"sostenibilidad":9157,"liqu":9158,"particularmente":9159,"Ortega":9160,"aumentado":9161,"radic":9162,"radical":9163,"##chester":9164,"Herrera":9165,"once":9166,"cercanos":9167,"Macri":9168,"desafíos":9169,"Blanco":9170,"Matías":9171,"maestro":9172,"Alfredo":9173,"episodios":9174,"Igual":9175,"911":9176,"fraude":9177,"equipamiento":9178,"Segunda":9179,"aterriz":9180,"Añad":9181,"##órmula":9182,"United":9183,"05":9184,"Fa":9185,"Lleg":9186,"PAN":9187,"Tab":9188,"emit":9189,"gr":9190,"huracán":9191,"torn":9192,"##iación":9193,"##lada":9194,"##átr":9195,"##TV":9196,"##ívar":9197,"##ert":9198,"##idió":9199,"congres":9200,"set":9201,"esclar":9202,"##dientes":9203,"##enciado":9204,"##chi":9205,"##izando":9206,"##uerdo":9207,"##logía":9208,"##quinas":9209,"anuncia":9210,"tramit":9211,"##dadas":9212,"2030":9213,"presuntamente":9214,"##ume":9215,"espect":9216,"##ueva":9217,"infrac":9218,"Alto":9219,"podamos":9220,"contratación":9221,"corriente":9222,"contento":9223,"##etín":9224,"generan":9225,"secreto":9226,"costado":9227,"capaces":9228,"##ionistas":9229,"cotiz":9230,"chino":9231,"temprano":9232,"superiores":9233,"revela":9234,"intérpre":9235,"reciben":9236,"Casi":9237,"indican":9238,"##ortunadamente":9239,"aparentemente":9240,"##órico":9241,"##ager":9242,"2009":9243,"responsabilidades":9244,"Monter":9245,"ayudará":9246,"creciente":9247,"probar":9248,"denunciado":9249,"pidieron":9250,"ocupar":9251,"deportes":9252,"mantenerse":9253,"hicimos":9254,"concejal":9255,"##iéndose":9256,"felicidad":9257,"desaparecido":9258,"cuidar":9259,"ejercicios":9260,"reclamo":9261,"Nicaragua":9262,"permitan":9263,"trop":9264,"recomendaciones":9265,"disminuir":9266,"pertenece":9267,"sueldo":9268,"Mayo":9269,"III":9270,"seleccionado":9271,"créditos":9272,"##jalá":9273,"estadísticas":9274,"Libertad":9275,"lengua":9276,"Campeonato":9277,"posee":9278,"perjudic":9279,"adquisición":9280,"Vladimir":9281,"aerolín":9282,"edil":9283,"vayan":9284,"células":9285,"nublado":9286,"04":9287,"94":9288,"Ari":9289,"Bil":9290,"Eu":9291,"Ky":9292,"Local":9293,"Ruta":9294,"Sec":9295,"Sum":9296,"Va":9297,"Vel":9298,"Vázquez":9299,"WW":9300,"ara":9301,"matar":9302,"naran":9303,"the":9304,"uruguay":9305,"venció":9306,"##iw":9307,"##apa":9308,"##dal":9309,"##lán":9310,"##bamos":9311,"##óst":9312,"##ñal":9313,"deje":9314,"##aná":9315,"enmar":9316,"sequía":9317,"##ambre":9318,"incidentes":9319,"retra":9320,"ali":9321,"comand":9322,"##iendas":9323,"desh":9324,"##odos":9325,"##uerta":9326,"##guración":9327,"series":9328,"##ueso":9329,"aplica":9330,"prelim":9331,"recol":9332,"##ormes":9333,"quím":9334,"pasaron":9335,"entregado":9336,"infancia":9337,"##deras":9338,"consig":9339,"Alvar":9340,"camiones":9341,"fueran":9342,"creó":9343,"confi":9344,"conforme":9345,"contamos":9346,"##posición":9347,"platos":9348,"maíz":9349,"##geno":9350,"defendió":9351,"chicas":9352,"ganancias":9353,"pondrá":9354,"mantendrá":9355,"aparecer":9356,"##mith":9357,"##ampista":9358,"causó":9359,"querer":9360,"método":9361,"Americ":9362,"consejero":9363,"utilizado":9364,"guardia":9365,"organizar":9366,"viruela":9367,"encuestas":9368,"desemb":9369,"garantías":9370,"definición":9371,"fundación":9372,"celebrado":9373,"mencion":9374,"consultar":9375,"brinda":9376,"emociones":9377,"conflictos":9378,"descubierto":9379,"##americanos":9380,"##psia":9381,"Europeo":9382,"acudió":9383,"candidata":9384,"%),":9385,"Fueron":9386,"carreteras":9387,"notable":9388,"correcta":9389,"colombianos":9390,"científica":9391,"Silva":9392,"exclusiva":9393,"Press":9394,"Autor":9395,"viejo":9396,"integridad":9397,"insumos":9398,"embarazo":9399,"reclamos":9400,"caute":9401,"deterioro":9402,"Agua":9403,"Bienes":9404,"Oper":9405,"Roma":9406,"Rural":9407,"Sos":9408,"du":9409,"etique":9410,"fores":9411,"gir":9412,"renta":9413,"venci":9414,"vesti":9415,"ww":9416,"##ijo":9417,"##ken":9418,"##wood":9419,"##ímetros":9420,"##úp":9421,"##èn":9422,"depos":9423,"##antiles":9424,"##entados":9425,"cong":9426,"estreno":9427,"##unda":9428,"suba":9429,"escap":9430,"##riles":9431,"reducido":9432,"allan":9433,"perdiendo":9434,"cuyos":9435,"##ierten":9436,"##cher":9437,"anot":9438,"presuntos":9439,"prec":9440,"##ayos":9441,"##alizaron":9442,"arbit":9443,"interro":9444,"##pertura":9445,"consenso":9446,"salto":9447,"caminos":9448,"Indic":9449,"##ovil":9450,"traspas":9451,"invita":9452,"pedi":9453,"193":9454,"Sanidad":9455,"sección":9456,"instruc":9457,"chico":9458,"volante":9459,"Cuál":9460,"Cuáles":9461,"visible":9462,"investiga":9463,"prevista":9464,"Guad":9465,"poniendo":9466,"Quiz":9467,"anunciar":9468,"explicación":9469,"expresado":9470,"malos":9471,"declarar":9472,"aparecen":9473,"madera":9474,"atacar":9475,"##ólogos":9476,"leyenda":9477,"sufre":9478,"organizada":9479,"encues":9480,"máximos":9481,"lanzado":9482,"Android":9483,"demócra":9484,"pronos":9485,"pronóstico":9486,"atraves":9487,"indign":9488,"verdadera":9489,"efectiva":9490,"piedra":9491,"enfrentamiento":9492,"multa":9493,"prometió":9494,"morir":9495,"criminales":9496,"reportaron":9497,"fertil":9498,"Emerg":9499,"dispuso":9500,"acercarse":9501,"perteneci":9502,"Había":9503,"jurado":9504,"fabricación":9505,"gestiones":9506,"desempeñ":9507,"explotación":9508,"abusos":9509,"flujo":9510,"secundaria":9511,"explosión":9512,"francesa":9513,"preocupa":9514,"inundaciones":9515,"despacho":9516,"ilíci":9517,"Villarreal":9518,"lenguaje":9519,"Black":9520,"Agustín":9521,"persecución":9522,"www":9523,"06":9524,"?”,":9525,"Apar":9526,"Año":9527,"Bri":9528,"Camil":9529,"Mall":9530,"Oriente":9531,"Soy":9532,"Tan":9533,"fiel":9534,"gar":9535,"gras":9536,"kilo":9537,"lla":9538,"mari":9539,"opon":9540,"##yecto":9541,"##vio":9542,"##mica":9543,"##curso":9544,"##port":9545,"##fica":9546,"##frica":9547,"##uto":9548,"##ualidad":9549,"##GB":9550,"##ony":9551,"##cialmente":9552,"##oras":9553,"##ónicas":9554,"##reos":9555,"parado":9556,"intim":9557,"##rial":9558,"##ritos":9559,"rever":9560,"alf":9561,"comod":9562,"cometido":9563,"##ispo":9564,"accion":9565,"desa":9566,"##izaron":9567,"exceso":9568,"##torial":9569,"##quie":9570,"resol":9571,"apor":9572,"##ife":9573,"carg":9574,"Alb":9575,"Alianza":9576,"Integ":9577,"polvo":9578,"informar":9579,"amiga":9580,"peores":9581,"realizarán":9582,"propuesto":9583,"llevarse":9584,"Chica":9585,"seguimos":9586,"playas":9587,"##ñoz":9588,"inicios":9589,"desarrollado":9590,"aumentos":9591,"compartido":9592,"barco":9593,"comenzado":9594,"irre":9595,"ingresó":9596,"2006":9597,"novela":9598,"Ministros":9599,"Manchester":9600,"despleg":9601,"emisión":9602,"hoteles":9603,"sexta":9604,"acusó":9605,"asesinado":9606,"Muñoz":9607,"conducción":9608,"acompañar":9609,"##onaro":9610,"jefes":9611,"Reserv":9612,"Palma":9613,"racha":9614,"bailar":9615,"software":9616,"cuadrados":9617,"absor":9618,"consumidor":9619,"mirar":9620,"pintura":9621,"colegas":9622,"Aguas":9623,"teléfonos":9624,"reserva":9625,"quinta":9626,"implementar":9627,"Transporte":9628,"disputa":9629,"relevante":9630,"gratuito":9631,"##cletas":9632,"Mariano":9633,"legislador":9634,"vestido":9635,"puntualizó":9636,"tarifa":9637,"multip":9638,"magnitud":9639,"italiano":9640,"satisfacción":9641,"expediente":9642,"Mexicana":9643,"Países":9644,"escapar":9645,"conmemor":9646,"masculino":9647,"YouT":9648,"Michel":9649,"Hubo":9650,"Bolsonaro":9651,"Código":9652,"Chávez":9653,"Eugen":9654,"Cat":9655,"Catar":9656,"Cumbre":9657,"Emb":9658,"Gi":9659,"Gan":9660,"Gestión":9661,"Ima":9662,"MW":9663,"Mañ":9664,"Nie":9665,"Roc":9666,"Rib":9667,"SA":9668,"Smith":9669,"Xunta":9670,"ama":9671,"atre":9672,"gris":9673,"oto":9674,"pist":9675,"ron":9676,"tin":9677,"África":9678,"ómicron":9679,"útil":9680,"##eira":9681,"##raron":9682,"##ni":9683,"##tle":9684,"##SA":9685,"##eso":9686,"conmigo":9687,"unión":9688,"##icóp":9689,"estall":9690,"comisiones":9691,"##iense":9692,"mega":9693,"##usura":9694,"anf":9695,"##uco":9696,"carpe":9697,"##medio":9698,"adquir":9699,"certe":9700,"mesas":9701,"costes":9702,"cho":9703,"##ings":9704,"##brado":9705,"sentenció":9706,"públicamente":9707,"situado":9708,"herida":9709,"usando":9710,"tendrás":9711,"llamados":9712,"desarrolla":9713,"intenciones":9714,"mono":9715,"promov":9716,"comparte":9717,"dominio":9718,"humil":9719,"funcionar":9720,"espacial":9721,"seguirán":9722,"violento":9723,"vuelven":9724,"cantidades":9725,"##hael":9726,"depender":9727,"lanzar":9728,"liberación":9729,"financiamiento":9730,"aprobar":9731,"empezaron":9732,"planteó":9733,"##tienden":9734,"franqu":9735,"Regist":9736,"sostener":9737,"Recon":9738,"cuestionó":9739,"Verde":9740,"musicales":9741,"incluida":9742,"ilust":9743,"sorprendió":9744,"trámites":9745,"Obras":9746,"osc":9747,"lamentó":9748,"escolares":9749,"inauguración":9750,"exportación":9751,"infraestructuras":9752,"##ASA":9753,"involucrados":9754,"tripul":9755,"Arabia":9756,"##huahua":9757,"Sams":9758,"propietarios":9759,"hubi":9760,"remate":9761,"helicóp":9762,"terapia":9763,"lógica":9764,"##idalgo":9765,"##temporada":9766,"contundente":9767,"custodia":9768,"riqueza":9769,"Patricia":9770,"Ignacio":9771,"07":9772,"Gro":9773,"Lan":9774,"Lara":9775,"Nor":9776,"Tel":9777,"aeron":9778,"caj":9779,"dada":9780,"go":9781,"geo":9782,"hs":9783,"tác":9784,"vál":9785,"##gip":9786,"##mora":9787,"##dy":9788,"##ze":9789,"##ástico":9790,"##utar":9791,"##utas":9792,"##óx":9793,"##úcar":9794,"##ore":9795,"##adería":9796,"lateral":9797,"##inada":9798,"##rov":9799,"##amar":9800,"##ecían":9801,"ingre":9802,"##rientes":9803,"retos":9804,"##itri":9805,"##itenci":9806,"procl":9807,"##icias":9808,"exh":9809,"exces":9810,"implan":9811,"##cuentro":9812,"##ifer":9813,"consigue":9814,"2025":9815,"caminar":9816,"mundiales":9817,"calent":9818,"Asuntos":9819,"##etti":9820,"Comis":9821,"##lita":9822,"bienvenida":9823,"iniciaron":9824,"##ement":9825,"hered":9826,"Meteor":9827,"visu":9828,"atentado":9829,"representar":9830,"Artes":9831,"monum":9832,"vacío":9833,"##ministro":9834,"terminal":9835,"pensiones":9836,"operar":9837,"##illon":9838,"comprometido":9839,"reconocida":9840,"oficialismo":9841,"Ayuso":9842,"Represent":9843,"obligatorio":9844,"jefa":9845,"Generalitat":9846,"avanzando":9847,"eléctricas":9848,"cadenas":9849,"Consell":9850,"automovil":9851,"fácilmente":9852,"olv":9853,"devolver":9854,"##ímir":9855,"colectivos":9856,"bloqueo":9857,"concluye":9858,"individuales":9859,"Algunas":9860,"aclarar":9861,"rumores":9862,"Hotel":9863,"olvidar":9864,"peligroso":9865,"Seguro":9866,"nombra":9867,"##kovic":9868,"conscientes":9869,"quizá":9870,"Personal":9871,"mecanismos":9872,"mezcla":9873,"comprobar":9874,"rescat":9875,"asalto":9876,"interpretar":9877,"botón":9878,"Foto":9879,"entretenimiento":9880,"hacían":9881,"precipitaciones":9882,"desigualdad":9883,"entusias":9884,"Fron":9885,"Jer":9886,"Mate":9887,"Oficial":9888,"Tim":9889,"aj":9890,"aulas":9891,"caja":9892,"flor":9893,"iran":9894,"mód":9895,"pico":9896,"##emb":9897,"##rando":9898,"##sk":9899,"##mó":9900,"##dí":9901,"##dría":9902,"##CO":9903,"##enden":9904,"##orca":9905,"##alos":9906,"##allan":9907,"##idel":9908,"##ineros":9909,"##acin":9910,"parar":9911,"iny":9912,"##rible":9913,"##isten":9914,"curios":9915,"desl":9916,"##tern":9917,"##acat":9918,"apag":9919,"Estra":9920,"recesión":9921,"##ensos":9922,"arque":9923,"interan":9924,"agro":9925,"crece":9926,"##portes":9927,"invad":9928,"Marco":9929,"evita":9930,"##roso":9931,"##lite":9932,"viva":9933,"directiva":9934,"directivos":9935,"presentaba":9936,"dejará":9937,"usado":9938,"activista":9939,"venía":9940,"tendencias":9941,"basado":9942,"formul":9943,"malo":9944,"malas":9945,"dirigidos":9946,"dirigió":9947,"líqu":9948,"máquina":9949,"ingresa":9950,"cumpliendo":9951,"Franco":9952,"consejos":9953,"##ámenes":9954,"crímenes":9955,"masa":9956,"Acción":9957,"educativos":9958,"##vila":9959,"Martin":9960,"gobernadores":9961,"preparados":9962,"bolsas":9963,"músico":9964,"sumaron":9965,"pidiendo":9966,"deportivas":9967,"enfrentará":9968,"encargada":9969,"recibirán":9970,"procedimientos":9971,"obtenido":9972,"exigir":9973,"crítico":9974,"etapas":9975,"islas":9976,"devuel":9977,"coordinador":9978,"solucionar":9979,"inversores":9980,"desarrollando":9981,"navide":9982,"disputar":9983,"Gabinete":9984,"Gerardo":9985,"##atólica":9986,"criticó":9987,"Presup":9988,"Atlán":9989,"conectar":9990,"pulgadas":9991,"reproduc":9992,"recurrir":9993,"Gobernación":9994,"tormentas":9995,"extraordinaria":9996,"Movimiento":9997,"Especial":9998,"Mercado":9999}}}