{"version":"1.0","truncation":null,"padding":null,"added_tokens":[{"id":0,"special":true,"content":"<UNK>","single_word":false,"lstrip":false,"rstrip":false,"normalized":false},{"id":1,"special":true,"content":"<SEP>","single_word":false,"lstrip":false,"rstrip":false,"normalized":false},{"id":2,"special":true,"content":"<MASK>","single_word":false,"lstrip":false,"rstrip":false,"normalized":false},{"id":3,"special":true,"content":"<CLS>","single_word":false,"lstrip":false,"rstrip":false,"normalized":false}],"normalizer":null,"pre_tokenizer":{"type":"Whitespace"},"post_processor":null,"decoder":null,"model":{"type":"WordPiece","unk_token":"<UNK>","continuing_subword_prefix":"##","max_input_chars_per_word":100,"vocab":{"<UNK>":0,"<SEP>":1,"<MASK>":2,"<CLS>":3,"!":4,"\"":5,"$":6,"%":7,"&":8,"'":9,"(":10,")":11,"*":12,"+":13,",":14,"-":15,".":16,"/":17,"0":18,"1":19,"2":20,"3":21,"4":22,"5":23,"6":24,"7":25,"8":26,"9":27,":":28,";":29,"<":30,"?":31,"A":32,"B":33,"C":34,"D":35,"E":36,"F":37,"G":38,"H":39,"I":40,"J":41,"K":42,"L":43,"M":44,"N":45,"O":46,"P":47,"Q":48,"R":49,"S":50,"T":51,"U":52,"V":53,"W":54,"X":55,"Y":56,"Z":57,"`":58,"a":59,"b":60,"c":61,"d":62,"e":63,"f":64,"g":65,"h":66,"i":67,"j":68,"k":69,"l":70,"m":71,"n":72,"o":73,"p":74,"q":75,"r":76,"s":77,"t":78,"u":79,"v":80,"w":81,"x":82,"y":83,"z":84,"~":85,"¡":86,"¢":87,"£":88,"¦":89,"§":90,"¨":91,"ª":92,"«":93,"®":94,"¯":95,"°":96,"²":97,"³":98,"´":99,"·":100,"º":101,"»":102,"¼":103,"½":104,"¾":105,"¿":106,"À":107,"Á":108,"Ä":109,"Å":110,"Ç":111,"É":112,"Í":113,"Î":114,"Ñ":115,"Ò":116,"Ó":117,"Ö":118,"×":119,"Ú":120,"Ü":121,"ß":122,"à":123,"á":124,"â":125,"ã":126,"ä":127,"å":128,"ç":129,"è":130,"é":131,"ê":132,"ë":133,"ì":134,"í":135,"î":136,"ï":137,"ð":138,"ñ":139,"ò":140,"ó":141,"ô":142,"õ":143,"ö":144,"ø":145,"ú":146,"û":147,"ü":148,"ā":149,"ă":150,"ć":151,"ē":152,"ę":153,"ğ":154,"İ":155,"ı":156,"ł":157,"ń":158,"ō":159,"ś":160,"ş":161,"Š":162,"Ÿ":163,"˜":164,"˝":165,"̀":166,"́":167,"̃":168,"μ":169,"н":170,"у":171,"ᵃ":172,"ễ":173,"ỗ":174,"‎":175,"–":176,"—":177,"―":178,"‘":179,"’":180,"“":181,"”":182,"†":183,"‡":184,"•":185,"…":186,"′":187,"″":188,"₂":189,"₡":190,"€":191,"℃":192,"™":193,"−":194,"⏩":195,"⏰":196,"⏱":197,"─":198,"▌":199,"▶":200,"◆":201,"☀":202,"★":203,"☕":204,"☝":205,"⚠":206,"⚽":207,"✅":208,"✊":209,"✓":210,"✔":211,"✨":212,"❉":213,"❗":214,"❣":215,"❤":216,"➡":217,"➤":218,"⬇":219,"⭐":220,"【":221,"】":222,"帽":223,"煤":224,"脕":225,"茅":226,"谩":227,"贸":228,"铆":229,"":230,"ﬁ":231,"️":232,"＊":233,"##A":234,"##O":235,"##S":236,"##a":237,"##f":238,"##y":239,"##v":240,"##i":241,"##d":242,"##e":243,"##ñ":244,"##n":245,"##s":246,"##o":247,"##r":248,"##m":249,"##p":250,"##t":251,"##g":252,"##í":253,"##u":254,"##l":255,"##c":256,"##j":257,"##h":258,"##k":259,"##q":260,"##z":261,"##é":262,"##N":263,"##K":264,"##b":265,"##ó":266,"##2":267,"##3":268,"##á":269,"##P":270,"##B":271,"##w":272,"##R":273,"##I":274,"##M":275,"##V":276,"##7":277,"##ª":278,"##D":279,"##T":280,"##x":281,"##E":282,"##9":283,"##8":284,"##C":285,"##U":286,"##L":287,"##Ó":288,"##5":289,"##6":290,"##ú":291,"##0":292,"##”":293,"##)":294,"##H":295,"##“":296,"##J":297,"##*":298,"##1":299,"##4":300,"##X":301,"##W":302,"##Q":303,"##ç":304,"##.":305,"##º":306,"##ü":307,"##F":308,"##è":309,"##‘":310,"##¿":311,"##à":312,"##Z":313,"##G":314,"##'":315,"##铆":316,"##+":317,"##Y":318,"##́":319,"##,":320,"##Í":321,"##\"":322,"##»":323,"##ë":324,"##ć":325,"##«":326,"##-":327,"##—":328,"##%":329,"##&":330,"##¡":331,"##!":332,"##ö":333,"##谩":334,"##贸":335,"##É":336,"##ì":337,"##Ñ":338,"##…":339,"##ã":340,"##?":341,"##ō":342,"##(":343,"##;":344,"##ă":345,"##ò":346,"##î":347,"##¨":348,"##煤":349,"##Á":350,"##/":351,"##å":352,"##–":353,"##ï":354,"##:":355,"##ē":356,"##’":357,"##Ä":358,"##̃":359,"##ę":360,"##ê":361,"##ş":362,"##ğ":363,"##茅":364,"##â":365,"##н":366,"##❤":367,"##ø":368,"##ń":369,"##【":370,"##ô":371,"##ł":372,"##ä":373,"##™":374,"##ỗ":375,"##ﬁ":376,"##ı":377,"##ā":378,"##Å":379,"##Ü":380,"##ễ":381,"##°":382,"##¢":383,"##û":384,"##$":385,"##Ú":386,"##ᵃ":387,"##õ":388,"##ś":389,"##Ÿ":390,"##у":391,"##€":392,"##Ö":393,"##´":394,"##ß":395,"##帽":396,"##˜":397,"de":398,"##os":399,"##en":400,"##er":401,"##ar":402,"##es":403,"##on":404,"##as":405,"##ci":406,"##ue":407,"##an":408,"##or":409,"##ad":410,"la":411,"en":412,"##al":413,"que":414,"##st":415,"el":416,"##ent":417,"##id":418,"con":419,"un":420,"##ic":421,"##ón":422,"##in":423,"se":424,"##re":425,"##om":426,"##ro":427,"##ra":428,"##ti":429,"##am":430,"##aci":431,"los":432,"est":433,"##ec":434,"##un":435,"par":436,"su":437,"es":438,"del":439,"##ado":440,"in":441,"##do":442,"##te":443,"##ol":444,"##to":445,"##ri":446,"##ta":447,"re":448,"al":449,"por":450,"##le":451,"ha":452,"las":453,"com":454,"##is":455,"##de":456,"para":457,"##ente":458,"##ía":459,"##il":460,"##ación":461,"una":462,"##res":463,"##mp":464,"##di":465,"no":466,"##it":467,"##ist":468,"##ab":469,"##ul":470,"##ones":471,"pro":472,"##ás":473,"##ici":474,"##ur":475,"##idad":476,"##io":477,"per":478,"##ia":479,"##ien":480,"lo":481,"cu":482,"##ada":483,"##el":484,"##ir":485,"ac":486,"des":487,"##tr":488,"El":489,"##ter":490,"##enci":491,"##ier":492,"##go":493,"##ido":494,"##ch":495,"##ma":496,"##la":497,"di":498,"##iz":499,"##ento":500,"##tiv":501,"##od":502,"##ob":503,"ex":504,"##ando":505,"##án":506,"me":507,"##uer":508,"##us":509,"##at":510,"más":511,"##ales":512,"##ica":513,"##mo":514,"##ran":515,"##ción":516,"La":517,"##lo":518,"##ados":519,"##aj":520,"##tor":521,"##ig":522,"como":523,"##se":524,"mu":525,"##ie":526,"##que":527,"##oc":528,"##ac":529,"##ico":530,"En":531,"##qu":532,"##tos":533,"##bi":534,"##tu":535,"##iv":536,"an":537,"##ante":538,"##ión":539,"res":540,"##mos":541,"##da":542,"##tes":543,"##era":544,"tra":545,"##gu":546,"ser":547,"##tar":548,"añ":549,"##tra":550,"##dad":551,"##ues":552,"20":553,"este":554,"##ero":555,"##én":556,"##im":557,"##ador":558,"ap":559,"##ras":560,"##uc":561,"pres":562,"comp":563,"Est":564,"le":565,"##ez":566,"##encia":567,"##um":568,"##aron":569,"sus":570,"##tre":571,"pre":572,"##bl":573,"rec":574,"pr":575,"##ambi":576,"esp":577,"##orm":578,"##iento":579,"ten":580,"##ari":581,"##ce":582,"qu":583,"##añ":584,"##onal":585,"##rim":586,"##ten":587,"##mb":588,"##oci":589,"##ida":590,"man":591,"imp":592,"##tro":593,"pa":594,"##ib":595,"##ay":596,"##aciones":597,"as":598,"fue":599,"##entes":600,"##ana":601,"##uev":602,"##ambién":603,"##és":604,"exp":605,"hab":606,"##po":607,"pers":608,"##ru":609,"pue":610,"##gar":611,"pas":612,"##ens":613,"##gun":614,"lle":615,"entre":616,"##aliz":617,"cas":618,"ar":619,"##jo":620,"Un":621,"##amente":622,"te":623,"##adas":624,"##eg":625,"##amos":626,"”,":627,"##cu":628,"##ca":629,"tod":630,"##ort":631,"##mente":632,"##ún":633,"inf":634,"pero":635,"Es":636,"tien":637,"dis":638,"##ver":639,"to":640,"##ario":641,"años":642,"##co":643,"##baj":644,"esta":645,"##ara":646,"##obre":647,"mil":648,"sol":649,"##tas":650,"##if":651,"prim":652,"##no":653,"ca":654,"##ech":655,"sin":656,"##ís":657,"inter":658,"también":659,"##ina":660,"##der":661,"##ciones":662,"##cl":663,"##per":664,"cons":665,"##cia":666,"ya":667,"emp":668,"##oy":669,"##za":670,"##ora":671,"##ores":672,"ab":673,"está":674,"##con":675,"##enta":676,"si":677,"car":678,"sal":679,"sobre":680,"person":681,"Con":682,"mar":683,"##tros":684,"##duc":685,"##cer":686,"##eci":687,"##itu":688,"##ces":689,"desde":690,"##fer":691,"202":692,"##ano":693,"nuev":694,"trabaj":695,"##ut":696,"han":697,"deb":698,"##tivo":699,"Al":700,"##entos":701,"dos":702,"pod":703,"ob":704,"son":705,"##ud":706,"##ará":707,"##los":708,"”.":709,"fin":710,"Los":711,"##je":712,"reg":713,"##dem":714,"##idades":715,"##fici":716,"##lan":717,"##ismo":718,"ju":719,"##pe":720,"much":721,"cam":722,"ag":723,"##idos":724,"##asta":725,"hay":726,"##00":727,"##aba":728,"##ías":729,"##iemp":730,"pos":731,"##par":732,"In":733,"##cul":734,"##icos":735,"De":736,"##les":737,"mi":738,"fuer":739,"##ga":740,"##min":741,"##mi":742,"##ín":743,"##rg":744,"##emos":745,"ver":746,"##las":747,"##mas":748,"##ista":749,"##esti":750,"muy":751,"pol":752,"##av":753,"Por":754,"##pon":755,"##ov":756,"lu":757,"país":758,"##omb":759,"##arios":760,"todo":761,"##cip":762,"ci":763,"##antes":764,"##den":765,"##cal":766,"contra":767,"##acional":768,"##lti":769,"##unci":770,"##rá":771,"cre":772,"##icas":773,"mun":774,"hasta":775,"au":776,"may":777,"##eces":778,"##lar":779,"##des":780,"tiene":781,"Se":782,"##almente":783,"don":784,"##por":785,"medi":786,"##lic":787,"##ena":788,"##udad":789,"parte":790,"##ba":791,"ter":792,"cor":793,"##ít":794,"##tó":795,"##jer":796,"##man":797,"tan":798,"can":799,"año":800,"personas":801,"##pa":802,"##urante":803,"##ió":804,"##me":805,"##ener":806,"##demás":807,"últi":808,"##tal":809,"##ino":810,"donde":811,"ad":812,"##ust":813,"cuando":814,"inform":815,"col":816,"##orma":817,"##obier":818,"op":819,"gran":820,"##pu":821,"tu":822,"mej":823,"am":824,"tras":825,"##rec":826,"##ios":827,"af":828,"cal":829,"inv":830,"##ipo":831,"##adores":832,"ni":833,"nos":834,"seg":835,"deci":836,"##ona":837,"No":838,"##iones":839,"sig":840,"##ían":841,"soci":842,"##amiento":843,"##gra":844,"##vo":845,"cer":846,"##obierno":847,"##ér":848,"porque":849,"esc":850,"oc":851,"pe":852,"##arse":853,"equ":854,"##úbl":855,"men":856,"##zo":857,"Mar":858,"part":859,"##able":860,"quien":861,"##uel":862,"##ecto":863,"presid":864,"dijo":865,"##so":866,"##udi":867,"##tado":868,"realiz":869,"##ren":870,"conf":871,"prop":872,"\",":873,"hacer":874,"##endo":875,"##xi":876,"nues":877,"##ub":878,"ciudad":879,"reci":880,"An":881,"mes":882,"##tir":883,"mo":884,"##lam":885,"todos":886,"mill":887,"ev":888,"##pañ":889,"##tura":890,"##ble":891,"19":892,"##unto":893,"mom":894,"puede":895,"San":896,"##ern":897,"min":898,"durante":899,"As":900,"comun":901,"##og":902,"##ros":903,"Las":904,"ah":905,"cont":906,"##eros":907,"tiemp":908,"##tiva":909,"Re":910,"##dic":911,"llev":912,"Ch":913,"##et":914,"##teri":915,"##idas":916,"Com":917,"##ular":918,"##ord":919,"##uego":920,"##pués":921,"##ja":922,"rep":923,"dest":924,"##eron":925,"##car":926,"gener":927,"millones":928,"están":929,"##dos":930,"tran":931,"##anos":932,"uno":933,"##iendo":934,"##amil":935,"sec":936,"algun":937,"##anz":938,"cos":939,"mejor":940,"neces":941,"##til":942,"mayor":943,"\".":944,"##itar":945,"solo":946,"día":947,"##pos":948,"##ve":949,"hech":950,"dic":951,"##entro":952,"##sión":953,"segu":954,"pla":955,"inst":956,"lugar":957,"##ño":958,"##ieron":959,"##argo":960,"tiempo":961,"produc":962,"sido":963,"import":964,"hor":965,"ese":966,"##eo":967,"señ":968,"fal":969,"##miento":970,"##uso":971,"##rib":972,"ma":973,"vez":974,"##ific":975,"pes":976,"##teg":977,"emb":978,"actu":979,"famil":980,"cap":981,"##tivos":982,"##ición":983,"empres":984,"##ura":985,"momento":986,"hace":987,"##li":988,"##tras":989,"viv":990,"den":991,"##uen":992,"##ion":993,"##lación":994,"##mbre":995,"bien":996,"##irm":997,"trans":998,"##gen":999,"polít":1000,"co":1001,"resp":1002,"##ias":1003,"pu":1004,"##éc":1005,"cada":1006,"##ven":1007,"##ible":1008,"inici":1009,"otros":1010,"##isión":1011,"##ría":1012,"así":1013,"##ilidad":1014,"cual":1015,"tres":1016,"direc":1017,"##cio":1018,"después":1019,"presidente":1020,"encu":1021,"incl":1022,"##du":1023,"lleg":1024,"vida":1025,"##quier":1026,"def":1027,"Des":1028,"días":1029,"##óm":1030,"##ención":1031,"ch":1032,"##ing":1033,"baj":1034,"##iste":1035,"##ecu":1036,"201":1037,"estado":1038,"ref":1039,"ay":1040,"po":1041,"##uro":1042,"##ed":1043,"##br":1044,"present":1045,"##ícul":1046,"##erg":1047,"##na":1048,"##ton":1049,"había":1050,"##ital":1051,"pasado":1052,"sent":1053,"##cha":1054,"##nos":1055,"ase":1056,"ante":1057,"públ":1058,"##ita":1059,"primera":1060,"mismo":1061,"##end":1062,"##gres":1063,"##entras":1064,"autor":1065,"mis":1066,"forma":1067,"inc":1068,"primer":1069,"sem":1070,"Además":1071,"##ies":1072,"##arro":1073,"señal":1074,"vol":1075,"##omin":1076,"##uy":1077,"##cion":1078,"gra":1079,"eso":1080,"##endi":1081,"dej":1082,"mujer":1083,"dist":1084,"av":1085,"##icip":1086,"les":1087,"ve":1088,"cuenta":1089,"##vici":1090,"segun":1091,"tar":1092,"##alidad":1093,"##ección":1094,"plan":1095,"org":1096,"especi":1097,"##cias":1098,"caso":1099,"##em":1100,"horas":1101,"Pero":1102,"proy":1103,"menos":1104,"##oco":1105,"tanto":1106,"##paña":1107,"2022":1108,"prov":1109,"gan":1110,"##unque":1111,"##encias":1112,"##oria":1113,"##istas":1114,"Car":1115,"situ":1116,"##incip":1117,"),":1118,"sub":1119,"const":1120,"parti":1121,"##rig":1122,").":1123,"estar":1124,"##und":1125,"##ers":1126,"ahora":1127,"era":1128,"fr":1129,"tom":1130,"equipo":1131,"hecho":1132,"lib":1133,"princip":1134,"resul":1135,"##ceso":1136,"trabajo":1137,"10":1138,"##uridad":1139,"##aje":1140,"Seg":1141,"##gos":1142,"val":1143,"##erc":1144,"otro":1145,"temp":1146,"estos":1147,"pan":1148,"pró":1149,"##arrol":1150,"hist":1151,"Le":1152,"esa":1153,"fueron":1154,"##cran":1155,"entr":1156,"##ito":1157,"pues":1158,"sab":1159,"Si":1160,"acuer":1161,"econ":1162,"000":1163,"Este":1164,"Cu":1165,"según":1166,"tener":1167,"her":1168,"##ect":1169,"Me":1170,"Para":1171,"##át":1172,"difer":1173,"##gr":1174,"hi":1175,"##az":1176,"antes":1177,"mucho":1178,"va":1179,"Sin":1180,"manera":1181,"##vers":1182,"##aria":1183,"##orn":1184,"encon":1185,"mundo":1186,"##che":1187,"##ene":1188,"##untos":1189,"##and":1190,"##cho":1191,"##ños":1192,"##tores":1193,"tienen":1194,"##mpl":1195,"nuevo":1196,"##gur":1197,"vis":1198,"organ":1199,"Gobierno":1200,"##arias":1201,"bus":1202,"será":1203,"embargo":1204,"qued":1205,"semana":1206,"##ris":1207,"haci":1208,"##oles":1209,"us":1210,"vi":1211,"partido":1212,"activ":1213,"contin":1214,"Su":1215,"##erv":1216,"servici":1217,"ven":1218,"##ivel":1219,"##aban":1220,"##ómo":1221,"cab":1222,"investi":1223,"##rán":1224,"tend":1225,"hoy":1226,"##ea":1227,"llam":1228,"##iempre":1229,"##atos":1230,"conv":1231,"ofici":1232,"##atro":1233,"qué":1234,"##sta":1235,"fu":1236,"respon":1237,"##uesta":1238,"cl":1239,"»,":1240,"##ancia":1241,"prof":1242,"acuerdo":1243,"nivel":1244,"super":1245,"pri":1246,"jug":1247,"gru":1248,"ne":1249,"##uros":1250,"##ombre":1251,"##fic":1252,"prev":1253,"of":1254,"quier":1255,"mientras":1256,"##vés":1257,"##ece":1258,"##rió":1259,"desarrol":1260,"Pro":1261,"Gu":1262,"Sal":1263,"med":1264,"proble":1265,"apro":1266,"comple":1267,"Lo":1268,"##ensa":1269,"##can":1270,"pon":1271,"##arán":1272,"progra":1273,"cin":1274,"##ele":1275,"rev":1276,"gobierno":1277,"##illa":1278,"través":1279,"Mé":1280,"int":1281,"##jos":1282,"##dió":1283,"pl":1284,"algo":1285,"Nacional":1286,"##embre":1287,"ins":1288,"esto":1289,"poder":1290,"bas":1291,"destac":1292,"municip":1293,"estudi":1294,"30":1295,"##gua":1296,"##das":1297,"enf":1298,"12":1299,"recib":1300,"at":1301,"además":1302,"obje":1303,"regist":1304,"##rad":1305,"próxi":1306,"##ruc":1307,"##ío":1308,"Mun":1309,"form":1310,"pueden":1311,"investig":1312,"Ju":1313,"Qu":1314,"dere":1315,"esper":1316,"dar":1317,"##ña":1318,"##tel":1319,"compr":1320,"siempre":1321,"particip":1322,"aum":1323,"san":1324,"Una":1325,"funci":1326,"##xico":1327,"comunic":1328,"repres":1329,"También":1330,"##tur":1331,"##bol":1332,"##osp":1333,"preci":1334,"asegur":1335,"Ar":1336,"situación":1337,"##ús":1338,"importante":1339,"gas":1340,"##izo":1341,"haber":1342,"##acion":1343,"##dio":1344,"exper":1345,"pel":1346,"##ider":1347,"##clar":1348,"##reg":1349,"##ización":1350,"ellos":1351,"##up":1352,"encuent":1353,"##cel":1354,"Par":1355,"Según":1356,"luego":1357,"México":1358,"aunque":1359,"15":1360,"final":1361,"apoy":1362,"mon":1363,"meses":1364,"todas":1365,"nueva":1366,"##tió":1367,"##mar":1368,"recon":1369,"medio":1370,"otras":1371,"prom":1372,"##ap":1373,"##orte":1374,"fe":1375,"otra":1376,"##ment":1377,"##retar":1378,"##dia":1379,"##ril":1380,"anunci":1381,"##iar":1382,"compar":1383,"doc":1384,"##ral":1385,"##tivas":1386,"Cas":1387,"vac":1388,"##enz":1389,"domin":1390,"vo":1391,"indic":1392,"##uda":1393,"».":1394,"##eb":1395,"algunos":1396,"##íst":1397,"##ración":1398,"España":1399,"##tad":1400,"salud":1401,"explic":1402,"expres":1403,"publ":1404,"sea":1405,"unos":1406,"##bre":1407,"casa":1408,"cent":1409,"cómo":1410,"##tic":1411,"estaba":1412,"logr":1413,"Estados":1414,"permi":1415,"##nes":1416,"elec":1417,"habl":1418,"2021":1419,"minist":1420,"mal":1421,"tipo":1422,"##duci":1423,"cul":1424,"##áb":1425,"ef":1426,"##ho":1427,"##anza":1428,"manten":1429,"##íc":1430,"nacional":1431,"conoc":1432,"##minist":1433,"declar":1434,"##ecer":1435,"hum":1436,"##iso":1437,"##ivers":1438,"##cial":1439,"muer":1440,"seguridad":1441,"##ip":1442,"cambi":1443,"ocur":1444,"él":1445,"gol":1446,"##dido":1447,"##ep":1448,"##ual":1449,"Unidos":1450,"Min":1451,"cuatro":1452,"hizo":1453,"##uela":1454,"##terior":1455,"##úm":1456,"debe":1457,"buen":1458,"sí":1459,"muchos":1460,"##ución":1461,"##icía":1462,"funcion":1463,"poco":1464,"##ortun":1465,"Estado":1466,"toda":1467,"11":1468,"##rist":1469,"Ucran":1470,"local":1471,"intern":1472,"##dial":1473,"casos":1474,"18":1475,"estas":1476,"##cil":1477,"ind":1478,"ello":1479,"Ucrania":1480,"##cid":1481,"compañ":1482,"encontr":1483,"##ental":1484,"económ":1485,"##bio":1486,"apar":1487,"bar":1488,"##tación":1489,"##óg":1490,"##itos":1491,"##zas":1492,"Val":1493,"##uesto":1494,"sociales":1495,"último":1496,"cele":1497,"conoci":1498,"espaci":1499,"autoridades":1500,"total":1501,"dirig":1502,"proyecto":1503,"familia":1504,"##gan":1505,"##mit":1506,"mad":1507,"personal":1508,"Col":1509,"comenz":1510,"Esta":1511,"siste":1512,"via":1513,"##icia":1514,"merc":1515,"##tiz":1516,"##imiento":1517,"Lu":1518,"seguir":1519,"provin":1520,"Co":1521,"##ólar":1522,"ata":1523,"euros":1524,"zona":1525,"lun":1526,"##ientos":1527,"##aran":1528,"decir":1529,"dólar":1530,"Mi":1531,"Pol":1532,"gente":1533,"ir":1534,"##tan":1535,"núm":1536,"viol":1537,"or":1538,"##taron":1539,"tempor":1540,"##sa":1541,"amb":1542,"conc":1543,"##iscal":1544,"leg":1545,"##amp":1546,"##ólo":1547,"llegar":1548,"tal":1549,"Rus":1550,"sino":1551,"profes":1552,"cier":1553,"quienes":1554,"cualquier":1555,"##bles":1556,"grupo":1557,"vic":1558,"trata":1559,"veh":1560,"frente":1561,"##entina":1562,"##tamente":1563,"##adora":1564,"nada":1565,"continu":1566,"contro":1567,"caus":1568,"##bió":1569,"##atal":1570,"##oca":1571,"Bar":1572,"lí":1573,"ún":1574,"ley":1575,"##entar":1576,"má":1577,"termin":1578,"casi":1579,"minu":1580,"Arg":1581,"ingres":1582,"reun":1583,"sector":1584,"Mad":1585,"proceso":1586,"##urs":1587,"##erio":1588,"vier":1589,"##ate":1590,"##ór":1591,"##tados":1592,"##ior":1593,"##ense":1594,"conta":1595,"##ables":1596,"##atur":1597,"##inos":1598,"redes":1599,"##porte":1600,"historia":1601,"public":1602,"##rado":1603,"información":1604,"##stitu":1605,"Así":1606,"Euro":1607,"##tam":1608,"política":1609,"pob":1610,"##ectos":1611,"lunes":1612,"ban":1613,"nuestro":1614,"##tica":1615,"comer":1616,"##ag":1617,"##ería":1618,"países":1619,"hacia":1620,"vuel":1621,"ll":1622,"Rusia":1623,"viernes":1624,"mañ":1625,"##ional":1626,"persona":1627,"puntos":1628,"pad":1629,"##eta":1630,"consider":1631,"quer":1632,"##vi":1633,"vehícul":1634,"podría":1635,"últimos":1636,"datos":1637,"13":1638,"sos":1639,"util":1640,"##ide":1641,"distin":1642,"##ron":1643,"nuestra":1644,"##irmó":1645,"##ef":1646,"rel":1647,"mujeres":1648,"##oso":1649,"sáb":1650,"##ard":1651,"tuvo":1652,"junto":1653,"##tonces":1654,"##rea":1655,"cumpl":1656,"200":1657,"14":1658,"aut":1659,"lado":1660,"ro":1661,"cinco":1662,"nov":1663,"jue":1664,"mé":1665,"social":1666,"mens":1667,"##ícti":1668,"pens":1669,"##olog":1670,"dif":1671,"general":1672,"ofre":1673,"cant":1674,"##ric":1675,"##rera":1676,"mañana":1677,"##eno":1678,"##echa":1679,"aún":1680,"igu":1681,"ella":1682,"posible":1683,"mov":1684,"programa":1685,"##ha":1686,"##quel":1687,"Minist":1688,"vícti":1689,"oportun":1690,"25":1691,"veces":1692,"respons":1693,"edi":1694,"ide":1695,"pal":1696,"Mon":1697,"##va":1698,"perio":1699,"nego":1700,"##cen":1701,"varios":1702,"sábado":1703,"Am":1704,"##cos":1705,"empresa":1706,"Man":1707,"dentro":1708,"desp":1709,"público":1710,"número":1711,"##vid":1712,"agua":1713,"##demia":1714,"sel":1715,"##ira":1716,"##urso":1717,"sentido":1718,"Fran":1719,"centro":1720,"suf":1721,"Desde":1722,"enfr":1723,"##rir":1724,"dio":1725,"cosas":1726,"dólares":1727,"oper":1728,"mos":1729,"eje":1730,"##bor":1731,"energ":1732,"##obern":1733,"segundo":1734,"misma":1735,"domingo":1736,"din":1737,"##edad":1738,"##ológ":1739,"cerca":1740,"Fe":1741,"ej":1742,"id":1743,"##tera":1744,"tenemos":1745,"ayud":1746,"condi":1747,"##pti":1748,"##lí":1749,"##ill":1750,"solici":1751,"pandemia":1752,"hombre":1753,"##aría":1754,"##ál":1755,"##eza":1756,"Argentina":1757,"Ale":1758,"##entas":1759,"16":1760,"##pción":1761,"##rez":1762,"creci":1763,"##gas":1764,"Esto":1765,"##ilo":1766,"##avor":1767,"cir":1768,"jun":1769,"detal":1770,"##rem":1771,"##uerra":1772,"##anci":1773,"##unca":1774,"integ":1775,"cuer":1776,"noche":1777,"17":1778,"institu":1779,"sistema":1780,"##osa":1781,"##cional":1782,"martes":1783,"conse":1784,"estu":1785,"##ueves":1786,"just":1787,"empresas":1788,"sac":1789,"bajo":1790,"utiliz":1791,"##tido":1792,"##lica":1793,"##af":1794,"##ám":1795,"##toria":1796,"valor":1797,"gu":1798,"##abor":1799,"director":1800,"mie":1801,"informó":1802,"diferentes":1803,"##coles":1804,"cr":1805,"##tec":1806,"##ércoles":1807,"vacun":1808,"##dez":1809,"Ex":1810,"da":1811,"servicio":1812,"jueves":1813,"recu":1814,"muchas":1815,"represent":1816,"favor":1817,"##resid":1818,"tenía":1819,"Ci":1820,"##iga":1821,"cambio":1822,"clar":1823,"dici":1824,"##lev":1825,"##omía":1826,"##écn":1827,"miércoles":1828,"tarde":1829,"##ine":1830,"##ibilidad":1831,"peque":1832,"Jos":1833,"##isto":1834,"##acidad":1835,"igual":1836,"00":1837,"##rar":1838,"bu":1839,"##ác":1840,"respecto":1841,"neg":1842,"partir":1843,"españ":1844,"objetivo":1845,"conocer":1846,"acom":1847,"##ber":1848,"##ban":1849,"punto":1850,"hora":1851,"dice":1852,"ejemp":1853,"estamos":1854,"posi":1855,"ub":1856,"organiz":1857,"dep":1858,"niños":1859,"##ulio":1860,"##estión":1861,"##chos":1862,"ident":1863,"##inas":1864,"##iene":1865,"añad":1866,"segunda":1867,"temporada":1868,"##dor":1869,"##ares":1870,"comprom":1871,"recuper":1872,"##oven":1873,"manif":1874,"yo":1875,"##unta":1876,"##ritor":1877,"próximo":1878,"24":1879,"bal":1880,"sup":1881,"especial":1882,"Di":1883,"aplic":1884,"ciento":1885,"asist":1886,"vir":1887,"fuera":1888,"Pa":1889,"mas":1890,"grandes":1891,"bene":1892,"em":1893,"##ula":1894,"##imismo":1895,"##tico":1896,"Ah":1897,"clas":1898,"##quí":1899,"minutos":1900,"aquel":1901,"##cía":1902,"ocas":1903,"mostr":1904,"Per":1905,"##ipos":1906,"##lad":1907,"tri":1908,"joven":1909,"##put":1910,"enero":1911,"##abilidad":1912,"Ac":1913,"siendo":1914,"##dan":1915,"##rid":1916,"señaló":1917,"mercado":1918,"veci":1919,"edad":1920,"enc":1921,"benefici":1922,"ade":1923,"##ama":1924,"orden":1925,"##xic":1926,"##ola":1927,"loc":1928,"usu":1929,"méd":1930,"50":1931,"lín":1932,"sue":1933,"##form":1934,"coment":1935,"##iencia":1936,"##iel":1937,"emple":1938,"##ursos":1939,"ho":1940,"ries":1941,"##rados":1942,"sigue":1943,"Fern":1944,"##ge":1945,"Ministerio":1946,"labor":1947,"##all":1948,"##ria":1949,"prue":1950,"Juan":1951,"Hay":1952,"fun":1953,"jorn":1954,"enfer":1955,"##iva":1956,"educ":1957,"fo":1958,"nunca":1959,"anti":1960,"record":1961,"##iente":1962,"##canz":1963,"##ecn":1964,"máxi":1965,"##ivil":1966,"instal":1967,"Can":1968,"##vil":1969,"##áp":1970,"población":1971,"##imos":1972,"##ospital":1973,"Mart":1974,"Como":1975,"##au":1976,"Asimismo":1977,"interes":1978,"debido":1979,"##mple":1980,"##ques":1981,"problemas":1982,"Ser":1983,"##vieron":1984,"##óp":1985,"##demos":1986,"atención":1987,"hub":1988,"sex":1989,"alcanz":1990,"última":1991,"reconoci":1992,"lanz":1993,"técn":1994,"##eras":1995,"acus":1996,"##usión":1997,"And":1998,"##ecta":1999,"extra":2000,"marc":2001,"ases":2002,"##dida":2003,"##encial":2004,"falta":2005,"##gn":2006,"Mor":2007,"largo":2008,"##arlo":2009,"conj":2010,"relación":2011,"##ile":2012,"##tis":2013,"servicios":2014,"van":2015,"disc":2016,"mayoría":2017,"pesos":2018,"##ología":2019,"22":2020,"##ró":2021,"decisión":2022,"oficial":2023,"##ono":2024,"alim":2025,"ubic":2026,"sólo":2027,"seis":2028,"dese":2029,"juego":2030,"##íf":2031,"entonces":2032,"##gado":2033,"##tubre":2034,"21":2035,"##ández":2036,"encuentro":2037,"##tamiento":2038,"agreg":2039,"guerra":2040,"incluso":2041,"apoyo":2042,"nuevos":2043,"precios":2044,"##anto":2045,"liber":2046,"gobern":2047,"##ev":2048,"##icamente":2049,"refer":2050,"Mu":2051,"capital":2052,"llegó":2053,"líder":2054,"fecha":2055,"mues":2056,"##tuvo":2057,"junio":2058,"José":2059,"manifes":2060,"##rin":2061,"pregun":2062,"región":2063,"##bas":2064,"##blo":2065,"##rio":2066,"##tero":2067,"precio":2068,"espera":2069,"##gue":2070,"##stas":2071,"##ruz":2072,"control":2073,"puer":2074,"##atar":2075,"algunas":2076,"Pe":2077,"paso":2078,"ejemplo":2079,"dispon":2080,"2020":2081,"Madrid":2082,"##enas":2083,"ministro":2084,"cli":2085,"##rido":2086,"financi":2087,"octubre":2088,"partidos":2089,"Cor":2090,"deten":2091,"##ulo":2092,"##ública":2093,"dinero":2094,"Te":2095,"conduc":2096,"serie":2097,"##ptiembre":2098,"acompañ":2099,"##ator":2100,"aprob":2101,"escu":2102,"Inter":2103,"club":2104,"##op":2105,"noti":2106,"carrera":2107,"ent":2108,"medidas":2109,"varias":2110,"dem":2111,"marzo":2112,"diciembre":2113,"##ot":2114,"impac":2115,"disf":2116,"Tod":2117,"##gel":2118,"cargo":2119,"##acionales":2120,"Ciudad":2121,"##ár":2122,"pron":2123,"espacio":2124,"mod":2125,"##ial":2126,"##adio":2127,"uso":2128,"##turo":2129,"prepar":2130,"calle":2131,"aseguró":2132,"investigación":2133,"garan":2134,"##ich":2135,"empez":2136,"defin":2137,"realizar":2138,"septiembre":2139,"buena":2140,"100":2141,"cuar":2142,"ren":2143,"exist":2144,"##ombres":2145,"sigu":2146,"mode":2147,"obl":2148,"desarrollo":2149,"hemos":2150,"provincia":2151,"Ven":2152,"tecn":2153,"der":2154,"seman":2155,"##rito":2156,"indicó":2157,"40":2158,"##iembre":2159,"auto":2160,"volver":2161,"encuentra":2162,"Cam":2163,"pare":2164,"prob":2165,"Policía":2166,"incluy":2167,"Ay":2168,"##leg":2169,"##respon":2170,"plata":2171,"cri":2172,"##zos":2173,"deman":2174,"tema":2175,"##ordin":2176,"docum":2177,"##ves":2178,"##tran":2179,"Cal":2180,"Tras":2181,"##onas":2182,"##ifica":2183,"##dose":2184,"cuerpo":2185,"Entre":2186,"##ducir":2187,"##avía":2188,"Cuando":2189,"noviembre":2190,"Gener":2191,"estable":2192,"##tender":2193,"Mundial":2194,"conte":2195,"realidad":2196,"administ":2197,"evitar":2198,"fac":2199,"##xim":2200,"concl":2201,"arti":2202,"poner":2203,"gust":2204,"##leci":2205,"haya":2206,"fund":2207,"##tando":2208,"perf":2209,"medida":2210,"Luis":2211,"##tbol":2212,"descu":2213,"sign":2214,"##tom":2215,"##anas":2216,"##ala":2217,"consecu":2218,"##ima":2219,"familiar":2220,"##nas":2221,"##gon":2222,"##unid":2223,"viaj":2224,"Yo":2225,"ráp":2226,"noso":2227,"To":2228,"##ya":2229,"##orp":2230,"acciones":2231,"divers":2232,"##osto":2233,"##rac":2234,"actividades":2235,"bol":2236,"julio":2237,"##imo":2238,"estra":2239,"inten":2240,"##dedor":2241,"actividad":2242,"comb":2243,"asp":2244,"deber":2245,"natur":2246,"Univers":2247,"comunidad":2248,"falleci":2249,"cabo":2250,"##enda":2251,"##ivo":2252,"afect":2253,"comunicado":2254,"explicó":2255,"##cidente":2256,"riesgo":2257,"##iano":2258,"Ahora":2259,"Jo":2260,"mús":2261,"prensa":2262,"Rep":2263,"inm":2264,"denunci":2265,"oportunidad":2266,"##jas":2267,"##onar":2268,"##ell":2269,"agosto":2270,"problema":2271,"##ecretar":2272,"alcal":2273,"difí":2274,"unas":2275,"nosotros":2276,"sum":2277,"##ela":2278,"2023":2279,"regres":2280,"Europa":2281,"rus":2282,"##he":2283,"medios":2284,"Nuev":2285,"##útbol":2286,"esos":2287,"inver":2288,"red":2289,"estadounid":2290,"condiciones":2291,"disfru":2292,"Gran":2293,"Pla":2294,"atra":2295,"deter":2296,"##dir":2297,"##trás":2298,"Carlos":2299,"resultado":2300,"celebr":2301,"oblig":2302,"indi":2303,"miemb":2304,"Gar":2305,"tenido":2306,"territor":2307,"##brero":2308,"negoci":2309,"jef":2310,"correspon":2311,"##greso":2312,"futuro":2313,"cif":2314,"arg":2315,"verdad":2316,"calidad":2317,"dicho":2318,"producción":2319,"quiere":2320,"muerte":2321,"Fin":2322,"efec":2323,"pid":2324,"Ma":2325,"pot":2326,"jornada":2327,"tur":2328,"##var":2329,"##ñas":2330,"##wit":2331,"##ajes":2332,"sociedad":2333,"perman":2334,"##omici":2335,"mexic":2336,"productos":2337,"Cab":2338,"Res":2339,"sim":2340,"parece":2341,"priv":2342,"palab":2343,"##iro":2344,"anterior":2345,"##ovid":2346,"##medad":2347,"ima":2348,"conver":2349,"##tiene":2350,"desc":2351,"sería":2352,"puesto":2353,"visit":2354,"##tección":2355,"##eric":2356,"alto":2357,"resid":2358,"abier":2359,"##ativa":2360,"##adie":2361,"##olución":2362,"##laz":2363,"##atura":2364,"mano":2365,"abril":2366,"traslad":2367,"línea":2368,"Martín":2369,"ocu":2370,"pie":2371,"##uras":2372,"raz":2373,"Salud":2374,"Fue":2375,"nombre":2376,"##serv":2377,"nuevas":2378,"Is":2379,"mand":2380,"##alización":2381,"todavía":2382,"mayo":2383,"agregó":2384,"##xto":2385,"equipos":2386,"dañ":2387,"pueblo":2388,"principal":2389,"ucran":2390,"##uta":2391,"actual":2392,"capacidad":2393,"vivien":2394,"##risis":2395,"aumento":2396,"depor":2397,"suce":2398,"23":2399,"Lóp":2400,"##bo":2401,"militar":2402,"Feder":2403,"López":2404,"sorp":2405,"##iera":2406,"dispos":2407,"##érica":2408,"ambos":2409,"claro":2410,"febrero":2411,"fiscal":2412,"pop":2413,"entren":2414,"##rucción":2415,"##osición":2416,"contar":2417,"respe":2418,"pesar":2419,"mantener":2420,"rob":2421,"trad":2422,"trabajadores":2423,"jugar":2424,"##partam":2425,"ayuda":2426,"##fo":2427,"##lor":2428,"conten":2429,"##ingun":2430,"nuestros":2431,"semanas":2432,"General":2433,"crisis":2434,"menci":2435,"##entemente":2436,"##elo":2437,"trabajar":2438,"derecho":2439,"Ro":2440,"recor":2441,"preoc":2442,"avanz":2443,"plante":2444,"violencia":2445,"##apar":2446,"##ner":2447,"##pas":2448,"indust":2449,"recom":2450,"##alizar":2451,"##mientos":2452,"Durante":2453,"kil":2454,"##vió":2455,"##ianza":2456,"alre":2457,"##aja":2458,"hici":2459,"##este":2460,"mejores":2461,"##éctr":2462,"Qué":2463,"enfermedad":2464,"determin":2465,"##uls":2466,"dig":2467,"recursos":2468,"ori":2469,"real":2470,"anim":2471,"##uestas":2472,"tendrá":2473,"Twit":2474,"obra":2475,"enfrent":2476,"identific":2477,"Día":2478,"paci":2479,"vid":2480,"Pal":2481,"vig":2482,"encar":2483,"usuarios":2484,"##ne":2485,"salir":2486,"deben":2487,"tomar":2488,"compañía":2489,"##óven":2490,"##ingún":2491,"resultados":2492,"Venez":2493,"##óvenes":2494,"ra":2495,"conce":2496,"##ilar":2497,"##irma":2498,"cla":2499,"##ug":2500,"##lante":2501,"##omos":2502,"camino":2503,"hechos":2504,"energía":2505,"Ad":2506,"pen":2507,"##eas":2508,"##rb":2509,"##inar":2510,"pap":2511,"Ej":2512,"mul":2513,"tit":2514,"necesario":2515,"derechos":2516,"Ban":2517,"habían":2518,"pasar":2519,"materi":2520,"inicio":2521,"recibir":2522,"CO":2523,"Sol":2524,"norm":2525,"##ién":2526,"##moc":2527,"##rantes":2528,"conjunto":2529,"inflación":2530,"mayores":2531,"gracias":2532,"fil":2533,"##van":2534,"##uir":2535,"menor":2536,"experiencia":2537,"Twitter":2538,"Centro":2539,"##riz":2540,"ningun":2541,"##iedad":2542,"confirm":2543,"respuesta":2544,"estableci":2545,"aquí":2546,"ejer":2547,"##ire":2548,"art":2549,"consegu":2550,"##cis":2551,"##adamente":2552,"alta":2553,"he":2554,"##uales":2555,"##icular":2556,"primeros":2557,"amena":2558,"familias":2559,"Rod":2560,"jóvenes":2561,"##rí":2562,"diput":2563,"##alu":2564,"evento":2565,"difícil":2566,"fuerte":2567,"haciendo":2568,"películ":2569,"internacional":2570,"Aunque":2571,"ningún":2572,"##rían":2573,"##amientos":2574,"##izar":2575,"primero":2576,"consul":2577,"campaña":2578,"2019":2579,"municipio":2580,"mensaje":2581,"##pre":2582,"proce":2583,"##tud":2584,"dise":2585,"interv":2586,"##ámara":2587,"alg":2588,"cuanto":2589,"prác":2590,"afirmó":2591,"pública":2592,"área":2593,"##dep":2594,"alrededor":2595,"##idera":2596,"##tien":2597,"esf":2598,"##gura":2599,"locales":2600,"##mát":2601,"obten":2602,"##ráf":2603,"Municip":2604,"vehículos":2605,"27":2606,"##úa":2607,"##ierra":2608,"jugadores":2609,"fon":2610,"Tra":2611,"##abl":2612,"presencia":2613,"campe":2614,"colabor":2615,"hijos":2616,"estuvo":2617,"hubo":2618,"pareja":2619,"fá":2620,"viene":2621,"##ik":2622,"dec":2623,"##rel":2624,"ado":2625,"##ex":2626,"descon":2627,"##iete":2628,"obst":2629,"ahí":2630,"vamos":2631,"policía":2632,"##metros":2633,"celeb":2634,"único":2635,"ejecu":2636,"nadie":2637,"##tante":2638,"##onia":2639,"mucha":2640,"Santa":2641,"##ribun":2642,"cob":2643,"dado":2644,"hombres":2645,"##uncia":2646,"inme":2647,"##uestos":2648,"dejar":2649,"madre":2650,"contac":2651,"Presid":2652,"brin":2653,"##tin":2654,"##esión":2655,"eleg":2656,"encontra":2657,"##pp":2658,"##idores":2659,"cub":2660,"últimas":2661,"destacó":2662,"%.":2663,"fran":2664,"##bajo":2665,"provoc":2666,"video":2667,"Venezuela":2668,"##ibles":2669,"escen":2670,"Crist":2671,"Ten":2672,"##forma":2673,"pueda":2674,"significa":2675,"##oma":2676,"##lado":2677,"##alo":2678,"elem":2679,"Fernández":2680,"Ya":2681,"ellas":2682,"estará":2683,"##chez":2684,"habit":2685,"entrev":2686,"llevar":2687,"Reg":2688,"fut":2689,"##lu":2690,"##có":2691,"conci":2692,"exig":2693,"##quil":2694,"momentos":2695,"prome":2696,"expresó":2697,"periodi":2698,"foto":2699,"asoci":2700,"dispar":2701,"hijo":2702,"escuch":2703,"algún":2704,"60":2705,"vent":2706,"acceso":2707,"marca":2708,"propuesta":2709,"quedó":2710,"anunció":2711,"Ha":2712,"ba":2713,"##hu":2714,"##reas":2715,"rela":2716,"María":2717,"reunión":2718,"popular":2719,"28":2720,"Ag":2721,"Soci":2722,"euro":2723,"visto":2724,"##tada":2725,"sur":2726,"proces":2727,"serán":2728,"alguna":2729,"tarje":2730,"participación":2731,"emo":2732,"fútbol":2733,"so":2734,"##iado":2735,"##quer":2736,"Conse":2737,"observ":2738,"propio":2739,"convoc":2740,"26":2741,"Buen":2742,"esas":2743,"ambi":2744,"víctimas":2745,"##itario":2746,"##icio":2747,"luz":2748,"##ionales":2749,"pudo":2750,"Después":2751,"ganar":2752,"fron":2753,"Fiscal":2754,"##ij":2755,"##ok":2756,"##be":2757,"informe":2758,"Mientras":2759,"modelo":2760,"##umo":2761,"##ló":2762,"##tio":2763,"##ign":2764,"comenzó":2765,"poc":2766,"reac":2767,"##ánchez":2768,"agrad":2769,"amor":2770,"plazo":2771,"vecinos":2772,"Sánchez":2773,"##ancias":2774,"podemos":2775,"cantidad":2776,"##iza":2777,"secretar":2778,"vehículo":2779,"At":2780,"##óvil":2781,"comien":2782,"##tivamente":2783,"##quis":2784,"Secretar":2785,"ofer":2786,"##ite":2787,"eléctr":2788,"ayer":2789,"titular":2790,"siete":2791,"##VI":2792,"##oría":2793,"resto":2794,"##ampoco":2795,"##siones":2796,"crecimiento":2797,"argent":2798,"##gada":2799,"##zar":2800,"Congreso":2801,"##teriores":2802,"constru":2803,"base":2804,"permite":2805,"Hoy":2806,"Just":2807,"amp":2808,"##uv":2809,"lleva":2810,"intent":2811,"causa":2812,"sosten":2813,"histór":2814,"busca":2815,"legis":2816,"música":2817,"Del":2818,"Pre":2819,"Que":2820,"fel":2821,"zonas":2822,"##graf":2823,"Bol":2824,"Rec":2825,"Tor":2826,"cad":2827,"gestión":2828,"li":2829,"##ance":2830,"necesit":2831,"proyectos":2832,"elecciones":2833,"##uerzo":2834,"##igos":2835,"natural":2836,"República":2837,"agu":2838,"dol":2839,"cuesti":2840,"mundial":2841,"victoria":2842,"fundam":2843,"mín":2844,"##rada":2845,"##ardo":2846,"##uerto":2847,"economía":2848,"hablar":2849,"Universidad":2850,"hospital":2851,"mat":2852,"vari":2853,"Eso":2854,"fís":2855,"##sito":2856,"##ém":2857,"arm":2858,"##ificación":2859,"busc":2860,"ataque":2861,"idea":2862,"##cito":2863,"posibilidad":2864,"Comun":2865,"estudio":2866,"español":2867,"Luego":2868,"##vech":2869,"apun":2870,"amar":2871,"encontrar":2872,"##ej":2873,"##uelo":2874,"##reto":2875,"Ros":2876,"tor":2877,"##son":2878,"hacen":2879,"víctima":2880,"emerg":2881,"Institu":2882,"Colomb":2883,"Ab":2884,"Gal":2885,"pat":2886,"##lá":2887,"##ler":2888,"##ase":2889,"preocup":2890,"kiló":2891,"Mig":2892,"##iana":2893,"cuales":2894,"descar":2895,"recuer":2896,"grave":2897,"económica":2898,"compromiso":2899,"interés":2900,"saber":2901,"estaban":2902,"principales":2903,"jugador":2904,"padre":2905,"jefe":2906,"29":2907,"blo":2908,"naci":2909,"terc":2910,"cambios":2911,"tít":2912,"##ror":2913,"contr":2914,"##inal":2915,"supon":2916,"afec":2917,"refle":2918,"comerci":2919,"libertad":2920,"##yo":2921,"##tán":2922,"##lob":2923,"##ecen":2924,"puedan":2925,"500":2926,"##tagon":2927,"div":2928,"##ace":2929,"escri":2930,"31":2931,"pudi":2932,"##onó":2933,"trabajando":2934,"mejorar":2935,"lluv":2936,"##partamento":2937,"Consejo":2938,"elim":2939,"##atario":2940,"Cons":2941,"##eció":2942,"modo":2943,"golpe":2944,"déc":2945,"tel":2946,"##ota":2947,"##inación":2948,"habrá":2949,"miembros":2950,"repar":2951,"cuad":2952,"acep":2953,"desapar":2954,"metros":2955,"opera":2956,"baja":2957,"pelig":2958,"Colombia":2959,"##ég":2960,"##chas":2961,"audi":2962,"temper":2963,"grupos":2964,"Cl":2965,"cuid":2966,"abs":2967,"calles":2968,"##orneo":2969,"##turas":2970,"Ped":2971,"bomb":2972,"mor":2973,"##íamos":2974,"##one":2975,"##rieron":2976,"Esp":2977,"consum":2978,"obras":2979,"recibió":2980,"ruso":2981,"presente":2982,"campo":2983,"político":2984,"##rismo":2985,"precis":2986,"ninguna":2987,"relacion":2988,"##guez":2989,"%,":2990,"##ian":2991,"##guien":2992,"ciudadanos":2993,"constitu":2994,"crim":2995,"##reo":2996,"marco":2997,"defensa":2998,"adelante":2999,"er":3000,"##ientes":3001,"##dar":3002,"##est":3003,"##aya":3004,"Intern":3005,"mig":3006,"norte":3007,"tas":3008,"env":3009,"particular":3010,"incre":3011,"dejó":3012,"##dieron":3013,"categ":3014,"##culo":3015,"conflic":3016,"##genes":3017,"Manuel":3018,"Ver":3019,"resta":3020,"tengo":3021,"feder":3022,"autom":3023,"##iber":3024,"Liga":3025,"cara":3026,"mí":3027,"ocho":3028,"##illo":3029,"apren":3030,"temas":3031,"impacto":3032,"Todos":3033,"Cent":3034,"##iciones":3035,"encuentran":3036,"crít":3037,"##acio":3038,"##irtió":3039,"media":3040,"Comisión":3041,"políticas":3042,"organización":3043,"Son":3044,"gen":3045,"##cri":3046,"##rag":3047,"acto":3048,"pasa":3049,"importantes":3050,"libre":3051,"35":3052,"mit":3053,"sa":3054,"##álo":3055,"demos":3056,"##tará":3057,"compet":3058,"telev":3059,"##ortal":3060,"papel":3061,"bo":3062,"blan":3063,"mus":3064,"##ág":3065,"habría":3066,"aprovech":3067,"ocup":3068,"lim":3069,"vel":3070,"democ":3071,"derro":3072,"palabras":3073,"ejerci":3074,"Or":3075,"##AN":3076,"##cas":3077,"##tividad":3078,"podrán":3079,"tarjeta":3080,"##ender":3081,"protagon":3082,"##ferencia":3083,"fuerza":3084,"Seguridad":3085,"##ático":3086,"estrateg":3087,"esté":3088,"pagar":3089,"aument":3090,"demanda":3091,"estadounidense":3092,"##hib":3093,"##ilidades":3094,"abog":3095,"territorio":3096,"imagen":3097,"eta":3098,"rom":3099,"##ires":3100,"##lez":3101,"necesidad":3102,"incendi":3103,"cabeza":3104,"entidad":3105,"##ngel":3106,"establ":3107,"##iles":3108,"##torno":3109,"caí":3110,"interior":3111,"##itaria":3112,"revel":3113,"descub":3114,"##rés":3115,"##entales":3116,"##acter":3117,"invit":3118,"propia":3119,"comunicación":3120,"Pedro":3121,"##tific":3122,"##irá":3123,"##irse":3124,"acab":3125,"asegura":3126,"plataforma":3127,"fuego":3128,"##enses":3129,"agres":3130,"polici":3131,"amigos":3132,"Ne":3133,"fies":3134,"##íos":3135,"##americ":3136,"##untamiento":3137,"acción":3138,"necesita":3139,"##vin":3140,"##zquier":3141,"dedic":3142,"elev":3143,"allá":3144,"##atoria":3145,"China":3146,"##ribu":3147,"increm":3148,"Copa":3149,"triun":3150,"Todo":3151,"Nav":3152,"ampl":3153,"##estr":3154,"##entación":3155,"##eccion":3156,"tercer":3157,"vuelta":3158,"máximo":3159,"faci":3160,"conden":3161,"lucha":3162,"elector":3163,"circul":3164,"fácil":3165,"Gon":3166,"impuls":3167,"ayudar":3168,"kilómetros":3169,"Prim":3170,"ol":3171,"reclam":3172,"Ley":3173,"inversión":3174,"García":3175,"for":3176,"##ps":3177,"sust":3178,"proteg":3179,"susp":3180,"fuerzas":3181,"venez":3182,"pruebas":3183,"##stico":3184,"convers":3185,"##ome":3186,"aler":3187,"alguien":3188,"##guay":3189,"##enso":3190,"grande":3191,"realizó":3192,"##ísticas":3193,"profesional":3194,"garantiz":3195,"venezol":3196,"Ram":3197,"eran":3198,"orig":3199,"##inado":3200,"##itor":3201,"mediante":3202,"europe":3203,"Pue":3204,"civil":3205,"##xito":3206,"visita":3207,"buscar":3208,"hicieron":3209,"fan":3210,"tér":3211,"manos":3212,"explica":3213,"especialmente":3214,"Direc":3215,"mitad":3216,"dé":3217,"is":3218,"mir":3219,"##má":3220,"##anía":3221,"extre":3222,"Estamos":3223,"##cap":3224,"inclu":3225,"distintos":3226,"obstante":3227,"Fiscalía":3228,"Instituto":3229,"Sa":3230,"sens":3231,"éxito":3232,"indep":3233,"##isiones":3234,"caracter":3235,"opin":3236,"selección":3237,"##álogo":3238,"Ángel":3239,"##iter":3240,"##tró":3241,"complic":3242,"edición":3243,"##ribunal":3244,"Más":3245,"Tu":3246,"fig":3247,"izquier":3248,"web":3249,"##cipar":3250,"allí":3251,"estoy":3252,"##ival":3253,"compe":3254,"entrega":3255,"hija":3256,"##ística":3257,"alcalde":3258,"Nic":3259,"##ond":3260,"##ste":3261,"##iden":3262,"repor":3263,"##ándose":3264,"espec":3265,"muestra":3266,"il":3267,"##iados":3268,"##ray":3269,"alum":3270,"prueba":3271,"##VID":3272,"Gonz":3273,"Bel":3274,"Fer":3275,"sede":3276,"alter":3277,"##ándo":3278,"##ormente":3279,"##alizado":3280,"podrá":3281,"municipal":3282,"justicia":3283,"escenario":3284,"elementos":3285,"futbol":3286,"##lin":3287,"color":3288,"técnico":3289,"Buenos":3290,"Civil":3291,"Hasta":3292,"mer":3293,"tampoco":3294,"##tid":3295,"salida":3296,"##utin":3297,"cand":3298,"construcción":3299,"lograr":3300,"Ejecu":3301,"##mágenes":3302,"Cruz":3303,"Mo":3304,"ep":3305,"##ético":3306,"aleg":3307,"adv":3308,"logró":3309,"ocurrió":3310,"gobernador":3311,"Rodrí":3312,"Rodríguez":3313,"fer":3314,"##just":3315,"##qui":3316,"##mite":3317,"mater":3318,"añadió":3319,"familiares":3320,"45":3321,"firm":3322,"venta":3323,"##arra":3324,"acce":3325,"##tarse":3326,"##año":3327,"armas":3328,"posición":3329,"menores":3330,"hacerlo":3331,"llevó":3332,"importancia":3333,"presentó":3334,"económico":3335,"Miguel":3336,"Aires":3337,"Bras":3338,"Cos":3339,"PS":3340,"PP":3341,"iba":3342,"lista":3343,"dev":3344,"##ficiente":3345,"sabe":3346,"cifra":3347,"bás":3348,"##ardia":3349,"##cima":3350,"##migo":3351,"cumplir":3352,"EE":3353,"##taciones":3354,"##éf":3355,"##ivos":3356,"marcha":3357,"Alber":3358,"Def":3359,"Real":3360,"llegada":3361,"cierto":3362,"América":3363,"mandatario":3364,"vista":3365,"##si":3366,"##gre":3367,"##ese":3368,"##illas":3369,"##tora":3370,"trabajos":3371,"##ectá":3372,"80":3373,"Po":3374,"##orge":3375,"queda":3376,"accidente":3377,"199":3378,"viaje":3379,"hogar":3380,"sob":3381,"##arla":3382,"##cin":3383,"##igu":3384,"##gram":3385,"niveles":3386,"educación":3387,"artícul":3388,"entrevista":3389,"Secretaría":3390,"Bo":3391,"lar":3392,"univers":3393,"escal":3394,"##dios":3395,"consumo":3396,"##ablemente":3397,"coordin":3398,"##venida":3399,"##ím":3400,"##onado":3401,"asum":3402,"Esc":3403,"##teriormente":3404,"participar":3405,"promo":3406,"disfrutar":3407,"COVID":3408,"70":3409,"atrás":3410,"##tim":3411,"partes":3412,"aband":3413,"creo":3414,"colec":3415,"actualmente":3416,"incor":3417,"llamado":3418,"comentó":3419,"tercera":3420,"##entan":3421,"excl":3422,"pasó":3423,"contag":3424,"distintas":3425,"ocasiones":3426,"clave":3427,"bloque":3428,"Brasil":3429,"##tia":3430,"perder":3431,"existe":3432,"presup":3433,"Chile":3434,"Francis":3435,"Justicia":3436,"ampli":3437,"Vic":3438,"torneo":3439,"##ical":3440,"pago":3441,"##ecido":3442,"judi":3443,"central":3444,"tecnología":3445,"película":3446,"beb":3447,"cic":3448,"imágenes":3449,"##zón":3450,"permit":3451,"##énero":3452,"seguro":3453,"producto":3454,"fuentes":3455,"reconoc":3456,"localidad":3457,"Presidente":3458,"Putin":3459,"sean":3460,"##rami":3461,"iniciativa":3462,"espacios":3463,"conseguir":3464,"##erto":3465,"estruc":3466,"renov":3467,"concluy":3468,"candid":3469,"Cámara":3470,"Mes":3471,"testi":3472,"##ila":3473,"acum":3474,"solu":3475,"##endencia":3476,"herrami":3477,"##tural":3478,"padres":3479,"ofrece":3480,"edifici":3481,"siguiente":3482,"Ayuntamiento":3483,"pacientes":3484,"rad":3485,"estrel":3486,"##olver":3487,"mantiene":3488,"##alizó":3489,"dosis":3490,"única":3491,"instituciones":3492,"duda":3493,"sé":3494,"tro":3495,"pasada":3496,"contrato":3497,"##jeron":3498,"opción":3499,"Anton":3500,"responsabilidad":3501,"vivienda":3502,"##estre":3503,"##ultad":3504,"##iego":3505,"##iver":3506,"podrían":3507,"lugares":3508,"representa":3509,"##atorio":3510,"industria":3511,"Ejecutivo":3512,"##ablo":3513,"exten":3514,"##adoras":3515,"motivo":3516,"ofrecer":3517,"dob":3518,"unidad":3519,"suma":3520,"apenas":3521,"2018":3522,"##endiente":3523,"##ráfico":3524,"Em":3525,"domici":3526,"unidades":3527,"##lement":3528,"adecu":3529,"transporte":3530,"transform":3531,"quieren":3532,"Barcel":3533,"detalles":3534,"manifestó":3535,"Mus":3536,"Rob":3537,"##mor":3538,"##bil":3539,"##ónica":3540,"##ches":3541,"compra":3542,"##orme":3543,"##cep":3544,"disp":3545,"pele":3546,"##epresid":3547,"Europe":3548,"sostuvo":3549,"Cul":3550,"##gó":3551,"##olu":3552,"##isa":3553,"protección":3554,"##imientos":3555,"Ante":3556,"formación":3557,"declaraciones":3558,"intens":3559,"etapa":3560,"##estruc":3561,"términ":3562,"Her":3563,"Pas":3564,"pér":3565,"##ativo":3566,"retir":3567,"requier":3568,"acer":3569,"Unión":3570,"crear":3571,"funcionarios":3572,"##ológico":3573,"glob":3574,"hon":3575,"pin":3576,"##cent":3577,"reducir":3578,"##echo":3579,"agentes":3580,"sectores":3581,"vivir":3582,"herm":3583,"humanos":3584,"adelan":3585,"Nueva":3586,"pidió":3587,"incremento":3588,"90":3589,"Cómo":3590,"fortal":3591,"sir":3592,"vía":3593,"act":3594,"acudi":3595,"sitio":3596,"siguen":3597,"pun":3598,"vin":3599,"voc":3600,"##zul":3601,"evid":3602,"diferencia":3603,"bastante":3604,"recomend":3605,"incorpor":3606,"Francisco":3607,"##onio":3608,"invers":3609,"verano":3610,"señala":3611,"registr":3612,"Finalmente":3613,"sorpren":3614,"limp":3615,"gri":3616,"##itales":3617,"realizado":3618,"nuestras":3619,"entrada":3620,"Casa":3621,"profesionales":3622,"cantante":3623,"Barcelona":3624,"Ap":3625,"##onos":3626,"##entíf":3627,"##ilit":3628,"llega":3629,"Constitu":3630,"centros":3631,"Social":3632,"rendi":3633,"somos":3634,"##ertura":3635,"##rios":3636,"acerc":3637,"##tric":3638,"Uno":3639,"cambiar":3640,"conocido":3641,"ingresos":3642,"contexto":3643,"individ":3644,"dolor":3645,"Dan":3646,"bor":3647,"on":3648,"##esta":3649,"estim":3650,"coleg":3651,"198":3652,"##tillo":3653,"artista":3654,"inmedia":3655,"oferta":3656,"##fe":3657,"##drá":3658,"coloc":3659,"##ribuy":3660,"próximos":3661,"##telig":3662,"periodo":3663,"contacto":3664,"conflicto":3665,"Nos":3666,"gal":3667,"##día":3668,"##dica":3669,"##edi":3670,"conven":3671,"comba":3672,"##rump":3673,"dismin":3674,"juicio":3675,"candida":3676,"adul":3677,"decidió":3678,"cerc":3679,"volun":3680,"Agu":3681,"Domin":3682,"Jorge":3683,"delito":3684,"##enciales":3685,"confirmó":3686,"##endido":3687,"alimentos":3688,"razón":3689,"intervención":3690,"Internacional":3691,"Econ":3692,"Go":3693,"Qatar":3694,"##ticas":3695,"protes":3696,"perten":3697,"extran":3698,"miles":3699,"políticos":3700,"desarroll":3701,"Servici":3702,"pocos":3703,"teléf":3704,"36":3705,"Educ":3706,"Pablo":3707,"##oro":3708,"contó":3709,"##ulación":3710,"levan":3711,"paz":3712,"##rupción":3713,"##ército":3714,"estudiantes":3715,"clientes":3716,"noticia":3717,"administración":3718,"argentino":3719,"título":3720,"dieron":3721,"’,":3722,"simple":3723,"negocio":3724,"ocasión":3725,"convertir":3726,"periodista":3727,"%)":3728,"Bal":3729,"Lat":3730,"sosp":3731,"##ki":3732,"##él":3733,"##tieron":3734,"reserv":3735,"finales":3736,"evalu":3737,"pantal":3738,"barrio":3739,"Francia":3740,"Biden":3741,"Obr":3742,"nav":3743,"sín":3744,"##ice":3745,"realmente":3746,"##ivas":3747,"Estos":3748,"considera":3749,"generar":3750,"denuncia":3751,"Gonzá":3752,"34":3753,"Bor":3754,"Tran":3755,"puso":3756,"tus":3757,"##ónde":3758,"##diendo":3759,"propor":3760,"diez":3761,"diario":3762,"quién":3763,"afirm":3764,"tendrán":3765,"internacionales":3766,"juez":3767,"tradici":3768,"demostr":3769,"Villa":3770,"pág":3771,"trá":3772,"##ry":3773,"suje":3774,"común":3775,"##aca":3776,"recog":3777,"quin":3778,"##ducción":3779,"oposición":3780,"primeras":3781,"Cabe":3782,"Hab":3783,"encima":3784,"##itas":3785,"##reno":3786,"tiempos":3787,"dirección":3788,"ganó":3789,"aquellos":3790,"González":3791,"Covid":3792,"Fuer":3793,"The":3794,"##her":3795,"##édi":3796,"porta":3797,"##tería":3798,"carre":3799,"##mania":3800,"bienes":3801,"##andro":3802,"secretario":3803,"estrategia":3804,"Ol":3805,"Pan":3806,"fab":3807,"##raestruc":3808,"##una":3809,"institución":3810,"médico":3811,"Banco":3812,"obtener":3813,"facil":3814,"hom":3815,"##pec":3816,"##izado":3817,"##ati":3818,"produ":3819,"diálogo":3820,"preten":3821,"implement":3822,"combust":3823,"emergencia":3824,"materia":3825,"aire":3826,"det":3827,"estadio":3828,"coron":3829,"Perú":3830,"amarilla":3831,"Rom":3832,"cay":3833,"##itivo":3834,"Algun":3835,"pese":3836,"prisión":3837,"cierre":3838,"demás":3839,"Gra":3840,"cel":3841,"covid":3842,"grados":3843,"##gles":3844,"##riendo":3845,"##lesc":3846,"ahor":3847,"Rey":3848,"vicepresid":3849,"terminó":3850,"Alej":3851,"máxima":3852,"fru":3853,"jur":3854,"’.":3855,"##tiendo":3856,"##leo":3857,"##dap":3858,"##cionar":3859,"subray":3860,"principio":3861,"prior":3862,"Alemania":3863,"función":3864,"Públ":3865,"##dente":3866,"##enes":3867,"##amá":3868,"habitu":3869,"luch":3870,"cosa":3871,"##áticos":3872,"tasa":3873,"Alberto":3874,"Der":3875,"Hern":3876,"Hospital":3877,"Mas":3878,"Sur":3879,"dud":3880,"otor":3881,"urg":3882,"##vent":3883,"##eda":3884,"##tt":3885,"##olo":3886,"alcan":3887,"##ulos":3888,"Fac":3889,"due":3890,"género":3891,"##gl":3892,"##isc":3893,"versión":3894,"##anzas":3895,"continuar":3896,"instalaciones":3897,"Obrador":3898,"32":3899,"curso":3900,"dura":3901,"fase":3902,"##ke":3903,"##ombi":3904,"##dimiento":3905,"nota":3906,"salió":3907,"confianza":3908,"superior":3909,"pequeño":3910,"correspondi":3911,"Sp":3912,"Ter":3913,"móvil":3914,"##oder":3915,"tenga":3916,"##jeros":3917,"relaciones":3918,"Andrés":3919,"Mac":3920,"Ob":3921,"adap":3922,"áreas":3923,"##ienen":3924,"##enciones":3925,"ano":3926,"conserv":3927,"##onato":3928,"volvió":3929,"Provin":3930,"movimiento":3931,"responsable":3932,"positivo":3933,"categoría":3934,"US":3935,"os":3936,"detec":3937,"##ash":3938,"lament":3939,"##isis":3940,"tratar":3941,"argu":3942,"peor":3943,"##tilla":3944,"##ática":3945,"esfuerzo":3946,"Trans":3947,"##tadas":3948,"##ende":3949,"##estiv":3950,"##tirá":3951,"correc":3952,"escol":3953,"mesa":3954,"declaró":3955,"encontraba":3956,"promedio":3957,"ru":3958,"ép":3959,"##are":3960,"##ork":3961,"##aco":3962,"dispu":3963,"llegado":3964,"mismos":3965,"aproxim":3966,"votos":3967,"concent":3968,"laboral":3969,"Martínez":3970,"Gab":3971,"cora":3972,"ta":3973,"ín":3974,"##tantes":3975,"##uelas":3976,"##tual":3977,"nueve":3978,"##ificar":3979,"públicos":3980,"completo":3981,"próxima":3982,"bueno":3983,"pensar":3984,"disposición":3985,"Antonio":3986,"toc":3987,"tierra":3988,"suminist":3989,"##irus":3990,"destino":3991,"León":3992,"ministra":3993,"recuperación":3994,"Municipal":3995,"federal":3996,"Jes":3997,"pier":3998,"suel":3999,"##árez":4000,"##omas":4001,"delan":4002,"log":4003,"actor":4004,"Estas":4005,"reforma":4006,"subs":4007,"sanciones":4008,"##úsque":4009,"fundamental":4010,"escribió":4011,"Pat":4012,"##rer":4013,"##años":4014,"##ocidad":4015,"pase":4016,"pedido":4017,"Santia":4018,"respec":4019,"##aturas":4020,"adolesc":4021,"caída":4022,"Ben":4023,"Ber":4024,"Sen":4025,"afici":4026,"dia":4027,"mec":4028,"##misión":4029,"##lio":4030,"##ól":4031,"##racia":4032,"prem":4033,"impres":4034,"##rup":4035,"tot":4036,"debería":4037,"tuvieron":4038,"##ológica":4039,"sacar":4040,"alcanzar":4041,"detenido":4042,"Santiago":4043,"33":4044,"Norte":4045,"##idamente":4046,"porcent":4047,"desaf":4048,"puedes":4049,"##echos":4050,"agre":4051,"peso":4052,"profun":4053,"##álisis":4054,"incluye":4055,"IN":4056,"norma":4057,"tir":4058,"##ética":4059,"aclar":4060,"##cepción":4061,"##aliza":4062,"colombi":4063,"ciudades":4064,"diferente":4065,"cultura":4066,"Federal":4067,"Mos":4068,"Puerto":4069,"ajust":4070,"##fa":4071,"##rique":4072,"##taba":4073,"debate":4074,"científ":4075,"propiedad":4076,"modi":4077,"oficiales":4078,"referencia":4079,"300":4080,"dónde":4081,"voy":4082,"##rum":4083,"##olina":4084,"empren":4085,"finalmente":4086,"Insta":4087,"dicen":4088,"actualidad":4089,"vive":4090,"Super":4091,"##ístico":4092,"Central":4093,"televisión":4094,"velocidad":4095,"Sobre":4096,"nar":4097,"##jar":4098,"##oluc":4099,"relev":4100,"continúa":4101,"recordar":4102,"origen":4103,"penal":4104,"Instagram":4105,"Ba":4106,"Dav":4107,"Ger":4108,"Plan":4109,"##pol":4110,"##ticos":4111,"##ortar":4112,"inau":4113,"cuestión":4114,"##teras":4115,"presentación":4116,"voz":4117,"supuesto":4118,"puerta":4119,"pronto":4120,"daños":4121,"triunfo":4122,"electoral":4123,"Blan":4124,"PR":4125,"lig":4126,"##ianos":4127,"##cur":4128,"incon":4129,"rech":4130,"##emen":4131,"indica":4132,"empezó":4133,"doble":4134,"Org":4135,"Pé":4136,"firma":4137,"estatal":4138,"export":4139,"infraestruc":4140,"Deb":4141,"Asoci":4142,"report":4143,"libro":4144,"program":4145,"expertos":4146,"mexicano":4147,"Defensa":4148,"Educación":4149,"fabric":4150,"##úsqueda":4151,"##anda":4152,"envi":4153,"entorno":4154,"delitos":4155,"##encil":4156,"##ieza":4157,"##quez":4158,"niño":4159,"decisiones":4160,"generación":4161,"ambiente":4162,"##grafía":4163,"Dios":4164,"Nues":4165,"dro":4166,"vio":4167,"##AS":4168,"##fac":4169,"##dico":4170,"##ést":4171,"##titud":4172,"cita":4173,"defens":4174,"gratu":4175,"virus":4176,"contenido":4177,"Pos":4178,"##ka":4179,"apre":4180,"##ruguay":4181,"invas":4182,"estudios":4183,"recordó":4184,"discurso":4185,"competi":4186,"famos":4187,"pien":4188,"##ativas":4189,"##ts":4190,"##cios":4191,"separ":4192,"##itarios":4193,"##taria":4194,"entrar":4195,"derecha":4196,"funcionario":4197,"operación":4198,"aplicación":4199,"fondos":4200,"cuidado":4201,"vincul":4202,"75":4203,"atender":4204,"##jero":4205,"deja":4206,"##onados":4207,"deleg":4208,"##icidad":4209,"dific":4210,"experim":4211,"Partido":4212,"mostró":4213,"Cristina":4214,"contrario":4215,"garantizar":4216,"Pérez":4217,"adi":4218,"aten":4219,"coci":4220,"hosp":4221,"demas":4222,"elabor":4223,"##ecciones":4224,"intelig":4225,"##ural":4226,"##ierte":4227,"##rimonio":4228,"arro":4229,"##avirus":4230,"dejado":4231,"planes":4232,"insist":4233,"recibido":4234,"comprar":4235,"human":4236,"compañeros":4237,"banda":4238,"queremos":4239,"colaboración":4240,"Sus":4241,"frac":4242,"ileg":4243,"rum":4244,"##últi":4245,"pedir":4246,"quiero":4247,"cine":4248,"esperar":4249,"madru":4250,"Club":4251,"ejercicio":4252,"síntom":4253,"Gru":4254,"Ra":4255,"sen":4256,"sencil":4257,"##th":4258,"##cidad":4259,"altura":4260,"impos":4261,"##ensión":4262,"comunidades":4263,"Díaz":4264,"supone":4265,"acceder":4266,"Mal":4267,"goles":4268,"##ws":4269,"presenta":4270,"arma":4271,"creación":4272,"opciones":4273,"ofreci":4274,"vacunación":4275,"sorpres":4276,"digital":4277,"Tenemos":4278,"habitantes":4279,"fiesta":4280,"rechaz":4281,"38":4282,"May":4283,"So":4284,"ruta":4285,"##emp":4286,"##mon":4287,"##orta":4288,"ense":4289,"##idar":4290,"##omo":4291,"perdió":4292,"##alizada":4293,"organismo":4294,"usar":4295,"sexual":4296,"presupuesto":4297,"corazón":4298,"',":4299,"400":4300,"Amb":4301,"var":4302,"##entado":4303,"resist":4304,"arte":4305,"solución":4306,"inició":4307,"Desarrol":4308,"objetivos":4309,"declaración":4310,"ocurrido":4311,"ambas":4312,"cuarto":4313,"Diego":4314,"dan":4315,"gesti":4316,"##irió":4317,"##dado":4318,"##etas":4319,"##sas":4320,"##ismos":4321,"##itado":4322,"resal":4323,"regional":4324,"presidenta":4325,"197":4326,"coin":4327,"municipios":4328,"efectos":4329,"frontera":4330,"madrugada":4331,"Cer":4332,"Hum":4333,"##onda":4334,"entender":4335,"acon":4336,"patr":4337,"municipales":4338,"permitir":4339,"operaciones":4340,"décadas":4341,"alterna":4342,"domicilio":4343,"II":4344,"búsqueda":4345,"sesión":4346,"tratamiento":4347,"tengan":4348,"arran":4349,"##nov":4350,"carga":4351,"reciente":4352,"presentar":4353,"##cionales":4354,"puestos":4355,"efecto":4356,"integrantes":4357,"organizaciones":4358,"existen":4359,"viviendas":4360,"respeto":4361,"celebra":4362,"lluvias":4363,"Cap":4364,"Dip":4365,"detrás":4366,"##onel":4367,"Entonces":4368,"presión":4369,"habla":4370,"##voz":4371,"plaza":4372,"valores":4373,"movil":4374,"oportunidades":4375,"encab":4376,"entrenador":4377,"competencia":4378,"opinión":4379,"izquierda":4380,"Europea":4381,"Serg":4382,"homici":4383,"árb":4384,"##pl":4385,"##cle":4386,"deri":4387,"##inales":4388,"##ulas":4389,"despe":4390,"calific":4391,"##endió":4392,"##ránsito":4393,"clim":4394,"comercial":4395,"seleccion":4396,"justo":4397,"directora":4398,"miedo":4399,"fondo":4400,"Nicol":4401,"Jav":4402,"nie":4403,"##pes":4404,"##ulado":4405,"##ató":4406,"lejos":4407,"infl":4408,"Porque":4409,"grab":4410,"toma":4411,"histor":4412,"intención":4413,"ingreso":4414,"##tienen":4415,"Mic":4416,"Mari":4417,"soy":4418,"##fas":4419,"##tino":4420,"##remos":4421,"##iencias":4422,"cumple":4423,"##tarios":4424,"##blos":4425,"esposa":4426,"cree":4427,"escuela":4428,"Valencia":4429,"concre":4430,"procesos":4431,"increment":4432,"Costa":4433,"judicial":4434,"candidato":4435,"teléfono":4436,"Cada":4437,"Emp":4438,"Fu":4439,"He":4440,"Pen":4441,"pilo":4442,"##mento":4443,"##ini":4444,"cuentas":4445,"acord":4446,"##iero":4447,"puedo":4448,"beneficios":4449,"funciones":4450,"disponible":4451,"consecuencia":4452,"campeón":4453,"artículo":4454,"coronavirus":4455,"Desarrollo":4456,"Be":4457,"Pu":4458,"Río":4459,"bel":4460,"##AR":4461,"##fes":4462,"##mpe":4463,"fuertes":4464,"insp":4465,"##ducido":4466,"pequeños":4467,"rusos":4468,"operativo":4469,"portavoz":4470,"Don":4471,"Sh":4472,"Ta":4473,"dur":4474,"ps":4475,"sil":4476,"##arca":4477,"##amento":4478,"tray":4479,"##imen":4480,"tenían":4481,"legal":4482,"minuto":4483,"rápido":4484,"policial":4485,"##estival":4486,"época":4487,"Grupo":4488,"Fr":4489,"##ité":4490,"Depor":4491,"escrib":4492,"moto":4493,"públicas":4494,"principios":4495,"diversos":4496,"diseño":4497,"trim":4498,"vide":4499,"##ique":4500,"##rue":4501,"##ck":4502,"##cado":4503,"##”,":4504,"##erte":4505,"##ienda":4506,"##tualmente":4507,"análisis":4508,"abrir":4509,"##mitió":4510,"necesidades":4511,"llegaron":4512,"representantes":4513,"gusta":4514,"peligro":4515,"temperatura":4516,"modific":4517,"síntomas":4518,"Ese":4519,"Hu":4520,"Hace":4521,"Mil":4522,"Raf":4523,"Sel":4524,"bre":4525,"pena":4526,"##viv":4527,"deuda":4528,"##idor":4529,"##ull":4530,"##bito":4531,"##ime":4532,"consol":4533,"siglo":4534,"costo":4535,"respal":4536,"darle":4537,"Arm":4538,"médicos":4539,"ubicado":4540,"líderes":4541,"deberá":4542,"diputado":4543,"global":4544,"actriz":4545,"65":4546,"OT":4547,"cán":4548,"cár":4549,"hará":4550,"##oz":4551,"##rás":4552,"estat":4553,"##ecía":4554,"suficiente":4555,"alma":4556,"comida":4557,"##deo":4558,"##ierno":4559,"##quina":4560,"premi":4561,"podía":4562,"realizará":4563,"autoridad":4564,"desarrollar":4565,"ataques":4566,"empleados":4567,"critic":4568,"documento":4569,"militares":4570,"diseñ":4571,"##égimen":4572,"Alejandro":4573,"Asociación":4574,"Sil":4575,"fre":4576,"##IF":4577,"deporte":4578,"##ciales":4579,"enorme":4580,"come":4581,"dijeron":4582,"murió":4583,"involuc":4584,"##lament":4585,"eventos":4586,"presentado":4587,"planta":4588,"tomó":4589,"Guardia":4590,"##ticamente":4591,"quería":4592,"empleo":4593,"conductor":4594,"Plata":4595,"industri":4596,"ventaja":4597,"Corte":4598,"Creo":4599,"York":4600,"cruz":4601,"num":4602,"pac":4603,"tam":4604,"vul":4605,"##aro":4606,"##onóm":4607,"##rob":4608,"##amble":4609,"##ili":4610,"##irch":4611,"##tario":4612,"conform":4613,"ciudadanía":4614,"##etido":4615,"principalmente":4616,"programas":4617,"circ":4618,"española":4619,"trip":4620,"Fernando":4621,"recuerda":4622,"edificio":4623,"Hernández":4624,"Diput":4625,"Sab":4626,"mic":4627,"nacionales":4628,"##ato":4629,"##íz":4630,"##cés":4631,"comisión":4632,"descan":4633,"implic":4634,"realiza":4635,"##lamento":4636,"seguidores":4637,"2017":4638,"material":4639,"celebración":4640,"mínimo":4641,"exclus":4642,"48":4643,"Ho":4644,"Pres":4645,"gobier":4646,"rue":4647,"ví":4648,"vas":4649,"Ál":4650,"departamento":4651,"estilo":4652,"surg":4653,"##diz":4654,"resolver":4655,"podido":4656,"Ind":4657,"Señ":4658,"mag":4659,"avance":4660,"revis":4661,"publicado":4662,"clases":4663,"puertas":4664,"artistas":4665,"cifras":4666,"abierto":4667,"figura":4668,"##últip":4669,"Dis":4670,"Mag":4671,"juntos":4672,"##tá":4673,"##ong":4674,"##antil":4675,"##tiles":4676,"activos":4677,"##ock":4678,"##trol":4679,"Esa":4680,"solamente":4681,"##iforn":4682,"regiones":4683,"Inv":4684,"Incl":4685,"propuestas":4686,"sabemos":4687,"Cuba":4688,"participantes":4689,"Joh":4690,"totalmente":4691,"Th":4692,"luc":4693,"##enos":4694,"##ritán":4695,"##ates":4696,"destin":4697,"próxim":4698,"##íodo":4699,"conocimiento":4700,"democracia":4701,"Dirección":4702,"Organ":4703,"invasión":4704,"##irchner":4705,"Ara":4706,"ON":4707,"Tribunal":4708,"##OE":4709,"##uegos":4710,"tienes":4711,"compartir":4712,"##hua":4713,"cadena":4714,"crimen":4715,"37":4716,"Mat":4717,"Sam":4718,"Vil":4719,"amigo":4720,"fisc":4721,"##vel":4722,"##ger":4723,"##bia":4724,"##ES":4725,"período":4726,"##ucle":4727,"##coh":4728,"##ecimiento":4729,"propios":4730,"orgul":4731,"juegos":4732,"desempe":4733,"diversas":4734,"animales":4735,"delantero":4736,"conferencia":4737,"##abel":4738,"##iere":4739,"##arial":4740,"abord":4741,"##écord":4742,"directamente":4743,"publicó":4744,"sufrió":4745,"reconocimiento":4746,"pregunta":4747,"satis":4748,"pérdida":4749,"aproximadamente":4750,"55":4751,"fir":4752,"hin":4753,"tren":4754,"##reras":4755,"##esa":4756,"espectá":4757,"##echas":4758,"fines":4759,"Departamento":4760,"dicha":4761,"esperan":4762,"desplaz":4763,"detalló":4764,"crédi":4765,"noticias":4766,"consecuencias":4767,"legisl":4768,"Jesús":4769,"Fel":4770,"Vol":4771,"múltip":4772,"##oque":4773,"##rón":4774,"##rus":4775,"##jal":4776,"##uerzos":4777,"resolución":4778,"cargos":4779,"regular":4780,"##venir":4781,"Castillo":4782,"habló":4783,"concluyó":4784,"Álvar":4785,"Ja":4786,"Nación":4787,"có":4788,"rit":4789,"récord":4790,"##ósito":4791,"anteriores":4792,"arri":4793,"terror":4794,"maes":4795,"señalado":4796,"estarán":4797,"electr":4798,"publicación":4799,"asistencia":4800,"asesin":4801,"razones":4802,"##mática":4803,"Atl":4804,"##tróleo":4805,"soluciones":4806,"Algunos":4807,"OTAN":4808,"Au":4809,"Cór":4810,"britán":4811,"ros":4812,"urb":4813,"conec":4814,"##icana":4815,"##tig":4816,"estados":4817,"suerte":4818,"nove":4819,"prohib":4820,"cuyo":4821,"cuentan":4822,"##teros":4823,"##ieran":4824,"restric":4825,"impuestos":4826,"Unido":4827,"Inf":4828,"##culos":4829,"calor":4830,"situaciones":4831,"herman":4832,"completamente":4833,"intereses":4834,"concep":4835,"pantalla":4836,"44":4837,"Fon":4838,"Os":4839,"Ric":4840,"régimen":4841,"##arte":4842,"##icías":4843,"delin":4844,"##riel":4845,"##eler":4846,"provincial":4847,"regreso":4848,"estadounidenses":4849,"similar":4850,"ucraniano":4851,"Federación":4852,"Solo":4853,"contagios":4854,"tradicional":4855,"David":4856,"Rafa":4857,"Ital":4858,"Leg":4859,"Oc":4860,"UE":4861,"cá":4862,"ido":4863,"ves":4864,"##óstico":4865,"ingen":4866,"requis":4867,"##erop":4868,"##umbre":4869,"teniendo":4870,"texto":4871,"agenda":4872,"corrupción":4873,"informado":4874,"recientemente":4875,"Reino":4876,"refor":4877,"llamada":4878,"terminar":4879,"recuperar":4880,"robo":4881,"audiencia":4882,"Ca":4883,"##ix":4884,"##dó":4885,"##ox":4886,"##oper":4887,"##MI":4888,"##adal":4889,"estén":4890,"##ánd":4891,"tele":4892,"interpre":4893,"trabaja":4894,"Alf":4895,"agencia":4896,"corto":4897,"##ristas":4898,"dirigente":4899,"##mites":4900,"hotel":4901,"##glés":4902,"dificultad":4903,"Córdo":4904,"42":4905,"lic":4906,"rival":4907,"##dores":4908,"##ñez":4909,"##cina":4910,"##rano":4911,"manda":4912,"pasos":4913,"capa":4914,"coche":4915,"previsto":4916,"destaca":4917,"registró":4918,"sistemas":4919,"administra":4920,"Tal":4921,"cat":4922,"ment":4923,"pul":4924,"tráfico":4925,"##áles":4926,"##ónico":4927,"alcoh":4928,"Está":4929,"informa":4930,"actuación":4931,"##istema":4932,"tendencia":4933,"convirtió":4934,"comercio":4935,"responsables":4936,"Morena":4937,"contemp":4938,"Palacio":4939,"adultos":4940,"carretera":4941,"Javier":4942,"vulner":4943,"46":4944,"Af":4945,"Zel":4946,"hid":4947,"##didas":4948,"##ky":4949,"##uelos":4950,"##ines":4951,"anal":4952,"pasaj":4953,"lesiones":4954,"aumentar":4955,"humano":4956,"beneficio":4957,"acusado":4958,"negocios":4959,"turno":4960,"recorrido":4961,"física":4962,"Aust":4963,"Fund":4964,"Otro":4965,"azul":4966,"nucle":4967,"pis":4968,"##men":4969,"##udo":4970,"##hab":4971,"estad":4972,"parecer":4973,"pueblos":4974,"##arago":4975,"terreno":4976,"escuelas":4977,"##ribución":4978,"heridos":4979,"vacuna":4980,"identidad":4981,"clase":4982,"sueño":4983,"absol":4984,"migrantes":4985,"derrota":4986,"incendio":4987,"aus":4988,"lider":4989,"pide":4990,"rod":4991,"##enten":4992,"perdido":4993,"##quía":4994,"##udic":4995,"petróleo":4996,"repro":4997,"logrado":4998,"causas":4999}}}