{"version":"1.0","truncation":null,"padding":null,"added_tokens":[{"id":0,"special":true,"content":"<UNK>","single_word":false,"lstrip":false,"rstrip":false,"normalized":false},{"id":1,"special":true,"content":"<SEP>","single_word":false,"lstrip":false,"rstrip":false,"normalized":false},{"id":2,"special":true,"content":"<MASK>","single_word":false,"lstrip":false,"rstrip":false,"normalized":false},{"id":3,"special":true,"content":"<CLS>","single_word":false,"lstrip":false,"rstrip":false,"normalized":false}],"normalizer":null,"pre_tokenizer":{"type":"Whitespace"},"post_processor":null,"decoder":null,"model":{"type":"BPE","dropout":null,"unk_token":"<UNK>","continuing_subword_prefix":null,"end_of_word_suffix":null,"fuse_unk":false,"vocab":{"<UNK>":0,"<SEP>":1,"<MASK>":2,"<CLS>":3,"!":4,"\"":5,"$":6,"%":7,"&":8,"'":9,"(":10,")":11,"*":12,"+":13,",":14,"-":15,".":16,"/":17,"0":18,"1":19,"2":20,"3":21,"4":22,"5":23,"6":24,"7":25,"8":26,"9":27,":":28,";":29,"<":30,">":31,"?":32,"A":33,"B":34,"C":35,"D":36,"E":37,"F":38,"G":39,"H":40,"I":41,"J":42,"K":43,"L":44,"M":45,"N":46,"O":47,"P":48,"Q":49,"R":50,"S":51,"T":52,"U":53,"V":54,"W":55,"X":56,"Y":57,"Z":58,"`":59,"a":60,"b":61,"c":62,"d":63,"e":64,"f":65,"g":66,"h":67,"i":68,"j":69,"k":70,"l":71,"m":72,"n":73,"o":74,"p":75,"q":76,"r":77,"s":78,"t":79,"u":80,"v":81,"w":82,"x":83,"y":84,"z":85,"~":86,"£":87,"¤":88,"¦":89,"¨":90,"«":91,"¬":92,"®":93,"°":94,"±":95,"²":96,"³":97,"´":98,"·":99,"º":100,"»":101,"Á":102,"Å":103,"Ç":104,"È":105,"É":106,"Ó":107,"Ö":108,"×":109,"Ø":110,"Ü":111,"ß":112,"à":113,"á":114,"â":115,"ã":116,"ä":117,"å":118,"æ":119,"ç":120,"è":121,"é":122,"ê":123,"ë":124,"ì":125,"í":126,"î":127,"ï":128,"ð":129,"ñ":130,"ò":131,"ó":132,"ô":133,"ö":134,"ø":135,"ù":136,"ú":137,"û":138,"ü":139,"ý":140,"ć":141,"č":142,"ě":143,"ğ":144,"Ġ":145,"ĳ":146,"ķ":147,"ł":148,"ń":149,"ō":150,"ş":151,"š":152,"Ÿ":153,"Ž":154,"ž":155,"˜":156,"́":157,"̈":158,"̶":159,"ν":160,"ο":161,"ς":162,"υ":163,"Ў":164,"Р":165,"ю":166,"ђ":167,"–":168,"—":169,"‘":170,"’":171,"‚":172,"“":173,"”":174,"„":175,"†":176,"‡":177,"•":178,"…":179,"‰":180,"′":181,"‹":182,"₂":183,"€":184,"℃":185,"™":186,"⇧":187,"−":188,"≈":189,"⌘":190,"├":191,"▶":192,"★":193,"☆":194,"期":195,"静":196,"默":197,"":198,"﻿":199,"en":200,"er":201,"an":202,"de":203,"et":204,"in":205,"ij":206,"aa":207,"el":208,"st":209,"oo":210,"ie":211,"at":212,"ch":213,"ge":214,"on":215,"aar":216,"een":217,"al":218,"van":219,"is":220,"te":221,"oor":222,"ver":223,"het":224,"it":225,"op":226,"gen":227,"der":228,"den":229,"om":230,"or":231,"re":232,"aan":233,"oe":234,"le":235,"be":236,"he":237,"dat":238,"we":239,"ar":240,"voor":241,"cht":242,"ijn":243,"ing":244,"ijk":245,"iet":246,"ze":247,"je":248,"ken":249,"ur":250,"ol":251,"ou":252,"me":253,"met":254,"ig":255,"ra":256,"il":257,"zijn":258,"niet":259,"die":260,"uit":261,"sch":262,"De":263,"ik":264,"and":265,"un":266,"ro":267,"aat":268,"as":269,"og":270,"us":271,"men":272,"ste":273,"id":274,"ers":275,"ten":276,"ven":277,"rij":278,"se":279,"to":280,"ag":281,"wer":282,"ft":283,"sp":284,"over":285,"ook":286,"bij":287,"gel":288,"eer":289,"als":290,"am":291,"sen":292,"wor":293,"ter":294,"ve":295,"ien":296,"maar":297,"onder":298,"ru":299,"aal":300,"mo":301,"len":302,"af":303,"lijk":304,"of":305,"zo":306,"wel":307,"nen":308,"dan":309,"ad":310,"Het":311,"ap":312,"ben":313,"nog":314,"kt":315,"heb":316,"waar":317,"door":318,"eft":319,"ct":320,"ier":321,"sl":322,"ne":323,"kom":324,"acht":325,"ond":326,"vol":327,"ele":328,"eld":329,"ingen":330,"gr":331,"uur":332,"naar":333,"land":334,"kan":335,"tij":336,"atie":337,"dt":338,"ul":339,"pro":340,"do":341,"heeft":342,"im":343,"meer":344,"pl":345,"ist":346,"elijk":347,"was":348,"eren":349,"wee":350,"ak":351,"na":352,"ige":353,"isch":354,"dag":355,"wat":356,"ander":357,"kun":358,"jaar":359,"ke":360,"hij":361,"moet":362,"pen":363,"hebben":364,"bl":365,"ic":366,"ent":367,"zi":368,"ang":369,"worden":370,"In":371,"ont":372,"daar":373,"ant":374,"ieu":375,"gt":376,"zel":377,"geb":378,"ker":379,"ind":380,"ma":381,"dit":382,"mee":383,"ouw":384,"20":385,"vo":386,"veel":387,"zen":388,"oed":389,"es":390,"au":391,"heid":392,"oon":393,"nu":394,"tot":395,"wordt":396,"ger":397,"bet":398,"vr":399,"Dat":400,"geen":401,"igen":402,"wil":403,"zelf":404,"Ik":405,"man":406,"open":407,"per":408,"hu":409,"Al":410,"ber":411,"kl":412,"val":413,"min":414,"ische":415,"hou":416,"aag":417,"ok":418,"nieu":419,"wij":420,"tegen":421,"zich":422,"00":423,"dr":424,"itie":425,"icht":426,"ite":427,"ot":428,"ast":429,"Ne":430,"tijd":431,"ek":432,"gaan":433,"del":434,"aak":435,"aren":436,"komen":437,"zou":438,"En":439,"alle":440,"kunnen":441,"br":442,"gens":443,"du":444,"oek":445,"bo":446,"weer":447,"gem":448,"art":449,"bel":450,"em":451,"deze":452,"dig":453,"mensen":454,"Maar":455,"lu":456,"had":457,"ale":458,"gaat":459,"hun":460,"ies":461,"ed":462,"toe":463,"aten":464,"ac":465,"werk":466,"all":467,"mer":468,"twee":469,"delijk":470,"sten":471,"Neder":472,"goed":473,"ort":474,"dus":475,"stel":476,"di":477,"os":478,"oen":479,"ster":480,"hoo":481,"hoe":482,"elen":483,"oot":484,"werd":485,"cent":486,"Een":487,"zien":488,"con":489,"zet":490,"str":491,"haar":492,"ion":493,"doen":494,".”":495,"kw":496,"huis":497,"gro":498,"Nederland":499,"Rus":500,"zit":501,"gew":502,"echt":503,"bed":504,"agen":505,"ci":506,"lie":507,"staat":508,"ut":509,"act":510,"We":511,"ex":512,"tre":513,"maal":514,"blij":515,"par":516,"ug":517,"eten":518,"han":519,"weg":520,"fe":521,"aakt":522,"innen":523,"ko":524,"jes":525,"andere":526,"pol":527,"sn":528,"deel":529,"moe":530,"moeten":531,"zoek":532,"gev":533,"eel":534,"pr":535,"mijn":536,"lang":537,"eg":538,"ir":539,"pt":540,"oord":541,"mil":542,"uk":543,"maken":544,"eigen":545,"Daar":546,"alen":547,"keer":548,"krij":549,"ple":550,"amen":551,"plaat":552,"ran":553,"org":554,"ged":555,"nieuwe":556,"tra":557,"recht":558,"iets":559,"won":560,"com":561,"pre":562,"ussen":563,"iek":564,"iden":565,"vin":566,"ble":567,"laat":568,"erg":569,"staan":570,"hier":571,"kken":572,"zal":573,"Er":574,"vrij":575,"iteit":576,"ië":577,"orm":578,"komt":579,"Als":580,"eens":581,"ine":582,"heel":583,"win":584,"mis":585,"beg":586,"dien":587,"ders":588,"ons":589,"toch":590,"pers":591,"ert":592,"ide":593,"oeg":594,"erd":595,"no":596,"av":597,"Ze":598,"ater":599,"nat":600,"ab":601,"net":602,"zegt":603,"eur":604,"eerste":605,"aam":606,"racht":607,"oren":608,"Oek":609,"houden":610,"schap":611,"ks":612,"Ook":613,"Oekra":614,"maan":615,"politie":616,"mid":617,"Van":618,"deren":619,"tal":620,"hele":621,"kle":622,"ia":623,"Hij":624,"um":625,"geven":626,"uren":627,"gebru":628,"baar":629,"ood":630,"tussen":631,"Op":632,"alleen":633,"vert":634,"kend":635,"onden":636,"ip":637,"leven":638,"hem":639,"achter":640,"Oekraï":641,"bedrij":642,"gele":643,"her":644,"uiten":645,"snel":646,"nieuw":647,"ard":648,"lan":649,"cor":650,"St":651,"terug":652,"ogelijk":653,"ouwen":654,"omen":655,"even":656,"cr":657,"kel":658,"”,":659,"sie":660,"ooit":661,"auto":662,"ment":663,"volgens":664,"aad":665,"Die":666,"procent":667,"ings":668,"grote":669,"milj":670,"ef":671,"off":672,"mogelijk":673,"groot":674,"omdat":675,"ron":676,"zij":677,"iv":678,"get":679,"Eur":680,"su":681,"stand":682,"wacht":683,"Voor":684,"Je":685,"lig":686,"hel":687,"co":688,"gelijk":689,"zeg":690,"groe":691,"én":692,"ho":693,"oop":694,"Zo":695,"zonder":696,"lo":697,"sel":698,"wereld":699,"versch":700,"euro":701,"beeld":702,"ctie":703,"gest":704,"kr":705,"io":706,"An":707,"binnen":708,"are":709,"best":710,"Vol":711,"iel":712,"dens":713,"altijd":714,"toen":715,"ce":716,"gra":717,"gemeen":718,"Europ":719,"Dit":720,"samen":721,"waren":722,"gesch":723,"minder":724,"gewoon":725,"kijk":726,"elk":727,"hoog":728,"inter":729,"Ch":730,"la":731,"ging":732,"Le":733,"leg":734,"laten":735,"mij":736,"prij":737,"onze":738,"zoals":739,"ank":740,"fl":741,"uw":742,"plaats":743,"eds":744,"ister":745,"weten":746,"lijkt":747,"mar":748,"geld":749,"202":750,"gebruik":751,"ren":752,"ijf":753,"week":754,"jaren":755,"chte":756,"regel":757,"spre":758,"Ver":759,"19":760,"log":761,"besch":762,"kelijk":763,"spe":764,"anders":765,".\"":766,"cont":767,"ieder":768,"willen":769,"haal":770,"iem":771,"pas":772,"lucht":773,"res":774,"vallen":775,"pun":776,"Mar":777,"int":778,"kin":779,"steeds":780,"ullen":781,"drie":782,"Wat":783,"bur":784,"jon":785,"stad":786,"oten":787,"krijgen":788,"Met":789,"vor":790,"volgen":791,"dui":792,"fen":793,"fin":794,"gelopen":795,"strij":796,"kant":797,"rond":798,"zeker":799,"da":800,"hand":801,"sle":802,"aanse":803,"delen":804,"pe":805,"beter":806,"kon":807,"want":808,"elt":809,"onderzoek":810,"dru":811,"gez":812,"so":813,"partij":814,"oort":815,"amer":816,"On":817,"kre":818,"hal":819,"beur":820,"jar":821,"ser":822,"sdag":823,"Oekraïne":824,"één":825,").":826,"va":827,"vier":828,"tijdens":829,"zie":830,"laatste":831,"proble":832,"mag":833,"Br":834,"natuur":835,"Rusland":836,"ruim":837,"vl":838,"ga":839,"aast":840,"amp":841,"tien":842,"belan":843,"werken":844,"ragen":845,"blijven":846,"vraag":847,"kwam":848,"stem":849,"eerd":850,"stra":851,"Russ":852,"iemand":853,"oog":854,"ool":855,"verk":856,"bal":857,"ari":858,"bedrijf":859,"Bij":860,"buiten":861,"besl":862,"est":863,"ui":864,"oom":865,"roe":866,"verder":867,"aange":868,"avond":869,"000":870,"inds":871,"zig":872,"verl":873,"ult":874,"fd":875,"weet":876,"miljoen":877,"li":878,"ens":879,"woor":880,"za":881,"nemen":882,"verb":883,"eerder":884,"mers":885,"Fran":886,"aantal":887,"vooral":888,"aties":889,"bele":890,"tje":891,"ust":892,"energ":893,"Volgens":894,"verschil":895,"Sch":896,"enk":897,"zw":898,"ade":899,"actie":900,"Bel":901,"jarige":902,"ann":903,"maat":904,"sy":905,"voorbeeld":906,"organ":907,"vast":908,"nodig":909,"grijk":910,"nam":911,"nooit":912,"chten":913,"gemaakt":914,"zorg":915,"veil":916,"stap":917,"bu":918,"po":919,"pel":920,"aard":921,"zitten":922,"Na":923,"alles":924,"spel":925,"10":926,"Amer":927,"pu":928,"orgen":929,"Russische":930,"belangrijk":931,"ding":932,"coron":933,"ai":934,"vinden":935,"oem":936,"maak":937,"afgelopen":938,"ink":939,"plan":940,"voer":941,"dam":942,"kop":943,"water":944,"ja":945,"woord":946,"komst":947,"Sp":948,"zelfs":949,"bekend":950,"elkaar":951,"Amerik":952,"Dan":953,"organis":954,"ler":955,"zeggen":956,"Be":957,"king":958,"strijd":959,"slag":960,"ooi":961,"zetten":962,"ri":963,"ces":964,"goe":965,"zullen":966,"verd":967,"doel":968,"maakt":969,"Hoe":970,"licht":971,"oorlog":972,"bre":973,"boven":974,"handel":975,"etje":976,"oud":977,"kinderen":978,"ha":979,"vers":980,"sche":981,"ck":982,"He":983,"minister":984,"helemaal":985,"werden":986,"produ":987,"los":988,"verwacht":989,"allemaal":990,"pak":991,"heden":992,"aas":993,"niets":994,"blijft":995,"middel":996,"Om":997,"erde":998,"mat":999,"\",":1000,"ere":1001,"doet":1002,"stij":1003,"isten":1004,"Po":1005,"reden":1006,"elijke":1007,"vrouw":1008,"energie":1009,"zicht":1010,"kijken":1011,"ina":1012,"brand":1013,"if":1014,"bru":1015,"bere":1016,"bas":1017,"mom":1018,"les":1019,"Europe":1020,"duur":1021,"som":1022,"Nederlandse":1023,"vaak":1024,"stellen":1025,"wit":1026,"stig":1027,"veilig":1028,"via":1029,"tweede":1030,"richt":1031,"opt":1032,"Duit":1033,"leid":1034,"voet":1035,"moment":1036,"age":1037,"dagen":1038,"lub":1039,"halen":1040,"naast":1041,"201":1042,"rol":1043,"els":1044,"ling":1045,"mp":1046,"form":1047,"sing":1048,"vis":1049,"gas":1050,"kort":1051,"ein":1052,"wed":1053,"stuk":1054,"zelfde":1055,"lever":1056,"bren":1057,"landen":1058,"reg":1059,"hoofd":1060,"wijl":1061,"des":1062,"Deze":1063,"oos":1064,"natuurlijk":1065,"col":1066,"werkt":1067,"ieren":1068,"meld":1069,"app":1070,"zon":1071,"top":1072,"volle":1073,"markt":1074,"bijvoorbeeld":1075,"ijna":1076,"zoe":1077,"tig":1078,"50":1079,"eind":1080,"prijs":1081,"Vl":1082,"hoor":1083,"iedereen":1084,"kunt":1085,"lopen":1086,"ieden":1087,"geval":1088,"sinds":1089,"rag":1090,"schien":1091,"duidelijk":1092,"din":1093,"fil":1094,"schrij":1095,"groep":1096,"pos":1097,"gebeur":1098,"aart":1099,"fo":1100,"iken":1101,"grond":1102,"hadden":1103,"elden":1104,"dere":1105,"lende":1106,"wet":1107,"mogen":1108,"vrien":1109,"geleden":1110,"gang":1111,"gevo":1112,"leden":1113,"speel":1114,"qu":1115,"war":1116,"goede":1117,"Bo":1118,"lij":1119,"bouw":1120,"later":1121,"kn":1122,"30":1123,"paar":1124,"Ar":1125,"inig":1126,"pp":1127,"rec":1128,"krijgt":1129,"person":1130,"slecht":1131,"gemeente":1132,"zin":1133,"vangen":1134,"kent":1135,"eerst":1136,"ident":1137,"stu":1138,"zouden":1139,"tu":1140,"ern":1141,"stof":1142,"club":1143,"hard":1144,"gezet":1145,"denk":1146,"mot":1147,"zei":1148,"bank":1149,"hen":1150,"si":1151,"Am":1152,"zaak":1153,"druk":1154,"aire":1155,"Te":1156,"maanden":1157,"Ge":1158,"ief":1159,"ach":1160,"vand":1161,"genomen":1162,"itu":1163,"vindt":1164,"nation":1165,".’":1166,"gere":1167,"ay":1168,"ziek":1169,"amil":1170,"Waar":1171,"draa":1172,"ket":1173,"bijna":1174,"ris":1175,"raak":1176,"stre":1177,"air":1178,"ju":1179,"kende":1180,"soort":1181,"ton":1182,"enkele":1183,"ner":1184,"volg":1185,"vijf":1186,"tem":1187,"hog":1188,"Belg":1189,"last":1190,"lijke":1191,"sc":1192,"burg":1193,"Nu":1194,"To":1195,"gesl":1196,"ass":1197,"dia":1198,"mak":1199,"wege":1200,"eter":1201,"ation":1202,"rokken":1203,"extra":1204,"bedrijven":1205,"beste":1206,"bare":1207,"pres":1208,"publ":1209,"positie":1210,"mede":1211,"steun":1212,"wie":1213,"denken":1214,"bew":1215,"thuis":1216,"gedaan":1217,"genoeg":1218,"hebt":1219,"Of":1220,"ni":1221,"aldus":1222,"ob":1223,"vlucht":1224,"out":1225,"rijden":1226,"acc":1227,"Amerikaanse":1228,"vind":1229,"zom":1230,"vanaf":1231,"zoen":1232,"dacht":1233,"ikt":1234,"schijn":1235,"rel":1236,"sei":1237,"cl":1238,"straat":1239,"tr":1240,"spra":1241,"fr":1242,"gezien":1243,"rest":1244,"ban":1245,"beetje":1246,"Wil":1247,"namelijk":1248,"euw":1249,"geeft":1250,"reken":1251,"weken":1252,"terwijl":1253,"ciale":1254,"punt":1255,"Europese":1256,"gegeven":1257,"hul":1258,"weinig":1259,"eigenlijk":1260,"one":1261,"kreeg":1262,"lin":1263,"vragen":1264,"roken":1265,"aut":1266,"wik":1267,"itein":1268,"wijk":1269,"ans":1270,"gewee":1271,"ong":1272,"manier":1273,"seizoen":1274,"geweest":1275,"kracht":1276,"zorgen":1277,"lei":1278,"ondag":1279,"Re":1280,"vrouwen":1281,"ziet":1282,"erv":1283,"kans":1284,"aterdag":1285,"team":1286,"verschillende":1287,"Door":1288,"ied":1289,"verander":1290,"),":1291,"menten":1292,"’.":1293,"sport":1294,"’,":1295,"bep":1296,"basis":1297,"ving":1298,"dienst":1299,"Jo":1300,"teur":1301,"Europa":1302,"15":1303,"Gr":1304,"oopt":1305,"woon":1306,"igd":1307,"maakte":1308,"bi":1309,"ligt":1310,"ds":1311,"ts":1312,"bestuur":1313,"vak":1314,"straf":1315,"Is":1316,"cten":1317,"overheid":1318,"kosten":1319,"elke":1320,"meest":1321,"iteindelijk":1322,"lief":1323,"vandaag":1324,"EU":1325,"igde":1326,"atief":1327,"bete":1328,"oensdag":1329,"vrijdag":1330,"prijzen":1331,"kker":1332,"dem":1333,"probleem":1334,"conom":1335,"wedstrijd":1336,"tele":1337,"vre":1338,"Dus":1339,"moest":1340,"punten":1341,"tech":1342,"neem":1343,"reger":1344,"nis":1345,"anten":1346,"etin":1347,"gram":1348,"kil":1349,"stond":1350,"olen":1351,"anneer":1352,"ming":1353,"pan":1354,"aliteit":1355,"meter":1356,"ontwik":1357,"woning":1358,"zondag":1359,"ets":1360,"El":1361,"onnen":1362,"echter":1363,"klein":1364,"middels":1365,"daad":1366,"delijke":1367,"kab":1368,"maand":1369,"wijs":1370,"dood":1371,"geluk":1372,"foto":1373,"uid":1374,"zes":1375,"komende":1376,"zaterdag":1377,"media":1378,"blijkt":1379,"izen":1380,"inet":1381,"juist":1382,"betaal":1383,"enige":1384,"eerde":1385,"bent":1386,"ss":1387,"vanwege":1388,"vlie":1389,"inder":1390,"president":1391,"nacht":1392,"woensdag":1393,"nemers":1394,"zaken":1395,"Den":1396,"buur":1397,"hol":1398,"the":1399,"ruimte":1400,"Poetin":1401,"Mo":1402,"kamp":1403,"mannen":1404,"Niet":1405,"vanuit":1406,"persoon":1407,"vorig":1408,"Ja":1409,"kie":1410,"plek":1411,"langs":1412,"woners":1413,"maandag":1414,"voetbal":1415,"verg":1416,"oll":1417,"slacht":1418,"mu":1419,"ene":1420,"opge":1421,"ieten":1422,"mes":1423,"apen":1424,"dige":1425,"elde":1426,"misschien":1427,"alis":1428,"12":1429,"zak":1430,"onderdag":1431,"fun":1432,"heen":1433,"derde":1434,"gesteld":1435,"inst":1436,"famil":1437,"ov":1438,"betalen":1439,"sterdam":1440,"problemen":1441,"opnieuw":1442,"brengen":1443,"kabinet":1444,"valt":1445,"train":1446,"zwaar":1447,"teren":1448,"hoge":1449,"grootste":1450,"Amsterdam":1451,"up":1452,"Ap":1453,"Over":1454,"for":1455,"stop":1456,"schapp":1457,"jul":1458,"vang":1459,"begin":1460,"waarin":1461,"graag":1462,"ep":1463,"hulp":1464,"klim":1465,"gebruiken":1466,"kor":1467,"ta":1468,"veld":1469,"elekt":1470,"zoeken":1471,"hi":1472,"situ":1473,"school":1474,"Ant":1475,"Ma":1476,"rect":1477,"vorm":1478,"slachtoff":1479,"koop":1480,"spelen":1481,"kregen":1482,"lag":1483,"amb":1484,"geveer":1485,"iën":1486,"fa":1487,"volgende":1488,"regering":1489,"ning":1490,"houdt":1491,"idee":1492,"2022":1493,"start":1494,"test":1495,"18":1496,"ffen":1497,"uni":1498,"mens":1499,"huid":1500,"conc":1501,"liggen":1502,"gebied":1503,"zeer":1504,"schul":1505,"200":1506,"totaal":1507,"bericht":1508,"minu":1509,"kwart":1510,"kte":1511,"rijk":1512,"gewel":1513,"rum":1514,"stelling":1515,"zieken":1516,"dinsdag":1517,"Par":1518,"Zij":1519,"mooi":1520,"Apple":1521,"ogen":1522,"eert":1523,"ess":1524,"stappen":1525,"ff":1526,"che":1527,"nieuws":1528,"techn":1529,"zaam":1530,"iks":1531,"Ro":1532,"econom":1533,"kap":1534,"ilijk":1535,"mun":1536,"sh":1537,"dra":1538,"honder":1539,"pa":1540,"gekomen":1541,"hoop":1542,"dicht":1543,"ieke":1544,"utte":1545,"moeilijk":1546,"syste":1547,"Gron":1548,"anden":1549,"oof":1550,"verkl":1551,"trekken":1552,"regelen":1553,"leiding":1554,"ijs":1555,"oude":1556,"wen":1557,"yp":1558,"aller":1559,"bepaal":1560,"heids":1561,"sland":1562,"winkel":1563,"beleid":1564,"donderdag":1565,"gespre":1566,"ue":1567,"zu":1568,"verhaal":1569,"25":1570,"dingen":1571,"vel":1572,"ijnen":1573,"Onder":1574,"ting":1575,"miljard":1576,"Me":1577,"loop":1578,"mal":1579,"pop":1580,"meteen":1581,"uiteindelijk":1582,"cies":1583,"ian":1584,"ense":1585,"ploeg":1586,"Wij":1587,"boeren":1588,"leggen":1589,"Aan":1590,"tie":1591,"iging":1592,"jij":1593,"macht":1594,"ongeveer":1595,"waarom":1596,"belast":1597,"har":1598,"veren":1599,"olog":1600,"waardoor":1601,"rechter":1602,"Brit":1603,"schijnlijk":1604,"Wel":1605,"scher":1606,"welke":1607,"waarde":1608,"Hier":1609,"Oo":1610,"ën":1611,"Gro":1612,"Twee":1613,"cel":1614,"VV":1615,"cus":1616,"aars":1617,"naam":1618,"finan":1619,"Rutte":1620,"ice":1621,"neemt":1622,"Nederl":1623,"bezig":1624,"zodat":1625,"ctor":1626,"zoekers":1627,"Oekraïense":1628,"2021":1629,"gebruikt":1630,"NA":1631,"zoveel":1632,"partijen":1633,"gramma":1634,"Ben":1635,"gesp":1636,"wilde":1637,"16":1638,"100":1639,"elf":1640,"ore":1641,"oplos":1642,"ico":1643,"kleine":1644,"situatie":1645,"veroor":1646,"gezond":1647,"cie":1648,"lok":1649,"vond":1650,"duizen":1651,"organisatie":1652,"boek":1653,"horen":1654,"red":1655,"vorige":1656,"dis":1657,"lingen":1658,"tran":1659,"antwoor":1660,"moeder":1661,"ouders":1662,"jong":1663,"zomer":1664,"The":1665,"cijf":1666,"don":1667,"niks":1668,"waarbij":1669,"cties":1670,"achten":1671,"keu":1672,"bestaan":1673,"aring":1674,"geving":1675,"rechts":1676,"dre":1677,"pat":1678,"ustr":1679,"geworden":1680,"toekomst":1681,"helpen":1682,"nationale":1683,"elektr":1684,"go":1685,"zingen":1686,"aris":1687,"chter":1688,"gebracht":1689,"atuur":1690,"perio":1691,"66":1692,"speci":1693,"Antwer":1694,"zat":1695,"nadat":1696,"klimaat":1697,"inmiddels":1698,"verdien":1699,"oper":1700,"betre":1701,"richting":1702,"alist":1703,"west":1704,"jo":1705,"urn":1706,"welijk":1707,"gevaar":1708,"film":1709,"kers":1710,"keren":1711,"sk":1712,"Toen":1713,"moo":1714,"half":1715,"jan":1716,"nood":1717,"kilom":1718,"Wie":1719,"rit":1720,"iddel":1721,"centrum":1722,"ca":1723,"wanneer":1724,"daarom":1725,"num":1726,"17":1727,"Ter":1728,"loopt":1729,"ochten":1730,"verkeer":1731,"ima":1732,"einde":1733,"Gel":1734,"Zijn":1735,"model":1736,"kopen":1737,"sol":1738,"tro":1739,"gebouw":1740,"liet":1741,"raad":1742,"deed":1743,"huizen":1744,"groter":1745,"lijst":1746,"ontwikkel":1747,"wind":1748,"name":1749,"zitter":1750,"gevonden":1751,"langer":1752,"halve":1753,"familie":1754,"Kamer":1755,"tel":1756,"meeste":1757,"ioen":1758,"lekker":1759,"voldoen":1760,"centr":1761,"baan":1762,"wan":1763,"ras":1764,"corona":1765,"laag":1766,"prem":1767,"Mijn":1768,"bond":1769,"milit":1770,"oep":1771,"wegen":1772,"olie":1773,"programma":1774,"vertr":1775,"flatie":1776,"voerder":1777,"cces":1778,"rie":1779,"middag":1780,"vertelt":1781,"Want":1782,"mige":1783,"rust":1784,"precies":1785,"lange":1786,"personeel":1787,"accin":1788,"14":1789,"car":1790,"dom":1791,"fiets":1792,"imp":1793,"Duitsland":1794,"voeren":1795,"iteiten":1796,"ollar":1797,"Jan":1798,"voorbij":1799,"clus":1800,"periode":1801,"cu":1802,"zeven":1803,"kennen":1804,"Russen":1805,"wachten":1806,"fra":1807,"let":1808,"oemen":1809,"anderen":1810,"kamer":1811,"tjes":1812,"dec":1813,"leuk":1814,"terecht":1815,"probe":1816,"feest":1817,"verkie":1818,"huidige":1819,"dollar":1820,"noem":1821,"daarna":1822,"krijk":1823,"Veren":1824,"inflatie":1825,"egd":1826,"succes":1827,"kig":1828,"vat":1829,"onge":1830,"zichzelf":1831,"direct":1832,"kwamen":1833,"vakant":1834,"”.":1835,"stelt":1836,"hoeveel":1837,"Net":1838,"bak":1839,"lid":1840,"stru":1841,"beelden":1842,"prof":1843,"gedrag":1844,"systeem":1845,"ich":1846,"uil":1847,"ate":1848,"reven":1849,"meerdere":1850,"klaar":1851,"bod":1852,"stroom":1853,"China":1854,"beschik":1855,"woordig":1856,"sluiten":1857,"imin":1858,"feit":1859,"vader":1860,"gevoel":1861,"betekent":1862,"bar":1863,"line":1864,"rekening":1865,"Men":1866,"keur":1867,"ick":1868,"soms":1869,"formatie":1870,"gingen":1871,"kind":1872,"verde":1873,"denten":1874,"Ste":1875,"beper":1876,"waarschijnlijk":1877,"2020":1878,"jonge":1879,"sociale":1880,"ochtend":1881,"WK":1882,"grens":1883,"vlak":1884,"ziekenhuis":1885,"wis":1886,"voort":1887,"ject":1888,"volledig":1889,"Eer":1890,"neer":1891,"uiter":1892,"schade":1893,"asiel":1894,"Lu":1895,"bor":1896,"ator":1897,"gehad":1898,"hart":1899,"vuur":1900,"40":1901,"dor":1902,"afhan":1903,"kocht":1904,"regio":1905,"voorzitter":1906,"missie":1907,"Ph":1908,"leeft":1909,"slagen":1910,"haven":1911,"Uit":1912,"cre":1913,"toon":1914,"leu":1915,"pport":1916,"ka":1917,"mon":1918,"stil":1919,"contro":1920,"Toch":1921,"vakantie":1922,"wagen":1923,"zor":1924,"vestig":1925,"Un":1926,"ekt":1927,"niemand":1928,"dezelfde":1929,"bes":1930,"bescher":1931,"denkt":1932,"sterk":1933,"rente":1934,"kilometer":1935,"site":1936,"ijd":1937,"sto":1938,"crimin":1939,"maatschapp":1940,"VS":1941,"spraak":1942,"contra":1943,"kond":1944,"gemiddel":1945,"Daarnaast":1946,"lijn":1947,"past":1948,"cijfers":1949,".'":1950,"11":1951,"bat":1952,"nou":1953,"isme":1954,"landse":1955,"Groningen":1956,"gevallen":1957,"ids":1958,"plaatsen":1959,"serie":1960,"mooie":1961,"teken":1962,"heer":1963,"igens":1964,"minuten":1965,"momen":1966,"ry":1967,"klas":1968,"trek":1969,"offic":1970,"zegd":1971,"kampioen":1972,"muziek":1973,"belasting":1974,"afhankelijk":1975,"Ital":1976,"aanwe":1977,"isteren":1978,"kost":1979,"politiek":1980,"zag":1981,"Pro":1982,"elingen":1983,"its":1984,"erse":1985,"sluit":1986,"daarmee":1987,"vroeg":1988,"tegenwoordig":1989,"handen":1990,"wonen":1991,"Som":1992,"part":1993,"plat":1994,"meester":1995,"plannen":1996,"Duitse":1997,"',":1998,"Bra":1999,"leen":2000,"nor":2001,"uigen":2002,"ete":2003,"inci":2004,"oun":2005,"bijzonder":2006,"maatregelen":2007,"honderd":2008,"bus":2009,"las":2010,"vij":2011,"rug":2012,"begrij":2013,"deur":2014,"betrokken":2015,"haald":2016,"buurt":2017,"cult":2018,"huur":2019,"uig":2020,"provin":2021,"cris":2022,"hoogte":2023,"effe":2024,"gesloten":2025,"Geen":2026,"wa":2027,"aandacht":2028,"danks":2029,"imaal":2030,"activ":2031,"slechts":2032,"gevolg":2033,"med":2034,"houd":2035,"super":2036,"finale":2037,"21":2038,"24":2039,"Rot":2040,"mond":2041,"verantwoor":2042,"krijg":2043,"bleek":2044,"helft":2045,"pakken":2046,"nummer":2047,"chen":2048,"sla":2049,"winst":2050,"coach":2051,"fabr":2052,"vie":2053,"teel":2054,"oegen":2055,"gelegd":2056,"Heb":2057,"konden":2058,"stik":2059,"web":2060,"sep":2061,"atieve":2062,"wijf":2063,"roepen":2064,"Com":2065,"gezegd":2066,"veau":2067,"volk":2068,"werking":2069,"hoger":2070,"\".":2071,"enkel":2072,"opvang":2073,"gener":2074,"tit":2075,"uari":2076,"ieuw":2077,"werkers":2078,"gebeurt":2079,"uitge":2080,"iding":2081,"spr":2082,"weekend":2083,"standig":2084,"Noord":2085,"sm":2086,"zer":2087,"vervolgens":2088,"voc":2089,"België":2090,"direc":2091,"Daarom":2092,"ific":2093,"publiek":2094,"gesprek":2095,"13":2096,"Tot":2097,"bie":2098,"hy":2099,"inkt":2100,"stat":2101,"ity":2102,"berg":2103,"januari":2104,"Fe":2105,"san":2106,"vide":2107,"informatie":2108,"ign":2109,"voert":2110,"geweld":2111,"popul":2112,"ime":2113,"deling":2114,"midden":2115,"loc":2116,"pakt":2117,"FC":2118,"hang":2119,"ïn":2120,"inve":2121,"max":2122,"begon":2123,"graden":2124,"woordvoerder":2125,"meldt":2126,"Waarom":2127,"22":2128,"band":2129,"echte":2130,"gek":2131,"lees":2132,"Haag":2133,"winnen":2134,"verlie":2135,"bestaat":2136,"ase":2137,"dank":2138,"ners":2139,"sf":2140,"rem":2141,"begint":2142,"inderdaad":2143,"Min":2144,"aaf":2145,"regen":2146,"ussel":2147,"waarop":2148,"Man":2149,"juni":2150,"ill":2151,"mocr":2152,"belang":2153,"80":2154,"lop":2155,"atis":2156,"aanval":2157,"sector":2158,"zowel":2159,"plicht":2160,"diensten":2161,"risico":2162,"appar":2163,"beginnen":2164,"goo":2165,"gegaan":2166,"itic":2167,"rap":2168,"Engel":2169,"presen":2170,"makkelijk":2171,"controle":2172,"VO":2173,"aken":2174,"hetzelfde":2175,"olf":2176,"Brussel":2177,"bure":2178,"crisis":2179,"vergelijk":2180,"beide":2181,"comple":2182,"beren":2183,"zoon":2184,"wezen":2185,"gelo":2186,"slim":2187,"gebre":2188,"koers":2189,"matig":2190,"voldoende":2191,"boe":2192,"erk":2193,"gehouden":2194,"spron":2195,"ace":2196,"comp":2197,"leveren":2198,"gesproken":2199,"vertrouwen":2200,"Mis":2201,"Zelf":2202,"bouwen":2203,"gar":2204,"vir":2205,"vaart":2206,"teerd":2207,"verz":2208,"voorkomen":2209,"maart":2210,"spreken":2211,"speelt":2212,"bieden":2213,"voed":2214,"zing":2215,"witter":2216,"Vlaam":2217,"studenten":2218,"autom":2219,"negen":2220,"ack":2221,"Sur":2222,"Veel":2223,"bin":2224,"genoem":2225,"ugd":2226,"500":2227,"lich":2228,"Britse":2229,"VVD":2230,"aanwezig":2231,"gaf":2232,"ergens":2233,"terdam":2234,"zocht":2235,"daarvoor":2236,"werkelijk":2237,"regels":2238,"result":2239,"Rotterdam":2240,"Tru":2241,"ervoor":2242,"verse":2243,"hoef":2244,"woningen":2245,"visie":2246,"vriend":2247,"korte":2248,"premier":2249,"foon":2250,"vaccin":2251,"wn":2252,"ateg":2253,"zee":2254,"ram":2255,"tember":2256,"CO":2257,"hn":2258,"proces":2259,"klanten":2260,"kleur":2261,"Af":2262,"Open":2263,"ële":2264,"aagt":2265,"online":2266,"kunst":2267,"Alleen":2268,"politieke":2269,"legt":2270,"leger":2271,"slot":2272,"stelde":2273,"acties":2274,"slachtoffer":2275,"Pr":2276,"Zuid":2277,"gebe":2278,"leer":2279,"arm":2280,"Franse":2281,"belangrijke":2282,"verm":2283,"arbe":2284,"urs":2285,"hoeft":2286,"warm":2287,"personen":2288,"leider":2289,"september":2290,"D66":2291,"ys":2292,"ges":2293,"use":2294,"2019":2295,"schuw":2296,"flink":2297,"oplossing":2298,"verkiezingen":2299,"port":2300,"stuur":2301,"besp":2302,"anger":2303,"passen":2304,"burger":2305,"colle":2306,"vluchtelingen":2307,"besmet":2308,"Sinds":2309,"ix":2310,"wap":2311,"gevolgen":2312,"stemmen":2313,"Omdat":2314,"motor":2315,"sse":2316,"alt":2317,"lement":2318,"houder":2319,"offen":2320,"beslis":2321,"zware":2322,"niveau":2323,"bot":2324,"vi":2325,"voormal":2326,"daarbij":2327,"eks":2328,"bruari":2329,"stikstof":2330,"23":2331,"vies":2332,"verlen":2333,"verda":2334,"ikken":2335,"waarmee":2336,"hout":2337,"wintig":2338,"roep":2339,"dorp":2340,"dieren":2341,"deeld":2342,"ins":2343,"ellen":2344,"gemeester":2345,"verwij":2346,"ruk":2347,"exper":2348,"extre":2349,"kijkt":2350,"verdachte":2351,"ware":2352,"kern":2353,"februari":2354,"Boven":2355,"bepaalde":2356,"gebeuren":2357,"Ie":2358,"PS":2359,"bevol":2360,"seks":2361,"antwoord":2362,"Ol":2363,"dragen":2364,"vele":2365,"ervan":2366,"ague":2367,"contact":2368,"spelers":2369,"jullie":2370,"verantwoordelijk":2371,"Mer":2372,"wist":2373,"voorzien":2374,"blok":2375,"groen":2376,"beleg":2377,"kiezen":2378,"journ":2379,"normaal":2380,"'.":2381,"jur":2382,"verv":2383,"merk":2384,"snap":2385,"strijden":2386,"Tij":2387,"mel":2388,"pijn":2389,"ure":2390,"gekregen":2391,"ome":2392,"voordat":2393,"ciële":2394,"lega":2395,"drug":2396,"Frankrijk":2397,"stoppen":2398,"Bar":2399,"Car":2400,"bro":2401,"kru":2402,"mig":2403,"onde":2404,"ichting":2405,"kinder":2406,"versiteit":2407,"sommige":2408,"Ga":2409,"Kon":2410,"ril":2411,"enorm":2412,"gevangen":2413,"leiden":2414,"geloof":2415,"alsnog":2416,"dub":2417,"prima":2418,"straks":2419,"burgers":2420,"por":2421,"anen":2422,"inwoners":2423,"waarschuw":2424,"fest":2425,"iële":2426,"gevoerd":2427,"medewerkers":2428,"jongeren":2429,"zorgt":2430,"Ke":2431,"fijn":2432,"aandeel":2433,"mei":2434,"igt":2435,"tober":2436,"post":2437,"jax":2438,"video":2439,"Don":2440,"Li":2441,"Twitter":2442,"nee":2443,"ontde":2444,"ronde":2445,"League":2446,"Nederlanders":2447,"Ajax":2448,"jui":2449,"advoc":2450,"trein":2451,"rechtbank":2452,"schrijft":2453,"links":2454,"vliegt":2455,"keuze":2456,"35":2457,"geldt":2458,"lijken":2459,"soci":2460,"woorden":2461,"liefst":2462,"OS":2463,"doe":2464,"priv":2465,"schappen":2466,"how":2467,"collega":2468,"betreft":2469,"bureau":2470,"Bl":2471,"eeuw":2472,"ieken":2473,"aling":2474,"ales":2475,"orme":2476,"meis":2477,"Alle":2478,"veiligheid":2479,"vaker":2480,"wapens":2481,"70":2482,"camer":2483,"jouw":2484,"pap":2485,"aarde":2486,"verzeker":2487,"vroe":2488,"oktober":2489,"John":2490,"contract":2491,"titel":2492,"Misschien":2493,"dur":2494,"schil":2495,"kwaliteit":2496,"liever":2497,"gast":2498,"mber":2499,"orie":2500,"slaan":2501,"volgt":2502,"politic":2503,"vraagd":2504,"iedenis":2505,"schrijven":2506,"Tijdens":2507,"Nog":2508,"twintig":2509,"inge":2510,"isen":2511,"rein":2512,"ologie":2513,"Tur":2514,"Utre":2515,"enorme":2516,"stal":2517,"afstand":2518,"gratis":2519,"proberen":2520,"ministerie":2521,"draaien":2522,"Belgische":2523,"telefoon":2524,"Max":2525,"vijft":2526,"iste":2527,"rouw":2528,"bekende":2529,"iger":2530,"schat":2531,"schre":2532,"termijn":2533,"vember":2534,"ica":2535,"winter":2536,"Staten":2537,"sub":2538,"gelijke":2539,"60":2540,"gers":2541,"reactie":2542,"antie":2543,"klinkt":2544,"bleef":2545,"levens":2546,"juli":2547,"bevolking":2548,"dik":2549,"digen":2550,"kaart":2551,"erop":2552,"inde":2553,"omgeving":2554,"ille":2555,"dio":2556,"liep":2557,"West":2558,"geschiedenis":2559,"momenteel":2560,"directeur":2561,"Utrecht":2562,"Ex":2563,"Hol":2564,"veer":2565,"dent":2566,"lezen":2567,"internationale":2568,"Verenigde":2569,"viel":2570,"annen":2571,"daarvan":2572,"gemak":2573,"merken":2574,"november":2575,"productie":2576,"iënten":2577,"NAVO":2578,"90":2579,"CD":2580,"ium":2581,"aap":2582,"advies":2583,"artik":2584,"temper":2585,"maatschappij":2586,"provincie":2587,"eil":2588,"rist":2589,"ante":2590,"voorlop":2591,"ouder":2592,"commun":2593,"producten":2594,"lokale":2595,"hom":2596,"od":2597,"reis":2598,"gren":2599,"project":2600,"industr":2601,"aug":2602,"vrienden":2603,"Kan":2604,"kam":2605,"lem":2606,"bewijs":2607,"race":2608,"diep":2609,"afge":2610,"akk":2611,"brief":2612,"moesten":2613,"geschreven":2614,"scherm":2615,"Har":2616,"orde":2617,"lex":2618,"mocht":2619,"waarvan":2620,"herin":2621,"krant":2622,"sprake":2623,"Oost":2624,"Groen":2625,"taf":2626,"wol":2627,"oppen":2628,"reed":2629,"keken":2630,"itiek":2631,"vloed":2632,"frik":2633,"Antwerpen":2634,"Trump":2635,"by":2636,"dak":2637,"pra":2638,"geïn":2639,"tegenover":2640,"staande":2641,"gelegen":2642,"Chine":2643,"Verder":2644,"bra":2645,"wapen":2646,"anje":2647,"democr":2648,"station":2649,"vermoe":2650,"iter":2651,"bevestig":2652,"vooruit":2653,"kens":2654,"rapport":2655,"bert":2656,"kozen":2657,"groei":2658,"lichaam":2659,"Du":2660,"Vor":2661,"camp":2662,"jou":2663,"mass":2664,"él":2665,"versie":2666,"mans":2667,"spraken":2668,"27":2669,"cy":2670,"jeugd":2671,"kerk":2672,"prom":2673,"besluit":2674,"duizend":2675,"La":2676,"leren":2677,"noemen":2678,"rent":2679,"singen":2680,"yen":2681,"ering":2682,"genoot":2683,"bewoners":2684,"apan":2685,"othe":2686,"vrije":2687,"ctief":2688,"fensie":2689,"cultuur":2690,"Hel":2691,"Pa":2692,"Su":2693,"bood":2694,"ije":2695,"ongeluk":2696,"bos":2697,"cir":2698,"Mensen":2699,"view":2700,"Bovendien":2701,"Fin":2702,"fiet":2703,"hoek":2704,"son":2705,"alisten":2706,"behandel":2707,"daten":2708,"overigens":2709,"dron":2710,"Nederlands":2711,"sneller":2712,"stemming":2713,"verkoop":2714,"elektrische":2715,"drugs":2716,"bezoek":2717,"dagelijk":2718,"wijzen":2719,"ember":2720,"economie":2721,"Afrik":2722,"iPh":2723,"morgen":2724,"erden":2725,"sturen":2726,"leving":2727,"igheid":2728,"april":2729,"bloed":2730,"koning":2731,"Minister":2732,"Bor":2733,"Mich":2734,"gl":2735,"hoort":2736,"tw":2737,"aardig":2738,"arte":2739,"ager":2740,"ondersteun":2741,"ionele":2742,"praten":2743,"winning":2744,"december":2745,"website":2746,"camera":2747,"Eind":2748,"Hu":2749,"Sa":2750,"hor":2751,"link":2752,"rou":2753,"wijn":2754,"idt":2755,"Tweede":2756,"Do":2757,"Mac":2758,"dracht":2759,"oefen":2760,"neg":2761,"dochter":2762,"Inter":2763,"Nee":2764,"sych":2765,"ernooi":2766,"Ger":2767,"Se":2768,"iers":2769,"mater":2770,"inten":2771,"alter":2772,"istische":2773,"geraakt":2774,"burgemeester":2775,"schuld":2776,"kwartaal":2777,"26":2778,"28":2779,"EC":2780,"fi":2781,"ht":2782,"ham":2783,"stoffen":2784,"kennis":2785,"iere":2786,"tijden":2787,"bedrag":2788,"2023":2789,"slachtoffers":2790,"gezondheid":2791,"Ieder":2792,"ule":2793,"end":2794,"inv":2795,"stoot":2796,"heet":2797,"voelt":2798,"ustus":2799,"NL":2800,"hot":2801,"vari":2802,"oost":2803,"roffen":2804,"spor":2805,"overal":2806,"voelen":2807,"plaatst":2808,"ouwens":2809,"Verstappen":2810,"beschikbaar":2811,"45":2812,"fout":2813,"hof":2814,"ieel":2815,"iti":2816,"dium":2817,"getroffen":2818,"brug":2819,"wedstrijden":2820,"duizenden":2821,"Co":2822,"Nou":2823,"feren":2824,"mor":2825,"oorden":2826,"verleden":2827,"gene":2828,"overleden":2829,"wassen":2830,"blijf":2831,"milieu":2832,"plekken":2833,"Mark":2834,"vierde":2835,"demie":2836,"augustus":2837,"Mat":2838,"TV":2839,"bom":2840,"enn":2841,"stonden":2842,"teerde":2843,"dering":2844,"reag":2845,"waard":2846,"down":2847,"auw":2848,"gericht":2849,"houders":2850,"treden":2851,"wetenschap":2852,"juiste":2853,"voorlopig":2854,"prakt":2855,"Vand":2856,"onen":2857,"schak":2858,"nemer":2859,"daardoor":2860,"aagd":2861,"vertellen":2862,"verkopen":2863,"actief":2864,"stijgen":2865,"gebeurde":2866,"bewust":2867,"hield":2868,"sprong":2869,"ters":2870,"gezel":2871,"oepen":2872,"impel":2873,"stellingen":2874,"volgend":2875,"speelde":2876,"tuin":2877,"gegevens":2878,"trainer":2879,"leeftijd":2880,"akkoord":2881,"Cor":2882,"Her":2883,"Qu":2884,"grij":2885,"ival":2886,"lam":2887,"moord":2888,"vd":2889,"ymp":2890,"ère":2891,"tes":2892,"verplicht":2893,"schot":2894,"digit":2895,"ieso":2896,"consu":2897,"belangrijkste":2898,"organisaties":2899,"militaire":2900,"aden":2901,"sele":2902,"gehe":2903,"ull":2904,"willig":2905,"stijging":2906,"hogere":2907,"hon":2908,"tv":2909,"wieso":2910,"ats":2911,"rac":2912,"combin":2913,"ips":2914,"groeien":2915,"samenleving":2916,"gezin":2917,"zonne":2918,"berichten":2919,"duren":2920,"kaar":2921,"sal":2922,"etten":2923,"aandelen":2924,"beveilig":2925,"hangen":2926,"middelen":2927,"iedere":2928,"Onze":2929,"verloren":2930,"brengt":2931,"studie":2932,"ervaring":2933,"functie":2934,"useum":2935,"Vr":2936,"Wer":2937,"werp":2938,"immers":2939,"esse":2940,"arts":2941,"begonnen":2942,"brandweer":2943,"autor":2944,"allerlei":2945,"Mus":2946,"Mart":2947,"OM":2948,"Ru":2949,"Sy":2950,"koff":2951,"psych":2952,"woe":2953,"recor":2954,"waarden":2955,"plot":2956,"vraagt":2957,"beroep":2958,"winnaar":2959,"Hoewel":2960,"financiële":2961,"struct":2962,"tafel":2963,"boom":2964,"pog":2965,"ona":2966,"itte":2967,"ord":2968,"olang":2969,"toernooi":2970,"overtu":2971,"nau":2972,"klap":2973,"zette":2974,"trekt":2975,"hoven":2976,"samenwerking":2977,"produc":2978,"draagt":2979,"verdedig":2980,"biedt":2981,"iPhone":2982,"Con":2983,"Oran":2984,"gre":2985,"iele":2986,"kwij":2987,"loon":2988,"invloed":2989,"geh":2990,"behoor":2991,"raket":2992,"schoon":2993,"wilt":2994,"gemeenten":2995,"zame":2996,"lastig":2997,"noemt":2998,"asielzoekers":2999,"platform":3000,"standigheden":3001,"Col":3002,"Cent":3003,"ude":3004,"tekort":3005,"omzet":3006,"erende":3007,"pensi":3008,"werknemers":3009,"speeld":3010,"Tour":3011,"economische":3012,"pensioen":3013,"Air":3014,"Austr":3015,"Ber":3016,"erbij":3017,"defin":3018,"levert":3019,"uldig":3020,"goedkop":3021,"bedre":3022,"Vlaan":3023,"trouwens":3024,"Antwerp":3025,"fans":3026,"mening":3027,"icatie":3028,"gewonnen":3029,"expl":3030,"wereldwij":3031,"cept":3032,"ontwikkeling":3033,"industrie":3034,"Austral":3035,"Vlaanderen":3036,"aft":3037,"drij":3038,"kou":3039,"kand":3040,"gehaald":3041,"gevraagd":3042,"tev":3043,"verkocht":3044,"respe":3045,"reage":3046,"tocht":3047,"ammer":3048,"verbru":3049,"gebouwd":3050,"Lin":3051,"Naast":3052,"Rijk":3053,"bil":3054,"ondanks":3055,"data":3056,"komsten":3057,"wijze":3058,"park":3059,"Daarmee":3060,"hoogste":3061,"spreekt":3062,"zwak":3063,"scheid":3064,"Nederlander":3065,"29":3066,"Au":3067,"Nieuw":3068,"Pol":3069,"bracht":3070,"hist":3071,"sers":3072,"uele":3073,"zil":3074,"testen":3075,"derheid":3076,"bedo":3077,"bedoel":3078,"Inst":3079,"deels":3080,"Eerder":3081,"artikel":3082,"Iedereen":3083,"Haar":3084,"Laat":3085,"mb":3086,"uurd":3087,"indruk":3088,"ditie":3089,"boer":3090,"Char":3091,"beurs":3092,"verlies":3093,"positief":3094,"gelukkig":3095,"Ha":3096,"daal":3097,"ty":3098,"vou":3099,"tek":3100,"angst":3101,"gewone":3102,"locatie":3103,"Pas":3104,"bab":3105,"gever":3106,"stegen":3107,"parlement":3108,"optie":3109,"centrale":3110,"militair":3111,"kwijt":3112,"Mos":3113,"bier":3114,"iaanse":3115,"rom":3116,"tingen":3117,"zwe":3118,"eling":3119,"allen":3120,"leef":3121,"agne":3122,"spro":3123,"namen":3124,"mail":3125,"New":3126,"interview":3127,"liefde":3128,"virus":3129,"voedsel":3130,"gevangenis":3131,"altern":3132,"voudig":3133,"75":3134,"Bur":3135,"Mil":3136,"ratie":3137,"twijf":3138,"old":3139,"rode":3140,"mach":3141,"zomaar":3142,"welijks":3143,"Ho":3144,"vermogen":3145,"leek":3146,"ses":3147,"docu":3148,"ieuze":3149,"hoopt":3150,"rechten":3151,"commissie":3152,"sowieso":3153,"speler":3154,"lager":3155,"gemiddelde":3156,"Zaken":3157,"hopen":3158,"kat":3159,"kwest":3160,"wiel":3161,"ieven":3162,"omstandigheden":3163,"onds":3164,"toegang":3165,"kwal":3166,"Daarbij":3167,"verwachten":3168,"vreem":3169,"vergeten":3170,"dankzij":3171,"boeken":3172,"Oranje":3173,"Biden":3174,"aur":3175,"aus":3176,"fact":3177,"gewerkt":3178,"opdracht":3179,"leeg":3180,"bezoekers":3181,"Daarna":3182,"vertelde":3183,"raakte":3184,"veranderen":3185,"verandering":3186,"record":3187,"Can":3188,"cap":3189,"fan":3190,"kten":3191,"zier":3192,"debat":3193,"initi":3194,"steen":3195,"beweg":3196,"ikte":3197,"vent":3198,"spann":3199,"terrein":3200,"houding":3201,"mogelijkheid":3202,"Vooral":3203,"vormen":3204,"iname":3205,"vergun":3206,"Vlaamse":3207,"Turk":3208,"baas":3209,"inkomen":3210,"steden":3211,"secon":3212,"jaarlijk":3213,"handelen":3214,"interess":3215,"betere":3216,"gebeurd":3217,"qua":3218,"Unie":3219,"verzam":3220,"vroeger":3221,"otheek":3222,"Kl":3223,"Kaag":3224,"my":3225,"melden":3226,"oze":3227,"star":3228,"stev":3229,"haalt":3230,"soft":3231,"aangehouden":3232,"product":3233,"demon":3234,"concur":3235,"Zelfs":3236,"Suriname":3237,"definitie":3238,"Lim":3239,"Uni":3240,"Vrij":3241,"blijk":3242,"sign":3243,"simpel":3244,"oorten":3245,"voorbere":3246,"zege":3247,"alsof":3248,"advis":3249,"keers":3250,"vrijheid":3251,"vrijwillig":3252,"mogelijke":3253,"Volks":3254,"gebruikers":3255,"banken":3256,"patiënten":3257,"PSV":3258,"Sint":3259,"ffe":3260,"kelen":3261,"vog":3262,"err":3263,"algemeen":3264,"tent":3265,"aalf":3266,"wilden":3267,"strateg":3268,"Schip":3269,"gemiddeld":3270,"schreef":3271,"Ten":3272,"ah":3273,"bang":3274,"eet":3275,"eisen":3276,"loos":3277,"pom":3278,"anc":3279,"leed":3280,"snelheid":3281,"code":3282,"internet":3283,"bovendien":3284,"relatie":3285,"extreem":3286,"Rob":3287,"cou":3288,"gisteren":3289,"ud":3290,"zagen":3291,"inken":3292,"ell":3293,"onderwijs":3294,"protest":3295,"doden":3296,"meerderheid":3297,"iciteit":3298,"kerst":3299,"broek":3300,"gewond":3301,"kritiek":3302,"duurder":3303,"Arn":3304,"wissel":3305,"present":3306,"politici":3307,"Chinese":3308,"Put":3309,"Wor":3310,"pracht":3311,"deden":3312,"etitie":3313,"tegelijk":3314,"steken":3315,"onderdeel":3316,"rustig":3317,"staats":3318,"deelt":3319,"besloten":3320,"bud":3321,"witte":3322,"Geluk":3323,"Feyen":3324,"BS":3325,"gif":3326,"sne":3327,"inclus":3328,"ijen":3329,"westen":3330,"geluid":3331,"rukt":3332,"hoeven":3333,"groepen":3334,"199":3335,"oogle":3336,"eerdere":3337,"geslagen":3338,"maximaal":3339,"genoemd":3340,"Nation":3341,"pot":3342,"oosten":3343,"spannen":3344,"ontstaan":3345,"ontvangen":3346,"diverse":3347,"serv":3348,"ustitie":3349,"ziekte":3350,"bestuurder":3351,"betaald":3352,"verliezen":3353,"lat":3354,"norm":3355,"gezicht":3356,"verhalen":3357,"omhoog":3358,"bev":3359,"asie":3360,"moeite":3361,"podium":3362,"eindelijk":3363,"Terwijl":3364,"sancties":3365,"arbeids":3366,"Em":3367,"Jong":3368,"VA":3369,"Was":3370,"Wanneer":3371,"Zou":3372,"voordeel":3373,"spoor":3374,"vest":3375,"werkte":3376,"proe":3377,"eigenaar":3378,"prest":3379,"geleid":3380,"helpt":3381,"regelmatig":3382,"haalde":3383,"vlag":3384,"miljoenen":3385,"lijden":3386,"festival":3387,"Paul":3388,"Or":3389,"ict":3390,"lot":3391,"meen":3392,"ente":3393,"det":3394,"verkeers":3395,"geboren":3396,"jongen":3397,"onderzoekers":3398,"buitenland":3399,"sprak":3400,"grotere":3401,"advocaat":3402,"nauwelijks":3403,"histor":3404,"Feyenoord":3405,"Berg":3406,"Google":3407,"bit":3408,"dy":3409,"vlees":3410,"gekozen":3411,"verhog":3412,"nogal":3413,"waaronder":3414,"iër":3415,"apps":3416,"rassen":3417,"creë":3418,"voormalige":3419,"kwestie":3420,"AS":3421,"Kijk":3422,"Qat":3423,"RT":3424,"onafhankelijk":3425,"aly":3426,"ise":3427,"schiet":3428,"rijdt":3429,"eerlijk":3430,"akker":3431,"parkeer":3432,"ippen":3433,"Sport":3434,"verwachting":3435,"levering":3436,"Willem":3437,"discus":3438,"effect":3439,"twaalf":3440,"selectie":3441,"behoorlijk":3442,"Gelukkig":3443,"Bre":3444,"Japan":3445,"Kort":3446,"dier":3447,"hond":3448,"ior":3449,"rik":3450,"show":3451,"ueel":3452,"ende":3453,"geheel":3454,"genaam":3455,"overwinning":3456,"blik":3457,"klachten":3458,"droom":3459,"kleding":3460,"kantoor":3461,"rière":3462,"verdw":3463,"sidie":3464,"sfeer":3465,"geloven":3466,"gebrek":3467,"gemakkelijk":3468,"Vandaag":3469,"BM":3470,"Kr":3471,"Meer":3472,"Natuur":3473,"Red":3474,"cas":3475,"goud":3476,"ti":3477,"zul":3478,"ingezet":3479,"opper":3480,"wekken":3481,"voorstel":3482,"outen":3483,"gelu":3484,"gelaten":3485,"uld":3486,"wijst":3487,"duel":3488,"dure":3489,"lage":3490,"pass":3491,"breken":3492,"Europees":3493,"bepaald":3494,"Gelder":3495,"generatie":3496,"bers":3497,"cur":3498,"emot":3499,"hers":3500,"hore":3501,"kar":3502,"set":3503,"zus":3504,"atische":3505,"teert":3506,"derd":3507,"beheer":3508,"vecht":3509,"ions":3510,"Marok":3511,"relatief":3512,"verdienen":3513,"meisje":3514,"demonstr":3515,"Schiphol":3516,"Even":3517,"azen":3518,"rid":3519,"staten":3520,"bezorg":3521,"jezelf":3522,"vechten":3523,"benad":3524,"blad":3525,"sterke":3526,"mogelijkheden":3527,"helaas":3528,"Zoals":3529,"jongens":3530,"gaven":3531,"Spanje":3532,"beteken":3533,"vliegen":3534,"status":3535,"hangt":3536,"beslissing":3537,"subsidie":3538,"materi":3539,"Noor":3540,"Pvd":3541,"boot":3542,"cast":3543,"gun":3544,"pad":3545,"atisch":3546,"issen":3547,"wellicht":3548,"tallen":3549,"zwart":3550,"2018":3551,"technologie":3552,"uiteraard":3553,"fabriek":3554,"Musk":3555,"NP":3556,"Polen":3557,"bon":3558,"bun":3559,"rand":3560,"xe":3561,"zaakt":3562,"ooft":3563,"gep":3564,"ald":3565,"wegens":3566,"amper":3567,"agenten":3568,"cret":3569,"zwarte":3570,"modellen":3571,"carrière":3572,"klasse":3573,"begrijp":3574,"temperatuur":3575,"budget":3576,"Ko":3577,"ain":3578,"taal":3579,"zanger":3580,"anne":3581,"onver":3582,"verspre":3583,"opvallen":3584,"genoten":3585,"uitstoot":3586,"overeen":3587,"doorgaan":3588,"gebieden":3589,"acteur":3590,"feder":3591,"trap":3592,"miss":3593,"Zeker":3594,"standaard":3595,"zoekt":3596,"rekenen":3597,"bonds":3598,"serieus":3599,"poging":3600,"Bos":3601,"Gent":3602,"IN":3603,"NV":3604,"km":3605,"not":3606,"vracht":3607,"raken":3608,"kansen":3609,"istisch":3610,"pens":3611,"minste":3612,"coal":3613,"besloot":3614,"stijds":3615,"aliseren":3616,"vereniging":3617,"invester":3618,"campagne":3619,"33":3620,"Binnen":3621,"dw":3622,"ift":3623,"ph":3624,"raal":3625,"yn":3626,"chem":3627,"vergoed":3628,"opmer":3629,"schieten":3630,"waardig":3631,"gerecht":3632,"herstel":3633,"gestuurd":3634,"vloe":3635,"Tegen":3636,"nationaal":3637,"panelen":3638,"specif":3639,"Italië":3640,"incident":3641,"compleet":3642,"journalist":3643,"dagelijks":3644,"baby":3645,"coalitie":3646,"BB":3647,"Kie":3648,"Kom":3649,"Tom":3650,"mand":3651,"etc":3652,"stak":3653,"igingen":3654,"werker":3655,"ction":3656,"achtig":3657,"ontmoet":3658,"geroepen":3659,"minist":3660,"praat":3661,"ivid":3662,"ressie":3663,"bruik":3664,"verklaring":3665,"trans":3666,"Soms":3667,"resultaat":3668,"blijkbaar":3669,"Kun":3670,"Nij":3671,"So":3672,"US":3673,"anci":3674,"ance":3675,"sters":3676,"stige":3677,"alweer":3678,"verbod":3679,"bezit":3680,"scholen":3681,"toer":3682,"individ":3683,"lukt":3684,"gedacht":3685,"geleverd":3686,"uidelijk":3687,"hoofdstad":3688,"meestal":3689,"persoonlijk":3690,"profess":3691,"activiteiten":3692,"populair":3693,"dubbel":3694,"grenzen":3695,"variant":3696,"book":3697,"fig":3698,"oken":3699,"ineens":3700,"ijt":3701,"verst":3702,"verwar":3703,"geno":3704,"genieten":3705,"bergen":3706,"groene":3707,"plezier":3708,"ranten":3709,"vrijwel":3710,"cedes":3711,"roept":3712,"live":3713,"verdachten":3714,"2017":3715,"Tesla":3716,"gereden":3717,"bewol":3718,"pandemie":3719,"kapot":3720,"solu":3721,"impact":3722,"competitie":3723,"resultaten":3724,"Mercedes":3725,"Apel":3726,"Wh":3727,"nel":3728,"selen":3729,"enen":3730,"deal":3731,"sta":3732,"onne":3733,"onlangs":3734,"arch":3735,"voorspel":3736,"voorsprong":3737,"raden":3738,"oond":3739,"totale":3740,"eventu":3741,"binnenkort":3742,"gemeenter":3743,"Christ":3744,"speciale":3745,"aangekond":3746,"Johan":3747,"fabrik":3748,"consumenten":3749,"bedoeld":3750,"Qatar":3751,"PvdA":3752,"EN":3753,"Pat":3754,"bomen":3755,"gu":3756,"keld":3757,"zers":3758,"gekeken":3759,"gestegen":3760,"vervangen":3761,"dertig":3762,"reeks":3763,"begr":3764,"jecten":3765,"uitzonder":3766,"schop":3767,"stens":3768,"deelnemers":3769,"plein":3770,"avor":3771,"front":3772,"minuut":3773,"harde":3774,"99":3775,"Alex":3776,"Face":3777,"troepen":3778,"geplaatst":3779,"reur":3780,"aanvallen":3781,"sens":3782,"erend":3783,"gebroken":3784,"werkzaam":3785,"kwets":3786,"prop":3787,"absolu":3788,"schepen":3789,"brandstof":3790,"duurt":3791,"2014":3792,"restaur":3793,"feiten":3794,"beperkt":3795,"CDA":3796,"Afrika":3797,"Ferr":3798,"IJ":3799,"IV":3800,"Kar":3801,"Lo":3802,"No":3803,"ame":3804,"caf":3805,"hop":3806,"ongeval":3807,"vertegenwoordig":3808,"iend":3809,"ondernemers":3810,"plant":3811,"play":3812,"openbaar":3813,"tegenst":3814,"boden":3815,"confl":3816,"deelde":3817,"netwerk":3818,"getrokken":3819,"geschikt":3820,"stukje":3821,"filmp":3822,"vriendin":3823,"updat":3824,"voorbije":3825,"sluiting":3826,"gooien":3827,"index":3828,"gehoord":3829,"gemeenteraad":3830,"ael":3831,"fel":3832,"wo":3833,"wens":3834,"uitspraak":3835,"steek":3836,"eerden":3837,"word":3838,"agent":3839,"markten":3840,"Amerika":3841,"leidt":3842,"draait":3843,"Parijs":3844,"toont":3845,"officieel":3846,"Brab":3847,"fietsen":3848,"32":3849,"Bu":3850,"Dr":3851,"Denk":3852,"Peter":3853,"Vis":3854,"hyp":3855,"put":3856,"opzich":3857,"uitker":3858,"schip":3859,"afscheid":3860,"Alles":3861,"Oekraïners":3862,"geschoten":3863,"beurt":3864,"pakket":3865,"Eindhoven":3866,"31":3867,"Samen":3868,"koe":3869,"kingen":3870,"kast":3871,"ret":3872,"geë":3873,"eenmaal":3874,"aanbod":3875,"ouden":3876,"rad":3877,"anda":3878,"agram":3879,"gels":3880,"onderhandel":3881,"zoiets":3882,"slapen":3883,"ioneel":3884,"pret":3885,"Stad":3886,"lock":3887,"Leiden":3888,"vaste":3889,"melding":3890,"banden":3891,"gesprekken":3892,"vliegtuig":3893,"invasie":3894,"praktijk":3895,"horeca":3896,"cretaris":3897,"400":3898,"AM":3899,"ball":3900,"favor":3901,"keten":3902,"ny":3903,"ring":3904,"var":3905,"wél":3906,"destijds":3907,"iep":3908,"vanavond":3909,"overleg":3910,"Staat":3911,"stads":3912,"tientallen":3913,"clubs":3914,"Grote":3915,"probeert":3916,"kruis":3917,"digitale":3918,"tevreden":3919,"Limburg":3920,"opzichte":3921,"36":3922,"Ad":3923,"EK":3924,"Zelen":3925,"cle":3926,"oven":3927,"sa":3928,"tru":3929,"vonden":3930,"erger":3931,"ertijd":3932,"inke":3933,"gemen":3934,"isse":3935,"verbeter":3936,"vertrekken":3937,"ley":3938,"arden":3939,"ario":3940,"rab":3941,"uitgebre":3942,"unt":3943,"rot":3944,"ondertussen":3945,"welkom":3946,"volwassen":3947,"daarop":3948,"gaande":3949,"boete":3950,"persoonlijke":3951,"cieel":3952,"leuke":3953,"Kiev":3954,"Zelensk":3955,"Form":3956,"Mag":3957,"Sm":3958,"liter":3959,"poten":3960,"voorstellen":3961,"inger":3962,"perfe":3963,"okken":3964,"dringen":3965,"droog":3966,"Daardoor":3967,"Vanaf":3968,"verband":3969,"tonen":3970,"vluchten":3971,"ieuwd":3972,"tekst":3973,"beweging":3974,"Arnhem":3975,"Putin":3976,"55":3977,"City":3978,"Gu":3979,"Hong":3980,"II":3981,"Mon":3982,"Uiteindelijk":3983,"Vo":3984,"ane":3985,"verlaten":3986,"gent":3987,"ilen":3988,"moder":3989,"brood":3990,"prik":3991,"sieke":3992,"handig":3993,"voering":3994,"winkels":3995,"bord":3996,"reageren":3997,"verbruik":3998,"discussie":3999,"Ferrari":4000,"37":4001,"Del":4002,"ba":4003,"cro":4004,"izig":4005,"vac":4006,"wisten":4007,"analy":4008,"deta":4009,"gespeeld":4010,"dergelijke":4011,"dend":4012,"reizen":4013,"behoef":4014,"ils":4015,"uitzen":4016,"onderzoeken":4017,"drinken":4018,"conclus":4019,"stren":4020,"utie":4021,"cep":4022,"Ondanks":4023,"verschillen":4024,"matige":4025,"stijl":4026,"zone":4027,"ernstig":4028,"nergens":4029,"schuldig":4030,"ologische":4031,"Oosten":4032,"veroorzaakt":4033,"partner":4034,"Cl":4035,"Doe":4036,"Ju":4037,"Jon":4038,"paal":4039,"inkomsten":4040,"verbet":4041,"optreden":4042,"aanzien":4043,"aringen":4044,"oloog":4045,"steeg":4046,"afval":4047,"ake":4048,"gedragen":4049,"richten":4050,"honderden":4051,"Italiaanse":4052,"college":4053,"herinner":4054,"Instagram":4055,"Moskou":4056,"kwalific":4057,"Bau":4058,"Buiten":4059,"Di":4060,"Dank":4061,"ET":4062,"SP":4063,"kking":4064,"moed":4065,"museum":4066,"pand":4067,"tar":4068,"enten":4069,"inte":4070,"ooster":4071,"verw":4072,"aangif":4073,"weig":4074,"ada":4075,"appe":4076,"neder":4077,"akken":4078,"anti":4079,"gewicht":4080,"ergie":4081,"slechte":4082,"verloor":4083,"scen":4084,"westerse":4085,"trok":4086,"vuurwerk":4087,"bijzondere":4088,"koffie":4089,"explos":4090,"BMW":4091,"38":4092,"300":4093,"?”":4094,"Naar":4095,"cru":4096,"golf":4097,"riv":4098,"tweet":4099,"eters":4100,"gevers":4101,"verboden":4102,"iteren":4103,"aanv":4104,"lecht":4105,"werpen":4106,"afgesloten":4107,"auwe":4108,"bron":4109,"evene":4110,"krit":4111,"kelijke":4112,"bedrijfs":4113,"coronav":4114,"recla":4115,"Gewoon":4116,"Isra":4117,"functies":4118,"Overigens":4119,"bestaande":4120,"elektriciteit":4121,"gevaarlijk":4122,"privé":4123,"vijftien":4124,"democratie":4125,"Facebook":4126,"Formule":4127,"Eigen":4128,"Ka":4129,"Port":4130,"cul":4131,"zine":4132,"inval":4133,"inzet":4134,"aai":4135,"oofd":4136,"ieve":4137,"geef":4138,"versl":4139,"raf":4140,"uitdag":4141,"aming":4142,"minimaal":4143,"iviteit":4144,"luchthaven":4145,"Russisch":4146,"mate":4147,"veiligheids":4148,"install":4149,"gezondheids":4150,"trots":4151,"bescherming":4152,"Sommige":4153,"supermarkt":4154,"genoemde":4155,"linkse":4156,"combinatie":4157,"Bart":4158,"Had":4159,"Kle":4160,"Sam":4161,"bad":4162,"dro":4163,"fant":4164,"pk":4165,"typ":4166,"eruit":4167,"vere":4168,"verre":4169,"bese":4170,"schoen":4171,"spullen":4172,"volks":4173,"plus":4174,"icro":4175,"gebleven":4176,"tijdje":4177,"branden":4178,"bodem":4179,"toege":4180,"gewen":4181,"excus":4182,"cohol":4183,"regeling":4184,"ress":4185,"Watch":4186,"belangen":4187,"Frans":4188,"Heeft":4189,"redenen":4190,"bereiken":4191,"wijken":4192,"begrijpen":4193,"voertuig":4194,"dikke":4195,"wereldwijd":4196,"vergunning":4197,"seconden":4198,"starten":4199,"Brabant":4200,"AD":4201,"Fl":4202,"IS":4203,"Jer":4204,"Nieu":4205,"Per":4206,"bol":4207,"back":4208,"daling":4209,"emen":4210,"mas":4211,"rook":4212,"rele":4213,"soorten":4214,"aaien":4215,"vern":4216,"bevat":4217,"spits":4218,"nem":4219,"klopt":4220,"aagde":4221,"bellen":4222,"huishouden":4223,"flinke":4224,"finales":4225,"adem":4226,"coronac":4227,"oorlogs":4228,"stukken":4229,"meldingen":4230,"zinn":4231,"gerekend":4232,"Eén":4233,"God":4234,"Med":4235,"Rad":4236,"Raad":4237,"ire":4238,"ps":4239,"pij":4240,"ror":4241,"telijke":4242,"ël":4243,"inkrijk":4244,"ish":4245,"verzet":4246,"vertrek":4247,"bekijken":4248,"voorwaarden":4249,"steerd":4250,"lied":4251,"plaatse":4252,"tradit":4253,"lachen":4254,"jarenlang":4255,"woont":4256,"daadwerkelijk":4257,"beschermen":4258,"smart":4259,"vergelijking":4260,"beleggers":4261,"autoriteiten":4262,"respect":4263,"Da":4264,"ID":4265,"fase":4266,"kol":4267,"velen":4268,"vlo":4269,"ande":4270,"arre":4271,"vooraf":4272,"spl":4273,"aald":4274,"voel":4275,"gerust":4276,"braak":4277,"hoof":4278,"groten":4279,"maakten":4280,"zoeker":4281,"krachten":4282,"bepalen":4283,"vlieg":4284,"zakken":4285,"ambten":4286,"iënt":4287,"donker":4288,"voertuigen":4289,"Vlaams":4290,"gelegenheid":4291,"initiatief":4292,"concurrent":4293,"bondscoach":4294,"restaurant":4295,"Dav":4296,"Jul":4297,"Ser":4298,"ino":4299,"alcohol":4300,"vanzelf":4301,"verzoek":4302,"schaal":4303,"sem":4304,"spar":4305,"slaap":4306,"minstens":4307,"boel":4308,"oegd":4309,"gestoken":4310,"grap":4311,"control":4312,"tiende":4313,"Frank":4314,"zichtbaar":4315,"maker":4316,"operatie":4317,"wagens":4318,"structuur":4319,"inclusief":4320,"aangekondigd":4321,"conflict":4322,"Bank":4323,"Brug":4324,"Mol":4325,"Tim":4326,"fic":4327,"glas":4328,"heren":4329,"rood":4330,"tan":4331,"zaten":4332,"óó":4333,"deuren":4334,"heten":4335,"behalve":4336,"auffe":4337,"nut":4338,"geru":4339,"klant":4340,"sterren":4341,"moede":4342,"princi":4343,"compl":4344,"bles":4345,"beslag":4346,"zorgde":4347,"verdacht":4348,"Groot":4349,"Mech":4350,"Holland":4351,"hotel":4352,"goedkoper":4353,"vergoeding":4354,"izigers":4355,"excuses":4356,"Hen":4357,"Piet":4358,"Ros":4359,"Ts":4360,"fas":4361,"jammer":4362,"tank":4363,"voren":4364,"ye":4365,"zaal":4366,"defensie":4367,"onie":4368,"eenvoudig":4369,"ali":4370,"vervolg":4371,"aans":4372,"Westen":4373,"gemeenschap":4374,"interesse":4375,"koppel":4376,"que":4377,"soldaten":4378,"pporters":4379,"bescherm":4380,"locaties":4381,"maxim":4382,"voormalig":4383,"Ab":4384,"Gi":4385,"LM":4386,"NS":4387,"Pad":4388,"Rem":4389,"abel":4390,"fonds":4391,"hat":4392,"zolang":4393,"intussen":4394,"stab":4395,"opleiding":4396,"argu":4397,"ight":4398,"ramp":4399,"ilip":4400,"uitbre":4401,"aff":4402,"afdeling":4403,"adres":4404,"landbouw":4405,"kanker":4406,"opening":4407,"luidt":4408,"keerd":4409,"beschuldig":4410,"stemd":4411,"positieve":4412,"accoun":4413,"ervaren":4414,"ypto":4415,"verkeerde":4416,"letter":4417,"hoeveelheid":4418,"Koninkrijk":4419,"Huis":4420,"ympische":4421,"NPO":4422,"150":4423,"34":4424,"Dijk":4425,"Nor":4426,"Tok":4427,"been":4428,"can":4429,"gat":4430,"honden":4431,"pil":4432,"stor":4433,"ieur":4434,"ateur":4435,"geest":4436,"verrassen":4437,"opgenomen":4438,"iete":4439,"schaat":4440,"Defensie":4441,"assen":4442,"ney":4443,"neus":4444,"goedkoop":4445,"zijde":4446,"buitenlandse":4447,"risis":4448,"teleur":4449,"veroordeeld":4450,"stoel":4451,"Commissie":4452,"eiland":4453,"café":4454,"scenario":4455,"As":4456,"FA":4457,"Londen":4458,"Ron":4459,"ive":4460,"ku":4461,"tri":4462,"vet":4463,"etsen":4464,"diesel":4465,"vee":4466,"bene":4467,"conferen":4468,"Champ":4469,"lay":4470,"198":4471,"bereik":4472,"public":4473,"Elke":4474,"training":4475,"officiële":4476,"medische":4477,"complex":4478,"CO2":4479,"leerlingen":4480,"vervelen":4481,"behandeling":4482,"Links":4483,"bedoeling":4484,"capac":4485,"interessant":4486,"software":4487,"verhoging":4488,"Bull":4489,"Club":4490,"FI":4491,"For":4492,"Pl":4493,"gig":4494,"ider":4495,"ipt":4496,"lap":4497,"rice":4498,"voegen":4499,"steren":4500,"vertra":4501,"verga":4502,"ork":4503,"aanpak":4504,"beker":4505,"begele":4506,"schui":4507,"doordat":4508,"nauw":4509,"enthou":4510,"wijzig":4511,"keert":4512,"kleuren":4513,"2024":4514,"sleut":4515,"verbind":4516,"Spelen":4517,"Spaanse":4518,"leidde":4519,"wethouder":4520,"makers":4521,"ambitie":4522,"concert":4523,"rijke":4524,"zuiden":4525,"gelost":4526,"schilder":4527,"Helaas":4528,"Heel":4529,"IC":4530,"Por":4531,"Tu":4532,"Zwit":4533,"bby":4534,"cal":4535,"lon":4536,"ugen":4537,"zover":4538,"verster":4539,"overschrij":4540,"ama":4541,"tijdelijk":4542,"gebo":4543,"gebas":4544,"getuigen":4545,"wereldkampioen":4546,"Anders":4547,"geschak":4548,"onzeker":4549,"logisch":4550,"stadion":4551,"leraar":4552,"bereikt":4553,"vandaan":4554,"obil":4555,"opgepakt":4556,"besmettingen":4557,"migratie":4558,"negatieve":4559,"alternatief":4560,"verdwijnen":4561,"Natuurlijk":4562,"App":4563,"Gem":4564,"Hun":4565,"Jum":4566,"Thom":4567,"Zwe":4568,"bum":4569,"editie":4570,"iz":4571,"laad":4572,"pool":4573,"enig":4574,"ermee":4575,"ijden":4576,"standen":4577,"redelijk":4578,"outer":4579,"illeg":4580,"bijeen":4581,"terij":4582,"waarna":4583,"onduidelijk":4584,"icket":4585,"toeval":4586,"achtergrond":4587,"hogen":4588,"aangepast":4589,"avonds":4590,"noemde":4591,"Brazil":4592,"papier":4593,"vijftig":4594,"Vorig":4595,"wetenschappers":4596,"Antwerpse":4597,"jaarlijks":4598,"vrijwilligers":4599,"lockdown":4600,"ER":4601,"Hoog":4602,"Ra":4603,"Tele":4604,"achte":4605,"boos":4606,"dalen":4607,"fac":4608,"mus":4609,"rang":4610,"vaardig":4611,"ini":4612,"elders":4613,"weder":4614,"idaat":4615,"gelden":4616,"nes":4617,"Inmiddels":4618,"daarin":4619,"voelde":4620,"betal":4621,"ited":4622,"crypto":4623,"game":4624,"volledige":4625,"hoorde":4626,"lopende":4627,"Engeland":4628,"Ministerie":4629,"woke":4630,"hypotheek":4631,"Jumbo":4632,"Kat":4633,"Kore":4634,"Mc":4635,"buren":4636,"jet":4637,"€™":4638,"alvast":4639,"verhogen":4640,"armoede":4641,"oudere":4642,"uitgevoerd":4643,"spaar":4644,"spir":4645,"afspraken":4646,"2000":4647,"gemeld":4648,"irus":4649,"baarheid":4650,"Euro":4651,"rondom":4652,"planten":4653,"bereid":4654,"teams":4655,"momenten":4656,"vaccinatie":4657,"Openbaar":4658,"Baudet":4659,"blessu":4660,"Hamil":4661,"Ren":4662,"fles":4663,"gan":4664,"kust":4665,"eentje":4666,"verniet":4667,"ree":4668,"reacties":4669,"voornamelijk":4670,"afloop":4671,"slaat":4672,"nek":4673,"proce":4674,"ics":4675,"toezicht":4676,"wongen":4677,"Ander":4678,"laden":4679,"breed":4680,"leiders":4681,"kilo":4682,"zakelijk":4683,"chester":4684,"financieel":4685,"Verenigd":4686,"boodschap":4687,"raketten":4688,"filmpje":4689,"gebaseerd":4690,"At":4691,"Dis":4692,"Drie":4693,"Tr":4694,"gaten":4695,"lijnen":4696,"veen":4697,"elle":4698,"georganis":4699,"reizigers":4700,"ike":4701,"ogan":4702,"benieuwd":4703,"benzine":4704,"ierd":4705,"kei":4706,"daarnaast":4707,"betrouw":4708,"divisie":4709,"gedwongen":4710,"comment":4711,"compens":4712,"Oekraine":4713,"197":4714,"duurzaam":4715,"streeks":4716,"publieke":4717,"vrede":4718,"welijke":4719,"Manchester":4720,"verantwoordelijkheid":4721,"ennia":4722,"type":4723,"Israël":4724,"Hamilton":4725,"?’":4726,"AR":4727,"EV":4728,"Jor":4729,"Lou":4730,"San":4731,"Ster":4732,"Win":4733,"bbel":4734,"dou":4735,"fys":4736,"vervoer":4737,"oma":4738,"recent":4739,"aanvragen":4740,"schoot":4741,"agressie":4742,"onderzocht":4743,"adver":4744,"tijdelijke":4745,"bronnen":4746,"maals":4747,"fee":4748,"loze":4749,"peil":4750,"onderzoeks":4751,"breekt":4752,"duurzame":4753,"ituut":4754,"geregeld":4755,"betaalt":4756,"films":4757,"Afgelopen":4758,"zwem":4759,"analyse":4760,"aangifte":4761,"coronacrisis":4762,",”":4763,"39":4764,"65":4765,"Achter":4766,"Goed":4767,"Joe":4768,"Sc":4769,"Vroe":4770,"York":4771,"dcast":4772,"ét":4773,"oorzaak":4774,"verblijf":4775,"ars":4776,"rapt":4777,"agina":4778,"overlast":4779,"afkomst":4780,"zogenaam":4781,"apt":4782,"slid":4783,"lands":4784,"zichten":4785,"openbare":4786,"minim":4787,"artie":4788,"stelsel":4789,"commer":4790,"wint":4791,"snelle":4792,"sief":4793,"drukken":4794,"aangezien":4795,"veilige":4796,"bekendgemaakt":4797,"Beide":4798,"ffer":4799,"decennia":4800,"ssecretaris":4801,"zonnepanelen":4802,"salaris":4803,"Turkije":4804,"strategie":4805,"proef":4806,"materiaal":4807,"begrip":4808,"werkzaamheden":4809,"absoluut":4810,"reclame":4811,"Hug":4812,"categ":4813,"eiden":4814,"ielen":4815,"stichting":4816,"chip":4817,"verra":4818,"aangetroffen":4819,"lege":4820,"meten":4821,"neut":4822,"ontzetten":4823,"openen":4824,"beland":4825,"digd":4826,"nodige":4827,"verschijn":4828,"Vervolgens":4829,"agement":4830,"speciaal":4831,"United":4832,"criminelen":4833,"wachte":4834,"sprint":4835,"Surin":4836,"broer":4837,"sociaal":4838,"veertig":4839,"Zelensky":4840,"Dam":4841,"Hop":4842,"Mid":4843,"Prem":4844,"cade":4845,"eu":4846,"fort":4847,"ld":4848,"voe":4849,"zui":4850,"ün":4851,"opslag":4852,"aanleiding":4853,"lek":4854,"voorkeur":4855,"ura":4856,"urele":4857,"dief":4858,"waarvoor":4859,"achtste":4860,"uliere":4861,"strand":4862,"Weet":4863,"gevuld":4864,"pleit":4865,"achterstand":4866,"verkracht":4867,"lossen":4868,"2015":4869,"meldde":4870,"knop":4871,"ernstige":4872,"televisie":4873,"ontwikkelen":4874,"financ":4875,"redden":4876,"probeerde":4877,"Eerst":4878,"apparte":4879,"warmte":4880,"experts":4881,"massaal":4882,"koningin":4883,"route":4884,"gezellig":4885,"vreemd":4886,"sneeuw":4887,"gemene":4888,"Buitenlandse":4889,"conferentie":4890,"geboden":4891,"AZ":4892,"Beg":4893,"Gen":4894,"Mad":4895,"Wit":4896,"Wim":4897,"cla":4898,"hitte":4899,"ichte":4900,"iPad":4901,"rat":4902,"scor":4903,"gecon":4904,"gekocht":4905,"opvol":4906,"gend":4907,"arrest":4908,"meet":4909,"tennis":4910,"ftal":4911,"mochten":4912,"plast":4913,"ontslag":4914,"manager":4915,"droeg":4916,"artsen":4917,"luisteren":4918,"cons":4919,"straten":4920,"pleeg":4921,"lanc":4922,"gestart":4923,"bass":4924,"2016":4925,"ssier":4926,"Moet":4927,"systemen":4928,"Ondertussen":4929,"kondigde":4930,"Michael":4931,"kaarten":4932,"kandi":4933,"pomp":4934,"zulke":4935,"Gelderland":4936,"tegenstander":4937,"uitkering":4938,"Dankzij":4939,"coronavirus":4940,"vloer":4941,"capaciteit":4942,"Hugo":4943,"ontzettend":4944,"46":4945,"Go":4946,"Ham":4947,"Let":4948,"Nat":4949,"Rond":4950,"Wout":4951,"telt":4952,"wal":4953,"erin":4954,"eraan":4955,"degelijk":4956,"inspe":4957,"aturen":4958,"geet":4959,"iss":4960,"islam":4961,"vernieuw":4962,"verslag":4963,"itaire":4964,"urt":4965,"scha":4966,"sporen":4967,"welk":4968,"atieven":4969,"dossier":4970,"imir":4971,"eveneens":4972,"gete":4973,"beschad":4974,"kopp":4975,"Amerikanen":4976,"pakte":4977,"eindigde":4978,"recente":4979,"ambul":4980,"techniek":4981,"verdient":4982,"jury":4983,"communicatie":4984,"drijven":4985,"Rijks":4986,"spanning":4987,"opvallend":4988,"update":4989,"42":4990,"Arab":4991,"Bru":4992,"Lan":4993,"Spe":4994,"Welke":4995,"dijk":4996,"hie":4997,"imen":4998,"iment":4999,"justitie":5000,"lim":5001,"lige":5002,"lagen":5003,"nad":5004,"poort":5005,"inzetten":5006,"stok":5007,"storm":5008,"onk":5009,"realiteit":5010,"heil":5011,"datie":5012,"onderwerp":5013,"aflevering":5014,"kunsten":5015,"hijs":5016,"werkgever":5017,"supporters":5018,"legde":5019,"verbonden":5020,"Tegelijk":5021,"thema":5022,"kiest":5023,"oplossingen":5024,"automatisch":5025,"jurid":5026,"herinn":5027,"brak":5028,"Charles":5029,"normale":5030,"integr":5031,"huishoudens":5032,"beneden":5033,"Zweden":5034,"Vroeger":5035,"600":5036,"Aert":5037,"F1":5038,"Henk":5039,"Iran":5040,"VN":5041,"Vite":5042,"cte":5043,"ius":5044,"muur":5045,"ther":5046,"uwe":5047,"elftal":5048,"chauffe":5049,"ophe":5050,"opgelost":5051,"behouden":5052,"hev":5053,"datum":5054,"overleed":5055,"ctoren":5056,"blauw":5057,"huwelijk":5058,"ptie":5059,"bleven":5060,"miljarden":5061,"graf":5062,"verdere":5063,"podcast":5064,"vijfde":5065,"assist":5066,"medewerker":5067,"euwen":5068,"vorming":5069,"lagere":5070,"fractie":5071,"wisselen":5072,"migranten":5073,"dronken":5074,"kandidaat":5075,"militairen":5076,"benadrukt":5077,"betekenen":5078,"behoefte":5079,"schoenen":5080,"Nieuwe":5081,"Brugge":5082,"Vitesse":5083,"EO":5084,"GS":5085,"Iets":5086,"Land":5087,"kele":5088,"migen":5089,"rale":5090,"enter":5091,"inden":5092,"instellingen":5093,"oorte":5094,"versnel":5095,"oproep":5096,"meda":5097,"rain":5098,"schaf":5099,"tenminste":5100,"rijding":5101,"nazi":5102,"kee":5103,"luxe":5104,"acy":5105,"energieprijzen":5106,"opties":5107,"leverde":5108,"breng":5109,"volgde":5110,"veranderd":5111,"geweldig":5112,"wijfeld":5113,"apparaten":5114,"vervuil":5115,"verdediger":5116,"Centraal":5117,"twijfel":5118,"vrachtwagen":5119,"Nijme":5120,"categorie":5121,"Ronde":5122,"Sal":5123,"Zonder":5124,"nl":5125,"pit":5126,"tren":5127,"ooien":5128,"oorde":5129,"verstand":5130,"verhoog":5131,"gende":5132,"voorjaar":5133,"voorzicht":5134,"mezelf":5135,"term":5136,"terror":5137,"projecten":5138,"blauwe":5139,"geboorte":5140,"aakte":5141,"Zee":5142,"getwijfeld":5143,"Zowel":5144,"verschijnen":5145,"gezamen":5146,"gave":5147,"liber":5148,"maatregel":5149,"oemd":5150,"doelman":5151,"stijgt":5152,"Team":5153,"streep":5154,"aliseerd":5155,"keuken":5156,"expert":5157,"meisjes":5158,"Johnson":5159,"GroenLinks":5160,"schakelen":5161,"creëren":5162,"federale":5163,"ministers":5164,"uitgebreid":5165,"Nijmegen":5166,"Azi":5167,"BO":5168,"Cons":5169,"Jac":5170,"Jonge":5171,"Sov":5172,"Wal":5173,"ader":5174,"boord":5175,"ei":5176,"fy":5177,"lers":5178,"scr":5179,"th":5180,"iegel":5181,"gede":5182,"lee":5183,"uitste":5184,"ago":5185,"sloot":5186,"sloeg":5187,"kes":5188,"opend":5189,"drank":5190,"delingen":5191,"deloos":5192,"lukte":5193,"bedien":5194,"bedacht":5195,"langere":5196,"umn":5197,"flix":5198,"beschouw":5199,"contin":5200,"vieren":5201,"bereken":5202,"2012":5203,"Willi":5204,"instantie":5205,"fors":5206,"technische":5207,"Groning":5208,"Hierdoor":5209,"verzekering":5210,"schatting":5211,"ondersteuning":5212,"ECB":5213,"greep":5214,"simpelweg":5215,"historische":5216,"Champions":5217,"enthousi":5218,"geschakeld":5219,"blessure":5220,"44":5221,"Bet":5222,"Cal":5223,"Gaal":5224,"Ken":5225,"KLM":5226,"Pool":5227,"Pri":5228,"Sh":5229,"Stra":5230,"Tran":5231,"Val":5232,"az":5233,"ls":5234,"oc":5235,"dement":5236,"inged":5237,"geheten":5238,"onmogelijk":5239,"beoor":5240,"rok":5241,"overzicht":5242,"moslim":5243,"uleren":5244,"hoewel":5245,"treffen":5246,"hiervoor":5247,"netjes":5248,"talent":5249,"urende":5250,"vertrokken":5251,"Markt":5252,"zekerheid":5253,"daden":5254,"gezinnen":5255,"beslist":5256,"lerc":5257,"Hoeveel":5258,"design":5259,"accu":5260,"kleiner":5261,"universiteit":5262,"verkeerd":5263,"fraude":5264,"journalisten":5265,"temperaturen":5266,"vermoedelijk":5267,"boodschappen":5268,"Australië":5269,"machine":5270,"Universiteit":5271,"prachtige":5272,"onderhandelingen":5273,"fantast":5274,"gigant":5275,"Thomas":5276,"Premier":5277,"250":5278,"Fr":5279,"Fort":5280,"Hoek":5281,"Kui":5282,"Mor":5283,"Veil":5284,"baller":5285,"dad":5286,"fot":5287,"hiel":5288,"iders":5289,"kies":5290,"ypt":5291,"zuid":5292,"teveel":5293,"leert":5294,"begro":5295,"kenn":5296,"bijdra":5297,"afger":5298,"neu":5299,"kanaal":5300,"meedoen":5301,"wild":5302,"manieren":5303,"duc":5304,"Daarvoor":5305,"keerde":5306,"gelezen":5307,"ivis":5308,"jarig":5309,"pels":5310,"Vlad":5311,"quent":5312,"function":5313,"antwoorden":5314,"riep":5315,"Netflix":5316,"grensoverschrij":5317,"partic":5318,"dubbele":5319,"gasten":5320,"bevestigt":5321,"Vorige":5322,"Alexander":5323,"Smit":5324,"Porsche":5325,"kandidaten":5326,"%.":5327,"EM":5328,"Gaat":5329,"Ku":5330,"PVV":5331,"Weer":5332,"Water":5333,"Zolang":5334,"akt":5335,"bis":5336,"bonden":5337,"haat":5338,"kool":5339,"raakt":5340,"sor":5341,"von":5342,"velden":5343,"écht":5344,"stien":5345,"gevecht":5346,"onzin":5347,"alarm":5348,"album":5349,"repen":5350,"bewijzen":5351,"igh":5352,"schri":5353,"waarheid":5354,"doorlog":5355,"volop":5356,"najaar":5357,"box":5358,"empl":5359,"accep":5360,"diversiteit":5361,"gedachte":5362,"corru":5363,"kraan":5364,"spreek":5365,"sleden":5366,"Brand":5367,"lichte":5368,"symb":5369,"grondstoffen":5370,"Argent":5371,"biele":5372,"ideeën":5373,"ziekenhuizen":5374,"Rode":5375,"telkens":5376,"frastructuur":5377,"kampen":5378,"produceren":5379,"reageert":5380,"document":5381,"definitief":5382,"plastic":5383,"bijdrage":5384,"AC":5385,"Bijna":5386,"GT":5387,"Ir":5388,"Morgen":5389,"RS":5390,"Th":5391,"cra":5392,"doek":5393,"fouten":5394,"ly":5395,"pagina":5396,"sat":5397,"varen":5398,"way":5399,"ana":5400,"inz":5401,"inch":5402,"cha":5403,"chan":5404,"gestelde":5405,"oni":5406,"onvoldoende":5407,"vervan":5408,"opgelopen":5409,"aanpassen":5410,"beek":5411,"weers":5412,"onderdelen":5413,"hebbers":5414,"beth":5415,"mann":5416,"draag":5417,"werkgevers":5418,"ortus":5419,"constru":5420,"ciaal":5421,"Wester":5422,"eelt":5423,"mishandel":5424,"ertje":5425,"netto":5426,"daders":5427,"France":5428,"buien":5429,"Nadat":5430,"organiseren":5431,"optim":5432,"deskun":5433,"relig":5434,"vinger":5435,"Grand":5436,"bestuurders":5437,"tax":5438,"koopkracht":5439,"technisch":5440,"makkelijker":5441,"stijgende":5442,"daalde":5443,"Eigenlijk":5444,"principe":5445,"letterlijk":5446,"Hopelijk":5447,"opvolger":5448,"57":5449,"95":5450,"Dj":5451,"FT":5452,"GP":5453,"Hans":5454,"Maan":5455,"Mex":5456,"Mogelijk":5457,"Serv":5458,"You":5459,"Zie":5460,"dist":5461,"fit":5462,"meren":5463,"telijk":5464,"taak":5465,"toren":5466,"zz":5467,"ines":5468,"eldoorlog":5469,"veront":5470,"reet":5471,"aantrek":5472,"bei":5473,"radio":5474,"overleven":5475,"zodra":5476,"zogeheten":5477,"doelen":5478,"istan":5479,"blazen":5480,"gemer":5481,"div":5482,"zetels":5483,"plaatste":5484,"misbruik":5485,"snelweg":5486,"gestopt":5487,"handels":5488,"Post":5489,"warme":5490,"zins":5491,"banen":5492,"overheids":5493,"Feder":5494,"sfer":5495,"aanvaller":5496,"besparen":5497,"seksueel":5498,"advocaten":5499,"vliegtuigen":5500,"Syr":5501,"Krim":5502,"verbeteren":5503,"relevan":5504,"William":5505,"43":5506,"48":5507,"AE":5508,"Bou":5509,"Cup":5510,"Dom":5511,"Eg":5512,"Econom":5513,"Gra":5514,"IT":5515,"Stre":5516,"TO":5517,"Tik":5518,"bag":5519,"cond":5520,"clerc":5521,"daag":5522,"fron":5523,"nul":5524,"ticket":5525,"uim":5526,"ward":5527,"stopt":5528,"geï":5529,"onbekende":5530,"verjaar":5531,"ouderen":5532,"schal":5533,"wees":5534,"bloemen":5535,"gebouwen":5536,"essen":5537,"Enkele":5538,"dum":5539,"gewend":5540,"gevaccin":5541,"langzaam":5542,"Stu":5543,"effic":5544,"grapp":5545,"hoogleraar":5546,"plaatsvinden":5547,"wets":5548,"biz":5549,"theorie":5550,"Amsterdamse":5551,"verdeeld":5552,"springen":5553,"investeren":5554,"Engelse":5555,"Donald":5556,"privacy":5557,"vogel":5558,"georganiseerd":5559,"52":5560,"Hou":5561,"Heer":5562,"NI":5563,"Zorg":5564,"mult":5565,"non":5566,"noord":5567,"pau":5568,"uin":5569,"waan":5570,"xt":5571,"stress":5572,"aanslag":5573,"aankoop":5574,"bek":5575,"behoren":5576,"ariteit":5577,"schen":5578,"rijbewijs":5579,"toel":5580,"weren":5581,"ruil":5582,"mobiele":5583,"ofte":5584,"slam":5585,"sloten":5586,"achtige":5587,"nabij":5588,"blan":5589,"zend":5590,"draad":5591,"bels":5592,"toestel":5593,"stromen":5594,"rechtse":5595,"missen":5596,"abonne":5597,"interieur":5598,"wetenschapp":5599,"mars":5600,"intro":5601,"dader":5602,"match":5603,"holpen":5604,"theater":5605,"alisme":5606,"lidstaten":5607,"Steven":5608,"slaven":5609,"investe":5610,"COA":5611,"ontdekt":5612,"Wereld":5613,"Martin":5614,"Politie":5615,"spanningen":5616,"vogels":5617,"Kortom":5618,"ontmoeting":5619,"bewolkt":5620,"perfect":5621,"grotendeels":5622,"gemerkt":5623,"Ach":5624,"BN":5625,"Bal":5626,"Sim":5627,"Shel":5628,"hing":5629,"tab":5630,"zuur":5631,"’:":5632,"inderen":5633,"eloos":5634,"cher":5635,"ongetwijfeld":5636,"verover":5637,"verdr":5638,"aankl":5639,"leken":5640,"ara":5641,"ijkt":5642,"zestien":5643,"uitvoeren":5644,"uss":5645,"rijs":5646,"spot":5647,"overlijden":5648,"ondernemer":5649,"names":5650,"namens":5651,"Ali":5652,"klok":5653,"exempl":5654,"laatst":5655,"coin":5656,"Andere":5657,"bovenop":5658,"ovic":5659,"scherp":5660,"gevaarlijke":5661,"wandel":5662,"succesvol":5663,"medic":5664,"slimme":5665,"durven":5666,"bevestigd":5667,"woest":5668,"overtuigd":5669,"Vrijdag":5670,"controleren":5671,"óór":5672,"Gemeen":5673,"zogenaamde":5674,"Sovjet":5675,"Ere":5676,"Eli":5677,"Kim":5678,"Kerk":5679,"Laten":5680,"cuit":5681,"lood":5682,"loper":5683,"mol":5684,"mist":5685,"pet":5686,"tik":5687,"tas":5688,"tip":5689,"wonder":5690,"wakker":5691,"ïne":5692,"inzicht":5693,"cho":5694,"geopend":5695,"opeens":5696,"aanhouden":5697,"aangeven":5698,"ouwer":5699,"illen":5700,"und":5701,"ograf":5702,"spoed":5703,"weleens":5704,"neur":5705,"prog":5706,"kunde":5707,"ziel":5708,"totdat":5709,"vrou":5710,"mini":5711,"ductie":5712,"merkt":5713,"dipl":5714,"strom":5715,"agenda":5716,"abortus":5717,"Leclerc":5718,"reser":5719,"buik":5720,"cessie":5721,"goederen":5722,"topman":5723,"drama":5724,"harder":5725,"celona":5726,"discrimin":5727,"nummers":5728,"directe":5729,"apparaat":5730,"Barcelona":5731,"negatief":5732,"geheim":5733,"overtuigen":5734,"Canada":5735,"stevige":5736,"adviseur":5737,"iërs":5738,"fabrikant":5739,"verwond":5740,"Vladimir":5741,"grensoverschrijdend":5742,"1000":5743,"Boe":5744,"Bas":5745,"Cap":5746,"Dag":5747,"EL":5748,"Pal":5749,"Sen":5750,"Top":5751,"Vi":5752,"bijk":5753,"cke":5754,"fos":5755,"hit":5756,"jer":5757,"knu":5758,"melk":5759,"ow":5760,"roo":5761,"raam":5762,"ér":5763,"erover":5764,"ellende":5765,"geel":5766,"vergele":5767,"oppositie":5768,"oeder":5769,"igar":5770,"uitslag":5771,"ash":5772,"aganda":5773,"spo":5774,"blog":5775,"ontstaat":5776,"ontstond":5777,"daarover":5778,"voeten":5779,"ichten":5780,"bride":5781,"belooft":5782,"dient":5783,"ctieve":5784,"Behalve":5785,"verwachtingen":5786,"knie":5787,"national":5788,"raakten":5789,"Elon":5790,"wensen":5791,"malig":5792,"letten":5793,"verdedigen":5794,"voortaan":5795,"kader":5796,"Hebben":5797,"gooid":5798,"automobil":5799,"homo":5800,"dagelijkse":5801,"kaartje":5802,"stevig":5803,"investeringen":5804,"eventuele":5805,"moderne":5806,"uitzending":5807,"Oostenrijk":5808,"traditionele":5809,"concurrentie":5810,"account":5811,"fysiek":5812,"verjaardag":5813,"41":5814,"49":5815,"Bol":5816,"Ed":5817,"Han":5818,"Ker":5819,"Later":5820,"Mel":5821,"Mal":5822,"Rou":5823,"Rome":5824,"Sl":5825,"VD":5826,"ec":5827,"gouden":5828,"hau":5829,"jacht":5830,"kra":5831,"piek":5832,"sur":5833,"tachtig":5834,"vres":5835,"vuil":5836,"erf":5837,"atoren":5838,"chn":5839,"opzet":5840,"orig":5841,"resp":5842,"aanhang":5843,"aangeboden":5844,"beë":5845,"beer":5846,"zestig":5847,"tentoon":5848,"ctr":5849,"indien":5850,"klagen":5851,"emar":5852,"toegev":5853,"centage":5854,"bedragen":5855,"staatssecretaris":5856,"uters":5857,"comfort":5858,"idend":5859,"kleed":5860,"inters":5861,"aardgas":5862,"voerde":5863,"Poel":5864,"fruit":5865,"Wilders":5866,"kleinere":5867,"instru":5868,"schulden":5869,"dinsdagavond":5870,"Uiter":5871,"mondkap":5872,"vielen":5873,"treinen":5874,"Harry":5875,"grijpen":5876,"reageerde":5877,"Auto":5878,"spannend":5879,"oppervlak":5880,"conclusie":5881,"ambtenaren":5882,"vergadering":5883,"verbinding":5884,"diefstal":5885,"Begin":5886,"haupt":5887,"58":5888,"Justitie":5889,"Niemand":5890,"Oh":5891,"Rom":5892,"Recht":5893,"cteur":5894,"dol":5895,"fru":5896,"lieten":5897,"noorden":5898,"uma":5899,"etappe":5900,"chef":5901,"verstandig":5902,"orten":5903,"oepel":5904,"bezet":5905,"rijpen":5906,"aging":5907,"overname":5908,"nep":5909,"eleg":5910,"griep":5911,"weegt":5912,"2010":5913,"nucle":5914,"Alp":5915,"lui":5916,"prins":5917,"prior":5918,"aving":5919,"nieuwste":5920,"landelijke":5921,"toenemen":5922,"Leu":5923,"gezonde":5924,"belangrijker":5925,"verdwen":5926,"rollen":5927,"betaalde":5928,"Mocht":5929,"verklaarde":5930,"verenigingen":5931,"lokaal":5932,"dreigen":5933,"klimaatverandering":5934,"noodzakelijk":5935,"centrales":5936,"Afg":5937,"Super":5938,"beveiliging":5939,"plots":5940,"zwakke":5941,"documenten":5942,"tegelijkertijd":5943,"Kunnen":5944,"aanzienlijk":5945,"vernij":5946,"fasc":5947,"Louis":5948,"ambulance":5949,"verdwenen":5950,"Gor":5951,"Jetten":5952,"Ky":5953,"Kro":5954,"Kru":5955,"Lek":5956,"MC":5957,"Pek":5958,"SA":5959,"Vier":5960,"fer":5961,"gok":5962,"lad":5963,"mm":5964,"mut":5965,"ws":5966,"dele":5967,"debu":5968,"stim":5969,"gedeeld":5970,"vermin":5971,"verpool":5972,"rek":5973,"aanwij":5974,"bewezen":5975,"armen":5976,"uitspraken":5977,"Democr":5978,"ikein":5979,"una":5980,"unieke":5981,"aatregelen":5982,"tens":5983,"overwegen":5984,"mobil":5985,"naartoe":5986,"dos":5987,"anties":5988,"Albert":5989,"berhaupt":5990,"minst":5991,"Energie":5992,"stelen":5993,"sterf":5994,"const":5995,"woner":5996,"hierbij":5997,"nov":5998,"netje":5999,"kroon":6000,"ballen":6001,"uizen":6002,"zwanger":6003,"coronam":6004,"publikein":6005,"steunen":6006,"korten":6007,"concern":6008,"Robert":6009,"zuinig":6010,"Wellicht":6011,"schermen":6012,"keuzes":6013,"rechtszaak":6014,"dreigt":6015,"monu":6016,"maatschappelijke":6017,"hybride":6018,"populaire":6019,"werkelijkheid":6020,"Liverpool":6021,"circuit":6022,"Finland":6023,"Boris":6024,"Ruim":6025,"gelukt":6026,"anciers":6027,"fysieke":6028,"kennelijk":6029,"Bern":6030,"Cov":6031,"Gar":6032,"Mu":6033,"Maas":6034,"Via":6035,"WO":6036,"Zand":6037,"curs":6038,"huren":6039,"job":6040,"ningen":6041,"puur":6042,"paard":6043,"vid":6044,"vóór":6045,"zand":6046,"zamer":6047,"….":6048,"dek":6049,"vankelijk":6050,"iseren":6051,"opgeroepen":6052,"realiseren":6053,"bestemming":6054,"voorheen":6055,"metho":6056,"ogel":6057,"seerd":6058,"overval":6059,"afond":6060,"danken":6061,"meegenomen":6062,"wille":6063,"asten":6064,"bran":6065,"toeslagen":6066,"dict":6067,"sterker":6068,"kwaad":6069,"orgd":6070,"internationaal":6071,"lach":6072,"market":6073,"renner":6074,"passing":6075,"luchtvaart":6076,"serieuze":6077,"voetballer":6078,"focus":6079,"gangers":6080,"verandert":6081,"vrees":6082,"tain":6083,"conclu":6084,"mooiste":6085,"personeelste":6086,"batterij":6087,"effectief":6088,"Engels":6089,"voeding":6090,"Financi":6091,"behandeld":6092,"ancier":6093,"prachtig":6094,"passag":6095,"gepland":6096,"David":6097,"tribun":6098,"bassade":6099,"abonnement":6100,"Shell":6101,"800":6102,"BA":6103,"Hil":6104,"Hag":6105,"Jammer":6106,"MI":6107,"Mooi":6108,"Pe":6109,"RO":6110,"Sil":6111,"Tussen":6112,"aert":6113,"flu":6114,"lul":6115,"pin":6116,"risten":6117,"ugt":6118,"voud":6119,"’-":6120,"deug":6121,"inspir":6122,"stam":6123,"staf":6124,"isc":6125,"derij":6126,"rectie":6127,"heft":6128,"illa":6129,"schr":6130,"under":6131,"doorn":6132,"volging":6133,"volutie":6134,"kanten":6135,"imi":6136,"meerd":6137,"2030":6138,"tegenstelling":6139,"ota":6140,"mensenrechten":6141,"conserv":6142,"liepen":6143,"export":6144,"rechters":6145,"hiermee":6146,"Erik":6147,"crypt":6148,"mentale":6149,"Angel":6150,"gras":6151,"Leid":6152,"2025":6153,"balans":6154,"verlaging":6155,"verbieden":6156,"Belgen":6157,"poel":6158,"scheids":6159,"2013":6160,"korting":6161,"leveringen":6162,"Bosch":6163,"gezeten":6164,"kapit":6165,"moeilijke":6166,"transport":6167,"bestaanden":6168,"toekomstige":6169,"alistisch":6170,"probeerd":6171,"tekenen":6172,"ureel":6173,"wereldwijde":6174,"jaarlijkse":6175,"World":6176,"Patr":6177,"evenement":6178,"uitdaging":6179,"Mechelen":6180,"vertraging":6181,"keihard":6182,"voegt":6183,"Eredivisie":6184,"Uiteraard":6185,"coronamaatregelen":6186,"):":6187,"51":6188,"63":6189,"64":6190,"CBS":6191,"CEO":6192,"Fo":6193,"Krem":6194,"MA":6195,"Ti":6196,"Tien":6197,"Vaak":6198,"cteren":6199,"hinder":6200,"iaan":6201,"koud":6202,"koude":6203,"letje":6204,"wapp":6205,"erders":6206,"infrastructuur":6207,"ijst":6208,"geg":6209,"gemoet":6210,"algemene":6211,"tegemoet":6212,"oorspron":6213,"orn":6214,"oranje":6215,"reu":6216,"aanloop":6217,"bedenken":6218,"arije":6219,"ologen":6220,"oup":6221,"medi":6222,"schoten":6223,"ventie":6224,"sectoren":6225,"volu":6226,"ici":6227,"betaling":6228,"duels":6229,"elens":6230,"zitting":6231,"gedurende":6232,"commiss":6233,"command":6234,"dienen":6235,"abele":6236,"Vanwege":6237,"achteruit":6238,"Str":6239,"getu":6240,"logen":6241,"gestolen":6242,"Andr":6243,"Lees":6244,"Franc":6245,"stream":6246,"scoren":6247,"instituut":6248,"veroorzaken":6249,"god":6250,"alistische":6251,"tellen":6252,"keurd":6253,"officier":6254,"slavernij":6255,"besproken":6256,"verwijderen":6257,"veertien":6258,"sporten":6259,"reaguur":6260,"zangeres":6261,"specifieke":6262,"Hongarije":6263,"vacu":6264,"Portug":6265,"Anderlecht":6266,"medaille":6267,"Maandag":6268,"verwondingen":6269,"Covid":6270,"47":6271,"Ah":6272,"Best":6273,"Hal":6274,"Lijkt":6275,"Ou":6276,"RIV":6277,"Toe":6278,"Vin":6279,"dings":6280,"dogan":6281,"ee":6282,"flex":6283,"hè":6284,"iOS":6285,"ky":6286,"tips":6287,"voeg":6288,"gearre":6289,"onnee":6290,"iswaar":6291,"verminder":6292,"verzorg":6293,"verstre":6294,"oplopen":6295,"aanvraag":6296,"beweer":6297,"illes":6298,"ung":6299,"robot":6300,"tour":6301,"overtre":6302,"geleerd":6303,"ves":6304,"onderweg":6305,"dode":6306,"ontwerp":6307,"anta":6308,"gereg":6309,"management":6310,"openings":6311,"toestemming":6312,"langdur":6313,"Daarin":6314,"gedachten":6315,"helik":6316,"groeit":6317,"toename":6318,"dames":6319,"coronapan":6320,"sommigen":6321,"gebeurten":6322,"drukte":6323,"scoorde":6324,"ontwikkeld":6325,"kwartier":6326,"oplossen":6327,"begrijpt":6328,"verwijderd":6329,"Olympische":6330,"snappen":6331,"vermoeden":6332,"Macron":6333,"honger":6334,"coureur":6335,"Marokko":6336,"figuur":6337,"eventueel":6338,"fabrikanten":6339,"propaganda":6340,"Jeroen":6341,"Radio":6342,"verrassend":6343,"sleutel":6344,"ivisie":6345,"Djok":6346,"beëind":6347,"Kremlin":6348,"Portugal":6349,"coronapandemie":6350,"85":6351,"Cat":6352,"Cam":6353,"Din":6354,"Fed":6355,"Hof":6356,"Jij":6357,"Just":6358,"Lot":6359,"Nad":6360,"NOS":6361,"Rijn":6362,"bok":6363,"blijken":6364,"booster":6365,"cker":6366,"oer":6367,"ya":6368,"ör":6369,"aait":6370,"elaar":6371,"gej":6372,"gegooid":6373,"geprobeerd":6374,"verluidt":6375,"genen":6376,"recessie":6377,"oes":6378,"bevrij":6379,"ouwe":6380,"meu":6381,"spiegel":6382,"worpen":6383,"tere":6384,"onderhoud":6385,"onderzoeker":6386,"afspraak":6387,"zogenoemde":6388,"benen":6389,"graaf":6390,"keek":6391,"blo":6392,"ontpl":6393,"ontslagen":6394,"auteur":6395,"tijdig":6396,"actrice":6397,"persconferentie":6398,"Stel":6399,"groeide":6400,"gebruikte":6401,"pectief":6402,"Ons":6403,"aangegeven":6404,"energiet":6405,"aardige":6406,"doelpunten":6407,"brede":6408,"ify":6409,"Boer":6410,"Waarschijnlijk":6411,"Real":6412,"vrijdagavond":6413,"economisch":6414,"goal":6415,"ontwikkelingen":6416,"extreme":6417,"seksuele":6418,"politicus":6419,"drongen":6420,"Qua":6421,"Wereldoorlog":6422,"zwemb":6423,"Turkse":6424,"arbeidsmarkt":6425,"bezorgd":6426,"Noorwegen":6427,"ING":6428,"specifiek":6429,"individuele":6430,"Whats":6431,"gewenste":6432,"getekend":6433,"schaffen":6434,"voorzichtig":6435,"aantrekkelijk":6436,"verdriet":6437,"vergeleken":6438,"RIVM":6439,"gearresteerd":6440,"AN":6441,"Ama":6442,"Aren":6443,"Bil":6444,"Cy":6445,"Oister":6446,"Pale":6447,"Play":6448,"Tra":6449,"Tja":6450,"Turn":6451,"Vel":6452,"Winters":6453,"Zwee":6454,"avan":6455,"boog":6456,"dse":6457,"haast":6458,"kut":6459,"laan":6460,"micro":6461,"sug":6462,"talen":6463,"ub":6464,"ures":6465,"vullen":6466,"yste":6467,"zik":6468,"zeld":6469,"gevestig":6470,"gecontrole":6471,"geholpen":6472,"eense":6473,"opbreng":6474,"rechte":6475,"bevel":6476,"beïn":6477,"kenning":6478,"iliteit":6479,"schrik":6480,"iker":6481,"overstap":6482,"ambassade":6483,"ador":6484,"apart":6485,"neveld":6486,"graan":6487,"zender":6488,"humor":6489,"allebei":6490,"acte":6491,"stenen":6492,"trekker":6493,"gedaald":6494,"herstellen":6495,"Anton":6496,"contain":6497,"Marc":6498,"finish":6499,"zabeth":6500,"syn":6501,"puter":6502,"coronap":6503,"doelpunt":6504,"lichtingen":6505,"column":6506,"Griek":6507,"straffen":6508,"Denemar":6509,"univers":6510,"dichtbij":6511,"Mede":6512,"malige":6513,"centraal":6514,"provincies":6515,"vermoord":6516,"portem":6517,"Michel":6518,"Audi":6519,"wisseling":6520,"presentator":6521,"onafhankelijke":6522,"Japanse":6523,"toeristen":6524,"favoriete":6525,"details":6526,"nederlaag":6527,"procedure":6528,"commentaar":6529,"feesten":6530,"trend":6531,"grappig":6532,"Elizabeth":6533,"vrouwelijke":6534,"origin":6535,"verminderen":6536,"Djokovic":6537,"Oisterwijk":6538,"Denemarken":6539,"54":6540,"67":6541,"Dor":6542,"ED":6543,"GL":6544,"Jos":6545,"Res":6546,"SU":6547,"Sn":6548,"Slo":6549,"Til":6550,"Vijf":6551,"Wol":6552,"Wall":6553,"Werk":6554,"Witte":6555,"bussen":6556,"cer":6557,"edt":6558,"eieren":6559,"raar":6560,"ssen":6561,"sma":6562,"tand":6563,"uvel":6564,"überhaupt":6565,"€˜":6566,"ingew":6567,"staal":6568,"gekeerd":6569,"opter":6570,"omin":6571,"omst":6572,"uitsluiten":6573,"uitgaven":6574,"schut":6575,"ikron":6576,"welzijn":6577,"nest":6578,"atiek":6579,"ploegen":6580,"nabestaanden":6581,"ontbreekt":6582,"percentage":6583,"drink":6584,"aster":6585,"toeg":6586,"centra":6587,"computer":6588,"hierover":6589,"ipv":6590,"getest":6591,"getoond":6592,"ankelijk":6593,"renners":6594,"Meta":6595,"handh":6596,"eltje":6597,"Ont":6598,"beurzen":6599,"verlichting":6600,"actieve":6601,"scheiding":6602,"leidingen":6603,"schrijver":6604,"gevoelens":6605,"motiv":6606,"linker":6607,"ervaringen":6608,"Grieken":6609,"paniek":6610,"etsk":6611,"situaties":6612,"tieel":6613,"transfer":6614,"jongste":6615,"gevoelig":6616,"keurig":6617,"beperken":6618,"Phil":6619,"partners":6620,"incidenten":6621,"activisten":6622,"ontdekken":6623,"geïnter":6624,"cyber":6625,"racisme":6626,"katten":6627,"vloeden":6628,"verwarming":6629,"kwalificatie":6630,"zinnig":6631,"vervelend":6632,"Zwitser":6633,"toevallig":6634,"wederom":6635,"afkomstig":6636,"Surinaam":6637,"afgerond":6638,"Lekker":6639,"branche":6640,"portemonnee":6641,"53":6642,"69":6643,"Bro":6644,"Bek":6645,"Echt":6646,"Fi":6647,"Hul":6648,"Home":6649,"Ly":6650,"Son":6651,"Waal":6652,"Zaterdag":6653,"bio":6654,"cken":6655,"fre":6656,"jagen":6657,"pru":6658,"smaak":6659,"tim":6660,"tige":6661,"uken":6662,"vice":6663,"wolf":6664,"ette":6665,"inië":6666,"innov":6667,"stan":6668,"stier":6669,"gestemd":6670,"oning":6671,"vangt":6672,"ope":6673,"omroep":6674,"aankond":6675,"ingrijpen":6676,"seg":6677,"agers":6678,"spons":6679,"spijt":6680,"onderwerpen":6681,"weliswaar":6682,"bena":6683,"nadenken":6684,"vocht":6685,"Neem":6686,"boy":6687,"exter":6688,"hans":6689,"gedreven":6690,"perspectief":6691,"herf":6692,"herkennen":6693,"Star":6694,"helder":6695,"groeid":6696,"Andre":6697,"spect":6698,"contac":6699,"werkende":6700,"aantallen":6701,"maatschap":6702,"inklijke":6703,"Spot":6704,"regime":6705,"wetgeving":6706,"knap":6707,"motie":6708,"besteed":6709,"trouw":6710,"vakbond":6711,"vrezen":6712,"trainen":6713,"liggende":6714,"geweldige":6715,"Partij":6716,"cijfer":6717,"stoelen":6718,"criminele":6719,"normen":6720,"effecten":6721,"gevolgd":6722,"generaal":6723,"stuurt":6724,"Barneveld":6725,"Koning":6726,"waarschuwt":6727,"communic":6728,"downlo":6729,"Vries":6730,"klappen":6731,"voorbereiding":6732,"prestaties":6733,"Breda":6734,"curity":6735,"complete":6736,"Kuipers":6737,"TikTok":6738,"Patrick":6739,"68":6740,"72":6741,"AP":6742,"Bouw":6743,"GB":6744,"Im":6745,"Kamp":6746,"Los":6747,"Prec":6748,"QR":6749,"RC":6750,"Tai":6751,"War":6752,"Zal":6753,"Zeel":6754,"Zwol":6755,"bs":6756,"dal":6757,"fris":6758,"lacht":6759,"reren":6760,"yl":6761,"eng":6762,"state":6763,"char":6764,"gestaan":6765,"alo":6766,"isol":6767,"verwachte":6768,"itair":6769,"opol":6770,"opgelegd":6771,"gender":6772,"denking":6773,"aanbieden":6774,"led":6775,"mest":6776,"schuil":6777,"meneer":6778,"ida":6779,"idio":6780,"rijven":6781,"toil":6782,"terras":6783,"afwachten":6784,"graad":6785,"akel":6786,"anderhalf":6787,"bloe":6788,"India":6789,"inda":6790,"meegemaakt":6791,"opende":6792,"dromen":6793,"asting":6794,"lukken":6795,"winsten":6796,"begrepen":6797,"sieve":6798,"getra":6799,"Anne":6800,"stemt":6801,"vastgesteld":6802,"oudste":6803,"vriendelijk":6804,"schijnt":6805,"Republikein":6806,"meesters":6807,"Roy":6808,"munt":6809,"verklaren":6810,"velder":6811,"cellen":6812,"ski":6813,"beperking":6814,"betrokkenheid":6815,"spring":6816,"vermoed":6817,"voorzieningen":6818,"snapt":6819,"Corona":6820,"signaal":6821,"RTL":6822,"wekkend":6823,"Marokk":6824,"schuiven":6825,"bijeenkomst":6826,"compensatie":6827,"Midden":6828,"juridische":6829,"begroting":6830,"Smith":6831,"toegevoegd":6832,"Leuven":6833,"Peking":6834,"Leidse":6835,"Taiwan":6836,"-,":6837,"Ass":6838,"Bay":6839,"Derk":6840,"Jans":6841,"Kinderen":6842,"Luk":6843,"Momen":6844,"Pers":6845,"Reg":6846,"ax":6847,"econ":6848,"koos":6849,"mie":6850,"malen":6851,"nag":6852,"zzel":6853,"ani":6854,"instelling":6855,"iness":6856,"inhoud":6857,"ijer":6858,"steld":6859,"ath":6860,"onbe":6861,"onmiddel":6862,"ité":6863,"opent":6864,"omlaag":6865,"ors":6866,"reeds":6867,"aankomen":6868,"aanslagen":6869,"bewegen":6870,"behoud":6871,"wekelijk":6872,"kenden":6873,"meel":6874,"uitkomst":6875,"schand":6876,"roze":6877,"toet":6878,"gelooft":6879,"mok":6880,"afsluiten":6881,"waardige":6882,"neming":6883,"achttien":6884,"istiek":6885,"bli":6886,"kloppen":6887,"brieven":6888,"duo":6889,"toevoegen":6890,"accept":6891,"kov":6892,"koel":6893,"rechtstreeks":6894,"Vanuit":6895,"achteraf":6896,"Stichting":6897,"Jezus":6898,"hoogst":6899,"jongere":6900,"eltjes":6901,"games":6902,"Bijvoorbeeld":6903,"verbaas":6904,"waterstof":6905,"verdwijn":6906,"knal":6907,"identiteit":6908,"achel":6909,"bewu":6910,"vingers":6911,"James":6912,"voetballen":6913,"forse":6914,"vormt":6915,"menselijke":6916,"shit":6917,"celstraf":6918,"kilometers":6919,"wandelen":6920,"vertrouw":6921,"fietser":6922,"import":6923,"beschikken":6924,"uiterst":6925,"zorger":6926,"contracten":6927,"stuurde":6928,"beslissen":6929,"botsing":6930,"verleng":6931,"Kees":6932,"Vraag":6933,"Berlijn":6934,"verzamelen":6935,"vestigen":6936,"prestatie":6937,"benadru":6938,"betekenis":6939,"kwetsbaar":6940,"kritisch":6941,"Flor":6942,"Normaal":6943,"laptop":6944,"Brazilië":6945,"claim":6946,"enthousiast":6947,"ingediend":6948,"distri":6949,"nucleaire":6950,"passagiers":6951,"Turnhout":6952,"Precies":6953,"Zeeland":6954,".)":6955,"73":6956,"Donderdag":6957,"Fv":6958,"Fre":6959,"Lang":6960,"Micro":6961,"Ot":6962,"Pog":6963,"ST":6964,"Sw":6965,"Twen":6966,"kal":6967,"look":6968,"mant":6969,"ppel":6970,"rr":6971,"sier":6972,"sverkiezingen":6973,"tol":6974,"tun":6975,"tiële":6976,"deerde":6977,"infe":6978,"inlichtingen":6979,"elite":6980,"ston":6981,"stic":6982,"atten":6983,"gedeelt":6984,"onrust":6985,"oordeel":6986,"oplicht":6987,"opgezet":6988,"omp":6989,"rekken":6990,"reerd":6991,"lein":6992,"leest":6993,"bestellen":6994,"behulp":6995,"bezoeken":6996,"heers":6997,"uitvoer":6998,"uitvoering":6999,"rog":7000,"rijder":7001,"overige":7002,"ruime":7003,"dans":7004,"aparte":7005,"ical":7006,"duw":7007,"belde":7008,"huisvest":7009,"eigenaren":7010,"bleken":7011,"avont":7012,"hemel":7013,"verscheen":7014,"Leeuw":7015,"passingen":7016,"Mari":7017,"verlagen":7018,"energiere":7019,"scheiden":7020,"reguliere":7021,"ganger":7022,"volgers":7023,"tempo":7024,"nachts":7025,"maandagavond":7026,"feestje":7027,"lidmaatschap":7028,"profiteren":7029,"titels":7030,"garage":7031,"massa":7032,"promot":7033,"bommen":7034,"gezelschap":7035,"ympisch":7036,"Wordt":7037,"doorgaans":7038,"figuren":7039,"Juist":7040,"Pieter":7041,"ranglijst":7042,"artiesten":7043,"Madrid":7044,"score":7045,"inspectie":7046,"herinneren":7047,"ophef":7048,"assistent":7049,"crash":7050,"discriminatie":7051,"Dinsdag":7052,"ingewik":7053,"Surinaamse":7054,"FvD":7055,"62":7056,"Bon":7057,"Der":7058,"Frie":7059,"Ford":7060,"Hoo":7061,"Mi":7062,"NH":7063,"Nik":7064,"Oor":7065,"Pel":7066,"Plan":7067,"Sar":7068,"bai":7069,"hap":7070,"pelen":7071,"vals":7072,"vuldig":7073,"yan":7074,"zacht":7075,"zwij":7076,"án":7077,"inses":7078,"gedeel":7079,"gehele":7080,"ongen":7081,"ongelijk":7082,"eend":7083,"teven":7084,"tegel":7085,"text":7086,"verhuur":7087,"verhouding":7088,"ita":7089,"opnames":7090,"aangenomen":7091,"bezwaar":7092,"behandelen":7093,"voordelen":7094,"voorraad":7095,"voorbeelden":7096,"vooralsnog":7097,"ola":7098,"meters":7099,"uitgeno":7100,"ros":7101,"overheden":7102,"appl":7103,"aker":7104,"akter":7105,"onthul":7106,"pert":7107,"drol":7108,"goedge":7109,"content":7110,"deelnemen":7111,"zoektocht":7112,"rans":7113,"hiervan":7114,"iëren":7115,"begra":7116,"persbureau":7117,"verteld":7118,"zijds":7119,"covid":7120,"lost":7121,"interkl":7122,"Leuk":7123,"Lewis":7124,"gebruiker":7125,"gezorgd":7126,"anny":7127,"oemde":7128,"regist":7129,"studio":7130,"Geef":7131,"relaties":7132,"Green":7133,"zaterdagavond":7134,"woensdagavond":7135,"zaamheid":7136,"paste":7137,"moeilijker":7138,"verklaard":7139,"Onderwijs":7140,"elektrisch":7141,"Kamerlid":7142,"Luc":7143,"culturele":7144,"middenvelder":7145,"rappen":7146,"arbeid":7147,"fijne":7148,"digitaal":7149,"woede":7150,"Burgemeester":7151,"Hoge":7152,"voorbereid":7153,"schietpartij":7154,"verspreid":7155,"herinneringen":7156,"Kleine":7157,"maximale":7158,"uitbreiding":7159,"ambities":7160,"minimum":7161,"Tegelijkertijd":7162,"Poolse":7163,"Prix":7164,"schrift":7165,"gecontroleerd":7166,"toegankelijk":7167,"Zwitserland":7168,"contacten":7169,"Spotify":7170,"Momenteel":7171,"uitgenodigd":7172,"?\"":7173,"AT":7174,"Bert":7175,"Gir":7176,"Kn":7177,"Pres":7178,"Roe":7179,"Weten":7180,"centen":7181,"fou":7182,"held":7183,"jas":7184,"mr":7185,"ppen":7186,"ssel":7187,"szins":7188,"tur":7189,"trokken":7190,"time":7191,"ux":7192,"uis":7193,"vaar":7194,"ered":7195,"ijds":7196,"ela":7197,"onbekend":7198,"verhuis":7199,"verblijven":7200,"verpleeg":7201,"opp":7202,"opricht":7203,"ommel":7204,"voorsp":7205,"ijken":7206,"iland":7207,"uiting":7208,"schouw":7209,"stein":7210,"sex":7211,"werkl":7212,"afgesproken":7213,"akers":7214,"klonk":7215,"wijd":7216,"broe":7217,"toegenomen":7218,"merkte":7219,"exact":7220,"parket":7221,"traject":7222,"trauma":7223,"getrouw":7224,"gestor":7225,"graven":7226,"plaatsgevonden":7227,"paspoort":7228,"intell":7229,"series":7230,"verderop":7231,"aangepakt":7232,"anning":7233,"stapte":7234,"coronat":7235,"breuk":7236,"2011":7237,"zonn":7238,"lasten":7239,"zesde":7240,"hulpdiensten":7241,"2008":7242,"Parlement":7243,"shir":7244,"verklaart":7245,"belastingen":7246,"beschikking":7247,"ound":7248,"hoogtepunt":7249,"social":7250,"Afrikaanse":7251,"oefenen":7252,"lampen":7253,"geheime":7254,"zilver":7255,"meent":7256,"phone":7257,"conclusies":7258,"evenementen":7259,"besef":7260,"smartphone":7261,"beschermd":7262,"Plus":7263,"chauffeur":7264,"verhoogd":7265,"Hoekstra":7266,"chaos":7267,"daagse":7268,"blanke":7269,"diplom":7270,"responden":7271,"frustr":7272,"Amazon":7273,"herfst":7274,"Twente":7275,"intelligen":7276,"!)":7277,"120":7278,"130":7279,"Blu":7280,"Cru":7281,"Drent":7282,"Filip":7283,"GG":7284,"Geert":7285,"IP":7286,"Koop":7287,"Ok":7288,"Rac":7289,"Wet":7290,"Zondag":7291,"bac":7292,"fus":7293,"ln":7294,"moorden":7295,"tak":7296,"tall":7297,"vru":7298,"wielen":7299,"zige":7300,"erie":7301,"stort":7302,"ooter":7303,"geze":7304,"ongeloof":7305,"opgesch":7306,"aanmer":7307,"aanpakken":7308,"ijnse":7309,"mevrouw":7310,"uitgesproken":7311,"unda":7312,"overgang":7313,"ookt":7314,"bijstand":7315,"amateur":7316,"lening":7317,"bende":7318,"weeg":7319,"bla":7320,"hui":7321,"drang":7322,"bril":7323,"gemaakte":7324,"allang":7325,"concentr":7326,"exclus":7327,"koste":7328,"eigendom":7329,"terugkeer":7330,"omende":7331,"crete":7332,"selt":7333,"verschrik":7334,"mijden":7335,"rennen":7336,"slepen":7337,"Belasting":7338,"vastgoed":7339,"verdrag":7340,"Vld":7341,"slechter":7342,"streek":7343,"Doordat":7344,"veranderingen":7345,"Group":7346,"aliseerde":7347,"elektron":7348,"menselijk":7349,"dichter":7350,"iano":7351,"ianne":7352,"operation":7353,"premie":7354,"domme":7355,"impor":7356,"verkiezing":7357,"bakken":7358,"barst":7359,"criminaliteit":7360,"heerlijk":7361,"rapper":7362,"negentig":7363,"arbeiders":7364,"alty":7365,"Black":7366,"vroege":7367,"maatschappijen":7368,"ody":7369,"kamers":7370,"stations":7371,"consument":7372,"grepen":7373,"goedkope":7374,"boerderij":7375,"gevangenisstraf":7376,"kwetsbare":7377,"radic":7378,"gewenst":7379,"bevatten":7380,"commerciële":7381,"appartement":7382,"geconfron":7383,"hevige":7384,"prioriteit":7385,"Afghan":7386,"Financiën":7387,"zwembad":7388,"Zwolle":7389,"Marokkaanse":7390,"interklaas":7391,"geconfronteerd":7392,"!’":7393,"AI":7394,"AO":7395,"Che":7396,"ES":7397,"Est":7398,"Echter":7399,"ME":7400,"Nooit":7401,"Pet":7402,"Rid":7403,"Vos":7404,"Zit":7405,"Zwar":7406,"ail":7407,"gru":7408,"kippen":7409,"lijf":7410,"mpt":7411,"nie":7412,"tap":7413,"uter":7414,"vingen":7415,"vul":7416,"wicht":7417,"inform":7418,"aaid":7419,"stoten":7420,"itische":7421,"opkomst":7422,"dertien":7423,"aankomst":7424,"lekken":7425,"beiden":7426,"voorstelling":7427,"voorraden":7428,"urgen":7429,"rak":7430,"uitkomen":7431,"schaam":7432,"iking":7433,"unten":7434,"sea":7435,"sequent":7436,"tok":7437,"overleef":7438,"iens":7439,"icus":7440,"vrie":7441,"vrol":7442,"klin":7443,"valu":7444,"boet":7445,"bocht":7446,"weerstand":7447,"emand":7448,"toestand":7449,"toespraak":7450,"gewonden":7451,"traditie":7452,"complot":7453,"hersteld":7454,"landelijk":7455,"hobby":7456,"Zodra":7457,"samenwerken":7458,"intje":7459,"intimi":7460,"hands":7461,"elta":7462,"Schouten":7463,"Beste":7464,"region":7465,"knip":7466,"motoren":7467,"Geor":7468,"woonde":7469,"zondagavond":7470,"muzik":7471,"ford":7472,"2009":7473,"munitie":7474,"shop":7475,"dreiging":7476,"laagste":7477,"beperkte":7478,"borden":7479,"Brusselse":7480,"vergelijken":7481,"garantie":7482,"durf":7483,"drones":7484,"bedreigd":7485,"Nieuws":7486,"factor":7487,"Volksgezondheid":7488,"wekkende":7489,"hersen":7490,"karakter":7491,"overeenkomst":7492,"Komt":7493,"volwassenen":7494,"kritische":7495,"argument":7496,"Sterker":7497,"verschijnt":7498,"Argentinië":7499,"mishandeling":7500,"religie":7501,"marketing":7502,"voudige":7503,"cryptom":7504,"commissaris":7505,"helikopter":7506,"WhatsApp":7507,"gedeelte":7508,"77":7509,"Aut":7510,"Bul":7511,"Dy":7512,"Fa":7513,"Has":7514,"Hart":7515,"Iemand":7516,"Kor":7517,"Kap":7518,"My":7519,"Nick":7520,"PN":7521,"Pere":7522,"Rog":7523,"Rich":7524,"SC":7525,"Slecht":7526,"Thijs":7527,"Veen":7528,"cil":7529,"cteerd":7530,"dun":7531,"fat":7532,"foort":7533,"gor":7534,"gister":7535,"kas":7536,"koopt":7537,"lor":7538,"mi":7539,"ange":7540,"analisten":7541,"instroom":7542,"ieme":7543,"aldo":7544,"isa":7545,"opwar":7546,"omme":7547,"aanleg":7548,"aanstaande":7549,"leerd":7550,"bejaar":7551,"hect":7552,"iga":7553,"igheids":7554,"schad":7555,"bijdragen":7556,"tering":7557,"ruzie":7558,"mode":7559,"dankt":7560,"ado":7561,"blig":7562,"klus":7563,"iteerd":7564,"gaand":7565,"sterven":7566,"consequent":7567,"treffer":7568,"maandelijk":7569,"nieuwbouw":7570,"correct":7571,"getje":7572,"seling":7573,"Chris":7574,"flat":7575,"uwen":7576,"halver":7577,"besluiten":7578,"verbazen":7579,"symp":7580,"stapt":7581,"Span":7582,"goeie":7583,"hakt":7584,"vissen":7585,"paarden":7586,"identific":7587,"siele":7588,"assa":7589,"posities":7590,"krachtig":7591,"buurman":7592,"trainings":7593,"oofde":7594,"transpar":7595,"drem":7596,"vatten":7597,"Eerste":7598,"Philip":7599,"kabel":7600,"klassieke":7601,"virtu":7602,"aanwezigheid":7603,"vaccins":7604,"melo":7605,"durft":7606,"kampt":7607,"circa":7608,"horst":7609,"Matt":7610,"praktisch":7611,"beveiligings":7612,"Nationale":7613,"demonstranten":7614,"Evene":7615,"opmerking":7616,"Apeldoorn":7617,"verbetering":7618,"droogte":7619,"vacat":7620,"weigeren":7621,"tanks":7622,"enigszins":7623,"illegaal":7624,"accepteren":7625,"debuut":7626,"getuige":7627,"energiereken":7628,"!”":7629,".,":7630,"61":7631,"Ba":7632,"Bus":7633,"Book":7634,"Beer":7635,"Cre":7636,"Cro":7637,"Chel":7638,"Cong":7639,"Dir":7640,"Dieren":7641,"Ier":7642,"KV":7643,"Lil":7644,"Museum":7645,"Oude":7646,"Oud":7647,"Rij":7648,"Ram":7649,"Sop":7650,"Ton":7651,"Ven":7652,"ao":7653,"azing":7654,"btw":7655,"dwar":7656,"fats":7657,"hé":7658,"hok":7659,"hai":7660,"iale":7661,"ji":7662,"ki":7663,"krap":7664,"lab":7665,"ronden":7666,"tings":7667,"uel":7668,"éér":7669,"ero":7670,"etjes":7671,"inn":7672,"aaie":7673,"gespeci":7674,"vervo":7675,"verbrand":7676,"reep":7677,"aanrijding":7678,"bemoe":7679,"ouver":7680,"rapp":7681,"uitgesteld":7682,"schor":7683,"ikker":7684,"menig":7685,"tentie":7686,"terugt":7687,"ondernem":7688,"modus":7689,"afgesch":7690,"ofwel":7691,"welvaart":7692,"kante":7693,"protesten":7694,"zigen":7695,"zelden":7696,"meesten":7697,"audi":7698,"oton":7699,"constat":7700,"geweten":7701,"lieden":7702,"maaltijd":7703,"Alsof":7704,"diens":7705,"noteerde":7706,"Zeven":7707,"grootschal":7708,"coca":7709,"gestapt":7710,"rendement":7711,"sprekend":7712,"vallend":7713,"vallende":7714,"Maria":7715,"verkoopt":7716,"verbazing":7717,"eindigt":7718,"posit":7719,"wetten":7720,"quar":7721,"knoppen":7722,"geslaagd":7723,"sporters":7724,"strafrecht":7725,"regerings":7726,"families":7727,"taken":7728,"beleids":7729,"goals":7730,"specialist":7731,"verdiend":7732,"solid":7733,"zeventig":7734,"beperkingen":7735,"trekkers":7736,"volkings":7737,"verliest":7738,"Rotterdamse":7739,"Prins":7740,"besmetting":7741,"beslissingen":7742,"Iedere":7743,"Kevin":7744,"ontdekte":7745,"bombar":7746,"vreemde":7747,"Canade":7748,"pompen":7749,"service":7750,"verhogingen":7751,"statushouders":7752,"subsidies":7753,"klassement":7754,"dwang":7755,"uitzondering":7756,"prettig":7757,"Giro":7758,"affaire":7759,"betalingen":7760,"betrouwbaar":7761,"beschadigd":7762,"gezamenlijke":7763,"corruptie":7764,"efficiën":7765,"bizar":7766,"Gemeente":7767,"cursus":7768,"geregist":7769,"Palest":7770,"SUV":7771,"Bekijk":7772,"gestorven":7773,"Zwarte":7774,"vrolijk":7775,"Spanjaar":7776,"Evenepoel":7777,"''":7778,"2e":7779,"88":7780,"96":7781,"Amers":7782,"DP":7783,"Danny":7784,"Jas":7785,"Kra":7786,"Kem":7787,"Koen":7788,"Kla":7789,"Maak":7790,"Mün":7791,"NU":7792,"Pen":7793,"Sig":7794,"Tor":7795,"VT":7796,"Vre":7797,"Wouter":7798,"bast":7799,"biel":7800,"ese":7801,"fik":7802,"ften":7803,"nar":7804,"tanden":7805,"zings":7806,"inzitten":7807,"gekl":7808,"gewaarschuw":7809,"gemeesters":7810,"vervolgt":7811,"vergeet":7812,"opa":7813,"ophalen":7814,"aanmeld":7815,"aansluiting":7816,"oekt":7817,"bevestigen":7818,"ijns":7819,"diezelfde":7820,"uitgeven":7821,"uitgeschakeld":7822,"uns":7823,"ami":7824,"mod":7825,"afbeeld":7826,"administ":7827,"ula":7828,"immigratie":7829,"icon":7830,"ontvang":7831,"deloze":7832,"huisarts":7833,"lieve":7834,"uta":7835,"deelname":7836,"diende":7837,"ideale":7838,"klem":7839,"oods":7840,"oodse":7841,"terugkeren":7842,"kelder":7843,"offs":7844,"Jean":7845,"verschenen":7846,"plaatsing":7847,"Verschil":7848,"puntje":7849,"verbouw":7850,"buigen":7851,"Spart":7852,"organiseert":7853,"lijsten":7854,"Techn":7855,"iefde":7856,"streaming":7857,"lastige":7858,"scooter":7859,"alisatie":7860,"zakelijke":7861,"Maur":7862,"iekem":7863,"Britten":7864,"zeventien":7865,"succesvolle":7866,"voortduren":7867,"borst":7868,"remmen":7869,"verlening":7870,"blokkeren":7871,"broers":7872,"Saoed":7873,"file":7874,"verdediging":7875,"tevoren":7876,"teksten":7877,"inkomens":7878,"historisch":7879,"trappen":7880,"opmerkelijk":7881,"professionele":7882,"hopelijk":7883,"explosie":7884,"uitdagingen":7885,"droge":7886,"vereist":7887,"argumenten":7888,"begeleiding":7889,"Korea":7890,"Joris":7891,"financier":7892,"moslims":7893,"vonnis":7894,"Iraanse":7895,"Mexico":7896,"AEX":7897,"molens":7898,"knuff":7899,"ördin":7900,"toilet":7901,"Derksen":7902,"onmiddellijk":7903,"verdwijnt":7904,"Microsoft":7905,"fatsoen":7906,"Amersfoort":7907,"München":7908,"gewaarschuwd":7909,"Bed":7910,"Beleg":7911,"Cult":7912,"Gas":7913,"Geld":7914,"HO":7915,"Hy":7916,"Hor":7917,"Lat":7918,"Lam":7919,"NO":7920,"Pak":7921,"Raf":7922,"Stij":7923,"cat":7924,"fu":7925,"gal":7926,"gol":7927,"hip":7928,"qui":7929,"raaf":7930,"tact":7931,"erachter":7932,"inhou":7933,"stip":7934,"ata":7935,"chips":7936,"gepublic":7937,"aarse":7938,"tefe":7939,"verpl":7940,"verras":7941,"opbouw":7942,"opspor":7943,"geniet":7944,"dert":7945,"reist":7946,"referen":7947,"aanvoerder":7948,"bestel":7949,"bestand":7950,"bedraagt":7951,"bevolkings":7952,"heim":7953,"scheelt":7954,"sper":7955,"spers":7956,"lenen":7957,"dansen":7958,"landschap":7959,"watt":7960,"jaars":7961,"auton":7962,"human":7963,"klacht":7964,"ities":7965,"komend":7966,"brom":7967,"brons":7968,"luid":7969,"toepassing":7970,"tweehonderd":7971,"concept":7972,"context":7973,"moeders":7974,"efd":7975,"rondes":7976,"ivel":7977,"suiker":7978,"pest":7979,"vlot":7980,"tiener":7981,"peloton":7982,"duurde":7983,"leverancier":7984,"natuurlijke":7985,"sindsdien":7986,"foc":7987,"Boeren":7988,"toneel":7989,"geslacht":7990,"besteden":7991,"trie":7992,"vakbonden":7993,"ruimtes":7994,"opgevangen":7995,"shof":7996,"donderdagavond":7997,"zucht":7998,"Ooster":7999,"tranen":8000,"ontwikkelaars":8001,"domin":8002,"ongeacht":8003,"profiel":8004,"Union":8005,"koersen":8006,"slotte":8007,"voorziening":8008,"Allemaal":8009,"wolken":8010,"International":8011,"winnaars":8012,"bedreiging":8013,"sproble":8014,"seconde":8015,"signalen":8016,"voorbereiden":8017,"presentatie":8018,"Emmen":8019,"vlaggen":8020,"materialen":8021,"begrijpelijk":8022,"opvallende":8023,"dwingen":8024,"individu":8025,"agentschap":8026,"ballers":8027,"Voice":8028,"cross":8029,"strenge":8030,"cruciale":8031,"installatie":8032,"Media":8033,"geruchten":8034,"Remco":8035,"onzekerheid":8036,"Groningse":8037,"YouTu":8038,"relevant":8039,"automobilist":8040,"personeelstekort":8041,"scheidsrechter":8042,"Zweedse":8043,"Griekenland":8044,"bliotheek":8045,"huisvesting":8046,"Belastingdienst":8047,"Chelsea":8048,"cocaïne":8049,"tefeuil":8050,"verrassing":8051,"71":8052,"Ban":8053,"DR":8054,"Famil":8055,"Gold":8056,"Hit":8057,"KNV":8058,"Mes":8059,"Middel":8060,"Sor":8061,"Saf":8062,"Sinterklaas":8063,"Tag":8064,"baat":8065,"cot":8066,"dé":8067,"hr":8068,"ile":8069,"iveau":8070,"ique":8071,"jen":8072,"koek":8073,"kade":8074,"melen":8075,"our":8076,"uge":8077,"you":8078,"zó":8079,"zond":8080,"entegen":8081,"inse":8082,"instellen":8083,"ingevoerd":8084,"geple":8085,"vergroot":8086,"vermijden":8087,"opin":8088,"opers":8089,"optre":8090,"omeen":8091,"omvang":8092,"omikron":8093,"ref":8094,"repar":8095,"realistisch":8096,"aanvankelijk":8097,"lev":8098,"bevinden":8099,"bezocht":8100,"bekeken":8101,"arische":8102,"voorgaande":8103,"urg":8104,"urne":8105,"mega":8106,"uitleg":8107,"schreven":8108,"iddag":8109,"geldig":8110,"amers":8111,"onderuit":8112,"afnemen":8113,"nogmaals":8114,"doorheen":8115,"neef":8116,"docht":8117,"penalty":8118,"Intussen":8119,"veelal":8120,"perman":8121,"valse":8122,"acar":8123,"acul":8124,"mere":8125,"concrete":8126,"straling":8127,"cia":8128,"mijnen":8129,"gedoe":8130,"gedrukt":8131,"State":8132,"Vooruit":8133,"coördin":8134,"geschool":8135,"kijker":8136,"lazen":8137,"Vergeet":8138,"beschikt":8139,"fenomeen":8140,"rondje":8141,"strak":8142,"aangevallen":8143,"verlopen":8144,"Fransen":8145,"verduur":8146,"brein":8147,"producent":8148,"matisch":8149,"topic":8150,"groeps":8151,"student":8152,"cliënt":8153,"betaalbaar":8154,"berichtgeving":8155,"redactie":8156,"operaties":8157,"betreffen":8158,"wandeling":8159,"hoeveelheden":8160,"Step":8161,"Stefan":8162,"kampioenschap":8163,"gewelddad":8164,"Haagse":8165,"automaat":8166,"collectie":8167,"waarschuwing":8168,"aandeelhouders":8169,"artikelen":8170,"grijs":8171,"ieleden":8172,"Australische":8173,"factuur":8174,"ventil":8175,"interessante":8176,"Klim":8177,"Volkskrant":8178,"tenties":8179,"bevoegd":8180,"emotioneel":8181,"bonus":8182,"annex":8183,"investering":8184,"felic":8185,"Visma":8186,"perfecte":8187,"detail":8188,"liedjes":8189,"vervolgd":8190,"maximum":8191,"Ronaldo":8192,"facil":8193,"cadeau":8194,"schadelijk":8195,"fantastisch":8196,"fotog":8197,"Heeren":8198,"pauze":8199,"Capit":8200,"tentoonstelling":8201,"conservatieve":8202,"kapitaal":8203,"Francis":8204,"opbrengst":8205,"isolatie":8206,"bewuste":8207,"tevens":8208,"goedgekeurd":8209,"eredivisie":8210,"schaduw":8211,"Dirk":8212,"911":8213,"AA":8214,"Bi":8215,"FNV":8216,"Kal":8217,"Krij":8218,"Maa":8219,"Nic":8220,"Roo":8221,"Tex":8222,"Tijd":8223,"VK":8224,"Von":8225,"VRT":8226,"Wijn":8227,"Woensdag":8228,"Zeg":8229,"baren":8230,"cert":8231,"cab":8232,"cks":8233,"evalu":8234,"fisc":8235,"kart":8236,"kranten":8237,"lol":8238,"long":8239,"mit":8240,"mir":8241,"mix":8242,"yer":8243,"erkennen":8244,"degene":8245,"ijzer":8246,"atië":8247,"gehal":8248,"gepresen":8249,"vanmiddag":8250,"vanochtend":8251,"verpak":8252,"opte":8253,"opnemen":8254,"opgericht":8255,"real":8256,"recept":8257,"oei":8258,"leerde":8259,"wein":8260,"voorop":8261,"ingang":8262,"kenteken":8263,"schim":8264,"scheur":8265,"steel":8266,"rijzen":8267,"werf":8268,"ruimen":8269,"well":8270,"danig":8271,"grand":8272,"meermaals":8273,"platen":8274,"bloot":8275,"Indi":8276,"daaraan":8277,"gebleken":8278,"Altijd":8279,"drit":8280,"zout":8281,"werkelijke":8282,"ally":8283,"centi":8284,"parken":8285,"wonden":8286,"hierdoor":8287,"Eric":8288,"Erdogan":8289,"levensl":8290,"evens":8291,"cours":8292,"lobby":8293,"wereldtitel":8294,"kring":8295,"regelgeving":8296,"logo":8297,"beschrij":8298,"burgemeesters":8299,"dame":8300,"pech":8301,"vlam":8302,"Schil":8303,"Schot":8304,"sympt":8305,"puin":8306,"planeet":8307,"koploper":8308,"handeld":8309,"bruto":8310,"lessen":8311,"Duitsers":8312,"ageerd":8313,"stukjes":8314,"leveranciers":8315,"quê":8316,"drukke":8317,"dachten":8318,"seizoenen":8319,"sportieve":8320,"biologische":8321,"zwaarder":8322,"verklaringen":8323,"wennen":8324,"patr":8325,"carna":8326,"impele":8327,"zevende":8328,"probeer":8329,"probeerden":8330,"verkiezings":8331,"uiterlijk":8332,"maatschappelijk":8333,"vijand":8334,"hypo":8335,"verliefd":8336,"zoontje":8337,"Utrechtse":8338,"Hollandse":8339,"glim":8340,"Gerrit":8341,"Queen":8342,"pogingen":8343,"Volkswagen":8344,"meenemen":8345,"updates":8346,"Visser":8347,"trui":8348,"tarief":8349,"toegestaan":8350,"donkere":8351,"Hendr":8352,"illegale":8353,"Disney":8354,"zwemmen":8355,"rainer":8356,"Consu":8357,"Syrië":8358,"Williams":8359,"investeerders":8360,"fossiele":8361,"aanwijzingen":8362,"André":8363,"flexi":8364,"gevestigd":8365,"spectacul":8366,"Pogacar":8367,"gedeeltelijk":8368,"President":8369,"mrd":8370,"aanmerking":8371,"Afghanistan":8372,"energierekening":8373,"Ierland":8374,"KNVB":8375,"700":8376,"Bit":8377,"Croo":8378,"Dut":8379,"DNA":8380,"Fil":8381,"Genk":8382,"Hond":8383,"Linda":8384,"MS":8385,"Meg":8386,"May":8387,"NC":8388,"Part":8389,"PEC":8390,"Rand":8391,"Voed":8392,"Wagen":8393,"aver":8394,"buit":8395,"doos":8396,"ept":8397,"fir":8398,"gin":8399,"hac":8400,"kolen":8401,"kaars":8402,"laf":8403,"lelijk":8404,"rig":8405,"tom":8406,"tzig":8407,"vleu":8408,"wood":8409,"enni":8410,"analist":8411,"deert":8412,"deerd":8413,"ijl":8414,"ijing":8415,"ely":8416,"chat":8417,"geerd":8418,"onverwacht":8419,"aarden":8420,"eende":8421,"isatie":8422,"verdeling":8423,"vertrekt":8424,"opname":8425,"opleveren":8426,"opbouwen":8427,"rekent":8428,"behalen":8429,"bevind":8430,"bespreken":8431,"bezorger":8432,"head":8433,"heff":8434,"arme":8435,"voorwaar":8436,"olympisch":8437,"meiden":8438,"uitbraak":8439,"schouders":8440,"tenzij":8441,"toetsen":8442,"wort":8443,"vezel":8444,"aalt":8445,"mos":8446,"leng":8447,"afdelingen":8448,"kansl":8449,"tijdrit":8450,"ulling":8451,"dows":8452,"bloem":8453,"entie":8454,"ontving":8455,"kernen":8456,"vreten":8457,"huil":8458,"houdingen":8459,"osc":8460,"koken":8461,"plegen":8462,"plaatje":8463,"hieronder":8464,"misbru":8465,"misdaden":8466,"nose":8467,"Opvallend":8468,"nieuwkom":8469,"Steen":8470,"sels":8471,"binnenstad":8472,"besturen":8473,"iels":8474,"toenmalige":8475,"interne":8476,"gebruikelijk":8477,"bescheiden":8478,"aangewezen":8479,"Schol":8480,"School":8481,"namiddag":8482,"duidelijkheid":8483,"speelden":8484,"knoop":8485,"gereageerd":8486,"pressie":8487,"bewonder":8488,"kiezers":8489,"stopte":8490,"2007":8491,"dichterbij":8492,"loopbaan":8493,"noodopvang":8494,"raadslid":8495,"fietsers":8496,"keuring":8497,"tekening":8498,"gooide":8499,"bureaus":8500,"Ollon":8501,"diepte":8502,"wolven":8503,"democratische":8504,"Suz":8505,"oefeningen":8506,"Math":8507,"Burg":8508,"Gelderse":8509,"hersenen":8510,"archite":8511,"tegenstanders":8512,"Portuge":8513,"masker":8514,"hoofdrol":8515,"Timmer":8516,"onieme":8517,"FIFA":8518,"Forum":8519,"lockdowns":8520,"duurzaamheid":8521,"verrast":8522,"neutraal":8523,"appartementen":8524,"uitstekende":8525,"taxi":8526,"gevaccineerd":8527,"progressie":8528,"Kroatië":8529,"methode":8530,"ysteem":8531,"beïnvloeden":8532,"Tilburg":8533,"statement":8534,"verbaasd":8535,"drempel":8536,"Sigrid":8537,"gepleegd":8538,"Heerenveen":8539,"Ollongren":8540,",-":8541,"56":8542,"Ari":8543,"BT":8544,"Ede":8545,"Gisteren":8546,"Hele":8547,"KN":8548,"Kos":8549,"Moeder":8550,"NEC":8551,"Nord":8552,"PC":8553,"Thier":8554,"Tay":8555,"Zu":8556,"ecol":8557,"fon":8558,"gi":8559,"gy":8560,"gids":8561,"hoed":8562,"kter":8563,"kige":8564,"kaas":8565,"lonen":8566,"ping":8567,"pale":8568,"ric":8569,"room":8570,"sj":8571,"simpele":8572,"wou":8573,"zinnen":8574,"zooi":8575,"erom":8576,"ano":8577,"anonieme":8578,"inen":8579,"aadt":8580,"aafd":8581,"ches":8582,"geer":8583,"gekopp":8584,"onken":8585,"iseerd":8586,"teerden":8587,"verricht":8588,"verdubbel":8589,"opgesteld":8590,"reurs":8591,"beest":8592,"heven":8593,"voorst":8594,"olympische":8595,"iler":8596,"schok":8597,"aspe":8598,"steekt":8599,"rijders":8600,"overgenomen":8601,"overgebracht":8602,"afwe":8603,"afgezet":8604,"appel":8605,"program":8606,"dodelijke":8607,"plank":8608,"plafond":8609,"nagenoeg":8610,"kundige":8611,"betrapt":8612,"vroegen":8613,"zelfstandig":8614,"beroemde":8615,"aagden":8616,"dels":8617,"Maarten":8618,"luister":8619,"directie":8620,"langzamer":8621,"ego":8622,"trad":8623,"ideaal":8624,"abi":8625,"herken":8626,"bestrijden":8627,"Volgende":8628,"duiken":8629,"fenis":8630,"vierkante":8631,"aangesloten":8632,"verloop":8633,"puzzel":8634,"organisator":8635,"Beijing":8636,"versoepel":8637,"stijgingen":8638,"streven":8639,"bewind":8640,"krachtige":8641,"liefhebbers":8642,"Elk":8643,"Model":8644,"trainingen":8645,"startte":8646,"Park":8647,"machts":8648,"financi":8649,"patiënt":8650,"Kamerleden":8651,"letjes":8652,"decenni":8653,"vatting":8654,"bakker":8655,"kindje":8656,"leeftijds":8657,"toonde":8658,"leuker":8659,"wonenden":8660,"houdbaar":8661,"kernwapens":8662,"merkingen":8663,"festiv":8664,"papieren":8665,"stalige":8666,"bevestigde":8667,"ondersteunt":8668,"ondersteunen":8669,"Sainz":8670,"horlo":8671,"bruggen":8672,"Vandaar":8673,"kathol":8674,"initiatieven":8675,"opmerkelijke":8676,"kruising":8677,"dringend":8678,"tarieven":8679,"beseffen":8680,"ADO":8681,"uitbreiden":8682,"beschuldigingen":8683,"Telegram":8684,"advertenties":8685,"Arabië":8686,"nadruk":8687,"Veiligheids":8688,"documentaire":8689,"deskundigen":8690,"dividend":8691,"NIET":8692,"wetenschappelijke":8693,"vreselijk":8694,"lading":8695,"overwegend":8696,"cerem":8697,"drinkwater":8698,"geïnteresse":8699,"promotie":8700,"talloze":8701,"hectare":8702,"ouverneur":8703,"verduurz":8704,"tzigt":8705,"gekoppeld":8706,"76":8707,"Award":8708,"Blij":8709,"Ca":8710,"Las":8711,"RA":8712,"Sander":8713,"Tal":8714,"Thuis":8715,"Vu":8716,"Vers":8717,"VID":8718,"Zig":8719,"bb":8720,"boeg":8721,"iaal":8722,"kook":8723,"kot":8724,"ms":8725,"oft":8726,"rouwen":8727,"twe":8728,"yota":8729,"anon":8730,"deugen":8731,"else":8732,"staken":8733,"stiekem":8734,"ones":8735,"eenheid":8736,"tekorten":8737,"oordelen":8738,"verh":8739,"verkrijg":8740,"itt":8741,"itsen":8742,"dergelijk":8743,"dende":8744,"rez":8745,"aanvoer":8746,"aanpassingen":8747,"oever":8748,"bevindt":8749,"hek":8750,"voorkomt":8751,"older":8752,"mechan":8753,"iller":8754,"uiteen":8755,"uitgaan":8756,"uitmaken":8757,"uitleggen":8758,"uitgebracht":8759,"schit":8760,"uniek":8761,"spion":8762,"bijt":8763,"terreur":8764,"ienden":8765,"ondergrond":8766,"onderhandelen":8767,"onderneming":8768,"ads":8769,"benut":8770,"waaraan":8771,"gronden":8772,"landgenoot":8773,"dokter":8774,"planning":8775,"isterd":8776,"Indon":8777,"ontkennen":8778,"geboekt":8779,"escal":8780,"valuta":8781,"ott":8782,"astron":8783,"digde":8784,"toestellen":8785,"acu":8786,"werknemer":8787,"allo":8788,"diag":8789,"doende":8790,"liegen":8791,"parkeren":8792,"prim":8793,"prinses":8794,"ctiev":8795,"bestrijding":8796,"geschikte":8797,"kijkers":8798,"Leon":8799,"marge":8800,"handhaven":8801,"Ongeveer":8802,"haling":8803,"tienduizenden":8804,"stemde":8805,"roef":8806,"verlaagd":8807,"Schu":8808,"Omtzigt":8809,"optimaal":8810,"Art":8811,"lastiger":8812,"rekeningen":8813,"bestuurs":8814,"strafbaar":8815,"doods":8816,"betaalbare":8817,"opgehaald":8818,"terende":8819,"tests":8820,"Groene":8821,"mooier":8822,"ritten":8823,"gebouwde":8824,"apparatuur":8825,"experiment":8826,"eeuwen":8827,"Johnny":8828,"Saint":8829,"routes":8830,"groeiende":8831,"studies":8832,"beroeps":8833,"respectiev":8834,"Haha":8835,"factoren":8836,"adviseert":8837,"emotionele":8838,"beheerder":8839,"demonstratie":8840,"absolute":8841,"vertegenwoordigers":8842,"Dries":8843,"koeien":8844,"AMG":8845,"favoriet":8846,"Klein":8847,"Brabantse":8848,"vanzelfsprekend":8849,"vernietigen":8850,"consum":8851,"liberale":8852,"Egyp":8853,"aanhoudende":8854,"Kruis":8855,"originele":8856,"omstreden":8857,"zwijgen":8858,"Wetenschap":8859,"boetes":8860,"regionale":8861,"George":8862,"Perez":8863,"Slechts":8864,"dwars":8865,"geregistreerd":8866,"aanmeldcentrum":8867,"Stijl":8868,"verplichte":8869,"opinie":8870,"betreffende":8871,"symptomen":8872,"quête":8873,"verkrijgbaar":8874,"Indones":8875,"59":8876,"900":8877,"Big":8878,"Bun":8879,"Bah":8880,"DC":8881,"Ein":8882,"Ele":8883,"Fle":8884,"Hot":8885,"Hem":8886,"Jaar":8887,"Jack":8888,"KC":8889,"Lie":8890,"MR":8891,"Meerdere":8892,"Niets":8893,"Oe":8894,"Roemen":8895,"Tel":8896,"Tun":8897,"Ur":8898,"Verd":8899,"bou":8900,"bind":8901,"daan":8902,"diet":8903,"donder":8904,"eem":8905,"git":8906,"glazen":8907,"iat":8908,"ira":8909,"lic":8910,"molen":8911,"vult":8912,"zult":8913,"óg":8914,"inc":8915,"inspanningen":8916,"gezocht":8917,"onrecht":8918,"tekent":8919,"verhuizen":8920,"verplaatsen":8921,"opmerkingen":8922,"aandrij":8923,"oede":8924,"bede":8925,"beving":8926,"bewoner":8927,"hekel":8928,"date":8929,"ieter":8930,"kenmerken":8931,"igden":8932,"rare":8933,"ramen":8934,"raft":8935,"radi":8936,"diepe":8937,"mental":8938,"idd":8939,"erson":8940,"werven":8941,"spier":8942,"ondernemen":8943,"onderscheid":8944,"afgenomen":8945,"afwijk":8946,"afstanden":8947,"apie":8948,"dodelijk":8949,"aks":8950,"ontmoeten":8951,"daarentegen":8952,"ants":8953,"klass":8954,"itieke":8955,"iteert":8956,"gemat":8957,"strook":8958,"orgh":8959,"track":8960,"preventie":8961,"ertjes":8962,"gevende":8963,"mentaal":8964,"grootte":8965,"geteld":8966,"helden":8967,"geschat":8968,"Lee":8969,"verloopt":8970,"buis":8971,"inkoop":8972,"koppen":8973,"schema":8974,"single":8975,"regisse":8976,"zonde":8977,"duidelijke":8978,"wethouders":8979,"draaid":8980,"strekt":8981,"Toyota":8982,"1500":8983,"strafschop":8984,"zondagmiddag":8985,"instanties":8986,"2002":8987,"velgen":8988,"iana":8989,"Jansen":8990,"cuus":8991,"schadevergoeding":8992,"dorpen":8993,"activiteit":8994,"complexe":8995,"collectief":8996,"Sindsdien":8997,"verlenen":8998,"papa":8999,"MacBook":9000,"grijze":9001,"Vrouwen":9002,"plotseling":9003,"drijf":9004,"daalt":9005,"alternatieve":9006,"wieler":9007,"kwalijk":9008,"definitieve":9009,"strategische":9010,"coureurs":9011,"latform":9012,"bitcoin":9013,"Noorse":9014,"journalistiek":9015,"staking":9016,"genote":9017,"varkens":9018,"potentiële":9019,"Voet":9020,"streng":9021,"herinnering":9022,"cruciaal":9023,"aanvullen":9024,"types":9025,"zinnige":9026,"liedje":9027,"restaurants":9028,"stabiel":9029,"Koreaanse":9030,"betrouwbare":9031,"compenseren":9032,"Windows":9033,"gezamenlijk":9034,"Aziatische":9035,"Groningers":9036,"fantastische":9037,"exemplaren":9038,"stromingen":9039,"oppervlakte":9040,"inspiratie":9041,"Vincent":9042,"antaine":9043,"aankondiging":9044,"communiceren":9045,"infectie":9046,"Oorlog":9047,"GGD":9048,"Racing":9049,"intimidatie":9050,"bemoeien":9051,"quarantaine":9052,"Verschillende":9053,"gepubliceerd":9054,"YouTube":9055,"tefeuille":9056,"Messi":9057,"gepresenteerd":9058,"bevindingen":9059,"Thierry":9060,"350":9061,"450":9062,"Ac":9063,"Cu":9064,"Dig":9065,"Et":9066,"Islam":9067,"Mas":9068,"OC":9069,"Peters":9070,"Sol":9071,"Sun":9072,"Vind":9073,"Valt":9074,"Xi":9075,"Zet":9076,"Zieken":9077,"bid":9078,"cd":9079,"fond":9080,"fut":9081,"gracht":9082,"hert":9083,"iro":9084,"kWh":9085,"kogel":9086,"noor":9087,"pon":9088,"pte":9089,"pokken":9090,"ringen":9091,"snu":9092,"sigar":9093,"toed":9094,"villa":9095,"dete":9096,"eth":9097,"stag":9098,"oogt":9099,"atlet":9100,"chron":9101,"geur":9102,"geopol":9103,"gehakt":9104,"onterecht":9105,"verslaan":9106,"omgaan":9107,"aankopen":9108,"bekl":9109,"behoort":9110,"beweren":9111,"ark":9112,"ary":9113,"medium":9114,"uitgesloten":9115,"schol":9116,"unch":9117,"overnemen":9118,"gelach":9119,"ape":9120,"benoem":9121,"waardering":9122,"elementen":9123,"kanalen":9124,"kansel":9125,"ulier":9126,"docent":9127,"immu":9128,"meerde":9129,"nader":9130,"main":9131,"mani":9132,"tijds":9133,"board":9134,"ems":9135,"aco":9136,"cong":9137,"Russel":9138,"cipl":9139,"treft":9140,"weging":9141,"feite":9142,"iri":9143,"geduld":9144,"ergste":9145,"hierop":9146,"schapen":9147,"gevend":9148,"evenveel":9149,"ivels":9150,"standpunt":9151,"low":9152,"kringen":9153,"Cherson":9154,"Marco":9155,"peper":9156,"vloog":9157,"Belang":9158,"koper":9159,"Amerikaan":9160,"Beetje":9161,"doelgroep":9162,"break":9163,"Heuvel":9164,"Omroep":9165,"eindigen":9166,"wettelijke":9167,"recre":9168,"draaide":9169,"soortgelijke":9170,"Belgisch":9171,"Journ":9172,"vreest":9173,"woningbouw":9174,"thee":9175,"vergis":9176,"alisering":9177,"Maz":9178,"180":9179,"kwartfinale":9180,"kwartfinales":9181,"bepaalt":9182,"ianen":9183,"zoveelste":9184,"verdiende":9185,"noodzaak":9186,"cao":9187,"trof":9188,"troffen":9189,"windmolens":9190,"teller":9191,"Vereniging":9192,"leugens":9193,"stilstand":9194,"generaties":9195,"uitgedeeld":9196,"groenten":9197,"Donetsk":9198,"verzekerd":9199,"schatten":9200,"Exc":9201,"vooruitgang":9202,"materieel":9203,"Herman":9204,"geheugen":9205,"Centrale":9206,"Haarlem":9207,"Milan":9208,"Univers":9209,"Nationaal":9210,"Bergkamp":9211,"dynam":9212,"verdween":9213,"verspreiden":9214,"Binnenlandse":9215,"Tegenwoordig":9216,"bewolking":9217,"installeren":9218,"ambtenaar":9219,"storing":9220,"wijziging":9221,"vaardigheden":9222,"McL":9223,"artiest":9224,"arrestatie":9225,"verslaggever":9226,"nadien":9227,"kunstenaar":9228,"kunstenaars":9229,"versnellen":9230,"beschouwd":9231,"symbol":9232,"torenhoge":9233,"Kerst":9234,"vuilnis":9235,"mondkapje":9236,"constant":9237,"dictator":9238,"fluen":9239,"Nadal":9240,"container":9241,"Philips":9242,"getraind":9243,"acceptabel":9244,"oprichter":9245,"Hasselt":9246,"Sophie":9247,"Klaver":9248,"Sparta":9249,"Beleggers":9250,"Klimaat":9251,"immuun":9252,"84":9253,"AB":9254,"AF":9255,"AH":9256,"BI":9257,"BV":9258,"Boom":9259,"Cast":9260,"EA":9261,"Evert":9262,"Ecu":9263,"Far":9264,"Fem":9265,"Gol":9266,"Jef":9267,"Kam":9268,"Kard":9269,"Moo":9270,"Minder":9271,"NFT":9272,"SE":9273,"Sand":9274,"Sven":9275,"Sky":9276,"Ve":9277,"Veg":9278,"Ye":9279,"ault":9280,"bach":9281,"cover":9282,"cam":9283,"edit":9284,"frag":9285,"gooit":9286,"géén":9287,"haak":9288,"hagen":9289,"lamp":9290,"mmer":9291,"matiek":9292,"oblig":9293,"pal":9294,"pond":9295,"run":9296,"soep":9297,"serse":9298,"twitter":9299,"waak":9300,"enzo":9301,"etst":9302,"ingesteld":9303,"aapt":9304,"elang":9305,"elaars":9306,"staart":9307,"attra":9308,"gepl":9309,"geplan":9310,"gewaarde":9311,"tekende":9312,"verzu":9313,"vergroten":9314,"opgel":9315,"opstand":9316,"opleggen":9317,"opport":9318,"dernacht":9319,"reus":9320,"reiking":9321,"aanbie":9322,"lezers":9323,"bez":9324,"voorganger":9325,"uring":9326,"metingen":9327,"razend":9328,"uitkomt":9329,"uitdruk":9330,"schuur":9331,"schrappen":9332,"roer":9333,"stee":9334,"rijen":9335,"overhand":9336,"geling":9337,"geliefde":9338,"iende":9339,"onderzoekt":9340,"rusten":9341,"mobiel":9342,"afgelegd":9343,"waarderen":9344,"kanen":9345,"imd":9346,"pluim":9347,"keuren":9348,"ontbreken":9349,"ontvangt":9350,"gered":9351,"openlijk":9352,"Alban":9353,"Alfa":9354,"boze":9355,"boter":9356,"bedden":9357,"Wee":9358,"excuus":9359,"snaam":9360,"prikken":9361,"ukkel":9362,"comité":9363,"noch":9364,"kshow":9365,"middernacht":9366,"achtervolging":9367,"Stop":9368,"lozen":9369,"interpret":9370,"Christen":9371,"label":9372,"specul":9373,"resul":9374,"kantoren":9375,"jarigen":9376,"viert":9377,"aangesp":9378,"waterstaat":9379,"Space":9380,"leraren":9381,"doelwit":9382,"doelstellingen":9383,"bereikte":9384,"richtte":9385,"gasprijs":9386,"Vlam":9387,"schrijf":9388,"bouwt":9389,"hardware":9390,"siers":9391,"nationaliteit":9392,"steunt":9393,"biosc":9394,"faill":9395,"Hiermee":9396,"Ooit":9397,"NASA":9398,"betrekking":9399,"Terug":9400,"raads":9401,"lijstje":9402,"letsel":9403,"beschikbare":9404,"Lux":9405,"Luik":9406,"sterkste":9407,"crimineel":9408,"betrokkenen":9409,"GeenStijl":9410,"medisch":9411,"vergelijkbare":9412,"garande":9413,"vaccineren":9414,"verleners":9415,"blokken":9416,"waarschuwen":9417,"schild":9418,"eilanden":9419,"Chinezen":9420,"Dubai":9421,"Hermans":9422,"OMT":9423,"Conferen":9424,"bedreigingen":9425,"machines":9426,"vergunningen":9427,"emoties":9428,"onverwachte":9429,"BBB":9430,"BBC":9431,"verwarmen":9432,"uitzonderingen":9433,"proport":9434,"truc":9435,"verbeterde":9436,"uitgebreide":9437,"teleurgesteld":9438,"kuub":9439,"Zwitserse":9440,"versterken":9441,"flessen":9442,"toezichthouder":9443,"belandde":9444,"Rijkswaterstaat":9445,"limiet":9446,"chauffeurs":9447,"keeper":9448,"vervuiling":9449,"Azië":9450,"koolstof":9451,"sorry":9452,"Economische":9453,"wetenschappelijk":9454,"exemplaar":9455,"Seneg":9456,"Rechts":9457,"zwangerschap":9458,"reaguurders":9459,"gebeurtenissen":9460,"Snap":9461,"externe":9462,"wekelijkse":9463,"avontuur":9464,"ransitie":9465,"AOW":9466,"vacatures":9467,"ondernemingen":9468,"Spanjaard":9469,"Kempen":9470,"voortdurend":9471,"sproblemen":9472,"gewelddadige":9473,"centimeter":9474,"architect":9475,"Ziggo":9476,"respectievelijk":9477,"Egypte":9478,"fondsen":9479,"Excels":9480,"Ecuador":9481,"faillisse":9482,"!\"":9483,"ABN":9484,"Bond":9485,"Buur":9486,"Bak":9487,"Beter":9488,"Balt":9489,"Cas":9490,"Fest":9491,"Gal":9492,"Gre":9493,"Golf":9494,"IM":9495,"Jam":9496,"Kies":9497,"Kinder":9498,"Log":9499,"Lex":9500,"ML":9501,"Mur":9502,"Mike":9503,"NB":9504,"Pé":9505,"Peet":9506,"Prijs":9507,"Ring":9508,"Ryan":9509,"Ty":9510,"Vir":9511,"big":9512,"bui":9513,"evacu":9514,"gaaf":9515,"gauw":9516,"joen":9517,"jets":9518,"kok":9519,"mln":9520,"nas":9521,"pik":9522,"phon":9523,"song":9524,"tse":9525,"tikken":9526,"uyn":9527,"vit":9528,"wall":9529,"zang":9530,"enz":9531,"ernaar":9532,"erkent":9533,"andel":9534,"dev":9535,"degenen":9536,"etter":9537,"inlog":9538,"inleveren":9539,"atmo":9540,"geweer":9541,"gepakt":9542,"geproduc":9543,"gemeten":9544,"aloog":9545,"verdiep":9546,"verplaatst":9547,"verwoest":9548,"opzij":9549,"opgemerkt":9550,"recher":9551,"aanbevel":9552,"beheers":9553,"heus":9554,"wekt":9555,"voorgesteld":9556,"zeil":9557,"metje":9558,"Des":9559,"asme":9560,"ashi":9561,"idi":9562,"rijtje":9563,"spin":9564,"spand":9565,"sparen":9566,"speur":9567,"splan":9568,"overw":9569,"overwin":9570,"overheen":9571,"gelen":9572,"gelie":9573,"gelanc":9574,"work":9575,"onderaan":9576,"lente":9577,"leningen":9578,"ofzo":9579,"zojuist":9580,"hebber":9581,"waaruit":9582,"ness":9583,"volkomen":9584,"atieke":9585,"immer":9586,"weeke":9587,"nadeel":9588,"icoon":9589,"wijzer":9590,"Eng":9591,"hoeverre":9592,"ootjes":9593,"stri":9594,"gewapen":9595,"Daarop":9596,"gedood":9597,"staand":9598,"mislukte":9599,"abon":9600,"orens":9601,"talkshow":9602,"vertrok":9603,"levend":9604,"achterban":9605,"hernieuw":9606,"snelste":9607,"Store":9608,"evenwicht":9609,"iving":9610,"Voordat":9611,"loy":9612,"bestorm":9613,"fluit":9614,"plaatselijke":9615,"spee":9616,"haalden":9617,"pesten":9618,"ultieme":9619,"lift":9620,"verbinden":9621,"stapje":9622,"Amerikaans":9623,"verdragen":9624,"ckx":9625,"middelbare":9626,"brandstoffen":9627,"tweedehands":9628,"ages":9629,"formaat":9630,"lopend":9631,"groepje":9632,"press":9633,"bibliotheek":9634,"ruimtevaart":9635,"zake":9636,"ovatie":9637,"formen":9638,"concer":9639,"Meest":9640,"Hierbij":9641,"vuurwapen":9642,"tekeningen":9643,"kostte":9644,"dankbaar":9645,"COVID":9646,"besparing":9647,"Carol":9648,"verzekeraars":9649,"wolde":9650,"tegenovergestelde":9651,"genees":9652,"schakeling":9653,"beveiligers":9654,"structureel":9655,"Colom":9656,"bewegingen":9657,"Washing":9658,"genaamd":9659,"uitzonderlijk":9660,"filmpjes":9661,"Limburgse":9662,"gezondheidszorg":9663,"spartij":9664,"Remkes":9665,"beschuldigd":9666,"accounts":9667,"storten":9668,"FIA":9669,"schilderij":9670,"Rabo":9671,"dalende":9672,"schadelijke":9673,"Fortuyn":9674,"symbool":9675,"deskundige":9676,"waanzin":9677,"introductie":9678,"chocol":9679,"aanhangers":9680,"instrument":9681,"mondkapjes":9682,"langdurige":9683,"Winterswijk":9684,"talenten":9685,"idioten":9686,"Republikeinen":9687,"schandaal":9688,"schouwers":9689,"Richard":9690,"maandelijks":9691,"halverwege":9692,"solidariteit":9693,"Canadese":9694,"VTM":9695,"ontvangst":9696,"Hitler":9697,"Taghi":9698,"optredens":9699,"reality":9700,"Voedsel":9701,"Mathieu":9702,"Vuelta":9703,"kanselier":9704,"Excelsior":9705,"Washington":9706,",\"":9707,"Acht":9708,"Act":9709,"CI":9710,"Cura":9711,"Dre":9712,"Deense":9713,"Eva":9714,"Gren":9715,"HL":9716,"Haal":9717,"Leg":9718,"MH":9719,"Mul":9720,"Mont":9721,"Mot":9722,"Nas":9723,"Osc":9724,"PF":9725,"Rol":9726,"Stal":9727,"Tha":9728,"Veer":9729,"dop":9730,"daat":9731,"gij":9732,"geren":9733,"glo":9734,"gaard":9735,"hil":9736,"ière":9737,"jam":9738,"lit":9739,"leten":9740,"mits":9741,"pes":9742,"ped":9743,"té":9744,"ww":9745,"át":9746,"çao":9747,"enquête":9748,"anim":9749,"deau":9750,"inzien":9751,"influen":9752,"stoom":9753,"stunt":9754,"ates":9755,"ativiteit":9756,"gezichten":9757,"onschuldig":9758,"alia":9759,"vanmorgen":9760,"issan":9761,"oordeelde":9762,"verwerkt":9763,"opgebouwd":9764,"ommen":9765,"aandoen":9766,"oepol":9767,"lezer":9768,"lezing":9769,"bee":9770,"beu":9771,"bestem":9772,"bedroeg":9773,"voornaam":9774,"inget":9775,"ingel":9776,"zeiden":9777,"races":9778,"uitstel":9779,"uitlaat":9780,"unif":9781,"rock":9782,"menu":9783,"meningen":9784,"stekker":9785,"rijst":9786,"toele":9787,"werpt":9788,"spil":9789,"splein":9790,"worst":9791,"termen":9792,"rub":9793,"zowat":9794,"advie":9795,"slopen":9796,"slaagde":9797,"volhouden":9798,"uurtje":9799,"istieke":9800,"ked":9801,"keel":9802,"icaties":9803,"willige":9804,"huilen":9805,"kleren":9806,"Energ":9807,"duik":9808,"duwen":9809,"gemoe":9810,"toeschouwers":9811,"sterd":9812,"zetel":9813,"Weg":9814,"ugde":9815,"moei":9816,"gevierd":9817,"winters":9818,"oegde":9819,"avel":9820,"avië":9821,"Stand":9822,"wachting":9823,"heldere":9824,"gelijkspel":9825,"bestond":9826,"gescheiden":9827,"hooguit":9828,"lader":9829,"vorst":9830,"zekere":9831,"koninklijke":9832,"drukt":9833,"aangekomen":9834,"Sche":9835,"zorgvuldig":9836,"kopje":9837,"woordvoer":9838,"lichten":9839,"haken":9840,"versies":9841,"versoep":9842,"energiecrisis":9843,"ifi":9844,"richtlijnen":9845,"hoorn":9846,"filter":9847,"draai":9848,"bewak":9849,"basisschool":9850,"Graaf":9851,"doodgeschoten":9852,"Moeten":9853,"familieleden":9854,"Mah":9855,"ologisch":9856,"boekje":9857,"Theo":9858,"Steeds":9859,"creatieve":9860,"leugen":9861,"rentes":9862,"supermarkten":9863,"regenbuien":9864,"belangstelling":9865,"vergelijkbaar":9866,"processen":9867,"Prima":9868,"Gaz":9869,"telefoons":9870,"schreeuw":9871,"braken":9872,"bossen":9873,"cirkel":9874,"fietsp":9875,"Internationaal":9876,"hammed":9877,"psychische":9878,"Centrum":9879,"verbruikt":9880,"brachten":9881,"Milieu":9882,"sessie":9883,"toegangs":9884,"protesteren":9885,"professor":9886,"voorspellen":9887,"begraaf":9888,"putatie":9889,"pakketten":9890,"ingericht":9891,"Hongkon":9892,"tweets":9893,"plussers":9894,"smartphon":9895,"kolon":9896,"Tsje":9897,"advertentie":9898,"ratten":9899,"isseld":9900,"vernieuwde":9901,"bedienen":9902,"gigantische":9903,"hielden":9904,"vervanger":9905,"vervanging":9906,"bagage":9907,"Simon":9908,"stimuleren":9909,"dossiers":9910,"monument":9911,"tainment":9912,"oorspronkelijk":9913,"commandant":9914,"energietransitie":9915,"econoom":9916,"benadrukte":9917,"Marioepol":9918,"ingewikkeld":9919,"getrouwd":9920,"shirt":9921,"consequenties":9922,"grootschalige":9923,"patroon":9924,"lengte":9925,"versoepelingen":9926,"congres":9927,"opportun":9928,"Vlamingen":9929,"Conference":9930,"weekeinde":9931,"%)":9932,"79":9933,"Agen":9934,"Blok":9935,"Bakker":9936,"Dum":9937,"Fit":9938,"FVD":9939,"Get":9940,"Gil":9941,"Gak":9942,"Gün":9943,"Hert":9944,"Holl":9945,"Jaap":9946,"Joodse":9947,"Lamb":9948,"MO":9949,"NN":9950,"NRC":9951,"OK":9952,"Out":9953,"Plas":9954,"SW":9955,"Sto":9956,"Snel":9957,"Test":9958,"Thi":9959,"Take":9960,"Ul":9961,"Valle":9962,"Zes":9963,"gh":9964,"gier":9965,"haren":9966,"iver":9967,"iveren":9968,"kg":9969,"kussen":9970,"maag":9971,"mbo":9972,"miste":9973,"mama":9974,"nik":9975,"nóg":9976,"ovo":9977,"smer":9978,"smok":9979,"tor":9980,"tool":9981,"vig":9982,"wand":9983,"ertoe":9984,"degra":9985,"eta":9986,"info":9987,"ijpen":9988,"ella":9989,"athon":9990,"chir":9991,"geerde":9992,"gevechten":9993,"eenzij":9994,"eenvoudige":9995,"verko":9996,"versn":9997,"verslagen":9998,"verwezen":9999},"merges":["e n","e r","a n","d e","e t","i n","i j","a a","e l","s t","o o","i e","a t","c h","g e","o n","aa r","e en","a l","v an","i s","t e","oo r","v er","h et","i t","o p","g en","d er","d en","o m","o r","r e","a an","o e","l e","b e","h e","d at","w e","a r","v oor","ch t","ij n","in g","ij k","i et","z e","j e","k en","u r","o l","o u","m e","m et","i g","r a","i l","z ijn","n iet","d ie","u it","s ch","D e","i k","an d","u n","r o","aa t","a s","o g","u s","m en","st e","i d","er s","t en","v en","r ij","s e","t o","a g","w er","f t","s p","o ver","oo k","b ij","g el","e er","al s","a m","s en","w or","t er","v e","i en","m aar","on der","r u","aa l","m o","l en","a f","l ijk","o f","z o","w el","n en","d an","a d","H et","a p","b en","n og","k t","he b","w aar","d oor","e ft","c t","i er","s l","n e","k om","a cht","on d","v ol","el e","el d","in gen","g r","u ur","n aar","l and","k an","t ij","at ie","d t","u l","p ro","d o","he eft","i m","me er","p l","i st","el ijk","w as","er en","we e","a k","n a","i ge","is ch","d ag","w at","an der","k un","j aar","k e","h ij","mo et","p en","heb ben","b l","i c","en t","z i","an g","wor den","I n","on t","d aar","an t","ie u","g t","z el","ge b","k er","in d","m a","d it","me e","ou w","2 0","v o","ve el","z en","oe d","e s","a u","he id","oo n","n u","to t","wor dt","g er","b et","v r","D at","ge en","i gen","w il","zel f","I k","m an","op en","p er","h u","A l","b er","k l","v al","m in","isch e","h ou","aa g","o k","n ieu","w ij","te gen","zi ch","0 0","d r","it ie","i cht","i te","o t","a st","N e","tij d","e k","g aan","de l","aa k","ar en","kom en","z ou","E n","al le","kun nen","b r","gen s","d u","oe k","b o","we er","ge m","ar t","b el","e m","de ze","d ig","men sen","M aar","l u","h ad","al e","g aat","h un","ie s","e d","t oe","at en","a c","wer k","al l","m er","t wee","de lijk","st en","Ne der","g oed","or t","d us","st el","d i","o s","o en","st er","h oo","h oe","el en","oo t","wer d","c ent","E en","z ien","c on","z et","st r","h aar","i on","do en",". ”","k w","hu is","g ro","Neder land","R us","z it","ge w","e cht","be d","a gen","c i","l ie","st aat","u t","a ct","W e","e x","t re","m aal","bl ij","p ar","u g","et en","h an","we g","f e","aa kt","in nen","k o","je s","ander e","p ol","s n","de el","m oe","moet en","z oek","ge v","e el","p r","m ijn","l ang","e g","i r","p t","oor d","m il","u k","ma ken","e igen","D aar","al en","k eer","k rij","p le","a men","pl aat","r an","or g","ge d","nieu we","t ra","re cht","iet s","w on","c om","p re","us sen","ie k","i den","v in","b le","l aat","er g","st aan","h ier","k ken","z al","E r","v rij","ite it","i ë","or m","kom t","Al s","een s","in e","he el","w in","m is","be g","d ien","der s","on s","to ch","p ers","er t","i de","oe g","er d","n o","a v","Z e","at er","n at","a b","n et","ze gt","e ur","eer ste","aa m","ra cht","or en","O ek","hou den","sch ap","k s","O ok","Oek ra","m aan","pol itie","m id","V an","der en","t al","h ele","k le","i a","H ij","u m","ge ven","ur en","geb ru","b aar","oo d","t ussen","O p","all een","ver t","ken d","on den","i p","le ven","he m","acht er","Oekra ï","bed rij","gel e","h er","uit en","sn el","nieu w","ar d","l an","c or","S t","ter ug","og elijk","ouw en","om en","e ven","c r","k el","” ,","s ie","oo it","au to","men t","vol gens","aa d","D ie","pro cent","ing s","gro te","mil j","e f","of f","m ogelijk","gr oot","om dat","r on","z ij","i v","g et","E ur","s u","st and","w acht","V oor","J e","l ig","h el","c o","gel ijk","ze g","gr oe","é n","h o","oo p","Z o","z onder","l o","s el","wer eld","ver sch","eur o","be eld","ct ie","ge st","k r","i o","A n","b innen","a re","be st","V ol","i el","den s","al tijd","to en","c e","g ra","gem een","Eur op","D it","s amen","w aren","ge sch","min der","gew oon","k ijk","el k","hoo g","in ter","C h","l a","g ing","L e","le g","l aten","m ij","p rij","on ze","zo als","an k","f l","u w","plaat s","ed s","ist er","w eten","lijk t","m ar","gel d","20 2","gebru ik","r en","ij f","wee k","j aren","ch te","re gel","sp re","V er","1 9","l og","be sch","k elijk","sp e","ander s",". \"","c ont","ie der","wil len","h aal","ie m","p as","lu cht","re s","val len","p un","M ar","in t","k in","ste eds","ul len","dr ie","W at","b ur","j on","st ad","o ten","krij gen","M et","v or","vol gen","du i","f en","f in","gel open","st rij","kan t","r ond","ze ker","d a","h and","s le","aan se","de len","p e","bet er","k on","w ant","el t","onder zoek","d ru","ge z","s o","par tij","oor t","am er","O n","k re","h al","be ur","j ar","s er","s dag","Oekraï ne","é én",") .","v a","v ier","tij dens","z ie","laat ste","pro ble","m ag","B r","nat uur","Rus land","ru im","v l","g a","aa st","am p","t ien","bel an","wer ken","ra gen","blij ven","vr aag","kw am","ste m","eer d","st ra","Rus s","iem and","oo g","oo l","ver k","b al","ar i","bedrij f","B ij","b uiten","be sl","e st","u i","oo m","r oe","ver der","aan ge","av ond","00 0","ind s","z ig","ver l","ul t","f d","we et","milj oen","l i","en s","w oor","z a","ne men","ver b","eer der","m ers","F ran","aan tal","voor al","atie s","b ele","t je","u st","en erg","Vol gens","versch il","S ch","en k","z w","a de","act ie","B el","jar ige","an n","m aat","s y","voor beeld","org an","v ast","no dig","gr ijk","n am","n ooit","cht en","gem aakt","z org","ve il","st ap","b u","p o","p el","aar d","zit ten","N a","alle s","sp el","1 0","A mer","p u","or gen","Russ ische","belan grijk","d ing","cor on","a i","vin den","oe m","m aak","af gelopen","in k","pl an","vo er","d am","k op","wat er","j a","w oord","kom st","S p","zelf s","be kend","elk aar","Amer ik","D an","organ is","l er","zeg gen","B e","k ing","strij d","sl ag","oo i","zet ten","r i","c es","g oe","z ullen","ver d","do el","m aakt","H oe","l icht","oor log","b re","bo ven","han del","et je","ou d","kin deren","h a","ver s","sch e","c k","H e","min ister","hele maal","wer den","pro du","l os","ver wacht","alle maal","p ak","he den","aa s","niet s","blij ft","mid del","O m","er de","m at","\" ,","er e","do et","st ij","ist en","P o","re den","elijk e","vr ouw","energ ie","zi cht","kijk en","in a","br and","i f","b ru","ber e","b as","m om","le s","Europ e","d uur","s om","Nederland se","v aak","stel len","w it","st ig","veil ig","v ia","twee de","r icht","op t","D uit","le id","vo et","mom ent","a ge","d agen","lu b","h alen","n aast","20 1","r ol","el s","l ing","m p","f orm","s ing","v is","g as","k ort","e in","we d","st uk","zelf de","le ver","br en","lan den","re g","hoo fd","wij l","de s","De ze","oo s","natuur lijk","c ol","wer kt","ier en","m eld","ap p","z on","t op","vol le","mar kt","bij voorbeeld","ijn a","z oe","t ig","5 0","e ind","prij s","V l","h oor","ieder een","kun t","l open","ie den","ge val","s inds","ra g","sch ien","dui delijk","d in","f il","sch rij","groe p","p os","ge beur","aar t","f o","i ken","gr ond","had den","el den","der e","len de","w et","mo gen","vr ien","gele den","g ang","ge vo","le den","sp eel","q u","w ar","goe de","B o","l ij","b ouw","l ater","k n","3 0","p aar","A r","in ig","p p","re c","krij gt","pers on","sle cht","gemeen te","z in","van gen","ken t","eer st","iden t","st u","zou den","t u","er n","st of","c lub","h ard","ge zet","den k","mo t","ze i","b ank","h en","s i","A m","z aak","dru k","ai re","T e","maan den","G e","ie f","a ch","van d","gen omen","it u","vin dt","nat ion",". ’","ger e","a y","z iek","am il","W aar","dr aa","k et","b ijna","r is","r aak","st re","a ir","j u","ken de","s oort","t on","enk ele","n er","vol g","v ijf","te m","h og","Bel g","l ast","lijk e","s c","bur g","N u","T o","ge sl","as s","di a","m ak","we ge","et er","at ion","ro kken","ex tra","bedrij ven","be ste","b are","pre s","pu bl","pos itie","me de","ste un","w ie","den ken","be w","t huis","ged aan","gen oeg","heb t","O f","n i","al dus","o b","v lucht","ou t","rij den","ac c","Amerik aanse","v ind","z om","van af","zo en","d acht","ik t","sch ijn","r el","se i","c l","str aat","t r","sp ra","f r","ge zien","re st","b an","be etje","W il","nam elijk","e uw","ge eft","re ken","we ken","ter wijl","ci ale","pun t","Europe se","ge geven","h ul","we inig","eigen lijk","on e","kre eg","l in","v ragen","ro ken","au t","w ik","ite in","w ijk","an s","ge wee","on g","man ier","sei zoen","gewee st","k racht","z orgen","le i","ond ag","R e","vr ouwen","z iet","er v","kan s","ater dag","te am","verschil lende","D oor","ie d","ver ander",") ,","men ten","’ .","sp ort","’ ,","be p","bas is","v ing","dien st","J o","te ur","Europ a","1 5","G r","oo pt","w oon","ig d","maak te","b i","lig t","d s","t s","best uur","v ak","stra f","I s","c ten","over heid","ko sten","el ke","mee st","itein delijk","lie f","vand aag","E U","ig de","atie f","bet e","oen sdag","vrij dag","prij zen","k ker","de m","proble em","con om","wed strijd","t ele","v re","D us","moe st","pun ten","te ch","ne em","re ger","n is","an ten","et in","gra m","k il","st ond","ol en","ann eer","m ing","p an","al iteit","met er","ont wik","won ing","z ondag","et s","E l","on nen","echt er","kle in","middel s","d aad","delijk e","k ab","maan d","wij s","d ood","gel uk","fo to","u id","ze s","komen de","z aterdag","me dia","b lijkt","i zen","in et","ju ist","bet aal","en ige","eer de","ben t","s s","van wege","v lie","in der","pres ident","n acht","w oensdag","ne mers","za ken","D en","b uur","h ol","t he","ruim te","Po etin","M o","k amp","man nen","N iet","van uit","pers oon","vor ig","J a","k ie","ple k","lang s","won ers","maan dag","voet bal","ver g","ol l","sl acht","m u","en e","op ge","iet en","me s","ap en","d ige","el de","mis schien","al is","1 2","z ak","onder dag","f un","h een","der de","gest eld","in st","f amil","o v","bet alen","ster dam","proble men","op nieuw","bren gen","kab inet","val t","tra in","z waar","ter en","ho ge","groot ste","Am sterdam","u p","A p","O ver","f or","st op","schap p","j ul","van g","beg in","waar in","gr aag","e p","hul p","kl im","gebru iken","k or","t a","v eld","ele kt","zoe ken","h i","s itu","sch ool","An t","M a","re ct","v orm","slacht off","k oop","sp elen","kre gen","l ag","am b","gev eer","ië n","f a","volgen de","reger ing","n ing","hou dt","ide e","202 2","st art","te st","1 8","f fen","un i","men s","hu id","con c","lig gen","geb ied","ze er","sch ul","20 0","tot aal","ber icht","min u","kw art","k te","r ijk","ge wel","ru m","stel ling","zie ken","din sdag","P ar","Z ij","m ooi","Ap ple","o gen","eer t","es s","stap pen","f f","ch e","nieuw s","tech n","z aam","ik s","R o","e conom","k ap","il ijk","m un","s h","d ra","h onder","p a","ge komen","hoo p","d icht","ie ke","ut te","moe ilijk","sy ste","G ron","an den","oo f","ver kl","tre kken","regel en","leid ing","ij s","ou de","w en","y p","all er","bep aal","heid s","sl and","win kel","bele id","d onderdag","ge spre","u e","z u","ver haal","2 5","d ingen","v el","ijn en","On der","t ing","milj ard","M e","l oop","m al","p op","met een","u iteindelijk","c ies","i an","en se","pl oeg","W ij","bo eren","leg gen","A an","t ie","ig ing","j ij","m acht","on geveer","waar om","bel ast","h ar","ver en","ol og","waar door","recht er","Br it","schijn lijk","W el","sch er","wel ke","waar de","H ier","O o","ë n","G ro","T wee","c el","V V","c us","aar s","n aam","fin an","R utte","ic e","neem t","Neder l","be zig","zo dat","ct or","zoek ers","Oekraï ense","202 1","gebruik t","N A","zo veel","partij en","gram ma","B en","ge sp","wil de","1 6","1 00","el f","or e","op los","ic o","kle ine","situ atie","ver oor","gez ond","c ie","l ok","v ond","dui zen","organis atie","b oek","h oren","re d","vor ige","d is","l ingen","t ran","ant woor","moe der","ou ders","jon g","zom er","T he","c ijf","d on","n iks","waar bij","ct ies","acht en","ke u","be staan","ar ing","gev ing","recht s","d re","p at","u str","ge worden","toe komst","hel pen","nation ale","elekt r","g o","z ingen","ar is","cht er","geb racht","at uur","per io","6 6","spe ci","Ant wer","z at","na dat","klim aat","in middels","ver dien","op er","bet re","richt ing","al ist","we st","j o","ur n","wel ijk","gev aar","fil m","k ers","k eren","s k","T oen","m oo","hal f","j an","n ood","kil om","W ie","r it","id del","cent rum","c a","w anneer","daar om","nu m","1 7","T er","l oopt","o chten","ver keer","im a","ein de","G el","Z ijn","mo del","k open","s ol","t ro","geb ouw","l iet","r aad","de ed","hu izen","gro ter","lij st","ontwik kel","w ind","na me","zit ter","gev onden","lang er","hal ve","famil ie","K amer","t el","mee ste","i oen","le kker","vol doen","cent r","b aan","w an","ra s","coron a","l aag","pre m","M ijn","b ond","mil it","oe p","we gen","ol ie","pro gramma","vert r","fl atie","voer der","c ces","r ie","mid dag","vert elt","W ant","m ige","ru st","pre cies","lan ge","person eel","acc in","1 4","c ar","d om","f iets","im p","Duit sland","vo eren","iteit en","oll ar","J an","voor bij","cl us","perio de","c u","ze ven","ken nen","Rus sen","wacht en","f ra","l et","oe men","ander en","k amer","t jes","de c","le uk","ter echt","pro be","fe est","verk ie","huid ige","d ollar","n oem","daar na","kr ijk","V eren","in flatie","eg d","su cces","k ig","v at","on ge","zich zelf","di rect","kw amen","va kant","” .","stel t","hoe veel","N et","b ak","l id","st ru","be elden","pro f","ged rag","syste em","i ch","u il","at e","re ven","meer dere","kl aar","bo d","str oom","Ch ina","besch ik","woor dig","sl uiten","im in","fe it","va der","gevo el","bete kent","b ar","l ine","reken ing","M en","ke ur","ic k","som s","form atie","g ingen","k ind","ver de","den ten","S te","be per","waar schijnlijk","20 20","jon ge","so ciale","ochten d","W K","gr ens","vl ak","zieken huis","w is","voor t","je ct","volle dig","E er","n eer","uit er","sch ade","as iel","L u","b or","at or","ge had","h art","v uur","4 0","d or","af han","ko cht","reg io","voor zitter","mis sie","P h","le eft","sl agen","ha ven","U it","c re","t oon","le u","pp ort","k a","m on","st il","cont ro","To ch","vakant ie","w agen","z or","ve stig","U n","e kt","n iemand","de zelfde","be s","besch er","den kt","ster k","ren te","kilom eter","s ite","ij d","st o","cr imin","maat schapp","V S","sp raak","cont ra","k ond","gem iddel","Daar naast","l ijn","p ast","cijf ers",". '","1 1","b at","n ou","is me","land se","Gron ingen","ge vallen","id s","plaat sen","ser ie","moo ie","te ken","he er","igen s","minu ten","m omen","r y","kl as","tre k","off ic","zeg d","kamp ioen","mu ziek","belast ing","afhan kelijk","I tal","aan we","ist eren","ko st","politie k","z ag","P ro","el ingen","it s","ers e","sl uit","daar mee","vr oeg","tegen woordig","han den","won en","S om","p art","pl at","mee ster","plan nen","Duit se","' ,","B ra","l een","n or","u igen","et e","in ci","ou n","bij zonder","maat regelen","honder d","b us","l as","v ij","ru g","beg rij","de ur","bet rokken","haal d","buur t","c ult","h uur","u ig","pro vin","cr is","hoog te","ef fe","gesl oten","G een","w a","aan dacht","dan ks","im aal","act iv","slecht s","ge volg","me d","hou d","su per","fin ale","2 1","2 4","R ot","m ond","ver antwoor","krij g","ble ek","hel ft","pak ken","num mer","ch en","sl a","win st","co ach","fa br","v ie","te el","oe gen","gel egd","He b","k onden","st ik","we b","se p","atie ve","wij f","roe pen","C om","ge zegd","ve au","vol k","werk ing","hog er","\" .","en kel","op vang","gen er","t it","u ari","ieu w","werk ers","gebeur t","uit ge","id ing","sp r","wee kend","stand ig","N oord","s m","z er","ver volgens","vo c","Belg ië","di rec","Daar om","if ic","publ iek","gespre k","1 3","T ot","b ie","h y","in kt","st at","it y","ber g","jan uari","F e","s an","v ide","in formatie","ig n","vo ert","gewel d","pop ul","i me","del ing","mid den","lo c","pa kt","F C","h ang","ï n","in ve","ma x","beg on","gra den","woord voerder","meld t","Waar om","2 2","b and","e chte","ge k","le es","H aag","w innen","ver lie","be staat","as e","dan k","n ers","s f","re m","beg int","inder daad","M in","aa f","re gen","us sel","waar op","M an","j uni","il l","mo cr","bel ang","8 0","l op","at is","aan val","se ctor","zo wel","pl icht","dien sten","ris ico","ap par","beg innen","g oo","ge gaan","it ic","ra p","En gel","pre sen","mak kelijk","contro le","V O","a ken","het zelfde","ol f","Br ussel","bu re","cris is","ver gelijk","be ide","com ple","b eren","z oon","we zen","gel o","sl im","geb re","ko ers","mat ig","voldoen de","b oe","er k","ge houden","sp ron","ac e","com p","lever en","gesp roken","vertr ouwen","M is","Z elf","b ouwen","g ar","v ir","v aart","te erd","ver z","voor komen","maar t","spre ken","speel t","b ieden","v oed","z ing","wit ter","Vl aam","stu denten","aut om","ne gen","ac k","S ur","V eel","b in","gen oem","ug d","5 00","li ch","Brit se","VV D","aanwe zig","g af","er gens","ter dam","zo cht","daar voor","werk elijk","regel s","res ult","Rot terdam","T ru","er voor","ver se","hoe f","won ingen","vis ie","vrien d","kor te","prem ier","f oon","v accin","w n","at eg","ze e","ra m","tem ber","C O","h n","pro ces","kl anten","kle ur","A f","O pen","ë le","aa gt","on line","kun st","Al leen","politie ke","le gt","le ger","sl ot","stel de","act ies","slachtoff er","P r","Z uid","ge be","le er","ar m","Fran se","belangrijk e","ver m","ar be","ur s","hoe ft","war m","person en","lei der","sep tember","D 66","y s","ge s","us e","20 19","sch uw","fl ink","oplos sing","verkie zingen","p ort","st uur","be sp","ang er","pas sen","bur ger","col le","vlucht elingen","bes met","S inds","i x","w ap","ge volgen","stem men","Om dat","mot or","s se","al t","le ment","hou der","off en","besl is","zw are","ni veau","b ot","v i","voor mal","daar bij","ek s","bru ari","stik stof","2 3","v ies","ver len","ver da","ik ken","waar mee","hou t","win tig","roe p","dor p","d ieren","de eld","in s","el len","ge meester","ver wij","ru k","ex per","ex tre","kijk t","verda chte","w are","ker n","fe bruari","Bo ven","bepaal de","gebe uren","I e","P S","be vol","se ks","ant woord","O l","d ragen","v ele","er van","ag ue","cont act","spel ers","jul lie","verantwoor delijk","M er","w ist","voor zien","bl ok","gro en","bele g","kie zen","jo urn","nor maal","' .","j ur","ver v","mer k","sn ap","strij den","T ij","m el","p ijn","u re","ge kregen","om e","voor dat","ci ële","leg a","dru g","Fran krijk","stop pen","B ar","C ar","b ro","k ru","m ig","on de","icht ing","kin der","vers iteit","som mige","G a","K on","r il","en orm","ge vangen","le iden","gel oof","als nog","du b","pr ima","stra ks","burg ers","p or","an en","in woners","waar schuw","fe st","ië le","gevo erd","mede werkers","jong eren","zor gt","K e","f ijn","aan deel","me i","ig t","to ber","po st","ja x","vide o","D on","L i","T witter","ne e","ont de","ron de","Le ague","Nederl anders","A jax","j ui","ad voc","tre in","recht bank","schrij ft","lin ks","vlie gt","keu ze","3 5","gel dt","lijk en","so ci","woor den","lief st","O S","d oe","pr iv","schap pen","ho w","col lega","betre ft","bure au","B l","e euw","ie ken","al ing","al es","or me","me is","Al le","veilig heid","vak er","wap ens","7 0","c amer","j ouw","p ap","aar de","ver zeker","vr oe","ok tober","Jo hn","contra ct","tit el","Mis schien","d ur","sch il","kw aliteit","lie ver","g ast","m ber","or ie","sl aan","vol gt","pol itic","vraag d","ieden is","schrij ven","Tij dens","N og","t wintig","in ge","is en","re in","olog ie","T ur","U tre","en orme","st al","af stand","gr atis","pro beren","minister ie","draa ien","Belg ische","tele foon","Ma x","vij ft","i ste","r ouw","be kende","ig er","sch at","sch re","ter mijn","ve mber","ic a","win ter","St aten","su b","gelijk e","6 0","g ers","re actie","ant ie","kl inkt","ble ef","leven s","jul i","bevol king","d ik","d igen","k aart","er op","in de","om geving","il le","di o","lie p","We st","gesch iedenis","momen teel","direc teur","Utre cht","E x","H ol","v eer","den t","le zen","inter nationale","Veren igde","v iel","an nen","daar van","gem ak","mer ken","no vember","produ ctie","iën ten","NA VO","9 0","C D","i um","aa p","ad vies","art ik","tem per","maatschapp ij","provin cie","e il","r ist","an te","voor lop","ou der","com mun","produ cten","lok ale","h om","o d","re is","gr en","pro ject","ind ustr","au g","vrien den","K an","k am","le m","be wijs","ra ce","die p","af ge","ak k","br ief","moe sten","gesch reven","scher m","H ar","or de","le x","mo cht","waar van","her in","kr ant","spra ke","Oo st","Gro en","t af","w ol","op pen","re ed","ke ken","itie k","vl oed","fr ik","Antwer pen","Tru mp","b y","d ak","p ra","ge ïn","tegen over","staan de","gele gen","Ch ine","Ver der","b ra","w apen","an je","de mocr","st ation","ver moe","it er","be vestig","voor uit","ken s","ra pport","ber t","ko zen","groe i","lich aam","D u","V or","c amp","j ou","m ass","é l","ver sie","man s","spra ken","2 7","c y","je ugd","ker k","pr om","besl uit","duizen d","L a","l eren","n oemen","r ent","s ingen","y en","er ing","gen oot","be woners","ap an","ot he","vrij e","ctie f","fen sie","cult uur","H el","P a","S u","b ood","ij e","on geluk","bo s","ci r","Men sen","vie w","Boven dien","F in","f iet","h oek","s on","al isten","be handel","dat en","over igens","dr on","Nederland s","snel ler","stem ming","verk oop","elektr ische","drug s","be zoek","dag elijk","wij zen","em ber","econom ie","A frik","i Ph","m orgen","er den","st uren","le ving","ig heid","ap ril","bl oed","kon ing","Min ister","B or","M ich","g l","h oort","t w","aar dig","ar te","ag er","onder steun","ion ele","pr aten","win ning","dec ember","web site","camer a","E ind","H u","S a","h or","l ink","r ou","w ijn","id t","Twee de","D o","M ac","d racht","oe fen","ne g","do chter","In ter","Ne e","sy ch","ern ooi","G er","S e","i ers","m ater","in ten","al ter","ist ische","ger aakt","bur gemeester","schul d","kwart aal","2 6","2 8","E C","f i","h t","h am","st offen","ken nis","ier e","tij den","bed rag","202 3","slachtoff ers","gezond heid","Ie der","u le","en d","in v","st oot","he et","vo elt","ust us","N L","h ot","v ari","oo st","ro ffen","sp or","over al","vo elen","plaat st","ouwen s","Ver stappen","beschik baar","4 5","f out","h of","ie el","it i","di um","get roffen","bru g","wed strijden","duizen den","C o","N ou","f eren","m or","oor den","ver leden","gen e","over leden","was sen","blij f","mil ieu","ple kken","Mar k","vier de","dem ie","aug ustus","M at","T V","b om","en n","st onden","te erde","der ing","re ag","waar d","do wn","au w","ger icht","hou ders","tre den","weten schap","jui ste","voorlop ig","pra kt","V and","on en","sch ak","ne mer","daar door","aag d","vert ellen","verk open","actie f","stij gen","gebeur de","bew ust","hi eld","spron g","t ers","ge zel","oe pen","im pel","stel lingen","volgen d","speel de","tu in","gegeven s","train er","leeft ijd","akk oord","C or","H er","Q u","g rij","i val","l am","m oord","v d","y mp","è re","te s","ver plicht","sch ot","dig it","ies o","con su","belangrijk ste","organis aties","milit aire","a den","s ele","ge he","ul l","wil lig","stij ging","hog ere","h on","t v","w ieso","at s","ra c","com bin","ip s","groe ien","samen leving","gez in","zon ne","bericht en","d uren","k aar","s al","et ten","aan delen","be veilig","han gen","mid delen","ieder e","On ze","verl oren","bren gt","stu die","erv aring","fun ctie","use um","V r","W er","wer p","im mers","es se","art s","beg onnen","brand weer","aut or","aller lei","M us","M art","O M","R u","S y","k off","p sych","w oe","re cor","waar den","pl ot","vr aagt","ber oep","win naar","Hoe wel","finan ciële","stru ct","taf el","b oom","p og","on a","it te","or d","ol ang","to ernooi","over tu","na u","kl ap","zet te","tre kt","ho ven","samen werking","produ c","draa gt","verde dig","bie dt","iPh one","C on","O ran","g re","i ele","k wij","l oon","in vloed","ge h","be hoor","ra ket","sch oon","wil t","gemeen ten","za me","last ig","noem t","asiel zoekers","plat form","standig heden","C ol","C ent","u de","te kort","om zet","eren de","pen si","werk nemers","spe eld","To ur","econom ische","pensi oen","A ir","A ustr","B er","er bij","de fin","le vert","ul dig","goed kop","bed re","Vl aan","tr ouwens","Antwer p","f ans","men ing","ic atie","gew onnen","ex pl","wereld wij","ce pt","ontwikkel ing","industr ie","Austr al","Vlaan deren","a ft","d rij","k ou","k and","ge haald","ge vraagd","te v","ver kocht","re spe","re age","to cht","am mer","verb ru","gebouw d","L in","N aast","R ijk","b il","on danks","dat a","kom sten","wij ze","par k","Daar mee","hoog ste","spre ekt","zw ak","sche id","Nederl ander","2 9","A u","N ieuw","P ol","b racht","h ist","s ers","u ele","z il","te sten","der heid","be do","be doel","In st","deel s","Eer der","artik el","Ieder een","H aar","L aat","m b","uur d","ind ruk","dit ie","bo er","Ch ar","beur s","verl ies","positie f","geluk kig","H a","d aal","t y","v ou","te k","ang st","gew one","loc atie","P as","b ab","ge ver","ste gen","par lement","opt ie","centr ale","milit air","kwij t","M os","b ier","i aanse","r om","t ingen","z we","el ing","al len","le ef","ag ne","sp ro","na men","ma il","Ne w","inter view","lief de","vir us","voed sel","gevangen is","alter n","vou dig","7 5","B ur","M il","r atie","t wijf","ol d","ro de","ma ch","zom aar","welijk s","H o","ver mogen","le ek","se s","do cu","ieu ze","hoo pt","recht en","com missie","so wieso","spel er","lag er","gemiddel de","Z aken","h open","k at","k west","w iel","ie ven","om standigheden","ond s","toe gang","kw al","Daar bij","verwacht en","vre em","verg eten","dank zij","boe ken","Oran je","B iden","a ur","a us","f act","ge werkt","op dracht","le eg","be zoekers","Daar na","vert elde","raak te","verander en","verander ing","recor d","C an","c ap","f an","k ten","z ier","de bat","in iti","st een","be weg","ik te","ven t","sp ann","ter rein","hou ding","mogelijk heid","Voor al","vor men","ina me","verg un","Vlaam se","Tur k","b aas","in komen","ste den","se con","jaar lijk","han delen","inter ess","beter e","gebeur d","qu a","Un ie","verz am","vroe ger","othe ek","K l","K aag","m y","m elden","o ze","st ar","ste v","haal t","so ft","aange houden","produ ct","dem on","conc ur","Zelf s","Sur iname","defin itie","L im","U ni","V rij","b lijk","s ign","s impel","oor ten","voor bere","ze ge","als of","ad vis","ke ers","vrij heid","vrij willig","mogelijk e","Vol ks","gebruik ers","ban ken","pat iënten","PS V","S int","f fe","k elen","v og","er r","al gemeen","ten t","aal f","wil den","str ateg","Sch ip","gemiddel d","schre ef","T en","a h","b ang","e et","e isen","l oos","p om","an c","le ed","snel heid","co de","inter net","boven dien","rel atie","extre em","R ob","c ou","g isteren","u d","z agen","in ken","el l","onder wijs","pro test","do den","meer derheid","ic iteit","ker st","br oek","gew ond","kr itiek","duur der","Ar n","wis sel","presen t","politic i","Chine se","P ut","W or","p racht","de den","et itie","te gelijk","ste ken","onder deel","ru stig","staat s","deel t","besl oten","bu d","wit te","Gel uk","Fe yen","B S","g if","s ne","in clus","ij en","we sten","gel uid","ru kt","hoe ven","groe pen","19 9","oog le","eerder e","gesl agen","max imaal","genoem d","N ation","p ot","oo sten","sp annen","ont staan","ont vangen","di verse","ser v","ust itie","ziek te","bestuur der","betaal d","verlie zen","l at","n orm","ge zicht","ver halen","om hoog","be v","as ie","moe ite","po dium","ein delijk","Ter wijl","san cties","arbe ids","E m","J ong","V A","W as","W anneer","Z ou","voor deel","sp oor","ve st","werk te","pr oe","eigen aar","pre st","gele id","hel pt","regel matig","haal de","vl ag","miljoen en","lij den","fest ival","Pa ul","O r","i ct","l ot","m een","en te","de t","ver keers","geb oren","jon gen","onderzoek ers","buiten land","spra k","groter e","advoc aat","nau welijks","hist or","Feyen oord","B erg","G oogle","b it","d y","v lees","ge kozen","ver hog","nog al","waar onder","ië r","app s","ras sen","cre ë","voormal ige","kwest ie","A S","K ijk","Q at","R T","on afhankelijk","al y","is e","sch iet","rij dt","eer lijk","ak ker","par keer","ip pen","Sp ort","verwacht ing","lever ing","Wil lem","dis cus","effe ct","tw aalf","sele ctie","behoor lijk","Geluk kig","B re","J apan","K ort","d ier","h ond","i or","r ik","s how","u eel","en de","ge heel","gen aam","over winning","bl ik","kl achten","dr oom","kle ding","kant oor","ri ère","verd w","si die","sf eer","gelo ven","gebre k","gemak kelijk","Vand aag","B M","K r","M eer","N atuur","R ed","c as","g oud","t i","z ul","in gezet","op per","we kken","voor stel","ou ten","gel u","gel aten","ul d","wij st","du el","du re","la ge","pas s","bre ken","Europe es","bepaal d","Gel der","gener atie","b ers","c ur","e mot","h ers","h ore","k ar","s et","z us","at ische","te ert","der d","be heer","ve cht","ion s","Mar ok","rel atief","verdien en","meis je","demon str","Schip hol","E ven","a zen","r id","st aten","be zorg","je zelf","ve chten","ben ad","bl ad","ster ke","mogelijk heden","hel aas","Zo als","jon gens","ga ven","Sp anje","bete ken","vlie gen","stat us","hang t","beslis sing","sub sidie","mater i","N oor","P vd","b oot","c ast","g un","p ad","at isch","is sen","wel licht","tal len","zw art","201 8","techn ologie","uiter aard","fabr iek","Mus k","N P","P olen","b on","b un","r and","x e","z aakt","oo ft","ge p","al d","we gens","am per","agen ten","cr et","zw arte","model len","car rière","klas se","begrij p","temper atuur","bud get","K o","a in","t aal","z anger","an ne","on ver","ver spre","op vallen","gen oten","uit stoot","over een","door gaan","geb ieden","ac teur","fe der","tra p","mis s","Ze ker","stand aard","zoe kt","reken en","bond s","serie us","pog ing","B os","G ent","I N","N V","k m","n ot","v racht","ra ken","kan sen","ist isch","pen s","min ste","co al","besl oot","stij ds","alis eren","veren iging","inve ster","camp agne","3 3","B innen","d w","i ft","p h","r aal","y n","ch em","ver goed","op mer","sch ieten","waar dig","ger echt","her stel","gest uurd","vl oe","Te gen","nation aal","pan elen","speci f","Ital ië","inci dent","comple et","journ alist","dagelijk s","bab y","coal itie","B B","K ie","K om","T om","m and","et c","st ak","ig ingen","wer ker","ct ion","acht ig","ont moet","ger oepen","min ist","pr aat","iv id","res sie","bru ik","verkl aring","tran s","Som s","result aat","blijk baar","K un","N ij","S o","U S","an ci","an ce","st ers","st ige","al weer","ver bod","be zit","sch olen","to er","ind ivid","lu kt","ged acht","gele verd","ui delijk","hoofd stad","meest al","persoon lijk","prof ess","activ iteiten","popul air","dub bel","gren zen","vari ant","b ook","f ig","o ken","in eens","ij t","ver st","ver war","gen o","gen ieten","ber gen","gro ene","ple zier","ran ten","vrij wel","ce des","roe pt","li ve","verd achten","201 7","Te sla","gere den","bew ol","pan demie","kap ot","sol u","imp act","comp etitie","result aten","Mer cedes","A pel","W h","n el","s elen","en en","de al","st a","on ne","on langs","ar ch","voor spel","voor sprong","ra den","oon d","tot ale","even tu","binnen kort","gemeen ter","Ch rist","spe ciale","aange kond","Jo han","fabr ik","consu menten","bedo eld","Qat ar","Pvd A","E N","P at","b omen","g u","k eld","z ers","ge keken","ge stegen","ver vangen","der tig","re eks","be gr","je cten","uit zonder","sch op","sten s","deel nemers","ple in","av or","fr ont","minu ut","har de","9 9","A lex","F ace","t roepen","ge plaatst","re ur","aan vallen","sen s","eren d","geb roken","werk zaam","kw ets","pr op","ab solu","sche pen","brand stof","duur t","201 4","rest aur","feit en","beper kt","CD A","Afrik a","F err","I J","I V","K ar","L o","N o","a me","c af","h op","on geval","ver tegenwoordig","ien d","onder nemers","pl ant","pl ay","open baar","tegen st","bo den","con fl","deel de","net werk","get rokken","gesch ikt","stuk je","fil mp","vrien din","up dat","voorbij e","sluit ing","goo ien","inde x","geh oord","gemeenter aad","a el","f el","w o","w ens","uit spraak","ste ek","eer den","wor d","agen t","mar kten","Amerik a","leid t","draa it","Par ijs","toon t","offic ieel","Bra b","fiet sen","3 2","B u","D r","D enk","P eter","V is","h yp","p ut","op zich","uit ker","sch ip","af scheid","Al les","Oekraï ners","gesch oten","beur t","pak ket","Eind hoven","3 1","S amen","k oe","k ingen","k ast","r et","ge ë","een maal","aan bod","ou den","ra d","and a","ag ram","gel s","onder handel","zo iets","sl apen","ion eel","pr et","St ad","lo ck","Le iden","va ste","meld ing","ban den","gespre kken","vliegt uig","inv asie","prakt ijk","hore ca","cret aris","4 00","A M","b all","f avor","k eten","n y","r ing","v ar","w él","de stijds","ie p","van avond","over leg","St aat","stad s","tien tallen","club s","Gro te","probe ert","kru is","digit ale","tev reden","Lim burg","opzich te","3 6","A d","E K","Z elen","c le","o ven","s a","t ru","v onden","er ger","er tijd","in ke","ge men","is se","ver beter","ver trekken","le y","ar den","ar io","ra b","uit gebre","un t","ro t","onder tussen","wel kom","vol wassen","daar op","gaan de","bo ete","persoon lijke","cie el","leu ke","Kie v","Zelen sk","F orm","M ag","S m","l iter","p oten","voor stellen","ing er","per fe","ok ken","dr ingen","dr oog","Daar door","Van af","verb and","ton en","vlucht en","ieuw d","tek st","beweg ing","Arn hem","Put in","5 5","C ity","G u","H ong","I I","M on","U iteindelijk","V o","an e","ver laten","gen t","il en","mo der","br ood","pr ik","sie ke","hand ig","voer ing","winkel s","bor d","reag eren","verbru ik","discus sie","Ferr ari","3 7","D el","b a","c ro","i zig","v ac","w isten","an aly","de ta","ge speeld","der gelijke","den d","re izen","be hoef","il s","uit zen","onder zoeken","dr inken","con clus","str en","ut ie","ce p","On danks","verschil len","mat ige","stij l","zon e","ern stig","ner gens","schul dig","olog ische","Oo sten","veroor zaakt","part ner","C l","D oe","J u","J on","p aal","in komsten","ver bet","op treden","aan zien","ar ingen","ol oog","ste eg","af val","ak e","ged ragen","richt en","honder den","Ital iaanse","colle ge","herin ner","Inst agram","Mos kou","kwal ific","B au","B uiten","D i","D ank","E T","S P","k king","m oed","m useum","p and","t ar","en ten","in te","oo ster","ver w","aan gif","we ig","ad a","ap pe","ne der","ak ken","ant i","gew icht","erg ie","sle chte","verl oor","sc en","west erse","tro k","vuur werk","bijzonder e","koff ie","expl os","BM W","3 8","3 00","? ”","N aar","c ru","g olf","r iv","t weet","et ers","ge vers","ver boden","it eren","aan v","le cht","wer pen","af gesloten","au we","br on","even e","kr it","kelijk e","bedrijf s","coron av","rec la","Ge woon","Is ra","fun cties","Over igens","bestaan de","elektr iciteit","gevaar lijk","priv é","vijft ien","democr atie","Face book","Form ule","E igen","K a","P ort","c ul","z ine","in val","in zet","aa i","oo fd","ie ve","ge ef","ver sl","ra f","uit dag","am ing","min imaal","iv iteit","lucht haven","Russ isch","mat e","veilig heids","inst all","gezond heids","tro ts","bescher ming","Som mige","super markt","genoem de","link se","combin atie","B art","H ad","K le","S am","b ad","d ro","f ant","p k","t yp","er uit","ver e","ver re","be se","sch oen","sp ullen","vol ks","pl us","ic ro","geb leven","tijd je","br anden","bo dem","toe ge","gew en","ex cus","co hol","regel ing","res s","Wat ch","belan gen","Fran s","He eft","reden en","bere iken","wijk en","begrij pen","voert uig","dik ke","wereldwij d","vergun ning","secon den","star ten","Brab ant","A D","F l","I S","J er","N ieu","P er","b ol","b ack","d aling","e men","m as","r ook","r ele","s oorten","aa ien","ver n","be vat","sp its","ne m","kl opt","aag de","bel len","huis houden","fl inke","fin ales","ade m","coron ac","oorlog s","stuk ken","meld ingen","zin n","gere kend","E én","G od","M ed","R ad","R aad","i re","p s","p ij","r or","t elijke","ë l","in krijk","is h","ver zet","ver trek","be kijken","voor waarden","ste erd","lie d","plaat se","tra dit","la chen","jaren lang","woon t","daad werkelijk","bescher men","sm art","vergelijk ing","beleg gers","autor iteiten","respe ct","D a","I D","f ase","k ol","v elen","v lo","an de","ar re","voor af","sp l","aal d","vo el","ger ust","br aak","hoo f","gro ten","maak ten","zoe ker","kracht en","bep alen","vlie g","zak ken","amb ten","iën t","don ker","voert uigen","Vlaam s","gelegen heid","initi atief","concur rent","bonds coach","restaur ant","D av","J ul","S er","in o","al cohol","van zelf","ver zoek","sch aal","se m","sp ar","sl aap","min stens","bo el","oeg d","gest oken","gra p","cont rol","tien de","Fran k","zicht baar","mak er","oper atie","wa gens","struct uur","inclus ief","aangekond igd","confl ict","B ank","B rug","M ol","T im","f ic","g las","h eren","r ood","t an","z aten","ó ó","de uren","het en","be halve","au ffe","nu t","ger u","kl ant","ster ren","moe de","pr inci","com pl","ble s","besl ag","zorg de","verd acht","Gr oot","Me ch","Hol land","hot el","goedkop er","vergoed ing","izig ers","excus es","H en","P iet","R os","T s","f as","j ammer","t ank","v oren","y e","z aal","de fensie","on ie","een voudig","al i","ver volg","aan s","We sten","gemeen schap","inter esse","kop pel","qu e","sol daten","pport ers","bescher m","loc aties","max im","voormal ig","A b","G i","L M","N S","P ad","R em","a bel","f onds","h at","z olang","in tussen","st ab","op leiding","ar gu","ig ht","ra mp","il ip","uit bre","af f","af deling","ad res","land bouw","kan ker","open ing","lu idt","keer d","besch uldig","stem d","positie ve","acc oun","erv aren","yp to","verkeer de","let ter","hoeveel heid","Kon inkrijk","Hu is","ymp ische","NP O","1 50","3 4","D ijk","N or","T ok","b een","c an","g at","h onden","p il","st or","ie ur","at eur","ge est","ver rassen","op genomen","iet e","sch aat","De fensie","as sen","ne y","ne us","goed koop","zij de","buiten landse","ris is","tele ur","veroor deeld","sto el","Com missie","eil and","caf é","scen ario","A s","F A","L onden","R on","i ve","k u","t ri","v et","et sen","die sel","ve e","ben e","con feren","Ch amp","la y","19 8","bere ik","publ ic","El ke","train ing","offic iële","med ische","comple x","CO 2","leer lingen","verv elen","behandel ing","Lin ks","bedoel ing","cap ac","interess ant","soft ware","verhog ing","B ull","C lub","F I","F or","P l","g ig","i der","i pt","l ap","r ice","v oegen","st eren","ver tra","ver ga","or k","aan pak","be ker","be gele","sch ui","door dat","na uw","ent hou","wij zig","keer t","kle uren","202 4","sle ut","verb ind","Sp elen","Sp aanse","leid de","wet houder","mak ers","amb itie","conc ert","rijk e","zu iden","gelo st","schil der","Hel aas","H eel","I C","P or","T u","Z wit","b by","c al","l on","u gen","z over","ver ster","over schrij","am a","tij delijk","geb o","geb as","get uigen","wereld kampioen","An ders","gesch ak","onze ker","log isch","stad ion","ler aar","bere ikt","vand aan","ob il","opge pakt","besmet tingen","mig ratie","neg atieve","altern atief","verdw ijnen","Natuur lijk","A pp","G em","H un","J um","T hom","Z we","b um","e ditie","i z","l aad","p ool","en ig","er mee","ij den","st anden","re delijk","ou ter","il leg","bij een","ter ij","waar na","ond uidelijk","ic ket","toe val","achter grond","ho gen","aange past","avond s","noem de","Bra zil","pap ier","vijft ig","Vor ig","wetenschap pers","Antwerp se","jaarlijk s","vrijwillig ers","lock down","E R","H oog","R a","T ele","a chte","b oos","d alen","f ac","m us","r ang","v aardig","in i","el ders","we der","id aat","gel den","ne s","In middels","daar in","vo elde","bet al","ite d","cr ypto","ga me","volle dige","hoor de","lopen de","Engel and","Minister ie","wo ke","hyp otheek","Jum bo","K at","K ore","M c","b uren","j et","€ ™","al vast","ver hogen","ar moede","ou dere","uit gevoerd","sp aar","sp ir","af spraken","20 00","gem eld","ir us","baar heid","Eur o","rond om","plan ten","bere id","team s","momen ten","vaccin atie","Open baar","Bau det","bles su","H amil","R en","f les","g an","k ust","een tje","ver niet","re e","re acties","voor namelijk","af loop","sl aat","ne k","pro ce","ic s","toe zicht","won gen","An der","la den","bre ed","lei ders","kil o","zak elijk","che ster","finan cieel","Veren igd","bood schap","raket ten","filmp je","gebas eerd","A t","D is","D rie","T r","g aten","l ijnen","v een","el le","ge organis","re izigers","ik e","og an","ben ieuwd","ben zine","ier d","ke i","daar naast","bet rouw","di visie","ged wongen","com ment","com pens","Oekra ine","19 7","duur zaam","stre eks","publ ieke","vre de","welijk e","Man chester","verantwoordelijk heid","enn ia","ty pe","Isra ël","Hamil ton","? ’","A R","E V","J or","L ou","S an","S ter","W in","b bel","d ou","f ys","ver voer","om a","re cent","aan vragen","sch oot","ag ressie","onder zocht","ad ver","tij delijke","br onnen","maal s","fe e","lo ze","pe il","onderzoek s","bre ekt","duur zame","itu ut","gere geld","betaal t","film s","Af gelopen","zwe m","analy se","aangif te","coronac risis",", ”","3 9","6 5","A chter","G oed","J oe","S c","V roe","Y ork","d cast","é t","oor zaak","ver blijf","ar s","ra pt","ag ina","over last","af komst","zo genaam","ap t","sl id","land s","zi chten","open bare","min im","art ie","stel sel","com mer","win t","snel le","sie f","dru kken","aange zien","veil ige","bekend gemaakt","Be ide","ff er","dec ennia","sse cretaris","zonne panelen","sal aris","Turk ije","strateg ie","proe f","materi aal","begr ip","werkzaam heden","absolu ut","recla me","H ug","c ateg","e iden","i elen","st ichting","ch ip","ver ra","aan getroffen","le ge","met en","ne ut","ont zetten","open en","bel and","dig d","no dige","versch ijn","Ver volgens","age ment","speci aal","Un ited","crimin elen","wa chte","spr int","Sur in","bro er","soci aal","veer tig","Zelensk y","D am","H op","M id","P rem","c ade","e u","f ort","l d","v oe","z ui","ü n","op slag","aan leiding","le k","voor keur","ur a","ur ele","die f","waar voor","acht ste","ul iere","str and","We et","gev uld","ple it","achter stand","verk racht","los sen","201 5","meld de","kn op","ern stige","tele visie","ontwik kelen","finan c","red den","probe erde","Eer st","appar te","warm te","exper ts","mass aal","koning in","rou te","gezel lig","vreem d","sne euw","gemen e","Buiten landse","conferen tie","gebo den","A Z","B eg","G en","M ad","W it","W im","c la","h itte","i chte","i Pad","r at","s cor","ge con","ge kocht","op vol","gen d","ar rest","me et","ten nis","ft al","mo chten","pl ast","ont slag","man ager","dr oeg","art sen","lu isteren","con s","str aten","ple eg","lan c","gest art","bas s","201 6","ss ier","Mo et","syste men","Onder tussen","kond igde","Mich ael","kaar ten","kand i","pom p","zul ke","Gelder land","tegenst ander","uitker ing","Dank zij","coronav irus","vlo er","capac iteit","Hug o","ontzetten d","4 6","G o","H am","L et","N at","R ond","W out","t elt","w al","er in","er aan","de gelijk","in spe","at uren","ge et","is s","is lam","ver nieuw","ver slag","it aire","ur t","sch a","sp oren","wel k","atie ven","do ssier","im ir","even eens","get e","besch ad","kop p","Amerik anen","pak te","eind igde","rec ente","amb ul","techn iek","verdien t","jur y","commun icatie","drij ven","Rijk s","spann ing","opvallen d","updat e","4 2","A rab","B ru","L an","S pe","W elke","d ijk","h ie","i men","i ment","j ustitie","l im","l ige","l agen","n ad","p oort","in zetten","st ok","st orm","on k","re aliteit","he il","dat ie","onder werp","af levering","kun sten","hij s","werk gever","su pporters","leg de","verb onden","Te gelijk","the ma","kie st","oplos singen","autom atisch","jur id","herin n","bra k","Char les","norm ale","inte gr","huishouden s","bene den","Zwe den","Vroe ger","6 00","A ert","F 1","H enk","I ran","V N","V ite","c te","i us","m uur","t her","u we","el ftal","ch auffe","op he","op gelost","be houden","he v","dat um","over leed","ct oren","bl auw","hu welijk","pt ie","ble ven","milj arden","gra f","verder e","po dcast","vijf de","ass ist","mede werker","euw en","vorm ing","lag ere","fra ctie","wis selen","mig ranten","dron ken","kand idaat","militair en","benad rukt","beteken en","behoef te","schoen en","Nieu we","Brug ge","Vite sse","E O","G S","I ets","L and","k ele","m igen","r ale","en ter","in den","in stellingen","oor te","ver snel","op roep","me da","ra in","sch af","ten minste","rij ding","na zi","ke e","lu xe","ac y","energie prijzen","opt ies","lever de","bren g","volg de","verander d","gewel dig","wijf eld","appar aten","verv uil","verdedig er","Cent raal","twijf el","vracht wagen","Nij me","categ orie","R onde","S al","Z onder","n l","p it","t ren","oo ien","oor de","ver stand","ver hoog","gen de","voor jaar","voor zicht","me zelf","ter m","ter ror","pro jecten","bl auwe","geb oorte","aak te","Ze e","get wijfeld","Zo wel","versch ijnen","gez amen","ga ve","li ber","maat regel","oem d","doel man","stij gt","Te am","stre ep","alis eerd","keu ken","exper t","meis jes","John son","Groen Links","schak elen","creë ren","feder ale","minist ers","uitgebre id","Nijme gen","A zi","B O","C ons","J ac","J onge","S ov","W al","a der","b oord","e i","f y","l ers","s cr","t h","ie gel","ge de","le e","uit ste","ag o","sl oot","sl oeg","ke s","open d","dr ank","del ingen","del oos","lu kte","bed ien","bed acht","lang ere","um n","fl ix","besch ouw","cont in","vier en","bere ken","201 2","Wil li","inst antie","for s","techn ische","Gron ing","Hier door","verzeker ing","schat ting","ondersteun ing","EC B","gre ep","simpel weg","histor ische","Champ ions","enthou si","geschak eld","blessu re","4 4","B et","C al","G aal","K en","K LM","P ool","P ri","S h","S tra","T ran","V al","a z","l s","o c","de ment","in ged","ge heten","on mogelijk","be oor","ro k","over zicht","mo slim","ul eren","hoe wel","tre ffen","hier voor","net jes","tal ent","uren de","vert rokken","Mar kt","zeker heid","da den","gez innen","besl ist","ler c","Hoe veel","des ign","acc u","klein er","uni versiteit","verkeer d","fra ude","journ alisten","temper aturen","vermoe delijk","bood schappen","Austral ië","mach ine","Uni versiteit","pracht ige","onderhandel ingen","fant ast","gig ant","Thom as","Prem ier","2 50","F r","F ort","H oek","K ui","M or","V eil","b aller","d ad","f ot","h iel","i ders","k ies","y pt","z uid","te veel","le ert","be gro","ken n","bij dra","af ger","ne u","kan aal","mee doen","wil d","man ieren","du c","Daar voor","keer de","gele zen","iv is","jar ig","pel s","Vl ad","qu ent","fun ction","antwoor den","rie p","Net flix","grens overschrij","part ic","dub bele","gast en","bevestig t","Vor ige","Alex ander","Sm it","Por sche","kandi daten","% .","E M","G aat","K u","P VV","W eer","W ater","Z olang","a kt","b is","b onden","h aat","k ool","r aakt","s or","v on","v elden","é cht","st ien","ge vecht","on zin","al arm","al bum","re pen","be wijzen","ig h","sch ri","waar heid","door log","vol op","na jaar","bo x","em pl","ac cep","di versiteit","ged achte","cor ru","kr aan","spre ek","sle den","Br and","li chte","sy mb","grond stoffen","Ar gent","bi ele","idee ën","zieken huizen","Ro de","tel kens","fra structuur","kam pen","produc eren","reage ert","docu ment","definitie f","plast ic","bijdra ge","A C","B ijna","G T","I r","M orgen","R S","T h","c ra","d oek","f outen","l y","p agina","s at","v aren","w ay","an a","in z","in ch","ch a","ch an","ge stelde","on i","on voldoende","ver van","op gelopen","aan passen","be ek","we ers","onder delen","heb bers","bet h","man n","dr aag","werk gevers","ort us","con stru","ci aal","We ster","eel t","mis handel","ert je","net to","da ders","Fran ce","bu ien","Na dat","organis eren","opt im","des kun","rel ig","ving er","Gr and","bestuur ders","ta x","koop kracht","techn isch","makkelijk er","stijgen de","daal de","Eigen lijk","princi pe","letter lijk","Hop elijk","opvol ger","5 7","9 5","D j","F T","G P","H ans","M aan","M ex","M ogelijk","S erv","Y ou","Z ie","d ist","f it","m eren","t elijk","t aak","t oren","z z","in es","el doorlog","ver ont","re et","aan trek","be i","ra dio","over leven","zo dra","zo geheten","do elen","ist an","bl azen","gem er","di v","zet els","plaat ste","mis bruik","snel weg","gest opt","handel s","Po st","war me","zin s","ban en","overheid s","Fe der","sf er","aanval ler","besp aren","seks ueel","advoc aten","vliegt uigen","Sy r","Kr im","verbet eren","rele van","Willi am","4 3","4 8","A E","B ou","C up","D om","E g","E conom","G ra","I T","S tre","T O","T ik","b ag","c ond","c lerc","d aag","f ron","n ul","t icket","u im","w ard","st opt","ge ï","on bekende","ver jaar","ou deren","sch al","wee s","bl oemen","geb ouwen","es sen","En kele","du m","gew end","gev accin","lang zaam","St u","ef fic","gra pp","hoog leraar","plaats vinden","wet s","bi z","the orie","Amsterdam se","verde eld","spr ingen","inve steren","Engel se","Don ald","priv acy","vog el","georganis eerd","5 2","H ou","H eer","N I","Z org","m ult","n on","n oord","p au","u in","w aan","x t","st ress","aan slag","aan koop","be k","be horen","ar iteit","sch en","rij bewijs","to el","wer en","ru il","mo biele","of te","sl am","sl oten","acht ige","na bij","bl an","zen d","dr aad","bel s","toe stel","str omen","recht se","mis sen","ab onne","inter ieur","weten schapp","mar s","int ro","da der","mat ch","hol pen","the ater","alis me","lid staten","Ste ven","sla ven","inve ste","CO A","ontde kt","Wer eld","Mart in","Pol itie","spann ingen","vog els","Kort om","ontmoet ing","bewol kt","perfe ct","groten deels","gemer kt","A ch","B N","B al","S im","S hel","h ing","t ab","z uur","’ :","in deren","el oos","ch er","on getwijfeld","ver over","ver dr","aan kl","le ken","ar a","ijk t","ze stien","uit voeren","us s","rij s","sp ot","over lijden","onder nemer","na mes","na mens","Al i","kl ok","ex empl","laat st","co in","An dere","boven op","ov ic","scher p","gevaar lijke","wan del","succes vol","med ic","slim me","dur ven","bevestig d","woe st","overtu igd","Vrij dag","control eren","óó r","Gem een","zogenaam de","Sov jet","E re","E li","K im","K erk","L aten","c uit","l ood","l oper","m ol","m ist","p et","t ik","t as","t ip","w onder","w akker","ï ne","in zicht","ch o","ge opend","op eens","aan houden","aan geven","ou wer","il len","un d","og raf","sp oed","wel eens","ne ur","pro g","kun de","zi el","tot dat","vr ou","min i","du ctie","mer kt","di pl","str om","agen da","ab ortus","Le clerc","res er","bu ik","ces sie","goe deren","top man","dra ma","har der","cel ona","dis crimin","num mers","direc te","appar aat","Bar celona","neg atief","gehe im","overtu igen","Can ada","stev ige","advis eur","iër s","fabrik ant","verw ond","Vlad imir","grensoverschrij dend","1 000","B oe","B as","C ap","D ag","E L","P al","S en","T op","V i","b ijk","c ke","f os","h it","j er","k nu","m elk","o w","r oo","r aam","é r","er over","el lende","ge el","ver gele","op positie","oe der","ig ar","uit slag","as h","ag anda","sp o","bl og","ont staat","ont stond","daar over","vo eten","icht en","br ide","bel ooft","dien t","ctie ve","Be halve","verwacht ingen","kn ie","nation al","raak ten","El on","wen sen","mal ig","let ten","verde digen","voort aan","ka der","Heb ben","goo id","autom obil","hom o","dagelijk se","kaar tje","stev ig","invester ingen","eventu ele","moder ne","uitzen ding","Oosten rijk","tradit ionele","concurrent ie","accoun t","fys iek","verjaar dag","4 1","4 9","B ol","E d","H an","K er","L ater","M el","M al","R ou","R ome","S l","V D","e c","g ouden","h au","j acht","k ra","p iek","s ur","t achtig","v res","v uil","er f","at oren","ch n","op zet","or ig","re sp","aan hang","aan geboden","be ë","be er","ze stig","ten toon","ct r","ind ien","kl agen","em ar","toe gev","cent age","bed ragen","staat ssecretaris","ut ers","com fort","iden d","kle ed","int ers","aard gas","voer de","Po el","fr uit","Wil ders","klein ere","inst ru","schul den","dinsdag avond","Uit er","mond kap","vi elen","trein en","Har ry","grij pen","reage erde","Au to","spannen d","opper vlak","conclus ie","ambten aren","verga dering","verbind ing","dief stal","Beg in","hau pt","5 8","J ustitie","N iemand","O h","R om","R echt","c teur","d ol","f ru","l ieten","n oorden","u ma","et appe","ch ef","ver standig","or ten","oe pel","be zet","rij pen","ag ing","over name","ne p","ele g","gr iep","wee gt","20 10","nu cle","Al p","lu i","pr ins","pr ior","av ing","nieuw ste","lan delijke","toen emen","Le u","gez onde","belangrijk er","verd wen","rol len","betaal de","Mo cht","verkl aarde","veren igingen","lok aal","dre igen","klimaat verandering","nood zakelijk","centr ales","Af g","Su per","beveilig ing","plot s","zwak ke","docu menten","tegelijk ertijd","Kun nen","aanzien lijk","vern ij","fas c","Lou is","ambul ance","verdwen en","G or","J etten","K y","K ro","K ru","L ek","M C","P ek","S A","V ier","f er","g ok","l ad","m m","m ut","w s","de le","de bu","st im","ge deeld","ver min","ver pool","re k","aan wij","be wezen","ar men","uit spraken","De mocr","ik ein","un a","un ieke","aat regelen","ten s","over wegen","mo bil","naar toe","do s","ant ies","Al bert","ber haupt","min st","En ergie","stel en","ster f","con st","won er","hier bij","no v","net je","kr oon","bal len","ui zen","zw anger","coron am","publ ikein","steun en","kor ten","conc ern","Ro bert","zu inig","Wel licht","scher men","keu zes","rechts zaak","dre igt","mon u","maatschapp elijke","hy bride","popul aire","werkelijk heid","Li verpool","cir cuit","Fin land","Bor is","Ru im","gelu kt","anci ers","fy sieke","kenn elijk","B ern","C ov","G ar","M u","M aas","V ia","W O","Z and","c urs","h uren","j ob","n ingen","p uur","p aard","v id","v óór","z and","z amer","… .","de k","van kelijk","is eren","op geroepen","re aliseren","be stemming","voor heen","met ho","og el","se erd","over val","af ond","dan ken","mee genomen","wil le","ast en","br an","toe slagen","di ct","ster ker","kw aad","org d","inter nationaal","la ch","mar ket","ren ner","pas sing","lucht vaart","ser ieuze","voet baller","fo cus","gang ers","verander t","vre es","ta in","conc lu","mooi ste","personeel ste","bat terij","effe ctief","Engel s","voed ing","Fin anci","behandel d","anc ier","pracht ig","pass ag","gep land","Dav id","tri bun","bass ade","abonne ment","Shel l","8 00","B A","H il","H ag","J ammer","M I","M ooi","P e","R O","S il","T ussen","a ert","f lu","l ul","p in","r isten","u gt","v oud","’ -","de ug","in spir","st am","st af","is c","der ij","re ctie","he ft","il la","sch r","un der","door n","vol ging","vol utie","kan ten","im i","meer d","20 30","tegen stelling","ot a","mensen rechten","con serv","lie pen","ex port","recht ers","hier mee","Er ik","cr ypt","ment ale","An gel","gra s","Le id","202 5","bal ans","verl aging","verb ieden","Bel gen","po el","sche ids","201 3","kort ing","lever ingen","Bo sch","gezet en","kap it","moeilijk e","tran sport","bestaan den","toekomst ige","alist isch","probe erd","teken en","ure el","wereldwij de","jaarlijk se","Wor ld","Pat r","evene ment","uitdag ing","Mech elen","vertra ging","kei hard","voe gt","Ere divisie","Uiter aard","coronam aatregelen",") :","5 1","6 3","6 4","C BS","C EO","F o","K rem","M A","T i","T ien","V aak","c teren","h inder","i aan","k oud","k oude","l etje","w app","er ders","in frastructuur","ij st","ge g","ge moet","al gemene","te gemoet","oor spron","or n","or anje","re u","aan loop","be denken","ar ije","ol ogen","ou p","me di","sch oten","ven tie","se ctoren","vol u","ic i","bet aling","du els","elen s","zit ting","ged urende","com miss","com mand","dien en","ab ele","Van wege","achter uit","St r","get u","lo gen","gest olen","An dr","Le es","Fran c","stre am","sc oren","inst ituut","veroor zaken","go d","alist ische","tel len","keur d","offic ier","sla vernij","besp roken","verwij deren","veer tien","spor ten","reag uur","zanger es","specif ieke","Hong arije","vac u","Port ug","Ander lecht","meda ille","Maan dag","verwond ingen","Cov id","4 7","A h","B est","H al","L ijkt","O u","R IV","T oe","V in","d ings","d ogan","e e","f lex","h è","i OS","k y","t ips","v oeg","ge arre","on nee","is waar","ver minder","ver zorg","ver stre","op lopen","aan vraag","be weer","il les","un g","ro bot","to ur","over tre","gel eerd","ve s","onder weg","do de","ont werp","ant a","ger eg","man agement","open ings","toe stemming","lang dur","Daar in","ged achten","hel ik","groe it","toen ame","da mes","coron apan","som migen","gebeur ten","druk te","sc oorde","ontwik keld","kwart ier","oplos sen","begrij pt","verwij derd","Ol ympische","snap pen","vermoe den","Mac ron","hon ger","cou reur","Marok ko","fig uur","eventu eel","fabrik anten","prop aganda","Jer oen","Rad io","verrassen d","sleut el","ivis ie","Dj ok","beë ind","Krem lin","Portug al","coronapan demie","8 5","C at","C am","D in","F ed","H of","J ij","J ust","L ot","N ad","N OS","R ijn","b ok","b lijken","b ooster","c ker","o er","y a","ö r","aa it","el aar","ge j","ge gooid","ge probeerd","ver luidt","gen en","re cessie","oe s","be vrij","ou we","me u","sp iegel","wor pen","ter e","onder houd","onder zoeker","af spraak","zo genoemde","ben en","gr aaf","ke ek","bl o","ont pl","ont slagen","au teur","tijd ig","act rice","pers conferentie","St el","groe ide","gebruik te","pe ctief","On s","aange geven","energ iet","aard ige","doel punten","bre de","if y","Bo er","Waar schijnlijk","Re al","vrijdag avond","econom isch","go al","ontwikkel ingen","extre me","seks uele","politic us","dron gen","Qu a","Wer eldoorlog","zwe mb","Turk se","arbeids markt","bezorg d","Noor wegen","IN G","specif iek","individ uele","Wh ats","gewen ste","gete kend","schaf fen","voorzicht ig","aantrek kelijk","verdr iet","vergele ken","RIV M","gearre steerd","A N","A ma","A ren","B il","C y","O ister","P ale","P lay","T ra","T ja","T urn","V el","W inters","Z wee","a van","b oog","d se","h aast","k ut","l aan","m icro","s ug","t alen","u b","u res","v ullen","y ste","z ik","z eld","ge vestig","ge controle","ge holpen","een se","op breng","re chte","be vel","be ïn","ken ning","il iteit","sch rik","ik er","over stap","am bassade","ad or","ap art","ne veld","gr aan","zen der","hu mor","alle bei","ac te","sten en","tre kker","ged aald","her stellen","An ton","cont ain","Mar c","fin ish","za beth","sy n","pu ter","coron ap","doel punt","licht ingen","col umn","Gr iek","straf fen","Den emar","uni vers","dicht bij","Me de","mal ige","centr aal","provin cies","verm oord","por tem","Mich el","Au di","wissel ing","present ator","onafhankelijk e","Japan se","toer isten","favor iete","deta ils","neder laag","proce dure","comment aar","fee sten","tren d","grapp ig","Eli zabeth","vrou welijke","orig in","vermin deren","Djok ovic","Oister wijk","Denemar ken","5 4","6 7","D or","E D","G L","J os","R es","S U","S n","S lo","T il","V ijf","W ol","W all","W erk","W itte","b ussen","c er","e dt","e ieren","r aar","s sen","s ma","t and","u vel","ü berhaupt","€ ˜","in gew","st aal","ge keerd","op ter","om in","om st","uit sluiten","uit gaven","sch ut","ik ron","wel zijn","ne st","atie k","pl oegen","na bestaanden","ont breekt","per centage","dr ink","ast er","toe g","cent ra","com puter","hier over","ip v","get est","get oond","ank elijk","ren ners","Met a","hand h","elt je","On t","beur zen","verl ichting","actie ve","sche iding","leid ingen","schrij ver","gevo elens","mot iv","lin ker","erv aringen","Gr ieken","pan iek","ets k","situ aties","tie el","tran sfer","jong ste","gevoel ig","keur ig","beper ken","Ph il","part ners","inci denten","activ isten","ontde kken","geïn ter","cy ber","rac isme","kat ten","vloe den","verwar ming","kwalific atie","zinn ig","vervelen d","Zwit ser","toeval lig","weder om","afkomst ig","Surin aam","afger ond","Lek ker","bran che","portem onnee","5 3","6 9","B ro","B ek","E cht","F i","H ul","H ome","L y","S on","W aal","Z aterdag","b io","c ken","f re","j agen","p ru","s maak","t im","t ige","u ken","v ice","w olf","et te","in ië","in nov","st an","st ier","ge stemd","on ing","van gt","op e","om roep","aan kond","ing rijpen","se g","ag ers","sp ons","sp ijt","onder werpen","wel iswaar","ben a","na denken","vo cht","Ne em","bo y","ex ter","han s","ged reven","pers pectief","her f","her kennen","St ar","hel der","groe id","An dre","spe ct","cont ac","werken de","aantal len","maat schap","ink lijke","Sp ot","reg ime","wet geving","kn ap","mot ie","beste ed","tr ouw","vak bond","vre zen","train en","liggen de","gewel dige","Par tij","cijf er","sto elen","crimin ele","nor men","effe cten","gevolg d","gener aal","stuur t","Bar neveld","Kon ing","waarschuw t","commun ic","down lo","Vr ies","klap pen","voorbere iding","prest aties","Bre da","cur ity","compl ete","Kui pers","Tik Tok","Patr ick","6 8","7 2","A P","B ouw","G B","I m","K amp","L os","P rec","Q R","R C","T ai","W ar","Z al","Z eel","Z wol","b s","d al","f ris","l acht","r eren","y l","en g","st ate","ch ar","ge staan","al o","is ol","ver wachte","it air","op ol","op gelegd","gen der","den king","aan bieden","le d","me st","sch uil","men eer","id a","id io","rij ven","to il","ter ras","af wachten","gr aad","ak el","ander half","bl oe","In dia","ind a","mee gemaakt","open de","dr omen","ast ing","lu kken","win sten","beg repen","sie ve","get ra","An ne","stem t","vast gesteld","oud ste","vrien delijk","schijn t","Re publikein","meest ers","Ro y","mun t","verkl aren","vel der","cel len","sk i","beper king","betrokken heid","spr ing","verm oed","voorzien ingen","snap t","Cor ona","sign aal","RT L","wekken d","Marok k","schui ven","bijeen komst","compens atie","Mid den","jurid ische","begro ting","Smit h","toegev oegd","Leu ven","Pek ing","Leid se","Tai wan","- ,","A ss","B ay","D erk","J ans","K inderen","L uk","M omen","P ers","R eg","a x","e con","k oos","m ie","m alen","n ag","z zel","an i","in stelling","in ess","in houd","ij er","st eld","at h","on be","on middel","it é","op ent","om laag","or s","re eds","aan komen","aan slagen","be wegen","be houd","we kelijk","ken den","me el","uit komst","sch and","ro ze","to et","gel ooft","mo k","af sluiten","waar dige","ne ming","acht tien","ist iek","bl i","kl oppen","br ieven","du o","toe voegen","ac cept","ko v","ko el","recht streeks","Van uit","achter af","St ichting","Je zus","hoog st","jon gere","elt jes","ga mes","Bij voorbeeld","verb aas","water stof","verd wijn","kn al","ident iteit","ach el","bew u","ving ers","Ja mes","voetbal len","for se","vorm t","mens elijke","sh it","cel straf","kilom eters","wan delen","vertr ouw","fiets er","imp ort","beschik ken","uiter st","zor ger","contra cten","stuur de","beslis sen","bot sing","verlen g","Ke es","Vr aag","Ber lijn","verzam elen","vest igen","prest atie","benad ru","beteken is","kwets baar","krit isch","Fl or","Nor maal","lap top","Brazil ië","cla im","enthousi ast","inged iend","dist ri","nucle aire","passag iers","Turn hout","Prec ies","Zeel and",". )","7 3","D onderdag","F v","F re","L ang","M icro","O t","P og","S T","S w","T wen","k al","l ook","m ant","p pel","r r","s ier","s verkiezingen","t ol","t un","t iële","de erde","in fe","in lichtingen","el ite","st on","st ic","at ten","ge deelt","on rust","oor deel","op licht","op gezet","om p","re kken","re erd","le in","le est","be stellen","be hulp","be zoeken","he ers","uit voer","uit voering","ro g","rij der","over ige","ru ime","dan s","ap arte","ic al","du w","bel de","huis vest","eigen aren","ble ken","av ont","hem el","versch een","Le euw","pas singen","Mar i","verl agen","energ iere","sche iden","reg uliere","gang er","volg ers","tem po","nacht s","maandag avond","feest je","lid maatschap","prof iteren","tit els","gar age","mass a","prom ot","bom men","gezel schap","ymp isch","Wor dt","doorgaan s","fig uren","Ju ist","Piet er","rang lijst","artie sten","Mad rid","scor e","inspe ctie","herinn eren","ophe f","assist ent","cra sh","discrimin atie","Din sdag","ingew ik","Surinaam se","Fv D","6 2","B on","D er","F rie","F ord","H oo","M i","N H","N ik","O or","P el","P lan","S ar","b ai","h ap","p elen","v als","v uldig","y an","z acht","z wij","á n","in ses","ge deel","ge hele","on gen","on gelijk","een d","te ven","te gel","te xt","ver huur","ver houding","it a","op names","aan genomen","be zwaar","be handelen","voor delen","voor raad","voor beelden","voor alsnog","ol a","met ers","uit geno","ro s","over heden","ap pl","ak er","ak ter","ont hul","per t","dr ol","goed ge","con tent","deel nemen","zoek tocht","ran s","hier van","ië ren","beg ra","pers bureau","vert eld","zij ds","co vid","lo st","inter kl","Le uk","Le wis","gebruik er","gez orgd","ann y","oem de","reg ist","stu dio","Ge ef","rel aties","Gr een","zaterdag avond","woensdag avond","zaam heid","pa ste","moeilijk er","verkl aard","Onder wijs","elektr isch","Kamer lid","Lu c","cult urele","midden velder","rap pen","arbe id","fijn e","digit aal","woe de","Bur gemeester","Ho ge","voorbere id","schiet partij","verspre id","herinner ingen","Kle ine","maxim ale","uitbre iding","ambitie s","minim um","Tegelijk ertijd","Pool se","Pri x","schri ft","gecontrole erd","toeg ankelijk","Zwitser land","contac ten","Spot ify","Momen teel","uitgeno digd","? \"","A T","B ert","G ir","K n","P res","R oe","W eten","c enten","f ou","h eld","j as","m r","p pen","s sel","s zins","t ur","t rokken","t ime","u x","u is","v aar","er ed","ij ds","el a","on bekend","ver huis","ver blijven","ver pleeg","op p","op richt","om mel","voor sp","ijk en",
[...]
