{"version":"1.0","truncation":null,"padding":null,"added_tokens":[{"id":0,"special":true,"content":"<UNK>","single_word":false,"lstrip":false,"rstrip":false,"normalized":false},{"id":1,"special":true,"content":"<SEP>","single_word":false,"lstrip":false,"rstrip":false,"normalized":false},{"id":2,"special":true,"content":"<MASK>","single_word":false,"lstrip":false,"rstrip":false,"normalized":false},{"id":3,"special":true,"content":"<CLS>","single_word":false,"lstrip":false,"rstrip":false,"normalized":false}],"normalizer":null,"pre_tokenizer":{"type":"Whitespace"},"post_processor":null,"decoder":null,"model":{"type":"Unigram","unk_id":0,"vocab":[["<UNK>",0.0],["<SEP>",0.0],["<MASK>",0.0],["<CLS>",0.0],["s",-2.596850886248644],["e",-2.9246316266180656],["a",-3.1077564185686093],["t",-3.2112367042317906],["d",-3.632888187309945],["de",-3.736952354252706],["i",-3.767250251434227],["en",-3.8789363602405142],["r",-3.93605628048099],["o",-3.95322769016337],["u",-4.022760115213659],[".",-4.02905928239713],["n",-4.063058270962836],[",",-4.064521497452999],["l",-4.134541268057619],["c",-4.3864607411509535],["la",-4.523821333806788],["in",-4.5471462275199865],["y",-4.695591103674106],["p",-4.724138500161864],["f",-4.770424998716743],["er",-4.774583190649269],["re",-4.787051370465141],["m",-4.817382648977491],["é",-4.889361520504732],["k",-4.9667246896387525],["al",-4.9936583806450425],["g",-5.029716813062024],["le",-5.048310895414829],["on",-5.051709106857132],["el",-5.071137123460618],["que",-5.141788715236537],["to",-5.1805704634609295],["the",-5.214089117843782],["is",-5.248872182861655],["un",-5.25377954634579],["’",-5.271148071357734],["b",-5.307141873074128],["ing",-5.36806186652022],["an",-5.382655601981504],["ar",-5.43117492409773],["S",-5.5654235466257465],["con",-5.567243390855181],["it",-5.606069524970074],["w",-5.66511379348797],["ge",-5.6679193750802614],["be",-5.6740706060269215],["or",-5.684551258976022],["A",-5.696123571531562],["and",-5.704991604974142],["v",-5.772245781792394],["vi",-5.781646257165251],["h",-5.806015249923005],["-",-5.815797846898123],["z",-5.855474178209008],["est",-5.892245419537483],["of",-5.904007182020608],["ce",-5.913188330174188],["C",-5.919218419292049],["ch",-5.953827431920084],["me",-5.984117672093891],["il",-6.0061759680452],["P",-6.010565049214803],["lo",-6.040853663122665],["'",-6.04852246366902],["B",-6.0504122948216015],["no",-6.063068596811821],["M",-6.088020137362335],["ha",-6.1035903167860415],["van",-6.113979472249168],["ver",-6.148015060426433],["les",-6.160491509612715],["E",-6.165787597712068],["ma",-6.166286065550079],["op",-6.174011112426614],["T",-6.178876629218852],["ó",-6.227416433545187],["à",-6.228836355403546],["ur",-6.236024060031879],["pro",-6.247013968807504],["mo",-6.250100737568552],["ci",-6.257687844993034],["ter",-6.314565687673133],["I",-6.315471378346395],["po",-6.319699916231617],["ado",-6.327286938976046],["om",-6.344823515799522],["D",-6.364933784139197],["\"",-6.379825588074182],["ve",-6.385913990522253],["los",-6.386197208702821],["ment",-6.397634069782386],["he",-6.409999310563501],["du",-6.426966674446321],["je",-6.429327855265914],["ex",-6.432617278273307],["tion",-6.442799072218062],["het",-6.453897146190782],["L",-6.4609838363813505],["com",-6.47077054518574],["por",-6.499665021460185],["ca",-6.505107716468249],["tra",-6.514114923436139],["G",-6.516845602509813],["ou",-6.528050812675685],["qui",-6.543822413737493],["F",-6.5448527868778825],["for",-6.553176157656512],["per",-6.556846724008491],["co",-6.563055589347268],["2",-6.565818527061268],["ant",-6.582980931603307],["“",-6.583290819875254],["ir",-6.59898933937944],["N",-6.607872660959096],["ent",-6.6271021333264155],["va",-6.6330260677826],["we",-6.635315274473827],["j",-6.636064151921772],["W",-6.63814491492057],["ho",-6.643741340926887],["O",-6.646774019201688],["ba",-6.651820880947557],["mi",-6.653046096073421],["V",-6.661092824241463],["th",-6.668964718225187],["vo",-6.671028176242107],["man",-6.678324122486883],["ation",-6.680436831998355],["pa",-6.682379107818621],["par",-6.730569202823968],["ig",-6.767868408238909],["qu",-6.776620856016439],["R",-6.776956665341723],["dat",-6.786189612626872],["ven",-6.799909343592901],["1",-6.8068420171546595],["De",-6.839679522619846],["ré",-6.853072428845733],["tro",-6.85722753770375],["gen",-6.859167642205522],["go",-6.868434239143481],["(",-6.870550922453891],["del",-6.875219926865896],["au",-6.876432704802751],["ga",-6.899568834149395],["para",-6.906384850440778],["3",-6.909777691918794],["í",-6.915620086528239],["ze",-6.919601563063557],["La",-6.926350503772534],["pour",-6.93734944474383],["that",-6.9536835316197205],["voor",-6.96500931523846],["ij",-6.968953150457988],[":",-6.977693081306722],["bo",-6.981169005038142],["pas",-6.981854584206008],["zo",-6.988215049607888],["pre",-7.020744581154782],["die",-7.021710231683107],["The",-7.028653402103842],["eur",-7.044410780166977],["met",-7.068291131627083],["une",-7.069343429345217],["Le",-7.071363634035254],["ly",-7.075621259703539],["4",-7.080286723450149],["hi",-7.080435005615689],["che",-7.08119944249197],["ic",-7.082127250014974],["5",-7.090356915648261],["part",-7.103628835888607],["was",-7.110760106409543],["K",-7.111053727617293],["ont",-7.113178430974077],["our",-7.116777931649411],["sur",-7.1242057377948225],[")",-7.1287483353595285],["x",-7.135457174431236],["ción",-7.152294688179346],["una",-7.16014374655337],["ag",-7.1607482419707935],["uit",-7.182818140483972],["tie",-7.187752432928864],["if",-7.192880775374077],["bi",-7.19947523477145],["pu",-7.2112067896476155],["H",-7.212643686461739],["ía",-7.214465462391868],["ido",-7.225543202253416],["with",-7.236598189938798],["men",-7.2416692339997475],["dans",-7.250969167026144],["aan",-7.253056972033924],["Ma",-7.258536817611281],["En",-7.258932882741545],["min",-7.271107548123798],["«",-7.275632575970739],["6",-7.290091149499256],["mar",-7.295688569214004],["El",-7.299364241884037],["lijk",-7.305261439723747],["all",-7.307376249927749],["ron",-7.309211490449584],["0",-7.313749617108227],["gra",-7.317668157852809],["20",-7.32580774016084],["up",-7.332815193551323],["tur",-7.335804926745562],["zijn",-7.33856596750244],["ces",-7.339652590402231],["In",-7.339947686842308],["ación",-7.340915595539798],["over",-7.341969116800543],["è",-7.343469470718658],["niet",-7.344552035977394],["á",-7.357871496226377],["idad",-7.372584967222998],["pri",-7.376475363712567],["ncia",-7.3769878843234835],["ement",-7.381455623509776],["tre",-7.38686304328828],["bu",-7.387438652708417],["ook",-7.39319363656762],["aire",-7.39911828196424],["ju",-7.4025151933015465],["7",-7.410543712639923],["8",-7.421065391148117],["out",-7.423492652436236],["emp",-7.426804262160134],["ken",-7.432959236643375],["ive",-7.434238437289313],["ici",-7.444868210673871],["U",-7.448480386070244],["”",-7.4490911880503585],["ck",-7.4562108757991385],["esta",-7.468824668644967],["tri",-7.469540403537383],["elle",-7.4740700772730655],["9",-7.475803004663648],["cha",-7.4767160554801535],["act",-7.487096937451636],["son",-7.500477484346721],["app",-7.50285674787593],["mer",-7.503781919919033],["Un",-7.5084907088990445],["fic",-7.514856088325821],["mon",-7.524030359553361],["car",-7.525910650034513],["able",-7.535396088019629],["mos",-7.542549117080483],["ran",-7.546720352637813],["rá",-7.547176737113995],["his",-7.5711510990040445],["?",-7.574605739309538],["más",-7.575756679655322],["plus",-7.577103427538313],["za",-7.586666118230989],["pen",-7.590065204990276],["han",-7.602391814768705],["19",-7.618241363910071],["vol",-7.625297177368495],["inter",-7.629432331540883],["Al",-7.631964325426683],["tar",-7.647627837904899],["have",-7.66133457162992],["her",-7.663539717056569],["ité",-7.664134794871769],["cas",-7.667277238660818],["cor",-7.668707391959895],["igh",-7.680663603288583],["entre",-7.69068678418329],["aux",-7.691120520956401],["ient",-7.692344351787828],["eux",-7.692365999489192],["imp",-7.6926521313656195],["gro",-7.695650471572403],["not",-7.700399691501607],["said",-7.702364454048553],["mil",-7.709261922201856],["Z",-7.709917545852809],["ik",-7.711828913630631],["rie",-7.711929653621208],["can",-7.715897753604052],["ance",-7.71714776824307],["ante",-7.724077127320056],["rij",-7.725766664872555],["bij",-7.730057642231218],["will",-7.748523065273547],["ciones",-7.750786884806066],["ier",-7.75255270046687],["Ch",-7.755256347584703],["tic",-7.757827586983378],["dos",-7.761383461887672],["mis",-7.776236174339774],["dic",-7.7860056120857415],["cul",-7.790547909692982],["cent",-7.802701200588643],["cre",-7.808796227795394],["cri",-7.809623195957636],["day",-7.812855376999659],["iste",-7.815491570961333],["spec",-7.818511696119495],["té",-7.820440451045355],["»",-7.822059363369329],["age",-7.823626765571126],["by",-7.824230941685391],["été",-7.826801094012573],["form",-7.829261340547033],["from",-7.82997133284249],["fue",-7.8302367277410685],["lie",-7.832157785010498],["No",-7.84143455044839],["Y",-7.845313304473704],["vers",-7.845634188406892],["cho",-7.846789531407232],["Co",-7.864984574216578],["amp",-7.870759898572858],["fin",-7.872505278983139],["ity",-7.876960691198766],["este",-7.8787404357021185],["poli",-7.87899370454323],["como",-7.8890155569088485],["ió",-7.894302956633927],["avec",-7.89457901108273],["wel",-7.894688518917484],["bre",-7.896771745777251],["ico",-7.899337377673145],["%",-7.903309232073962],["dan",-7.905108814623251],["alle",-7.909835587709308],["onder",-7.912087168189503],["but",-7.912865704134743],["you",-7.914933176234426],["leur",-7.919894745511154],["00",-7.938624094699268],["ida",-7.939195558706684],["ú",-7.940552612818767],["ger",-7.941097107402339],["rès",-7.948354376409009],["maar",-7.950142963532404],["bil",-7.969072114533523],["val",-7.972633670680871],["cur",-7.976014254715945],["acht",-7.979930361221665],["ja",-7.986230075573989],["one",-7.989593060804657],["don",-7.995248968138357],["sol",-7.998685526181033],["éri",-8.000875614107139],["ario",-8.017048778284476],["Re",-8.027999682817015],["person",-8.032826755336773],["hor",-8.033383309399913],["bli",-8.039347902557354],["án",-8.041611043809143],["ard",-8.04256565167305],["iza",-8.045939015966871],["door",-8.052786507144202],["col",-8.058616238079745],["Mar",-8.059004352438976],["off",-8.059852901945964],["land",-8.0633588046634],["ña",-8.069205801512501],["fer",-8.07797207340221],["ño",-8.078737769570484],["‘",-8.091446373654923],["log",-8.092175926580337],["waar",-8.112295084760706],["use",-8.11412246604283],["this",-8.11633491952301],["Ro",-8.116588957324012],["auto",-8.11729625772729],["own",-8.11822415311562],["Het",-8.118888155074897],["bra",-8.124174395176997],["J",-8.129116194788182],["dio",-8.130674264763934],["has",-8.134888877324396],["had",-8.137169054154128],["sus",-8.1377001755795],[".”",-8.138239411367174],["jour",-8.138433511372343],["mes",-8.139738688416253],["nog",-8.140536705318917],["”,",-8.1427861408316],["Ho",-8.146297480078918],["gue",-8.146786991980093],["ista",-8.151372177535544],["time",-8.162560399813636],["tru",-8.167030954399019],["déc",-8.168485148639082],["rat",-8.173910071212942],["reg",-8.179984493039331],["ando",-8.183397410012597],["Con",-8.184151240907548],["hij",-8.189293325921094],["ban",-8.190992079948295],["miento",-8.194009485086188],["Di",-8.199251049481553],["war",-8.201765727370962],["naar",-8.208470751538487],["10",-8.209088396499792],["plan",-8.220663289033816],["who",-8.221020854098391],["gar",-8.22996972929664],["mais",-8.230965199800789],["their",-8.232088100367697],["pré",-8.232228610337732],["wat",-8.233381693746981],["sión",-8.239448582299627],["were",-8.240324988549387],["ntes",-8.242856552267721],["contra",-8.251208216131289],["000",-8.255688943463804],["ría",-8.268940013145937],["»,",-8.279476205974223],["ctor",-8.279913392880474],["Il",-8.28089196809382],["ally",-8.296375510519095],["Par",-8.298039554734844],["Je",-8.300185611120517],["heeft",-8.302372979568686],["Ha",-8.312031065324081],["fait",-8.314703958372649],["just",-8.320178851910486],["lig",-8.322883665617857],["étai",-8.324389420855164],["bri",-8.324598851459022],["ros",-8.326536127833265],["year",-8.326782719001912],["está",-8.329118568555705],["ô",-8.330712208621588],["Jo",-8.334731688459645],["ident",-8.358625298140451],["other",-8.36276262111667],["dag",-8.38078354496939],["Ju",-8.383484713461144],["ible",-8.388626291550265],["produc",-8.400249654093637],["ional",-8.401332262119697],["Ja",-8.415338034228375],["comme",-8.415822079171962],["tijd",-8.416325621299615],["trans",-8.426122582660062],["how",-8.426710146245998],["cette",-8.426862394806937],["bor",-8.438227139424656],["todo",-8.446672578355107],["echt",-8.448225557952416],["direct",-8.45147876425875],["jaar",-8.456980532894981],["inform",-8.463962357623755],["Qu",-8.46414586879931],["puis",-8.465445400555316],["firm",-8.470267167349036],["rio",-8.474293875819011],["peu",-8.47554849140604],["Com",-8.476465340371641],["ière",-8.48837795886887],["moet",-8.489518104630424],["much",-8.491149608303793],["años",-8.49340889039759],["hebben",-8.49532260053169],["work",-8.49550651210443],["hui",-8.497430183626614],["lui",-8.501656136265549],["tiene",-8.503676105374078],["ministr",-8.504675721592015],["moment",-8.505411307057678],["present",-8.50676166411205],["sign",-8.50899474431671],["about",-8.512131823167953],["organ",-8.523647729667996],["ç",-8.524443582216195],["werk",-8.526147381977491],["people",-8.529767235111791],["word",-8.54051853944136],["also",-8.549183203379307],["new",-8.555482199309045],["amente",-8.557373963581522],["tivo",-8.557915439871612],["long",-8.559068003066802],["some",-8.564795577240414],["lang",-8.568834849203759],["public",-8.574530338963214],["30",-8.575775798934524],["$",-8.576889177781192],["week",-8.57755348971288],["embre",-8.586672383088468],["ambi",-8.592288737420835],["way",-8.59241251448842],["rac",-8.59502184115635],["être",-8.597264405080661],["lim",-8.602518189149526],["daar",-8.605146728683094],["cro",-8.60713524801463],["zich",-8.610762556505493],["make",-8.611204797551453],["soci",-8.619689600447828],["heid",-8.622623652092875],["inclu",-8.623153310782321],["which",-8.628464153036653],["/",-8.63070826397657],["place",-8.63387635312964],["aria",-8.635153831053733],["gui",-8.63730368969008],["old",-8.63861067726304],["commun",-8.639520475575951],["like",-8.640080320342294],["primer",-8.64202860987499],["18",-8.647034295477399],["nous",-8.647299570620843],["15",-8.648386435150773],["también",-8.649490113162686],["…",-8.657827694411239],["activ",-8.658544932485968],["twee",-8.659964059693205],["adas",-8.66306363970179],["jou",-8.681825603494909],["state",-8.681904239221424],["would",-8.681956706234837],["ated",-8.683496229492594],["sobre",-8.687100840440426],["national",-8.68883352745918],["–",-8.68893895106734],["cua",-8.6965185290618],["50",-8.698532206439792],["Dat",-8.701358227325969],["oord",-8.714777159128309],["lors",-8.716771374260937],["oli",-8.720647820417884],["ë",-8.731986016293876],["zelf",-8.735588409765215],["ê",-8.738535573411493],["president",-8.73916797671681],["2022",-8.742196936659981],["trabaj",-8.747710481564896],["iendo",-8.747944320737219],["!",-8.751921177262195],["même",-8.754251724542245],["â",-8.756823147828436],["ough",-8.75897287382949],["avait",-8.766875180535115],["play",-8.772755497518855],["after",-8.774370248745871],["nieuw",-8.780857604341774],[";",-8.80145230299015],["lica",-8.808373795396035],["aussi",-8.81781398405779],["when",-8.819455133304732],["puede",-8.824239901390547],["And",-8.825283500232775],["point",-8.829550563953093],["continu",-8.832061406333645],["avoir",-8.843252026593486],["werd",-8.851828237345005],["—",-8.858672946611598],["nada",-8.864193571025055],["situa",-8.876565445877972],["kunnen",-8.878491680652091],["prend",-8.886185658248943],["important",-8.90787940398378],["what",-8.907932146003667],["media",-8.913200015923925],["X",-8.945553401322154],["program",-8.94719148889306],["país",-8.948938659264051],["local",-8.950447880108712],["report",-8.97205991959743],["année",-8.974288260206569],["î",-8.984348301437809],["toria",-8.998277637260063],["personne",-9.012045247111033],["first",-9.012327898163841],["take",-9.018517252528525],["2021",-9.044176745738099],["Nederland",-9.046482573508122],["million",-9.053468131649714],["É",-9.065586302759177],["result",-9.070397370312062],["change",-9.0762218688557],["comple",-9.089137859069934],["particip",-9.09790768413382],["cuando",-9.10276373606743],["could",-9.108798432042644],["mejor",-9.119512538096657],["présent",-9.12207924717751],["round",-9.12687765994331],["durant",-9.127491908318593],["mayor",-9.135203163780071],["service",-9.139234862697931],["princip",-9.149725119173127],["nombre",-9.161954550343088],["realiz",-9.162882999760011],["premier",-9.163252033081012],["egún",-9.191718456418798],["û",-9.197516367081903],["ñ",-9.199759013511777],["certain",-9.201600212004603],["COVID",-9.21153740174211],["mission",-9.2134281771703],["maakt",-9.225608537668176],["problem",-9.236936928714233],["ciudad",-9.250115904265146],["président",-9.262989939832492],["through",-9.282839480137742],["elect",-9.28948076981287],["Russi",-9.289732525743725],["Trump",-9.295593113571616],["position",-9.297650867405949],["dernier",-9.2976646507245],["tiempo",-9.303806777683443],["¿",-9.304050311415082],["familia",-9.304564601102484],["club",-9.307860978819892],["nacional",-9.311615414894053],["había",-9.329970858392784],["ù",-9.334486340023187],["ï",-9.335517002291354],["travail",-9.337652654444998],["coronavirus",-9.350058935925373],["millones",-9.353733380134816],["Europe",-9.355837002378877],["Q",-9.38642532216394],["support",-9.39636871526222],["government",-9.401588753646411],["investiga",-9.424996438308655],["première",-9.43806958981716],["should",-9.45070575184219],["consider",-9.503079799604599],["candidat",-9.508504884624596],["nouveau",-9.515499214820348],["industr",-9.535030928970553],["nouvelle",-9.53831602886678],["último",-9.545280891932123],["después",-9.547203286681835],["déjà",-9.551667321158098],["hospital",-9.55872551914484],["positiv",-9.581820114328401],["gebruik",-9.595486686323177],["Ademá",-9.623888442716897],["effect",-9.628803188279864],["America",-9.66687091650132],["À",-9.672608135900592],["pandemic",-9.688627297000608],["number",-9.701186309659708],["business",-9.71164395622191],["gouvernement",-9.7154033168995],["€",-9.71766745479455],["œ",-9.718423312693265],["Ukraine",-9.744468480760485],["acuerdo",-9.746023641920369],["q",-9.762085399137373],["&",-9.772805640729432],["follow",-9.787282195767176],["gobierno",-9.810224154342206],["Gobierno",-9.813544483149627],["desarroll",-9.89764960900591],["política",-9.90218259434296],["Oekraïne",-9.953451943262502],["français",-9.974719062492724],["+",-10.17170548841895],["próximo",-10.184879330739735],["Á",-10.301081321878343],["ü",-10.375553912577018],["́",-10.708240388180492],["°",-10.732958424703156],["„",-10.806505043398984],["¡",-10.838434765942463],["Ç",-11.090080173665484],["™",-11.187030963719225],["ö",-11.312851008338065],["£",-11.327860653375605],["º",-11.518915612974325],["*",-11.580255479662057],["•",-11.614912342656996],["̀",-11.87853611258171],["Ó",-12.06545758830916],["´",-12.073394096245668],["ä",-12.31564165761169],["·",-12.480849892470136],["Î",-12.581562534597257],["˜",-12.650081407512229],["Í",-12.678859875421134],["ª",-12.853904950717947],["Ú",-12.926006289924551],["̂",-13.003712826820877],["₹",-13.024120990086182],[">",-13.044954323419516],["®",-13.066230919164196],["ã",-13.08797004959898],["¢",-13.110192271821202],["`",-13.156175358501962],["贸",-13.255016151854951],["¦",-13.308358968355662],["²",-13.308358968355662],["‚",-13.308358968355662],["′",-13.308358968355662],["️",-13.394119939410752],["″",-13.424422969713781],["Ÿ",-13.455672969713781],["ð",-13.455672969713781],["ø",-13.521264367563242],["Ê",-13.521264367563246],["×",-13.555747126183933],["Ñ",-13.591461411898216],["Ö",-13.792104914933027],["т",-13.987810086953981],["А",-13.987810086953987],["½",-13.987810086953989],["¨",-13.987810086953989],["ğ",-13.98781008695399],["❤",-14.043365642509546],["~",-14.043365642509547],["−",-14.102189171921314],["<",-14.102189171921314],["å",-14.102189171921314],["È",-14.164689171921317],["ş",-14.23135583858799],["﻿",-14.231355838587993],["ò",-14.231355838587994],["ђ",-14.231355838587998],["ā",-14.302784410016582],["―",-14.379707486939703],["ć",-14.379707486939703],["ì",-14.46304082027314],["õ",-14.463040820273141],["č",-14.653949911183272],["ă",-14.653949911183272],["Э",-14.653949911183272],["★",-14.653949911183272],["̈",-14.765061022296857],["³",-14.765061022296859],["ʻ",-14.765061022296859],["š",-14.765061022296859],["ō",-14.765061022296859],["а",-14.765061022296859],["с",-14.76506102229687],["▶",-14.890061022305963],["Ü",-14.890061022305963],["‡",-14.890061022305963],["₂",-14.890061022305963],["‎",-14.890061022305963],["⁣",-14.890061022305963],["ᵉ",-14.890061022305963],["Ў",-14.890061022305963],["Ô",-14.890061022305963],["茅",-15.032918165163107],["Å",-15.032918165163107],["̶",-15.032918165203053],["ž",-15.032918165203064],["谩",-15.032918165203064],["‑",-15.032918165203066],["›",-15.032918165203066],["¥",-15.032918165203066],["ı",-15.199584831829773],["်",-15.199584831869721],["Ä",-15.199584831869732],["ū",-15.199584831869732],["✅",-15.199584831869732],["¬",-15.199584831869732],["‹",-15.199584831869732],["‰",-15.199584831869732],["ń",-15.399584831829776],["₦",-15.399584831869733],["е",-15.399584831869733],["ē",-15.399584831869733],["】",-15.399584831869733],["┬",-15.399584831869733],["【",-15.399584831869733],["Š",-15.399584831869733],["⬇",-15.399584831869733],["æ",-15.649584831829774],["铆",-15.649584831829774],["煤",-15.649584831869731],["ﬁ",-15.649584831869733],["г",-15.649584831869733],["ѓ",-15.649584831869733],["ל",-15.649584831869733],["İ",-15.649584831869733],["‐",-15.649584831869733],["¼",-15.649584831869733],["о",-15.649584831869733],["Ž",-15.649584831869733],["Œ",-15.982918165163106],["Ġ",-15.982918165163106],["म",-15.982918165163108],["ɑ",-15.982918165163108],["У",-15.98291816516315],["מ",-15.98291816520306],["ה",-15.98291816520306],["Ю",-15.982918165203065],["◆",-15.982918165203065],["±",-15.982918165203065],["ု",-15.982918165203065],["ß",-15.982918165203065],["ߋ",-15.982918165203065],["¯",-15.982918165203065],["ा",-15.982918165203065],["ę",-15.982918165203065],["ѕ",-15.982918165203065],["¾",-15.982918165203065],["─",-15.982918165203065],["✨",-15.982918165203065],["і",-15.982918165203065],["➤",-15.982918165203065],["¤",-15.982918165203065],["क",-15.982918165203065],["§",-15.982918165203065],["➡",-15.982918165203065],["у",-15.982918165203065],["ț",-16.48291816516311],["Ľ",-16.482918165163113],["တ",-16.482918165203028],["स",-16.482918165203056],["ड",-16.482918165203056],["ĳ",-16.48291816520306],["帽",-16.48291816520306],["ं",-16.482918165203067],["‒",-16.482918165203067],["▪",-16.482918165203067],["्",-16.482918165203067],["☹",-16.482918165203067],["ာ",-16.482918165203067],["һ",-16.482918165203067],["န",-16.482918165203067],["⭐",-16.482918165203067],["े",-16.482918165203067],["＊",-16.482918165203067],["✓",-16.482918165203067],["ु",-16.482918165203067],["ș",-16.482918165203067],["♦",-16.482918165203067],["र",-16.482918165203067],["ו",-16.482918165203067],["ȼ",-16.482918165203067],["မ",-16.482918165203067],["Ъ",-16.482918165203067],["ם",-16.482918165203067],["†",-16.482918165203067],["ि",-16.482918165203067],["н",-16.482918165203067],["⚽",-16.482918165203067],["₵",-16.482918165203067],["Û",-16.482918165203067],["├",-16.482918165203067],["ý",-16.482918165203067],["⁠",-16.482918165203067],["✔",-16.482918165203067],["ţ",-16.482918165203067],["Ø",-16.482918165203067],["ी",-16.482918165203067],["י",-16.482918165203067],["℃",-16.482918165203067],["˚",-16.482918165203067],["І",-17.481818165203066],["Ђ",-17.481918165203066],["ю",-17.482018165203066],["Щ",-17.482118165203065],["̧",-17.48221816520307],["ł",-17.48231816520307],["ိ",-17.482418165203068],["Ь",-17.482518165203068],["̃",-17.482618165203068],["င",-17.482718165203067],["Р",-17.482818165203067],["Ò",-17.482918165163117],["ż",-17.482918165163117],["Þ",-17.482918165163117],["ļ",-17.482918165163117],["Ѓ",-17.48291816516329],["ע",-17.482918165203042],["צ",-17.482918165203042],["ў",-17.482918165203042],["脕",-17.482918165203053],["ⅼ",-17.48291816520306],["默",-17.482918165203067],["ḥ",-17.482918165203067],["य",-17.482918165203067],["ब",-17.482918165203067],["օ",-17.482918165203067],["ś",-17.482918165203067],["ရ",-17.482918165203067],["❗",-17.482918165203067],["Г",-17.482918165203067],["အ",-17.482918165203067],["д",-17.482918165203067],["․",-17.482918165203067],["Ï",-17.482918165203067],["ွ",-17.482918165203067],["静",-17.482918165203067],["נ",-17.482918165203067],["ｅ",-17.482918165203067],["‪",-17.482918165203067],["Ā",-17.482918165203067],["ည",-17.482918165203067],["ြ",-17.482918165203067],["ပ",-17.482918165203067],["❣",-17.482918165203067],["β",-17.482918165203067],["ġ",-17.482918165203067],["Т",-17.482918165203067],["Ż",-17.482918165203067],["☆",-17.482918165203067],["ě",-17.482918165203067],["қ",-17.482918165203067],["လ",-17.482918165203067],["期",-17.482918165203067],["घ",-17.482918165203067],["П",-17.482918165203067],["╖",-17.482918165203067],["⇧",-17.482918165203067],["ᴠ",-17.482918165203067],["γ",-17.482918165203067],["ट",-17.482918165203067],["ņ",-17.482918165203067],["化",-17.482918165203067],["ʏ",-17.482918165203067],["‼",-17.482918165203067],["न",-17.482918165203067],["Ј",-17.482918165203067],["☀",-17.482918165203067],["",-17.482918165203067],["သ",-17.482918165203067],["ᵃ",-17.482918165203067],["ဖ",-17.482918165203067],["₁",-17.482918165203067],["च",-17.482918165203067],["ल",-17.482918165203067],["⌘",-17.482918165203067],["˝",-17.482918165203067],["ƅ",-17.482918165203067],["☝",-17.482918165203067],["ါ",-17.482918165203067],["≈",-17.482918165203067],["Ō",-17.482918165203067],["❉",-17.482918165203067],["μ",-17.482918165203067],["温",-17.482918165203067],["ќ",-17.482918165203067],["₡",-17.482918165203067],["ב",-17.482918165203067],["球",-17.482918165203067],["ת",-17.482918165203067],["☺",-17.482918165203067],["ှ",-17.482918165203067],["ק",-17.482918165203067],["ー",-17.482918165203067],["ễ",-17.482918165203067],["Њ",-17.482918165203067],["υ",-17.482918165203067],["ν",-17.482918165203067],["ķ",-17.482918165203067],["џ",-17.482918165203067],["",-17.482918165203067],["त",-17.482918165203067],["⏰",-17.482918165203067],["က",-17.482918165203067],["я",-17.482918165203067],["➢",-17.482918165203067],["⏩",-17.482918165203067],["Я",-17.482918165203067],["",-17.482918165203067],["☕",-17.482918165203067],["श",-17.482918165203067],["ỗ",-17.482918165203067],["暖",-17.482918165203067],["ေ",-17.482918165203067],["╕",-17.482918165203067],["א",-17.482918165203067],["ד",-17.482918165203067],["Ш",-17.482918165203067],["अ",-17.482918165203067],["ʼ",-17.482918165203067],["ς",-17.482918165203067],["¹",-17.482918165203067],["⚠",-17.482918165203067],["Ё",-17.482918165203067],["❌",-17.482918165203067],["－",-17.482918165203067],["✍",-17.482918165203067],["⏱",-17.482918165203067],["ن",-17.482918165203067],["њ",-17.482918165203067],["ř",-17.482918165203067],["б",-17.482918165203067],["ש",-17.482918165203067],["α",-17.482918165203067],["ж",-17.482918165203067],["ᥙ",-17.482918165203067],["地",-17.482918165203067],["ο",-17.482918165203067],["⛓",-17.482918165203067],["▌",-17.482918165203067],["✊",-17.482918165203067],["ħ",-17.482918165203067],["ﬂ",-17.482918165203067],["Č",-17.482918165203067]]}}