{"version":"1.0","truncation":null,"padding":null,"added_tokens":[{"id":0,"special":true,"content":"<UNK>","single_word":false,"lstrip":false,"rstrip":false,"normalized":false},{"id":1,"special":true,"content":"<SEP>","single_word":false,"lstrip":false,"rstrip":false,"normalized":false},{"id":2,"special":true,"content":"<MASK>","single_word":false,"lstrip":false,"rstrip":false,"normalized":false},{"id":3,"special":true,"content":"<CLS>","single_word":false,"lstrip":false,"rstrip":false,"normalized":false}],"normalizer":null,"pre_tokenizer":{"type":"Whitespace"},"post_processor":null,"decoder":null,"model":{"type":"Unigram","unk_id":0,"vocab":[["<UNK>",0.0],["<SEP>",0.0],["<MASK>",0.0],["<CLS>",0.0],["s",-2.60214237072565],["e",-2.67743357922922],["d",-3.3297153135329083],[",",-3.428998608782365],["l",-3.516672463195359],[".",-3.583053405529549],["’",-3.743869946895691],["a",-3.773388944776954],["t",-3.8659578894991],["n",-3.9763647298395277],["de",-4.009529275227813],["u",-4.1219338393572045],["à",-4.361293881782606],["la",-4.39265463946947],["'",-4.6267930630327445],["les",-4.753632958687113],["-",-4.901565643176829],["des",-4.9434996968959535],["le",-5.028898990473563],["i",-5.093739976970914],["est",-5.1196015344158],["pour",-5.166371453179325],["r",-5.202395981070351],["c",-5.245140530078853],["que",-5.285139327645265],["une",-5.349351840842907],["ont",-5.379625362473593],["qui",-5.39356316459684],["dans",-5.403412292096506],["un",-5.495008136775134],["en",-5.50597294043259],["L",-5.589272176981542],["sur",-5.606397405276356],["par",-5.612121545348067],["«",-5.6496943605519245],["o",-5.70156590863153],["pas",-5.753618597712833],["ment",-5.856854718235972],["plus",-5.894141637605106],["C",-5.895844702070853],["\"",-5.923959457725077],["qu",-5.933179789563974],["on",-5.996781089588479],["et",-6.015427221487011],["son",-6.032344902124565],["avec",-6.03407307231268],["es",-6.055502640507704],["été",-6.110242526993989],["aux",-6.114503204950598],["il",-6.1227250200028305],["(",-6.201132727346328],["é",-6.205829102860159],["du",-6.223345690973131],["au",-6.330038915049387],["Le",-6.372103929254742],["m",-6.390032740239828],["x",-6.398219716370448],["nt",-6.4152178282869965],["La",-6.415940549994858],["y",-6.431826754846016],["A",-6.436424714578818],["ce",-6.436900192490773],["p",-6.453772985140288],["»",-6.454426769814958],[":",-6.53651250549567],["ent",-6.538620843209383],["v",-6.5668684018113],["mais",-6.582821068400316],["leur",-6.5841838404847834],["Les",-6.589192690340099],["cette",-6.58993089943178],["fait",-6.612327253357904],["tout",-6.652671310730531],["Il",-6.656158313657814],["ans",-6.71914406320985],["être",-6.761430290962597],["»,",-6.764130357104401],["elle",-6.782550576175616],["puis",-6.795195724787895],["ou",-6.801070969875875],["étai",-6.809020775485912],["j",-6.8124218586825265],["eux",-6.820525063948658],[")",-6.861762256197842],["deux",-6.899709257675799],["nous",-6.90462455237313],["même",-6.921549612002675],["avait",-6.921642911732041],["comme",-6.934652051873753],["aussi",-6.966392870294014],["D",-6.975059159464225],["jour",-6.999645168800713],["faire",-7.035936187570325],["autre",-7.036988968643122],["ne",-7.04440112830356],["En",-7.052751901944095],["M",-7.058783845571067],["après",-7.063550934347573],["vou",-7.078074561873532],["S",-7.0982728163165545],["ement",-7.1044796755435655],["bien",-7.1262653721791445],["avoir",-7.144567308266724],["J",-7.168094982812803],["année",-7.169092415447838],["fois",-7.174282296991475],["f",-7.203023116296246],["entre",-7.231269663890058],["ant",-7.24422352260734],["E",-7.2558611575524266],["lors",-7.2598814147771105],["pays",-7.297927261110314],["2",-7.302630699067315],["Pour",-7.306261985347359],["%",-7.322709281108179],["contre",-7.331744954932233],["z",-7.333966809553666],["près",-7.360664534042485],["personne",-7.3609000403981595],["1",-7.3673852378938935],["20",-7.3674460215839],["Un",-7.3675335423173],["P",-7.397925843328105],["avant",-7.402150972613515],["peut",-7.405029683668276],["Mais",-7.406308712116229],["I",-7.408481807215585],["rès",-7.4161802587822505],["dernier",-7.429161853826965],["coup",-7.429266825413022],["temp",-7.442244610594265],["On",-7.445370447648968],["encor",-7.453980195092985],["fin",-7.458286537861046],["premier",-7.4598565626761815],["ù",-7.464643144916322],["ces",-7.506305763565801],["3",-7.514821749429969],["lui",-7.52121721123434],["monde",-7.555743494341514],["sera",-7.561944093875157],["ux",-7.569324742475882],["oit",-7.574985979063847],["4",-7.577696453284653],["première",-7.580020359894201],["5",-7.584553952615383],["moin",-7.593051747322908],["aient",-7.5941398523711365],["Une",-7.597223296349446],["président",-7.598731757218695],["2022",-7.607840649317615],["place",-7.6337441080049855],[").",-7.635362774322329],["grand",-7.6459056644005905],["mois",-7.663920328390246],["ette",-7.671203940756692],["Nous",-7.678005583954543],["Dans",-7.680491491919332],["“",-7.681947115133736],["déjà",-7.682773979813184],["…",-7.685441419114793],["toute",-7.691266268623692],["ministre",-7.691308817665827],["nouveau",-7.69373890290375],["nouvelle",-7.711594792794323],["O",-7.715056113801611],["ous",-7.7155583320224785],["h",-7.727609543597285],["».",-7.729252431162427],["quelque",-7.73336980586268],["trois",-7.74380904099783],["Elle",-7.753121371327267],["ait",-7.757469039445381],["plusieur",-7.760551916949811],["peu",-7.7674377508983685],["France",-7.777744735950766],["dernière",-7.783989711972253],["semaine",-7.784707827811969],["point",-7.786099380937616],["?",-7.791466793182923],["À",-7.8046275896394945],["ville",-7.805746003628513],["19",-7.822521058420638],["g",-7.823189938738476],["ainsi",-7.830494837106966],["0",-7.8337004687807585],["6",-7.835543517846726],["projet",-7.838870277657747],["homme",-7.847158614844441],["ez",-7.848238152796771],["De",-7.8505921468558055],["donc",-7.855038011356573],["7",-7.857287712336395],["ur",-7.857587762663675],["Et",-7.862719207024036],["tou",-7.863460352342044],["000",-7.879189497659518],["politique",-7.88501334144353],["équipe",-7.885426847448893],["ça",-7.887087624254496],["heure",-7.887313599860577],["201",-7.891240968785851],["ation",-7.894631215416567],["beau",-7.902254919726304],["vie",-7.902703952588579],["\",",-7.906178029880428],["B",-7.906815547728048],["Je",-7.909902391431119],["gouvernement",-7.914074929678388],["jusqu",-7.917463656342778],["),",-7.929449085307952],["an",-7.932324277498389],["voir",-7.93239331438965],["Ukraine",-7.933337476904202],["”",-7.946089601180562],["début",-7.962970255052776],["femme",-7.964863675977708],["État",-7.973152962068985],["million",-7.973417625566882],["faut",-7.975247088422502],["9",-7.978687721635954],["je",-7.980123463270832],["re",-7.984068900874804],["dit",-7.987934589981243],["8",-7.994191375078377],["certain",-7.994237039479462],["tant",-7.998494887323978],["T",-8.001451226378567],["elon",-8.006657782745414],["pendant",-8.018910260065777],["service",-8.019932291177037],["groupe",-8.022883935584694],["partie",-8.025598280597949],["notamment",-8.030049759155409],["ons",-8.033680100968274],["Si",-8.043780243599175],["entreprise",-8.050932042302765],["match",-8.052110243534793],["cours",-8.053357227906414],["tous",-8.05449077877633],["2021",-8.059631756493935],["Des",-8.062798740154221],["moment",-8.067827000902177],["égal",-8.069098300507658],["venir",-8.072092885108395],["ses",-8.079346966419958],["droit",-8.086331322387137],["R",-8.087793401916013],["part",-8.091870610252418],["vers",-8.112250956261665],["tre",-8.119130439968643],["10",-8.11990624155851],["hui",-8.12056501044053],["face",-8.124202551934626],["er",-8.1300495563831],["déclaré",-8.13249704553647],["côté",-8.135406343172374],["cas",-8.136642328269406],["N",-8.140077720519244],["travail",-8.141259956747184],["question",-8.143777105083819],["compte",-8.151559634838552],["ai",-8.166954526682474],["jeu",-8.167793495711443],["saison",-8.181822372514759],["effet",-8.187418824544292],["b",-8.19087748989999],["lieu",-8.195674052733505],["famille",-8.196446496217533],["ailleur",-8.210331314814901],["alor",-8.210821547836211],["région",-8.211684589280244],["nombre",-8.212841536672252],["va",-8.216704484609632],["ils",-8.21939303382533],["jeudi",-8.224612121181991],["pouvoir",-8.225104496344555],["me",-8.231009869051002],["cela",-8.23132831288683],["Au",-8.233416957629881],["avon",-8.235030782849968],["situation",-8.240169494474781],["mercredi",-8.242216085140864],["joueur",-8.246125982026921],["mi",-8.246135647575642],["long",-8.246524136899279],["sans",-8.248316030955774],["dimanche",-8.250813514398345],["euros",-8.251275225392842],["Selo",-8.252429623389933],["mardi",-8.258912479160161],["vendredi",-8.260140413384217],["sous",-8.260177298178705],["lundi",-8.260694595337508],["film",-8.261501592725669],["ôt",-8.261942054621233],["niveau",-8.26322172405925],["se",-8.264490434263369],["suite",-8.271394610753859],["grande",-8.273158847888034],["quan",-8.281675521695746],["porte",-8.28629499295954],["public",-8.28634304622027],["chef",-8.288629093989673],["U",-8.290161421302379],["chose",-8.292877736787066],["–",-8.29371838315183],["Russi",-8.294364504656928],["F",-8.294666010992135],["mis",-8.29561411365528],["produit",-8.295923820868122],["mesure",-8.297866001159441],["annoncé",-8.298095968053797],["raison",-8.314972760104492],["/",-8.315211745304307],["russe",-8.31957384719709],["pourrai",-8.320134061213675],["vrai",-8.32201937276631],["G",-8.324699448086143],["samedi",-8.326779915771848],["rapport",-8.327577008647221],["quatre",-8.33511714213548],["30",-8.339257063734273],["reste",-8.34975072756604],["car",-8.352492623387516],["Saint",-8.356084376799862],["devant",-8.358098506225474],["jeune",-8.361309863288481],["guerre",-8.363943781699756],["té",-8.367684291830674],["devrai",-8.369241163154616],["histoire",-8.36930047483882],["avai",-8.372433999433593],["Ce",-8.372875036928964],["petit",-8.373020585194457],["mettre",-8.378656637963354],["ici",-8.378886686211555],["in",-8.37984947584993],["série",-8.3843016407891],["Uni",-8.387085978195103],["Québec",-8.387548244207203],["centre",-8.39164055286501],["pri",-8.39320174689706],["but",-8.39340942663727],["aurai",-8.39426057960963],["deuxième",-8.395908382677622],["membre",-8.399844987882542],["it",-8.400602045135452],["15",-8.402595468473006],["parti",-8.40420413172562],["ancien",-8.417829911408994],["dire",-8.418442398481421],["bonne",-8.419101473622108],["police",-8.41914762332227],["bon",-8.41922845721652],["force",-8.41973423180822],["enfants",-8.424137625859027],["prendre",-8.424849061095472],["hez",-8.427287648378119],["pris",-8.429468373032758],["celle",-8.434043899618626],["vo",-8.43427003960496],["mai",-8.436067080317741],["mort",-8.436099407209994],["aujourd",-8.463994574581685],["sécurité",-8.467740561189341],["pa",-8.468850560375962],["demande",-8.469620838122312],["mon",-8.474566489530913],["rien",-8.476216852483692],["18",-8.478939395308664],["rix",-8.486412117716633],["français",-8.491199848363042],["général",-8.495004791269071],["Etat",-8.505901855625677],["jama",-8.506751318873398],["Ils",-8.509407596869007],["lement",-8.511349261167691],["soir",-8.514830039276738],["ité",-8.526301459708119],["mise",-8.5286460847902],["janvier",-8.536318938902486],["somme",-8.536750605182293],["possible",-8.542385776700185],["important",-8.544406899075877],["réseau",-8.545030124275387],["affaire",-8.553129006668765],["plan",-8.562082828070787],["décision",-8.56803090597965],["activité",-8.568583264058706],["Jean",-8.570030257331315],["st",-8.572063767119033],["risque",-8.57346526625198],["occasion",-8.574077667726819],["k",-8.574434326832018],["cinq",-8.576502305635813],["besoin",-8.577321715695907],["victime",-8.57880166821777],["prochain",-8.580728131262369],["marché",-8.584930474792356],["eurs",-8.586155089711196],["retour",-8.588949114805871],["jeunes",-8.589423019805658],["ma",-8.589732496186269],["embre",-8.590145675023525],["ient",-8.593651440356897],["rait",-8.598287875141637],["quoi",-8.598813659741129],["information",-8.599217445050941],["passé",-8.601987513102216],["trop",-8.60491802043423],["égale",-8.607898986247143],["aura",-8.609748228169277],["titre",-8.609770037617476],["tête",-8.610634031133493],["finale",-8.614100162864137],["société",-8.615698786926687],["24",-8.617727546939756],["nationale",-8.619361210999834],["décembre",-8.621789512980074],["appel",-8.62257017616368],["chaqu",-8.623137849211764],["ès",-8.62360905711066],["ligne",-8.627126845116047],["agit",-8.631004117580785],["afin",-8.63474562911202],["explique",-8.636794655594297],["cadre",-8.642339908193538],["milliard",-8.645245964097533],["indiqué",-8.64818928064999],["site",-8.649897973176389],["200",-8.650174304103729],["autorité",-8.653437041933854],["12",-8.657303499170668],["ensemble",-8.65733202588115],["25",-8.664815202837051],["14",-8.66520530284128],["crise",-8.666744074503942],["annonce",-8.667056531716728],["elles",-8.670457735423504],["journée",-8.670512455749659],["maison",-8.670606613313117],["mal",-8.671357182742598],["système",-8.672000840519825],["Par",-8.67401463524672],["plu",-8.675182591997949],["militaire",-8.676141122298588],["matin",-8.677892843106038],["Ave",-8.680415093657967],["national",-8.684335971353157],["17",-8.684365245126553],["période",-8.685196369188247],["jui",-8.686150668762572],["dan",-8.689912374648276],["population",-8.691974130147841],["rencontre",-8.693926727275299],["responsable",-8.694193013776708],["problème",-8.695666341273629],["semble",-8.69626533290984],["202",-8.696778169320707],["suis",-8.697616792653907],["permet",-8.697916996018012],["moi",-8.69821116656226],["fort",-8.698524294099906],["Sur",-8.700244091820956],["secteur",-8.70055915842077],["désor",-8.70885823794669],["V",-8.712951456242504],["not",-8.71353091554336],["enquête",-8.714636479791874],["meilleur",-8.714850637392956],["non",-8.715217713776482],["cause",-8.71628531912702],["main",-8.718058941099201],["évrier",-8.722191669963676],["uillet",-8.722528394603323],["!",-8.72255421582254],["16",-8.722864155961926],["offre",-8.724226522492565],["è",-8.725663298925323],["tait",-8.727215222825874],["nom",-8.730284868645214],["élection",-8.735142424988975],["publique",-8.73608738801476],["age",-8.74389257892527],["américain",-8.743904655761636],["mars",-8.746772426230063],["directeur",-8.750016449792742],["objectif",-8.75234452294568],["nos",-8.7558767942202],["vez",-8.758753111754222],["minute",-8.759692297624785],["gens",-8.765223986345053],["image",-8.76623410640268],["Europe",-8.767816710295651],["Cela",-8.768469511897688],["€",-8.771667931698198],["soutien",-8.774751431512398],["13",-8.77699513274952],["presse",-8.777931888575553],["K",-8.778722603027997],["présent",-8.77923439210139],["club",-8.780642664221288],["is",-8.780661022377847],["zone",-8.787007274726314],["exemple",-8.789131777351253],["total",-8.790165337448332],["accord",-8.791206829369468],["souven",-8.794410906946833],["tour",-8.794985258608548],["H",-8.797137471786598],["no",-8.800262689371674],["actuelle",-8.802798930712981],["communiqué",-8.804022954927138],["Tout",-8.80670363052199],["événement",-8.807279976811518],["vent",-8.809489917327548],["aucun",-8.811408339134976],["lorsqu",-8.812923367641918],["donné",-8.81538526632638],["candidat",-8.816270080461308],["utant",-8.816631214023817],["armée",-8.81998550219119],["11",-8.820337037266066],["hausse",-8.821033423854837],["fil",-8.821581800963223],["difficile",-8.822832241028006],["bre",-8.82445863550224],["Paris",-8.824491163608506],["Covid",-8.824826895480477],["économique",-8.828581930213598],["passer",-8.830575018516782],["mment",-8.832588315464363],["environ",-8.833459216738488],["partir",-8.835096301438561],["état",-8.838090977940027],["troisième",-8.839347637061689],["50",-8.839665308538569],["programme",-8.840572945965723],["sept",-8.844825995685468],["organisation",-8.847633686613719],["attaque",-8.850324555042715],["octo",-8.852999095741994],["vi",-8.853205389139697],["uvent",-8.85388908908569],["trè",-8.85604329113999],["parole",-8.858651291149005],["haut",-8.859309001829313],["scène",-8.862578051452935],["développement",-8.863329027960472],["victoire",-8.864238409767658],["ront",-8.867888109203742],["font",-8.869442293191838],["nov",-8.870451937956474],["seul",-8.871865730828578],["seron",-8.87303412216598],["action",-8.874866657689026],["œuvre",-8.88106174318573],["ministère",-8.881219474303554],["passe",-8.883463750764648],["anté",-8.885084008234298],["simple",-8.887107196111298],["production",-8.888252387336264],["elui",-8.888828935639289],["opération",-8.89024976251256],["ir",-8.891357017912382],["député",-8.894814200551851],["tard",-8.895027961858332],["jeux",-8.895073538209889],["aller",-8.895771421888504],["autour",-8.896032302246986],["quelle",-8.898423918254032],["aide",-8.898774588127921],["manière",-8.90068155818291],["ajouté",-8.90132790685309],["Son",-8.90366606647245],["dont",-8.903940006953354],["sujet",-8.904232481075272],["école",-8.904696964386687],["énergie",-8.906822252706293],["conseil",-8.910848744734164],["avantage",-8.91534663852361],["voiture",-8.916530441287005],["rôle",-8.91814996018908],["Comme",-8.918393290830435],["août",-8.919017748946917],["campagne",-8.920236249074403],["2023",-8.923440296107295],["condition",-8.924309124366692],["fond",-8.925641823981817],["recherche",-8.92587800674814],["résultat",-8.926284916831953],["connu",-8.929114023887887],["route",-8.935223468046],["Afrique",-8.935662435252912],["formation",-8.939637304006514],["Macron",-8.940219296102317],["Conseil",-8.944456631534365],["loi",-8.944725164516665],["abord",-8.945227435017229],["jouer",-8.948554897730144],["terrain",-8.949712649241388],["ing",-8.952059312503296],["$",-8.955633519671863],["prochaine",-8.957962190630642],["forme",-8.959463042711524],["permis",-8.96064096855444],["trouver",-8.962567884255467],["ayant",-8.963928259335905],["départ",-8.96468085491384],["donner",-8.965436721045943],["parce",-8.966668837544368],["reçu",-8.966832005323454],["pandémie",-8.967060231067347],["savoir",-8.9670956720325],["dollars",-8.971154645774785],["charge",-8.97282606656091],["édition",-8.97552704828023],["nuit",-8.9787654298967],["source",-8.980392559224967],["territoire",-8.983560088430387],["moyen",-8.987023272461201],["rapide",-8.989867871148636],["ensuit",-8.993391297593831],["seule",-8.993392367679029],["père",-8.994212287587104],["direction",-8.996262470405924],["voi",-9.002516514559428],["arrivée",-9.004274416770127],["choi",-9.005859754775724],["juste",-9.005982473462844],["succès",-9.007244851826632],["décidé",-9.010061010967776],["Canada",-9.011978988113343],["100",-9.013945968255216],["Vou",-9.013950437389928],["attend",-9.014563698592298],["sa",-9.015857072272148],["vot",-9.01651633655575],["22",-9.018681897318055],["terme",-9.018871543386657],["intérêt",-9.020588015825874],["proche",-9.020618480756724],["serai",-9.020629059781584],["certaine",-9.02212224007934],["prise",-9.02753184366847],["ukrainien",-9.029285265247157],["client",-9.029672488972286],["plein",-9.02987786354802],["idée",-9.031343987288041],["vidéo",-9.03510510660108],["gaz",-9.040072082072866],["petite",-9.040806960773462],["ci",-9.041302773102196],["base",-9.041391090410972],["21",-9.042351136069943],["indique",-9.05476810179346],["maintenan",-9.055313681999554],["façon",-9.056092151322222],["lancé",-9.056169255962018],["qualité",-9.058309994078384],["fille",-9.059063989264624],["travers",-9.062139196096748],["hôpita",-9.062296176097119],["ais",-9.063368324390506],["veu",-9.063665878126871],["pense",-9.065892425046393],["habitant",-9.066843286621435],["trouve",-9.070335492428761],["40",-9.071249418423879],["milieu",-9.074732175939161],["association",-9.07539462914831],["acteur",-9.07723996034785],["W",-9.080285767431452],["européenne",-9.082397534692914],["marque",-9.083317239248686],["feu",-9.086981288991538],["valeur",-9.088870052188138],["coût",-9.089689253167755],["ouvert",-9.093380692680059],["midi",-9.09439471243795],["sortie",-9.095005913479735],["dossier",-9.095174515694287],["média",-9.097090490797154],["nombreu",-9.099239939176297],["cœur",-9.101451918942221],["Plus",-9.102252008771448],["propos",-9.106103522632115],["loin",-9.106699799001996],["Suisse",-9.109404765638871],["urant",-9.111108969931722],["étude",-9.117019437900607],["port",-9.117327144444237],["nécessaire",-9.118375427533884],["râce",-9.118606353294489],["nombreuse",-9.12056005389034],["rendre",-9.127771144106973],["prévu",-9.129374126551362],["contrôle",-9.1295726195108],["belle",-9.131252273635365],["espace",-9.13169921680051],["commune",-9.137814723514467],["ui",-9.138081354681965],["Emmanuel",-9.13905052803193],["matière",-9.13925773071714],["précisé",-9.13936244916893],["justice",-9.140829099677887],["combat",-9.141417308988522],["violence",-9.1446958377378],["changement",-9.145702383024267],["23",-9.146086799458887],["lutte",-9.14927300412332],["corp",-9.149856763649087],["peine",-9.150608301437709],["solution",-9.15076790091879],["pied",-9.15270094071734],["argent",-9.153951919231028],["communauté",-9.15638419324991],["doive",-9.156501624240963],["mère",-9.161693524621954],["quartier",-9.164247741807955],["gauche",-9.16487495532816],["ordre",-9.16685683647329],["particulière",-9.16838709607997],["propre",-9.169796731037824],["modèle",-9.170004046721257],["eptemb",-9.170139804156232],["livre",-9.170375137536796],["expérience",-9.170747928895045],["sanitaire",-9.171803709422903],["Nord",-9.172299352557328],["ré",-9.175510491661594],["27",-9.178522610436593],["utres",-9.178890407774354],["ulement",-9.178910369677073],["donnée",-9.180588076058676],["carte",-9.182229239818462],[";",-9.18233287352354],["Belgi",-9.184161857294312],["train",-9.184271615535021],["commun",-9.18775452111473],["our",-9.188732537630225],["russes",-9.194391803787507],["26",-9.195084153490132],["chance",-9.195771733963912],["République",-9.198567281903463],["estime",-9.200231974822856],["disponible",-9.200611356691542],["permettr",-9.201329544903992],["prêt",-9.201632694908486],["ix",-9.202357138936105],["sûr",-9.202475673732666],["objet",-9.205893762996542],["aucune",-9.206411550327061],["journaliste",-9.207713037505904],["ch",-9.208216870706956],["mission",-9.20995320692829],["présence",-9.210638185217752],["comment",-9.210652821975986],["Premier",-9.21343018621005],["avion",-9.215431982701709],["relation",-9.21566153560267],["28",-9.21655658423682],["citoyen",-9.217996311832923],["maire",-9.218878066739062],["parler",-9.21939202308289],["Grand",-9.22097304254724],["économie",-9.222049707893426],["auteur",-9.223161785622299],["Quan",-9.223531201969553],["fonction",-9.223972973178878],["donne",-9.2257689359196],["rend",-9.225867382765738],["ve",-9.22685983363847],["puisqu",-9.22692134745476],["technique",-9.227130154183246],["juge",-9.227193175668688],["appelé",-9.227582587856894],["poste",-9.229410650482437],["manque",-9.229820372521008],["pratique",-9.231564791516913],["perdu",-9.233093438497647],["Union",-9.233135261222765],["atteint",-9.233778196240877],["époque",-9.234588454524086],["montre",-9.238523100649314],["élève",-9.239077581278664],["écrit",-9.2403603828311],["Coupe",-9.241003581612441],["prend",-9.24239490504755],["internationale",-9.243082411274713],["propose",-9.243257175484347],["capacité",-9.243687170781076],["entrée",-9.244156473368816],["bas",-9.244756135658655],["insi",-9.246161414685265],["enfant",-9.246370856881047],["artiste",-9.247183525017213],["Ces",-9.251945075444793],["européen",-9.253169568348357],["carrière",-9.254506747210442],["Maroc",-9.2614327156221],["500",-9.262003575115877],["clair",-9.262776196755306],["rendu",-9.264036262763248],["défense",-9.266573462164942],["Poutin",-9.271526612358059],["transport",-9.273648496665977],["arrêt",-9.276500764271024],["gros",-9.278231832898562],["soi",-9.278284508498771],["visite",-9.278394610806421],["plut",-9.279063755489702],["demandé",-9.28063805427426],["écran",-9.281893554668784],["différents",-9.281914187617486],["parent",-9.283653788932178],["eur",-9.283683117322276],["Pierre",-9.283752718681066],["longue",-9.284624437329235],["extrême",-9.28514723304729],["forte",-9.285393129737677],["emploi",-9.286040672974552],["60",-9.287113509441518],["établissement",-9.287256916827577],["majorité",-9.287278122197337],["policier",-9.287384461924303],["réussi",-9.290470343077926],["armes",-9.290967423060025],["garde",-9.291156157372694],["retrouve",-9.291692742843663],["revenu",-9.293395578003189],["bout",-9.29569099267493],["précise",-9.296670245038005],["mouvement",-9.301776863282711],["Mosco",-9.302439289191367],["nord",-9.303040418785184],["message",-9.304497244245074],["terre",-9.304685449502793],["Sa",-9.305205960745596],["impact",-9.305654145450646],["date",-9.30826485683022],["199",-9.308519647467097],["différente",-9.308830386109475],["créer",-9.31053967938799],["plateforme",-9.312612485442106],["international",-9.313836214852461],["reprise",-9.314001444325083],["Même",-9.319888757638928],["errière",-9.321711067091233],["peuple",-9.321851588145403],["Ville",-9.322368766756853],["compagnie",-9.323169748440957],["étant",-9.327008903196802],["accusé",-9.328145848762782],["arrêté",-9.329149603639433],["dû",-9.330267422841754],["arrive",-9.3314076837929],["ter",-9.331458931280238],["réalité",-9.33332494971501],["devenu",-9.334060205875135],["bureau",-9.334407880686676],["origine",-9.335088194256917],["publié",-9.338034340395883],["version",-9.338372509317772],["Ma",-9.339105657682905],["affirmé",-9.341196002607994],["accident",-9.34134723330158],["expliqué",-9.34267408790707],["véhicule",-9.342713853286348],["seconde",-9.343544295367309],["course",-9.343884231277785],["âge",-9.343915273156314],["aider",-9.345510744021384],["mètre",-9.345542894581403],["capitale",-9.345614194573912],["AFP",-9.3462451087929],["Montréal",-9.34906886344242],["X",-9.349762180788312],["construction",-9.35017270307714],["prison",-9.353097786122103],["Français",-9.353247919895345],["réponse",-9.354225149381799],["répond",-9.355004237813993],["importante",-9.357013848906956],["dizaine",-9.357263022616195],["direct",-9.360720565149528],["co",-9.361918162928198],["dirigeant",-9.369848722370138],["or",-9.370890713448194],["ajoute",-9.371083434663486],["réalisé",-9.371119595864032],["vivre",-9.37139162413034],["personnel",-9.372535292326532],["Ça",-9.372893171584687],["continue",-9.375309958312501],["étudiant",-9.375772892169186],["mondiale",-9.37591351192],["vril",-9.376267923694106],["presqu",-9.3782010286163],["soirée",-9.37857733504439],["conflit",-9.379201031110428],["présenté",-9.382030197248465],["augmentation",-9.382810713589343],["genre",-9.383621578741465],["sein",-9.384016709550053],["rester",-9.384313872814543],["unique",-9.386113136530467],["voit",-9.387978498810849],["étape",-9.388102337313283],["ois",-9.389465984774805],["social",-9.390923426082477],["officielle",-9.39534502440081],["second",-9.396556686906829],["professionnel",-9.39785280456579],["village",-9.398549041958773],["conférence",-9.399036344756166],["allait",-9.4008584405555],["ouverture",-9.400931939419845],["véritable",-9.401859408366892],["commencé",-9.403727067472861],["baisse",-9.404304046029889],["29",-9.405035457484864],["souligne",-9.405756977608076],["\".",-9.405981744032898],["gestion",-9.406077672599782],["km",-9.406518801315386],["voyage",-9.407098929908429],["ion",-9.407631870277983],["hors",-9.408342927733774],["Bruxelles",-9.409074017611767],["sanction",-9.41041074371863],["sociale",-9.41261484617805],["court",-9.413735768297737],["Chine",-9.413843058229551],["travailler",-9.414197229266037],["retrouver",-9.414432028533739],["grave",-9.416471203069962],["historique",-9.417573029984363],["Twit",-9.417740147859366],["domaine",-9.418132278736508],["camp",-9.419630586070607],["affirme",-9.420572391222986],["privé",-9.420602848069455],["profit",-9.42080647226228],["achat",-9.422145061233493],["mot",-9.423075164455067],["administration",-9.423079761768156],["position",-9.424193169954844],["agent",-9.424662451322515],["ukrainienne",-9.424694480668553],["éviter",-9.425449908924026],["réunion",-9.425612650637396],["avocat",-9.426974388601348],["générale",-9.427274044892362],["meilleure",-9.42790434341153],["américaine",-9.429865746486138],["vol",-9.430408014366735],["Car",-9.430990775267901],["française",-9.431582583305804],["création",-9.43330030075513],["employé",-9.434490954706487],["ël",-9.434747242488012],["critique",-9.435785962670998],["incendie",-9.438894965599314],["liste",-9.439935729804926],["conséquence",-9.442376270031552],["gne",-9.442600120397783],["liberté",-9.443634864926484],["cet",-9.444500689035127],["cour",-9.444926480834893],["éga",-9.445662809246787],["frontière",-9.445772754490761],["ire",-9.446163963250005],["inflation",-9.44636886461431],["moyenne",-9.446559580239043],["Isra",-9.446976951746343],["ar",-9.447089137396809],["Centre",-9.447780583601883],["tion",-9.448106038251254],["supplémentaire",-9.448778411596287],["70",-9.45035390228612],["av",-9.450364691982742],["viru",-9.450472564690873],["humain",-9.45290193200534],["doute",-9.453133684407177],["soci",-9.455427950274427],["particulier",-9.457164293426597],["rappel",-9.458059672661628],["si",-9.45844431793661],["six",-9.459445482589214],["droite",-9.460294016912748],["urgence",-9.461232221163543],["venu",-9.461811877185191],["avance",-9.462726097213562],["air",-9.46433053210713],["PS",-9.464491195584234],["partenaire",-9.464851194472832],["record",-9.465915431394496],["New",-9.467379704197318],["principal",-9.468254212603316],["fédéral",-9.468530776805393],["décè",-9.468850250798251],["province",-9.469277498396574],["contrat",-9.469716140805524],["Z",-9.470002517754935],["dix",-9.470064920748943],["François",-9.47223273081251],["80",-9.473389621507252],["ujour",-9.474484708830722],["Est",-9.474728985654274],["vue",-9.475342335428294],["tribuna",-9.476359372481133],["élément",-9.476700414808917],["—",-9.479932325381359],["souhaite",-9.481336760878616],["obteni",-9.482908850391985],["cinéma",-9.483957138645106],["pourra",-9.48401819345094],["investissement",-9.484721000089058],["Deux",-9.485139234583869],["arrivé",-9.485364552693447],["rouge",-9.485490786945718],["souligné",-9.48633468361665],["possibilité",-9.487784805844683],["chacun",-9.488004435095213],["PC",-9.488917643430367],["demi",-9.489220391407898],["Malgr",-9.489229660338422],["type",-9.49054860187569],["pou",-9.492701305440566],["élevé",-9.493162069735229],["mondial",-9.493261533418176],["application",-9.49393111008445],["assure",-9.494532822519774],["che",-9.495103148404937],[".\"",-9.495894087352827],["centaine",-9.497106449548529],["Lors",-9.498453878742637],["climatique",-9.499736806739353],["maladie",-9.500513402979252],["q",-9.50081437147499],["assurer",-9.501166435765732],["représentant",-9.50168745984542],["inscrit",-9.502122872227584],["populaire",-9.503461557860245],["présente",-9.504221228980846],["compris",-9.508703708763722],["Or",-9.510115924243063],["banque",-9.510794910124908],["huit",-9.510806714410698],["hiver",-9.511038499703915],["étranger",-9.511043846667416],["otr",-9.511633577045611],["champion",-9.511815136727886],["bord",-9.512929392439949],["assuré",-9.513487158120384],["passage",-9.513505953269124],["texte",-9.513516490242946],["rez",-9.51411473614658],["physique",-9.515536305361092],["émission",-9.516470414839743],["millier",-9.51685918589189],["locale",-9.517240067170427],["musique",-9.519535574267712],["opposition",-9.520178323888421],["représente",-9.522133394093999],["Sud",-9.522450192138832],["mandat",-9.52487771868882],["centrale",-9.52867606644216],["compétition",-9.528894705573823],["principale",-9.529594786690758],["31",-9.530065359271173],["bâtiment",-9.53176634642736],["actuel",-9.533005347097056],["initiative",-9.533107403938143],["week",-9.535272999824002],["faudra",-9.535629905382116],["difficulté",-9.537316491531058],["sort",-9.538096371413133],["voulai",-9.53836129037418],["quotidien",-9.538449916802593],["trouvé",-9.5386351308483],["Bien",-9.538975049127949],["marqué",-9.539175607466413],["scolaire",-9.539643005391852],["effort",-9.54005342940825],["véhicules",-9.540320834534732],["vite",-9.542138266009198],["numérique",-9.54573197925985],["présidentielle",-9.547410531433258],["protection",-9.547748808892559],["continuer",-9.547778961753728],["propriétaire",-9.547885741598257],["Cha",-9.55053173926381],["ère",-9.551253760022004],["Allema",-9.55227440900974],["art",-9.553858671978105],["épisode",-9.554124332940148],["pompiers",-9.557223487328573],["mode",-9.55898070367559],["expert",-9.560766728549222],["montant",-9.560838252583938],["signé",-9.561854985157341],["belge",-9.564302046656632],["Y",-9.565000628833022],["mer",-9.565099970090342],["35",-9.568645034219037],["oi",-9.568724102766193],["tenu",-9.569419315195187],["double",-9.569533128615369],["hier",-9.569950203546956],["voie",-9.570359978298745],["Q",-9.571125470833582],["faisant",-9.572007838669892],["joué",-9.572698063575162],["article",-9.573224658846623],["vote",-9.577402452328855],["chaîne",-9.577535094973811],["rappelle",-9.578447511233847],["preuve",-9.581108703548088],["final",-9.581278159936037],["culture",-9.581995972871036],["suivi",-9.587693444915953],["vien",-9.588712805047557],["%)",-9.58874229140774],["The",-9.589627357938673],["endroit",-9.589826407274185],["électrique",-9.590917126772746],["quart",-9.59111818377448],["vente",-9.591743367066169],["facile",-9.592687106397891],["sortir",-9.593212654911742],["retrouvé",-9.593219198524938],["ancienne",-9.59364577286449],["football",-9.594674036782761],["Côte",-9.594771244499],["âgé",-9.5961948336727],["logement",-9.597292037492256],["porté",-9.597901769062432],["civil",-9.598544795476531],["spectacle",-9.59981691840024],["Ligue",-9.601811823117101],["technologie",-9.603409056987024],["manifestation",-9.603443252155396],["agence",-9.604369659111502],["intervention",-9.604805297351799],["nucléaire",-9.605128179798534],["attendr",-9.605773279692123],["atteindr",-9.607055171463971],["judiciaire",-9.60768413512286],["fête",-9.608462993513545],["men",-9.609121678065947],["parle",-9.60929560963763],["médecin",-9.609724309469646],["eau",-9.611461680258653],["pouvai",-9.61457297169893],["gagner",-9.615308826932225],["Paul",-9.615901373073982],["touché",-9.618578998363141],["cité",-9.620273883988709],["invasion",-9.621783524302657],["Certain",-9.622725849373401],["échange",-9.623251372431902],["transition",-9.623910504541108],["franc",-9.624392978282364],["Pas",-9.626708599244203],["document",-9.626891805659882],["communication",-9.627301639756283],["régime",-9.628141294945884],["confirmé",-9.630671630381997],["respect",-9.631560333201174],["oir",-9.632094621913541],["procè",-9.63338589811004],["conclu",-9.633610093080033],["1er",-9.635437580955516],["table",-9.635802317971288],["chemin",-9.635973273208421],["vingt",-9.635973520179345],["alement",-9.636121661309957],["découvrir",-9.63634101805091],["Santé",-9.636395971313497],["plainte",-9.637111426679056],["changer",-9.642988486122547],["département",-9.644562515211382],["probable",-9.645829187908152],["utilisé",-9.646125632631064],["choisi",-9.64646110435373],["remporté",-9.646584453996116],["avri",-9.64664226989439],["déclaration",-9.646807875105836],["budget",-9.648079535901697],["45",-9.64899242098439],["intérieur",-9.649651261274162],["règle",-9.651729488999008],["affiche",-9.653334181011111],["°",-9.653646173449776],["faisai",-9.654721693949611],["+",-9.656338776486365],["option",-9.656654007056922],["photo",-9.65679820173002],["estimé",-9.657156760245313],["britannique",-9.657242639964531],["situé",-9.659352825420557],["puissance",-9.659449221557418],["pression",-9.659558356039724],["contact",-9.65995286332161],["sommet",-9.660003256435292],["Louis",-9.660613546116702],["laisse",-9.66150619404507],["entretien",-9.661589197469207],["vague",-9.663925986358736],["interne",-9.665038876370183],["No",-9.66672911410599],["salle",-9.666772952327712],["tir",-9.668376104206349],["salaire",-9.668993634647073],["personnage",-9.66941886544149],["vert",-9.669825421769396],["ujourd",-9.670146646147739],["neuf",-9.671026029559567],["Cour",-9.672424139150722],["out",-9.672827220489122],["sait",-9.6743304687221],["Not",-9.674497270603943],["parc",-9.674938383663372],["oins",-9.675315256038711],["quant",-9.676560945907642],["trav",-9.676820311084935],["libre",-9.679659686117864],["langue",-9.67966423177728],["kilomètre",-9.680618596020135],["électrici",-9.680974051208981],["responsabilité",-9.681254975713385],["existe",-9.681347017043318],["danger",-9.682481501309475],["espoir",-9.682711214164367],["réforme",-9.682902925667257],["alimentaire",-9.682983666576183],["Michel",-9.684585805532919],["process",-9.685012918765166],["espère",-9.68547661400302],["aine",-9.686653196738316],["contexte",-9.686691643194838],["environnement",-9.687656595978416],["invité",-9.687691926114585],["négociation",-9.689410080009086],["Toute",-9.689741907870749],["discour",-9.692028711456516],["utiliser",-9.69575686422911],["chiffres",-9.697781357750344],["nature",-9.697940562634532],["concerne",-9.69849023616982],["ét",-9.70076427826694],["poursuit",-9.700972414292576],["Mon",-9.702648743212539],["phase",-9.704339800789684],["tournoi",-9.704754931147248],["secrétaire",-9.704788017285022],["commerce",-9.707144187990181],["acte",-9.707656266910014],["aventure",-9.707874455854316],["répondr",-9.708503911755447],["Tour",-9.709266455336012],["É",-9.709382654486372],["étrangère",-9.709546788264966],["rang",-9.709718216860868],[".»",-9.71032736359759],["appareil",-9.71133049945],["commence",-9.71137068337114],["noir",-9.71146323495502],["cher",-9.71160824560429],["patient",-9.713077598371967],["volonté",-9.71526268064206],["génération",-9.717874934184946],["condamné",-9.7184042911328],["Marc",-9.718500312840309],["sorti",-9.720074212359872],["ouverte",-9.720444268738946],["soldat",-9.720771364539257],["siècle",-9.72317564500581],["festival",-9.724012226618488],["cérémonie",-9.724553875497715],["courant",-9.726263512306588],["ra",-9.727342897802355],["”.",-9.727523159895402],["malg",-9.728201283179246],["Go",-9.730104782288308],["championnat",-9.730799443460953],["raconte",-9.73107905442906],["90",-9.731420760940104],["vaccin",-9.73225618829129],["Algérie",-9.732920427799787],["unité",-9.733277483005393],["frère",-9.73412811170723],["géant",-9.735057608728118],["isme",-9.735381953474327],["numéro",-9.735723664942109],["Van",-9.736679177687478],["engagement",-9.73784693937413],["lon",-9.738157829806294],["figure",-9.738323131290274],["énergétique",-9.739066407718385],["financier",-9.73910410421529],["198",-9.739399795854537],["débat",-9.739834470281613],["entraîneur",-9.74015938578163],["régulière",-9.74060186494964],["augmenter",-9.741792530233543],["approche",-9.742678986812727],["endant",-9.742962012674944],["Avant",-9.74316899472683],["consommation",-9.744261060008363],["croissance",-9.744315819747493],["contraire",-9.744411067571502],["épreuve",-9.745013205948743],["capable",-9.74617412379164],["actions",-9.747681571150503],["couleur",-9.747745540487795],["défi",-9.748244559185395],["appelle",-9.748644671743385],["quatrième",-9.74910399685459],["proposition",-9.749311978126462],["commission",-9.749466751110896],["perte",-9.750668300069734],["précédent",-9.751660171508657],["blessure",-9.75431079217925],["devien",-9.754613120292472],["vitesse",-9.754985707303558],["offrir",-9.755230643708597],["enregistré",-9.755572519830046],["institution",-9.75602158982462],["comprendre",-9.75658209919283],["rêve",-9.7572373748939],["balle",-9.757355630036422],["outre",-9.758118589798224],["instant",-9.758997815131256],["marche",-9.759493114745755],["andis",-9.761494176027938],["piste",-9.762190208329347],["reconnu",-9.762967416069039],["lancer",-9.763810171093613],["célèbre",-9.76450413554058],["organisé",-9.765990213620116],["financière",-9.767969377358096],["comité",-9.770103037451634],["participer",-9.773911229384275],["anti",-9.774270899430956],["compter",-9.775482462728455],["bilan",-9.777253318642096],["ions",-9.777820977269974],["vait",-9.778661099680033],["to",-9.779057222207442],["stade",-9.779106415705403],["John",-9.779855114333],["York",-9.779943846986011],["patron",-9.780467109672813],["placé",-9.780521845525941],["industrie",-9.780577885834234],["engagé",-9.781029679731233],["veille",-9.781503136643273],["so",-9.78250856044263],["aire",-9.783062249723095],["remise",-9.784031017876707],["moitié",-9.785225853640268],["intention",-9.786062722940123],["confian",-9.786512531135493],["limite",-9.786513294639729],["David",-9.786741573909989],["officiel",-9.78772939752003],["fut",-9.788752128647113],["évolution",-9.788933613180326],["revien",-9.790568078699168],["Du",-9.791095234913671],["absence",-9.791701357604673],["ser",-9.792436758486797],["Parm",-9.792910876831485],["ouest",-9.793245631556662],["pleine",-9.793513494981488],["Face",-9.795010438959558],["tendance",-9.796448638449604],["classe",-9.797068311040404],["ressource",-9.797341494993947],["prévue",-9.79750039039394],["porter",-9.797527675386128],["parcours",-9.798100272228119],["profiter",-9.798756657690989],["regard",-9.798888362418593],["oujou",-9.798973224461374],["travaille",-9.800326573971798],["Vladimir",-9.801048662012892],["mes",-9.80131856606231],["Al",-9.802242257190347],["obtenu",-9.803060835912301],["siège",-9.803452376519093],["élu",-9.803517137569772],["tension",-9.803545109225245],["Sénégal",-9.805954285979695],["sant",-9.806226265752501],["Assemblée",-9.806432886476916],["Martin",-9.80781338895785],["analyse",-9.80831780410308],["surprise",-9.809058918095635],["attente",-9.809648943498052],["pré",-9.810705815923438],["hauteur",-9.810860216478776],["stratégie",-9.81137154707027],["suivr",-9.811418351224784],["travailleur",-9.812241796730481],["esprit",-9.814595409812581],["Ben",-9.815907490919134],["fera",-9.81622359127121],["page",-9.817348585034548],["doi",-9.818454924463385],["station",-9.820755913556216],["durée",-9.82207016149532],["large",-9.823131785376969],["avis",-9.823726297119666],["conseiller",-9.824375466790286],["terminé",-9.824525266719645],["devra",-9.82539675823187],["comprend",-9.82600326510675],["arme",-9.827008252099462],["Président",-9.827248069982335],["2015",-9.827450183184055],["financement",-9.827528383389154],["menace",-9.827743493928772],["domicile",-9.827982254674842],["bande",-9.828369848984183],["classique",-9.828398773188226],["participation",-9.828554943033833],["quitter",-9.828624323783412],["détail",-9.829216199741762],["vis",-9.831421863741742],["quasi",-9.832901920503563],["scientifique",-9.83314488072861],["couple",-9.833518867590152],["réce",-9.833635485998546],["uis",-9.833971204858923],["forcé",-9.835338893459046],["envie",-9.835460389776777],["lusieur",-9.835546569328503],["structure",-9.837312686845532],["lor",-9.838919378537172],["Noël",-9.838964283849428],["ête",-9.840610608115762],["laisser",-9.841156971127088],["contenu",-9.841288730362233],["payer",-9.841751774755924],["san",-9.842319604647116],["blessé",-9.843741982383195],["sens",-9.844385098153719],["Nic",-9.844865601881466],["réaction",-9.845757394350032],["évidem",-9.846643605855842],["don",-9.84810520430009],["voisin",-9.848989010008426],["mbre",-9.849108329669125],["grève",-9.850806932528682],["300",-9.85112643317072],["catégorie",-9.852583898773297],["Trois",-9.85397900132983],["UE",-9.85409666859665],["lien",-9.854126611531772],["réduir",-9.856311629997371],["lance",-9.856719722096205],["téléphone",-9.857562319010615],["sport",-9.8576086748784],["arrière",-9.857944316953535],["nouvel",-9.858953065202572],["lumière",-9.85995793777679],["classement",-9.860467810191306],["souten",-9.861218261417827],["outil",-9.861463672857901],["Kie",-9.861709050779258],["attention",-9.861867058185211],["crime",-9.861909686437858],["discussion",-9.862351770726358],["restaurant",-9.86281615742337],["particip",-9.86321240580207],["troupe",-9.863977829422986],["terroriste",-9.864599487662378],["argement",-9.865001709209896],["proposé",-9.866404737050534],["197",-9.867625982042735],["procédure",-9.868094384419141],["attendu",-9.868568332638402],["Nation",-9.869583159935951],["asse",-9.870481507926208],["futur",-9.871842157264645],["extérieur",-9.872581558554081],["dispose",-9.873600951185566],["militant",-9.87401086110629],["chiffre",-9.874241888214678],["créé",-9.874459180514261],["man",-9.875605043554172],["Parti",-9.87583856075212],["note",-9.876975430204848],["ba",-9.876995923113526],["accè",-9.87732520741132],["Quant",-9.878746232043913],["%.",-9.878749978756773],["exercice",-9.879353360177824],["matériel",-9.882197598313509],["ns",-9.883016064505277],["île",-9.88326785444731],["importe",-9.884758605657582],["entendu",-9.885227152514236],["habitude",-9.885756023656166],["agression",-9.885936141225109],["tué",-9.886193208485867],["infrastructure",-9.886561882882951],["hôtel",-9.888085548194208],["chambre",-9.888686865766438],["prévenu",-9.889104829176222],["Sans",-9.889783637542092],["prévoi",-9.889802479806399],["local",-9.890002227292591],["plaisir",-9.890404611710448],["adversaire",-9.891547726500448],["importan",-9.892301654029078],["arriver",-9.892531543382047],["blanc",-9.892944943134435],["ferme",-9.89347608146097],["tenue",-9.895859961122508],["Commission",-9.896201744352876],["cha",-9.896332378777391],["complètement",-9.897425938039717],["dénonce",-9.898268703611969],["Entre",-9.898295389112967],["lié",-9.899121694093477],["met",-9.900456622745544],["univers",-9.90085519634987],["circuit",-9.90221121966469],["revanch",-9.902372127578387],["olympique",-9.902893995486979],["protéger",-9.903282168324985],["positif",-9.903506761905627],["accusation",-9.904191019086788],["Affaire",-9.904649587107244],["Pen",-9.906314947098442],["accueillir",-9.906803659728826],["faveur",-9.90860360079632],["via",-9.908757259913692],["installation",-9.908877579144107],["retraite",-9.909053411759901],["super",-9.909629942980889],["tentative",-9.90982568319606],["Charles",-9.91008887432411],["gen",-9.91265806790199],["sorte",-9.913494131314875],["Pro",-9.913826867843458],["enir",-9.914945232699443],["température",-9.915456503150779],["lettre",-9.91818245844993],["gré",-9.919419823689182],["réaliser",-9.920112797398549],["parquet",-9.923556039242355],["frappe",-9.92466137355066],["laissé",-9.925553964304918],["entendre",-9.926985308239074],["suspect",-9.92775904519107],["connaîtr",-9.92830593172908],["entend",-9.929080396073644],["us",-9.929217595070666],["principe",-9.929369930996707],["passant",-9.930035869584476],["issue",-9.93164863810124],["honneur",-9.931965007699802],["magasin",-9.93228070246392],["remis",-9.932370121419392],["réfugié",-9.932579851371809],["organisme",-9.932752796026875],["présenter",-9.934011406957953],["fi",-9.934363624324533],["professeur",-9.936776253027311],["aime",-9.938155296165899],["nation",-9.938895365939885],["disposition",-9.939296764593198],["individu",-9.939416791195516],["utilisation",-9.939994588220276],["effectué",-9.942048984824225],["chargé",-9.942987660022084],["75",-9.944773160047369],["traitement",-9.94603725473037],["référence",-9.946838760150829],["incident",-9.947110388600608],["cherche",-9.947176377400542],["able",-9.948169495329033],["ca",-9.948838441313864],["po",-9.94964204579879],["lle",-9.950418428551107],["gardien",-9.950819052145365],["performance",-9.952404431521519],["vacance",-9.952436212930865],["ccès",-9.9525962498874],["mo",-9.952679490997927],["amour",-9.954408306708496],["ave",-9.954736562212931],["poursuivi",-9.956046373315175],["Olivier",-9.956689411127225],["circulation",-9.95680814797529],["touche",-9.957975692765384],["actif",-9.95848826581008],["thème",-9.959463206671739],["TV",-9.95962412788712],["partage",-9.960766009013945],["montrer",-9.961282345852677],["africain",-9.96152171371374],["Philippe",-9.961764032317777],["liée",-9.96193955935975],["leader",-9.962478999055346],["rythme",-9.963039432014362],["majeur",-9.96320396162669],["blessés",-9.963279584728486],["procureur",-9.963327119624669],["ément",-9.964110363808924],["pilote",-9.964499995206438],["université",-9.964961263910052],["iers",-9.96661890729792],["déplacement",-9.970329644278937],["vision",-9.971209320413546],["ajouter",-9.971362788350465],["salarié",-9.975985926068077],["bois",-9.976276936768443],["Guinée",-9.97813725032597],["ouvrir",-9.978287309367197],["concerna",-9.978462366805951],["vais",-9.979017099112355],["frais",-9.979396491716962],["concert",-9.979645918555885],["potentiel",-9.980579895283427],["llement",-9.981125109108925],["Espagn",-9.98131145214735],["nou",-9.981563602642275],["abilité",-9.982216698364699],["participant",-9.983156293507934],["peur",-9.983728858261568],["erreur",-9.986129553360293],["lesquel",-9.986150453952401],["Mali",-9.9861919353092],["obligation",-9.988439703018823],["accueil",-9.989420262408423],["ier",-9.989525691161157],["offert",-9.989840240671839],["Marine",-9.989903892685579],["Genè",-9.990100724813816],["aéroport",-9.990172214580841],["Que",-9.990898667738442],["légère",-9.992429857401472],["visible",-9.99251841140263],["lancement",-9.992735848830865],["exposition",-9.993763658000452],["mené",-9.993822423051574],["démocratie",-9.994167324813123],["maximum",-9.994677246403942],["Amazon",-9.995158505385078],["Université",-9.99524974587384],["Tous",-9.995430244738834],["absolu",-9.99609545493751],["améliorer",-9.996490206522289],["Luc",-9.997538523117994],["défaite",-9.998794709660704],["faible",-9.999039351938332],["quelqu",-10.000456085424936],["phénomène",-10.00134947788112],["Aucun",-10.002404297711617],["réduction",-10.002820858650011],["anglais",-10.002829545552602],["fer",-10.007152820778153],["pétrole",-10.008199565694504],["réalisateur",-10.00842952037127],["commencer",-10.009254288421754],["relève",-10.009745550448566],["cible",-10.009786260904974],["Lorsqu",-10.010639922287428],["continu",-10.01069501471605],["mauvais",-10.011342823485386],["400",-10.012791163753327],["haute",-10.013646407200477],["nfin",-10.014192857209245],["hommage",-10.014487212725424],["essus",-10.015275710433123],["devoir",-10.015409396740655],["poursuivr",-10.015864872264338],["jou",-10.017851089853782],["allemand",-10.017961527661068],["touj",-10.018522078925095],["ulent",-10.019497525545102],["Qu",-10.019518278570306],["box",-10.020424540965172],["studio",-10.020837594515992],["producteur",-10.021225862386885],["civile",-10.022248516781385],["Beau",-10.023581256056373],["enseignant",-10.024539413304634],["chute",-10.024687698128643],["arbre",-10.026161054689151],["examen",-10.027230494914019],["Marie",-10.02723601317747],["consommateur",-10.027777450957228],["joue",-10.028177842319765],["pire",-10.029145464746495],["spectateur",-10.030164908200863],["32",-10.030584580889743],["sportif",-10.0316162674352],["reprendr",-10.03180130194901],["arrêter",-10.032542827432152],["alerte",-10.032876800221267],["Apple",-10.034464185424214],["audience",-10.035483012480423],["Canadien",-10.03691322036406],["augmenté",-10.037161195455997],["amis",-10.038828807359604],["demander",-10.040164855605363],["Mari",-10.041338220772877],["collectif",-10.041397985044377],["priorité",-10.041733851865608],["99",-10.042033315858198],["quel",-10.042898781413696],["agricole",-10.043288342907537],["essentiel",-10.043302059332582],["manche",-10.04349682879171],["Enfi",-10.045957053475458],["demeure",-10.046378879344415],["&",-10.047801273038498],["rencontré",-10.050584153537029],["quitté",-10.051604336691158],["Maison",-10.05196505426603],["suisse",-10.052360366092687],["sentiment",-10.053520818348847],["développer",-10.05462989156608],["voulu",-10.056637063069477],["post",-10.056948265225879],["barre",-10.057413039243517],["smartphone",-10.05749137386542],["envers",-10.057997602844889],["impression",-10.058612557890577],["défenseur",-10.060245599284627],["COVID",-10.06154718483208],["mar",-10.061639955100325],["collègue",-10.06191906377671],["ouloir",-10.061946550118682],["ami",-10.062734403394382],["interdit",-10.062768682204915],["comportement",-10.063411995733183],["permettra",-10.064101022583818],["manifestant",-10.064640819581523],["visage",-10.066709441050913],["pluie",-10.067024933736029],["durable",-10.067057030281074],["ien",-10.067191723492012],["dialogue",-10.06755065910221],["vice",-10.069157067328916],["vélo",-10.06928382847731],["précis",-10.071253583836528],["socia",-10.072213686363444],["précédente",-10.072936976026384],["puisse",-10.072946387589155],["FC",-10.073173427559086],["surface",-10.07370572139466],["Patric",-10.0757469472506],["33",-10.078017465379666],["climat",-10.080516139831172],["Ouest",-10.08093762635771],["spécialiste",-10.081454386869176],["Laurent",-10.081801875514255],["tenter",-10.0819824743726],["degré",-10.082569892102354],["2000",-10.082570323996762],["bras",-10.0841960031523],["constaté",-10.08465730571419],["Parlement",-10.084690641581147],["usine",-10.08547647072676],["ton",-10.085892873832817],["israélienne",-10.087249597214235],["Ni",-10.087465828878592],["résidence",-10.088791249839126],["refusé",-10.089407532958521],["candidature",-10.090583135918672],["journal",-10.090670964263541],["envoyé",-10.09298779689615],["ard",-10.093026617063273],["décédé",-10.094397525113862],["Italie",-10.09491649138648],["pourron",-10.095000594871626],["conservateur",-10.096207224030262],["identité",-10.097856019266608],["ashington",-10.097950035479396],["vos",-10.098280573644054],["permett",-10.098484032006024],["différence",-10.099568238084363],["Russe",-10.100486245361314],["ours",-10.101072666648037],["Ivoir",-10.101186644302278],["médaille",-10.103306477102556],["Royaume",-10.103964938846474],["collaboration",-10.104290091205218],["vienne",-10.104519316567572],["ON",-10.105834826378048],["installé",-10.106474730528449],["36",-10.107614188378768],["rappelé",-10.108555378682585],["sélection",-10.109838563475787],["changé",-10.110325824304859],["commis",-10.110350334868066],["w",-10.110909375678151],["prenne",-10.111078985800795],["gagné",-10.111436833284014],["connaissance",-10.111859779795523],["tenté",-10.111932298345495],["achete",-10.112274888690864],["assurance",-10.113602046251675],["ance",-10.114296920717909],["chercher",-10.11472106567541],["vit",-10.11482130919444],["connaît",-10.115510589656278],["missile",-10.11572120506283],["LR",-10.115952937828865],["lourd",-10.117331249727872],["préparer",-10.117447624394318],["Défen",-10.117639378669534],["souvenir",-10.117701431044445],["souhait",-10.118252678170954],["carburant",-10.11871144362748],["parlementaire",-10.118808916950039],["anim",-10.119724144837575],["dispositif",-10.120294862941758],["croir",-10.121039291515284],["onc",-10.122347238321918],["fini",-10.122446095909488],["réserve",-10.12411753414878],["professionnelle",-10.124170743800015],["démarche",-10.124288054991494],["ski",-10.12511312087273],["appui",-10.126064426792865],["vaccination",-10.126305080738508],["mainten",-10.126565602639513],["décennie",-10.126637403213113],["RT",-10.127015933314023],["visiteur",-10.12748611695298],["Nicola",-10.127763434995309],["appris",-10.127764367887597],["rejoindr",-10.12833921692648],["détention",-10.128365259490524],["attaquant",-10.129613543815388],["atelier",-10.129741290570497],["Ukrainien",-10.129839389042779],["tient",-10.129861162321966],["constat",-10.130845979981725],["scénario",-10.131704455235958],["héro",-10.132630859329435],["exploitation",-10.132696756357817],["directrice",-10.134996310054316],["canadien",-10.13657214266167],["allon",-10.136769712757957],["proposer",-10.13768679720188],["énorme",-10.138079428530872],["gamme",-10.138307780298053],["corona",-10.139548892611671],["supérieur",-10.140535428534282],["chantier",-10.14112248758553],["opportunité",-10.141161378652328],["Qatar",-10.141668510961939],["entier",-10.142275911275306],["devai",-10.143540443659894],["personnages",-10.144226424378278],["garder",-10.14603121328112],["Quelque",-10.146129736255201],["Netflix",-10.148243625129798],["Facebook",-10.148256741273453],["offensive",-10.148633748512044],["immeuble",-10.149013090356211],["tomber",-10.149085351637675],["constitue",-10.149327316073926],["vec",-10.149624557465868],["nécessité",-10.150229248874506],["livraison",-10.150375413469554],["construir",-10.150747011108063],["retrait",-10.151195818772633],["jeunesse",-10.152089675079523],["renforcer",-10.152213862513323],["Robert",-10.153559597254477],["tiré",-10.153822381813358],["réagi",-10.15533804124112],["retard",-10.155347788822517],["subi",-10.155488323138195],["métier",-10.155998785328858],["personnalité",-10.156025522905233],["éducati",-10.15611950689286],["concerné",-10.156133398047157],["55",-10.156665359148962],["émotion",-10.157557571463077],["ménage",-10.158064215867507],["34",-10.158470945935345],["échec",-10.159176682166674],["Tou",-10.159283101909066],["apporter",-10.160728025014485],["pe",-10.16115952746734],["menée",-10.162262454265235],["promotion",-10.164719208207],["trafic",-10.165300192955605],["jardin",-10.165834294791026],["change",-10.165994521576525],["législative",-10.166097340169408],["chanson",-10.166427748614085],["Vincent",-10.166982770992004],["mauvaise",-10.167036885838673],["réduit",-10.167324997087213],["ciel",-10.168067108689623],["Dan",-10.168412211950498],["stratégique",-10.168912328171405],["confirme",-10.170313806218056],["Fédération",-10.171149116569755],["Zelensky",-10.171174286555207],["mémoire",-10.17124287785354],["proximité",-10.171316761120057],["vendu",-10.171663131836482],["telle",-10.171738437086233],["partenariat",-10.173257873357393],["statut",-10.17483310283965],["penser",-10.175014873212733],["séance",-10.175392638339328],["recour",-10.17635892949335],["sondage",-10.176503453671618],["œ",-10.176504547934604],["mêmes",-10.176576494533336],["Anne",-10.178467037497683],["solidarité",-10.178621493980199],["repris",-10.178674370750272],["battu",-10.17968389156008],["armé",-10.179735084803344],["tarif",-10.180002992198771],["lever",-10.183487074642143],["star",-10.184500108564517],["sexuelle",-10.185460478849288],["perdre",-10.185556073287747],["possède",-10.186782791316285],["médicament",-10.187074784786715],["organisateur",-10.187180356415823],["impôt",-10.187552643397979],["naissance",-10.188114597388516],["vécu",-10.188164535972625],["venue",-10.18860980033049],["FA",-10.189401624950602],["trimestre",-10.189942332920314],["Claude",-10.190731338224658],["res",-10.19152020171617],["Parc",-10.191794305802695],["ie",-10.191856129774141],["chercheur",-10.192685690221552],["considéré",-10.192826932841657],["billet",-10.193632061480056],["complexe",-10.19403811223101],["Donc",-10.194234012574672],["montré",-10.194252844252905],["û",-10.19483700137069],["utilisateur",-10.19593155909962],["efficace",-10.195993971412339],["logique",-10.197640727950375],["Iran",-10.199399458098302],["te",-10.199964832547629],["défendr",-10.20274021512849],["cabinet",-10.203368190506808],["coopération",-10.203615225823619],["affronter",-10.204317849318684],["neige",-10.205363690265386],["divers",-10.20569770543246],["camion",-10.206004110495744],["pénurie",-10.206127460106073],["moindre",-10.206769743375444],["israélien",-10.20689726960314],["chaleur",-10.207575307930417],["rare",-10.20869439173914],["adjoint",-10.210895667750847],["soutenu",-10.211364620203462],["servir",-10.21238818765101],["dépense",-10.212917452855983],["entraînement",-10.21415643133421],["installer",-10.214227056235327],["normale",-10.215103237333292],["éta",-10.215261539906422],["signe",-10.215689970262137],["violent",-10.215690224823192],["cel",-10.216936797324964],["poi",-10.217169407594469],["régional",-10.21759040020714],["jugé",-10.217683149686135],["pprovisionnement",-10.218347595000104],["usage",-10.219059978313009],["exprimé",-10.220429469231942],["caméra",-10.220858205520752],["rue",-10.221789027236888],["électorale",-10.22216525699292],["nommé",-10.222936137097818],["adresse",-10.223306627223334],["ain",-10.223371456133618],["pauvre",-10.225003904666636],["pièce",-10.225578917396057],["fermé",-10.226079064952105],["réelle",-10.22675731691168],["conducteur",-10.226945532454906],["pièces",-10.228269990158427],["rentrée",-10.228944002556553],["coalition",-10.229000558474754],["vivant",-10.229076667955212],["détenu",-10.229965783434693],["trava",-10.229998864963687],["fans",-10.23022904615061],["commande",-10.231078852069595],["tombé",-10.232963096082301],["témoin",-10.23298064275263],["lancée",-10.234717708505892],["aérienne",-10.234919611635245],["garçon",-10.234926447248881],["hockey",-10.235010313343679],["chinois",-10.235121172446927],["cinquième",-10.235286137512972],["tâche",-10.235382862517262],["théâtre",-10.235464489276552],["organisée",-10.237247471183506],["instance",-10.23751318918085],["mains",-10.237621278697251],["Eric",-10.23818060375229],["Puis",-10.238620326526739],["code",-10.239212242492705],["For",-10.239537520635672],["adulte",-10.239553226562666],["excellent",-10.241676466513871],["li",-10.241894749436629],["vise",-10.243087020402719],["talent",-10.243254308642486],["Première",-10.243598385509028],["ri",-10.243599209073892],["restriction",-10.243942011677113],["Institut",-10.243962099515358],["athlète",-10.244780388599573],["album",-10.24506259165019],["découvert",-10.245149989496916],["jaune",-10.245722858102866],["chien",-10.245961513093954],["musée",-10.24708107187691],["efficac",-10.247081356308211],["mond",-10.247721867936646],["crois",-10.24896093354075],["utilise",-10.249002114955967],["masque",-10.249324867159125],["ennemi",-10.249724860743907],["humanitaire",-10.251516771840398],["fermeture",-10.25157978101598],["planète",-10.251829856512945],["prime",-10.25184554221542],["présidence",-10.252427136294212],["expliquer",-10.252711580545665],["oute",-10.253908137789377],["II",-10.253997753055327],["inter",-10.254107815649913],["Éri",-10.255592329986385],["pro",-10.255928941373352],["front",-10.256439727187576],["bénéfice",-10.256660434143171],["ène",-10.258196719130337],["fuite",-10.25861010653094],["volontaire",-10.259289209023247],["San",-10.259483495862813],["papier",-10.260386649047067],["incroyable",-10.260826417239166],["00",-10.261524833731583],["ambition",-10.26154854362278],["37",-10.262535565055057],["ég",-10.263260823306641],["régionale",-10.264188274155543],["photos",-10.26422144281209],["différent",-10.265633348559385],["devron",-10.267706957529498],["Luxembourg",-10.2683572528207],["Comment",-10.268449208439936],["échelle",-10.26930040108249],["délégation",-10.27099920823321],["révélé",-10.271013349262075],["accessible",-10.271604482106913],["auron",-10.271950430733341],["Otan",-10.272754664544],["Joe",-10.273419372232595],["établi",-10.273514301041798],["connue",-10.27450037471986],["variant",-10.27540459728306],["trouvai",-10.275502672241078],["Festival",-10.2770068035732],["War",-10.278265781649978],["console",-10.278322599665316],["partisan",-10.278627527098246],["publication",-10.279041881984554],["soleil",-10.279296029937793],["évoqué",-10.279583463769912],["̀",-10.279962375049719],["oublier",-10.280008165805665],["normal",-10.280320833784714],["naturel",-10.282024489770318],["Américain",-10.282380612173688],["49",-10.282837566021367],["taille",-10.283265109266278],["résident",-10.283619583757648],["38",-10.285331482497579],["tourner",-10.28590444487028],["Association",-10.285905126966114],["resté",-10.286284549522893],["indépendance",-10.28661246644398],["champ",-10.287936240225113],["finance",-10.287940735709453],["ouvre",-10.288121090099674],["score",-10.289198273835908],["remettr",-10.289235630569907],["impossible",-10.289453575694779],["Bo",-10.289678452269243],["fruit",-10.289819267326656],["diplomatique",-10.289859239478165],["séjour",-10.290889629822093],["totale",-10.291473146639026],["âgée",-10.29314095439496],["Fond",-10.29334248075884],["accompagné",-10.293373296012692],["solide",-10.293735485723294],["promis",-10.294497211943042],["choisir",-10.295024841110614],["portée",-10.295679723059472],["déposé",-10.297056153577833],["urs",-10.29770441169434],["distance",-10.298191699640272],["automn",-10.299682636467114],["explosion",-10.300790616352362],["ague",-10.300967590324547],["exception",-10.302405020963231],["pose",-10.30268792917185],["dynamique",-10.303394330194095],["réalisation",-10.303691966939434],["foule",-10.303781925726888],["Banque",-10.304858220417081],["privée",-10.305242588670664],["portant",-10.305588344944503],["allié",-10.305872242090494],["battre",-10.306181569845126],["Oui",-10.307231154584015],["immense",-10.308270493369061],["écart",-10.308443959323402],["Qui",-10.309064117076453],["com",-10.30930713266881],["nove",-10.309901633969893],["DG",-10.309918112635682],["favorable",-10.31155206296862],["bénéficier",-10.311586091445852],["perspective",-10.312050682812258],["obligatoire",-10.3122724305603],["paiement",-10.313441124108365],["radio",-10.313963251085777],["partager",-10.314140756043777],["développé",-10.317233735497926],["municipal",-10.317586678188157],["di",-10.317834934948687],["performances",-10.31813297250001],["humaine",-10.318349893814679],["quinz",-10.318453890044307],["eu",-10.31876040829868],["chasse",-10.318926622276942],["maintien",-10.319663846170634],["concour",-10.31966681936267],["tirer",-10.319687547238379],["influence",-10.320623513226375],["forêt",-10.320879760846537],["équipement",-10.321436775727946],["mobile",-10.32212509929341],["roman",-10.322592906551304],["anniversaire",-10.32304491879447],["apprendre",-10.323520724539804],["Agenc",-10.323910500926992],["compétence",-10.324226731895095],["ONG",-10.325165494239867],["iège",-10.326639663839297],["espèce",-10.326874963770631],["gérer",-10.328463184245695],["Pays",-10.328954055452886],["tombe",-10.32909208213476],["recette",-10.329249002846938],["supporter",-10.329692967485471],["Stéphan",-10.329824558900794],["suffi",-10.329833536941258],["essence",-10.330338682650272],["Jusqu",-10.330347953294863],["spéciale",-10.330470881850363],["reine",-10.330581163095172],["canadienne",-10.331141762007196],["Autre",-10.331439249106747],["qualifié",-10.331739813559905],["animation",-10.331884138670452],["surpris",-10.331977526066485],["écrir",-10.332057696020087],["passion",-10.33222221527562],["similaire",-10.332608778858145],["196",-10.332855480699537],["récent",-10.333426677952303],["récente",-10.3334623117214],["intéressant",-10.333546834340282],["passager",-10.334326742557332],["montagne",-10.334513989992807],["rejoint",-10.334530535688081],["moteur",-10.334670530931188],["secondaire",-10.335208375687799],["concurrence",-10.336298233688893],["crédit",-10.336763903690166],["immédiate",-10.339166586649629],["ées",-10.33945376786096],["établir",-10.3398259454356],["signifie",-10.339873581497503],["amateur",-10.339930813315984],["découverte",-10.34010408182091],["adopté",-10.340162193094779],["ique",-10.341161300412026],["respecter",-10.342741028714215],["Québécois",-10.342882577979832],["Star",-10.344611517564765],["style",-10.345456777103546],["Pa",-10.345633034686964],["Jacque",-10.347547632489317],["choc",-10.348102726637851],["qualification",-10.348270840279989],["colère",-10.34829634888085],["drame",-10.348534000591187],["écol",-10.348675811529372],["municipalité",-10.349222102657553],["immédiat",-10.349466340333112],["autr",-10.34957863534106],["destination",-10.350350309136896],["Celle",-10.350988961229302],["Burkina",-10.35106453827831],["ung",-10.351151605587727],["récit",-10.351164334620712],["attentat",-10.351762974920256],["roi",-10.352308092361465],["as",-10.352917096052124],["rassemblement",-10.353459051247942],["goût",-10.35367385898456],["entrer",-10.355637112375208],["directe",-10.355746702796907],["navire",-10.355952897615238],["confié",-10.356085694017887],["bio",-10.356108375906803],["micro",-10.356111786315264],["agissai",-10.356278511186165],["opérateur",-10.357939919882455],["quantité",-10.35806832137364],["témoignage",-10.359083797593271],["artistique",-10.35943163482803],["déclare",-10.359486040793268],["48",-10.359718314932746],["industriel",-10.360500953448614],["Mo",-10.361688272368111],["Mont",-10.361936635750087],["marge",-10.362650665598037],["Goo",-10.363348805527853],["facture",-10.36341310760902],["tr",-10.364684502248505],["égard",-10.365000026214275],["située",-10.365969203164756],["continent",-10.36622569041108],["diversité",-10.366396640175882],["enseignement",-10.366572618143557],["présentation",-10.367833848992408],["exécutif",-10.368618440843019],["bi",-10.369382914580843],["auto",-10.370191326021278],["Alexandr",-10.37069921433547],["dénoncé",-10.370760396728375],["multiple",-10.370797062090322],["fournir",-10.3713423706836],["accepté",-10.37134696502329],["fondateur",-10.371675867083763],["socialiste",-10.371836551834196],["étoile",-10.37282276107199],["150",-10.373456890398236],["ck",-10.373882536108367],["réussite",-10.375573130544591],["circonstance",-10.376305442703204],["cation",-10.37672652153682],["quête",-10.376744586547641],["appartement",-10.377435458975686],["isation",-10.377547626728331],["Brun",-10.377561086380563],["accompagner",-10.377662366316487],["volet",-10.37806125821221],["Christian",-10.378257849805212],["Man",-10.378574666235497],["43",-10.378722051967337],["complet",-10.379092134884573],["Bre",-10.379678462041653],["conduit",-10.379768706739796],["métrage",-10.380488209648837],["sang",-10.381049213858493],["Su",-10.381174681305138],["profond",-10.38124583597865],["imposer",-10.382854034245792],["Val",-10.382942569409206],["souci",-10.383057139093683],["ver",-10.383622459711908],["pouce",-10.384760814299197],["séquence",-10.385281101225857],["ologne",-10.385676502703484],["francophone",-10.386130159661864],["capitaine",-10.386159855275206],["fournisseur",-10.386239716388557],["prestation",-10.386262755067651],["alité",-10.386743460706892],["rapid",-10.387101608446383],["partis",-10.38761131206331],["déroule",-10.38794933263214],["mineur",-10.388327045542212],["expression",-10.38866100056251],["sensible",-10.38879583830808],["meurtre",-10.391618754110166],["ault",-10.391743102537163],["complète",-10.39287771909742],["Valérie",-10.393442973658285],["lus",-10.393568288672736],["Moham",-10.393610102046186],["grosse",-10.394194834990884],["dose",-10.394842374498474],["bar",-10.394915197788642],["Justice",-10.39563980467586],["égalité",-10.395805714563716],["télé",-10.396023656665452],["résolution",-10.396556459612121],["doigt",-10.397105015284005],["George",-10.397140147574728],["coin",-10.39714795318655],["sauver",-10.397623879798118],["temporaire",-10.397764769708871],["ambiance",-10.398091763873982],["concept",-10.398234056331168],["électeur",-10.399165461577342],["dédié",-10.400225349320621],["clé",-10.400397548925277],["sol",-10.40045752335315],["simpl",-10.400833927928256],["ex",-10.401053163934598],["ge",-10.401223100711036],["secret",-10.401236327843524],["tte",-10.401754789383759],["science",-10.402121336141505],["composé",-10.402388014308423],["rest",-10.403276649071845],["ballon",-10.403539988124512],["devenue",-10.404490666773162],["cancer",-10.404594483930072],["aix",-10.40473446394074],["mari",-10.404777117222928],["Simon",-10.405266614998423],["interdiction",-10.405853251950887],["Non",-10.405891310130427],["Grâce",-10.40602656171588],["limiter",-10.406301649794063],["spécial",-10.407626936129201],["Krem",-10.408003369777399],["eaux",-10.408251571557063],["47",-10.408302771299306],["adaptation",-10.408382808496324],["‘",-10.408776251321328],["sœur",-10.409237543960689],["spécifique",-10.40939943447088],["provoqué",-10.409422602493258],["amende",-10.410193638338605],["Thomas",-10.41023641902508],["tonne",-10.410811883773006],["ajout",-10.411247426324714],["con",-10.412291923992086],["Co",-10.412759287581187],["bataille",-10.412918757255962],["automobile",-10.413553862000377],["personnelle",-10.413671440232378],["dommage",-10.4138020450805],["Cameroun",-10.414709746007052],["gratuit",-10.414865132838056],["coupable",-10.41561115757759],["immobilier",-10.415906160420377],["vérité",-10.415990551803452],["frappé",-10.416265932111493],["monter",-10.416705777638402],["Prix",-10.417218500000558],["sportive",-10.418781700586315],["ordinateur",-10.418798016627257],["faux",-10.418955413273093],["Ha",-10.419458637349175],["fixé",-10.41947071006632],["lecture",-10.420161343074625],["central",-10.420305403802098],["sourire",-10.420618519883636],["ine",-10.420810335185513],["abonné",-10.421204916925458],["44",-10.422248847001747],["finir",-10.423824890188445],["interview",-10.42394089035749],["André",-10.424489866546535],["Tunisie",-10.424625729928149],["propriété",-10.424662101635892],["pierre",-10.424745332765724],["bleu",-10.424809872368236],["vainqueur",-10.42483627208598],["mobilisation",-10.424880042777506],["témoigne",-10.425864734395185],["actrice",-10.426991743506768],["accéder",-10.428016186040182],["65",-10.429217800238824],["diffusé",-10.42991195512392],["Mar",-10.431768130015708],["Nouvelle",-10.431775696986492],["facteur",-10.43202942313022],["invite",-10.432048716218453],["tier",-10.43385545804991],["Voic",-10.434125248546566],["malheureuse",-10.434132657608938],["organiser",-10.43439696128253],["juridique",-10.43468956387206],["gouverneur",-10.434990905513274],["grâ",-10.435415925855281],["évènement",-10.43568068611706],["réuni",-10.436739281121689],["dépôt",-10.436909505631316],["capital",-10.437424876823908],["causé",-10.438111051443894],["isent",-10.438452593770707],["froid",-10.438658816543606],["travaillé",-10.439158195093341],["rapporté",-10.439203621352558],["préparation",-10.43968928778597],["filet",-10.439701339788858],["défaut",-10.440425315340681],["côte",-10.440837061626766],["aspect",-10.440855272721555],["Occident",-10.441037869242999],["Peu",-10.44118726988031],["essentielle",-10.441634405637389],["évoque",-10.443024227775652],["palais",-10.44307710760666],["imposé",-10.44333026795697],["étage",-10.443983384589055],["Red",-10.444346046006338],["Terre",-10.444566771339097],["fais",-10.444617943196096],["batterie",-10.444800764807997],["migrant",-10.444850678446443],["ball",-10.44486028610519],["circonscription",-10.444869865811357],["Japon",-10.446048026476062],["emmour",-10.446112770131837],["écologique",-10.446201192406694],["Gabon",-10.446367840543015],["conscience",-10.446497180694358],["parfaitement",-10.446816657361058],["800",-10.447320456027697],["Australie",-10.447352650366216],["fédérale",-10.448120568545459],["déterminer",-10.448326905407392],["massive",-10.448550627757058],["euro",-10.449579631228435],["définitive",-10.449686210997124],["infection",-10.450061119046502],["convainc",-10.451377678080686],["Air",-10.45139162489434],["norme",-10.451411068700274],["600",-10.452332176811849],["drapeau",-10.452701796968011],["passée",-10.452732463266731],["malade",-10.453390695617244],["Ba",-10.453560475593157],["livré",-10.453818053833874],["surveillan",-10.454667064937224],["Denis",-10.454682094373315],["algérien",-10.454815826168534],["promesse",-10.455241845283656],["révèle",-10.455307012963125],["récupérer",-10.45559927801799],["originaire",-10.456256309909357],["rencontrer",-10.456427971202398],["machine",-10.456515751525943],["décide",-10.456679678263765],["télévision",-10.456884554269571],["mobilité",-10.457275775092675],["vaut",-10.457278444925393],["saisi",-10.457495200256925],["fermer",-10.458902693169067],["bus",-10.459024011608642],["compliqué",-10.46132336319735],["plage",-10.461679694112732],["écrivain",-10.462312531370099],["animal",-10.462712647397527],["contribu",-10.464936232825853],["utile",-10.465163341662677],["destiné",-10.465207706629624],["collective",-10.465232280942221],["Macky",-10.465393170920455],["calendrier",-10.465526127679379],["Chambre",-10.466542339525628],["église",-10.466736303398793],["dégât",-10.466785749478145],["néan",-10.466794135235444],["investisseur",-10.466852247262645],["affrontement",-10.46736286997491],["démocratique",-10.468501278948276],["quotidienne",-10.46885289647807],["nnée",-10.469333441483068],["signature",-10.470154876173574],["profil",-10.470473255891822],["gar",-10.470734610710558],["locau",-10.473201668112145],["Rouge",-10.473280313691387],["Re",-10.475205873750976],["foyer",-10.47628410481315],["enjeu",-10.476289654109769],["patrimoine",-10.476852551569397],["localité",-10.477194005493319],["suivant",-10.477231217366427],["dévoilé",-10.477577526107726],["coach",-10.47788606144524],["culturel",-10.478145788539896],["analyste",-10.478667153720659],["aut",-10.47870051479613],["puissant",-10.478806153361905],["noter",-10.47933666350408],["Jo",-10.479937312601628],["produir",-10.480145742265188],["transfert",-10.480440142237278],["ièrement",-10.480697163234982],["US",-10.480804390761762],["Outre",-10.481073958526814],["annuel",-10.48122758603423],["bateau",-10.481536266658843],["syndicats",-10.481756405213643],["existence",-10.48234126584643],["recul",-10.483100218986358],["ombre",-10.48323613937004],["entière",-10.483291826008632],["pensai",-10.483645205535385],["of",-10.485091572168553],["canton",-10.485729728165479],["active",-10.485757045177913],["National",-10.485964793247312],["disparu",-10.486050854624626],["considère",-10.486318063002766],["Intérieur",-10.486496591989916],["vendre",-10.48653218684276],["conclusion",-10.486700277921358],["Ki",-10.487110218696928],["épouse",-10.48758881541323],["mairie",-10.487703657497276],["collection",-10.488020408707339],["distribution",-10.488247804500137],["mène",-10.488316265184746],["amélioration",-10.488506410129599],["formule",-10.489284008740505],["Sall",-10.489382812451066],["iste",-10.489742948694275],["réel",-10.490348808621874],["détruit",-10.490596137625197],["nomination",-10.490946025621117],["accueilli",-10.49094730287943],["heur",-10.491755285545942],["Play",-10.492547485119527],["occupe",-10.49285212122383],["awa",-10.494574660458275],["Haut",-10.495086966758048],["saga",-10.495760841319168],["formé",-10.496402366522627],["ultra",-10.49646129465022],["évaluation",-10.49732860071805],["apporté",-10.497576358479282],["primaire",-10.49782189417656],["concurrent",-10.497974429552688],["calme",-10.498259686284268],["refus",-10.498379957487451],["concern",-10.49840481080853],["jam",-10.499857938196177],["marocain",-10.50154343208165],["parlé",-10.502098906271286],["minim",-10.502119754197114],["issu",-10.502254797789025],["pouv",-10.50269994439628],["réjoui",-10.502922028966807],["Daniel",-10.50302539836013],["faute",-10.503713700400084],["cuisine",-10.504304617580544],["ins",-10.505967748463055],["bruit",-10.506653273770684],["agir",-10.506906612999463],["investir",-10.507116245596363],["riche",-10.50714605750721],["Service",-10.508421837469978],["bénévole",-10.508715076958804],["parfait",-10.50908659111334],["essayer",-10.510514304346419],["claire",-10.510520185225293],["Bas",-10.511129740883145],["So",-10.511471958645426],["St",-10.5124821547482],["ambassadeur",-10.512854856791368],["naturelle",-10.513684366302755],["règlement",-10.513979929872466],["foi",-10.515072735250325],["sortant",-10.51582267782355],["Ro",-10.516313557365297],["trouble",-10.516532467888627],["tent",-10.517651373086128],["souhaité",-10.51792669459833],["Corée",-10.51824250230607],["tienne",-10.518867183098445],["confinement",-10.518957304808936],["portable",-10.519101717490418],["64",-10.519115761168617],["interpellé",-10.520640182027787],["arrestation",-10.521075333505223],["instruction",-10.521515808658599],["déchet",-10.522100729890525],["adolescent",-10.523829831749206],["préfère",-10.52448479266422],["explication",-10.52511571927814],["africaine",-10.52554825437267],["tournée",-10.526423170955418],["méthode",-10.52651642990413],["accuse",-10.526697045807996],["micron",-10.528132348783842],["griculture",-10.528158085705911],["voyageur",-10.528952319346097],["délai",-10.52947516919814],["caractère",-10.529566049255724],["préoccupation",-10.529607432727243],["1000",-10.529710149953655],["opinion",-10.529972781567679],["traité",-10.530602269661536],["entrepreneur",-10.530689694570277],["islamique",-10.530690623546397],["commentaire",-10.530869170797661],["considérable",-10.531045743001776],["dirigé",-10.531145048352148],["content",-10.531543878886119],["pêche",-10.533121411090928],["vigue",-10.535487674876197],["marquer",-10.535930112469682],["habitation",-10.536279490147898],["Turqu",-10.537591569395014],["insist",-10.538327192565998],["59",-10.53895645927581],["fallu",-10.539012424321111],["syndicat",-10.540389795464158],["Disney",-10.540588996948806],["glace",-10.540925533120909],["réflexion",-10.541293198987056],["informatique",-10.541901571093504],["42",-10.542065248174508],["anné",-10.542320243565733],["statistique",-10.543527460640703],["montée",-10.543769605685469],["To",-10.54423067350725],["gare",-10.544485703088878],["tradition",-10.54453985388659],["dé",-10.54469933353609],["associé",-10.544998376967518],["libération",-10.546910888649338],["Sport",-10.547039626606333],["mettant",-10.547086299215671],["Franc",-10.547874924098908],["gain",-10.549022724382972],["taxe",-10.549736073284851],["drogue",-10.55031664690252],["marchés",-10.551091951212669],["pu",-10.551758808040585],["fidèle",-10.551845635136043],["électronique",-10.551901302316374],["mariage",-10.552101305295121],["ouvrage",-10.552156028240809],["élenchon",-10.552210408666424],["inquiète",-10.552584890221615],["effectuer",-10.553276775255178],["isant",-10.553430923435613],["dev",-10.553690433846795],["ière",-10.553825293214036],["fonctionnement",-10.553870104570237],["justement",-10.55431397136551],["prévision",-10.55463692882435],["présidente",-10.554687241123528],["poser",-10.555567238257282],["oix",-10.55686374911304],["Seul",-10.557672720595338],["catastrophe",-10.558009906929355],["vant",-10.558625421621844],["division",-10.560217551541015],["tennis",-10.561877810658357],["Lausann",-10.562832200699352],["intéresse",-10.562876791070057],["soft",-10.56321098433142],["Guerre",-10.563643282838974],["identifié",-10.563803217436707],["regarder",-10.563861304339259],["souvien",-10.564186620653611],["Sams",-10.564362390618932],["Richard",-10.56473911284227],["ntendo",-10.565885491721394],["automatique",-10.566106195241522],["posé",-10.566716075644347],["intégr",-10.567025515710572],["mont",-10.567079863649434],["commercial",-10.567767094944376],["préfet",-10.567813942452904],["pause",-10.567840879012191],["scrutin",-10.568079327334711],["menaces",-10.568197408027881],["gagne",-10.56874343999025],["indépendant",-10.568827176174846],["Leur",-10.568876692593005],["enseigne",-10.56897089530985],["ite",-10.56902374123294],["Voil",-10.569035550272442],["déplore",-10.569333339458858],["Open",-10.56973501182663],["familiale",-10.57129362514352],["fonctionne",-10.571448262677656],["stock",-10.572062259926298],["éventuelle",-10.572976235430819],["von",-10.573318554037597],["poursuite",-10.573913031422684],["levée",-10.574079347685368],["62",-10.574538403177666],["quarantaine",-10.574703218747818],["Amérique",-10.574754964214225],["bonheur",-10.575074195770458],["podium",-10.57511609204328],["opposant",-10.575319013763064],["Nouveau",-10.575524626442066],["Aux",-10.575593378808424],["apparition",-10.575873857939605],["écriture",-10.575904365407915],["indice",-10.575912581244348],["maître",-10.576314596846597],["partagé",-10.577414650646187],["session",-10.578886505282753],["tableau",-10.579375919604805],["solidaire",-10.579447983118511],["Se",-10.57946787328327],["mérite",-10.579680285379046],["empêcher",-10.580271914132592],["emain",-10.580602735358958],["fier",-10.581308606358803],["Fas",-10.581647291778655],["opposé",-10.58168975304455],["auquel",-10.58173733530598],["élevée",-10.581778761846689],["ème",-10.581969170340525],["Bernard",-10.58201593625212],["alternative",-10.582121358030529],["volume",-10.58303263810091],["occupé",-10.583739501755801],["term",-10.584176883727526],["communautaire",-10.586516632663788],["Marseill",-10.586844066432525],["Alpe",-10.586909739830455],["décret",-10.588240198686922],["automobiliste",-10.588511266922069],["Super",-10.588641458658126],["constructeur",-10.589088690138144],["tempête",-10.589451715409696],["intégrer",-10.589657809431067],["demand",-10.590047767703478],["secour",-10.59019883430426],["Phon",-10.590941531723633],["(+",-10.59103176694253],["blanche",-10.59201260156275],["Cet",-10.593589547515649],["eth",-10.594243692381083],["lo",-10.594876926152965],["Yve",-10.594879048142005],["Bi",-10.595070266606895],["Syrie",-10.59609455240667],["signalé",-10.596214467878838],["manqué",-10.597109727589864],["relevé",-10.597157215714976],["Vi",-10.598049001603467],["huitième",-10.59810328141598],["gendarme",-10.598140703230477],["41",-10.598718979812173],["construit",-10.599335660545474],["Ott",-10.599404538735438],["City",-10.599491721532434],["confie",-10.599911447097366],["ley",-10.599998684494025],["déployé",-10.602158187513044],["h30",-10.603414973953228],["urtou",-10.603778273664222],["démontre",-10.603906650397168],["voter",-10.604172703185673],["lourde",-10.604180870846104],["top",-10.605684316340545],["ixième",-10.605694299817994],[".”",-10.605771462523508],["annuelle",-10.607349999639947],["abri",-10.607479535111807],["250",-10.607721691518249],["Dieu",-10.607879313864679],["débuté",-10.608214922128493],["café",-10.608530195283883],["Mondial",-10.608536611561709],["accordé",-10.60860653598137],["MR",-10.608644277097186],["ni",-10.608988803115125],["excuse",-10.609367652746993],["terminer",-10.609512731661148],["Monaco",-10.61001064921329],["Musk",-10.61009109435932],["Comité",-10.61021658579648],["enquêteur",-10.61051486061428],["disparition",-10.610696866256681],["procédé",-10.610961945277001],["innovation",-10.611083362687491],["prendra",-10.611727433385852],["positive",-10.611806564017229],["adapté",-10.611899599113801],["acquisition",-10.612282514880722],["pass",-10.613220010112695],["municipale",-10.613880865619691],["actualité",-10.61433135016691],["décrit",-10.615209358539524],["inverse",-10.615320558152593],["intense",-10.61613465575645],["récolte",-10.61694942111769],["banc",-10.617801760434705],["Christophe",-10.618233415668264],["précision",-10.618633153397134],["maman",-10.619689060403692],["autorisé",-10.620038505344962],["vaste",-10.621026850446274],["ronde",-10.621279459265716],["intéressé",-10.622132692487554],["plastique",-10.622215076927684],["avortement",-10.62372146620763],["sou",-10.623825547779063],["Frédéric",-10.623895050754722],["augmente",-10.624211533001233],["vide",-10.624277015591609],["contraint",-10.624381752979284],["iens",-10.62449365594231],["ultime",-10.625473216981305],["bloc",-10.62572955415429],["présentée",-10.626387721299263],["allant",-10.626737976432604],["croit",-10.62713455060918],["couverture",-10.62728313581631],["lie",-10.627740892916517],["aérien",-10.628565186419543],["Haute",-10.6298953982906],["averti",-10.63023378156143],["Black",-10.630567993890377],["viol",-10.631208533959091],["plateau",-10.631992899393872],["communal",-10.632766924635288],["Petit",-10.634242789660686],["humanité",-10.634431068404549],["Alex",-10.634486693062435],["bombardement",-10.634551372989758],["remporter",-10.63471229411696],["oup",-10.635717195950757],["Mario",-10.635906180721502],["Angle",-10.636042825022262],["salon",-10.636173963305275],["alcool",-10.636718086245612],["épidémie",-10.6381368181656],["juif",-10.638376316806786],["fai",-10.63848229923284],["féminin",-10.639070369741066],["Me",-10.639702526790192],["carré",-10.640139528403257],["commerçant",-10.64029254264576],["réalisée",-10.640639053449272],["horizon",-10.641736655044522],["sacré",-10.642336660990015],["décor",-10.643093251959602],["exceptionnelle",-10.643112463861979],["quitte",-10.64358580984409],["cheffe",-10.644347901465135],["office",-10.645057914439114],["vêtement",-10.645391271723135],["marin",-10.645405007743172],["majeure",-10.646060060543508],["Dakar",-10.646635122543582],["Merci",-10.64709737884175],["Photo",-10.647150285091735],["contribution",-10.647172082852986],["effectif",-10.647750571063746],["confronté",-10.647847791071637],["collecte",-10.647980168834458],["autorisation",-10.648928089314992],["suspendu",-10.649356449000134],["constate",-10.650225086125204],["reconnaissance",-10.650268592362238],["perd",-10.650287590268341],["oin",-10.650420170677183],["nombr",-10.650805673900972],["apprend",-10.65182475582023],["ro",-10.653200591088883],["viv",-10.653244074446821],["défend",-10.654148094758273],["ncor",-10.654455494214693],["adapter",-10.654682260128173],["Finance",-10.654857075745419],["baisser",-10.655204756268166],["québécois",-10.655850220908553],["présumé",-10.656557006505391],["Don",-10.656749006817204],["rement",-10.657783587749845],["impliqué",-10.657853335296632],["pouvant",-10.65908234108981],["bébé",-10.659086958093985],["magnifique",-10.659150672296178],["Madri",-10.65918941724429],["chaud",-10.659902234146493],["Angel",-10.659947587823423],["négatif",-10.66002569162413],["château",-10.660421943316276],["bruxellois",-10.662595106337587],["autonomi",-10.66281946691744],["Justin",-10.663299258038876],["magistrat",-10.663348288547878],["convaincu",-10.663518008452769],["avancé",-10.6640372964658],["comm",-10.664056457760381],["lu",-10.665212156984751],["rie",-10.666326204754736],["léger",-10.666480897971496],["Tom",-10.667020628469164],["défis",-10.6675410197616],["Région",-10.668186241924836],["respective",-10.669632129371605],["servi",-10.670101642866785],["Ali",-10.670164014973835],["investi",-10.67049884845023],["46",-10.670539788236855],["Maxim",-10.671353589964784],["uprême",-10.671354815364364],["impose",-10.672034431315748],["entré",-10.672723971299195],["bel",-10.672835119130362],["54",-10.672892176991596],["avancée",-10.673551134933799],["profondeur",-10.673673815152803],["Lyon",-10.674055713207002],["Duran",-10.675690354091891],["arrondissement",-10.675878054461684],["Wi",-10.676003079641404],["era",-10.676166417132592],["lycée",-10.676504063491567],["85",-10.676512933297014],["52",-10.676991496290222],["rumeur",-10.677803514467854],["licence",-10.677963395617475],["fourni",-10.678034733447078],["symbole",-10.678339178531287],["Charler",-10.679002579996897],["attendai",-10.679495800339204],["ç",-10.680462800104289],["play",-10.680565421281873],["chôm",-10.68065367574037],["moto",-10.68087783982551],["tiendra",-10.68130588382061],["âme",-10.681392733054185],["devienne",-10.681580599327578],["Vert",-10.681767359800002],["Bon",-10.682292938935223],["découvre",-10.683932387156165],["coeur",-10.684270832237246],["acquis",-10.684498272877306],["humour",-10.684734820412288],["fonctionnaire",-10.685356680007763],["rivière",-10.6857084638895],["cadeau",-10.686146066319417],["attendue",-10.686480792198225],["voul",-10.686527443676084],["transformation",-10.686655679175269],["accueille",-10.687863522810144],["Sam",-10.689016896045743],["ône",-10.689300675092102],["discuter",-10.689684321658639],["cesse",-10.689867001373905],["tourné",-10.69153547249541],["ka",-10.691643305539031],["empêche",-10.691886273156314],["relative",-10.692747718117143],["inscrir",-10.694142495997777],["bénéfici",-10.694257708224825],["ï",-10.694744492466729],["violation",-10.697821050820924],["menacé",-10.697887602177051],["progression",-10.698004610852795],["occupation",-10.698108924761991],["vacciné",-10.69823487052824],["terres",-10.69831590642164],["William",-10.698464208141356],["traditionnel",-10.698502591467516],["MS",-10.698838490911008],["assemblée",-10.698907944980185],["laboratoire",-10.698948902112763],["mobilisé",-10.699781428036887],["documentaire",-10.699782029801083],["argument",-10.700150340158855],["sécuritaire",-10.700223162082082],["Wallon",-10.700332464894272],["logiciel",-10.700559061849116],["é",-10.701539777455553],["vive",-10.701560013605652],["voil",-10.702125966629534],["admis",-10.702242157053258],["salué",-10.703408947942549],["67",-10.704161250088898],["aimé",-10.704459137783186],["boutique",-10.70503403760818],["spécialisé",-10.705152168595198],["venai",-10.70535303256543],["chargée",-10.705824117358883],["envoye",-10.705834172522966],["reveni",-10.705923885529621],["Côt",-10.706124821150665],["terroris",-10.707062073786052],["Port",-10.70714638975621],["officier",-10.707478710543098],["constater",-10.707585783733538],["initial",-10.707612789301287],["plat",-10.707743296955659],["rump",-10.709536537223551],["voté",-10.709803876529069],["préfecture",-10.710975157064144],["convien",-10.71101766088291],["Société",-10.711192805165275],["inondation",-10.71151812181779],["(…)",-10.711625301956234],["resse",-10.711900275570887],["administrative",-10.712471105287324],["masse",-10.715773010300666],["Ri",-10.715953299790204],["couteau",-10.716084030982426],["préféré",-10.71642729895908],["prince",-10.716942485132606],["fausse",-10.716951216208322],["Jame",-10.71703947977003],["viven",-10.718955356167147],["prenant",-10.719609918202408],["conduite",-10.7197021531885],["retourner",-10.719762518323428],["vu",-10.720953458790714],["Sébasti",-10.721132872973559],["silence",-10.721998246002087],["infraction",-10.722314568562588],["équilibre",-10.722490315147763],["pousser",-10.723141223105888],["tente",-10.72327937420852],["diplomati",-10.724043514072626],["fédération",-10.724088921272575],["contamination",-10.724149328203186],["policière",-10.724217334341446],["corruption",-10.724486753579749],["inquiétude",-10.724591424438806],["parking",-10.724706482466162],["branche",-10.725160222511956],["fleur",-10.725397794214114],["touristique",-10.725537391721659],["douleur",-10.725682307447663],["prépare",-10.72572625103853],["délégué",-10.726223642651284],["commerciale",-10.72625168194054],["Inter",-10.726519591686227],["Di",-10.727190021018227],["homologue",-10.72752481596093],["osité",-10.72810691024248],["77",-10.728305813899297],["57",-10.728615282606725],["bo",-10.728874756470862],["do",-10.729078765863022],["Vo",-10.729117035734731],["élite",-10.729745574957679],["résume",-10.730040788999439],["Henri",-10.730048771289733],["candidate",-10.730225123892916],["insiste",-10.730840883066868],["animé",-10.731048252387032],["Gabriel",-10.731239794954202],["and",-10.731277075484291],["renseignement",-10.731347602173159],["reçoi",-10.73143148959983],["guide",-10.732271136878355],["58",-10.732984229762824],["extraordinaire",-10.73432202276318],["off",-10.734821394950616],["payé",-10.735030095154949],["sent",-10.735466537421116],["enceinte",-10.736054324500703],["Switch",-10.737542479036227],["Antoine",-10.737570699604674],["monnaie",-10.737764505806519],["Michael",-10.737879916256862],["prévention",-10.738354950670644],["médicale",-10.738817476385094],["universitaire",-10.739058527982348],["soumis",-10.73938182534792],["assassinat",-10.739700619570923],["maillot",-10.739709828914826],["2008",-10.739908872955574],["matinée",-10.740363165163398],["exacte",-10.740836074281802],["geste",-10.740874865827868],["immigration",-10.740920834607167],["poussé",-10.742147009226985],["subvention",-10.74232519837156],["sauvage",-10.742325336183722],["Blue",-10.742804506922745],["décider",-10.74368524281359],["exportation",-10.743985931112093],["dè",-10.743993366334282],["OM",-10.744026788448263],["bons",-10.744410072111117],["RN",-10.744639530911662],["criminel",-10.744703287146132],["conçu",-10.746024909018274],["Mi",-10.746687487027963],["conduir",-10.747145897387309],["classes",-10.747172024852283],["assister",-10.747639999813885],["prononcé",-10.747669446631058],["53",-10.748469703629553],["isait",-10.748531188564865],["chanteur",-10.748725184989866],["chant",-10.749120288511367],["exigence",-10.74923985760036],["reconnaît",-10.749362932985981],["ressenti",-10.749450194054791],["érusal",-10.750320093523154],["émis",-10.750794572477062],["gratuite",-10.751119003909352],["remarque",-10.751139885218201],["Rivière",-10.75130210049557],["cinéaste",-10.751316204706328],["39",-10.751525656199087],["moral",-10.751929828907937],["recommandation",-10.752111272313579],["sauf",-10.752144966717221],["Club",-10.752250350059432],["évident",-10.752497258583304],["limité",-10.752747413866757],["commissaire",-10.752761011298368],["test",-10.75304508821933],["essai",-10.753648504618955],["cap",-10.753693109617167],["publiée",-10.754551483995145],["joie",-10.754557038988086],["plongé",-10.75457258332138],["Mainten",-10.754822219507995],["suffisam",-10.754909126925313],["crainte",-10.755744790291537],["aliment",-10.755847050082721],["enfan",-10.755962652233265],["interrogé",-10.756379262761785],["visé",-10.756740156251395],["700",-10.756809631814583],["Sony",-10.756846875189076],["oire",-10.757678409575357],["OS",-10.758165411745246],["jugement",-10.7583017804442],["urbain",-10.758339585790733],["entraîné",-10.759508621390548],["rappele",-10.759814518307007],["franchise",-10.759930271809393],["républicain",-10.760484077599468],["raconté",-10.761126030771951],["récompense",-10.762015223416256],["remonte",-10.762544953073016],["avancer",-10.76349730329057],["Guy",-10.763890820020851],["Var",-10.764568060605024],["Instagram",-10.765134204282475],["Eliza",-10.765165668453701],["provisoire",-10.76518447724371],["gendarmerie",-10.76525158297332],["Palestinien",-10.765388190016278],["Ou",-10.765508055318275],["fenêtre",-10.765694756288406],["Néan",-10.766024606108857],["discipline",-10.766429495925708],["berg",-10.766901965295947],["Libre",-10.768131607329332],["Vers",-10.768709961683872],["souffre",-10.768881204157509],["exprimer",-10.769949611046911],["acheté",-10.770622631750463],["chat",-10.77063709263739],["ga",-10.771030135150061],["dame",-10.771287874258881],["principau",-10.772176656786723],["accepter",-10.772345137025038],["dérouler",-10.772930099838371],["120",-10.77384143489964],["Volod",-10.773951423263128],["annulé",-10.774058269787716],["sexuel",-10.774296317601337],["!»",-10.774404299853447],["exceptionnel",-10.774672335461425],["bombe",-10.77529896431719],["oeuvre",-10.77692536153328],["employeur",-10.777248417049352],["énorm",-10.777487342679423],["Brésil",-10.777701720221023],["end",-10.777736644923975],["supérieure",-10.777952442111163],["envisage",-10.778527095153265],["désir",-10.778687918921513],["Brunswick",-10.77892368991542],["dimension",-10.779358203452034],["collaborateur",-10.779474113768869],["extension",-10.779577726402568],["oupol",-10.780243966285504],["Lega",-10.780540809358754],["Sous",-10.780550093678194],["cache",-10.780921856551178],["traditionnelle",-10.781705089883769],["lin",-10.781791405593381],["démocrate",-10.782288888328306],["doublé",-10.78295519493695],["igne",-10.7831210394635],["diffusion",-10.783819415143524],["écoute",-10.78397821352008],["armi",-10.784887637396846],["arabe",-10.78572309941325],["exploit",-10.785793673279365],["équipé",-10.786962196448549],["Force",-10.787062091308155],["global",-10.787708624644662],["attirer",-10.787711881986763],["aison",-10.788018756356731],["myr",-10.788344561476794],["informé",-10.788776631237415],["rentrer",-10.78925340214031],["Euro",-10.789454622797884],["engage",-10.78981395193294],["compt",-10.790981097368945],["trace",-10.791664586742083],["financer",-10.7916814119605],["rempli",-10.79179023351639],["faite",-10.791921157756507],["Blanche",-10.79193422676778],["Max",-10.792022667704423],["sérieuse",-10.792100666295429],["volant",-10.79256620309064],["for",-10.79305924044344],["Samu",-10.793260889915022],["intervien",-10.793505581608155],["Lion",-10.79360026801248],["problématique",-10.793696028706542],["confrère",-10.793765038125088],["rénovation",-10.794151819822428],["concertation",-10.794165557254196],["éditeur",-10.794334811187639],["résistance",-10.79433618430838],["Cap",-10.794617260140136],["vidéos",-10.79478087468143],["ors",-10.794811679115199],["cycliste",-10.79497856349095],["combattant",-10.795146869861302],["juive",-10.795333829763866],["assistance",-10.795700977343774],["World",-10.795715621374544],["Personne",-10.796105308694603],["publicité",-10.796505383275042],["adopter",-10.797282433805751],["identifier",-10.797509815412614],["Domini",-10.797943186758857],["Office",-10.798484504725813],["fixe",-10.799078949955902],["Bar",-10.799265930563458],["Bourse",-10.799511669926435],["suspension",-10.799617265915998],["bloqué",-10.799704992400194],["os",-10.799881660586891],["vraie",-10.80087524238933],["vic",-10.801037904626199],["Micro",-10.801139394515165],["pensé",-10.801189736935747],["atrice",-10.801755452340092],["espagnol",-10.801815564732056],["essayé",-10.80190346848773],["és",-10.802376790614915],["récolté",-10.802857249288982],["comédie",-10.80299402166738],["auxquel",-10.803071867054577],["exprime",-10.80309596425683],["aimerai",-10.803955577476312],["transformer",-10.804328452410935],["Pék",-10.80531473756281],["usager",-10.805320508365593],["loyer",-10.8056480201188],["gagnant",-10.805718237368797],["Péc",-10.80600632852397],["63",-10.806354862330297],["72",-10.8068994907423],["ô",-10.807261371419905],["parvenu",-10.807645457855418],["exposé",-10.807648230639339],["apporte",-10.807708756320828],["Vendredi",-10.8080175525574],["critère",-10.808328367570393],["consultation",-10.809185877625833],["importation",-10.809186434798832],["Jeudi",-10.809341734983967],["alliance",-10.81026226854106],["Île",-10.810300724100639],["nourriture",-10.81039579958206],["accompli",-10.810681560850949],["ha",-10.81088201431424],["éventuel",-10.810898510195809],["Roy",-10.81178239217976],["assis",-10.81178912174488],["heureuse",-10.811961961985245],["symbolique",-10.812348686201448],["annoncer",-10.812665489153218],["Canne",-10.813136682524677],["retenu",-10.813482482202925],["ambassade",-10.813681317077632],["encontre",-10.813952752912359],["remplacé",-10.814025311508423],["oui",-10.814271627930598],["Lundi",-10.814657062964905],["cyber",-10.814990953386678],["engager",-10.815643805162676],["confort",-10.81570001816675],["Bid",-10.81645903185893],["garantie",-10.81717591873149],["NH",-10.81790498238558],["Adam",-10.818749687787866],["basé",-10.820494665787782],["familial",-10.820972646612008],["Interne",-10.821435548238753],["imanche",-10.821438782715813],["inscription",-10.821547752306268],["moderne",-10.821862076555318],["tweet",-10.821970639726345],["casque",-10.821978820149528],["mini",-10.822184790997806],["go",-10.822347349481792],["Anderlecht",-10.822365054377201],["Constitution",-10.822461277511461],["bourgmestre",-10.822712762461158],["maritime",-10.822780775607885],["Pascal",-10.822851970408676],["mécanique",-10.822887636229702],["conversation",-10.823136063067338],["bidjan",-10.82326710749781],["tournage",-10.823710182444653],["contribuer",-10.82379914755901],["sélectionneu",-10.824128404081947],["pic",-10.824312996168942],["ministr",-10.82512297745615],["restera",-10.826092037462875],["culturelle",-10.826169565031188],["collège",-10.826764175068677],["foulée",-10.826914017633348],["confi",-10.826974421353661],["stockage",-10.827406255314063],["crée",-10.82753716749924],["douce",-10.827551502777238],["constitutionnel",-10.828528832508146],["libéré",-10.828963577117902],["Tchad",-10.829796678934773],["escalade",-10.830681892152686],["manger",-10.831370521155627],["électoral",-10.8316038726147],["morceau",-10.831673474808738],["réagir",-10.831867486775408],["Thierr",-10.832206153033297],["Sports",-10.832774603911588],["débats",-10.83294297344686],["the",-10.833070313702834],["isolé",-10.833264753117232],["génér",-10.835200248934242],["réunir",-10.83590335644572],["Grande",-10.83741858842281],["attaqué",-10.837454163990047],["voudrai",-10.837565400886685],["Pokémon",-10.837632433342787],["fonctionnalité",-10.837664578307674],["évoluer",-10.837665826995007],["Marvel",-10.837710194667032],["dépassé",-10.837887786660216],["mécanisme",-10.837934226957149],["rupture",-10.837939914138527],["polémique",-10.838122123376934],["réussir",-10.838256165267286],["psychologique",-10.838508037249746],["chauffeur",-10.838922172174591],["78",-10.839211776680777],["Reste",-10.839216435052677],["huile",-10.839634103400677],["imaginer",-10.83972810571597],["dépend",-10.840442392441343],["Bureau",-10.840548491278412],["garantir",-10.84236371653692],["revue",-10.842447834938607],["globale",-10.84321492590271],["paraît",-10.844627192724289],["avenue",-10.845074137785057],["commenté",-10.845379804290761],["retirer",-10.845635650304736],["imentation",-10.84600349104075],["th",-10.846209377495516],["calcul",-10.846259556972612],["Elon",-10.84669026128578],["Laval",-10.846756053001588],["joueuse",-10.847289205202006],["â",-10.847683649093021],["gouvernementale",-10.84773328999712],["couper",-10.847813739258774],["palestinien",-10.848789993467456],["gle",-10.849379776784554],["recueilli",-10.849386520967235],["cellule",-10.850138676584224],["73",-10.851543415154712],["fa",-10.851616064674467],["usines",-10.852062144911475],["alheureuse",-10.852168381622729],["El",-10.852524226038348],["Britannique",-10.852824822999173],["majoritaire",-10.852904092254274],["piscine",-10.852914079353432],["allé",-10.852926091424223],["réclame",-10.853111565783442],["clinique",-10.853160842949304],["médiatique",-10.853584095073762],["comédien",-10.853941375544405],["communiste",-10.854118660749126],["cho",-10.854227707091688],["forfait",-10.854994350090863],["utilisée",-10.85569294502164],["mentionné",-10.855978311781465],["locataire",-10.85661636222925],["Peter",-10.856701719539545],["Belge",-10.856706199199873],["transformé",-10.856834468237993],["vaccinal",-10.857488137909007],["obligé",-10.859004209423507],["autoroute",-10.859431403423475],["lende",-10.859662643576169],["195",-10.859722264214145],["préciser",-10.86011648832833],["Julien",-10.860471851244363],["remerci",-10.860640754483683],["procéder",-10.860913344361801],["obre",-10.861178455081033],["Albert",-10.861492127362673],["51",-10.861791434421114],["tions",-10.863083475871354],["peau",-10.863680390563296],["Be",-10.864011425191325],["clientèle",-10.864365578084008],["Quatr",-10.865162893457242],["inspiré",-10.865623660986813],["rende",-10.865877057006985],["douz",-10.866443270112665],["exclu",-10.86672310370594],["culte",-10.867188571522693],["repos",-10.867361216461276],["Fin",-10.867547758247712],["ng",-10.867662649185649],["progr",-10.867853370979756],["italien",-10.86803243537629],["banlieue",-10.868162419598097],["évacuation",-10.868226221929724],["hospitalier",-10.868236436368797],["consacré",-10.868252787213851],["conjoint",-10.868382681553888],["Alliance",-10.868426771994667],["sénégalais",-10.868462103992478],["internaute",-10.868567626204413],["chinoise",-10.868629157271165],["phrase",-10.868793568786687],["thématique",-10.868895463718676],["chanteuse",-10.868900158527552],["administratif",-10.869438581668241],["intemp",-10.869642537261154],["fou",-10.869887378149382],["remplacer",-10.870496686786868],["istes",-10.870596740639865],["spectaculaire",-10.870767241541],["Game",-10.871002569635646],["libéral",-10.87116671947547],["amedi",-10.871369699818729],["fondation",-10.871963787376753],["représentation",-10.872325565731789],["représenté",-10.872337450890392],["abonnement",-10.872586696019283],["76",-10.873150954885823],["Quel",-10.873212496028863],["actionnaire",-10.87342246569612],["Tru",-10.87414092668649],["observé",-10.874848003695398],["suit",-10.874908147617184],["llez",-10.875055681993388],["touriste",-10.875395135537257],["dés",-10.876221930916044],["al",-10.877250729062418],["proposée",-10.878043578032745],["fraude",-10.87847046118215],["abattu",-10.878780575999667],["apprécié",-10.87891824291405],["biais",-10.878923215655837],["info",-10.879099507244756],["Diable",-10.879386296773138],["emblématique",-10.879590007404275],["déroulé",-10.8802119769424],["destin",-10.880966598600288],["attaquer",-10.881116985152726],["promet",-10.881386868836241],["renforce",-10.881647650787636],["ell",-10.881822880756465],["pouvo",-10.881873877363214],["suffisant",-10.881931923753442],["mille",-10.882207639325216],["ième",-10.883117561621987],["installée",-10.88314912922785],["core",-10.883540156422253],["nouveauté",-10.883671795786803],["hectare",-10.883779113508535],["boulevard",-10.883842569770566],["Tim",-10.883909754732684],["comparaison",-10.883979204174794],["coéquipier",-10.884109127098483],["indispensable",-10.884182271761436],["condamnation",-10.884212214039803],["Strasbourg",-10.884262586111099],["horaire",-10.884350480105066],["compagnon",-10.884506356010387],["incontournable",-10.884902973126053],["56",-10.885010231581013],["provenance",-10.8851034176189],["Fête",-10.885270597757685],["colonel",-10.885739702405846],["symptôme",-10.886218376347676],["verre",-10.887148662385759],["apprentissage",-10.887391994082476],["Actuelle",-10.887622497299821],["89",-10.888071553342726],["sévère",-10.88836687717086],["boîte",-10.889034397853024],["doté",-10.889286381958847],["suivante",-10.889493505588998],["néerlandais",-10.890031702210507],["AQ",-10.891766234019585],["couvert",-10.892519741673244],["tation",-10.892819621770538],["effective",-10.893542181418328],["95",-10.894125128191256],["format",-10.894382036911043],["observe",-10.89564173252428],["absent",-10.896087128923682],["congé",-10.896658860983411],["profession",-10.896869713432876],["su",-10.897039673917646],["Sénat",-10.897142266697454],["originale",-10.89820756201443],["ay",-10.898325165593253],["alle",-10.898466569073573],["certe",-10.898673949204436],["coordinat",-10.899575591796143],["compatriote",-10.899734705618126],["Organisation",-10.899849998291629],["Journée",-10.899859861851207],["musicale",-10.900321872988354],["filière",-10.900550761981364],["ham",-10.900591784267469],["abandonné",-10.900933912542243],["informe",-10.901350899160986],["trophée",-10.901636974511742],["intelligence",-10.901649939822274],["déficit",-10.90179471573751],["affiché",-10.90226787708016],["diverse",-10.902986647133869],["fasse",-10.903009788909593],["dépasse",-10.903182847854197],["engin",-10.903256948334413],["flamme",-10.904470690335348],["tourne",-10.904636095446076],["entité",-10.904906760260326],["levé",-10.90543615546415],["International",-10.906396410699749],["conséquent",-10.90660620136736],["reprend",-10.907472068260754],["ondre",-10.90833828088148],["vin",-10.908485086587294],["dessin",-10.90880484954576],["avère",-10.909025438945077],["permetta",-10.909460221233287],["survenu",-10.91105826862874],["autochtone",-10.911265408745209],["provenan",-10.911543001003693],["déplacer",-10.911753013312364],["reconnaîtr",-10.912001254854369],["Berlin",-10.912889865960635],["livrer",-10.913371581601368],["cou",-10.91339165604835],["convention",-10.915237850724761],["ignore",-10.915495750276023],["insta",-10.915673454159881],["chapitre",-10.915996484076938],["barrage",-10.91611262603844],["légende",-10.916386816112968],["interprète",-10.916458453090701],["souffle",-10.916680029295998],["téléphonique",-10.916764831209703],["durer",-10.917183546518668],["flambée",-10.917577689393514],["triste",-10.917880782796828],["adhésion",-10.91789847154972],["Ga",-10.91810911434244],["Aussi",-10.918152027761943],["Quelle",-10.918230968898685],["envoi",-10.918578845001196],["iez",-10.91891631524938],["hasard",-10.91950261852642],["recevo",-10.920092026142893],["virtuelle",-10.920147532251047],["per",-10.920486435650906],["former",-10.920720905398777],["paysage",-10.920978998673952],["pompe",-10.921186788547384],["protocole",-10.921234878050194],["Heureuse",-10.921328382443985],["termine",-10.922759388364778],["pr",-10.922957901678963],["médical",-10.923159285766122],["savent",-10.923652437666686],["regrette",-10.92401780514815],["aménagement",-10.924435017330136],["88",-10.924665266794344],["correspond",-10.925373467342528],["Carlo",-10.925566719712418],["transporté",-10.925873042519395],["richesse",-10.925923472025103],["beauc",-10.926442691710646],["litre",-10.92652553140027],["lauréat",-10.92909779338753],["Portuga",-10.930438698645887],["sélectionné",-10.93195559132663],["ordinaire",-10.932130199403616],["Benjamin",-10.93217405410342],["fabrication",-10.93217702088144],["Toronto",-10.93222632597995],["écologiste",-10.932433720733798],["illustre",-10.932863311002162],["révélation",-10.93313033995932],["destinée",-10.933202175552807],["concrète",-10.933428442394348],["implication",-10.933527560887114],["occidentale",-10.93353976918917],["riches",-10.933715069029343],["terrible",-10.933955952732362],["coureur",-10.93450357106789],["Monde",-10.934724787804662],["semblai",-10.935839002650443],["Art",-10.93606237999724],["québécoise",-10.936425007436196],["Guilla",-10.936430982658203],["Belg",-10.93672480191106],["faciliter",-10.936725883594448],["pointe",-10.937023871319493],["aperçu",-10.93702649802876],["section",-10.937027591260705],["complété",-10.937119485369848],["susceptible",-10.937568291864466],["HD",-10.938028942001122],["critiqué",-10.938161788370312],["game",-10.939064235377852],["Sept",-10.939114192898218],["courage",-10.93921348763426],["connaiss",-10.939407403013242],["Cel",-10.939572413627065],["beauté",-10.939733708246933],["solaire",-10.94134932910954],["69",-10.941749448042547],["disque",-10.942032011275973],["coûte",-10.94234998034466],["web",-10.942412095843487],["autonome",-10.942878267745677],["brut",-10.94301682940647],["intégré",-10.943100129077305],["assaut",-10.943224160177824],["inédite",-10.944582902056169],["Groupe",-10.945078838205209],["chère",-10.945330720383108],["ains",-10.945817542125837],["carbone",-10.945860875300458],["prête",-10.945976078114736],["68",-10.947147179011022],["66",-10.947269819780164],["duel",-10.947509497853416],["pèse",-10.94777088981437],["profite",-10.947794589702323],["SSD",-10.948418973640356],["logistique",-10.949598377592668],["pai",-10.949722427965314],["attitude",-10.950060733015276],["basée",-10.950073931207864],["Blanc",-10.950076166070641],["Alger",-10.950621928186273],["Congo",-10.950873997888518],["religieu",-10.951329992069347],["titulaire",-10.951454088022405],["foot",-10.951533975964661],["Bel",-10.951571921827947],["Bou",-10.952791636270884],["franchi",-10.952902702041051],["excellente",-10.953605298119072],["Real",-10.9540166899978],["vocation",-10.954112452726076],["fumée",-10.955900547557658],["Déj",-10.956388258478613],["Cath",-10.956574048672772],["Ceci",-10.956603327137344],["organise",-10.957197932364576],["désert",-10.95746048261434],["déposer",-10.957528838672426],["sentir",-10.957635786193794],["verra",-10.958124311450188],["marquée",-10.958599883606261],["appliquer",-10.958856151289869],["signal",-10.959441353176379],["réserver",-10.960288544744456],["tranche",-10.960608444060679],["98",-10.960864472278084],["mention",-10.961251327384813],["location",-10.961323312731595],["participe",-10.961764199659253],["Kev",-10.962191023881504],["rock",-10.962836556651766],["religieuse",-10.963971332702611],["cris",-10.96460051137829],["occuper",-10.964693413394041],["encourager",-10.96492280547599],["nvironnement",-10.965267210960974],["consiste",-10.965455153138713],["Jonathan",-10.965796399165948],["parallèle",-10.965909840842077],["casting",-10.966322196623235],["prétend",-10.96637278309503],["fossile",-10.966497352524565],["manifeste",-10.966535008478882],["aur",-10.96664490575835],["expertise",-10.96671336228831],["recrutement",-10.966947139539386],["CAN",-10.967317239463384],["major",-10.967667603907238],["chaussée",-10.967706710797636],["ramene",-10.967962772861902],["matériau",-10.968002889732809],["sensibilisation",-10.968394654431616],["conscient",-10.96888874035028],["stream",-10.969290708182474],["ava",-10.969880142387279],["Académi",-10.969950825210432],["Trude",-10.970685248945596],["angle",-10.970917655839532],["démission",-10.971337502868536],["Serie",-10.972230541050948],["disputé",-10.97245411755571],["accompagne",-10.97260429719201],["haine",-10.972637317188255],["repas",-10.973864460401646],["épaule",-10.975530539858553],["limitée",-10.976114375294094],["Rappel",-10.976178841573287],["anneaux",-10.97755142375033],["championne",-10.977619870382423],["fan",-10.977787855178217],["loc",-10.97804193914201],["règne",-10.978710350471728],["mentionne",-10.978784354630616],["drone",-10.978793083307563],["conserver",-10.978849490117842],["monté",-10.979664727904616],["vedette",-10.980105992488062],["suscité",-10.9802110155708],["musulman",-10.980647163639363],["plaidé",-10.981576850997744],["classé",-10.982171015203676],["personn",-10.982530260024767],["ut",-10.983158273144104],["prolongation",-10.983268161605302],["vulnérable",-10.98329489034772],["collectivité",-10.98337713216353],["océan",-10.983453863661722],["Monsieur",-10.983563690641432],["fierté",-10.983776202136362],["jury",-10.98389812348563],["équivalent",-10.984188809731844],["échappé",-10.984257587002997],["retraité",-10.984319314280722],["signer",-10.98478081496227],["Maritime",-10.985260260114135],["trajet",-10.98549107759515],["technologique",-10.9862113898624],["favori",-10.986703615041968],["blessée",-10.986995280181752],["min",-10.987133202494514],["permanent",-10.987492085733422],["développeur",-10.987773718683755],["covid",-10.987956986884223],["sécheresse",-10.988629023006665],["Toulon",-10.988770924053608],["194",-10.98926226621996],["exécution",-10.989581280781145],["pensée",-10.989708763746393],["RD",-10.990234287598376],["relance",-10.990743656086332],["tournant",-10.991198661155863],["ass",-10.991804740965286],["disant",-10.9918085467975],["ja",-10.991917261075503],["illégale",-10.992317901417476],["stress",-10.992708159044422],["rachat",-10.993081075436397],["aissant",-10.99316721487741],["seuil",-10.993209724122446],["arabes",-10.99337694102828],["plaque",-10.993632976193899],["Manche",-10.993674376103325],["Boris",-10.99384391304833],["caché",-10.993923494990167],["oct",-10.994242076294729],["nécessite",-10.99476198563858],["brigade",-10.994934030715996],["écouter",-10.995033600106074],["sombre",-10.995345375288919],["toucher",-10.996004152354214],["iranien",-10.996752895176765],["passionné",-10.997559761855591],["tô",-10.998290608991637],["refuse",-10.998301921390183],["défendu",-10.998650130015807],["occupant",-10.998864332409884],["cinquant",-11.00024194054938],["mélange",-11.000285084890116],["progressive",-11.000383555507273],["hypothèse",-11.000575305466842],["ong",-11.000585613512857],["catalogue",-11.00064711981619],["Donbas",-11.000757906457801],["modification",-11.000868520789695],["prisonnier",-11.00087628304503],["motif",-11.001428763407743],["annulation",-11.001717558492892],["destruction",-11.001735487209322],["japonais",-11.001772294047926],["mur",-11.002216758393352],["agréable",-11.002250558984866],["Street",-11.0026671842941],["françaises",-11.002809715296094],["rejet",-11.003003495044144],["conquête",-11.003165472686002],["parfaite",-11.003443532594105],["souri",-11.003942478603491],["Tel",-11.004646001008599],["éclairage",-11.004733372434803],["estiment",-11.004997564219526],["entraîne",-11.005253737945651],["fiction",-11.0053433649839],["libérer",-11.006629610147854],["assise",-11.006723725826504],["échapper",-11.006911094665412],["rs",-11.007736495341902],["apparaît",-11.007904103693257],["ressemble",-11.008136235440746],["terminée",-11.008730821368513],["habitué",-11.009044839956642],["tes",-11.009362193008954],["Savoi",-11.009435370037227],["aîné",-11.009472016578925],["réservé",-11.009889997321615],["appartenan",-11.009922327797906],["fiscale",-11.010205507113909],["Ch",-11.010240008742532],["reproche",-11.011083292125154],["satisfait",-11.011153331081953],["Ca",-11.0113416768416],["Bleus",-11.012272218759538],["dangereuse",-11.014186484321192],["Front",-11.015387588591274],["intervenu",-11.015850531494962],["hospitalisé",-11.016762097895718],["poisson",-11.01727264958254],["parlement",-11.018032406925357],["compatible",-11.018250468926944],["budgétaire",-11.018436268921892],["Roland",-11.018502588599175],["vétéran",-11.018548286508661],["artisan",-11.018726728207039],["référendum",-11.018755414891645],["Directeur",-11.019085006780742],["promo",-11.019120586614273],["intermédiaire",-11.019284984811977],["qualifier",-11.019521013565045],["18h",-11.019702332595102],["favoriser",-11.021500460879855],["apport",-11.021790294068712],["sensibiliser",-11.021823871769742],["scandale",-11.022107404300417],["feron",-11.022561641300051],["testé",-11.022700888396821],["animateur",-11.023363076595567],["valoi",-11.023567506253293],["raconter",-11.023684380882456],["sûre",-11.023772848018433],["jambe",-11.024987688091523],["coupure",-11.02815002521902],["Born",-11.028691774333737],["parvien",-11.028709865531122],["tenant",-11.028978589554285],["Gaza",-11.02899586711346],["rejeté",-11.030095102004804],["décédée",-11.030784282110274],["rice",-11.03110086689929],["modifier",-11.033378161140554],["entr",-11.033720547833964],["ang",-11.03381412656676],["manœuvre",-11.033856131575611],["ienne",-11.03412767681866],["météo",-11.03459625349653],["dépasser",-11.035292494536247],["composant",-11.03553836540441],["Smith",-11.03666292083353],["horreur",-11.03666453420937],["fusillade",-11.036703992248725],["ble",-11.036754839195972],["dangereu",-11.037048866305446],["Sainte",-11.037235327418692],["incertitude",-11.03738329248172],["GM",-11.038229826867868],["réputation",-11.038233858431255],["technicien",-11.038262678014501],["érie",-11.038357955279036],["ju",-11.03864997117665],["routier",-11.039240269531403],["entente",-11.039365739157066],["!\"",-11.039490095121442],["alentour",-11.039807296090677],["lles",-11.040254200494392],["future",-11.040284831723378],["PG",-11.04096510423878],["PME",-11.041877271427161],["Jack",-11.041982781687041],["disputer",-11.042807052501614],["RÉ",-11.043145895721146],["née",-11.04466909950148],["facil",-11.045251259895094],["Light",-11.045362699364441],["chronique",-11.045743206580072],["imposée",-11.045997641901362],["CF",-11.046667755427631],["conclur",-11.046714595045373],["clés",-11.046825226437079],["‘’",-11.047747453626636],["hydro",-11.04842546897082],["modeste",-11.049463605192935],["contr",-11.049479292827964],["citoyenne",-11.05009361208047],["musicien",-11.050555076814694],["rebelle",-11.051215011615483],["bouteille",-11.051370392220962],["cent",-11.052144216413556],["tuer",-11.052444518535077],["DF",-11.052712103856226],["ry",-11.052723441528006],["suicide",-11.052966130617131],["ord",-11.053108044477057],["rayon",-11.05313987854473],["Moi",-11.054721182954633],["Ibrahim",-11.055198001425744],["pollution",-11.055201799829142],["bancaire",-11.055425905419902],["résoudr",-11.055527688084599],["observation",-11.055768468924805],["pension",-11.05578839455134],["programmation",-11.05621114719909],["composition",-11.056258489501026],["CGT",-11.056850622296238],["Galax",-11.056973442830955],["gestes",-11.057024191396932],["garanti",-11.057096541748317],["pens",-11.057246363202003],["viande",-11.057348393032289],["régler",-11.057532004712424],["ort",-11.057758359061976],["Fabien",-11.05817839303611],["Josep",-11.058883847690225],["etsk",-11.058962638905536],["Xavi",-11.059042436381658],["pl",-11.059149005881137],["ko",-11.060180195145735],["septième",-11.060404171903961],["anima",-11.060447864858105],["recommandé",-11.060452929226715],["Loire",-11.06102837706689],["croi",-11.0610742653604],["Inde",-11.061793955507202],["AS",-11.061918630497303],["Dr",-11.061927462596678],["protégé",-11.062890395889736],["approuvé",-11.063210553938713],["ressort",-11.064792414055955],["onze",-11.065313451383728],["support",-11.065881183397826],["handicap",-11.066231154238253],["contrôler",-11.066620284496587],["Sein",-11.066742338969608],["original",-11.067123976738827],["visiter",-11.067826669397217],["épression",-11.068208871515226],["Royal",-11.068410887964886],["revers",-11.068491284974897],["ki",-11.068576891809638],["indépendante",-11.069250004844912],["situe",-11.06932920042387],["design",-11.069653364498564],["erine",-11.070173834220242],["regarde",-11.070421540034133],["idéal",-11.070609304943687],["96",-11.070807082105464],["composée",-11.071081453116486],["sapeur",-11.071234139305941],["réparation",-11.0713134483319],["Roger",-11.071598570381983],["vallée",-11.072097249022065],["existent",-11.072337526543746],["céréale",-11.072447182353141],["préparé",-11.072516603554948],["désigné",-11.072927748546807],["CI",-11.072986539764921],["zér",-11.073119578792062],["justifier",-11.073235899356071],["individuelle",-11.073600303907602],["possession",-11.073696475541501],["hélicoptère",-11.074011821961005],["pourcentage",-11.074055047466935],["éliminatoire",-11.074134685168332],["Juif",-11.074261377165469],["conception",-11.074436260819677],["correctionnel",-11.074503788772663],["défunt",-11.074571807948274],["infirmière",-11.074852391832948],["renouvelable",-11.074921499494405],["observateur",-11.075025608174839],["omme",-11.075120942415081],["Mai",-11.075417385486],["um",-11.075477338076613],["solde",-11.075617305627091],["raté",-11.075876198298245],["ti",-11.076036902839197],["Général",-11.076155153261443],["standard",-11.077233622890148],["Alpha",-11.077239568260747],["Arabi",-11.077454713709274],["commandant",-11.077824652169483],["abus",-11.078570122883868],["géré",-11.078962011281869],["souveraineté",-11.07924846971863],["abandonner",-11.079658380189226],["engagée",-11.080321045335909],["Sah",-11.08063510494659],["interroge",-11.08074493340278],["BA",-11.080899529969486],["Park",-11.081515877019545],["orientation",-11.081754199886745],["accessoire",-11.081779298560226],["entrevue",-11.0818405527762],["empêché",-11.082475715770904],["ercredi",-11.082689996016374],["ambitieu",-11.082792686331382],["vaudois",-11.083401677999047],["révolution",-11.083664819325113],["poursuiv",-11.083697328543145],["craint",-11.083849877394995],["ot",-11.084009727294614],["bassin",-11.084033385531423],["deveni",-11.084205101723025],["87",-11.084249157887289],["ferai",-11.084339243081866],["accompagnement",-11.084424082805793],["luxe",-11.084870799380502],["soixant",-11.085017245373136],["exact",-11.08554234569462],["Va",-11.086281127293693],["Ontari",-11.086538865387944],["engagements",-11.086731967036602],["bient",-11.087448614950603],["Cert",-11.087542193618402],["dispute",-11.087900409056356],["GO",-11.089127950653335],["finit",-11.089339433506431],["fermée",-11.089768364421795],["baptisé",-11.089962954653886],["firme",-11.090077383380113],["Po",-11.090997768799639],["Alo",-11.091566537751813],["incarne",-11.091882767838143],["plante",-11.092045897099036],["affecté",-11.093170980592848],["hospitalisation",-11.0932449289144],["Républicain",-11.093259980816427],["consécutive",-11.09348576549046],["religion",-11.093831892565746],["créateur",-11.093877436833967],["Oscar",-11.093906175487684],["discrimination",-11.093915058722256],["rebond",-11.093954008057061],["invitation",-11.094414405366113],["apprête",-11.094421507751132],["contrainte",-11.094564149088733],["West",-11.094601321569307],["économiste",-11.094744594218064],["courrier",-11.094994242837643],["dramatique",-11.095008100277074],["réalise",-11.095181877914525],["volé",-11.09520230471973],["Lond",-11.096031299344517],["défilé",-11.096482335274088],["dinar",-11.09763370966258],["descente",-11.098084852348116],["doléance",-11.098451923627355],["emprunt",-11.098455046952344],["pay",-11.09895392057857],["repoussé",-11.099583494702635],["souligner",-11.10001605317199],["réception",-11.100642569057014],["sensation",-11.100663268586818],["dirige",-11.10066721139821],["hor",-11.10110733546509],["aidé",-11.101371805258221],["clos",-11.101416276171532],["trente",-11.101984903982247],["longueur",-11.10232639722496],["ourism",-11.102336194582408],["am",-11.102434982619467],["cercle",-11.102662462798474],["voyai",-11.10281057756166],["tandi",-11.102853867619146],["imagine",-11.103097311499358],["Soit",-11.103630299586975],["kilo",-11.103735664626132],["rapporte",-11.104302364309422],["comble",-11.104528543088744],["entraîner",-11.104641599756928],["impressionnant",-11.104679572743283],["placée",-11.106007866600752],["unanim",-11.106142276811749],["ic",-11.106485419835249],["porteur",-11.106922858149796],["viendra",-11.107045460594268],["politicien",-11.107669533497651],["étendr",-11.107688333782557],["montr",-11.108186095401367],["ster",-11.108354092780369],["mark",-11.108854633959595],["télétravail",-11.109264912191602],["ivoirien",-11.109531041217695],["folle",-11.10964183161464],["évolue",-11.11135637911105],["comporte",-11.111743065365387],["colonne",-11.111962265536231],["paraîtr",-11.1127489288107],["Théâtre",-11.11287249524415],["prédécesseur",-11.1128856950252],["obstacle",-11.113011166208883],["fréquence",-11.113075866581044],["célébrer",-11.11319237140098],["portefeuille",-11.11356080276124],["refuge",-11.11382790697986],["capteur",-11.113862610971463],["réservation",-11.114969545431348],["trouv",-11.11498997296923],["souffrance",-11.115373245285598],["Transport",-11.115430153160847],["Mathi",-11.11556698742195],["stationnement",-11.115771040352115],["ingénieur",-11.116119451304177],["Carolin",-11.116441948595487],["bière",-11.116680143460089],["soignant",-11.116727848008678],["cycle",-11.117079184997788],["écho",-11.11745426737981],["71",-11.118086991927946],["rai",-11.11889802518515],["René",-11.119072948104021],["évacué",-11.119310647974237],["Désor",-11.119483850539414],["Suite",-11.119520407407139],["couloir",-11.11961003991291],["estimation",-11.1197055339413],["assisté",-11.119863606293244],["convoi",-11.120572466263777],["détaille",-11.120797262835458],["délais",-11.120999781557101],["audition",-11.12130412134676],["TF1",-11.122004043275009],["exige",-11.12233985922273],["remonter",-11.123659868933867],["caisse",-11.123739921636313],["Chris",-11.123783435821762],["bouton",-11.124291493176793],["criminelle",-11.124571446581228],["entaine",-11.12525967913583],["Florid",-11.125295785342386],["marquant",-11.125639337033132],["gène",-11.125790663531772],["digne",-11.126058021128625],["Environ",-11.126331166254928],["arbitre",-11.126790712924105],["Games",-11.126839055571065],["urbaine",-11.126964171880235],["vigilan",-11.127538082474954],["900",-11.129281836365404],["isjordanie",-11.1302263661996],["métropole",-11.130380122256627],["gamer",-11.130393031751419],["King",-11.130890461565016],["monument",-11.131192758123865],["couvre",-11.131250652249717],["écurité",-11.131292727607919],["fibre",-11.13178684696095],["ligue",-11.132106866254473],["arrête",-11.132198593841022],["AIP",-11.13240764999567],["by",-11.13265779317153],["filiale",-11.132942801760194],["Taïwan",-11.133073490259918],["célébration",-11.133342755448533],["fondé",-11.133393779528602],["frein",-11.13343243283683],["projection",-11.13363148769298],["déposée",-11.133754594655455],["équipage",-11.133850425748001],["compléter",-11.13421110116495],["relancer",-11.134322153273086],["souverain",-11.134450659054217],["Liban",-11.134536950362266],["ouvrier",-11.134576760971777],["félicité",-11.134717459011911],["portrait",-11.13487764385332],["métro",-11.134947479778479],["Milan",-11.13532349186024],["condamne",-11.13577168419495],["bref",-11.135969232405373],["tech",-11.136059937027445],["tablette",-11.136270185496306],["Bay",-11.136404797483303],["couche",-11.13648544746032],["Colombie",-11.137762691862614],["excellen",-11.138320679055187],["créée",-11.138997114897457],["soviétique",-11.139470403046989],["Fa",-11.140346079110115],["van",-11.141028087685594],["négocier",-11.141427136334388],["Dona",-11.142358207507288],["bénéficie",-11.14285083701386],["courte",-11.143048580388399],["algérienne",-11.143530030092734],["provien",-11.143759984302278],["déçu",-11.144296674039582],["réfléchir",-11.144707022119334],["expulsion",-11.145304453346846],["mentale",-11.145385661358116],["oît",-11.145629316488991],["dominé",-11.14606865522114],["Allemand",-11.146090813574572],["tombée",-11.146623411281247],["hâte",-11.146746967314353],["lain",-11.14679539964665],["commercia",-11.147258066353304],["borne",-11.147313838666834],["Nos",-11.147512416204936],["bronze",-11.14761825610019],["Didi",-11.147620767140253],["puissante",-11.14787314024705],["bou",-11.148470488288822],["combattre",-11.148688471219565],["concentrer",-11.148970285001516],["inconnu",-11.149008331506586],["terrasse",-11.149161601176221],["iden",-11.149705838584506],["Nanc",-11.149741280411698],["noté",-11.149844071254822],["carton",-11.150060814548823],["ny",-11.150308197273143],["Hél",-11.150370545609082],["Andro",-11.151461147204198],["Mer",-11.1520393021518],["dollar",-11.152476845883312],["Finland",-11.152844051222942],["soin",-11.152906730880957],["confirmer",-11.153234250161866],["Djoko",-11.15325794721216],["Flandre",-11.153260496896396],["mythique",-11.15328423573219],["collision",-11.153312096285024],["évidence",-11.153467693277427],["pétrolier",-11.153527060665962],["Interrogé",-11.153689877970077],["conseillère",-11.153912935729945],["chèque",-11.154073089047674],["investigation",-11.154124370460776],["habituelle",-11.154230769278092],["bénéficiaire",-11.154387716351174],["basket",-11.154585592044084],["illustration",-11.155300182881346],["significative",-11.155802394075785],["partielle",-11.155917728944488],["llah",-11.156142100121833],["requis",-11.156234760267942],["rois",-11.156247183101875],["démontré",-11.15679066715915],["littérature",-11.156956005543218],["Jordan",-11.15817454644298],["fortune",-11.158666104613665],["loisir",-11.159129519788403],["aming",-11.159640598689998],["nuage",-11.15975169455343],["retiré",-11.160858906174356],["Kon",-11.161267937819629],["Bell",-11.161389023131928],["voulo",-11.161945325689139],["accent",-11.162141693393115],["DC",-11.162173752828718],["diplomate",-11.16224822970972],["éhéra",-11.162415648635882],["pape",-11.162642506658244],["fonctionner",-11.162691323522067],["atteinte",-11.162754896162701],["venant",-11.162862116348398],["alarme",-11.163559887562121],["pourr",-11.163614081554133],["Prime",-11.16508001256181],["étrange",-11.165979915932605],["illégal",-11.168373763915955],["présidentiel",-11.168534130932523],["uit",-11.168914600261676],["musical",-11.169539212638249],["cor",-11.169694365889036],["migration",-11.169741818319412],["pousse",-11.170111904153764],["appartien",-11.170721353565526],["Rome",-11.171089892593042],["adressé",-11.173344606978382],["Ousman",-11.174145046995921],["élimination",-11.174251134161116],["Netanyah",-11.174255875688647],["magazine",-11.174270189120318],["perturbation",-11.174337542846787],["vestiaire",-11.174418623998816],["indicateur",-11.17471577346396],["législation",-11.174838553204257],["61",-11.174977984350827],["Ne",-11.175532605963552],["Plan",-11.175697951798314],["Espagnol",-11.175961454599495],["massif",-11.175965724351117],["mann",-11.176094435114422],["architecture",-11.176241331018826],["ND",-11.176362035518217],["évoquant",-11.176396586315745],["joli",-11.176517577318059],["déploiement",-11.176730656008662],["5G",-11.177200300395253],["tactique",-11.177271842543187],["proportion",-11.177399336630945],["amitié",-11.177623065096641],["«»",-11.178118503173128],["violente",-11.178119698987349],["masculin",-11.178182105378333],["district",-11.178212782367769],["Harr",-11.178289084879829],["Bois",-11.178489237210243],["potentielle",-11.178496993604382],["organe",-11.178676822709743],["nez",-11.1791763870116],["évolué",-11.179301650379426],["sénateur",-11.17958937929832],["Culture",-11.17968212024712],["Rh",-11.179779104135129],["Day",-11.180620102232426],["censé",-11.181533856659598],["contribue",-11.18174135834349],["onnant",-11.181903667390573],["évoquer",-11.181970818422421],["appuye",-11.18201306528412],["ag",-11.182277979495348],["feuille",-11.182396335556808],["sais",-11.18272133309774],["représenter",-11.182771562411686],["bouche",-11.183210814850288],["Frank",-11.183870055454156],["syndicale",-11.184425674242158],["84",-11.185783841802975],["édifice",-11.185890815172623],["contacté",-11.186172944302415],["baril",-11.186833899742913],["agenda",-11.187257157169881],["CD",-11.187266595623196],["poche",-11.187639344283538],["fameu",-11.187958527194075],["pont",-11.188765866114522],["artificielle",-11.189025357871033],["ombien",-11.189137641982812],["relai",-11.189280561066887],["observer",-11.189763119090765],["Gi",-11.190438370822948],["lire",-11.190825359622513],["Dami",-11.191230832769666],["Concern",-11.192211453865317],["correct",-11.192461761135455],["accepte",-11.193293859701997],["Tra",-11.19382600016606],["gouvernan",-11.193865595895772],["strict",-11.194292522100422],["inférieur",-11.195105578735529],["abandon",-11.195187150733098],["flotte",-11.195237429087515],["tranquille",-11.195268969531085],["·",-11.19535706178844],["Conakry",-11.195357073926484],["fabricant",-11.195367004065757],["Histoire",-11.195398769232204],["Sophi",-11.195399058054328],["motivation",-11.195408785748203],["héroïne",-11.19545802284969],["Ka",-11.19546012527356],["Sarah",-11.195509270611325],["Leclerc",-11.195626199174084],["Championnat",-11.19562999261919],["connexion",-11.19577418449339],["gérant",-11.195830249513442],["Musée",-11.195943224227483],["inacceptable",-11.19601580293828],["manager",-11.196090703680163],["prenai",-11.196191826401659],["touchée",-11.196253460676845],["vendeur",-11.197329842590758],["massacre",-11.197572258256283],["étendue",-11.197787899744606],["individuel",-11.19787412419678],["ussi",-11.197884433348348],["accélérer",-11.198029170249413],["market",-11.198174345515419],["Bénin",-11.198555458661325],["Seule",-11.19872576560346],["nationalité",-11.198750750388124],["Ho",-11.1987535441095],["lois",-11.198870248965381],["provincial",-11.199378583654504],["endent",-11.199540385142141],["entretenu",-11.199603155570825],["Borde",-11.199644021155445],["routière",-11.199886283853793],["théorie",-11.200049806833063],["TP",-11.200145984102152],["orange",-11.200317280854605],["diriger",-11.201093936473734],["stable",-11.20155769077032],["transféré",-11.20176911706609],["éclat",-11.201934421763818],["Group",-11.202556364977053],["voisine",-11.202683782368554],["Meta",-11.204536681209152],["amp",-11.204889118888863],["habituel",-11.20512546320306],["ordonné",-11.2053887835497],["survie",-11.205447471773143],["multiplie",-11.205667003584397],["mixte",-11.20710458791574],["union",-11.208961933204034],["lisab",-11.209260546852004],["flamand",-11.209698618606305],["130",-11.210127286161935],["instrument",-11.210195823790007],["Argentine",-11.210244304186196],["Diall",-11.210334350847285],["bruxelloise",-11.210990510935464],["amené",-11.211664222497198],["initiale",-11.212365016995948],["traduit",-11.213738547960356],["pénale",-11.214099048010631],["casse",-11.214528891351783],["Stan",-11.214935755240015],["extrait",-11.216001836988303],["craign",-11.216053360959608],["Serge",-11.216120990710028],["Claire",-11.216245891932825],["essaie",-11.216645759245635],["™",-11.217096192223224],["vertu",-11.21715539961014],["Pr",-11.217197243505533],["revendication",-11.21753067310616],["Chacun",-11.217624252215442],["Namur",-11.217667855444754],["cimetière",-11.217760073336187],["thermique",-11.21781970438414],["BFM",-11.217936634736283],["Croix",-11.218191733069691],["ordonnance",-11.21824175810286],["isolement",-11.218367890579582],["déplacé",-11.219738941617969],["permettrai",-11.219865716919376],["réplique",-11.219959459023379],["allure",-11.220522858390757],["milliardaire",-11.22054102897505],["Johns",-11.220676593306475],["Lo",-11.2207308346191],["rappeur",-11.221807352600266],["bourg",-11.222426892994019],["introduit",-11.222464983922944],["Texa",-11.222489119986003],["déception",-11.223013455501619],["favoris",-11.223084408535886],["suscite",-11.223763533231523],["dévoile",-11.224586968986198],["obten",-11.225237287573783],["ages",-11.225275415484049],["dispos",-11.225366797864297],["témoign",-11.225437808189874],["Édu",-11.226525315102663],["verge",-11.226642158729668],["oublié",-11.227135700391104],["prouver",-11.227290876526414],["acheteur",-11.229511634587286],["marocaine",-11.229823672707111],["oreille",-11.229932068192786],["promouv",-11.230023716397298],["74",-11.23178117464759],["prévien",-11.232506925468364],["diffusée",-11.23328941198157],["Code",-11.233723436627091],["royale",-11.23441966034093],["regrett",-11.234784849068742],["phare",-11.234791303257609],["dure",-11.234970542234063],["provinciale",-11.234990866537974],["parisien",-11.235382558677603],["traiter",-11.235501841895978],["éliminé",-11.235534124327172],["interdir",-11.235688462502756],["oppose",-11.235855498501344],["Na",-11.23621193371917],["350",-11.236562470440258],["reproché",-11.236973806268804],["ven",-11.23764238886164],["ède",-11.237958503650017],["environnementale",-11.237997519489983],["déclenché",-11.23807524173284],["Alexi",-11.238448855871788],["superbe",-11.239208273561442],["Afghan",-11.239319072385785],["Tokyo",-11.23932965666835],["héritage",-11.239380083426322],["conviction",-11.23939615432797],["meeting",-11.239435058336117],["prioritaire",-11.239577070412277],["considération",-11.239616239144851],["remarquable",-11.239646860502292],["hébergement",-11.239696812853452],["agi",-11.240050495890996],["satellite",-11.240187782167634],["atmosphère",-11.24034236678999],["Togo",-11.240360842238708],["féminine",-11.240493499182305],["Karim",-11.240672104991466],["abordable",-11.240863838546177],["Nada",-11.241157445983903],["littéraire",-11.24137602229336],["finaliste",-11.241784298235546],["séparatiste",-11.24198636606992],["correspondant",-11.24207393392361],["trésor",-11.242134152625828],["compagne",-11.242177764589654],["Pe",-11.24304069465495],["introducti",-11.243463046248198],["délit",-11.2435974820836],["duré",-11.244046138750011],["lecteur",-11.244114922876701],["suiv",-11.244145887927832],["devr",-11.244207286295948],["douard",-11.245086235035886],["validé",-11.245206870078757],["prolonger",-11.24537335315901],["lit",-11.24542656352278],["continuité",-11.245921808722379],["remarquer",-11.246079860100563],["III",-11.246515384729431],["refuser",-11.24665089429658],["Final",-11.246715513087928],["Raphaël",-11.246899861485826],["Dijon",-11.246950942861773],["fiche",-11.247326851563301],["selo",-11.247336717183991],["disparaîtr",-11.247393640914312],["bâton",-11.247547705668541],["revendique",-11.247787715656663],["satisfaction",-11.247802479411101],["Pala",-11.247895351220423],["Nova",-11.248238461836035],["froide",-11.248289126436589],["illes",-11.24842164921302],["ardi",-11.249014884546328],["diminué",-11.249796110864336],["start",-11.250219006023222],["canon",-11.250506509687938],["présentent",-11.250818029208649],["79",-11.251333444808918],["réunis",-11.25214642480087],["Wa",-11.25236964597519],["81",-11.253623108469784],["entamé",-11.253933979363648],["détaillé",-11.25402858058344],["Stade",-11.254322215185073],["copie",-11.254327656475944],["comptai",-11.254339289004996],["RC",-11.255248371807195],["transaction",-11.256132877872334],["développe",-11.256633921548834],["char",-11.257692343590461],["portai",-11.258039402571448],["land",-11.258833315617665],["grimper",-11.259138041031626],["parcour",-11.259340425882767],["Free",-11.259421692675625],["interven",-11.25981529631639],["bouger",-11.259896604902124],["Économi",-11.260197344424302],["3D",-11.260232093855647],["allemande",-11.26073502809872],["subir",-11.260858950742758],["trait",-11.261112067151695],["ôme",-11.261718022900274],["Chef",-11.261958022597927],["cosmétique",-11.262103834479518],["caractéristique",-11.262114173624136],["Standard",-11.262129399846764],["confrontation",-11.262147697188265],["monétaire",-11.262214225503154],["régulier",-11.26221662388049],["concentration",-11.262287269815584],["compromis",-11.262300600267121],["préalable",-11.262354667595284],["cerveau",-11.262395186618333],["ralentissement",-11.262488214347862],["cru",-11.262525855407983],["Communauté",-11.262635194031168],["craindr",-11.26268380328999],["Ministre",-11.262729571117417],["provoque",-11.26274728545139],["variable",-11.263124928727013],["convoqué",-11.263146278382052],["concernée",-11.263451095238544],["Sahara",-11.263658991080483],["savon",-11.263876990220352],["suppression",-11.264473053164021],["diagnostic",-11.264492378697478],["sprint",-11.264858125193129],["bête",-11.264880667859476],["manquer",-11.265014047307133],["Cinq",-11.265021105051197],["monstre",-11.265335155252117],["contien",-11.265513466152802],["ourage",-11.265969088482723],["maternelle",-11.2662202436808],["indiqu",-11.266356144795363],["staff",-11.266415824840596],["Julie",-11.266607120204354],["avertissement",-11.266660570209584],["affirm",-11.2666949648789],["Californie",-11.266935566544547],["embauche",-11.267022427455839],["Da",-11.267060852728505],["igny",-11.267139473222056],["légitime",-11.267311003216363],["environnemental",-11.267441375462054],["adverse",-11.26756444547042],["célébré",-11.267664199601882],["ille",-11.267971029472857],["docteur",-11.268183310955555],["évaluer",-11.268487102409958],["processeur",-11.268691837647003],["italienne",-11.268841511265995],["chasseur",-11.268884267503584],["ecteur",-11.268888753912922],["décrocher",-11.269196251540174],["trio",-11.26933072783368],["emporté",-11.270075061478254],["multi",-11.270230910668285],["soulign",-11.270365447313312],["aille",-11.27042665324429],["oblige",-11.270598744251616],["cisme",-11.271033713718516],["Ver",-11.27133780789089],["TT",-11.273146883902697],["maintenu",-11.273596482238856],["repartir",-11.273834586517033],["panne",-11.275461328786685],["étudier",-11.276144000750257],["visa",-11.27711537488537],["peinture",-11.27745994472932],["Tu",-11.277920649460782],["intéressante",-11.278295464760214],["grandi",-11.278448197098141],["Do",-11.27898767408313],["Gille",-11.279067053820278],["Alexand",-11.279642762120789],["Tribuna",-11.28062398729703],["motion",-11.28127357228581],["cherch",-11.28136446674749],["DH",-11.28145355260062],["industrielle",-11.281641189162634],["publier",-11.281755510180608],["éco",-11.282304674253915],["FM",-11.282904906229515],["recharge",-11.283061188278026],["hybride",-11.283071418224186],["princip",-11.283835056481953],["MONT",-11.284508919004878],["contrôlé",-11.284682111302349],["junior",-11.285306438622435],["Hollywood",-11.285307530804795],["Cheikh",-11.285341377150841],["fantastique",-11.285354601087707],["immersi",-11.285355802066126],["cliché",-11.285371253842756],["cardiaque",-11.28537265130111],["consécutif",-11.285376012570337],["Atlantique",-11.285408436062667],["irection",-11.285433715388567],["dis",-11.285462894442048],["catholique",-11.285530625535065],["Département",-11.285559292345983],["Azur",-11.28558988612872],["ressortissant",-11.285638328679926],["promoteur",-11.285731457665499],["blocage",-11.285740758403932],["écosystème",-11.285833829701966],["disponibilité",-11.286019978366157],["pointé",-11.286118042196659],["relatif",-11.286198477222218],["retenue",-11.286267989932314],["spécialisée",-11.28633495978547],["Fort",-11.286352835414503],["Golf",-11.286388713411945],["clôture",-11.286572164498184],["provoquer",-11.286599703392586],["populari",-11.286638741518958],["193",-11.286873017460339],["trône",-11.287331997784813],["tunnel",-11.287830831955377],["dirigée",-11.287972807709306],["inspiration",-11.288164832520987],["terrestre",-11.288467453542495],["all",-11.28871922368197],["leçon",-11.288784368825278],["fragile",-11.288882967531464],["conservé",-11.288897842599294],["uniforme",-11.289109992876279],["systématique",-11.289329514885456],["ites",-11.290415266464368],["guère",-11.290573917282204],["Isabell",-11.290862510746006],["traversé",-11.29088335678889],["explosif",-11.291065599076818],["royal",-11.291080028298143],["enthousiasme",-11.291125046205163],["fuir",-11.291460451190126],["remet",-11.291562305459681],["tribune",-11.291697440091813],["saisir",-11.29218972124598],["remercier",-11.292245715347708],["résolu",-11.292375871362575],["annuler",-11.292443801655256],["Mike",-11.292491643008345],["eut",-11.293380074809669],["grosses",-11.293747936810624],["nette",-11.294053302726315],["faille",-11.294627913636493],["répété",-11.295171647418908],["turc",-11.295354499225276],["étroit",-11.295863577509408],["Bill",-11.296597947675004],["basse",-11.29702849277966],["semestre",-11.297415909729985],["oré",-11.297634573436007],["exploration",-11.298321839669011],["audio",-11.298481014578886],["kg",-11.298639453346272],["traverser",-11.298935111604917],["positionne",-11.299065388145731],["photographe",-11.299123554085362],["ification",-11.299349050580625],["espagnole",-11.299436414897794],["noire",-11.300002668441127],["repose",-11.300148665229456],["Rem",-11.301953648733987],["83",-11.30204489015927],["assurant",-11.302336432797427],["territoriale",-11.302377425071334],["circuler",-11.302452028181527],["coupe",-11.302584471131262],["accorder",-11.304027762328701],["Début",-11.304172284904386],["TVA",-11.304275743067814],["restaur",-11.304579407523839],["wi",-11.304699996288361],["hésion",-11.305082436639008],["annoncée",-11.305548220576105],["IB",-11.306868268533716],["()",-11.307075583527649],["Champions",-11.307104565908961],["remarqué",-11.307618728855669],["way",-11.308040409183304],["honnête",-11.30900568175342],["supprimer",-11.309035554208595],["Horizon",-11.30912032320385],["chaussure",-11.30920629142744],["SNCF",-11.30925337141174],["complémentaire",-11.309298868554034],["insulte",-11.309430715655648],["NFT",-11.309473744360165],["rédaction",-11.309515510798796],["recrue",-11.309856963955712],["mett",-11.309872814611214],["météorologique",-11.309885508329184],["bilité",-11.31004072248385],["signale",-11.310159456719473],["spatiale",-11.310495419045797],["robot",-11.310901067213651],["passeport",-11.310951543207498],["raciste",-11.311555862353162],["vérifier",-11.311788908872515],["Ahmed",-11.311897039803528],["épargne",-11.312459313942954],["Kher",-11.312714581663139],["connaisse",-11.312859985483488],["Clément",-11.313361874251433],["sincère",-11.313485181640363],["progresser",-11.31449942507218],["trou",-11.314681645439254],["utilis",-11.314978272575546],["Fall",-11.31550600213458],["Rabat",-11.315975386693658],["Nationale",-11.31696668915601],["sentier",-11.317324439859366],["hésite",-11.31755322833848],["toile",-11.317648962509905],["Ç",-11.318069193004973],["profonde",-11.318164069140838],["dépens",-11.319224932091423],["Dep",-11.319350329801384],["Wall",-11.3194694944606],["mine",-11.319837668027654],["Féli",-11.320333822398288],["Anvers",-11.320715694612963],["bu",-11.321263613890597],["show",-11.321295394811013],["sable",-11.321499154593585],["justifie",-11.321671684725526],["orage",-11.322108997128728],["charbon",-11.322466682809669],["enregistrement",-11.32283642545289],["recev",-11.324371663957422],["afficher",-11.324614538213627],["Liver",-11.324668997918167],["poing",-11.324857766006156],["bain",-11.324916075239429],["ning",-11.325126263025817],["Six",-11.325670488379115],["leaders",-11.325872243041774],["séparé",-11.325912915842956],["conserve",-11.325940320716313],["implique",-11.326094444317013],["bat",-11.32659707213877],["Dix",-11.326632348795986],["tnik",-11.326731168038581],["paquet",-11.327164758661258],["Ti",-11.32719943902563],["Bob",-11.327382033442289],["ressent",-11.327385239594854],["revu",-11.32774484513272],["résumé",-11.328059413799911],["baissé",-11.32825733369474],["guinéen",-11.329203457279306],["entent",-11.329465397393703],["Gen",-11.33064549874345],["dépit",-11.331419586694173],["rassemblé",-11.331480108031146],["asile",-11.331602093960568],["revienne",-11.331902950275287],["onne",-11.331960698510377],["chaise",-11.332215245807065],["respecté",-11.332447449409669],["Egypt",-11.332949845265965],["occidental",-11.332977363005082],["expliqu",-11.333121637490148],["certificat",-11.333345070333158],["espér",-11.333419237443307],["morale",-11.333541237390753],["précaution",-11.333549768846193],["news",-11.333593519432345],["minorité",-11.333615275290216],["complicité",-11.33361904258923],["FIFA",-11.333724870909414],["cannabi",-11.333740565844792],["précipitation",-11.333782033453687],["positions",-11.33378705881135],["reflète",-11.33379063299636],["Sûre",-11.33381258803002],["configuration",-11.333825525408738],["interprétation",-11.333880640658988],["Mamadou",-11.333951299881168],["interlocuteur",-11.333955627707041],["dégradation",-11.33403698816545],["munition",-11.334142934943248],["tel",-11.334275214600089],["Rwanda",-11.334364113748027],["communiquer",-11.334424896580995],["Sénégalais",-11.335680016588466],["peintre",-11.335814778453162],["circule",-11.336232461267853],["deviendra",-11.33677139453785],["Place",-11.336921560195577],["accordée",-11.337090226765316],["encourage",-11.337370039204046],["Contrai",-11.337591356396402],["Ving",-11.33785183221326],["Ray",-11.338206875166646],["parisienne",-11.338439455884963],["créant",-11.33902125652692],["LED",-11.339096633303697],["exclusive",-11.339680972643512],["consulte",-11.339947904142527],["roulant",-11.339952124041881],["idé",-11.340011172231465],["be",-11.340277789022517],["Radio",-11.340305811238128],["présentant",-11.340842167880382],["PI",-11.341309798887439],["inutile",-11.341928301898362],["détruir",-11.342341635571916],["réchauffe",-11.34238057044688],["cri",-11.34238097456479],["inédit",-11.342408551378902],["Bruge",-11.342917411792346],["capture",-11.343341561915352],["mp",-11.343347727769359],["Cor",-11.343628025029556],["Chels",-11.344536498415199],["lieutenant",-11.344541659514789],["alerté",-11.344587079974541],["connais",-11.345030543508974],["graphique",-11.345228918372255],["releve",-11.345815688754643],["parlant",-11.346104855181178],["pleur",-11.346171905479935],["ignon",-11.346302214151635],["justifié",-11.346463007957627],["exercer",-11.346556142834247],["da",-11.346876637451567],["explorer",-11.34693347109325],["prière",-11.34702041033841],["chi",-11.347256139579097],["oublie",-11.347989476552325],["opéré",-11.348011757629667],["erie",-11.348429379444157],["tuée",-11.34875926646749],["empreinte",-11.349660266989144],["optique",-11.349770270081764],["liquide",-11.349935444896769],["débuter",-11.350355788336547],["intervenant",-11.350479827054192],["costume",-11.35049327267797],["franchir",-11.350850380710503],["coupé",-11.351206552215022],["détien",-11.351229158884228],["notion",-11.352205672821746],["Certaine",-11.353228580934992],["dépendance",-11.353249207673336],["Marocain",-11.354080323757067],["hi",-11.354713792679307],["cré",-11.355193925777849],["aborder",-11.35525038715303],["Jay",-11.35528013150419],["sauvegarde",-11.355919704064208],["surprenant",-11.356533207798842],["ivement",-11.356664499082866],["Big",-11.357229062715616],["fo",-11.357687819846817],["F1",-11.358024215068383],["Gar",-11.358171035183787],["conjointe",-11.358401673270038],["Méditerranée",-11.358501268863936],["82",-11.35853124067752],["protagoniste",-11.358537412678876],["Andrew",-11.358546629121438],["Gouvernement",-11.358553376170935],["Résultat",-11.358734084884967],["répète",-11.358762411361974],["concentre",-11.358825034050625],["parrainage",-11.358829083855579],["interruption",-11.358842047564657],["Nigeria",-11.358908655539906],["prudence",-11.358928040567388],["domestique",-11.359045872373555],["tragédie",-11.35914801575048],["OLED",-11.359300414281021],["répétition",-11.359451020447263],["abstention",-11.359578219994338],["transmission",-11.359704110431139],["considérer",-11.359742710809385],["conformé",-11.35986305950467],["Autorité",-11.359931152961963],["arriv",-11.359949975507998],["riverain",-11.36011804533321],["doré",-11.360195024305265],["86",-11.360292163683784],["singe",-11.360335542829446],["oubli",-11.360347876168149],["VR",-11.3607234626398],["administrateur",-11.36109976356276],["internation",-11.361247890039433],["ens",-11.361279161673972],["apprécie",-11.361499979386043],["internationa",-11.36152230964196],["plonge",-11.361788464458686],["joint",-11.361880273659853],["fiscal",-11.36193323606636],["vieille",-11.362609439132543],["contenant",-11.362718004943664],["transmis",-11.362781818449706],["barrière",-11.362817483481653],["totalit",-11.362977252292747],["visité",-11.363318585142055],["denrée",-11.363875044102256],["sauvetage",-11.363883262748171],["occident",-11.363890480249857],["José",-11.363890826324035],["entreten",-11.364190489387365],["esthétique",-11.364405818024862],["Africain",-11.364504712014163],["abrite",-11.36455422521601],["ticket",-11.364564978511527],["connecter",-11.364719620350016],["dédiée",-11.364758873315218],["Nup",-11.364958440804333],["saisie",-11.365041984351405],["percuté",-11.365664808996002],["répondant",-11.365888819304221],["rése",-11.36605843700699],["archive",-11.366112771385469],["couvrir",-11.366444436398918],["rival",-11.366453745898768],["opérationnel",-11.367262543786751],["multiplié",-11.367784344531945],["Steven",-11.367951876635486],["gard",-11.368144004166503],["bourse",-11.368170522122423],["USA",-11.368566274724857],["déterminé",-11.368887357815943],["Ya",-11.369534333212908],["istan",-11.369624258582773],["félicite",-11.370025879575461],["recommande",-11.37051383383369],["Mohammed",-11.37061378902301],["19h",-11.371893265178548],["Dame",-11.372087009388391],["diplôme",-11.372774675597858],["photographie",-11.37303511050606],["Moussa",-11.373398610209364],["enchère",-11.3744718006576],["utter",-11.37458825393514],["Mauric",-11.375135372756077],["patrouille",-11.375665708246013],["disposer",-11.37606443188443],["résister",-11.376218769735049],["franco",-11.377100052788819],["intrigue",-11.37731503210473],["assemblement",-11.378089875793837],["Christin",-11.37818808909295],["Green",-11.378212008927125],["Camar",-11.378724023750907],["manifester",-11.378739139884267],["val",-11.379202728770668],["he",-11.379281425664809],["retourné",-11.379365608534847],["Tech",-11.37999606628962],["el",-11.380212102183384],["connecté",-11.38021298031655],["pack",-11.380698754715354],["communale",-11.38098559440663],["Européen",-11.381296560856713],["voyant",-11.381600311756586],["Gand",-11.381765701527979],["Sala",-11.38199991796357],["ber",-11.38266018581306],["ray",-11.382797058942817],["serre",-11.382901795867694],["Sky",-11.382913053608375],["alisation",-11.383193670659619],["avoue",-11.38334712531184],["remplir",-11.383402338893829],["œuf",-11.383991967693063],["formidable",-11.384142424058446],["cryptomonnaie",-11.384207773431989],["bulletin",-11.384243414115119],["gestionnaire",-11.38425694247054],["bagage",-11.384285405457321],["Provenc",-11.384290106934687],["centime",-11.384346931102268],["rose",-11.384394234719197],["suivie",-11.384396884436724],["mosquée",-11.384465443509487],["élevage",-11.384519503966072],["interpellation",-11.384591854586358],["variol",-11.384631585898905],["décisive",-11.384656020632928],["Rafael",-11.384718306783288],["burkinab",-11.384861255285633],["récupération",-11.384930156007465],["imag",-11.3849541844262],["joindr",-11.385099735826074],["Long",-11.385156104733213],["apparence",-11.385226362113011],["Égypt",-11.38563391534866],["Château",-11.385998026543158],["substance",-11.386283842246566],["Rie",-11.386561577198615],["mensonge",-11.386728657809263],["roquette",-11.38685854934393],["conten",-11.386884541251934],["inspection",-11.387022281161153],["considérée",-11.3875920701518],["schéma",-11.387753918313402],["Ryan",-11.3878476422464],["chapeau",-11.388140597341557],["emplacement",-11.388605392394638],["fêter",-11.38878738988611],["gamin",-11.388850280983101],["piège",-11.389066292849675],["enveloppe",-11.389230327360519],["déploré",-11.38990676055761],["tique",-11.390088189304473],["aît",-11.390357177097496],["Orient",-11.390430873364977],["Dio",-11.390699471999524],["Ange",-11.390913129138697],["sports",-11.39129019624385],["antenne",-11.392127996108933],["blé",-11.392429117975745],["Fi",-11.392449195672224],["Mark",-11.392816541813247],["agira",-11.392985342361],["fraîche",-11.393305121369377],["fameuse",-11.393372811312874],["rondelle",-11.39342447403483],["Belle",-11.394433356672472],["evoir",-11.394576079206054],["accus",-11.394740384584315],["enregistrée",-11.39476246718905],["Thi",-11.39524808135743],["privilégié",-11.395444552672588],["Ar",-11.395493662722478],["Ta",-11.395763983800729],["rendement",-11.395841988323623],["centr",-11.39584387305803],["fac",-11.396374301078106],["adolescente",-11.396452345427928],["chauffage",-11.396458424312787],["agriculteurs",-11.396784304215565],["dougou",-11.39713981404401],["ho",-11.397242006453231],["ège",-11.397788830262595],["roues",-11.398398712186161],["ariat",-11.399357752421784],["ruine",-11.39954754010352],["Pog",-11.399690403939486],["gère",-11.400079649514932],["mette",-11.40028275662264],["grippe",-11.400601780532703],["inconnue",-11.40100657893575],["envoie",-11.401254003276419],["3000",-11.40138280685551],["WT",-11.401636002133896],["précéde",-11.402082940785109],["maximale",-11.402337934083672],["cett",-11.402435540584957],["erez",-11.40245766099152],["proie",-11.403376586402102],["réalis",-11.404243016502607],["Top",-11.404381813929128],["révision",-11.404707166533896],["im",-11.40565904992021],["achant",-11.40572812235799],["bert",-11.406234290109854],["salariale",-11.406511828611581],["ouffer",-11.40713156615073],["prononcer",-11.407159913820532],["constituer",-11.408166140071932],["patien",-11.40850719048508],["Xi",-11.408757246751456],["ailier",-11.409349204806364],["compréhension",-11.409678951288676],["ferroviaire",-11.410458087881302],["juridiction",-11.41045884166407],["Élysée",-11.410477008596995],["retrouv",-11.410552896347307],["surveille",-11.41059971783993],["penalty",-11.410606691952223],["GR",-11.410670439091303],["provocation",-11.410753802100139],["Tant",-11.410782963341099],["Drummondvill",-11.410835607527616],["détermin",-11.411289305360421],["rémunération",-11.41131186263398],["ample",-11.411453987819723],["folie",-11.411699697154692],["allégation",-11.411769571392192],["Armée",-11.412234998066898],["grandir",-11.41242988925568],["récession",-11.41248941723832],["fabriqué",-11.41262484276724],["attribué",-11.412771057333913],["activiste",-11.412895616193751],["amassé",-11.413208926048826],["Master",-11.413289547965807],["pêcheur",-11.413321493822142],["alloir",-11.413357488297626],["renouvelle",-11.413531942545493],["comté",-11.413670485000917],["genevois",-11.413930163275836],["manga",-11.414152679058594],["perçu",-11.414345810609621],["Hôtel",-11.414992066635959],["touchant",-11.41545521504489],["envisager",-11.415495610454307],["entouré",-11.415828489930313],["IA",-11.416082655083224],["Boy",-11.416115201541313],["éclaté",-11.416161384528861],["synonyme",-11.416181194139394],["CNR",-11.416749800036676],["han",-11.417413517240924],["pérer",-11.417918515300695],["iranienne",-11.418004924803732],["sembl",-11.418138610283759],["Berne",-11.418456295761146],["ée",-11.418611620073815],["progress",-11.418706032657326],["entrepris",-11.418771129778941],["Steve",-11.419044965775727],["Ja",-11.419059158428665],["gardé",-11.419271608607835],["demandeur",-11.419621390663],["amako",-11.419642005858986],["poignée",-11.419904612520044],["mérité",-11.420132682431849],["urgent",-11.42082977334067],["lâche",-11.42141190668372],["pren",-11.421800583579719],["Miss",-11.421986717016235],["Bertra",-11.422112938889864],["gramme",-11.42235658919994],["compliquée",-11.42237943847675],["05",-11.42293347076176],["GP",-11.423226418535958],["tels",-11.424014095823777],["?\"",-11.42467174543982],["médecine",-11.425318208633922],["maîtriser",-11.425626015151055],["compteur",-11.425823123256205],["blague",-11.42638634878044],["accompagnée",-11.426468132687598],["anticipe",-11.42711800764776],["Victor",-11.427280173184407],["sert",-11.42745721192003],["empire",-11.427545185430587],["balance",-11.427605897911288],["buteur",-11.428207093722367],["5000",-11.428366089284728],["libér",-11.428413310118856],["Ko",-11.42851290579296],["Natha",-11.428871838556875],["École",-11.429357459853128],["colline",-11.42935906164035],["pharmacie",-11.429869212430955],["Capitale",-11.430334186080735],["racine",-11.430427442128131],["Dub",-11.431241163430151],["soulevé",-11.432427085561612],["om",-11.432479181790818],["Watch",-11.433767947725766],["intensif",-11.434114929678962],["Lapi",-11.434273866167388],["110",-11.43558337965998],["japonaise",-11.435641819720555],["connectée",-11.435863568460244],["défensive",-11.436291184709187],["renforcé",-11.436515319935797],["historien",-11.436943684080239],["Br",-11.437041733018866],["estim",-11.437175020043032],["assumer",-11.437275543267234],["Ndiaye",-11.437501773589343],["Confédération",-11.437527919106646],["géopolitique",-11.437529855022088],["cortège",-11.437530412692045],["dérive",-11.437544896089076],["examiné",-11.437561402179211],["vétérinaire",-11.4375678128286],["Gérald",-11.437653771109991],["douzaine",-11.438031314442924],["Luka",-11.438033967491162],["remboursement",-11.438102725835584],["légendaire",-11.438142330431901],["royaume",-11.438239669795571],["Orange",-11.438390298767175],["féministe",-11.438405325961366],["trailer",-11.438781913810702],["meurtrier",-11.438857607529405],["bloquer",-11.439196696986167],["langage",-11.439198741915565],["Jér",-11.439837636804105],["Messi",-11.440226321490634],["spécialité",-11.440515313284457],["Kenya",-11.440679757453664],["attire",-11.440951082130116],["Mor",-11.441421762935304],["chrono",-11.441490503008765],["Khark",-11.441712378992829],["malien",-11.44229137462101],["CO2",-11.442716110689247],["délibéré",-11.442730730515438],["Maire",-11.442773503235701],["assume",-11.442901879829158],["compare",-11.443312758937395],["exclusion",-11.44348478529638],["travaill",-11.443589738731195],["supermarché",-11.44434707114487],["renoncer",-11.444384624181161],["report",-11.444606930463712],["exigeant",-11.444888031192358],["Jan",-11.445051833398761],["VA",-11.445097747567456],["plafond",-11.44684397256824],["125",-11.44694829506118],["neutrali",-11.447106155860482],["prêter",-11.447262916191415],["onsieur",-11.447759689596824],["expérimenté",-11.447819961882807],["Th",-11.447943856486626],["gravit",-11.44855566415645],["suisses",-11.449073683218106],["rentré",-11.449158062353888],["Bang",-11.449414490215997],["restée",-11.449522762824778],["qualifiée",-11.449844547272551],["plaide",-11.45004032944035],["emporter",-11.450506529812262],["maîtrise",-11.450723959113418],["olsonar",-11.450765010621335],["distribué",-11.451025355482138],["échéance",-11.451326462167447],["canicule",-11.45161315333486],["rendue",-11.452062378760463],["machines",-11.452709390435675],["Météo",-11.45294690872655],["aboutir",-11.45303388199506],["inclu",-11.453649641481737],["ntre",-11.454040875314377],["Pix",-11.454140204589223],["restant",-11.454255895103175],["marchandise",-11.454417653929148],["Commerce",-11.454522381570236],["donn",-11.45564025215398],["Sel",-11.45606119072369],["ambulance",-11.456081202041794],["Souven",-11.457058979898932],["intime",-11.457821609793278],["aube",-11.457876402704372],["virtuel",-11.457956446839113],["visuel",-11.458404965776666],["97",-11.458882824417566],["parm",-11.460733737051793],["carbure",-11.461277020096567],["sollicité",-11.462552271013848],["applique",-11.46283008016309],["radicale",-11.46328765948687],["mportant",-11.4633113046993],["partagée",-11.463344622178656],["tapis",-11.463417563285875],["triple",-11.463588091260018],["modifié",-11.46381692573942],["acquér",-11.464547606966207],["existant",-11.464570625449015],["oigner",-11.464981910964495],["Montpelli",-11.465150000215996],["Telegra",-11.465298344933373],["Grégo",-11.4653302952334],["Crimée",-11.465337694766678],["Charlotte",-11.465343988719477],["thèse",-11.465361126273335],["Panther",-11.46539845215508],["permanence",-11.465439056924605],["Munich",-11.465445539396308],["fleuve",-11.465452822528743],["intègre",-11.46555746833143],["Bour",-11.4657226846039],["pédagogique",-11.465737195497889],["indemnité",-11.465746085747078],["préventive",-11.46587237763682],["permette",-11.466019340135219],["Ouat",-11.466049359529752],["Jacob",-11.466632444325128],["quarant",-11.466637625464488],["distributeur",-11.466658731140942],["Irland",-11.46669903020734],["réacteur",-11.46712541514983],["trottinette",-11.467194369166902],["trajectoire",-11.46719642316609],["agresseur",-11.4673542381671],["équip",-11.467790905676434],["Arnau",-11.468029211332757],["panier",-11.468069975959898],["inégalité",-11.468094102746154],["Mac",-11.468125472585461],["pénal",-11.468355527016861],["festiv",-11.46872828161299],["anonyme",-11.46876786431585],["effectue",-11.46897499345415],["180",-11.469109568854456],["Israélien",-11.46926106404965],["boulot",-11.469331813250246],["définition",-11.469591093538645],["mbledo",-11.471130545791482],["tabac",-11.471316457297487],["Marcel",-11.47147963608796],["Abdoul",-11.471586309537035],["nazis",-11.47185548881201],["manette",-11.472081794315194],["versé",-11.472663439779286],["Antho",-11.4731694672907],["Point",-11.473434243872171],["patiente",-11.473746349692904],["réaliste",-11.47379291521106],["examiner",-11.474152862850511],["composer",-11.474174934234306],["placement",-11.474178791561847],["rendra",-11.47430895328351],["réclamé",-11.474472138428702],["soumise",-11.474872847288612],["valu",-11.475647419276308],["tar",-11.475975042593655],["occupée",-11.476184814703052],["otage",-11.476416476410343],["citer",-11.4765274228124],["natal",-11.476869202728643],["Pi",-11.47713760446334],["Marchand",-11.477236630559132],["fréquent",-11.47751903987949],["fusion",-11.477962146940092],["analyser",-11.478778352551064],["scénariste",-11.479151295205202],["intelligent",-11.479333643631534],["chaude",-11.47953163245376],["veiller",-11.479570280017963],["planche",-11.479623932813901],["cheval",-11.48027018348548],["humoriste",-11.4803645683033],["galerie",-11.48076646309791],["convenu",-11.480931796632685],["méga",-11.481033290043904],["remplacement",-11.481088047928118],["golf",-11.481534961689244],["rassurer",-11.482385473711034],["survenue",-11.48262335099305],["maires",-11.482695879501268],["tilisant",-11.482886253011783],["allée",-11.483162495565047],["1500",-11.48481598425586],["loca",-11.485077810175323],["Second",-11.485144013442001],["ogo",-11.485184581325433],["échanger",-11.48570360120403],["résilien",-11.486341232926963],["prêté",-11.48727200878207],["Anna",-11.487362063752178],["détour",-11.487580577623913],["arrivai",-11.487661349951107],["soupçonné",-11.488525171152773],["Juste",-11.488715422691408],["jeté",-11.488761850609773],["Cond",-11.48928977528895],["mortel",-11.489561445974367],["sommeil",-11.48992610009402],["dévoiler",-11.490220684086747],["Hama",-11.490220898719798],["intitulé",-11.490318947707932],["Asi",-11.490758315582404],["regret",-11.490766680013774],["enlevé",-11.490848142769952],["étonnant",-11.490968780909407],["tagne",-11.49141766849811],["GT",-11.491473223223524],["câble",-11.491664172933248],["LE",-11.491839670857676],["Africa",-11.491874919066765],["coréen",-11.491895314586174],["souffrir",-11.492184478177782],["débarque",-11.492381202301583],["fui",-11.492993216730568],["Marco",-11.493139535781662],["stage",-11.493167758850287],["obtien",-11.493587393744388],["institut",-11.493809608470269],["´",-11.493834317329114],["épicerie",-11.493849614788743],["gazoduc",-11.493879001781862],["protestation",-11.493984871828204],["rêver",-11.494143896209307],["installe",-11.494290635128891],["pelouse",-11.494324063882834],["survivr",-11.494394214753223],["mutation",-11.494468323868471],["uni",-11.49459255504365],["accélération",-11.494840068037787],["adaptée",-11.494873313389832],["éthique",-11.494899651664374],["Adrien",-11.49497814567264],["accroît",-11.495003813192202],["variété",-11.495156130462883],["pavillon",-11.49531152826209],["riz",-11.495536342606668],["break",-11.495602990960723],["diminution",-11.49569770362246],["concentré",-11.495713599346818],["ime",-11.495788050236673],["randonnée",-11.495800750742307],["Hongr",-11.495888961688117],["inématographique",-11.496115604821536],["panique",-11.496416948556808],["Mat",-11.496544937859934],["cyclable",-11.496700596964597],["Monc",-11.497007441755377],["Racin",-11.497249556159382],["connaissai",-11.497349856103998],["distinction",-11.497396822185742],["Met",-11.498248665413138],["morte",-11.498617107526693],["dignit",-11.49911573146379],["incapable",-11.499898028974268],["terminal",-11.499924770362703],["Aviv",-11.50001939957638],["requête",-11.500066493146013],["mobiliser",-11.500261815975744],["anglaise",-11.500351472125475],["souhaitai",-11.501512909091844],["liaison",-11.501532325915722],["écouteur",-11.501823912855404],["Gu",-11.50191323129756],["descendr",-11.502463895625974],["diminuer",-11.502474676591945],["grille",-11.50267404018842],["stricte",-11.50271197666553],["voler",-11.502744533980882],["posture",-11.502807439307803],["contemporain",-11.50294714955611],["marine",-11.503104888142191],["SB",-11.503486341063372],["préven",-11.50389228079958],["arc",-11.504069830928843],["Algérien",-11.504509468486807],["ers",-11.504534051715172],["altitude",-11.505167677648224],["press",-11.505203557034685],["wa",-11.505427686721575],["hôte",-11.50666666915135],["faiblesse",-11.506942885992315],["Ghan",-11.506998004984386],["nage",-11.507313724711056],["Homme",-11.50739779507558],["retrouvée",-11.507596940497558],["93",-11.507970009402456],["job",-11.508779180850173],["démarrer",-11.509201957864091],["Anti",-11.509446512521672],["montage",-11.509674090673299],["appuie",-11.510012131908475],["recruté",-11.510364609284187],["contraste",-11.511276583332819],["insécurité",-11.511533587445996],["Francis",-11.511585496684786],["Mayo",-11.512211438767064],["magi",-11.512375180046611],["agénaire",-11.513509178510532],["ourir",-11.513559469013623],["rond",-11.51437580400112],["Ky",-11.51447504360716],["Dia",-11.514742321923956],["urgences",-11.515059771653084],["Rio",-11.51540828853934],["sonore",-11.51622930452359],["glisse",-11.516255576477397],["orchestre",-11.516582508323353],["91",-11.51659213711664],["cédé",-11.51716788203309],["Benz",-11.517171600311642],["polonais",-11.517342590074596],["essais",-11.517988108084559],["onald",-11.518302217893728],["Ru",-11.518628269664884],["avo",-11.518744992842336],["riez",-11.518820884588754],["inspire",-11.51894619300816],["robe",-11.51904037062684],["résidentiel",-11.519184142194257],["conseille",-11.519338197008073],["Mille",-11.519855359857537],["exigé",-11.520977612547693],["monte",-11.521358775054276],["représent",-11.521404875919117],["unie",-11.521694628476414],["ett",-11.521771345670803],["comprenne",-11.522132707159292],["soumettr",-11.522208547527764],["adore",-11.523246408364233],["homicide",-11.523247691967725],["jouai",-11.523253519331613],["Église",-11.523254895735224],["America",-11.523255914445102],["raisonnable",-11.523258890694537],["CEDEA",-11.523317891483437],["façade",-11.523354570816679],["créature",-11.52340290335006],["intérim",-11.523438897697035],["Burund",-11.523489287445438],["Prince",-11.523598568545808],["catastrophique",-11.523642766231934],["oux",-11.523785549856065],["téléviseur",-11.523911040568919],["Hugh",-11.523916682610112],["progressiste",-11.523924541402062],["révéler",-11.52414219313566],["injection",-11.524160790007398],["définitif",-11.524194051371564],["Romain",-11.524213661264358],["inévitable",-11.524528736280477],["Titan",-11.524680218836473],["virage",-11.524777286294798],["Lille",-11.525128693526202],["Sau",-11.525326424208618],["inculpé",-11.525414505611195],["soulage",-11.525477237387603],["survivant",-11.526282302948342],["meuble",-11.526391282783948],["rembourser",-11.526512102136932],["promenade",-11.526573037792211],["Maria",-11.526746112812631],["Moyen",-11.527143737200804],["arrivant",-11.52714435881348],["Trop",-11.527433573705746],["JO",-11.527535719867121],["verser",-11.527642958716157],["Rouman",-11.527839007853794],["renverser",-11.52833380928081],["pilier",-11.528847711687582],["adoptée",-11.528971257387205],["insoumis",-11.529107616253228],["magique",-11.529204013917962],["manifesté",-11.529332483130617],["RE",-11.52936873641454],["attent",-11.52940561931478],["contesté",-11.529561382207074],["signalement",-11.529685698589569],["Abou",-11.529712292476912],["priori",-11.52979159799601],["slogan",-11.530307477441127],["serveur",-11.530309075135259],["sui",-11.53072562178524],["diesel",-11.53074820964319],["Har",-11.53083736678958],["réside",-11.53106161574364],["clou",-11.531332138732925],["Space",-11.531683599227906],["Pou",-11.532238073807456],["92",-11.532457328936626],["psychologue",-11.532900906063217],["endommagé",-11.532937808559893],["Brad",-11.533207072488471],["Tr",-11.533359806928152],["transforme",-11.533611444945414],["parcelle",-11.533742357833935],["herbe",-11.533859344415049],["qualifie",-11.534346734283755],["uivre",-11.534397921964503],["Lac",-11.534864882506495],["merci",-11.535230314726846],["suspens",-11.535444362906002],["cesser",-11.535533212271893],["nourrir",-11.536015939030008],["SM",-11.536263815671948],["détecté",-11.53637437246418],["Time",-11.536616617924448],["libérale",-11.53673123106823],["inclus",-11.5368189718072],["élue",-11.536892449660716],["cherché",-11.536998492161539],["pareil",-11.537384768340923],["devise",-11.537482963938151],["étudiante",-11.53749884489767],["chev",-11.537665669697443],["Ain",-11.538022974902024],["construite",-11.538261907344513],["turque",-11.538297081225513],["Thor",-11.538830999665024],["ouvain",-11.538884421807913],["OTA",-11.539204235280303],["file",-11.539422859975689],["Sarr",-11.53992439709665],["inquiétant",-11.540226561847218],["affirma",-11.540330928709823],["ralentir",-11.540403911854114],["Énergie",-11.540411405690708],["jugée",-11.540753651792215],["partant",-11.540757786580048],["Nou",-11.540920650000546],["estivale",-11.54106533635191],["charte",-11.541168257195995],["enco",-11.541381557971416],["ten",-11.54152617266502],["opposer",-11.541783333632464],["09",-11.542633700560433],["croissant",-11.542678943205969],["20h",-11.542775240651013],["ités",-11.543067607811622],["sobri",-11.543089760768634],["ama",-11.544208710351338],["gains",-11.54426001759687],["apparu",-11.544379415307128],["consensu",-11.544887807769118],["malaise",-11.545233719862747],["Évi",-11.545524616739014],["AT",-11.545584788409796],["Russ",-11.54569456017943],["déploy",-11.545695538722],["tester",-11.545945669608859],["140",-11.546320764634165],["He",-11.546390648666565],["dur",-11.546746799560974],["Hu",-11.546856479489088],["voic",-11.5469771540463],["accept",-11.54709557581074],["oalition",-11.547174483246295],["REM",-11.547633701883363],["Min",-11.548154521841031],["heureu",-11.548447464617684],["exemplaires",-11.54905787087336],["Anglais",-11.549147716469225],["wallon",-11.549584236698875],["ron",-11.549862920301807],["déclar",-11.550003681209338],["Will",-11.550056658537002],["généré",-11.550087318383765],["apprécier",-11.550098587151016],["boucle",-11.5502030347481],["stand",-11.550474679682793],["apparente",-11.551245795855142],["redonner",-11.551315939571937],["Mary",-11.5514564131736],["philosophi",-11.551948352046818],["génie",-11.551989725915476],["réduite",-11.552836977593067],["offensif",-11.552863194622454],["perquisition",-11.55324707003744],["hebdomadaire",-11.55354911302513],["fair",-11.553565510332561],["blindé",-11.553575752544447],["Gérard",-11.553608267062673],["verdict",-11.553639646204372],["fichier",-11.553682214968758],["Autrich",-11.553735414923278],["Thibau",-11.553776558173904],["bibliothèque",-11.553785054405516],["respiratoire",-11.55381784293418],["réglementaire",-11.553855141668658],["Darman",-11.553915816940506],["mystère",-11.553937475982005],["dépistage",-11.553948059582815],["drastique",-11.553969303427376],["implantation",-11.553978604783262],["sécurisé",-11.554019305054547],["crédible",-11.554048707689912],["contestation",-11.554053618004737],["détresse",-11.554061212557519],["Olympique",-11.55411823090587],["infirmier",-11.554177187071918],["fauteuil",-11.554177506414046],["peloton",-11.554186597987297],["marcher",-11.554240192380021],["puce",-11.554643202116647],["réputé",-11.554720235431752],["incidence",-11.554993190145193],["Vienne",-11.55505126517937],["inquiet",-11.555066666291559],["princesse",-11.555466130346362],["evant",-11.555503834312002],["prétext",-11.555658283586869],["Virgini",-11.555692715012212],["glissement",-11.555751449177961],["déjeuner",-11.555865291791761],["consultant",-11.55593819026515],["asiatique",-11.55607268516298],["programmé",-11.556136783711082],["intellectuel",-11.556236494839036],["agglomération",-11.556351604751171],["Noir",-11.556619180296071],["furent",-11.556661041725958],["futurs",-11.556732400292153],["uite",-11.557169605789717],["Touj",-11.557463803328542],["Ram",-11.557750316372509],["protège",-11.558070483018676],["malienne",-11.55828354751653],["Web",-11.558833374494206],["NU",-11.559164640095126],["successeur",-11.559190319076055],["amendement",-11.55944790592467],["tunisienne",-11.559652309773963],["Aliou",-11.559706550809823],["adepte",-11.559919796564149],["Casab",-11.56079891266548],["exploitant",-11.561157110756486],["transmettr",-11.561375511221284],["Bal",-11.561396483009739],["fondée",-11.561420754545255],["balade",-11.561427087460292],["diplômé",-11.561463901253136],["incarné",-11.561500817949586],["artifice",-11.56160227856323],["amène",-11.5617171591668],["Batm",-11.562363685026027],["Mal",-11.562647428678108],["réparer",-11.563742126519156],["Trembla",-11.563772464649606],["Liz",-11.563824053967604],["êtr",-11.56443252348826],["riposte",-11.56490768262086],["saint",-11.565361782999934],["Né",-11.565371917580272],["Rousse",-11.565600296904037],["gan",-11.565665889230326],["tweeté",-11.565801235642034],["chanter",-11.566342366291883],["attiré",-11.566562831144573],["sénégalaise",-11.566634848200744],["pôle",-11.567316853991668],["admet",-11.567740770043347],["ntaine",-11.568059651767072],["satisfai",-11.568240538439142],["mystérieu",-11.568312649176464],["Jeff",-11.568337185668096],["passera",-11.568591664645224],["jihadiste",-11.568595813495481],["espére",-11.568630315939664],["tendre",-11.568749123520414],["Even",-11.569061883861211],["Congr",-11.569079467544778],["contacter",-11.569415775927588],["helem",-11.56945987281978],["coopérative",-11.56952902642242],["Con",-11.570506934169556],["footballeur",-11.570911755469108],["prudent",-11.571019303044768],["\"\"",-11.571334174656897],["utre",-11.571379670193506],["habite",-11.571491227619436],["manquement",-11.571723854759751],["amélioré",-11.572005844468116],["pixel",-11.57295388226231],["rapproche",-11.573862055086927],["imposant",-11.574382394220482],["ANA",-11.57440494957763],["Eh",-11.574506161674204],["apparaîtr",-11.575061825344957],["Milla",-11.575782785488071],["exécuté",-11.576859634812502],["hésit",-11.576934184380987],["Brig",-11.577117673101831],["remplaçant",-11.577308644434176],["congolais",-11.577367094774115],["cacher",-11.577371839717024],["index",-11.577383413781448],["ékin",-11.577688885053794],["restreint",-11.578564890482845],["socio",-11.57894291839912],["vois",-11.578968484033762],["abordé",-11.579184378838837],["Fer",-11.579805313717985],["God",-11.579976845349545],["croisé",-11.581522677987921],["AGE",-11.581655821968408],["tunisien",-11.58176519965497],["Av",-11.582169629565382],["pain",-11.582974695547538],["190",-11.583070590369424],["constitué",-11.583324281019602],["explose",-11.584074983188856],["déployée",-11.584186370460136],["Niger",-11.584523770381482],["Shaw",-11.58469315181123],["renseigne",-11.584739920092554],["mercenaire",-11.584800307518146],["fantôme",-11.584803588309278],["vérification",-11.584825804336072],["compositeur",-11.584866297996472],["Libye",-11.58489541081072],["autoriser",-11.585078208083377],["réglementation",-11.585099412992694],["assiste",-11.585144515103735],["démonstration",-11.585205464190505],["inclusif",-11.58521009260134],["Secrétaire",-11.585247054878975],["valable",-11.58537763000183],["idéologique",-11.585484170602955],["confortable",-11.585743360483107],["discrète",-11.58575322674459],["régulation",-11.585811866385052],["Rama",-11.585824714569348],["interrogation",-11.585909364539432],["décisif",-11.586042345747023],["Dragon",-11.586124941324387],["échoué",-11.586275859377787],["animée",-11.586302414364543],["Hassan",-11.586473430591646],["mor",-11.586675762318693],["fixer",-11.58681061258527],["consacrée",-11.58687414326536],["Col",-11.587323413503059],["fillette",-11.587464789235748],["Award",-11.588013960319904],["potable",-11.58843763977069],["république",-11.58857394234551],["blanchi",-11.588704287500773],["Grè",-11.5890706523534],["Unite",-11.589234555551126],["Ferra",-11.589263114503824],["March",-11.589288324594573],["luxembourgeois",-11.589349278981558],["rire",-11.589682507573583],["metteur",-11.590117795001431],["allocation",-11.59012293320028],["Cyril",-11.590453327673192],["pacifique",-11.590542193833725],["Char",-11.591124041300041],["Parisien",-11.591541904080044],["ascension",-11.591619628979085],["sauvé",-11.591634764283803],["saoudi",-11.591635255995982],["vivai",-11.591795967915424],["caus",-11.59200276523405],["arkozy",-11.592110339313763],["zon",-11.592887986803657],["évalué",-11.592902453795377],["Robin",-11.593181864528884],["AC",-11.593558582202864],["160",-11.593721236982573],["Retour",-11.593925954271933],["Bennet",-11.594154791973168],["mensuel",-11.594260437392428],["lent",-11.59506483315386],["assistant",-11.595289912888829],["stein",-11.595639985014639],["ert",-11.59649887170475],["Spu",-11.596684736446791],["landais",-11.596910806876576],["Yanni",-11.597006419233658],["ë",-11.597174117567734],["Wout",-11.597893291691609],["céder",-11.598229399513976],["bleue",-11.598417642237512],["SG",-11.598510516114573],["Américaine",-11.598675702645085],["renfort",-11.598900802776242],["auf",-11.598984749586933],["canal",-11.59907422732864],["11h",-11.599429370359246],["grossesse",-11.599800423634528],["genou",-11.600457095647759],["toxique",-11.600735011413194],["sacrifice",-11.60079510803723],["Croat",-11.601600864238568],["né",-11.601732329585491],["domination",-11.6020529438605],["CR",-11.602502103481912],["fondamenta",-11.602532447932669],["dos",-11.602608577357572],["plonger",-11.602699719582844],["Programme",-11.60280321891895],["imaginé",-11.60286917066928],["pénétr",-11.603089166001133],["Global",-11.603246488276858],["tendu",-11.603249204881518],["rassembler",-11.60326997177745],["Com",-11.604340446772877],["fonctionn",-11.6055322200283],["émerge",-11.605536798911256],["décid",-11.605620666435211],["évité",-11.605737964270096],["Che",-11.606132595285791],["définir",-11.606303173942633],["roy",-11.606470900642794],["Ros",-11.607425658533565],["br",-11.607734944874165],["Pont",-11.607878319218877],["Polic",-11.608343319817255],["recensé",-11.608755307264214],["procurer",-11.60886077229614],["ouvrant",-11.609123793484784],["ralenti",-11.610108877624791],["avoué",-11.610123355413954],["ondation",-11.610167653415566],["Cité",-11.610206470935143],["gang",-11.610732869924615],["tres",-11.611063459195101],["alles",-11.611314176408497],["Mb",-11.611390431466772],["at",-11.61154483883905],["achète",-11.611601703977035],["déclin",-11.611824253037266],["PN",-11.61225641728264],["ney",-11.612523415192964],["ilité",-11.613453466713027],["gri",-11.613892105350418],["Bleu",-11.614092620370698],["Rein",-11.614355437124996],["attache",-11.61599869606811],["hyper",-11.616125173481308],["chimique",-11.616209969748585],["PL",-11.6163444399441],["Toulous",-11.616671447362286],["ac",-11.6168598414192],["embarque",-11.616905050819232],["Émirat",-11.61705832940852],["Bruxellois",-11.617074856901667],["miracle",-11.617087311554192],["propagation",-11.617104439616892],["rafraîchissement",-11.617332049216936],["indemnisation",-11.617378373743676],["Raymond",-11.617394572712445],["bitcoin",-11.617583477169582],["inaugur",-11.617606023520697],["Antoni",-11.617843475575484],["approbation",-11.618014719696452],["citant",-11.618253667694864],["Studio",-11.618278416714503],["statue",-11.61836648663929],["reportage",-11.618531897828644],["décroché",-11.618601557858323],["SPV",-11.618821792045248],["entamer",-11.619253321198205],["syrien",-11.61960658553727],["soutenue",-11.619942051404877],["entame",-11.620075502519615],["enregistrer",-11.620106756137103],["Franck",-11.620201186746815],["secrète",-11.62047923391434],["failli",-11.620550329288212],["leadership",-11.620633593330842],["icône",-11.620806916731482],["appuyé",-11.620992764432525],["senti",-11.621027417798897],["corriger",-11.621321588392512],["compren",-11.621662515219246],["wer",-11.622293775651139],["démenti",-11.622323461899887],["envergure",-11.62245992668188],["mie",-11.622502711647858],["détenteur",-11.622661214023555],["opu",-11.623237272082937],["effondrement",-11.623313590344186],["Roi",-11.623315448946201],["portion",-11.623418886174992],["AL",-11.623666386455156],["économiser",-11.624155488545771],["annonçai",-11.6242361045582],["commente",-11.624290169199536],["marchand",-11.624394959889939],["ollah",-11.625870793924856],["Kan",-11.626122199299841],["dirai",-11.626182414290515],["palestinienne",-11.626216460519363],["Stream",-11.626318419378837],["brutale",-11.626344257054008],["valide",-11.626590043680064],["ira",-11.626731542724366],["Tandi",-11.627036717827579],["Camill",-11.627083368291142],["préserve",-11.627175653553024],["transactions",-11.627361854834232],["cassé",-11.627426995504033],["guise",-11.628120427292087],["rage",-11.628365867162001],["supprimé",-11.628757120838955],["adresser",-11.628786103250597],["Barc",-11.628874670013202],["Noire",-11.628988718153051],["confiée",-11.629322373741326],["An",-11.629486987539885],["04",-11.629487701544788],["tirage",-11.629587462673806],["démarré",-11.629960859283342],["syndical",-11.630049572046058],["otamment",-11.63040687757895],["publi",-11.630498378303216],["patin",-11.63115796232769],["subit",-11.631217653511309],["absolue",-11.631277964840422],["label",-11.631628773963577],["négative",-11.631637957984307],["débours",-11.633736508831927],["Rock",-11.633759758236398],["limitation",-11.63445817809734],["approfondi",-11.634567346451007],["déroulée",-11.635069406860802],["foire",-11.63542234888765],["ador",-11.635935881027988],["Amado",-11.635987556567933],["Canal",-11.63643398561453],["Contre",-11.63647325376622],["SE",-11.636764848735103],["financé",-11.636922067710454],["encadre",-11.637109363551051],["renvoyé",-11.637160382477052],["constitution",-11.637469388137648],["étroite",-11.638296903315291],["engou",-11.638600765560554],["grec",-11.638774253204094],["urnes",-11.638805298150823],["exagon",-11.638923917101332],["nommée",-11.639076291929948],["tire",-11.639435714418747],["sérieu",-11.639557398831785],["Europ",-11.639604761059136],["ov",-11.640522260222316],["parvienne",-11.640591705033374],["mouri",-11.640637421751611],["bulle",-11.640724670308389],["envahi",-11.641833814318534],["Total",-11.641934182937277],["pop",-11.642319365725603],["oût",-11.642361716122597],["arrache",-11.642397202383428],["02",-11.642437879368106],["chalet",-11.642639741507844],["Jim",-11.642859770594379],["visan",-11.643148425347633],["demeurer",-11.64354823085415],["fournit",-11.643576164538617],["iment",-11.643821514889751],["transporter",-11.644394751897813],["permanente",-11.64474609451468],["témoigner",-11.644819718665975],["Baie",-11.644831102488192],["éleveur",-11.645854155659691],["municipa",-11.646999938204377],["écrite",-11.647178064215348],["quai",-11.647493835679224],["amuse",-11.647687596351123],["appé",-11.647985857305425],["autrice",-11.648210762602027],["australien",-11.648411251117494],["réchauff",-11.648439053610918],["Bri",-11.649299141279329],["Somme",-11.64964642918116],["importé",-11.649679305653775],["remontée",-11.649774525994934],["ach",-11.649833721196947],["Bonne",-11.649957483650725],["ransition",-11.650040161248802],["Journal",-11.650162392061581],["thérapie",-11.650363258143017],["²",-11.650390510187489],["curiosité",-11.650393569117437],["propagand",-11.650396028627725],["Hôpita",-11.650404268649178],["cigarette",-11.650404327119928],["XIX",-11.65041973981154],["Chevalier",-11.650420060922915],["cyberattaque",-11.65060974257254],["fourniture",-11.650739467706918],["Hier",-11.650883914777097],["modalité",-11.651048619635787],["camping",-11.651222885092224],["artillerie",-11.65125399261235],["Pedro",-11.651639838218387],["forum",-11.651652034615166],["recherché",-11.651676791499867],["écologi",-11.651915252415705],["biologique",-11.651983453833015],["tragique",-11.65198801717105],["cathédrale",-11.652113651544642],["suggère",-11.652197295322958],["réitéré",-11.652413241580565],["anonym",-11.653074504768822],["compenser",-11.653121898963152],["…)",-11.653291025637142],["Arrivé",-11.653308032946914],["charme",-11.65330942596188],["dévoilée",-11.653376805911495],["incarner",-11.653660614152347],["Ronald",-11.65389120861401],["lizzard",-11.653966288982673],["taxi",-11.65425643406164],["optimiste",-11.654331645469156],["demandai",-11.654446781619773],["illustré",-11.65460121713288],["Far",-11.654684369823826],["94",-11.65473929779094],["Roussel",-11.654812801954177],["Ell",-11.655437179921854],["Fox",-11.655438313433526],["étend",-11.6555353813377],["renchéri",-11.655849154981983],["appelée",-11.656196925804242],["traduir",-11.656489060947706],["réfléchi",-11.656661389932166],["courriel",-11.65687445582157],["IV",-11.657258010591665],["faibles",-11.657327112897214],["carrefour",-11.657412972889292],["203",-11.657478882030118],["AM",-11.657740224905194],["appliquée",-11.658064052012527],["travaillai",-11.658086841124543],["import",-11.658179305106264],["Boucher",-11.65848680078463],["explosé",-11.659123161308047],["crypto",-11.659438232758287],["Nor",-11.66019958550724],["parfum",-11.660424018787483],["dîner",-11.660598457978725],["agressé",-11.66078251742999],["Nicole",-11.661052141315816],["pair",-11.661735348170591],["sèche",-11.661968213196076],["pâte",-11.662156134988523],["bascule",-11.662383869719125],["couver",-11.662518789430322],["exploité",-11.662893100964698],["escroquerie",-11.662907885177436],["délicat",-11.66335596490927],["salue",-11.66386363164283],["rou",-11.663979075757766],["boisson",-11.664139608759621],["Fo",-11.664267094020833],["Lui",-11.664394771339504],["rouler",-11.664428746134172],["domine",-11.664569074914013],["abouti",-11.664569893553594],["étiquette",-11.664649410376438],["15h",-11.665265080582595],["arros",-11.665336066624443],["remporte",-11.665536232680829],["bâti",-11.666040831503029],["fusil",-11.666381499056671],["ein",-11.666617068815642],["ifficile",-11.667075287099053],["modéré",-11.6679855646104],["Neuve",-11.668286519062367],["exploite",-11.668327030629902],["boire",-11.66847577226278],["Mons",-11.668576443228316],["plate",-11.6685792367945],["rent",-11.668649054116043],["NF",-11.668944487867455],["perturbé",-11.669155520740016],["MC",-11.669659715010917],["jet",-11.670053233180553],["avéré",-11.670523917135394],["tracé",-11.671099090109202],["cloche",-11.671263839297133],["séduit",-11.671520381647188],["battant",-11.671553579979623],["Berger",-11.67206429900707],["insecte",-11.672431455918096],["orthodoxe",-11.672611153467416],["repère",-11.672766342121957],["lanceur",-11.67326469061523],["HC",-11.673331015166145],["divise",-11.673459963806875],["10h",-11.673542372753813],["lâché",-11.67391893269858],["ger",-11.674321594239608],["Fair",-11.674401236352205],["effectuée",-11.674564317169866],["Sorti",-11.674852813292393],["amont",-11.675595007043086],["Feder",-11.676144827501298],["emblée",-11.676382169023999],["ta",-11.67645767162223],["opérationnelle",-11.676652250704535],["pui",-11.676918748546385],["précoce",-11.67730400090446],["ww",-11.677410699564977],["consulté",-11.677646707723628],["hu",-11.67855255173051],["contenter",-11.678553152554018],["unis",-11.678980323685755],["logo",-11.679114001853545],["col",-11.679878492173561],["drôle",-11.680122223455369],["indiquer",-11.68017633150971],["prolongé",-11.68038340082192],["posée",-11.680626036719769],["échangé",-11.680840222619036],["externe",-11.680846838271709],["ignan",-11.680861193336915],["affirmer",-11.681458585589008],["bris",-11.681988843966069],["congr",-11.682207750068095],["XX",-11.682316664621935],["prédi",-11.682421601262156],["mesur",-11.682461805429986],["nier",-11.68258430792826],["nent",-11.682776892853214],["pirate",-11.68324191968868],["légume",-11.68332534034837],["valorisation",-11.683402649292141],["débutera",-11.68402283641426],["feuilles",-11.684393273802975],["challenge",-11.6844383476119],["préliminaire",-11.684873990256632],["Windows",-11.684876963857153],["particularité",-11.68488547101847],["Norvégien",-11.68489490311563],["Knight",-11.684903366817906],["échevin",-11.684913884344159],["publicitaire",-11.684925348829639],["Elysée",-11.68493709203914],["Lorrain",-11.684950198348089],["portugais",-11.68497545656425],["Ouaga",-11.684980664800172],["prouve",-11.685012419013457],["confusion",-11.685072069701041],["Xiaomi",-11.685110984485297],["paisible",-11.685126428502624],["prénom",-11.685178833256598],["pénalité",-11.685374162655869],["Villeneuv",-11.685381076638496],["Cédri",-11.68542983223368],["mettra",-11.685723755362243],["Hydro",-11.685741420669931],["Carl",-11.685761280323458],["?»",-11.685952165054003],["trilogie",-11.686090019298724],["Holland",-11.686090898286244],["tissu",-11.686156593015646],["directive",-11.686633139248618],["indication",-11.686663661003335],["suffrage",-11.686704700527372],["stupéfiant",-11.686782529812376],["Swiss",-11.687289507063031],["CHU",-11.687315509428103],["impliqua",-11.687466552895746],["gabonais",-11.687731697872902],["restaurateur",-11.687752395281393],["facilité",-11.687977552698214],["attraction",-11.688054460906534],["Tampa",-11.68824071893432],["ros",-11.688309588232748],["risqu",-11.68832916501331],["échelon",-11.688534761170974],["stopper",-11.688817416884827],["MT",-11.689376196541213],["travaillant",-11.689491189091012],["affrontent",-11.689502615463072],["mail",-11.690350921980745],["intégral",-11.690907085778178],["confirmée",-11.691157643946902],["riv",-11.691189535407377],["étudié",-11.691256356151012],["Norv",-11.691289462452977],["Arth",-11.691948994856343],["Rocket",-11.692282585640804],["réconcili",-11.69251434038245],["SAN",-11.692682456597453],["rive",-11.69293610921595],["ïv",-11.69299544321482],["accords",-11.69367600037495],["liant",-11.693972162811876],["onko",-11.694142309415865],["module",-11.694511012563202],["Modern",-11.694808209472443],["performant",-11.695409155433218],["généra",-11.695423240191289],["aimer",-11.695437001178936],["islam",-11.69546318610635],["Lewi",-11.69548482183584],["Matt",-11.6955004426373],["prononcée",-11.695506758009078],["gilet",-11.695642617383761],["générer",-11.695775489976636],["funérai",-11.695852314597696],["envol",-11.695901529582272],["enregistre",-11.696080621132142],["notable",-11.696447397795245],["soudain",-11.69672719208144],["neuv",-11.696960510390952],["couler",-11.697681541705307],["Ultra",-11.698153127986881],["autorisée",-11.698157743149732],["vaincu",-11.698334519035898],["ache",-11.698372248454895],["cross",-11.698650076292932],["sanctionné",-11.699178234823762],["ab",-11.69923768350959],["deuil",-11.69926594147362],["Irak",-11.699448703961671],["relâche",-11.699467232788647],["lunette",-11.700404340476783],["œur",-11.700608575571867],["juré",-11.700622150337857],["brûlé",-11.701066903198887],["soupçon",-11.70167727433982],["ey",-11.702274784451923],["ak",-11.702748581128976],["Brian",-11.703016381413732],["surnommé",-11.703255644927285],["Atlas",-11.703260203036617],["constitu",-11.70328852141582],["Mada",-11.703859090269367],["tube",-11.703889847909625],["viation",-11.70402638050921],["atténue",-11.704037281862483],["Renau",-11.70424455828255],["inauguré",-11.70447341665831],["renouvelé",-11.705049282570187],["gissant",-11.705470433478633],["immigré",-11.705544001395587],["reçoive",-11.705568678298373],["départemental",-11.70584060806544],["Sy",-11.706057183842868],["axe",-11.706256036741161],["BB",-11.706404756736447],["printe",-11.70646290297374],["voile",-11.707030706754336],["Arc",-11.707771608242835],["Fed",-11.70801738325404],["450",-11.708173131148211],["consigne",-11.708200246313034],["Jin",-11.708383906128075],["Lucas",-11.708463862065832],["Kent",-11.709193320286325],["reporté",-11.709950274704525],["arrêtée",-11.71034723595108],["croyai",-11.710449876077204],["mortelle",-11.710520120723624],["complice",-11.710633253945561],["vend",-11.710664062824673],["légale",-11.710689190115135],["recense",-11.711100354219202],["susciter",-11.711281342628915],["plaint",-11.711496051279122],["radar",
[...]
