{"version":"1.0","truncation":null,"padding":null,"added_tokens":[{"id":0,"special":true,"content":"<UNK>","single_word":false,"lstrip":false,"rstrip":false,"normalized":false},{"id":1,"special":true,"content":"<SEP>","single_word":false,"lstrip":false,"rstrip":false,"normalized":false},{"id":2,"special":true,"content":"<MASK>","single_word":false,"lstrip":false,"rstrip":false,"normalized":false},{"id":3,"special":true,"content":"<CLS>","single_word":false,"lstrip":false,"rstrip":false,"normalized":false}],"normalizer":null,"pre_tokenizer":{"type":"Whitespace"},"post_processor":null,"decoder":null,"model":{"type":"Unigram","unk_id":0,"vocab":[["<UNK>",0.0],["<SEP>",0.0],["<MASK>",0.0],["<CLS>",0.0],["s",-2.810169974774949],["the",-3.3205468824718523],[".",-3.3536138085679923],[",",-3.4276811358678962],["a",-3.729826210736473],["to",-3.8811845824592854],["and",-4.044114554257014],["of",-4.073787165760303],["d",-4.192223984034291],["in",-4.239270486187541],["ing",-4.428133210302839],["t",-4.466723207817262],["y",-4.528789924562222],["ed",-4.60587505831581],["e",-4.632206228156319],["on",-4.720289986040058],["’",-4.7921198122687745],["-",-4.82140363269132],["that",-4.9320278516352385],["is",-4.948183740328583],["ly",-4.953137166174635],["for",-4.976488533415296],["The",-5.132993530270342],["I",-5.137586336007113],["o",-5.158469110095627],["with",-5.2259670227655555],["be",-5.243922786428394],["n",-5.35363888333065],["it",-5.359336439759522],["“",-5.382478627929826],["was",-5.435868512760983],["are",-5.484297768576159],["'",-5.533888639229559],["aid",-5.629018766160099],["have",-5.6561892767761695],["at",-5.684250750634455],["an",-5.73898671964602],["has",-5.7616988816196635],["from",-5.816590971230543],["he",-5.832247541530268],["by",-5.853222516931295],["will",-5.894768235830261],["\"",-5.9038345802266115],["not",-5.977150920945448],["i",-6.023661453524806],["this",-6.0282435857128895],["r",-6.0315729595222525],["his",-6.077966533073129],["you",-6.124855411968953],["we",-6.12814289952833],["or",-6.150047299705715],["their",-6.178291046491143],["A",-6.226268003609286],["out",-6.245909621190547],["who",-6.285501932200184],["m",-6.291576641322656],["one",-6.298462979904313],["but",-6.3073041531774265],["been",-6.315509094325231],["can",-6.35876185868935],["her",-6.367684282416816],["all",-6.41382779133081],["were",-6.416332272459881],["(",-6.422475666247946],["more",-6.424132155260153],["had",-6.431954234861575],["up",-6.432085374467469],[",”",-6.442934924101994],["ies",-6.450793921568536],["they",-6.456284899421993],["also",-6.5119382592983435],["people",-6.515193720541438],["about",-6.5223774536857935],["other",-6.530006480094636],[":",-6.549465352625797],[".”",-6.5799999145529675],["time",-6.588763621449889],["h",-6.6022907396327835],["which",-6.612041133247848],["S",-6.631426270466276],["19",-6.635852915147623],["l",-6.6802598344864315],["like",-6.68865323524494],["year",-6.691400413257819],["”",-6.707719908540847],["would",-6.711178100417779],["re",-6.729244490391222],[")",-6.754032317062599],["new",-6.764658028705869],["our",-6.76742296310692],["We",-6.790306356280951],["when",-6.803332625913345],["day",-6.808054074315978],["over",-6.811691915021129],["after",-6.829043595414042],["He",-6.831088384738111],["there",-6.844043800408844],["al",-6.846993833698567],["In",-6.849907238065123],["she",-6.852727468931008],["its",-6.882306974201834],["what",-6.900631808535089],["$",-6.9050321662983],["some",-6.913489733737084],["b",-6.915133245092079],["than",-6.916649535689253],["?",-6.936119600975052],["get",-6.946902821734106],["now",-6.959894155200805],["just",-6.9720198074240045],["f",-6.979678198960841],["er",-7.000567240311623],["first",-7.001940700979261],["20",-7.009178989463857],["two",-7.011384671739721],["1",-7.031078512698553],["—",-7.038247174912157],["cause",-7.055131797253417],["if",-7.05625628306839],["how",-7.056311108642824],["them",-7.0577253210974735],["my",-7.068836151847454],["him",-7.113849653977645],["need",-7.118185048841337],["most",-7.124275174121793],["back",-7.124669270098716],["any",-7.135648021265018],["This",-7.143425163774065],["us",-7.157057369352923],["your",-7.167455323560811],["work",-7.168605717470819],["p",-7.169869948573426],["could",-7.175962712219113],["But",-7.178043966188611],["c",-7.189870456102703],["state",-7.199703659130673],["last",-7.211205531914163],["able",-7.218985511056827],["2",-7.245302497139923],["w",-7.254162489228498],["C",-7.268376813494304],["ever",-7.273423988423355],["whil",-7.277783849292623],["through",-7.279130110479367],["take",-7.291081284985125],["want",-7.305033356421078],["during",-7.312079289146722],["being",-7.3197490042025155],["into",-7.32715885991592],["make",-7.344232105400488],["where",-7.350342915422425],["well",-7.354437828663536],["way",-7.358046561403205],["every",-7.3708505262123545],["home",-7.37767077618592],["many",-7.378070004043321],["government",-7.385264341149907],["help",-7.389401643883617],["man",-7.390604205690565],["going",-7.3938938935527005],["see",-7.404831873472066],["even",-7.410166119535753],["use",-7.412120485234952],["COVID",-7.414268973320413],["ve",-7.414757603763879],["come",-7.416187351827341],["before",-7.417366641029557],["look",-7.433890699092932],["000",-7.438517298048247],["years",-7.440239004247139],["M",-7.448059465227144],["game",-7.449556736896838],["3",-7.458401771217812],["health",-7.471442880305417],["–",-7.472044459081143],["T",-7.472879087677907],["u",-7.474907680936901],["should",-7.484577909358184],["go",-7.492210855682551],["hose",-7.494220538311955],["down",-7.499903291742779],["know",-7.504776401755113],["week",-7.508063472360829],["me",-7.5132553137749705],["agains",-7.514776014309648],["Trump",-7.519411632070455],["%",-7.541956291310561],["made",-7.543738816095111],["thing",-7.5502570571407555],["4",-7.551589370897744],["play",-7.552647745897581],["coronavirus",-7.55271930535033],["U",-7.556388135587278],["un",-7.556725008075598],["And",-7.5574734706273645],["long",-7.564474271631758],["still",-7.56668714236822],["part",-7.570284547878189],["three",-7.578103161404882],["2020",-7.580488910834372],["‘",-7.582094760782619],["g",-7.582356698931692],["5",-7.583904435823177],["real",-7.591247277533628],["end",-7.591527474263389],["off",-7.5963573905316535],["call",-7.6062572410900255],["old",-7.612331820688929],["very",-7.6148037532940664],["high",-7.620585927883657],["B",-7.626505444212182],["may",-7.632493346867479],["these",-7.642707434348365],["per",-7.645230503044891],["place",-7.650456939152051],["start",-7.65272711382292],["million",-7.654792972871373],["She",-7.662253568439359],["support",-7.665734465264007],["good",-7.670217365216918],["show",-7.671371279680546],["pandemic",-7.672982351476976],["under",-7.673518913292109],["country",-7.674114482644296],["number",-7.684830920159112],["much",-7.684876574317571],["There",-7.688438123904295],["th",-7.692161337397242],["says",-7.695523784584865],["cases",-7.696518219969374],["/",-7.697518742327082],["team",-7.702814472016403],["think",-7.70630003718035],["around",-7.712194479605119],["continue",-7.7182566959490275],["school",-7.719548103721128],["New",-7.723357489259401],["6",-7.7259322148898875],["public",-7.726474881188499],["business",-7.735883058210909],["right",-7.737916451762314],["point",-7.744164904049188],["season",-7.748827446036088],["such",-7.749737780781225],["world",-7.7580272811881414],["10",-7.765824484960882],["close",-7.770905901061574],["test",-7.773104231928084],["change",-7.778036884882609],["police",-7.781366476319971],["since",-7.783042606455734],["life",-7.783329268285836],["If",-7.797916575891567],["E",-7.799781465047948],["own",-7.800029247904034],["communit",-7.802557954612211],["D",-7.805807737261049],["self",-7.8060966667300375],["did",-7.806340090624194],["company",-7.807702036795557],["service",-7.809740834977068],["family",-7.824993356084382],["That",-7.828197631232422],["R",-7.832939001980808],["came",-7.838423056859377],["le",-7.8443422332830135],["issue",-7.845047108932174],["including",-7.845759983474746],["person",-7.860540972439571],["7",-7.86105293126252],["How",-7.872498166176045],["ity",-7.873524141207933],["N",-7.876382384069693],["next",-7.876868029106915],["say",-7.882847228200542],["ce",-7.885408928556931],["k",-7.891801873689319],["P",-7.892722359496574],["ready",-7.894662942106978],["second",-7.906000026309582],["told",-7.931179868990557],["both",-7.9317342339769805],["same",-7.933258161654403],["Mr",-7.933852465555504],["care",-7.940210615474831],["lot",-7.9405560861839986],["head",-7.940564321678621],["8",-7.944638777170088],["9",-7.947700217712684],["ember",-7.966638462947037],["group",-7.969814203247087],["As",-7.969933884940894],["For",-7.972422937970762],["less",-7.972426393826029],["student",-7.973106161117094],["plan",-7.975395785807261],["0",-7.979954891859478],["don",-7.980545663619905],["You",-7.985395765101331],["ary",-7.988059641453769],["etween",-7.991155837005558],["current",-8.000246885083033],["social",-8.009961506844409],["keep",-8.020575184576414],["President",-8.024306084875292],["few",-8.024941212558332],["order",-8.025311276368127],["O",-8.028356280544745],["remain",-8.03076199444417],["recent",-8.037387339375732],["put",-8.0385906307686],["result",-8.039729478735588],["return",-8.04179814536159],["On",-8.04455287497138],["open",-8.047490696412776],["virus",-8.048233476170378],["coming",-8.05202166619444],["night",-8.057383866272628],["though",-8.060451016157],["each",-8.062958433555151],[";",-8.063321704957461],["election",-8.066615395381337],["love",-8.06833690925715],["base",-8.07025504012963],["face",-8.07051515720748],["Friday",-8.072055042615776],["different",-8.07676940614152],["case",-8.078012563822929],["provide",-8.079349145248006],["report",-8.085066421192925],["best",-8.085303624166976],["president",-8.08701332662877],["month",-8.090857609194957],["got",-8.091050243414873],["W",-8.091599325909545],["near",-8.094480401744423],["four",-8.095230036925628],["So",-8.099559826028186],["ll",-8.10278204924689],["include",-8.105698550801467],["!",-8.10842767269247],["found",-8.11098458857769],["release",-8.110984789693873],["move",-8.115694763831048],["city",-8.120196835123622],["great",-8.124265159184167],["local",-8.131346981449244],["across",-8.132261778500776],["American",-8.137156072951342],["reported",-8.140126267718047],["30",-8.143819825582131],["low",-8.145896018154385],["US",-8.146044376711938],["market",-8.14777329641587],["When",-8.152736741921213],["side",-8.15511776010073],["L",-8.157964346913108],["H",-8.15848010952039],["special",-8.164128836391285],["State",-8.170887577357693],["event",-8.176506006688184],["live",-8.177789651466824],["give",-8.179855510463021],["here",-8.181598041685177],["large",-8.190409568002888],["due",-8.192984382235863],["ment",-8.19385518937781],["mean",-8.196692615023395],["line",-8.198755899966711],["according",-8.212153264407483],["far",-8.21218541208535],["price",-8.212522665179222],["system",-8.21403126592438],["allow",-8.215468699469305],["F",-8.215707310294965],["working",-8.216924185509878],["hour",-8.218496581480284],["left",-8.220526311246068],["adde",-8.221446929100797],["ally",-8.226013564032217],["15",-8.227061053767912],["level",-8.22814361608518],["full",-8.232413837538616],["never",-8.234893965363302],["something",-8.240354714295961],["feel",-8.254163297152074],["share",-8.254821979074425],["Monday",-8.255448962979765],["What",-8.255531079401223],["better",-8.261973972662684],["until",-8.266110025150775],["believe",-8.268844195381122],["12",-8.276936668272457],["statement",-8.279668290700553],["things",-8.284277755156175],["children",-8.286119973176246],["term",-8.286249010024438],["big",-8.287267102495788],["talk",-8.28769099395609],["didn",-8.292107401490114],["quarter",-8.292153408123506],["might",-8.293193307981396],["months",-8.29430405264946],["ook",-8.294358573695842],["11",-8.29661076125138],["receive",-8.302518716738316],["must",-8.30257890932523],["film",-8.305201600204267],["…",-8.305671810716877],["To",-8.307882093414891],["increase",-8.309428616451584],["does",-8.310463695956667],["five",-8.311363899316639],["With",-8.315937184386689],["force",-8.317853918960505],["China",-8.320125790441438],["County",-8.32231726394124],["alway",-8.323052086128406],["final",-8.327038048854654],["een",-8.327931626282457],["March",-8.329274425673866],["hard",-8.329543113876142],["past",-8.330855713788523],["body",-8.332002351952864],["ness",-8.332683321645941],["hospital",-8.333145716292167],["total",-8.335453995687558],["information",-8.336295168368547],["away",-8.337245261890972],["members",-8.338597818695135],["Whil",-8.338787265929856],["top",-8.343371569186221],["Thursday",-8.346133209272809],["stay",-8.350240893600315],["officer",-8.350447931501666],["important",-8.35066280868448],["become",-8.355817587657157],["positive",-8.356960112472317],["decision",-8.357718221518837],["South",-8.35883045957888],["wh",-8.359990374770195],["find",-8.360392765298787],["&",-8.36209778578224],["vote",-8.364900044748959],["making",-8.365854143311672],["G",-8.370043331273457],["record",-8.372891952742865],["again",-8.37367050559287],["risk",-8.374574769760022],["spread",-8.3754962477513],["No",-8.376779793549783],["Tuesday",-8.376837732498498],["media",-8.382119825534934],["went",-8.3824593047784],["Health",-8.384043900599282],["Sunday",-8.38447503773354],["Saturday",-8.387288960284769],["power",-8.388812822794154],["ance",-8.388848522157272],["food",-8.392859975221281],["women",-8.396490342354355],["experience",-8.39757518575049],["money",-8.399566697534297],[").",-8.399636753103831],["deal",-8.401737715825831],["question",-8.402656157257015],["win",-8.40315646876156],["project",-8.403371725211366],["former",-8.403759019337803],["resident",-8.40412416726268],["little",-8.41173911228034],["together",-8.418870649442741],["future",-8.419311906207016],["won",-8.421061901395372],["am",-8.422043313450587],["later",-8.422796075786856],["law",-8.423251251806331],["car",-8.424253653864284],["concern",-8.425515266046268],["stock",-8.42554969290321],["One",-8.426404934612558],["death",-8.426873271832967],["run",-8.42822275263385],["14",-8.432243727757726],["wide",-8.435664430692766],["16",-8.436321243169647],["age",-8.439300288791127],["six",-8.439782015056597],["pay",-8.440736425662585],["hit",-8.44468464656244],["land",-8.44509533544049],["shares",-8.4512899103404],["claim",-8.451807210725013],["K",-8.452100277680024],["staff",-8.452577371093541],["Wednesday",-8.453975659391492],["fund",-8.455426032422409],["water",-8.455984451140628],["worker",-8.459667530748039],["happen",-8.459920908498896],["United",-8.462768549251736],["free",-8.464125853317345],["21",-8.46466805614115],["turn",-8.46837037740175],["men",-8.471717518955288],["action",-8.473317349832111],["50",-8.475226095691088],["leas",-8.476252848183723],["several",-8.47713854136122],["along",-8.477567042869167],["small",-8.478026973700295],["ive",-8.478835339818163],["An",-8.480640100725626],["national",-8.482457073888904],["clear",-8.48251052465342],["process",-8.485553920942396],["taking",-8.48702057591865],["mask",-8.487473220590772],["announced",-8.49140750183355],["cent",-8.496579486580298],["post",-8.49704155779496],["office",-8.506776849513933],["May",-8.508290497942287],["arly",-8.509200848929703],["sure",-8.509480358285375],["series",-8.511300705125784],["video",-8.514973455113442],["today",-8.516665387104792],["17",-8.518680418271273],["officials",-8.519764200182603],["weeks",-8.521453216353375],["um",-8.521756742374654],["program",-8.523216123714828],["given",-8.524031191839823],["political",-8.525714457124291],["National",-8.527585799305568],["online",-8.528280742744764],["trade",-8.531458067936324],["All",-8.531781853322784],["doesn",-8.534979842208543],["court",-8.535390414773987],["create",-8.536161573725678],["seem",-8.536510691084334],["using",-8.537687057741184],["air",-8.539894632957342],["nough",-8.540221719461261],["After",-8.540833646773134],["),",-8.543392472993045],["data",-8.543665365834507],["half",-8.54819541542529],["lead",-8.548717634265847],["late",-8.553696181235694],["Police",-8.55533070481087],["among",-8.55698722858424],["players",-8.557002158320143],["campaign",-8.558358265971691],["possible",-8.562281935420867],["Al",-8.562329814611335],["taken",-8.56436915846692],["24",-8.56574202956387],["third",-8.566016568574296],["consider",-8.56601954682927],["period",-8.567446547387082],["problem",-8.569455853546243],["further",-8.569491936790957],["complete",-8.570505445570953],["try",-8.571863690856782],["200",-8.57482129651807],["De",-8.582073367898682],["position",-8.585024575657524],["party",-8.58594253494499],["house",-8.586244185007326],["whe",-8.587036211840863],["25",-8.588729131652954],["Covid",-8.589510485644201],["job",-8.590244410697965],["field",-8.594834599246703],["hope",-8.601527654248901],["ial",-8.602517119248658],["impact",-8.604530963964233],["kind",-8.605074687005501],["Dr",-8.605190256218926],["cost",-8.605730930892786],["effort",-8.605798397293992],["Biden",-8.606130820974414],["13",-8.607430536710275],["City",-8.609584885505553],["deliver",-8.609931881537172],["yet",-8.610011555758696],["young",-8.613120680023243],["light",-8.614987375567669],["fire",-8.623523282300756],["interest",-8.623544374380728],["buy",-8.624638142175591],["York",-8.626633620890306],["following",-8.627243262793424],["attack",-8.6274626469039],["board",-8.630376816900878],["measure",-8.631063094101913],["fact",-8.634705218345113],["ship",-8.637501578941325],["100",-8.638142514595383],["lockdown",-8.64042310208796],["short",-8.645801089034283],["leader",-8.646102132984105],["situation",-8.646454528110343],["Black",-8.648300628802904],["18",-8.648781225275842],["fight",-8.651077319816814],["percent",-8.652275692302446],["House",-8.655048770415334],["appear",-8.65787461402605],["led",-8.6592381766467],["meeting",-8.659847838366812],["confirmed",-8.661218625515362],["bring",-8.663379469332893],["watch",-8.664244761718514],["security",-8.66447789128103],["Nov",-8.667222953074896],["travel",-8.667360695052146],["rate",-8.667485586534893],["expected",-8.669444385311417],["previous",-8.669729429904173],["economic",-8.670204210064943],["course",-8.671052502874147],["industr",-8.671536377143639],["grow",-8.672960669678849],["held",-8.673189750127484],["Universit",-8.673305298000646],["require",-8.682988971885429],["fall",-8.682995468285611],["opportunit",-8.684003864904014],["actual",-8.685042807899887],["nation",-8.685499045406289],["major",-8.687153155836686],["known",-8.687153833047603],["safe",-8.6877186776956],["Apri",-8.689953877846888],["woman",-8.689959373994796],["role",-8.690633588057286],["visit",-8.691012473453664],["Be",-8.691028116149944],["hold",-8.69595263095306],["Minister",-8.69799760507325],["sign",-8.700699867714821],["ball",-8.701780571986816],["potential",-8.702094440644377],["June",-8.702525509338251],["According",-8.704224722736884],["forward",-8.705585274559358],["protect",-8.706275721921346],["matter",-8.707626436037616],["direct",-8.707995318890521],["companies",-8.708243790441962],["ago",-8.709162770609117],["done",-8.709199645227955],["outside",-8.709477428700694],["strong",-8.710783537377814],["Some",-8.71157899026657],["contact",-8.712418862268581],["billion",-8.712480226721908],["ation",-8.713720833928788],["moment",-8.714555187756016],["fans",-8.715115229403896],["value",-8.718546554491349],["India",-8.719155533199565],["z",-8.720631624868997],["challenge",-8.721176835659083],["wear",-8.721602320292597],["Jul",-8.722252594661498],["thought",-8.727361001900817],["patients",-8.72829345972989],["econom",-8.728920357555335],["quick",-8.729177390156377],["official",-8.72933364771428],["West",-8.730013823399776],["control",-8.73270479988755],["story",-8.732968338911869],["name",-8.735723351652386],["shot",-8.737502197498156],["average",-8.741002857796541],["building",-8.741176110255202],["space",-8.741469961929774],["North",-8.74177898409538],["aske",-8.745299737868653],["certain",-8.75064818101379],["worth",-8.75326879149398],["saying",-8.758621343745073],["list",-8.760788205593482],["ask",-8.762647480841142],["once",-8.76289180842116],["tell",-8.764280924662609],["front",-8.766200318331837],["news",-8.76622246692327],["rating",-8.766781285968207],["parent",-8.768063206228241],["201",-8.769738521840793],["human",-8.770411770165344],["research",-8.772842996584028],["offer",-8.773854902462972],["dollar",-8.774547387609381],["response",-8.775230701119929],["reach",-8.78313908261247],["deaths",-8.784976488051036],["financial",-8.787884937799692],["reason",-8.789520456201814],["medical",-8.790049264164722],["My",-8.791334922961541],["individual",-8.792374269417198],["morning",-8.792382773354372],["availab",-8.792602335952136],["condition",-8.79453361186103],["behind",-8.794682171846205],["2018",-8.795262196628673],["ar",-8.796567874410973],["target",-8.799182750661618],["countries",-8.799197487426257],["demand",-8.799223061403822],["Sept",-8.802147754888106],["director",-8.803399384987213],["product",-8.803473955938497],["Dec",-8.805729078708513],["crisis",-8.806139446809617],["Department",-8.812829669136534],["entire",-8.817529935473548],["stop",-8.819560897277817],["movie",-8.820601042996103],["couple",-8.821102844431708],["times",-8.822362282765077],["store",-8.822734708113604],["J",-8.82455733428854],["present",-8.828800027308038],["additional",-8.834871740042786],["drive",-8.835103157333027],["thos",-8.839824092417356],["history",-8.84102811854775],["lives",-8.841303608884019],["arrest",-8.843403311622676],["ic",-8.844149024571959],["lost",-8.845549599271973],["global",-8.847804711179018],["let",-8.848858732309061],["often",-8.848865909079063],["account",-8.850872243461374],["bank",-8.851513175182713],["leave",-8.853226707010394],["act",-8.853689105339921],["employee",-8.854483710820583],["40",-8.857391197116751],["walk",-8.857744603979423],["comment",-8.859308238614137],["feature",-8.860250942575448],["hav",-8.860347835470588],["recover",-8.860867069047227],["v",-8.863724974747264],["main",-8.866738551060346],["star",-8.866877197477244],["development",-8.870483733266088],["general",-8.871989268495645],["date",-8.876345572066832],["TV",-8.877649251899543],["customer",-8.879533350337313],["charge",-8.879924635819513],["America",-8.882812727931391],["focus",-8.882891969213144],["benefit",-8.88423366743855],["access",-8.886079781782822],["wait",-8.886589298886008],["character",-8.888097094319406],["vaccine",-8.889147791852626],["add",-8.890604326109194],["count",-8.893360942088233],["vehicle",-8.894116741570954],["bit",-8.897057866954645],["town",-8.897367490830298],["Now",-8.897400910749226],["cut",-8.902809856318719],["option",-8.904882591987228],["region",-8.906995069270494],["friends",-8.908414410195622],["federal",-8.909174168641577],["involve",-8.91143522673231],["abilit",-8.911446866615929],["co",-8.911610868720366],["single",-8.912269529589956],["saw",-8.913167142646866],["war",-8.913872031531303],["spite",-8.918482127481113],["address",-8.920028254927391],["outbreak",-8.920776233337183],["expect",-8.921399164453302],["candidate",-8.921953043715401],["22",-8.92281857991551],["safet",-8.923930748097671],["etting",-8.92746036381385],["book",-8.927771600455312],["die",-8.92868010164607],["personal",-8.928705004524513],["check",-8.931365492592672],["States",-8.932067367327537],["key",-8.937503051051385],["member",-8.938279295331398],["form",-8.938549242807802],["phone",-8.93887368389088],["ber",-8.939995458833288],["significant",-8.941072612986236],["John",-8.942542144339571],["raise",-8.943031647252184],["His",-8.946212102899977],["famili",-8.94662863088353],["follow",-8.947172463495146],["source",-8.948355249098253],["ensure",-8.950159953372106],["Janu",-8.951602049853761],["pass",-8.95490078380382],["ither",-8.957702107068592],["ten",-8.959090419904435],["Our",-8.96128662844749],["authorit",-8.962358729073756],["earlie",-8.964168301634936],["spend",-8.965334312597253],["particular",-8.966413255457006],["kid",-8.970333332084213],["site",-8.972294268732382],["UK",-8.97312000884924],["est",-8.973938536182395],["race",-8.974429165546926],["serious",-8.974478624588919],["someone",-8.97490226707237],["difficult",-8.977244651004465],["activit",-8.97725905485114],["stage",-8.977841131480922],["00",-8.97904002899628],["ves",-8.979052271943221],["emergenc",-8.980226832766082],["room",-8.983720662236943],["cover",-8.986805285053165],["international",-8.988104248294647],["meet",-8.989487295378316],["relate",-8.993099410040552],["World",-8.993731961214692],["round",-8.996412972184828],["join",-8.998231841344932],["highe",-9.001193895010939],["toward",-9.00121105101617],["suggest",-9.001739294608953],["private",-9.001871069231536],["pick",-9.00256466638373],["senior",-9.004610435636735],["unning",-9.00991799647768],["executive",-9.010196307297718],["develop",-9.012226789155763],["affect",-9.012890827684934],["mother",-9.013774840381718],["black",-9.014133006354559],["rote",-9.0143132020482],["career",-9.015510369091977],["infection",-9.015740981871605],["immediate",-9.015800605337738],["August",-9.015804899703392],["bad",-9.015870178113616],["bigge",-9.016107309576178],["assist",-9.01619523379707],["ther",-9.017339734435346],["child",-9.01860332539222],["Court",-9.01876117758308],["nothing",-9.02502328726261],["host",-9.025329273947174],["park",-9.025720562064913],["speak",-9.027729089325476],["operation",-9.027860055856],["chief",-9.029639357944768],["Center",-9.030321674610724],["voter",-9.032064658664474],["club",-9.032177846761709],["heart",-9.035466243088077],["chance",-9.038722519951593],["contract",-9.039457900278878],["learn",-9.039803537792313],["figure",-9.040133188711739],["music",-9.040618748280643],["goal",-9.041148176935014],["White",-9.042565214505785],["interview",-9.043377824244939],["effect",-9.04412647634301],["reduce",-9.044285296042695],["gav",-9.046555376529007],["performance",-9.047373408575886],["aving",-9.04757722846766],["study",-9.047591747192012],["restriction",-9.050159467981066],["player",-9.051047482487128],["amount",-9.052104528636429],["sector",-9.055124719561691],["Day",-9.058203309738458],["fee",-9.058524291072104],["states",-9.058763717148036],["School",-9.05890933463555],["girl",-9.061115834034535],["X",-9.061760833382154],["model",-9.062799281162599],["soon",-9.067817650101766],["Octo",-9.070407515728565],["rying",-9.071905306168215],["23",-9.071994114489943],["firm",-9.073569712634537],["People",-9.07370220572631],["incident",-9.075445602316664],["press",-9.075952775979534],["attempt",-9.076781398329288],["message",-9.077854371696398],["normal",-9.07803253870092],["exist",-9.080855128006176],["understand",-9.081650472212559],["limit",-9.08196122711389],["district",-9.082747885788102],["investigation",-9.08275475821462],["friend",-9.083628540645144],["disease",-9.084134165842165],["white",-9.085860994649721],["shows",-9.08722623099675],["protest",-9.08765504413708],["x",-9.08858889026453],["coach",-9.094133493977457],["growth",-9.095571576583984],["makes",-9.097062772378642],["whole",-9.097233085287037],["road",-9.100182582600219],["expert",-9.100899552525625],["Chief",-9.100899606421383],["detail",-9.100922247221074],["else",-9.102195752599577],["eight",-9.103056815904],["seek",-9.104429902536928],["Dur",-9.105088851952427],["decade",-9.107039784439502],["read",-9.10956805715919],["hi",-9.109907515210487],["view",-9.110214990629984],["lower",-9.110493501883147],["ers",-9.111915033564225],["echnology",-9.112529285028566],["essential",-9.113224906900466],["Government",-9.113236270773939],["practice",-9.113609002566001],["father",-9.115110569933522],["ish",-9.115332923420247],["design",-9.116963423481897],["V",-9.119003496163462],["leaders",-9.119167690249146],["relationship",-9.119475389773392],["Democrat",-9.120157271715408],["track",-9.12089795045232],["propert",-9.125262899786318],["Donald",-9.125695361836293],["Many",-9.125800218038677],["deep",-9.127559542037464],["victim",-9.128820667764803],["schedule",-9.129499466694284],["oil",-9.130562995269898],["miss",-9.13071201991534],["28",-9.131296823633118],["Febr",-9.131756664902838],["scene",-9.133022300087049],["begin",-9.133215049082226],["Even",-9.133677458412334],["production",-9.13396117963503],["Park",-9.134144878719805],["others",-9.135150560774852],["example",-9.135169680809359],["quarantine",-9.135278521045699],["St",-9.135324342412371],["ley",-9.137340650332035],["San",-9.137366976746966],["distanc",-9.140370301681592],["review",-9.141013962096016],["inside",-9.142815364922944],["bar",-9.143670333501309],["wife",-9.143840120206502],["ha",-9.14463833932231],["mid",-9.14660385060457],["weekend",-9.147193434126905],["idea",-9.14732626392853],["lates",-9.149840537736807],["app",-9.150191491386451],["extend",-9.151677828113488],["training",-9.151831341756377],["launch",-9.152012540342039],["organization",-9.154383720056398],["qualit",-9.157846958025035],["effective",-9.157955831739397],["approach",-9.159172101980449],["conduct",-9.159303224367196],["reports",-9.159502400357283],["manage",-9.161054353539676],["31",-9.161188952095834],["ending",-9.162225678838379],["aily",-9.162870321358024],["60",-9.163032254731618],["policy",-9.163042486475158],["driver",-9.164010919992425],["education",-9.165452494656911],["ground",-9.168001657347903],["26",-9.170532673542725],["guy",-9.1718249588289],["match",-9.172207809702066],["calle",-9.17343751026824],["rest",-9.173886720655984],["update",-9.173889618651653],["platform",-9.179071618191145],["27",-9.179818859610052],["suspect",-9.180057931085923],["popular",-9.180514593476484],["request",-9.180738789200014],["gan",-9.180956792999513],["administration",-9.181495556467507],["similar",-9.184218609822487],["enjoy",-9.184258856813265],["song",-9.185011234446591],["nstead",-9.186452145336997],["500",-9.18730577621907],["push",-9.18775557943762],["legal",-9.188264887977361],["break",-9.191428720634214],["militar",-9.193879497376466],["mov",-9.193927336307123],["resource",-9.195582521914599],["lack",-9.196378692260351],["summer",-9.198091352223408],["minutes",-9.198914879617277],["compare",-9.200116268811296],["prevent",-9.200769038111961],["daughter",-9.204019585280372],["revenue",-9.20442643575189],["treatment",-9.20460445745361],["football",-9.20683265768565],["title",-9.20870334769715],["California",-9.208741674192929],["doctor",-9.210740132788294],["sense",-9.212271375392824],["Co",-9.213801555624089],["Service",-9.214363275085361],["Street",-9.21444529717159],["represent",-9.215779822251111],["crime",-9.218490153741824],["loss",-9.219497757056509],["population",-9.22117528776284],["brough",-9.223590216399867],["seven",-9.223849486213094],["tax",-9.224090095412452],["user",-9.228977329338672],["agree",-9.23032996221118],["alleged",-9.230402223909081],["purchase",-9.231240005383732],["themsel",-9.232983457616596],["Nigeria",-9.235679412341373],["David",-9.235968307910415],["above",-9.236208632408422],["Chine",-9.23661394765449],["quite",-9.238789830440613],["felt",-9.239110664075538],["street",-9.239115863842354],["mind",-9.239523967833101],["minister",-9.24257121904984],["score",-9.245098092595356],["Congress",-9.245647588227472],["probabl",-9.245795206670106],["enter",-9.247703339166923],["energ",-9.24818855193848],["serve",-9.24830869954959],["thousand",-9.249320944149355],["vice",-9.250629199858311],["Bank",-9.251586129195436],["original",-9.251913468437522],["29",-9.252233230310202],["letter",-9.252719597463637],["decided",-9.252797402323054],["block",-9.254677386289615],["station",-9.254949706714196],["maintain",-9.25636460371252],["produce",-9.256539150547066],["bill",-9.256994073721485],["Africa",-9.257138500290008],["answer",-9.257545310457477],["unit",-9.257708527644379],["necessar",-9.259456681895657],["usual",-9.25972434725582],["regard",-9.259815298704572],["fail",-9.260016492876481],["huge",-9.26083744090797],["location",-9.263701171647423],["Part",-9.266585216215855],["active",-9.266666700720602],["Washington",-9.270739075768232],["Every",-9.271418355967828],["trial",-9.271429087966682],["More",-9.27249915037714],["regular",-9.274373189039615],["via",-9.27673976702508],["various",-9.278031749739908],["rise",-9.279706737288164],["department",-9.28040223116462],["hands",-9.281099897149472],["brand",-9.281200401644991],["center",-9.281545108937262],["ballot",-9.282013242701709],["God",-9.282018102941043],["capital",-9.28343380831253],["restaurant",-9.285361826835091],["step",-9.288454480998357],["General",-9.289072656657055],["leading",-9.289941411207815],["describe",-9.29162941653438],["damage",-9.292029842423041],["explain",-9.292697144901236],["estimate",-9.293044551767753],["class",-9.293769971728516],["fast",-9.294005852464728],["Joe",-9.29426116387709],["piece",-9.296410088706931],["website",-9.296507907525493],["prett",-9.296717284730796],["Sinc",-9.300790606625053],["Y",-9.302573197403095],["70",-9.303794300642352],["â",-9.30701663329241],["episode",-9.30789458136017],["build",-9.308331325339143],["35",-9.309681305071825],["teacher",-9.311357112207276],["Facebook",-9.311498473275865],["aught",-9.311649316574021],["dead",-9.31620878419173],["conference",-9.316695216947188],["Do",-9.319946009492007],["feeling",-9.320529461403524],["pull",-9.320880431552514],["avoid",-9.321309735364789],["ather",-9.322082162659324],["Mean",-9.323028149032824],["ried",-9.324970471097792],["plann",-9.327337166539893],["ied",-9.328075128348924],["range",-9.328308616914253],["Of",-9.328868499138066],["virtual",-9.330567213390282],["easy",-9.331426352503701],["fair",-9.331601448510835],["evidence",-9.334909542105152],["East",-9.335042229005406],["sent",-9.335420833213723],["specific",-9.33857964974456],["Australia",-9.339635736449573],["contain",-9.340530972077143],["News",-9.341160248863236],["Not",-9.343146190896281],["investment",-9.346481943816478],["happ",-9.348919113990533],["attend",-9.349676224748315],["card",-9.351514064158142],["physical",-9.351669142044418],["arm",-9.355707163800634],["capacit",-9.355724337321734],["African",-9.357127740193647],["learning",-9.357232825466799],["Council",-9.357909156446496],["husband",-9.357913027167829],["actor",-9.360793610938455],["factor",-9.361691389124857],["arrive",-9.366711780475642],["file",-9.367746129739308],["kille",-9.368512213310172],["choice",-9.369866682377896],["border",-9.370777702791592],["addition",-9.371911136294083],["threat",-9.373710294967353],["League",-9.373883899226474],["professional",-9.374227220391518],["Green",-9.375264632642342],["stand",-9.37606186022784],["environment",-9.377639723073893],["stream",-9.379130474949932],["Group",-9.379707012444767],["true",-9.379783659841737],["flight",-9.380190745721613],["solution",-9.380755839523978],["treat",-9.38130147087723],["Twitter",-9.381993433537783],["common",-9.382172462627503],["revealed",-9.383381623611147],["pre",-9.385048119302667],["improve",-9.38544195070742],["rules",-9.38655137473482],["encourage",-9.387723250496181],["Her",-9.389768211399574],["Johnson",-9.390914409268941],["ility",-9.392584831508634],["carry",-9.392706565851302],["material",-9.393137642780164],["save",-9.39667862903784],["success",-9.397166307914437],["German",-9.39746470352806],["art",-9.39777827491434],["accept",-9.402420193395546],["cash",-9.402753551416598],["gone",-9.403876525677216],["anti",-9.406726019356553],["box",-9.408604461163385],["size",-9.409587741824701],["page",-9.409759902998234],["Public",-9.410521934307914],["annual",-9.41074943361983],["league",-9.41080022427405],["initial",-9.410987561769748],["pressure",-9.411105212502436],["Iran",-9.411218085343414],["Brit",-9.411626577794152],["Democrati",-9.412544080569226],["payment",-9.41430030243933],["Japan",-9.41499354341567],["Canad",-9.415243706234008],["imply",-9.418523851077232],["document",-9.42051045984412],["hear",-9.42281449070926],["provid",-9.422876269649501],["citizens",-9.423394135728712],["supply",-9.423408878203702],["perfect",-9.423428749614141],["remember",-9.423474001592837],["trust",-9.424380272074782],["Man",-9.425420703061189],["appeal",-9.428095558295496],["winning",-9.428195040102672],["£",-9.430228647334502],["giving",-9.430311928292962],["centre",-9.431101877496738],["standard",-9.431312128033188],["heard",-9.43174563072931],["gas",-9.433110832041601],["bega",-9.434761637613473],["By",-9.434843788174634],["gun",-9.43543041175629],["plant",-9.435853528083845],["cap",-9.436500055871111],["Senat",-9.43662654597683],["sell",-9.438110516538345],["email",-9.438170112703666],["words",-9.440209968309723],["network",-9.440481477902747],["earning",-9.44234339748391],["European",-9.443078280402588],["jobs",-9.443188306835488],["respond",-9.4433912590152],["From",-9.444838240763282],["analyst",-9.445214165113452],["90",-9.44689087891578],["throw",-9.44713815705573],["ways",-9.448493804123643],["Just",-9.448608703178982],["followed",-9.449070736357577],["budget",-9.449275787667773],["natural",-9.449559766127738],["High",-9.451165753753024],["wrong",-9.453266046727926],["met",-9.455021276054815],["mention",-9.456068131280507],["infect",-9.45772205700089],["note",-9.461204333398426],["holding",-9.461644792127249],["artist",-9.462323578489004],["warn",-9.462410760446087],["camera",-9.462649958278348],["item",-9.463683035398727],["fear",-9.4648167108624],["teams",-9.46750946259979],["loan",-9.468228295500566],["Last",-9.468826579057184],["buil",-9.470184380426318],["symptom",-9.470992688135153],["voice",-9.47260078727842],["critical",-9.473676632926617],["version",-9.47392204295512],["80",-9.474699837602229],["respect",-9.475115359268187],["surprise",-9.475448001051646],["increasing",-9.47544801947523],["application",-9.475519667722178],["digital",-9.476122716826922],["link",-9.477203294300036],["speed",-9.478932301949941],["college",-9.479912312960852],["Union",-9.480320403172957],["manager",-9.480465079386017],["content",-9.482173385149054],["boy",-9.482908240634046],["sales",-9.483585089383247],["income",-9.483596673940546],["Hospital",-9.488832752650495],["hundred",-9.488901188594362],["Road",-9.48905818006928],["standing",-9.48979212412917],["ier",-9.49013529636906],["county",-9.49124335957146],["partner",-9.491609530335479],["aware",-9.491888151053917],["ear",-9.492904068568723],["brother",-9.493451159580104],["International",-9.493479051620092],["delay",-9.493832981141441],["Indian",-9.495173741861699],["drop",-9.498358368636467],["sports",-9.49853456675309],["climate",-9.498599210943459],["Over",-9.501212980661467],["Act",-9.502289207142265],["sound",-9.504433555759881],["storie",-9.504674294024415],["judge",-9.506762885587907],["image",-9.50849823157294],["trip",-9.51010945507896],["ville",-9.51147065091278],["Michael",-9.51171822892761],["http",-9.511740071529289],["spot",-9.51190662619239],["James",-9.51216516893281],["Director",-9.512338439956187],["movement",-9.513005440732698],["slow",-9.514468965621223],["tweet",-9.51521085442198],["universit",-9.516362744931413],["Smith",-9.516423962235908],["cross",-9.517573119045853],["opening",-9.518206553246824],["exchange",-9.518687840539343],["ex",-9.520090894321065],["45",-9.520335338762811],["George",-9.520451495097934],["agency",-9.52203489590547],["facilit",-9.522055521668527],["primar",-9.522320369240072],["adding",-9.522436084211035],["cast",-9.522719582026406],["notice",-9.524878978896323],["Prime",-9.526392404774041],["War",-9.529489558099932],["register",-9.53005113070887],["successful",-9.530105394939604],["anagement",-9.53026397056072],["England",-9.530409715708952],["London",-9.53295756596353],["served",-9.533030267444783],["violen",-9.533493491177854],["shift",-9.535069642811434],["victor",-9.535119270591153],["multiple",-9.535302591713421],["poor",-9.536958537411689],["award",-9.539996497045163],["ver",-9.540043693376266],["equipment",-9.540161686192036],["Inc",-9.541385686205789],["goe",-9.543753687436752],["overall",-9.546231605178914],["paper",-9.548140886673174],["extreme",-9.549433987499071],["asking",-9.552280556599143],["continu",-9.554621976332303],["yond",-9.554814791623105],["seat",-9.555124470121733],["Air",-9.556317806590842],["passe",-9.557554314569238],["credit",-9.557907994176826],["transport",-9.559107785487463],["exact",-9.559171013383242],["guideline",-9.5595015925872],["Paul",-9.560160460080773],["ought",-9.56086990085948],["accuse",-9.561792502967915],["discuss",-9.561845816042664],["Republican",-9.56276066731946],["uar",-9.563154041667245],["province",-9.563510544220087],["First",-9.563904234770206],["shooting",-9.564010801886958],["expand",-9.564341092794274],["starte",-9.568061299733728],["Ministr",-9.568858134285069],["Most",-9.570403273743533],["fourth",-9.570985987457906],["celebrate",-9.571036248479126],["extra",-9.573580672148253],["Here",-9.574922201380925],["Los",-9.575162618575977],["ratio",-9.576591850874717],["Or",-9.576835592656968],["vot",-9.577643115704966],["Florida",-9.578584865013777],["monitor",-9.578585797750312],["foot",-9.578697182256143],["investor",-9.580066368679443],["drug",-9.580538976374273],["finish",-9.580670881992441],["search",-9.581244828920907],["Two",-9.583111784051741],["Bill",-9.583418039773179],["culture",-9.583431222236598],["rule",-9.583441917549198],["talent",-9.583576252038306],["defense",-9.583609601309234],["beginning",-9.583647332217],["eventual",-9.58377119692081],["liv",-9.584915216875345],["sometime",-9.585207663080613],["picture",-9.587405596018435],["conversation",-9.588509891715042],["decline",-9.589623859187645],["Texa",-9.59197698179231],["remove",-9.59201033999063],["negative",-9.594279356198374],["shop",-9.594634631435287],["agreement",-9.59508616456857],["ful",-9.59713448577763],["gain",-9.599059230895342],["elected",-9.600858612864563],["Scott",-9.601686143183962],["fun",-9.602825924722124],["discover",-9.602944358131374],["ban",-9.604191331031423],["generation",-9.605158306995929],["fine",-9.605283157028012],["screen",-9.605507003439207],["offering",-9.606121102022314],["council",-9.606410218904962],["fac",-9.60739238442806],["Nigerian",-9.607813189475229],["Office",-9.610384832932898],["collect",-9.611493093664446],["Europe",-9.611584735445755],["foreign",-9.611665819592476],["basi",-9.614296338343795],["battle",-9.614942173565677],["strateg",-9.615292937280461],["grant",-9.616966948595795],["double",-9.617618953958495],["blood",-9.61782475444236],["novel",-9.618856358443029],["difference",-9.618935095781119],["llowed",-9.619253889927332],["door",-9.619282738083793],["crowd",-9.619408716086578],["debate",-9.620466775089891],["kept",-9.622777229594172],["animal",-9.624058184127186],["Justice",-9.62409411322703],["spokes",-9.624562794522785],["hat",-9.62545092879586],["murder",-9.627536556198255],["church",-9.629228649548658],["District",-9.629239508409707],["justice",-9.631477193665445],["approve",-9.631670493777358],["couldn",-9.632109056105342],["Commission",-9.633052560854107],["passenger",-9.634448706093925],["subject",-9.63446412598039],["relative",-9.634663208305671],["winner",-9.63500457792594],["pent",-9.639119614408534],["patient",-9.639136496310718],["nine",-9.640497047148287],["realit",-9.642729376061773],["mark",-9.642874738975227],["wood",-9.64311935610871],["easi",-9.64375719222448],["rates",-9.644269583380378],["hotel",-9.64497405268732],["alone",-9.64638953774255],["Israel",-9.646459011622253],["Minnesota",-9.647255145210917],["touch",-9.649333420770503],["sex",-9.649520808591113],["poll",-9.649941065956927],["ran",-9.650150724020085],["device",-9.650576871170008],["proper",-9.651441592666863],["Other",-9.651844422229459],["homes",-9.65196012285124],["facility",-9.65260661965289],["Q",-9.652817187880196],["named",-9.654949324103804],["criminal",-9.655494027002696],["photo",-9.658495922541157],["receiv",-9.65956115993454],["spoke",-9.660591695346142],["sexual",-9.660740226873507],["favorite",-9.661037545760166],["surance",-9.661195938926234],["roll",-9.6644035783555],["injur",-9.664630337278473],["draw",-9.66598013871093],["€",-9.66626759027849],["tool",-9.666331252608408],["reopen",-9.666641902323708],["consumer",-9.667124391192345],["Force",-9.667854333921237],["Red",-9.667991442546416],["Arm",-9.669915341680827],["mission",-9.671303761054373],["holiday",-9.671674125011432],["Central",-9.671679457151896],["Christmas",-9.671684984366355],["spring",-9.671739219162495],["BTC",-9.67196168934807],["table",-9.672779351710597],["kill",-9.673093943546462],["obvious",-9.673688702984936],["scale",-9.674515475965828],["gathering",-9.67639190277737],["Jan",-9.677660959559958],["write",-9.678348850977997],["welcome",-9.678616497182894],["Lake",-9.678631816526083],["commercial",-9.68105311961443],["pair",-9.681184580008686],["Mark",-9.681325395768809],["EU",-9.68153050278432],["Board",-9.682633051893976],["craft",-9.688264784657811],["threaten",-9.688331819321668],["Z",-9.688620829783416],["stead",-9.690133493819808],["ham",-9.690408812915312],["finding",-9.690620800377161],["broad",-9.691306295126246],["Bay",-9.691469596812986],["promise",-9.69196604977821],["Association",-9.693599103097414],["competition",-9.693611086724026],["Del",-9.694280764272571],["Sam",-9.696102980376475],["charges",-9.698306069071004],["rights",-9.698886525998294],["prove",-9.699071181457311],["hot",-9.699773558608253],["driv",-9.700143641403788],["32",-9.700220853911834],["shut",-9.700707130711788],["Carolina",-9.702909705718625],["volunteer",-9.704734622219927],["degree",-9.70474291761575],["Why",-9.705418165397024],["Tom",-9.706018927419038],["Super",-9.706287690928164],["employment",-9.708769445543073],["wors",-9.710330004062476],["absolute",-9.710352599911033],["train",-9.710686663688403],["hearing",-9.711222487502518],["committee",-9.711903295958638],["society",-9.711920859258305],["purpose",-9.714401827822364],["fresh",-9.714658669946415],["owner",-9.715960233969525],["word",-9.71597320997088],["Apple",-9.71621758913938],["afternoon",-9.721831846086836],["Can",-9.72203350328061],["Like",-9.722553915617386],["tention",-9.723007497386025],["advance",-9.724263894949583],["Star",-9.725232370111616],["Go",-9.726177917198564],["unique",-9.727053118652746],["Governor",-9.727293273019274],["urge",-9.727444604989046],["Angeles",-9.727726733763394],["straight",-9.728039349705085],["simple",-9.731626517180853],["Well",-9.732786666100717],["mental",-9.734563164729765],["distance",-9.735597669926467],["minute",-9.736161083199317],["yester",-9.736665955269881],["La",-9.73753893421003],["pro",-9.737803675332103],["middle",-9.739073601632672],["ill",-9.73913010770623],["Let",-9.740866653779008],["amid",-9.740867385380156],["Any",-9.741498982300477],["wise",-9.742044121684383],["definite",-9.742465251909227],["crew",-9.743442717973004],["Committee",-9.74478662065108],["lawyer",-9.74480018950133],["NFL",-9.744873065762434],["display",-9.745777189389617],["Don",-9.747025093686254],["weather",-9.747632431232077],["retire",-9.747688475271676],["King",-9.748031518823467],["reveal",-9.748558915158657],["haps",-9.749264853960323],["declare",-9.750384273942451],["audience",-9.750588528062952],["weight",-9.75103606863023],["300",-9.751614892667847],["sister",-9.752206265834015],["hurt",-9.753386426430001],["incredibl",-9.753916338630855],["sai",-9.754901402285409],["mail",-9.75530022793685],["listen",-9.755450261883935],["traditional",-9.755555073039691],["Chicago",-9.75647332004287],["client",-9.756489525131938],["CEO",-9.75650182975026],["fell",-9.756993770381438],["majorit",-9.758369065387111],["clean",-9.759308460283979],["stress",-9.759503903466545],["color",-9.761324475673549],["discussion",-9.762493693103789],["balance",-9.763183937441521],["born",-9.763311228613603],["beat",-9.76366696092979],["dream",-9.76511509908418],["reporter",-9.76634614408552],["wave",-9.77078523040066],["operate",-9.770989428119272],["Re",-9.771501206250498],["fan",-9.77152725922084],["fill",-9.772769860844015],["Port",-9.772821672616146],["connection",-9.774262714432211],["style",-9.774277488101474],["34",-9.774306156635426],["propose",-9.77496417480617],["tough",-9.779442410916896],["leav",-9.779850643121517],["Secretar",-9.780306289617352],["responsibilit",-9.7804549198353],["massive",-9.780498536053011],["creat",-9.78411225466029],["Both",-9.78434057182669],["struggle",-9.784686331756305],["wouldn",-9.784870353655226],["debt",-9.785003626694074],["Mike",-9.785062124371292],["hair",-9.786553518971093],["producer",-9.786807679316233],["domestic",-9.787719887316271],["burn",-9.787956623009102],["kick",-9.790403139318528],["afford",-9.790633781374204],["engage",-9.792135335845618],["construction",-9.792496184286733],["defeat",-9.79264501774873],["teste",-9.793313096735986],["Compan",-9.793377197584832],["baby",-9.794362718254824],["Ma",-9.795671868387128],["wish",-9.797886449245276],["peace",-9.798436117298635],["€™",-9.798645919418377],["iving",-9.799997395892575],["eyes",-9.800083571835401],["type",-9.800280302956875],["evening",-9.800685293573075],["survive",-9.801320020874158],["Hill",-9.801381829812758],["governor",-9.801405163390621],["zone",-9.804785791226664],["Home",-9.80536882212447],["winter",-9.80563992511253],["Williams",-9.806913780754831],["abuse",-9.806926451822196],["depend",-9.80981711821257],["campus",-9.810049923623357],["99",-9.812630053985082],["bringing",-9.812782790429772],["invest",-9.81457716445429],["identifie",-9.814971942630777],["sleep",-9.815817897031868],["progress",-9.815913309629135],["doubt",-9.816321803254851],["classe",-9.816433626745798],["politic",-9.816509452903558],["yourself",-9.816804686803946],["+",-9.817278971097089],["associate",-9.817279006309999],["College",-9.817281203828976],["thank",-9.817827923514457],["ard",-9.818450022200015],["prison",-9.818493231339517],["dog",-9.822188286480836],["Big",-9.82254188526311],["floor",-9.823569808809562],["pool",-9.823577460005266],["central",-9.824933552865673],["please",-9.825027668846074],["75",-9.825636218392686],["partie",-9.825674038292778],["operat",-9.828171268899258],["household",-9.828380109307055],["anyon",-9.829031032952962],["upon",-9.82968266731793],["basket",-9.829978607696528],["France",-9.830027661297619],["limite",-9.831993522016587],["session",-9.83210638475294],["nforcement",-9.832115520851005],["import",-9.833767752255326],["committe",-9.833959084120526],["adult",-9.834760465027603],["reflect",-9.83617500028081],["Management",-9.837223968249631],["sort",-9.837940028892856],["wall",-9.838059835365051],["north",-9.838499753430195],["refuse",-9.839793806779067],["Officer",-9.840509558460845],["48",-9.840745275581597],["red",-9.841315249193734],["warm",-9.842114842488092],["vulnerabl",-9.842678726648092],["Will",-9.842816399187933],["hous",-9.843049631983172],["killing",-9.843687811515366],["equit",-9.843790177160216],["writing",-9.846162170884956],["River",-9.846163927691048],["article",-9.848238970944568],["Final",-9.848463074101016],["super",-9.84860738466289],["boost",-9.850395611452312],["profit",-9.851734880541482],["DC",-9.85212209839997],["secure",-9.853381043621734],["writ",-9.854645436467077],["36",-9.855447127635518],["Canadian",-9.855686000164347],["ell",-9.855747534527307],["honor",-9.856361799247486],["steps",-9.856992863702573],["wa",-9.85926662252601],["sport",-9.859882618462352],["MP",-9.860814546287823],["farm",-9.8611311294688],["temperature",-9.862158288926208],["freedom",-9.862159773734469],["language",-9.86216077138716],["wonder",-9.862229296079448],["gift",-9.86228755955933],["suspend",-9.862289638216893],["responsibl",-9.862295989230514],["ultimate",-9.862303059243136],["male",-9.863047688967534],["approximate",-9.863687585736729],["cancel",-9.864693116157074],["Gov",-9.866388299919699],["lose",-9.866445037165448],["nature",-9.86659881805037],["yards",-9.866658712566721],["apply",-9.867635675030883],["Securit",-9.868737246912659],["flood",-9.868738017709056],["Amazon",-9.868745012902744],["hop",-9.868991904108064],["cook",-9.869840231762769],["showing",-9.870839055064458],["tree",-9.87183458926105],["exercise",-9.871871955972129],["com",-9.871899625369801],["publishe",-9.87228375478917],["survey",-9.87292493397644],["phase",-9.87293520751042],["sick",-9.873232630931561],["weapon",-9.874027597265357],["statu",-9.874126197047703],["speech",-9.875359949207368],["science",-9.875428632546672],["relief",-9.87597177269177],["chang",-9.877032050301743],["electric",-9.878925235147033],["perform",-9.879734193012661],["putt",-9.880486570574515],["supporter",-9.881472708398316],["Premier",-9.882057734665349],["meant",-9.884954579111051],["independent",-9.885594005056749],["suit",-9.88580210592287],["setting",-9.887392832987484],["ticket",-9.888775439317978],["Centre",-9.888800621888599],["divers",-9.890209612096097],["severe",-9.890642910712383],["indicate",-9.890833635299892],["separate",-9.89307927554834],["pop",-9.893719244177923],["youth",-9.894440771978228],["package",-9.895181355951594],["bag",-9.895701056138572],["Russia",-9.895886185130891],["truck",-9.896258988869448],["handle",-9.896815487783126],["collection",-9.900968033117923],["Fire",-9.901609065361246],["window",-9.902317490536927],["citi",-9.902326195279585],["studie",-9.904307052766555],["agent",-9.904549919948028],["communication",-9.907082379637128],["BC",-9.907812734641531],["tion",-9.908654521421273],["civil",-9.908993546403899],["album",-9.909153388606477],["journey",-9.909191271526716],["miles",-9.909375744527683],["Earl",-9.910052864362402],["33",-9.910163991617754],["draft",-9.910653096559084],["comfortabl",-9.910864196604912],["recognize",-9.910866121801673],["ion",-9.912024900358954],["priorit",-9.912589700537085],["meal",-9.914149058822506],["allegation",-9.916074108941457],["beautiful",-9.916192394831981],["dangerous",-9.916359835899854],["Brita",-9.916636010547732],["storm",-9.916788454382143],["traffic",-9.917225881629129],["Sen",-9.917552022635318],["toll",-9.917564775088682],["south",-9.917672515021088],["flow",-9.918260420602067],["mix",-9.918460433428418],["AP",-9.918778727621351],["greate",-9.918982520989639],["typical",-9.919137437774147],["introduce",-9.919465209310044],["cell",-9.919532438358694],["thinking",-9.922335204843154],["38",-9.922716047621186],["alternative",-9.92300574752289],["remote",-9.923070058216087],["isolation",-9.923584949363288],["offers",-9.924380243388033],["Fund",-9.924533299456078],["carrie",-9.925125697839052],["locate",-9.925822006460937],["Cup",-9.925933200908283],["choose",-9.926235843329948],["Australian",-9.927579461237194],["cancer",-9.930247333237375],["Oct",-9.931867936158918],["catch",-9.933315626652808],["rally",-9.933405793563221],["prepared",-9.933750155961455],["rich",-9.933988031934582],["37",-9.935510513394846],["upreme",-9.935556856987002],["implement",-9.936375693254476],["farmers",-9.936968223136962],["Googl",-9.937024243696136],["French",-9.93703086603373],["stuff",-9.93723564511444],["older",-9.937571253985357],["infrastructure",-9.937650986505155],["Jones",-9.937812714960119],["strike",-9.938419914924776],["Bu",-9.942371186591723],["Chris",-9.942617884208472],["Year",-9.942959699876962],["pack",-9.943949500438855],["assault",-9.944125560713948],["Coronavirus",-9.94416307696336],["Federal",-9.944223472390838],["female",-9.944267175195623],["scheme",-9.944304828292925],["Me",-9.944641736823105],["requirement",-9.945072232756424],["tic",-9.947126305110139],["Prince",-9.94762607856281],["asset",-9.947786251456328],["sitting",-9.949358452552808],["predict",-9.950655389351146],["institution",-9.950818556480556],["advantage",-9.95116093039805],["scientist",-9.951254502690562],["section",-9.95129853860279],["Als",-9.952713725095979],["provider",-9.954698146967585],["con",-9.955130488668651],["green",-9.956259246597515],["trend",-9.956369229251642],["gre",-9.956979846863938],["complaint",-9.957500029901407],["union",-9.95835821057558],["attorney",-9.958452201418778],["opinion",-9.958452289273868],["Though",-9.958597192671267],["prior",-9.958631502938253],["recall",-9.95962130106646],["berg",-9.960380001194583],["rising",-9.96199452844663],["crash",-9.962043781861112],["39",-9.962545880453622],["works",-9.963596074330031],["Pro",-9.964143737072142],["maker",-9.964351890926796],["drink",-9.96457175343091],["conflict",-9.964884084110459],["Island",-9.96566476014311],["announcement",-9.96587160881112],["airport",-9.965991192862763],["Communit",-9.967003713669289],["65",-9.9681482675379],["vision",-9.968416421794657],["rose",-9.968600279875538],["ach",-9.969690171080112],["guard",-9.971225412619454],["49",-9.972442262862867],["amazing",-9.972999442143294],["knowledge",-9.973002088021026],["LLC",-9.973130257218763],["leg",-9.973779872389414],["supposed",-9.974277682663715],["Brown",-9.974359432963698],["protection",-9.977400738558135],["trad",-9.978127167814105],["43",-9.978902260364716],["wild",-9.979012989247178],["dozen",-9.98037363218792],["esting",-9.98074883080128],["guid",-9.981960003510254],["warning",-9.983805628265625],["rent",-9.98431416503481],["supplie",-9.984410954572212],["ous",-9.98508254899172],["protester",-9.986137561197568],["95",-9.986162585402795],["influence",-9.986274401193775],["path",-9.986503418492404],["Robert",-9.986766306966043],["dropp",-9.986816638175425],["proud",-9.987778140985764],["element",-9.98817998175613],["Andrew",-9.988207094869288],["Under",-9.988567738589811],["mobile",-9.988795273876448],["nice",-9.990479824955944],["programme",-9.990942079951472],["excited",-9.992573292790127],["entertain",-9.993696613568307],["structure",-9.993806252044962],["regional",-9.994204983228673],["46",-9.99517563386578],["launche",-9.99522040476618],["sale",-9.995263711730281],["resume",-9.995557482099501],["jump",-9.995841934247297],["opposition",-9.997103087975773],["Law",-9.997645595781979],["serving",-9.997862816249631],["skills",-9.997954382406782],["confiden",-9.998427618664174],["graduate",-9.99856351002966],["bond",-9.999804930913687],["Business",-10.002740652396465],["initiative",-10.002801070444285],["Right",-10.003059919933701],["reading",-10.004486622583078],["losing",-10.006145617668667],["bough",-10.00732209291276],["55",-10.008296484733137],["happening",-10.008475367746115],["stick",-10.009356306350847],["closure",-10.010003192784923],["possibilit",-10.010315335973633],["crore",-10.010358829066526],["heavy",-10.010493673191672],["Fox",-10.010499196889267],["transition",-10.010768803362152],["bus",-10.011394231187971],["ge",-10.011671107748803],["tru",-10.013639135759819],["tech",-10.014825102407453],["sides",-10.014951514651255],["Russian",-10.017541196691017],["categor",-10.017865052714946],["Capital",-10.017950463830797],["rush",-10.017994641039937],["explaine",-10.018093150503079],["guest",-10.018397718749448],["giant",-10.019520155288399],["gold",-10.019857261693891],["truth",-10.020066287998482],["surge",-10.022614466608873],["retail",-10.024071622679472],["Onc",-10.024128467634466],["advise",-10.024614470852885],["Disney",-10.025645697020327],["politician",-10.025727526909193],["journalist",-10.026280991639762],["prime",-10.026431663474861],["author",-10.026558460439745],["Mayor",-10.027097323401089],["47",-10.028370143562599],["memor",-10.031446416743684],["multi",-10.031788230688765],["Tok",-10.032478311562489],["camp",-10.03393490145495],["achieve",-10.034509021788772],["sentence",-10.034848168285038],["appearance",-10.035918972462756],["injuries",-10.03601809127878],["creative",-10.03608259396394],["Hall",-10.036154205610412],["east",-10.036241070182172],["defend",-10.038306514391866],["circumstance",-10.041205773228922],["Church",-10.041211735383905],["married",-10.04123693679469],["Thomas",-10.041264514637893],["constant",-10.041288108362966],["researcher",-10.041310010251074],["Region",-10.041394911988025],["ceremon",-10.041554273420084],["Valley",-10.041724979704892],["fuel",-10.04345054956081],["capture",-10.04370273404989],["bid",-10.044470157443445],["dark",-10.044795137077202],["Republicans",-10.045019319637504],["reache",-10.045384712194963],["Blue",-10.04614382959003],["worrie",-10.04797202928372],["ization",-10.048670326288146],["Ben",-10.048724118883484],["proposal",-10.04922602728918],["powerful",-10.049449082141258],["direction",-10.051344712020956],["participate",-10.052228237899174],["trades",-10.052350361317284],["machine",-10.05278117691215],["Serie",-10.052799081967484],["ng",-10.053239604278083],["ma",-10.053258153085078],["village",-10.053439302951805],["pain",-10.053935138424505],["Who",-10.053966893271074],["worse",-10.054012362083085],["interesting",-10.055267673604972],["illness",-10.055529221183193],["intend",-10.055551980337338],["smart",-10.05561415731965],["spirit",-10.057099074394152],["commitment",-10.057173523603327],["highlight",-10.057927395577597],["donate",-10.058418451056234],["reopening",-10.059615688876178],["donation",-10.060306142717334],["chose",-10.06070688313556],["ch",-10.060871743159542],["task",-10.06125003378737],["Lee",-10.061269620957658],["lift",-10.061611386100795],["wage",-10.062048078792511],["400",-10.06310266344414],["Your",-10.06327658195973],["soft",-10.063363837487351],["42",-10.063754612054662],["ler",-10.064465520631847],["tournament",-10.065016160089634],["Market",-10.065360383035536],["respective",-10.065385715296625],["combat",-10.065603495919206],["Martin",-10.066234828254299],["secretar",-10.067546878043107],["tuck",-10.068169912270893],["rock",-10.072167438186629],["Nation",-10.073309649454188],["internet",-10.073386486522082],["contest",-10.07345146104602],["Up",-10.073924559251104],["!”",-10.074074632066816],["apparent",-10.07456635719243],["Peter",-10.075126661100107],["gram",-10.076563636725275],["writer",-10.078856748396973],["aim",-10.079068767395997],["owners",-10.079243319209475],["veteran",-10.081230881118454],["jail",-10.08124456707549],["longe",-10.081689546326006],["engineer",-10.082012589065503],["argue",-10.084147295156752],["express",-10.085375855244457],["Vic",-10.085517655677538],["chain",-10.085933943603342],["joint",-10.086359608189172],["Post",-10.087667938846922],["investigat",-10.087867282489597],["replace",-10.089065676893028],["ent",-10.089358200562863],["Follow",-10.089471743833526],["elling",-10.089563766763373],["Le",-10.089973813852314],["stoppe",-10.09038466476995],["route",-10.090891682810387],["Korea",-10.091189938133393],["struggl",-10.09174921032534],["ism",-10.093495847874202],["Sanders",-10.097821175243933],["failure",-10.097864661840207],["strength",-10.097870078776008],["ruling",-10.098483255580394],["Georgia",-10.099179594826605],["reform",-10.100446922600518],["skin",-10.101074056683828],["owns",-10.101089409692095],["promote",-10.102709408405161],["nel",-10.103778038672072],["imagine",-10.103835440621289],["fellow",-10.105884542632367],["professor",-10.106055722433215],["transaction",-10.106067532258535],["protocol",-10.106104010306122],["approval",-10.106309414605054],["Institute",-10.106353064612957],["batter",-10.106547545717502],["twic",-10.107725158758345],["admitted",-10.107789753915725],["Victoria",-10.107805363623639],["contribute",-10.108123956536776],["Commissioner",-10.108233850505087],["41",-10.108512803781693],["cold",-10.10959074523419],["despi",-10.111265747727636],["modern",-10.112582165062513],["runs",-10.11277880929672],["representative",-10.114455108719753],["Virginia",-10.114516367921253],["transmission",-10.114590521699823],["Harry",-10.114610594263652],["radio",-10.115903088179806],["complex",-10.116439264105875],["haring",-10.117220897477146],["presen",-10.117681498126487],["Times",-10.117869932716381],["plus",-10.11795621491178],["panel",-10.119257910414014],["connect",-10.119271026603618],["yard",-10.120031496860392],["flag",-10.120636249994739],["agenc",-10.120868667823874],["accident",-10.121665662730864],["broke",-10.121668536851782],["strict",-10.12191058771366],["Jack",-10.122224443972105],["44",-10.122762013099166],["scenario",-10.122883180395675],["religious",-10.12288645234126],["regulation",-10.122896864573462],["Club",-10.12290902441128],["Development",-10.1229163730236],["rapid",-10.123077386149427],["apartment",-10.123125138379084],["regulator",-10.123138715396836],["opponent",-10.123148403079004],["Jackson",-10.123396843795426],["surface",-10.124437868893262],["slight",-10.125595563538177],["cool",-10.126012579371565],["familiar",-10.126836129905602],["Car",-10.127721160528782],["tackle",-10.129966294319269],["enable",-10.130549304938427],["English",-10.131435779662189],["channel",-10.131457722323324],["Royal",-10.131768822702456],["nurse",-10.131770349782641],["Feb",-10.131915994108354],["ministr",-10.131921356134878],["distribution",-10.13249643524799],["boat",-10.132874134670843],["Avenue",-10.133055495301818],["Max",-10.1337373230845],["ural",-10.134034740679377],["emerge",-10.134184922127176],["port",-10.135606932754696],["grand",-10.136675455647044],["acquire",-10.136973294229033],["shape",-10.137470213616956],["mom",-10.139804377817054],["dividend",-10.140138573596357],["isolate",-10.14127237017799],["bridge",-10.142234086950726],["avail",-10.142467820787948],["outcome",-10.14257739744601],["caus",-10.143042186244164],["entry",-10.143745270653856],["singer",-10.145248658239549],["mass",-10.14531896687822],["lock",-10.145582530099226],["goals",-10.147512252220547],["studio",-10.148842484972938],["mayor",-10.148868900458414],["recommendation",-10.148924786178394],["send",-10.149357444094125],["NB",-10.149361203419975],["function",-10.15030101750226],["beach",-10.15112376826512],["division",-10.151663698725148],["appropriate",-10.152159670468443],["consistent",-10.152309091516086],["invite",-10.153202516275703],["rain",-10.154263948100317],["wealth",-10.15483428233481],["Christian",-10.155342176791944],["challeng",-10.15658074499397],["basic",-10.156731284435327],["%.",-10.156904023180012],["blow",-10.15721266543839],["Election",-10.157531630371942],["honest",-10.157533793811249],["mouth",-10.157712719004916],["Aug",-10.158187301038275],["plent",-10.158625665419915],["aspect",-10.158669794915916],["internal",-10.158841276620706],["text",-10.160534888883234],["core",-10.160540606430708],["century",-10.160631591891928],["ney",-10.160817768725867],["remind",-10.161354006328438],["ez",-10.161521724983542],["pound",-10.16192116814021],["telling",-10.16294626123113],["realize",-10.163083354287146],["Love",-10.163402478548308],["Good",-10.164182568345499],["edge",-10.16554570655671],["illegal",-10.166394970933684],["obtain",-10.166448399326224],["guilt",-10.166563731616371],["Western",-10.166591130258261],["grade",-10.169122329761468],["ice",-10.169792923431551],["CDC",-10.17057286458494],["wind",-10.170637623545193],["transfer",-10.171879248315605],["trail",-10.173807477698844],["closing",-10.176663241693252],["photos",-10.1780926836792],["expresse",-10.178644875987736],["television",-10.17945039195763],["island",-10.18063935740286],["instance",-10.180695470568669],["unlike",-10.180762631269264],["cars",-10.180831055585832],["variet",-10.181196432006974],["understanding",-10.181806697418883],["Research",-10.182054914398433],["visitor",-10.18359449088651],["Den",-10.18422958177974],["identify",-10.184331088336414],["uncertaint",-10.18435246992642],["permanent",-10.18438870570963],["shelter",-10.184645387142595],["environmental",-10.184923030577679],["determined",-10.184975046602815],["deput",-10.186413928613026],["corner",-10.187118712907228],["determine",-10.187752299004297],["Maine",-10.188097686232776],["lines",-10.188623566698],["Harris",-10.18876696347655],["Corp",-10.18906655841246],["lab",-10.189078502004996],["desire",-10.189339440006556],["happens",-10.189873960208642],["establish",-10.190264174443186],["commission",-10.192271068448079],["Ohio",-10.193408327424859],["volume",-10.193469024900025],["blame",-10.193477221502302],["Three",-10.193579108089661],["finance",-10.193906969864383],["coverage",-10.194121613881595],["rescue",-10.194661663204805],["hopeful",-10.194966911171052],["denie",-10.194972780722521],["sustain",-10.19638430873678],["orrow",-10.198638844618655],["expose",-10.198916212697608],["Ex",-10.198938675180301],["combine",-10.199402229913215],["prepare",-10.199652599203217],["decide",-10.201473574041431],["length",-10.202306498546532],["j",-10.202412367692032],["52",-10.202702224757225],["ollywood",-10.203375457672355],["Play",-10.203630429381807],["glass",-10.20395174272544],["Authorit",-10.204323283933633],["Adam",-10.204653513114792],["Sun",-10.205628147513334],["busy",-10.206526056928315],["Mexic",-10.208667214828937],["govern",-10.208700968980065],["reaction",-10.209549238778761],["covering",-10.210031824972567],["deploy",-10.210238276800794],["method",-10.21112940420071],["Education",-10.211831519950259],["Ne",-10.211839947396257],["consequence",-10.21184449293371],["Floyd",-10.211854586725],["organisation",-10.21188734292712],["festival",-10.211986040513924],["Medical",-10.212319305999564],["impose",-10.212421504258417],["softw",-10.213073204878972],["master",-10.213148183773704],["secret",-10.213454348653276],["partners",-10.215497371266125],["equal",-10.215543168900128],["margin",-10.21696357729575],["NH",-10.218176532795312],["numero",-10.219162485506684],["whom",-10.219716672632728],["forecast",-10.219958735075881],["meaning",-10.22024262859877],["Student",-10.221178307236187],["segment",-10.22118060189004],["disappoint",-10.221241311523485],["drugs",-10.221799855695805],["breaking",-10.222697182963659],["airline",-10.225500008292572],["Yet",-10.226996916526325],["guide",-10.227034747867261],["ut",-10.22721686898855],["correct",-10.228753855127803],["viewers",-10.228778461139864],["Micro",-10.228892464348514],["involv",-10.230566116182636],["neighbor",-10.230586071008215],["sudden",-10.230612311005473],["56",-10.230632648261622],["El",-10.231221379012307],["PM",-10.231796589146638],["Iowa",-10.232507222293103],["Long",-10.232847555577425],["pic",-10.233810057537106],["print",-10.235261019785872],["waste",-10.235637244671942],["600",-10.235689474178193],["85",-10.235699200793402],["expens",-10.235880511981367],["possibl",-10.235903971493057],["hang",-10.236351955810143],["Beach",-10.236677721182017],["ease",-10.237320368360797],["coast",-10.23885344063665],["load",-10.239267037315852],["guess",-10.24000581712831],["colleague",-10.240138710715675],["identit",-10.240183842251486],["stands",-10.240605794367262],["appointment",-10.24070412456624],["anticipate",-10.240949056116975],["Singh",-10.241021770409807],["books",-10.241057502883974],["800",-10.242975321644707],["dance",-10.243288048943285],["background",-10.24336666919469],["Real",-10.243651794287619],["53",-10.2438323688771],["wake",-10.244109891679287],["pace",-10.24499569970612],["Young",-10.245859347507793],["license",-10.246836503296318],["suffer",-10.249061871380825],["trouble",-10.249539481347451],["Care",-10.24970509127273],["•",-10.249749028865494],["Iranian",-10.24980454797965],["lawsuit",-10.250061945613966],["heat",-10.250591764954516],["Frank",-10.251069364194723],["intelligence",-10.251180381277655],["blue",-10.251204847038323],["Are",-10.252026710898491],["debut",-10.252231408089514],["Earth",-10.25315310055601],["prospect",-10.253399528210727],["scor",-10.254120230090628],["taxe",-10.256259584600862],["charit",-10.256330512900727],["Human",-10.256531762763702],["fish",-10.256709126644898],["brief",-10.258248841437165],["faith",-10.259324013173549],["Netflix",-10.25945776705381],["consensu",-10.259460407997988],["neighborhood",-10.259482226599687],["Investment",-10.259502326142066],["Watch",-10.259539381420254],["technical",-10.259553073622406],["wedding",-10.260013119454623],["agricultur",-10.260041795679394],["Assembly",-10.260188578168172],["Rock",-10.260415246962467],["outdoor",-10.260425176249758],["laws",-10.260617886544374],["Still",-10.260630392206354],["ong",-10.26141434251987],["employer",-10.262372950684412],["appreciate",-10.26557984197311],["Spa",-10.266003477493811],["recruit",-10.266911222013341],["broken",-10.266913026664877],["bright",-10.268257111159521],["chair",-10.269061298136222],["franchise",-10.269148663040166],["Executive",-10.269261688760842],["participant",-10.269262582827942],["Obama",-10.269277366276318],["84",-10.269287648804664],["racial",-10.269543722918932],["provision",-10.270192729232857],["expectation",-10.270222832901943],["chairman",-10.270275494573763],["breath",-10.270805034365289],["Look",-10.2714952461647],["planne",-10.271676241893584],["rais",-10.271927230458413],["zero",-10.272033687438697],["ski",-10.272215212387904],["resolution",-10.272216741275372],["iscal",-10.272375878758314],["resolve",-10.272440095455199],["PC",-10.273530036462969],["famous",-10.274992765006964],["turne",-10.275120124125692],["Press",-10.275333999641663],["classic",-10.275619629604641],["mandate",-10.275692156957762],["par",-10.276188627145473],["Dan",-10.276799353671642],["emotional",-10.277897448516933],["Life",-10.2789639158372],["oursel",-10.279146908980536],["celebration",-10.279219816833592],["doors",-10.279282480723634],["78",-10.279345821741398],["Additional",-10.27954598024844],["Game",-10.281483996477911],["199",-10.284194677582317],["ory",-10.284429324812757],["stars",-10.285634805796711],["applie",-10.288248750877901],["Daniel",-10.288319027866699],["Week",-10.288918752350504],["escape",-10.289016147179115],["concert",-10.289163170388008],["Du",-10.289332303854415],["Bryan",-10.289466853349067],["shire",-10.289563484993028],["partnership",-10.28959246472701],["Station",-10.289665109897522],["plane",-10.290180351713822],["sharp",-10.29035718375869],["analysis",-10.290390806591219],["briefing",-10.290522314121272],["sample",-10.290771182891465],["relevan",-10.290956064973466],["66",-10.291144536178155],["CBS",-10.292041383331084],["easie",-10.292576996328986],["Where",-10.295121813401112],["Francisc",-10.295688297402553],["Team",-10.29613828345036],["larger",-10.297273618165171],["im",-10.297284622966167],["suffering",-10.298938053074977],["Taylor",-10.29929178771344],["lawmaker",-10.299564319041703],["Ital",-10.299569215473742],["switch",-10.299754686598238],["Only",-10.29990196103933],["polic",-10.299964213668964],["operator",-10.30223942270825],["Best",-10.30392356640816],["spike",-10.304213997348363],["hall",-10.304620965066192],["Yes",-10.304778144859263],["theater",-10.305382455070653],["Mary",-10.30562532866886],["inspire",-10.30678118505272],["reject",-10.307378243638272],["compete",-10.307676671769729],["57",-10.30775344318014],["cloth",-10.308753251479143],["recommend",-10.309002651969443],["gender",-10.309457305504683],["bottom",-10.309476036430759],["athlete",-10.309477434626997],["Jewish",-10.309523633686698],["202",-10.3095610637617],["prosecutor",-10.30965938813004],["nuclear",-10.309888725199201],["Un",-10.310145856367804],["Parliament",-10.310152214181002],["alert",-10.31028765386904],["Coast",-10.31107923962379],["shortage",-10.311327291305986],["counter",-10.312006362393898],["64",-10.312101256874755],["repeated",-10.313698059425988],["elder",-10.314409116236192],["62",-10.314674145851534],["racis",-10.314835931816555],["59",-10.315048822117683],["Asia",-10.315635113967495],["Asian",-10.316136157199377],["observe",-10.316945435083838],["decrease",-10.317309797334687],["Sea",-10.31805781183364],["Insta",-10.319214405251902],["tradition",-10.319601541520827],["accurate",-10.319781596727378],["Turkey",-10.319815464325892],["quiet",-10.319840031796298],["soldier",-10.319841443540437],["newspaper",-10.320283753110074],["actress",-10.321852186887707],["58",-10.322782010759425],["ideas",-10.32341452405939],["deserve",-10.323683534779969],["adapt",-10.325057544454502],["Gold",-10.32517427285411],["thanks",-10.328451460172609],["losse",-10.328614494778272],["fashion",-10.33019425338551],["medicine",-10.330226376669293],["Former",-10.330454893161473],["Local",-10.330577092486745],["birthday",-10.33114392933092],["touchdown",-10.331242652145416],["Ali",-10.33143901849052],["peak",-10.331519145803632],["54",-10.332059440198453],["Agenc",-10.332225441268069],["witnesse",-10.33348948790426],["mistake",-10.333977944061848],["danger",-10.33402419941079],["pitch",-10.334469305191067],["founder",-10.335761639907979],["steal",-10.335903653552274],["crop",-10.336481358204974],["ja",-10.336535674873087],["dinner",-10.336877336323525],["William",-10.337199836261844],["Jim",-10.338234283115035],["immun",-10.3384659456025],["troop",-10.33904735272511],["Work",-10.339682760661072],["establishe",-10.33974952158212],["trick",-10.340224348782868],["ki",-10.340365656089126],["explore",-10.340664401752072],["behavior",-10.340721147749324],["marriage",-10.340731712141249],["Muslim",-10.340736388469285],["democrac",-10.340741834640886],["contribution",-10.34075531794209],["Global",-10.340810684917141],["Zoom",-10.341017658253758],["generate",-10.341355091271467],["cloud",-10.34167119817215],["PS",-10.342712206201575],["Town",-10.34288949170313],["Scotl",-10.343023837893547],["boss",-10.344306265849667],["mis",-10.344577066953168],["Social",-10.344619681708348],["upgrade",-10.345176720468162],["Bost",-10.345256636530559],["hole",-10.34621555135427],["corporate",-10.346461801980563],["drama",-10.348818170594415],["76",-10.349130616942722],["Middle",-10.349173105517853],["comfort",-10.349562733851625],["dealing",-10.349936581958406],["curb",-10.350357878228936],["PD",-10.351228017799091],["eligib",-10.351373114576642],["Among",-10.351416623190627],["disaster",-10.351428412073094],["Project",-10.351473313507114],["championship",-10.351512262918183],["Ryan",-10.351798704150976],["manner",-10.352029570926081],["Bowl",-10.352547984814152],["eating",-10.35328152558266],["Control",-10.35330088110066],["Pakistan",-10.35337747908296],["Charles",-10.353704176998207],["sky",-10.354048535915371],["shoot",-10.354207324438356],["Per",-10.354369306216281],["Water",-10.354574576102205],["playe",-10.354947406903275],["Michi",-10.355301523737047],["72",-10.35600570150934],["industrial",-10.356800852029725],["flu",-10.357014710318886],["quarterback",-10.357604898309289],["Ho",-10.36007905044902],["Ken",-10.360415676093766],["Khan",-10.360669970592635],["garden",-10.360938993532482],["focuse",-10.361111648788098],["hip",-10.361487185236566],["alcohol",-10.3619960075732],["defensive",-10.362113520895054],["argument",-10.362219710837074],["Power",-10.362255023104536],["bottle",-10.3626846257043],["Morgan",-10.362866670419947],["fifth",-10.363058258859619],["conclude",-10.36338619238639],["percentage",-10.363454509582542],["venue",-10.363571629999631],["instruction",-10.363788591571051],["67",-10.364256354780853],["rival",-10.364380927375155],["dispute",-10.36452544930817],["bound",-10.364794716483019],["row",-10.366107322838696],["false",-10.366130411439752],["corrupti",-10.366864806728426],["Grand",-10.367506166625933],["favor",-10.36991158272986],["matche",-10.371011313895004],["attenti",-10.371114060820556],["featur",-10.371585875851476],["Maybe",-10.372826145615504],["routine",-10.37301966103446],["Toronto",-10.37306201333319],["square",-10.373094022251319],["affair",-10.373148864999386],["Jordan",-10.37316919685858],["solid",-10.373341808869778],["Kong",-10.373373334930614],["2012",-10.373416160191773],["gap",-10.37348363208014],["dress",-10.373601090040083],["vast",-10.375029186940916],["88",-10.37534604910024],["enem",-10.376848983856284],["Van",-10.378000348394586],["Sports",-10.378876335320186],["temporar",-10.379233108480644],["unny",-10.379597386865822],["shopp",-10.379785427585064],["Four",-10.379870277693328],["gather",-10.380378658745808],["ur",-10.3806784181444],["witness",-10.381382644891195],["export",-10.382092684034248],["harm",-10.382257466041892],["Financi",-10.382489154150292],["remark",-10.383191318510804],["ington",-10.383921219907654],["offensive",-10.383972962552843],["System",-10.383978823695347],["guarantee",-10.383983998109978],["procedure",-10.384003558239215],["Open",-10.384174890560686],["Judge",-10.384219944245059],["Trust",-10.384443572694556],["iPhone",-10.384455053896149],["Speak",-10.3847376985999],["2010",-10.386003808865858],["Daily",-10.38637239701584],["profile",-10.386939111611756],["Bloom",-10.386943523924831],["code",-10.387630295728599],["Free",-10.387846583171708],["Chair",-10.38830655567301],["ence",-10.388935206366149],["roads",-10.389749671105735],["Net",-10.390795847478667],["Great",-10.391089025735866],["polis",-10.39326776905499],["surprising",-10.39459135545218],["Pennsylvania",-10.395080820416513],["capabilit",-10.39541826959542],["photograph",-10.396808160428993],["teaching",-10.39705516468831],["confirm",-10.398405289333326],["fix",-10.39897294514229],["polici",-10.399858520547756],["expense",-10.400134030014332],["tagram",-10.400467691885625],["playoff",-10.403073149283156],["tight",-10.403756625667205],["valu",-10.404905750573924],["51",-10.405399764965217],["bodie",-10.405456804989678],["68",-10.405553929766143],["broadcast",-10.405819365924739],["sub",-10.405921370369459],["Jersey",-10.406318109870167],["yield",-10.406323987674472],["Economic",-10.406324982035297],["excellent",-10.406325131934604],["Second",-10.406327161501785],["vital",-10.40636410774189],["strategic",-10.407502191557654],["possession",-10.407847821151728],["cease",-10.408343481135454],["Vegas",-10.408704996883593],["unclear",-10.409513471653714],["native",-10.410385643156939],["Senator",-10.411475492124437],["Kim",-10.412300965799309],["announce",-10.412395056067016],["onna",-10.413047398960114],["crucia",-10.414796425044301],["Col",-10.417214776316287],["Back",-10.417577505773634],["frequent",-10.417680295984647],["grocer",-10.417680559906884],["exposure",-10.417686695428543],["polls",-10.417750778688042],["distribute",-10.418901378604916],["wound",-10.418949870400212],["royal",-10.41922764546705],["insist",-10.419310772859642],["heavi",-10.41943345439658],["Lago",-10.420584255265865],["Bar",-10.420901544612239],["fake",-10.42118710552019],["Houst",-10.42140330760428],["Alex",-10.42173771193993],["dedicate",-10.42216786970501],["xciting",-10.42282764469893],["reference",-10.423488844136422],["postpone",-10.423844672642545],["manufactur",-10.424438184802057],["gate",-10.424551393704213],["stretch",-10.426056604910334],["embrace",-10.426318436382173],["Late",-10.426523563150742],["earne",-10.427393921314856],["assessment",-10.427740849620067],["collapse",-10.428304282465934],["fraud",-10.428661534753626],["Energ",-10.42918057359022],["Arizona",-10.429199457563822],["Championship",-10.42923264664387],["attract",-10.429232952324918],["Family",-10.429435522177464],["computer",-10.429533261625552],["occasion",-10.42959790030951],["footage",-10.429681359703814],["Labour",-10.42973066105733],["thus",-10.42976340813437],["collective",-10.429887888558866],["77",-10.429907125535834],["Ro",-10.431623470345869],["Plu",-10.431805669063145],["northern",-10.432488621101214],["Paris",-10.433380229340106],["diagnose",-10.43515295426247],["250",-10.43548882420108],["homeless",-10.436134520828752],["urban",-10.436632238698067],["submitt",-10.43788999278216],["Thank",-10.438880187568857],["150",-10.439041622735143],["birth",-10.439351779902232],["object",-10.440464072244257],["kitchen",-10.44080363746047],["unprecedented",-10.440809060611839],["competitive",-10.44080957260061],["offense",-10.440824592204034],["precaution",-10.440876807305358],["unfortunate",-10.440956224085298],["objective",-10.44116064071758],["lakh",-10.441356701659995],["legend",-10.44165478298899],["improvement",-10.441858375970241],["sweet",-10.443125020973241],["indoor",-10.443608349619442],["command",-10.443797386853461],["bear",-10.445012452656767],["brain",-10.445921421198229],["Steve",-10.446232824781056],["Academ",-10.44636084356193],["Show",-10.447435460487704],["west",-10.447577865290672],["ride",-10.44758259106133],["encourag",-10.447848168435375],["Base",-10.44892909536283],["Alberta",-10.449025605481182],["destroy",-10.449697461525975],["signe",-10.45030591697558],["han",-10.450630449346537],["iami",-10.45100858902191],["Mac",-10.451343309624555],["struck",-10.451513691913874],["Report",-10.451972319063714],["custod",-10.452554984805365],["Wisconsin",-10.452567170288393],["Foreign",-10.45256854044504],["collaboration",-10.452577937439386],["Advisor",-10.452585863320348],["reduction",-10.452748393994518],["pilot",-10.452770113942332],["legac",-10.45285011680105],["penalt",-10.4530074382517],["Lewis",-10.45303101589446],["tourist",-10.455524589409897],["shoulder",-10.455747873226489],["Ju",-10.457100829364865],["Nav",-10.457266461125954],["territor",-10.457290597611916],["Cross",-10.45790964829429],["uhan",-10.458252794832536],["omen",-10.458737005773568],["praise",-10.459647296548173],["topic",-10.460244013849653],["Out",-10.460574458854214],["Har",-10.46128554510192],["nurs",-10.461355798275397],["FC",-10.461474022518315],["ner",-10.461830080438325],["Gar",-10.462716916419314],["prepar",-10.462752087351841],["occurre",-10.46351576819431],["cultural",-10.463610419029635],["advocate",-10.464052942051431],["Davis",-10.464186419830824],["anger",-10.464268384572314],["van",-10.46446961653491],["Elizabeth",-10.464473559531475],["Disease",-10.464480307287445],["Unfortunate",-10.464482077680199],["Sheriff",-10.464528621465693],["nomination",-10.4649363613855],["settle",-10.465007114002109],["LA",-10.465033435562574],["Network",-10.465323755860961],["Deput",-10.46668040928796],["newly",-10.466685191249503],["indeed",-10.467163143908317],["map",-10.467462190451002],["ble",-10.467863078341836],["Eastern",-10.4681451578267],["Down",-10.46831894537769],["sole",-10.468563078936494],["regime",-10.4687218494633],["ramp",-10.46947251477688],["historical",-10.470117632116501],["Ra",-10.470455090284213],["willing",-10.47053484415873],["poste",-10.470534940924193],["residence",-10.471296673361586],["western",-10.471397247958908],["finishe",-10.471604101252744],["uty",-10.471735270006029],["rough",-10.47192246199514],["ring",-10.472264268679023],["shock",-10.475202860228304],["Boy",-10.475790230277628],["700",-10.475860212881418],["Richard",-10.475967562043182],["Attorney",-10.47652011961113],["Afghan",-10.476520184938973],["Ontario",-10.476544178581875],["improv",-10.476629578410723],["gear",-10.476779032292377],["peaceful",-10.476934624173948],["98",-10.47701936734894],["Food",-10.47705619647785],["worry",-10.478627559550752],["downtown",-10.479179809254116],["split",-10.479443123152777],["oundation",-10.480053145397463],["trac",-10.480358484071385],["luck",-10.481044014781808],["69",-10.48108742208518],["cycle",-10.481768440734363],["speaker",-10.483174370335245],["employ",-10.48435175690188],["coin",-10.484608926337497],["filing",-10.484674529776303],["earn",-10.485592436700198],["handl",-10.486152884072691],["engine",-10.487520266132277],["pet",-10.488068425671234],["investigate",-10.488234159192235],["tension",-10.488373052703839],["bail",-10.488454593286871],["junior",-10.488728357343655],["Senior",-10.488731565418657],["rang",-10.48880024332614],["Please",-10.488930804561013],["empty",-10.488985355560207],["extraordinar",-10.48915436127957],["Sara",-10.489442013973779],["hunt",-10.489519656588856],["disclose",-10.489744763410505],["restrict",-10.490474084017695],["Award",-10.491304379429046],["manufacturer",-10.491507897399941],["careful",-10.492114467198807],["mount",-10.492751707493674],["recogni",-10.493349762156525],["neck",-10.493432090035443],["ca",-10.494421043582044],["anywhere",-10.49444714088569],["Queen",-10.49459315223756],["Abu",-10.494729647229398],["surrounding",-10.495694607893146],["connected",-10.49648571788287],["bury",-10.497497004032919],["fired",-10.498433785432127],["ABC",-10.498981354361316],["enforce",-10.499147651597811],["frame",-10.499783093363728],["signal",-10.49982577488497],["dry",-10.50058799976369],["Catholic",-10.501061067791902],["Colorado",-10.50106179314706],["Clark",-10.501097628344016],["narrative",-10.501126470988872],["Republic",-10.50118687908601],["academic",-10.501205480902208],["outlet",-10.50151052770193],["urism",-10.501529671845663],["clock",-10.502631045232638],["ensur",-10.503092559788952],["clinical",-10.503372179022138],["ward",-10.503865243145327],["inch",-10.504955186526907],["confident",-10.504968975126694],["headline",-10.505978371259038],["quote",-10.506619291346901],["historic",-10.507747364970225],["Phila",-10.507909558909585],["Area",-10.51000383617547],["recording",-10.510550694773688],["golf",-10.511569201782645],["cancell",-10.511647759990229],["folks",-10.512136599446706],["llino",-10.512290878310138],["librar",-10.513507293300483],["cryptocurrenc",-10.513565555720891],["delphi",-10.5135657458567],["Through",-10.513581205759902],["violation",-10.513595487342752],["Conference",-10.513661563421369],["lesson",-10.513684482639501],["Jason",-10.513944340557622],["acknowledge",-10.514093554242567],["arrival",-10.514592830694284],["desperate",-10.514669105894303],["enhance",-10.514838983753364],["Lord",-10.51530945117402],["96",-10.515378573874594],["stone",-10.515379379685402],["Justin",-10.516213985571344],["Tony",-10.516454776303462],["mine",-10.517416050754488],["JP",-10.519177750599985],["UN",-10.521375427488316],["den",-10.522039067924874],["Israeli",-10.522968195991105],["detect",-10.52407274643671],["Live",-10.524921872353659],["Mar",-10.52525376862965],["flat",-10.525312739911127],["cable",-10.525378174234753],["reader",-10.525582035250695],["wheel",-10.525899365541607],["exit",-10.526079052642764],["except",-10.526107036019246],["concept",-10.526116706915868],["Professor",-10.526219814650641],["Patriot",-10.526233742936702],["perspective",-10.526236116621416],["conservative",-10.526239163120948],["dramatic",-10.526313960784039],["colour",-10.526321140814456],["encounter",-10.526325293618271],["followers",-10.52636398444999],["urg",-10.526403187795271],["plastic",-10.526469542850535],["prompt",-10.527417829741944],["manag",-10.527427561235827],["produc",-10.527586528765084],["trailer",-10.527638426788357],["Iraq",-10.528057516999798],["Whe",-10.528146579921872],["baseball",-10.528302580176053],["ties",-10.528998521626601],["legislation",-10.52956468823584],["chart",-10.529923794741764],["63",-10.53003895948559],["Mc",-10.530601724367582],["reserve",-10.532981452272427],["saving",-10.533086295278482],["97",-10.534007377664729],["Bob",-10.534559036231741],["maxim",-10.535998797293733],["ide",-10.536383955718271],["emerg",-10.537311681978387],["informe",-10.537332939043429],["Drive",-10.537625439006167],["divide",-10.537774954590166],["surger",-10.537808571137841],["motion",-10.538188425212764],["inter",-10.53886569849891],["Head",-10.539019907824226],["absence",-10.539049337902302],["joke",-10.539180452798167],["wonderful",-10.53926892355774],["reduc",-10.539280462202647],["sanction",-10.539522013610075],["Season",-10.539637015419896],["classroom",-10.539778824872204],["5G",-10.541128057091377],["spen",-10.541724761559289],["admit",-10.541764448351962],["demonstrate",-10.54209096653901],["GO",-10.542324899454062],["acquir",-10.543865541648112],["ears",-10.545672398583704],["adjust",-10.546047874445403],["Wood",-10.547542378921296],["mode",-10.548369212447668],["minorit",-10.549244016342364],["adopt",-10.550631539312853],["urgent",-10.551340744493267],["App",-10.551392919671985],["caution",-10.551947041630509],["Administrati",-10.552027821122337],["senator",-10.552029785718254],["Science",-10.55203054890507],["combination",-10.552046460018069],["shirt",-10.552160812376206],["fishing",-10.552413182628264],["knowing",-10.55311273941161],["tenanc",-10.553293675382912],["prayer",-10.553413774857724],["mile",-10.55403487093913],["spokesm",-10.554226628521533],["outhern",-10.554583117641338],["rank",-10.555244030743857],["Stan",-10.556545766615809],["86",-10.557918365804536],["74",-10.558615571472098],["Special",-10.558634052857952],["violent",-10.559842669128207],["EC",-10.560246569953922],["pped",-10.560880382631938],["craz",-10.560956182780053],["Santa",-10.561409089405174],["views",-10.563557738519822],["fruit",-10.564868049835338],["Joseph",-10.56518531338137],["component",-10.565191887108691],["belief",-10.565193599253393],["portion",-10.565247620238651],["extension",-10.565271630879334],["Saudi",-10.56527308755642],["depth",-10.565279154439654],["strengthen",-10.565358864141555],["abandon",-10.565485293935382],["index",-10.565683463104298],["anxiet",-10.56571941522817],["impossible",-10.566318531825242],["failing",-10.56633983049614],["oving",-10.566969135794341],["knock",-10.567226405896115],["Kelly",-10.567501745505686],["pose",-10.56844720176861],["reasonable",-10.57045721056817],["responde",-10.570720433449054],["lay",-10.572486146026689],["proof",-10.572868343461442],["plead",-10.573335308564403],["Brady",-10.573491418239932],["Ford",-10.57373648670129],["permit",-10.573845783642543],["suffere",-10.574048397622589],["purchas",-10.574800554272109],["ious",-10.575345212823255],["lots",-10.575528644779357],["Zealand",-10.5764206011082],["Test",-10.576506348172286],["81",-10.576784753414234],["developer",-10.577295500149926],["inmate",-10.577554980353035],["Las",-10.577575269977537],["Have",-10.577800239457972],["nominee",-10.57852291012479],["Official",-10.578532126926842],["define",-10.579501117066656],["Saint",-10.580180309874471],["Rose",-10.580465666875748],["unknown",-10.581464140167366],["grass",-10.58158569076273],["lie",-10.583230224503742],["till",-10.5841836800448],["burg",-10.585136199731622],["relations",-10.586033176249115],["Media",-10.586352019742279],["apart",-10.586954763519945],["planet",-10.587028360093557],["79",-10.587219947624675],["61",-10.587428490040233],["literal",-10.589732334332508],["crack",-10.590596003859126],["sung",-10.590636993165633],["Sydney",-10.592031695907751],["horror",-10.59203237294864],["criticism",-10.592268700882297],["gym",-10.592829682309823],["comic",-10.592938867671037],["automatic",-10.593913704246045],["Old",-10.59428959626128],["Eric",-10.595674986832055],["tra",-10.598419289793982],["inform",-10.59888518396722],["champion",-10.599192700076244],["za",-10.601997055432205],["formal",-10.602747555905836],["rely",-10.60374325891922],["cleaning",-10.604248930097352],["tend",-10.604599806302748],["shall",-10.60489397619908],["everal",-10.605233692529533],["hood",-10.605634975108057],["museum",-10.605741572946705],["Time",-10.60587899412438],["Josh",-10.60644610611438],["efore",-10.6066877887658],["hell",-10.606730764275053],["aggressive",-10.606776465709945],["laid",-10.607685921685718],["Grant",-10.607954004535056],["halt",-10.608292408095746],["signature",-10.60868975342268],["Golden",-10.608795240405072],["visibl",-10.60884154216639],["laugh",-10.609470550000932],["Anth",-10.609563462138063],["install",-10.61064724032872],["scientific",-10.611058611256432],["minor",-10.61115360799007],["Henr",-10.61144220975574],["89",-10.611678979440274],["videos",-10.612476600135592],["format",-10.613465180827477],["stimul",-10.61391969776932],["YouTube",-10.615879247561471],["racist",-10.616031642244145],["practical",-10.616489548294863],["que",-10.617484933140553],["mph",-10.618449435791419],["sight",-10.618707255751424],["Matt",-10.619143942918654],["aged",-10.619558417607687],["viral",-10.619625752788076],["pocket",-10.619708325954546],["genuine",-10.619735790354365],["medium",-10.619758361846237],["Ten",-10.620650137253593],["Guyan",-10.620731563892006],["upper",-10.621682149088155],["fundamental",-10.622035074529492],["storage",-10.62234112469768],["assign",-10.622973550450578],["banne",-10.62322992747751],["ical",-10.623608277028506],["eastern",-10.624386560600453],["currenc",-10.625236082730503],["meat",-10.625616587997165],["cop",-10.626506045543154],["oppose",-10.627315486854997],["pursue",-10.627558641073568],["tank",-10.62778709568249],["Ver",-10.629615923941941],["Add",-10.629679605430312],["publish",-10.631074025150397],["aimed",-10.631138495782633],["signing",-10.631671793357313],["pur",-10.632670672438907],["condemn",-10.633514590312622],["technologi",-10.633623666453156],["Bitcoin",-10.63371410436801],["behaviour",-10.63372042646835],["Bengal",-10.63374284110725],["context",-10.633782339120641],["Further",-10.633830501572229],["smartphone",-10.633934870555862],["Plan",-10.63393960713507],["assistant",-10.634037816834336],["ter",-10.634259966910435],["Hope",-10.63474626812685],["exclusive",-10.63489529135013],["shutdown",-10.635159069916424],["Call",-10.63517640153204],["gam",-10.637924634846302],["repair",-10.638204566918253],["joine",-10.638261295021273],["HO",-10.639692034811764],["moral",-10.64025767272275],["climb",-10.640309870720124],["handed",-10.642238553153632],["Sky",-10.64225844497047],["horse",-10.64447045791206],["king",-10.644767323564139],["ize",-10.646406030933218],["dale",-10.646625960647045],["Angel",-10.646679676257792],["Mont",-10.64717975169222],["epidemic",-10.647989159445185],["Stadium",-10.647996688283927],["intervention",-10.648034140350228],["Check",-10.64803569268223],["favourite",-10.648075737309487],["Wilson",-10.64809909431867],["Airport",-10.648129406485658],["celebrit",-10.648209378380557],["negotiation",-10.6482533770767],["Louis",-10.648310389409316],["Safe",-10.64873697218384],["Li",-10.650241829938956],["Space",-10.650521764018723],["experienc",-10.650576262264753],["proceed",-10.651316824233117],["joy",-10.651598153324944],["musical",-10.651838882492834],["cuts",-10.652792529736276],["mate",-10.653549719912398],["Night",-10.653937454865737],["foundation",-10.654151916783999],["Pay",-10.656688322316835],["organize",-10.656921775802402],["permitt",-10.657164162752338],["paint",-10.657445658091504],["wine",-10.65753411883019],["Leader",-10.65836677429108],["develope",-10.658375633333838],["mini",-10.658576901123718],["rac",-10.659396284153313],["Spring",-10.659595629198101],["injure",-10.660207172508585],["burden",-10.660471774691679],["km",-10.660674936535777],["trained",-10.662092236594955],["Investor",-10.662578776095355],["respirator",-10.66270518141572],["coffee",-10.662891450719922],["comply",-10.663216103516152],["Ar",-10.66355155127967],["calm",-10.663984364958829],["flower",-10.664348952128211],["names",-10.666128473660795],["treate",-10.666171992302996],["dismiss",-10.667249648927285],["lifte",-10.6678370504156],["AI",-10.668250976564849],["ster",-10.668947665794743],["tag",-10.669018488816445],["adviser",-10.669344696638348],["ignore",-10.671682347148785],["pray",-10.673114758435226],["Jay",-10.673230994075986],["passion",-10.673756880602213],["Top",-10.674064613051453],["Never",-10.674115765322703],["migrant",-10.674302339055027],["stepp",-10.674895304377813],["pushe",-10.675110313719035],["itness",-10.676181863252646],["subsequent",-10.677187788757745],["Associate",-10.67718781557155],["Pacific",-10.67718784294209],["experiment",-10.677187880819949],["podcast",-10.67718887432246],["vessel",-10.67721593335941],["Division",-10.677232122535553],["Bernie",-10.677258829508562],["efficient",-10.677303621404242],["intensive",-10.677531542299132],["retain",-10.677630458365185],["provinc",-10.678309289236363],["Lady",-10.67861779712281],["Bei",-10.678819479356077],["Five",-10.680132505944872],["substantial",-10.680531677422614],["EP",-10.680637134377992],["Minne",-10.68080908050414],["reward",-10.681562255162685],["inning",-10.68234688659293],["94",-10.682372849389292],["basicall",-10.68273207303812],["squad",-10.683128122672176],["Cooper",-10.68364729627163],["attle",-10.68406193472008],["91",-10.6842172523437],["Megha",-10.684593097869076],["defence",-10.685000489545697],["wore",-10.686414600710956],["stein",-10.686713748567605],["Financ",-10.688345144270397],["plate",-10.690309312097146],["strange",-10.690571155758203],["ji",-10.691035900782426],["Guard",-10.691451078888417],["convince",-10.69156767651074],["advertis",-10.691788184835453],["sumption",-10.691947906612999],["Societ",-10.69211880007476],["Mumbai",-10.692156987400363],["gradual",-10.692163501227535],["boxe",-10.692214281201963],["civilian",-10.692226527329606],["absent",-10.6922845118122],["association",-10.692339830191013],["registration",-10.69237895444347],["Ghana",-10.69244236798666],["tier",-10.693598363742858],["unusual",-10.693981557436867],["lowes",-10.694238653266087],["vi",-10.694310710286938],["anniversar",-10.695110294845787],["terrorist",-10.695362086545334],["occur",-10.695819907739256],["eager",-10.695869071084307],["institutional",-10.697049861617582],["tune",-10.697076247640444],["Eagles",-10.697162614342934],["Brian",-10.697197863292025],["shore",-10.697572360403267],["Modi",-10.69773734332086],["sustainabl",-10.69810768942272],["marked",-10.699131966789876],["TON",-10.699772959070561],["await",-10.700078103864536],["ke",-10.7001915666816],["solve",-10.701098812634248],["Gen",-10.70237434921178],["knee",-10.702421933632738],["Master",-10.702793851543035],["Indiana",-10.703095042195894],["drew",-10.70319971577942],["bike",-10.703787022246535],["Zimbabwe",-10.704034227491022],["corn",-10.704078332349779],["ourne",-10.704195033781303],["onic",-10.704690427221752],["ockey",-10.704734401925924],["82",-10.705594320687545],["exten",-10.706212241395754],["neighbour",-10.70724044592663],["Defense",-10.707264699783853],["pattern",-10.707264955152562],["trillion",-10.707267881069738],["Brexit",-10.70727431081178],["trigger",-10.707296620646634],["destination",-10.707325264474544],["Clint",-10.707326817084336],["Get",-10.709989957435987],["resort",-10.710130752894234],["pictures",-10.710674874974217],["orry",-10.710846529613892],["jing",-10.7110988098473],["Liver",-10.711642135155614],["SA",-10.713712440813813],["Sony",-10.714127428395098],["understo",-10.714559935163075],["NA",-10.714786016511407],["hari",-10.715488730894695],["learne",-10.716164427945639],["120",-10.7168984970548],["Su",-10.717457013829822],["uomo",-10.71786218279683],["beaut",-10.717907653514615],["string",-10.718488672654885],["Po",-10.718937404964583],["primari",-10.719801245091636],["arvel",-10.720215287721633],["opt",-10.721549910801006],["creation",-10.72161719881479],["aside",-10.72188944621622],["convict",-10.722556232854195],["Thompson",-10.722649368681973],["Dakota",-10.722652260344919],["Common",-10.722653683520385],["Palestinian",-10.722661578620016],["barrier",-10.7226819400524],["Italian",-10.72283415064457],["hospitaliz",-10.722962925095779],["musician",-10.722989742262769],["salar",-10.723047304621257],["cream",-10.72307834885129],["teammate",-10.723106882402497],["resist",-10.72323216721238],["buyer",-10.723389958994598],["peer",-10.723673401687297],["fulfill",-10.723899553041944],["ick",-10.723994859346835],["curve",-10.72405022085194],["minim",-10.724236511330714],["lung",-10.72479189838553],["edition",-10.72487036101785],["interact",-10.725728509215633],["smoke",-10.725759490197113],["weak",-10.726060925489907],["92",-10.726346752962504],["FB",-10.727157829097084],["GDP",-10.728584737386932],["bout",-10.729339625604014],["Ab",-10.729848928470728],["web",-10.731840167473678],["citing",-10.734490607687619],["error",-10.734767436011621],["Men",-10.735086367633878],["cruise",-10.73595006654706],["label",-10.736067909284898],["pregnan",-10.737278672341464],["satellite",-10.738275433018412],["Which",-10.738278274239317],["forget",-10.738520407419706],["mandator",-10.738576629877553],["speci",-10.738604605641806],["Rich",-10.738771018475248],["assess",-10.73954481040218],["admission",-10.739575446153879],["Matter",-10.739599007639704],["rebound",-10.740045074811967],["Hamil",-10.740121631058283],["Ross",-10.740548990145294],["mild",-10.740698287925495],["independenc",-10.74182783158707],["Ha",-10.742117388070493],["qualify",-10.743487164907666],["drone",-10.744016777756173],["innovation",-10.744295460119158],["fears",-10.745107455240806],["WE",-10.745293482532315],["scenes",-10.745822797601026],["rmed",-10.747063069534889],["Ram",-10.748141433541962],["hrew",-10.748911459416675],["Beat",-10.74916097390242],["Wal",-10.74918890235247],["tolen",-10.74940761004876],["Jeff",-10.749991450304424],["Tim",-10.750268259179427],["weigh",-10.750820125331343],["Am",-10.752188279403978],["portray",-10.754164109286478],["Utah",-10.754168986993868],["captain",-10.754169906163941],["cluster",-10.754172404017869],["confront",-10.75421516611452],["warrant",-10.754221717689116],["portfolio",-10.754252590983663],["Irish",-10.754445602884898],["impressive",-10.754541649657526],["mountain",-10.754668524845053],["progressive",-10.754683610797908],["cabinet",-10.754798817606073],["SE",-10.7548931331991],["bedroom",-10.75497000620718],["infectious",-10.75559768050702],["achievement",-10.755781054751585],["divorce",-10.75594784680753],["Moore",-10.756369089398587],["finger",-10.756457507306386],["Highway",-10.756594183373316],["offere",-10.756791522832774],["agenda",-10.75702731503286],["Does",-10.757119679870076],["evil",-10.757362296906178],["funeral",-10.758027913084614],["mond",-10.758169701855977],["engagement",-10.758300861065198],["referred",-10.758997360488316],["ling",-10.760864170874449],["celebrat",-10.760922268785576],["Music",-10.762016055877531],["greed",-10.762050011353503],["Take",-10.762065725968583],["passionate",-10.762195588903488],["lady",-10.762369885758435],["Jet",-10.76367286311902],["nobod",-10.764768516354199],["cutt",-10.765879594051313],["petition",-10.766328218653815],["qualifie",-10.766494722730219],["smooth",-10.76692259154883],["overse",-10.767373131191494],["USD",-10.767574338230443],["73",-10.767884263788524],["swing",-10.767960471662514],["topping",-10.768052024201033],["Melb",-10.768433533695227],["ola",-10.768606409448594],["bowl",-10.770036178615424],["deposit",-10.770215934262866],["principal",-10.770276340462356],["helicopter",-10.770276377942572],["harvest",-10.770278413679051],["Current",-10.770307098569493],["Little",-10.770309161083041],["carbon",-10.770348314116298],["extensive",-10.770416197399907],["arrangement",-10.770416274856304],["Patric",-10.770443353051832],["lies",-10.770477710146116],["beating",-10.770831929315786],["sugar",-10.771175127823746],["brilliant",-10.771352963013289],["commissioner",-10.77244906890163],["expansion",-10.772900515444181],["Stephen",-10.773147317685034],["bu",-10.773204371948088],["sponsor",-10.773526985321183],["emission",-10.7737657880256],["retailer",-10.774364630389332],["headquarter",-10.774475784525436],["branch",-10.774614625344338],["Sir",-10.774859300755816],["Wall",-10.774915139704998],["attende",-10.775257588723495],["select",-10.775717651904444],["canno",-10.775838736941726],["performing",-10.776108603284108],["root",-10.77670420278163],["earth",-10.777823483937404],["NSW",-10.77840052800245],["educational",-10.779204826332908],["NBC",-10.78065920173872],["Phil",-10.780975762981637],["utilit",-10.78116769538713],["orthern",-10.781921949808115],["USA",-10.782226495023432],["types",-10.782471616434734],["stable",-10.782675095388297],["priva",-10.783430270435566],["cited",-10.784365315207138],["assume",-10.785593294421387],["lands",-10.785915201309532],["Mitchel",-10.786391993821745],["citizen",-10.78661292199358],["conclusion",-10.786672037008783],["electronic",-10.786680628827547],["instant",-10.786682155127735],["demonstration",-10.786691983233727],["console",-10.786735940478973],["replie",-10.78674419831989],["Radio",-10.78677861118743],["cinema",-10.786842761654908],["Prevention",-10.786901298129798],["SARS",-10.786923979183516],["Gulf",-10.787167000217634],["travell",-10.787214320622258],["heading",-10.787452879486162],["Farm",-10.787491083692682],["Did",-10.78818603242184],["deadline",-10.788329272984313],["intention",-10.788932565414752],["Again",-10.789231069996642],["Bear",-10.789238449935187],["tri",-10.78939998903384],["venture",-10.790566091456238],["villain",-10.790684776741319],["Bridge",-10.79103558498944],["plays",-10.791186770927878],["Con",-10.791829495374195],["Boris",-10.791831287434526],["hung",-10.792287437171604],["Spani",-10.792427988753609],["transferr",-10.793157747348987],["Stone",-10.793488165621792],["Ba",-10.794072967302366],["compromise",-10.794247063327411],["exam",-10.794479306158612],["Lives",-10.79582166386809],["alarm",-10.796108398097829],["feed",-10.796330103031025],["Unit",-10.796381158613027],["forth",-10.796389312960873],["istan",-10.798601549094045],["assure",-10.799492036551388],["log",-10.800757648370402],["lunch",-10.801016664286227],["meter",-10.801883878619194],["87",-10.802627091245801],["continent",-10.803336538495675],["Should",-10.80333779143847],["Inter",-10.803339837842998],["Organization",-10.80334606163117],["Tiger",-10.803397698987206],["impeach",-10.803873049442217],["Childre",-10.80406362832936],["personalit",-10.80446330708098],["suicide",-10.804635690323437],["Awards",-10.804689829939255],["sufficient",-10.80469014900207],["soul",-10.805683490331353],["promotion",-10.805778777383885],["Read",-10.805971025034474],["Roberts",-10.806815159866382],["fantastic",-10.807579731539464],["coache",-10.80766911348488],["blast",-10.80786647917413],["ou",-10.808807740758791],["intense",-10.809205650839882],["proven",-10.809667847696506],["ahu",-10.81096924044666],["CU",-10.81100831414156],["skill",-10.811989484950136],["nominate",-10.812147612481848],["teen",-10.812321986009849],["breach",-10.812455616253413],["eliminate",-10.812789187137401],["counsel",-10.813775059717848],["?\"",-10.813784742151125],["Kenya",-10.814290788342596],["Ka",-10.814424635409079],["brutal",-10.814843619067492],["OS",-10.814996197627153],["fatalit",-10.815402199197393],["isation",-10.815684886059046],["latter",-10.816873738875895],["Dieg",-10.817093578197369],["tribute",-10.817365870069246],["Kevi",-10.818002547938777],["gross",-10.818388824710565],["summar",-10.819188090992359],["sheet",-10.81947833548162],["lane",-10.819529632756039],["critic",-10.819846300582245],["Oregon",-10.820200325175682],["Civil",-10.82022811258026],["privilege",-10.820285602393692],["silver",-10.820289480061255],["Affair",-10.820306648992347],["dynamic",-10.820338874846755],["Emergenc",-10.82035196532967],["obligation",-10.820409675278139],["explosion",-10.82041851375131],["missile",-10.820476738014424],["Mountain",-10.82062692082135],["moderate",-10.821104090763441],["Agricultur",-10.821127041496485],["PR",-10.821261854503714],["hitting",-10.822014899047037],["toilet",-10.822622435322888],["Fall",-10.822751795976739],["narrow",-10.822757890231436],["screening",-10.823088983963114],["adequate",-10.82328775783575],["Massac",-10.82410802737497],["editor",-10.824261415841688],["Arab",-10.825212321253998],["Jenn",-10.827803492293445],["cyber",-10.828273029444006],["Nick",-10.82847001987283],["bread",-10.828620160313019],["dose",-10.829146838201043],["pover",-10.830336393392395],["Crow",-10.830705215114865],["hub",-10.831108342944566],["Bo",-10.831591497240115],["*",-10.83218117208924],["clinic",-10.834260850805546],["Cook",-10.834777280631114],["IT",-10.83501943393787],["Di",-10.835753869029805],["appointe",-10.83630561999949],["83",-10.836593276963516],["taste",-10.836758040126306],["lake",-10.836917343127745],["runner",-10.837204173976284],["Tech",-10.837363955887735],["Murphy",-10.837533453563497],["devastating",-10.837539004239714],["grateful",-10.837565754985128],["unveil",-10.83757099614187],["overnight",-10.837586447862416],["Transport",-10.837836372907283],["interaction",-10.83793366950555],["barrel",-10.837964533305348],["milk",-10.837994799140189],["Montreal",-10.838006369144475],["Ray",-10.838010809607862],["roots",-10.838019155108956],["rumor",-10.838253000309464],["workplace",-10.838368474838065],["boyfriend",-10.838522402135293],["technique",-10.838771157544027],["labor",-10.839124162097225],["Such",-10.839157892406499],["Main",-10.839736836577547],["OK",-10.840998848725933],["metre",-10.841085321168837],["luxur",-10.841452292178072],["hill",-10.843677920878456],["complicate",-10.844061859764299],["seeming",-10.844559216161482],["temporari",-10.845820998576675],["designe",-10.846058687778694],["Constitution",-10.846580074788182],["GM",-10.847275622382472],["pledge",-10.847317630873476],["rity",-10.847426967797144],["noise",-10.84795775846833],["2000",-10.848067109439711],["Forest",-10.849047463393342],["recorde",-10.849509760509246],["auto",-10.849840170996043],["march",-10.850223166536079],["stronge",-10.850548125746027],["nose",-10.850769694185344],["Make",-10.851055898154325],["honour",-10.851062900075547],["integrate",-10.851283775979184],["Kan",-10.851464528709002],["ideal",-10.852165120615272],["Program",-10.85221902612696],["panic",-10.85255036786927],["processe",-10.85258550051885],["deny",-10.85444862287978],["Kate",-10.854720756295137],["Cape",-10.854785239320854],["prohibit",-10.854971633249846],["chapter",-10.855072425549505],["weird",-10.855138854446984],["Alabam",-10.855342409392293],["premise",-10.855465675827688],["ventilator",-10.855521677238439],["Miller",-10.855577118494665],["disabilit",-10.855850608097478],["attendance",-10.855911888608917],["Wale",-10.856456171014983],["PPE",-10.857015888766135],["gen",-10.857162840303666],["helpful",-10.857249216804925],["surveill",-10.857888820827604],["Anderson",-10.858011208347683],["Book",-10.858180944128588],["resign",-10.85823906257929],["emotion",-10.858654960904094],["rapper",-10.859279432266842],["complain",-10.859318899788793],["washing",-10.859485788430899],["NN",-10.860141738447783],["reliabl",-10.860317351178162],["tries",-10.861170247942038],["promis",-10.862136536439875],["Hav",-10.863077315290553],["Tik",-10.8639021830028],["chester",-10.864010549403602],["Chi",-10.864655935481908],["cheer",-10.864943873046197],["Lo",-10.865598926375664],["proceeding",-10.86878887082342],["posed",-10.86956447193538],["arriv",-10.869730671967336],["riot",-10.87087817299745],["cooperati",-10.871552279908506],["rel",-10.87240713458721],["favour",-10.87284507659469],["PP",-10.872901097959636],["Brazil",-10.872908330348283],["frustration",-10.872927987495807],["terribl",-10.872936321912377],["chicken",-10.87294465502886],["Alexander",-10.872948589408574],["Galax",-10.872954103324489],["liberal",-10.872955244262588],["sensor",-10.873017813971744],["Channel",-10.873023563544457],["shield",-10.87309664877799],["deficit",-10.873106303030287],["Zack",-10.87324336293442],["Kyle",-10.873305791248244],["Vietnam",-10.873421321451985],["Oscar",-10.873617890735279],["Hawaii",-10.873907499794221],["Speaker",-10.87423264860196],["clothes",-10.87439309889828],["Austin",-10.875058284460188],["visual",-10.875807189824346],["immunit",-10.876029818617628],["alter",-10.876090031556805],["ages",-10.876135897945698],["Bell",-10.876277639468267],["physician",-10.876328427111275],["mere",-10.876534196433012],["statistics",-10.876609749995783],["equipp",-10.876720393325286],["shower",-10.877180986916635],["fille",-10.877493456324885],["1960",-10.88017218617138],["overwhelm",-10.8802285820884],["rape",-10.880618007412053],["Mil",-10.880715114361937],["Jo",-10.881036653245832],["ID",-10.881705205062234],["carrier",-10.881804301762937],["motor",-10.88199120435315],["unemploy",-10.882277044749904],["transform",-10.882715568848933],["Wild",-10.882924743546308],["therap",-10.883571958013759],["forest",-10.88361246712418],["See",-10.883767718797516],["Brad",-10.883924160876274],["premiere",-10.885443143557339],["tip",-10.885518860084188],["Rep",-10.885569273243592],["rolling",-10.885755245483782],["icon",-10.886668195549472],["Arts",-10.887052524568155],["Korean",-10.88724869516027],["fatal",-10.88746474026468],["discharge",-10.888068219399308],["disappear",-10.888087433338612],["ak",-10.888242151788873],["wishe",-10.888403398083105],["instrument",-10.888520622789061],["ional",-10.888554264716443],["Gree",-10.889758257720114],["smile",-10.889766540379973],["cat",-10.88979589331494],["Pat",-10.890392838383278],["chat",-10.891053107056868],["Corporation",-10.891138490537692],["Hotel",-10.891146738054301],["stakeholder",-10.8911468669694],["laptop",-10.891208119632616],["preparation",-10.891424161702096],["immigrant",-10.891446333889174],["Bel",-10.891537843454984],["Manager",-10.891554768419574],["ative",-10.891684565014726],["implementation",-10.891723683519004],["firefighter",-10.891982102748983],["advisor",-10.892053296918707],["publication",-10.892124599020093],["Next",-10.892142333449392],["myster",-10.892226111459344],["robber",-10.892345347100985],["Given",-10.892950320707289],["semi",-10.89376798381045],["ends",-10.893856024963686],["uru",-10.893865357210275],["bio",-10.894596460484088],["discount",-10.894746369608164],["Charli",-10.895401334399468],["requir",-10.895666089500109],["Mount",-10.895721291698152],["timing",-10.896207735822154],["creator",-10.896373106058027],["coal",-10.897006080875551],["wick",-10.897604441997252],["Six",-10.900570742570586],["Due",-10.900936417026408],["inches",-10.901593332366978],["anyway",-10.90178164131938],["Anna",-10.902363439420734],["designer",-10.903341078083628],["powers",-10.903635123263472],["rail",-10.903900379225288],["Evans",-10.903922908630616],["beds",-10.904041300397132],["ible",-10.904048641055395],["micro",-10.904073037825611],["stem",-10.905390027779546],["Han",-10.905597285692235],["loud",-10.905961194376196],["NY",-10.906021748919441],["activists",-10.906280198020152],["boot",-10.906458539389526],["communicate",-10.906669511409053],["winds",-10.907492160530726],["Trade",-10.908359388501722],["accessib",-10.90900110623408],["ang",-10.909050221104012],["Collin",-10.909318046939132],["consist",-10.909342974881238],["ootball",-10.909358665169393],["principle",-10.909628320811118],["Resident",-10.909628496758167],["Charlotte",-10.90963067530467],["Bureau",-10.909632516015353],["Museum",-10.90963325276267],["reputation",-10.909640107430954],["taxpayer",-10.909647642171477],["contrast",-10.909699814185155],["acult",-10.90982533624284],["Jew",-10.909895800507016],["expression",-10.909898979149931],["Information",-10.910092627704538],["magazine",-10.910160731466073],["Dallas",-10.910261316212214],["NASA",-10.910445289305107],["Leban",-10.910511074732021],["Mid",-10.910998700288982],["MS",-10.911278227862887],["supplement",-10.911476323959874],["93",-10.911508272951654],["iron",-10.911606671610658],["realise",-10.91189927821639],["operational",-10.912467887531452],["southern",-10.912578808163415],["bubble",-10.913154354514104],["participati",-10.913419078189694],["Dead",-10.913720119768222],["Morrison",-10.91418350690548],["norm",-10.914353468724274],["brown",-10.914903009737536],["2003",-10.916239492938008],["parliament",-10.916314597888205],["insight",-10.9169572625926],["Coin",-10.918194006792259],["spin",-10.91879741768528],["Simon",-10.918829991535755],["Fair",-10.919994256857002],["neutral",-10.920608554527636],["script",-10.92064310725736],["rack",-10.920747169690527],["graphic",-10.921890056683418],["houses",-10.922362067776422],["GB",-10.922587886551662],["Tru",-10.923321399832442],["Sometime",-10.924173543233348],["liquid",-10.925244912869495],["compet",-10.925249620891684],["Members",-10.925590923050818],["Dub",-10.925800021002742],["ocean",-10.925809256474308],["viation",-10.92594282602219],["Class",-10.926082328760426],["lights",-10.926713935603777],["turns",-10.927512413691726],["%,",-10.927718661833207],["consecutive",-10.928496245516016],["Nevada",-10.928498082043488],["vegetable",-10.928517244647397],["stadium",-10.92854616982038],["boast",-10.928555881482625],["disruption",-10.928564336490151],["conspirac",-10.928565696309454],["fighter",-10.928577530538675],["compliance",-10.92858545384344],["controversial",-10.92865529457123],["recession",-10.928687945044686],["drastic",-10.928884851595564],["roster",-10.928888764356515],["Major",-10.928929509273132],["click",-10.928943324068545],["harass",-10.928970269506165],["sanitizer",-10.929047067905383],["inspiration",-10.929130536452778],["Barrett",-10.92930350246176],["regret",-10.929322987030694],["Building",-10.929461557267919],["girlfriend",-10.929754636311735],["exception",-10.929821372369439],["teenager",-10.930149383563586],["attitude",-10.930247501338874],["Swi",-10.930817091367448],["optimis",-10.930950172995523],["spoken",-10.93122328764502],["Atlanti",-10.932202513979036],["counted",-10.932405640542717],["elect",-10.932494909342275],["investigator",-10.932633355021766],["Technology",-10.932700949040354],["interior",-10.932899550321496],["obust",-10.933486630298386],["Jona",-10.934185722509163],["premier",-10.93422902536686],["drawing",-10.934597596040739],["bell",-10.935661670120854],["scar",-10.936354286581699],["71",-10.937126712478287],["ASDA",-10.937289133313989],["chest",-10.937843135653265],["08",-10.937980535374322],["odds",-10.938119204030045],["sensitiv",-10.939039375004995],["DA",-10.939597702625639],["dogs",-10.939789039544214],["fer",-10.939923447099321],["repeat",-10.93994825224572],["overwhelming",-10.940287908370722],["mess",-10.940742918241915],["Rob",-10.941146835945691],["Small",-10.941397300530928],["cha",-10.941531259470736],["roof",-10.942616877036443],["ette",-10.942901106774201],["Marc",-10.942971482555274],["shoes",-10.944187088478222],["convert",-10.94454946242724],["Olympic",-10.9446408929575],["Atlant",-10.944688807898011],["overcome",-10.945665705317012],["examine",-10.946620364521157],["spell",-10.946820840119502],["everyday",-10.946945770938914],["leak",-10.947489894719492],["succeed",-10.947732688211278],["Festival",-10.947756306557919],["Muhammad",-10.947770234420773],["Video",-10.94782027129749],["Credit",-10.947846241851089],["Chelse",-10.947848899499382],["conviction",-10.947856169671605],["Sean",-10.948239422030436],["enterprise",-10.948412945837838],["Baker",-10.948517263939566],["olar",-10.948611674769362],["replacement",-10.948788799502028],["genre",-10.948886830131013],["Cabin",-10.948946606477605],["Games",-10.949298870209706],["Orange",-10.949557114925364],["refugee",-10.950322379599642],["prominent",-10.95033807391868],["snap",-10.950873624589779],["holder",-10.951306104895973],["Barr",-10.951638325198871],["FA",-10.953161621369475],["ture",-10.953621304810488],["09",-10.953741289518963],["electoral",-10.954361697142097],["1990",-10.954380590778454],["CMP",-10.954589243600305],["landscape",-10.95473072286921],["theatre",-10.95482961520669],["productive",-10.955174483554448],["Fi",-10.956033790753596],["surround",-10.95619470394245],["wards",-10.956780963303652],["é",-10.957107021684038],["metal",-10.95823771565247],["ung",-10.958320756257336],["ating",-10.958427122093148],["chemical",-10.958578151796669],["Tour",-10.95930717856118],["Fans",-10.960448731675674],["CB",-10.962164769566986],["chao",-10.964739343958094],["commit",-10.965331684127104],["cheap",-10.965543876191195],["hired",-10.966305822812775],["wipe",-10.966468569661016],["sentiment",-10.96688705229933],["universal",-10.967334883215383],["Halloween",-10.967347434683237],["motive",-10.967348558053704],["Brooklyn",-10.967351238457715],["opposite",-10.967358569926594],["Film",-10.96758123813326],["Bruce",-10.967891431414081],["coalition",-10.967896254240802],["Phase",-10.968328647145732],["rooms",-10.968670774407888],["specialist",-10.969188082060315],["opene",-10.969545022600407],["Jesus",-10.969563408363172],["Pelo",-10.969597706854142],["useful",-10.96962444147729],["delight",-10.969763459890121],["discriminati",-10.969768981277722],["hiring",-10.969795247426706],["residenc",-10.96998418982889],["silence",-10.970300930529223],["Dave",-10.971087375390939],["Vanc",-10.971257866041348],["charg",-10.971798869294268],["contractor",-10.972008821742165],["claime",-10.973053500503505],["angr",-10.97350506034107],["entere",-10.973872730450669],["Land",-10.97426349662993],["marks",-10.974264131339577],["1970",-10.97438703744641],["2023",-10.974509619105204],["plot",-10.974654024025668],["compar",-10.974688439282723],["probe",-10.97487862322032],["habit",-10.974993046248887],["ug",-10.975437231552535],["idden",-10.976700656133392],["Solei",-10.977084267974295],["ordinar",-10.977727780076949],["announc",-10.977946054751921],["pickup",-10.978566067365563],["fence",-10.978595218815727],["Jon",-10.979380368582035],["poster",-10.979492093437605],["bomb",-10.980963799410866],["restore",-10.98243449790198],["ake",-10.982618484568272],["integr",-10.98420805851048],["strain",-10.984981725461335],["prefer",-10.985362753412646],["navigat",-10.985685903179855],["exceptional",-10.986109571235012],["desk",-10.98690441478591],["cake",-10.987068675483075],["entrance",-10.987336958382055],["departure",-10.987341065854476],["Philippine",-10.987380782943337],["Captain",-10.987406877420517],["religion",-10.98740818005587],["mortgage",-10.98745051366697],["vendor",-10.98748402245631],["Order",-10.987527403903256],["Warner",-10.987636356366345],["Resource",-10.987770885094989],["empower",-10.98777978574914],["bitter",-10.9878808101165],["BB",-10.988080411904788],["Aaron",-10.98812090342978],["seize",-10.988519972834721],["Mass",-10.988951944498584],["recognise",-10.989041518012115],["Camp",-10.990043823258102],["react",-10.990115097868244],["Anti",-10.990436527826628],["spark",-10.990682067994701],["constitutional",-10.990779220124738],["transit",-10.990796949190546],["easing",-10.990909877762295],["der",-10.991501377150176],["introduc",-10.991578420731091],["defender",-10.991966798249768],["IV",-10.992452102826533],["Studio",-10.992458333414705],["emphasize",-10.99268824609054],["spaces",-10.992957784831615],["CA",-10.99345829336896],["Cost",-10.993631787471132],["sacrifice",-10.994353606638636],["MC",-10.996065902291111],["circulat",-10.99689663861761],["Robins",-10.99693060149416],["pub",-10.997378333700848],["younge",-10.997789092132772],["ping",-10.999679428227543],["urgh",-11.000292547376217],["custom",-11.001460761975341],["hook",-11.002287423137233],["Ball",-11.003443306878637],["rice",-11.004180938170936],["renew",-11.004465285153135],["Cal",-11.007619674398548],["₹",-11.007743020972711],["recipe",-11.00774445919409],["educate",-11.007745206233444],["Representative",-11.007745286934476],["Matthew",-11.007768734656802],["laborator",-11.007769730800138],["Village",-11.007778291081483],["sequel",-11.007779948170931],["curfew",-11.007886635923668],["antibod",-11.007890765784783],["muscle",-11.007905587930626],["comprehensive",-11.007911054891354],["Roger",-11.00800374745398],["chi",-11.0080730925033],["Reserve",-11.008074937461389],["Panther",-11.00816062999269],["Lu",-11.008229763605318],["legitimate",-11.008249059470527],["Ever",-11.008608647783547],["continuous",-11.008869222633253],["Was",-11.00906131068501],["lifestyle",-11.009162837750358],["Balti",-11.0095630912338],["Hon",-11.010070195736912],["adventure",-11.010120248290889],["permission",-11.010373347065897],["token",-11.012026537365479],["misse",-11.012146945595854],["pot",-11.013518135310628],["reiterate",-11.01352043830724],["departments",-11.015550133753463],["button",-11.01555309899391],["attribute",-11.015602978166749],["stunning",-11.015604678259702],["jur",-11.015790113085808],["01",-11.016142504847547],["beta",-11.01616450586273],["nchester",-11.01721891512759],["Penn",-11.018288597303666],["Columbia",-11.020059792420197],["Stock",-11.020678422928054],["amendment",-11.02241918988535],["fleet",-11.022879101056834],["drill",-11.02372908956317],["Tennesse",-11.024846379818563],["Way",-11.026048932323556],["aking",-11.026243037685557],["judicia",-11.026467653453395],["copy",-11.026529114760011],["Ash",-11.027047078785149],["Staff",-11.028574457455655],["Aberdeen",-11.028576427570034],["Fauci",-11.028576747962891],["jurisdiction",-11.028576874975746],["Kingdom",-11.028577866202047],["Future",-11.028600873219762],["substance",-11.028603085345601],["Reuter",-11.028621760870072],["river",-11.028655059415973],["drove",-11.028659925345503],["silent",-11.028762735856407],["premium",-11.028809890412216],["Short",-11.028855028068664],["pipeline",-11.028974246160043],["settlement",-11.02906876096009],["tragic",-11.029129439400608],["counterpart",-11.029629689335824],["Hunter",-11.029763920493297],["Viking",-11.029764108379513],["implemente",-11.030100256744248],["tenni",-11.030375769623504],["belt",-11.030797950183999],["clip",-11.031167410772998],["consideration",-11.031620779976455],["Airline",-11.03247957798905],["nail",-11.032869453240615],["utter",-11.034106892843273],["versu",-11.034454138414983],["Mu",-11.035292897786583],["Miss",-11.03552040831006],["Arabia",-11.035783892832205],["symbol",-11.037032167709416],["Luk",-11.037966713608595],["exceed",-11.038383529737807],["Ni",-11.038499325393081],["mitigate",-11.038728079447377],["pause",-11.040212790176906],["midst",-11.040965832964575],["NCA",-11.041023649238072],["deck",-11.041180274130955],["rear",-11.041410208944171],["Light",-11.041874114142267],["quest",-11.042079140590486],["indicat",-11.042107531740022],["fabric",-11.04213849062609],["menu",-11.042169205048797],["5th",-11.042752999694885],["Line",-11.043794789194076],["AE",-11.044504017519193],["preserve",-11.044986247151593],["Seven",-11.045360431776174],["Adams",-11.04665555145398],["convention",-11.04703147541435],["occ",-11.047714960167692],["Easter",-11.047722333439772],["innovati",-11.04804997629163],["hide",-11.049219957407905],["audio",-11.049240291683322],["Turki",-11.049306523876082],["Ocean",-11.049623458284366],["Lincoln",-11.049852963516486],["hybrid",-11.04985417338089],["sibling",-11.049854314005369],["treasure",-11.04985966892564],["Country",-11.049871954769296],["occupie",-11.049872414043492],["costume",-11.049885651132282],["pivot",-11.049886973343584],["Graham",-11.049894968113122],["Memorial",-11.049952857865417],["Buy",-11.049958330085396],["Wi",-11.050043967011097],["addresse",-11.050054276937532],["Phillip",-11.050128273643677],["Along",-11.050669914513746],["survivor",-11.050705445002427],["Gordon",-11.050748566647513],["wins",-11.050763604289257],["consult",-11.050891555140973],["establishment",-11.05094416327792],["download",-11.05119850030339],["transformation",-11.052029488848369],["complet",-11.052337502959274],["gains",-11.05366084939768],["Carl",-11.05450207147641],["unexpected",-11.054735083616354],["intende",-11.054804929427315],["Walk",-11.055300699268551],["Kent",-11.055854424073813],["organizer",-11.055859908337194],["presentation",-11.055938586301092],["dominate",-11.055939802283337],["rid",-11.05604917927244],["dish",-11.05625610039572],["entit",-11.056368261280111],["activist",-11.056551844239884],["Thai",-11.056571680370713],["Ke",-11.056980380746035],["CO",-11.057054359407068],["documentar",-11.057396742922638],["rallie",-11.058078310188103],["Putin",-11.058846161809562],["05",-11.05930369039316],["dig",-11.059867806598962],["gang",-11.059949533384692],["spott",-11.060337691776816],["hire",-11.060365344730332],["outfit",-11.060476197376946],["fixe",-11.060580586226399],["showcase",-11.060659109023623],["dropping",-11.06119523191001],["Dean",-11.061730014733605],["Far",-11.063190397316527],["crowds",-11.063226991012584],["Ep",-11.063425713225618],["ndroid",-11.064263186856994],["elite",-11.064510575171877],["injustice",-11.064554099350477],["101",-11.064777895982981],["raw",-11.064852032103794],["tactic",-11.065656142168564],["Ge",-11.066133688306573],["mill",-11.066901397168968],["Thing",-11.068106746494102],["magic",-11.068493210037689],["liabilit",-11.068522505779015],["pour",-11.06883337146596],["vocal",-11.068981409683966],["ox",-11.069046510059959],["Allen",-11.06945729394561],["UP",-11.070987585630174],["furlough",-11.071592211752765],["caucus",-11.071593060475518],["mechanism",-11.071596688689526],["spiritual",-11.07160952942499],["democratic",-11.071624810614386],["prize",-11.071648549174235],["random",-11.0716936780079],["Cleveland",-11.071804506568668],["Being",-11.071840220543427],["Point",-11.071909143947043],["Asset",-11.071981991253217],["labour",-11.072230657886507],["partisan",-11.072522479200147],["exhibition",-11.072651410784463],["inquiry",-11.072875854001037],["felon",-11.073008685793631],["framework",-11.073032878831697],["relax",-11.073380378724535],["commander",-11.073502446534274],["membership",-11.073640739663436],["corporation",-11.074081634853453],["Data",-11.074222556010707],["soap",-11.074436437863048],["tips",-11.074863118218707],["Bush",-11.075405053602514],["Kobe",-11.07735238198612],["diet",-11.079620347211392],["Francis",-11.080101324926165],["participat",-11.080419911273303],["lender",-11.080783114177077],["Islami",-11.081849940787743],["Summer",-11.082521715412783],["beef",-11.082900101935616],["render",-11.082980525098957],["courts",-11.08447462124745],["blend",-11.085000337534106],["sweep",-11.085144036057521],["painting",-11.086934671068567],["%)",-11.087474040470477],["Syria",-11.08754652697272],["Art",-11.087909847071543],["tape",-11.08813450499919],["Warr",-11.088559921860664],["align",-11.088812406975912],["buse",-11.090155125051542],["GP",-11.090243378579853],["Near",-11.090814321590022],["trauma",-11.091588455719448],["deeme",-11.093779263880542],["tremendous",-11.093814303861468],["obstacle",-11.093814307060025],["ingredient",-11.093814351126746],["Similar",-11.093815416695737],["Quebec",-11.09381638689009],["Conservative",-11.093828713208095],["Douglas",-11.09382942861263],["prosecution",-11.093835516872423],["guitar",-11.093857301538463],["flavor",-11.093872199363867],["Treasury",-11.094017089744519],["consultation",-11.09402531837084],["generous",-11.09407519115288],["welfar",-11.094102838989592],["valid",-11.094113741665753],["stroke",-11.094210356661293],["Nicol",-11.09428842122127],["introduction",-11.094290667531402],["Smart",-11.094407774969005],["globe",-11.094706921639329],["parade",-11.094938155330011],["Storm",-11.094973323973539],["Blake",-11.09507520561453],["upset",-11.095102953673466],["Brother",-11.095122636765437],["pink",-11.095306344157356],["hits",-11.095457657475732],["judgment",-11.095913607255886],["controlle",-11.095979703328089],["heel",-11.09599090277438],["endorse",-11.096113543228475],["acquisition",-11.09710321655119],["innocent",-11.097252365254946],["uncertain",-11.098199338848284],["GH",-11.100337981787305],["keen",-11.100391491167452],["ium",-11.100718537574302],["fever",-11.100849997671336],["clash",-11.10106429237392],["prisoner",-11.101570889391892],["ICU",-11.101870837951067],["float",-11.103265301770861],["revise",-11.103344466052164],["arts",-11.103530315095],["cheat",-11.104339381744259],["nce",-11.106348998606402],["Ph",-11.108692994077138],["HS",-11.108703683746883],["auction",-11.108795990914164],["kar",-11.109044751465435],["posting",-11.109373077140958],["outline",-11.110466453848678],["glove",-11.110536898371423],["shareholder",-11.110877696511753],["ranking",-11.111023580199259],["picking",-11.113917783203364],["economist",-11.11463959826612],["Tor",-11.115416315844637],["apitol",-11.115601681311007],["frontline",-11.115799280965984],["immigrati",-11.116144530522714],["wor",-11.116168682694061],["cater",-11.11631417547357],["2004",-11.11631708594648],["congress",-11.116535708058727],["Bangladesh",-11.116541575994606],["ambassador",-11.11654157868183],["athletic",-11.116541630220638],["criteri",-11.116541697476833],["Ultimate",-11.116542102809534],["efficienc",-11.116542690174803],["quit",-11.116542845107917],["Field",-11.116545957549938],["height",-11.116579568637581],["reception",-11.116601671597664],["Thanksgiving",-11.116635624694657],["nonprofit",-11.116727247926384],["Duke",-11.116764454970639],["yellow",-11.116809091162143],["crude",-11.116839201963579],["Chamber",-11.116944873318037],["Christophe",-11.116949969315655],["ouver",-11.1169979686242],["comed",-11.116999465462396],["flame",-11.117002026224135],["importan",-11.117020648183436],["Sudan",-11.117349707579086],["medication",-11.117661325116456],["foul",-11.117673590656649],["Place",-11.117915637842028],["pregnanc",-11.11799678739818],["suggestion",-11.118182171209106],["achiev",-11.11818987495521],["friendship",-11.118230517987922],["exploit",-11.118572028579285],["gu",-11.118677593105412],["Broncos",-11.118785028661206],["suspension",-11.118812370688406],["bias",-11.119524795302025],["indication",-11.11955661815173],["insider",-11.119876438247523],["Thanks",-11.12043214556598],["destructi",-11.122403243751286],["Nel",-11.122422690182763],["completi",-11.123525563577543],["voluntar",-11.123541221173873],["Jacob",-11.1236582725839],["Wayne",-11.12429035353857],["bird",-11.124468917922718],["SD",-11.124720587977315],["terroris",-11.12524983830987],["Garden",-11.12563796744774],["unfair",-11.125711038732675],["rew",-11.125895403910915],["VP",-11.127575421778236],["Keep",-11.127848141337623],["Knight",-11.129119850727308],["interi",-11.131966192369577],["titude",-11.132660038835665],["cry",-11.13308107729718],["relat",-11.133259766497261],["deserved",-11.133682523748195],["MD",-11.134207072383635],["reverse",-11.134527102275431],["offence",-11.135357989306264],["traffick",-11.135791303976987],["remov",-11.136543313093828],["fled",-11.137054845222524],["pit",-11.137318296393762],["exhibit",-11.137580246092025],["Burn",-11.138076029492026],["commence",-11.13809692042565],["tenant",-11.138213765586764],["controll",-11.138405749309271],["usage",-11.138426530455886],["Death",-11.1390593001797],["Crime",-11.13976227251281],["subscription",-11.139797392864212],["Picture",-11.139800413359618],["mirror",-11.1398025230375],["volatil",-11.139819292335877],["Talk",-11.139877883428976],["Oak",-11.139901336839602],["compound",-11.13994538060313],["enormous",-11.139984120904534],["fift",-11.140047996886768],["confirmation",-11.140143034577692],["cancellation",-11.14015691945429],["fault",-11.140221617838556],["adjustment",-11.140277220516033],["atmosphere",-11.140306505437604],["Dark",-11.14033900317887],["Hopeful",-11.140623792726775],["Kamal",-11.14072985315348],["Saskat",-11.140809735400012],["hospitalization",-11.14081310443383],["endanger",-11.140889798556051],["feedback",-11.140927404393562],["lan",-11.14126664449564],["Labor",-11.141560486252743],["limitation",-11.141568367641966],["compell",-11.14159875888738],["gging",-11.141980435673016],["View",-11.142051487897591],["ouisiana",-11.142059360660825],["Unlike",-11.142275232781385],["pure",-11.142449797131663],["bench",-11.143071727275103],["traged",-11.143191186640635],["Greg",-11.14321789876972],["administer",-11.143240999160371],["Photo",-11.143276514420426],["rug",-11.143388506133528],["Olympics",-11.143567092631683],["Heart",-11.144362563177115],["beneficiar",-11.145521103540295],["AFC",-11.146625866765216],["battl",-11.146757019706257],["rushe",-11.147120173137148],["Bre",-11.147624845269045],["criticize",-11.147786782520402],["glad",-11.148300208742889],["Jean",-11.148619850192794],["trappe",-11.14979348074444],["relation",-11.150169476968971],["sideline",-11.150359984782444],["supplier",-11.150739949172028],["blind",-11.151464370691412],["Princes",-11.151838614832778],["restart",-11.153369626271367],["flee",-11.15354761922077],["initiate",-11.153620424823373],["jo",-11.153757096905313],["posts",-11.154021200180335],["Rome",-11.154142083284986],["entitle",-11.154205337006239],["ze",-11.154601985095724],["Pass",-11.154706033650813],["tail",-11.155119035751413],["Nor",-11.156303987297854],["equi",-11.156493616857473],["migration",-11.158265887221548],["mir",-11.158758397106997],["constitution",-11.159018920625446],["Titans",-11.159173441552623],["starter",-11.160249131364274],["THE",-11.16080162412304],["accompanie",-11.160928182701543],["Mile",-11.16136311016833],["02",-11.161750451324652],["argu",-11.162329877188549],["origin",-11.162340900928854],["900",-11.162985904862431],["lifetime",-11.163000359738723],["chill",-11.163012322970573],["commerc",-11.163443539282554],["administrator",-11.163606921569968],["Pompe",-11.16360846946641],["Entertain",-11.163612895005233],["complication",-11.163614529630491],["cannabi",-11.163616419310634],["semester",-11.163622877636168],["inflation",-11.163623765380308],["pump",-11.163654861186341],["Square",-11.163655194755371],["Morning",-11.1636774442258],["Edmonton",-11.16369741701525],["milestone",-11.16376880358924],["bullet",-11.163770252913196],["ated",-11.163815164229328],["Operation",-11.163939857787941],["Fargo",-11.164146973214951],["releas",-11.164186132525952],["Berlin",-11.1644224777637],["Kumar",-11.164451258600351],["accommodation",-11.164600317014411],["Librar",-11.164918688175812],["pan",-11.165122754836649],["anime",-11.16585499893116],["stresse",-11.165871352253223],["Could",-11.166788997378688],["ification",-11.167155453241389],["vary",-11.167424166903118],["stance",-11.167506412485729],["workout",-11.167629093638118],["tel",-11.168795749713507],["Kansa",-11.168945219328037],["employe",-11.16898450257994],["End",-11.169136783772942],["wan",-11.169157236468568],["Stay",-11.169463690214453],["NC",-11.16968987898532],["appreciati",-11.169927399124864],["submit",-11.170023915202629],["designate",-11.170167475751906],["Whit",-11.171061809052517],["Players",-11.171185726450831],["apologize",-11.17184291437142],["HD",-11.172672020707573],["grab",-11.172930477260046],["shake",-11.172970112979554],["Case",-11.174136361525765],["Bond",-11.174448652483546],["DN",-11.175127253487927],["apped",-11.175387973008991],["explor",-11.17539755726059],["nife",-11.175813945818105],["approache",-11.17612602914504],["uana",-11.176694587864295],["inevitabl",-11.177347924449903],["Edo",-11.177519474585495],["En",-11.17795603126243],["Hell",-11.178361352695418],["Lab",-11.179476251323727],["pastor",-11.179845835162887],["ntil",-11.180177325327907],["Assistan",-11.181158956512492],["audit",-11.181237825800556],["Boe",-11.181241767647144],["refer",-11.181394708226554],["Carol",-11.181404707412618],["ministers",-11.181716734182272],["belong",-11.181799501187552],["cure",-11.18223853107763],["ndigenous",-11.182563561859284],["itarian",-11.18301075156392],["ries",-11.183081697240306],["riding",-11.183775635196879],["hike",-11.183965973490567],["fate",-11.184244903851472],["BO",-11.184725963166072],["motivate",-11.184926427338391],["lash",-11.184972036526679],["valent",-11.18500717748835],["Join",-11.185587499748472],["noon",-11.186048859690725],["adhere",-11.186332639061206],["promot",-11.18671833139436],["ET",-11.186750636706],["Hunt",-11.187335864527476],["Hous",-11.187461448796597],["ialogue",-11.18772126333476],["Emil",-11.187766070691413],["Support",-11.18784781619964],["calendar",-11.187997304584785],["certificate",-11.18799769414207],["Consider",-11.188000990764632],["universe",-11.188001267449977],["Girl",-11.188011357463903],["hawk",-11.188013588507776],["bunch",-11.188038067067035],["Spider",-11.188049344512109],["incentive",-11.188087301030004],["Section",-11.188100415704213],["Enter",-11.188132353796732],["hygien",-11.188225397966107],["scandal",-11.188228395556916],["external",-11.188534617872724],["Palace",-11.18860132560059],["Maryland",-11.188696483326817],["breakfast",-11.188744428217191],["Recent",-11.188843367582482],["Libya",-11.188851115586584],["removal",-11.188969805661507],["SU",-11.189155509588272],["Jerem",-11.189233207862543],["recount",-11.189405810386575],["Madri",-11.189426164871325],["Raj",-11.189515775793195],["Sri",-11.189525376294352],["Giant",-11.189609724196274],["Eve",-11.190589552561537],["involvement",-11.190748139702585],["mineral",-11.190866592834453],["solo",-11.192173857292309],["Mail",-11.192287957507784],["grid",-11.193172047021537],["Hua",-11.193258482087067],["Pittsb",-11.193338898180668],["Steven",-11.193585005447915],["fundrais",-11.193748154172166],["lineup",-11.194014124492343],["disrupt",-11.195248499415461],["1980",-11.195557175936315],["ownership",-11.195829214556369],["circle",-11.195905311770858],["grain",-11.196163725836293],["Christ",-11.196315312553324],["Change",-11.197111595169442],["Pitt",-11.197267179467719],["TA",-11.197437264497557],["None",-11.197660111632182],["ul",-11.198271720604668],["Foot",-11.198749457093761],["math",-11.199025122783592],["entrepreneur",-11.199243414120367],["Na",-11.199436806864563],["partial",-11.200312925594325],["Ga",-11.200819413421499],["layer",-11.201035442078075],["shine",-11.201046317455654],["Come",-11.201137821629661],["Side",-11.201141801575817],["Antoni",-11.20167837905751],["discipline",-11.202685112667819],["mainl",-11.202979412270283],["thick",-11.203684106247326],["Bat",-11.203957357318597],["dust",-11.204349290514122],["shout",-11.205154531886384],["lyric",-11.20517757359552],["kits",-11.207802609579122],["acres",-11.208032327072324],["pen",-11.208713437913383],["iness",-11.20905605843908],["linke",-11.209694558273004],["ML",-11.210716017416537],["construct",-11.211277026626961],["boom",-11.211825219483298],["Sh",-11.212113055062618],["thread",-11.21216032567193],["column",-11.212882880571108],["pharmac",-11.212921254594615],["tiny",-11.212939594403032],["Commerce",-11.212997204542265],["civic",-11.212998118059279],["fantasy",-11.212998457753447],["Communication",-11.212999009227865],["Internet",-11.212999286624441],["romantic",-11.21300023551968],["diamond",-11.213000536147298],["Federation",-11.213026034369568],["ecosystem",-11.213026104274693],["embass",-11.213039701559886],["comparison",-11.213056570492888],["nervous",-11.213095618656613],["intimate",-11.21314542516316],["genetic",-11.21317388522253],["Electric",-11.213180617129227],["evident",-11.213199694500094],["deliberate",-11.21323638298152],["anxious",-11.213278875704523],["meaningful",-11.213301645754695],["disagree",-11.213584343140008],["Greek",-11.213635934129684],["Calif",-11.213838318643498],["borough",-11.213959353683364],["wildfire",-11.214010244937901],["intent",-11.214686076376601],["chase",-11.214719482041378],["preference",-11.214988511162801],["spray",-11.215462931819632],["Happ",-11.215622001137916],["gay",-11.21575194308387],["Laura",-11.215755104911365],["safeguard",-11.215928158011092],["Update",-11.215995542290393],["mar",-11.21618209598676],["Prof",-11.216305914571619],["disorder",-11.216430625027465],["Mother",-11.216511968734835],["Champions",-11.216601722354099],["processor",-11.216626854854338],["hail",-11.217089250448398],["phrase",-11.217259677029874],["organ",-11.217627683044059],["Bull",-11.218150473037975],["reminder",-11.218155680126797],["q",-11.218187711008543],["kiss",-11.21830538233606],["tale",-11.218540780275962],["smalle",-11.218822829384576],["Robin",-11.219275907524716],["350",-11.219559685461672],["rick",-11.219913053756253],["tooth",-11.220295361797074],["sack",-11.221024614401895],["Jerr",-11.221134255636404],["metric",-11.221516629751013],["tick",-11.221564138922297],["crossing",-11.221628343871053],["Mexican",-11.221677174054413],["beer",-11.221762378461666],["Page",-11.222383968391755],["allen",-11.223069656086174],["McConn",-11.223597346352662],["institute",-11.223773583633914],["input",-11.224405223096563],["tap",-11.22448217923651],["leans",-11.225212470280567],["UC",-11.22528750848043],["oversee",-11.225374390831341],["sovereign",-11.225495540617462],["rap",-11.225536301916744],["CN",-11.225711211517849],["breast",-11.225723203039701],["municipalit",-11.225848877994242],["Lane",-11.226411796926914],["punch",-11.22667689838598],["Medic",-11.226767570394472],["accord",-11.227620292097853],["pointer",-11.22780687443286],["buck",-11.228753182115156],["egan",-11.22953092701557],["crete",-11.229587483551356],["Yo",-11.229712222329528],["accus",-11.230366347039599],["kit",-11.231622994687848],["Ethiopia",-11.23188720901013],["refund",-11.232313008610628],["arc",-11.232544721034909],["Dun",-11.232654020967331],["happi",-11.233401882381042],["06",-11.23374033328895],["breathe",-11.234169106041136],["soil",-11.23465615664957],["scrutin",-11.235517448623623],["polluti",-11.235786493237637],["referr",-11.23587041094031],["fiction",-11.236650800820223],["mixe",-11.236913678083711],["solida",-11.237423719364449],["Prade",-11.237670022625363],["mood",-11.237852166961641],["depressi",-11.238608705384696],["mutual",-11.238638316379443],["Mississippi",-11.238638420865339],["ESPN",-11.238643349083397],["Doctor",-11.238677604435667],["uniform",-11.238690394810533],["earthquake",-11.238733192195737],["constituenc",-11.238754861711707],["Taiwan",-11.23876503628653],["determination",-11.238816886657967],["hotspot",-11.238838206144086],["observation",-11.238930546238839],["caption",-11.23896316633874],["weakness",-11.23905601897743],["Hamp",-11.239139964685911],["Victor",-11.239287544394656],["notifie",-11.239326092045285],["Dodger",-11.239484600563795],["cough",-11.239514046931527],["Ki",-11.239718544675611],["supermarket",-11.239783553547346],["PL",-11.240160498037616],["unlock",-11.240297970985239],["excuse",-11.240641382067631],["declaration",-11.240817265148493],["pride",-11.240869463008753],["haunt",-11.241646479642272],["relie",-11.241646602889828],["rental",-11.241750719173012],["folk",-11.24176952807165],["preferred",-11.241990616413634],["killer",-11.242050042252874],["digit",-11.242540440640495],["Born",-11.242577533285932],["ensu",-11.243126163743169],["accelerate",-11.243189182382881],["inspir",-11.243245014132045],["insiste",-11.243447120341084],["ambition",-11.2441419187571],["Marshal",-11.24419168062761],["izer",-11.245012544784888],["Iron",-11.246187852294554],["Roy",-11.246541136597214],["describ",-11.246572686142972],["performer",-11.247108026485687],["spectrum",-11.247782035820856],["animate",-11.247927846900932],["220",-11.248191201605032],["dependent",-11.248710445077265],["Temple",-11.248952039308394],["Bio",-11.24981929856844],["timeline",-11.249906550752195],["Rick",-11.254530513059034],["Christin",-11.25485134603941],["Olive",-11.25497267084134],["()",-11.25500265105303],["Alaska",-11.255667241561143],["Laker",-11.255961061235482],["Sport",-11.256015081062015],["ux",-11.256322172500088],["convey",-11.25632578648691],["Hot",-11.25693414603817],["statue",-11.257027795315462],["Coach",-11.257035782767636],["dip",-11.257102216249663],["Event",-11.258074821800701],["worship",-11.258097320508126],["Ron",-11.258263516361326],["ruin",-11.258329347722439],["Pier",-11.259774097815217],["loose",-11.259816099689594],["Michell",-11.261093775458136],["Receive",-11.261249550484754],["Singapore",-11.261585434435734],["APC",-11.262211278589474],["gra",-11.262717761601095],["cricket",-11.263307724605223],["ranks",-11.263689851099352],["Calgar",-11.264908493139446],["mad",-11.26493976091602],["suspicion",-11.264953982626487],["Superintenden",-11.264956416897281],["Agreement",-11.26495820891651],["unanimous",-11.264958349602516],["Window",-11.264964278059864],["psychological",-11.264964674956198],["patron",-11.264972957369796],["chamber",-11.264979147953223],["Oxford",-11.264981716191004],["Provinc",-11.264982862043471],["applicant",-11.265000882395048],["livelihood",-11.26508537156373],["incumbent",-11.265303038695691],["rookie",-11.265351321712831],["memorial",-11.265514313761233],["twist",-11.265623147068235],["Much",-11.26582459839295],["submission",-11.265878964983337],["Price",-11.265895620047631],["coordinator",-11.265975674769852],["Remember",-11.266199249700236],["undergo",-11.266272804814456],["minds",-11.266275381622519],["detention",-11.266341174115084],["assert",-11.266431833483475],["recommende",-11.26655303854261],["Clear",-11.26681999428202],["steel",-11.267198754653203],["ultra",-11.267355331878868],["dump",-11.267426253754895],["pretend",-11.267688125652027],["Auto",-11.268209446979425],["plain",-11.268370634057723],["pursu",-11.269278173453609],["Montana",-11.269391016583235],["Rev",-11.269839433113285],["charm",-11.270018753402054],["ND",-11.270092326770401],["ancing",-11.270735218983411],["Camero",-11.271194612494515],["Joy",-11.271256970726387],["deau",-11.272238967968143],["Met",-11.272441815790222],["Jessi",-11.272451561690769],["grave",-11.272730283523185],["cute",-11.273358854985146],["tender",-11.273507692781957],["Ja",-11.273612300545016],["Dar",-11.273636266857421],["transparen",-11.273690249388395],["excite",-11.274615133308336],["arcelo",-11.274795066790102],["Tre",-11.275332551445818],["resilienc",-11.275483513868139],["commodit",-11.275730468578457],["Sure",-11.276464178511436],["salarie",-11.276669108444366],["loving",-11.277368592199666],["Teh",-11.277447945115277],["notion",-11.277860806501462],["reign",-11.277909461306178],["LP",-11.278275850061206],["FM",-11.278416463162372],["Youth",-11.279479223835114],["Tali",-11.279851164590665],["Modern",-11.280063404214346],["Bru",-11.280302098698513],["deadl",-11.281282722897648],["Ru",-11.281573630039796],["incorporate",-11.281589897988473],["violate",-11.281886595485709],["mentor",-11.281957658791294],["AT",-11.282604452615066],["Know",-11.28264817010366],["Walla",-11.284084327181194],["160",-11.284637397672501],["screens",-11.284914919918469],["NYSE",-11.28537998310627],["notabl",-11.286308850203731],["shocking",-11.286826885165176],["camps",-11.28698144729138],["Partners",-11.286984049015668],["nerve",-11.287158828709249],["Roman",-11.287579397656046],["BA",-11.289049246392167],["shame",-11.289075298789381],["Cree",-11.289097903462645],["Jak",-11.289283052194278],["bath",-11.289790603094069],["courage",-11.29021278929824],["burst",-11.29026570864449],["Think",-11.291180635405851],["Caribbean",-11.291980999697016],["engaging",-11.291982543544439],["ambulance",-11.291987815920688],["Missouri",-11.291989890471198],["Campbell",-11.292006404220471],["Protection",-11.292009347449603],["mysterious",-11.292015428780466],["condolence",-11.292025824016692],["Tyler",-11.292053457169906],["radical",-11.292077825942897],["striking",-11.292089528686677],["casino",-11.2921056254913],["Kennedy",-11.292119972026724],["expenditure",-11.292198524627498],["bankruptc",-11.292272043406678],["firing",-11.292410812637968],["tired",-11.292573118431958],["Medicine",-11.292663520771688],["inclusion",-11.29272542834165],["Luc",-11.293351176578485],["mega",-11.29339185009635],["cheese",-11.293680069639453],["receiver",-11.293718310138118],["Kay",-11.293976967210634],["Hud",-11.294114439704847],["Policy",-11.294202993402118],["castle",-11.294242379118586],["Doug",-11.29432025277368],["pizza",-11.294543910612369],["assumption",-11.294914163179946],["grie",-11.295182880049301],["awesome",-11.295720665618148],["TO",-11.295802852160548],["eath",-11.295938125770048],["mum",-11.296450456264196],["shell",-11.296913966447152],["plea",-11.297286438582606],["litera",-11.297447070888216],["crush",-11.29819160644359],["constitute",-11.298278836109782],["butter",-11.298399946220352],["augh",-11.300892216090292],["remarkabl",-11.301702111856972],["stating",-11.302337119958448],["ritte",-11.302540854148733],["hence",-11.303527586988924],["Newsom",-11.304439421952207],["toxic",-11.304491861371856],["champions",-11.304752043420233],["Wright",-11.304851603878298],["lens",-11.30486056143691],["Baby",-11.304879811788018],["Eli",-11.305014041413129],["memorabl",-11.30512514844349],["detaine",-11.305419454230943],["Natural",-11.306440674904946],["CAA",-11.306969925098194],["ogether",-11.307804975241199],["DP",-11.308117917389543],["donor",-11.309155816091014],["spec",-11.3093709070818],["Mari",-11.310726409956985],["Euro",-11.310762900342525],["Gu",-11.311299783639729],["ome",-11.311327622113952],["Wolf",-11.311517773695211],["tha",-11.311616031059652],["Note",-11.31170615449021],["bold",-11.311797418263385],["dismisse",-11.312576428017831],["Child",-11.313245935567473],["Anne",-11.313325173514627],["Latin",-11.313430467878453],["Par",-11.313490124800396],["verse",-11.313556483582147],["chip",-11.313608355508944],["facilitate",-11.313768023834434],["execute",-11.316341147220793],["suburb",-11.31654330192131],["Hawk",-11.317535463140699],["PA",-11.318607263466465],["moon",-11.318752615142287],["Dian",-11.319068051357828],["swimm",-11.319097251046774],["bump",-11.319098994398594],["breed",-11.319103717237782],["impress",-11.319119444192838],["conscious",-11.319300893825412],["FDA",-11.319398894515048],["occasional",-11.319557134241606],["Craig",-11.319669847029852],["concession",-11.319756159228481],["kilometre",-11.31975879086701],["Veteran",-11.31975885500761],["thorough",-11.31976194449269],["covid",-11.319762198297013],["compensation",-11.319763303690722],["allocation",-11.319766265059007],["Russell",-11.319792070662464],["abortion",-11.319792280366139],["financing",-11.319793614932607],["Animal",-11.319794472287567],["Spence",-11.319794898085252],["impression",-11.319878971082755],["swift",-11.319882134017817],["Vision",-11.319896852623582],["eviction",-11.319924964519126],["punishment",-11.31992762440116],["bathroom",-11.319974754026191],["Weinstein",-11.319979229360785],["defendant",-11.320049986817217],["Perry",-11.320063859827846],["motivation",-11.320093081533633],["Technologi",-11.320142747281388],["examination",-11.320201521176967],["painful",-11.320215848950198],["gomer",-11.320396366044058],["Globe",-11.320497153045896],["demonstrator",-11.320497652126884],["alliance",-11.320536509179412],["isolat",-11.320560161141135],["filmmaker",-11.320704755038488],["offender",-11.3207570541446],["reservation",-11.32083564969104],["Digita",-11.320922857812196],["steer",-11.321041488692337],["Walke",-11.321677092517055],["ETF",-11.322299420960277],["Pho",-11.322503007813031],["Farmer",-11.323101224069966],["Metro",-11.32319235903016],["Jenni",-11.323201357266624],["endure",-11.323333378336283],["Cole",-11.323510708838697],["trends",-11.323753088683958],["Dragon",-11.323872889869547],["Store",-11.323962831156974],["resistan",-11.324359972562647],["Coming",-11.324771187780257],["cheape",-11.324920978973052],["connectiv",-11.32570043611434],["evacuate",-11.325817179641273],["stupid",-11.326004484875865],["cope",-11.326138922696188],["Thu",-11.326504575997859],["stranger",-11.326505228870502],["Cor",-11.326507763961871],["Pol",-11.326692408198564],["Rating",-11.326756859030024],["skeptic",-11.327211780299455],["esterda",-11.327303797371993],["earing",-11.32769228620213],["inner",-11.328160422005102],["assembl",-11.328855834586848],["trash",-11.328974280715396],["bas",-11.329015475615451],["Tax",-11.330046863276639],["ight",-11.330497423633265],["Hi",-11.33052264635921],["representation",-11.331078165000534],["container",-11.33189893758604],["organise",-11.332000946791698],["programm",-11.332182158455712],["Pa",-11.332270567796412],["bonus",-11.332955791736659],["Sp",-11.333976801387212],["ck",-11.334427365945258],["positiv",-11.334532680717587],["superior",-11.334548922147368],["diseases",-11.334761755290701],["Train",-11.334929982043807],["grante",-11.335872662450637],["Mi",-11.337735290528105],["bvious",-11.337790233389537],["Hard",-11.337796847201995],["Shar",-11.337812965813171],["ular",-11.338338883462512],["Maria",-11.339546487930921],["Dem",-11.340552131149867],["otten",-11.34087710875981],["minimal",-11.340916562763173],["decent",-11.341294260968573],["quin",-11.341493693114106],["intentional",-11.342777893647682],["Jess",-11.342821700416712],["adopte",-11.34312484536879],["airy",-11.343302861201625],["overlook",-11.344337665020973],["fisher",-11.344773381159387],["Brun",-11.345147300115613],["ethnic",-11.345447792323066],["cargo",-11.345687680807359],["blaze",-11.345792601492542],["Batm",-11.34607298010975],["Bad",-11.346712953895993],["Harrison",-11.346763100028827],["Salt",-11.347104045434662],["Diamond",-11.347296423972983],["decid",-11.347654368393808],["vaccination",-11.348330206717097],["frustrating",-11.348330310307546],["definition",-11.348330446034224],["rhetoric",-11.348332364462223],["oxygen",-11.348333033828242],["Would",-11.34833379945891],["prevail",-11.348336858634546],["vacation",-11.348339474945275],["streak",-11.348339657429454],["Punjab",-11.34836360364196],["packe",-11.348438227534116],["preliminar",-11.348440660827642],["bulk",-11.348466433312174],["Alliance",-11.348516778452163],["Nu",-11.348637932597736],["wicket",-11.348687859995309],["foster",-11.34875229798565],["affiliate",-11.348775298481447],["Engineer",-11.348809523528466],["realistic",-11.348863772559408],["confrontation",-11.348874756495247],["Tampa",-11.348888507719874],["disinfect",-11.348900442890233],["Gray",-11.349080103639642],["Drug",-11.349223905855093],["Winter",-11.349264452534786],["regulate",-11.349266950860766],["Mohamm",-11.349270479255658],["terminal",-11.34967942804419],["Helen",-11.349699572832565],["Theatre",-11.35005239677831],["desert",-11.35009633310324],["Pete",-11.350435391043003],["Use",-11.350580590583329],["03",-11.350981528906722],["Grace",-11.351225372771113],["Jamie",-11.351412452842737],["Ko",-11.351911355425223],["freeze",-11.351958499850205],["okay",-11.352570193619716],["dual",-11.352745928874075],["drain",-11.353498315196239],["Convention",-11.35354897423926],["evaluate",-11.353670371019165],["casting",-11.354659865984955],["Ed",-11.355146210648098],["Da",-11.355157620416218],["watche",-11.355375478210007],["diagnosi",-11.356329609785117],["venge",-11.356336495595345],["eeper",-11.356466613168006],["pants",-11.356569186184961],["Weather",-11.356898230525436],["committ",-11.35749741906724],["trans",-11.35794010550407],["highway",-11.35840682866922],["DJ",-11.358544571563044],["Macro",-11.358555283524158],["hardwa",-11.358969555204759],["boundar",-11.359107010976679],["wrap",-11.361332589475683],["pad",-11.361353644419102],["nutrition",-11.36145672923782],["outdoors",-11.361642977174876],["Low",-11.362783443200993],["Find",-11.363821704599408],["plague",-11.36410272390259],["choos",-11.364144668108748],["dresse",-11.365131903481595],["Xi",-11.365546627342706],["Hart",-11.365658155158085],["Islam",-11.366081352054993],["roughl",-11.366426823507908],["instruct",-11.366856106002333],["Mak",-11.366959270925246],["publisher",-11.367335490159489],["farming",-11.368881265114895],["Hills",-11.369343352629944],["administrati",-11.36935777376735],["memo",-11.369508323767455],["Start",-11.36985893692183],["Mall",-11.371166958671925],["Pick",-11.371694358648963],["Chat",-11.372880127688132],["specialize",-11.373120072113027],["worsen",-11.373348225698436],["fame",-11.37379197947607],["Bi",-11.374312123903898],["Penc",-11.374535523928657],["mer",-11.374573714571287],["07",-11.375097787696653],["haul",-11.375440446576725],["destroye",-11.375740165303295],["authentic",-11.375838205291519],["structural",-11.375899859107212],["Emm",-11.376372628534147],["imp",-11.377477132790458],["differ",-11.377631344934557],["Belarus",-11.377717461972841],["span",-11.377718213411873],["Nebraska",-11.377741974679214],["supervisor",-11.377742022231736],["parallel",-11.37774293962526],["legislature",-11.37774462497482],["ridiculous",-11.377745073894136],["stagger",-11.377745085526751],["surrender",-11.37774566156689],["pepper",-11.37774578406811],["Lawrence",-11.37774725389403],["implication",-11.37775422413831],["concise",-11.377803619295289],["Bishop",-11.377858997500333],["garage",-11.37786551119701],["Legend",-11.37788886980513],["Madison",-11.377908339342742],["cafe",-11.377934572538434],["exemption",-11.37804888188991],["sheriff",-11.378102287532862],["contestant",-11.378117647479703],["consent",-11.378132394927237],["Budget",-11.378245644454749],["attractive",-11.378278392914012],["accusation",-11.378488976008425],["Link",-11.378494560196435],["Code",-11.378539852077878],["Nanc",-11.37854074830251],["thankful",-11.378576095693383],["facial",-11.378993037615121],["crown",-11.379185988575468],["Lynn",-11.379188555007174],["distress",-11.379321638153064],["Oil",-11.379350030401005],["Mosco",-11.379501180855312],["variant",-11.379653766974997],["chef",-11.380002644936535],["hunter",-11.380274979573816],["Father",-11.380291586521217],["scam",-11.380593441938245],["Limited",-11.380594098020403],["photographer",-11.380749779900865],["Environmental",-11.380849954014241],["fires",-11.381412297660077],["aster",-11.382807174736083],["elevate",-11.383143879882466],["Uber",-11.384121039661284],["198",-11.384558930840972],["Springs",-11.384591208365546],["contentio",-11.38562460910854],["gathere",-11.385784300515411],["bug",-11.386552180317022],["shopper",-11.387110761887858],["sum",-11.387523459529625],["bully",-11.388097512494301],["Journal",-11.388706648410587],["distinct",-11.389486663244709],["nmar",-11.389507071944038],["legislati",-11.389888267640583],["leverage",-11.389993182598962],["uncle",-11.3900167863363],["Kadu",-11.390298282968716],["arij",-11.390970043108444],["presiden",-11.391774191176058],["PG",-11.392017149634853],["Lock",-11.392668134138232],["disable",-11.393751812248011],["Rod",-11.393823393006151],["holes",-11.395057062201687],["lew",-11.395252239491832],["Fly",-11.395792130611161],["Ku",-11.396841521071494],["corrupt",-11.396868995941505],["dirt",-11.396969239726943],["Broad",-11.39696965866072],["Margar",-11.39793946758505],["Barne",-11.397998258204113],["contribut",-11.398493449288118],["broker",-11.3985616369709],["Johnn",-11.398652939982759],["Hu",-11.399575462496301],["Gate",-11.400040971807982],["afterward",-11.400054696816868],["cup",-11.400324126101944],["lated",-11.40056591950784],["Aske",-11.400683810559094],["har",-11.401032427970684],["Card",-11.401932386021416],["WAS",-11.40244510940834],["devote",-11.402746585064722],["aka",-11.403109643693124],["ambitio",-11.403222125462289],["output",-11.404637635208822],["MA",-11.404825383414753],["Turn",-11.405020421647093],["Direct",-11.40534625166903],["Queensland",-11.40594493759282],["Perha",-11.406850763228991],["recycl",-11.406888654527396],["confus",-11.407010383293148],["servant",-11.407068949937333],["isdom",-11.40786859415569],["preventi",-11.407873100169535],["withdraw",-11.407892618370585],["certifi",-11.408043654094023],["Restaurant",-11.408045000772844],["awkward",-11.40804503649727],["cautious",-11.408045038174922],["Consumer",-11.408045879873534],["Organisation",-11.408045891998487],["Fraser",-11.408047636805257],["purple",-11.4080500332198],["devastate",-11.408050927472779],["competitor",-11.408056830189182],["Hopkin",-11.40807076802135],["filter",-11.408072997410553],["Bailey",-11.408073813439183],["graduation",-11.408078738381064],["Dublin",-11.40808745195683],["collision",-11.408090627623142],["Liberal",-11.408107200640327],["Bennet",-11.408165183711963],["Mission",-11.40818636739144],["protein",-11.408197160373023],["Secret",-11.408203580113145],["organic",-11.408229446843723],["Keith",-11.408247610352632],["froze",-11.408276253730714],["childhood",-11.408329878135893],["contrar",-11.408386021484246],["tighten",-11.408399616829598],["galler",-11.408423908174539],["disclosure",-11.408507615572008],["benchmark",-11.408531364834523],["excessive",-11.408567825019347],["sandwich",-11.408576531840447],["installation",-11.408708315850493],["evacuation",-11.408709613162099],["Key",-11.408780631035095],["Rams",-11.408891469304436],["withdrawal",-11.409092521104235],["brave",-11.409163924999671],["ssured",-11.40922435329727],["robot",-11.409229949122386],["Murra",-11.409270311460304],["Eight",-11.409431957345102],["Grammy",-11.40968244664158],["Fisher",-11.409708557386203],["charter",-11.410394169494161],["inventor",-11.410591828623339],["Larr",-11.410754510297162],["directive",-11.410846204553671],["notification",-11.411325492524217],["weaken",-11.412054629396266],["AM",-11.412074100644727],["unrest",-11.412201076073101],["farmer",-11.412426178949199],["nightmare",-11.412780888680821],["controvers",-11.412996360682525],["Arsena",-11.413463553960524],["Portug",-11.414213255525715],["CY",-11.414238339539585],["ology",-11.414241013934621],["NP",-11.416004290059348],["spill",-11.416265567452095],["pursuit",-11.41689612424943],["Friends",-11.417142190464563],["enact",-11.417414749409808],["restor",-11.417449893102134],["quantit",-11.417695140683263],["Eddi",-11.417779401564522],["Pope",-11.417793052229674],["ix",-11.418849831839463],["accommodate",-11.418861360087677],["exhaust",-11.419281221886315],["undertake",-11.419567557264548],["lease",-11.419763408996813],["Dame",-11.419938782002765],["indefinite",-11.42017222329483],["Box",-11.4203789919577],["accomplish",-11.420433066083532],["Put",-11.420863508961784],["acre",-11.420926076214968],["Jimm",-11.42157020268984],["endless",-11.421907605171837],["Ted",-11.421915912428556],["filling",-11.42319854317822],["satisfie",-11.423366372969076],["atic",-11.423772826439789],["wrappe",-11.423832186665436],["Face",-11.423973323648932],["forum",-11.424273978097942],["QB",-11.42431022321491],["survival",-11.424930519091337],["expire",-11.425086650415784],["attache",-11.425528701077152],["belonging",-11.42555796821756],["owing",-11.425711765159452],["Record",-11.425829679321271],["hug",-11.426078747717462],["triple",-11.427785540894156],["riders",-11.427786025524014],["dishe",-11.427786432326824],["allege",-11.428248733656828],["Pri",-11.428628494167278],["eggs",-11.428954361807115],["apolog",-11.429763975262995],["appoint",-11.430102547430721],["Mor",-11.43032516361473],["coat",-11.430425693967102],["Silver",-11.430570642792823],["vo",-11.43122313561273],["Carlo",-11.431260473275158],["flexib",-11.431432267314552],["Victorian",-11.432708936382475],["Mario",-11.43333752090697],["pole",-11.433372509920762],["Front",-11.434391194699835],["fines",-11.434639169661796],["Motor",-11.43500684327333],["consume",-11.436066351065678],["Philip",-11.436114820803386],["Bright",-11.436300861098958],["Bur",-11.437019634641484],["Winni",-11.43741731112607],["utum",-11.438287311564746],["tower",-11.438722282179015],["deployment",-11.438775932633224],["bot",-11.438800863605843],["Azerbaijan",-11.439295000600897],["glimpse",-11.439295002102288],["explicit",-11.439295003565077],["Soviet",-11.439295129999396],["Jerusalem",-11.439295564864672],["immense",-11.43929573657768],["pupil",-11.43929666530759],["precise",-11.439297098583014],["gesture",-11.439300709541154],["explanation",-11.439303098580826],["Standard",-11.439321207905873],["monster",-11.439339747141036],["landlord",-11.439359261499128],["licence",-11.439365154998175],["bishop",-11.439382963785107],["consultant",-11.439404627889278],["linebacker",-11.439424548128947],["intersection",-11.439427548929467],["jacket",-11.43943177452611],["flatten",-11.43943379971974],["cousin",-11.439435587307376],["Metropolitan",-11.439437785624715],["blanket",-11.43946871564528],["CM",-11.439688495487973],["grandfather",-11.439696758978396],["adaptation",-11.439792568832221],["Raider",-11.439814506499246],["sweat",-11.439854029363437],["Golf",-11.439980014013004],["enabl",-11.439995885745407],["grandmother",-11.440020503775461],["brush",-11.440125026890469],["respondent",-11.44025163994592],["mainstream",-11.440378107744461],["tariff",-11.44043397269924],["leap",-11.44067696887697],["anonymous",-11.440705900884144],["ndful",-11.44076095325909],["description",-11.44100203900759],["Cha",-11.441012014408125],["anchor",-11.441400244359533],["indicator",-11.44194464202339],["communicat",-11.442248761852234],["pipe",-11.44226998299756],["touche",-11.442415395483513],["pric",-11.44244191937205],["Clay",-11.44252193990105],["CoV",-11.44274703638664],["ierra",-11.442908449427957],["relieve",-11.442919374693039],["spy",-11.443301633712046],["conventional",-11.443486477762498],["Peace",-11.443581319700833],["AFP",-11.443803934797966],["Mobile",-11.444718233834651],["brick",-11.445303749033135],["outlook",-11.445470253350882],["Soft",-11.445920286001735],["Walm",-11.446107883894559],["peg",-11.446722693798323],["lover",-11.446852213741975],["flexibl",-11.447545524788653],["CARE",-11.448362106677642],["regain",-11.448366103116953],["Shah",-11.448510745075613],["Ban",-11.448710833231127],["Industr",-11.448921217797846],["roit",-11.449627343017273],["Th",-11.450706659357689],["Blas",-11.450911371309502],["utilize",-11.45114058832559],["Gregor",-11.451221418954296],["ure",-11.451714157235873],["arrange",-11.451735959800462],["NEW",-11.452523572618299],["DO",-11.452715416888498],["110",-11.452848858290725],["Gib",-11.453100345010768],["1000",-11.453678154284944],["opte",-11.453972249058353],["prioritize",-11.454090406518988],["criticise",-11.454178068528607],["RAM",-11.454486941498313],["Hog",-11.45509881344804],["municipal",-11.455151355230388],["trader",-11.455219273196084],["discusse",-11.455633269763858],["Glen",-11.456007494237845],["ES",-11.456024444098613],["centur",-11.456048182082414],["CC",-11.456563615546047],["ker",-11.456707312070712],["stall",-11.4572237868678],["Mann",-11.457699050994183],["ranke",-11.458467717768963],["upside",-11.458532616319165],["Ann",-11.459946382600634],["onion",-11.460016245659277],["Nad",-11.46003343399511],["mari",-11.460445407869674],["emphasis",-11.460666490752416],["evaluation",-11.461090664887394],["egg",-11.461326391003677],["Mills",-11.461392938748547],["Michel",-11.461584519469039],["evolve",-11.461930148465989],["distribut",-11.462054170368972],["assurance",-11.462402652805894],["beate",-11.462429271684366],["wire",-11.462473768562415],["intervene",-11.463701550036092],["Pate",-11.464399995986486],["Uganda",-11.464422514343537],["Kids",-11.464560849215768],["Histor",-11.465205449535425],["bounce",-11.465578449901306],["firework",-11.46559334378604],["ndeed",-11.466193270628036],["Need",-11.46690742046988],["slide",-11.467553800038882],["awful",-11.467659440941347],["125",-11.467665818812092],["rounds",-11.467678296037844],["flash",-11.468233843468614],["questioning",-11.468618426394057],["pal",-11.468883716867413],["lecture",-11.469113481264424],["ction",-11.470418320900738],["Left",-11.470446262638987],["makeup",-11.471239940367276],["pronounce",-11.471326708443717],["reinforce",-11.471456606862175],["Ukrain",-11.471530819030004],["Hurricane",-11.47155306539674],["predecessor",-11.471554327415916],["clerk",-11.471554796807581],["Celtic",-11.471557827644821],["Qatar",-11.471560727593781],["Arthur",-11.471564394957433],["convenience",-11.471571464440872],["Appeal",-11.471587705001554],["Bernard",-11.471589403535432],["poison",-11.471606326601655],["Ronald",-11.47162335810479],["superhero",-11.47164255581917],["Gandhi",-11.471672747465815],["Intel",-11.471678965456178],["scholarship",-11.471689860898746],["invitation",-11.47172982308006],["Tesla",-11.471787978133765],["recipient",-11.47184857636989],["chocolate",-11.471863597622802],["Duches",-11.471878971513505],["Tower",-11.472165404464702],["potato",-11.472218813365254],["sequence",-11.472666524229952],["firearm",-11.472894077733269],["exploration",-11.473325659014238],["passport",-11.473337242633113],["opener",-11.473457661610777],["Ridge",-11.473533967891116],["Jose",-11.473547919338754],["tonne",-11.473750838285103],["assumed",-11.473770514536712],["presente",-11.474146280877125],["angle",-11.474227051279682],["CAR",-11.474327306530634],["cu",-11.474338463410307],["telephone",-11.474563734181249],["prolong",-11.474813858453256],["practic",-11.474821670166085],["PF",-11.474945663271123],["unnecessar",-11.475665164099867],["subsid",-11.475832464681531],["197",-11.475834493456977],["Nazi",-11.476648907124645],["adoption",-11.477475437088458],["arter",-11.477627796268989],["cleaner",-11.478419642695865],["cement",-11.478453231433424],["CBD",-11.479174796466728],["traveller",-11.479258435513367],["plunge",-11.47956346500725],["HING",-11.4813306581579],["EV",-11.48135544607263],["240",-11.481518295989586],["birds",-11.481970524877596],["Woods",-11.482165478455972],["Task",-11.48241369378321],["retreat",-11.482473669478662],["valuation",-11.482682952639689],["alien",-11.482988680976339],["shipp",-11.483392956828434],["Holdings",-11.483609556096821],["Learn",-11.483681225020286],["Bachelor",-11.48435276415552],["journalis",-11.484577251232752],["grace",-11.484738314162772],["beside",-11.484822567346924],["Yea",-11.484835831401334],["Fur",-11.485978335145939],["salon",-11.486058406835241],["accurac",-11.486760432511375],["amend",-11.486811032474503],["Snap",-11.48686992670755],["rage",-11.486954394722396],["Finn",-11.487010429473122],["Pal",-11.487075411403788],["anuel",-11.487506725347552],["epic",-11.487766815666372],["Prior",-11.488009105502766],["procure",-11.488432843644883],["dispos",-11.48947749256494],["auke",-11.48957675162815],["terror",-11.489714363637747],["?’",-11.49004535509534],["flaw",-11.490913229453373],["Barry",-11.49092013893102],["Jeffers",-11.49235801424273],["feeding",-11.492635940277498],["backup",-11.494029168556017],["liqu",-11.494451196716271],["Edwards",-11.494933766887806],["Kath",-11.49500520608394],["persist",-11.495060123786725],["rebuild",-11.495172298323695],["hairman",-11.495558784394484],["nderson",-11.495612475097264],["Lot",-11.496313142570607],["median",-11.496418576225782],["ock",-11.496674031086025],["Mask",-11.497394132304137],["greet",-11.497561395743764],["declin",-11.497620747651967],["aked",-11.497770357433815],["Indonesia",-11.497863514817594],["precede",-11.4980853862747],["drag",-11.498407977166856],["ethic",-11.49855886912811],["Member",-11.49898853585533],["oven",-11.499064018686813],["Cohe",-11.499256180348981],["comprise",-11.499304816379707],["í",-11.499423495389308],["PE",-11.500535421335176],["Dick",-11.500687530345676],["Brand",-11.50079359469628],["Peters",-11.50115144199582],["prosper",-11.502232316100386],["sburg",-11.50241325709803],["influen",-11.502774695077669],["salt",-11.504187839751047],["fortunate",-11.504412757740031],["layoff",-11.504711491749589],["distract",-11.50485934790081],["Buttigi",-11.504886424401032],["horrifi",-11.504886458558214],["delicious",-11.50488646563399],["frustrate",-11.504886537953682],["Hundred",-11.504886833378608],["verdict",-11.504886851326091],["Kashmir",-11.504886860061264],["cigarette",-11.504888434677312],["Freedom",-11.504891424674602],["Derek",-11.504897136622002],["bipartisan",-11.504897336370556],["tribal",-11.504899511636763],["Sussex",-11.50490079002532],["Expert",-11.504916653397299],["wrist",-11.504928925757254],["interception",-11.504938560408736],["fierce",-11.504964339962045],["tropic",-11.504990494778614],["billionaire",-11.504998888677658],["notorious",-11.505015703293843],["Cambridge",-11.505025732617105],["stomach",-11.505099578709139],["enix",-11.505165283491198],["queen",-11.505179313937294],["golden",-11.505286407267388],["perception",-11.505337595788763],["disadvantage",-11.505426455979444],["testimon",-11.505614805401581],["nded",-11.505964174566783],["130",-11.506003547211243],["endorsement",-11.506028782005696],["Embass",-11.50614028730012],["payroll",-11.506200447694674],["Cash",-11.506254194427687],["Connor",-11.506271196687106],["Rug",-11.506283438159054],["Samuel",-11.506357382313855],["plasma",-11.506368638755838],["Universal",-11.506584583931705],["profound",-11.50662743276489],["Nash",-11.506974653748763],["pardon",-11.506978291313606],["artificial",-11.507186444796965],["doom",-11.507305926418933],["leaning",-11.508173710626352],["fax",-11.50829365963915],["propaga",-11.508439944162877],["blessing",-11.508701647788948],["pile",-11.508720097755699],["ragged",-11.508833484123539],["Chase",-11.508937456097101],["hardship",-11.508957358558408],["ladi",-11.50936604751083],["slip",-11.509412129565394],["Living",-11.509529086092384],["Crew",-11.509627985640515],["Ham",-11.510014172845413],["Fred",-11.510301133375178],["insult",-11.510559920192748],["smell",-11.510908256024704],["bacteria",-11.511007150137065],["Speed",-11.511080404808103],["storyline",-11.511281442803053],["WH",-11.511484653058043],["wrestl",-11.51165669676155],["hungr",-11.51268936613057],["revolution",-11.512793198820116],["activate",-11.513360347549519],["consolidate",-11.513474108459395],["arring",-11.513565776590124],["rocket",-11.513750768450013],["Garc",-11.514180283373936],["acute",-11.514521719747236],["coordinate",-11.514739890469707],["Hanna",-11.51476035405544],["availabilit",-11.515418632929201],["elve",-11.515616439500082],["Ashle",-11.516374448564244],["TD",-11.516408719488766],["Clare",-11.516750533932399],["strande",-11.518527762277271],["ridge",-11.518725514894243],["rban",-11.518964342930923],["Grow",-11.519115947137811],["shaw",-11.519171465504387],["proportion",-11.51919203867893],["Kid",-11.519247050277587],["Dog",-11.519321715450348],["Palm",-11.519808247629044],["roadway",-11.52087091625115],["forgot",-11.521027286269659],["Ren",-11.521369052366563],["translate",-11.522409315225893],["fascinat",-11.522802084758945],["mor",-11.523205234646008],["laying",-11.52330480096849],["crashe",-11.5239022196592],["aux",-11.524625515654982],["cient",-11.524715034619927],["interfere",-11.525646800342418],["nois",-11.525921596635456],["patch",-11.526734843108969],["batt",-11.526736467006003],["Pi",-11.528521432941098],["merit",-11.528673253123797],["PAC",-11.528993400016107],["Vol",-11.529199139449963],["taxi",-11.529963792626933],["bull",-11.530981703233486],["Morris",-11.531243720393235],["arena",-11.53206531930536],["3D",-11.532449024117454],["steadi",-11.532973573131013],["sentenc",-11.533091520454587],["UCL",-11.533251209555534],["oppos",-11.533386070473114],["Kol",-11.533690658920534],["allocate",-11.534020685212345],["Dominic",-11.535276961590196],["stretche",-11.53578818566228],["Malawi",-11.536084388731265],["loop",-11.537230703450682],["hom",-11.537611100749228],["ophomore",-11.537852904134585],["orbit",-11.537898642558467],["achel",-11.53828302177712],["censu",-11.538283166843888],["socio",-11.538372475315139],["scream",-11.538594787177114],["oalition",-11.538810727953104],["welcom",-11.539108098184501],["excess",-11.539181029773115],["horizon",-11.539182382994706],["Sub",-11.539188471946796],["lobby",-11.539286653756351],["Tanzania",-11.539369177516177],["Manhattan",-11.539369204794529],["companion",-11.539369280290533],["pedestrian",-11.53936940140111],["Chancellor",-11.539369519022838],["Magistrate",-11.539370479740963],["Switzer",-11.539373086162339],["Disaster",-11.53938721138342],["Progressive",-11.539417378753875],["motorcycle",-11.539423044963723],["uneral",-11.539429297611651],["burglar",-11.539445162491111],["Retail",-11.539448699940378],["evolution",-11.539458535278694],["tenure",-11.539485316078485],["fool",-11.539492037907841],["distraction",-11.5395303089885],["ordinance",-11.53953962280358],["skirt",-11.539579548252204],["depict",-11.53958155556495],["temple",-11.53961976830094],["hazard",-11.539638548161365],["resignation",-11.539713695350262],["Owen",-11.53979022024469],["legislator",-11.539849629746325],["attraction",-11.540204222315195],["Rocket",-11.54032140498967],["clue",-11.540527569766127],["Cam",-11.540570940794046],["algorithm",-11.540800170996253],["Battle",-11.540809743498142],["corona",-11.54094203234634],["Arena",-11.541061799071596],["learner",-11.541071960673358],["reluctant",-11.541660938232393],["passage",-11.542207855380585],["traveler",-11.542209874808542],["patien",-11.54221035611867],["artistic",-11.542517892168778],["tolerate",-11.542520607212053],["tens",-11.542537534169828],["densit",-11.54264884241453],["Beck",-11.543066144786719],["ING",-11.543269164153429],["palm",-11.543295332454152],["chairs",-11.543353896468275],["Ric",-11.543378156949547],["authorize",-11.543504220723179],["snake",-11.54369784415095],["….",-11.544252826755022],["drift",-11.544540381943474],["strip",-11.544657698436861],["dragon",-11.544770345605373],["mourn",-11.544776604992343],["efence",-11.54479854568075],["Eye",-11.545026313683366],["breakdown",-11.545231863999572],["Ott",-11.545274974337822],["Beth",-11.54565978819672],["Nether",-11.545810541818874],["buzz",-11.545903568208326],["uring",-11.54623080819232],["casualt",-11.546346660732318],["UA",-11.54665414884746],["Express",-11.546994771627366],["damag",-11.547433964360046],["spotlight",-11.548282199234668],["hedge",-11.548359695111035],["scores",-11.548477621043187],["bearing",-11.548481210066175],["loot",-11.548577166028256],["Cap",-11.549118537644695],["modest",-11.54929167255985],["Hans",-11.550414685312465],["violat",-11.551079544614357],["Song",-11.551719500004108],["Beyon",-11.553321424414293],["cooperate",-11.554122976088864],["cow",-11.554463163720833],["Communis",-11.554711046316084],["LC",-11.555600269179388],["Multi",-11.555913700583847],["stabili",-11.556462555445089],["Cloud",-11.556716888122422],["Quinn",-11.556987236894663],["blesse",-11.557091232600499],["Mahara",-11.557180084120976],["Steel",-11.55734285061949],["Bolt",-11.55757767524665],["Rama",-11.55773231575493],["plug",-11.557991172363323],["undermine",-11.55903402588185],["Rangers",-11.559051424497673],["buri",-11.55991234554468],["Elle",-11.560015849367543],["aq",-11.560834110527459],["landing",-11.561073071379134],["aval",-11.561608336601132],["parliamentar",-11.562122659139028],["keeper",-11.563044919676761],["patrol",-11.563154903058843],["Ward",-11.563255576913022],["ack",-11.563412259886253],["trace",-11.563415759932063],["transparent",-11.563497039183556],["Sab",-11.56362206028613],["illy",-11.564230832957827],["Deb",-11.566023984966588],["uperior",-11.566025003882732],["abad",-11.566052272806292],["linger",-11.566753825933942],["lip",-11.567423504950897],["shade",-11.567482963278994],["Found",-11.567727864363556],["broade",-11.568563313819094],["LGBTQ",-11.568610976045523],["slave",-11.570351349708519],["boil",-11.570779444115562],["modifie",-11.570790195515048],["pension",-11.571309072257522],["ucker",-11.57150761713931],["105",-11.571576343564146],["ntelligence",-11.571614237923363],["vegan",-11.57302912430496],["Gates",-11.573600332115491],["Command",-11.574304619223263],["Bald",-11.574694325913125],["recreation",-11.574744666999335],["Fift",-11.574818415321882],["Egypt",-11.575055719011006],["‚",-11.575083442784749],["Kardashian",-11.575083443184496],["Athletic",-11.575083447899809],["referendum",-11.575083566699155],["Abdullah",-11.575083754177092],["terrifi",-11.5750838949584],["delegate",-11.575084230291857],["Reynold",-11.575085517578534],["perceive",-11.575086459595566],["Criminal",-11.575087063494234],["architecture",-11.575094035701435],["Regard",-11.575104653582986],["irmingham",-11.575106023334664],["classifie",-11.575122402793408],["Private",-11.575138654931443],["ceiling",-11.575158085046384],["Chuck",-11.575158654682125],["libert",-11.575181271606239],["Ghanaian",-11.57518744473924],["Comic",-11.575221278878269],["Inspector",-11.575232511476308],["beverage",-11.575279251101204],["Draft",-11.57531173366293],["Climat",-11.575316220507002],["Touris",-11.575323728144221],["demographic",-11.575326469108937],["McDonald",-11.575331527278095],["homicide",-11.575375677523002],["wireless",-11.575430680105372],["Deep",-11.575512775700698],["Token",-11.57553002399003],["rumour",-11.575595230280658],["Round",-11.575606411644856],["escalati",-11.575726479602682],["reads",-11.575894627460828],["SUV",-11.575936775564816],["Native",-11.576061472941355],["Mitch",-11.576144572285724],["Political",-11.576263296125191],["renewable",-11.576434239612738],["plac",-11.576443538008855],["Burk",-11.576883994558337],["blog",-11.576913661968891],["alternate",-11.577408092210552],["setup",-11.577509230251973],["keyboard",-11.577568616926529],["pleasure",-11.577639845238519],["domain",-11.577764109486765],["sauce",-11.577975789807637],["Brie",-11.577988150515345],["Richards",-11.578048231017357],["Mega",-11.578147570102074],["abus",-11.578502968021942],["Apart",-11.57910197837111],["portal",-11.579364333680413],["prevalen",-11.579494919915534],["RBI",-11.579643610681135],["Ger",-11.580050531144076],["underground",-11.580189514550447],["magical",-11.580201600154194],["gon",-11.58092965667602],["honey",-11.581053033916735],["Clair",-11.581128649159108],["Grande",-11.581553723533926],["upload",-11.58161203159851],["Alan",-11.581661370062898],["cal",-11.582172555612116],["disturbing",-11.582339794865792],["Brooks",-11.582382141476348],["booking",-11.582855490097533],["inequalit",-11.583494730172193],["stepping",-11.583524427439379],["Colt",-11.583810089697671],["Ellis",-11.584254741984788],["analyze",-11.584474260361889],["tube",-11.584669977496887],["Shore",-11.58485909048944],["Bow",-11.585516705514086],["secur",-11.585568164772848],["poet",-11.585716421011128],["agged",-11.586104871861112],["foresee",-11.58723061069934],["habitat",-11.588206871306276],["Leed",-11.588301489529591],["Horn",-11.58843897426296],["ED",-11.589239309452187],["Stewar",-11.58935866094093],["Daw",-11.58946617885701],["Independent",-11.5894758505447],["04",-11.589914041168171],["disciplin",-11.590082994402733],["Benja",-11.590285089836524],["Va",-11.59028571563005],["lly",-11.590422308061285],["issu",-11.590466149800761],["stack",-11.59055954920026],["subscribers",-11.590643193550932],["attendee",-11.591197544983439],["Ye",-11.5915888607382],["risen",-11.591910681143101],["Room",-11.59262287564266],["asty",-11.592889175709029],["backyard",-11.593571214882957],["mendment",-11.594027336040131],["Sad",-11.594280602297745],["spare",-11.594325663386584],["Personal",-11.594518259377601],["Hero",-11.595037286078647],["tuition",-11.596652439427539],["seal",-11.597542724346566],["cock",-11.597544897086188],["LG",-11.597844300043889],["Tri",-11.597909736080874],["Nas",-11.599295664772686],["steep",-11.599683543354434],["Pod",-11.600184789517915],["ru",-11.600247578376004],["zi",-11.600923453867324],["Sign",-11.601340249976717],["locker",-11.601623630905213],["pharmaceutical",-11.602014149225552],["attacker",-11.602079551911082],["NG",-11.603012409019367],["Delta",-11.603768180144833],["governors",-11.60397396142394],["RS",-11.605229019533631],["Connecti",-11.60535916295569],["etic",-11.60593722011687],["Ros",-11.606013197743275],["Sale",-11.607667997186956],["fitting",-11.60785881070987],["ector",-11.608319274261788],["lap",-11.608592064228556],["negotiate",-11.608975845042645],["BT",-11.609068522866426],["Charge",-11.609130569564629],["jet",-11.609949900437853],["Dad",-11.610480536307826],["yder",-11.61063098273444],["Set",-11.61072530117233],["stair",-11.611307760433458],["rystal",-11.611672699978378],["thru",-11.611764695303842],["Legislature",-11.612120479847102],["Pharmaceutical",-11.612120480613196],["Oklahoma",-11.612120544280945],["militia",-11.612120640253472],["threshold",-11.612121185610455],["Relief",-11.612122089357053],["Scientist",-11.612122860263554],["Cricket",-11.61213356784151],["Elliot",-11.612138628207548],["summit",-11.612146992121911],["pleasant",-11.612151461697945],["Leonard",-11.612155375493206],["execution",-11.612167549833362],["interference",-11.612168585290943],["Thousand",-11.612184424618109],["creature",-11.612191569500386],["undoubted",-11.612192000085239],["Tamil",-11.612239955223906],["tunnel",-11.612379966844783],["Warrior",-11.612385264369678],["absorb",-11.612407661718892],["referee",-11.612407891101054],["luth",-11.612442413280718],["Voice",-11.612443520525957],["curious",-11.612451610839845],["Rapid",-11.612456820158247],["Bradley",-11.612566757152376],["midfielder",-11.612646956830474],["detective",-11.61275031823979],["server",-11.612750683270871],["Karen",-11.612855257323828],["Switch",-11.61288398767163],["Dennis",-11.612992806041266],["ssembly",-11.61305082730135],["REN",-11.613260272622037],["flip",-11.6134208017697],["intensit",-11.613489451473805],["Level",-11.613686605184528],["shadow",-11.613796601345111],["diplomatic",-11.613931367166467],["litre",-11.614024224566501],["fundraiser",-11.614028640089032],["Fish",-11.614211303714054],["contributor",-11.614392883186472],["lining",-11.614462264019421],["dail",-11.614528145603856],["Centers",-11.614744011186032],["medal",-11.614754075607166],["mortalit",-11.614785344874768],["Malt",-11.614795621165698],["Kati",-11.615146955087619],["Sanch",-11.61524300121145],["recreational",-11.61548426173844],["Boss",-11.616052171126512],["Julie",-11.616405438912446],["Op",-11.617452276991635],["mont",-11.618335110479702],["aging",-11.618485267943772],["workshop",-11.61853855282537],["Soon",-11.618545481095742],["database",-11.61875954527818],["stole",-11.61960134023513],["Todd",-11.619808473272101],["dubb",-11.620089476560231],["Worker",-11.620368636723768],["Run",-11.621584177114155],["Shares",-11.622386647631592],["dock",-11.623197726840427],["Edward",-11.62341261538482],["bang",-11.623437960465555],["Nine",-11.623760533536615],["outrage",-11.623772159167915],["cott",-11.623834586715715],["lore",-11.623902560231226],["sustainab",-11.624211369923144],["Trini",-11.624598774316453],["loyal",-11.624727665384942],["Penta",-11.626330144941695],["Ave",-11.626370184262765],["Heat",-11.626415383037157],["Tak",-11.62686539238344],["chains",-11.627497888161683],["tele",-11.62750840222852],["Semiti",-11.62890659114264],["ports",-11.628941544379053],["bind",-11.629808490309358],["Suga",-11.631343201551497],["mob",-11.631971939811114],["Marine",-11.632048140357217],["Wats",-11.632065399078757],["arrow",-11.632461233419917],["consum",-11.632856300688639],["bann",-11.633282686163941],["believ",-11.633382602828707],["exclude",-11.633525929278825],["McCart",-11.633550905863055],["Between",-11.63377199008709],["AL",-11.634638112672528],["Hyde",-11.634668680401273],["Sharm",-11.635046167866127],["inclusiv",-11.635483337568363],["ella",-11.635490896079354],["Glas",-11.635496449937492],["jumpe",-11.635626610845453],["Want",-11.636223901236685],["avoc",-11.636874866838046],["Had",-11.63711758647811],["ghost",-11.637553517343223],["bats",-11.637716094535778],["doubl",-11.637932210592469],["possess",-11.638157019544321],["Industrie",-11.638880836977116],["Rash",-11.638964244178021],["northeast",-11.638981597088897],["correction",-11.639124659816245],["Val",-11.639146953949858],["dressing",-11.63919732018522],["accountab",-11.64001749497604],["cliff",-11.641435554377956],["ger",-11.641925848476001],["Arn",-11.642338183362565],["Critic",-11.642538022319599],["opez",-11.642538659853013],["elevision",-11.64280814441314],["Patt",-11.643037600830853],["Malaysia",-11.643674833748907],["tense",-11.643821519443163],["180",-11.643846021919936],["Armenia",-11.644017865503686],["melt",-11.64403207375862],["interrupte",-11.644227992632274],["responder",-11.64538389637929],["vowe",-11.64561443734913],["varie",-11.645967017581363],["Environment",-11.646513825001474],["Mau",-11.64700820635777],["exploitati",-11.647129834960847],["Carolin",-11.64737220842107],["worrying",-11.647806764151746],["thrive",-11.64805993706114],["innat",-11.648066199385436],["collaborate",-11.648211306011504],["teenage",-11.649029624890987],["philosoph",-11.64903137712022],["monument",-11.649509195432351],["Tam",-11.649752273221381],["acceptabl",-11.650023296235581],["embark",-11.650469879567183],["„",-11.650582018283323],["¦",-11.650582018283323],["explosive",-11.650582018827098],["neglect",-11.650582022043631],["frequenc",-11.65058202711191],["pneumonia",-11.650582061161963],["Lloyd",-11.650582142380848],["scratch",-11.650582314320642],["Abbott",-11.65058470797477],["occupation",-11.65058592186057],["decisive",-11.650588780251734],["frighten",-11.650596797448383],["fragil",-11.6505968504317],["Jazz",-11.650602968292734],["electorate",-11.650605427899936],["submarine",-11.650606632252558],["speculation",-11.650610272390212],["Cowboy",-11.650621680768342],["emoji",-11.650634986038044],["Third",-11.650638869489661],["Dutch",-11.650639380039499],["Emirate",-11.65064307240938],["powder",-11.650645866966705],["precious",-11.650656624578382],["valley",-11.650773603244275],["Revenue",-11.650790665287683],["comedian",-11.650817120941326],["fluid",-11.650899613991161],["imprison",-11.650901726787858],["verify",-11.651076266329742],["intellectual",-11.651099065993206],["locke",-11.6511477979742],["Township",-11.651228427306307],["battleground",-11.651468008178679],["contemporar",-11.651570502941794],["Sound",-11.651575177514012],["Packer",-11.651780735223904],["declar",-11.651817205610675],["disregard",-11.651832854653371],["marking",-11.651875904080784],["gunshot",-11.651890209023517],["manual",-11.651981350394824],["Barbar",-11.652324271535596],["Off",-11.652442760238593],["whale",-11.652862271665079],["infant",-11.652868026787043],["warehouse",-11.653380137307202],["cattle",-11.653488936511442],["tailor",-11.65358095217678],["pie",-11.653799729870684],["considerabl",-11.654271047438595],["reply",-11.654801624357214],["Cart",-11.654804858696549],["tomato",-11.654940700895153],["stamp",-11.655285849883583],["Melani",-11.655537915892863],["Herber",-11.655621877266906],["punish",-11.6556937265665],["drought",-11.656637201133393],["Milan",-11.657451569998262],["SP",-11.657455133770954],["Hold",-11.65751080157225],["pathway",-11.657553357444009],["lick",-11.6576775033753],["Forum",-11.65784648309442],["shipment",-11.658456275590213],["Manag",-11.658468733593324],["tribe",-11.658495424672333],["Mini",-11.658735381981788],["aunt",-11.658794754831248],["uplift",-11.65901696581762],["aring",-11.659684055642696],["els",-11.659807483116886],["Cod",-11.660373649179402],["bra",-11.66094462957746],["Stop",-11.661161543642972],["Row",-11.661619488404924],["sville",-11.66244712039378],["Mars",-11.662640149605682],["trap",-11.662757219058943],["Kai",-11.662767693588759],["grounds",-11.66337415436464],["curl",-11.663460562566172],["depart",-11.663816981520112],["Pac",-11.66383464869392],["170",-11.664384674521354],["Carr",-11.664603873129227],["Che",-11.664673522361326],["armful",-11.664808646905371],["Original",-11.665048803579671],["performe",-11.665111503058013],["observer",-11.665717730007625],["bandit",-11.666062740007561],["visa",-11.667055780130912],["Age",-11.667538580228742],["quo",-11.66756787662912],["ruz",-11.667667745082824],["onstruction",-11.66807764367063],["absurd",-11.668184189089363],["loser",-11.668995653542282],["surgical",-11.669146366185812],["Marie",-11.66946772156416],["HB",-11.670400547335124],["ooner",-11.67101956279918],["ounce",-11.671913378517337],["CIA",-11.672386067877998],["escalate",-11.672826030448036],["invit",-11.673494583671246],["backward",-11.67396414158237],["tease",-11.674623510168772],["convenient",-11.675558080016973],["Ri",-11.675574146866827],["uch",-11.677078214691518],["Messi",-11.677141216226664],["Citi",-11.677342490531222],["messag",-11.677508587425407],["Jane",-11.677664337810809],["AFL",-11.67783956705159],["borne",-11.6779889209051],["embarrass",-11.678821746522196],["meme",-11.679365064195414],["Cyber",-11.67964230152071],["societ",-11.6803235591889],["swab",-11.680411585883121],["Mel",-11.681124235774671],["overturn",-11.6811359029417],["Gill",-11.681474260674573],["humanit",-11.681672492305948],["suite",-11.681712066587824],["rifle",-11.681966036445454],["chronic",-11.683748622984368],["Venezuela",-11.683862481284637],["Liberia",-11.684036745396632],["occurr",-11.684043502377122],["emeter",-11.685547526586465],["calculate",-11.685693580960518],["Frankl",-11.686231545525803],["councillors",-11.686597357710172],["Kwa",-11.687105014241498],["faction",-11.687557916843216],["damn",-11.687943472705756],["liter",-11.688767679213349],["Holy",-11.689269622326378],["Neil",-11.690205654055374],["pig",-11.690387789138056],["exempt",-11.690492504085324],["Southwest",-11.69056672153514],["compliment",-11.690582019241662],["Prosecutor",-11.690582020762587],["receipt",-11.690582021604346],["educator",-11.690582047965657],["prestig",-11.690582256096372],["complement",-11.690582408397157],["Rescue",-11.6905841982658],["Baghdad",-11.690584687988087],["gorgeous",-11.690586705200808],["diagnostic",-11.690589233273421],["Pandemic",-11.690589746988259],["ritual",-11.690591763832478],["chloro",-11.690592390517503],["Fergus",-11.69059565330032],["separation",-11.6906101216423],["definitive",-11.690611403265997],["Employee",-11.690614101001179],["disproportionate",-11.690617007443006],["analytic",-11.69061723046265],["Ukrainian",-11.690618856170058],["variation",-11.690623801743094],["gambling",-11.690631918110942],["radar",-11.69064508805106],["unfold",-11.69064663541576],["Large",-11.690670294643672],["negotiat",-11.69067359490794],["Trail",-11.690678118945184],["commentator",-11.69069788892746],["colonial",-11.690713090137493],["Industrial",-11.690808782567665],["Investigation",-11.690829888695118],["romance",-11.690843383853803],["annoy",-11.690867150964287],["Parent",-11.690884287371986],["humor",-11.690962472562022],["default",-11.690990448355976],["Production",-11.691004689552146],["harsh",-11.691017788447128],["reflection",-11.691197073754061],["faithful",-11.691214865954276],["Adrian",-11.691257397533137],["couch",-11.691355774241268],["integration",-11.691379669242755],["webinar",
[...]
