{"version":"1.0","truncation":null,"padding":null,"added_tokens":[{"id":0,"special":true,"content":"<UNK>","single_word":false,"lstrip":false,"rstrip":false,"normalized":false},{"id":1,"special":true,"content":"<SEP>","single_word":false,"lstrip":false,"rstrip":false,"normalized":false},{"id":2,"special":true,"content":"<MASK>","single_word":false,"lstrip":false,"rstrip":false,"normalized":false},{"id":3,"special":true,"content":"<CLS>","single_word":false,"lstrip":false,"rstrip":false,"normalized":false}],"normalizer":null,"pre_tokenizer":{"type":"Whitespace"},"post_processor":null,"decoder":null,"model":{"type":"Unigram","unk_id":0,"vocab":[["<UNK>",0.0],["<SEP>",0.0],["<MASK>",0.0],["<CLS>",0.0],["s",-2.6857171309348082],["de",-3.4074176328180847],["e",-3.416070920737214],[".",-3.4866941286102673],[",",-3.523188992201675],["a",-3.733224412157398],["t",-4.030235492369307],["en",-4.08659702695968],["d",-4.315289076420356],["la",-4.317753954121015],["n",-4.687576958712919],["’",-4.710159683231465],["y",-4.732907625180502],["the",-4.768664590908065],["in",-4.811118468809186],["que",-4.873006204633327],["l",-4.936310065332162],["el",-5.067250929098934],["o",-5.098860188527514],["to",-5.116970628491979],["le",-5.242353629870053],["-",-5.254809458771854],["un",-5.324452786259734],["of",-5.397997633036601],["on",-5.400904075607118],["i",-5.413972513366385],["u",-5.45278183686127],["and",-5.45290456582077],["is",-5.458826973976388],["'",-5.487534075542751],["er",-5.533316032940787],["r",-5.6205243940089495],["à",-5.667848214429139],["van",-5.742747776395369],["ing",-5.781522286627011],["al",-5.812110730649843],["les",-5.836733668650112],["het",-5.8658102772057426],["los",-5.896822852556921],["\"",-5.938666722139574],["een",-5.946333645938061],["“",-6.022302431748985],["est",-6.048409969863254],["ó",-6.06026299382448],["du",-6.07886926456913],["é",-6.081033895883552],["con",-6.083028816640962],["be",-6.170484171729164],["op",-6.181045699310582],["A",-6.184582008070722],["re",-6.194646507622162],["del",-6.200242283034314],["no",-6.234654563515589],["dat",-6.257579473745544],["c",-6.32595471510338],["for",-6.326201642102179],["(",-6.327669931416244],["por",-6.333240274641252],["ción",-6.345628771180776],["m",-6.385538763254965],["that",-6.38663440527821],["para",-6.391182347972697],["De",-6.3987468310663544],["it",-6.403340371391012],[":",-6.4362805904369615],["ly",-6.441289761934607],["La",-6.451470110372506],["pour",-6.470753406348942],["une",-6.47533933988195],["je",-6.489982294314453],["p",-6.49340597383001],["I",-6.507207322748982],["an",-6.509991813419095],["una",-6.525563906030596],["The",-6.536580857015911],["C",-6.540280676845741],["qui",-6.543524425057779],["was",-6.556963780670145],["il",-6.5624890514037535],["lo",-6.5660192557594605],["au",-6.590493770243372],["ce",-6.593121791272102],["f",-6.598724799240854],["voor",-6.649965784342278],["met",-6.656051994398274],["dans",-6.673158662913908],["with",-6.675483813433058],["sur",-6.70119766659994],["«",-6.7146441878444705],["par",-6.716120619101321],["die",-6.732742825335359],["om",-6.739286230539925],["ment",-6.759945550763939],["pas",-6.771386039423829],["zijn",-6.778198771720408],["S",-6.786462157899816],["niet",-6.796966489339049],["En",-6.802804382709576],["las",-6.806872828499396],["k",-6.817287541347824],[")",-6.837607365797362],["ha",-6.846552069870448],["El",-6.850106359242265],["L",-6.892227216048621],["Le",-6.899017402624946],["z",-6.926091225953847],["or",-6.955838455622104],["we",-6.955924066862815],["g",-6.967241048681343],["aan",-6.967715861161238],["h",-6.97923390393164],["he",-6.981149400778211],["más",-7.017462043292113],["me",-7.046808690629213],["are",-7.063383721483772],["?",-7.06557361494759],["over",-7.068051281711503],["ge",-7.07697024617995],["ver",-7.082732042510795],["have",-7.089959655894562],["ont",-7.095636568804311],["son",-7.115353760147688],["said",-7.139170064319764],["1",-7.153976613088982],["plus",-7.156336873483333],["qu",-7.161493514969273],["19",-7.172163483748681],["uit",-7.189630831725077],["ze",-7.196703868999835],["ook",-7.211235215202812],["E",-7.2233819431214545],["by",-7.244492459966022],["como",-7.251439452020829],["from",-7.268267848710879],["aux",-7.275439259294632],["has",-7.287135776816813],["In",-7.291798051518672],["T",-7.293307390048833],["20",-7.295645920394227],["not",-7.303244497352972],["bij",-7.306572980750678],["”",-7.317839813373338],["2",-7.326554771826585],["will",-7.329652862005018],["ent",-7.334554689643239],["avec",-7.335418410736741],["ar",-7.340718707116565],["maar",-7.35367114702653],["ik",-7.378138058283703],["b",-7.3882685024365635],["été",-7.402977779607019],["mente",-7.404693505417075],["had",-7.421876534572174],["dan",-7.422021719487322],["P",-7.429386966238084],["mi",-7.432169572504936],["F",-7.444640914145165],["this",-7.477695931894575],["M",-7.49470091630775],["%",-7.50104442134991],["zo",-7.513917447373299],["D",-7.514710019398606],["his",-7.515625048661883],["3",-7.523280312980328],["out",-7.524663500783296],["ou",-7.525338585711628],["Het",-7.525651342527572],["nog",-7.529023360403221],["‘",-7.530457985528654],["her",-7.537695763612074],["este",-7.54281688936946],["can",-7.546612862353664],["but",-7.556612108652557],["you",-7.576832378290813],[".”",-7.581509463224837],["5",-7.583239358822578],["B",-7.584408473212465],["up",-7.587100286586875],["man",-7.587848327246611],["sus",-7.590091295074243],["door",-7.591143525401344],["ado",-7.595623457090248],["”,",-7.602402616918759],["entre",-7.609251327274947],["x",-7.618622870861143],["va",-7.628705983187899],["co",-7.637341403591632],["wel",-7.637889337518068],["G",-7.638893385169009],["v",-7.6394926454476835],["their",-7.639573781565634],["4",-7.643089140628277],["ant",-7.6534947112789435],["»",-7.658188168026182],["N",-7.665211243410189],["naar",-7.69567548166963],["who",-7.72161446463792],["als",-7.722203598840931],["»,",-7.726450078305545],["all",-7.729737260138526],["dos",-7.735714330486417],["ión",-7.7360967582245],["Il",-7.73674323996018],["heeft",-7.741289096296455],["sont",-7.745878113481748],["j",-7.746305771103939],["O",-7.753622010977901],["We",-7.763976869969891],["per",-7.766041813476306],["ve",-7.776928262529811],["000",-7.782159911757951],["ciones",-7.786857156618575],["dit",-7.791878276242727],["Les",-7.814245552148202],["fue",-7.822991811260616],["K",-7.835881764423888],["they",-7.8374844352372826],["6",-7.841508482920661],["been",-7.844377444939203],["one",-7.849860011696576],["more",-7.852631914665121],["w",-7.85857508160186],["hij",-7.860763820811243],["were",-7.863957519571448],["fait",-7.869001771273904],["if",-7.869744889549322],["meer",-7.87592641300056],["cette",-7.87950529656319],["mais",-7.892996583776625],["elle",-7.8959780312401815],[",”",-7.90664748370199],["kan",-7.913021544272029],["étai",-7.917593564287598],["10",-7.917616206211116],[").",-7.921172577638387],["R",-7.927682546150789],["moet",-7.933776096518562],["hebben",-7.934392009380151],["jaar",-7.952721730450351],["about",-7.952919226279327],["He",-7.954753516384212],["also",-7.958494543505916],["go",-7.962556663146815],["pero",-7.965882651884925],["time",-7.966442557802992],["people",-7.968740581376256],["bien",-7.971543107073687],["mos",-7.973247188179286],["han",-7.981996139399545],["word",-7.982860752462194],["años",-7.992091719409471],["ir",-7.9941338811796765],["tout",-7.9971013637703905],["worden",-7.997805429282396],["esta",-8.003988060708503],["ma",-8.006688044952469],["á",-8.011241332784481],["V",-8.012732313051044],["It",-8.01491259275451],["$",-8.015900789654923],["U",-8.01882021340018],["ci",-8.031499010341614],["7",-8.038078262892578],["No",-8.040861481788],["puis",-8.043514161049057],["8",-8.043626987631999],["even",-8.046226872694977],["wat",-8.049394773481843],["”.",-8.050593524353939],["Je",-8.058484043982622],["être",-8.058514625801893],["which",-8.067434235735288],["On",-8.070363570832743],["leur",-8.073522790622023],["nous",-8.075098722355884],["\",",-8.075780003144498],["Al",-8.0814591909209],["waar",-8.08622644921215],["ex",-8.089409098499686],["ca",-8.091105819343637],["our",-8.092080945097843],["también",-8.093235582786587],["Un",-8.093987860482715],["ón",-8.096189086588513],["está",-8.098819822595411],["J",-8.10554082724028],["like",-8.111338868550808],["tiene",-8.118481679853597],["día",-8.125215427027786],["Dat",-8.126580781469041],["H",-8.127292688523754],["–",-8.127950562941072],["sobre",-8.129919119509596],["ies",-8.130441893903487],["Y",-8.131360541052537],["fin",-8.131595856118425],["year",-8.13420409159335],["…",-8.135807265708586],["deux",-8.13755570346997],["),",-8.141211785289958],["9",-8.142441918077663],["new",-8.150713124532723],["ndo",-8.155906505202198],["able",-8.157081387393243],["would",-8.16459997216781],["Ik",-8.16506911607854],["/",-8.176464564702538],["2022",-8.181518287517875],["lui",-8.185784298606405],["car",-8.189868577825127],["Los",-8.189922145780264],["même",-8.193236771911373],["autre",-8.193863313540385],["comme",-8.206082146718812],["avait",-8.21117097806928],["30",-8.211877896349677],["geen",-8.229205657862071],["place",-8.23054248391358],["other",-8.236747961831204],["Si",-8.239718423903255],[";",-8.24046391486388],["zich",-8.241900009353758],["0",-8.243737728337457],["onder",-8.248298967486617],["vous",-8.24911538618793],["aussi",-8.256026305259388],["ando",-8.260668145002297],["after",-8.261559868574173],["ía",-8.262409429413676],["when",-8.262630531746792],["eux",-8.269434535581278],["ación",-8.279937856773453],["werd",-8.281144532056402],["day",-8.286197727128163],["ba",-8.287099476952603],["just",-8.29166978125115],["ur",-8.294467308730171],["—",-8.29768455848533],["cause",-8.301734387679103],["she",-8.307111577503541],["week",-8.30824037540244],["todo",-8.313731672996445],["part",-8.313985851985116],["kunnen",-8.317467772380013],["th",-8.31981992524327],["puede",-8.326450170904751],["W",-8.328326310312216],["hun",-8.330725130474903],["land",-8.332983748814259],["faire",-8.333913276049788],["mo",-8.33398811274777],["ante",-8.335408438148756],["!",-8.336956820076455],["veel",-8.339513729422107],["ation",-8.339848939330532],["some",-8.3407026589665],["ter",-8.343436606300516],["what",-8.34467479063387],["point",-8.347095797610297],["ré",-8.34766667433026],["gaan",-8.348763052138935],["parte",-8.349804100594316],["2020",-8.350861570446074],["Se",-8.352244142445215],["there",-8.352562978500032],["ans",-8.35622617436087],["daar",-8.356523158889743],["15",-8.361652838870224],["après",-8.362145332478667],["muy",-8.364792552092279],["año",-8.365405197462906],["than",-8.369898695085372],["get",-8.372292058853315],["plan",-8.374759509012158],["now",-8.379334371552535],["17",-8.381911192925266],["país",-8.387021648277312],["».",-8.387995702877202],["16",-8.39035458392728],["ch",-8.394975405696897],["Maar",-8.395137129732843],["gaat",-8.411130696266884],["année",-8.412366039632484],["Re",-8.415428107113405],["public",-8.41637841393251],["mensen",-8.417228073959055],["my",-8.420058717294943],["back",-8.42181963584149],["weer",-8.423171709575449],["avoir",-8.425204754929528],["12",-8.428438609529962],["Por",-8.42846850011258],["hasta",-8.437207179452548],["rès",-8.439543757998543],["first",-8.450960126925246],["tegen",-8.4541501347951],["11",-8.460897206825397],["zou",-8.461564713643734],["án",-8.462537638718143],["ces",-8.463354408517965],["them",-8.465934236142013],["two",-8.465973480229877],["fois",-8.473945932219642],["want",-8.479083387358376],["its",-8.480916514613375],["long",-8.48272220208483],["2021",-8.48363271550911],["nos",-8.483909691367812],["oit",-8.485541172005433],["hay",-8.489588982825843],["him",-8.489939186946597],["million",-8.492492521948087],["18",-8.49364144542917],["how",-8.494169515407567],["contra",-8.500204896709707],["desde",-8.502234085438813],["deze",-8.510628903863331],["moment",-8.515948782877981],["Con",-8.52094259259125],["í",-8.525259599676057],["personas",-8.528945969598631],["13",-8.532037219778005],["24",-8.533192408886691],["tion",-8.535774740484845],["cuando",-8.541414544180599],["contre",-8.54906802685206],["ux",-8.557347349655771],["donde",-8.558390537199996],["auto",-8.559660019500363],["durant",-8.560151867055797],["ga",-8.579533241063377],["state",-8.584271972093802],["Z",-8.584898614693746],["lors",-8.592967982162481],["caso",-8.596811178145959],["This",-8.599641673353752],["pays",-8.600809930209191],["haar",-8.601571845517249],["goed",-8.602052642221704],["14",-8.602320228239703],["temp",-8.60266391305477],["idad",-8.602753883842018],["Pour",-8.604596641344935],["most",-8.605464521520286],["But",-8.610610468043403],["Een",-8.610887821255318],["mis",-8.611156076793002],["jour",-8.611560528399215],["total",-8.611686191034252],["work",-8.616399746900235],["your",-8.61692237346217],["coup",-8.61907920449087],["zelf",-8.622110949455665],["era",-8.623070875419291],["peu",-8.62544318525223],["komen",-8.626374249120508],["could",-8.62775598323589],["toda",-8.628518572322282],["Na",-8.635355941390783],["Lo",-8.635718443522627],["mee",-8.642436256345217],["dijo",-8.645614658928727],["ja",-8.647058330243752],["COVID",-8.650549018001675],["egún",-8.655363296779875],["forma",-8.658358557864037],["ron",-8.658369007217923],["Ma",-8.661455962070377],["ait",-8.665246296111228],["way",-8.667081447189823],["25",-8.668409979177957],["heb",-8.67003677920278],["personne",-8.671360478350774],["près",-8.677531160050373],["vez",-8.677726305122324],["final",-8.677860211221825],["kom",-8.678953539268797],["any",-8.683477902859467],["into",-8.684618499335057],["off",-8.687386595677353],["peut",-8.689512628247428],["50",-8.694960595557555],["make",-8.695373016368166],["last",-8.695981746521111],["take",-8.698393595623365],["pro",-8.698833528043027],["twee",-8.700475107102463],["porque",-8.701039876065678],["hier",-8.701959810336714],["face",-8.703594282937939],["premier",-8.705057853211517],["Mais",-8.705513975787202],["staat",-8.705697261210325],["through",-8.721816799223783],["avant",-8.72248742289764],["social",-8.724355027502753],["Be",-8.726051824380505],["being",-8.734518248667666],["Trump",-8.734627611594657],["dernier",-8.736612680132898],["momento",-8.736827780808923],["ju",-8.738528891720527],["cas",-8.738772585446888],["age",-8.742016502893858],["tiempo",-8.742562715642261],["¿",-8.743061923288813],["andere",-8.747954257983634],["iendo",-8.749835535981221],["San",-8.750995737187273],["police",-8.751351978222484],["Van",-8.75183319420014],["tijd",-8.755458395508573],["ico",-8.757845993343956],["toute",-8.758083799635358],["during",-8.758792440905566],["use",-8.76064467034346],["galement",-8.761995083287736],["mal",-8.763357669714694],["men",-8.764187352857455],["solo",-8.76438489662845],["Er",-8.766489575141588],["home",-8.768846761846154],["había",-8.768874237839142],["ù",-8.773497951896918],["ido",-8.773923624261794],["vi",-8.77437899819272],["doen",-8.777388972123301],["where",-8.785140278113747],["pre",-8.788988858753761],["coronavirus",-8.78911326472021],["tot",-8.790591116938266],["millones",-8.792744709193759],["base",-8.794712161887349],["media",-8.796424667860663],["quien",-8.796640656875628],["well",-8.79852112976917],["hacer",-8.801573284964743],["nombre",-8.804152602184296],["real",-8.805440106518908],["Et",-8.805768826908217],["vol",-8.806866355903814],["maken",-8.806985291226393],["team",-8.807687949901808],["weg",-8.807896828476798],["krijg",-8.809152176747038],["down",-8.815316665889146],["high",-8.81734901122396],["todos",-8.819472194747831],["Une",-8.820125832846138],["New",-8.826092196689446],["pa",-8.826230081993662],["cada",-8.826987122308726],["don",-8.83125338199651],["nieuwe",-8.832084865201837],["gran",-8.834100963302244],["bi",-8.834942322469153],["sera",-8.835570706816526],["going",-8.835572384879203],["ig",-8.835936734663573],["every",-8.837405568986629],["government",-8.840676185728373],["monde",-8.845782456135037],["club",-8.846583598308804],["many",-8.849638578456526],["And",-8.850950365149979],["tras",-8.852099976389974],["président",-8.85231378583431],["zal",-8.854364538268879],["film",-8.856076525710876],["Me",-8.856192111590184],["100",-8.857256254968965],["alle",-8.85752292761569],["antes",-8.859846214550934],["under",-8.86366665328172],["mayor",-8.864382147932215],["moin",-8.864592690213069],["whil",-8.864725510114042],["están",-8.865713233873567],["vida",-8.866110307576024],["cuenta",-8.867253748227652],["ville",-8.867287203021132],["thos",-8.8687225889691],["40",-8.869223385207658],["equipo",-8.872001142474021],["before",-8.872240764386863],["Estado",-8.873724025091125],["Co",-8.87399988494272],["aire",-8.874759403940342],["Su",-8.875788821325663],["So",-8.876549998400913],["help",-8.876990522014045],["première",-8.877057521043579],["tres",-8.878249947225125],["nuevo",-8.879920415523856],["za",-8.880010966475432],["tra",-8.88116298573128],["need",-8.881460415541273],["emos",-8.882117916667049],["partido",-8.882517314909386],["Op",-8.882520796111924],["France",-8.885272206606162],["sans",-8.885580953437406],["encor",-8.88572618423636],["question",-8.889400758717457],["21",-8.892961843858764],["Ze",-8.897277461945814],["vind",-8.902954277950077],["tous",-8.903390729343915],["hace",-8.90429379528116],["mon",-8.905043204971047],["mismo",-8.906390752751221],["vers",-8.907450697008489],["toch",-8.908565685459607],["start",-8.911298297391369],["00",-8.911796368705286],["lopen",-8.912087048092808],["mijn",-8.9124319132582],["years",-8.913005191346505],["hi",-8.913567920230884],["euro",-8.914037934514104],["primera",-8.915116441898743],["hoe",-8.91559801191381],["wil",-8.918166814591228],["semana",-8.919961579632078],["health",-8.923248263496685],["Mo",-8.931402426220886],["should",-8.937183669249391],["local",-8.938947676843725],["test",-8.9402990391558],["volgen",-8.940740143636276],["euros",-8.941636810639496],["sido",-8.944986547979084],["22",-8.94528521905384],["bo",-8.946756405756748],["mer",-8.947554104099511],["still",-8.950265332759667],["know",-8.950725513783421],["otros",-8.951921559833329],["vie",-8.954488537700918],["force",-8.955666657207608],["importante",-8.95602961198609],["ken",-8.957271550364442],["mois",-8.95763089715768],["mar",-8.957864283366142],["ministre",-8.958893143497413],["X",-8.960526710185857],["continue",-8.962746227128623],["tant",-8.963396548549984],["thing",-8.965014733864809],["hand",-8.965204907494538],["dont",-8.966842541321927],["embre",-8.96989670954542],["presidente",-8.9704862646886],["medio",-8.970836707263313],["agains",-8.97233131970749],["así",-8.973062470273872],["heel",-8.975697586780804],["She",-8.977530799672902],["Nous",-8.978977905864719],["nouvelle",-8.979753134400976],["certain",-8.985399792047033],["último",-8.98596467452294],["después",-8.986202080391557],["qué",-8.986622551950175],["po",-8.987671138900147],["lugar",-8.98861088001243],["zegt",-8.98972888074595],["ic",-8.990279159460087],["déjà",-8.990672077368373],["nueva",-8.994542953282625],["nouveau",-8.995046602819905],["ría",-8.995539255771398],["eerste",-8.99611278436302],["mil",-8.996120435244144],["Sa",-8.996240948193762],["ici",-8.99746304687347],["hem",-8.997739964106216],["best",-9.000271565314595],["pasado",-9.000500814679452],["Zo",-9.002452384857264],["zien",-9.002669657061006],["Ook",-9.003031232391553],["Au",-9.003918414274484],["look",-9.004440933506908],["Dans",-9.007208674116523],["Hij",-9.008451152368895],["via",-9.008674493677338],["ement",-9.011286704231766],["pu",-9.014505391842636],["Als",-9.017035896154658],["Die",-9.017299427429107],["ujour",-9.017318147897864],["Daar",-9.018157417544426],["adas",-9.01944930276916],["leurs",-9.020488241225896],["quelque",-9.021077519946202],["ça",-9.021519126643286],["200",-9.023885274658314],["té",-9.027538506625774],["será",-9.02811165519186],["grand",-9.029661977337632],["trois",-9.029796067447108],["three",-9.031370569533234],["mejor",-9.031697286290143],["che",-9.032616218610734],["com",-9.033657024803894],["may",-9.03529362380613],["hele",-9.035842247676968],["tanto",-9.039605156221239],["sector",-9.040088389275308],["iets",-9.040333608704788],["tussen",-9.041229029314861],["donc",-9.042601519301051],["heid",-9.04806982401349],["school",-9.049382763705779],["dag",-9.049866441889371],["lot",-9.04987431272031],["support",-9.05151222793108],["Nederland",-9.05260674098525],["game",-9.055045725984284],["old",-9.057199980457732],["Ver",-9.058049421614875],["sous",-9.059727968946046],["second",-9.059926407019585],["echt",-9.0602993616607],["ger",-9.060401750778743],["Ademá",-9.061919805283448],["come",-9.062088803366906],["To",-9.06454358884448],["amos",-9.065363335720074],["For",-9.06715407516143],["virus",-9.06786188755025],["made",-9.068528054062782],["plusieur",-9.071129538961909],["voir",-9.071667056979503],["uur",-9.072371153203333],["match",-9.075549240518047],["hecho",-9.076936226250059],["trabajo",-9.077470550227723],["Mi",-9.079296398679109],["grote",-9.08010304653746],["water",-9.081016683756829],["entras",-9.082604232479056],["line",-9.083095279346374],["ive",-9.085208134969442],["tener",-9.086154448447726],["alleen",-9.086553564610599],["semaine",-9.087420951728031],["otro",-9.089958998376026],["ven",-9.090003031879938],["Esta",-9.090228127347169],["very",-9.09050017181999],["dernière",-9.091598438556584],["situation",-9.091798687167403],["ainsi",-9.092119006220159],["23",-9.093814498294604],["Elle",-9.094098214961798],["gas",-9.095893312803586],["good",-9.096136489705284],["change",-9.096460965485402],["country",-9.09800064276553],["sociale",-9.1008660890682],["vent",-9.102748617702247],["much",-9.105029492945679],["post",-9.105942929147005],["ij",-9.106460791137875],["bon",-9.10776196861608],["heure",-9.107792974301967],["alors",-9.111519204923946],["À",-9.111619747774323],["homme",-9.115349704381444],["afge",-9.115697525997795],["menos",-9.116657074808721],["right",-9.117371515132316],["suite",-9.117446954280663],["Pero",-9.11837142124098],["Par",-9.11905575112842],["leven",-9.119457444990218],["ever",-9.1196926428348],["ité",-9.119748689556632],["issue",-9.12222289308214],["Para",-9.122469309219742],["projet",-9.122560120113532],["aron",-9.124124142666094],["Europe",-9.12660556238583],["hui",-9.127482068507769],["pandemic",-9.12763808925148],["uego",-9.12929821525544],["26",-9.13217636659773],["familia",-9.133690854269073],["empresa",-9.134569865514901],["tan",-9.134977160341865],["put",-9.135651067974429],["punto",-9.138308308158893],["actual",-9.138530275437528],["number",-9.140193127546786],["show",-9.140268874034119],["selon",-9.140900431683551],["Di",-9.141004375374951],["did",-9.141271134804484],["chez",-9.14327920012719],["nada",-9.143908044632733],["important",-9.144055812893928],["calle",-9.144191800216973],["horas",-9.145589337133005],["open",-9.146371499346852],["hard",-9.147035194720122],["procent",-9.147810827526929],["27",-9.148592437725224],["Du",-9.148701849009068],["cases",-9.149271409745747],["ging",-9.149506237658887],["anti",-9.150011666126057],["service",-9.150351847244725],["business",-9.150654184528477],["think",-9.152078179239746],["play",-9.153251931468962],["information",-9.154676457490392],["side",-9.155351543426594],["terug",-9.156168987331444],["app",-9.156888791011228],["ahora",-9.158710855146364],["mucho",-9.158872923887255],["Covid",-9.160469246404631],["China",-9.165671786686787],["Este",-9.165766222070777],["around",-9.16657802879866],["says",-9.167183782533101],["season",-9.167888326762784],["There",-9.169332638674918],["US",-9.169487153092819],["équipe",-9.170796902331725],["life",-9.171136130473172],["ciudad",-9.171196883894822],["primer",-9.17123600155438],["video",-9.17291809186959],["report",-9.172947956018383],["ben",-9.17314510604989],["Dan",-9.178294369420769],["mogelijk",-9.18022984240358],["Mar",-9.180411687259692],["début",-9.180576503590096],["aba",-9.181471710586314],["60",-9.182767246260422],["Ukraine",-9.183480072361657],["acuerdo",-9.185034349501628],["bar",-9.186706312528134],["beau",-9.187831824306027],["politique",-9.188160216038938],["since",-9.188962806629059],["28",-9.192434871312678],["Ha",-9.193920268701598],["world",-9.195204210862784],["manera",-9.195926307690893],["If",-9.197017476813583],["these",-9.1972232712518],["val",-9.19899862188446],["mes",-9.201047795286286],["personal",-9.204234873037697],["site",-9.20425170696068],["mundo",-9.204728789391474],["ils",-9.207228062668477],["Sin",-9.207804476716907],["gouvernement",-9.208810283523956],["general",-9.209348774848975],["&",-9.211817252603163],["national",-9.21341238725757],["estos",-9.213837996293348],["keer",-9.214753703628713],["possible",-9.21476949210788],["ally",-9.215448471936709],["close",-9.217319502434904],["finale",-9.217446252004326],["Pro",-9.217755226191708],["head",-9.217814414073974],["estado",-9.220816459389734],["such",-9.227820615675855],["jusqu",-9.228500603050172],["embargo",-9.22872590693],["kun",-9.229107514722543],["Cett",-9.230301718206903],["cent",-9.231588984511841],["situa",-9.233421972678016],["fi",-9.236934122154803],["self",-9.238474813765052],["plaats",-9.239262512913577],["empre",-9.239542295343316],["kwam",-9.240164152552055],["company",-9.240164245514588],["rond",-9.241237127093878],["houden",-9.241494131628121],["él",-9.24189300910202],["red",-9.242701340141938],["lang",-9.245723286345992],["500",-9.246381346297156],["achter",-9.246394021552995],["tuvo",-9.24646114927663],["That",-9.24868758167992],["later",-9.248788935306269],["gobierno",-9.249235341006424],["estaba",-9.24945362591637],["result",-9.251802094431373],["air",-9.25229612253219],["gen",-9.25242814330816],["Gobierno",-9.252556108049118],["vo",-9.253055593886824],["especial",-9.253738887297295],["fuero",-9.254069564003952],["communit",-9.25486413967274],["zona",-9.25523004642408],["lieu",-9.25529179264441],["mag",-9.256452287465429],["ban",-9.258295637330704],["algo",-9.263586273365878],["eigen",-9.264054678146577],["altijd",-9.26576089398792],["president",-9.267927879786097],["proyecto",-9.270674605370719],["huis",-9.271182395355172],["Met",-9.27404450114225],["femme",-9.274416192416432],["État",-9.275269709590265],["binnen",-9.277258584165953],["pen",-9.277341090893504],["family",-9.277821306815538],["servicio",-9.278680443018782],["Ar",-9.279456873977411],["gewoon",-9.279864540625288],["impact",-9.281372141978224],["St",-9.281911423518741],["nuestro",-9.283809022109192],["came",-9.28417570541351],["hoy",-9.285798137121962],["main",-9.287437928457281],["groupe",-9.28764842486737],["record",-9.28772045649776],["geld",-9.28866054288094],["own",-9.290662964442145],["werk",-9.29136693927127],["niveau",-9.292894611761444],["hospital",-9.292984823460575],["Dit",-9.294874631840866],["estar",-9.297726139079144],["waren",-9.298413196002263],["staan",-9.29994299872169],["ées",-9.300134348735385],["low",-9.300618740918933],["including",-9.301121535082721],["faut",-9.301329386219624],["far",-9.305147757767182],["next",-9.308151705844331],["Car",-9.308305057535408],["tie",-9.309049682840238],["partir",-9.309610060282623],["extra",-9.310416672956947],["Ja",-9.310945104296636],["cha",-9.312133192924728],["care",-9.31340788768987],["Twitter",-9.313416099245732],["sol",-9.31786047049722],["You",-9.317889904332798],["laten",-9.318652010534889],["2023",-9.318695969722008],["aient",-9.319096013908368],["80",-9.321616495670904],["rapport",-9.32174679080483],["group",-9.322013364801403],["Man",-9.325010649082648],["contact",-9.325212413345186],["29",-9.32587412482765],["recent",-9.326508037926189],["cours",-9.327736552096358],["venir",-9.327937975936397],["ity",-9.329641256748676],["minder",-9.330022562403535],["grupo",-9.332171387621296],["person",-9.335630073392785],["entreprise",-9.336286693278733],["vier",-9.337498084811228],["notamment",-9.337688932848657],["crisis",-9.340430474537772],["política",-9.341194178397686],["porte",-9.341679102378517],["ready",-9.347221347684819],["grande",-9.347947642363614],["partie",-9.348194224224539],["avai",-9.350628812909463],["inter",-9.350868512966734],["win",-9.351083393565695],["control",-9.351141991435366],["Ro",-9.351525505203153],["ki",-9.351699537610225],["poco",-9.351812753191311],["got",-9.352788771595687],["2018",-9.352844123483088],["poder",-9.353508588926395],["70",-9.353725611706663],["mij",-9.354237775413035],["Voor",-9.35477391276928],["drie",-9.35561922318777],["Nacional",-9.35583981710354],["ck",-9.358609389418008],["steed",-9.3587248182931],["tri",-9.359891152483534],["ôt",-9.360021688173894],["keep",-9.360937730069143],["super",-9.362484371741218],["Bo",-9.362528392077662],["rix",-9.362864608591059],["student",-9.363211985797708],["tipo",-9.36325055489499],["zoal",-9.364026166492863],["bu",-9.364322019380154],["casa",-9.364818071365054],["rá",-9.364864716161367],["wa",-9.366371887961815],["travé",-9.3670435858179],["say",-9.368390116623473],["centre",-9.370215152031795],["onze",-9.371707758418312],["tijden",-9.37283465519831],["both",-9.37457476466753],["same",-9.374726248124812],["Mr",-9.37603151481228],["dio",-9.377038136667952],["35",-9.378524485241652],["between",-9.379207925739001],["court",-9.380255663261554],["politie",-9.38249913526557],["ú",-9.383582123331784],["Wat",-9.38359432139427],["ho",-9.383836036387047],["won",-9.385092721375214],["Biden",-9.385178144226533],["Dr",-9.385475948526693],["told",-9.38552701374588],["live",-9.385562365316925],["pris",-9.39191553317277],["zij",-9.392644945401477],["maal",-9.393317799660222],["President",-9.39370799301167],["jeu",-9.394492152954903],["large",-9.39614367822756],["direct",-9.396183442213786],["podría",-9.396346045143867],["cual",-9.397459616385717],["current",-9.39774384664707],["Q",-9.399696481066405],["gar",-9.401587394527365],["action",-9.402005124601075],["Esto",-9.40682917693281],["ello",-9.406982038562072],["hombre",-9.409086189672031],["compte",-9.409435315762712],["ambién",-9.410603438349998],["services",-9.410612746986335],["problema",-9.414918052950272],["cho",-9.415203098498438],["droit",-9.415729654399787],["otra",-9.417587373004459],["dar",-9.418227667327205],["tien",-9.41870251060665],["problem",-9.421363727493077],["chef",-9.422180788224278],["great",-9.422291542514039],["saison",-9.424051569119197],["Or",-9.424698535132688],["Vi",-9.427138785436473],["travail",-9.427624526757445],["four",-9.42926939270613],["gan",-9.429938696336876],["vote",-9.431424374473327],["six",-9.432634569477834],["wereld",-9.434422402596834],["nother",-9.434518615411152],["Ri",-9.435356955894466],["autoridad",-9.436536030141262],["haber",-9.43684287424724],["déclaré",-9.437460032067593],["€",-9.439460718694168],["31",-9.439769537221215],["chose",-9.440857890499405],["Ben",-9.44358582373038],["côté",-9.44449152316534],["call",-9.444706931508968],["alguno",-9.445540853070531],["vrai",-9.446760722084186],["Saint",-9.4467899421482],["cul",-9.44905718875065],["York",-9.449554983512087],["charge",-9.449952491844886],["eront",-9.450447912674857],["effet",-9.450670120047336],["medida",-9.45070412453924],["seguridad",-9.453494762603597],["director",-9.453764465638555],["lado",-9.454107002234284],["Sur",-9.454691700218708],["Ga",-9.457054769414555],["onderzoek",-9.458217427414372],["rio",-9.459429683588935],["ooit",-9.45955208965517],["ida",-9.459931362926852],["avon",-9.460518718313507],["top",-9.461837098514138],["inform",-9.462056171128424],["each",-9.462265236312303],["few",-9.46238701201284],["Méx",-9.462904182074112],["condition",-9.466945761338687],["minister",-9.467648633500378],["vast",-9.467879663808885],["pré",-9.468983412392173],["Europa",-9.468985638068293],["sub",-9.469349973142059],["Una",-9.469736172529913],["ier",-9.470502739876967],["jaren",-9.470791588487188],["mucha",-9.471536741111784],["Po",-9.473958270013815],["stad",-9.474026158631936],["cambio",-9.474087124684527],["agua",-9.475235869020025],["Friday",-9.476264404127463],["informa",-9.476586639422816],["laatste",-9.476748938547253],["meses",-9.47889948773815],["coming",-9.47900116220487],["tour",-9.479613771852799],["vu",-9.480601439293022],["Bij",-9.481074842456517],["nuestra",-9.481434400504105],["system",-9.483781259331288],["ko",-9.483799871102484],["pendant",-9.485137576635633],["kinder",-9.488507282138823],["actividad",-9.489875616066396],["bajo",-9.491831366680714],["ailleur",-9.492782205932755],["name",-9.494903515905296],["Ko",-9.495171682290778],["proceso",-9.49709624418794],["night",-9.498199405128442],["historia",-9.498513773926874],["reg",-9.49950339681087],["State",-9.501127773341782],["ster",-9.50156396063958],["Oekraïne",-9.50159499898991],["nodig",-9.501696921303822],["nivel",-9.50175882691528],["última",-9.503101049945153],["provide",-9.503109141622698],["España",-9.503636650633688],["case",-9.504475588776772],["famille",-9.505777556676922],["90",-9.506383183339231],["geven",-9.508211899625834],["love",-9.508450507585568],["light",-9.508713309132258],["American",-9.508938335019426],["één",-9.510730339327932],["programa",-9.51103488109872],["ista",-9.512496150803765],["mort",-9.513220926065422],["comment",-9.514109900751276],["celle",-9.514219826992253],["term",-9.51440236709486],["though",-9.51508887838185],["different",-9.515496677291427],["capital",-9.515519980953039],["found",-9.515738579545587],["région",-9.516161779218663],["election",-9.517654966330133],["willen",-9.520364078023466],["jamai",-9.521992920282614],["centro",-9.52235076948454],["gre",-9.522997200766868],["rez",-9.523945279556582],["vía",-9.525096862292049],["seule",-9.525419365341653],["ès",-9.52627669797835],["Rusland",-9.527478309975423],["junto",-9.527617665537093],["tenía",-9.52842566046874],["joueur",-9.52878654203203],["rien",-9.530953729847209],["Go",-9.532126206124655],["jeudi",-9.53410153648747],["pouvoir",-9.534106324015557],["gra",-9.534516563004221],["weten",-9.535107252835648],["45",-9.535110302861547],["cosa",-9.535215718260199],["gebruik",-9.536684319162774],["pourrai",-9.536926886635664],["blijven",-9.537380457168721],["bus",-9.538237261401036],["half",-9.53873214930953],["month",-9.538982497142854],["nieuw",-9.539363184529666],["eerder",-9.5406050908025],["gente",-9.54333138463113],["stand",-9.544483711978682],["city",-9.54703193212891],["eron",-9.547464310996482],["russe",-9.54753888394428],["ring",-9.54855656238092],["Volgen",-9.548775820048853],["Ka",-9.54882622409946],["trata",-9.549038833988774],["aurai",-9.549136552478945],["online",-9.549893532367989],["nemen",-9.551821754286125],["mercredi",-9.551908996001137],["TV",-9.55195439678008],["principal",-9.552080878973413],["Russisch",-9.552757176906155],["hit",-9.552792709578942],["Son",-9.555121425215724],["otras",-9.555612366874637],["annoncé",-9.556396411249846],["dimanche",-9.556888497047645],["mesure",-9.556897700039995],["bedrijf",-9.557572476147348],["weet",-9.55764886914476],["wij",-9.558666790641084],["vis",-9.559366846888457],["unos",-9.560717657567501],["cuatro",-9.560845269962918],["persona",-9.560884702983113],["atie",-9.561597029277895],["mardi",-9.562085899971652],["lundi",-9.563122157396771],["cre",-9.56379012744059],["include",-9.56386084241868],["hizo",-9.564773510997558],["bank",-9.565074811058548],["Selo",-9.566918679840743],["alguna",-9.567736407037689],["pri",-9.568105999777721],["Ju",-9.569012542425334],["ió",-9.569083733620836],["verder",-9.569457906998624],["vendredi",-9.569927233186224],["produit",-9.569962363610102],["salud",-9.570104595956288],["decision",-9.570320233739082],["Russi",-9.570727104066396],["full",-9.570877514005431],["cómo",-9.572018896566805],["project",-9.572078525803196],["snel",-9.57248214800032],["near",-9.574419053846416],["fall",-9.574716274927901],["investiga",-9.575420286660682],["give",-9.577232998494452],["market",-9.577418785608785],["dire",-9.580049091943685],["eur",-9.58043406016629],["zit",-9.580725072693212],["Unidos",-9.580752950323362],["rest",-9.581377046492626],["zonder",-9.582200447940664],["order",-9.582625726219376],["position",-9.58337676416104],["West",-9.584492041791286],["cut",-9.585032590887003],["oficial",-9.58508613646892],["nacional",-9.585835029332824],["voorbeeld",-9.586561963360326],["population",-9.589531448733956],["aciones",-9.589624715252995],["used",-9.590149991068898],["parent",-9.590419347544028],["reported",-9.59069932362208],["pan",-9.591181646203664],["sigue",-9.591283639581707],["ullen",-9.59135416881823],["course",-9.59154284262371],["groot",-9.592593757434159],["â",-9.593136682425847],["brand",-9.593901059103139],["esto",-9.594675310954582],["across",-9.594764075763239],["raison",-9.595044281180858],["mettre",-9.595072947904717],["Do",-9.595258825221821],["ncia",-9.596144238765199],["resultado",-9.596634777702233],["licht",-9.598055571437683],["ard",-9.59807278932507],["vient",-9.599336666657006],["señal",-9.599862705566872],["quand",-9.601088962593082],["Ucrania",-9.601243977621577],["parti",-9.602134922976141],["When",-9.604088561367181],["série",-9.604452347964118],["kind",-9.6046157117495],["min",-9.605237295112534],["tic",-9.605507950380165],["fans",-9.605837630171266],["trop",-9.606619005274247],["process",-9.607032868624783],["maakt",-9.608514482101915],["Mon",-9.60856171772833],["unque",-9.608798611426081],["gemaakt",-9.608830125552988],["chi",-9.610148442956298],["aantal",-9.610951599966793],["jó",-9.612571715206848],["posible",-9.61311354817945],["Nu",-9.614884885146555],["concern",-9.617029687830975],["zone",-9.6172577861075],["remain",-9.617787141697864],["frente",-9.618490362722925],["Bu",-9.618834657026696],["March",-9.618965577729515],["source",-9.619797578728257],["present",-9.621447867695064],["leg",-9.621739959245973],["May",-9.621851430537877],["Of",-9.622273442011311],["guerre",-9.623231138846993],["werken",-9.623596933789461],["próximo",-9.62389094201642],["arse",-9.624994713392297],["tar",-9.625349239539752],["ance",-9.625427907000137],["big",-9.625994487180684],["casi",-9.626368134609741],["vooral",-9.62661263572842],["samedi",-9.626811944858039],["Per",-9.626908349321901],["reste",-9.62711585331019],["adde",-9.627778497491562],["cela",-9.628670540976373],["quatre",-9.62874720103052],["Bar",-9.629713791150557],["endo",-9.63005362060461],["foto",-9.630909446907346],["decir",-9.632228315281953],["aller",-9.632718248156747],["sino",-9.632899237818322],["ran",-9.635222601589764],["laat",-9.635320809836294],["bal",-9.636179232538908],["share",-9.637101425696832],["derecho",-9.637331080845982],["working",-9.638300275634254],["amente",-9.638734701912444],["llegar",-9.639069941433634],["jarige",-9.64095906347082],["ble",-9.641034205691124],["Pi",-9.642152389087418],["sport",-9.64279285470538],["bonne",-9.643793144997282],["pay",-9.643889603134792],["sión",-9.644803227083056],["event",-9.645599253314268],["hour",-9.645600461495746],["occasion",-9.645829718414731],["Jean",-9.645918964301522],["suis",-9.646802780979364],["número",-9.647062727537854],["energie",-9.648602401729628],["prendre",-9.648797718386461],["erg",-9.64906940646264],["encuentra",-9.649533459435283],["left",-9.649724581592052],["expert",-9.650523836378415],["stock",-9.650599844588575],["dólar",-9.651203976237612],["receive",-9.652514599722346],["Apple",-9.652662829782512],["war",-9.652805938033868],["zeker",-9.654798868339025],["production",-9.654909537866121],["aria",-9.655150754348034],["ley",-9.65540375001696],["militaire",-9.65552571508591],["bekend",-9.657205278673736],["Ya",-9.657313124113003],["image",-9.658399546047491],["tro",-9.658698917426698],["price",-9.658798432101413],["uso",-9.658873468034344],["zitten",-9.660004604122545],["ín",-9.660007247403453],["misma",-9.660364622077513],["grandes",-9.661445358281261],["ag",-9.66238759359116],["body",-9.663226145574455],["sistema",-9.663751852653768],["power",-9.66381012001916],["Ho",-9.664843308326398],["oorlog",-9.665747295904204],["level",-9.665860923383985],["nation",-9.666361780934011],["National",-9.666542831951581],["niño",-9.666723333671154],["effort",-9.667027598651277],["objetivo",-9.668260997888119],["rol",-9.668387123292657],["histoire",-9.669525709407477],["according",-9.669675517773808],["never",-9.670302224126054],["former",-9.67058866243487],["chance",-9.671278713719733],["City",-9.671848338700311],["cualquier",-9.67216596854943],["All",-9.672314444959309],["South",-9.673023228992879],["segundo",-9.673315608545586],["United",-9.673366727194866],["Ex",-9.6768281460708],["mean",-9.677480111369588],["hora",-9.67788026057603],["devant",-9.678053754364992],["art",-9.67840288424371],["wh",-9.678616878649361],["ancien",-9.68207649025609],["law",-9.682749354970195],["entro",-9.683113601045996],["ated",-9.68336889387855],["star",-9.684367883139712],["Om",-9.684872747481588],["eerd",-9.68504315570075],["return",-9.686295054888465],["talk",-9.687061350244798],["gemeente",-9.68735964151961],["muchos",-9.688091392181377],["avond",-9.688151148312373],["vrij",-9.689341372926659],["somme",-9.689558816238112],["beter",-9.689727822216318],["area",-9.690374466412266],["statement",-9.69221190808869],["Nederlands",-9.692739836331203],["positive",-9.692840109321981],["something",-9.69300517548911],["noche",-9.693055664798404],["serie",-9.69312206220668],["Québec",-9.693790864052325],["Monday",-9.695377016090994],["samen",-9.696699964091477],["petit",-9.697027012718285],["cet",-9.697110388514256],["dig",-9.699338113214214],["nationale",-9.699418296399546],["devrai",-9.69984903718458],["ish",-9.700293427919327],["zorg",-9.700940731831533],["primero",-9.701639340617344],["kon",-9.701665775486575],["jeune",-9.701719853165013],["berg",-9.703211156218215],["deuxième",-9.704241991882512],["notr",-9.704276288268868],["fire",-9.704562515275875],["marché",-9.704677526020234],["mise",-9.704711105427712],["elkaar",-9.705707182844819],["house",-9.706516484233923],["quiere",-9.708953480960757],["haci",-9.709246815872211],["enfants",-9.709678605644982],["anders",-9.71036936219381],["minuto",-9.710405576346565],["believe",-9.710914959925987],["miento",-9.712226924698223],["zeggen",-9.71344561318487],["better",-9.713622848088736],["quarter",-9.71436564243432],["tur",-9.714799979853034],["Hoe",-9.715059169249923],["ismo",-9.71611775727166],["cap",-9.716145519374821],["front",-9.716882227216155],["cher",-9.717156020048883],["bio",-9.717660699896328],["feel",-9.71767233147877],["aten",-9.71925477467654],["fuera",-9.720806371394424],["Chine",-9.720827339938527],["sí",-9.720901688552154],["until",-9.721809125919204],["free",-9.722220633690695],["away",-9.723117833716078],["ras",-9.723416012444805],["jugador",-9.723549730948365],["Así",-9.72387840912598],["Cha",-9.724046217394278],["must",-9.725563468864138],["votr",-9.72674206799168],["sécurité",-9.72708009845285],["valor",-9.727846182925335],["vec",-9.728662965437902],["respect",-9.72887488507181],["What",-9.729471040591502],["fer",-9.72949567984828],["soir",-9.731777099980972],["miljoen",-9.732349013297341],["route",-9.732421124461471],["rie",-9.73270425017609],["Paul",-9.733325198944643],["cargo",-9.73584169646578],["Jo",-9.736071929914134],["arly",-9.736284684838772],["begin",-9.737091032360848],["went",-9.73735840304477],["Rusia",-9.73741142968462],["directeur",-9.737694312795327],["lunes",-9.737936921394144],["act",-9.73907395398491],["ros",-9.740751132294125],["children",-9.74149400732123],["appel",-9.74188228118911],["rate",-9.742787359770762],["viern",-9.74302180584856],["With",-9.743734617198168],["hoofd",-9.744325922091365],["vario",-9.744514211507608],["might",-9.74689272274158],["idea",-9.747376293142608],["does",-9.747424067145591],["vehículo",-9.748250693631267],["mont",-9.748834390543763],["produc",-9.74895017642568],["risk",-9.750480549941756],["inclus",-9.751943471299152],["75",-9.752545143023317],["Pas",-9.752599982524217],["didn",-9.754475322498095],["normal",-9.754522061348162],["ago",-9.754614983017408],["afin",-9.754845049304706],["mercado",-9.75505264661982],["cinco",-9.755830322902444],["happen",-9.756143195702148],["iedere",-9.756466728695884],["here",-9.757310217935402],["tendrá",-9.75841415673474],["vraag",-9.758430567878722],["público",-9.759998699513876],["demande",-9.760009771663093],["months",-9.760102040699802],["ette",-9.760106206731155],["future",-9.76146849046455],["ière",-9.761532812349934],["things",-9.762959929478233],["five",-9.76306499326111],["lijk",-9.763232990262],["increase",-9.764777412548582],["tell",-9.765705590625547],["mujer",-9.766713496562325],["indic",-9.766895717978235],["mujeres",-9.76699279373593],["aujourd",-9.767192114158519],["cor",-9.768251647285684],["train",-9.76889277424965],["etting",-9.769027316334688],["County",-9.769531583237374],["sch",-9.76959467724333],["Val",-9.770880694096107],["contract",-9.77213288398707],["transport",-9.772156227503782],["fil",-9.772453833908811],["expres",-9.772483505795476],["gek",-9.773280191447586],["producto",-9.77363758129394],["ciento",-9.775379083450819],["Canada",-9.77557627766205],["EU",-9.775602264332367],["dad",-9.7758534992889],["espera",-9.7772508988742],["réseau",-9.778240994059317],["sentido",-9.778975051761467],["hijo",-9.779341406702015],["Jan",-9.779401669521885],["+",-9.779767599919797],["continu",-9.780174037856675],["Plus",-9.780175198191104],["making",-9.780414140480978],["baar",-9.780995198080646],["Zij",-9.782734147569396],["rij",-9.782766142170832],["corona",-9.783648583161579],["tard",-9.784304257785848],["ellos",-9.784311575077451],["alway",-9.78490221191177],["staff",-9.785046133549196],["global",-9.785452983939763],["affaire",-9.785706754817028],["mañana",-9.785807466292322],["Col",-9.786251109892024],["redes",-9.78656472395676],["É",-9.786590931429508],["food",-9.787248213062462],["boven",-9.788888553629768],["cri",-9.789425675238222],["ient",-9.78980066365585],["cost",-9.789906386442151],["David",-9.790142713896271],["Black",-9.790290634560467],["ña",-9.790540840764713],["sábado",-9.79149338405037],["doet",-9.79154227839405],["vrouw",-9.792140890138532],["Cu",-9.792576219515226],["Health",-9.792924895008323],["rue",-9.793039017924915],["seguir",-9.793262533661796],["bra",-9.79370273872577],["field",-9.794708838549912],["officer",-9.794994419820293],["lie",-9.795516510469575],["stay",-9.795952501754114],["amiento",-9.796116976030582],["allow",-9.796177390739034],["minutes",-9.796259598331677],["Whil",-9.796270373444669],["Entre",-9.796403733458373],["dice",-9.796863409231747],["eves",-9.797906457969571],["juego",-9.797984667612015],["spread",-9.798196121776002],["members",-9.798552921060184],["ham",-9.798713733267508],["alta",-9.800048518396352],["Sch",-9.800629506313134],["Thursday",-9.801521870508875],["imp",-9.802151260107383],["cerca",-9.80222973664744],["agit",-9.802300394959872],["blijft",-9.802999768421788],["ario",-9.804157841540132],["alles",-9.805217268006412],["realizar",-9.806103887198056],["document",-9.806440376902774],["become",-9.807119352930766],["allemaa",-9.808829886870303],["falta",-9.809372289039047],["aún",-9.809779980642887],["Etat",-9.810010007431165],["víctima",-9.810198706313209],["Ces",-9.811766340467974],["international",-9.811825956167286],["semble",-9.813891671565393],["incident",-9.813964852425261],["pic",-9.815031302343858],["Her",-9.815268340624083],["accord",-9.815847141884962],["genera",-9.815894746615257],["varia",-9.81633548194631],["veces",-9.81653659772665],["John",-9.817710168932923],["race",-9.81822895177754],["Argentina",-9.818428996765668],["past",-9.819138662454844],["pueda",-9.82136230868689],["office",-9.821446425823709],["Howe",-9.82171106703641],["hoor",-9.821795614990597],["chaque",-9.822167002618013],["woning",-9.822610580301083],["32",-9.823857400301549],["ria",-9.824637164559132],["Hay",-9.824747515022693],["Sunday",-9.824929913576876],["period",-9.826295936445277],["General",-9.826328496109351],["gue",-9.826362037109003],["domingo",-9.826440349194879],["bri",-9.827524689864717],["again",-9.827974712359676],["bas",-9.828243550638827],["vaak",-9.828563707716334],["quoi",-9.828765559923205],["marca",-9.829174765399575],["lijkt",-9.829872562205956],["mai",-9.83070866980935],["aura",-9.830735732425136],["Madrid",-9.830743006247182],["paar",-9.831604395169283],["turn",-9.832117207159916],["Tuesday",-9.832226448841862],["bit",-9.832285575002636],["fund",-9.832355661900667],["basis",-9.832555338032623],["risque",-9.834694942958006],["%.",-9.835166987976248],["pandemia",-9.836691038794283],["money",-9.837576220881395],["puesto",-9.838186749885907],["edad",-9.838552471748383],["zetten",-9.838726309394833],["version",-9.838895022564369],["message",-9.839717586388662],["encuentro",-9.841174785044227],["Paris",-9.841916438332849],["FC",-9.84194911462287],["dollar",-9.84199336840721],["ating",-9.842469464495775],["Saturday",-9.84267392476071],["juli",-9.842834939959108],["Da",-9.842840520636898],["crime",-9.843462122247896],["popular",-9.843489631523205],["programme",-9.84409074351666],["grave",-9.845276728264547],["janvier",-9.845720353952508],["ligne",-9.845858757309284],["experience",-9.84589647991174],["table",-9.847735316447181],["cadre",-9.847961817299408],["fecha",-9.848782524544824],["mask",-9.849982950067282],["women",-9.850421861905293],["Com",-9.850530493029122],["Sam",-9.850821211251075],["program",-9.851088443747663],["onces",-9.85236851866857],["having",-9.852508770694271],["temporada",-9.853074079592322],["One",-9.853076490109043],["retour",-9.85463039814833],["34",-9.85485909898657],["ary",-9.855410116721092],["anté",-9.855416349256162],["comunidad",-9.856373596925973],["taking",-9.857445125319664],["vin",-9.857555182440864],["ministro",-9.858743239214776],["miss",-9.858866674739025],["buena",-9.858973545061014],["ieron",-9.859361782907714],["33",-9.859880402987443],["300",-9.861122535813633],["series",-9.861556540073419],["français",-9.861846044900298],["général",-9.86209937841042],["Cor",-9.863583204580344],["PC",-9.86360011339818],["décision",-9.863903127968685],["pai",-9.86391259209109],["little",-9.863927397005213],["ves",-9.865173559055421],["crise",-9.865747230650904],["tivo",-9.865759761069478],["pública",-9.866742851471145],["dici",-9.866873063084736],["death",-9.867020002917842],["vice",-9.8674885705273],["titre",-9.867699259064622],["36",-9.867883266193235],["buiten",-9.868340000921155],["clear",-9.868475314204815],["move",-9.869330471507435],["Ti",-9.869539387263742],["veu",-9.869957787424617],["provincia",-9.87047154354574],["particular",-9.870906374233186],["legal",-9.871151138853005],["moest",-9.872359233452176],["My",-9.874007450101539],["ness",-9.874117182673086],["together",-9.874227970577977],["disponible",-9.874688802235962],["kijken",-9.875567263459136],["fact",-9.877440129782158],["poste",-9.878191561054617],["martes",-9.880178735033827],["aske",-9.880704287606738],["locale",-9.881540094284038],["ker",-9.881937204356007],["bou",-9.88240306077664],["nom",-9.88355406315744],["99",-9.883614040437854],["cinq",-9.88400873044828],["League",-9.88406329658218],["gelijk",-9.88487827797221],["prend",-9.886050107490496],["activité",-9.886953069303084],["podrá",-9.88700215096205],["oportunidad",-9.887159936664478],["victime",-9.887351877900093],["board",-9.88741795408311],["besoin",-9.887463639996799],["visit",-9.887713152155005],["meter",-9.887904129264214],["tête",-9.888329219975585],["recht",-9.88846242404361],["natuurlijk",-9.888769375959189],["wide",-9.890095576307335],["find",-9.89017207582246],["using",-9.890174091002558],["job",-9.890218029579188],["trade",-9.89049636959851],["Bi",-9.891070341508893],["taken",-9.891889417717968],["iste",-9.892354914893085],["core",-9.894156906552983],["paso",-9.894727790591201],["ores",-9.896366662517739],["soort",-9.89678007578199],["dado",-9.896814959928042],["responsable",-9.896872793568292],["Que",-9.898044537095814],["wedstrijd",-9.898208858249355],["iércol",-9.898245005471175],["punt",-9.898649781488363],["form",-9.898709522464928],["presente",-9.899162647168144],["jeunes",-9.899856959462571],["posición",-9.900279392145105],["PS",-9.90029851514505],["isation",-9.901207483882327],["carrera",-9.901386474550158],["eerst",-9.90229932609742],["federal",-9.903005953208424],["libre",-9.903127196660787],["cuerpo",-9.904585743041853],["simple",-9.905428912874234],["Deze",-9.90551829463853],["Ra",-9.9056382762243],["North",-9.905664699506504],["mission",-9.906209346437027],["justice",-9.906304996489958],["hope",-9.907304878792857],["Juan",-9.908771647147496],["tarde",-9.90911638442255],["Wednesday",-9.909365240429391],["segunda",-9.909366069852835],["igual",-9.909583436267436],["passe",-9.909985755506899],["km",-9.91058017828963],["Gu",-9.910590588327974],["worker",-9.911373876501667],["Joe",-9.911623756675475],["diferentes",-9.911722304009901],["gui",-9.911829469295556],["coach",-9.911838366307162],["conocer",-9.913985648298716],["organisation",-9.915849720075059],["ix",-9.916708946837783],["gens",-9.916803553029183],["fuerza",-9.917422292897387],["dagen",-9.917474304352032],["duidelijk",-9.917659481017374],["explique",-9.918306243142695],["couple",-9.918391547005378],["Yo",-9.91914690094319],["ige",-9.92025140646307],["société",-9.921210226437907],["zelfs",-9.923240487315972],["motor",-9.92338190934321],["watch",-9.923487894390348],["militar",-9.923818451390327],["shares",-9.924028044509072],["prijs",-9.925472674166784],["interview",-9.925703021064592],["precio",-9.926050012885298],["several",-9.926219148501092],["young",-9.926485895921505],["travel",-9.9267295134431],["Facebook",-9.927182280297982],["solution",-9.92734835635387],["once",-9.928010395500362],["ensemble",-9.929962653290692],["abord",-9.930030562568913],["Tra",-9.930498517116789],["décembre",-9.93050656305597],["tweede",-9.930704764580645],["complete",-9.931302045351117],["late",-9.931861248859157],["zei",-9.932214141342518],["internacional",-9.933553797730088],["respecto",-9.933566786436497],["patients",-9.933742270869171],["bre",-9.934234222625498],["pot",-9.934391278576868],["principale",-9.934612736604642],["matin",-9.936208756650316],["denk",-9.937676605327987],["mars",-9.938153400206936],["Red",-9.938375420008922],["lockdown",-9.938710834948921],["verwacht",-9.939053969574497],["Hu",-9.939681421018363],["Ram",-9.939871713589742],["ball",-9.9400049571809],["lead",-9.940651850623523],["rang",-9.940788107055404],["create",-9.940814695514725],["wie",-9.942748328576835],["individual",-9.94305309214808],["juist",-9.945293441910046],["announced",-9.945556418827525],["Union",-9.945933483108654],["annonce",-9.946741712061506],["partij",-9.947108883291596],["ische",-9.94728755224659],["geef",-9.947307393115302],["protest",-9.94794668573649],["note",-9.948491365009666],["today",-9.949176145095311],["enquête",-9.949308297339678],["combat",-9.949401301954694],["India",-9.949439944834944],["anim",-9.950149812642014],["groep",-9.950822072436738],["buy",-9.951507801067564],["pur",-9.951734449102398],["passé",-9.954829273512615],["milliard",-9.955168413122832],["indiqué",-9.955313897134467],["landen",-9.955668325761899],["decisi",-9.955805615458084],["prueba",-9.95682146096066],["orden",-9.956843510774483],["given",-9.956968424442893],["held",-9.957255839994637],["Gar",-9.957676180499016],["400",-9.957791740290112],["short",-9.957823032609502],["profit",-9.95829706219886],["stop",-9.958749111718447],["Ba",-9.959020804541002],["secteur",-9.960370426175746],["autorité",-9.960420951261536],["genomen",-9.960625335959149],["37",-9.960868332283258],["least",-9.960998227478887],["demand",-9.961201347912066],["presse",-9.961929384502255],["Premier",-9.96205422832722],["Todo",-9.962202011424175],["breng",-9.962233659059645],["Police",-9.962445885225247],["Minister",-9.963537894140275],["After",-9.963762408337113],["38",-9.96503671634452],["run",-9.965147790195081],["journée",-9.965523131081763],["isme",-9.965640443790527],["effect",-9.965801364090748],["passer",-9.966095334902231],["claim",-9.966953064636865],["muestra",-9.967138088683985],["regard",-9.967608758680853],["weekend",-9.968351217262235],["offre",-9.968361306204542],["système",-9.968836842597838],["joven",-9.968845850460813],["aide",-9.969014494613017],["verschillen",-9.969019597233213],["civil",-9.969458546407521],["ruim",-9.969748354344684],["novi",-9.969869816661348],["simismo",-9.971415840856896],["ayuda",-9.971508484173018],["client",-9.971607256199384],["publique",-9.971955624910876],["festival",-9.972412998711366],["sinds",-9.97369293619771],["similar",-9.973963723694366],["línea",-9.973964496092655],["markt",-9.974453276281126],["ólo",-9.974835366594313],["House",-9.975243783130031],["padre",-9.975319445501386],["along",-9.975658832145474],["asegur",-9.976292406138286],["political",-9.977057971679027],["Washington",-9.977384808612648],["période",-9.97743495304642],["fun",-9.978406285573826],["option",-9.979126592350092],["Como",-9.979293077349565],["informe",-9.979349089415244],["moi",-9.980033895659847],["enero",-9.980068543990832],["seul",-9.980284652722485],["sign",-9.980377351354214],["wind",-9.980744140316338],["campagne",-9.980824777377247],["rencontre",-9.98156194076331],["list",-9.981838182756686],["Don",-9.983188128994652],["model",-9.983761905326638],["nunc",-9.983987217201381],["legó",-9.984068173838484],["iemand",-9.984215877900436],["pueblo",-9.984276085230384],["poner",-9.984293554724825],["José",-9.98447720196702],["55",-9.984484781662614],["largo",-9.984739144196379],["llevar",-9.985153567777575],["novemb",-9.986663275315445],["administration",-9.987864008503479],["officials",-9.988935912150907],["Unis",-9.98948418089245],["Macron",-9.989611230233189],["zie",-9.991028205461376],["organiza",-9.99145886904897],["football",-9.99147814152272],["central",-9.992296978199127],["Ministerio",-9.992983729456547],["rend",-9.993047454195132],["space",-9.993494200068978],["dollars",-9.993748560346173],["prochain",-9.993819356161147],["doesn",-9.994111675559013],["violence",-9.994720436075138],["membres",-9.995247444710213],["maison",-9.995337569953282],["uillet",-9.995977210491446],["Cela",-9.996094942010249],["apoyo",-9.99724335013929],["Can",-9.997925844626224],["took",-9.998124470198649],["causa",-9.998129424309656],["muerte",-9.998254747438633],["65",-9.999977888961487],["meeting",-10.000615824390437],["manifest",-10.0007615323032],["campaign",-10.001712816730041],["budget",-10.001719080968437],["tomar",-10.00201686331466],["trabajador",-10.002330303176214],["original",-10.00261629494517],["stond",-10.003095968617252],["press",-10.003197082298163],["población",-10.003473278171015],["riesgo",-10.003702503745007],["party",-10.004313696140379],["problème",-10.005236952678953],["municipio",-10.005238259654408],["gelede",-10.005256005090425],["fuerte",-10.00525785296859],["small",-10.005405543332856],["debido",-10.005435117317845],["Mc",-10.005627168728292],["cio",-10.006297300001549],["désor",-10.006484620638854],["familiar",-10.006780406930973],["genoeg",-10.00701307471127],["seem",-10.007043627994939],["figure",-10.007681953611206],["maanden",-10.008545856121483],["room",-10.008564850724886],["Universit",-10.00973197084454],["score",-10.009752444986885],["2014",-10.009780445234224],["Not",-10.009928881436961],["guerra",-10.010592505998325],["among",-10.010736089673102],["Ils",-10.011282902506863],["try",-10.012125785884013],["gezien",-10.01221701989665],["War",-10.012403312338304],["milieu",-10.012521899087579],["vijf",-10.013386330078996],["actuelle",-10.013827798921092],["manier",-10.013847905968216],["arrive",-10.013900756048196],["école",-10.014626008029595],["forme",-10.014746800355447],["camp",-10.014809027894065],["bijna",-10.014976397901002],["candidat",-10.015140077699117],["consider",-10.016123967309694],["players",-10.016451624117977],["Carlo",-10.016536324649437],["cal",-10.01686217928696],["vel",-10.017009062357488],["ador",-10.017646986876617],["third",-10.017810875133751],["ère",-10.017949103908599],["termin",-10.01816972500173],["pues",-10.019417732926943],["major",-10.020196902930387],["soci",-10.02032406231864],["font",-10.02091811731496],["ejemplo",-10.021251542314232],["attack",-10.021261301908442],["mayoría",-10.022208076728937],["further",-10.023068679613289],["unidad",-10.023935051274647],["hausse",-10.024170678852931],["voi",-10.024479810709],["shot",-10.02457489906261],["gest",-10.024580259098942],["strong",-10.024888823841689],["cción",-10.025693339323787],["participa",-10.02655850324049],["jornada",-10.026648226784856],["Alle",-10.027346895426831],["mensaje",-10.02847584777715],["direction",-10.02868911659191],["expected",-10.028774803107463],["élection",-10.028811735024377],["actor",-10.029612767459902],["évrier",-10.030260718019756],["elijk",-10.030296266198977],["avance",-10.032062931135208],["Robert",-10.032731922428173],["permet",-10.03339389722913],["Amerikaans",-10.033976429353228],["park",-10.035504565524793],["utant",-10.035521301824398],["eurs",-10.035664305982703],["franc",-10.036589145245792],["espacio",-10.03668111221091],["48",-10.037126819318296],["hold",-10.037203166480316],["availab",-10.037545577659278],["measure",-10.037555225838421],["human",-10.0376978905768],["pez",-10.038012834635197],["souven",-10.038539702124638],["Real",-10.039307230088587],["ship",-10.039506556707012],["état",-10.040286016965233],["nie",-10.04144863685326],["recurso",-10.041855953607845],["Star",-10.042391292245203],["septemb",-10.042409088632684],["enkele",-10.04259525056934],["gewe",-10.042857554504947],["Mark",-10.042880091373291],["2015",-10.043002882616166],["Instagram",-10.043011172611045],["chien",-10.043339617227288],["tema",-10.043516395395642],["soutien",-10.045438393709883],["rec",-10.04566550009704],["viene",-10.046102191383106],["lever",-10.04776374454227],["prison",-10.048482312844964],["sexual",-10.04867017132317],["Over",-10.04916881159446],["rente",-10.050339811389755],["official",-10.050951005978444],["ving",-10.051390215935545],["attend",-10.051852733801734],["ach",-10.052346797380435],["halen",-10.052369751868929],["bol",-10.05273066078519],["value",-10.052928719766241],["Luis",-10.053119239007291],["mov",-10.055137864401152],["Martin",-10.056311375487],["amelijk",-10.057249136435873],["bedrijven",-10.058184681442018],["Est",-10.059951812568867],["starte",-10.06008533800415],["challenge",-10.060429720461897],["exemple",-10.060444549357353],["agreg",-10.060844422882388],["rapide",-10.06141463852312],["objectif",-10.061603245622573],["rijden",-10.061605873214404],["band",-10.061638181668323],["bad",-10.061875700021432],["dicho",-10.061967971104707],["bouw",-10.06240193862197],["certaine",-10.063451845562994],["lim",-10.064882578460026],["arm",-10.065370285536556],["internationale",-10.066708938255964],["weinig",-10.06717022400632],["octob",-10.067171031554427],["ible",-10.067594476056652],["baja",-10.067938664997502],["box",-10.068063287225057],["straat",-10.068073830384055],["bur",-10.06848759393789],["stead",-10.070619042469062],["estamo",-10.07066763245707],["World",-10.070912163178559],["evento",-10.071720115145446],["rem",-10.072702252604266],["uff",-10.073026477618182],["pesos",-10.073217172700613],["líder",-10.074698890145884],["Tour",-10.075202667128845],["fiscal",-10.076192298416679],["following",-10.07694685795596],["station",-10.077051357905933],["firm",-10.077426709657708],["fight",-10.078182174648587],["ataque",-10.078413780547788],["estas",-10.079352945532996],["gedaan",-10.080348700047836],["roll",-10.080847798743822],["bord",-10.08181902381109],["armée",-10.082090334564198],["profesional",-10.082270361969627],["propuesta",-10.082340179298404],["attaque",-10.082474673304876],["Grand",-10.082526791957648],["junio",-10.08321764269455],["goede",-10.083577771578874],["gang",-10.084005255351574],["donner",-10.08426721473553],["tjes",-10.084415649603415],["done",-10.084620291713685],["kant",-10.085593719751234],["sujet",-10.08594463215595],["natural",-10.086071355737069],["propio",-10.08609918102578],["policía",-10.0861032570974],["story",-10.086887474955013],["rán",-10.087053726043642],["dinero",-10.087153180785759],["Qatar",-10.088011761938997],["rating",-10.08966595768209],["fan",-10.089981683480321],["grow",-10.09017617948422],["hotel",-10.090461755933829],["plein",-10.090835241493696],["%)",-10.091655718033497],["présent",-10.092064051538582],["interest",-10.09278600217977],["coût",-10.093901715781772],["vanaf",-10.094348842820068],["Final",-10.09438628166729],["type",-10.094444931351124],["dam",-10.09483885789411],["busca",-10.095233030253663],["événement",-10.095704431560716],["Pen",-10.095707650731901],["ruso",-10.095766368654438],["Waar",-10.09585489392602],["communiqué",-10.097639018882965],["prêt",-10.09799370649019],["fille",-10.098947581016422],["hub",-10.099296199958793],["emp",-10.09935409897974],["color",-10.099568054484273],["economic",-10.099742895088713],["ización",-10.100034028965684],["Even",-10.100175125093902],["druk",-10.100688974772218],["role",-10.101326559026035],["comunicado",-10.102227510842578],["octubr",-10.103464048224863],["Ru",-10.103838883915422],["var",-10.104058469088628],["environ",-10.104253395743767],["percent",-10.104288934450796],["road",-10.104438536415344],["cur",-10.104997041602363],["quelle",-10.105220562831487],["seizoen",-10.105415538936697],["billion",-10.105456637217475],["platform",-10.105558025225623],["Va",-10.106247924865443],["actie",-10.106766988370085],["resto",-10.107275858654756],["ará",-10.107733484862369],["meilleur",-10.107998811858653],["gebied",-10.108022948483624],["key",-10.10857267334507],["rôle",-10.109296237000864],["Donald",-10.109327048615784],["kree",-10.10943497063651],["phone",-10.10954918271044],["remos",-10.111136718541982],["économique",-10.111284108068865],["avril",-10.111285615236778],["dejar",-10.111318466045134],["particip",-10.11162899520504],["woman",-10.11169835360979],["explica",-10.111848084066438],["wait",-10.111858123124929],["obra",-10.11195032133715],["beetje",-10.11207073717435],["vos",-10.112108770795086],["terre",-10.11227556109686],["Durant",-10.112862680977258],["scène",-10.113312172361361],["Gi",-10.113354504840824],["appear",-10.114172866497452],["terme",-10.114739858620023],["aban",-10.115396723242135],["vond",-10.115733766850092],["geval",-10.115890232787747],["book",-10.116459240138656],["serai",-10.116615344998227],["parole",-10.117034494343095],["thuis",-10.117178190016125],["Inter",-10.117300505806341],["require",-10.11744437075954],["eigenlijk",-10.117588919131434],["bureau",-10.11801581770084],["Ni",-10.118649969633589],["gave",-10.118659093573953],["depend",-10.118839976975647],["confirmed",-10.118920205073731],["security",-10.119149644568042],["bring",-10.119323862023002],["inten",-10.119394448697072],["wear",-10.119740275431841],["estará",-10.12005322861713],["web",-10.120553700561555],["precios",-10.120747417718105],["Kar",-10.12082332035217],["spite",-10.12089550329962],["asse",-10.121361799206738],["feu",-10.12146426470597],["page",-10.121936423494567],["mor",-10.122611772529762],["opportunit",-10.12283307073649],["desarrollo",-10.12437290387238],["Za",-10.124400790577559],["septi",-10.124574439171894],["multi",-10.124626360062372],["weken",-10.124848264793288],["previous",-10.12550235904919],["trans",-10.126178705256724],["evitar",-10.126322697699262],["américain",-10.126391287883292],["Kie",-10.127544170717634],["père",-10.127662573189378],["conseil",-10.128235076591587],["existe",-10.128263436805806],["accident",-10.128385518783261],["vue",-10.128407469628726],["culture",-10.128820158912195],["gaz",-10.128824279997708],["April",-10.12913478466713],["loi",-10.12925092239381],["active",-10.129737900300086],["difficile",-10.129847813931766],["terwij",-10.130139057176905],["prochaine",-10.130179028708987],["grond",-10.130261831240237],["uch",-10.130504005765495],["account",-10.13058237943235],["necesario",-10.131106622476567],["fu",-10.131204909356928],["pie",-10.132176619956038],["design",-10.132682722996883],["prise",-10.132704675494436],["Door",-10.132877118474198],["Mundial",-10.133110374022293],["accione",-10.13312210773535],["comes",-10.133335609545485],["Vo",-10.13347738247666],["Santa",-10.134126695212434],["compañía",-10.135118388339436],["vragen",-10.135142373321617],["Bas",-10.135555532611383],["col",-10.135596201066202],["Super",-10.135739420797226],["blijk",-10.136904107947952],["39",-10.13702345682509],["training",-10.137771425941215],["tenido",-10.137872270940505],["futuro",-10.138720040769883],["suspect",-10.139152561315788],["Policía",-10.139153171480881],["reden",-10.13929353565059],["dood",-10.139368561199479],["propose",-10.139842627358277],["commune",-10.139898963281645],["known",-10.14011595607979],["encontrar",-10.140170269208928],["mí",-10.14059282193342],["release",-10.1406650182047],["leader",-10.140754885128832],["Ten",-10.140931061747224],["denken",-10.141451226955935],["parce",-10.14171053801897],["realidad",-10.141941563546357],["unique",-10.142004005233371],["thought",-10.142083441714039],["49",-10.142307355924459],["Chi",-10.142330789006845],["vidéo",-10.143191783293638],["experiencia",-10.143206106672121],["worth",-10.143292678594026],["mano",-10.144117814130873],["outside",-10.144815975658826],["eind",-10.144931065774514],["centrale",-10.145087178017468],["amor",-10.145628927966813],["protect",-10.145673714246737],["confirm",-10.145930689677613],["ï",-10.145964027206844],["troisième",-10.147287397947224],["cat",-10.147651581455174],["connu",-10.149492426263075],["anunci",-10.150216240727287],["sort",-10.150957401360069],["matter",-10.151704647924927],["vont",-10.15227086020598],["char",-10.152883024195352],["Tout",-10.153048822783795],["Air",-10.153254626573181],["stellen",-10.15339768801153],["store",-10.1535521693221],["rich",-10.154036399651417],["arme",-10.154832045404573],["news",-10.155402785249876],["potential",-10.155423746557524],["député",-10.155423855343907],["municipal",-10.155849395465866],["check",-10.156234355663326],["44",-10.156364170706146],["Some",-10.15640479455623],["exist",-10.157907748292233],["Niet",-10.158631555139522],["internet",-10.158786651371447],["view",-10.158911073548763],["June",-10.158922152149703],["pose",-10.159340561302267],["candidate",-10.159448309459819],["According",-10.159534668719399],["building",-10.159534868478152],["dossier",-10.159909008844535],["neem",-10.160773300873839],["forward",-10.160952425954864],["werkt",-10.16100714703872],["importanc",-10.162465893579586],["companies",-10.163619696932194],["performance",-10.16363650210074],["gré",-10.1638238456723],["acht",-10.16384447717489],["sería",-10.164029790939068],["lid",-10.164817097014058],["Bank",-10.164928497271642],["lleva",-10.165334962714763],["aumento",-10.166051464625516],["ñ",-10.166396071836658],["material",-10.167308222830446],["har",-10.167532017378187],["application",-10.167807711684624],["recherche",-10.16794755734453],["games",-10.169528757643802],["safe",-10.169533383005803],["Ali",-10.169681260706628],["développement",-10.169903787419514],["cabo",-10.170529128605326],["favor",-10.170611001822618],["Park",-10.170775926588231],["terrain",-10.17109442225713],["wi",-10.17153555602604],["°",-10.171970036576887],["gracia",-10.172115685470084],["formation",-10.17281253195332],["pareja",-10.172878217906227],["modelo",-10.173205202829099],["œuvre",-10.173540100228118],["victoire",-10.17405815207428],["rying",-10.175425541621134],["ziet",-10.175472375688187],["zorgen",-10.176052252358875],["vrouwen",-10.176287243908362],["Comme",-10.176365657102274],["prijzen",-10.17663309346774],["break",-10.176739132057445],["dura",-10.177352714011384],["jeux",-10.17763882403475],["plu",-10.178277336769089],["afirm",-10.17833314457371],["maakte",-10.178917691074005],["weeks",-10.179647352158678],["province",-10.180347550928545],["rait",-10.180488812787893],["rat",-10.180566856975673],["walk",-10.180938660045705],["mat",-10.181551696205183],["jouer",-10.1815765210725],["ful",-10.181702893111467],["económica",-10.182452314408952],["énergie",-10.18245240144304],["average",-10.182552029468942],["oud",-10.182947951855706],["plant",-10.182996651179156],["avantage",-10.183266704793642],["belle",-10.183366008359377],["aucun",-10.18402528264174],["heden",-10.184117283592006],["Google",-10.18456486486097],["stap",-10.18566760587778],["How",-10.185981376568428],["gros",-10.186527315363971],["doctor",-10.186703161577654],["trabajar",-10.188330394695777],["bot",-10.188466043835152],["petite",-10.18934522501467],["quick",-10.189542517736164],["ajouté",-10.189708328707546],["tier",-10.190380155871352],["râce",-10.190516223451501],["raad",-10.190850852585008],["ministère",-10.190918026031987],["overheid",-10.191491728711267],["ligt",-10.192228523182964],["gevolg",-10.193219471146534],["mogen",-10.193644135726267],["limite",-10.19367832111331],["posibilidad",-10.194316339211035],["probleem",-10.19517891734917],["institu",-10.195235793840354],["Day",-10.195495708935825],["residents",-10.195983087648358],["opération",-10.196539274496683],["kosten",-10.196792154461875],["août",-10.19704432134584],["saying",-10.19710209260721],["respuesta",-10.19738310294441],["tre",-10.197966814121717],["cru",-10.198182900378583],["construction",-10.198544880807937],["wege",-10.198749682790751],["digital",-10.199169056416668],["capacidad",-10.19942140901434],["vandaag",-10.199458272601772],["Club",-10.199459820061133],["operation",-10.199513938650554],["poll",-10.201119552988736],["content",-10.201417080656771],["labor",-10.201569326126785],["recibi",-10.202327275217002],["abilit",-10.202850455875655],["ander",-10.20291750608801],["God",-10.202955422440994],["Fue",-10.203144593821545],["necesidad",-10.203752895793182],["restriction",-10.20393275808574],["haut",-10.204208792021042],["autour",-10.204486836904213],["Mat",-10.204943468388372],["42",-10.20555110617626],["mate",-10.205805376661285],["voiture",-10.205971297146608],["ruimte",-10.206000405041625],["travers",-10.206053947868579],["inicio",-10.206089876456911],["II",-10.206224047426408],["proces",-10.206300271973003],["involve",-10.20633782033304],["infection",-10.206602214080913],["nough",-10.206738119206094],["43",-10.206741117087073],["rot",-10.20744071243002],["vit",-10.207794882310765],["unning",-10.20785841652588],["maintenan",-10.207872119329846],["campaña",-10.208090959056282],["Tu",-10.208404911996979],["round",-10.208500539124932],["special",-10.208998316680265],["camino",-10.21029101013836],["America",-10.210341231246375],["prensa",-10.21036883507351],["manière",-10.211059164388042],["dés",-10.211075734633882],["tir",-10.211146756655918],["Iran",-10.211154293685176],["echter",-10.211627272292276],["explicó",-10.212438491935398],["ski",-10.212821341810487],["drive",-10.21303036593017],["ayant",-10.213408227615542],["serve",-10.214753170461929],["fic",-10.214800844964223],["research",-10.215870638707901],["double",-10.216044408938256],["stage",-10.21606028634658],["Johnson",-10.216251031544047],["donné",-10.21646528401077],["Nord",-10.217420777910938],["iza",-10.217957138286774],["parece",-10.218048508183823],["regering",-10.21899327373179],["pasar",-10.220688164996464],["venta",-10.221546228713628],["gosto",-10.222314488764098],["OS",-10.222408206242658],["haya",-10.222730557721018],["Qu",-10.222802898617854],["difícil",-10.223318196774398],["response",-10.223318274404832],["association",-10.223351026841758],["liste",-10.223577682517712],["bond",-10.22498508811297],["Hospital",-10.225516009886128],["medical",-10.22600331574401],["mini",-10.226056047952707],["nosotros",-10.22681756287697],["46",-10.227435625922705],["elección",-10.227701537193024],["estadounidense",-10.227718640041484],["Conseil",-10.227815635237041],["log",-10.228465869938365],["propia",-10.2285154493188],["mental",-10.228723079248134],["bill",-10.229749505863749],["dienst",-10.229868537426828],["indique",-10.230034352616869],["cifra",-10.230345408413314],["idée",-10.230709766547328],["reason",-10.231249725916708],["mayo",-10.231836504336915],["aldu",-10.2318504154355],["résultat",-10.232138534974197],["target",-10.232651334634337],["isch",-10.23275879938172],["beteken",-10.233745138466288],["gel",-10.233797126267941],["amigo",-10.23413842995501],["calidad",-10.234216415560978],["vecino",-10.234507867299673],["Wa",-10.234561239901588],["talent",-10.235158057841149],["ienne",-10.235791756249736],["miembro",-10.23657960049606],["reçu",-10.236580803525381],["édition",-10.236581209128486],["Amazon",-10.23662536996654],["esos",-10.237230699218475],["claro",-10.237481002779365],["Center",-10.237921207517022],["town",-10.23838542607284],["85",-10.238408840533431],["emment",-10.238456134770965],["industr",-10.239836863773295],["king",-10.240253035179801],["pued",-10.240267782365992],["permis",-10.240457011123413],["cara",-10.240828462300428],["financial",-10.240870872170998],["energía",-10.241046270033799],["hoge",-10.241130524970828],["Dus",-10.243051814912173],["morning",-10.243307574590368],["CA",-10.24342074692488],["vision",-10.24362964923368],["condicione",-10.24397728409196],["volver",-10.244031906186818],["carrière",-10.244240662698783],["presencia",-10.244262725628882],["California",-10.244397718317437],["„",-10.245516655272715],["miljard",-10.245518121639481],["Afrique",-10.245530514110465],["pick",-10.246058259192289],["construc",-10.246340101457136],["mail",-10.24648673838751],["trouver",-10.247502158445634],["Emmanuel",-10.247763905778],["behind",-10.2477708210679],["éri",-10.24904848603903],["iving",-10.249243230330206],["q",-10.249518170366596],["Ch",-10.249917374688849],["contrôle",-10.250064854570088],["personnel",-10.250070563705453],["website",-10.250137509045002],["trabaja",-10.251196342450019],["palabra",-10.252288302758632],["radio",-10.252572811675781],["hoog",-10.252940626617068],["cro",-10.253073504454644],["deaths",-10.253497523904226],["econom",-10.254120141005302],["Día",-10.254170976636683],["vallen",-10.254310712352709],["Vou",-10.254455269034723],["countries",-10.254565713850873],["celebra",-10.2546065311538],["sociedad",-10.254607766105433],["CO",-10.254778421431883],["beste",-10.255024141083428],["naast",-10.255098685636016],["zoek",-10.25568056123591],["trav",-10.255800964834371],["ang",-10.25600022210774],["voter",-10.256010456605297],["sum",-10.256743425208356],["pandémie",-10.256803461488177],["zaterdag",-10.25680410631511],["Centre",-10.257060115874374],["départ",-10.257720445562189],["Tras",-10.257822372265322],["village",-10.257867418394802],["facilit",-10.258382606370425],["character",-10.259077197353978],["vorig",-10.259101129791189],["enige",-10.259302366766853],["kop",-10.259515370350893],["opge",-10.259700531933422],["UE",-10.26056439074436],["média",-10.261096646008049],["amp",-10.261228864988913],["address",-10.261234097922685],["factor",-10.261325518243645],["Department",-10.261369149754366],["Salud",-10.261446503927411],["count",-10.261612484240223],["Tom",-10.261817526466567],["Luc",-10.262208793934697],["entidad",-10.262481529271088],["maand",-10.26274961075345],["arrivée",-10.263098549286596],["vic",-10.264072746528786],["PP",-10.264394457723391],["visite",-10.26476246029191],["madre",-10.265213842642556],["ayer",-10.266357354396014],["izar",-10.266380336016688],["aange",-10.266530009862748],["gún",-10.266582005271427],["tado",-10.26698347538981],["Fi",-10.267002042562169],["single",-10.26701631114369],["Wij",-10.267136344711854],["member",-10.267611672939582],["anterior",-10.26819395411863],["regular",-10.268446288732221],["abril",-10.268599385334873],["Gra",-10.268836340503377],["Central",-10.268858325898833],["goal",-10.268980659762502],["feature",-10.269037183559352],["ground",-10.26924803877317],["wer",-10.269832190450384],["rare",-10.270650676252536],["planne",-10.271224878475932],["camera",-10.271432908722158],["track",-10.271834904096911],["arte",-10.272073302675144],["produce",-10.272663395038647],["focus",-10.272885316425809],["llev",-10.272980041554451],["47",-10.273168559017423],["bent",-10.273500075975537],["interven",-10.273606503144782],["ambos",-10.274491778926329],["proche",-10.274887167228869],["violencia",-10.275133707094483],["ploeg",-10.275135067622799],["entire",-10.276765552250136],["¡",-10.277446377816194],["woensdag",-10.27744638768375],["Bor",-10.277551106497693],["trouve",-10.277794342751987],["Centro",-10.277835640166622],["600",-10.278233904691614],["meest",-10.278279507130819],["meld",-10.278485889392035],["development",-10.27850358344622],["nacht",-10.278805536653042],["seis",-10.280664225734107],["middels",-10.280730854740815],["regen",-10.281067836949362],["mooi",-10.28128422597759],["hors",-10.281710945415156],["lograr",-10.282087389279628],["Poetin",-10.282103377887552],["offer",-10.282943497343219],["industrie",-10.28387394077171],["sortie",-10.284423096721866],["Venezuela",-10.284423147248313],["letter",-10.284504826228492],["cast",-10.284589408229927],["demanda",-10.284880442954432],["zoude",-10.285150285984201],["Now",-10.285903818367904],["Har",-10.286416123810053],["istas",-10.286451191688823],["199",-10.287417924581808],["August",-10.28744666484262],["langer",-10.2881081841223],["teur",-10.288361029946568],["kort",-10.288368759855576],["senior",-10.289249490798664],["Mont",-10.289294739641857],["conjunto",-10.289346267965021],["history",-10.289482239515337],["host",-10.29011580823412],["released",-10.290135163550364],["vivienda",-10.290756441405582],["bout",-10.290835862440531],["marque",-10.290861497442796],["micro",-10.290988395376491],["rival",-10.291078489903445],["AP",-10.291192179323215],["mannen",-10.291284995550123],["territoire",-10.291448934859394],["élu",-10.291636594969074],["additional",-10.291655715348265],["pesar",-10.291740190661228],["moyen",-10.29220493225793],["oog",-10.292282205827473],["child",-10.292538380462663],["photo",-10.292568580492727],["vaccine",-10.292836644444778],["doel",-10.293148199662618],["Qui",-10.293442947888432],["Social",-10.29383902285262],["representa",-10.293985189272123],["mantener",-10.294039368508564],["Group",-10.294072341797815],["naam",-10.294960135857336],["gestion",-10.295196685635648],["opera",-10.295332369950113],["plut",-10.295670393682236],["Bel",-10.295902613477065],["update",-10.29593157892391],["relate",-10.29604909747705],["febrero",-10.29616036718907],["structure",-10.296160874907095],["kabinet",-10.296468635414001],["décidé",-10.296584962001685],["propos",-10.296878311858475],["ocurri",-10.297329042107123],["mètre",-10.29851068194965],["Michael",-10.29856148104886],["delito",-10.298992790462075],["área",-10.299818129149365],["necesita",-10.300263926432374],["His",-10.30030711568562],["cour",-10.30076513542518],["surprise",-10.300890643822985],["maandag",-10.300993864014016],["destac",-10.301129278708714],["iba",-10.301337592958358],["Open",-10.30173001051025],["regel",-10.302545623906031],["succès",-10.30326939911413],["ganar",-10.303351385860621],["concert",-10.303729732845806],["Pr",-10.303776365678761],["ram",-10.303890161729472],["cita",-10.304151275865248],["James",-10.304403129266932],["tribunal",-10.305007969562572],["hor",-10.30513372704082],["Bou",-10.305136891119375],["virtual",-10.30565107338418],["Dur",-10.306029870577625],["66",-10.30742501168893],["iek",-10.307427814085187],["façon",-10.308037032265764],["leave",-10.308066858486448],["employee",-10.308931012885722],["agent",-10.309295424041],["assure",-10.309617186001788],["region",-10.310839110488228],["situatie",-10.310917743708238],["habitant",-10.311266856282902],["reunió",-10.311273482850318],["comenz",-10.311409773422351],["Ló",-10.31149916677266],["venes",-10.311514821326114],["handel",-10.312090291325793],["vert",-10.312186452988255],["district",-10.312867701629038],["único",-10.312912724849806],["Qué",-10.313164786289175],["reciente",-10.313449538593087],["spelen",-10.314314653994241],["Ou",-10.314368892380791],["Suisse",-10.315275542224548],["loos",-10.315329162236141],["vrijdag",-10.315402139542803],["esté",-10.315413263840338],["plek",-10.315765877338777],["article",-10.315897995587388],["rent",-10.31651567393369],["95",-10.31721524236277],["Street",-10.317645903502687],["often",-10.31768240110307],["?”",-10.319107333887857],["MA",-10.319574161239508],["familie",-10.319654405846583],["attention",-10.3200571123715],["Pat",-10.32069115932273],["animal",-10.320698943870147],["chat",-10.321104205529743],["carte",-10.321423217822357],["registr",-10.321960412969059],["capacit",-10.321993282201774],["betalen",-10.322590479403669],["dû",-10.323006297342664],["Michel",-10.323300368008088],["fra",-10.323408144375009],["stuk",-10.323410620273984],["Ahor",-10.32344977102056],["ingreso",-10.323856355968104],["alrededor",-10.323990885097363],["iones",-10.324432262503116],["venue",-10.32453496701015],["enfermedad",-10.324906237228436],["gain",-10.325320386620184],["lives",-10.325364974822119],["zin",-10.325727893713786],["White",-10.326061750634521],["heart",-10.326541686619741],["nadie",-10.327467908712542],["Mor",-10.327858636709209],["realiz",-10.328178323550858],["alto",-10.328814362255489],["SA",-10.32883236789519],["41",-10.328986929708257],["expect",-10.329085352398954],["safety",-10.32923771039068],["adelant",-10.32976864884527],["intérêt",-10.32977696042419],["donne",-10.329787913924873],["salir",-10.329902198881832],["Bre",-10.330096567775678],["Belgi",-10.330962448686211],["Putin",-10.331783770470675],["gol",-10.332092171174033],["diferencia",-10.332221951406428],["grootste",-10.332304786896652],["cierto",-10.332642705285874],["detail",-10.332826902332553],["customer",-10.33290586063681],["debate",-10.33290886000881],["cia",-10.333112833161586],["Bra",-10.333171338653834],["donnée",-10.333730030504952],["saw",-10.333757109385644],["Mac",-10.334280454236742],["raise",-10.334390976557632],["School",-10.334673520279198],["plataforma",-10.334676611807616],["cuanto",-10.334718555085164],["Service",-10.334730912018342],["grado",-10.335058174783565],["clave",-10.335083059425815],["recover",-10.335110019220167],["exact",-10.335355266941718],["español",-10.335368617222699],["ensure",-10.335981686236972],["danger",-10.336116540996098],["UK",-10.336428875754272],["zat",-10.337436299992346],["ities",-10.3376475926055],["aquí",-10.338215219557133],["eros",-10.338432445233032],["technique",-10.339593251784962],["benefit",-10.339596843834443],["gebruikt",-10.339706544250909],["mother",-10.339847601442845],["Louis",-10.341215052313363],["access",-10.341490743107943],["jou",-10.341558636758489],["hoger",-10.34169426980008],["ukrainien",-10.341761078760877],["eleccione",-10.341992185210973],["económico",-10.342062124675556],["leden",-10.342252408391104],["significant",-10.342302314958841],["black",-10.342742860563257],["campo",-10.343188776309168],["150",-10.343244274517826],["iPhone",-10.34453847634476],["scene",-10.344578187287727],["cantidad",-10.34460058826792],["graag",-10.344863603901768],["menor",-10.345869808573145],["pou",-10.345998452913094],["lancé",-10.346639946894918],["efecto",-10.346873787136733],["vehicle",-10.34701886102971],["AFP",-10.347046074545222],["cabeza",-10.347195012541771],["lista",-10.347785828673215],["avion",-10.348055645106541],["rester",-10.348649297701563],["IS",-10.348932211635072],["fond",-10.34914056090236],["choi",-10.349457682076995],["ië",-10.349488533970462],["victoria",-10.34960141557843],["plazo",-10.349855863144537],["conclu",-10.349975006183286],["began",-10.350006093272185],["http",-10.351965508418129],["800",-10.352013699414602],["midi",-10.352329258018361],["Liga",-10.352699963460424],["lum",-10.352749068527975],["schap",-10.352807701285474],["Our",-10.352810209661271],["Act",-10.353581288032142],["Min",-10.353891718718579],["argent",-10.353994484282797],["trip",-10.354279843048008],["flu",-10.354358332256743],["mundial",-10.354506148380947],["pense",-10.35487666426486],["card",-10.35495672283892],["rust",-10.355253187088621],["read",-10.355293509774352],["olie",-10.355315630451095],["ative",-10.355599304579378],["52",-10.355792911514483],["liet",-10.355799211980742],["maire",-10.356022904249741],["motivo",-10.356273735007342],["jefe",-10.356627326610877],["reduce",-10.356738943957655],["plane",-10.356827017266333],["gobernador",-10.357050996457962],["presenta",-10.357855012916371],["elke",-10.358239612247889],["llega",-10.35836392807608],["sabe",-10.358590778158078],["Francisc",-10.358867351129984],["vorm",-10.358929514649187],["Sud",-10.359303344926563],["hum",-10.3594994354614],["inflación",-10.35952784774081],["represent",-10.359778362540077],["bare",-10.360103016528964],["gekomen",-10.360521918103055],["Gen",-10.360639592240293],[":/",-10.361191785691464],["hulp",-10.36146658835282],["friends",-10.361527642984973],["burg",-10.36155537522292],["Wel",-10.362001336695284],["humano",-10.362255979513645],["pago",-10.362352503141727],["ciudadano",-10.36241350862278],["etc",-10.362965141341807],["fast",-10.363101127159204],["zaak",-10.363495729794419],["usuarios",-10.363608484885502],["bé",-10.364668370121345],["Hier",-10.366001429706966],["ending",-10.36668534303374],["criminal",-10.367093435647021],["qualité",-10.367387321843008],["meet",-10.367447333060348],["viaje",-10.369052725710446],["Plan",-10.369091848185178],["effective",-10.36982741251763],["Ante",-10.370011089893492],["ither",-10.370112737517587],["Bal",-10.370133307996056],["doive",-10.370153960387455],["duda",-10.371138647455137],["Jul",-10.371167184185998],["Court",-10.371609664331952],["soon",-10.371720273280758],["commercial",-10.371951756256555],["ijn",-10.372071352189499],["hôpita",-10.372177317533792],["George",-10.372277781195162],["étude",-10.372350547618005],["liggen",-10.372370644593598],["vente",-10.372454518623947],["quant",-10.372527692169411],["outbreak",-10.372846834556274],["neer",-10.373268833153897],["pod",-10.374312164284767],["honor",-10.37522207045713],["Japan",-10.375742653299351],["funciona",-10.375977296629754],["artista",-10.37651705116441],["tig",-10.376695626169877],["FA",-10.376915849431498],["winter",-10.376932223589513],["comunica",-10.377107404453152],["signe",-10.377303479776131],["haciendo",-10.377449258170302],["européenne",-10.377537512113268],["wan",-10.378892585599932],["belangrijk",-10.378899192003958],["ions",-10.379186653535278],["leggen",-10.3794275144722],["vacuna",-10.380371541249783],["ahí",-10.380868682285325],["tweet",-10.3811911094217],["enorme",-10.381230555987267],["halve",-10.381330222845847],["totaal",-10.381447512565845],["machine",-10.382426218380662],["moeder",-10.382574483147737],["families",-10.382849300110848],["spend",-10.383300709069907],["buen",-10.38337034856097],["punten",-10.383586856228206],["gegeven",-10.383915681957905],["manager",-10.384043152755968],["argument",-10.38446722843263],["savoir",-10.384693234258677],["Netflix",-10.384997986240553],["winkel",-10.385019102235937],["dinsdag",-10.385026586281928],["noticia",-10.385071744614656],["mark",-10.385190512344437],["Ken",-10.38541067605978],["communication",-10.385888457580435],["whe",-10.385970312591446],["mode",-10.386016998405644],["follow",-10.386190053399368],["lucha",-10.386194307145258],["vak",-10.386914299867898],["suggest",-10.387288878175397],["película",-10.38758319835933],["principio",-10.38759529210662],["corps",-10.387781418890185],["Amsterdam",-10.387931138781585],["veld",-10.387994461499375],["tren",-10.388107522879384],["activit",-10.388573194731148],["Pre",-10.388574050654892],["57",-10.38885198020013],["compromiso",-10.389672455142971],["Kan",-10.38998333501961],["livre",-10.38999372982957],["acceso",-10.390098824365351],["private",-10.39017335072218],["class",-10.390186466695923],["ningún",-10.390274377056684],["cœur",-10.39038584305316],["nuit",-10.39049484128942],["protection",-10.391108571235222],["denuncia",-10.39172254424065],["peine",-10.391774004707855],["illo",-10.392350681963256],["iteit",-10.392608975891074],["vista",-10.393120646068894],["Daniel",-10.393516611228343],["voer",-10.394052376583796],["shows",-10.394624297440775],["iers",-10.394852687951325],["Ciudad",-10.395230436169442],["pequeño",-10.395374517118535],["invers",-10.395716617421998],["authorit",-10.396600195750688],["ntes",-10.3967751195005],["beeld",-10.396989289552032],["corr",-10.397417396508123],["music",-10.397680029693912],["Max",-10.397691048521832],["sanction",-10.397704539948041],["juste",-10.398170626190188],["times",-10.398320560041796],["luz",-10.398655074445845],["slag",-10.39910836657425],["visto",-10.399841312944783],["laag",-10.400373326140347],["gezet",-10.400382312320517],["opposition",-10.400610896977646],["visita",-10.40064295717454],["initiative",-10.400707814178197],["permite",-10.400923126528475],["investigation",-10.401050921021497],["ira",-10.401349622439033],["beleid",-10.401548222123093],["interior",-10.401681859033204],["fri",-10.40239472000013],["contrat",-10.402888513057949],["voetbal",-10.40291671124702],["pied",-10.40297557873646],["negocio",-10.40322780929553],["atteint",-10.403228857314494],["vienne",-10.403383010059708],["genre",-10.403486475441216],["Mal",-10.404989440083256],["chief",-10.405088420109909],["modo",-10.405390798030123],["Januar",-10.405912782377822],["valeur",-10.4061031921771],["Pri",-10.406635556440943],["valt",-10.406737222625555],["institution",-10.407559003406222],["uando",-10.407560777231843],["imos",-10.407843779309443],["vaccin",-10.407860756240126],["Wie",-10.407954561247099],["initial",-10.407986559197973],["nam",-10.408737820950797],["Arm",-10.40882800134107],["vot",-10.410066293574292],["journaliste",-10.41021415273157],["mejore",-10.41043617794525],["Africa",-10.410699441905779],["nombreuse",-10.410820924013882],["moeilijk",-10.411143459353873],["habría",-10.411145911343437],["fundamental",-10.411147910966793],["ü",-10.411293483246542],["nord",-10.41196051532906],["AN",-10.41207315147215],["perdu",-10.412133056380492],["Green",-10.412829456275784],["cross",-10.412960222327067],["propre",-10.413172228501764],["Eso",-10.413201772036453],["pr",-10.413669051379976],["mère",-10.413882192574569],["honderd",-10.413975139365826],["rendre",-10.4141919900947],["Sal",-10.416347961194312],["zondag",-10.416475808850837],["Texa",-10.416853114661212],["dic",-10.418099930741308],["Villa",-10.418535871014793],["hoop",-10.4188277521265],["States",-10.418967743132212],["objet",-10.419123661723653],["volledig",-10.419175126510764],["hart",-10.419538174241811],["rechter",-10.419912150648392],["rendu",-10.420158890885673],["kamer",-10.420251628757125],["tax",-10.4203043952118],["nieuws",-10.420501754259671],["someone",-10.420840647615606],["64",-10.422738561956738],["Nation",-10.422851333242722],["playing",-10.422944815116153],["aucune",-10.42304817334579],["fonction",-10.423245834178466],["programma",-10.423778498725932],["72",-10.424619524147502],["hablar",-10.424679569731987],["répond",-10.424784819119438],["Pierre",-10.424990437872983],["ward",-10.425077051837032],["earlie",-10.42513741476262],["mind",-10.425831462183137],["organisatie",-10.426060939084298],["verhaal",-10.426255177600888],["contest",-10.42689665662339],["nécessaire",-10.42716494844405],["Barcelon",-10.427165271861128],["titular",-10.427165827873562],["Smith",-10.427173587041455],["donderdag",-10.427181885371805],["difficult",-10.427577075358368],["Commission",-10.427706508113628],["administra",-10.428101610342305],["publié",-10.428867156753267],["Bon",-10.429777169513361],["serious",-10.430026194946064],["bak",-10.430706365493045],["stress",-10.430792089710163],["Federal",-10.430843451928315],["nature",-10.431118873971423],["golpe",-10.432130145427712],["warm",-10.43218869536566],["Oekraïens",-10.432563066552326],["Colombia",-10.432644489831944],["emergenc",-10.432693836977016],["Peter",-10.432760609102903],["commission",-10.432768465331723],["langs",-10.432857085181148],["toward",-10.433410546146387],["française",-10.4334930406153],["André",-10.43374568900405],["ateur",-10.43406743645017],["Brit",-10.434294660062925],["fase",-10.434673215337519],["arrêt",-10.43520849962172],["générale",-10.4352407511059],["strijd",-10.435738396297662],["gesteld",-10.43660737612651],["pop",-10.436733040869303],["compra",-10.43717576038403],["EE",-10.437213813883345],["economía",-10.437622845056337],["ernández",-10.437696680100473],["inside",-10.437978326309075],["próxima",-10.437990484994717],["disease",-10.437994095179716],["Rutte",-10.43802265597912],["gun",-10.438434809261839],["68",-10.438974300759272],["bor",-10.44005149326862],["houdt",-10.440722218813946],["gauche",-10.440776984414686],["jij",-10.441127995623244],["richting",-10.441398710739264],["elijke",-10.441602153072768],["uiteindelijk",-10.44208797747073],["review",-10.442454018312297],["miles",-10.443061428439831],["opening",-10.443101408333721],["playe",-10.443493121661914],["vive",-10.443568659155348],["ogen",-10.44376707534982],["studio",-10.44378175803506],["éni",-10.443907255547995],["ouvert",-10.444607640148611],["Tri",-10.445042475855503],["suma",-10.44533304683696],["précisé",-10.445510870422144],["coment",-10.445546988403223],["directe",-10.445548155328474],["76",-10.445953851664003],["puerta",-10.446194805681982],["sanitaire",-10.446226889328129],["father",-10.446273440075224],["zomer",-10.446341667863999],["marqué",-10.446779056465353],["aï",-10.447213579621572],["añadi",-10.44722456114156],["mid",-10.447253132610047],["player",-10.447288562058771],["llí",-10.447563948753226],["rappel",-10.447628330838867],["chu",-10.447864618603809],["siete",-10.448909975750041],["territorio",-10.448941717311923],["matière",-10.449035812838043],["victim",-10.44937218448649],["58",-10.450119648718275],["jonge",-10.450509074774214],["María",-10.450679147568332],["boeren",-10.45098008312717],["voy",-10.451359773405697],["bru",-10.451671280940609],["Just",-10.451858329621341],["ongeveer",-10.452222536668819],["respond",-10.45269938264855],["print",-10.453716041077353],["Play",-10.45387490665448],["plat",-10.45395288114857],["International",-10.454040013052463],["cijfer",-10.45445254040993],["covid",-10.454488466334858],["jugar",-10.454876990995984],["appelé",-10.455517780435862],["stem",-10.455557902918006],["assist",-10.455728360453787],["happ",-10.456079409296265],["significa",-10.456086668454043],["fútbol",-10.456091675149473],["executive",-10.45722183771402],["Manuel",-10.457318072440582],["pudo",-10.457796716749993],["product",-10.458113703795522],["welke",-10.458846153442815],["changement",-10.459090526195798],["reach",-10.459130755321008],["lucht",-10.45975781844975],["entrega",-10.45982964836547],["perfect",-10.459967672132656],["paciente",-10.460001830710965],["longer",-10.460007573789921],["única",-10.460021144310533],["wing",-10.460113744042083],["russes",-10.460214747077284],["periodista",-10.460478545527966],["phase",-10.460523936449583],["voel",-10.460761054986236],["wilde",-10.460977383383316],["entrada",-10.461027373795385],["marz",-10.461162951414025],["boek",-10.461230019538931],["sept",-10.461296421895499],["waarom",-10.461814052483312],["waardoor",-10.462689507398528],["patron",-10.462810976951715],["espace",-10.462852678491924],["Bill",-10.463074592713728],["dieron",-10.46342477056887],["privé",-10.463598686250203],["zeer",-10.46394387027569],["Ab",-10.464909108471725],["Israël",-10.465578428092602],["técnico",-10.465578440144023],["Después",-10.46557850359503],["communauté",-10.465578639909038],["tarjeta",-10.465580101771451],["analyse",-10.465668355018439],["78",-10.465742272151981],["elemento",-10.465779065174427],["siguiente",-10.465819108855543],["hall",-10.465873900048399],["rekening",-10.46602199062281],["kille",-10.466238157190391],["écrit",-10.46627776811823],["entrevista",-10.466486430185592],["estime",-10.466507946011184],["speak",-10.466950015243915],["mond",-10.467321505907446],["cou",-10.46767565990275],["Vol",-10.467813614809236],["immediate",-10.468379582692723],["transition",-10.46849632776424],["ordre",-10.46885386867796],["ium",-10.469103505359897],["elles",-10.46961783139302],["chant",-10.469828838813381],["bat",-10.470207104350926],["expérience",-10.471188537485585],["SE",-10.471456104272427],["ok",-10.471476132182577],["Hoy",-10.471597515347998],["poli",-10.471598719031292],["compare",-10.47160671241884],["Ki",-10.472054056621815],["origine",-10.472152130746428],["aving",-10.472343721519234],["lier",-10.472813372422888],["kleine",-10.473294287926457],["54",-10.473521054276809],["ofrece",-10.473941449376543],["práctica",-10.474005434929886],["économie",-10.474005669788081],["People",-10.47401500831479],["quartier",-10.474144227464192],["prévu",-10.47553925656996],["lien",-10.475594410262559],["oli",-10.475653723536807],["mine",-10.476047708543582],["telle",-10.476330172546833],["réussi",-10.476377326401927],["Want",-10.476424942158587],["dicht",-10.476671198618316],["particulière",-10.476830344431455],["pratique",-10.476837395504019],["Charles",-10.477236212849927],["concerne",-10.477559297358955],["song",-10.478357843572184],["llowed",-10.478445795799157],["escenario",-10.478787069028016],["chip",-10.478923540423494],["Nigeria",-10.478969931030036],["uitge",-10.47946254882384],["político",-10.479487861429117],["September",-10.479663154820964],["modèle",-10.47966418463491],["crecimiento",-10.479690029661413],["zaken",-10.479699380784165],["67",-10.47971498931232],["wrot",-10.480171124086407],["cliente",-10.480770350988632],["zar",-10.482015246152724],["girl",-10.482509935536692],["esas",-10.482532310296438],["agenda",-10.48254861123835],["career",-10.483065691726493],["sterk",-10.483898675190758],["needs",-10.48456977681095],["More",-10.484847186958163],["News",-10.485153827112754],["mari",-10.485571202534455],["shop",-10.48577562770961],["Tr",-10.486047661684857],["62",-10.486194465624301],["nothing",-10.486334274749048],["è",-10.486425104422274],["Novemb",-10.486693881834645],["partner",-10.487024965826617],["approach",-10.488210229181828],["Congreso",-10.488210652127567],["pool",-10.488745238358897],["partijen",-10.488922397126554],["friend",-10.489016778671198],["Port",-10.489108342456358],["title",-10.48913295014118],["movie",-10.489629120333799],["rrière",-10.489632049108454],["River",-10.489881268734365],["zoveel",-10.4901458666342],["ieder",-10.490218615356032],["deben",-10.490250971923395],["metros",-10.490358453377393],["eight",-10.490727519305146],["toria",-10.491032880047268],["Pedro",-10.491081763696187],["Octob",-10.49108552800497],["mur",-10.491426741891082],["entrée",-10.49146998158502],["parties",-10.491583195516583],["estudio",-10.492667994451345],["Ku",-10.49307480227412],["responsables",-10.493482729731138],["pagar",-10.49357609898929],["ocho",-10.493590170482747],["gebracht",-10.493808934547882],["amount",-10.49402664323404],["parler",-10.494026739556052],["Han",-10.49436055010191],["zag",-10.495312664315755],["DC",-10.495565497659252],["Ber",-10.49561649231665],["trekken",-10.496048552422964],["rise",-10.49656244051942],["Casa",-10.496606579362444],["kilometer",-10.496871085088776],["Chief",-10.496898107251322],["agente",-10.496922804852284],["poor",-10.497142104836016],["Net",-10.497171684339481],["vroeg",-10.498330562790654],["77",-10.498459332346147],["study",-10.499743079717046],["Bay",-10.499754647034553],["discussion",-10.499914396098372],["acte",-10.500076358164378],["acto",-10.500158724272275],["bied",-10.500283743923715],["quedar",-10.500711997700897],["wante",-10.500997413955329],["plaza",-10.501045373075742],["conocido",-10.501240550969403],["gusta",-10.501384871719406],["Mario",-10.501928138140158],["Ville",-10.502318401178053],["Bien",-10.502422784130324],["Wi",-10.502532139072056],["música",-10.502619711986243],["accè",-10.502622583820433],["publiek",-10.502643830259686],["seguro",-10.502708832578502],["mir",-10.502739939925643],["gevallen",-10.503301260014553],["teken",-10.503601786448321],["seconde",-10.503773319919333],["Australia",-10.503901797613196],["ición",-10.504075373739749],["leuk",-10.504446360761392],["tuvier",-10.504764631953028],["Universidad",-10.505568175701743],["République",-10.505568178020512],["88",-10.50579343322772],["2010",-10.505836808392582],["iro",-10.506068356342],["actions",-10.506239111935027],["Bat",-10.506295338382483],["vamo",-10.506503657721204],["lijn",-10.506773493108827],["voie",-10.507755010210825],["steun",-10.507830865953157],["máximo",-10.508442099997115],["distinto",-10.508450849486756],["limit",-10.508454995790515],["college",-10.508510152409517],["Coupe",-10.508550152858067],["habla",-10.508565395754394],["habrá",-10.50857077408072],["ampoco",-10.508932987419133],["violent",-10.509099236836201],["gie",-10.50971812905771],["Democrat",-10.50981734142233],["distribu",-10.510158071198362],["rep",-10.510175615121534],["vuelta",-10.51138574198237],["República",-10.51180407468785],["permettr",-10.512128636792418],["radi",-10.512183223464408],["tech",-10.512693872666457],["univers",-10.512844873513314],["deliver",-10.512982744287171],["prima",-10.513179944518924],["mejorar",-10.513630832298567],["sait",-10.513668077052095],["53",-10.513900649763105],["lorsqu",-10.514205174449987],["localidad",-10.514271184686422],["defensa",-10.514344971793507],["fair",-10.514463503990061],["doute",-10.514822345643802],["2000",-10.515501201158628],["presentar",-10.517020034950686],["leaders",-10.517025605835197],["présence",-10.517244765052947],["precie",-10.517398594727158],["location",-10.517434645390288],["Marc",-10.518067759418244],["rap",-10.518630373746285],["mostr",-10.519105486635837],["niks",-10.519164000315875],["oferta",-10.519595866476756],["woon",-10.51988756089047],["success",-10.519900229252674],["movimiento",-10.52020844389543],["white",-10.520436369631444],["Th",-10.520726446035532],["Toda",-10.520761095751823],["mantiene",-10.520832863975356],["accidente",-10.521256451167917],["forte",-10.52267462250371],["2012",-10.522763305739753],["schedule",-10.523171569526632],["Civil",-10.523183656620242],["juge",-10.523548734292277],["mondiale",-10.52355321810606],["volk",-10.52448523864009],["agree",-10.524505150185137],["96",-10.524718672735318],["dix",-10.524853311301342],["absolu",-10.525323234082254],["loopt",-10.52568832497235],["tension",-10.526051381763015],["East",-10.526085330225829],["systeem",-10.526115654262696],["Thomas",-10.526139134365984],["élève",-10.52628476842052],["daily",-10.526350219674708],["decade",-10.526652910263188],["ima",-10.526858601964825],["IT",-10.526949241684754],["modern",-10.527056644594728],["250",-10.528271078125144],["fail",-10.528634647470188],["89",-10.528755679242124],["artiste",-10.528968833009209],["impacto",-10.529483621398963],["déc",-10.529563988459813],["ería",-10.53104927688201],["leider",-10.531494551768457],["citoyen",-10.531785222272887],["défense",-10.531814489712435],["klimaat",-10.532076911380278],["attempt",-10.532128905074053],["retrouve",-10.532148503420043],["cancel",-10.532265508077963],["Mosco",-10.53249476745735],["album",-10.532949360819226],["ties",-10.53354289313193],["alcalde",-10.533644565304522],["saber",-10.534429114388763],["ask",-10.535003847922471],["vader",-10.53504569388851],["kost",-10.535813563115804],["engagement",-10.53597840025905],["RE",-10.53765117230492],["amenaza",-10.538153252956679],["izado",-10.5381609856973],["multiple",-10.538225965177208],["others",-10.538423824619453],["growth",-10.538475918099522],["différente",-10.538619971625145],["encourage",-10.538685593963535],["vio",-10.538817409522313],["lange",-10.539382370545983],["cambiar",-10.540952095642908],["porter",-10.54102616046686],["voto",-10.541499543926657],["centrum",-10.54152728682444],["interés",-10.54161457084753],["défi",-10.541774932279694],["torio",-10.542350356172435],["ong",-10.543729105003216],["nummer",-10.544151647420428],["époque",-10.544193743532954],["lijst",-10.544206033514534],["Mag",-10.544508390760344],["contar",-10.54462959115676],["guy",-10.54462994483984],["capable",-10.544775335022376],["pression",-10.544783595651008],["nez",-10.545086693896653],["pit",-10.545213867208044],["arrêté",-10.546606064886166],["ê",-10.546734857197368],["veilig",-10.5470258452124],["kilómetro",-10.54713744596259],["ried",-10.547321301859881],["vorige",-10.54734640719937],["tenga",-10.54740149200735],["Cal",-10.547960415738208],["ergens",-10.548057381545844],["Ger",-10.548237569713763],["lower",-10.548458913642865],["precis",-10.548673746217311],["grands",-10.548850688429884],["zi",-10.549149247234933],["reprise",-10.549296051518848],["echnology",-10.549502644155218],["mouvement",-10.550176930002173],["esfuerzo",-10.550176963942484],["éxito",-10.550179558829829],["bigge",-10.55044343519942],["seek",-10.550829978614384],["understand",-10.551368630382674],["minute",-10.552156237284446],["step",-10.552396743788815],["marcha",-10.552737255244349],["Cap",-10.552847676678153],["Vladimir",-10.553225668864716],["emploi",-10.553343172928482],["lekker",-10.553513263446689],["vlucht",-10.553753916197987],["pad",-10.553954272581462],["kopen",-10.554036237309603],["libertad",-10.554061298681383],["specific",-10.55447895059325],["soi",-10.555371360500484],["VS",-10.555391195502],["européen",-10.555983425734464],["capacité",-10.556126576796629],["Dé",-10.556253081672113],["título",-10.556283908595871],["Musk",-10.557058137564992],["prevent",-10.557216523534919],["69",-10.557244232422732],["reduc",-10.557441898233751],["bro",-10.557896552854181],["eeded",-10.558016130270492],["bueno",-10.558131435228638],["aid",-10.558194270749642],["garde",-10.55820042311982],["Franci",-10.558226249235585],["regional",-10.559004504925506],["marco",-10.559073672975694],["usual",-10.559250605854967],["Consejo",-10.559351325400636],["whole",-10.559487606909114],["enfant",-10.559753872900426],["Bueno",-10.56000895641458],["vivir",-10.56029369196526],["Ana",-10.560424683479965],["Sport",-10.561000528997631],["différents",-10.561295680724683],["Ter",-10.56143386457449],["llama",-10.561506536460183],["sitio",-10.561515141087959],["ng",-10.561759153239684],["Government",-10.562635072312837],["73",-10.562728943698474],["cua",-10.563594104888075],["candidato",-10.563688582531693],["magne",-10.564263185221364],["zwaar",-10.564653309956402],["manque",-10.564903701467207],["Bru",-10.56491815057575],["demandé",-10.56501168759084],["industria",-10.56502486309877],["gr",-10.565340239578305],["Maroc",-10.56541196020186],["Comis",-10.5654937049717],["High",-10.565495252297403],["responsabilidad",-10.565514600111449],["alcohol",-10.565516706828149],["essential",-10.565525767448044],["ochtend",-10.565534159255444],["argentino",-10.565591680944486],["distanc",-10.566082396506218],["wanne",-10.56631603672634],["taine",-10.56657381446964],["ries",-10.567072108215989],["Men",-10.567255821770933],["fuego",-10.567423863927566],["ecember",-10.567657120927757],["longue",-10.5679197629684],["pregunta",-10.568398521794197],["bezig",-10.568532451111091],["escuela",-10.5688268626631],["inflation",-10.569234434148722],["commun",-10.569341517809715],["management",-10.56973940559648],["draw",-10.569937359408545],["daarom",-10.57029444762087],["mot",-10.57033504755769],["rant",-10.570522679025398],["carga",-10.570674593710063],["contribu",-10.57082129846756],["lutte",-10.571089028719861],["kin",-10.571315775302201],["bid",-10.571458505972856],["tecnología",-10.571716172177965],["smartphone",-10.57173793040417],["79",-10.57174592401682],["user",-10.57185646951186],["electoral",-10.57189020062353],["cab",-10.57209127888069],["department",-10.572174868208032],["middag",-10.572225164806422],["individu",-10.572255034676777],["maatregelen",-10.572365169100319],["Char",-10.572432057076773],["positivo",-10.572656978384536],["King",-10.573219311880813],["souligne",-10.573325427346447],["wegen",-10.573332612127674],["montre",-10.573436601550998],["detalle",-10.573598263930286],["periode",-10.57395495122384],["Dar",-10.574010520391159],["cultura",-10.574424838351241],["UN",-10.574517510736726],["59",-10.574804640653703],["Français",-10.574831434026148],["audience",-10.574832890716117],["iniciativa",-10.57484746086989],["pol",-10.57487582453614],["relationship",-10.574879947503568],["Gran",-10.574900902780225],["lance",-10.575195480368832],["Februar",-10.575219817846186],["block",-10.575228751306124],["pped",-10.575228765661738],["planta",-10.575295531587017],["presión",-10.575343324452671],["accusé",-10.575975517470997],["eten",-10.576112834779366],["mbo",-10.576159879307173],["driver",-10.57672188797264],["Wil",-10.57689672052959],["étudiant",-10.57689880476984],["AS",-10.576938567464902],["practice",-10.576999784397355],["horen",-10.577122324983488],["droite",-10.577152170959327],["fier",-10.577291218739948],["clara",-10.57734453031184],["Montréal",-10.577957768297122],["judicial",-10.577963518151662],["Mer",-10.578040297727647],["spel",-10.57811374921004],["huizen",-10.57823642703743],["eguridad",-10.57826986414877],["ES",-10.578518593828939],["Mijn",-10.578678847322523],["década",-10.579180857009298],["Rob",-10.579713982498678],["build",-10.579843372940116],["curso",-10.579854722063672],["enter",-10.579883915867363],["anza",-10.580199988992689],["ayudar",-10.580658761849062],["Poutin",-10.581241471949374],["volume",-10.581318461805845],["capitale",-10.581673432951934],["wife",-10.581725903751167],["56",-10.581786611343142],["abri",-10.58190802219794],["mix",-10.58201887928953],["wijk",-10.582067692517679],["link",-10.5829788922564],["venu",-10.583209187062279],["América",-10.58366619898195],["quality",-10.584061793346187],["extrême",-10.584235880480094],["acteur",-10.58425055399442],["revenue",-10.584508424952624],["debería",-10.58460031051131],["Sha",-10.58468543826013],["écran",-10.584761422111034],["aider",-10.584923577059545],["klein",-10.58497556313629],["hacen",-10.585042533385185],["Ça",-10.585884497283246],["participar",-10.585912770866937],["meilleure",-10.586413953578703],["Cat",-10.58658747870192],["visible",-10.586934871557172],["51",-10.587214036422308],["précise",-10.58732119285302],["particulier",-10.587390630602341],["example",-10.587407475209481],["quarantine",-10.587431453144177],["Sta",-10.58743309175501],["papel",-10.587692582166849],["incluye",-10.588014596335103],["Prime",-10.588355882445],["derde",-10.588570572950044],["kracht",-10.588631095416215],["terecht",-10.588994025101218],["tengo",-10.589204701405638],["infrastructure",-10.590555377739552],["kar",-10.590584096321955],["mandatario",-10.59063809303634],["teste",-10.590821751665953],["CEO",-10.590974350717199],["Aan",-10.591058120675697],["Antoni",-10.591205262526207],["sûr",-10.591938424622363],["propert",-10.591946794525716],["63",-10.592176130205761],["ninguna",-10.59235983122018],["genes",-10.59304368440673],["huidig",-10.5940910739663],["dog",-10.59424259860919],["cité",-10.594314335251427],["flink",-10.595090347342383],["screen",-10.595267218735227],["rou",-10.59622803059556],["étant",-10.596797196765323],["établissement",-10.59692631265235],["AC",-10.596984579030243],["describe",-10.59736266092861],["sufri",-10.597428417307222],["américaine",-10.598261627356823],["majorité",-10.598441217027073],["states",-10.598728299754288],["policier",-10.598775313343992],["tasa",-10.599183648782724],["tica",-10.59960519173648],["range",-10.59961337077737],["MP",-10.599653205835285],["éré",-10.59965907181672],["vertelt",-10.599753071601828],["avez",-10.600129373072669],["lluvia",-10.600142199248406],["plateforme",-10.600155390783666],["revenu",-10.600731199218014],["égal",-10.601977244614883],["loin",-10.602038519748103],["straf",-10.602301304619669],["transporte",-10.602313730351412],["roi",-10.60311435465302],["fácil",-10.60331511827027],["policy",-10.603332765851803],["superior",-10.603391758170496],["Many",-10.603974993098369],["Art",-10.604056602551449],["macht",-10.604141961580225],["dict",-10.604383678325862],["clase",-10.60484850269055],["Will",-10.605004063779582],["indica",-10.605147116930446],["woord",-10.605388801691054],["voit",-10.60543717487469],["daarna",-10.60578520644479],["lig",-10.60604825787107],["balance",-10.606050807435123],["compris",-10.606434354709156],["Association",-10.606529839873069],["Duitsland",-10.606530472513295],["réalité",-10.60664633259741],["urgence",-10.60664737176452],["Florida",-10.606648443115773],["meeste",-10.606982520979995],["Tar",-10.607071143311682],["contrato",-10.607356366056862],["pid",-10.607568396315497],["llamado",-10.607760698879014],["adapt",-10.608330315132779],["Pol",-10.608633503248289],["subi",-10.60864278567766],["restaurant",-10.609001295936386],["populaire",-10.609338668434642],["stroom",-10.609719359504949],["temperatura",-10.60975596745453],["necessar",-10.609757037232097],["juicio",-10.609761932581005],["Christian",-10.609771943414973],["Ains",-10.609822020228147],["inscrit",-10.609871782129975],["mediante",-10.609880093378843],["organization",-10.610186203526666],["error",-10.610855870982862],["créer",-10.611420290589287],["regio",-10.611658146433903],["peuple",-10.611919963864068],["instant",-10.61274909482991],["idas",-10.612923615954685],["negocia",-10.612992664347146],["makes",-10.613142644535785],["rece",-10.613553469306694],["intention",-10.613595973058139],["ándose",-10.613783858071052],["winst",-10.614473383586487],["barrio",-10.614885908813557],["reed",-10.615156784402762],["Defens",-10.615770940425838],["retrouver",-10.616082074108096],["compagnie",-10.616238593191653],["vakantie",-10.616244879546626],["daughter",-10.616291969721832],["débat",-10.61662574538417],["leading",-10.616653926902345],["conductor",-10.61691045277167],["wall",-10.616912860211496],["Ham",-10.617254928483831],["ño",-10.618327840945957],["detenido",-10.618608677025058],["MS",-10.618910886671387],["dingen",-10.61896397063656],["aff",-10.619088551634796],["accuse",-10.619089726264406],["considera",-10.619127995544108],["promo",-10.619198526602599],["Copa",-10.61966585633331],["armes",-10.619913894489304],["zelfde",-10.620080768748906],["Inc",-10.620397310912239],["helpen",-10.620711683344497],["klaar",-10.621037148756294],["abandon",-10.621064440262582],["patient",-10.621105009854173],["présente",-10.621349322557084],["Blue",-10.621432429317686],["gedrag",-10.621789245507927],["Russen",-10.62190248446816],["implement",-10.621931016098078],["environnement",-10.622126170955081],["spot",-10.622247595566927],["toma",-10.622504780764785],["inflatie",-10.622765628747011],["fiets",-10.6235586879566],["crea",-10.624576174324066],["BA",-10.624783942340427],["700",-10.6252851414831],["Sp",-10.625378128950043],["hechos",-10.625454883162853],["Disney",-10.62604363316883],["tenu",-10.626072120256978],["purchase",-10.626166631903882],["education",-10.627018325276591],["cam",-10.62716110436396],["divis",-10.627223905518274],["fonds",-10.627366683411932],["dirigeant",-10.627468335970384],["loc",-10.627645300997585],["kennen",-10.627674607460854],["gne",-10.627713018726524],["relatie",-10.627837618232718],["drugs",-10.627857681405217],["moto",-10.62873240853925],["voorbij",-10.62917398291782],["Même",-10.62933262585435],["justicia",-10.629405470742537],["guien",-10.629429502187563],["Toen",-10.629518246915264],["expliqué",-10.629847830508957],["anticip",-10.63020541778519],["colabora",-10.630471791943751],["86",-10.63082104826892],["salida",-10.630963291789259],["aliment",-10.63105017251152],["DE",-10.631237155456596],["ouder",-10.631522427832934],["duizend",-10.631810835214695],["center",-10.632195705704072],["mut",-10.632385947316092],["ping",-10.632449580598228],["mexicano",-10.63263238348749],["diputado",-10.632632539087082],["rico",-10.63276499461323],["Cruz",-10.632970997530876],["NA",-10.63298776629045],["lancer",-10.633201970179243],["jury",-10.633621369202075],["size",-10.633658653762325],["request",-10.633869395620753],["meerdere",-10.634107280354595],["affirmé",-10.634450276239594],["Fort",-10.63460325543528],["hip",-10.634649221249116],["representante",-10.635008812862974],["chemin",-10.63511879975973],["comercial",-10.635224043178408],["moral",-10.635535833095089],["ER",-10.635879092899781],["chaîne",-10.635943819091123],["blessure",-10.635956192972834],["Justice",-10.635977920745368],["belasting",-10.635999577311274],["Ser",-10.636002992183375],["standard",-10.63619306874939],["fac",-10.63630707087743],["gevon",-10.636995497512869],["anyon",-10.63715360507394],["WK",-10.63717430263354],["Sol",-10.637333911948843],["hoeveel",-10.637334953469416],["films",-10.637409709975422],["avis",-10.638047713665813],["technologie",-10.638171675850053],["Fin",-10.638355193316809],["âge",-10.638431723759062],["foot",-10.639098631423431],["waarschijnlijk",-10.639265908824417],["vite",-10.639349972134898],["kids",-10.639355983878987],["intervention",-10.639834448337254],["spring",-10.639912787945722],["tests",-10.64058254075231],["cumplir",-10.641438375423204],["materia",-10.642329393172993],["rode",-10.642597589811318],["relative",-10.642732369338553],["rusa",-10.643222634237468],["rain",-10.643303759171527],["vivre",-10.643577694828465],["tué",-10.643832111869646],["ID",-10.644379786360908],["véhicule",-10.644624648970812],["tente",-10.644860097698444],["style",-10.644892015240778],["Lors",-10.645137789834337],["officielle",-10.645544983965708],["golf",-10.64557461056247],["menace",-10.646018073288488],["fear",-10.646061736227185],["summer",-10.646149058132586],["firma",-10.646548164819201],["ich",-10.646835719891943],["aar",-10.647156295975327],["cree",-10.648245473914162],["variant",-10.648624363071107],["contacto",-10.648696629397037],["sche",-10.648896239925381],["activist",-10.648898222184263],["groei",-10.6493049661986],["trap",-10.64975417511404],["prob",-10.650111543102346],["Reg",-10.650116215623402],["enjoy",-10.6502156767291],["learn",-10.6506685153099],["manage",-10.651020806735314],["gevoel",-10.651340059916135],["Gr",-10.651487596844813],["resource",-10.651920703891008],["dora",-10.652072541921047],["boy",-10.652094502162164],["vlak",-10.652356957228903],["distinta",-10.652666580400277],["84",-10.652936896903526],["rill",-10.65296607758808],["figura",-10.653066201477678],["estudiante",-10.6530770716737],["aught",-10.653676877868259],["correct",-10.65371079837702],["voyage",-10.654317788284073],["réc",-10.65438318380752],["exclu",-10.655997505993355],["Mil",-10.656075827940171],["assurer",-10.656217697484035],["Garc",-10.656518856770148],["cuidado",-10.656926183419085],["blij",-10.656950547497367],["approche",-10.657560187753395],["ë",-10.65781890258106],["wood",-10.657968218817732],["distance",-10.657978036543703],["soldat",-10.658094893661538],["Director",-10.658276303114116],["ON",-10.658584145826799],["ways",-10.658614792817836],["rechts",-10.659237776617514],["encontr",-10.6594146218127],["estrategia",-10.659436807057062],["oplossing",-10.659488208085527],["critique",-10.659614808076093],["achat",-10.660144763499092],["futur",-10.660197985745645],["nette",-10.66024720159115],["treatment",-10.660259256921927],["rijk",-10.660462121074682],["completa",-10.660605283582349],["autor",-10.660695681790099],["mandat",-10.661040404580739],["preocupa",-10.661249970213216],["row",-10.66200763483996],["politiek",-10.662055514348111],["rock",-10.662752144897045],["réponse",-10.662836173655968],["Miguel",-10.662838121925574],["categoría",-10.662936564488456],["Nee",-10.663217362143849],["rum",-10.663579401263512],["afecta",-10.66364876163839],["moved",-10.663772206299543],["baby",-10.664015596794602],["recibir",-10.664247111805178],["progress",-10.665832145341696],["cop",-10.665922927626209],["etapa",-10.665964268725059],["border",-10.666105874163502],["suficiente",-10.666248959475393],["dizaine",-10.66625461312215],["ziekenhuis",-10.666282324278678],["Adam",-10.666438570256922],["cía",-10.66654109961662],["allá",-10.666651238402263],["cover",-10.666777796036817],["auteur",-10.667555733485024],["lack",-10.667595029377608],["ouders",-10.667922828005473],["save",-10.668200454366616],["tratar",-10.668605675027186],["diario",-10.66873578385544],["Ré",-10.669440643149414],["instala",-10.669521198221833],["Victoria",-10.669551425322638],["MI",-10.669641786847919],["AR",-10.669676608028944],["brough",-10.669947545582033],["passage",-10.670121893799353],["employé",-10.670443526016609],["estimate",-10.670953017840304],["asegura",-10.671048531991252],["declar",-10.671712853670272],["Alex",-10.671810689506938],["storm",-10.672217892547195],["fiesta",-10.672361800339978],["ica",-10.672866395805006],["€™",-10.673113747969584],["juez",-10.673611177212365],["étape",-10.673895752671552],["affirme",-10.673924100729824],["felt",-10.67413362557415],["laboral",-10.674286355301255],["totale",-10.674720097349281],["groter",-10.674788886253786],["adore",-10.674892573760063],["zak",-10.675103934704198],["arios",-10.675179965421286],["Israel",-10.675339391963675],["Hol",-10.675703454129366],["prime",-10.675883883860829],["BB",-10.676101572797199],["cash",-10.676161032856603],["liep",-10.676262517695513],["imagen",-10.676524035417456],["ration",-10.676645908447714],["commerce",-10.676647933026779],["facile",-10.676711116943814],["emergencia",-10.676730451662142],["travailler",-10.67761321612441],["Euro",-10.677728781291357],["98",-10.678257824706401],["Uit",-10.679040673839717],["EC",-10.679492062916523],["financier",-10.679494755315053],["soirée",-10.680621125100423],["quite",-10.680776985425936],["grade",-10.681093153910503],["tank",-10.682540656621265],["obras",-10.683003487506255],["alleged",-10.683583911964325],["libro",-10.683737805276323],["empez",-10.683872884867672],["decided",-10.684268562898485],["vons",-10.684563058777421],["CC",-10.68530534294836],["truck",-10.68550963857868],["idió",-10.685617192677334],["utilisé",-10.685816245953287],["conflicto",-10.68585732078001],["novel",-10.686654866410223],["themsel",-10.68680918519184],["trimestre",-10.686975267585131],["conflit",-10.686977386318182],["above",-10.687036764729287],["llegada",-10.687428301277244],["Congress",-10.687531463110759],["Más",-10.687594346876661],["documento",-10.687663111906174],["sense",-10.687814165079644],["ajoute",-10.687817873320043],["Che",-10.688004754318559],["norte",-10.68809726572218],["Pan",-10.688197106063022],["Toch",-10.689004886986979],["Hast",-10.689307035613954],["Onder",-10.68940355083232],["winning",-10.689876086061775],["voeren",-10.69008726225599],["82",-10.690446247846008],["augmentation",-10.690511033936374],["torneo",-10.69054154197172],["stelt",-10.69074398352523],["destino",-10.691110307045722],["RS",-10.691581599213354],["Chile",-10.691947398489633],["deberá",-10.692072224199766],["viol",-10.692518092100432],["alarm",-10.692800932101495],["queda",-10.693340420889193],["buurt",-10.693831407967112],["consumo",-10.69416847201448],["probablement",-10.694420662304697],["brief",-10.694559377972478],["gone",-10.69505678349505],["crear",-10.695789477063032],["suivi",-10.69600638366871],["noir",-10.696022723827513],["signé",-10.696035854369736],["Noord",-10.69617282145242],["reports",-10.696529034377445],["realizado",-10.69653632676805],["importe",-10.696570362246245],["gro",-10.69659760732328],["verkiezing",-10.696651028965967],["realiza",-10.69683514924317],["pos",-10.696843612235568],["guard",-10.696995592903217],["conférence",-10.69750146830846],["Fiscalía",-10.697592039824134],["dank",-10.697621590712368],["Every",-10.697623701972722],["Festival",-10.697649324903004],["comité",-10.698101140850255],["Instituto",-10.69820457772554],["pasada",-10.69832742655952],["estatal",-10.699609474754919],["relations",-10.699760894462294],["Ste",-10.699932433661647],["Bol",-10.69997730835853],["aplica",-10.70044147798269],["mitad",-10.70089196437596],["Council",-10.701035221228587],["Brussel",-10.701082486465504],["thousand",-10.701086789368178],["74",-10.701196428034788],["nchester",-10.701377460596412],["Bro",-10.701418397602371],["assuré",-10.701584837068756],["ballot",-10.701766643526136],["mani",-10.70198692532116],["aime",-10.70212161261605],["Public",-10.702142953212048],["schools",-10.702403511899778],["continuer",-10.703272567583486],["voorzitter",-10.703446579542742],["Deux",-10.704350717444935],["obstant",-10.704584306217424],["Certain",-10.704691641479567],["disfrutar",-10.704715866975349],["crowd",-10.70496957307972],["baisse",-10.705201839137299],["professionnel",-10.705605016468443],["ouverture",-10.706376040134304],["61",-10.706921464186664],["habl",-10.707397558706987],["RA",-10.707860424757802],["commencé",-10.708140346026754],["Ángel",-10.708144468134076],["natuur",-10.708149247494733],["critic",-10.708734566877556],["diverse",-10.709325301473989],["Ag",-10.709773967499796],["escribi",-10.710391570933886],["trial",-10.710564437869913],["reforma",-10.710681222634168],["join",-10.710682454017665],["médica",-10.711047618259075],["rig",-10.711130661429538],["devenu",-10.711484762910393],["François",-10.711711286165208],["véritable",-10.711711472560008],["Force",-10.711991280707782],["eeuw",-10.712014899736463],["maintain",-10.712512920824533],["credit",-10.712791925236502],["OM",-10.712911676836612],["nou",-10.71314304434697],["Juli",-10.713240322830158],["marin",-10.713666013039223],["hir",-10.71398913779852],["Mike",-10.714192755350144],["perdi",-10.714767700404025],["hur",-10.714787756665373],["activa",-10.714874696428314],["einde",-10.714998735760728],["Cour",-10.715167952424757],["gri",-10.715216796187523],["muziek",-10.715299995924482],["Office",-10.71530357042537],["affiche",-10.715352725663715],["empleo",-10.715354999693727],["presqu",-10.715456477879531],["drop",-10.715673274142059],["bell",-10.716141225240403],["fout",-10.716454431987696],["mooie",-10.716729610983894],["simplement",-10.716756280234314],["piece",-10.717060539450014],["encontraba",-10.717140310717806],["bestuur",-10.71752220486406],["confi",-10.718205037105312],["Bruxelles",-10.718892690026314],["medewerker",-10.718902815638806],["élément",-10.71900130121456],["civile",-10.719268192815573],["cultural",-10.7193357423677],["buscar",-10.719382109069475],["huge",-10.719886098349994],["prepara",-10.719953374848552],["Uni",-10.720002717115719],["pack",-10.7201987826204],["slechts",-10.720515525287993],["Angeles",-10.720619560834807],["jan",-10.720854698347662],["ramp",-10.720861552743202],["Kamer",-10.72091239228871],["opinion",-10.720944005594959],["tierra",-10.72133732963055],["estructura",-10.72134819223147],["conference",-10.72152100333009],["rouge",-10.721570136190579],["deur",-10.721594292217183],["BC",-10.721663577053171],["Chris",-10.722280462777846],["jar",-10.722386688659594],["anderen",-10.722455299322654],["historique",-10.722502779716779],["domaine",-10.722518938262876],["extreme",-10.722536159931156],["damage",-10.722878135175481],["avocat",-10.722895737738103],["gemiddeld",-10.722961658123385],["kamp",-10.722993264953292],["kieze",-10.723466090678553],["imagin",-10.723618739778228],["niemand",-10.72368494639936],["conflict",-10.724444576181732],["toekomst",-10.724724228797273],["provincial",-10.724754698649601],["ogró",-10.724902996422593],["adopt",-10.725720690408284],["wacht",-10.725816910897858],["Groningen",-10.726126812653247],["excellent",-10.726127145769354],["rápida",-10.72613271484214],["export",-10.726320714362615],["ukrainienne",-10.726568103682116],["pedido",-10.726896486932096],["jug",-10.727219303620664],["scherm",-10.7273548181695],["feeling",-10.727430789405862],["eran",-10.72778298172352],["AL",-10.728080931939932],["wist",-10.728199152822468],["incendie",-10.72957188141763],["Fu",-10.729650151256621],["gezegd",-10.729737530306155],["policial",-10.729817849095046],["création",-10.729951964078763],["Costa",-10.730231006995005],["Mari",-10.730448073973555],["conduct",-10.73045691433629],["arán",-10.731440545946956],["Eric",-10.731711716498683],["develop",-10.731734651628084],["alcanzar",-10.731847057861966],["poi",-10.73186083225845],["Aire",-10.732866976640299],["Rodríguez",-10.733411933237832],["continúa",-10.733412024610523],["impuesto",-10.733440211997785],["referencia",-10.733565238369616],["département",-10.733935335937801],["touché",-10.733975468667564],["various",-10.734267115984462],["hile",-10.734323967427603],["fête",-10.734455023591522],["beide",-10.734595289572475],["éviter",-10.734786938127424],["answer",-10.734968446599265],["fit",-10.734984433309158],["Democrati",-10.735349102521074],["acteurs",-10.736154257045204],["AM",-10.736308809676773],["réunion",-10.7365558175265],["Capital",-10.737085305508566],["collection",-10.73713890554832],["gua",-10.737251430533703],["televis",-10.737327552213493],["reactie",-10.737409380646199],["worke",-10.737509440398723],["middel",-10.737526161259963],["moyenne",-10.737556573719495],["file",-10.737666592296303],["contenido",-10.737686083737298],["pourra",-10.73768822571031],["hield",-10.738256710593095],["tribu",-10.73833434421556],["réalisé",-10.738467516500744],["choisi",-10.738870071171128],["Tor",-10.739401526793461],["plante",-10.73940997570543],["kke",-10.74036586705251],["touch",-10.740460346038073],["cámara",-10.740751512238319],["aanwezig",-10.740752565642953],["minuten",-10.740827025664956],["banque",-10.740925857666486],["trust",-10.741058176887636],["dolor",-10.741129679338448],["probabl",-10.741137499659791],["transfer",-10.741497953929397],["dacht",-10.741865630410222],["obliga",-10.74189948426946],["bag",-10.741957722481924],["comis",-10.7424377359541],["cancer",-10.742450060200019],["artist",-10.74258697556786],["hacerlo",-10.743397717743377],["professional",-10.743600249223153],["teams",-10.743981491001463],["ric",-10.744042238699496],["mobile",-10.744273282217662],["SS",-10.74433167444923],["Verenigd",-10.74445099548527],["Oost",-10.745065015679863],["organismo",-10.74513315148902],["temas",-10.745180765057444],["baan",-10.74566263853118],["obteni",-10.74642304388982],["LA",-10.746731709405545],["panel",-10.746759234025484],["Duitse",-10.74754134885827],["Big",-10.74764136461113],["dezelfde",-10.747691320532025],["spokes",-10.747778259357316],["Municipal",-10.747957565729084],["Nueva",-10.74819788968662],["Brasil",-10.748313253547419],["By",-10.748560627817291],["cinéma",-10.748718546490114],["ruta",-10.748719368632969],["señala",-10.748743066217791],["eventual",-10.748780266003752],["gener",-10.749050105054927],["decidi",-10.749163070286144],["possibilité",-10.749262806827923],["Beau",-10.749485632631803],["acusa",-10.750029072995286],["prett",-10.750029606119455],["Camp",-10.750563794855642],["tercera",-10.750829146073706],["gli",-10.750952022171248],["vervolgen",-10.751323069874642],["Post",-10.751364119512544],["présenté",-10.751655901131567],["symptom",-10.751861012236198],["dirigente",-10.751970044142567],["conversation",-10.752017232981926],["protec",-10.752160727002227],["liberté",-10.752401309771685],["vre",-10.752548536110059],["episode",-10.752587411473765],["wild",-10.75271657243422],["strict",-10.752856107984936],["conséquence",-10.752951702532924],["trein",-10.753288849725863],["African",-10.753318561237519],["escala",-10.753348199636369],["icieron",-10.753522037505872],["aspecto",-10.754015658799263],["fut",-10.754079801452692],["surface",-10.754185897965101],["exam",-10.754672289501269],["addition",-10.755019982770502],["enkel",-10.755409034100609],["supplémentaire",-10.755593963495429],["absence",-10.755595231302522],["picture",-10.755602310313607],["frontière",-10.7557569023325],["teacher",-10.75590438276928],["uren",-10.756009229136495],["sortir",-10.75635268996636],["arma",-10.756376177918295],["pena",-10.756548357944947],["Fernand",-10.756879059024069],["décè",-10.756952984110056],["Bull",-10.757070954169311],["deja",-10.75713086929895],["bijzonder",-10.757781459715696],["sports",-10.75783347882673],["sound",-10.75793464195928],["estoy",-10.758261689031889],["bil",-10.758621970285827],["marge",-10.759231916135686],["entrar",-10.759249895174733],["maximum",-10.759340128655094],["menores",-10.759440914266133],["représentant",-10.759717424924773],["verdad",-10.759916498355],["commence",-10.759981803729731],["status",-10.760176051185605],["science",-10.760836030688383],["Ministr",-10.760926960412098],["ME",-10.761102960607065],["Berg",-10.761271328894455],["retrouvé",-10.761432196093708],["souhaite",-10.761856874263174],["trait",-10.762076170012843],["European",-10.762105443978609],["lezen",-10.76226929145661],["generar",-10.762323537449777],["incremento",-10.762430005481455],["Cre",-10.762803836047107],["pull",-10.762843554324302],["west",-10.762899811531199],["Jorge",-10.763152480467198],["imá",-10.763419355029328],["bos",-10.763870481685018],["Williams",-10.76392394916765],["bleek",-10.764144506225204],["avoid",-10.764310223889716],["gaf",-10.764560338954587],["hear",-10.765004240640717],["betrokken",-10.765043045754823],["creo",-10.76538830276889],["Cabe",-10.765496195591712],["09",-10.766580944249132],["£",-10.766872265249336],["médecin",-10.766873077570178],["Río",-10.766892606179008],["massive",-10.766952645462293],["vir",-10.767135864422581],["deep",-10.767185117246186],["Since",-10.767188769723518],["campe",-10.767195224255953],["energy",-10.767366856522184],["scale",-10.767451117191516],["battle",-10.767821244078878],["revis",-10.768087684494537],["UU",-10.768343250040225],["App",-10.768543025279834],["balle",-10.769098465174114],["arrest",-10.769294323761288],["Trans",-10.769323557375827],["verdachte",-10.76963831150423],["helft",-10.770675201279634],["annual",-10.770696392710606],["partenaire",-10.77070602318653],["Secretaría",-10.770837072384497],["joué",-10.770846136600571],["pakken",-10.771131503771983],["importa",-10.771286755545564],["Tal",-10.771448198542426],["é",-10.771727405600728],["leiding",-10.77246934896003],["Cup",-10.772527650383351],["rural",-10.772557806929647],["extend",-10.772708851239818],["ieve",-10.77286467449554],["Barr",-10.773000941352315],["easy",-10.773184894881577],["alert",-10.77329894294367],["arned",-10.77333842855601],["recupera",-10.773360143685636],["SP",-10.773418521097499],["dorp",-10.77366398413962],["koop",-10.77367102422004],["learning",-10.774224565325444],["libera",-10.774414550103426],["armas",-10.774594305064102],["militant",-10.774604546257077],["influence",-10.7746734916939],["musical",-10.774734752934577],["café",-10.774846542028847],["bull",-10.774966224826313],["abilidad",-10.77537421897302],["arreste",-10.7753795458333],["noem",-10.775839439519022],["peor",-10.777294337743502],["municipale",-10.777726297856722],["aim",-10.777787110041169],["crois",-10.778105235824995],["served",-10.778225816288103],["Justicia",-10.77828398812319],["cuarto",-10.77830683424239],["Richard",-10.778325704273284],["hiver",-10.778918590691916],["aandacht",-10.779127092564888],["personeel",-10.779192742602662],["nier",-10.779239731083251],["voisin",-10.779672273992315],["antwoord",-10.77969750070033],["parc",-10.77975754766673],["81",-10.779843906126805],["trouvé",-10.779975136179461],["unit",-10.780396461455052],["amplia",-10.781113883863835],["gesprok",-10.781373152925411],["ducación",-10.781497601973967],["direc",-10.78177586132293],["gesprek",-10.78196608650072],["artículo",-10.78211063734912],["criminel",-10.782118003405442],["Suprem",-10.78214287995359],["reducir",-10.782194330294121],["texte",-10.782498357529963],["97",-10.7826313028357],["uses",-10.782825495640516],["directa",-10.783312931955209],["Bri",-10.78341822999382],["utiliza",-10.783455366672378],["path",-10.78412617378336],["Home",-10.784328410027005],["podía",-10.784433710867635],["ura",-10.784500027421561],["AI",-10.78465331194338],["arc",-10.78465873841246],["échange",-10.785735461589978],["drone",-10.78598360399689],["turne",-10.786233183187658],["bloque",-10.78629998108807],["speed",-10.786924635572063],["GP",-10.787050309342222],["comprend",-10.78809772081624],["Hill",-10.788134458193518],["NS",-10.788303037153975],["leger",-10.78853719234637],["wachten",-10.78865890691491],["journalist",-10.788723944219228],["paz",-10.788964335330716],["ick",-10.789217753821067],["participant",-10.789356257637936],["burger",-10.789431723299202],["Ayuntamiento",-10.78981779891982],["evidence",-10.789818156658988],["physique",-10.789818655177452],["sommige",-10.789826058039406],["Nieuw",-10.789839787910099],["mocht",-10.789893402099805],["risico",-10.789946420535586],["expand",-10.790261156221781],["souligné",-10.79053967473369],["pensar",-10.790809456321615],["maladie",-10.790960076533413],["item",-10.791447379959447],["incendio",-10.791605562392512],["earning",-10.791734072588392],["clé",-10.791890121991553],["engage",-10.792178375507788],["opvang",-10.7935625628402],["functie",-10.79369503800435],["keuze",-10.79369951035607],["investissement",-10.793704069223445],["From",-10.794394034280234],["corte",-10.794685613389316],["cell",-10.794687677119384],["Dor",-10.795207935129081],["dosis",-10.795238798578918],["manos",-10.796054621981199],["ombre",-10.796172626293261],["concept",-10.796662311927868],["Tho",-10.797236450023753],["AT",-10.797533928260098],["secretario",-10.797592475657332],["chacun",-10.797712755224259],["fruit",-10.797767267054214],["cantante",-10.797906399211872],["ical",-10.79820891361329],["millier",-10.79825923095574],["investment",-10.798714559241276],["schade",-10.798730273127426],["physical",-10.798958365918601],["true",-10.79911339817572],["ked",-10.799315654160068],["conocimiento",-10.799399601495322],["Nov",-10.799834603529401],["entend",-10.800240676588865],["changer",-10.80046681599372],["conseguir",-10.80051653241291],["sorte",-10.800826506207242],["Cámara",-10.80149113918323],["London",-10.801579053192057],["ventaja",-10.801938141246973],["DA",-10.802047720225358],["supporters",-10.802097510338527],["common",-10.802345461347677],["continent",-10.802359972444428],["slecht",-10.802369269570947],["flight",-10.802496104369848],["perform",-10.80304999584251],["stimul",-10.803080140315434],["beat",-10.803154481137817],["Ven",-10.803689596551145],["détail",-10.803802157220586],["aak",-10.804314642168912],["tim",-10.804365592852399],["push",-10.805160520204954],["ronde",-10.805368138377913],["120",-10.805393206269224],["centaine",-10.80549847404237],["Bell",-10.80561340935121],["sentir",-10.806244980497432],["Carolina",-10.80625541646594],["principe",-10.806313407404252],["informatie",-10.806366396838733],["Face",-10.806375710131132],["holding",-10.806455365422359],["ocasione",-10.806564859921],["ministra",-10.80715685029691],["sier",-10.807416069754229],["rule",-10.80749047251583],["Korea",-10.80752838439106],["tip",-10.808410929141537],["pair",-10.80849612506314],["tru",-10.809101615029679],["estima",-10.809260568694613],["propriétaire",-10.809349641174478],["scolaire",-10.809370876371814],["climatique",-10.80940028511569],["volle",-10.809411744706102],["zeg",-10.809546530457565],["operativo",-10.810004576994054],["reality",-10.8101656173057],["romp",-10.810212044112152],["aquello",-10.810395267628543],["voulai",-10.8104189996785],["ONU",-10.810427605349034],["aspect",-10.811607829421973],["sostuv",-10.811625668109551],["improve",-10.81172161851402],["lip",-10.811776073533778],["threat",-10.812024198933509],["atrás",-10.812234513824418],["plaatsen",-10.812342252694119],["contain",-10.812519468226327],["71",-10.812606949816123],["Win",-10.81309019987378],["Chicago",-10.813302688338204],["husband",-10.813302870690253],["Geen",-10.813314317985789],["Harry",-10.813356502640035],["België",-10.813371319611985],["Anne",-10.813791417311071],["Road",-10.814659928265053],["kerk",-10.815021466812714],["Jong",-10.815282050477325],["Simon",-10.815313584732369],["hout",-10.815845873355542],["politic",-10.81609645510548],["valid",-10.816682565630906],["choice",-10.81688593981314],["daarme",-10.8170915000283],["payment",-10.817183547359335],["januari",-10.817270577235494],["Gabriel",-10.817285367549047],["locatie",-10.817381027863686],["niña",-10.817387166705226],["Ejecutivo",-10.817574982507725],["gratis",-10.817602101257187],["Malgr",-10.817666582817173],["software",-10.817963123135609],["étranger",-10.817966554369761],["solicit",-10.81799136409555],["winnen",-10.818224606713029],["Banco",-10.818722731900994],["razó",-10.818776270528579],["tarea",-10.819662587631871],["perder",-10.819737357758239],["beelden",-10.819916668153962],["wonen",-10.820291545241602],["confirmé",-10.820346669384165],["Meanw",-10.820385292580305],["campus",-10.82047143920657],["invasion",-10.820863996382734],["herramienta",-10.82125452880677],["woordvoerder",-10.821254534193827],["edificio",-10.82125453631681],["subray",-10.821341441777687],["spreken",-10.821381922217565],["empleado",-10.821624234100433],["gebeurt",-10.821726762444293],["products",-10.821894401564089],["circuit",-10.822011384711656],["riz",-10.822162018414662],["environment",-10.822162507094252],["spec",-10.822213909912847],["quería",-10.822323221244806],["German",-10.82251393111093],["worst",-10.822988786980698],["Watch",-10.823544386529308],["spent",-10.823654487413858],["suivr",-10.823742216160841],["barre",-10.823958117311763],["wagen",-10.824041902846126],["convertir",-10.824468230554473],["Tim",-10.824964708213425],["médico",-10.825280521568075],["bastante",-10.825298841285711],["Haag",-10.82573004726624],["ritten",-10.825821521529985],["Frank",-10.82588148121588],["denkt",-10.8259315781944],["humain",-10.826155033337681],["Ley",-10.826157597902462],["Internacional",-10.826342565645731],["contexto",-10.826376202560823],["rob",-10.82649475081106],["stil",-10.826607007735994],["carbon",-10.82705553049059],["Auto",-10.82727178879533],["profiter",-10.82727949684024],["economie",-10.827313652117592],["Marie",-10.827366967094822],["volvi",-10.82745484395841],["och",-10.82773203394812],["streaming",-10.827935459380686],["domin",-10.827988170855543],["voulo",-10.828094342531948],["clair",-10.829166821381946],["ucraniano",-10.829270611381089],["vulnerable",-10.829281356813667],["compétition",-10.829282951049612],["Ligue",-10.829283597047311],["musique",-10.829304202861167],["feest",-10.82953313510728],["rug",-10.829900215089495],["kunst",-10.830050866484445],["pedir",-10.830430300187272],["Uno",-10.830641845632972],["Torre",-10.83092014970826],["marche",-10.831305091211796],["corrup",-10.831525705652812],["waarde",-10.831537922034052],["mic",-10.831564682032049],["2008",-10.83172628973922],["session",-10.832160477168816],["tandis",-10.83305831932462],["Pablo",-10.83330354803428],["fédéral",-10.833420307665264],["estrella",-10.833455987621711],["speelt",-10.833502828869996],["revealed",-10.83360706951879],["gagner",-10.833801290428399],["periodo",-10.833808944920488],["stream",-10.834133597349371],["voice",-10.834161356646167],["fines",-10.834702815151928],["Hi",-10.834709538993465],["concluy",-10.83473705237341],["hou",-10.834883084328013],["terminé",-10.83500186508973],["Dia",-10.835343154744837],["tend",-10.836192547640001],["calcul",-10.836487929650932],["Jack",-10.836757510501275],["arts",-10.836877274184825],["peligro",-10.836934970872893],["vital",-10.837022574452444],["invest",-10.837055421282974],["reporter",-10.83712763144198],["email",-10.837200579627066],["engagé",-10.83735287960603],["pese",-10.837363927008134],["code",-10.837857633866218],["league",-10.837958193422992],["begon",-10.83828098732432],["ouverte",-10.838355980305419],["montant",-10.838544685768582],["koers",-10.838555175923783],["positie",-10.838622730367302],["ën",-10.838899018916926],["placé",-10.839189477875141],["promet",-10.839226382657223],["coche",-10.839339894388193],["fuentes",-10.839372547941625],["ratio",-10.839903644264279],["verano",-10.839910301475001],["Far",-10.840003019488515],["producer",-10.840331598778883],["strak",-10.840490794890858],["ray",-10.840563132488235],["feit",-10.840750605805225],["verschil",-10.841243850071242],["piste",-10.841355581658917],["Microsoft",-10.84141769299927],["faudra",-10.841425234526183],["épisode",-10.84148031981997],["bâtiment",-10.841806416771867],["mostrar",-10.8422543072037],["showe",-10.842272014615371],["sacar",-10.84241477056042],["pouvai",-10.842669639636124],["loop",-10.84267979899514],["zoeken",-10.842818242877769],["véhicules",-10.843022650128313],["Cam",-10.843072941060653],["roman",-10.843360814669788],["ouvrir",-10.843425082095838],["MC",-10.843430074754679],["prove",-10.843472318893403],["!”",-10.84352853636786],["slachtoffer",-10.843836110110974],["complet",-10.84466029187343],["komst",-10.845333620132138],["planning",-10.845839091998501],["rules",-10.846077000495134],["champion",-10.846391373128574],["links",-10.846701045900932],["élevé",-10.84736622291253],["allait",-10.847395946259457],["peur",-10.847436161116377],["Hor",-10.847747369319382],["trokken",-10.847772045056718],["TA",-10.848507590094759],["thank",-10.84858930349561],["difficulté",-10.848968022289444],["citizens",-10.849140546162676],["mill",-10.849190121546624],["IA",-10.849454100770647],["issent",-10.849574231269528],["Rotterdam",-10.849596468245291],["wrong",-10.849604300049432],["oficina",-10.849611324323403],["pompiers",-10.849627178680214],["leadership",-10.849724101576186],["émission",-10.849934453349821],["frontera",-10.850549160671465],["vor",-10.85079422179453],["award",-10.851025894485533],["pil",-10.851636498469851],["kick",-10.851901671564296],["eken",-10.851920659097754],["bois",-10.852451863051161],["signal",-10.852855344021208],["bezoek",-10.853136448394846],["peso",-10.853387080535272],["voorkomen",-10.853569702492425],["máxima",-10.853711693594626],["numérique",-10.853711694139088],["término",-10.853711774986035],["caída",-10.853712840731529],["ejercicio",-10.853722276240031],["declaraciones",-10.854193097765684],["huit",-10.854208966007096],["hang",-10.854292381093853],["belge",-10.85461370637606],["mus",-10.855211824812208],["hol",-10.855349959038637],["présidentielle",-10.85551664871499],["usted",-10.855522789224462],["launch",-10.855993705205762],["Marine",-10.856368531858472],["gasto",-10.856711719429514],["quotidien",-10.857046949960152],["paper",-10.857107170357917],["tient",-10.85745867064819],["farm",-10.857628677995956],["Zelensky",-10.857843967031151],["supply",-10.857848496768437],["premio",-10.857873780391772],["competencia",-10.857874562997257],["accept",-10.857890020088615],["Radio",-10.858122773279135],["restaurants",-10.858326293886886],["hija",-10.858419734140966],["Belg",-10.859034187770101],["throw",-10.85921334875016],["née",-10.85972238464434],["apena",-10.860138642290602],["Sab",-10.860417255988445],["refuse",-10.860510283268479],["tab",-10.860715541973637],["Tro",-10.86102343402137],["CD",-10.86123074072023],["verkeer",-10.861259475070419],["pérdida",-10.86199695827245],["terminar",-10.862038361030024],["Cómo",-10.862039329421723],["papier",-10.862147144324023],["deuda",-10.862186415469438],["hermano",-10.862387557970136],["llamada",-10.862428113592436],["rappelle",-10.862481158833482],["analyst",-10.862531571551335],["agence",-10.862552257756198],["afectado",-10.862585490960361],["mac",-10.86269918547557],["Heb",-10.86337117843214],["comenzar",-10.863408139627147],["Nor",-10.863617758387946],["blessé",-10.863721655706028],["Ob",-10.864543993330654],["bouwen",-10.86459590029106],["solu",-10.864720593487968],["sell",-10.864770164741085],["conoce",-10.864912990976986],["coordina",-10.865033465812385],["kilo",-10.865109903476204],["continuar",-10.865257458140059],["Côte",-10.865297582006622],["tercer",-10.865597788806404],["schuld",-10.865732951340647],["circula",-10.865880995532684],["électrique",-10.86615996981015],["género",-10.866160032968985],["Vlaams",-10.866160599814673],["Zuid",-10.866181894853401],["pressure",-10.866269885264163],["fresh",-10.866419444605315],["ieurs",-10.866456643027124],["beginnen",-10.86664652706601],["Toute",-10.866710837344579],["ullie",-10.866798571252067],["handen",-10.8672295250902],["triunfo",-10.867371458162209],["tort",-10.867580182507968],["afirma",-10.868155815095324],["huur",-10.868789303912795],["kers",-10.868938626411529],["quart",-10.869018938628898],["proposé",-10.869223257742538],["controle",-10.869544570815377],["heard",-10.869601992303389],["río",-10.869820510186564],["exploit",-10.870102531201095],["provincie",-10.87034407641513],["procè",-10.870360184632121],["Team",-10.870401661232595],["crash",-10.870411370061984],["RD",-10.871084399954341],["finance",-10.871090394165732],["Pac",-10.871722201597574],["Messi",-10.871968782650882],["giving",-10.872117608219373],["medi",-10.872202682359617],["integrante",-10.872259913760509],["boot",-10.872783285762658],["inderda",-10.87279142179294],["ST",-10.873149354443285],["sloten",-10.873349071432024],["William",-10.873624224014119],["compara",-10.873971913293012],["photos",-10.873974575875987],["mondial",-10.87399571341099],["standing",-10.874163738250825],["diálogo",-10.874545761425477],["électrici",-10.874545768940564],["atteindr",-10.87454680338632],["nuclear",-10.874654189623023],["estadio",-10.874681920543651],["tratamiento",-10.874789769802046],["network",-10.875068739246366],["CE",-10.875443414969023],["imply",-10.875560618490118],["stal",-10.87560154646905],["estimé",-10.875719904290342],["verg",-10.876070254551372],["graden",-10.87610264489518],["EN",-10.876251146190635],["Som",-10.876518883343893],["Rock",-10.876641853836336],["arrivé",-10.87677126410107],["83",-10.876864372099899],["atrice",-10.876956684070349],["boom",-10.876999766343605],["drama",-10.87705586116424],["loze",-10.877213297533071],["electric",-10.87806563268006],["faisant",-10.878612110563115],["rog",-10.878673019336047],["ö",-10.878765159207637],["Kremlin",-10.878765213523085],["ssement",-10.878765545766768],["logique",-10.878818109923106],["sung",-10.878921612629973],["banda",-10.878993325857174],["enregistré",-10.879014287506354],["PA",-10.879120185723082],["agents",-10.879239977327718],["goes",-10.879243256966113],["migrante",-10.879304910489212],["delante",-10.87933192701971],["appeal",-10.87962800895262],["participation",-10.879738632992094],["roepen",-10.88010832799009],["leren",-10.880153933682768],["pension",-10.880624532216915],["ough",-10.882162181891594],["classes",-10.882450986304441],["hará",-10.882479680746341],["Cuba",-10.882814029816583],["Algérie",-10.883002739971744],["PI",-10.883101878185624],["Franse",-10.883431406105181],["funding",-10.883512812750599],["remember",-10.884248210050856],["notice",-10.88432101903982],["dak",-10.885403499316606],["Lake",-10.885872814552004],["Indian",-10.886269598123219],["consult",-10.88638520471579],["normale",-10.88639628886807],["Senat",-10.886457068967015],["Tan",-10.886780032230181],["pire",-10.887076811962274],["intérieur",-10.887257805703209],["function",-10.887258819989047],["amarilla",-10.887269115533037],["lijke",-10.88740735853413],["trainer",-10.887413611964549],["integra",-10.887640336085177],["pens",-10.887640918363516],["perte",-10.88779997547941],["wezen",-10.887846170626005],["ancienne",-10.888604139645647],["completo",-10.889225088720439],["rac",-10.889276956681556],["bert",-10.889324614341351],["Comp",-10.88934128611192],["buitenland",-10.889530280659663],["mené",-10.889633971675677],["invité",-10.889668727582357],["carry",-10.890190096186853],["tap",-10.890225622034317],["voldoende",-10.890845381669298],["nivele",-10.89095864272602],["belangrijke",-10.89112463603648],["zing",-10.891485829507085],["buil",-10.89151836141122],["spectacle",-10.891531283924797],["nommé",-10.891549670893564],["agricultur",-10.891607956907574],["tendencia",-10.891616079429802],["judge",-10.891633680858991],["bericht",-10.891769632487485],["faisai",-10.891985148958394],["vertrouwen",-10.892195857476665],["followed",-10.892266911045306],["kill",-10.8925357751402],["potencia",-10.893208017685499],["transmis",-10.893453390157536],["isée",-10.893531561450573],["preuve",-10.893562303131045],["Wall",-10.893649740808433],["instance",-10.894275253033602],["discuss",-10.894589125543607],["titel",-10.894991493452547],["tool",-10.895017483305978],["connect",-10.8953090321771],["Last",-10.8953763372764],["income",-10.895424592982677],["arro",-10.895427003357241],["alternative",-10.8958308291535],["productor",-10.895833896812317],["verantwoordelijk",-10.895856080694383],["tonne",-10.89609475913231],["nood",-10.89611297555673],["mesa",-10.896135580462381],["jobs",-10.896141332529126],["Well",-10.896169964228658],["confianza",-10.89633219836109],["alimentos",-10.896358657074295],["manifestation",-10.896416546661925],["burn",-10.896479959863466],["industrial",-10.89673557507195],["shut",-10.89696000931264],["vague",-10.897737479900549],["habit",-10.89794825544682],["juni",-10.898255653666872],["Tur",-10.898396641664384],["porté",-10.898532584153866],["éra",-10.898570054186969],["constante",-10.89922660211319],["Veel",-10.899626332140231],["cine",-10.899653141825805],["reache",-10.900010397504253],["geweld",-10.900028841417669],["Brown",-10.900250877714138],["Gal",-10.900255888120572],["87",-10.900510088400718],["1er",-10.90087110996254],["Rac",-10.90126553997527],["gado",-10.901410414341779],["Republican",-10.901898503572294],["compar",-10.901968891425376],["usar",-10.902151024041217],["issant",-10.903326196321562],["korte",-10.904191407707042],["funcionarios",-10.904257672939472],["viel",-10.904396454402919],["Martín",-10.904437139254956],["judiciaire",-10.90446253418525],["Puerto",-10.904465920189175],["sueño",-10.904632332691916],["cierre",-10.904642661118803],["VVD",-10.90468294045435],["segment",-10.904686499141171],["logement",-10.90483988185072],["soms",-10.904974628892196],["begint",-10.905068739237109],["trend",-10.905099029955775],["supuesto",-10.905124705330925],["probable",-10.905135983046575],["ification",-10.905714896913],["lica",-10.90590993889224],["Otro",-10.906050597734911],["ice",-10.906185666902944],["filtr",-10.90658027009019],["asil",-10.906940309115878],["derrota",-10.90723276202145],["rath",-10.907686536790255],["passed",-10.907709247058309],["CR",-10.907734976531701],["duur",-10.907971805015588],["fera",-10.908306769836004],["Party",-10.908366201513182],["inspir",-10.908631676039365],["éro",-10.908655785980233],["Servicio",-10.90881082404973],["Britse",-10.908818752648545],["spraak",-10.908850306975866],["RC",-10.908940015948847],["Daarnaa",-10.909125814116564],["elk",-10.90913097857505],["sommet",-10.909308180398885],["revel",-10.909470646976276],["presidenti",-10.90985349517582],["gedacht",-10.911044731782162],["viven",-10.911224648342358],["CH",-10.911860008383297],["sister",-10.911864863341592],["wish",-10.911922169072447],["detect",-10.911960416588382],["auron",-10.913011593211827],["teléfono",-10.913177104631204],["nucléaire",-10.913177110119513],["Alejandr",-10.913177412768688],["pequeña",-10.913178294442918],["combustible",-10.913182714424241],["tag",-10.913364603578168],["Guardia",-10.913406214444034],["fiance",-10.9136162055613],["favorable",-10.913783076117173],["otte",-10.913952197130506],["Cro",-10.914009019335468],["born",-10.91402067594781],["division",-10.91455509946356],["UR",-10.914635961548235],["supone",-10.915334214510596],["asocia",-10.915336492746981],["sentiment",-10.91533668209508],["Sou",-10.915382093606908],["cuest",-10.91552885900913],["plainte",-10.91557120456658],["́",-10.916328344270486],["verbod",-10.91702650165912],["registro",-10.917400672560245],["necesaria",-10.917563400518695],["stuur",-10.91760051425972],["ervaring",-10.917606600029877],["podium",-10.917614978602725],["créé",-10.917647524951585],["Wal",-10.918282870405385],["zware",-10.91832555283947],["touche",-10.918871086103474],["descend",-10.919349921994197],["gebeur",-10.91942619782284],["diferente",-10.91990517137116],["clasifica",-10.919962652312208],["amour",-10.920491835181123],["permit",-10.92184421026901],["Minnesota",-10.92196856861381],["condamné",-10.921969184006228],["abogado",-10.92197159098275],["England",-10.921984988926148],["First",-10.92199042067693],["afstand",-10.92210351012507],["discours",-10.922633124838994],["sleep",-10.922690518104908],["aventure",-10.922718913008131],["secret",-10.922796056064328],["remporté",-10.922806947921352],["begrijp",-10.923292574132725],["calles",-10.923641474043324],["insist",-10.923845639316852],["NC",-10.924052819018899],["ús",-10.924215384491841],["banco",-10.924316151646334],["NL",-10.925400296777457],["aña",-10.925616983641607],["Champions",-10.92638051665601],["storie",-10.926699463466631],["Media",-10.926971417212169],["ónica",-10.92718493679085],["llegado",-10.927232477517334],["teurs",-10.92750455479969],["ément",-10.928231373577166],["Sub",-10.928568334386839],["protocol",-10.929195041473314],["sumar",-10.929321959070318],["ocas",-10.929331017462998],["régime",-10.930525074032293],["slow",-10.930644991164312],["premiers",-10.930707784230563],["Scott",-10.930805304492726],["older",-10.930833895479092],["increasing",-10.93084028190985],["intent",-10.930910447587367],["brother",-10.930942155946807],["ari",-10.931184106602238],["Fox",-10.931390434486136],["adolescente",-10.931404876536172],["Presidente",-10.931411244531105],["Tesla",-10.931977982431823],["Alberto",-10.932077217739327],["pleine",-10.93252905074117],["quién",-10.932530422760642],["broad",-10.932732818319167],["drug",-10.932846964043451],["infec",-10.93297602016337],["invite",-10.93305298182082],["dieren",-10.933111807791935],["représente",-10.933151724883263],["cadena",-10.93337819423122],["collaboration",-10.933491434994469],["clean",-10.933761180121769],["klanten",-10.933785770776034],["centra",-10.933815110444364],["presta",-10.93401137620867],["tienda",-10.934871546253815],["critical",-10.93505599447275],["González",-10.935301863942154],["offensive",-10.935303195466847],["abierta",-10.935315929290926],["Gro",-10.935326626209019],["cuál",-10.935391875541184],["común",-10.93542021395271],["encima",-10.93547639331237],["successful",-10.935498706500166],["persoon",-10.935798162637775],["OTA",-10.93667032748337],["Most",-10.93711628086155],["Jones",-10.93737042355911],["VA",-10.937731575350089],["comprar",-10.937847821616923],["Jim",-10.937898767841013],["reserva",-10.937907596138551],["termijn",-10.938172438466445],["Belgisch",-10.93840294950273],["PE",-10.938549669371081],["adding",-10.938771695986365],["schrijft",-10.938773622608586],["entorno",-10.93885161517494],["achtig",-10.939370295338561],["rêve",-10.939442307963832],["Obrador",-10.939790162608684],["Ajax",-10.93979691824347],["Martínez",-10.939819358663193],["gor",-10.940014723771323],["rado",-10.940130922238094],["exception",-10.940209419707553],["gericht",-10.940286714437923],["gingen",-10.94048162639843],["stick",-10.940587456528263],["uck",-10.940690138047252],["excuse",-10.941188262768742],["muerto",-10.941245915389327],["pill",-10.941247709100438],["ár",-10.9413543291909],["upon",-10.941562153259035],["parcours",-10.941570243172222],["emiti",-10.941688643476237],["socio",-10.941689816073938],["gebouw",-10.941769122827811],["endroit",-10.941788309241034],["trice",-10.941880521762766],["taal",-10.942028403847155],["hoogte",-10.942311719865417],["recordar",-10.94242194098197],["hot",-10.942587937928078],["diensten",-10.943183512917873],["bedrag",-10.943476393697967],["PD",-10.943554047476642],["NH",-10.94362128356404],["county",-10.943724015115377],["liga",-10.944222046050196],["agreement",-10.94423279873997],["Elizabeth",-10.944290677578183],["Santiago",-10.944291197142167],["chev",-10.944296982890437],["hundred",-10.944314224121538],["abierto",-10.944427124969604],["Patrick",-10.944482293395984],["découvrir",-10.944509308091572],["Shar",-10.944550044328537],["Santé",-10.944722863463344],["hands",-10.944749557954173],["affect",-10.944980375223523],["grad",-10.945011726106904],["tennis",-10.945060713977863],["cumple",-10.945233936072317],["semi",-10.945326926670003],["puesta",-10.945405240435047],["pont",-10.945433988904394],["lejo",-10.945664917222665],["caus",-10.94582130444292],["vriend",-10.945989297958693],["onge",-10.946052465013636],["personaje",-10.94611139046042],["cup",-10.946281784071898],["elect",-10.94645838799568],["Mak",-10.946517174374698],["pone",-10.946679561100938],["klink",-10.946769779664505],["vivi",-10.946776018086926],["Corte",-10.947325574219693],["apunta",-10.947995285816134],["lastig",-10.948428220794895],["nazi",-10.9486468569604],["grens",-10.948662524653436],["Cho",-10.9487182264343],["página",-10.948815565512067],["física",-10.948815665181666],["temperature",-10.94881602334545],["Tribunal",-10.948852311662588],["discurso",-10.948903656360802],["rendez",-10.949027752467401],["D66",-10.950173071450568],["integr",-10.950220725177273],["aumentar",-10.950410176975186],["courant",-10.950722987145426],["Tele",-10.950748587679769],["exchange",-10.950878847743999],["Nic",-10.95091712353643],["sky",-10.951193277006551],["fijn",-10.951296391036838],["obtener",-10.951299681842112],["villa",-10.951322632185086],["vari",-10.952239752074467],["ocurrido",-10.952308068320356],["Transport",-10.952791874579098],["haga",-10.9531330898449],["móvil",-10.953187158073034],["financière",-10.953361018269835],["elektrisch",-10.953361018362266],["passion",-10.953386231427999],["déclaration",-10.95339041799069],["puissance",-10.953446738646623],["rank",-10.954018545726075],["september",-10.95431197664753],["considere",-10.954325424441999],["hoeft",-10.954482827979131],["claime",-10.95449777622973],["Nada",-10.954847738116477],["doble",-10.955213790113984],["Hace",-10.95532412114131],["politieke",-10.956598090281869],["sorti",-10.956758344301601],["index",-10.956797382719888],["gehaald",-10.956872001529849],["search",-10.957032651191527],["experiment",-10.95707026374567],["rica",-10.957272951277153],["Nicol",-10.957304095248531],["maker",-10.957323355393624],["texto",-10.957488062219568],["rib",-10.957574177625272],["TE",-10.957911472515303],["tráfico",-10.957927265848097],["vluchtelingen",-10.95792775440658],["foreign",-10.957938049219107],["implica",-10.957944111935458],["futbolista",-10.957991175550045],["Perú",-10.958256561607072],["persoonlijk",-10.958261100969299],["complex",-10.958486550063391],["bevestig",-10.958768486375117],["parecer",-10.959300480875395],["entretien",-10.95969562595001],["salaire",-10.959730905450382],["ujourd",-10.960167685636733],["robo",-10.96032763652302],["Lib",-10.960668874435402],["télé",-10.96066943536404],["cycle",-10.960792110002021],["ève",-10.961210808690783],["règle",-10.961336963459374],["veille",-10.961931925619758],["maak",-10.962158692304069],["Mercedes",-10.962558853564904],["Two",-10.96265268045224],["presupuesto",-10.96268076979649],["impression",-10.962684317940791],["stemmen",-10.962847323307573],["omgeving",-10.962896133212817],["Chan",-10.963201539675985],["transform",-10.963313048253456],["kleur",-10.963528499932995],["pobre",-10.963855527668983],["pier",-10.963975784314464],["examen",-10.964043143613333],["saisi",-10.964151746203799],["Station",-10.964381637553938],["finish",-10.964420551892772],["realizará",-10.96467407264549],["wit",-10.964837029424759],["Island",-10.96515072509114],["Royal",-10.965281277104157],["gast",-10.965537455296573],["ambiente",-10.965605046386234],["asking",-10.9656650660886],["Game",-10.965748575870194],["canal",-10.965832528831355],["Vin",-10.966189146786228],["versie",-10.966283231311534],["movement",-10.966420428942385],["Shi",-10.966446405557695],["actuel",-10.966805676875582],["section",-10.967077246057151],["régulière",-10.967122675765435],["britannique",-10.967122675877146],["reflect",-10.967151050221371],["agency",-10.96717584037803],["entrenador",-10.967176210593637],["neuf",-10.96728955142735],["climate",-10.967391993850022],["stappen",-10.967405098912781],["espère",-10.967671569179107],["agres",-10.967860834057857],["herido",-10.967873909121188],["migrant",-10.968218355854724],["scenario",-10.96863335873947],["moord",-10.968730265867784],["menu",-10.969015399305988],["impuls",-10.969186319800935],["espacios",-10.969270004740476],["Santo",-10.97049892578901],["infecte",-10.970579332335099],["protesta",-10.970658611567945],["IP",-10.970772147938842],["appelle",-10.971187242092924],["stikstof",-10.971752574880895],["voormalig",-10.971766655907505],["utiliser",-10.971849467231923],["disposición",-10.971957397160478],["vou",-10.97229491087338],["Ban",-10.972416036641285],["verkoop",-10.972784341696496],["presentado",-10.972877074806316],["langue",-10.973004703012624],["poca",-10.97318658408793],["Agenc",-10.973201185705165],["constat",-10.973565811550202],["Pal",-10.973857064685994],["audio",-10.973978783925755],["réforme",-10.974376510936736],["NI",-10.974531020120661],["conduc",-10.974774687112642],["augmenter",-10.97504504943375],["zeven",-10.97518464930878],["nforcement",-10.975305284629215],["gesloten",-10.976291974367626],["departamento",-10.976403571804674],["Alemania",-10.976404205329136],["posterior",-10.976407719427336],["espoir",-10.976422425306776],["nueve",-10.976468978546375],["génération",-10.976644829075745],["obligation",-10.976844742660557],["assistance",-10.977093582094987],["génér",-10.977260619309016],["enfrenta",-10.97732548611205],["camion",-10.977514975650692],["provid",-10.977778412057322],["voet",-10.978232514505436],["alone",-10.9782705831927],["konde",-10.978402426860075],["productie",-10.978557487699119],["kker",-10.978691546027685],["sali",-10.979010516361004],["besluit",-10.979015335736023],["proper",-10.979194560405244],["prévue",-10.979298800549108],["blad",-10.979320603521149],["cuestion",-10.9793677066605],["Anti",-10.979635141624],["hop",-10.979792948699021],["requiere",-10.979841990130417],["RT",-10.980023587635428],["omos",-10.980698765372589],["launche",-10.980751933688518],["vait",-10.980852270339243],["Pérez",-10.981088268772755],["lager",-10.981136122817539],["offrir",-10.981149322491559],["ontwikkeling",-10.981581595080055],["opper",-10.98164452000171],["elling",-10.981761535034636],["larga",-10.981764137909202],["servir",-10.9820132885074],["quiera",-10.982041056372516],["clip",-10.982145162190868],["penal",-10.982328078013378],["legt",-10.982676910214634],["EL",-10.982698517548558],["personnage",-10.98321349804154],["unité",-10.983542171236838],["declara",-10.983606857313546],["alia",-10.983693508563189],["tranquil",-10.984451630691137],["funcione",-10.984512704095835],["aard",-10.984667807881397],["gezondheid",-10.984939749405806],["heet",-10.985303961690299],["ebruar",-10.985455569326543],["EA",-10.98557960746965],["négociation",-10.9857712010792],["cuyo",-10.985795171795218],["habitual",-10.985826586495548],["Verstappen",-10.98589163657454],["favorite",-10.985900017382667],["ultra",-10.985929621273709],["studenten",-10.985938354134563],["âgé",-10.98600555312791],["vuelve",-10.986048249177244],["altura",-10.986128289018858],["Alleen",-10.986852664589087],["ologie",-10.986907432587346],["billet",-10.987309476803507],["AD",-10.987499128998532],["vuelo",-10.98769289975733],["esperar",-10.988782574263517],["ocupa",-10.988972095754857],["zon",-10.989053537602956],["rechaz",-10.9892618326436],["universit",-10.989325665035004],["compter",-10.989394592628479],["ferme",-10.989548056279865],["Está",-10.989728709408386],["iller",-10.989914773299548],["overall",-10.990273560565544],["stations",-10.990313061998311],["responsabilité",-10.990488182290232],["equipment",-10.990493103813488],["kilomètre",-10.990527207208753],["hockey",-10.990537975563242],["alimentaire",-10.990691198880427],["distribution",-10.990818703357],["permanente",-10.990841367687052],["Comité",-10.990857022253604],["chiffres",-10.990868260979607],["promotion",-10.990947521964017],["endant",-10.991097064993959],["abilité",-10.991486961439442],["motion",-10.991543630402347],["neutral",-10.991567163250558],["optie",-10.991672696869845],["Any",-10.991673428424752],["promedio",-10.99176004180957],["Nou",-10.992570502796323],["celebrate",-10.992594727455675],["dress",-10.992870019056614],["belang",-10.993168801928261],["Avant",-10.99334232568831],["claire",-10.994090731570642],["izada",-10.994129159982856],["ought",-10.994612034911825],["Grande",-10.994612828346499],["circul",-10.994941975807548],["riv",-10.994951594508866],["técnica",-10.995227531844266],["TikTok",-10.99522767963227],["correspondiente",-10.995228966511322],["subject",-10.995231719021273],["Mayor",-10.99572730144797],["Mali",-10.995770267198349],["namen",-10.996085749131673],["comida",-10.99633065081858],["proposition",-10.996365786951323],["bepaalde",-10.996673158574682],["permett",-10.99670871728862],["absolute",-10.996727482423042],["rose",-10.997020994169853],["1000",-10.997154472143077],["mando",-10.997643088938435],["union",-10.99765410040144],["ambi",-10.997722977054533],["Ferr",-10.997844801786785],["viral",-10.99788351574697],["normaal",-10.998172189078327],["flat",-10.998514136534354],["adult",-10.998869943970401],["relacione",-10.999606719456246],["mínimo",-10.999992314981576],["NFL",-11.000006300386072],["Here",-11.00001386250129],["empezar",-11.000026897401494],["personen",-11.000029785474352],["diseño",-11.000030593256962],["gate",-11.000034019547087],["enorm",-11.0000839925464],["rechtbank",-11.000268191911537],["enfrentar",-11.00063556917236],["investigador",-11.000838435323855],["contexte",-11.001311358329552],["sometime",-11.001348391196931],["suele",-11.001378807666226],["recibido",-11.001718114380534],["diez",-11.002235443065388],["sang",-11.00264817671632],["gira",-11.002932351809598],["Hall",-11.003050264336649],["cible",-11.003283249801456],["94",-11.003285473690513],["anual",-11.003740622244473],["mène",-11.00381307409446],["fraude",-11.003933206690366],["ún",-11.004191000233138],["sturen",-11.004256902851026],["Fund",-11.00432674746176],["Valencia",-11.004635615124622],["bewust",-11.00477446785709],["pomp",-11.004845187360544],["tournoi",-11.004917232145381],["Kevi",-11.004927550530766],["Andrew",-11.004973710689141],["políticos",-11.005070541870875],["Londr",-11.005097083453029],["leiden",-11.005145784598035],["naturale",-11.00524001150357],["attente",-11.005373096859923],["Twee",-11.005427261850794],["nouvel",-11.005623782010474],["héro",-11.006064930662593],["Thi",-11.006123704415737],["tors",-11.006211381290687],["yond",-11.006361578583274],["91",-11.006416475105063],["profesor",-11.006697014986045],["shooting",-11.006847466020638],["Mé",-11.006882157661432],["ministerie",-11.006885525302991],["reconnu",-11.007248432625406],["pourron",-11.007590542628428],["utilizar",-11.007796466825766],["cay",-11.007823140287378],["liever",-11.007851033227098],["Fire",-11.007938948579474],["situé",-11.008096582666532],["mono",-11.008838151904385],["primar",-11.009426992750615],["registrar",-11.009522431428373],["attendr",-11.009530251666208],["secrétaire",-11.009581811077098],["venezolano",-11.009581811241182],["Frankrijk",-11.009609857433997],["Sergi",-11.009617246869182],["Harris",-11.00963276685307],["Liver",-11.0096611208264],["rus",-11.009747813904735],["ww",-11.009870862232969],["laisser",-11.009952337276012],["respective",-11.010000231494196],["import",-11.010405980647462],["participer",-11.010624928338292],["wissel",-11.010653322248888],["Bos",-11.010653962086659],["decline",-11.010770440417652],["rigen",-11.011634691227414],["stoppen",-11.011764355958078],["Quan",-11.011900386726122],["membre",-11.012023415936723],["snap",-11.012543848092168],["bail",-11.012899189472293],["Él",-11.013151473107449],["guide",-11.013374695096871],["explaine",-11.013717867932105],["defend",-11.013998119848143],["schrijven",-11.014412761901937],["ktober",-11.014438057339056],["eft",-11.014485412604545],["guideline",-11.014769637680114],["liefst",-11.015016187306738],["geloof",-11.015041830084854],["governor",-11.015069552182126],["cord",-11.016176855971796],["revanch",-11.016277778342669],["offering",-11.016330983353127],["tenue",-11.01657011331254],["bron",-11.016643939636047],["VI",-11.016675483779933],["rub",-11.016714339572292],["habita",-11.01683470649862],["economisch",-11.016875173817382],["obtenu",-11.017191527134862],["ête",-11.017858633027608],["trouble",-11.01858313835009],["pendiente",-11.018999262960993],["dur",-11.019097081670598],["*",-11.019267091535788],["étrangère",-11.01926709947475],["Portugal",-11.019267128532956],["supérieur",-11.019267150473318],["carretera",-11.019267479355207],["telefoon",-11.019271214729578],["appareil",-11.019304261764564],["géant",-11.01956108154615],["treat",-11.019697422886747],["nomina",-11.019700543413414],["Oscar",-11.019765675412424],["empresario",-11.019868241990938],["sprake",-11.019943093909855],["efectivo",-11.02015878302662],["sluiten",-11.020392610348942],["arriver",-11.020915551231504],["coin",-11.020996382062584],["humor",-11.0212128650831],["CS",-11.021403086827638],["Nog",-11.021473318222979],["affecte",-11.021983400940625],["92",-11.022202276642133],["erreur",-11.02259644714881],["Fo",-11.022763480186917],["ock",-11.0228157129841],["Tous",-11.023061803997491],["ibilidad",-11.02324005216883],["ssant",-11.023729258902126],["tradition",-11.023892944560679],["cerr",-11.024031703451797],["cérémonie",-11.024145140546628],["extérieur",-11.02414514270425],["burgemeester",-11.02414550515894],["twintig",-11.024148879007576],["inwoners",-11.024157147147818],["volonté",-11.02416954905176],["rian",-11.024195806131111],["jongeren",-11.024322847530929],["Prince",-11.024426087145757],["funcionario",-11.024529115648955],["GE",-11.024720086591937],["Tech",-11.025089768151807],["definite",-11.025111027381413],["tuin",-11.025304375766405],["fourth",-11.025418492403983],["Nav",-11.025473523950597],["coraz",-11.02567493224994],["groen",-11.025775137860535],["midden",-11.025932646750464],["Angel",-11.02639599442674],["mening",-11.026431295286802],["Pap",-11.026552350925861],["dividend",-11.026689894929959],["entendu",-11.02704864174165],["española",-11.027676123833096],["Miam",-11.027872009532759],["instrument",-11.027878556317152],["hair",-11.02794689317829],["cré",-11.028040578150698],["registrado",-11.028226846328968],["cyber",-11.029015838527735],["siècle",-11.029047112008804],["numéro",-11.029047175891247],["blood",-11.029066620738945],["dispositivo",-11.029143823624544],["accusation",-11.029175433996837],["docente",-11.029238679315243],["monument",-11.029276076522612],["conferencia",-11.029282341486514],["evalua",-11.029326292988504],["Fre",-11.029347865942526],["Rosa",-11.029438524066205],["nés",-11.029591131095177],["lock",-11.029649260301802],["statut",-11.030124733842307],["ubicado",-11.030167928729472],["investor",-11.03024715130045],["named",-11.03080429304772],["asistencia",-11.03119559367758],["bevolking",-11.031734004997798],["talló",-11.032431625973274],["Clar",-11.032842337149114],["Live",-11.03314378867077],["echte",-11.03330985124085],["discover",-11.033386355488243],["HD",-11.03350975746179],["conversa",-11.033564798436316],["aprovech",-11.03388613230334],["matig",-11.033998942281045],["cero",-11.034450601269121],["Water",-11.034461302022807],["spelers",-11.034521316639722],["Vel",-11.03458042011076],["Up",-11.035800443536314],["gras",-11.036194164158715],["vaart",-11.036381926107275],["shift",-11.036668574337426],["garantizar",-11.037055008406725],["memor",-11.037133795197299],["council",-11.037285919313433],["formal",-11.037581836153915],["champ",-11.037626666334551],["remise",-11.038009361219677],["installé",-11.038128720269809],["urban",-11.038215630208963],["Kim",-11.03854089645113],["Justin",-11.038889585085967],["maatschappij",-11.038923704530063],["izquierda",-11.03892370503274],["Rafael",-11.038924629977853],["entraîneur",-11.038926082065824],["YouTube",-11.038926492011587],["objeto",-11.038927726387733],["championnat",-11.038928436722298],["beginning",-11.039030028123959],["defense",-11.039031036744571],["Utrecht",-11.03904443745771],["installation",-11.039111169620625],["craft",-11.039200166370717],["arbitr",-11.039234168469328],["elected",-11.03939564892108],["IN",-11.039631944187832],["missile",-11.039735667602315],["jouw",-11.04015707483018],["ouest",-11.040254401046829],["istes",-11.040334057401635],["hacía",-11.040397402962954],["cerrar",-11.040416778074235],["Marco",-11.04048197141563],["GT",-11.040494853508704],["voz",-11.040625989085743],["brutal",-11.040639238706863],["syndicat",-11.040909448800253],["Mol",-11.040920874237235],["forcé",-11.041428479736993],["frère",-11.041592581329315],["tekort",-11.041741507745689],["publishe",-11.043160325269602],["comprendre",-11.043539836731167],["parle",-11.043739359591992],["church",-11.043908787614754],["93",-11.043915175845644],["liter",-11.044039553857528],["District",-11.044043838481509],["gezin",-11.04405605104726],["leeftijd",-11.04420039156632],["Norte",-11.044660737876907],["collega",-11.044881037687327],["frappe",-11.044942053569113],["Nigerian",-11.045150839907693],["betref",-11.045153382171133],["krui",-11.045613300662136],["resolu",-11.045807894110615],["bala",-11.045954973877997],["oui",-11.046798009901934],["Sports",-11.046893909088752],["ault",-11.04710967911246],["succes",-11.047428098515024],["mega",-11.047486242175609],["eff",-11.047773656900452],["pati",-11.047867928402782],["charges",-11.047945345146974],["priorit",-11.048131611801082],["victor",-11.048290868973265],["negro",-11.048670111354227],["anuncio",-11.048815332544887],["énergétique",-11.048898828911504],["kwaliteit",-11.048898839611061],["Management",-11.048900294557985],["negative",-11.048900487835596],["dochter",-11.048904447798163],["privado",-11.048905899927398],["propiedad",-11.048908072591228],["Christmas",-11.04892221630928],["comercio",-11.048924946771226],["merk",-11.049002721837752],["winner",-11.049325129472205],["Parti",-11.049445505112114],["manifestant",-11.049537323314677],["guer",-11.049582081435577],["boost",-11.049695902197303],["trabaj",-11.049754563680484],["wonder",-11.049773959211999],["publicado",-11.049788477591754],["fur",-11.049921972550948],["franchise",-11.049933863048814],["bras",-11.050258565833467],["promise",-11.050639354255136],["Mur",-11.050645126623493],["ducation",-11.05070499285626],["épreuve",-11.051567936676907],["vaya",-11.051674329581513],["blanc",-11.051697203761366],["900",-11.051958629975374],["sales",-11.052276504521224],["consumer",-11.05243529705652],["Brand",-11.053005094054772],["acusado",-11.053313529584457],["sectore",-11.053359429616506],["pista",-11.053761318168604],["05",-11.053871230218999],["•",-11.053923954530728],["croissance",-11.053929983107428],["minimum",-11.053932932754037],["bereid",-11.053962260350794],["approve",-11.0539766538278],["consommation",-11.054029446536392],["graves",-11.054069037591578],["fermé",-11.054122368346317],["employment",-11.054333617550137],["iano",-11.054388675676844],["coll",-11.054914694491321],["generation",-11.055005619241989],["outre",-11.05577434841296],["lugare",-11.055895145202694],["Hab",-11.05623912773159],["2025",-11.056301623495363],["domicilio",-11.056437423579817],["street",-11.056444152717699],["solidari",-11.056517176074848],["couleur",-11.056784551011141],["Gold",-11.05692749034252],["liée",-11.057020453957747],["voca",-11.057120490048773],["Misschie",-11.057443767991177],["murder",-11.057517535079935],["raconte",-11.05754146400783],["sancione",-11.057895574537762],["woorden",-11.058038273281962],["wave",-11.058171002300858],["derecha",-11.058533954350569],["fence",-11.058737961058995],["ambas",-11.058957598996452],["puisqu",-11.058958356014914],["Occident",-11.058974460638982],["quatrième",-11.058974461815648],["pantalla",-11.05898283214212],["crucial",-11.058991225316909],["ideal",-11.05903242462966],["lokale",-11.05903321157908],["revenir",-11.059156494838506],["Tot",-11.059570316405509],["prior",-11.05979589677998],["quitter",-11.060009411460658],["actualidad",-11.060240520725532],["erhaps",-11.060571536392416],["grav",-11.060885125410667],["Hé",-11.0609858668703],["poursuit",-11.061621299486847],["master",-11.061673247792221],["spin",-11.061675092331669],["keren",-11.062033353330138],["noemen",-11.062137558008747],["console",-11.062311591118284],["marketing",-11.062525406757105],["offert",-11.062813221340235],["iniciar",-11.062821939114404],["display",-11.063308001668343],["bilan",-11.06357138461188],["Engel",-11.063764253149682],["FE",-11.063851441693345],["concentra",-11.063852966824914],["Sobre",-11.06396685242116],["speel",-11.064047404844391],["velocidad",-11.064050756736517],["museum",-11.06405101352015],["trás",-11.06407479854337],["ène",-11.064272473484202],["vitesse",-11.064297234507052],["leef",-11.064338997239833],["agencia",-11.064829523457824],["goud",-11.06486546130974],["contrario",-11.065035214283514],["construir",-11.06540899721057],["digitale",-11.065566288309345],["amid",-11.065603254369819],["parking",-11.065617525428861],["herida",-11.065921046810157],["geschr",-11.0672807178768],["recuperar",-11.067355448171028],["Tijden",-11.067469023034196],["terroriste",-11.067659864133166],["politici",-11.067882236365808],["retire",-11.068001939743954],["ended",-11.06829976025772],["harm",-11.068749278967513],["vise",-11.06875333523501],["Mah",-11.068799986445086],["Cristin",-11.069158467936385],["difference",-11.069159037358926],["décédé",-11.069166278001974],["College",-11.069178037538643],["delivery",-11.06929651063027],["rail",-11.069604682705705],["prévoi",-11.069695031976732],["ección",-11.069842383359191],["conclusion",-11.06986497630352],["pronto",-11.069932061511903],["observa",-11.070090802666279],["comparti",-11.070358559911426],["Series",-11.070384182281446],["melding",-11.07069957397817],["abus",-11.070920065145687],["allemand",-11.071043105218257],["terreno",-11.071095992522013],["estilo",-11.071108771029735],["weight",-11.071504043249451],["contraire",-11.07150464721737],["tombé",-11.071908975581865],["locate",-11.072236463782158],["kzij",-11.072806284070158],["razon",-11.072956419206506],["Acc",-11.073641292441891],["aga",-11.07365777540586],["célèbre",-11.07428084767741],["intentar",-11.074378504538114],["advies",-11.074479954523792],["bestuurder",-11.07452934330184],["turno",-11.07457883820748],["tafel",-11.074848407965092],["transaction",-11.074898983557066],["explor",-11.075178459659453],["explain",-11.07524785647201],["liquid",-11.075280067314289],["pide",-11.07546159276127],["explosion",-11.075473290153337],["durée",-11.075633524404617],["kijk",-11.075712401401995],["Xi",-11.076526349904118],["Var",-11.077137314029043],["migra",-11.077539589468898],["bier",-11.077724294347451],["adora",-11.078095223082848],["siglo",-11.078456175661804],["Staten",-11.078527911902256],["paga",-11.078569764955486],["Esa",-11.078837676482634],["kept",-11.078931644702081],["organiser",-11.078998114235649],["flow",-11.079012654123076],["princip",-11.079323396914624],["effectué",-11.079524503870749],["répondr",-11.079551999534992],["bloed",-11.079552455321934],["inch",-11.07963765261627],["médicos",-11.079665048470964],["quasi",-11.079796590385],["querido",-11.07980715729457],["Ferrar",-11.079812043180755],["directo",-11.079888685261292],["fondo",-11.079953412320219],["señor",-11.080125511078304],["BTC",-11.080668381545753],["expertos",-11.081172180836093],["droga",-11.08178118389473],["oire",-11.081911835996099],["época",-11.082007244349777],["licit",-11.082139514388274],["vais",-11.082332464434788],["illon",-11.082733814344351],["yester",-11.082871760172463],["Mill",-11.083468341617555],["mez",-11.083687580994056],["iana",-11.0837383956606],["nacionales",-11.083758315484674],["probeer",-11.08407517653232],["Pública",-11.084616834061178],["histórico",-11.08461687203251],["infraestructura",-11.0846172281996],["domicile",-11.084617679784355],["matériel",-11.084617927234355],["rápido",-11.084618905019033],["Alexander",-11.0847014707039],["jeugd",-11.084703705103955],["purpose",-11.084740777531469],["verplicht",-11.085064244733342],["établi",-11.08506436634527],["east",-11.085071707498898],["owner",-11.085117289343371],["Mexic",-11.085188278174098],["2007",-11.085282369613761],["Trois",-11.085446264609338],["Educación",-11.085605428014503],["graf",-11.085930089901101],["Holland",-11.086167898458985],["producten",-11.08632040771085],["draaien",-11.086649705765058],["secretar",-11.087115981910847],["espér",-11.087133596744428],["connue",-11.08731483461847],["Nederlanders",-11.087973627874403],["operate",-11.088097545669305],["laissé",-11.088849945685748],["angst",-11.088865338407077],["maxima",-11.088964620740446],["suisse",-11.089035434908912],["destin",-11.089284439716085],["Solo",-11.089416048856823],["rates",-11.089737748843126],["tendance",-11.089803107002025],["perspective",-11.089825168540163],["stratégie",-11.08982518794009],["Boris",-11.089834375624182],["impossible",-11.089874680739518],["advance",-11.08993698949029],["dialogue",-11.089946326863188],["passenger",-11.089949418083773],["envoyé",-11.090002182594755],["surge",-11.090146367056697],["meisje",-11.090257273605799],["visitante",-11.09030554358645],["esposa",-11.090513774205153],["payer",-11.090638903463516],["Long",-11.090855904801803],["grim",-11.090923426992102],["cabinet",-11.0909642732735],["ología",-11.090968378223032],["bestaan",-11.09097422214219],["artikel",-11.091215813847448],["Regional",-11.091284807707233],["Asocia",-11.091493514766896],["2030",-11.092055772173914],["remove",-11.092292305770567],["mens",-11.092345199203592],["joy",-11.09246413462795],["reclama",-11.092745455186568],["orienta",-11.092866525368573],["dure",-11.093055209898576],["impose",-11.093245145991784],["vend",-11.093736855042106],["invita",-11.093902546236986],["micron",-11.094466076398035],["Á",-11.09499451523828],["geschiedenis",-11.095060769433555],["eléctrica",-11.0950607701299],["moitié",-11.09506182792627],["Global",-11.095064661008536],["Philippe",-11.095099252923012],["dispose",-11.095114200293253],["cultuur",-11.095137984440928],["troupe",-11.09529380011496],["fini",-11.095392274457314],["Partido",-11.095408531561255],["gift",-11.095587978709094],["verlies",-11.09613434193902],["kijkt",-11.096150268283127],["mencion",-11.09619456153347],["Other",-11.096219152842885],["posé",-11.09635776944826],["usine",-11.096754221265922],["solicitud",-11.09695766957994],["rid",-11.097442148306747],["Times",-11.097957844160026],["Dios",-11.09801525781219],["fou",-11.09807986314021],["salario",-11.098199913659869],["batt",-11.098579127197594],["laisse",-11.099202727604165],["aanval",-11.099550839591096],["load",-11.099652730835722],["Sinds",-11.100171556709602],["NAVO",-11.100338739162652],["Wood",-11.100357291695051],["sprong",-11.10039039341957],["relat",-11.100466561769895],["esprit",-11.100518749987103],["classe",-11.100779545665294],["yard",-11.100786686605804],["zette",-11.101027453092014],["recuerda",-11.101138957292362],["command",-11.101193583873254],["clubs",-11.101221761757664],["dragen",-11.101251777595955],["GB",-11.101322886910186],["blanco",-11.101440825329245],["subir",-11.101558524950548],["crew",-11.102247810924814],["alerta",-11.102308648894482],["Part",-11.102311279462047],["south",-11.102392450039586],["darle",-11.102480986072514],["fell",-11.10257179728227],["collect",-11.102632048022949],["krant",-11.10266208313645],["gold",-11.102788705234033],["listen",-11.10342562545084],["calor",-11.103469197603058],["UC",-11.103490372463565],["grosse",-11.10378910303496],["prohibi",-11.104008533180961],["usage",-11.104239259012754],["Ang",-11.104487845067553],["ake",-11.104772217780134],["gelegd",-11.104826812567742],["insiste",-11.104845751746687],["Ros",-11.10489826884435],["dicha",-11.10507956416721],["admir",-11.105103646628866],["feet",-11.105130412824904],["taxe",-11.105132340490517],["actuar",-11.105265901863074],["réclam",-11.105303984424523],["theater",-11.105562404002415],["Rome",-11.105628606022973],["voertuig",-11.105631372177218],["collective",-11.105731514541151],["Vincent",-11.105756550173409],["anglais",-11.105757469791936],["disco",-11.106212960204576],["ressource",-11.10625881318765],["dejado",-11.106367022665598],["esión",-11.106793218003773],["stelling",-11.106835732792511],["delega",-11.107092488037786],["veulen",-11.107163824697725],["évolution",-11.107486102831892],["conserva",-11.107510997308108],["author",-11.108657024564973],["asunto",-11.108864347022307],["actif",-11.108907435172998],["Dieg",-11.108997202559852],["conocida",-11.10906060192791],["hurt",-11.109098369149729],["suelo",-11.109262705550492],["mejora",-11.109323683070484],["Laurent",-11.109512346100654],["présenter",-11.109582076190234],["costa",-11.109990082943611],["Italia",-11.110222098556957],["faible",-11.110871305679627],["rush",-11.110890129985243],["eléctrico",-11.11093408239531],["búsqueda",-11.110941198570657],["veteran",-11.111013205872094],["surance",-11.111049703045103],["cool",-11.111101507563205],["embr",-11.111131697448624],["implemente",-11.11117467428924],["gevraagd",-11.11160197128438],["horario",-11.111624297717405],["pion",-11.111696031515732],["wor",-11.11182769621593],["toll",-11.112159153107676],["siège",-11.112445127820179],["november",-11.112797757790561],["accueil",-11.112830419334928],["invasi",-11.11292390754446],["kaart",-11.112970629609073],["Président",-11.11313187863156],["demeure",-11.113340198783824],["constant",-11.113655966143291],["Kat",-11.113762799229857],["map",-11.114069929548856],["Mus",-11.1142644598694],["couldn",-11.114426412324061],["rally",-11.114689486434859],["tum",-11.114742084694914],["permettra",-11.114944584914369],["Hong",-11.115531952045346],["previa",-11.115577784644556],["facility",-11.115651570150737],["Hav",-11.115796648315209],["veiligheid",-11.115857913376594],["Sénégal",-11.116171363977426],["ménage",-11.116235098576556],["Assemblée",-11.116283195477362],["afectada",-11.116783457670413],["finding",-11.11707860784625],["zó",-11.117235240030688],["ofrecer",-11.117290374835342],["contenu",-11.117536797168945],["deporte",-11.117657721953545],["distancia",-11.118011870805088],["zorgt",-11.11816068660864],["consecuencia",-11.118278244377663],["changé",-11.118985116612901],["quiero",-11.119020987538526],["chinois",-11.11905178503776],["seguirá",-11.119151202528844],["hauteur",-11.119321223113872],["strateg",-11.119400868308304],["compañeros",-11.119421310481124],["RN",-11.119724967683766],["wijzen",-11.119882348639834],["Hamil",-11.120034974689368],["Hug",-11.12016383629587],["ideas",-11.120253565577716],["choc",-11.120758275300894],["spoke",-11.121008224147875],["adresse",-11.121565375980026],["travailleur",-11.121622427681405],["toernooi",-11.121658110713287],["obvious",-11.121658177403047],["límite",-11.121660033030004],["síntoma",-11.1216674498905],["royal",-11.121711536882138],["voorlopig",-11.121715247806147],["welcome",-11.121735161635002],["deportivo",-11.121868094760421],["Marvel",-11.121995216696138],["Board",-11.122125689290813],["leeg",-11.122131235114928],["fui",-11.122284949333837],["référence",-11.122706383578727],["advise",-11.123039754566378],["Olivier",-11.12305025585913],["Verder",-11.12340301153315],["write",-11.123467581865645],["gathering",-11.123525930354031],["mira",-11.123631791545627],["Audi",-11.12363266467963],["protester",-11.124055124729768],["abrir",-11.124208914901939],["fiscale",-11.124422128637729],["relation",-11.124621294382699],["presidenta",-11.124838004152188],["Marcel",-11.12499103361948],["vivo",-11.125241797210723],["rama",-11.125368159327994],["dicen",-11.125714444154895],["NN",-11.126271891507889],["alza",-11.126376818100594],["Direc",-11.12648161764763],["introduce",-11.126901681618584],["habitantes",-11.126928855070108],["holiday",-11.127066410559888],["acceder",-11.127079910562252],["Parlement",-11.127117809670164],["inició",-11.127149883228425],["rak",-11.127165772956161],["instruction",-11.12719892543701],["produj",-11.12720559008085],["conseiller",-11.127209587572915],["prop",-11.127266247401451],["podcast",-11.12728686071084],["joue",-11.12730840397932],["Noël",-11.127362712962515],["comentario",-11.127723416716897],["01",-11.127871857934927],["manche",-11.128053157381107],["lift",-11.12814148841993],["atender",-11.128409490671839],["north",-11.128671978162814],["Market",-11.128879449485021],["tengan",-11.129212595493868],["Stra",-11.129700387726995],["photograph",-11.130103438227215],["ET",-11.130353844474437],["Fra",-11.130367551469433],["devra",-11.130440397122207],["Bur",-11.130459689446546],["vacunación",-11.130813480528143],["chair",-11.130939355070094],["hôtel",-11.131232230922128],["Hal",-11.131803461266678],["tomó",-11.13203742413104],["Lou",-11.132182796318395],["canadien",-11.132213948500178],["Dom",-11.132231545635282],["condi",-11.132436759828071],["peace",-11.132452329602808],["madrugada",-11.132498224243971],["permanent",-11.132621137923731],["studie",-11.132624233953834],["nomination",-11.132752169311896],["reageer",-11.132761510320949],["trasladado",-11.132783841283302],["morgen",-11.132933796552987],["portavo",-11.133308756090377],["Press",-11.133441352263532],["fro",-11.133563371971402],["attendu",-11.133708691748602],["massa",-11.133755950648919],["cado",-11.13380371476504],["financement",-11.13402533670983],["plekke",-11.13422202650115],["tough",-11.134316347557837],["Ker",-11.13449972262669],["mostrado",-11.134617428161334],["identifie",-11.1347361317087],["limpi",-11.13515913887241],["chute",-11.135473515874473],["Doe",-11.135507741455708],["plicación",-11.135580654013218],["kat",-11.135668217783653],["nic",-11.135773892637994],["Matt",-11.136048016205272],["dijer",-11.13614917915516],["agu",-11.136278378279446],["aquella",-11.136495858104965],["áreas",-11.13708991804251],["carta",-11.13728355404995],["beneficios",-11.137348325891937],["climat",-11.137541857932689],["kov",-11.13758500066094],["scientifique",-11.137962688121565],["catégorie",-11.137962689050685],["lichaam",-11.137962783396038],["financië",-11.137962786356068],["privada",-11.137966156399859],["dénonce",-11.137977336004099],["catch",-11.137978895762707],["tentative",-11.137998937796242],["évidem",-11.138018674571304],["classique",-11.13803482244376],["competition",-11.138157161457912],["Ford",-11.138276960924287],["miedo",-11.138356529301078],["previsto",-11.13845600699162],["volgend",-11.138507388865069],["allé",-11.138885542437526],["strike",-11.138885611605673],["rendimiento",-11.139111196164887],["ciclo",-11.139577277041875],["retraite",-11.139679013045804],["geraakt",-11.140284195451226],["hoek",-11.14063420577517],["speelde",-11.140767480785236],["reconocimiento",-11.141017285914625],["ética",-11.14162080401843],["situ",-11.141698870938342],["cobr",-11.141849936447574],["Boy",-11.142008756031332],["vrienden",-11.142130396399807],["termina",-11.14270042565348],["verwachting",-11.142866871427852],["bek",-11.143195935449299],["defender",-11.143265282603767],["Kom",-11.143456112305458],["appartement",-11.143458410553038],["vereniging",-11.143460338205665],["Grupo",-11.14346376334976],["supplie",-11.143465777165325],["establecimiento",-11.14349525220953],["réduir",-11.143498133829098],["téléphone",-11.14350626675012],["stade",-11.143545129520394],["06",-11.143618139184483],["ional",-11.143622284071842],["majorit",-11.143856394153042],["erie",-11.143867467291354],["istan",-11.143928971032743],["kozen",-11.144046659775237],["essai",-11.144069731893325],["souten",-11.144459014530542],["Why",-11.144638433637674],["verandering",-11.144780019918926],["provoc",-11.144832860764991],["reopen",-11.144872289488271],["Like",-11.144911679015493],["organisé",-11.144987503197349],["Best",-11.144991587482508],["brill",-11.14518446640175],["GA",-11.145438384842834],["wens",-11.145697666756593],["irá",-11.1460509040793],["Christ",-11.146239623655523],["NBA",-11.146324812093972],["joint",-11.146862076637607],["evening",-11.147241171872341],["respeto",-11.147307997002795],["participante",-11.147509000518824],["ization",-11.148079448514274],["hearing",-11.148442743186935],["arra",-11.148513364428876],["straight",-11.148982194186331],["speech",-11.148987804338761],["eyes",-11.149164516344586],["wijze",-11.149419798988902],["Quant",-11.149474564504986],["MO",-11.149524166317397],["immers",-11.14953887623372],["Sept",-11.149572011735824],["putting",-11.150133925488326],["vele",-11.150365370463408],["cker",-11.150377813283342],["genoot",-11.15049190548904],["señalar",-11.150644099436867],["resume",-11.150804154291325],["modifica",-11.150822626702407],["terrorist",-11.150846807321798],["ipp",-11.150949404038077],["bang",-11.151450934185165],["sigui",-11.151454529185564],["SC",-11.151560174534369],["etje",-11.151733681182261],["kap",-11.15178397097003],["jardin",-11.151869178829893],["III",-11.151907055914483],["daarvan",-11.15196763591738],["tendría",-11.152020710346644],["Carr",-11.152199222832369],["mét",-11.152493347358181],["lines",-11.152621984842535],["cherche",-11.152777789609846],["ajouter",-11.153817506588927],["Was",-11.154042933020591],["lógica",-11.154115147121274],["metro",-11.154172780887958],["divers",-11.154545404412062],["grève",-11.154570366909967],["sentencia",-11.154571975940037],["revient",
[...]
