{"version":"1.0","truncation":null,"padding":null,"added_tokens":[{"id":0,"special":true,"content":"<UNK>","single_word":false,"lstrip":false,"rstrip":false,"normalized":false},{"id":1,"special":true,"content":"<SEP>","single_word":false,"lstrip":false,"rstrip":false,"normalized":false},{"id":2,"special":true,"content":"<MASK>","single_word":false,"lstrip":false,"rstrip":false,"normalized":false},{"id":3,"special":true,"content":"<CLS>","single_word":false,"lstrip":false,"rstrip":false,"normalized":false}],"normalizer":null,"pre_tokenizer":{"type":"Whitespace"},"post_processor":null,"decoder":null,"model":{"type":"WordPiece","unk_token":"<UNK>","continuing_subword_prefix":"##","max_input_chars_per_word":100,"vocab":{"<UNK>":0,"<SEP>":1,"<MASK>":2,"<CLS>":3,"!":4,"\"":5,"$":6,"%":7,"&":8,"'":9,"(":10,")":11,"*":12,"+":13,",":14,"-":15,".":16,"/":17,"0":18,"1":19,"2":20,"3":21,"4":22,"5":23,"6":24,"7":25,"8":26,"9":27,":":28,";":29,">":30,"?":31,"A":32,"B":33,"C":34,"D":35,"E":36,"F":37,"G":38,"H":39,"I":40,"J":41,"K":42,"L":43,"M":44,"N":45,"O":46,"P":47,"Q":48,"R":49,"S":50,"T":51,"U":52,"V":53,"W":54,"X":55,"Y":56,"Z":57,"`":58,"a":59,"b":60,"c":61,"d":62,"e":63,"f":64,"g":65,"h":66,"i":67,"j":68,"k":69,"l":70,"m":71,"n":72,"o":73,"p":74,"q":75,"r":76,"s":77,"t":78,"u":79,"v":80,"w":81,"x":82,"y":83,"z":84,"~":85,"£":86,"¦":87,"«":88,"®":89,"°":90,"²":91,"³":92,"´":93,"·":94,"º":95,"»":96,"¼":97,"½":98,"À":99,"Á":100,"Ä":101,"Å":102,"Ç":103,"È":104,"É":105,"Ê":106,"Î":107,"Ï":108,"Ô":109,"Ö":110,"×":111,"Ø":112,"Û":113,"à":114,"á":115,"â":116,"ã":117,"ä":118,"å":119,"æ":120,"ç":121,"è":122,"é":123,"ê":124,"ë":125,"ì":126,"í":127,"î":128,"ï":129,"ð":130,"ñ":131,"ó":132,"ô":133,"õ":134,"ö":135,"ø":136,"ù":137,"ú":138,"û":139,"ü":140,"ā":141,"ă":142,"ć":143,"č":144,"ē":145,"ğ":146,"ļ":147,"ł":148,"ń":149,"Ō":150,"ō":151,"Œ":152,"œ":153,"ř":154,"ş":155,"Š":156,"š":157,"ū":158,"Ÿ":159,"ž":160,"ș":161,"̀":162,"́":163,"̂":164,"̈":165,"̧":166,"α":167,"а":168,"е":169,"с":170,"ᵉ":171,"‐":172,"‑":173,"‒":174,"–":175,"—":176,"―":177,"‘":178,"’":179,"“":180,"”":181,"‡":182,"•":183,"…":184,"‰":185,"′":186,"″":187,"‹":188,"›":189,"₂":190,"€":191,"™":192,"−":193,"▪":194,"▶":195,"◆":196,"☹":197,"♦":198,"✍":199,"✓":200,"❤":201,"➢":202,"➤":203,"":204,"ﬁ":205,"ﬂ":206,"️":207,"﻿":208,"##n":209,"##s":210,"##p":211,"##e":212,"##c":213,"##t":214,"##r":215,"##i":216,"##é":217,"##g":218,"##a":219,"##o":220,"##u":221,"##v":222,"##d":223,"##5":224,"##7":225,"##4":226,"##l":227,"##h":228,"##y":229,"##H":230,"##O":231,"##M":232,"##A":233,"##S":234,"##b":235,"##è":236,"##m":237,"##â":238,"##j":239,"##–":240,"##,":241,"##D":242,"##C":243,"##q":244,"##œ":245,"##x":246,"##G":247,"##E":248,"##k":249,"##f":250,"##û":251,"##ç":252,"##2":253,"##X":254,"##6":255,"##8":256,"##z":257,"##T":258,"##P":259,"##L":260,"##1":261,"##á":262,"##́":263,"##0":264,"##F":265,"##B":266,"##I":267,"##3":268,"##w":269,"##N":270,"##Y":271,"##9":272,"##V":273,"##ü":274,"##R":275,"##î":276,"##W":277,"##Q":278,"##̂":279,"##ô":280,"##ï":281,"##\"":282,"##í":283,"##ê":284,"##)":285,"##.":286,"##̀":287,"##ë":288,"##J":289,"##õ":290,"##ó":291,"##U":292,"##”":293,"##…":294,"##:":295,"##ğ":296,"##ö":297,"##à":298,"##K":299,"##ä":300,"##Z":301,"##À":302,"##а":303,"##ł":304,"##!":305,"##̧":306,"##%":307,"##»":308,"##’":309,"##Ô":310,"##?":311,"##+":312,"##É":313,"##'":314,"##ā":315,"##ù":316,"##ş":317,"##ñ":318,"##å":319,"##È":320,"##«":321,"##ū":322,"##ō":323,"##ø":324,"##›":325,"##(":326,"##€":327,"##“":328,"##ș":329,"##ă":330,"##ř":331,"##¦":332,"##ᵉ":333,"##Û":334,"##º":335,"##;":336,"##ã":337,"##/":338,"##̈":339,"##ì":340,"##‘":341,"##Î":342,"##-":343,"##с":344,"##е":345,"##Ÿ":346,"##™":347,"##﻿":348,"##*":349,"##ē":350,"##æ":351,"##ń":352,"##Ê":353,"##ļ":354,"##č":355,"##ć":356,"##‹":357,"##Ä":358,"##‰":359,"##ú":360,"##·":361,"##ž":362,"##&":363,"##Ï":364,"##š":365,"##Å":366,"##es":367,"##nt":368,"##on":369,"de":370,"##er":371,"##ur":372,"##re":373,"##is":374,"##it":375,"##an":376,"##ent":377,"##ti":378,"##ou":379,"##le":380,"la":381,"##ar":382,"##in":383,"##en":384,"le":385,"qu":386,"un":387,"##our":388,"##or":389,"en":390,"##te":391,"##qu":392,"et":393,"##us":394,"##tion":395,"##ra":396,"les":397,"##om":398,"des":399,"pr":400,"##el":401,"##ment":402,"##st":403,"##ant":404,"##il":405,"au":406,"##al":407,"##as":408,"##ce":409,"##me":410,"##ir":411,"##ont":412,"du":413,"est":414,"##ans":415,"dé":416,"##ch":417,"##ie":418,"par":419,"av":420,"pour":421,"##és":422,"##et":423,"##ta":424,"une":425,"##ne":426,"##au":427,"##ri":428,"##ec":429,"##ion":430,"##ation":431,"##ais":432,"##té":433,"##que":434,"##ire":435,"##se":436,"pl":437,"##di":438,"##li":439,"que":440,"dans":441,"##ait":442,"##ci":443,"##eu":444,"qui":445,"##ée":446,"com":447,"sur":448,"##ol":449,"##ag":450,"##os":451,"##tre":452,"con":453,"pas":454,"##ous":455,"pro":456,"in":457,"##de":458,"il":459,"##mp":460,"##at":461,"ch":462,"##ers":463,"se":464,"##ouv":465,"ré":466,"##ff":467,"an":468,"##ro":469,"##res":470,"plus":471,"re":472,"##urs":473,"##pp":474,"##si":475,"##ès":476,"##les":477,"Le":478,"##ère":479,"##ran":480,"ce":481,"##ité":482,"##aire":483,"##am":484,"##ale":485,"##ux":486,"##ine":487,"##ac":488,"##iv":489,"ex":490,"##ab":491,"##end":492,"avec":493,"son":494,"##oir":495,"##pr":496,"ac":497,"ont":498,"##ois":499,"20":500,"##ni":501,"ne":502,"##ig":503,"##ort":504,"##out":505,"##ien":506,"été":507,"La":508,"##id":509,"##ille":510,"##né":511,"##ue":512,"##elle":513,"sa":514,"##uis":515,"##ure":516,"ent":517,"##ic":518,"##ul":519,"##mb":520,"##ette":521,"##ré":522,"cont":523,"##oi":524,"sont":525,"##ai":526,"ou":527,"ar":528,"##mi":529,"##ge":530,"##ons":531,"##ite":532,"##and":533,"éta":534,"tr":535,"##ve":536,"Il":537,"##ut":538,"##ist":539,"##ques":540,"int":541,"su":542,"Les":543,"##ain":544,"##lle":545,"##che":546,"##age":547,"##onn":548,"##eau":549,"pre":550,"##ces":551,"##un":552,"aux":553,"ser":554,"##ui":555,"##ill":556,"##ens":557,"##ique":558,"mo":559,"##pé":560,"##ors":561,"aut":562,"on":563,"##mes":564,"pré":565,"##oup":566,"##ay":567,"##ction":568,"##ati":569,"##ours":570,"peu":571,"cette":572,"##oc":573,"tra":574,"app":575,"mais":576,"##mé":577,"fait":578,"##ise":579,"di":580,"comp":581,"deux":582,"##ins":583,"##ions":584,"déc":585,"##ot":586,"##ance":587,"ca":588,"»,":589,"prés":590,"mar":591,"##lé":592,"##ace":593,"al":594,"##près":595,"##ss":596,"tout":597,"entre":598,"at":599,"res":600,"ses":601,"##ér":602,"202":603,"so":604,"comm":605,"##ts":606,"##ants":607,"##du":608,"##ub":609,"être":610,"##ême":611,"##ter":612,"nous":613,"jeu":614,"##iss":615,"##ier":616,"parti":617,"##air":618,"##ard":619,"En":620,"##co":621,"dev":622,"der":623,"##cé":624,"si":625,"##aux":626,"per":627,"ann":628,"##ations":629,"##teur":630,"fin":631,"premi":632,"imp":633,"elle":634,"no":635,"##ussi":636,"ra":637,"##og":638,"##00":639,"##ond":640,"##orm":641,"mon":642,"##ient":643,"derni":644,"##nement":645,"leur":646,"était":647,"##ence":648,"comme":649,"##tu":650,"avait":651,"##ées":652,"pers":653,"##bre":654,"nouv":655,"éc":656,"tou":657,"##ord":658,"##man":659,"acc":660,"##aires":661,"exp":662,"Un":663,"##puis":664,"vous":665,"##op":666,"##ad":667,"aussi":668,"dép":669,"min":670,"même":671,"te":672,"ans":673,"##ru":674,"##dre":675,"##oy":676,"inter":677,"##aine":678,"##ouver":679,"##tes":680,"##able":681,"##ème":682,"##ition":683,"##im":684,"##cu":685,"dis":686,"après":687,"faire":688,"mé":689,"##alement":690,"Ch":691,"##ble":692,"me":693,"ces":694,"##oire":695,"##itu":696,"tro":697,"##ric":698,"##if":699,"##ures":700,"trav":701,"pay":702,"ad":703,"##ct":704,"bien":705,"ter":706,"sou":707,"##nes":708,"Je":709,"##dé":710,"es":711,"##iste":712,"don":713,"##min":714,"év":715,"##ren":716,"gran":717,"##ident":718,"##ubli":719,"depuis":720,"nom":721,"##ner":722,"##ate":723,"ai":724,"avoir":725,"ret":726,"ag":727,"##éné":728,"personn":729,"ob":730,"rés":731,"ass":732,"gr":733,"##qué":734,"##tions":735,"##oit":736,"aff":737,"conf":738,"##ments":739,"##pe":740,"##aient":741,"or":742,"ma":743,"##elles":744,"##ang":745,"##cer":746,"ég":747,"##eux":748,"##av":749,"##ités":750,"lui":751,"##uss":752,"##ég":753,"##jet":754,"##elon":755,"pays":756,"Mar":757,"##ver":758,"car":759,"ab":760,"jus":761,"très":762,"dire":763,"cl":764,"pos":765,"Fran":766,"sé":767,"contre":768,"Ce":769,"po":770,"pass":771,"je":772,"Pour":773,"##ves":774,"ju":775,"prop":776,"che":777,"On":778,"##rit":779,"eff":780,"##orte":781,"##core":782,"##enir":783,"cons":784,"##ères":785,"ils":786,"##lement":787,"##tif":788,"Mais":789,"ren":790,"19":791,"inf":792,"##mps":793,"##rait":794,"jour":795,"##rent":796,"##ph":797,"##met":798,"co":799,"lors":800,"##qui":801,"##use":802,"Qu":803,"mil":804,"##ler":805,"##um":806,"##endre":807,"déb":808,"##ong":809,"##ante":810,"avant":811,"rec":812,"##ici":813,"##alis":814,"man":815,"peut":816,"déf":817,"président":818,"##kra":819,"autres":820,"encore":821,"».":822,"##mbre":823,"publi":824,"##ib":825,"##aut":826,"##oint":827,"jou":828,"sec":829,"rég":830,"##ration":831,"sans":832,"##all":833,"##ap":834,"diff":835,"trois":836,"##ente":837,"##ête":838,"Par":839,"De":840,"##ix":841,"off":842,"##its":843,"201":844,"##lar":845,"##cip":846,"att":847,"Une":848,"##ing":849,"env":850,"également":851,"quel":852,"##aint":853,"##ass":854,"où":855,"Et":856,"rapp":857,"\",":858,"éle":859,"##uer":860,"cer":861,"##ém":862,"##nées":863,"trava":864,"Al":865,"for":866,"##lis":867,"monde":868,"im":869,"Au":870,"part":871,"##onne":872,"sera":873,"aur":874,"##ole":875,"soci":876,"##enu":877,"##par":878,"##mment":879,"cel":880,"##ales":881,"col":882,"##ieurs":883,"dont":884,").":885,"fil":886,"cha":887,"eur":888,"nombre":889,"##insi":890,"##rer":891,"##sion":892,"##enne":893,"##cher":894,"grand":895,"tous":896,"##aison":897,"##oul":898,"pol":899,"hom":900,"##ieux":901,"leurs":902,"indi":903,"fois":904,"mal":905,"cent":906,"2022":907,"pé":908,"mes":909,"##vent":910,"##tra":911,"##lè":912,"fran":913,"##dent":914,"vis":915,"mois":916,"##ront":917,"déj":918,"##iques":919,"produ":920,"annon":921,"##ign":922,"##cl":923,"##tat":924,"Dans":925,"##istre":926,"##pec":927,"année":928,"##els":929,"##em":930,"trans":931,"nouveau":932,"##ov":933,"##ages":934,"rev":935,"prof":936,"moins":937,"premier":938,"Nous":939,"##gan":940,"##ob":941,"##ose":942,"const":943,"équi":944,"enf":945,"temps":946,"##endant":947,"##ché":948,"he":949,"emp":950,"déjà":951,"##oupe":952,"seu":953,"personnes":954,"certa":955,"cas":956,"tour":957,"##alité":958,"place":959,"##ron":960,"vi":961,"##jours":962,"pouv":963,"##ième":964,"dernier":965,"##ieu":966,"va":967,"gouver":968,"point":969,"mont":970,"puis":971,"inst":972,"##gé":973,"##teurs":974,"ép":975,"ét":976,"##tique":977,"vo":978,"##int":979,"arri":980,"sy":981,"##érie":982,"donc":983,"##tiv":984,"pren":985,"géné":986,"##istes":987,"première":988,"sem":989,"##éb":990,"##oute":991,"France":992,"ministre":993,"plusieurs":994,"alors":995,"##ises":996,"toujours":997,"##su":998,"ph":999,"),":1000,"##ents":1001,"##omp":1002,"cour":1003,"autre":1004,"##tin":1005,"ainsi":1006,"##lig":1007,"dro":1008,"serv":1009,"fé":1010,"rép":1011,"##era":1012,"##uni":1013,"sous":1014,"##ôt":1015,"vers":1016,"nation":1017,"rel":1018,"##olog":1019,"##aines":1020,"polit":1021,"beau":1022,"can":1023,"organ":1024,"Ukra":1025,"permet":1026,"dit":1027,"##cur":1028,"##omm":1029,"selon":1030,"cap":1031,"projet":1032,"pres":1033,"##usse":1034,"oc":1035,"##çais":1036,"##ert":1037,"notre":1038,"ins":1039,"gouvernement":1040,"##isse":1041,"coup":1042,"An":1043,"##semb":1044,"vie":1045,"##ense":1046,"##ice":1047,"##ues":1048,"##ats":1049,"##az":1050,"prix":1051,"##ement":1052,"met":1053,"nu":1054,"##ellement":1055,"ça":1056,"mer":1057,"Elle":1058,"##mis":1059,"Des":1060,"amé":1061,"##ches":1062,"##illeurs":1063,"déclar":1064,"repr":1065,"dév":1066,"cré":1067,"situ":1068,"Cette":1069,"##ié":1070,"organis":1071,"conn":1072,"mat":1073,"prév":1074,"disp":1075,"soit":1076,"toute":1077,"long":1078,"##ière":1079,"##art":1080,"##eur":1081,"##onom":1082,"##des":1083,"inc":1084,"000":1085,"cin":1086,"##oin":1087,"début":1088,"Ukraine":1089,"fa":1090,"expli":1091,"##ral":1092,"##olu":1093,"##rib":1094,"Si":1095,"##ez":1096,"cor":1097,"##ies":1098,"préc":1099,"pet":1100,"##tement":1101,"fem":1102,"mill":1103,"##omb":1104,"##cre":1105,"##vé":1106,"années":1107,"jusqu":1108,"import":1109,"vic":1110,"##agne":1111,"poli":1112,"dés":1113,"nota":1114,"uti":1115,"##oci":1116,"fam":1117,"##lo":1118,"dém":1119,"##coup":1120,"##ture":1121,"##ances":1122,"sal":1123,"##port":1124,"##one":1125,"présent":1126,"10":1127,"##cep":1128,"##ourd":1129,"aj":1130,"##orti":1131,"entrepr":1132,"##ari":1133,"équipe":1134,"##estion":1135,"##ains":1136,"sc":1137,"st":1138,"##ak":1139,"jours":1140,"##ah":1141,"hist":1142,"##quer":1143,"##tant":1144,"notamment":1145,"##iter":1146,"##fin":1147,"pris":1148,"##ision":1149,"faut":1150,"journ":1151,"##tats":1152,"##ines":1153,"Av":1154,"am":1155,"##tation":1156,"quelques":1157,"nos":1158,"non":1159,"##bil":1160,"là":1161,"mom":1162,"proch":1163,"2021":1164,"bas":1165,"##opp":1166,"public":1167,"esp":1168,"##ide":1169,"beaucoup":1170,"##ivers":1171,"##rique":1172,"nouvelle":1173,"vé":1174,"rep":1175,"##ites":1176,"face":1177,"##anc":1178,"som":1179,"mati":1180,"##ctions":1181,"cli":1182,"##cont":1183,"Russ":1184,"##ables":1185,"français":1186,"soir":1187,"ci":1188,"hab":1189,"millions":1190,"hui":1191,"##ris":1192,"##mand":1193,"##ser":1194,"##tent":1195,"dur":1196,"##ateur":1197,"##illes":1198,"cours":1199,"né":1200,"suis":1201,"##are":1202,"cela":1203,"##lus":1204,"##mer":1205,"partie":1206,"commun":1207,"jam":1208,"cet":1209,"##orté":1210,"##ger":1211,"retr":1212,"prog":1213,"##opé":1214,"##he":1215,"##ram":1216,"propos":1217,"effet":1218,"anci":1219,"##dic":1220,"##adi":1221,"##itions":1222,"match":1223,"##undi":1224,"##ges":1225,"##itaire":1226,"##for":1227,"##ivre":1228,"vendre":1229,"arr":1230,"sep":1231,"##agn":1232,"##êt":1233,"##aî":1234,"##igne":1235,"cô":1236,"fer":1237,"appel":1238,"avons":1239,"##jourd":1240,"travail":1241,"région":1242,"##elopp":1243,"doit":1244,"ville":1245,"cro":1246,"##rés":1247,"men":1248,"##ission":1249,"cr":1250,"char":1251,"économ":1252,"éch":1253,"cond":1254,"déclaré":1255,"prov":1256,"##manche":1257,"Con":1258,"autor":1259,"##der":1260,"moment":1261,"##fois":1262,"diffé":1263,"as":1264,"##credi":1265,"Ils":1266,"15":1267,"##rie":1268,"##uses":1269,"étaient":1270,"Selon":1271,"vra":1272,"##anté":1273,"##ateurs":1274,"##eurs":1275,"##élé":1276,"##mple":1277,"jamais":1278,"contin":1279,"##sible":1280,"prin":1281,"eu":1282,"pop":1283,"prob":1284,"groupe":1285,"euros":1286,"ailleurs":1287,"politique":1288,"gar":1289,"##iron":1290,"utilis":1291,"loc":1292,"##cess":1293,"milli":1294,"##ène":1295,"##atre":1296,"##voir":1297,"Après":1298,"pouvoir":1299,"##rig":1300,"intern":1301,"##medi":1302,"vol":1303,"eng":1304,"jeudi":1305,"##ud":1306,"saison":1307,"##iveau":1308,"atta":1309,"##iers":1310,"concer":1311,"Québ":1312,"##ell":1313,"port":1314,"semaine":1315,"dernière":1316,"mercredi":1317,"##seil":1318,"form":1319,"##lles":1320,"quand":1321,"##iens":1322,"popul":1323,"##ade":1324,"réalis":1325,"##oule":1326,"niveau":1327,"dimanche":1328,"fon":1329,"mardi":1330,"développ":1331,"lundi":1332,"##rence":1333,"fra":1334,"lieu":1335,"inv":1336,"In":1337,"vendredi":1338,"film":1339,"##asion":1340,"##vier":1341,"##nent":1342,"rencont":1343,"##atri":1344,"##ode":1345,"homme":1346,"##per":1347,"élect":1348,"##aiss":1349,"mis":1350,"actu":1351,"chef":1352,"près":1353,"##ress":1354,"Saint":1355,"##pons":1356,"chez":1357,"##uerre":1358,"gra":1359,"##cteur":1360,"##enant":1361,"Russie":1362,"sécur":1363,"##endu":1364,"représ":1365,"##iment":1366,"grande":1367,"situation":1368,"##été":1369,"compte":1370,"##ich":1371,"trouv":1372,"##lic":1373,"##rée":1374,"ess":1375,"sorti":1376,"lég":1377,"bon":1378,"toutes":1379,"##asse":1380,"ouver":1381,"côté":1382,"quatre":1383,"Ar":1384,"##jec":1385,"##ôle":1386,"améric":1387,"étu":1388,"##rier":1389,"jeunes":1390,"samedi":1391,"inform":1392,"##lu":1393,"plan":1394,"##cle":1395,"voir":1396,"contra":1397,"##oix":1398,"\".":1399,"##est":1400,"Com":1401,"porte":1402,"##rale":1403,"##gie":1404,"souv":1405,"remp":1406,"seront":1407,"##atique":1408,"##idé":1409,"communi":1410,"##gment":1411,"##cul":1412,"##cident":1413,"rapport":1414,"fond":1415,"##isé":1416,"avaient":1417,"russe":1418,"##isme":1419,"12":1420,"veu":1421,"annoncé":1422,"enfants":1423,"##tien":1424,"art":1425,"respons":1426,"afin":1427,"lib":1428,"reste":1429,"devant":1430,"votre":1431,"18":1432,"Can":1433,"esti":1434,"sol":1435,"##hé":1436,"prom":1437,"Québec":1438,"guerre":1439,"##ok":1440,"##ange":1441,"##vre":1442,"##ût":1443,"question":1444,"vac":1445,"##enue":1446,"augment":1447,"but":1448,"##tres":1449,"demand":1450,"pa":1451,"voit":1452,"##rant":1453,"##iller":1454,"environ":1455,"deuxième":1456,"##ences":1457,"opé":1458,"cir":1459,"pu":1460,"##én":1461,"tit":1462,"##uel":1463,"##od":1464,"retour":1465,"certains":1466,"police":1467,"spé":1468,"suite":1469,"ici":1470,"##bles":1471,"heures":1472,"##antes":1473,"##mée":1474,"rem":1475,"comb":1476,"assur":1477,"pendant":1478,"jeune":1479,".»":1480,"##ienne":1481,"mettre":1482,"différent":1483,"dom":1484,"##th":1485,"opp":1486,"##tive":1487,"##anger":1488,"mort":1489,"##did":1490,"##ili":1491,"semb":1492,"##mande":1493,"empl":1494,"##semble":1495,"maint":1496,"##dition":1497,"##enus":1498,"prendre":1499,"poursu":1500,"histoire":1501,"##rir":1502,"aujourd":1503,"camp":1504,"##ards":1505,"ris":1506,"##illet":1507,"all":1508,"péri":1509,"##cent":1510,"Eur":1511,".\"":1512,"rien":1513,"candid":1514,"##iti":1515,"tech":1516,"internation":1517,"spéci":1518,"réf":1519,"réseau":1520,"aurait":1521,"europé":1522,"##aud":1523,"##isation":1524,"##rière":1525,"éner":1526,"affir":1527,"conv":1528,"14":1529,"Cel":1530,"cher":1531,"Re":1532,"pourrait":1533,"reg":1534,"30":1535,"mus":1536,"##ices":1537,"##act":1538,"atte":1539,"donn":1540,"moy":1541,"accord":1542,"Car":1543,"ple":1544,"maj":1545,"##lier":1546,"celui":1547,"voul":1548,"san":1549,"ant":1550,"série":1551,"##ression":1552,"ukra":1553,"##vée":1554,"activ":1555,"ukrain":1556,"centre":1557,"##cès":1558,"##iser":1559,"supp":1560,"sécurité":1561,"famille":1562,"Ces":1563,"##éré":1564,"meille":1565,"##ile":1566,"enqu":1567,"##tée":1568,"end":1569,"Jean":1570,"princip":1571,"jan":1572,"hu":1573,"##gré":1574,"##lex":1575,"Avec":1576,"eux":1577,"##ué":1578,"##enti":1579,"200":1580,"occ":1581,"ancien":1582,"fonction":1583,"Br":1584,"matin":1585,"sus":1586,"##oles":1587,"##less":1588,"profes":1589,"##len":1590,"chaque":1591,"##tiques":1592,"entra":1593,"11":1594,"##ative":1595,"janvier":1596,"2020":1597,"25":1598,"mi":1599,"télé":1600,"##pit":1601,"elles":1602,"soulig":1603,"Ma":1604,"bes":1605,"déce":1606,"##ath":1607,"victi":1608,"raison":1609,"inves":1610,"retrouv":1611,"sour":1612,"Mal":1613,"li":1614,"suc":1615,"##ock":1616,"13":1617,"trop":1618,"syst":1619,"dou":1620,"santé":1621,"gens":1622,"ceux":1623,"mise":1624,"cinq":1625,"##ige":1626,"particip":1627,"op":1628,"##ia":1629,"##gent":1630,"particu":1631,"##ivent":1632,"minist":1633,"##tout":1634,"déci":1635,"##taire":1636,"ref":1637,"disc":1638,"bl":1639,"hô":1640,"vu":1641,"champ":1642,"sta":1643,"exe":1644,"16":1645,"agit":1646,"ver":1647,"réc":1648,"program":1649,"##lière":1650,"expl":1651,"is":1652,"##ug":1653,"demande":1654,"juin":1655,"Af":1656,"bless":1657,"fais":1658,"tent":1659,"##émie":1660,"constru":1661,"Mac":1662,"peuvent":1663,"##ormais":1664,"St":1665,"Sur":1666,"État":1667,"dir":1668,"décembre":1669,"oct":1670,"Mont":1671,"sub":1672,"17":1673,"ach":1674,"do":1675,"occasion":1676,"Bel":1677,"représent":1678,"Ré":1679,"mars":1680,"devrait":1681,"ban":1682,"##aise":1683,"Unis":1684,"nationale":1685,"droit":1686,"fl":1687,"Di":1688,"ha":1689,"lan":1690,"nécess":1691,"24":1692,"No":1693,"##mbres":1694,"Sa":1695,"Son":1696,"##ève":1697,"serait":1698,"nombreux":1699,"femmes":1700,"##oh":1701,"ensemble":1702,"mondi":1703,"offici":1704,"cul":1705,"##tés":1706,"site":1707,"marché":1708,"##icu":1709,"##icile":1710,"##vembre":1711,"imm":1712,"indiqué":1713,"explique":1714,"ur":1715,"##ril":1716,"##une":1717,"##ël":1718,"membres":1719,"service":1720,"rou":1721,"points":1722,"femme":1723,"##form":1724,"accus":1725,"possible":1726,"Th":1727,"général":1728,"celle":1729,"tête":1730,"savoir":1731,"rap":1732,"béné":1733,"rac":1734,"##erv":1735,"personne":1736,"##tri":1737,"##ern":1738,"##amb":1739,"novembre":1740,"##cin":1741,"##tembre":1742,"entraî":1743,"accue":1744,"aura":1745,"Europ":1746,"amb":1747,"##oût":1748,"##âce":1749,"##ton":1750,"##èle":1751,"##onde":1752,"##ane":1753,"##olution":1754,"enquête":1755,"dos":1756,"fort":1757,"hum":1758,"##pl":1759,"##pes":1760,"##vrier":1761,"priv":1762,"dépl":1763,"bonne":1764,"tir":1765,"médi":1766,"abord":1767,"comment":1768,"dès":1769,"sp":1770,"entreprise":1771,"septembre":1772,"##jectif":1773,"veut":1774,"##hait":1775,"##ourn":1776,"ni":1777,"États":1778,"##çon":1779,"heure":1780,"Depuis":1781,"##itaires":1782,"##ils":1783,"##issement":1784,"br":1785,"sau":1786,"Plus":1787,"souhait":1788,"capit":1789,"Is":1790,"feu":1791,"désormais":1792,"crise":1793,"##cun":1794,"colle":1795,"##ori":1796,"Tout":1797,"##ensi":1798,"##rain":1799,"surtout":1800,"juillet":1801,"Cela":1802,"anim":1803,"respec":1804,"##nant":1805,"commer":1806,"joueurs":1807,"véh":1808,"##raient":1809,"reç":1810,"##ps":1811,"##mo":1812,"associ":1813,"sig":1814,"##obre":1815,"##tine":1816,"Europe":1817,"eau":1818,"étab":1819,"attend":1820,"##suite":1821,"février":1822,"pens":1823,"quar":1824,"##cole":1825,"Ab":1826,"orig":1827,"##tier":1828,"ind":1829,"contr":1830,"six":1831,"presse":1832,"sommes":1833,"abs":1834,"Pre":1835,"##ention":1836,"##pét":1837,"cadre":1838,"véhicu":1839,"##osition":1840,"entreprises":1841,"mieux":1842,"gros":1843,"souvent":1844,"objectif":1845,"habit":1846,"bar":1847,"##cation":1848,"appro":1849,"Paris":1850,"bou":1851,"pe":1852,"##vers":1853,"##ly":1854,"services":1855,"période":1856,"pi":1857,"##anci":1858,"autant":1859,"décision":1860,"commen":1861,"société":1862,"titre":1863,"octobre":1864,"##éra":1865,"##ilité":1866,"parc":1867,"recher":1868,"manif":1869,"semaines":1870,"font":1871,"Dé":1872,"##aly":1873,"seul":1874,"##yant":1875,"dernières":1876,"effec":1877,"seulement":1878,"mai":1879,"œu":1880,"étran":1881,"Ne":1882,"##orité":1883,"##usses":1884,"Gu":1885,"##dien":1886,"voy":1887,"laiss":1888,"##alif":1889,"national":1890,"journée":1891,"vraiment":1892,"##minist":1893,"passé":1894,"##nel":1895,"##énement":1896,"événement":1897,"##ses":1898,"##oise":1899,"club":1900,"accomp":1901,"tant":1902,"autorités":1903,"##ry":1904,"Or":1905,"passe":1906,"suiv":1907,"##ada":1908,"passer":1909,"reconn":1910,"annonce":1911,"vidé":1912,"##iles":1913,"##gement":1914,"avril":1915,"##toire":1916,"##itter":1917,"##aul":1918,"##ik":1919,"consi":1920,"##gique":1921,"##ètres":1922,"tu":1923,"##oque":1924,"##ovid":1925,"arrê":1926,"##rendre":1927,"emb":1928,"tard":1929,"##fs":1930,"Me":1931,"lim":1932,"##orta":1933,"confir":1934,"directeur":1935,"exemple":1936,"dol":1937,"nég":1938,"moi":1939,"##oli":1940,"rédu":1941,"travers":1942,"Covid":1943,"##oires":1944,"derniers":1945,"##ime":1946,"dét":1947,"##nique":1948,"cause":1949,"Bl":1950,"##tice":1951,"ext":1952,"partir":1953,"rappel":1954,"milliards":1955,"##quant":1956,"état":1957,"100":1958,"Int":1959,"ligne":1960,"##ore":1961,"administ":1962,"obt":1963,"Mon":1964,"chose":1965,"vont":1966,"”,":1967,"##fic":1968,"journal":1969,"mag":1970,"##bilité":1971,"territ":1972,"gaz":1973,"dess":1974,"parce":1975,"communiqué":1976,"liv":1977,"##lent":1978,"##quent":1979,"action":1980,"troisième":1981,"ress":1982,"second":1983,"rapide":1984,"##éd":1985,"profession":1986,"fut":1987,"##sez":1988,"##lément":1989,"##ame":1990,"##uc":1991,"##assi":1992,"##ets":1993,"##ionn":1994,"aide":1995,"dollar":1996,"méd":1997,"secteur":1998,"résul":1999,"2019":2000,"chi":2001,"expé":2002,"##utes":2003,"21":2004,"##tro":2005,"nouvelles":2006,"##ible":2007,"##ox":2008,"hommes":2009,"fédé":2010,"système":2011,"aller":2012,"Premi":2013,"préf":2014,"##ires":2015,"vaccin":2016,"##fait":2017,"grâce":2018,"Se":2019,"##érence":2020,"22":2021,"août":2022,"cit":2023,"ajou":2024,"##ow":2025,"change":2026,"produits":2027,"besoin":2028,"Gran":2029,"loi":2030,"##éli":2031,"##ende":2032,"phot":2033,"défense":2034,"ensuite":2035,"##ature":2036,"##ider":2037,"##lég":2038,"petit":2039,"important":2040,"autour":2041,"sujet":2042,"Pro":2043,"rue":2044,"##non":2045,"##tel":2046,"développement":2047,"bat":2048,"numé":2049,"aucun":2050,"##ager":2051,"##cune":2052,"front":2053,"mul":2054,"##osé":2055,"trouver":2056,"id":2057,"loin":2058,"pand":2059,"maison":2060,"##ek":2061,"occu":2062,"vient":2063,"##pecta":2064,"insc":2065,"Comme":2066,"tot":2067,"tomb":2068,"2023":2069,"consé":2070,"##la":2071,"##œur":2072,"appar":2073,"##rend":2074,"parole":2075,"puiss":2076,"ministère":2077,"##éri":2078,"##uté":2079,"lar":2080,"réun":2081,"prend":2082,"semble":2083,"##lièrement":2084,"sens":2085,"##aute":2086,"sais":2087,"manière":2088,"Afrique":2089,"univers":2090,"conseil":2091,"##utôt":2092,"##ception":2093,"hausse":2094,"forces":2095,"##lisse":2096,"civ":2097,"##yp":2098,"##neur":2099,"Macron":2100,"##éc":2101,"autom":2102,"mesure":2103,"##avant":2104,"Conseil":2105,"us":2106,"##aces":2107,"armée":2108,"mod":2109,"##ruct":2110,"Etat":2111,"##lée":2112,"Char":2113,"pandémie":2114,"Ph":2115,"##pendant":2116,"##auche":2117,"expéri":2118,"pra":2119,"##ze":2120,"##oses":2121,"quelque":2122,"rencontre":2123,"dollars":2124,"Em":2125,"Vous":2126,"##lin":2127,"Alors":2128,"choix":2129,"50":2130,"taux":2131,"ajouté":2132,"ali":2133,"jouer":2134,"offre":2135,"invest":2136,"bal":2137,"initi":2138,"nouveaux":2139,"compét":2140,"##igue":2141,"permis":2142,"##tte":2143,"##oot":2144,"##ber":2145,"##èg":2146,"##érit":2147,"crit":2148,"##ribu":2149,"##forme":2150,"Sh":2151,"sign":2152,"##xim":2153,"##oud":2154,"##ourg":2155,"campagne":2156,"donner":2157,"cri":2158,"##aï":2159,"##ète":2160,"exc":2161,"termin":2162,"programme":2163,"finale":2164,"lut":2165,"vue":2166,"plutôt":2167,"tourn":2168,"Ben":2169,"ayant":2170,"##ones":2171,"plate":2172,"interv":2173,"risque":2174,"succès":2175,"Am":2176,"##ach":2177,"parta":2178,"intér":2179,"précé":2180,"financi":2181,"production":2182,"Lors":2183,"##land":2184,"clim":2185,"population":2186,"étudi":2187,"##tur":2188,"##xte":2189,"répond":2190,"prochain":2191,"rend":2192,"##be":2193,"temp":2194,"soutien":2195,"##resse":2196,"minutes":2197,"arrivée":2198,"nuit":2199,"##aît":2200,"Canada":2201,"bénéf":2202,"dist":2203,"specta":2204,"val":2205,"##ive":2206,"donné":2207,"##pital":2208,"Rép":2209,"dû":2210,"gen":2211,"tém":2212,"##iver":2213,"scène":2214,"##ouss":2215,"sein":2216,"publique":2217,"##ras":2218,"##tal":2219,"chiff":2220,"th":2221,"tri":2222,"##ande":2223,"##aisse":2224,"collec":2225,"gé":2226,"##ège":2227,"##onie":2228,"direction":2229,"victoire":2230,"Pl":2231,"##oti":2232,"mesures":2233,"##lie":2234,"juste":2235,"viole":2236,"##aître":2237,"##ast":2238,"##dit":2239,"##yn":2240,"assez":2241,"gl":2242,"##ira":2243,"visite":2244,"père":2245,"sû":2246,"base":2247,"Suis":2248,"chois":2249,"ident":2250,"##raph":2251,"##ierre":2252,"Cl":2253,"##reg":2254,"ense":2255,"##agner":2256,"grands":2257,"charge":2258,"##itif":2259,"##inte":2260,"cam":2261,"sout":2262,"ta":2263,"##gence":2264,"##lation":2265,"plu":2266,"##ack":2267,"consomm":2268,"##rents":2269,"parten":2270,"toutefois":2271,"énergie":2272,"Républi":2273,"sent":2274,"terrain":2275,"russes":2276,"école":2277,"##ota":2278,"dég":2279,"##téri":2280,"écrit":2281,"décidé":2282,"doivent":2283,"bâ":2284,"Du":2285,"doc":2286,"##ied":2287,"concl":2288,"impos":2289,"seule":2290,"polici":2291,"combat":2292,"Comm":2293,"main":2294,"sort":2295,"condu":2296,"rôle":2297,"##ed":2298,"##iennent":2299,"##ocra":2300,"sociaux":2301,"multi":2302,"vale":2303,"##alités":2304,"choses":2305,"##abor":2306,"employ":2307,"manifes":2308,"El":2309,"##ute":2310,"##uve":2311,"##rations":2312,"##part":2313,"durant":2314,"##ros":2315,"rester":2316,"##usement":2317,"jeux":2318,"maintenant":2319,"œuvre":2320,"ém":2321,"##lant":2322,"aucune":2323,"dossi":2324,"reçu":2325,"23":2326,"##gl":2327,"##fi":2328,"##quel":2329,"argent":2330,"inté":2331,"midi":2332,"Es":2333,"dispon":2334,"As":2335,"Mos":2336,"fac":2337,"##anche":2338,"compr":2339,"##ppe":2340,"##oun":2341,"qualif":2342,"indique":2343,"bi":2344,"##chés":2345,"viol":2346,"citoy":2347,"départ":2348,"##ologie":2349,"provin":2350,"##estiv":2351,"##indre":2352,"##tait":2353,"##vention":2354,"total":2355,"Don":2356,"Ou":2357,"haut":2358,"difficile":2359,"organisation":2360,"façon":2361,"lancé":2362,"pati":2363,"##joint":2364,"forte":2365,"pense":2366,"##ension":2367,"aliment":2368,"##auv":2369,"ouv":2370,"##érer":2371,"nombreuses":2372,"syn":2373,"rendre":2374,"##réal":2375,"prépar":2376,"##atives":2377,"##itude":2378,"40":2379,"rece":2380,"pén":2381,"condam":2382,"lance":2383,"pied":2384,"##ky":2385,"justice":2386,"##tifs":2387,"dirige":2388,"##ennes":2389,"analy":2390,"Emman":2391,"Nord":2392,"##ara":2393,"vidéo":2394,"règ":2395,"##lème":2396,"##orter":2397,"Maroc":2398,"26":2399,"##éro":2400,"##auté":2401,"##oupes":2402,"terme":2403,"racont":2404,"indus":2405,"violen":2406,"indé":2407,"droits":2408,"répon":2409,"précisé":2410,"Cent":2411,"##quet":2412,"premiers":2413,"Suisse":2414,"Ac":2415,"route":2416,"##labor":2417,"##acité":2418,"##agement":2419,"social":2420,"conditions":2421,"Belgique":2422,"##gal":2423,"intég":2424,"##ablement":2425,"##unicip":2426,"connu":2427,"Cer":2428,"nord":2429,"##cou":2430,"##urant":2431,"enc":2432,"##quée":2433,"gauche":2434,"soi":2435,"édition":2436,"##cteurs":2437,"sud":2438,"souff":2439,"mess":2440,"prochaine":2441,"témo":2442,"politiques":2443,"volont":2444,"réseaux":2445,"activités":2446,"rent":2447,"##nelle":2448,"quant":2449,"suff":2450,"dépar":2451,"actuellement":2452,"informations":2453,"opération":2454,"28":2455,"pat":2456,"ri":2457,"dix":2458,"transport":2459,"##itution":2460,"corps":2461,"estime":2462,"27":2463,"##temps":2464,"##quelle":2465,"oblig":2466,"199":2467,"projets":2468,"américain":2469,"ukrainien":2470,"date":2471,"##rou":2472,"##édé":2473,"##iné":2474,"quoi":2475,"parfois":2476,"territoire":2477,"Alle":2478,"Jus":2479,"gu":2480,"zone":2481,"laquelle":2482,"enreg":2483,"##ball":2484,"commune":2485,"propri":2486,"coû":2487,"victimes":2488,"étrang":2489,"Emmanuel":2490,"Mich":2491,"fr":2492,"lit":2493,"mouv":2494,"##son":2495,"##ograph":2496,"classe":2497,"neu":2498,"##ata":2499,"##app":2500,"dénon":2501,"petite":2502,"sortie":2503,"fav":2504,"trib":2505,"##af":2506,"##lection":2507,"déta":2508,"objet":2509,"obser":2510,"diffic":2511,"produit":2512,"meilleur":2513,"recherche":2514,"Tw":2515,"quoti":2516,"##illé":2517,"soli":2518,"certaines":2519,"démocra":2520,"formation":2521,"procé":2522,"données":2523,"milieu":2524,"République":2525,"mê":2526,"##rès":2527,"##oil":2528,"économique":2529,"cœur":2530,"##cs":2531,"améli":2532,"##estival":2533,"stra":2534,"vos":2535,"##ple":2536,"##kin":2537,"qualité":2538,"militaire":2539,"dispos":2540,"problème":2541,"huit":2542,"Su":2543,"Union":2544,"forme":2545,"droite":2546,"responsable":2547,"atteint":2548,"rapidement":2549,"joueur":2550,"500":2551,"élè":2552,"adap":2553,"possi":2554,"prison":2555,"contrôle":2556,"municip":2557,"##atur":2558,"faits":2559,"Cha":2560,"travaux":2561,"Quand":2562,"malgré":2563,"Val":2564,"bel":2565,"présence":2566,"affaire":2567,"Pou":2568,"log":2569,"we":2570,"##vid":2571,"##abilité":2572,"finalement":2573,"européenne":2574,"Pas":2575,"affaires":2576,"Coupe":2577,"bout":2578,"cy":2579,"fourn":2580,"##ey":2581,"##usé":2582,"accès":2583,"post":2584,"différents":2585,"Man":2586,"venir":2587,"##FP":2588,"vill":2589,"surv":2590,"##ick":2591,"manque":2592,"longtemps":2593,"plein":2594,"Est":2595,"cal":2596,"##nés":2597,"##ument":2598,"##til":2599,"Premier":2600,"Face":2601,"Ville":2602,"auprès":2603,"simp":2604,"##énégal":2605,"effectu":2606,"Cô":2607,"Fin":2608,"sex":2609,"époque":2610,"attaque":2611,"Lou":2612,"##tég":2613,"propose":2614,"accident":2615,"dipl":2616,"Isra":2617,"habitants":2618,"maire":2619,"##enn":2620,"super":2621,"perform":2622,"##érieur":2623,"Ainsi":2624,"##iance":2625,"prise":2626,"position":2627,"course":2628,"Pierre":2629,"bure":2630,"mère":2631,"##30":2632,"##onnes":2633,"ordre":2634,"idée":2635,"parler":2636,"avez":2637,"expri":2638,"extr":2639,"lu":2640,"##entes":2641,"##ague":2642,"conc":2643,"carrière":2644,"permettre":2645,"ajout":2646,"sept":2647,"trouve":2648,"peine":2649,"porté":2650,"sci":2651,"resta":2652,"retrouver":2653,"Poutine":2654,"##quis":2655,"Français":2656,"##atiques":2657,"donne":2658,"Montréal":2659,"capitale":2660,"amélior":2661,"Ça":2662,"gestion":2663,"##rage":2664,"parmi":2665,"##médi":2666,"découv":2667,"ord":2668,"médic":2669,"étant":2670,"##ting":2671,"française":2672,"majorité":2673,"##lit":2674,"##endance":2675,"image":2676,"histor":2677,"voiture":2678,"circul":2679,"vir":2680,"##ars":2681,"##quoi":2682,"conse":2683,"mobil":2684,"marque":2685,"Brux":2686,"Ant":2687,"sac":2688,"table":2689,"viv":2690,"##ret":2691,"pri":2692,"sait":2693,"##lam":2694,"##ash":2695,"compagn":2696,"environnement":2697,"bâti":2698,"Col":2699,"foot":2700,"lieux":2701,"plac":2702,"Moscou":2703,"aider":2704,"hôpital":2705,"##vision":2706,"##atoire":2707,"accep":2708,"force":2709,"ciném":2710,"candidat":2711,"négoci":2712,"Grand":2713,"train":2714,"techn":2715,"victime":2716,"vois":2717,"adop":2718,"affront":2719,"dossier":2720,"Même":2721,"Te":2722,"fig":2723,"surpr":2724,"perdu":2725,"matière":2726,"syndic":2727,"Cor":2728,"pourtant":2729,"##airement":2730,"enfant":2731,"presque":2732,"##inement":2733,"##rées":2734,"##atif":2735,"##phone":2736,"créer":2737,"longue":2738,"Ad":2739,"tôt":2740,"##urent":2741,"précise":2742,"continuer":2743,"Joh":2744,"conte":2745,"renfor":2746,"##erts":2747,"##let":2748,"direc":2749,"expliqué":2750,"favor":2751,"Alex":2752,"Sam":2753,"danger":2754,"##erté":2755,"##unal":2756,"##arder":2757,"demandé":2758,"expérience":2759,"##iner":2760,"entrée":2761,"lorsque":2762,"partis":2763,"démar":2764,"sûr":2765,"Ser":2766,"cra":2767,"doute":2768,"hau":2769,"voix":2770,"##ières":2771,"diz":2772,"établisse":2773,"Cour":2774,"ON":2775,"##tie":2776,"##dio":2777,"##idence":2778,"dispar":2779,"présidenti":2780,"install":2781,"extrême":2782,"af":2783,"##ville":2784,"##arde":2785,"##rice":2786,"armes":2787,"céré":2788,"##tations":2789,"grandes":2790,"AFP":2791,"Go":2792,"div":2793,"##ev":2794,"##illi":2795,"##auff":2796,"##clus":2797,"économie":2798,"particulièrement":2799,"kil":2800,"##main":2801,"##ki":2802,"##çois":2803,"##oss":2804,"affi":2805,"##ritan":2806,"parents":2807,"affirmé":2808,"cherche":2809,"conséqu":2810,"Ber":2811,"CO":2812,"PC":2813,"##ror":2814,"parle":2815,"##andis":2816,"##oyer":2817,"Deux":2818,"Gr":2819,"##eter":2820,"personnel":2821,"sélection":2822,"mondiale":2823,"pomp":2824,"##tor":2825,"Twitter":2826,"iss":2827,"ras":2828,"âge":2829,"##nor":2830,"##inaire":2831,"réussi":2832,"##action":2833,"simple":2834,"PS":2835,"air":2836,"mauv":2837,"norm":2838,"##nels":2839,"##ke":2840,"réalité":2841,"exer":2842,"arrêt":2843,"garde":2844,"source":2845,"lutte":2846,"intérêt":2847,"divers":2848,"##cée":2849,"Chine":2850,"générale":2851,"prévu":2852,"ouvert":2853,"voyage":2854,"bud":2855,"juge":2856,"Mer":2857,"Sud":2858,"cou":2859,"fille":2860,"mand":2861,"pan":2862,"vérit":2863,"##ysi":2864,"##arité":2865,"derrière":2866,"clients":2867,"internationale":2868,"accueill":2869,"intéress":2870,"Centre":2871,"Bar":2872,"ty":2873,"équ":2874,"##êts":2875,"inflation":2876,"2018":2877,"travailler":2878,"scol":2879,"##io":2880,"révé":2881,"équipes":2882,"différentes":2883,"supplément":2884,"médias":2885,"Bruxelles":2886,"%.":2887,"dra":2888,"unique":2889,"défin":2890,"##ibles":2891,"New":2892,"Israël":2893,"avoc":2894,"pourra":2895,"##amer":2896,"##endra":2897,"##aissance":2898,"isra":2899,"Li":2900,"##aix":2901,"complè":2902,"présente":2903,"##issant":2904,"individ":2905,"faci":2906,"ajoute":2907,"##att":2908,"applic":2909,"collabor":2910,"souligne":2911,"commencé":2912,"Roy":2913,"belle":2914,"##ption":2915,"##ume":2916,"espace":2917,"##avantage":2918,"tes":2919,"##iés":2920,"##estions":2921,"enregist":2922,"Amé":2923,"bord":2924,"lo":2925,"##ule":2926,"exploit":2927,"véhicule":2928,"35":2929,"Tro":2930,"rê":2931,"questions":2932,"malad":2933,"communauté":2934,"international":2935,"association":2936,"km":2937,"pil":2938,"vite":2939,"##clé":2940,"##ma":2941,"parv":2942,"##tées":2943,"##otes":2944,"##ologique":2945,"considé":2946,"résultats":2947,"60":2948,"Ent":2949,"##uré":2950,"quit":2951,"arti":2952,"premières":2953,"éviter":2954,"matéri":2955,"propre":2956,"rempl":2957,"29":2958,"ve":2959,"direct":2960,"fils":2961,"bénéfici":2962,"proprié":2963,"mouvement":2964,"israéli":2965,"hy":2966,"##gée":2967,"##êtes":2968,"demi":2969,"##tection":2970,"inqui":2971,"engag":2972,"véhicules":2973,"Gen":2974,"davantage":2975,"tota":2976,"vivre":2977,"##seur":2978,"accé":2979,"impact":2980,"physi":2981,"Certa":2982,"alle":2983,"##ost":2984,"##yth":2985,"##alent":2986,"oub":2987,"rende":2988,"31":2989,"##uelle":2990,"##itié":2991,"assure":2992,"record":2993,"##alisation":2994,"buts":2995,"activité":2996,"quartier":2997,"médec":2998,"plupart":2999,"1er":3000,"cé":3001,"##oter":3002,"2017":3003,"mêmes":3004,"vari":3005,"##ase":3006,"##unis":3007,"##mées":3008,"information":3009,"citoyens":3010,"Ass":3011,"##més":3012,"##nif":3013,"devenu":3014,"obtenir":3015,"Sp":3016,"Ste":3017,"mission":3018,"avenir":3019,"écran":3020,"élections":3021,"origine":3022,"week":3023,"fu":3024,"fai":3025,"##con":3026,"chac":3027,"##oph":3028,"piè":3029,"thé":3030,"vit":3031,"##eront":3032,"##isc":3033,"##ana":3034,"destin":3035,"parfait":3036,"écri":3037,"terror":3038,"poste":3039,"##obil":3040,"Malgré":3041,"multip":3042,"Bou":3043,"bil":3044,"fall":3045,"##gue":3046,"réuss":3047,"mot":3048,"décès":3049,"évo":3050,"soirée":3051,"augmentation":3052,"affirme":3053,"genre":3054,"Bor":3055,"##aume":3056,"sav":3057,"compos":3058,"épis":3059,"##semblée":3060,"familles":3061,"frapp":3062,"américaine":3063,"souligné":3064,"avance":3065,"##nies":3066,"version":3067,"coups":3068,"##atrice":3069,"retrouve":3070,"occup":3071,"quotidien":3072,"rendu":3073,"sport":3074,"##ani":3075,"exception":3076,"impression":3077,"images":3078,"susp":3079,"valeur":3080,"fix":3081,"tandis":3082,"##rez":3083,"##tient":3084,"##ork":3085,"##qués":3086,"rév":3087,"##utés":3088,"compar":3089,"siè":3090,"infra":3091,"régu":3092,"importante":3093,"matchs":3094,"commerci":3095,"inscrit":3096,"straté":3097,"afric":3098,"baisse":3099,"livre":3100,"Etats":3101,"liste":3102,"##ck":3103,"##écu":3104,"plaint":3105,"maxim":3106,"arrive":3107,"essenti":3108,"précédent":3109,"cinéma":3110,"celles":3111,"stat":3112,"##ède":3113,"##alog":3114,"François":3115,"effic":3116,"Bien":3117,"lang":3118,"tenu":3119,"”.":3120,"##ancer":3121,"##ication":3122,"effort":3123,"empê":3124,"ouverture":3125,"assurer":3126,"construction":3127,"administration":3128,"%)":3129,"mètres":3130,"pal":3131,"##rans":3132,"##magne":3133,"##isions":3134,"##termin":3135,"écl":3136,"conférence":3137,"Marc":3138,"instal":3139,"Mé":3140,"Sy":3141,"faud":3142,"And":3143,"sanctions":3144,"tribunal":3145,"difficul":3146,"John":3147,"ait":3148,"##tir":3149,"dél":3150,"montre":3151,"canadi":3152,"##rieur":3153,"dessus":3154,"paix":3155,"##èmes":3156,"##ala":3157,"peuple":3158,"simplement":3159,"##oie":3160,"pla":3161,"##uxe":3162,"réser":3163,"198":3164,"appelé":3165,"liberté":3166,"moyenne":3167,"compagnie":3168,"Prés":3169,"The":3170,"tar":3171,"##ote":3172,"del":3173,"##chi":3174,"exam":3175,"puisque":3176,"voie":3177,"création":3178,"urgence":3179,"Allemagne":3180,"diplom":3181,"pompiers":3182,"jur":3183,"##nov":3184,"##sy":3185,"##ka":3186,"Ang":3187,"hiver":3188,"mor":3189,"##get":3190,"entend":3191,"retra":3192,"militaires":3193,"endro":3194,"Esp":3195,"compris":3196,"hos":3197,"##rais":3198,"mode":3199,"pétro":3200,"Inst":3201,"For":3202,"He":3203,"gagner":3204,"##dici":3205,"##issent":3206,"légis":3207,"nav":3208,"vente":3209,"él":3210,"##eté":3211,"exist":3212,"chaî":3213,"petits":3214,"milliers":3215,"##ault":3216,"modèle":3217,"Jo":3218,"##istique":3219,"protection":3220,"##ureusement":3221,"devenir":3222,"musique":3223,"fédéral":3224,"pot":3225,"chance":3226,"##rétaire":3227,"##ricité":3228,"Aujourd":3229,"essay":3230,"Côte":3231,"Ex":3232,"Tour":3233,"natur":3234,"rais":3235,"ul":3236,"##aw":3237,"##mir":3238,"##tives":3239,"##veur":3240,"##uter":3241,"publié":3242,"faisant":3243,"achat":3244,"village":3245,"Bur":3246,"##até":3247,"lead":3248,"avent":3249,"pourquoi":3250,"enfin":3251,"70":3252,"Mo":3253,"ving":3254,"##mar":3255,"##jou":3256,"##cemment":3257,"avais":3258,"acteurs":3259,"##lèmes":3260,"vrai":3261,"promo":3262,"plateforme":3263,"bureau":3264,"football":3265,"##onner":3266,"interp":3267,"responsables":3268,"policiers":3269,"historique":3270,"App":3271,"Ligue":3272,"Rob":3273,"##urer":3274,"##entif":3275,"##iev":3276,"##ambre":3277,"##ides":3278,"maî":3279,"lorsqu":3280,"continue":3281,"poursuiv":3282,"sanitaire":3283,"Dav":3284,"mas":3285,"##gh":3286,"pourraient":3287,"##limin":3288,"##mestre":3289,"découver":3290,"imag":3291,"nuclé":3292,"croiss":3293,"problèmes":3294,"human":3295,"##isée":3296,"##ind":3297,"lequel":3298,"judici":3299,"attendre":3300,"élection":3301,"élector":3302,"électricité":3303,"oppos":3304,"spécial":3305,"##lymp":3306,"changement":3307,"Beau":3308,"Sénégal":3309,"##ares":3310,"proche":3311,"##rog":3312,"conflit":3313,"##alisé":3314,"présenté":3315,"struct":3316,"habitu":3317,"opposition":3318,"Aut":3319,"Paul":3320,"##mage":3321,"concur":3322,"chant":3323,"##endie":3324,"##ignement":3325,"supé":3326,"carte":3327,"conserv":3328,"Kh":3329,"Sal":3330,"##val":3331,"##ouse":3332,"arb":3333,"appare":3334,"##issions":3335,"vote":3336,"réunion":3337,"soient":3338,"Ju":3339,"Ot":3340,"impli":3341,"197":3342,"salle":3343,"invasion":3344,"sortir":3345,"##tivement":3346,"chiffres":3347,"##ritannique":3348,"At":3349,"##monie":3350,"##agné":3351,"changer":3352,"passage":3353,"consul":3354,"incendie":3355,"##idemment":3356,"remporté":3357,"élèves":3358,"Gab":3359,"fré":3360,"gam":3361,"##vés":3362,"##ination":3363,"##inée":3364,"##enait":3365,"##ives":3366,"groupes":3367,"débat":3368,"transition":3369,"remar":3370,"province":3371,"réponse":3372,"présidentielle":3373,"kilom":3374,"Luc":3375,"Mme":3376,"stu":3377,"##ducation":3378,"insp":3379,"concernant":3380,"message":3381,"Santé":3382,"festival":3383,"##âte":3384,"##isés":3385,"##ina":3386,"proté":3387,"parties":3388,"terre":3389,"rappelle":3390,"champion":3391,"département":3392,"solid":3393,"rendez":3394,"rang":3395,"##ustra":3396,"procès":3397,"##roy":3398,"actions":3399,"étape":3400,"##enses":3401,"##mettre":3402,"immédi":3403,"trouvé":3404,"Notre":3405,"arrêté":3406,"identif":3407,"deme":3408,"récemment":3409,"compter":3410,"assist":3411,"joué":3412,"##apon":3413,"assuré":3414,"Sch":3415,"red":3416,"ouest":3417,"##itement":3418,"relations":3419,"espère":3420,"Phili":3421,"noir":3422,"##AN":3423,"##bo":3424,"finance":3425,"joue":3426,"sociale":3427,"sommet":3428,"sold":3429,"morts":3430,"mondial":3431,"Vl":3432,"of":3433,"##erie":3434,"##ricul":3435,"atteindre":3436,"moyens":3437,"mandat":3438,"delà":3439,"Kiev":3440,"Pri":3441,"##gn":3442,"##uy":3443,"détermin":3444,"milit":3445,"collè":3446,"rouge":3447,"80":3448,"##aie":3449,"##odes":3450,"auteur":3451,"angl":3452,"via":3453,"continu":3454,"candidats":3455,"##este":3456,"process":3457,"réag":3458,"##niques":3459,"moyen":3460,"UE":3461,"bomb":3462,"hier":3463,"##of":3464,"esc":3465,"confiance":3466,"##issements":3467,"représente":3468,"meilleure":3469,"indép":3470,"véritable":3471,"coule":3472,"fab":3473,"sin":3474,"voi":3475,"yeux":3476,"élé":3477,"exécu":3478,"carb":3479,"somme":3480,"remont":3481,"discours":3482,"Plusieurs":3483,"possibilité":3484,"découvrir":3485,"300":3486,"45":3487,"Ge":3488,"Nouv":3489,"hor":3490,"##usion":3491,"suivre":3492,"devait":3493,"Chris":3494,"##ario":3495,"explos":3496,"Mus":3497,"plais":3498,"cependant":3499,"##vement":3500,"##veill":3501,"##ays":3502,"##ruit":3503,"centrale":3504,"##ariat":3505,"pratique":3506,"type":3507,"processus":3508,"##na":3509,"##can":3510,"##vant":3511,"##esse":3512,"exté":3513,"tradition":3514,"appré":3515,"##acement":3516,"garant":3517,"particulier":3518,"stade":3519,"signé":3520,"répondre":3521,"violence":3522,"Net":3523,"aéri":3524,"pou":3525,"énor":3526,"##VI":3527,"##liers":3528,"éval":3529,"seconde":3530,"##assé":3531,"certain":3532,"##tention":3533,"films":3534,"étude":3535,"convain":3536,"employés":3537,"contexte":3538,"potenti":3539,"##char":3540,"##atar":3541,"existe":3542,"outre":3543,"régions":3544,"constat":3545,"utiliser":3546,"er":3547,"##cri":3548,"##oré":3549,"##acer":3550,"réalisé":3551,"suivi":3552,"document":3553,"solution":3554,"villes":3555,"##trie":3556,"##bes":3557,"##rement":3558,"##table":3559,"##taires":3560,"étais":3561,"##cupé":3562,"Alg":3563,"capacité":3564,"Avant":3565,"énergé":3566,"nécessaire":3567,"budget":3568,"psy":3569,"riv":3570,"station":3571,"tel":3572,"##rodu":3573,"comprendre":3574,"comprend":3575,"##oth":3576,"devraient":3577,"chemin":3578,"secrétaire":3579,"transform":3580,"arriver":3581,"généra":3582,"locaux":3583,"##atrième":3584,"championn":3585,"disponible":3586,"%,":3587,"Rou":3588,"ment":3589,"nature":3590,"enj":3591,"proc":3592,"soins":3593,"Parmi":3594,"##ologue":3595,"##olutions":3596,"espoir":3597,"contrat":3598,"fonds":3599,"Nic":3600,"Sans":3601,"##idi":3602,"##we":3603,"##ancé":3604,"##ley":3605,"##rid":3606,"reb":3607,"arme":3608,"marqué":3609,"épre":3610,"court":3611,"domaine":3612,"technique":3613,"consid":3614,"volonté":3615,"Louis":3616,"chacun":3617,"Aff":3618,"Be":3619,"##och":3620,"##mique":3621,"alli":3622,"personnage":3623,"concerne":3624,"double":3625,"accusé":3626,"souhaite":3627,"Entre":3628,"Elles":3629,"##ttes":3630,"##FA":3631,"##ony":3632,"##isant":3633,"##tiers":3634,"prêt":3635,"rele":3636,"mari":3637,"aband":3638,"régime":3639,"auront":3640,"revenir":3641,"provo":3642,"circu":3643,"parcours":3644,"Certains":3645,"Ter":3646,"vites":3647,"##car":3648,"quitter":3649,"##ettes":3650,"Quel":3651,"transf":3652,"emploi":3653,"compétition":3654,"procéd":3655,"maladie":3656,"##mm":3657,"##aste":3658,"dér":3659,"délég":3660,"##chent":3661,"pourront":3662,"conne":3663,"##mière":3664,"devient":3665,"annul":3666,"dirigeants":3667,"industri":3668,"Cap":3669,"##cles":3670,"quatrième":3671,"parlement":3672,"##eth":3673,"concent":3674,"catég":3675,"note":3676,"député":3677,"publics":3678,"##ancée":3679,"étudiants":3680,"célè":3681,"législ":3682,"Algérie":3683,"Oli":3684,"Tru":3685,"amis":3686,"fera":3687,"rom":3688,"##va":3689,"##lise":3690,"##çant":3691,"##cier":3692,"##ames":3693,"compli":3694,"##tern":3695,"députés":3696,"transp":3697,"montant":3698,"Pen":3699,"hors":3700,"sorte":3701,"##tures":3702,"##ip":3703,"##anie":3704,"##atis":3705,"salari":3706,"kilomètres":3707,"éléments":3708,"Tous":3709,"côt":3710,"pap":3711,"élimin":3712,"##onné":3713,"##itation":3714,"##orie":3715,"##chant":3716,"proches":3717,"intérieur":3718,"entrep":3719,"command":3720,"meur":3721,"agence":3722,"profiter":3723,"augmenter":3724,"poursuit":3725,"Brun":3726,"dirig":3727,"##écois":3728,"plainte":3729,"croissance":3730,"##uration":3731,"outil":3732,"##cén":3733,"membre":3734,"heur":3735,"durée":3736,"principal":3737,"initiative":3738,"Van":3739,"York":3740,"ir":3741,"##riques":3742,"##oll":3743,"récl":3744,"moitié":3745,"##otte":3746,"marche":3747,"advers":3748,"clair":3749,"offrir":3750,"##géri":3751,"européen":3752,"lancer":3753,"Trois":3754,"Président":3755,"Bra":3756,"Vin":3757,"porta":3758,"tran":3759,"pron":3760,"audi":3761,"espr":3762,"présidente":3763,"connaiss":3764,"regard":3765,"ressour":3766,"photo":3767,"climatique":3768,"rassemb":3769,"Vladi":3770,"Co":3771,"bois":3772,"célé":3773,"##oins":3774,"##fier":3775,"chin":3776,"##ids":3777,"##oyé":3778,"classi":3779,"engagement":3780,"porter":3781,"puissance":3782,"consommation":3783,"belge":3784,"cérémonie":3785,"Vladimir":3786,"##gés":3787,"laisse":3788,"lesqu":3789,"avis":3790,"##agers":3791,"##ignes":3792,"comporte":3793,"instant":3794,"contraire":3795,"veulent":3796,"libé":3797,"domicile":3798,"suspec":3799,"libre":3800,"confirmé":3801,"Min":3802,"Ren":3803,"sensi":3804,"vent":3805,"##cipe":3806,"##aye":3807,"estimé":3808,"laisser":3809,"journaliste":3810,"Michel":3811,"neuf":3812,"application":3813,"veille":3814,"Cont":3815,"tient":3816,"##rin":3817,"modi":3818,"perd":3819,"reprises":3820,"ancienne":3821,"administra":3822,"excell":3823,"raisons":3824,"Iv":3825,"##go":3826,"quas":3827,"prol":3828,"coopé":3829,"2015":3830,"pouvez":3831,"dévoil":3832,"communication":3833,"Assemblée":3834,"scientif":3835,"conséquences":3836,"bilan":3837,"chaîne":3838,"vain":3839,"##gu":3840,"##ko":3841,"##ald":3842,"illus":3843,"rej":3844,"espé":3845,"évent":3846,"résultat":3847,"raconte":3848,"céléb":3849,"##âtre":3850,"Univers":3851,"agents":3852,"justif":3853,"travaille":3854,"risques":3855,"ukrainienne":3856,"culture":3857,"numérique":3858,"##ribution":3859,"directement":3860,"article":3861,"Ital":3862,"##née":3863,"##ga":3864,"quin":3865,"contrib":3866,"Enfin":3867,"Marie":3868,"Quant":3869,"Parti":3870,"envie":3871,"travaill":3872,"profit":3873,"fémin":3874,"populaire":3875,"respect":3876,"obtenu":3877,"inscri":3878,"largement":3879,"encour":3880,"ryth":3881,"##ha":3882,"##ènes":3883,"##my":3884,"##struct":3885,"avions":3886,"final":3887,"texte":3888,"évidemment":3889,"amour":3890,"études":3891,"opérations":3892,"Noël":3893,"absence":3894,"numéro":3895,"enseign":3896,"patron":3897,"##alogue":3898,"David":3899,"fi":3900,"faute":3901,"scén":3902,"zones":3903,"##iée":3904,"reti":3905,"revient":3906,"pression":3907,"physique":3908,"Ed":3909,"Lu":3910,"aéro":3911,"britannique":3912,"voire":3913,"##tini":3914,"##aude":3915,"chang":3916,"poss":3917,"renouv":3918,"constitu":3919,"contrô":3920,"large":3921,"spectacle":3922,"partenaires":3923,"couver":3924,"mention":3925,"olymp":3926,"ru":3927,"##rom":3928,"##él":3929,"##by":3930,"##çons":3931,"##anne":3932,"##endi":3933,"##rient":3934,"payer":3935,"aime":3936,"défait":3937,"2016":3938,"couple":3939,"famili":3940,"réfug":3941,"participer":3942,"refus":3943,"discuss":3944,"approche":3945,"tournoi":3946,"mauvais":3947,"vitesse":3948,"75":3949,"Ver":3950,"##iendra":3951,"##èse":3952,"##mart":3953,"##oué":3954,"let":3955,"##ressi":3956,"##chement":3957,"##issait":3958,"importance":3959,"stock":3960,"tempéra":3961,"##ynam":3962,"Ze":3963,"##ône":3964,"##iement":3965,"récupé":3966,"contact":3967,"importe":3968,"consci":3969,"instru":3970,"gratu":3971,"pleine":3972,"méda":3973,"exerci":3974,"faudra":3975,"Ali":3976,"Jac":3977,"Nice":3978,"cab":3979,"sang":3980,"##gne":3981,"chale":3982,"##abil":3983,"appelle":3984,"devra":3985,"nouvel":3986,"minim":3987,"influ":3988,"partout":3989,"centaines":3990,"symb":3991,"client":3992,"faisait":3993,"Charles":3994,"étrangères":3995,"affiche":3996,"Har":3997,"Tra":3998,"Toute":3999,"peur":4000,"trent":4001,"##urie":4002,"chauff":4003,"sim":4004,"recomm":4005,"artiste":4006,"blessés":4007,"cultur":4008,"réduire":4009,"signal":4010,"glob":4011,"siècle":4012,"infrastruct":4013,"##uxemb":4014,"II":4015,"Lé":4016,"tenir":4017,"##mant":4018,"##anmo":4019,"##ries":4020,"entretien":4021,"commission":4022,"mém":4023,"Pourtant":4024,"##assade":4025,"hôtel":4026,"choisi":4027,"##anmoins":4028,"Bre":4029,"Nation":4030,"aim":4031,"nour":4032,"élus":4033,"êtes":4034,"##rons":4035,"##SS":4036,"confront":4037,"##verse":4038,"pouvait":4039,"relig":4040,"probablement":4041,"##énom":4042,"allait":4043,"issue":4044,"plaisir":4045,"procure":4046,"Fond":4047,"ble":4048,"gri":4049,"##ament":4050,"comité":4051,"entendre":4052,"préoc":4053,"devoir":4054,"résident":4055,"infec":4056,"travailleurs":4057,"revanche":4058,"ouverte":4059,"remise":4060,"besoins":4061,"participation":4062,"commencer":4063,"événements":4064,"##édération":4065,"accueillir":4066,"complètement":4067,"pronon":4068,"32":4069,"90":4070,"Mor":4071,"Rom":4072,"Tur":4073,"bra":4074,"telle":4075,"##ys":4076,"écoles":4077,"positif":4078,"##ington":4079,"##asser":4080,"##assin":4081,"auraient":4082,"##alestini":4083,"montrer":4084,"arrière":4085,"entraîneur":4086,"privé":4087,"Commission":4088,"nucléaire":4089,"ressources":4090,"Ban":4091,"Pendant":4092,"TV":4093,"mig":4094,"##isté":4095,"surf":4096,"196":4097,"courant":4098,"occident":4099,"##oindre":4100,"prochaines":4101,"Canadi":4102,"efforts":4103,"Cet":4104,"Dès":4105,"Que":4106,"patri":4107,"##ètre":4108,"quart":4109,"##amment":4110,"##ortun":4111,"##iden":4112,"##atifs":4113,"appr":4114,"appli":4115,"##aliser":4116,"2014":4117,"attention":4118,"francs":4119,"phénom":4120,"incar":4121,"##heureusement":4122,"actuelle":4123,"##rants":4124,"blanc":4125,"récol":4126,"négociations":4127,"judiciaire":4128,"Bas":4129,"Lib":4130,"fans":4131,"honne":4132,"ton":4133,"##lir":4134,"##zz":4135,"extra":4136,"##endar":4137,"##igner":4138,"phase":4139,"démont":4140,"portes":4141,"islam":4142,"classement":4143,"psych":4144,"côtés":4145,"fro":4146,"mains":4147,"##nie":4148,"##erte":4149,"##èrent":4150,"##illon":4151,"complex":4152,"##cup":4153,"Cependant":4154,"forcé":4155,"arrivé":4156,"magas":4157,"surprise":4158,"hauteur":4159,"Philippe":4160,"célèbre":4161,"Moh":4162,"cant":4163,"fête":4164,"garder":4165,"##vel":4166,"##lor":4167,"##h30":4168,"##çu":4169,"##itée":4170,"prises":4171,"parquet":4172,"##èrement":4173,"##igh":4174,"##lées":4175,"mén":4176,"Che":4177,"évac":4178,"coût":4179,"revenus":4180,"##isseurs":4181,"vacances":4182,"retrouvé":4183,"Inter":4184,"aventure":4185,"protéger":4186,"Né":4187,"Pet":4188,"Vol":4189,"##ôme":4190,"desc":4191,"incident":4192,"entière":4193,"atti":4194,"offensi":4195,"situé":4196,"présenter":4197,"réaliser":4198,"anti":4199,"ministres":4200,"Déf":4201,"industrie":4202,"blo":4203,"##vres":4204,"Laurent":4205,"entour":4206,"arch":4207,"preuve":4208,"commence":4209,"experts":4210,"clairement":4211,"ferme":4212,"aéroport":4213,"Tunis":4214,"ara":4215,"##ya":4216,"##èles":4217,"déli":4218,"##alen":4219,"grève":4220,"utilisation":4221,"fonctionn":4222,"scolaire":4223,"stratégie":4224,"soldats":4225,"36":4226,"400":4227,"Air":4228,"satis":4229,"émo":4230,"##chir":4231,"##olé":4232,"trou":4233,"locale":4234,"bande":4235,"reconnu":4236,"Olivier":4237,"Pat":4238,"Sim":4239,"US":4240,"ram":4241,"tenue":4242,"##sky":4243,"##amp":4244,"##esti":4245,"##erait":4246,"intervention":4247,"retrait":4248,"mach":4249,"envis":4250,"élevé":4251,"puisqu":4252,"##onomie":4253,"menace":4254,"artistes":4255,"professionnels":4256,"crimin":4257,"condamné":4258,"circulation":4259,"erre":4260,"Mad":4261,"fou":4262,"lien":4263,"mine":4264,"##pond":4265,"##ano":4266,"##quie":4267,"##ett":4268,"##tage":4269,"acteur":4270,"##ots":4271,"cad":4272,"permettra":4273,"communes":4274,"attaques":4275,"frontière":4276,"Amaz":4277,"lumière":4278,"Alexand":4279,"inquié":4280,"totalement":4281,"championnat":4282,"Affaires":4283,"bo":4284,"gendar":4285,"vise":4286,"##itut":4287,"chante":4288,"##range":4289,"franco":4290,"ambassade":4291,"animaux":4292,"arrêter":4293,"journalistes":4294,"soutenir":4295,"Espagne":4296,"Pé":4297,"bonnes":4298,"vague":4299,"##uves":4300,"##DC":4301,"##roph":4302,"acquis":4303,"##éros":4304,"##érité":4305,"permettant":4306,"connaître":4307,"prévue":4308,"prévoit":4309,"faveur":4310,"crois":4311,"économiques":4312,"urb":4313,"spor":4314,"commerce":4315,"terminé":4316,"climat":4317,"règles":4318,"Chaque":4319,"ajouter":4320,"Genève":4321,"tarif":4322,"pétrole":4323,"Dis":4324,"idé":4325,"éd":4326,"élu":4327,"##pt":4328,"##itch":4329,"##itue":4330,"##ensions":4331,"peux":4332,"dépos":4333,"envers":4334,"puisse":4335,"opportun":4336,"origin":4337,"maximum":4338,"recommand":4339,"CN":4340,"Den":4341,"Mc":4342,"Port":4343,"Ra":4344,"##téra":4345,"incl":4346,"##acé":4347,"exclus":4348,"mots":4349,"##rick":4350,"Martin":4351,"coord":4352,"demander":4353,"##ockey":4354,"banque":4355,"violences":4356,"bâtiment":4357,"immédiate":4358,"esprit":4359,"Gar":4360,"Peu":4361,"Sw":4362,"Sar":4363,"cru":4364,"haute":4365,"veux":4366,"##iel":4367,"##ED":4368,"##onnement":4369,"##chée":4370,"##ung":4371,"accueil":4372,"Abd":4373,"Université":4374,"34":4375,"Biden":4376,"fus":4377,"tendance":4378,"venu":4379,"##ye":4380,"##ann":4381,"prim":4382,"avion":4383,"##old":4384,"exig":4385,"##ades":4386,"Marine":4387,"génération":4388,"effets":4389,"susc":4390,"tax":4391,"améliorer":4392,"technologie":4393,"établissement":4394,"ONU":4395,"propriétaire":4396,"prolong":4397,"Camer":4398,"We":4399,"cuis":4400,"nor":4401,"smart":4402,"##onge":4403,"dési":4404,"rejet":4405,"##lém":4406,"meilleurs":4407,"agricul":4408,"défi":4409,"frais":4410,"actuel":4411,"vouloir":4412,"##landais":4413,"chiffre":4414,"supplémentaires":4415,"Améric":4416,"allemand":4417,"leader":4418,"rythme":4419,"honneur":4420,"Her":4421,"Per":4422,"Vic":4423,"boule":4424,"##sé":4425,"##uelles":4426,"dédi":4427,"surp":4428,"##agé":4429,"##néra":4430,"termes":4431,"##phones":4432,"vice":4433,"Ukrain":4434,"capable":4435,"dispose":4436,"ukrainiens":4437,"futur":4438,"performance":4439,"dizaines":4440,"faible":4441,"langue":4442,"retraite":4443,"endroit":4444,"Apple":4445,"financement":4446,"énergétique":4447,"Cas":4448,"Cro":4449,"Lond":4450,"ami":4451,"cité":4452,"##ba":4453,"##rand":4454,"##nier":4455,"##outes":4456,"##onnés":4457,"mécan":4458,"adoles":4459,"personnages":4460,"affec":4461,"sépar":4462,"consac":4463,"chefs":4464,"voitures":4465,"sources":4466,"lancement":4467,"FC":4468,"Iran":4469,"Wash":4470,"dynam":4471,"##rist":4472,"##oni":4473,"##tic":4474,"remis":4475,"##ama":4476,"##oile":4477,"intention":4478,"dimin":4479,"algéri":4480,"ath":4481,"##ientôt":4482,"touché":4483,"Anne":4484,"coron":4485,"corres":4486,"grave":4487,"responsabilité":4488,"Guinée":4489,"investissement":4490,"facile":4491,"##book":4492,"##VID":4493,"Seu":4494,"Uni":4495,"vais":4496,"île":4497,"##acté":4498,"##abeth":4499,"##endue":4500,"acces":4501,"entrer":4502,"déplo":4503,"##olet":4504,"##ronique":4505,"symp":4506,"corre":4507,"Max":4508,"blessé":4509,"ouvrir":4510,"Défense":4511,"mic":4512,"massi":4513,"sites":4514,"test":4515,"##ements":4516,"##ks":4517,"##TA":4518,"##inet":4519,"##quées":4520,"##aga":4521,"moder":4522,"siège":4523,"passion":4524,"populations":4525,"voulu":4526,"téléphone":4527,"anglais":4528,"réfugiés":4529,"Washington":4530,"33":4531,"Ag":4532,"Dj":4533,"Tou":4534,"vert":4535,"##ty":4536,"##50":4537,"##ener":4538,"ench":4539,"##alition":4540,"##eaux":4541,"seraient":4542,"présents":4543,"2024":4544,"interpr":4545,"adjoint":4546,"conser":4547,"secours":4548,"organisé":4549,"##formes":4550,"poursuivre":4551,"tirs":4552,"approvision":4553,"démocratie":4554,"COVID":4555,"correspond":4556,"Oues":4557,"file":4558,"pouss":4559,"##gies":4560,"##uation":4561,"##irus":4562,"réforme":4563,"##érés":4564,"Mali":4565,"##oriz":4566,"barre":4567,"épisode":4568,"Amazon":4569,"37":4570,"CA":4571,"Jeux":4572,"Met":4573,"ache":4574,"bras":4575,"ly":4576,"solutions":4577,"âgé":4578,"##gées":4579,"##yst":4580,"chap":4581,"2000":4582,"restent":4583,"class":4584,"recru":4585,"filles":4586,"##ologiques":4587,"utilisé":4588,"développer":4589,"dizaine":4590,"extérieur":4591,"Az":4592,"Del":4593,"dérou":4594,"##neurs":4595,"##ousse":4596,"##ates":4597,"##uler":4598,"maroc":4599,"accro":4600,"résist":4601,"##allon":4602,"Parlement":4603,"##ventions":4604,"million":4605,"Russes":4606,"suisse":4607,"officielle":4608,"balle":4609,"patients":4610,"témoign":4611,"régulièrement":4612,"Ouest":4613,"Nations":4614,"Pal":4615,"Puis":4616,"##sa":4617,"##uels":4618,"##ham":4619,"##êche":4620,"##onst":4621,"québ":4622,"##lix":4623,"##ffe":4624,"perte":4625,"Maison":4626,"connaît":4627,"milliard":4628,"chercher":4629,"Red":4630,"civils":4631,"géant":4632,"établissements":4633,"Nicol":4634,"Ivoire":4635,"Austra":4636,"Dire":4637,"Fer":4638,"banc":4639,"##ael":4640,"##ith":4641,"##iew":4642,"##ney":4643,"##olf":4644,"sond":4645,"##iennes":4646,"évolution":4647,"poids":4648,"attente":4649,"revenu":4650,"voulait":4651,"manifest":4652,"laissé":4653,"embar":4654,"photos":4655,"difficultés":4656,"Ses":4657,"Trans":4658,"##ste":4659,"##euse":4660,"illég":4661,"choc":4662,"entendu":4663,"reprise":4664,"croire":4665,"échang":4666,"condition":4667,"augmenté":4668,"acheter":4669,"réduction":4670,"partage":4671,"conseiller":4672,"figure":4673,"avocat":4674,"circuit":4675,"Bour":4676,"bre":4677,"viennent":4678,"##éren":4679,"##fique":4680,"##ity":4681,"##vez":4682,"##érieux":4683,"interd":4684,"vision":4685,"relève":4686,"créé":4687,"petites":4688,"souvenir":4689,"référence":4690,"immobil":4691,"absolu":4692,"disponibles":4693,"répondu":4694,"juridi":4695,"Italie":4696,"Ly":4697,"Pa":4698,"bientôt":4699,"hyp":4700,"piste":4701,"##cations":4702,"##ura":4703,"##urants":4704,"##diction":4705,"réac":4706,"cata":4707,"devons":4708,"hommage":4709,"gardien":4710,"Intern":4711,"suffis":4712,"observ":4713,"dispositif":4714,"renforcer":4715,"Royaume":4716,"matériel":4717,"défaite":4718,"préoccup":4719,"(.":4720,"##rite":4721,"##iz":4722,"##line":4723,"##itant":4724,"##tig":4725,"##meub":4726,"##anda":4727,"fini":4728,"reprendre":4729,"engage":4730,"allons":4731,"européens":4732,"civile":4733,"préparer":4734,"accélé":4735,"Dom":4736,"ate":4737,"jau":4738,"lic":4739,"pont":4740,"soup":4741,"tellement":4742,"##hi":4743,"##tim":4744,"printe":4745,"##ardin":4746,"##avirus":4747,"déclaration":4748,"importants":4749,"électrique":4750,"américains":4751,"opéra":4752,"principale":4753,"rappelé":4754,"secondes":4755,"##igueur":4756,"enregistré":4757,"poursuivi":4758,"printemps":4759,"Kar":4760,"Qatar":4761,"har":4762,"éducation":4763,"##jour":4764,"##tian":4765,"enne":4766,"##ieuse":4767,"##lien":4768,"inde":4769,"chasse":4770,"maisons":4771,"rav":4772,"minute":4773,"##ports":4774,"tenté":4775,"tenter":4776,"flam":4777,"changements":4778,"analyse":4779,"##novation":4780,"Joe":4781,"salariés":4782,"heureux":4783,"audience":4784,"sensibil":4785,"Zelen":4786,"99":4787,"Ev":4788,"##nelles":4789,"##uments":4790,"##flix":4791,"##istiques":4792,"##alle":4793,"troupes":4794,"apporter":4795,"##ott":4796,"passant":4797,"recours":4798,"publiques":4799,"immeub":4800,"visant":4801,"jeunesse":4802,"humains":4803,"livrais":4804,"vaccination":4805,"Facebook":4806,"virus":4807,"quitté":4808,"Burkin":4809,"Netflix":4810,"exercice":4811,"manifestants":4812,"Jér":4813,"Rich":4814,"##naire":4815,"##amé":4816,"appris":4817,"##paravant":4818,"certaine":4819,"prochains":4820,"échec":4821,"principe":4822,"nécessaires":4823,"signif":4824,"usine":4825,"émission":4826,"pièces":4827,"gamme":4828,"classique":4829,"Oc":4830,"bons":4831,"lende":4832,"##da":4833,"##bor":4834,"détention":4835,"places":4836,"##cipé":4837,"proxim":4838,"chans":4839,"introdu":4840,"trafic":4841,"##érée":4842,"participé":4843,"perdre":4844,"interro":4845,"séries":4846,"##apt":4847,"ciel":4848,"proposé":4849,"techniques":4850,"refusé":4851,"valeurs":4852,"fortement":4853,"placé":4854,"écriv":4855,"promotion":4856,"Vincent":4857,"rejoindre":4858,"phénomène":4859,"lendemain":4860,"Non":4861,"Sta":4862,"fle":4863,"héros":4864,"hockey":4865,"lois":4866,"roy":4867,"souver":4868,"score":4869,"##ctu":4870,"##gra":4871,"##stroph":4872,"chambre":4873,"##amin":4874,"oui":4875,"traitement":4876,"##duc":4877,"méth":4878,"adul":4879,"cartes":4880,"attent":4881,"##résil":4882,"échange":4883,"échapp":4884,"##ressé":4885,"principalement":4886,"construire":4887,"identité":4888,"extrêmement":4889,"collaboration":4890,"changé":4891,"Zelensky":4892,"proximité":4893,"Fédération":4894,"Ham":4895,"Luxemb":4896,"RT":4897,"four":4898,"nul":4899,"tué":4900,"##titude":4901,"##umé":4902,"##bert":4903,"##mont":4904,"##rages":4905,"prot":4906,"##resser":4907,"##ocation":4908,"alb":4909,"proposer":4910,"proposition":4911,"anciens":4912,"nécessité":4913,"étranger":4914,"manifestation":4915,"statut":4916,"chinois":4917,"Londres":4918,"Nicolas":4919,"Sé":4920,"San":4921,"bour":4922,"pire":4923,"rues":4924,"##taine":4925,"##dia":4926,"##atoires":4927,"remer":4928,"##nements":4929,"expert":4930,"centres":4931,"relation":4932,"immig":4933,"objectifs":4934,"financière":4935,"visiteurs":4936,"conclu":4937,"riches":4938,"Champ":4939,"logement":4940,"directrice":4941,"##âteau":4942,"couleurs":4943,"entrepre":4944,"forcément":4945,"gagn":4946,"##pin":4947,"##quence":4948,"excl":4949,"##geois":4950,"prévenu":4951,"invité":4952,"music":4953,"professeur":4954,"représentants":4955,"brux":4956,"critiques":4957,"sentiment":4958,"Donc":4959,"hospit":4960,".”":4961,"Fab":4962,"Sec":4963,"Tch":4964,"Wall":4965,"fisc":4966,"##off":4967,"##ood":4968,"##ON":4969,"##orer":4970,"déch":4971,"cong":4972,"chute":4973,"appui":4974,"complé":4975,"exposition":4976,"##ruption":4977,"expliquer":4978,"moments":4979,"combats":4980,"exemp":4981,"privil":4982,"micro":4983,"bruxell":4984,"Dou":4985,"Rég":4986,"gagné":4987,"lire":4988,"lignes":4989,"tâ":4990,"##EA":4991,"##wa":4992,"##any":4993,"##ene":4994,"##ellig":4995,"##ecture":4996,"##cien":4997,"réjou":4998,"exac":4999,"content":5000,"touche":5001,"Mari":5002,"##tivité":5003,"##curité":5004,"repro":5005,"continent":5006,"attaquant":5007,"##licité":5008,"accompagn":5009,"Robert":5010,"coronavirus":5011,"Bu":5012,"fre":5013,"lancée":5014,"pêche":5015,"##cons":5016,"##gues":5017,"##arent":5018,"##ivement":5019,"perman":5020,"attendu":5021,"Const":5022,"récomp":5023,"penser":5024,"critique":5025,"trimestre":5026,"collectif":5027,"effectué":5028,"performances":5029,"Associ":5030,"installer":5031,"solidarité":5032,"Geor":5033,"épreuve":5034,"procureur":5035,"catastroph":5036,"Cong":5037,"Fré":5038,"Serv":5039,"bus":5040,"orient":5041,"##chon":5042,"remettre":5043,"Leg":5044,"##ulation":5045,"contenu":5046,"décisions":5047,"marchés":5048,"altern":5049,"rach":5050,"expos":5051,"##quième":5052,"républi":5053,"permettent":5054,"organisations":5055,"réalisateur":5056,"sanitaires":5057,"meilleures":5058,"bloc":5059,"sauv":5060,"##fication":5061,"intérêts":5062,"Claude":5063,"recevoir":5064,"rentrée":5065,"étrangers":5066,"littéra":5067,"cycl":5068,"coopération":5069,"Bern":5070,"Fre":5071,"ap":5072,"fier":5073,"page":5074,"##lait":5075,"##èque":5076,"unité":5077,"##tements":5078,"répar":5079,"déclen":5080,"Env":5081,"devront":5082,"##cture":5083,"rense":5084,"##alisme":5085,"défendre":5086,"institu":5087,"salaires":5088,"locales":5089,"maintenir":5090,"officiel":5091,"exploitation":5092,"catégorie":5093,"Toutefois":5094,"55":5095,"Comp":5096,"Ob":5097,"sh":5098,"tur":5099,"vieux":5100,"##cht":5101,"##outer":5102,"##atie":5103,"faite":5104,"dialogue":5105,"##adou":5106,"agression":5107,"chauss":5108,"servir":5109,"internet":5110,"tomber":5111,"caméra":5112,"coûts":5113,"oublier":5114,"demeure":5115,"surface":5116,"Ukrainiens":5117,"athlè":5118,"album":5119,"Om":5120,"Qui":5121,"War":5122,"lâ":5123,"##utée":5124,"prêts":5125,"##ieur":5126,"##ola":5127,"réaction":5128,"##gements":5129,"entret":5130,"terres":5131,"recul":5132,"rappro":5133,"Autre":5134,"##ologne":5135,"amén":5136,"cinquième":5137,"habitude":5138,"fermet":5139,"##rieure":5140,"local":5141,"Comment":5142,"Celui":5143,"seuls":5144,"limite":5145,"thème":5146,"alimentaire":5147,"définit":5148,"militants":5149,"Hu":5150,"Japon":5151,"faux":5152,"Éric":5153,"##rè":5154,"##gi":5155,"##yle":5156,"##RC":5157,"##oum":5158,"etc":5159,"##olo":5160,"présidence":5161,"retard":5162,"##pha":5163,"##oulée":5164,"visible":5165,"constaté":5166,"connue":5167,"incroy":5168,"salles":5169,"vols":5170,"rencontres":5171,"titres":5172,"##trice":5173,"associations":5174,"frère":5175,"facilement":5176,"##veillance":5177,"connec":5178,"discussions":5179,"chaleur":5180,"Cameroun":5181,"Cam":5182,"Dra":5183,"Eric":5184,"cop":5185,"mises":5186,"œil":5187,"##heur":5188,"##rales":5189,"pourrez":5190,"##diens":5191,"concep":5192,"##deau":5193,"##endo":5194,"restri":5195,"sole":5196,"Christ":5197,"avantage":5198,"quelqu":5199,"visage":5200,"certainement":5201,"tourner":5202,"institution":5203,"##intes":5204,"major":5205,"confirme":5206,"livres":5207,"précéd":5208,"pénurie":5209,"fallait":5210,"lettre":5211,"absolument":5212,"Luxembourg":5213,"38":5214,"Festival":5215,"Nor":5216,"Op":5217,"bata":5218,"couv":5219,"lourd":5220,"rob":5221,"tiers":5222,"##ny":5223,"##vées":5224,"##oux":5225,"##rable":5226,"##stances":5227,"##dienne":5228,"##rance":5229,"acte":5230,"##igu":5231,"intellig":5232,"alerte":5233,"commis":5234,"mété":5235,"affich":5236,"pose":5237,"coin":5238,"2013":5239,"mené":5240,"concert":5241,"participants":5242,"respecter":5243,"choisir":5244,"ordin":5245,"supplémentaire":5246,"maît":5247,"Otan":5248,"procédure":5249,"législatives":5250,"renouvel":5251,"soleil":5252,"Mat":5253,"Oui":5254,"cat":5255,"fol":5256,"rares":5257,"##tons":5258,"##ih":5259,"##20":5260,"##astique":5261,"inclus":5262,"##mément":5263,"##oto":5264,"commiss":5265,"##mane":5266,"##ruits":5267,"chev":5268,"franch":5269,"profond":5270,"équip":5271,"prennent":5272,"planète":5273,"support":5274,"automne":5275,"usage":5276,"modèles":5277,"financier":5278,"consommateurs":5279,"##ographie":5280,"logique":5281,"Trump":5282,"simil":5283,"Bru":5284,"Dr":5285,"Ha":5286,"Hen":5287,"Mag":5288,"Pays":5289,"ax":5290,"bu":5291,"fant":5292,"rass":5293,"venus":5294,"##ray":5295,"ang":5296,"neige":5297,"##ulaire":5298,"débar":5299,"attendant":5300,"durable":5301,"mener":5302,"différence":5303,"circon":5304,"université":5305,"hyd":5306,"##oft":5307,"olympique":5308,"Patrick":5309,"Dar":5310,"Dani":5311,"Kre":5312,"Mb":5313,"Math":5314,"Sté":5315,"lour":5316,"##mation":5317,"##mine":5318,"##êter":5319,"##quait":5320,"##sile":5321,"prét":5322,"apprendre":5323,"métro":5324,"séjour":5325,"secteurs":5326,"Alain":5327,"chargé":5328,"échelle":5329,"rencontrer":5330,"semblent":5331,"principaux":5332,"déplacement":5333,"transports":5334,"##ennis":5335,"pièce":5336,"vingt":5337,"inspir":5338,"indépendance":5339,"appréci":5340,"mémoire":5341,"Banque":5342,"Jeu":5343,"Ro":5344,"bran":5345,"€.":5346,"##cal":5347,"##gon":5348,"##antaine":5349,"##aliste":5350,"##nex":5351,"##aisser":5352,"reine":5353,"annivers":5354,"perspec":5355,"tex":5356,"offert":5357,"espagn":5358,"option":5359,"tentative":5360,"subi":5361,"représentant":5362,"bénév":5363,"détails":5364,"tests":5365,"examen":5366,"studio":5367,"scénario":5368,"immédiatement":5369,"Occident":5370,"Bo":5371,"Gh":5372,"Riv":5373,"morte":5374,"roi":5375,"vend":5376,"##imes":5377,"##vité":5378,"##omme":5379,"auteurs":5380,"rejoint":5381,"##und":5382,"faites":5383,"interdit":5384,"diffus":5385,"repris":5386,"située":5387,"espè":5388,"cible":5389,"niveaux":5390,"Star":5391,"flamb":5392,"crimes":5393,"multiples":5394,"44":5395,"48":5396,"Ni":5397,"domm":5398,"hés":5399,"pen":5400,"ray":5401,"top":5402,"var":5403,"vigueur":5404,"##hés":5405,"##king":5406,"##eci":5407,"##dium":5408,"coalition":5409,"véri":5410,"régional":5411,"liés":5412,"doub":5413,"blessures":5414,"accompagner":5415,"rappeler":5416,"taille":5417,"partenariat":5418,"conseill":5419,"vingtaine":5420,"comportement":5421,"infrastructures":5422,"approvisionnement":5423,"Association":5424,"Dam":5425,"Rés":5426,"Sav":5427,"gal":5428,"ital":5429,"ro":5430,"rat":5431,"tre":5432,"épar":5433,"’’":5434,"##ément":5435,"##don":5436,"##ld":5437,"##MS":5438,"##bé":5439,"##mour":5440,"##PS":5441,"##enance":5442,"##rad":5443,"auparavant":5444,"plans":5445,"pertur":5446,"##cule":5447,"confie":5448,"passée":5449,"code":5450,"profonde":5451,"star":5452,"rencontré":5453,"réflex":5454,"Thom":5455,"##moine":5456,"frontières":5457,"idées":5458,"##berg":5459,"tempor":5460,"rêve":5461,"médecin":5462,"Institut":5463,"appareil":5464,"quasi":5465,"cabinet":5466,"canton":5467,"Stéph":5468,"anniversaire":5469,"Jon":5470,"clé":5471,"##die":5472,"##mn":5473,"##ker":5474,"##rop":5475,"entier":5476,"contes":5477,"rare":5478,"attra":5479,"colère":5480,"montré":5481,"démission":5482,"##akar":5483,"amende":5484,"graves":5485,"liées":5486,"vidéos":5487,"professionnel":5488,"interview":5489,"documents":5490,"impossible":5491,"virtu":5492,"ONG":5493,"##illiam":5494,"influence":5495,"offensive":5496,"Burkina":5497,"institutions":5498,"Ble":5499,"Der":5500,"telles":5501,"##iant":5502,"##duis":5503,"##bourg":5504,"##riel":5505,"##aises":5506,"actes":5507,"##obile":5508,"frappe":5509,"promis":5510,"emplois":5511,"investissements":5512,"criti":5513,"enseignement":5514,"Jusqu":5515,"individu":5516,"ultra":5517,"Gabon":5518,"potentiel":5519,"entièrement":5520,"Environ":5521,"49":5522,"Bal":5523,"Lo":5524,"LR":5525,"Off":5526,"Zem":5527,"mér":5528,"tensions":5529,"émer":5530,"##PA":5531,"##iez":5532,"##tab":5533,"##aug":5534,"chances":5535,"Leur":5536,"radio":5537,"évol":5538,"agissait":5539,"abat":5540,"socié":5541,"précis":5542,"aspec":5543,"Québécois":5544,"portant":5545,"##ortations":5546,"fédérale":5547,"saisons":5548,"obligation":5549,"portée":5550,"électorale":5551,"fréquent":5552,"réagi":5553,"fabric":5554,"souverain":5555,"43":5556,"Bay":5557,"Gal":5558,"Nint":5559,"Pologne":5560,"Ry":5561,"Stra":5562,"aper":5563,"belles":5564,"tels":5565,"vaut":5566,"venue":5567,"##cis":5568,"##toires":5569,"##lande":5570,"##wick":5571,"deg":5572,"##ouer":5573,"##med":5574,"##olit":5575,"inj":5576,"requ":5577,"artif":5578,"##iteur":5579,"décédé":5580,"##issage":5581,"##ogle":5582,"constitution":5583,"importantes":5584,"scru":5585,"circons":5586,"##itime":5587,"systèmes":5588,"accusations":5589,"facil":5590,"coûte":5591,"objets":5592,"Google":5593,"mauvaise":5594,"drame":5595,"totale":5596,"exécutif":5597,"adversaire":5598,"signifie":5599,"65":5600,"Agence":5601,"Ram":5602,"Soci":5603,"William":5604,"gard":5605,"por":5606,"ralent":5607,"ventes":5608,"##rise":5609,"##éh":5610,"##).":5611,"demain":5612,"conjoint":5613,"##cession":5614,"résidence":5615,"2010":5616,"##ignent":5617,"##ova":5618,"voil":5619,"repos":5620,"sauver":5621,"peint":5622,"##amed":5623,"sujets":5624,"provinci":5625,"Valérie":5626,"drap":5627,"théâtre":5628,"difficulté":5629,"chantier":5630,"suspect":5631,"possède":5632,"restrictions":5633,"Zemmour":5634,"Nintendo":5635,"degrés":5636,"600":5637,"CE":5638,"Celle":5639,"Ky":5640,"Mes":5641,"Sah":5642,"Tor":5643,"mam":5644,"tente":5645,"##cés":5646,"##onique":5647,"##ensible":5648,"##ennies":5649,"##orme":5650,"##oration":5651,"##ster":5652,"##chand":5653,"##chées":5654,"plong":5655,"remb":5656,"League":5657,"moindre":5658,"décennies":5659,"métra":5660,"##alisée":5661,"##ibilité":5662,"pointe":5663,"organisme":5664,"150":5665,"assurance":5666,"##ativement":5667,"doig":5668,"tirer":5669,"sporti":5670,"Mondi":5671,"imposer":5672,"émissions":5673,"Justice":5674,"fournir":5675,"restaurant":5676,"priorité":5677,"partisans":5678,"Jacques":5679,"satisf":5680,"adolesc":5681,"échanges":5682,"AS":5683,"Eli":5684,"Gre":5685,"Lions":5686,"Mons":5687,"routes":5688,"##vis":5689,"##aro":5690,"comé":5691,"##ensé":5692,"caus":5693,"allé":5694,"adresse":5695,"propres":5696,"renv":5697,"euro":5698,"disposition":5699,"##contre":5700,"menée":5701,"promet":5702,"candidature":5703,"officiellement":5704,"réduit":5705,"Première":5706,"pratiques":5707,"partager":5708,"panne":5709,"logements":5710,"engagé":5711,"écrire":5712,"évoqué":5713,"erreur":5714,"Fas":5715,"Voi":5716,"pous":5717,"signe":5718,"saga":5719,"tend":5720,"##ca":5721,"##ias":5722,"##ax":5723,"##lés":5724,"##hors":5725,"##MI":5726,"##ôts":5727,"##oue":5728,"##ino":5729,"##cesseur":5730,"prép":5731,"##ogo":5732,"##runt":5733,"défis":5734,"envoyé":5735,"##ovic":5736,"emprunt":5737,"##ologies":5738,"organisée":5739,"stand":5740,"vécu":5741,"antici":5742,"animal":5743,"grosse":5744,"prati":5745,"camion":5746,"syndicats":5747,"Grâce":5748,"pilote":5749,"terroriste":5750,"épisodes":5751,"interpel":5752,"##cription":5753,"privilég":5754,"47":5755,"Aux":5756,"Bon":5757,"Pers":5758,"foule":5759,"sérieux":5760,"tac":5761,"tab":5762,"vivent":5763,"##itent":5764,"##inique":5765,"##orde":5766,"inond":5767,"inéd":5768,"##andes":5769,"intensi":5770,"devenue":5771,"finir":5772,"discip":5773,"coach":5774,"espaces":5775,"Sainte":5776,"entraînement":5777,"humain":5778,"capitaine":5779,"collection":5780,"signi":5781,"défenseur":5782,"distance":5783,"municipal":5784,"concours":5785,"révélé":5786,"médecins":5787,"efficacité":5788,"outils":5789,"vainque":5790,"Mohamed":5791,"Pékin":5792,"##orizon":5793,"circonstances":5794,"Thomas":5795,"Bé":5796,"Ceux":5797,"Os":5798,"Sau":5799,"Toul":5800,"bate":5801,"dose":5802,"lié":5803,"liens":5804,"twe":5805,"##po":5806,"##rité":5807,"##ven":5808,"##mlin":5809,"##zaine":5810,"dehors":5811,"##tière":5812,"dén":5813,"##rich":5814,"acqu":5815,"##ulé":5816,"évè":5817,"194":5818,"##ignant":5819,"néanmoins":5820,"recherches":5821,"limiter":5822,"batter":5823,"Lorsque":5824,"Play":5825,"manifestations":5826,"surpris":5827,"accéder":5828,"essentiel":5829,"Prix":5830,"généralement":5831,"enjeux":5832,"délégation":5833,"##hésion":5834,"62":5835,"AI":5836,"FI":5837,"calen":5838,"mens":5839,"tire":5840,"##no":5841,"##jan":5842,"##wan":5843,"##rimin":5844,"protes":5845,"##acités":5846,"tradu":5847,"appuy":5848,"décl":5849,"caf":5850,"assassin":5851,"##alisés":5852,"cancer":5853,"vélo":5854,"menaces":5855,"réflé":5856,"voulons":5857,"Maur":5858,"sourire":5859,"fortes":5860,"soutenu":5861,"dénoncé":5862,"Super":5863,"uniquement":5864,"parfaitement":5865,"réussite":5866,"palais":5867,"André":5868,"arbit":5869,"Terre":5870,"températures":5871,"médaille":5872,"bleu":5873,"##ight":5874,"Tunisie":5875,"dynamique":5876,"Kremlin":5877,"41":5878,"Ah":5879,"Dan":5880,"Là":5881,"gérer":5882,"iP":5883,"##sung":5884,"##vi":5885,"##mon":5886,"##arch":5887,"paris":5888,"##tream":5889,"##enser":5890,"silen":5891,"écart":5892,"interdiction":5893,"évolu":5894,"##renant":5895,"##umée":5896,"2012":5897,"constitue":5898,"essence":5899,"majeur":5900,"décide":5901,"établi":5902,"voisin":5903,"Samsung":5904,"bénéficier":5905,"israélienne":5906,"fuite":5907,"récupérer":5908,"immeuble":5909,"calend":5910,"Ec":5911,"ample":5912,"iran":5913,"nette":5914,"sénégal":5915,"ski":5916,"élo":5917,"##SC":5918,"##box":5919,"##ita":5920,"##time":5921,"lac":5922,"quelle":5923,"##ourir":5924,"##iler":5925,"avancé":5926,"apporté":5927,"décrit":5928,"raf":5929,"confié":5930,"recue":5931,"vide":5932,"pouvons":5933,"monter":5934,"capacités":5935,"utilise":5936,"salaire":5937,"présentation":5938,"publication":5939,"vété":5940,"vraie":5941,"maje":5942,"ambiance":5943,"clubs":5944,"ressort":5945,"dégâ":5946,"Outre":5947,"difficiles":5948,"prior":5949,"installation":5950,"concurrence":5951,"déterminer":5952,"Quelques":5953,"scientifique":5954,"Fondation":5955,"Canadien":5956,"##lématique":5957,"Australie":5958,"fermeture":5959,"Tu":5960,"Thé":5961,"box":5962,"pur":5963,"palestini":5964,"tal":5965,"tonnes":5966,"vul":5967,"«»":5968,"##to":5969,"##ls":5970,"##bon":5971,"##mie":5972,"##lique":5973,"inaug":5974,"##alem":5975,"##iger":5976,"##icron":5977,"modes":5978,"##mann":5979,"dépenses":5980,"obs":5981,"égard":5982,"sév":5983,"##ings":5984,"malheureusement":5985,"organiser":5986,"électriques":5987,"candidate":5988,"Macky":5989,"##olique":5990,"obligatoire":5991,"##ographique":5992,"naturel":5993,"structure":5994,"Capit":5995,"lesquels":5996,"excellent":5997,"$.":5998,"42":5999,"Bro":6000,"Gl":6001,"Pe":6002,"Sm":6003,"gare":6004,"japon":6005,"mair":6006,"rond":6007,"Éc":6008,"##AL":6009,"##fort":6010,"auto":6011,"décro":6012,"##ruction":6013,"agir":6014,"agré":6015,"posit":6016,"passagers":6017,"rapporte":6018,"sociales":6019,"matches":6020,"fame":6021,"scand":6022,"##akh":6023,"consécu":6024,"adopté":6025,"dangereux":6026,"Angel":6027,"indépend":6028,"Nouvelle":6029,"énorme":6030,"Simon":6031,"Faso":6032,"Dub":6033,"Mah":6034,"bé":6035,"coupe":6036,"volet":6037,"##trait":6038,"##bie":6039,"##bri":6040,"##anes":6041,"quête":6042,"##cha":6043,"##autes":6044,"récent":6045,"##niers":6046,"Lap":6047,"ouvre":6048,"##onnée":6049,"##illage":6050,"alco":6051,"travaillé":6052,"formations":6053,"fonctions":6054,"##pitaux":6055,"tiré":6056,"magist":6057,"Grande":6058,"préparation":6059,"ukrainiennes":6060,"accepté":6061,"équiv":6062,"supérieur":6063,"appareils":6064,"papier":6065,"800":6066,"Neu":6067,"PD":6068,"eaux":6069,"fid":6070,"han":6071,"noter":6072,"##tration":6073,"##lité":6074,"den":6075,"##tile":6076,"##tiens":6077,"##aco":6078,"appart":6079,"comptes":6080,"expression":6081,"interrog":6082,"Chambre":6083,"obli":6084,"Marse":6085,"infir":6086,"rapporté":6087,"électeurs":6088,"organisateurs":6089,"communaut":6090,"Conf":6091,"invite":6092,"##ressions":6093,"demandes":6094,"##lenchon":6095,"Afric":6096,"battre":6097,"battu":6098,"conseils":6099,"lutter":6100,"empêcher":6101,"conservateur":6102,"conscience":6103,"patrimoine":6104,"machine":6105,"Omicron":6106,"ampleur":6107,"46":6108,"Ara":6109,"Brésil":6110,"CG":6111,"Gaz":6112,"Mic":6113,"Sc":6114,"Sall":6115,"Tom":6116,"volu":6117,"##émique":6118,"##aments":6119,"##ailles":6120,"##odi":6121,"lecture":6122,"##ores":6123,"##tez":6124,"##deaux":6125,"##acts":6126,"Laus":6127,"arres":6128,"complet":6129,"décéd":6130,"expul":6131,"métier":6132,"égalité":6133,"2011":6134,"colon":6135,"Andre":6136,"néer":6137,"concernés":6138,"frag":6139,"opin":6140,"champions":6141,"1000":6142,"Intérieur":6143,"professionnelle":6144,"exprimé":6145,"vivant":6146,"bâtiments":6147,"canadien":6148,"existence":6149,"essayer":6150,"pouces":6151,"convaincre":6152,"grimp":6153,"Turquie":6154,"concept":6155,"dégâts":6156,"alcool":6157,"Cy":6158,"Mik":6159,"OT":6160,"Rh":6161,"à":6162,"diss":6163,"mur":6164,"##cie":6165,"##gyp":6166,"##èlement":6167,"##mat":6168,"##ji":6169,"##ws":6170,"##rat":6171,"##ricole":6172,"##osse":6173,"exige":6174,"##uide":6175,"##issiles":6176,"déposé":6177,"caract":6178,"séance":6179,"certif":6180,"profité":6181,"épouse":6182,"utilisateurs":6183,"télévision":6184,"investir":6185,"Organ":6186,"crime":6187,"conducteur":6188,"calcul":6189,"mobilisation":6190,"avocats":6191,"multipli":6192,"stratégique":6193,"explosion":6194,"lesquelles":6195,"sportif":6196,"Denis":6197,"agriculture":6198,"républic":6199,"précédente":6200,"calendrier":6201,"Jack":6202,"Res":6203,"bur":6204,"cre":6205,"vérité":6206,"##yl":6207,"##ômes":6208,"parlé":6209,"##oirs":6210,"##iction":6211,"##imité":6212,"produire":6213,"amateurs":6214,"régionale":6215,"développé":6216,"frau":6217,"##aissent":6218,"graph":6219,"regarder":6220,"banques":6221,"immense":6222,"humaine":6223,"brû":6224,"spectateurs":6225,"Corée":6226,"propriétaires":6227,"efficace":6228,"endroits":6229,"masque":6230,"carburant":6231,"enjeu":6232,"meurtre":6233,"Disney":6234,"smartphone":6235,"jaune":6236,"Frédé":6237,"51":6238,"Durant":6239,"Mil":6240,"Mam":6241,"Ret":6242,"SN":6243,"gre":6244,"naissance":6245,"##ét":6246,"##œurs":6247,"##çait":6248,"##chauff":6249,"##taient":6250,"##igné":6251,"##urez":6252,"mobilité":6253,"disent":6254,"manche":6255,"Parce":6256,"envol":6257,"constate":6258,"ciné":6259,"progressi":6260,"croit":6261,"réalisation":6262,"regret":6263,"sanction":6264,"suppri":6265,"quartiers":6266,"indis":6267,"tournée":6268,"conduit":6269,"Donald":6270,"fallu":6271,"Mélenchon":6272,"Johnson":6273,"découverte":6274,"rebond":6275,"libération":6276,"complexe":6277,"archit":6278,"enchaî":6279,"incroyable":6280,"Voici":6281,"64":6282,"CI":6283,"Cal":6284,"Gé":6285,"Ke":6286,"Voil":6287,"bag":6288,"ballon":6289,"hon":6290,"missiles":6291,"pes":6292,"pel":6293,"the":6294,"tennis":6295,"voter":6296,"##ao":6297,"##ution":6298,"##utation":6299,"##dis":6300,"##los":6301,"##him":6302,"##MT":6303,"##mission":6304,"unités":6305,"##ilé":6306,"##dier":6307,"réel":6308,"répé":6309,"supr":6310,"sert":6311,"radic":6312,"##ophe":6313,"noms":6314,"résolution":6315,"offres":6316,"montée":6317,"incont":6318,"inconn":6319,"reprend":6320,"fermer":6321,"musée":6322,"douce":6323,"hôpitaux":6324,"civil":6325,"distribution":6326,"##éroï":6327,"dénonce":6328,"médicaments":6329,"démarche":6330,"normale":6331,"révolution":6332,"canadienne":6333,"découvert":6334,"enseignants":6335,"trentaine":6336,"migrants":6337,"magasin":6338,"classes":6339,"adultes":6340,"Open":6341,"scrutin":6342,"communautés":6343,"59":6344,"Journ":6345,"James":6346,"Tim":6347,"bul":6348,"peau":6349,"##aill":6350,"##AR":6351,"##ja":6352,"##tienne":6353,"##rap":6354,"auquel":6355,"duel":6356,"##aies":6357,"##terre":6358,"écou":6359,"mél":6360,"abonnés":6361,"podium":6362,"Alpes":6363,"incendi":6364,"##merie":6365,"légèrement":6366,"fonctionnement":6367,"privée":6368,"conclut":6369,"alimentation":6370,"messages":6371,"adaptation":6372,"postes":6373,"bureaux":6374,"Liège":6375,"considéré":6376,"frappé":6377,"révèle":6378,"Christian":6379,"opportunité":6380,"Bernard":6381,"mairie":6382,"Lausanne":6383,"caractère":6384,"(+":6385,"39":6386,"Gi":6387,"May":6388,"SP":6389,"bourg":6390,"mass":6391,"tort":6392,"talent":6393,"voud":6394,"##swick":6395,"##gou":6396,"##uil":6397,"##vin":6398,"##dy":6399,"##mise":6400,"dent":6401,"##ark":6402,"##agnes":6403,"projec":6404,"ingé":6405,"##nière":6406,"suici":6407,"motiv":6408,"marge":6409,"biens":6410,"soutient":6411,"évident":6412,"évoque":6413,"##umer":6414,"##éber":6415,"phar":6416,"croy":6417,"référen":6418,"convers":6419,"blessure":6420,"accusés":6421,"Black":6422,"automobil":6423,"sortant":6424,"riche":6425,"%).":6426,"bombarde":6427,"Nouveau":6428,"scientifiques":6429,"National":6430,"bataille":6431,"sociétés":6432,"voilà":6433,"handic":6434,"3e":6435,"54":6436,"52":6437,"Hy":6438,"Lac":6439,"Nos":6440,"Séb":6441,"ba":6442,"dure":6443,"emm":6444,"gén":6445,"pau":6446,"élément":6447,"##romp":6448,"##iend":6449,"##hab":6450,"##ban":6451,"##four":6452,"##tible":6453,"##ompe":6454,"##alise":6455,"actrice":6456,"agricole":6457,"195":6458,"##ématique":6459,"forêt":6460,"producteurs":6461,"déclarations":6462,"cryp":6463,"retourner":6464,"##athan":6465,"souhaité":6466,"prendra":6467,"automobile":6468,"Charler":6469,"partenaire":6470,"pieds":6471,"suffit":6472,"élève":6473,"logici":6474,"calme":6475,"amélioration":6476,"affronter":6477,"syndicat":6478,"conséquence":6479,"délai":6480,"arbres":6481,"collègues":6482,"provoqué":6483,"ménages":6484,"désig":6485,"québécois":6486,"sondage":6487,"métrage":6488,"Marseille":6489,"City":6490,"Dieu":6491,"Hol":6492,"Lec":6493,"Pré":6494,"Var":6495,"bru":6496,"boul":6497,"goût":6498,"jardin":6499,"tuer":6500,"##ning":6501,"##rette":6502,"##ouf":6503,"##lem":6504,"##ené":6505,"##asp":6506,"surveillance":6507,"incer":6508,"réé":6509,"actifs":6510,"contribu":6511,"appels":6512,"apprend":6513,"composé":6514,"nommé":6515,"justement":6516,"clôt":6517,"poser":6518,"poign":6519,"jugé":6520,"débuté":6521,"style":6522,"communau":6523,"bonheur":6524,"Comité":6525,"pause":6526,"paiement":6527,"internationales":6528,"250":6529,"sauf":6530,"quarantaine":6531,"Monaco":6532,"puissent":6533,"expériment":6534,"investisseurs":6535,"financiers":6536,"recettes":6537,"Acad":6538,"témoigne":6539,"voisins":6540,"lourde":6541,"Charleroi":6542,"57":6543,"CH":6544,"Déb":6545,"Lab":6546,"Tes":6547,"Tre":6548,"cu":6549,"##vait":6550,"##AM":6551,"##ju":6552,"##ish":6553,"##oub":6554,"uns":6555,"##ories":6556,"##usalem":6557,"desti":6558,"déte":6559,"insu":6560,"##erson":6561,"rétab":6562,"armées":6563,"cesse":6564,"église":6565,"caracté":6566,"réglement":6567,"envoy":6568,"pollu":6569,"péd":6570,"trouvent":6571,"planif":6572,"artis":6573,"spéciale":6574,"brut":6575,"tués":6576,"magnif":6577,"##lissement":6578,"policier":6579,"solide":6580,"effectuer":6581,"Amérique":6582,"variant":6583,"Syrie":6584,"continuent":6585,"Musk":6586,"Rouge":6587,"Bruno":6588,"Brunswick":6589,"nourrit":6590,"Voilà":6591,"2e":6592,"4e":6593,"Cons":6594,"Er":6595,"Ib":6596,"Sén":6597,"Wat":6598,"héber":6599,"ronde":6600,"élabor":6601,"##oo":6602,"##uée":6603,"##uellement":6604,"##rats":6605,"##tawa":6606,"##olais":6607,"##miques":6608,"agent":6609,"aggra":6610,"##quip":6611,"débats":6612,"défend":6613,"Aucun":6614,"enfance":6615,"stric":6616,"remporter":6617,"artistique":6618,"##ody":6619,"domin":6620,"récit":6621,"établir":6622,"originaire":6623,"intégrer":6624,"frères":6625,"disparition":6626,"diverses":6627,"oubli":6628,"destination":6629,"éclair":6630,"Angle":6631,"leaders":6632,"maître":6633,"Ottawa":6634,"rassemblement":6635,"minimum":6636,"Alexandre":6637,"Richard":6638,"vainqueur":6639,"déclare":6640,"CD":6641,"Da":6642,"Dakar":6643,"Pol":6644,"Ve":6645,"ast":6646,"coute":6647,"édi":6648,"##gram":6649,"##SD":6650,"##fié":6651,"##raire":6652,"aver":6653,"avorte":6654,"##nez":6655,"remet":6656,"décret":6657,"marques":6658,"marquer":6659,"##ondissement":6660,"Chez":6661,"admis":6662,"cheffe":6663,"##entement":6664,"Alli":6665,"centaine":6666,"tourisme":6667,"repouss":6668,"fermé":6669,"trouvait":6670,"allant":6671,"énergies":6672,"récente":6673,"Toutes":6674,"grosses":6675,"compétences":6676,"glace":6677,"patient":6678,"technologies":6679,"voyageurs":6680,"scolaires":6681,"parlementaire":6682,"compliqué":6683,"islamique":6684,"indemn":6685,"Jérusalem":6686,"maîtris":6687,"Mondial":6688,"pauvre":6689,"Dés":6690,"Guerre":6691,"Ici":6692,"Imp":6693,"Prin":6694,"Rien":6695,"Sous":6696,"Très":6697,"Vers":6698,"aurez":6699,"béb":6700,"baisser":6701,"dron":6702,"hérit":6703,"jui":6704,"myst":6705,"os":6706,"oeu":6707,"vête":6708,"vaud":6709,"##naires":6710,"##pel":6711,"##hone":6712,"##œu":6713,"##uri":6714,"labor":6715,"##quette":6716,"##omé":6717,"##roid":6718,"##érir":6719,"Ensuite":6720,"dépend":6721,"abst":6722,"montagne":6723,"instance":6724,"insisté":6725,"salon":6726,"françaises":6727,"courses":6728,"maintien":6729,"voulais":6730,"ambition":6731,"privés":6732,"déploy":6733,"sixième":6734,"reconnaissance":6735,"écriture":6736,"adapter":6737,"complète":6738,"considérable":6739,"ultime":6740,"humanitaire":6741,"Beaucoup":6742,"alliés":6743,"émotion":6744,"bruxellois":6745,"Région":6746,"maman":6747,"Angleterre":6748,"Ros":6749,"Wor":6750,"coul":6751,"rume":6752,"vesti":6753,"élar":6754,"##cins":6755,"##oine":6756,"##OS":6757,"##rass":6758,"dest":6759,"##ali":6760,"##ect":6761,"inverse":6762,"réuni":6763,"réchauff":6764,"##istan":6765,"##oyers":6766,"abus":6767,"effond":6768,"office":6769,"envoyer":6770,"pouvant":6771,"montrent":6772,"insiste":6773,"coupable":6774,"crédit":6775,"##ake":6776,"progrès":6777,"assi":6778,"invités":6779,"##culaire":6780,"fondament":6781,"occupe":6782,"dossiers":6783,"Actu":6784,"accepter":6785,"intéressant":6786,"individus":6787,"réserve":6788,"humanité":6789,"roman":6790,"résidents":6791,"vulnéra":6792,"suprême":6793,"67":6794,"Fe":6795,"Front":6796,"Ir":6797,"amp":6798,"vendu":6799,"##lanc":6800,"##bel":6801,"##za":6802,"##FI":6803,"##esses":6804,"##urg":6805,"##lecht":6806,"ence":6807,"##ome":6808,"prime":6809,"##astien":6810,"délic":6811,"plaf":6812,"chô":6813,"##veurs":6814,"sug":6815,"devaient":6816,"députée":6817,"maill":6818,"annoncer":6819,"connaissance":6820,"autorité":6821,"##derlecht":6822,"##lication":6823,"essai":6824,"regr":6825,"humour":6826,"territoires":6827,"pluie":6828,"qualifié":6829,"encad":6830,"procédé":6831,"possibles":6832,"Côté":6833,"Finances":6834,"ajoutant":6835,"chercheurs":6836,"installé":6837,"Madrid":6838,"boî":6839,"Lyon":6840,"##ihad":6841,"réflexion":6842,"iPhone":6843,"Frédéric":6844,"(…":6845,"53":6846,"Nad":6847,"Rog":6848,"Tar":6849,"Yves":6850,"cib":6851,"din":6852,"mix":6853,"sl":6854,"tiendra":6855,"vig":6856,"##uant":6857,"##ME":6858,"##kh":6859,"##ket":6860,"##ît":6861,"##),":6862,"##onf":6863,"##ary":6864,"##ink":6865,"levée":6866,"##alie":6867,"avancer":6868,"##osité":6869,"exh":6870,"##idémie":6871,"décor":6872,"écologique":6873,"adress":6874,"certes":6875,"vies":6876,"épidémie":6877,"pouvoirs":6878,"##aissé":6879,"actualité":6880,"domaines":6881,"téléph":6882,"liée":6883,"dessous":6884,"ressent":6885,"préfet":6886,"tombé":6887,"plateformes":6888,"alimentaires":6889,"dirigeant":6890,"quantité":6891,"quitte":6892,"interpell":6893,"mineurs":6894,"acquisition":6895,"filet":6896,"livraison":6897,"4K":6898,"AT":6899,"Gra":6900,"Géné":6901,"RN":6902,"Rock":6903,"Tr":6904,"bris":6905,"dic":6906,"not":6907,"tension":6908,"âgées":6909,"##iration":6910,"##gen":6911,"##uit":6912,"##SE":6913,"##çants":6914,"##LR":6915,"##15":6916,"##ini":6917,"encontre":6918,"##atures":6919,"##ellen":6920,"moteur":6921,"apprent":6922,"rest":6923,"resté":6924,"Mario":6925,"##iciens":6926,"défaut":6927,"##lisabeth":6928,"revers":6929,"inspec":6930,"utile":6931,"chargée":6932,"prince":6933,"internationaux":6934,"convient":6935,"stations":6936,"Thier":6937,"animation":6938,"Photo":6939,"terminer":6940,"tempête":6941,"ther":6942,"conduite":6943,"intéresse":6944,"règle":6945,"socialiste":6946,"propriété":6947,"cyber":6948,"tableau":6949,"renforce":6950,"précédentes":6951,"hospital":6952,"constater":6953,"épreuves":6954,"dévoilé":6955,"contribuer":6956,"ambassadeur":6957,"entrepreneur":6958,"Legault":6959,"renseignement":6960,"similaire":6961,"textes":6962,"circonscription":6963,"majeure":6964,"##gypte":6965,"56":6966,"Fl":6967,"Fort":6968,"Ger":6969,"Maint":6970,"Pok":6971,"Rec":6972,"Sports":6973,"Xbox":6974,"aient":6975,"brig":6976,"doule":6977,"geste":6978,"mac":6979,"monn":6980,"pistes":6981,"sœur":6982,"ven":6983,"vaste":6984,"##équip":6985,"##unt":6986,"##uné":6987,"##vard":6988,"##ling":6989,"##ôles":6990,"##isées":6991,"##itations":6992,"##oudre":6993,"enle":6994,"parking":6995,"##ection":6996,"##agram":6997,"##ouvé":6998,"auxqu":6999,"##oupol":7000,"déclin":7001,"session":7002,"pertes":7003,"implant":7004,"renon":7005,"##lera":7006,"manqué":7007,"revendi":7008,"gouverneur":7009,"nationales":7010,"communal":7011,"vaccins":7012,"##ilibre":7013,"donnée":7014,"discuter":7015,"urg":7016,"enquêteurs":7017,"œuvres":7018,"photograph":7019,"tombe":7020,"distribu":7021,"enregistre":7022,"Colomb":7023,"normal":7024,"terroristes":7025,"fixé":7026,"africains":7027,"Syl":7028,"diplomatique":7029,"inscrire":7030,"extraord":7031,"magasins":7032,"inquiétu":7033,"cuisine":7034,"immobilier":7035,"chanson":7036,"exactement":7037,"Marioupol":7038,"Constitution":7039,"Daniel":7040,"mérite":7041,"silence":7042,"Micros":7043,"indisp":7044,"Sébastien":7045,"chômage":7046,"!»":7047,"58":7048,"700":7049,"HD":7050,"Haute":7051,"Mou":7052,"Sou":7053,"Wi":7054,"masse":7055,"pages":7056,"pare":7057,"##ptions":7058,"##cy":7059,"##tt":7060,"##oiles":7061,"##jon":7062,"##onc":7063,"##itz":7064,"##ust":7065,"avert":7066,"##rint":7067,"##acés":7068,"actif":7069,"##ureau":7070,"autonom":7071,"autonomie":7072,"dim":7073,"##issé":7074,"annuel":7075,"disting":7076,"coéquip":7077,"##umul":7078,"diffusé":7079,"mettant":7080,"matern":7081,"sorties":7082,"##énaire":7083,"2008":7084,"fonctionne":7085,"doses":7086,"média":7087,"automatique":7088,"plateau":7089,"bénéfice":7090,"restera":7091,"rentrer":7092,"##ataires":7093,"démocratique":7094,"PS5":7095,"##ophie":7096,"réussir":7097,"africaine":7098,"diplomatie":7099,"mascul":7100,"transformation":7101,"déroul":7102,"froid":7103,"émotions":7104,"Switch":7105,"suffisamment":7106,"protoc":7107,"déchets":7108,"Christophe":7109,"Stéphane":7110,"Société":7111,"signific":7112,"Microsoft":7113,"aid":7114,"cos":7115,"gagne":7116,"héroï":7117,"nar":7118,"toit":7119,"##aff":7120,"##hous":7121,"##IB":7122,"aud":7123,"##seurs":7124,"##agues":7125,"innovation":7126,"chat":7127,"chaud":7128,"repar":7129,"précip":7130,"compati":7131,"commande":7132,"financer":7133,"dépass":7134,"dépôt":7135,"propag":7136,"reconst":7137,"##émon":7138,"press":7139,"insul":7140,"Anderlecht":7141,"victoires":7142,"salué":7143,"stress":7144,"américaines":7145,"contraint":7146,"120":7147,"matinée":7148,"##ather":7149,"décider":7150,"programmes":7151,"Guy":7152,"Club":7153,"1990":7154,"Michael":7155,"restaurants":7156,"Libre":7157,"israélien":7158,"faibles":7159,"escal":7160,"fabri":7161,"évaluation":7162,"mariage":7163,"##vail":7164,"quasiment":7165,"##myr":7166,"couverture":7167,"instruction":7168,"tarifs":7169,"Toujours":7170,"immigration":7171,"PDG":7172,"Maintenant":7173,"72":7174,"85":7175,"AD":7176,"Far":7177,"LG":7178,"LN":7179,"Niger":7180,"Palestini":7181,"Sil":7182,"Wal":7183,"aides":7184,"bruit":7185,"dig":7186,"fen":7187,"go":7188,"ivoir":7189,"##arence":7190,"##den":7191,"##AC":7192,"##ES":7193,"unif":7194,"avenue":7195,"##rien":7196,"##rible":7197,"danse":7198,"##osph":7199,"réve":7200,"##onses":7201,"étapes":7202,"suit":7203,"préser":7204,"alar":7205,"finances":7206,"soud":7207,"personnalités":7208,"##avier":7209,"console":7210,"coeur":7211,"avantages":7212,"élevés":7213,"forfait":7214,"Aucune":7215,"courte":7216,"réponses":7217,"##isseur":7218,"corruption":7219,"équipements":7220,"progression":7221,"arrondissement":7222,"provis":7223,"contrats":7224,"##itimes":7225,"discrimin":7226,"blanche":7227,"Sony":7228,"entraîner":7229,"capital":7230,"##lys":7231,"##session":7232,"suivant":7233,"reconnaît":7234,"##etsk":7235,"facture":7236,"adopter":7237,"installations":7238,"engagés":7239,"commercial":7240,"##alax":7241,"Instagram":7242,"spécialiste":7243,"structures":7244,"aérienne":7245,"considère":7246,"Victor":7247,"souvenirs":7248,"athlètes":7249,"artifici":7250,"Eliz":7251,"café":7252,"arrestation":7253,"Hô":7254,"Haut":7255,"Hug":7256,"Kev":7257,"Mi":7258,"Rab":7259,"Sl":7260,"dram":7261,"missions":7262,"pic":7263,"up":7264,"éco":7265,"##sen":7266,"##ples":7267,"##gin":7268,"##lits":7269,"##mans":7270,"##mond":7271,"##TR":7272,"dette":7273,"##isations":7274,"##stes":7275,"##cid":7276,"##ciens":7277,"##sibles":7278,"##acée":7279,"##illets":7280,"##illa":7281,"décis":7282,"2025":7283,"impose":7284,"dépasse":7285,"abri":7286,"central":7287,"longues":7288,"formule":7289,"populaires":7290,"##énin":7291,"musul":7292,"investi":7293,"Malheureusement":7294,"isol":7295,"accueille":7296,"##play":7297,"sauve":7298,"détour":7299,"dessin":7300,"étudiant":7301,"détail":7302,"stratég":7303,"exprimer":7304,"restauration":7305,"Antoine":7306,"sacré":7307,"faudrait":7308,"spécialistes":7309,"couleur":7310,"relever":7311,"retirer":7312,"Néanmoins":7313,"attirer":7314,"arabe":7315,"gendarmerie":7316,"Américains":7317,"dédié":7318,"déplore":7319,"Maxime":7320,"ennemi":7321,"définitivement":7322,"profondeur":7323,"World":7324,"73":7325,"Cin":7326,"Mur":7327,"Péc":7328,"Ray":7329,"alig":7330,"fas":7331,"feux":7332,"mille":7333,"ten":7334,"##sis":7335,"##lon":7336,"##jug":7337,"##EC":7338,"##erb":7339,"##reux":7340,"##elé":7341,"##ilos":7342,"##nik":7343,"arg":7344,"##iteurs":7345,"preuves":7346,"resp":7347,"disait":7348,"obst":7349,"résume":7350,"confr":7351,"annoncée":7352,"étoiles":7353,"servi":7354,"gouvernements":7355,"préciser":7356,"autorisation":7357,"réalisée":7358,"Argent":7359,"accordé":7360,"subst":7361,"respectivement":7362,"attendent":7363,"Abid":7364,"##lyw":7365,"Guill":7366,"détenus":7367,"Blanche":7368,"livrer":7369,"préfecture":7370,"dégrad":7371,"condamn":7372,"Acc":7373,"guiné":7374,"applications":7375,"occupation":7376,"morce":7377,"identifier":7378,"Volody":7379,"accessible":7380,"atelier":7381,"Service":7382,"##rètement":7383,"métrop":7384,"bénévoles":7385,"magnifique":7386,"Elizabeth":7387,"Volodymyr":7388,"Jose":7389,"Vendre":7390,"joie":7391,"manger":7392,"pois":7393,"pav":7394,"sensible":7395,"tap":7396,"vég":7397,"venait":7398,"##AS":7399,"##fond":7400,"##urée":7401,"prête":7402,"##eld":7403,"##ilier":7404,"##irs":7405,"##dios":7406,"##agog":7407,"and":7408,"##uies":7409,"apporte":7410,"interventions":7411,"souci":7412,"##lerie":7413,"recr":7414,"attentes":7415,"élevée":7416,"All":7417,"centrales":7418,"voté":7419,"courage":7420,"drogue":7421,"relais":7422,"scènes":7423,"propositions":7424,"Inde":7425,"##iliation":7426,"douze":7427,"ambit":7428,"spati":7429,"Déj":7430,"accompagné":7431,"limites":7432,"##écoise":7433,"balles":7434,"Elon":7435,"biais":7436,"témoins":7437,"disparu":7438,"sélectionneur":7439,"Merci":7440,"terrorisme":7441,"supérieure":7442,"assister":7443,"déroule":7444,"transporté":7445,"travaillent":7446,"température":7447,"juridique":7448,"hypoth":7449,"Internet":7450,"écrivain":7451,"perspective":7452,"opinion":7453,"caractéris":7454,"Pécresse":7455,"Lundi":7456,"Reste":7457,"Stre":7458,"Sand":7459,"bron":7460,"billets":7461,"foulée":7462,"game":7463,"horizon":7464,"lot":7465,"myth":7466,"naz":7467,"roul":7468,"stream":7469,"van":7470,"éti":7471,"##ian":7472,"##onction":7473,"##anch":7474,"##timis":7475,"##ourgeois":7476,"duo":7477,"##riers":7478,"pluies":7479,"chron":7480,"chronique":7481,"enthous":7482,"##ica":7483,"prévention":7484,"apport":7485,"marquée":7486,"imposé":7487,"interne":7488,"distin":7489,"nomination":7490,"aimé":7491,"résid":7492,"sén":7493,"journées":7494,"##allée":7495,"cellu":7496,"revoir":7497,"présentée":7498,"##adio":7499,"appelés":7500,"engager":7501,"poursuite":7502,"Dimanche":7503,"souhaitent":7504,"##alifor":7505,"secondaire":7506,"saisi":7507,"intervenir":7508,"physiques":7509,"africain":7510,"imaginer":7511,"Gabriel":7512,"assistance":7513,"transformer":7514,"encourage":7515,"culturel":7516,"prononcé":7517,"envisage":7518,"primaire":7519,"correction":7520,"résistance":7521,"Internation":7522,"Tchad":7523,"ordinateur":7524,"Jeudi":7525,"perturb":7526,"évoluer":7527,"pousser":7528,"batterie":7529,"handicap":7530,"nourriture":7531,"couteau":7532,"avortement":7533,"vêtements":7534,"Actuellement":7535,"provisoire":7536,"Vendredi":7537,"Déjà":7538,"69":7539,"Flor":7540,"Long":7541,"One":7542,"Rapp":7543,"Ul":7544,"cens":7545,"fruits":7546,"jet":7547,"nations":7548,"pâ":7549,"vin":7550,"##nom":7551,"##sons":7552,"##tue":7553,"##équ":7554,"##écurité":7555,"##oqué":7556,"##up":7557,"##h00":7558,"##OR":7559,"##Station":7560,"##bile":7561,"##BC":7562,"##tibles":7563,"##ortion":7564,"##neau":7565,"procur":7566,"##dev":7567,"##ivité":7568,"Laval":7569,"##idité":7570,"##ulture":7571,"##cessi":7572,"##othé":7573,"causes":7574,"marchand":7575,"##ube":7576,"accent":7577,"accuse":7578,"##angers":7579,"Marvel":7580,"sécher":7581,"Pourquoi":7582,"renvers":7583,"défensi":7584,"publiée":7585,"formes":7586,"aurais":7587,"##azz":7588,"##iété":7589,"prévues":7590,"repas":7591,"assemblée":7592,"attaquer":7593,"Arn":7594,"spécifique":7595,"télév":7596,"retrouvent":7597,"optimis":7598,"Samedi":7599,"pira":7600,"Mex":7601,"appartement":7602,"intervient":7603,"violent":7604,"règlement":7605,"raconté":7606,"précisément":7607,"web":7608,"Groupe":7609,"essentiellement":7610,"statistiques":7611,"essayé":7612,"solidaire":7613,"réagir":7614,"garantir":7615,"##charge":7616,"dirigé":7617,"rup":7618,"familiale":7619,"Portug":7620,"sympt":7621,"témoignages":7622,"Georges":7623,"Henri":7624,"espèces":7625,"Office":7626,"aspect":7627,"doigt":7628,"interpellé":7629,"PlayStation":7630,"vigil":7631,"Thierry":7632,"Abidjan":7633,"68":7634,"63":7635,"Bureau":7636,"Gir":7637,"Ken":7638,"Lar":7639,"My":7640,"Rol":7641,"bapt":7642,"gain":7643,"mène":7644,"net":7645,"pisc":7646,"##com":7647,"##lines":7648,"##ona":7649,"##erse":7650,"##rets":7651,"unies":7652,"##ilib":7653,"plastique":7654,"##agu":7655,"##agés":7656,"congé":7657,"château":7658,"##ouvoir":7659,"réd":7660,"anony":7661,"savent":7662,"##rég":7663,"contribution":7664,"armés":7665,"impôt":7666,"##ruire":7667,"disant":7668,"soumis":7669,"193":7670,"Quatre":7671,"défic":7672,"étro":7673,"arrivent":7674,"félic":7675,"côte":7676,"crée":7677,"fondateur":7678,"Cannes":7679,"sollic":7680,"forts":7681,"commenté":7682,"quarts":7683,"##olid":7684,"##édie":7685,"apparition":7686,"signature":7687,"rendus":7688,"valor":7689,"sexuelles":7690,"science":7691,"division":7692,"équilibre":7693,"allez":7694,"savait":7695,"Julien":7696,"documentaire":7697,"transfert":7698,"adversaires":7699,"tranqu":7700,"connaissent":7701,"espérer":7702,"normes":7703,"Palais":7704,"engagements":7705,"licence":7706,"fourni":7707,"visiblement":7708,"dommages":7709,"76":7710,"DG":7711,"NF":7712,"Peter":7713,"Vo":7714,"West":7715,"aî":7716,"fan":7717,"foss":7718,"fêtes":7719,"has":7720,"ig":7721,"ombre":7722,"tunis":7723,"##sbourg":7724,"##vue":7725,"##do":7726,"##her":7727,"##ford":7728,"##onais":7729,"##elons":7730,"##allen":7731,"paraît":7732,"##ésie":7733,"injec":7734,"report":7735,"##ull":7736,"mobile":7737,"autoch":7738,"compren":7739,"toucher":7740,"abonnement":7741,"séquence":7742,"jugement":7743,"producteur":7744,"reven":7745,"profil":7746,"arrivés":7747,"merc":7748,"histoires":7749,"arrête":7750,"économies":7751,"garçon":7752,"responsabil":7753,"combien":7754,"options":7755,"représentent":7756,"détruit":7757,"préfère":7758,"##ows":7759,"initialement":7760,"conduire":7761,"procéder":7762,"sacri":7763,"Adam":7764,"contemp":7765,"aérien":7766,"quinze":7767,"contribué":7768,"stockage":7769,"aimer":7770,"ramener":7771,"cadres":7772,"gendarmes":7773,"ateliers":7774,"franchise":7775,"inondations":7776,"assassinat":7777,"incontourn":7778,"AM":7779,"Bat":7780,"Camp":7781,"Flo":7782,"Hong":7783,"Monde":7784,"cout":7785,"dons":7786,"ges":7787,"ois":7788,"senti":7789,"âme":7790,"âgée":7791,"##étaire":7792,"##40":7793,"##CF":7794,"##CI":7795,"##CR":7796,"##RI":7797,"##entions":7798,"pros":7799,"##asions":7800,"déri":7801,"##tain":7802,"##mbl":7803,"arts":7804,"traî":7805,"atter":7806,"##isser":7807,"écar":7808,"écoute":7809,"soul":7810,"grandi":7811,"diffusion":7812,"envah":7813,"profite":7814,"phra":7815,"couper":7816,"débuts":7817,"précision":7818,"asc":7819,"concertation":7820,"estim":7821,"Real":7822,"regarde":7823,"regrette":7824,"accusation":7825,"accueilli":7826,"Blanc":7827,"extension":7828,"préféré":7829,"##aïwan":7830,"partagé":7831,"financières":7832,"qualification":7833,"huitième":7834,"villages":7835,"empêche":7836,"navig":7837,"Exp":7838,"clientèle":7839,"Peut":7840,"tâche":7841,"prépare":7842,"bateau":7843,"cinéaste":7844,"Alliance":7845,"indispens":7846,"confrères":7847,"77":7848,"78":7849,"Afin":7850,"Ba":7851,"Bell":7852,"Gau":7853,"Hab":7854,"Jam":7855,"Los":7856,"Mas":7857,"Yan":7858,"é":7859,"hect":7860,"lanc":7861,"sk":7862,"Év":7863,"âgés":7864,"émis":7865,"’«":7866,"##sh":7867,"##van":7868,"##dom":7869,"##ms":7870,"##EG":7871,"##ess":7872,"##ouche":7873,"##ourt":7874,"##quête":7875,"##stal":7876,"##als":7877,"##sement":7878,"##oste":7879,"chien":7880,"rém":7881,"ani":7882,"##rét":7883,"arra":7884,"##veau":7885,"##chez":7886,"##onnant":7887,"##pées":7888,"##mén":7889,"compatri":7890,"##adis":7891,"troph":7892,"##ricoles":7893,"agricoles":7894,"confort":7895,"confinement":7896,"jusque":7897,"secret":7898,"attrib":7899,"maladi":7900,"insta":7901,"épau":7902,"prenant":7903,"mettent":7904,"incap":7905,"déses":7906,"amor":7907,"matières":7908,"provenant":7909,"provenance":7910,"volant":7911,"rapports":7912,"augmente":7913,"antis":7914,"Maj":7915,"Surtout":7916,"commerçants":7917,"reconnaître":7918,"puissant":7919,"usagers":7920,"excuses":7921,"tournage":7922,"climatiques":7923,"collective":7924,"souffle":7925,"dénoncer":7926,"fournit":7927,"arrêtés":7928,"suspension":7929,"énormément":7930,"relevé":7931,"Petit":7932,"interpré":7933,"lycée":7934,"Dominique":7935,"catastrophe":7936,"supporters":7937,"espagnol":7938,"drapeau":7939,"Sauf":7940,"évènement":7941,"néerlandais":7942,"Sénat":7943,"extraordinaire":7944,"Bol":7945,"Kam":7946,"Mass":7947,"Nu":7948,"Nam":7949,"Nov":7950,"ber":7951,"pié":7952,"éb":7953,"éduc":7954,"##tants":7955,"##rine":7956,"##ués":7957,"##èche":7958,"##jamin":7959,"##EM":7960,"##ER":7961,"##ank":7962,"lait":7963,"##inés":7964,"##ory":7965,"##quera":7966,"##chait":7967,"##ieuses":7968,"##tables":7969,"réformes":7970,"##actions":7971,"entente":7972,"##aya":7973,"traite":7974,"complément":7975,"causé":7976,"impôts":7977,"écolog":7978,"Mardi":7979,"clés":7980,"sédu":7981,"##enues":7982,"indice":7983,"philos":7984,"beaux":7985,"prestation":7986,"coré":7987,"désir":7988,"feront":7989,"localité":7990,"souvient":7991,"libéra":7992,"occasions":7993,"opus":7994,"effectivement":7995,"territori":7996,"livré":7997,"##endez":7998,"##rasse":7999,"##lantique":8000,"Justin":8001,"mouvements":8002,"exprime":8003,"médicale":8004,"Tech":8005,"Samuel":8006,"installée":8007,"Berlin":8008,"issus":8009,"remplacer":8010,"Certaines":8011,"suspendu":8012,"Heureusement":8013,"voici":8014,"convaincu":8015,"rivière":8016,"procédures":8017,"contrairement":8018,"féminin":8019,"symbolique":8020,"arabes":8021,"boulevard":8022,"chapit":8023,"Wallonie":8024,"volume":8025,"colonel":8026,"averti":8027,"réchauffement":8028,"maillot":8029,"##ellence":8030,"Pokémon":8031,"préserver":8032,"Kevin":8033,"Guillaume":8034,"\"\"":8035,"Aussi":8036,"Bri":8037,"Ca":8038,"CS":8039,"CF":8040,"Cre":8041,"Cond":8042,"Ont":8043,"Raf":8044,"Vi":8045,"VI":8046,"fati":8047,"mu":8048,"nett":8049,"océ":8050,"pub":8051,"##pri":8052,"##év":8053,"##ft":8054,"##être":8055,"##usions":8056,"##rak":8057,"##raî":8058,"##agnies":8059,"anc":8060,"##ications":8061,"peuples":8062,"restre":8063,"##tera":8064,"soule":8065,"##anga":8066,"posé":8067,"section":8068,"envoi":8069,"seuil":8070,"touristes":8071,"instar":8072,"organismes":8073,"longs":8074,"##iterran":8075,"##agnos":8076,"##atrices":8077,"principales":8078,"suscep":8079,"construit":8080,"déplace":8081,"Déc":8082,"accompag":8083,"vaccinal":8084,"numériques":8085,"occuper":8086,"recev":8087,"dispositions":8088,"municipalité":8089,"budgé":8090,"parfaite":8091,"carbone":8092,"Trudeau":8093,"commandes":8094,"familial":8095,"déliv":8096,"chanteur":8097,"éditions":8098,"moderne":8099,"réactions":8100,"intelligence":8101,"Strasbourg":8102,"Toront":8103,"Organisation":8104,"bourgmestre":8105,"Portugal":8106,"ignor":8107,"maladies":8108,"AN":8109,"Bert":8110,"OMS":8111,"Près":8112,"TF":8113,"Wh":8114,"bac":8115,"billet":8116,"dor":8117,"golf":8118,"set":8119,"zéro":8120,"##comm":8121,"##uge":8122,"##yt":8123,"##ycl":8124,"##isent":8125,"##entin":8126,"##tième":8127,"##inent":8128,"##rains":8129,"parall":8130,"##dique":8131,"comédie":8132,"inac":8133,"invent":8134,"réellement":8135,"##itées":8136,"##enda":8137,"sape":8138,"##ula":8139,"triste":8140,"diagnos":8141,"compagnies":8142,"##ogan":8143,"##ordanie":8144,"personnalité":8145,"conflits":8146,"passes":8147,"cost":8148,"Alger":8149,"Albert":8150,"##ologues":8151,"##chester":8152,"situations":8153,"ajus":8154,"proposent":8155,"réalisés":8156,"Carol":8157,"pleinement":8158,"endomm":8159,"verra":8160,"entraîné":8161,"ambul":8162,"##tones":8163,"déplacer":8164,"reçoit":8165,"conséquent":8166,"réunir":8167,"##landaise":8168,"genev":8169,"indépendant":8170,"##quettes":8171,"fournisseurs":8172,"découvre":8173,"inquiète":8174,"langues":8175,"judiciaires":8176,"collègue":8177,"portable":8178,"quinzaine":8179,"encourager":8180,"symbole":8181,"infrastructure":8182,"religieux":8183,"Congo":8184,"météor":8185,"flambée":8186,"doublé":8187,"injus":8188,"Personne":8189,"détec":8190,"##atherine":8191,"hasard":8192,"Ceci":8193,"God":8194,"Game":8195,"Ndi":8196,"SSD":8197,"Tel":8198,"Tok":8199,"dois":8200,"fir":8201,"guide":8202,"mos":8203,"toi":8204,"ved":8205,"vagues":8206,"##AD":8207,"##fa":8208,"##TI":8209,"##ties":8210,"##ila":8211,"##onte":8212,"parrain":8213,"chiens":8214,"##rob":8215,"##mble":8216,"contenus":8217,"appu":8218,"##ardins":8219,"rarement":8220,"écrans":8221,"dissi":8222,"discu":8223,"adhésion":8224,"réserv":8225,"abou":8226,"revue":8227,"empris":8228,"casting":8229,"##ancy":8230,"autoroute":8231,"gars":8232,"former":8233,"opposé":8234,"semblait":8235,"donnent":8236,"2009":8237,"commerces":8238,"pensé":8239,"boutique":8240,"fédération":8241,"expériences":8242,"critères":8243,"terminée":8244,"Benjamin":8245,"sentir":8246,"Donetsk":8247,"ouvrage":8248,"souffre":8249,"prochainement":8250,"municipale":8251,"hauts":8252,"##ritanniques":8253,"PSG":8254,"collaborateurs":8255,"éclai":8256,"nucléaires":8257,"voies":8258,"excellente":8259,"trente":8260,"chanteuse":8261,"conserver":8262,"aménagement":8263,"majoritaire":8264,"fraude":8265,"bébé":8266,"apprentissage":8267,"LNH":8268,"responsabilités":8269,"hectares":8270,"Toronto":8271,"66":8272,"98":8273,"Brig":8274,"CAN":8275,"Dru":8276,"Ga":8277,"Hist":8278,"Jan":8279,"Jos":8280,"Lam":8281,"Moi":8282,"Ri":8283,"Ti":8284,"Té":8285,"far":8286,"fact":8287,"héli":8288,"maires":8289,"pun":8290,"pierre":8291,"ti":8292,"étions":8293,"€,":8294,"##nait":8295,"##iale":8296,"##lot":8297,"##mor":8298,"##CE":8299,"##10":8300,"##reté":8301,"##tige":8302,"lever":8303,"##orable":8304,"##alon":8305,"plonge":8306,"##dict":8307,"##cié":8308,"##olie":8309,"##agénaire":8310,"trajet":8311,"annuelle":8312,"écouter":8313,"touchés":8314,"termine":8315,"assises":8316,"cla":8317,"passionn":8318,"attribu":8319,"##lène":8320,"Angl":8321,"dévast":8322,"disputé":8323,"huile":8324,"durer":8325,"appeler":8326,"techni":8327,"européennes":8328,"succ":8329,"particuliers":8330,"banlie":8331,"##ficie":8332,"Seine":8333,"##tell":8334,"apparaît":8335,"initiatives":8336,"Commun":8337,"comprom":8338,"citoyen":8339,"intégration":8340,"départs":8341,"Manchester":8342,"favoriser":8343,"savons":8344,"réserves":8345,"électoral":8346,"collège":8347,"industriels":8348,"catégories":8349,"chinoise":8350,"contrôler":8351,"discussion":8352,"occidentaux":8353,"archives":8354,"fusill":8355,"poussé":8356,"Bourse":8357,"méthode":8358,"tâches":8359,"Norv":8360,"commissaire":8361,"Bleus":8362,"fabrication":8363,"Monsieur":8364,"sénégalais":8365,"progressivement":8366,"bulle":8367,"Académie":8368,"streaming":8369,"rupture":8370,"banlieue":8371,"!\"":8372,"AR":8373,"Gouver":8374,"Kir":8375,"Mel":8376,"Méd":8377,"Nd":8378,"Norm":8379,"Pan":8380,"Pass":8381,"SI":8382,"boy":8383,"fau":8384,"foi":8385,"fasse":8386,"guer":8387,"luxe":8388,"pér":8389,"rab":8390,"sor":8391,"tours":8392,"épuis":8393,"‘’":8394,"##ctif":8395,"##oît":8396,"##bres":8397,"##bass":8398,"##feu":8399,"##PG":8400,"##eries":8401,"##arre":8402,"##eng":8403,"design":8404,"##agone":8405,"réception":8406,"annex":8407,"##acte":8408,"##endes":8409,"access":8410,"2030":8411,"nez":8412,"##ult":8413,"contamin":8414,"##veille":8415,"intéri":8416,"intentions":8417,"traum":8418,"##ogne":8419,"monst":8420,"intermédi":8421,"agressi":8422,"positions":8423,"Francis":8424,"manœu":8425,"envir":8426,"tourné":8427,"relativement":8428,"prévenir":8429,"crises":8430,"utilisés":8431,"Ins":8432,"légère":8433,"Art":8434,"informatique":8435,"estiment":8436,"demandent":8437,"officielles":8438,"culte":8439,"racisme":8440,"médiatique":8441,"sprint":8442,"signer":8443,"laissant":8444,"Sept":8445,"Lorsqu":8446,"valoir":8447,"observe":8448,"malades":8449,"pilotes":8450,"chacune":8451,"Boris":8452,"composée":8453,"sports":8454,"comparaison":8455,"jury":8456,"navires":8457,"concurrent":8458,"remarque":8459,"alliance":8460,"libéral":8461,"modifier":8462,"évacuation":8463,"fonctionnaires":8464,"sportifs":8465,"déposer":8466,"marocain":8467,"congrès":8468,"prétend":8469,"faciliter":8470,"sportive":8471,"(…)":8472,"monnaie":8473,"gameplay":8474,"gestes":8475,"rémuné":8476,"95":8477,"Amb":8478,"Cré":8479,"Loire":8480,"Miss":8481,"Sant":8482,"Sport":8483,"She":8484,"boute":8485,"mette":8486,"têtes":8487,"##crit":8488,"##tré":8489,"##ize":8490,"##guer":8491,"##BA":8492,"##nte":8493,"qualités":8494,"##quences":8495,"##ustin":8496,"##rahim":8497,"##olue":8498,"réelle":8499,"##ida":8500,"##uise":8501,"décri":8502,"allég":8503,"soin":8504,"finit":8505,"##ader":8506,"dépassé":8507,"##oyen":8508,"méta":8509,"estiv":8510,"##aval":8511,"milieux":8512,"homologue":8513,"épic":8514,"beauté":8515,"stopp":8516,"##bilités":8517,"utilisée":8518,"ouvertes":8519,"libérer":8520,"différente":8521,"affirmant":8522,"accords":8523,"2007":8524,"optim":8525,"tentatives":8526,"Diff":8527,"brill":8528,"attendue":8529,"##beek":8530,"Donbass":8531,"analyste":8532,"règne":8533,"Certes":8534,"volontaires":8535,"Suède":8536,"surviv":8537,"affrontements":8538,"favorable":8539,"diversité":8540,"plaidé":8541,"identifié":8542,"remonte":8543,"connaissances":8544,"mentionné":8545,"satisfait":8546,"francophones":8547,"smartphones":8548,"québécoise":8549,"livraisons":8550,"Savoie":8551,"Jonathan":8552,"discipline":8553,"Toulon":8554,"fameux":8555,"infirmi":8556,"Gaza":8557,"référendu":8558,"automobilistes":8559,"oeuvre":8560,"laboratoire":8561,"rumeurs":8562,"hospitalier":8563,"##lysée":8564,"Street":8565,"Bourg":8566,"Kon":8567,"Lui":8568,"Nik":8569,"OL":8570,"Pr":8571,"Sin":8572,"Ur":8573,"You":8574,"bor":8575,"mut":8576,"sel":8577,"tox":8578,"##iées":8579,"##han":8580,"##ètent":8581,"##çus":8582,"##tiver":8583,"##ena":8584,"unan":8585,"##ora":8586,"##ild":8587,"##alistes":8588,"dément":8589,"##rira":8590,"##eck":8591,"plage":8592,"##cia":8593,"sursis":8594,"##ago":8595,"##agée":8596,"protég":8597,"inu":8598,"##deur":8599,"chamb":8600,"##ami":8601,"contro":8602,"onze":8603,"cache":8604,"alent":8605,"ressemb":8606,"soign":8607,"impati":8608,"implication":8609,"noire":8610,"personnelles":8611,"passés":8612,"juges":8613,"débute":8614,"manip":8615,"jouent":8616,"formé":8617,"annonces":8618,"transfor":8619,"générations":8620,"crédi":8621,"##ombe":8622,"##aka":8623,"basée":8624,"charges":8625,"Europé":8626,"fonctionner":8627,"télétra":8628,"souligner":8629,"décid":8630,"refuse":8631,"verre":8632,"acheté":8633,"pensent":8634,"absent":8635,"habitant":8636,"##ikh":8637,"témoin":8638,"collecte":8639,"enseigne":8640,"policière":8641,"Asie":8642,"compréh":8643,"qualifier":8644,"raconter":8645,"neutra":8646,"adoption":8647,"céréales":8648,"rassemble":8649,"types":8650,"articles":8651,"fixe":8652,"concurrents":8653,"parlementaires":8654,"réclam":8655,"olympiques":8656,"Fonds":8657,"psychologique":8658,"troubles":8659,"FCFA":8660,"CAQ":8661,"opérateur":8662,"harc":8663,"sensibiliser":8664,"chansons":8665,"attentats":8666,"échapper":8667,"caméras":8668,"météo":8669,"abattu":8670,"scandale":8671,"Angeles":8672,"OTAN":8673,"insuff":8674,"enceinte":8675,"dinars":8676,"argument":8677,"Rappelons":8678,"Roland":8679,"contempor":8680,"animé":8681,"96":8682,"Bi":8683,"Catherine":8684,"Dre":8685,"Games":8686,"Galax":8687,"Jul":8688,"Jui":8689,"Kab":8690,"Rem":8691,"Tot":8692,"Vir":8693,"Ye":8694,"aidé":8695,"foyer":8696,"gel":8697,"gab":8698,"lie":8699,"née":8700,"vende":8701,"##nab":8702,"##tante":8703,"##vage":8704,"##dou":8705,"##bus":8706,"##fiques":8707,"##fice":8708,"##PN":8709,"devez":8710,"##erc":8711,"##reur":8712,"##ison":8713,"##ismes":8714,"##ariste":8715,"##chage":8716,"inn":8717,"##ator":8718,"##acar":8719,"active":8720,"##ellectu":8721,"##ander":8722,"##otter":8723,"##copt":8724,"##itudes":8725,"##ricol":8726,"config":8727,"Martine":8728,"proportion":8729,"consiste":8730,"infor":8731,"covid":8732,"##icien":8733,"régul":8734,"attitude":8735,"##ématiques":8736,"Alpha":8737,"gouvern":8738,"réputation":8739,"relance":8740,"connus":8741,"prévus":8742,"cinquant":8743,"journaux":8744,"probable":8745,"garçons":8746,"essaie":8747,"libéré":8748,"18h":8749,"parent":8750,"commencent":8751,"suivante":8752,"totalité":8753,"belges":8754,"Pascal":8755,"médical":8756,"parvient":8757,"délais":8758,"existent":8759,"voient":8760,"meurt":8761,"justifier":8762,"signalé":8763,"suscité":8764,"prolongation":8765,"sensibilisation":8766,"attentat":8767,"expertise":8768,"exempl":8769,"fierté":8770,"Rivières":8771,"critiqué":8772,"Environnement":8773,"Ryan":8774,"rembours":8775,"nettement":8776,"Smith":8777,"CGT":8778,"pauvreté":8779,"Palestiniens":8780,"goû":8781,"ambitieux":8782,"sapeurs":8783,"89":8784,"BF":8785,"Cé":8786,"Emp":8787,"Lég":8788,"Mul":8789,"PME":8790,"Ru":8791,"Sab":8792,"Soit":8793,"SAN":8794,"XI":8795,"austra":8796,"sing":8797,"soix":8798,"ère":8799,"##umes":8800,"##mosph":8801,"##itco":8802,"##orn":8803,"##ansk":8804,"pourcent":8805,"##auts":8806,"##ato":8807,"répét":8808,"répart":8809,"##mba":8810,"étage":8811,"intellectu":8812,"##onnais":8813,"##oton":8814,"maritime":8815,"atmosph":8816,"importations":8817,"explo":8818,"exportations":8819,"dépasser":8820,"agressions":8821,"résoudre":8822,"carn":8823,"Frank":8824,"défendu":8825,"défunt":8826,"Dev":8827,"indic":8828,"franc":8829,"visiter":8830,"##ignon":8831,"##ahu":8832,"communiste":8833,"septième":8834,"Conc":8835,"Concer":8836,"format":8837,"pape":8838,"particulière":8839,"Stan":8840,"doté":8841,"immun":8842,"privées":8843,"##versité":8844,"Blue":8845,"vaccinés":8846,"spectaculaire":8847,"patrou":8848,"Mercredi":8849,"exceptionnelle":8850,"navire":8851,"chaînes":8852,"imagine":8853,"habitudes":8854,"Autant":8855,"abandon":8856,"industriel":8857,"lettres":8858,"froide":8859,"Moham":8860,"erreurs":8861,"originale":8862,"coordination":8863,"exigences":8864,"algérien":8865,"Directeur":8866,"préoccupations":8867,"musicale":8868,"rachat":8869,"profondément":8870,"aperçu":8871,"tweet":8872,"incendies":8873,"Ibrahim":8874,"renforcement":8875,"International":8876,"déficit":8877,"revendic":8878,"hélicopt":8879,"Total":8880,"88":8881,"Bob":8882,"Cou":8883,"Die":8884,"GMT":8885,"Pant":8886,"Rod":8887,"Trib":8888,"meu":8889,"ores":8890,"##nellement":8891,"##rète":8892,"##ules":8893,"##45":8894,"##SI":8895,"##bb":8896,"##èdent":8897,"##çue":8898,"##ondu":8899,"##refour":8900,"##isj":8901,"##tiles":8902,"##ouement":8903,"lauré":8904,"##quants":8905,"##omètre":8906,"prud":8907,"##elin":8908,"##ilien":8909,"##tale":8910,"plant":8911,"conception":8912,"chir":8913,"rénovation":8914,"##abè":8915,"##illement":8916,"prédé":8917,"participe":8918,"Encore":8919,"##tueux":8920,"orches":8921,"possession":8922,"juive":8923,"##lerc":8924,"régler":8925,"seules":8926,"répression":8927,"nationaux":8928,"organise":8929,"permettrait":8930,"publicité":8931,"reprodu":8932,"attaqué":8933,"électronique":8934,"informer":8935,"fondation":8936,"promesse":8937,"promouvoir":8938,"allaient":8939,"Euro":8940,"investig":8941,"stable":8942,"constructeur":8943,"nécessite":8944,"racc":8945,"ambitions":8946,"compétitions":8947,"rendent":8948,"rendue":8949,"bénéfices":8950,"spectacles":8951,"employé":8952,"facteurs":8953,"départements":8954,"quotidienne":8955,"accidents":8956,"israéliens":8957,"frappes":8958,"inscrits":8959,"pratiquement":8960,"garantie":8961,"convainc":8962,"abandonner":8963,"##mmond":8964,"constituent":8965,"Bref":8966,"infections":8967,"recommandations":8968,"modern":8969,"chaussée":8970,"catalogue":8971,"hydro":8972,"élarg":8973,"sécheresse":8974,"symptômes":8975,"Julie":8976,"87":8977,"900":8978,"Cri":8979,"Féli":8980,"MON":8981,"ND":8982,"Olymp":8983,"Vaud":8984,"citer":8985,"digne":8986,"fui":8987,"fumée":8988,"ign":8989,"inex":8990,"menu":8991,"rôles":8992,"vole":8993,"épr":8994,"##pent":8995,"##ctivité":8996,"##tus":8997,"##trer":8998,"##tori":8999,"##vié":9000,"##las":9001,"##yo":9002,"##bas":9003,"##èques":9004,"##GE":9005,"##way":9006,"##êté":9007,"##ury":9008,"##issi":9009,"##itt":9010,"enn":9011,"##ason":9012,"##iri":9013,"paraître":9014,"play":9015,"##cifique":9016,"réalise":9017,"##rov":9018,"redé":9019,"##ico":9020,"arc":9021,"arbre":9022,"##ister":9023,"intense":9024,"apparent":9025,"dépens":9026,"mini":9027,"interromp":9028,"##ness":9029,"##rences":9030,"agi":9031,"personnelle":9032,"assis":9033,"assaut":9034,"clin":9035,"chem":9036,"manches":9037,"manquer":9038,"relancer":9039,"prévoy":9040,"prévision":9041,"incom":9042,"basé":9043,"bases":9044,"menacé":9045,"portefeu":9046,"rempli":9047,"##rante":9048,"périodes":9049,"retrouvés":9050,"stabilité":9051,"tentent":9052,"représentation":9053,"hausses":9054,"officiels":9055,"rouges":9056,"humaines":9057,"commente":9058,"pensait":9059,"arrêts":9060,"limitée":9061,"confirmer":9062,"négatif":9063,"géants":9064,"Républic":9065,"conclure":9066,"biodi":9067,"détaille":9068,"sexuelle":9069,"démarches":9070,"intéressé":9071,"médecine":9072,"exceptionnel":9073,"%),":9074,"1980":9075,"moral":9076,"championne":9077,"immédiat":9078,"aériennes":9079,"mentale":9080,"connex":9081,"irré":9082,"célébrer":9083,"enseignant":9084,"Canadiens":9085,"appliquer":9086,"Liban":9087,"francophone":9088,"cruci":9089,"consacré":9090,"recrutement":9091,"Jérôme":9092,"interroge":9093,"souveraineté":9094,"panneaux":9095,"appuyer":9096,"##archie":9097,"Glob":9098,"japonais":9099,"indépendante":9100,"décédée":9101,"Journée":9102,"massac":9103,"bombardements":9104,"destiné":9105,"##rairement":9106,"considérablement":9107,"brigade":9108,"dimension":9109,"obstac":9110,"condamnation":9111,"fossiles":9112,"incontournable":9113,"Ontario":9114,"firme":9115,"pourcentage":9116,"biodiversité":9117,"79":9118,"Bénin":9119,"Dix":9120,"Eh":9121,"Lor":9122,"Louv":9123,"Light":9124,"Mill":9125,"Orient":9126,"Point":9127,"Ras":9128,"Sun":9129,"Tan":9130,"Taïwan":9131,"coc":9132,"dame":9133,"fiction":9134,"gent":9135,"ore":9136,"rur":9137,"stim":9138,"éte":9139,"##loc":9140,"##DF":9141,"##wi":9142,"##eni":9143,"quad":9144,"##orge":9145,"##ombre":9146,"aval":9147,"avère":9148,"##lian":9149,"inég":9150,"innov":9151,"##demment":9152,"##ulaires":9153,"##vey":9154,"intit":9155,"comptent":9156,"Eng":9157,"##ifs":9158,"addition":9159,"terrible":9160,"##avre":9161,"déblo":9162,"##alisées":9163,"##allo":9164,"Parc":9165,"visites":9166,"casque":9167,"étend":9168,"créd":9169,"connais":9170,"corri":9171,"autorisé":9172,"internautes":9173,"portrait":9174,"missile":9175,"sécuritaire":9176,"légende":9177,"paie":9178,"verts":9179,"Didier":9180,"Thi":9181,"effectifs":9182,"excellence":9183,"combattre":9184,"patin":9185,"analyses":9186,"Suite":9187,"Tex":9188,"Tele":9189,"chercheur":9190,"Royal":9191,"régulière":9192,"élue":9193,"élite":9194,"sinc":9195,"exécution":9196,"suspects":9197,"Nationale":9198,"Interro":9199,"sympath":9200,"Direction":9201,"opérateurs":9202,"ennemis":9203,"RTX":9204,"complété":9205,"italien":9206,"AIP":9207,"Théâtre":9208,"équivalent":9209,"fidèle":9210,"oblige":9211,"Milan":9212,"mélange":9213,"urgences":9214,"protocole":9215,"escalade":9216,"enthousias":9217,"Mexique":9218,"autochtones":9219,"TF1":9220,"Drummond":9221,"cinquantaine":9222,"5G":9223,"61":9224,"82":9225,"81":9226,"Ay":9227,"Bois":9228,"Bang":9229,"Califor":9230,"Cisj":9231,"Fland":9232,"Gil":9233,"Hal":9234,"Im":9235,"King":9236,"Land":9237,"Mu":9238,"MRC":9239,"Nancy":9240,"Ous":9241,"PIB":9242,"Ron":9243,"SA":9244,"Ts":9245,"Télé":9246,"Xavier":9247,"cur":9248,"ceci":9249,"dr":9250,"dat":9251,"fur":9252,"gré":9253,"gang":9254,"hâte":9255,"pompe":9256,"rand":9257,"éché":9258,"##ctement":9259,"##tom":9260,"##olement":9261,"##uf":9262,"##DA":9263,"##PI":9264,"##wer":9265,"##uries":9266,"##oui":9267,"union":9268,"##teau":9269,"##chet":9270,"##ersion":9271,"##ouvent":9272,"Lav":9273,"satell":9274,"entré":9275,"##icale":9276,"##ulp":9277,"intrig":9278,"##illée":9279,"trains":9280,"camps":9281,"sovié":9282,"##issante":9283,"deviennent":9284,"noté":9285,"payé":9286,"claire":9287,"cheval":9288,"Devant":9289,"##éma":9290,"collis":9291,"pét":9292,"##igny":9293,"enfer":9294,"répand":9295,"prévisions":9296,"faç":9297,"start":9298,"##ella":9299,"Inf":9300,"risquent":9301,"programmation":9302,"Belge":9303,"Diables":9304,"emblématique":9305,"##ortait":9306,"##ortable":9307,"Benoît":9308,"distric":9309,"obligations":9310,"litre":9311,"logistique":9312,"Finalement":9313,"Finlande":9314,"mobiles":9315,"bénéficié":9316,"Borne":9317,"commerciale":9318,"Android":9319,"Prime":9320,"énergétiques":9321,"classiques":9322,"Contrairement":9323,"administratif":9324,"quinqu":9325,"Harry":9326,"positifs":9327,"Abdel":9328,"Djok":9329,"athlète":9330,"Sahel":9331,"inédite":9332,"réfléchir":9333,"Arabie":9334,"burkin":9335,"Désormais":9336,"vaudois":9337,"Roger":9338,"Joseph":9339,"accompagnement":9340,"intérim":9341,"Cisjordanie":9342,"Ari":9343,"Fra":9344,"Lion":9345,"Patri":9346,"Rac":9347,"Sol":9348,"glisse":9349,"hi":9350,"lun":9351,"mun":9352,"notes":9353,"pne":9354,"situe":9355,"éoli":9356,"##yne":9357,"##MA":9358,"##kov":9359,"##fe":9360,"##lect":9361,"##enaire":9362,"encl":9363,"démén":9364,"##tagne":9365,"##rices":9366,"plat":9367,"##lières":9368,"convention":9369,"conçu":9370,"conjug":9371,"acad":9372,"##nig":9373,"##ortant":9374,"##ics":9375,"##onnance":9376,"##illent":9377,"modé":9378,"traces":9379,"cadeaux":9380,"##issants":9381,"disque":9382,"##cton":9383,"terrains":9384,"évidence":9385,"agences":9386,"confor":9387,"passent":9388,"malade":9389,"tournant":9390,"créée":9391,"##ako":9392,"sombre":9393,"##oulez":9394,"fraî":9395,"léger":9396,"ouverts":9397,"##héran":9398,"supporter":9399,"enquêtes":9400,"130":9401,"achats":9402,"représenter":9403,"##èvement":9404,"entraîne":9405,"attendait":9406,"accompagne":9407,"Med":9408,"magaz":9409,"occupé":9410,"réunions":9411,"universitaire":9412,"Plan":9413,"sûrement":9414,"conclusions":9415,"facteur":9416,"violents":9417,"Allemand":9418,"coûté":9419,"observer":9420,"adapté":9421,"municipalités":9422,"favorables":9423,"Series":9424,"COP":9425,"révél":9426,"rêves":9427,"savais":9428,"Espagn":9429,"1970":9430,"remarqu":9431,"##gnation":9432,"escro":9433,"remonter":9434,"Netany":9435,"énormes":9436,"concentrer":9437,"commandant":9438,"chauffeur":9439,"Bretagne":9440,"récolté":9441,"recommandé":9442,"séparat":9443,"accessibles":9444,"massive":9445,"Metz":9446,"gagnant":9447,"Congrès":9448,"littérature":9449,"angle":9450,"Mathieu":9451,"adolescents":9452,"pharm":9453,"juif":9454,"douleur":9455,"Colombie":9456,"Libreville":9457,"Floride":9458,"antisém":9459,"éclairage":9460,"Téhéran":9461,"boyc":9462,"télétravail":9463,"SANA":9464,"Fa":9465,"Gren":9466,"Gilles":9467,"Gold":9468,"Ho":9469,"Log":9470,"Lamb":9471,"Pie":9472,"Soud":9473,"Tit":9474,"VR":9475,"Vie":9476,"asile":9477,"bib":9478,"câ":9479,"cath":9480,"flu":9481,"fruit":9482,"her":9483,"mè":9484,"rire":9485,"rig":9486,"tch":9487,"##eting":9488,"##riss":9489,"##rieurs":9490,"##iation":9491,"##gor":9492,"##ataire":9493,"##ualité":9494,"##yme":9495,"##AP":9496,"##80":9497,"##zer":9498,"##itable":9499,"##ouk":9500,"##ouff":9501,"levé":9502,"##orique":9503,"##aution":9504,"##audi":9505,"##agent":9506,"##atta":9507,"##nick":9508,"étages":9509,"##onnête":9510,"auth":9511,"traité":9512,"compagne":9513,"devenus":9514,"##cées":9515,"finales":9516,"##ado":9517,"Chac":9518,"Chamb":9519,"Chev":9520,"bienv":9521,"Jeff":9522,"personnels":9523,"consoles":9524,"filière":9525,"empre":9526,"viande":9527,"monte":9528,"étendre":9529,"capables":9530,"désac":9531,"équipement":9532,"##akry":9533,"amus":9534,"cime":9535,"ferait":9536,"Conakry":9537,"continué":9538,"développeurs":9539,"poursuivent":9540,"périph":9541,"succé":9542,"récents":9543,"blessées":9544,"Stand":9545,"officier":9546,"brou":9547,"peines":9548,"reconnaiss":9549,"détente":9550,"extrait":9551,"appartient":9552,"puissante":9553,"réunis":9554,"##oudite":9555,"##oussa":9556,"camions":9557,"conclusion":9558,"provinces":9559,"rip":9560,"guér":9561,"##appé":9562,"favori":9563,"tribun":9564,"possibilités":9565,"survie":9566,"simples":9567,"normalement":9568,"parvenir":9569,"matériaux":9570,"remplacé":9571,"évoquant":9572,"commerciaux":9573,"##ghan":9574,"conservateurs":9575,"carburants":9576,"horreur":9577,"René":9578,"couvert":9579,"##rome":9580,"instrument":9581,"délib":9582,"opportunités":9583,"Sarah":9584,"interprète":9585,"accélérer":9586,"licen":9587,"Championn":9588,"entrepreneurs":9589,"Fabien":9590,"alternative":9591,"couvre":9592,"lourds":9593,"inspiré":9594,"conseillère":9595,"temporaire":9596,"évolué":9597,"rafraî":9598,"architecture":9599,"##iendront":9600,"Leclerc":9601,"drones":9602,"alarme":9603,"Argentine":9604,"végé":9605,"bronze":9606,"phrase":9607,"libéraux":9608,"chapitre":9609,"inaccep":9610,"alentours":9611,"Juifs":9612,"gouvernance":9613,"Concernant":9614,"(-":9615,"74":9616,"71":9617,"Ak":9618,"Ast":9619,"Bill":9620,"Britannique":9621,"Culture":9622,"FN":9623,"Fil":9624,"Fed":9625,"Hass":9626,"Id":9627,"MR":9628,"Sk":9629,"Som":9630,"Tourn":9631,"dite":9632,"gâ":9633,"gê":9634,"lou":9635,"pon":9636,"rock":9637,"vib":9638,"Émi":9639,"Éducation":9640,"##lan":9641,"##hier":9642,"##habil":9643,"##bl":9644,"##fes":9645,"##23":9646,"##ertes":9647,"##itôt":9648,"##enez":9649,"##quante":9650,"##ush":9651,"prouver":9652,"##asa":9653,"##cevoir":9654,"##aisons":9655,"##oly":9656,"réin":9657,"repé":9658,"##igéri":9659,"contac":9660,"contient":9661,"suites":9662,"prévent":9663,"cadeau":9664,"##dule":9665,"##opolit":9666,"még":9667,"métal":9668,"cessé":9669,"agenda":9670,"orth":9671,"abond":9672,"##rente":9673,"offrant":9674,"##oulin":9675,"polémique":9676,"visé":9677,"casse":9678,"touristique":9679,"félicité":9680,"##ommée":9681,"##arth":9682,"explication":9683,"explications":9684,"désin":9685,"stars":9686,"suisses":9687,"##êtres":9688,"problématique":9689,"concernées":9690,"ports":9691,"solo":9692,"promesses":9693,"##tresse":9694,"spécialisé":9695,"Reg":9696,"donnant":9697,"majeurs":9698,"téléchar":9699,"souris":9700,"faisaient":9701,"Diallo":9702,"commentaires":9703,"laissent":9704,"suivie":9705,"limité":9706,"larmes":9707,"investit":9708,"##auvres":9709,"suffisant":9710,"observé":9711,"démocrate":9712,"sciences":9713,"mobilisés":9714,"primes":9715,"placée":9716,"voisine":9717,"craint":9718,"installés":9719,"##keting":9720,"avocate":9721,"évoquer":9722,"opposant":9723,"gaming":9724,"rangs":9725,"stationnement":9726,"délégué":9727,"annulé":9728,"élimination":9729,"éliminatoires":9730,"portait":9731,"gratuite":9732,"globale":9733,"brass":9734,"taxe":9735,"rejeté":9736,"Croix":9737,"marocaine":9738,"Sécurité":9739,"bruxelloise":9740,"équipage":9741,"communautaire":9742,"sugg":9743,"Nadal":9744,"ATP":9745,"##lywood":9746,"indispensable":9747,"contaminations":9748,"controvers":9749,"##itcoin":9750,"Netanyahu":9751,"3D":9752,"91":9753,"BA":9754,"Cit":9755,"Conn":9756,"Fall":9757,"Hé":9758,"Hub":9759,"Six":9760,"Tay":9761,"Togo":9762,"Xi":9763,"crain":9764,"dign":9765,"gy":9766,"haine":9767,"murs":9768,"mourir":9769,"orange":9770,"pauvres":9771,"rose":9772,"siens":9773,"tiss":9774,"€™":9775,"##cence":9776,"##ds":9777,"##hai":9778,"##hip":9779,"##MC":9780,"##bu":9781,"##je":9782,"##zi":9783,"##oune":9784,"##lets":9785,"##arts":9786,"##orce":9787,"enver":9788,"##raf":9789,"##ases":9790,"avancée":9791,"avoue":9792,"##osyst":9793,"conver":9794,"trés":9795,"##illir":9796,"autop":9797,"traiter":9798,"caché":9799,"présumé":9800,"exposé":9801,"meeting":9802,"##ctés":9803,"Mark":9804,"Maritimes":9805,"clos":9806,"passera":9807,"défilé":9808,"envelopp":9809,"quels":9810,"##lisation":9811,"pouvaient":9812,"##érieure":9813,"relâ":9814,"vélos":9815,"progress":9816,"utilisent":9817,"bonus":9818,"Arc":9819,"demandant":9820,"2002":9821,"staff":9822,"verges":9823,"réconc":9824,"isolement":9825,"subvention":9826,"commentaire":9827,"Isab":9828,"associé":9829,"attendus":9830,"habitation":9831,"bouche":9832,"détenu":9833,"Moncton":9834,"défenseurs":9835,"frontal":9836,"universités":9837,"civiles":9838,"Phil":9839,"intégré":9840,"fournisseur":9841,"survenu":9842,"Anton":9843,"négocier":9844,"Serge":9845,"affiché":9846,"exercer":9847,"enregistrés":9848,"engagée":9849,"allemande":9850,"sièges":9851,"remarquer":9852,"Musée":9853,"traditionnel":9854,"provoquer":9855,"diriger":9856,"réclame":9857,"coopéra":9858,"médailles":9859,"infection":9860,"Rome":9861,"approuvé":9862,"démontre":9863,"démontré":9864,"ménage":9865,"USB":9866,"urbain":9867,"idéal":9868,"déposée":9869,"Rapha":9870,"adolescent":9871,"algériens":9872,"déploiement":9873,"Meta":9874,"sondages":9875,"interdire":9876,"interrogé":9877,"Champions":9878,"axe":9879,"apprécié":9880,"espèce":9881,"dommage":9882,"talents":9883,"agréable":9884,"positive":9885,"Rhône":9886,"désigné":9887,"téléphonique":9888,"Général":9889,"Sylv":9890,"dramatique":9891,"vigilance":9892,"Namur":9893,"déplacements":9894,"parallèle":9895,"Caroline":9896,"Tokyo":9897,"Histoire":9898,"unanimité":9899,"transformé":9900,"informé":9901,"NDLR":9902,"Ousmane":9903,"Bah":9904,"Code":9905,"Cast":9906,"Duc":9907,"Foot":9908,"Had":9909,"Mand":9910,"PL":9911,"Stu":9912,"Vis":9913,"cumul":9914,"fêter":9915,"luxemb":9916,"pèse":9917,"ral":9918,"sch":9919,"sab":9920,"sable":9921,"tor":9922,"tun":9923,"tél":9924,"vocation":9925,"vallée":9926,"##ium":9927,"##gs":9928,"##mait":9929,"##EN":9930,"##fie":9931,"##BT":9932,"##erg":9933,"##lections":9934,"##ortation":9935,"audition":9936,"##alty":9937,"due":9938,"paraly":9939,"plai":9940,"##cide":9941,"rétro":9942,"réhabil":9943,"##sière":9944,"Laf":9945,"enter":9946,"troupe":9947,"##utenant":9948,"##illés":9949,"préal":9950,"comptait":9951,"entrevue":9952,"raté":9953,"interloc":9954,"assisté":9955,"junte":9956,"Quelle":9957,"##alisations":9958,"##partement":9959,"##ignée":9960,"transmis":9961,"emporté":9962,"##tivités":9963,"relay":9964,"##ancel":9965,"côtes":9966,"régionales":9967,"location":9968,"portent":9969,"invitation":9970,"##aisses":9971,"essais":9972,"assurant":9973,"atteinte":9974,"refuge":9975,"block":9976,"subir":9977,"Dijon":9978,"urgent":9979,"déployé":9980,"##orial":9981,"bouger":9982,"voyager":9983,"trio":9984,"violation":9985,"pénale":9986,"Suz":9987,"prisonniers":9988,"ordinaire":9989,"sacs":9990,"longueur":9991,"directe":9992,"crainte":9993,"afficher":9994,"israéliennes":9995,"hybri":9996,"oublie":9997,"précédents":9998,"Forum":9999}}}