{"version":"1.0","truncation":null,"padding":null,"added_tokens":[{"id":0,"special":true,"content":"<UNK>","single_word":false,"lstrip":false,"rstrip":false,"normalized":false},{"id":1,"special":true,"content":"<SEP>","single_word":false,"lstrip":false,"rstrip":false,"normalized":false},{"id":2,"special":true,"content":"<MASK>","single_word":false,"lstrip":false,"rstrip":false,"normalized":false},{"id":3,"special":true,"content":"<CLS>","single_word":false,"lstrip":false,"rstrip":false,"normalized":false}],"normalizer":null,"pre_tokenizer":{"type":"Whitespace"},"post_processor":null,"decoder":null,"model":{"type":"Unigram","unk_id":0,"vocab":[["<UNK>",0.0],["<SEP>",0.0],["<MASK>",0.0],["<CLS>",0.0],["s",-2.7051057947190973],["de",-3.0046095660576455],[",",-3.3070969654318247],[".",-3.5466967935691667],["la",-3.549571393091643],["a",-3.562478156503408],["que",-3.7919040773332497],["en",-3.869144821140104],["el",-3.887696428393559],["y",-3.9461770702624293],["e",-3.9740112807281136],["es",-4.159534283263634],["o",-4.572288624538299],["los",-4.597838935220974],["ó",-4.708819619392367],["n",-4.7781818693612195],["un",-4.783562475866635],["del",-4.796122866135379],["ción",-4.847379569966559],["con",-4.919505892427626],["por",-5.043816790538788],["para",-5.086120682309623],["una",-5.178141643410999],["las",-5.251542192028662],["no",-5.260197207320916],["su",-5.260330520952396],["al",-5.382011106276577],["lo",-5.497713716147851],["El",-5.609695672629583],["l",-5.628217391862433],["más",-5.683667760329982],["“",-5.716018471683364],["La",-5.794359715570472],["ha",-5.826262713347436],["\"",-5.900033703884697],["mente",-5.907823671153263],["como",-5.920506430131001],["ón",-6.112406381391997],["este",-6.135347876540644],["En",-6.158697691646978],["on",-6.20766055563872],["A",-6.218653611818462],["(",-6.305196602748545],["mos",-6.313934826813272],[":",-6.344420843883681],["d",-6.376900133875189],["esta",-6.410398191201544],["fue",-6.438789426343641],["ciones",-6.463943512404001],["r",-6.547698551147299],["sus",-6.571981294625342],["ndo",-6.602416151543707],["”,",-6.611228071937635],["si",-6.612618596445589],["do",-6.613744956385769],["pero",-6.623024778348972],["-",-6.624868316148369],["S",-6.673008604954299],["tiene",-6.68618625888509],["años",-6.694557811489249],["dos",-6.718596852719335],["i",-6.748326476942392],["también",-6.751200935690349],["está",-6.757366080508511],["día",-6.817320177048353],["sobre",-6.821972853581565],["han",-6.8366786250189175],["entre",-6.844920193006576],["m",-6.867467990988034],["”.",-6.92244513313538],["ser",-6.927482936819056],["Los",-6.929629746613397],["«",-6.929893249860502],[")",-6.944350212428279],["”",-6.950683920554013],["»",-6.950843959155417],["todo",-6.980606755682574],["son",-6.996379490591357],["ron",-6.997473851316267],["20",-7.000949224705714],["%",-7.007307703825469],["z",-7.007636442174407],["parte",-7.009937656084701],["desde",-7.013480143164131],["puede",-7.018064390579915],["t",-7.026608784441071],["muy",-7.028752497303118],["T",-7.040130896444449],["país",-7.04948522705644],["u",-7.0624856451080635],["te",-7.070650010838672],["me",-7.0731060728852935],["año",-7.0813221909742685],["hasta",-7.101626571369432],["No",-7.116529888646177],["Por",-7.117775779177522],["sin",-7.15959115509574],["personas",-7.189389773110889],["1",-7.189404742732821],["donde",-7.189898227251832],["dij",-7.191847547072407],["C",-7.196105513757246],["hay",-7.203251340793454],["cuando",-7.203631758749608],["De",-7.228608016944765],["ando",-7.2354426436677555],["Es",-7.244678570897961],["caso",-7.256408494899203],["é",-7.263613145167911],["ante",-7.267623746863296],["ía",-7.280941417900127],["19",-7.287435840267194],["toda",-7.2899267540586],["contra",-7.293897646940456],["Y",-7.297471684774917],["hora",-7.3010522387583645],["quien",-7.310428239440724],["2",-7.325349358094547],["eron",-7.3346465992237775],["R",-7.3398315593150665],["egún",-7.341458880440631],["va",-7.342805406058755],["L",-7.345467020975781],["mi",-7.36210100820648],["Se",-7.3831506239182145],["momento",-7.393621221018202],["forma",-7.396477708790182],["durant",-7.398656970189447],["¿",-7.405532971031133],["tiempo",-7.411341298673063],["á",-7.4175401183207965],["había",-7.431363671251544],["re",-7.432622122559228],["P",-7.442398668261241],["E",-7.444226924992505],["?",-7.4465185481249945],["ni",-7.45330113531339],["millones",-7.455233192833721],["idad",-7.4568369050530485],["todos",-7.461960018267412],["3",-7.470915618088706],["era",-7.470993379128639],["emos",-7.475257194029705],["\",",-7.480316939881328],["ver",-7.4825144148376195],["solo",-7.483401992519243],["mejor",-7.4880977625188185],["án",-7.491473678172726],["hacer",-7.494752405903549],["p",-7.4958358809987],["'",-7.509417292848206],["5",-7.5205320428206655],["porque",-7.523025000000459],["están",-7.524109488321463],["cuenta",-7.53039806460226],["lugar",-7.531564853456765],["equipo",-7.534451506901605],["uno",-7.535091349763596],["c",-7.537099507712282],["vez",-7.539392700464361],["nuevo",-7.542388863869102],["hace",-7.543850853280704],["Estado",-7.545281818356422],["F",-7.551911492149624],["sido",-7.552756387064318],["mismo",-7.567026891635278],["vida",-7.568416702890261],["4",-7.5694959499199115],["partido",-7.570371589673268],["primera",-7.581519151376197],["semana",-7.5826566805978874],["cada",-7.586131876776214],["tras",-7.607537113140552],["mayor",-7.608080941416694],[";",-7.609930028177832],["ras",-7.610680608412362],["otros",-7.612626488809976],["presidente",-7.614053649250792],["tres",-7.6235675795337094],["\".",-7.627292553504637],["gran",-7.636125607657581],["así",-7.638969363073358],["és",-7.640439155684298],["h",-7.646107709251348],["después",-7.648672891749717],["último",-7.651382648902535],["pasado",-7.658914938135456],["nueva",-7.660207908898542],["embre",-7.663788101574731],["tanto",-7.690743126021237],["social",-7.693419834209253],["Con",-7.695377092914226],["Si",-7.7002292784098625],["ión",-7.710213766279807],["bien",-7.715940594184981],["ciudad",-7.717610404108995],["Al",-7.71930518115458],["medio",-7.720821913889832],["nos",-7.722322721267881],["in",-7.726430718132542],["Ademá",-7.727889235511486],["esto",-7.731761086233611],["6",-7.733949549651849],["hecho",-7.739942368057073],["trabajo",-7.750300315476661],["otro",-7.7537208935575785],["Esta",-7.754824415898516],["Pero",-7.7740832154305775],["menos",-7.777215837167066],["mil",-7.784520039258941],["2022",-7.785342388732811],["iendo",-7.786586732477706],["les",-7.791218297620608],["tener",-7.791499262784359],["final",-7.797503543982879],["punto",-7.797703696438997],["será",-7.806432359625782],["mucho",-7.816220053452455],["empresa",-7.823735255364362],["Las",-7.826834484097477],["000",-7.830805269082792],["uego",-7.8309597692886985],["N",-7.833003006072771],["importante",-7.8345084668913705],["primer",-7.835594340823243],[").",-7.836197042468185],["10",-7.83898800569198],["Este",-7.852449192888896],["manera",-7.857045799998041],["ahora",-7.857363788728605],["),",-7.862021970763212],["acuerdo",-7.863741722790714],["8",-7.865727966796714],["Para",-7.866736403514249],["mundo",-7.87231343352615],["U",-7.874241739174782],["co",-7.875733971731252],["qué",-7.8831461372737675],["ico",-7.884083272689424],["antes",-7.884719593053323],["‘",-7.887787466557331],["estado",-7.888798662735393],["estaba",-7.895705734924787],["familia",-7.8975490091591505],["situa",-7.90216456529293],["ba",-7.902834621279259],["zona",-7.905066559209271],["gobierno",-7.911755423140852],["estos",-7.913456019596108],["Gobierno",-7.915027129105272],["7",-7.918857836045107],["ten",-7.922149170052686],["embargo",-7.92337791660109],["tuvo",-7.925443309112455],["proyecto",-7.932807673742816],["M",-7.936025900070815],["Sin",-7.940384184377104],["servicio",-7.941195635783931],["estar",-7.945917481712548],["nuestro",-7.946279683170616],["30",-7.946423028263859],["Un",-7.9467484244454445],["Lo",-7.950075640790392],["empre",-7.950657731079434],["O",-7.951925114744248],["hoy",-7.956067299118412],["endo",-7.961748670793209],["9",-7.962980149199907],["G",-7.963838716773734],["tu",-7.964436458638412],["nivel",-7.976984244599078],["casa",-7.9785221222659715],["algo",-7.983654935685478],["grupo",-7.994673222861567],["mient",-8.00320708790565],["B",-8.00510882740451],["poco",-8.006711644826677],["debe",-8.012225972362836],["trav",-8.01395947238456],["política",-8.01975038187983],["Nacional",-8.022008140385989],["cual",-8.024555132654363],["informa",-8.040732565684444],["poder",-8.04203988894972],["tan",-8.044595692641192],["tipo",-8.058130404026926],["podría",-8.058826537649932],["18",-8.059755519578447],["hombre",-8.071329551343045],["Esto",-8.074916808482634],["Su",-8.079700501658301],["otra",-8.082537810296648],["Una",-8.086046757291404],["San",-8.086423550610778],["total",-8.087657695808144],["ambién",-8.09007397886927],["problema",-8.090966153882292],["’",-8.09315924980366],["sector",-8.094030957873755],["ca",-8.094713017165201],["autoridad",-8.099060047197792],["alguno",-8.107985591169655],["medida",-8.113072741360039],["15",-8.121006758930374],["Méx",-8.126202919661953],["mucha",-8.130380885309066],["haber",-8.136690819581187],["nuestra",-8.143905145087663],["ar",-8.147177717685288],["12",-8.14839842003301],["cambio",-8.148671396942596],["v",-8.149460086141985],["actividad",-8.153654458877241],["meses",-8.155299225044903],["programa",-8.156466820769047],["proceso",-8.156998342258184],["ex",-8.161501479854449],["dar",-8.166449385966715],["última",-8.168620169433165],["España",-8.173616373206784],["rse",-8.180425883662732],["principal",-8.181206686381085],["trata",-8.181239942509825],["él",-8.18291397532675],["I",-8.184183384472007],["fin",-8.197784187788887],["seguridad",-8.199726982208919],["miento",-8.203582663479693],["historia",-8.204515000728566],["2021",-8.20475282348529],["cosa",-8.204904492098061],["centro",-8.2057067678083],["/",-8.209802886405448],["local",-8.212159305166537],["junto",-8.212417606043271],["bajo",-8.219556741627665],["otras",-8.223674737640621],["cuatro",-8.224448106885788],["er",-8.228582345558305],["alguna",-8.23013314579358],["cómo",-8.23133316551905],["nada",-8.234660469431509],["di",-8.235553117882734],["hiz",-8.236145977608196],["agua",-8.236467929200579],["Unidos",-8.244040746971379],["ir",-8.245455492152466],["f",-8.246408208958702],["general",-8.249570170623176],["vía",-8.252843791822805],["salud",-8.254477861950711],["dato",-8.256484438259884],["gente",-8.256783287260388],["tenía",-8.256845044656654],["ta",-8.259547417072163],["resultado",-8.260033859402883],["Ucrania",-8.263715017342683],["posible",-8.275516973762466],["D",-8.282610451658709],["frente",-8.284793369380829],["señal",-8.285096380487161],["ve",-8.286192549552545],["próximo",-8.286361994511065],["sigue",-8.29120459448654],["casi",-8.293000966723774],["derecho",-8.299715921014869],["sí",-8.301457479747437],["ntro",-8.30496089201796],["nacional",-8.30614078271633],["sión",-8.306167025502404],["número",-8.309533815208113],["encuentra",-8.312006878489939],["dólar",-8.313252506395028],["persona",-8.313480403952681],["euros",-8.313699286393746],["ones",-8.315982935481902],["misma",-8.322229413832071],["grande",-8.32364632982004],["oficial",-8.32407846873192],["sistema",-8.325790971836888],["tema",-8.32719836584258],["niño",-8.328723506360285],["fuero",-8.330418985733411],["objetivo",-8.330732344216496],["11",-8.331871934517538],["í",-8.334814232525423],["cualquier",-8.335005664046273],["segundo",-8.335785493404856],["g",-8.336283777040808],["personal",-8.338373387319303],["especial",-8.342478854252157],["obra",-8.343300358799524],["unos",-8.347694013339128],["muchos",-8.348403927414493],["0",-8.35339349227307],["actual",-8.353725921410408],["decir",-8.35609235552164],["llegar",-8.357810138323218],["14",-8.358033793544482],["quiere",-8.358267011158969],["noche",-8.358815860248313],["ti",-8.3643908541432],["redes",-8.364765482878692],["ello",-8.365258251746637],["minuto",-8.369596248699226],["investiga",-8.369997845912511],["primero",-8.371216346560235],["17",-8.377585647241716],["mes",-8.383161334023338],["inform",-8.38415095681562],["Así",-8.386091824788554],["16",-8.38884927232317],["sino",-8.390024355989881],["lunes",-8.392691039854931],["usia",-8.39610079462965],["dio",-8.400836672958986],["hijo",-8.401248399074237],["viern",-8.402392675397998],["valor",-8.408472887198466],["24",-8.40974761772129],["vehículo",-8.410721741744425],["decisi",-8.412805902775732],["jugador",-8.41310868574172],["mujer",-8.414395770120867],["…",-8.416190213919176],["ju",-8.416332444875415],["mercado",-8.417610188102884],["cinco",-8.418949002538142],["público",-8.423667062679971],["13",-8.428855455891592],["H",-8.436445257977521],["paso",-8.437416867047197],["ciento",-8.438469277463286],["sentido",-8.441378405996328],["pueda",-8.443041035399048],["mujeres",-8.444479855316462],["tendrá",-8.4446065894425],["b",-8.4446600556625],["onces",-8.44480994299468],["mañana",-8.44828430060899],["lado",-8.449397373169603],["producto",-8.451638197590873],["cerca",-8.453872276174891],["sábado",-8.453964316284104],["k",-8.458547924953837],["juego",-8.459698292348728],["vario",-8.461692575725895],["aron",-8.461840858530191],["cargo",-8.466120151660974],["haci",-8.469444537563115],["ley",-8.470318247647617],["aún",-8.471071252089704],["cia",-8.471708472065004],["víctima",-8.472669754059101],["veces",-8.474205488344445],["ín",-8.475148578482905],["seguir",-8.476223345514786],["edad",-8.478526106849483],["espera",-8.479946306277741],["Me",-8.486599685253026],["domingo",-8.488786418340784],["ismo",-8.490149302913334],["uso",-8.495944342300763],["Argentina",-8.497671051576985],["realizar",-8.49843525464479],["pandemia",-8.499161586707892],["ada",-8.501140803844105],["ent",-8.502324617332699],["V",-8.502735815108396],["fuera",-8.504967319818771],["$",-8.505144926449201],["Cu",-8.505969051794878],["temporada",-8.515594201628941],["25",-8.515738222715251],["eves",-8.516035781416175],["real",-8.5194347177072],["ra",-8.519516324253665],["puesto",-8.521035241416186],["ro",-8.521287370442405],["00",-8.523911725371507],["dice",-8.524265351246164],["buena",-8.525455761518543],["fecha",-8.52640968560082],["encuentro",-8.527278363485738],["Des",-8.529832494045174],["respect",-8.530971316451573],["comunidad",-8.531023530384275],["to",-8.533622650493689],["za",-8.543773435220572],["oportunidad",-8.549646240685977],["podrá",-8.551849519363845],["tarde",-8.557666888337415],["marte",-8.55864698773544],["iércol",-8.56067198640731],["carrera",-8.565605805296794],["dici",-8.57123621978333],["segunda",-8.57183628950269],["plan",-8.572207862810775],["partir",-8.57251458791313],["diferentes",-8.578643424232625],["cuerpo",-8.591206631449245],["internacional",-8.591631091914643],["alto",-8.594742965139499],["conocer",-8.597023067953748],["pública",-8.597094416456553],["marca",-8.598299119380044],["50",-8.604316817371338],["ado",-8.604470703233655],["ministro",-8.60523986073073],["inclus",-8.605827284928699],["produc",-8.614037873648705],["mo",-8.619010757993774],["Todo",-8.62038907337587],["falta",-8.623079160136331],["prueba",-8.625068314947711],["sabe",-8.62945592552794],["fuerza",-8.630691786327276],["200",-8.631204994225715],["precio",-8.636767762575722],["serie",-8.63680418778759],["simismo",-8.637133810176891],["dado",-8.638260823537689],["varia",-8.639904703539841],["padre",-8.64364177488235],["aten",-8.6445061897807],["joven",-8.645034834228191],["pueblo",-8.646746522175645],["tal",-8.64838485062511],["largo",-8.648575650552852],["van",-8.649750706699711],["Juan",-8.652427200996875],["enero",-8.653362075306024],["Como",-8.654432819676867],["Ministerio",-8.655564029533076],["legó",-8.656973554267534],["línea",-8.65825362816829],["muerte",-8.6607137305265],["apoyo",-8.661749717399552],["población",-8.665944313748742],["amos",-8.667447991113443],["municipio",-8.667707949568815],["fuerte",-8.667720632427436],["mar",-8.670672515259088],["vi",-8.671561310260245],["participa",-8.67162263161967],["guerra",-8.673055066199339],["regi",-8.67814496938618],["Jos",-8.679507397439757],["evento",-8.680582740919121],["nunc",-8.681172124693212],["asegur",-8.681483828997479],["debido",-8.683300126563147],["ejemplo",-8.683722526156828],["mayoría",-8.685864994974516],["jornada",-8.689118381953705],["Hay",-8.69419665327181],["pues",-8.696063925064223],["40",-8.697003964215604],["K",-8.699505705750852],["nombre",-8.700043194022566],["espacio",-8.700388988155952],["causa",-8.700508760823048],["igual",-8.702225172120858],["posición",-8.70226808774183],["ayuda",-8.70908806693987],["indic",-8.710687859504045],["recurso",-8.711287946532142],["control",-8.716553386643927],["mensaje",-8.720132523200029],["seis",-8.72273645765381],["provincia",-8.723275086196917],["22",-8.723451500625387],["calle",-8.731545895070884],["líder",-8.737143051143258],["junio",-8.739104805989415],["pesos",-8.740316207740657],["unidad",-8.740743230421526],["propuesta",-8.744758652327311],["profesional",-8.744874261464506],["policía",-8.748564638773587],["propio",-8.748751741250029],["rela",-8.751254839177761],["viene",-8.752928166246281],["das",-8.75639926180602],["muestra",-8.756451536780556],["gan",-8.758193879080286],["dinero",-8.759429544149777],["director",-8.763371867929473],["Madrid",-8.763989534558842],["trabajador",-8.765665035294116],["octubr",-8.765934982099552],["club",-8.765935128029856],["2020",-8.769319863205052],["alta",-8.77186104796996],["pued",-8.772046210412643],["21",-8.773168856694266],["baja",-8.77381657384089],["novi",-8.775807498563697],["expres",-8.776426218835926],["precios",-8.778016325865028],["presenta",-8.778809464416463],["pod",-8.7795332772866],["ataque",-8.782071044299066],["ma",-8.782132024334727],["Fue",-8.784466644692364],["llevar",-8.784532787817177],["desarrollo",-8.787447943664398],["sería",-8.788365165309797],["estará",-8.789156009761395],["capital",-8.789867152663014],["epti",-8.794666430172196],["Mundial",-8.795581429429504],["poner",-8.79702055051174],["compañía",-8.797589434957263],["futuro",-8.797589713369593],["ruso",-8.799222932419845],["Policía",-8.801618708257127],["mal",-8.803106538553203],["realidad",-8.80441956004345],["riesgo",-8.805030047756347],["–",-8.805662129905418],["experiencia",-8.805662130199563],["tenido",-8.80681672822645],["hemo",-8.809612500478224],["encontrar",-8.809709245409252],["J",-8.809933598972517],["mano",-8.810712054176111],["evitar",-8.810769945681027],["estas",-8.811191410254214],["busca",-8.815568074187052],["genera",-8.817534934061387],["tenga",-8.820581794279185],["dicho",-8.822506856651113],["necesario",-8.827743365769098],["ban",-8.829202648207996],["aumento",-8.830638083511023],["100",-8.831354592629008],["ieron",-8.83233294410877],["accione",-8.834298913962506],["comunicado",-8.834950974822718],["cabo",-8.835256947285838],["pas",-8.837370946589076],["fiscal",-8.837627405096372],["Luis",-8.838653635522657],["ólo",-8.843578432713455],["idea",-8.845123735333008],["Entre",-8.847851685479856],["posibilidad",-8.848650664771124],["gún",-8.848986676511801],["juli",-8.851318415287974],["gosto",-8.855431004695378],["respuesta",-8.859823931045126],["Tras",-8.860125364704224],["familiar",-8.861106988089626],["lleva",-8.86147677335569],["agreg",-8.862881423157283],["dejar",-8.864190345263296],["necesidad",-8.866223628344494],["can",-8.868213764978218],["inicio",-8.868999229917005],["campaña",-8.870540647848403],["prensa",-8.872724265611769],["parece",-8.873393150058416],["explicó",-8.875075238561717],["económica",-8.879185704381609],["ambo",-8.879903480380372],["Europ",-8.881537121312359],["arzo",-8.88220970509828],["difícil",-8.885789242346652],["gas",-8.887048248058026],["video",-8.888252566629061],["2023",-8.88883699855125],["estadounidense",-8.89018968779829],["elección",-8.890528299590184],["nosotros",-8.89101036799055],["pez",-8.89176599911084],["calidad",-8.89415478093881],["vecino",-8.896829149353039],["amigo",-8.898220092234915],["miembro",-8.899049674449376],["municipal",-8.900683979264532],["claro",-8.903415620682445],["energía",-8.903512438558659],["trabajar",-8.904887820917857],["anterior",-8.906251474485575],["tomar",-8.908212978026755],["grave",-8.912266129116457],["mayo",-8.912364672045456],["Carlo",-8.91359722346548],["condicione",-8.914121667300297],["resto",-8.914419302933451],["palabra",-8.914748879407497],["sociedad",-8.917023421458996],["base",-8.91820550422585],["pareja",-8.918977864842255],["entidad",-8.9202598279661],["venta",-8.92081533299968],["capacidad",-8.92115032651598],["Día",-8.923651416773328],["gracia",-8.924989606988682],["madre",-8.926159757242228],["red",-8.926783117151682],["organiza",-8.927244345756439],["cifra",-8.927362156338422],["abril",-8.928034104073584],["Salud",-8.928478805243648],["recibi",-8.92974766419268],["Ha",-8.930221542539805],["permite",-8.932995353405891],["pasar",-8.935359723660284],["dad",-8.935608779282038],["violencia",-8.93760366653282],["X",-8.939714928618617],["presente",-8.940342449239074],["camino",-8.941392536670246],["Centro",-8.951606827509835],["pesar",-8.95192632209827],["vivienda",-8.954109397853763],["mantener",-8.954460284801126],["vo",-8.9545311724678],["go",-8.957958692482542],["febrero",-8.958638109454235],["23",-8.961514240622222],["haya",-8.962249116459084],["conjunto",-8.962259964707489],["uela",-8.965726621136607],["delito",-8.96956259546225],["esos",-8.971506107702623],["media",-8.973610725280654],["Durant",-8.974528532913986],["único",-8.975782019893124],["reciente",-8.977294456998141],["60",-8.97850138534649],["duda",-8.981569884635707],["afirm",-8.981608898865305],["comenz",-8.98494150125618],["área",-8.985869381448598],["alrededor",-8.986758359339023],["ingreso",-8.986843432888994],["enfermedad",-8.987375895276294],["Qué",-8.987441380593022],["Mi",-8.988072042775094],["anunci",-8.988345892570806],["presencia",-8.98881878168373],["informe",-8.990485217286656],["ganar",-8.991095771429052],["volver",-8.991202835717523],["español",-8.993128547516143],["Yo",-8.995082273857001],["diferencia",-8.996666840742932],["cuanto",-8.997144274700453],["plataforma",-8.997265421117104],["comunica",-8.997538921289067],["Ló",-8.99980960413583],["gol",-9.000381729377875],["mí",-9.000467750698185],["salir",-9.001283261908412],["remos",-9.004747374926886],["ú",-9.005659748005785],["cantidad",-9.007009135350883],["menor",-9.00753918330054],["aquí",-9.008589821831922],["Ya",-9.010745616282886],["llí",-9.010756856521988],["buen",-9.016266129020206],["victoria",-9.016972197743996],["motivo",-9.017628542374982],["cción",-9.01768629394984],["General",-9.01968009788027],["artista",-9.022039687724876],["plazo",-9.022065023204732],["inflación",-9.022337660292848],["x",-9.023339271084936],["¡",-9.023687630707933],["ciudadano",-9.025612523935061],["usuarios",-9.025628178734632],["demanda",-9.02602479335845],["Santa",-9.026861518400054],["deben",-9.02692980047783],["Twitter",-9.027034108710764],["op",-9.027607414439611],["ría",-9.02763491933778],["metro",-9.02938114853126],["auto",-9.02959897723899],["humano",-9.02979619945036],["ja",-9.030368186035062],["destac",-9.031140141152958],["pago",-9.031653135498912],["color",-9.032178991183077],["ing",-9.032830219818457],["viaje",-9.032892522617757],["ez",-9.035183453429829],["pasa",-9.03820198244842],["Ante",-9.038882604584131],["haciendo",-9.040471400702053],["pa",-9.042758952680504],["26",-9.043500973660487],["lista",-9.043801237819466],["cara",-9.043975288784281],["jefe",-9.044596866453963],["ahí",-9.046938463588527],["noticia",-9.047620744914614],["visto",-9.048173699253354],["económico",-9.050014815515235],["principio",-9.050053157855945],["película",-9.050053676435168],["compromiso",-9.050059209599029],["ningún",-9.05302815395504],["explica",-9.053297924091218],["acceso",-9.053494103377735],["trabaja",-9.056058216989824],["modelo",-9.056087736902327],["pequeño",-9.057845306150831],["hub",-9.058383478029008],["rez",-9.058505458159074],["28",-9.05952882139551],["lograr",-9.059655640324607],["libre",-9.06098864907408],["jó",-9.063176006555253],["llev",-9.064008828652991],["Ciudad",-9.068056132169215],["negocio",-9.068625679579645],["jóv",-9.068699667253735],["visita",-9.072432609617877],["iete",-9.073003062059364],["habría",-9.073648628081283],["cierto",-9.075970437553256],["lucha",-9.076240357444366],["nadie",-9.078933336114762],["ci",-9.079937520902437],["mundial",-9.0841029212224],["27",-9.08755295512082],["esté",-9.091970564285226],["necesita",-9.09403180636637],["economía",-9.094209192657136],["Venez",-9.09569249691462],["reunió",-9.095702584344002],["grado",-9.096037957617558],["ri",-9.097211220534678],["llega",-9.097475741474994],["manifest",-9.098768089790063],["suma",-9.099538911434745],["eleccione",-9.100353834678973],["próxima",-9.100461533282504],["tra",-9.101642886771764],["par",-9.102084116237082],["logr",-9.103432951305486],["ernández",-9.105700222618067],["gesti",-9.105972073635703],["man",-9.106891380035911],["efecto",-9.106902760177483],["w",-9.107658450866282],["modo",-9.108140055971322],["puerta",-9.108658427793063],["jugar",-9.11131397105758],["territorio",-9.111405550924253],["luz",-9.111410901551219],["Liga",-9.111575235682803],["Z",-9.111669140917776],["rá",-9.112833588128689],["celebra",-9.11336700733182],["Aun",-9.113805553127424],["eran",-9.114418998026732],["Re",-9.114624418401757],["fútbol",-9.116993198120426],["María",-9.119251769414166],["pudo",-9.120477195097529],["periodista",-9.122500326455462],["present",-9.12350636627195],["única",-9.123617822499742],["escenario",-9.125282400378989],["elemento",-9.125347303269356],["estudio",-9.125896657800418],["Después",-9.128049512849024],["tarjeta",-9.128049550696856],["siguiente",-9.128221612303088],["ofrece",-9.129824109531086],["ayer",-9.13017819145258],["entrega",-9.131790891037035],["campo",-9.132886750670156],["clave",-9.134691329673885],["Eso",-9.135569281052586],["dor",-9.135653130058152],["hablar",-9.136052949127603],["práctica",-9.136476482345248],["bi",-9.137080254600056],["pidi",-9.137086373891574],["paciente",-9.139242084122923],["central",-9.140247996137013],["crecimiento",-9.142139396197374],["!",-9.142295783351557],["pre",-9.142683482273963],["acto",-9.14459981392798],["edi",-9.145566108910302],["cont",-9.146140660892305],["técnico",-9.14699159938651],["queda",-9.147131207336685],["ocurri",-9.148974691498065],["popular",-9.150032747088188],["Congreso",-9.150681527397516],["sur",-9.155694191240666],["representa",-9.156036712781521],["ida",-9.156058420081882],["Que",-9.160938380008286],["Mient",-9.161276976096302],["música",-9.16509073630581],["militar",-9.170292664454795],["29",-9.170318585738059],["distinto",-9.170952353952494],["Universidad",-9.171009032457373],["habrá",-9.171009396014458],["máximo",-9.171023652379972],["hospital",-9.171480744733245],["accidente",-9.17209210539289],["impacto",-9.172309387792572],["Hoy",-9.172519448094398],["vuelta",-9.17383713952154],["República",-9.174053075159076],["realiza",-9.175622188755494],["oferta",-9.17677316741422],["defensa",-9.17677470151434],["mantiene",-9.178139655138152],["amor",-9.179126013074312],["cliente",-9.17971102704295],["localidad",-9.180864000677769],["político",-9.181066443509579],["voto",-9.18171232176194],["movimiento",-9.182694665837156],["entrada",-9.1827996391042],["delante",-9.182951726326332],["dura",-9.186024433534975],["importa",-9.186230092075425],["500",-9.1918233647229],["seguro",-9.193364301163523],["ampoco",-9.1938032882618],["realiz",-9.194011872371853],["cabeza",-9.194169094303183],["In",-9.197317893603637],["propia",-9.197562295346463],["ocho",-9.19834413251197],["orden",-9.200253564721914],["ánche",-9.200357687073883],["mejorar",-9.200936208284666],["interés",-9.203783549575915],["70",-9.205766795562724],["titular",-9.205986399911978],["decidi",-9.207008933743909],["kilómetro",-9.209608424309504],["perdi",-9.21004621382589],["gobernador",-9.211046130281037],["esfuerzo",-9.212647977215148],["éxito",-9.212648010423809],["interior",-9.212648039792093],["vista",-9.213452590294636],["favor",-9.215170196118276],["libertad",-9.215697464488425],["detalle",-9.216175899085444],["vacuna",-9.216691194877052],["contrato",-9.217352006155487],["título",-9.218756610890926],["Colombia",-9.218783623197563],["zo",-9.219935127287762],["Consejo",-9.221822693268496],["fuego",-9.221908065130705],["80",-9.22211482783006],["saber",-9.223217883216094],["ido",-9.224377136856141],["bueno",-9.225422029545266],["ga",-9.22686979893135],["argentino",-9.22798564798239],["responsabilidad",-9.228014753097042],["marco",-9.22897261307243],["escuela",-9.231111401679229],["Casa",-9.231294879092765],["contar",-9.23256727879005],["tecnología",-9.234187863560873],["actor",-9.235438146904468],["positivo",-9.236819092284652],["iniciativa",-9.237321058353118],["crea",-9.240006596210971],["década",-9.24043375414966],["eguridad",-9.242485734529023],["hacen",-9.242955408264745],["entrevista",-9.24553729569179],["Ahor",-9.246548856970886],["debería",-9.247235290405335],["golpe",-9.250178815233326],["Manuel",-9.250474125675387],["tasa",-9.252248281223448],["añadi",-9.252589105435824],["deja",-9.252743462288077],["ninguna",-9.253633112278692],["Comisi",-9.253893237371528],["sexual",-9.259400920076647],["sitio",-9.25944153361274],["marcha",-9.262991829822262],["guien",-9.263056196594002],["Bueno",-9.263915965171512],["América",-9.264220241825226],["teng",-9.265002861161065],["fácil",-9.265785393294747],["considera",-9.267812242023975],["clase",-9.268284200614742],["90",-9.268974465995745],["habla",-9.271252339211976],["llamado",-9.271351359485415],["lluvia",-9.272226633322218],["temperatura",-9.272227708011174],["ista",-9.273402264310864],["volvi",-9.275433491265915],["opera",-9.277978524665745],["candidato",-9.280493704258136],["cita",-9.281358601238573],["hechos",-9.28228070687892],["barrio",-9.282549384727805],["agente",-9.28738637871075],["ré",-9.287407287526054],["iba",-9.28839979891685],["genes",-9.288947947474734],["completa",-9.28981790173219],["Real",-9.290013015540259],["contacto",-9.29025716152353],["legal",-9.290712801858662],["31",-9.291340161467307],["conocido",-9.292770490320272],["plaza",-9.29467130649829],["ayudar",-9.294678225139812],["material",-9.294734746801652],["disponible",-9.295103427097478],["mexicano",-9.295103468690012],["ncia",-9.295577771443945],["salida",-9.295736048033163],["representante",-9.29614940444543],["Villa",-9.2967888228568],["hija",-9.29739886531886],["presión",-9.302888943891709],["alcalde",-9.303202663633344],["directa",-9.30488489342419],["fundamental",-9.305760393560629],["labor",-9.306306936412433],["detenido",-9.306743215182262],["toma",-9.307131428579419],["papel",-9.30835560263967],["or",-9.30942045232394],["comercial",-9.309849382381014],["pus",-9.3107702704142],["imagen",-9.311774802432065],["Co",-9.313460280624009],["distinta",-9.315198831296865],["estudiante",-9.315714777095678],["incluye",-9.316878424720763],["construc",-9.317436290555008],["Copa",-9.318000354586356],["laboral",-9.320394008776196],["estrategia",-9.321905679327417],["China",-9.321990649538254],["etapa",-9.32305566119985],["recibir",-9.323101355390087],["categoría",-9.325322511529738],["quiera",-9.325899994860503],["PP",-9.325985361769622],["industria",-9.326074468124808],["Di",-9.327201961299261],["inversi",-9.328949324778893],["Pedro",-9.328949699227634],["termin",-9.33062935797947],["coment",-9.332849547795995],["allá",-9.332896333767358],["diario",-9.33421892934536],["diputado",-9.33431888215799],["documento",-9.335866362369215],["fiesta",-9.3369341979535],["Garc",-9.338777207064233],["emergencia",-9.339034416673965],["rán",-9.34063150451096],["pagar",-9.341776540905308],["funciona",-9.342354663313461],["conflicto",-9.342489573388313],["llegada",-9.349747669632041],["calles",-9.349811243373672],["mandatario",-9.349832861741358],["Más",-9.349841938554956],["destino",-9.350009247715],["pasada",-9.350446217352829],["per",-9.350657714455583],["compra",-9.350775882367245],["publica",-9.350873902979504],["participar",-9.351577696301426],["asegura",-9.352013848430229],["obst",-9.352500036876208],["materia",-9.352571576200134],["torneo",-9.352943770775923],["Instituto",-9.356903150283125],["presentar",-9.358419521232449],["sub",-9.358547678809892],["estatal",-9.35995764258525],["Fiscalía",-9.360162681075483],["libro",-9.360168742846758],["amenaza",-9.361120181435561],["sali",-9.363849690534035],["realizado",-9.364050902997537],["mitad",-9.364423307996425],["digital",-9.365941150235884],["mediante",-9.366817433377363],["deberá",-9.36745802390779],["Final",-9.36921613692817],["35",-9.369356573409755],["arte",-9.370629393083641],["administra",-9.372416439113506],["disfrutar",-9.372576680510324],["reforma",-9.373082723413802],["rusa",-9.37345475633051],["empleo",-9.378261932880639],["federal",-9.378386098782965],["probable",-9.37841230836921],["Mar",-9.378775402919462],["encontraba",-9.379753929708674],["Ángel",-9.38136381897035],["web",-9.381369049194888],["justicia",-9.384518063157365],["tierra",-9.384976755388294],["denuncia",-9.385229482253106],["buscar",-9.385734311340421],["Ley",-9.387763057998303],["bo",-9.38797735677175],["policial",-9.392234443572013],["rápida",-9.392246567016477],["cri",-9.393337716969295],["sean",-9.394419685320305],["impuesto",-9.396017287989233],["continúa",-9.396757212815466],["Hast",-9.397077936402901],["consumo",-9.397560103977828],["crear",-9.398401680023223],["recupera",-9.398417752393211],["opin",-9.400652454892228],["car",-9.400952109111017],["cámara",-9.403223135444339],["vivir",-9.405791199501145],["organismo",-9.406928978193552],["Civil",-9.407017299467796],["tarea",-9.40743835138119],["contenido",-9.409177853688119],["mostr",-9.409214817014165],["—",-9.410616195835155],["Nueva",-9.410616247172527],["aspecto",-9.410616459399211],["conductor",-9.411466991313315],["regional",-9.41367723846602],["cumplir",-9.413780804638959],["Rodríguez",-9.414333667954146],["Cruz",-9.414389503589346],["confirm",-9.416904769779059],["superior",-9.418065294920561],["Chile",-9.418147883284785],["dirigente",-9.418168136219919],["imá",-9.418294105429247],["W",-9.419250650129321],["cambiar",-9.421147178825937],["quedar",-9.42149715330621],["Miguel",-9.421811297714683],["verdad",-9.421958271739205],["creo",-9.422590152952857],["incremento",-9.4230128813508],["preocupa",-9.424507638929677],["natural",-9.424511760089871],["tercera",-9.424999202082095],["pi",-9.427366508726433],["Río",-9.42936354360921],["electoral",-9.429883297848768],["indica",-9.430139584985337],["hicier",-9.431955787442156],["Secretaría",-9.433131268126285],["hacerlo",-9.433684829405383],["similar",-9.433774632851847],["ruta",-9.436578567223382],["instala",-9.438389223550917],["esas",-9.438552670955202],["Justicia",-9.440750472257406],["peor",-9.440759257386084],["transporte",-9.441241774580023],["menores",-9.443875805317402],["ducación",-9.444054807954846],["protec",-9.444418968532592],["artículo",-9.44458168539722],["podía",-9.44702898625047],["muri",-9.447032470562343],["existe",-9.447426929971053],["interven",-9.4487598757838],["empez",-9.45034478863733],["Son",-9.450975173600359],["45",-9.451245146753434],["Ayuntamiento",-9.45228884495414],["cuarto",-9.45228897883035],["COVID",-9.452289037112802],["aquello",-9.452345915169081],["señala",-9.453293375534589],["incendio",-9.453356354069614],["Presidente",-9.453789241315587],["pena",-9.45483674294436],["Uno",-9.455110269284035],["judicial",-9.458034071989129],["aire",-9.458831709866221],["Brasil",-9.459247286175543],["cantante",-9.460072258221754],["avance",-9.460079747458462],["armas",-9.460630825755665],["amplia",-9.461535675229872],["aba",-9.461587539248782],["sufri",-9.462046640105065],["animal",-9.462545712890577],["Cámara",-9.463964505388443],["conocimiento",-9.46405737647138],["institu",-9.466287530784015],["Putin",-9.467885248785485],["norte",-9.469406322654553],["dosi",-9.471090159860559],["operativo",-9.472584663310395],["sostuv",-9.475435499121],["Aire",-9.476005851794447],["significa",-9.476123581409801],["conseguir",-9.477050049874375],["atrás",-9.478357359496687],["ándose",-9.478879974765736],["com",-9.479430794870565],["niña",-9.480248669470477],["Ejecutivo",-9.480262752120414],["j",-9.481102436136172],["paz",-9.481109583215055],["periodo",-9.481184813522193],["suficiente",-9.483142824718442],["herramienta",-9.483725575897852],["edificio",-9.483725593843474],["manos",-9.484633588246567],["figura",-9.48502769842631],["cultura",-9.486201187503948],["firma",-9.487236980791877],["generar",-9.487274893508062],["juicio",-9.487562835295066],["bastante",-9.487735685910502],["contexto",-9.489380132721342],["ucraniano",-9.491747449591745],["reducir",-9.49384656626507],["Francisc",-9.494094411773503],["Internacional",-9.496013417330378],["gasto",-9.496434353061623],["estrella",-9.499034505261903],["colabora",-9.499526917384573],["fuentes",-9.500893049827168],["Ten",-9.503481460565236],["verano",-9.505005564849029],["gusta",-9.506645629575797],["Social",-9.507763670318301],["Barcel",-9.507978931232014],["carga",-9.510539789987284],["fun",-9.511431653524365],["oficina",-9.512068399456897],["ocasione",-9.512255428461266],["Albert",-9.512930592781114],["término",-9.516182742301648],["frontera",-9.516250344414782],["ejercicio",-9.516548710541688],["máxima",-9.516611248873243],["curso",-9.517486788885845],["declaraciones",-9.517783338119955],["usar",-9.51861490819578],["continuar",-9.519119110564564],["direc",-9.51923034498597],["°",-9.520314972352882],["competencia",-9.520314972937916],["premio",-9.520325011094055],["hermano",-9.520465414620215],["mesa",-9.52158276170285],["deuda",-9.521791912318982],["tercer",-9.523029755548524],["apena",-9.523079985059606],["habl",-9.524003352534097],["pérdida",-9.52446434994931],["Cómo",-9.524484285728468],["ización",-9.526123714501985],["secretario",-9.526946218044326],["alcanzar",-9.527282696956846],["pensar",-9.527861365021074],["género",-9.528636563686407],["triunfo",-9.529536457768135],["clara",-9.529965842579031],["escribi",-9.530194144810675],["afectado",-9.531677636692256],["pedido",-9.532573958697999],["ter",-9.53283896869112],["Cabe",-9.53369358993288],["normal",-9.534258643335278],["banda",-9.534655205655785],["ur",-9.534715077443629],["ch",-9.534881346013307],["integrante",-9.53494661278848],["diálogo",-9.537017243996175],["arma",-9.53704298220751],["cio",-9.537137968596603],["tratamiento",-9.5381084874722],["po",-9.53820223800161],["Ram",-9.539280910176835],["ero",-9.539927117989091],["record",-9.540821203838215],["médico",-9.541130760025414],["estadio",-9.542241603461001],["peso",-9.543026359792275],["Franci",-9.544329466268408],["pide",-9.545123193923043],["Jorge",-9.545473760224493],["The",-9.546150188495936],["aplica",-9.54616752989016],["ventaja",-9.54661214024695],["reuni",-9.547088006259067],["EE",-9.547161482157746],["sacar",-9.549812830901086],["perder",-9.550500669567814],["hará",-9.551341468634476],["ton",-9.551524464769743],["razó",-9.554998977078291],["Banco",-9.555554975721018],["juez",-9.55562380693047],["caída",-9.557652626382357],["penal",-9.558080693237743],["amarilla",-9.558446874980397],["fase",-9.558780321019455],["confianza",-9.558998550937366],["negocia",-9.559350877071076],["34",-9.562971341872691],["daño",-9.563219236525212],["declar",-9.563354379360096],["declara",-9.563757004929986],["empleado",-9.56393024886697],["coche",-9.565327156946147],["funcionarios",-9.565611598289312],["cierre",-9.566934556457626],["Otro",-9.567149678664261],["sueño",-9.5683853424793],["alimentos",-9.569955564588058],["Pablo",-9.57128382482472],["Qatar",-9.571284536060894],["Martín",-9.571882985903743],["ven",-9.572418696307974],["comenzar",-9.573579685725058],["bilidad",-9.573983543890396],["referencia",-9.575085640646638],["particular",-9.575609560301924],["teléfono",-9.575648151582495],["pequeña",-9.575648375437368],["che",-9.576959505371399],["responsable",-9.578471599907544],["afecta",-9.579823305503481],["quería",-9.58044758107981],["registro",-9.580609409051212],["institucion",-9.58073169061022],["completo",-9.581808602850371],["supuesto",-9.581896025559066],["terminar",-9.582512285886931],["cree",-9.58457818297908],["convertir",-9.584787129025436],["abogado",-9.585090204741284],["banco",-9.585268139150404],["mostrar",-9.58771933753636],["llegado",-9.588195620708701],["Per",-9.589004991919278],["Biden",-9.589088805363982],["cultural",-9.589397863021201],["quién",-9.593313985463745],["llamada",-9.593765917357196],["diez",-9.59383033195087],["tratar",-9.594170162569045],["mis",-9.5972992397562],["cadena",-9.597406814252718],["abierta",-9.597772973102813],["covid",-9.597774535659314],["cuál",-9.597780196202466],["André",-9.597811139254341],["común",-9.59782035586138],["Ar",-9.598827498826022],["esión",-9.600976619026587],["encima",-9.601168734489304],["González",-9.602267502303825],["muerto",-9.602334420776236],["global",-9.602384547863718],["personaje",-9.60249775925294],["Antoni",-9.60266138904202],["encontr",-9.603341558339839],["debate",-9.603663861241188],["entorno",-9.603764043003208],["ina",-9.604256968678403],["entrar",-9.605603722962112],["Covid",-9.606795661270132],["error",-9.609600082197472],["página",-9.61130390688968],["discurso",-9.611314848600784],["obtener",-9.611464257439703],["tendencia",-9.611526239278216],["dolor",-9.611821290661327],["cumple",-9.611919799653638],["planta",-9.613720050140866],["pese",-9.614128452930071],["ministra",-9.614474419267875],["jo",-9.615150659773336],["vive",-9.616759313194285],["Gran",-9.617130759703347],["ambiente",-9.617269246726671],["anti",-9.61769695578113],["ocurrido",-9.61836724685271],["física",-9.619782659693275],["tráfico",-9.620450727052283],["Perú",-9.620525324829828],["comprar",-9.624674480591437],["presupuesto",-9.625099769750939],["asocia",-9.625278069653229],["autor",-9.625387978240314],["espacios",-9.628608856606888],["recordar",-9.629528710450764],["abierto",-9.62959373102554],["Hospital",-9.62959886053925],["entrenador",-9.62978311097557],["productor",-9.6297856864883],["conoce",-9.632103542345318],["disposición",-9.635102683816374],["requiere",-9.636415689109878],["departamento",-9.638874522702686],["Alemania",-9.6388752480971],["nueve",-9.638875376801817],["prepara",-9.639156565109966],["Bar",-9.640043735915876],["cay",-9.641146031686713],["vuelo",-9.642918729839764],["Alejandr",-9.643547423503758],["usted",-9.64361982324666],["rival",-9.643644025113549],["factor",-9.64528263245436],["ña",-9.645446786685142],["acusa",-9.645745209885549],["diferente",-9.646697020797731],["cuyo",-9.648423441622867],["prisi",-9.649499746909925],["altura",-9.651075753976212],["Ro",-9.651823305842854],["necesaria",-9.652497632705057],["vio",-9.65264363771641],["móvil",-9.652826244649457],["Obrador",-9.652992482151054],["promedio",-9.654079668838094],["realizará",-9.65511052722863],["Ju",-9.655273017071675],["cha",-9.656568382211184],["Municipal",-9.65711650880093],["cuidado",-9.657294217013888],["correspondiente",-9.657704491371799],["comida",-9.657870950120445],["virus",-9.65787704802193],["lisi",-9.658543375797398],["ble",-9.65890774169149],["rigen",-9.662067250913413],["posterior",-9.662460518452836],["mínimo",-9.66246926423371],["habitual",-9.662663835918973],["diseño",-9.663612761038063],["protesta",-9.664423477252836],["pone",-9.665132699227033],["recibido",-9.669257741469771],["venezolano",-9.672052853776837],["36",-9.673689723318216],["Del",-9.67493687695632],["políticos",-9.675632728126114],["provincial",-9.676383843568958],["técnica",-9.676653432546964],["Torre",-9.676698245702145],["herido",-9.676868438126547],["pobre",-9.676936972183881],["enorme",-9.676943820070914],["cre",-9.67702428306314],["th",-9.67809638554164],["reporte",-9.678653147916616],["trabajan",-9.678816605520495],["pro",-9.678888256133165],["canal",-9.680279227114603],["esperar",-9.680515189236035],["cris",-9.680860988184598],["Sur",-9.680970366292312],["estructura",-9.681551169232602],["carretera",-9.681738154389151],["Martínez",-9.681893012432747],["empresario",-9.682173703545818],["efectivo",-9.683537540570649],["Pi",-9.68501150476003],["registr",-9.686404028672081],["Puerto",-9.686637839083598],["supone",-9.686780713098893],["objeto",-9.686989033550976],["%)",-9.687069576207495],["funcionario",-9.688199622869764],["anual",-9.689125186992852],["registrado",-9.690310190233546],["qui",-9.691177985973994],["dispositivo",-9.691552911369687],["Hace",-9.693350140958954],["darle",-9.695460917353465],["española",-9.699614945434124],["ubicado",-9.700092067009074],["precisa",-9.700284449734546],["izquierda",-9.701394752298036],["Federal",-9.701939162936593],["hacía",-9.702336514004564],["reduc",-9.702580852817945],["doble",-9.703082184700303],["vaya",-9.703606596091218],["amba",-9.704409579970074],["funcione",-9.705469203976222],["Santiago",-9.706371663849993],["combustible",-9.706394495241437],["hogar",-9.706897327942045],["inten",-9.707849704383436],["haga",-9.708436275465257],["publicado",-9.709045129362151],["tor",-9.709069385953578],["río",-9.709696556421562],["aná",-9.710024334544432],["erán",-9.710396426030329],["compara",-9.710896335206487],["Ent",-9.710972989821862],["propiedad",-9.711385688302483],["comercio",-9.711403785434307],["Norte",-9.711485041259944],["privado",-9.711916723563853],["vuelve",-9.714264759081487],["trás",-9.715276163344562],["enfrentar",-9.715344879633985],["televisi",-9.715564932374264],["sancione",-9.716651962994268],["domicilio",-9.716761634733373],["anuncio",-9.717747200906345],["obliga",-9.718125595646843],["relacione",-9.718769729458412],["acusado",-9.718923057179818],["Go",-9.718957194902277],["derecha",-9.721023605715867],["futbolista",-9.721241194061147],["Central",-9.721448976525107],["actualidad",-9.723723822199425],["33",-9.724526128412531],["Leó",-9.724924297901643],["pantalla",-9.725173103298307],["dando",-9.725683275553308],["ocas",-9.726178861774024],["velocidad",-9.726521658931244],["Sobre",-9.726525169767708],["terreno",-9.726528927802438],["agencia",-9.726599410206678],["Fernand",-9.726641496218054],["75",-9.728152519028495],["tienda",-9.729044654248767],["Defens",-9.730541870390091],["campe",-9.730851096987244],["Instagram",-9.731623696101032],["pronto",-9.731692065417274],["fondo",-9.732100919139533],["pase",-9.732153655498976],["naturale",-9.733191697244237],["presentado",-9.73371939579349],["garantizar",-9.73376732114082],["tuvier",-9.73469895671942],["’,",-9.73526768809193],["isla",-9.736309939109281],["herida",-9.736786396570846],["Lu",-9.736847213185431],["siglo",-9.737557889783371],["investigador",-9.740546135159743],["utilizar",-9.741112781916337],["droga",-9.742108835911107],["cuesti",-9.742370403384518],["afirma",-9.742591299210162],["época",-9.742592070485872],["derrota",-9.74407156416341],["cu",-9.74486465715069],["texto",-9.744865090241806],["300",-9.746031872991457],["utiliza",-9.746875012419508],["conferencia",-9.746943321476131],["Pública",-9.747087881729925],["histórico",-9.747087881891972],["infraestructura",-9.747093706247693],["constante",-9.747132110090226],["Cristi",-9.748135670539352],["Educación",-9.74835293878228],["visitante",-9.749130453924689],["rápido",-9.752313490251005],["acerca",-9.752700644272258],["contrario",-9.752982915681796],["talló",-9.75325641088548],["dicen",-9.754355006906799],["hi",-9.75436713793997],["ús",-9.754501236691663],["Pro",-9.756468773199549],["Partido",-9.75762035677091],["salario",-9.758288026084621],["solu",-9.758777194917943],["solicitud",-9.759262504555915],["siente",-9.759410980162336],["voy",-9.760521308372336],["pie",-9.760982195762484],["coraz",-9.761466291425812],["recuerda",-9.762924135316778],["iniciar",-9.762998139168799],["sol",-9.763540227158668],["Toda",-9.763716026716079],["Juli",-9.764241540257988],["32",-9.764493767251807],["empezar",-9.764890514843913],["Dios",-9.76646666628028],["’.",-9.766668452615932],["adelant",-9.766792657825004],["rio",-9.767088386190283],["asunto",-9.768185407314554],["concluy",-9.768263462129768],["poca",-9.768664282467647],["dicha",-9.768705858819484],["pregunta",-9.76903011652283],["previa",-9.770016134359233],["expertos",-9.770752416409938],["dejado",-9.77087155178199],["recuperar",-9.771652251818974],["asistencia",-9.772088992301473],["Club",-9.773405731833579],["Pérez",-9.773412898577643],["búsqueda",-9.773435483473925],["docente",-9.773508634406825],["horario",-9.774135182323352],["esposa",-9.775505347151341],["quiero",-9.778844248787816],["atender",-9.7790798538346],["afectada",-9.780335098242997],["lejo",-9.781125749882909],["presidenta",-9.78119882951388],["aquella",-9.78162629788322],["Costa",-9.782640737299463],["consecuencia",-9.78313920424739],["comparti",-9.783505778019407],["ki",-9.783730180418235],["resulta",-9.783774050934198],["límite",-9.784129677779232],["síntoma",-9.784155324263914],["tus",-9.78563361541676],["consider",-9.787633609204818],["produj",-9.78953448082924],["comentario",-9.789879455596175],["acceder",-9.790305688661384],["inició",-9.790760116499094],["larga",-9.791034923892425],["alerta",-9.792671580870302],["Ca",-9.79306759170561],["civil",-9.794511259097572],["madrugada",-9.794969255130285],["exterior",-9.794969260522143],["trasladado",-9.795823341444365],["65",-9.79703296490647],["habitantes",-9.799137798389033],["beneficios",-9.799197180039723],["negro",-9.800450301981979],["je",-9.800500227647301],["privada",-9.800505218502959],["miedo",-9.80085192094711],["turno",-9.801292753853275],["reconocimiento",-9.80151116212171],["400",-9.801718032043958],["peligro",-9.803025857786302],["ciclo",-9.80324474183083],["vacunación",-9.803540461047117],["participante",-9.805359705353663],["justo",-9.80551237138573],["actri",-9.805943705710835],["establecimiento",-9.806071180304581],["respeto",-9.80701130158383],["public",-9.807434071242294],["áreas",-9.809131468522594],["Dieg",-9.81112593822903],["Grupo",-9.811453450892511],["aumentar",-9.811628636348122],["entender",-9.811911223147494],["suelo",-9.812343493135193],["Europea",-9.812811990873868],["48",-9.813104169104168],["diverso",-9.813106253619114],["costo",-9.814235354253656],["compañeros",-9.815069157296215],["deporte",-9.815207310614198],["diversa",-9.81585882470742],["Asocia",-9.816081402783281],["Valencia",-9.816815410931145],["adulto",-9.817024139614762],["adolescente",-9.817744754743785],["ofrecer",-9.817774179021326],["im",-9.818781668688016],["crim",-9.818860251592504],["potencial",-9.819289029527715],["Corte",-9.819907982148244],["seguirá",-9.820619143652202],["hotel",-9.821721578586203],["existen",-9.822480433000901],["nota",-9.822487514549218],["delantero",-9.823076926857537],["parque",-9.825844830374898],["directo",-9.825862022085676],["Mo",-9.82600282475192],["Cuba",-9.826728031363386],["audiencia",-9.826760970074092],["38",-9.82803601853282],["especie",-9.82821461018862],["sujeto",-9.828221057473787],["democracia",-9.828372649154378],["especialista",-9.830049748914277],["médicos",-9.830506568247511],["sentir",-9.831259316628481],["continua",-9.831550554005535],["alza",-9.831958778840121],["exporta",-9.832089889923385],["agenda",-9.83210765807777],["potencia",-9.832580660296465],["alumno",-9.833863778765426],["esperanza",-9.834111010892137],["fondos",-9.834624023165585],["registrar",-9.839418911809727],["seguidor",-9.839550116651825],["estilo",-9.839551206548208],["escolar",-9.83956032329717],["comisi",-9.839592112006121],["cerrar",-9.840490183875247],["resolu",-9.841952861630805],["portavo",-9.843519518586662],["precis",-9.845116757593015],["norma",-9.845201987092295],["activa",-9.845217498574463],["Desarrollo",-9.845259196805237],["coronavirus",-9.84529874652873],["implica",-9.847602526796884],["jug",-9.847923582381542],["rol",-9.848134614195434],["médica",-9.851006186186776],["período",-9.851006221822189],["super",-9.851248453942475],["piloto",-9.85127477485994],["invasi",-9.85163821537579],["destaca",-9.852535717045527],["esperan",-9.8540344262993],["bal",-9.854349406441765],["Car",-9.85508997618745],["europeo",-9.856786566433616],["ucraniana",-9.856786780138052],["Derecho",-9.856786819481426],["previsto",-9.85697541068042],["cine",-9.857671271570828],["desarrollar",-9.85814521333026],["Nicol",-9.85879609690322],["tendría",-9.85880390172912],["abrir",-9.85920513620285],["mental",-9.859374091436342],["aproximada",-9.859476719959599],["escuchar",-9.859685316750308],["corto",-9.859837052734076],["Está",-9.859902682927729],["ás",-9.861528792630622],["intentar",-9.861729030412494],["eléctrica",-9.862591333320227],["ámbito",-9.862600523523696],["Tribunal",-9.862602406472991],["musical",-9.8626034548012],["extranjero",-9.862758857536843],["Vi",-9.86357331933353],["informado",-9.863703684129922],["lin",-9.864418712041768],["ilegal",-9.864751214947841],["activos",-9.865535942672881],["ces",-9.866328814419312],["Direc",-9.866705641640774],["inicial",-9.867533238924983],["bió",-9.868024966802516],["apunt",-9.87040394162169],["trabajos",-9.87082464089832],["estima",-9.870865566473743],["Guardia",-9.871460070409238],["intento",-9.873487271747752],["ria",-9.873519709982045],["advirti",-9.874330787022904],["viento",-9.874434295477435],["Plan",-9.87467723454548],["tomó",-9.874809781730475],["franc",-9.875988737236986],["ito",-9.876114253223363],["chico",-9.876228363946533],["profesor",-9.876872142168374],["fallecido",-9.87733281786226],["Ni",-9.87879104610641],["concierto",-9.879113140612438],["crédito",-9.880247942941228],["hubiera",-9.880257470651697],["Palacio",-9.88026388797676],["apertura",-9.88031220748412],["consumidor",-9.880668920902707],["rendimiento",-9.880995340244628],["recorrido",-9.881316890033952],["clasifica",-9.882038754944691],["Creo",-9.882741949938783],["bloque",-9.88361629973857],["pendiente",-9.883857877918523],["deportivo",-9.883900441392067],["mejora",-9.884755309577656],["razon",-9.885040475684985],["incidente",-9.885157643938093],["foto",-9.885228364763611],["distancia",-9.885978637853501],["turismo",-9.886304982255725],["lanzamiento",-9.88631728555709],["estudios",-9.88663077270347],["PS",-9.887626515274611],["nacionales",-9.88889540737972],["apoyar",-9.891736701101163],["pedir",-9.89181418864183],["querido",-9.891982689434892],["característica",-9.892188348170633],["porcentaje",-9.892188395780463],["ciudadanía",-9.892189818772835],["blanco",-9.89219912269364],["Plata",-9.892282159230055],["Unió",-9.892357685587267],["perdido",-9.893204124311133],["dará",-9.894851571275614],["llama",-9.894957868810225],["Santo",-9.895181215555231],["directora",-9.895849908647346],["lesion",-9.89639962543023],["Po",-9.896987335936668],["cierta",-9.897092060469356],["bar",-9.897862028645264],["pelea",-9.897889722817053],["York",-9.8982148015333],["enfrenta",-9.898507848119188],["pieza",-9.898582443336384],["Hernández",-9.898703314545296],["Unido",-9.898762109062162],["original",-9.899455532555619],["fines",-9.900037008559568],["tribunal",-9.900092171083061],["tramo",-9.900222390944624],["robo",-9.900832693247157],["ocupa",-9.90369587344572],["permiti",-9.903846489270398],["dependencia",-9.903896620928965],["migrante",-9.904082196269602],["Público",-9.90427304989592],["tren",-9.905290798627261],["relacionado",-9.906917869136363],["firmado",-9.908161624784249],["compartir",-9.90860540357609],["Cor",-9.90915003136553],["ran",-9.909918021561449],["destacado",-9.910698019211933],["Ma",-9.910843234669208],["OTA",-9.910851497388594],["interese",-9.914765256096748],["Solo",-9.914778031845927],["señalado",-9.915130425484026],["carta",-9.91580365811141],["perfil",-9.91661132182795],["Jes",-9.919244956391118],["+",-9.92080251876285],["presidencial",-9.921147380930865],["presunto",-9.922706488255205],["procedimiento",-9.922775447044685],["corrup",-9.923466267651248],["pan",-9.925800187773024],["vivo",-9.926923279954611],["solucione",-9.927374289778307],["Cad",-9.92824690787889],["permanente",-9.928889612083161],["fotografía",-9.928897973064046],["colectivo",-9.929174441202875],["segui",-9.930166660453104],["fi",-9.930269396258264],["vivi",-9.930368315021248],["gener",-9.931278828128805],["respondi",-9.931638386688297],["37",-9.932706553757294],["Man",-9.934139769473934],["comienza",-9.935140123586358],["protagonista",-9.935146374884438],["inmediata",-9.935242420450685],["result",-9.935771418327846],["Va",-9.935993148786354],["superar",-9.936237665538677],["Departamento",-9.93642260431968],["beneficio",-9.937737192353065],["vota",-9.937900785835762],["tri",-9.939294683093966],["puesta",-9.94061461833245],["motor",-9.941057600860802],["incluido",-9.941428908099283],["homicidio",-9.94142891003773],["interna",-9.94152445389586],["calor",-9.943984575879146],["sumar",-9.944109004970201],["conocida",-9.944200935969878],["cor",-9.944256572576428],["escena",-9.94438529482461],["llevado",-9.945272288689113],["US",-9.94547569293033],["vino",-9.945626826603515],["mas",-9.947241685696987],["espectáculo",-9.947758021949824],["Nuevo",-9.947758040818904],["identidad",-9.947767548294276],["instancia",-9.947785177708589],["suerte",-9.947811958718171],["vídeo",-9.94790925979876],["actuar",-9.948422281447197],["perro",-9.948552068035147],["suministro",-9.949317472383239],["anunciado",-9.94951181760013],["destacar",-9.95031055030646],["operacion",-9.950982437133574],["torno",-9.951513043156531],["Be",-9.951520662717448],["ura",-9.95258258192871],["gimen",-9.952665699208342],["revel",-9.952973040810962],["ritmo",-9.953787246553116],["trimestre",-9.95412763034533],["comienzo",-9.954127722185596],["Alguno",-9.95413983198587],["convocatoria",-9.954142916522246],["alternativa",-9.95414432048201],["David",-9.954147091130249],["respectiva",-9.954181002340736],["independiente",-9.954257613682453],["meta",-9.956234728817273],["region",-9.956823251278887],["tradicional",-9.956996076883303],["estaría",-9.957086160919115],["ho",-9.957098033278346],["mez",-9.957174558728159],["ira",-9.957389383372778],["apuesta",-9.957799016947009],["UE",-9.957799391274545],["públicos",-9.957831817936869],["implemente",-9.95832003730738],["Castillo",-9.95913284474921],["récord",-9.960537869703064],["Val",-9.96163540953932],["line",-9.961709279389144],["múltiple",-9.963402358631168],["avenida",-9.963501898094428],["Servicio",-9.964141750881199],["chi",-9.965504289175264],["permitirá",-9.965533516857242],["Tiene",-9.965666709770126],["fo",-9.966179326129346],["subida",-9.967208999555876],["regreso",-9.967229237969981],["ropa",-9.967637168407522],["consulta",-9.967673551523603],["Álvar",-9.969618333510214],["revis",-9.972138333956718],["resolver",-9.972437376011634],["combate",-9.973011400391185],["sorpresa",-9.973484753537495],["discusi",-9.97348511796024],["asesinato",-9.973486440293923],["Federación",-9.973516727629303],["Sergi",-9.973527608262447],["logrado",-9.973949126920251],["cerr",-9.974998287370575],["Reino",-9.975222801757337],["cielo",-9.975241675803613],["Otra",-9.975788331593986],["res",-9.976096804070373],["avanzar",-9.977640242083739],["dificultad",-9.97779035890585],["solicitar",-9.978620028858003],["proteger",-9.97864056814224],["duro",-9.979171389576285],["refiri",-9.97945830844513],["temporal",-9.980019395750508],["financiero",-9.980035424379261],["Javier",-9.98007673556566],["pleno",-9.981525607437607],["Constitu",-9.986583344287913],["demasiado",-9.986597803327289],["histórica",-9.986597990442593],["Italia",-9.98660663230062],["prevé",-9.986729000453716],["fuente",-9.986827713844878],["rueda",-9.987649347585673],["contagios",-9.989790738402597],["piso",-9.990100074435402],["gar",-9.991322978005513],["residente",-9.992226568103112],["virtual",-9.993220825164784],["inmediato",-9.9932993897744],["mir",-9.994638793395492],["mensual",-9.994935882161274],["Moren",-9.995767962124745],["previo",-9.99668276533409],["realizada",-9.9966875524152],["85",-9.996901342272096],["disparo",-9.99908578935578],["convirtió",-9.99988690805232],["absoluta",-9.999913508694322],["actuación",-9.999982546923551],["cancha",-10.000106083595334],["asegurar",-10.00095042361447],["condi",-10.001921235407195],["organizacion",-10.003260685241933],["reserva",-10.005534630311367],["Wi",-10.005794762956995],["ronda",-10.006573290591014],["Mari",-10.006636449297012],["arriba",-10.007360967160363],["buscan",-10.007729400717377],["celebrar",-10.007754069909364],["anteriores",-10.010310333892438],["reto",-10.010939042116922],["sentencia",-10.011365667606432],["bio",-10.011587308760388],["exposi",-10.011653533141915],["ciencia",-10.011700408203398],["construir",-10.012004403517427],["moviliza",-10.013256847015171],["petróleo",-10.013355069635086],["Fuerza",-10.01335617438394],["restaurante",-10.013401648299567],["parecer",-10.013407480491772],["decía",-10.014387592016925],["km",-10.015248310544852],["ka",-10.015719131024408],["55",-10.01594238842174],["ama",-10.016660644756705],["señalar",-10.016742321087701],["dirigido",-10.017858660191067],["feliz",-10.020162836614336],["permita",-10.020212943054858],["fu",-10.02053597516993],["opcion",-10.020582896482498],["falleci",-10.020732673074296],["convertido",-10.020844099874049],["cuya",-10.02089515026777],["concreto",-10.022899652736108],["consecuencias",-10.0235083754993],["tar",-10.024803796982468],["establecer",-10.025855728669338],["testigo",-10.027013607955542],["complejo",-10.027016686094335],["pos",-10.027285463170628],["Ana",-10.027478435926163],["pic",-10.02774738598215],["ubica",-10.028886894335216],["asegurado",-10.029567519403862],["abri",-10.02975761601919],["llena",-10.03025180437323],["Daniel",-10.031060866169614],["ocurre",-10.032103741275698],["plena",-10.032380507857066],["vuelto",-10.033203006994412],["John",-10.033906256040352],["expectativa",-10.033912673443572],["visi",-10.034067485584071],["reconoci",-10.03559749890129],["44",-10.035881936437455],["42",-10.036667619857578],["empate",-10.03753626324324],["segura",-10.038215558826025],["observa",-10.03846333092294],["agresi",-10.039061844337775],["viajar",-10.039156566896956],["alifornia",-10.040842883557936],["distrito",-10.040851199142951],["episodio",-10.040852683685218],["concepto",-10.040901859892518],["Comunidad",-10.040979370538576],["establece",-10.04099723380197],["pasajero",-10.041080367686153],["MI",-10.042968521621688],["inter",-10.043508759100714],["mencion",-10.044472834598835],["conomía",-10.044885344667382],["39",-10.046355293692281],["Actual",-10.046591743454014],["esperaba",-10.047163136312765],["colombiano",-10.047841108276318],["Organiza",-10.047842367523344],["básico",-10.047843990570716],["Mosc",-10.047879611926604],["cárcel",-10.048213813470658],["Junto",-10.04915228997335],["sigui",-10.049950276875299],["Mon",-10.051244333450502],["restric",-10.052611355052179],["invita",-10.054695150429142],["cáncer",-10.054930652442351],["asistente",-10.055031880586954],["Poder",-10.055080594468857],["extra",-10.05700989148126],["ganador",-10.057690870466176],["confirmar",-10.058204415936132],["usuario",-10.05882728376503],["Unidad",-10.061393156545995],["gira",-10.06167964894127],["dueño",-10.06197622422507],["circula",-10.06278171465906],["ab",-10.063477055059174],["ubicada",-10.06396741926888],["cercano",-10.065785982983854],["señor",-10.067812758373782],["able",-10.067839229771472],["pista",-10.06821330314683],["requisito",-10.069119497914444],["concentra",-10.069852509485326],["ingresar",-10.070558987034275],["Paz",-10.071437543980274],["corte",-10.074386254799926],["vacacion",-10.076216301969204],["Escuela",-10.076315167871183],["consejo",-10.076327278209522],["Protecció",-10.076333087424345],["duelo",-10.076338426779609],["nuclear",-10.076349111199502],["ita",-10.07664528690103],["pretende",-10.077395419948244],["encuesta",-10.078147365114141],["elegir",-10.07817804219292],["mandato",-10.078252295952531],["subray",-10.078673362590813],["suele",-10.080231205084539],["intent",-10.0806908427265],["marc",-10.08088249541504],["llevan",-10.081470620315706],["actitud",-10.083254926334622],["trámite",-10.083559041776686],["cuarta",-10.083559612163809],["amonestado",-10.083569170577341],["reconocido",-10.083922080272618],["sangre",-10.084111009551005],["99",-10.085053513694662],["podi",-10.086523442201564],["conoci",-10.086625811311771],["piel",-10.087263161596248],["Paul",-10.088233136481515],["factura",-10.088408051886253],["46",-10.088413865257074],["transmisi",-10.090225102933415],["Uruguay",-10.090858309258355],["desafío",-10.090861110226975],["transforma",-10.091753186702562],["Messi",-10.0919158840133],["II",-10.091951870069721],["viven",-10.09282889921461],["val",-10.092829464553274],["eta",-10.093211709233305],["provoc",-10.093611738239144],["600",-10.097445339488065],["mexicana",-10.098211255241672],["inglés",-10.098216797313158],["memoria",-10.098227595400541],["turista",-10.098512770127854],["imposible",-10.098568070031458],["abuso",-10.098598774523373],["cará",-10.099276061929483],["playa",-10.101261826199973],["reconoce",-10.101760860304946],["tanta",-10.10195021449099],["acompañado",-10.10222422936982],["criminal",-10.102415927969771],["coste",-10.10254308051601],["app",-10.10286096570153],["trabaj",-10.103383344721635],["plicación",-10.103760729448812],["Col",-10.10484200843646],["Fren",-10.104958135632408],["Inclus",-10.105496667108469],["científico",-10.105618659642843],["educativo",-10.105618679509588],["alianza",-10.10564888434088],["planeta",-10.105719410745579],["aban",-10.106016779948156],["juega",-10.106129640329437],["Robert",-10.106170779835715],["legislador",-10.106405979598206],["cerrado",-10.106569170644612],["evidencia",-10.106741838949377],["responsables",-10.106945706303872],["hayan",-10.10714384484],["cal",-10.107191986706521],["cter",-10.107221519132572],["identificado",-10.10795101927787],["entr",-10.109563795707635],["explicado",-10.109858533205948],["necesitan",-10.110303508507533],["ún",-10.110664513382702],["talento",-10.111444664341594],["sanitario",-10.113047339893782],["http",-10.113081349386082],["tormenta",-10.113082983144848],["ideal",-10.113084871888205],["financiera",-10.11311878535022],["tránsito",-10.113373264713461],["Gracia",-10.115476298752295],["integra",-10.115497083131359],["subir",-10.116071791484302],["presencial",-10.116161573039747],["industrial",-10.116654111370414],["ofreci",-10.116779837701653],["Trum",-10.117097008264388],["viendo",-10.118255502946848],["illa",-10.118872112436875],["of",-10.118985257222334],["llamar",-10.119120883988138],["iz",-10.119774441238764],["Washington",-10.120600141216663],["colegio",-10.120602191588716],["invierno",-10.120626030548113],["presunta",-10.12063824415345],["defender",-10.120803156415025],["apunta",-10.1212912587708],["vigente",-10.121681467117842],["órdoba",-10.121951325373145],["cam",-10.122539870727891],["PC",-10.122867001581277],["it",-10.122932016819854],["Cultura",-10.123375626021506],["distribu",-10.123880448957317],["bajar",-10.124758796605704],["monto",-10.124913098195911],["Gó",-10.12555166409821],["Kie",-10.125617350078269],["puerto",-10.125820963028026],["Ver",-10.126757865672914],["Mujer",-10.128250944221076],["sanitaria",-10.128352453697417],["llegará",-10.128506259091704],["fan",-10.129111774254392],["quis",-10.12968482539857],["Tal",-10.12998475380962],["cero",-10.130831512094131],["menes",-10.131294643977117],["adas",-10.1320895401673],["Red",-10.134294659915549],["críticas",-10.13440488875165],["He",-10.13502197351651],["cuador",-10.135800381282117],["órgano",-10.135810284323462],["celular",-10.135823297812603],["Turismo",-10.135844326694315],["confirmado",-10.136038580181541],["sirve",-10.137015884482295],["mb",-10.137669018098682],["Inter",-10.138018773091797],["complicado",-10.13853525207347],["infec",-10.139823422760092],["permitir",-10.139931508291312],["viola",-10.14003783867117],["let",-10.14049673026512],["aliado",-10.14191697561991],["socios",-10.1420070483818],["gra",-10.142066343702629],["sucedi",-10.142269543110245],["Tierra",-10.143502231219227],["Igual",-10.14351147374801],["Gabriel",-10.143511573345206],["Mucho",-10.143554267557771],["lanzó",-10.143568797015035],["campeonato",-10.143590414548697],["ganado",-10.143622682113653],["defini",-10.143629427754135],["recién",-10.14364143546877],["cercana",-10.14480790419005],["capaz",-10.144847728624526],["marg",-10.145590693616466],["ejecutivo",-10.145700680893656],["FC",-10.145720031612198],["Plaz",-10.14761933869896],["liga",-10.148299744971922],["istas",-10.148497782205192],["Monte",-10.148728973307538],["recomenda",-10.149044178595037],["PSO",-10.149233891578291],["ic",-10.149468283865994],["caer",-10.150269632450957],["Madur",-10.15030738356495],["aplicar",-10.15044793728055],["clima",-10.150701594965073],["aje",-10.151067959501674],["recuerdo",-10.151254338121872],["marcado",-10.15229393308535],["conversa",-10.153032946224549],["raí",-10.155361790218578],["Du",-10.155763205913539],["43",-10.155807309118401],["individual",-10.156336294472059],["52",-10.157046340280063],["ojos",-10.157371022687798],["seguido",-10.157527869641358],["alcanz",-10.157824968364743],["aga",-10.158090184981344],["mamá",-10.158436414389852],["organizado",-10.158440026812162],["referente",-10.158490874965484],["consciente",-10.15860861719524],["vicepresidenta",-10.159094895186097],["tamaño",-10.159752481190218],["oro",-10.160406017806906],["termina",-10.160492017414247],["promo",-10.161206583931921],["fotos",-10.16137136685485],["Nació",-10.162429379442173],["Rafael",-10.163795581444855],["Fundació",-10.164077509073891],["acudi",-10.16455850662988],["Pese",-10.165365736975476],["consigui",-10.166645760898135],["parcial",-10.16688810793461],["refuerzo",-10.16694025182256],["mínima",-10.166941030927939],["Suprem",-10.166951687134848],["tarifa",-10.166978306042427],["convenio",-10.166991076026527],["Enrique",-10.167081095519926],["deportiva",-10.167649430700157],["empieza",-10.167780502395138],["avión",-10.168090372244453],["continuará",-10.16871627191156],["ber",-10.169024985645759],["realizan",-10.169850407308164],["Senado",-10.170321089172845],["insisti",-10.170439896606975],["bolsa",-10.171059901105814],["baño",-10.171328357047583],["visitar",-10.171950356408974],["ador",-10.172320148147543],["Sol",-10.172847174005703],["Será",-10.173354053838835],["alcance",-10.174879386999258],["infantil",-10.17488057320412],["mantenimiento",-10.174926295965776],["puente",-10.174940592848305],["sabía",-10.174959894228461],["Fin",-10.17512325390436],["Dos",-10.175183280655009],["variante",-10.175394336579448],["Mundo",-10.175832296290075],["obtuv",-10.176813967400648],["pelota",-10.178180661159555],["verde",-10.179394623087767],["dejan",-10.18007003814476],["acaba",-10.180154593184053],["pol",-10.180660012494826],["gana",-10.18145520324805],["49",-10.181641098719457],["Sala",-10.182053778500435],["aficionado",-10.182876756566051],["fenómeno",-10.182878417114793],["prioridad",-10.1828904964987],["show",-10.18289302750153],["definitiva",-10.182904063619567],["comportamiento",-10.182918514809165],["rural",-10.182939715270066],["alegría",-10.182973618497822],["novedad",-10.183003154737198],["199",-10.183597488678274],["fuga",-10.184330609719245],["escrito",-10.18523826840287],["cuadro",-10.186075039038318],["trat",-10.186706600290684],["gole",-10.18683187407486],["150",-10.186839017964616],["añade",-10.188373518489346],["divisi",-10.188545367941582],["físico",-10.189327831417053],["supuesta",-10.189522320575442],["Rica",-10.190237100327112],["circunstancia",-10.190941282420052],["quizá",-10.190942868320649],["Agencia",-10.190947151642884],["perspectiva",-10.190950125072053],["colonia",-10.191360200558904],["Trabajo",-10.19209244546425],["Li",-10.192411445004284],["dispuesto",-10.192843632321281],["Mat",-10.19326142547858],["considerado",-10.194414730125256],["800",-10.19446470228794],["tabilidad",-10.195083792187287],["Diputado",-10.195305893074035],["chica",-10.195356222497423],["ejecu",-10.195558994000177],["arse",-10.196568007859042],["adecuada",-10.19867404670826],["mill",-10.199040821208463],["Dominican",-10.199071357800323],["árbol",-10.199086504382647],["elegido",-10.199109104234925],["iza",-10.199188267414257],["analizar",-10.199515488530892],["Él",-10.20007649542497],["aprovechar",-10.200445661939323],["tura",-10.201248774650775],["Sí",-10.203787729703098],["Selección",-10.203891973023428],["eros",-10.203932712171799],["deseo",-10.204867487118479],["invitado",-10.205482463920589],["aeropuerto",-10.205604624351864],["sostenible",-10.206898468777325],["evolu",-10.207073150610238],["piensa",-10.207379380395462],["interesante",-10.207430464707743],["siga",-10.208406775938911],["humana",-10.209546751123241],["Latina",-10.210278308562225],["mu",-10.212206998654263],["esencial",-10.212393865516342],["formar",-10.212637919679958],["nació",-10.212680849418987],["senador",-10.213069382308069],["aprobació",-10.213614885649875],["inversion",-10.214270813750247],["lleno",-10.21506027886003],["simple",-10.215490259509725],["américa",-10.215533565140962],["Ricardo",-10.215535112138674],["propósito",-10.215536122425899],["Regional",-10.215542451598854],["Isabel",-10.215545851177993],["Roja",-10.215759938937618],["firme",-10.215854776127575],["ñ",-10.216026350919593],["signo",-10.21624160767443],["acá",-10.216755714477962],["identificar",-10.21847692448691],["57",-10.21968588666303],["institucional",-10.219955720187233],["establecido",-10.22056445108775],["regular",-10.220955876411612],["vender",-10.221321939587137],["considerar",-10.221486022539631],["Administra",-10.223369920960163],["llevará",-10.223382694871106],["disco",-10.223641587202593],["sospechoso",-10.223866291912227],["Gustav",-10.223884972367316],["llamó",-10.223926503188597],["Sistema",-10.22406943364406],["automóvil",-10.224078947160873],["reina",-10.224117928532088],["bebé",-10.224490022797642],["debía",-10.224552473487947],["pens",-10.225017165906937],["feria",-10.226272159978976],["Dr",-10.226828377283747],["honor",-10.227385798396519],["modifica",-10.227512634083336],["descuento",-10.2276884368123],["Junta",-10.228192567067317],["expresidente",-10.22960155606053],["Petro",-10.23044592244381],["intendente",-10.230546576141645],["preparado",-10.230626401887674],["pregunt",-10.230846810118408],["Gar",-10.231334151909898],["Ejército",-10.232269232090843],["ejército",-10.232269232091333],["cuota",-10.232288852097401],["increíble",-10.23231664671971],["conciencia",-10.232979934024772],["Puede",-10.233354307103319],["positiva",-10.233573912011604],["Á",-10.235124408885085],["fallo",-10.235839041973822],["formato",-10.236837823243146],["regla",-10.237490593419619],["incluyen",-10.23753636291031],["aprob",-10.238138637419649],["cumpli",-10.238940961427847],["homenaje",-10.239522442289763],["trasladar",-10.23998899978885],["argentina",-10.240743810539485],["plato",-10.240904589824932],["escala",-10.24332700265153],["cocina",-10.244129742439759],["Porque",-10.244479597601016],["tro",-10.244605368803587],["Pa",-10.245068025508443],["recibe",-10.245628995990051],["Zaragoza",-10.24700673931856],["impulsar",-10.247428524088164],["controlar",-10.24786392431498],["mer",-10.248443315150999],["solicit",-10.24897487035938],["específica",-10.249290817695453],["Facebook",-10.249290822847495],["voluntad",-10.24929093006341],["turístico",-10.249293380411007],["candidatura",-10.249455033664274],["To",-10.24946477585189],["instalación",-10.249903149113262],["particip",-10.25037427895203],["venir",-10.250771801198706],["integral",-10.25122518273833],["Blanca",-10.251455655640543],["41",-10.252873089741401],["47",-10.25443269017514],["avanza",-10.25459775449578],["evalua",-10.255014882782232],["ambiental",-10.255666499111221],["mala",-10.25613259620867],["decidido",-10.256504654013877],["brindar",-10.256557120526434],["Rosari",-10.256787759386174],["diaria",-10.257448580893389],["mecanismo",-10.257912481201165],["misiones",-10.258490881428186],["Canad",-10.258961481909827],["produce",-10.262409948488042],["gi",-10.262792228321494],["estuvier",-10.264014859939753],["cambi",-10.264498070123985],["entregar",-10.266149617288217],["sentimiento",-10.266616216327735],["protocolo",-10.266629208307744],["interno",-10.266856809504436],["frío",-10.267083289647132],["Aquí",-10.267328718757195],["report",-10.268040481937351],["zar",-10.268418195456725],["Nada",-10.270471767108361],["mirada",-10.271048880144683],["Valle",-10.272832393875799],["Flor",-10.273169084073064],["perfecta",-10.273474554570551],["denunci",-10.27397683960594],["Bo",-10.275231955244205],["ceremonia",-10.275379088744906],["garantía",-10.275379173368284],["Marco",-10.275793538762947],["Parque",-10.276001327980314],["Fi",-10.276894407877094],["Mal",-10.277267560568069],["encontrado",-10.277565110617646],["Com",-10.278033129589815],["68",-10.280000902270803],["aprender",-10.280547879857632],["partida",-10.280906207770984],["Rosa",-10.2811072326917],["corta",-10.281970198039808],["aument",-10.283553889881972],["resalt",-10.283772816314066],["Kirchner",-10.284228646085234],["propietario",-10.284228674979502],["Comité",-10.284231234287027],["trayectoria",-10.284253066255927],["exclusiva",-10.284436483368337],["extremo",-10.284770686201131],["índice",-10.285470301433296],["sencillo",-10.285501172295138],["Medio",-10.286002965028139],["trans",-10.286085307352353],["tomado",-10.287123979927106],["Joe",-10.287173287411989],["decena",-10.28733999669829],["inicia",-10.287724009445974],["multa",-10.287775170257657],["debut",-10.288520396263417],["reclamo",-10.288624588675066],["llegan",-10.28906408766148],["interesado",-10.289910452990783],["junta",-10.290985652788333],["Iglesia",-10.293157220360541],["europea",-10.293157403332419],["Judicial",-10.29315892715261],["Popular",-10.293159475035633],["negativa",-10.293179766816582],["rostro",-10.293199890571522],["Haciend",-10.293303694429365],["soldado",-10.293476602349525],["58",-10.29354461457971],["apareci",-10.293593126152114],["caja",-10.293943779543898],["Era",-10.2940164613815],["votar",-10.294926466270946],["condena",-10.29581064090732],["pu",-10.297313199691935],["analista",-10.302204999564559],["batería",-10.30228411292569],["interne",-10.302372007769321],["listo",-10.302725563811453],["Bi",-10.30318916635808],["App",-10.303889615592224],["excep",-10.30437158861531],["toneladas",-10.304535437001736],["enviar",-10.30550164754429],["quedan",-10.306291709449916],["contará",-10.306419219836936],["tropa",-10.306485999978705],["encargado",-10.309533142273757],["eliminar",-10.309980890221322],["aporta",-10.310611770022115],["suman",-10.310796686405048],["alcohol",-10.311226778247363],["litro",-10.311439350427218],["inteligencia",-10.311695989085973],["costa",-10.311962618526184],["azul",-10.312000525606365],["acabar",-10.312123791415138],["Cuál",-10.313495232414859],["responder",-10.316177254261522],["aporte",-10.316620713215343],["Primera",-10.317228319375332],["aprobado",-10.317595884405144],["Hemo",-10.317895588113823],["76",-10.318126685504042],["leyes",-10.318229486609154],["compañero",-10.318425840236298],["Gu",-10.318665032407655],["urbano",-10.319026849746797],["Bal",-10.319653977525665],["Asamblea",-10.320431447767831],["aniversario",-10.320431448049668],["climático",-10.320431448960937],["cartera",-10.320502763516679],["radio",-10.32055212297126],["rojo",-10.320893662381172],["relacionada",-10.320911844530656],["actos",-10.32117366151616],["cuesta",-10.321564511003423],["Juego",-10.322272078523145],["TV",-10.323603327146992],["Exteriores",-10.3240116935276],["79",-10.32471293754784],["justa",-10.32820315308108],["brazo",-10.329507450149535],["cuestion",-10.329511978607268],["energética",-10.329690765502077],["ahorro",-10.3296965201608],["gratuita",-10.329698294054207],["batalla",-10.329798745767128],["postura",-10.32980357312588],["convierte",-10.33001277902456],["mira",-10.330970802913267],["Ri",-10.331814992847496],["destinado",-10.331875426440625],["cho",-10.332660008334575],["promover",-10.333225303707064],["decreto",-10.333318955438683],["luce",-10.333711132781772],["empresarial",-10.333864183921431],["tercero",-10.334474773356117],["Pas",-10.335395686991031],["66",-10.335458766451424],["cuestione",-10.336257058953183],["igualdad",-10.336336214585526],["Ja",-10.336454678320209],["comenzará",-10.336980049540218],["firm",-10.337626891616008],["Marcel",-10.338450127518819],["constitucional",-10.338594141208954],["Guerra",-10.339036816490236],["Victoria",-10.339042108364513],["descanso",-10.339046816806192],["umó",-10.339126619036012],["diversidad",-10.339188596613168],["electric",-10.339299715802472],["crecie",-10.33951400264499],["aumenta",-10.340260380408516],["Premio",-10.340484455436409],["cubrir",-10.340587906592908],["bol",-10.340815540184527],["juec",-10.341563534894789],["marcador",-10.341694773685482],["mon",-10.344867271403626],["95",-10.34565377669904],["inscrip",-10.346553497009722],["º",-10.346576110918942],["78",-10.34668741288836],["carne",-10.347192489725728],["anunciar",-10.347260917876731],["Unida",-10.34842617269242],["electrónico",-10.348470495291318],["famoso",-10.348489804120778],["desconoce",-10.348501449876503],["izar",-10.348544463583249],["habido",-10.348682767565176],["fallecimiento",-10.348857727700523],["festival",-10.348880121377054],["maestro",-10.349391892416822],["Ber",-10.35073560505822],["pudier",-10.351120935214087],["volverá",-10.35119212773817],["logía",-10.351595326821581],["tuvi",-10.352130230180137],["tú",-10.352538142830163],["Provincia",-10.354142546685576],["preven",-10.354523390172627],["charla",-10.354921223848471],["parecía",-10.35548867281764],["89",-10.356853450540413],["definir",-10.35750824464817],["eléctrico",-10.357623901783807],["bienes",-10.357915607620212],["superficie",-10.357994275872432],["bombero",-10.357994339221573],["básica",-10.357994632415942],["permiso",-10.358000180805174],["paro",-10.358000376103782],["Ambo",-10.358025571505234],["inmueble",-10.358168505678133],["Guti",-10.358239134369501],["Jim",-10.358260609556488],["Jalisc",-10.358303765711995],["mando",-10.358993852946018],["actuacion",-10.35959148858302],["aceptar",-10.360229022531996],["llevaba",-10.36084877539911],["perfecto",-10.361279178328102],["iones",-10.361476690977906],["moto",-10.362102729248353],["incorpora",-10.363367726265125],["vuelva",-10.363832190844164],["doctor",-10.364039892264877],["micro",-10.365072093791806],["ajuste",-10.365913605097532],["correcta",-10.367184291270979],["Nuestro",-10.367609664214896],["educativa",-10.36760968984456],["polémica",-10.367617902287634],["Guatemal",-10.36774830137067],["efectiva",-10.367763890157988],["nte",-10.36802909982184],["modelos",-10.369278228444077],["concurso",-10.37001335638492],["habita",-10.370606859589135],["Provincial",-10.371513745194516],["Or",-10.373248850041987],["aparece",-10.375352446838086],["sufrido",-10.375562897163892],["remarc",-10.375629153943251],["Atlético",-10.377318397249539],["clásico",-10.377318397642446],["energético",-10.37731843350008],["País",-10.377344536126833],["urgencia",-10.377357191807201],["posee",-10.377542810832928],["enfrentamiento",-10.377772695617029],["paquete",-10.37787947357767],["gua",-10.37898421354085],["Ingl",-10.379346386196858],["recomienda",-10.380042402146273],["ganas",-10.380287458905693],["64",-10.382689088764236],["detectar",-10.382960665979166],["mán",-10.38362466445063],["conexi",-10.384134937760589],["cotiza",-10.384669569791477],["continu",-10.385980307343363],["cobertura",-10.387122340493896],["Respect",-10.387122730839808],["antiguo",-10.387122899686624],["modalidad",-10.38712427956211],["gasolina",-10.387124806975045],["Eduard",-10.387127686659614],["Salvador",-10.387156828662091],["entrenamiento",-10.387213872731598],["breve",-10.387294966358436],["relevante",-10.387576643653817],["sucede",-10.388087386907635],["limita",-10.388544319938873],["54",-10.389382860699268],["reconocer",-10.390421858854449],["700",-10.390971142509507],["Boca",-10.391935267360989],["corresponde",-10.392543248148597],["pudiera",-10.39286892619377],["reforzar",-10.392885644236102],["añadido",-10.393444992750364],["aprovech",-10.394215226362302],["cabe",-10.396103965817431],["Moreno",-10.396181760779927],["reac",-10.396924670288602],["británico",-10.397023312697826],["embajador",-10.397023376511495],["criterio",-10.397023519888812],["Musk",-10.397069213298924],["Felip",-10.397135769855154],["ONU",-10.397151861725039],["Navarra",-10.397153340983667],["87",-10.397236897279855],["prevenir",-10.397431063498423],["intenta",-10.39795225021545],["69",-10.398307488768285],["determinar",-10.398577780435854],["sostiene",-10.398933674856295],["solidar",-10.399638365402406],["indicado",-10.399832231943797],["residencia",-10.400624391995088],["Rey",-10.400722515150433],["Sal",-10.401078080954377],["sucedido",-10.40127847798226],["funda",-10.401674937445915],["narco",-10.401708516923645],["aseguran",-10.402425320386676],["regres",-10.403293523572192],["toca",-10.406393132776206],["Jap",-10.406762658403077],["innova",-10.407013157020408],["medicamento",-10.407023396076319],["ogle",-10.407029445285307],["diagnóstico",-10.407152934830034],["presidencia",-10.407887004876574],["confirma",-10.408178016518033],["Humano",-10.409749052867515],["Tu",-10.409881703513708],["regalo",-10.410617193716416],["deten",-10.41121047776364],["vale",-10.411359097272943],["érre",-10.41155030498209],["elimina",-10.411709387012467],["Dij",-10.41172503423215],["CO",-10.412832653963513],["imos",-10.412938373931544],["subraya",-10.413196517801284],["ología",-10.41380145315624],["abre",-10.415268449759257],["viral",-10.415742316675495],["etc",-10.41648993597054],["conserva",-10.41657976903429],["Investiga",-10.416641773339183],["semifinal",-10.417087025864403],["&",-10.417124317227742],["ausencia",-10.417125503625424],["aventura",-10.417134347776969],["limpieza",-10.417149941959703],["Ciencia",-10.417167744805235],["normativa",-10.417205423348888],["método",-10.41723891760493],["Deporte",-10.41728377832655],["contento",-10.417567763859289],["parecen",-10.418812263777841],["capacita",-10.418814715694309],["vital",-10.419483675838856],["aviso",-10.420628854273659],["Super",-10.42104371299865],["vial",-10.421393186756386],["serio",-10.421453417578874],["completar",-10.42311097541316],["ger",-10.42323170399263],["creado",-10.423249459870107],["regresar",-10.423410326625413],["198",-10.426801576016882],["culpa",-10.426999309607176],["estable",-10.427320862224654],["Tamaulipas",-10.427328398872868],["vínculo",-10.427328466930462],["merece",-10.428116340195334],["extensi",-10.428631532393418],["misil",-10.428854035460066],["competi",-10.429125826760078],["octavo",-10.42997242830846],["preparar",-10.430159221783747],["producir",-10.431468353555012],["fortalecer",-10.431531435857467],["actualiza",-10.432185715683751],["pudi",-10.433098118015916],["Regi",-10.433527676307268],["ard",-10.433597171139205],["elevado",-10.434696235469445],["ería",-10.435464515094534],["hí",-10.436049665361288],["BA",-10.437586366191756],["Posterior",-10.437637678079845],["blanca",-10.43764133572829],["negativo",-10.437664935470035],["teatro",-10.437668410586841],["camioneta",-10.437819605094417],["Presidencia",-10.43824815180152],["cuidar",-10.438324549756759],["Armada",-10.438347169521265],["urgente",-10.439122431798527],["ham",-10.439454654587827],["Tri",-10.439532718697468],["revista",-10.439865396411111],["acumula",-10.440010435918335],["lanzar",-10.440126341179676],["renuncia",-10.440288633434392],["moral",-10.440410139438466],["repara",-10.441252505637252],["hermana",-10.442436452894201],["altas",-10.44282556439547],["ment",-10.443074059840722],["celebr",-10.443260616404693],["rescate",-10.44400016941005],["mantuv",-10.44467697403596],["plantea",-10.44537270401062],["dispone",-10.446003012380995],["silencio",-10.446052743892196],["conjunta",-10.44619310551835],["acompañar",-10.446234162110347],["espalda",-10.446568142815309],["clínica",-10.447369096275992],["conseguido",-10.447425971860572],["Sebasti",-10.447897138229521],["Guillerm",-10.448059092048766],["rumbo",-10.44810775467122],["preventiva",-10.448117832283577],["mostrado",-10.448248258427375],["implementa",-10.448677336222982],["Isla",-10.448776338058256],["Bajo",-10.448964587038983],["alcanza",-10.449127213702258],["post",-10.44949479552469],["ça",-10.449670508288495],["verdadera",-10.449736773685927],["prima",-10.44996717445854],["hectáreas",-10.451464710760279],["pasará",-10.451636792592954],["aclar",-10.4521399645803],["cas",-10.452790042856265],["Cal",-10.453562971650907],["nez",-10.453746873015703],["torio",-10.455653731531687],["graba",-10.455846431862174],["tion",-10.455996225127102],["retirar",-10.456293086129438],["plantas",-10.456625000321614],["acercar",-10.457402727890713],["indígena",-10.45858065967079],["Domingo",-10.458581373434654],["fanático",-10.458588897258998],["resistencia",-10.458949561645625],["Don",-10.458959125138104],["dirigida",-10.459405721576411],["Amazon",-10.459586420695635],["leer",-10.459762654784909],["Fuente",-10.460004228267014],["Ministro",-10.46019475333015],["96",-10.461020944262513],["OS",-10.46128963917395],["egó",-10.461505268529965],["tranquil",-10.461738873785267],["INE",-10.461787723436352],["trato",-10.46185609837081],["desaparecido",-10.46287733684357],["fer",-10.46453307593421],["Mario",-10.464850284526719],["72",-10.465174293831044],["garantiza",-10.46524653088472],["test",-10.465292516872108],["77",-10.46539425723223],["250",-10.465413042449294],["boca",-10.465613480757906],["Appl",-10.467254215345923],["Tex",-10.467456519459223],["preguntas",-10.467565379323485],["sufrir",-10.468236297204452],["Andaluc",-10.46921963944543],["Whats",-10.469220205303547],["advierte",-10.469221413961815],["Agreg",-10.469222908462726],["sorteo",-10.469224893791699],["Programa",-10.469230158852799],["cuánto",-10.4692478327954],["Panam",-10.46927163643911],["vulnerable",-10.469318763069651],["alicia",-10.46950018037327],["revela",-10.469866824005594],["declarado",-10.469914509042347],["moda",-10.46994331627561],["finalizar",-10.469991561021471],["lesionado",-10.4700952372661],["placa",-10.470191158642873],["aúl",-10.470238626481393],["secretaria",-10.47083832262061],["eje",-10.471199112487694],["86",-10.471234975393521],["falla",-10.471561033666111],["Quier",-10.471992777819258],["tono",-10.472361272223477],["ino",-10.47259344090017],["comer",-10.472823543558786],["interpreta",-10.47296858333522],["diputada",-10.473710795278716],["movil",-10.473754139543797],["personalidad",-10.47419676471851],["presentada",-10.474281846479968],["racha",-10.475689842491228],["recibirá",-10.476065263663017],["autoriza",-10.476280347726394],["esquema",-10.477114142446458],["apari",-10.477325728303368],["51",-10.477511144766668],["crecer",-10.479750016789662],["evidente",-10.479948942457865],["nacido",-10.47997949823511],["berg",-10.480182582119033],["Fondo",-10.48032082897568],["citado",-10.480739938907687],["adapta",-10.481066788084167],["enviado",-10.481493272854358],["radical",-10.482568551139337],["Estatal",-10.482751863650135],["documenta",-10.483157117984653],["facilitar",-10.483924765370295],["delega",-10.484943705879042],["agradeci",-10.485150702791564],["guardia",-10.48532433279549],["Peña",-10.4873182196906],["escucha",-10.487376901917054],["Do",-10.488595299584714],["AP",-10.488956407097167],["adquirir",-10.489243322716753],["FP",-10.489579081960327],["cruce",-10.490442044094646],["temor",-10.490544868120905],["delincuente",-10.49082907862152],["hallazgo",-10.490843852358164],["Navidad",-10.490844796350984],["código",-10.490845921990696],["proveedor",-10.490863505139338],["primaria",-10.490897205413933],["discapacidad",-10.490925498313118],["influencia",-10.491035057751848],["componente",-10.49107875758228],["supera",-10.49143859708022],["existencia",-10.491545095705774],["74",-10.493027338100628],["confes",-10.493823409133537],["audio",-10.49399884548229],["ko",-10.49431849242276],["coordina",-10.494545188288832],["hici",-10.494742686003361],["Debe",-10.494940036261962],["concejal",-10.495290885337475],["Grande",-10.49670500348526],["utilizado",-10.497051679211735],["sexo",-10.498067495964047],["solar",-10.499391045310988],["entiende",-10.49952262511918],["combina",-10.500326187219487],["hincha",-10.50050817927545],["brasileño",-10.501830222007655],["matrimonio",-10.501830222104152],["máquina",-10.501830410418954],["salarial",-10.501835078956557],["caliente",-10.501845409860797],["incertidumbre",-10.501862563592045],["sindicato",-10.501908848360209],["Aragó",-10.50216231534663],["levantar",-10.502168911695362],["costos",-10.502534713270965],["inunda",-10.503505456369417],["EU",-10.504024222878128],["frase",-10.504130204330242],["sesione",-10.504444913717894],["mono",-10.504779734350864],["alimentación",-10.50481863067359],["estableci",-10.505247643638356],["envió",-10.505408839303584],["tesis",-10.505868870663926],["defensor",-10.506056666314429],["luchar",-10.50606046578263],["activo",-10.506150110318726],["mor",-10.506193411126073],["67",-10.50675375968345],["conclusi",-10.509585941067703],["73",-10.509591415141635],["habilidad",-10.50961571078133],["Par",-10.509964077513995],["cer",-10.510575897017606],["sale",-10.511323724086699],["desarroll",-10.5114506302926],["62",-10.512571764691163],["mortal",-10.512650216659972],["útbol",-10.512657169807001],["piedra",-10.512953018010112],["Mucha",-10.513004770734742],["Tanto",-10.513080909889911],["queja",-10.513171299942252],["provoca",-10.513203840019202],["disputa",-10.513472424142988],["armado",-10.513826806440559],["afi",-10.514414252887748],["mencionar",-10.514537490290916],["lógica",-10.51457137461394],["descenso",-10.514697430105869],["New",-10.514878075812703],["Martin",-10.51490799796484],["entreg",-10.515245640176929],["pertenece",-10.516098738779633],["Aten",-10.517153282065923],["digo",-10.517594203538989],["Can",-10.51763666640985],["complica",-10.517964546220536],["choque",-10.518001342826292],["conversacion",-10.51879488876185],["Carmen",-10.519278286872035],["pasan",-10.519643182956152],["ck",-10.520506703512385],["Ka",-10.520705011892375],["Air",-10.520874344783358],["RD",-10.521625903283843],["militare",-10.523373361661891],["regula",-10.52361273662421],["llegue",-10.523728703010011],["presentará",-10.523742862200866],["integr",-10.524082762699027],["cumplimiento",-10.524093833102675],["bonaerense",-10.524177288113966],["Municipio",-10.52417728819931],["incluida",-10.524177288249383],["inferior",-10.524177288258585],["individuo",-10.524177289059239],["parlamentario",-10.524177294794793],["camiseta",-10.524177358816729],["préstamo",-10.524177451856318],["Interior",-10.524177478923567],["plantilla",-10.52421700123378],["falsa",-10.524264861912886],["exacta",-10.524342637122372],["fui",-10.524374054672878],["Granada",-10.524842965105236],["ros",-10.524849291496292],["adecuado",-10.524864484743564],["53",-10.524874257990106],["foco",-10.524882585884356],["independencia",-10.52501387590563],["seguida",-10.525270987868993],["extrema",-10.525446607395729],["Castro",-10.525760733562851],["asever",-10.525977998368335],["coali",-10.52620229393343],["financia",-10.526780534222977],["tas",-10.526826138677453],["acudir",-10.52702916663398],["dirigi",-10.527445495512431],["sonido",-10.528556309386136],["Jo",-10.52898732666164],["esquina",-10.529344181082774],["logra",-10.529353230483373],["aparente",-10.529665580948537],["argumento",-10.531247365410271],["eres",-10.531533453580769],["crítico",-10.532043182280619],["Baja",-10.532054718999344],["Han",-10.53247561179011],["denuncias",-10.532677499124585],["micron",-10.534184841818693],["IB",-10.53493495055707],["Q",-10.534941134620784],["déficit",-10.535540924516122],["territorial",-10.535540924606114],["mascarilla",-10.535540948422582],["estadística",-10.535541711492973],["antecedente",-10.535546614582975],["capítulo",-10.535550275333419],["cubano",-10.535592035461974],["profunda",-10.535613751584023],["Festival",-10.53564672236558],["Bombero",-10.535669051461939],["árbitro",-10.535843295576909],["bles",-10.536916744884834],["61",-10.537134950065607],["emiti",-10.538412563877856],["portal",-10.538426743276222],["captura",-10.538664174975766],["ES",-10.538833685157126],["Debid",-10.539036550872733],["Ki",-10.540045285896385],["gu",-10.540980099767003],["leve",-10.542670744743148],["Mart",-10.543358601121566],["DE",-10.543370638314983],["jugará",-10.544609099009094],["colocar",-10.544691124813596],["cambia",-10.544699317713196],["contamina",-10.544991490557454],["Luna",-10.545186518042387],["eficiente",-10.545263498591066],["crítica",-10.545986028992038],["aterra",-10.546025690627161],["volum",-10.546098132442701],["Tar",-10.546470122518048],["Nuestra",-10.547035502072433],["FIFA",-10.547043480881946],["Señor",-10.547044041460897],["terapia",-10.547093965197966],["Nadi",-10.54715135207201],["terror",-10.547492221810312],["Comercio",-10.547586214612775],["traslado",-10.547600504937279],["exigi",-10.547781967918496],["estudiar",-10.548338356871195],["venida",-10.548740706967896],["demostrar",-10.548774901201561],["88",-10.549528448283532],["dona",-10.550027944551065],["cena",-10.550124292687865],["peti",-10.55043140388917],["VI",-10.550680104467915],["emocional",-10.550875255711375],["olonia",-10.552044769063297],["aña",-10.55356688490544],["detalla",-10.554501732894192],["alcaldesa",-10.555087437101125],["arís",-10.55587495637364],["rechazo",-10.556310270152629],["aprobar",-10.556499894603661],["Sub",-10.558049772527713],["frica",-10.558303703076216],["diga",-10.558504415087558],["ministerio",-10.558663090330523],["combatir",-10.55872759567915],["nacimiento",-10.558789586556228],["63",-10.55883269294786],["cerrada",-10.559543115317975],["Radio",-10.559723140368995],["respaldo",-10.560129627344956],["kilo",-10.560153434577181],["conducir",-10.560268510786187],["paga",-10.560540440393162],["producido",-10.560746678355548],["asumi",-10.561476048340525],["consejero",-10.561533353382314],["Parlamento",-10.561547814349158],["Romer",-10.562145385425197],["enfatiz",-10.56238293188792],["asumir",-10.562728476259597],["ampliar",-10.562969226339412],["ang",-10.563637672485076],["afuera",-10.563667389755452],["socialista",-10.564659652304655],["condenado",-10.56688653158401],["acó",-10.56695924568805],["Kar",-10.567072584965965],["presentan",-10.56720231750602],["roja",-10.568200819203142],["lujo",-10.569640672153557],["Netflix",-10.570427791634637],["excelente",-10.57042779662838],["ambulancia",-10.570427815567335],["Colegio",-10.570428172549136],["músico",-10.570428817562044],["liderazgo",-10.570430971756608],["variedad",-10.570444133029365],["asesinado",-10.570528166154148],["Vox",-10.570646014344497],["mina",-10.571107154203414],["Mend",-10.57203389583809],["EL",-10.572306492019852],["bandera",-10.572655711602188],["tán",-10.573281867068559],["ponen",-10.573415899956029],["pensa",-10.573654792965298],["multi",-10.57416785166564],["dispar",-10.57460664209722],["Cambio",-10.574876441010122],["version",-10.577026424338742],["pec",-10.577760182565399],["balance",-10.577903130187096],["capit",-10.578058006244285],["observar",-10.578311362910002],["fic",-10.579137103461377],["Chi",-10.579643794822566],["villa",-10.57986642877712],["mento",-10.579956280395301],["mont",-10.580521829785194],["logro",-10.580903504040862],["depende",-10.580925869303885],["permanece",-10.581304878772919],["acab",-10.582248873735617],["tecnológica",-10.58233467942162],["recinto",-10.582362034463701],["gerente",-10.582388062498152],["ciudadana",-10.582452436163281],["activista",-10.582488290956936],["PRI",-10.582490722154692],["agrupa",-10.582538011849987],["Caraca",-10.582587740918747],["amiga",-10.582772884462141],["verdadero",-10.582888444717273],["informar",-10.583658887355162],["Intern",-10.584723779418866],["oz",-10.584873558567457],["chino",-10.585365229366309],["socio",-10.586789192837797],["mencionado",-10.587024967116243],["emán",-10.587321638937297],["vecina",-10.587333525166489],["contempla",-10.588020850154468],["Penal",-10.588055856710557],["explicar",-10.588237127118756],["bra",-10.58849532411461],["Transporte",-10.58912705606867],["tur",-10.589281111174202],["plantel",-10.589376244595105],["cumpla",-10.591853494286905],["celebrará",-10.591907140280211],["82",-10.592001125479493],["cambiado",-10.592046591161338],["tradi",-10.592489948832775],["Rico",-10.592633376919508],["admiti",-10.592934505943381],["azo",-10.593601596703142],["And",-10.593770106068966],["cerebro",-10.594378923649382],["chileno",-10.594383244243424],["Australia",-10.594392176340126],["Champions",-10.594412846260935],["bebida",-10.594416378163722],["eléctricos",-10.594850076562004],["Punta",-10.595602393076566],["utilizan",-10.595743069027176],["Barrio",-10.595810990192447],["sabor",-10.59584907142248],["eague",-10.596619887328476],["Canaria",-10.597030573467176],["gama",-10.59709400738473],["tabla",-10.597586837234244],["reiter",-10.597871625073683],["libera",-10.599458169867784],["amplio",-10.599706293255656],["consideran",-10.600078298313043],["experto",-10.600436153279505],["Sh",-10.60155208640589],["adicional",-10.601789765844217],["Bu",-10.60205389896352],["licencia",-10.60206855509841],["trataba",-10.602412990035255],["98",-10.603380982266394],["caus",-10.603390006368752],["descubri",-10.60349204474453],["Tres",-10.603547539759623],["libra",-10.605699606885134],["occidental",-10.606575866962473],["cadáver",-10.606575874333187],["agresor",-10.606578684616938],["probabilidad",-10.606580572475922],["viejo",-10.606584372183494],["vigilancia",-10.60663086327822],["violenta",-10.606635433888119],["famosa",-10.606644648606963],["Record",-10.606656027797515],["maniobra",-10.60665849636036],["significativa",-10.606733963403844],["barco",-10.606746240243972],["flujo",-10.606861716105044],["Vega",-10.60687235140307],["directivo",-10.606917779614529],["probar",-10.60695981446899],["saludable",-10.607088273750144],["evita",-10.607254213713192],["Bolivia",-10.607472268844631],["prevista",-10.607647573206549],["Corea",-10.607714852154352],["suceso",-10.607849262826033],["ica",-10.607916703959084],["fundador",-10.6080299680996],["defendi",-10.608054513534832],["abandonar",-10.608175347313132],["ancho",-10.609085730876398],["ig",-10.609596801427074],["nube",-10.60963643140257],["naciones",-10.60983601842721],["creen",-10.610670577800231],["voca",-10.610777380734863],["coopera",-10.610972801583236],["anda",-10.611514566489133],["Sus",-10.612794717501064],["representan",-10.61341532063786],["asistir",-10.61519795490032],["CN",-10.615914319080519],["usan",-10.616334030604884],["revisar",-10.616437279373518],["salvar",-10.616458608047289],["panor",-10.616835402692336],["brió",-10.616948859035777],["mediado",-10.61701302029649],["land",-10.61715768826766],["seleccionado",-10.617243999738147],["ponga",-10.617446836988478],["poli",-10.617778809076516],["ño",-10.618239047223597],["útil",-10.618476831035643],["plata",-10.618792910763844],["lateral",-10.61879898491098],["escritor",-10.618837601183792],["circuito",-10.618921545886344],["papá",-10.618923735280744],["Israel",-10.618925321097265],["Museo",-10.61893421263774],["cultivo",-10.618964911756173],["renovación",-10.618977282704613],["lamentable",-10.6190100286866],["Claudi",-10.619042674565563],["ecos",-10.619472311048156],["escribir",-10.61953488722623],["fruta",-10.619692267421389],["Municipalidad",-10.620445298617502],["56",-10.62067548940804],["venía",-10.621079026401546],["copa",-10.62116919550791],["intercambio",-10.621600046060216],["quita",-10.621875553982218],["solicitado",-10.62206310825353],["sueldo",-10.623938422057073],["universidad",-10.624488362150156],["firmar",-10.624834564711286],["alcanzado",-10.624931519831673],["mini",-10.62511686544069],["bordo",-10.625225753118903],["fila",-10.625293290043093],["tre",-10.625298339623729],["estándar",-10.625392745640726],["plante",-10.626307677752283],["registra",-10.62662721658809],["Cultural",-10.626817833052561],["responde",-10.627513301248763],["calific",-10.628301151811563],["transi",-10.628628569314792],["demostrado",-10.629535086963095],["visible",-10.631134393473573],["tranquilo",-10.631178533373985],["comerciante",-10.63142228690577],["profundo",-10.631422827379737],["alquiler",-10.631424192941676],["Londr",-10.631424656085011],["café",-10.63142617188836],["Krem",-10.631432572277697],["violento",-10.63144750465624],["expediente",-10.631452659815135],["corriente",-10.631486492665763],["intensidad",-10.631520759286795],["pensamiento",-10.631755231890786],["enfoque",-10.63239393957264],["hecha",-10.632415940548812],["bur",-10.632428187477643],["lamenta",-10.63282080687452],["desaparici",-10.633128430371748],["toque",-10.636056466363321],["intensa",-10.63635679867971],["relato",-10.636483958242495],["inseguridad",-10.63667499403962],["indicador",-10.637495097357275],["Mayor",-10.63759315744214],["Nunc",-10.637600173365088],["determina",-10.637827255634923],["afectar",-10.63808179240451],["salido",-10.638329167958943],["agrega",-10.639324177045587],["esposo",-10.64021822009465],["concreta",-10.641317553848818],["'.",-10.641426730261754],["Ex",-10.641707928889623],["expresar",-10.64299715342542],["talleres",-10.643547148797808],["malo",-10.644000773778028],["residuo",-10.64407977427277],["transferencia",-10.644079774555033],["femenino",-10.644079774567295],["bicicleta",-10.644079776039165],["canciller",-10.644079788501774],["Feria",-10.644274128333898],["favorable",-10.644280582463715],["vicepresidente",-10.644487072838704],["Guzm",-10.644569979428772],["promesa",-10.644577349086191],["registrada",-10.646492603814853],["hoja",-10.646926143096994],["voce",-10.647896659308403],["Bien",-10.648746554323683],["marcar",-10.648785371503891],["impulso",-10.649801632957123],["matar",-10.651084636746559],["suspensi",-10.651327372351979],["refleja",-10.651985809924357],["abordar",-10.652244973236819],["moneda",-10.652923863467622],["motiva",-10.653943774773339],["odio",-10.65517869812232],["Mu",-10.655903479056596],["viva",-10.656327764084327],["cien",-10.656544191919226],["disciplina",-10.656780705662388],["instrumento",-10.656900287265744],["frecuencia",-10.656900287358795],["lectura",-10.656900345627573],["Feijóo",-10.656908129857765],["aportar",-10.656920438842986],["Gerard",-10.656941426639278],["Lorenzo",-10.657024000737623],["Gobernador",-10.657029277605304],["Semana",-10.657212852455956],["supermercado",-10.657402144662756],["posicione",-10.657413402797154],["humor",-10.65758575986106],["recordado",-10.657693268651377],["daba",-10.658265709226601],["sacado",-10.658274800525811],["inas",-10.658674568484322],["09",-10.658990878213249],["amiento",-10.659466592707714],["Fiscal",-10.660143227998011],["imputado",-10.660174719751883],["techo",-10.661173087039893],["Palma",-10.661349979898022],["for",-10.661640757515233],["form",-10.663253790141514],["comune",-10.66456608894622],["pondrá",-10.665222230900877],["dora",-10.66547021969402],["avanzado",-10.665933171136167],["resultar",-10.666745033164865],["traer",-10.668365881965753],["dedica",-10.668654395377896],["ofensiva",-10.66916734137832],["proyec",-10.669420292249782],["incidencia",-10.669520947148122],["inteligente",-10.669887307935895],["pierna",-10.669888537540146],["republicano",-10.66990897855629],["recoge",-10.670013867566903],["envío",-10.670019797983883],["pierde",-10.670149837310323],["ábam",-10.670220922196794],["lidera",-10.670287306749],["conducta",-10.670311880245704],["jugada",-10.670643444748798],["mantendrá",-10.670939146807019],["existente",-10.672334548999011],["ung",-10.672349160766707],["guía",-10.673263813895662],["masa",-10.673581742079943],["impus",-10.67421945140081],["creador",-10.674466362437213],["rdene",-10.674997434476655],["provincias",-10.676232990023435],["elabora",-10.676900290556503],["ñez",-10.677659457284854],["obligado",-10.678175831174592],["desarrollado",-10.678299312556017],["siento",-10.678300676359187],["acepta",-10.67883302201798],["declarar",-10.679039620532519],["apoya",-10.679262767524786],["conectar",-10.68035945753258],["orgullo",-10.680408897150802],["abandon",-10.680686892563017],["97",-10.680770556286477],["respetar",-10.680936473347291],["brinda",-10.680993697979599],["ónica",-10.681066709324963],["asesor",-10.68257473461901],["rama",-10.68261640690581],["triste",-10.682745839917493],["bomba",-10.682788463347215],["explosi",-10.682809379698307],["trabajado",-10.682978335368112],["cirugía",-10.68304521797764],["vestido",-10.683047249405357],["subsidio",-10.68305209429439],["fabrica",-10.683076842337414],["enemigo",-10.68334756195624],["mover",-10.683363338081302],["Vicent",-10.683420443181642],["cumplido",-10.683484542203463],["meti",-10.683834191843374],["secreto",-10.684563084366971],["notó",-10.684904461068196],["tiro",-10.685384065510643],["imp",-10.68550240919723],["reconocida",-10.6858440556842],["Castill",-10.686654643726044],["entregado",-10.686678506595733],["finaliz",-10.687109334741404],["ingres",-10.688139462545863],["ier",-10.688165189085888],["descubrir",-10.68845237315032],["ayud",-10.68855963550674],["expus",-10.689889282317537],["sospecha",-10.68994736312679],["iban",-10.690006582123674],["rechaz",-10.69248990075262],["cama",-10.693654930840943],["irá",-10.693670804012797],["brind",-10.69430569311076],["ili",-10.695747728279436],["dinámica",-10.696298103243393],["explota",-10.696348103486745],["espacial",-10.696376467660713],["patrimonio",-10.696378527550024],["Guadalajara",-10.696378527551506],["pronóstico",-10.696378527563926],["venezolana",-10.696378527646935],["testimonio",-10.696378527709818],["tecnológico",-10.696379813539426],["consecutivo",-10.696382847800649],["Sociedad",-10.696386700229969],["visit",-10.696406728871688],["antigua",-10.69647276476086],["tivo",-10.69752879182356],["River",-10.698283777953966],["Boric",-10.698748228130578],["operador",-10.698897720637785],["éste",-10.699095579026832],["izado",-10.699114328046381],["Caribe",-10.699405512338313],["Lima",-10.699555818473318],["Ari",-10.699916532696694],["cometido",-10.700189753951541],["contado",-10.700665500940492],["tira",-10.701729979596482],["Servicios",-10.70231567514619],["ordenó",-10.70252572622028],["señalan",-10.703964577603909],["surgi",-10.704266325400217],["ió",-10.705368997843621],["bu",-10.706118633791881],["bloqueo",-10.706488743747276],["aspira",-10.706530794167975],["propone",-10.70673899821642],["Quien",-10.708037163051076],["chu",-10.708847933957852],["colega",-10.709582726452243],["´",-10.709892041060154],["periódico",-10.709892043754166],["tragedia",-10.709892044906335],["Zelenski",-10.709892059064835],["quinto",-10.709897240509399],["Deportivo",-10.709898497437276],["gratuito",-10.709905706299775],["Constitucional",-10.709916998267808],["dictadura",-10.709934151143484],["sitúa",-10.709950293483502],["Energía",-10.710074527652452],["detenida",-10.710129888699427],["ninguno",-10.710192093267473],["realice",-10.710387223101863],["espectacular",-10.710553627288405],["compuesto",-10.710590074662514],["Divisi",-10.710633979074547],["tos",-10.711146058238704],["otorga",-10.71169515313516],["Massa",-10.711727737743768],["Pu",-10.711947065717606],["Año",-10.71212799224838],["59",-10.712209288499096],["acos",-10.712384923547699],["deje",-10.713003740946691],["creciente",-10.713062241347284],["conduc",-10.713115811218557],["once",-10.713715217533881],["sustancia",-10.713716317748169],["riesgos",-10.714157501733208],["Estadio",-10.71430192427892],["comprometido",-10.714481850198075],["Ho",-10.714526821156415],["presta",-10.715021115315736],["Catalu",-10.71575349398578],["var",-10.715767823814229],["asociado",-10.716590375366104],["71",-10.71708643090118],["Ambient",-10.717675191195026],["coca",-10.717962261144937],["Rodrig",-10.718774343873083],["viviend",-10.720084833247384],["Campo",-10.72058627588427],["destacan",-10.721800321629324],["pies",-10.721887997803131],["verá",-10.722480542618367],["descarga",-10.722729580595043],["Reye",-10.72290799760429],["cura",-10.722932794050537],["secundaria",-10.723590671209442],["numeroso",-10.723590674460905],["idioma",-10.723596463783696],["semestre",-10.723598095361577],["medalla",-10.723611435217686],["Existe",-10.723621434848583],["lengua",-10.723648120330552],["encuentre",-10.723656830338129],["contundente",-10.723698841380596],["leyenda",-10.723717388048613],["triple",-10.72399841536678],["tero",-10.724022491491016],["08",-10.724438593975854],["trastorno",-10.724702065878606],["Bull",-10.724911308300229],["Ciudadano",-10.724990957457065],["especializado",-10.725400286018012],["gal",-10.725411314621084],["Relacion",-10.725680126133279],["toc",-10.725708186249621],["cuándo",-10.72575883074385],["Av",-10.72710008743048],["amistad",-10.727437997669526],["Cés",-10.727787107555493],["aceite",-10.727838129055097],["Br",-10.729001698294063],["afrontar",-10.729397633339442],["verse",-10.729822267135107],["Hub",-10.729958305132959],["plano",-10.730515634913992],["reclama",-10.73079324210251],["120",-10.730802383582187],["basado",-10.731911547179209],["escase",-10.733187815527973],["denunciar",-10.733860128394703],["grito",-10.733909496908744],["cuadrado",-10.734880482686735],["eficiencia",-10.735736772815564],["ix",-10.736091903163718],["ctor",-10.736257355207215],["olvidar",-10.736653620731925],["satisfac",-10.737081732465565],["venido",-10.73716782792094],["problemática",-10.737479561446655],["comunicó",-10.73747979089125],["Teatro",-10.737480337643392],["tiroteo",-10.737489126638316],["soporte",-10.73766351324615],["obtenido",-10.737667899256333],["consenso",-10.737809555578172],["terrorista",-10.73792160690281],["divisa",-10.738721901729182],["basada",-10.73873014553509],["III",-10.738754658051501],["publicidad",-10.738961842017314],["provocado",-10.739045704543848],["Oaxa",-10.739336379980097],["rehabilita",-10.73976025145041],["BI",-10.739883567103126],["marido",-10.739997646236759],["lanza",-10.740547345863778],["dedicado",-10.742261855593476],["correr",-10.74354605225124],["certificado",-10.743728783982398],["carbon",-10.743898195883604],["suyo",-10.74424261674471],["encanta",-10.744686573180408],["top",-10.744696032198966],["decidir",-10.745009704277333],["involucrado",-10.745113465819468],["generado",-10.745121713624581],["mentira",-10.745471183343252],["pico",-10.745523054285794],["migra",-10.745548970613282],["LA",-10.745760049063271],["vivía",-10.746015554341682],["Agua",-10.746617223088283],["cartel",-10.746898598436903],["quedará",-10.74718394484527],["Algo",-10.747834662986357],["coloca",-10.748649310242918],["bonos",-10.749087678249374],["IA",-10.74926919094596],["eleva",-10.74928186808565],["BC",-10.749446543318777],["duc",-10.750329881173],["Especial",-10.75107499745016],["aprendizaje",-10.751564085786205],["Núñez",-10.751564119900685],["dominicano",-10.751564230332514],["Oscar",-10.751656165520224],["Ti",-10.751669652972666],["consiste",-10.751840738545669],["cumbre",-10.752119675562158],["gustar",-10.752497829332865],["correcto",-10.753003806175956],["Yu",-10.753204081542602],["Somo",-10.753209636460943],["terminado",-10.754049623926434],["rey",-10.754207528896046],["disfruta",-10.75436164945458],["organizada",-10.754789626403486],["gestionar",-10.754971963323236],["viajero",-10.755075849173814],["Casi",-10.755203996274204],["indicar",-10.755617644614127],["City",-10.755862624810762],["disminu",-10.75613027523453],["levanta",-10.756224255647929],["guarda",-10.756555181669235],["enfrentará",-10.756566168692018],["renta",-10.757139868657806],["incorporar",-10.757166428227729],["Zona",-10.75760069455027],["califica",-10.758133106106168],["ilusi",-10.758496538184986],["sirvi",-10.760325385195287],["organizar",-10.76066779651218],["Pueblo",-10.761696330088549],["escuch",-10.761828087917351],["precipita",-10.762543129661243],["umbre",-10.762559135793374],["ésta",-10.762655897323455],["relat",-10.762717320145704],["equilibrio",-10.763035908385428],["!”",-10.763416487461617],["Laur",-10.764049282467052],["demuestra",-10.764343873397435],["Occident",-10.76465975261446],["Vial",-10.764876367646877],["decide",-10.765241084511512],["Ir",-10.765264444117602],["opositor",-10.76548310685865],["determinado",-10.765620709251237],["artificial",-10.765849781455094],["agrícola",-10.765849781843567],["continente",-10.765849942858196],["Portugal",-10.765850103823583],["aborto",-10.765855997253095],["autonomía",-10.765878008320147],["humanidad",-10.76587960811326],["álbum",-10.765889201173474],["ecosistema",-10.765933204341671],["Mauri",-10.765943289987975],["ganancia",-10.766082145528841],["funcionaria",-10.766114067937172],["conservador",-10.766364107049748],["favorito",-10.766565961367002],["dirigir",-10.766637862463696],["mantenido",-10.766751861200394],["elevada",-10.766803226108124],["receta",-10.766906804065105],["jugado",-10.767384623982808],["ller",-10.767582352455015],["compartido",-10.768225193608902],["evaluar",-10.769470769053594],["preso",-10.769611858572015],["vol",-10.77003756290043],["caro",-10.770668806179359],["fiscalía",-10.770686756448633],["documental",-10.770821578837701],["Mac",-10.77164480627949],["crí",-10.771806830738688],["archivo",-10.7719861881403],["notable",-10.77298506092677],["emocion",-10.773054658611915],["reaccion",-10.77404815132109],["superado",-10.774113855056505],["participan",-10.774195798331423],["inaugura",-10.77487397876098],["panel",-10.775088559563537],["bono",-10.775775209452092],["solucionar",-10.776467290625169],["ji",-10.77684291499174],["usado",-10.77738589456703],["Morale",-10.777587816566783],["risa",-10.777755302837203],["billete",-10.777755467358851],["Rui",-10.777813869444364],["criptomonedas",-10.777887794129882],["civile",-10.778210074066553],["Villar",-10.77832449756722],["sufre",-10.778561853942342],["anota",-10.778810905913872],["prohibi",-10.779908267857394],["fábrica",-10.78034253521146],["escándalo",-10.780342535748584],["Juzgado",-10.780342572540052],["uanajuat",-10.780342783759094],["plástico",-10.78034298207056],["TikTok",-10.780343135402287],["Marru",-10.780347600092954],["italiano",-10.780359661663248],["atractivo",-10.780388775951382],["procedente",-10.78049859381319],["basura",-10.780692979601804],["fabricante",-10.780797192177266],["Luc",-10.78152550715555],["defendido",-10.782270809863439],["manejo",-10.782309291254528],["Arena",-10.782538239599956],["Ben",-10.782583422354211],["circular",-10.783079346164001],["ligera",-10.783668079070653],["Primero",-10.783837846452311],["hogare",-10.784193718868607],["asisti",-10.784344193143312],["denunciado",-10.784563816938014],["Puebl",-10.784578820535744],["Roma",-10.785099260045522],["mari",-10.785392599354854],["adicionales",-10.786044673730515],["prenda",-10.786928948709491],["vinculado",-10.787799410387613],["ilidad",-10.788604795711155],["manten",-10.789005865848612],["Jame",-10.789816486139744],["tradicionales",-10.789919422132662],["pension",-10.790446888379188],["Víct",-10.790865086665846],["Mor",-10.791637949169797],["gusto",-10.791763363652873],["tratado",-10.79264072464512],["tiva",-10.792843852700194],["arquero",-10.793320320328117],["incrementar",-10.79408741622089],["coincidi",-10.794298990883046],["cariño",-10.79445493006968],["mentó",-10.794918746144578],["universitario",-10.795048417416272],["científica",-10.795048428711098],["Oficina",-10.795048469947515],["eventual",-10.795048541284178],["gremio",-10.79504914895],["Marian",-10.795049544919236],["Carolina",-10.795052805838349],["caído",-10.795068926526804],["fraude",-10.795069675463314],["alimentaria",-10.795073654034042],["calendario",-10.795076354452343],["landa",-10.795096642348167],["inversor",-10.795132067608693],["negra",-10.795361546999676],["rebote",-10.795362026443511],["tía",-10.795395473119111],["Veracruz",-10.795454691882819],["relativa",-10.795466768954315],["Nº",-10.79567203986521],["hor",-10.795706795031982],["refiere",-10.79573950536844],["81",-10.795899058772411],["ertamen",-10.796125085734719],["Capital",-10.79644630032058],["videojuego",-10.796487137025668],["pusier",-10.79660251400291],["supo",-10.797010613957301],["tividad",-10.79703134245452],["doce",-10.797528342779984],["despacho",-10.79804371030583],["botella",-10.798446105537005],["quil",-10.798757745640664],["estreno",-10.798838812696676],["nacionalidad",-10.799008398878534],["espíritu",-10.79979659024237],["euro",-10.799805918050014],["Ru",-10.801756365357738],["elenco",-10.80322339585628],["éndose",-10.804187839349177],["rico",-10.80430816857831],["dur",-10.80496574094355],["tapa",-10.805384420017026],["Medi",-10.805696444060725],["prometi",-10.80587740546351],["Hug",-10.806101563787957],["fortaleci",-10.807132081005681],["comparte",-10.807208831349316],["provocar",-10.807264622296312],["iami",-10.807976643276401],["invertir",-10.808565900241623],["Flores",-10.808981434640117],["corri",-10.808986271587061],["autónoma",-10.809498493241279],["the",-10.809739872747251],["licita",-10.809782094895603],["recalc",-10.809906453996827],["leche",-10.80995264999422],["masculino",-10.809973791964715],["numerosa",-10.809973806101908],["Comunica",-10.809974316395945],["Universitario",-10.809978516714844],["Electoral",-10.809980475871834],["extraordinaria",-10.8099929714783],["dominio",-10.810001648226912],["falso",-10.810016349452692],["quinta",-10.810068838133013],["cher",-10.810218931081724],["Ayer",-10.810541029606435],["tti",-10.810806851282084],["reúne",-10.811078188893465],["intenso",-10.812234494814357],["Director",-10.812448635884964],["MLO",-10.81266717801384],["investigar",-10.812866621431002],["toria",-10.813283039374502],["desempeño",-10.813962280546873],["iana",-10.8141907847545],["boleto",-10.816425556330586],["vivido",-10.816918844569336],["pacto",-10.817098084513532],["Alon",-10.817528916140258],["acus",-10.817683826288203],["gue",-10.818289433925706],["Ze",-10.81861665834753],["acumulado",-10.819424806754956],["papa",-10.819878548278577],["incluir",-10.82037810903947],["traje",-10.821724689183654],["tado",-10.822557429028361],["Pre",-10.822576155752829],["edil",-10.82286821714381],["tocar",-10.82375555981335],["92",-10.823983923633566],["causar",-10.824297377972776],["porta",-10.824750941285348],["discrimina",-10.825045781661768],["aéreo",-10.825057649512349],["académico",-10.825125305676318],["Distrito",-10.825125314773008],["siniestro",-10.825125399616086],["Superior",-10.825125592204975],["célula",-10.825126079913444],["Digital",-10.825127358993122],["belleza",-10.825128008588749],["Academia",-10.825129268968258],["Bogot",-10.825133535955711],["exceso",-10.825137167058266],["vencer",-10.825189412199373],["(…)",-10.825205851949427],["Mercado",-10.825274515804317],["estré",-10.825277603676941],["polvo",-10.825437919223045],["reducido",-10.825448650341752],["creer",-10.825491274551819],["OMS",-10.825654743404687],["ice",-10.825745574768373],["Mál",-10.825921901757479],["Merced",-10.826020511913931],["mezcla",-10.826147315603906],["consigue",-10.826154496705879],["sosteni",-10.826361889164406],["atendido",-10.826521244129818],["fija",-10.82684664147409],["descubierto",-10.826959540583285],["menud",-10.827154613354153],["configura",-10.827329880608435],["almacena",-10.827333181265807],["bajó",-10.827591769939783],["Jan",-10.827620427448025],["expuesto",-10.828033362339859],["urbana",-10.828124258250924],["quitar",-10.829006788281454],["disputar",-10.829773757444045],["entra",-10.830304580094815],["sindical",-10.83052187268981],["iniciado",-10.830725912874254],["Obra",-10.831091956054824],["pen",-10.83155634049931],["saca",-10.831584499220064],["permitido",-10.831872440233436],["Ba",-10.833149647847772],["presentaba",-10.833396167980109],["84",-10.833737801121975],["if",-10.83419320311031],["Tele",-10.834217552812603],["?”",-10.834394606881295],["retiro",-10.834886461706507],["viaj",-10.835013780869662],["900",-10.835657694267434],["analiza",-10.839392064646997],["Azul",-10.840259706322625],["Política",-10.840509923616832],["ingeniero",-10.840510682462455],["voluntario",-10.840511206504608],["Seguro",-10.840513980022507],["Rural",-10.840541646207287],["pintura",-10.840544266013097],["futura",-10.840606938221082],["Tucu",-10.840623118374946],["mueve",-10.840644697269168],["jurado",-10.84070332679553],["acompañamiento",-10.840792893578735],["aspirante",-10.841287397039093],["recuperado",-10.841441626593074],["Latino",-10.841755047390269],["manifestado",-10.841812012650642],["crece",-10.842129245234727],["CC",-10.842281127028308],["medicina",-10.842464666422437],["veía",-10.842735315769062],["variable",-10.842870708679563],["llegaba",-10.842955273711556],["comprador",-10.84364000388808],["comprender",-10.843895938222017],["esperado",-10.844164514176812],["comenta",-10.844309864452406],["oza",-10.844443408220124],["comprobar",-10.844737820848946],["For",-10.845332990655239],["Lion",-10.845337928623536],["competir",-10.845438864543835],["peligroso",-10.845591951209862],["gigante",-10.845920845646823],["Alto",-10.846181414363773],["atacar",-10.847067699464201],["candidata",-10.84726281636923],["€",-10.847489786187285],["91",-10.847935421217805],["actu",-10.848529976844338],["hablado",-10.849321379271494],["sorprendi",-10.84947181794996],["dic",-10.849535759610763],["vice",-10.850477589901512],["foro",-10.8513412620104],["consultar",-10.851500589532336],["pelo",-10.852102141965922],["rompi",-10.85253383024823],["corresponden",-10.85369445479636],["disputado",-10.853734646739447],["brote",-10.855486738350073],["remate",-10.855751779515227],["alarma",-10.855994758594433],["adquisi",-10.85612748660072],["izquierdo",-10.856134921125932],["estratégica",-10.856134921357345],["específico",-10.856134921588957],["Profesional",-10.856135010166332],["expansión",-10.856135153378366],["artística",-10.856138143475192],["Quién",-10.856138747776303],["vacío",-10.85613917695075],["carril",-10.856159359875146],["potente",-10.856203928928478],["refugiado",-10.85621095316146],["lanzado",-10.856220776866138],["comisaría",-10.856222101625704],["Había",-10.856307376523255],["corredor",-10.856309339108925],["destinada",-10.856664218447984],["propuesto",-10.856789168148563],["Negro",-10.857231711428003],["Hondur",-10.857284480426896],["ayudará",-10.857802187534364],["colectiva",-10.85788748448698],["PI",-10.858062085007354],["semi",-10.858770674050433],["novela",-10.858908246715444],["ion",-10.859553440067597],["convocado",-10.859836239331571],["facilita",-10.860184051882644],["costado",-10.860668300686125],["posesi",-10.861096256056477],["parecido",-10.86210229306388],["ingresa",-10.862278566946252],["echar",-10.862412224072646],["importar",-10.862760443463145],["baló",-10.863172008255624],["exige",-10.86318452126158],["caracteriza",-10.863592749713886],["mantenga",-10.863784905403154],["tru",-10.863855890194262],["Iv",-10.864186409057442],["terminal",-10.864331268750956],["tén",-10.865981077812396],["recorrer",-10.866841175922946],["íba",-10.868361264710874],["ario",-10.868471712701174],["tendr",-10.869626246784584],["particulares",-10.870151192819375],["Teng",-10.87033887600412],["tic",-10.870773888083285],["CE",-10.871385330398002],["seguía",-10.871437445641448],["Hé",-10.871520908249394],["Guerrero",-10.87200793723686],["custodia",-10.872007939605847],["muchísimo",-10.872007945363213],["profundidad",-10.872007952742965],["universo",-10.872013926814411],["infancia",-10.872018019551923],["ruptura",-10.872018581583735],["masiva",-10.872019827756763],["Alfred",-10.87205471034618],["museo",-10.872103757705874],["imponer",-10.872159244173744],["Control",-10.872323335944497],["implementar",-10.872702675116908],["duría",-10.87278233004502],["romper",-10.873171903324838],["atentado",-10.874469327897181],["colaborador",-10.875279552494781],["puntualiz",-10.875851136264684],["astro",-10.875916658772482],["publicada",-10.875940674678006],["limpia",-10.876223717818455],["Espera",-10.877024553139321],["concluir",-10.87703959016851],["eño",-10.877092760213545],["caminar",-10.877174620080087],["aprobada",-10.877457932545692],["cost",-10.87770306171511],["compras",-10.877817425507981],["ándole",-10.879038041284737],["canta",-10.879075964558531],["Oro",-10.879315869927607],["dirige",-10.879347320030615],["Camp",-10.880369743509336],["83",-10.881689018993068],["Ban",-10.882298107955055],["cosecha",-10.883168871315316],["More",-10.883231586878573],["acept",-10.883375829259062],["electo",-10.883873168031274],["ato",-10.883968415706935],["cía",-10.884007647729675],["rre",-10.884662378904306],["Ó",-10.884683840276931],["contaba",-10.88536443187932],["aclarar",-10.885518554835508],["93",-10.886711815783505],["St",-10.886872329498498],["Sab",-10.887276553740282],["fruto",-10.887918862106902],["climática",-10.88813697010293],["juventud",-10.888136970762579],["precedente",-10.888136976036103],["ayuntamiento",-10.888137124655147],["demócrata",-10.888137127818048],["Torneo",-10.888138365932091],["transparencia",-10.888305263730931],["culpable",-10.88839068265386],["especializada",-10.888454591820478],["Unite",-10.888787530970214],["beca",-10.888898579857388],["Cuenta",-10.88912632066218],["Marina",-10.889181801738175],["ventana",-10.890065171082323],["sienta",-10.890434335142032],["vocero",-10.890936000661357],["explora",-10.89191938646885],["escapar",-10.892196830624318],["Asia",-10.892449307733777],["ini",-10.892612642232983],["coordinador",-10.893074646418881],["Local",-10.893679691670721],["correo",-10.893727827527236],["rosa",-10.893790149509819],["dejará",-10.894036391868077],["salvo",-10.894300835385986],["convivencia",-10.894370235004533],["disputará",-10.894550400460767],["causado",-10.894903314880164],["generan",-10.895168324017225],["cantar",-10.895529575840124],["2000",-10.896334056060539],["emoción",-10.896345655051341],["acompañ",-10.897360114913162],["flor",-10.897710411844656],["explican",-10.897800511826773],["invit",-10.898001038437371],["orienta",-10.898080162876383],["Hu",-10.898596389655012],["china",-10.89882443038838],["sencilla",-10.899038209445397],["diseñado",-10.899130175398325],["bus",-10.899842620186936],["reunir",-10.900326482052535],["creció",-10.90143109313475],["her",-10.901908872841183],["Hora",-10.902102302152777],["ección",-10.902528949206033],["pon",-10.9028392928296],["dependien",-10.903592806351458],["bor",-10.903642989123759],["Mesa",-10.90376890763864],["francesa",-10.904183907920622],["mex",-10.904218118898928],["à",-10.904530411814616],["Argentino",-10.90453041204331],["motocicleta",-10.904530412517866],["diplomática",-10.904530413078863],["iglesia",-10.904530436997053],["jurídico",-10.904531266822914],["Ourens",-10.904532410743702],["equipamiento",-10.904534886059928],["sugiere",-10.904535195813615],["obvia",-10.904536876968834],["comité",-10.904545464396168],["mascota",-10.904551047802148],["riqueza",-10.904561077656275],["masivo",-10.904565856155306],["iPhone",-10.904580522333887],["teoría",-10.904592521426615],["significativo",-10.904805456766386],["administrativa",-10.90500326371135],["Valenciana",-10.905246755394039],["FE",-10.905294232574981],["GT",-10.905767145498029],["celebrado",-10.90613731511709],["conforme",-10.906346614020459],["Pan",-10.90655032130913],["enseñanza",-10.906637285763903],["Rivera",-10.906675191342462],["saldo",-10.907282856768642],["bombardeo",-10.907656712283774],["predio",-10.907765613554103],["meter",-10.90838640046784],["manifestante",-10.908660222071678],["ux",-10.908687243278042],["defiende",-10.908899863169424],["encargada",-10.910604960051224],["enlace",-10.910682022069864],["Ac",-10.911009929633746],["rec",-10.911165784404501],["viajaba",-10.91302751982392],["rum",-10.913882977735177],["elli",-10.914464954272214],["cancela",-10.914927045567616],["repetir",-10.915499785037673],["veinte",-10.915808393067358],["impulsa",-10.91682284357694],["94",-10.916893635902985],["kov",-10.917938622880758],["India",-10.919442911580168],["continuó",-10.919924040068738],["quit",-10.920076247637185],["comuna",-10.92017946176245],["Jon",-10.920730424070037],["agricultor",-10.921197080003232],["dulce",-10.921197496117621],["embarazo",-10.921197634640492],["diligencia",-10.921197904649468],["huelga",-10.921198511960181],["piscina",-10.921200182734768],["renovable",-10.921214765103548],["Español",-10.921218399518455],["Alguna",-10.921232752855257],["acontecimiento",-10.921237222314183],["Orteg",-10.921242834850908],["brecha",-10.921252476695354],["madera",-10.92129188617902],["Mejor",-10.921320872079377],["Herrera",-10.921320940026366],["copia",-10.921323355302327],["emprendimiento",-10.921323508909921],["alma",-10.921349157439199],["huella",-10.921356374609548],["restante",-10.921365298706135],["directiva",-10.921376422805814],["dormir",-10.921494967354793],["financiamiento",-10.92161620912874],["pasaje",-10.921763158405016],["basa",-10.92192326809977],["integrado",-10.922078298493922],["Explic",-10.922355081001076],["argument",-10.92239443447156],["Europeo",-10.92270821841133],["Blanco",-10.922806500341165],["Señal",-10.923152215036282],["Gre",-10.9232732809433],["delegado",-10.9236444479134],["Muñ",-10.923840794529575],["critic",-10.924249963603799],["CEO",-10.924311914729245],["asalto",-10.924363069658783],["insumo",-10.924530387645206],["Wa",-10.925821903518738],["cable",-10.926133979516399],["Ur",-10.926428445377276],["productivo",-10.926450143871268],["hua",-10.92680396419863],["reportado",-10.926949374456044],["querer",-10.927384845213524],["cr",-10.927558394250017],["pesa",-10.927770995273875],["gestione",-10.928960596962597],["mirar",-10.929663719019903],["Euro",-10.929709126379802],["tomada",-10.929722001726503],["propias",-10.929980778661879],["05",-10.930390438069463],["Indic",-10.930623449730158],["acompaña",-10.931170470076594],["sumado",-10.931310326786885],["cruzar",-10.931562370008232],["fría",-10.93216310837304],["investigado",-10.932661310127251],["programado",-10.93274264075163],["Pen",-10.933390256354585],["apoy",-10.934891334039673],["operar",-10.93564148443874],["Cant",-10.937758766745823],["futbol",-10.937770186148178],["democrática",-10.93807221712428],["aérea",-10.93809306646411],["núcleo",-10.938146231045547],["jurídica",-10.938146231215569],["humanitaria",-10.93814627720403],["nublado",-10.938147880762951],["Jujuy",-10.938161777625522],["sequía",-10.938164084000569],["vieja",-10.938167967518844],["Campeonato",-10.938168858708424],["Star",-10.938176931086794],["bancaria",-10.938185628850842],["abuelo",-10.938195800739933],["sensible",-10.938247249302618],["anima",-10.938474241305844],["Manch",-10.938496464192575],["Ruta",-10.938720840238094],["ML",-10.938750461204005],["acompañada",-10.939026108176755],["Macri",-10.939047714806488],["cometer",-10.939900337485785],["morir",-10.941024703297645],["Mc",-10.941173910671466],["Ko",-10.941343951643924],["aumentado",-10.941572585694985],["anteriormente",-10.941985637501583],["persecu",-10.942225805886629],["renovar",-10.942458134272602],["concretar",-10.942512524699374],["embarca",-10.942986458203158],["PRO",-10.943307864225932],["moción",-10.944556626179459],["Play",-10.944699606452327],["Segund",-10.944804850058205],["borde",-10.945053046020398],["publicar",-10.946000980183879],["hablan",-10.946011041861127],["sinti",-10.94654366967009],["sentenci",-10.947304200103295],["vin",-10.94828116575935],["Sport",-10.948342165452226],["06",-10.948373124981426],["Leon",-10.948541146986862],["corre",-10.949343430409733],["grati",-10.949403648296922],["Orient",-10.95126008871782],["anuncia",-10.951341076597664],["Silva",-10.95164440492221],["visual",-10.952171234204062],["rece",-10.952730873522349],["imón",-10.952963705650461],["itas",-10.95300073317058],["desea",-10.95446740526755],["q",-10.954497002257456],["cinta",-10.955202301989626],["rutina",-10.955370624386758],["ª",-10.955387610333998],["columna",-10.955387610353078],["temprano",-10.955387617173965],["Oficial",-10.955387624512866],["Vladimir",-10.95538765689701],["compleja",-10.95538806221822],["juvenil",-10.955389100844979],["frecuente",-10.955394547586117],["excusa",-10.955410295721226],["vigor",-10.955553046708792],["goleador",-10.955624724512916],["tejido",-10.955823393330586],["trabajadora",-10.955902088228058],["giro",-10.956265150710593],["orgulloso",-10.956307119457287],["transacci",-10.95647064163072],["Virg",-10.95672972401845],["sostener",-10.95675763835835],["PAN",-10.956965723771628],["rango",-10.957165828389781],["situado",-10.957198963211471],["capac",-10.957501485047388],["centra",-10.957582491789614],["deterioro",-10.957719168520498],["ntes",-10.958050963331726],["punta",-10.958521899581605],["Nicarag",-10.958536724848209],["compr",-10.959272630256908],["bot",-10.959307946579113],["jubila",-10.959649155319106],["funcionar",-10.960174634962318],["constituye",-10.960340679399774],["dispus",-10.960732957454375],["recurrir",-10.96092406990044],["clar",-10.961773731217201],["ines",-10.9632212017633],["parada",-10.9635211894925],["atleta",-10.963882115329682],["recauda",-10.96419868591426],["Xi",-10.964224790291608],["frenar",-10.96441336773242],["arle",-10.964437356062422],["seria",-10.964780842938657],["migo",-10.964849585773011],["inst",-10.965238927830933],["especula",-10.965275674985701],["Cho",-10.966648927559568],["robar",-10.966684081156439],["Alex",-10.966901625431309],["GP",-10.967450238326705],["buscará",-10.968073710372035],["aria",-10.968678625814754],["Tan",-10.9687440940425],["alia",-10.969362533599975],["ED",-10.969374792615493],["Forma",-10.969480171738923],["Mayo",-10.97053663943599],["bri",-10.970798258573504],["Univers",-10.971896768799748],["ford",-10.971997804585122],["palo",-10.972251163392112],["Libertad",-10.972406374659275],["Cree",-10.972454310293639],["patria",-10.97248965836707],["instruc",-10.972673664994996],["hurac",-10.972685987461308],["democrático",-10.972860840791624],["patrulla",-10.97286901788193],["•",-10.972931469983122],["intérprete",-10.972931469983266],["colombiana",-10.972931470082862],["espectador",-10.972931474802545],["Vázque",-10.97294317118652],["extraordinario",-10.972944883297949],["exitosa",-10.972945659344667],["preliminar",-10.972958089064154],["automática",-10.972975433302082],["cercanía",-10.97300527006694],["lenguaje",-10.973005421440142],["venció",-10.973070514734502],["puntual",-10.973072439163104],["felicidad",-10.973341292631162],["SA",-10.97343271038866],["propus",-10.973452744089581],["domin",-10.973983899695583],["taller",-10.974028887311519],["Poco",-10.974180594316639],["pasaba",-10.974655673127376],["avanzada",-10.975050650380936],["juzgado",-10.975223297766481],["festejo",-10.975552954426231],["Tra",-10.975808394002314],["disminuir",-10.97591720009099],["desarrolla",-10.975976834223264],["procedi",-10.976185843521876],["expresado",-10.976419950240137],["tz",-10.976919062107308],["Che",-10.977815609778919],["Personal",-10.977933423943863],["armada",-10.977933940898627],["separado",-10.978381584354281],["AN",-10.978843178700185],["aerolínea",-10.979286396603769],["Gali",-10.979421088816439],["Hid",-10.97978235203177],["DI",-10.979874020646069],["agradecido",-10.981292637577134],["ist",-10.982207084745575],["pelear",-10.98236659486069],["rock",-10.982389993596833],["recib",-10.983062526959959],["ox",-10.983196106700063],["Mas",-10.983517185062416],["compensa",-10.98352888221328],["Gua",-10.98373074107879],["exhibi",-10.983891055645682],["ocupado",-10.984207387005824],["Podem",-10.985275670669862],["limitado",-10.985808264883808],["utiliz",-10.986101657832418],["iedad",-10.986508277506095],["indican",-10.986953785611561],["participará",-10.98704990102066],["ilumina",-10.987165266326304],["mand",-10.98719778109686],["ff",-10.987934818151922],["reproduc",-10.988844276105443],["legado",-10.989388843364114],["int",-10.989500978106673],["calificado",-10.989746403148121],["Ser",-10.990402678170572],["anticipa",-10.99073583880456],["estratégico",-10.990788612843183],["magistrado",-10.990788613045972],["Autónoma",-10.990788615512773],["magnitud",-10.990788644472074],["Médico",-10.990789400253593],["barrera",-10.99079683769128],["Código",-10.990799618529872],["turística",-10.990800005213522],["cubana",-10.990805210700167],["Donald",-10.990821769205883],["forestal",-10.990835765729141],["comodidad",-10.990953283098268],["huevo",-10.990972603097307],["camione",-10.991271993097836],["Olímpico",-10.991485390948036],["ocasion",-10.99152587243956],["Jer",-10.991546847978125],["externo",-10.991699501510176],["volante",-10.991708397104878],["MW",-10.991841290479258],["pareci",-10.991864575030595],["planifica",-10.991978108835411],["ndroid",-10.992515086850403],["concluye",-10.992546719256804],["rebaja",-10.99283589044136],["BB",-10.993227431728577],["convencido",-10.993546591252262],["gesto",-10.993901482428596],["apela",-10.994224008722682],["pyme",-10.99429400976854],["film",-10.99455973845169],["manual",-10.99493178295797],["PA",-10.995278257770734],["asiento",-10.995406644142655],["kovic",-10.995463454571762],["ánimo",-10.995596582275716],["elaborado",-10.995721406079117],["mapa",-10.997028160904499],["emp",-10.997264913296291],["autos",-10.997348626697567],["software",-10.997963157456555],["abajo",-10.998121897194373],["destruc",-10.998219202855275],["Mexican",-10.998563634187567],["ará",-10.99900408839958],["emitido",-10.999062896817787],["derivado",-10.999825934039922],["Press",-11.001220066173085],["jar",-11.001287838647004],["cobrar",-11.00143434662479],["compart",-11.00164740478634],["toman",-11.001877384120315],["Cort",-11.002444425544626],["arco",-11.00247179585179],["Ob",-11.00328644304279],["Gra",-11.004047921947203],["Media",-11.004534904308716],["Agust",-11.005716021710672],["describi",-11.006003028383299],["jubilado",-11.006045020120894],["Ch",-11.006182211496512],["cumpl",-11.006317100510904],["ejecutar",-11.006757868558163],["calcula",-11.007745595440202],["ester",-11.008202894668308],["Rom",-11.008430175921813],["Goberna",-11.008787680022587],["economista",-11.008970462231675],["Quizá",-11.00897116516255],["jefa",-11.00897510758894],["Alianza",-11.008982219369265],["Black",-11.008986067069605],["Área",-11.00900831279605],["cursos",-11.009017313096008],["equivalente",-11.009018117092033],["Monterre",-11.009025131259937],["fórmula",-11.009040842760298],["reloj",-11.009090258048104],["asesinada",-11.0091499538417],["ww",-11.009344510481684],["entretenimiento",-11.00951196654471],["Arabia",-11.009706774376262],["sext",-11.009837595847975],["complicada",-11.010097653721845],["absoluto",-11.010620300957802],["buscaba",-11.010637365300349],["comenzado",-11.010710306537952],["secuestro",-11.011155710206253],["otable",-11.011290600513709],["recuper",-11.011364252641215],["Cháv",-11.011398901499797],["Bolson",-11.01169662522425],["gastr",-11.012241165882276],["menciona",-11.012411913164183],["obligatorio",-11.012448240334663],["NI",-11.012605456970679],["sepa",-11.013228430591461],["caballo",-11.01330704653545],["bancada",-11.01387472455178],["Hotel",-11.014512694554746],["depósito",-11.015279971220755],["dict",-11.015831474347669],["Foto",-11.016298629827135],["ambi",-11.01636193262842],["Alba",-11.016523328717977],["Cer",-11.01694995075772],["Her",-11.018172990816124],["guardar",-11.019972308906183],["tario",-11.02132270390646],["Sanidad",-11.021519489954812],["CV",-11.021715617399462],["pensado",-11.02201095606036],["anticip",-11.022710439328154],["Gi",-11.023529838455168],["aprecia",-11.024000691851757],["alega",-11.02403723655956],["proporcionar",-11.024052545483071],["atriz",-11.024110625728406],["evit",-11.024505609914407],["finaliza",-11.026297933359238],["Ger",-11.026538750598865],["esper",-11.026889780871118],["héroe",-11.027434861448587],["británica",-11.02748895027542],["temprana",-11.027488950924173],["YouTube",-11.027488966065633],["congresista",-11.02748973992746],["Historia",-11.027490274257996],["Alfons",-11.027490931804378],["precau",-11.027491320017866],["monetaria",-11.027493534640245],["laboratorio",-11.027493593959846],["Reserva",-11.027496833835242],["comunitario",-11.02750135612279],["perteneciente",-11.027504977518943],["Balear",-11.027506389107753],["aves",-11.027609664837142],["beneficiario",-11.027628433521052],["Asunto",-11.027649113958129],["exigencia",-11.028024080823432],["Libertador",-11.028043793070637],["difus",-11.028184492095273],["bienvenida",-11.028219392789257],["retir",-11.028234134461105],["cuadra",-11.02825800113401],["arroj",-11.02884945500416],["extranjera",-11.028891584269408],["ár",-11.028995392290755],["compartida",-11.029133239290173],["comisiones",-11.029254834757221],["GB",-11.02931251405333],["dedicada",-11.02932144642944],["estimado",-11.029409787241493],["tramita",-11.029517992554753],["inmedia",-11.030493299386567],["grit",-11.030598775395928],["RA",-11.030937946360412],["letra",-11.031009398063464],["servir",-11.031511506122424],["Arte",-11.031824099410253],["met",-11.031844479013769],["comentado",-11.032537873773705],["procede",-11.03259292333676],["tuit",-11.032624075141914],["ascenso",-11.032882813681024],["sibilidad",-11.03328649871889],["incluy",-11.033372571473326],["ofrecerá",-11.035259956675375],["Patrici",-11.035760952422518],["eiro",-11.036188449418018],["ormalidad",-11.036453173595211],["alert",-11.037096419671489],["conmemora",-11.037988552272477],["Industria",-11.038349471714227],["pri",-11.038776612157118],["ricos",-11.039217547662243],["pared",-11.039746117881835],["cierra",-11.040220363727618],["tercio",-11.04032943251403],["jueza",-11.040346744282967],["Mark",-11.040553394249994],["manejar",-11.040556235362175],["beneficia",-11.040709100206273],["Camil",-11.041149193484905],["nave",-11.041327818115269],["Campeon",-11.041390109731338],["ora",-11.04159916536612],["preocupado",-11.042127288057324],["Federic",-11.042788404256541],["Joaqu",-11.042889023241555],["Soy",-11.043345938447917],["ándolo",-11.043418587368864],["Chica",-11.04386849568041],["cordó",-11.044209875505398],["hambr",-11.045348329930132],["lix",-11.045756990962644],["Gesti",-11.046011971714883],["afectan",-11.046110883702891],["bús",-11.046114542908617],["rector",-11.046344449341625],["helicóptero",-11.046356874068914],["Emergencia",-11.046356900441307],["amistoso",-11.046356946127803],["Generalitat",-11.046357176898882],["atraviesa",-11.046357229642158],["carpeta",-11.046358640737813],["certeza",-11.046361326576035],["Añadi",-11.046363802588633],["accesible",-11.046363956999707],["vestuario",-11.046370202823077],["porteño",-11.046372498153344],["gnacio",-11.046374659130567],["reemplazado",-11.046412627583285],["legislativa",-11.046452111947646],["poderoso",-11.046507113012828],["Sam",-11.046801444157344],["necesitaba",-11.047062595911186],["suba",-11.047093972107039],["ocup",-11.047600903310487],["instalar",-11.047918310475628],["compatible",-11.048106552691403],["vendi",-11.048118002839324],["ènci",-11.048409917935814],["denominado",-11.048659572084318],["arios",-11.049620149192311],["débil",-11.049658343959344],["atacado",-11.050014171471565],["estrecha",-11.050046852067167],["Cár",-11.050258155943439],["amparo",-11.050555188101253],["Sara",-11.0512777251094],["transformar",-11.05192333711504],["cuidados",-11.052704828913017],["FA",-11.05282410613862],["confía",-11.052925051572503],["descarta",-11.053468699993841],["registran",-11.05368683953759],["gen",-11.053771376200412],["contiene",-11.053829370393526],["retorno",-11.053923783982215],["Hi",-11.053989129040495],["Park",-11.054021434457503],["amante",-11.054156436475381],["unta",-11.054355764507427],["bosque",-11.054483446341594],["escaño",-11.054596315606073],["Verde",-11.054832888414317],["desempeña",-11.054861690702957],["ruido",-11.055433211904228],["destacada",-11.055626215109003],["fre",-11.055927394963533],["lica",-11.0561655036747],["alcaldía",-11.056317971455847],["onomía",-11.056553475092803],["negociar",-11.056647926203585],["empat",-11.056740642992471],["anotar",-11.057265398556675],["vir",-11.05780274607196],["composi",-11.057921907139429],["gastar",-11.057991856668302],["01",-11.05828728156201],["igencia",-11.058292091319345],["importe",-11.058380473643341],["TC",-11.05847652478107],["Tor",-11.058582711874031],["sigla",-11.058843008634279],["vivencia",-11.059180862765624],["sentar",-11.05934365067517],["estancia",-11.06064824552573],["manda",-11.06095450631446],["ag",-11.063031343925818],["ejecut",-11.06345054748151],["ponien",-11.063612353757163],["estructural",-11.06380644182391],["temática",-11.064892075272763],["trayecto",-11.065534810278175],["hábito",-11.065587647457555],["ingrediente",-11.06558772499916],["Proyecto",-11.06558790837092],["peruano",-11.065588659869753],["Secretario",-11.065591354877133],["amarillo",-11.065594014152179],["apartado",-11.065598038253736],["irregular",-11.065610481914542],["resolvi",-11.06562276889394],["acordar",-11.06563386489794],["Leonard",-11.065666387189191],["Movimiento",-11.065697236016575],["saldrá",-11.06571722395973],["desfile",-11.065736525509617],["pool",-11.065774619257938],["Pilar",-11.065795091388672],["roto",-11.06604514663844],["legisla",-11.066046231709347],["atacante",-11.066081385219453],["Serie",-11.066165302908608],["Estaba",-11.066391149156495],["dieta",-11.066395838486834],["fomentar",-11.066501727869838],["impresionante",-11.066761710214053],["carro",-11.066965378450718],["atiende",-11.066975228882509],["sombra",-11.067093021208713],["explicación",-11.06717373587161],["ant",-11.067225797498748],["vincula",-11.067319989357017],["contribuir",-11.067421960219981],["tica",-11.068314052786214],["flore",-11.06872910033765],["Cerca",-11.069007024120896],["patio",-11.069142210801504],["niega",-11.069290555936949],["Vél",-11.069509374562587],["Macro",-11.069987636675705],["humo",-11.070097102541869],["Smi",-11.070141295241669],["Claro",-11.070333093642713],["encia",-11.071174008110809],["agregado",-11.07147131524312],["optar",-11.071494578247334],["designa",-11.071632375487727],["ocupar",-11.071811152405502],["ku",-11.071987787795788],["Franco",-11.07201044823228],["escuchado",-11.07201973164492],["votante",-11.072171916518803],["condado",-11.072414529396873],["desigualdad",-11.072671477516698],["extraña",-11.072840397376385],["oral",-11.074444484879251],["implicado",-11.074764528338086],["corpora",-11.07491793096763],["Campe",-11.075170657603241],["Precisa",-11.07520286339129],["Orti",-11.07557431210573],["silla",-11.075889003451122],["productiva",-11.075949740455549],["marcada",-11.076793819267555],["cómodo",-11.078687524900372],["Van",-11.07910304126247],["Quere",-11.079248022598765],["adelantar",-11.080180467156612],["aro",-11.080261254207993],["novia",-11.080395076061231],["considerando",-11.080623870249974],["huan",-11.080809859413549],["diz",-11.081530934093934],["off",-11.08265381491155],["Vo",-11.082881284184635],["Mer",-11.083787919437507],["autónomo",-11.083935136646708],["Max",-11.084205342910519],["Produc",-11.084374617522489],["RE",-11.08438393381748],["abinete",-11.08496216467762],["iraní",-11.085177021265219],["académica",-11.085195486437128],["franquicia",-11.085195486525521],["Facultad",-11.085195494237494],["pulgadas",-11.085195511113966],["módulo",-11.085195551712022],["delictivo",-11.08520125995167],["cintur",-11.085230364200388],["reduj",-11.08523303812246],["Representante",-11.085235472675201],["Ciudadana",-11.085247047647766],["Camino",-11.08525698220803],["Patria",-11.085286393472924],["interanual",-11.08537172347473],["acta",-11.085377064640948],["escalada",-11.085427267044533],["referido",-11.0854659161364],["quedaba",-11.085663079856499],["fortuna",-11.086017230709471],["Estudiante",-11.086378678375908],["AR",-11.086502349512838],["Sandr",-11.086769553000432],["otorg",-11.087260092449322],["reporta",-11.087417906362441],["nieve",-11.087429737897015],["Vera",-11.087959849199628],["valenciano",-11.088132676520168],["llave",-11.088553854630522],["desarrollando",-11.088808696924001],["arranc",-11.089001862320488],["consta",-11.08973893763097],["levant",-11.089787456854756],["utilizada",-11.08979195459602],["fijo",-11.089929078928279],["04",-11.090022331167473],["estuviera",-11.09011165735443],["chef",-11.090935602705091],["iro",-11.090939340074556],["añadir",-11.091577772976493],["zco",-11.091800115474788],["itos",-11.092040106318132],["data",-11.09222559803949],["lector",-11.092627235648724],["Ken",-11.093106711391897],["tacó",-11.093420812510793],["Irá",-11.093806106299493],["imagina",-11.094044277062402],["camina",-11.094078963161369],["Lara",-11.094432640049632],["especialidad",-11.094460916312354],["lgado",-11.094608493233789],["maí",-11.095578372292149],["monte",-11.095798574003615],["ring",-11.096711259870641],["comercializa",-11.09712690405716],["War",-11.098163857110391],["apié",-11.09822795179257],["Sch",-11.098762518495901],["buque",-11.099177887052141],["reactiva",-11.100602477043722],["maestra",-11.100607293236667],["determinada",-11.100801997440819],["finalidad",-11.101009697968802],["grav",-11.102078219237212],["tom",-11.102653235861434],["IS",-11.102937318791673],["vend",-11.10317707525829],["comprometi",-11.103674439147095],["diente",-11.103684740362947],["dina",-11.103702448294914],["hinc",-11.103777107213372],["financiar",-11.103823653405394],["2007",-11.104259889504245],["revoluci",-11.104350920162656],["naranja",-11.10511035840684],["actúa",-11.10515036436345],["gubernamental",-11.105195486437765],["ejemplar",-11.105195486778957],["Chihuahua",-11.105195486981897],["Michoac",-11.105195920097914],["Disney",-11.10519671587576],["artístico",-11.105197452371433],["Jaime",-11.10520207393047],["aislamiento",-11.105227937745898],["pertenencia",-11.105231900726329],["facilidad",-11.105247275503903],["Micro",-11.105259343170207],["Presupuesto",-11.1052922494396],["Trabajador",-11.105314294862001],["rumore",-11.105391117252324],["vendedor",-11.105403084225554],["telefónica",-11.105474583584082],["localizar",-11.105597100691677],["conquista",-11.105776833934897],["irregularidad",-11.105876182200209],["retirada",-11.10595704965427],["field",-11.106066549836074],["favorita",-11.106447498166727],["interesada",-11.106649620917574],["montaña",-11.107381839233751],["gimnasio",-11.107438790199517],["complet",-11.107464497531199],["adaptar",-11.107561868663092],["cortes",-11.10790394486532],["paseo",-11.108028332078359],["Gil",-11.108503971844131],["certifica",-11.108633278966137],["iniciará",-11.108689787273523],["sometido",-11.10873207702144],["esperada",-11.10878018460881],["arresto",-11.108936832079257],["canto",-11.109760781445331],["identificación",-11.110168236713193],["cobro",-11.110207938062704],["asesino",-11.110210781970117],["difundido",-11.110998057451617],["avione",-11.111179983656697],["apuntado",-11.111568337664272],["recibiero",-11.111740513073581],["Aguilar",-11.111794532092805],["decirle",-11.112058333775101],["XXI",-11.112177238870586],["traj",-11.112317308102838],["acudier",-11.11296323816564],["Sabe",-11.11298090922866],["solicita",-11.11317829222773],["interac",-11.113944028685792],["desarrollará",-11.114414163256576],["cruz",-11.114546169520676],["ardín",-11.114599232698737],["ib",-11.114850326204978],["arquitect",-11.114889003328653],["sentado",-11.116017483249674],["varado",-11.11706746114356],["rota",-11.11885235385451],["americano",-11.119274878791018],["esencia",-11.11964445085346],["Persona",-11.120023100810851],["reflexi",-11.120032706390933],["Sams",-11.120089181668998],["char",-11.120500429201162],["obten",-11.121099968363144],["Aguas",-11.12160538510157],["etti",-11.12166111090788],["abasteci",-11.122430846262684],["vot",-11.122474886044348],["unir",-11.122529157435597],["disculpa",-11.122638144947503],["mandar",-11.12314912940342],["maneja",-11.12327363507671],["tard",-11.12363541931096],["gráfico",-11.123942881082996],["Bet",-11.123951879537852],["asesora",-11.124164942406601],["negar",-11.124569009412308],["luc",-11.125167357771199],["arranque",-11.125180871189093],["privilegio",-11.125603649712987],["vehicular",-11.125603649719805],["uruguayo",-11.125603649731525],["imprescindible",-11.125603653401136],["catálogo",-11.125603654615922],["Atlántic",-11.12560390840417],["Autoridad",-11.12560481067416],["broma",-11.125605087071792],["bolsillo",-11.125606367893788],["market",-11.125607540840548],["Global",-11.125609174631341],["Dan",-11.125609922409541],["molestia",-11.125613457573802],["Michael",-11.125615714151795],["Taiw",-11.125626649566204],["arrestado",-11.1256424726019],["excepcional",-11.125645330790983],["Jefe",-11.12568288480836],["Ferrar",-11.12570380380501],["rubro",-11.125724478343756],["militante",-11.125754865611652],["asciende",-11.125773411463733],["retraso",-11.125826829524254],["taxi",-11.125846107749954],["basta",-11.12584869276286],["recoger",-11.126017427726488],["identificada",-11.12652618178802],["barra",-11.126700704464334],["aval",-11.12672310381614],["Misione",-11.126879995726812],["refugio",-11.12710976372361],["Tour",-11.127183475609716],["natal",-11.127328427654271],["extraño",-11.127421753997078],["pura",-11.127563501210485],["dign",-11.128784290956911],["suicidio",-11.129367951750833],["denomina",-11.129381190697814],["azar",-11.129790438298357],["cubierta",-11.13016513267435],["hallado",-11.130242336204205],["compañera",-11.13084983046213],["titud",-11.131106268009384],["lim",-11.13116888504801],["bre",-11.131458476719324],["Alic",-11.13169438964573],["ocio",-11.131986050991598],["integrar",-11.132154465318996],["lógico",-11.132499802244745],["desat",-11.132514901206003],["Mira",-11.132581007387643],["evilla",-11.133800560967938],["rescatar",-11.134115479258382],["cat",-11.134458606996684],["salga",-11.134827328640748],["gui",-11.135859401572917],["110",-11.135868349332098],["ejercer",-11.136130688018254],["Muy",-11.136290612961043],["disparar",-11.136433518593016],["ándo",-11.136689449706084],["ali",-11.137059441876374],["existi",-11.137390596268723],["Conven",-11.137453940939835],["parti",-11.138180809791775],["previ",-11.138269361675231],["AS",-11.138371771478791],["transmitir",-11.139331086440151],["Padre",-11.13936482752049],["nsk",-11.139611114460934],["sensacion",-11.13988885363035],["agro",-11.14301818849485],["voluntaria",-11.143256184531072],["gris",-11.143386306922412],["dichos",-11.144021114802877],["recorri",-11.144090061299162],["rodilla",-11.144405089392386],["reportar",-11.14458313072517],["acerc",-11.14486554494297],["rica",-11.144947562291012],["Alta",-11.145164207992238],["proporciona",-11.145861311227682],["despliegue",-11.14643698303579],["Mbapp",-11.146437209206958],["consecutiva",-11.146444194921028],["originario",-11.146498084957154],["legislativo",-11.14649811376065],["hab",-11.146502786822687],["Abina",-11.146512224259581],["Puente",-11.146516226870823],["Usted",-11.146553000128026],["soft",-11.146604751109116],["señora",-11.146615472777508],["abogada",-11.146624853659691],["ob",-11.146754422625765],["exigir",-11.146867759156235],["baile",-11.146906197291909],["enfermo",-11.147008730798976],["paralelo",-11.147555609119596],["Cam",-11.148119011536458],["bloquear",-11.148337283961187],["exista",-11.148361314608236],["cuello",-11.148520668237683],["subsecretario",-11.14893756310157],["Cata",-11.149083563263632],["moderno",-11.149111108213507],["pit",-11.14931423146507],["suspendido",-11.149980693869644],["rato",-11.150065824806042],["llamas",-11.150132846257772],["deceso",-11.15024683935336],["ult",-11.150420584646552],["irán",-11.151065527085363],["cobar",-11.151192913131574],["acorde",-11.151256236567619],["07",-11.151860621672677],["consolida",-11.151904849800882],["retomar",-11.152011371763127],["sostenido",-11.152931260501981],["considerada",-11.15312414808848],["observ",-11.153688609839907],["necesit",-11.153873349835825],["Fed",-11.154196314457348],["ingresado",-11.154208848782325],["dimension",-11.154484933439083],["Pr",-11.15459661879306],["culmin",-11.15478306108523],["mat",-11.155228448865433],["IT",-11.155627457852143],["Ali",-11.156442333287348],["XX",-11.156593317287673],["expuls",-11.156647269159848],["Contr",-11.157246693837752],["cort",-11.157586053794942],["ett",-11.157598863972916],["AM",-11.157978303400016],["hospitalizado",-11.15871719449537],["NASA",-11.159060719753839],["Cabr",-11.160057694155583],["ahorrar",-11.160896644222204],["danza",-11.161347063496464],["Dom",-11.162793247926396],["ther",-11.163171778882148],["insiste",-11.163598187833118],["Tom",-11.163777604247992],["censo",-11.164097157050136],["agradable",-11.164207317033739],["DT",-11.164397128894779],["Eva",-11.1652766153574],["Hol",-11.165488120085792],["programada",-11.165746477375754],["Var",-11.165797836402405],["linda",-11.165871082276187],["detec",-11.166259508143924],["inspec",-11.166731161938795],["pague",-11.166814966876554],["justifica",-11.167189905714196],["permanecerá",-11.167597999519817],["interpretar",-11.167678857100151],["Económico",-11.167713580577956],["embarazada",-11.167713580963818],["israelí",-11.167713585536719],["auxiliar",-11.167713587187041],["ingeniería",-11.167713591528331],["paisaje",-11.167713609864741],["canadiense",-11.167713742805518],["auxilio",-11.167713804886262],["alumna",-11.167713824480973],["alojamiento",-11.167713998922492],["símbolo",-11.167714044777606],["valioso",-11.16771763755046],["entusiasm",-11.167722647710834],["feminista",-11.167724347242636],["tomaron",-11.16774228231909],["Cualquier",-11.16774999545995],["crónica",-11.16776243135662],["primavera",-11.167818820935162],["pierda",-11.167849561871769],["Eugeni",-11.16788752343273],["illo",-11.167896569364084],["Concep",-11.167904643791129],["rentabilidad",-11.167914325360819],["inconveniente",-11.16802966991641],["impide",-11.168114641381974],["administrativo",-11.168169766342592],["gobernante",-11.168370004089295],["Caja",-11.168388436636453],["130",-11.168479738784134],["trasladada",-11.168519984191107],["subido",-11.168558995050054],["veterano",-11.168739182128752],["impulsada",-11.168842815866654],["Adam",-11.168878523437646],["Dep",-11.168881885261731],["ster",-11.16892440341766],["hit",-11.169082017041514],["obtiene",-11.169198528941546],["traslad",-11.169317125013006],["cortar",-11.169540058519361],["plantear",-11.16958228620943],["calma",-11.170141075912404],["representar",-11.170236107009206],["reglamento",-11.170917499915827],["haría",-11.171064216673564],["Calv",-11.171472675509097],["fil",-11.171521049795352],["experimentado",-11.171820624243342],["rov",-11.171920833559577],["Mai",-11.171922976609075],["olívar",-11.172154858581491],["minero",-11.172465114025002],["ong",-11.172589638190612],["ética",-11.17299874135002],["Angel",-11.173029716733197],["elevar",-11.173035771636059],["acostumbrado",-11.173145748263977],["cotidiana",-11.173189786503798],["Catar",-11.17350419691473],["barril",-11.17378976642311],["prestar",-11.173891943100276],["antander",-11.174108809747139],["grasa",-11.174149236353827],["Juventud",-11.174455968788067],["Grand",-11.174557111543812],["landi",-11.174564443848997],["vendido",-11.174779172908998],["localiza",-11.174815620980661],["AL",-11.1749253010524],["02",-11.175041458234263],["ví",-11.175705311816158],["reaccionar",-11.176362708724497],["pensaba",-11.176586217956599],["PE",-11.17659336908535],["onda",-11.17697577100091],["tenista",-11.176994676531011],["bajada",-11.177071616114395],["consultado",-11.177835661486226],["relata",-11.178228010761366],["Rock",-11.178651344504473],["corporal",-11.178678489356392],["avia",-11.17871207393948],["costas",-11.178940385053064],["Belgra",-11.178972716350813],["atento",-11.179400689846567],["accedi",-11.179682409361781],["deriva",-11.179696667422798],["Min",-11.179993820910436],["inspira",-11.1801856478686],["uña",-11.181307519298173],["far",-11.181408805448767],["comunal",-11.181536738630385],["preguntar",-11.181738443835105],["entrenar",-11.18204350579751],["lito",-11.182448163592701],["MA",-11.18290973820152],["Canal",-11.183453648744441],["enfrentan",-11.184283721457795],["donado",-11.185258246899062],["́",-11.185421450239984],["EN",-11.185423090344],["apuntan",-11.185623008541956],["entera",-11.186096068105703],["agu",-11.186857863422897],["pagan",-11.187267280810124],["rina",-11.188097007296307],["determin",-11.189242760453146],["hiciera",-11.189386005911219],["millonario",-11.189427228630597],["presione",-11.189450085071481],["universitaria",-11.189452709215464],["advertencia",-11.189452709568858],["mecánica",-11.189452710146295],["pertinente",-11.189452711969697],["soberanía",-11.189452716072367],["cálculo",-11.189452739619844],["mercancía",-11.189452765357306],["italiana",-11.1894535363612],["crecido",-11.189453948011248],["religiosa",-11.189459928057376],["Gonzal",-11.189459976194774],["acordado",-11.189470813802224],["virtud",-11.18947350052989],["Independiente",-11.189557812648756],["arranca",-11.189677782697835],["Shak",-11.189760680607224],["nómina",-11.18989368218169],["tuv",-11.189900179430776],["barato",-11.189951013451118],["agradecimiento",-11.190024140260356],["terrestre",-11.190387738165736],["discutir",-11.190418957740867],["incumplimiento",-11.190425303451633],["reivindica",-11.190634370077419],["Necesita",-11.190809753766276],["descubrimiento",-11.190812848807127],["Bravo",-11.190864129567231],["corona",-11.190916983206726],["salía",-11.191065221593945],["barata",-11.191092314744958],["DC",-11.191093196563564],["gradual",-11.191106412401194],["criticado",-11.191833517897951],["mencionada",-11.191853724555413],["acing",-11.192308338053465],["colaborar",-11.192492681602998],["Williams",-11.19255143810127],["creía",-11.192710785598193],["patronal",-11.19300435722688],["extender",-11.193133048560053],["Belar",-11.193212115396749],["respira",-11.193378725226285],["progreso",-11.193403578217064],["Djo",-11.19351438435206],["Bon",-11.19356444384487],["gato",-11.193730904779144],["difundi",-11.193938801189557],["fracaso",-11.194105234489431],["ndows",-11.194437914113854],["deportes",-11.194993067787806],["reclam",-11.195129990467116],["Bank",-11.195598199700285],["sorprende",-11.197349532408289],["prohibido",-11.197981013234706],["ioja",-11.198157297124625],["Open",-11.198552257510054],["Mé",-11.198990472487624],["est",-11.199520822951955],["hacerle",-11.199562280652799],["ific",-11.200354530303315],["salt",-11.201475551807977],["arena",-11.202384175646033],["lic",-11.203183006979435],["Marc",-11.203541969837937],["hue",-11.20363046647839],["pop",-11.20380885913938],["IP",-11.204787389876607],["Meta",-11.204869746182657],["estim",-11.204870184382408],["Habr",-11.205130282702592],["impact",-11.205676304704191],["chip",-11.206357907104554],["American",-11.206729394670536],["Familia",-11.207156648428263],["encarga",-11.20776889263035],["organizador",-11.207913522150484],["mata",-11.207975549426445],["cometi",-11.20834575212525],["preciso",-11.208405964529245],["mega",-11.208528279105558],["gor",-11.209428728527463],["peligrosa",-11.20943112014131],["pac",-11.21024158156849],["experimentar",-11.210475969217232],["gala",-11.210721384059052],["grada",-11.21076934000393],["gráfica",-11.210837217368073],["constitu",-11.211385620304123],["diplomático",-11.21167493143895],["femenina",-11.211674932765344],["permaneci",-11.211674933857719],["líquido",-11.211674956171525],["terrible",-11.21167512436558],["pistola",-11.211679168333426],["bonito",-11.211684913540456],["canasta",-11.211687267077467],["Monument",-11.211699143474222],["Paraguay",-11.211703174914568],["percep",-11.211712825055242],["promueve",-11.211767012931851],["Mallor",-11.211793460652034],["respectivo",-11.211823529458552],["Murcia",-11.211840303460797],["Soto",-11.211876102271349],["indicio",-11.211894480375927],["compit",-11.211962947376914],["Salta",-11.212180781142319],["pozo",-11.212304255443133],["MP",-11.212430428847657],["proviene",-11.212436899945137],["nguez",-11.212449107006426],["existir",-11.212661457510862],["Calder",-11.212771916852704],["agallane",-11.212953174299473],["Leo",-11.213371276396408],["Liver",-11.213795381724522],["CI",-11.213827192146528],["critica",-11.213886645876071],["Berl",-11.21404614405639],["ubic",-11.214252367851712],["preferencia",-11.214568239769484],["reparar",-11.214714812830739],["retirado",-11.215495102183889],["ret",-11.216119300886874],["neutral",-11.21618550773353],["aragon",-11.216506085584953],["andro",-11.216595650133042],["represent",-11.216652503853592],["disparado",-11.217071469091593],["termine",-11.217114141370477],["Sig",-11.217131026031899],["computadora",-11.217364252956553],["asigna",-11.21808512500224],["Preven",-11.21865954418081],["asociada",-11.218714387224482],["CG",-11.219018987607948],["SS",-11.219105094948953],["hito",-11.21935987155235],["combinado",-11.220145664489557],["Cristo",-11.221396847611878],["acabado",-11.221477963105615],["CD",-11.222667580151224],["limpiar",-11.223522987881543],["podio",-11.223759489310762],["efectuar",-11.223772457545186],["bate",-11.223786331129352],["Fer",-11.223840390557507],["Mil",-11.224375056138664],["localizado",-11.224597951593998],["interesa",-11.224662302283502],["adop",-11.225279366682736],["impedir",-11.22548180336156],["abrirá",-11.225902889740384],["agregar",-11.225977614724682],["gobernar",-11.226173308981235],["ME",-11.226468019642969],["instalado",-11.226602264901489],["Már",-11.226711513091958],["oculta",-11.227048656050242],["inc",-11.227119568694112],["radi",-11.22731805836619],["emprendedor",-11.22800379893751],["PJ",-11.228157564985398],["ubicar",-11.228172984541246],["Pod",-11.228230606533526],["desplazar",-11.228810248815327],["campeon",-11.22886509548816],["uperó",-11.229142938700157],["metal",-11.22919840745884],["Fé",-11.22954416128223],["lazo",-11.229719237077749],["modificar",-11.230218140900254],["predic",-11.231146000049652],["ficha",-11.231327428634996],["ordenar",-11.231809271841628],["entero",-11.231904046361938],["rí",-11.232429665118664],["SD",-11.233054232214005],["internado",-11.233345113316055],["discut",-11.233476855031602],["ránsito",-11.233531302976488],["ik",-11.2337296718983],["Empresa",-11.234340177352031],["Sputnik",-11.234402206277444],["Guadalup",-11.23440220663337],["asamblea",-11.234402212317189],["cerebral",-11.234402214312711],["facultad",-11.23440238486414],["sentimental",-11.234406718912696],["estacionamiento",-11.234407706325172],["crudo",-11.234422676768178],["Zamora",-11.234427200292195],["deber",-11.234427460207776],["ilícito",-11.234472158143886],["patología",-11.234499370238044],["tubería",-11.234540487510191],["ógeno",-11.234563610188765],["relevan",-11.234603908681375],["polaco",-11.234610055400521],["reunirá",-11.234657738854555],["recomendable",-11.234662254173447],["Amba",-11.234784784286292],["Procura",-11.234886348406729],["Ira",-11.234990777704779],["construido",-11.235006441878959],["NA",-11.235165526473272],["considerable",-11.235448127061456],["desastre",-11.235484411103648],["contribuye",-11.235551231606008],["tele",-11.235813722498799],["sonrisa",-11.236104562646993],["instituto",-11.236120804127584],["inmigrante",-11.236231461677562],["Agricultur",-11.23645990679712],["permanecer",-11.236553078786041],["dota",-11.23682277414986],["trig",-11.23695090331168],["instante",-11.237307256266583],["analiz",-11.237489771961371],["marina",-11.237556498425977],["Ton",-11.238122048098706],["hablaba",-11.23886462770647],["editorial",-11.239078898972465],["demostr",-11.239320236198491],["intentado",-11.240226572583651],["detectado",-11.240388626240096],["Fiesta",-11.240868482091386],["acude",-11.240976154315149],["avanz",-11.241398990098261],["gado",-11.241922039225065],["planteado",-11.242304733750228],["moderna",-11.242420754838509],["conecta",-11.243198923066785],["Ramo",-11.243268562748531],["Pri",-11.243285601044727],["muro",-11.243710724098227],["box",-11.243809152473714],["comici",-11.244001270323583],["construy",-11.244122312319973],["anzas",-11.244580701216494],["tributo",-11.244732894375948],["sentía",-11.244750465420932],["preservar",-11.245104869389936],["reparto",-11.245323032920641],["afirman",-11.245726627497032],["verificar",-11.246495625782396],["suceder",-11.246561688743888],["qu",-11.246628510532833],["Mora",-11.24665406463255],["cua",-11.2472701665366],["consigna",-11.247427129604452],["Dar",-11.247465855736115],["Mont",-11.247481452157757],["Cristian",-11.248247250319634],["confi",-11.248717922349257],["etiqueta",-11.24895606470992],["deportistas",-11.24947438924507],["uri",-11.249595019782557],["audita",-11.250729804630607],["Informa",-11.250893503235584],["supervis",-11.251625449317949],["Emili",-11.252347776458718],["Oeste",-11.252822532023801],["banca",-11.25349640142095],["pronunci",-11.253552127634563],["Uni",-11.253575361427844],["abra",-11.255500983700756],["atrac",-11.255543975887342],["conectado",-11.255669923115306],["escrita",-11.255889174842341],["vacunado",-11.255941823794888],["centrado",-11.256191410660625],["iento",-11.256234656714868],["extin",-11.25697044909459],["Ama",-11.257053005117273],["acífico",-11.257083668538304],["indispensable",-11.25765801812162],["maquinaria",-11.257658024372299],["círculo",-11.257658031438813],["proveniente",-11.257658117295316],["segmento",-11.257658624164936],["sacerdote",-11.257659306277983],["poblacion",-11.25766235284236],["Christian",-11.25768003337193],["Segura",-11.257683098180797],["enmienda",-11.2576853775659],["comandante",-11.257685740457845],["migratorio",-11.257706766766201],["hubiese",-11.257717612831634],["Marvel",-11.257719397463777],["Stree",-11.257721598431758],["Colorado",-11.257772605377973],["definitivo",-11.257790378485204],["dirigencia",-11.257899689957323],["gabinete",-11.257946494939773],["confronta",-11.257966765270279],["maltrato",-11.258012345889124],["brutal",-11.258126029041513],["Imag",-11.258139033401394],["Madre",-11.258170444301998],["exam",-11.258176549414916],["balazo",-11.258349233659894],["hice",-11.258396098665264],["brillante",-11.258472213268874],["restaura",-11.258597714249436],["enfrent",-11.258882024238424],["Bruse",-11.25905804685695],["acercamiento",-11.259061158768121],["continuo",-11.259171019265738],["Golf",-11.259193962155635],["viaja",-11.259455949760982],["valorar",-11.259525147451534],["hospitaliza",-11.260055574455066],["iño",-11.260184699374614],["Luca",-11.260192808411931],["huir",-11.260205826893829],["liberar",-11.260735377140534],["cismo",-11.261060497565555],["USD",-11.261236710007609],["mann",-11.26153859835585],["carece",-11.261761376554574],["reportero",-11.261804717405186],["dedicar",-11.261900023668385],["verdura",-11.262214093266138],["descart",-11.262735521756735],["delincuencia",-11.262742487428483],["ordenado",-11.26320279159038],["mada",-11.263315424635243],["Mirand",-11.263941904376491],["ocupada",-11.264015175748243],["ocurrir",-11.264111659982735],["jurisdicci",-11.264360580259218],["Ga",-11.264628607602704],["Cine",-11.264804396563301],["lenta",-11.2651415649282],["visa",-11.265711816628038],["séptimo",-11.26581475096873],["Lago",-11.266084125133142],["pul",-11.266306857340583],["república",-11.2665211923735],["macho",-11.266623790482363],["experimenta",-11.267147926241549],["campeona",-11.267164901250949],["Borr",-11.267775127620247],["ampli",-11.268151713136648],["pronostica",-11.268429387680378],["montar",-11.268468414805392],["Mara",-11.268473521535629],["tratan",-11.268563209519012],["anim",-11.268687542269973],["residencial",-11.269077956539673],["colec",-11.269096736376481],["proces",-11.269771718797767],["pr",-11.269873845595324],["cargar",-11.270155317001292],["Están",-11.270698064080918],["pagado",-11.270952458219089],["poste",-11.270968238880023],["nutri",-11.271204344201028],["argumenta",-11.271890721012248],["profesi",-11.27260552410704],["ciber",-11.272704396738167],["alemana",-11.27348973268249],["izada",-11.273574690328196],["ojo",-11.27384090084312],["secuencia",-11.274116025733834],["mero",-11.274257867023836],["cupo",-11.274273648021413],["demostra",-11.274279833318513],["Fre",-11.274420687841243],["Pat",-11.274799985970917],["rendir",-11.275011011667202],["Bah",-11.275932307901769],["estatu",-11.276474536887257],["define",-11.276977149045981],["conden",-11.277239559515408],["puro",-11.27765364002298],["Dal",-11.277783484889392],["severa",-11.278756016125824],["rompe",-11.279784335159661],["tuviera",-11.280037123148137],["pecho",-11.280326242930716],["acelerar",-11.280808528537733],["Tigres",-11.281016942621921],["comunicar",-11.281030178541801],["fronterizo",-11.28146754619015],["dirigía",-11.281467632318822],["Concejo",-11.2814676558913],["universal",-11.281467725077551],["desplazamiento",-11.281482259011177],["sólido",-11.281486820035617],["fractura",-11.281501215647152],["adquisitivo",-11.281507815021003],["Zacate",-11.281518305805719],["Parece",-11.281538960175569],["hermosa",-11.281543993515854],["nombramiento",-11.281551945368681],["montaje",-11.28156486073695],["vit",-11.281593129899022],["exclusivo",-11.281597707690569],["Cro",-11.281608557506342],["armamento",-11.281616191588494],["WWE",-11.281705073131164],["Silvi",-11.281764693277987],["ensayo",-11.282108770542369],["convencional",-11.2821254604366],["cuento",-11.282340887804722],["Edi",-11.28272284085093],["ware",-11.283051965901615],["pretemporada",-11.283200130347305],["recep",-11.28350877697158],["castigo",-11.283749583944342],["advertid",-11.283762656026193],["Estudio",-11.283914646218197],["boda",-11.284038065641191],["TI",-11.28478514085322],["rito",-11.284996322245444],["Charl",-11.28513198161656],["filtro",-11.285209958159793],["abarca",-11.28546829115135],["complemento",-11.285583990064431],["tension",-11.285696958803205],["ker",-11.285937677782984],["ng",-11.286072632025206],["tenis",-11.286299503237831],["oscuro",-11.286441063762123],["Far",-11.286689421138451],["consumir",-11.286951733563235],["externa",-11.286995307990278],["creada",-11.287427539918262],["Destac",-11.28753418898065],["Art",-11.287607825585663],["vaca",-11.287884146326332],["Tomá",-11.288112515126617],["movi",-11.288632819881958],["detallado",-11.288868235547062],["Artes",-11.289458620180872],["resume",-11.289509295701073],["Andre",-11.290164188266152],["rich",-11.290382479607516],["funcionan",-11.290564083602687],["NBA",-11.291898987649683],["portero",-11.29217248074891],["tope",-11.292174735866876],["IN",-11.292253404071339],["aparecer",-11.292309262539542],["acot",-11.29283406306782],["gri",-11.292877511235693],["Wh",-11.293035903902988],["uesca",-11.293168334950245],["denominada",-11.293377233454494],["argas",-11.293918662677996],["elaborar",-11.293954377918265],["ub",-11.294810553576967],["sexto",-11.294958986564628],["suspender",-11.29500145976819],["contener",-11.295022322403776],["ibilidad",-11.295043024088482],["bolet",-11.295174116716014],["mineral",-11.295605283971549],["tumor",-11.296378132193974],["crema",-11.296387985941362],["Habla",-11.296621036447842],["decora",-11.296965404532948],["uch",-11.297289645775354],["ndez",-11.297397973903625],["coinciden",-11.29747397591112],["cí",-11.297683948743032],["entrado",-11.298127431587503],["privaci",-11.298485816078557],["tismo",-11.298847966876052],["Pol",-11.298854120042062],["sentí",-11.29905107551978],["Qui",-11.299354302134336],["cito",-11.300030923706366],["atendi",-11.30003156517052],["bau",-11.300118632861185],["salva",-11.3001677815304],["ich",-11.300526088488406],["desarrollador",-11.300927044118527],["afirmar",-11.301022527356842],["verifica",-11.301592447188636],["Wal",-11.301619109681315],["litera",-11.302065829918144],["aclara",-11.302089126675106],["encuestado",-11.302821003788281],["suave",-11.302916281368178],["presa",-11.302954460650302],["promete",-11.303544623193673],["narra",-11.303657048215365],["Segui",-11.303862366362996],["Bol",-11.30427933559767],["UN",-11.304546693467795],["botó",-11.304758644345414],["mueble",-11.305426404184395],["stream",-11.305558350353108],["doméstico",-11.305851540557605],["Georgi",-11.305858068225618],["Militar",-11.305858163840256],["progresiva",-11.305858262551954],["eficaz",-11.3058588314964],["Vivienda",-11.305859360667501],["electrónica",-11.305860003356226],["Músic",-11.305868189164002],["azulgrana",-11.305895282731406],["vergüenza",-11.305904105831665],["décima",-11.305912460692925],["intelectual",-11.305937486604437],["divertido",-11.305956155004395],["peronismo",-11.30606042964632],["curioso",-11.3061254199157],["nieto",-11.306233114581358],["tristeza",-11.306272915104877],["portó",-11.306436442511169],["Ab",-11.306482145654101],["Montero",-11.306812851014934],["preocupante",-11.30698687394059],["Infantil",-11.307032655013792],["Guaya",-11.307404390937036],["pesca",-11.307673212346792],["Roc",-11.307941390488926],["foment",-11.308053458120662],["Malv",-11.308222526861858],["Valor",-11.308304377207833],["recogido",-11.308587500533507],["Busca",-11.309090901814907],["ign",-11.309412298677765],["realizaba",-11.309415806136718],["ganadora",-11.309798454048657],["trama",-11.309863047629925],["desapareci",-11.309974447500288],["Cabo",-11.311263850137003],["extendi",-11.311365987329683],["cencia",-11.311854631368835],["conozca",-11.312728774384727],["Bio",-11.312868178810339],["revelar",-11.313056405103012],["Lucian",-11.313093884252469],["FI",-11.313149656838002],["alimento",-11.313445783472304],["Abu",-11.3136755867612],["160",-11.31375088510818],["colocado",-11.313756178884526],["flota",-11.313968844116319],["afiliado",-11.314209040850537],["prestacion",-11.31431458341649],["Arce",-11.314446577482675],["reseña",-11.314799715830327],["Quit",-11.315062365346044],["ü",-11.31527683165755],["ataca",-11.315354312650417],["rapid",-11.315559678606807],["ance",-11.315577873586847],["emitir",-11.315584684579648],["sorprendido",-11.315763515099253],["vocal",-11.315771286889165],["dej",-11.316350285932206],["recomend",-11.316668672853277],["nteligencia",-11.316748366539139],["golpeado",-11.3172521368285],["doctora",-11.317458543813006],["cristal",-11.317574712418347],["calenta",-11.317579579729252],["Cristiano",-11.3177663591716],["cuerda",-11.317941902195178],["GR",-11.318275097563522],["350",-11.31841102625852],["vaso",-11.318542240157912],["ficaci",-11.319554224663552],["rra",-11.319734266084357],["proyecta",-11.319735149208462],["tío",-11.319894821529228],["Mexicano",-11.320259086460448],["cur",-11.321404743225166],["catal",-11.321795124521108],["mago",-11.321959469507458],["fama",-11.322262786382257],["aprovecha",-11.322539109075581],["West",-11.322788872815941],["rate",-11.324169780675357],["Auto",-11.324184371167163],["gica",-11.32424291390252],["Toma",-11.324541301794595],["Pep",-11.324612140412086],["formado",-11.324784906012757],["licia",-11.324880333773253],["izo",-11.325129006462168],["conduce",-11.325178867523656],["referir",-11.325216009644258],["intentan",-11.325841859524116],["Cre",-11.326032119641471],["costar",-11.326334606490354],["180",-11.326491856458707],["pata",-11.32673414774617],["servirá",-11.327127511289142],["activ",-11.327129861293256],["paradero",-11.327538460965714],["derrot",-11.328063744636701],["age",-11.328515902850084],["felic",-11.329354556442851],["cubr",-11.329458585301111],["reg",-11.329724904920049],["padece",-11.329735129076404],["Bad",-11.329975746090016],["secundario",-11.330857785923865],["disponibilidad",-11.330857786216082],["televisor",-11.33085779316413],["World",-11.330857798774002],["requerimiento",-11.330857832367837],["agujero",-11.330857984537603],["víspera",-11.330858008745416],["Lamentable",-11.330858120037565],["Gallardo",-11.330858156950407],["petrolera",-11.330858359073758],["Primaria",-11.330858482832994],["tropical",-11.330858682208763],["inocente",-11.330860663353253],["transparente",-11.33087265035163],["obstáculo",-11.33087881309541],["psicológica",-11.330881978496633],["cerveza",-11.330892203538648],["fectó",-11.330913890874939],["manifiesta",-11.330921424755482],["Tercer",-11.330995403556607],["aeronave",-11.331005972476788],["Rubé",-11.331070881704722],["Quintana",-11.33109014874977],["ciclista",-11.331093584869807],["INA",-11.331104084052257],["Dicho",-11.331140899199273],["peronista",-11.331143713239276],["muerta",-11.331144112095501],["Junior",-11.331181047363506],["cuarentena",-11.331263075833967],["andar",-11.331285693803688],["menú",-11.33147855020069],["desconocido",-11.331615483608099],["gricultur",-11.331668142190736],["Fox",-11.331671466579966],["Medicin",-11.331744014484384],["cautelar",-11.331786131457283],["protector",-11.3320126691022],["justificar",-11.332340736480575],["cabello",-11.332735138274712],["ago",-11.332751487902131],["contenedor",-11.33281711831696],["goberna",-11.332865017492697],["Turqu",-11.33291351300573],["vinculada",-11.33299487402289],["erife",-11.33307398090659],["servidor",-11.333162957898882],["lavado",-11.333282578758002],["llenar",-11.333481682806195],["embr",-11.334100287044663],["obligada",-11.33442496928245],["convoc",-11.335097234724739],["udo",-11.335274427436337],["controlada",-11.335462232699406],["contratar",-11.335527316596348],["oblig",-11.335604902645194],["integran",-11.336176581244143],["ajustar",-11.336274565389843],["echa",-11.336316680522955],["comarca",-11.337067935995199],["adilla",-11.33819557875695],["locura",-11.33889898031989],["pilar",-11.339630644370684],["reces",-11.339706854636042],["aterriz",-11.339965295964126],["deportista",-11.34000930306741],["digna",-11.340409161083624],["dialog",-11.340618282112846],["seca",-11.340634613394073],["Castelló",-11.340681743994041],["insta",-11.34071726050412],["Tro",-11.341084946510836],["rindi",-11.341221060544664],["Luz",-11.341465617615455],["Rus",-11.341490984587905],["PN",-11.341618842322221],["ango",-11.3417263622218],["hijas",-11.343036726750052],["ija",-11.343336484818863],["Tú",-11.34338721189645],["expresa",-11.343527503122761],["sustitu",-11.344064054102846],["protege",-11.34447028858483],["Tél",-11.344663454497443],["ázar",-11.345220466148414],["profesora",-11.34539632336199],["trabajaba",-11.345740359855183],["planea",-11.346057526684119],["Cá",-11.346096135639955],["invitar",-11.34613971932735],["gr",-11.34646949499951],["Henr",-11.34743333515835],["prefiere",-11.34760073952992],["mag",-11.34773232200529],["Tren",-11.347783813004618],["garra",-11.348045009494479],["metas",-11.34856822484667],["Sar",-11.349590707243781],["activar",-11.350856594152395],["finca",-11.351141631257995],["Chu",-11.351851573325858],["listado",-11.352337022663967],["recorte",-11.352337581909541],["disfrut",-11.352602457559549],["lema",-11.353024957795283],["revelado",-11.353297899430379],["camas",-11.353735859526042],["capa",-11.354302515019738],["regidor",-11.35485145386794],["bit",-11.354980044875997],["aparatos",-11.355200678622955],["concret",-11.355331326726855],["medi",-11.355829060218555],["busc",-11.356191800248464],["interrup",-11.356267138893788],["expresion",-11.35632255540025],["amo",-11.356419649633644],["Tijuana",-11.356498814362107],["proteína",-11.356498839570293],["trofeo",-11.356498970450968],["latinoamericano",-11.356509408228707],["influencer",-11.356516167884735],["concluido",-11.356521108113062],["Govern",-11.35652499208004],["costumbre",-11.35653431760765],["arroz",-11.356550531961968],["efectu",-11.356551621554424],["Rodol",-11.356553579821316],["Quintero",-11.356570001430537],["típica",-11.356604530802194],["Molina",-11.356608192412473],["accionista",-11.356612146152674],["Hous",-11.356619592420143],["orquesta",-11.356620101744712],["pienso",-11.356627971397522],["revertir",-11.356636555123302],["masacre",-11.356637339678748],["belga",-11.356660914417233],["creatividad",-11.35667343484553],["ésped",-11.356773299267733],["inmobiliario",-11.356777158456671],["centenario",-11.356813742389992],["vacante",-11.356851032203735],["inyec",-11.356861335976328],["iv",-11.356928377086554],["pasaporte",-11.357006494411014],["enferma",-11.35701953038939],["abuela",-11.357110008731373],["secuestrado",-11.357195530732369],["vende",-11.357439516534585],["Roo",-11.357480377493774],["lleguen",-11.358196241954566],["Web",-11.358333874739918],["rechazado",-11.358481900659168],["icio",-11.358498058288218],["Revolu",-11.358587402208164],["oído",-11.358589440178392],["entendi",-11.358684123262584],["conquistar",-11.358699526792929],["reemplazar",-11.358885750128117],["Telegra",-11.358896707033326],["Dicha",-11.358943410893444],["Patrimoni",-11.359164621199659],["sorprendente",-11.359334863541402],["faltan",-11.359393031338746],["mediana",-11.359481747901736],["drama",-11.359915896113243],["Fu",-11.36008392803758],["Mir",-11.360206495064343],["Pues",-11.36029453988299],["intersec",-11.360375090530198],["illas",-11.360526425873875],["fallecida",-11.360628378955973],["comedia",-11.360660119754684],["Andrea",-11.361293943883833],["convic",-11.361411681573314],["competitivo",-11.361826399801151],["livio",-11.361917612640067],["instalada",-11.362110638983289],["Emilia",-11.362504628992738],["Qu",-11.362717100301698],["Green",-11.362867435115787],["azúcar",-11.363832834360274],["faro",-11.364157157445831],["Eco",-11.364746823740564],["Canel",-11.364962647810408],["ayudan",-11.36510170573537],["reunido",-11.365946311337598],["apoyado",-11.365949400792863],["golpear",-11.36596224874759],["ubi",-11.3662013358427],["Saba",-11.366256042868184],["entes",-11.367359934669489],["Industrial",-11.367530937239032],["adjudica",-11.36837266840342],["té",-11.36858912306144],["diera",-11.36915448916327],["sube",-11.369894406893128],["mostraba",-11.370413105701616],["iéndose",-11.370597554258596],["situada",-11.371083183159202],["Robles",-11.37122648672362],["out",-11.371883476638171],["apostar",-11.372024368820767],["pesado",-11.372608206924369],["empresaria",-11.372916210736852],["consolidar",-11.373376559436663],["rayo",-11.374061489911654],["Hua",-11.374136239346662],["marino",-11.37435758413873],["Agente",-11.375517413846726],["elev",-11.375549790672494],["notar",-11.375823066979205],["Bay",-11.376197052176757],["redac",-11.377678338845318],["convocar",-11.377832603723887],["clasificado",-11.377894037630194],["contribu",-11.378198797864428],["extenderá",-11.378562589542977],["hueco",-11.379475969460458],["ilusion",-11.379796740326999],["XI",-11.37999538412868],["malas",-11.380068300180481],["CP",-11.380538525174233],["tome",-11.380863987887807],["dispuesta",-11.380891763863064],["Sports",-11.380924930270433],["asiático",-11.381260480079579],["Rubi",-11.381301302302848],["bati",-11.381792160701702],["Emple",-11.38220386302766],["aconseja",-11.382281027319596],["fasi",-11.382356484564433],["Gaz",-11.382452807406922],["Ku",-11.382466522633099],["reclamar",-11.38249667010574],["respeta",-11.38260794377241],["hipoteca",-11.382792664019867],["*",-11.382814600944686],["madrileño",-11.382814600949306],["humanitario",-11.382814601173461],["autonómico",-11.382814601471381],["inminente",-11.382814607555527],["muchísima",-11.382814612411602],["parroquia",-11.382814614413503],["tremenda",-11.38281462393596],["Encuentro",-11.382814665697225],["solitario",-11.38281475780808],["logística",-11.382815252597723],["ollywood",-11.382816577041531],["Neymar",-11.38281679124933],["psicológico",-11.382828344377376],["Cuerpo",-11.382844716910366],["ranking",-11.382844828249585],["fertilizante",-11.382849821079393],["Innova",-11.382854305612742],["centímetro",-11.382860050976262],["premisa",-11.382910606354159],["extensa",-11.382935766791897],["Calle",-11.38297601527494],["Ojal",-11.3830414851605],["impuesta",-11.383058947693712],["matemática",-11.383071719134119],["extiende",-11.383104846806301],["inscribir",-11.383154441003212],["túnel",-11.383377417299618],["Niño",-11.383382403014553],["Frank",-11.383446993802153],["Brit",-11.383615906844682],["abandonado",-11.383621756666157],["ectividad",-11.383622608948402],["muestre",-11.383770318600595],["habilitado",-11.384017728588418],["Artur",-11.384030633628724],["contribuyente",-11.384047640280869],["Bill",-11.384132302829936],["Natural",-11.384463586311872],["intermedio",-11.384521467490496],["King",-11.384626220471691],["extradi",-11.384716966504417],["representado",-11.384917204381678],["ultra",-11.385336860597814],["abrazo",-11.38541157976639],["chat",-11.38580291496069],["establecida",-11.385950322254903],["empatar",-11.386037489846375],["joya",-11.386067654235447],["Bayer",-11.386354177037985],["mantenía",-11.386692890852785],["Joan",-11.386706643297265],["venga",-11.387214072783472],["ping",-11.38727817709756],["renunciar",-11.387294114182453],["manuel",-11.387639260658739],["consola",-11.388381520885035],["Ste",-11.388503175885372],["iruela",-11.389136242614937],["armados",-11.389392829536263],["Reforma",-11.389950574614483],["IVA",-11.390094493083165],["falt",-11.390267123892013],["extremad",-11.390578870777636],["Rojo",-11.390881202953164],["kin",-11.391829866369214],["ville",-11.392065719263549],["impulsado",-11.39206674139964],["pedía",-11.392911604337407],["gobernadora",-11.393068442295512],["tina",-11.393147752738576],["ceder",-11.39385503798725],["anidad",-11.39399060296073],["FM",-11.394177852176202],["trap",-11.394664916333886],["oficio",-11.395340418152777],["dependiente",-11.395512710111117],["estrena",-11.395576470324315],["pedi",-11.395753908766288],["armar",-11.395919942254544],["bservatorio",-11.396602174432662],["Zapat",-11.396659395724814],["definido",-11.396756147614562],["nega",-11.397216242595256],["unanimi",-11.39837675804994],["limitar",-11.398531306625477],["MC",-11.398877015560572],["contagio",-11.399525543117722],["soles",-11.399852403321747],["saltar",-11.400045763778332],["Iber",-11.400095449064153],["torre",-11.40073286720546],["impuls",-11.401106075228826],["Juventu",-11.401320353104927],["jer",-11.402278078459332],["Cast",-11.402650052085876],["Buen",-11.402898573350711],["Fuego",-11.403394077235653],["practicar",-11.403869917960098],["visualiza",-11.40447707751374],["Salto",-11.404610436119587],["conforman",-11.406147583379745],["propaga",-11.406379313482661],["pauta",-11.406850395295132],["Bret",-11.40689276393905],["exponer",-11.407613790310819],["Llega",-11.408770023436308],["recalca",-11.409081603163305],["EP",-11.409232072991616],["tiende",-11.409310989306697],["atólica",-11.409384526257046],["Comunita",-11.409727832811065],["ilícita",-11.409841636803792],["ofensivo",-11.40984170433856],["garantice",-11.409841812893612],["compatriota",-11.409842074548937],["Brown",-11.40984619098109],["banquillo",-11.409846205511696],["Registro",-11.409848065798037],["exitoso",-11.409849672096327],["típico",-11.409862674435256],["sólida",-11.409862696609729],["monarca",-11.409865501103438],["protegida",-11.409887586259911],["gallego",-11.40989103492307],["Libre",-11.40989445482941],["pró",-11.40991407334536],["chofer",-11.409927562361656],["Scalon",-11.409937274309446],["forense",-11.410014105205926],["NO",-11.410019420882605],["hospitalaria",-11.410025320945556],["moderada",-11.410031226033503],["encabezada",-11.41007835093488],["orígen",-11.410137082481441],["entendimiento",-11.410137792454659],["August",-11.41014454862708],["generalizada",-11.410146880547924],["Laguna",-11.410243749617262],["Salón",-11.410344471124247],["despedida",-11.410354602905976],["accesorio",-11.410468794975923],["look",-11.410670186591428],["cuestionado",-11.411275302325656],["promotor",-11.411284903834323],["()",-11.411286467773477],["desaparecida",-11.411300617503667],["atendida",-11.411318334235764],["Colonia",-11.411707086110274],["part",-11.411778015855496],["inversionista",-11.41186438368005],["Bolsa",-11.412029066426758],["despido",-11.412925951329212],["involucra",-11.412964689560422],["Voy",-11.413025497913242],["frontal",-11.41335857145256],["construyendo",-11.413533371598003],["productora",-11.413735011151484],["pronunciar",-11.413809869835447],["pausa",-11.413987661270863],["mart",-11.414014344840066],["muta",-11.414109770625544],["finanza",-11.414885231748833],["alberga",-11.415449021470268],["tiros",-11.416269007392538],["ting",-11.416459995604194],["valorado",-11.416845303627069],["habilita",-11.417568976363661],["opta",-11.417868948271632],["Mej",-11.418055300564493],["uk",-11.418335297800654],["güe",-11.419128100875126],["Gold",-11.41924939215936],["eciente",-11.419435988331431],["Lin",-11.419978265622513],["Taba",-11.420536171976682],["flexible",-11.420549397738027],["Gal",-11.420764438264891],["Chel",-11.420881985050963],["habitacion",-11.421151949486342],["mate",-11.421468839339092],["conocía",-11.421942338882907],["incrementa",-11.422139051360073],["bí",-11.42233399064489],["jada",-11.422671619807021],["sabiend",-11.422832429101712],["transportistas",-11.422902770141851],["nace",-11.423023962428132],["busque",-11.42378681910619],["circulaba",-11.42387462291561],["produzca",-11.424184517680251],["Nas",-11.424489272281937],["News",-11.424517108506445],["otti",-11.425308218602442],["mama",-11.425676162007571],["ular",-11.425907334898891],["Haba",-11.42604878997041],["aplicará",-11.426163743257371],["dama",-11.426864508478804],["poblador",-11.427580978158733],["cima",-11.427702203710375],["Opera",-11.427971629013307],["Cha",-11.428554255538518],["fuese",-11.429900267258265],["inmun",-11.43011321038756],["Cambi",-11.430116924197703],["aposta",-11.430330702394995],["angustia",-11.43034114568375],["sustancial",-11.430377771705096],["Rosad",-11.430552620809387],["disminuy",-11.43086808078605],["convers",-11.432678896519601],["pet",-11.433045822924157],["contest",-11.433094040924757],["comprende",-11.433255085521438],["conect",-11.433258106096456],["lider",-11.433284918038908],["cubierto",-11.434244079016759],["efectiv",-11.434286669999581],["liberal",-11.435414066457648],["unido",-11.435935282869139],["raro",-11.436272840509034],["udó",-11.436782607379111],["exclusi",-11.436809054954747],["PL",-11.436892021155137],["lausura",-11.437093373188652],["kirchneris",-11.437192019202138],["revé",-11.437249474179955],["Navarr",-11.437298181084893],["proceder",-11.437380193482316],["atmósfera",-11.437619405750926],["maravillosa",-11.437619405875525],["auténtica",-11.437619406492788],["permanencia",-11.437619425679285],["monumento",-11.437619485696239],["apellido",-11.43761956210029],["Gimnasi",-11.437619660701323],["aprehen",-11.437619714783395],["experta",-11.437620469136089],["zapato",-11.437620830405656],["allanamiento",-11.437622746994652],["escritura",-11.437624097873586],["pertura",-11.437624876991563],["atrapado",-11.4376326898083],["Sierra",-11.437635464562561],["uniformado",-11.437641896944802],["juguete",-11.437642291765162],["Adrian",-11.437650247582091],["Zulia",-11.437653316256577],["audiovisual",-11.43766514920721],["Género",-11.437681602842456],["Taller",-11.437687040853248],["titulad",-11.437756020274342],["milita",-11.437766100342532],["Figuer",-11.437806667688477],["Premier",-11.437916591100713],["sujeta",-11.438060768251784],["Asegur",-11.438085149407806],["Metro",-11.438333585384893],["provisional",-11.438372100386637],["repite",-11.438391148714064],["IM",-11.438420821861465],["Coahu",-11.438633226743153],["Donets",-11.438734384359424],["pin",-11.43890159060719],["penalti",-11.439173892407252],["placer",-11.439289874614003],["pesada",-11.439511298471544],["bajado",-11.439767998188637],["separar",-11.440456858322845],["Estadística",-11.44055457707044],["dedic",-11.440558159826267],["mancha",-11.441316325591247],["imagin",-11.441577288389476],["encontrará",-11.441591724451824],["Chac",-11.442294526918682],["estrecho",-11.442780339215137],["One",-11.442880211700016],["Ós",-11.442899267111121],["malestar",-11.442901077559878],["atraer",-11.44303416333609],["Noche",-11.44309264992784],["padr",-11.443743771305758],["Tenía",-11.443791505619732],["mural",-11.443915195268726],["Maya",-11.444115262301157],["fresca",-11.444166635246466],["consultada",-11.444480487442487],["ólogo",-11.444512021327343],["terminan",-11.444885388587226],["retom",-11.445103678682317],["ponía",-11.446852998300253],["adoptar",-11.447121714273662],["diseñador",-11.44725187873683],["poblado",-11.447760691505424],["accionar",-11.447797856107066],["relaciona",-11.448077037337558],["vegetal",-11.448302753144487],["Bost",-11.448589758532064],["Bas",-11.449144260434569],["derrumbe",-11.449275751342242],["muni",-11.449303260705708],["Orl",-11.449481176508629],["nabi",-11.449530808976109],["horno",-11.449699387182097],["Kev",-11.449707211917604],["pega",-11.450304754999166],["hidr",-11.450446381381662],["Cinc",-11.450811412861745],["Mag",-11.450819727888375],["intervin",-11.450970083308183],["Expres",-11.451184853738958],["MS",-11.451358551986306],["convencer",-11.451727232663412],["exigen",-11.451739455426486],["recibida",-11.451911312004],["Correa",-11.451929124944359],["confiar",-11.452459398473028],["eliminado",-11.452669283059207],["́n",-11.45300188509594],["competitiva",-11.453300075306483],["indigna",-11.453481367266441],["exá",-11.453969621014124],["ible",-11.454936827157736],["recicla",-11.45504650135721],["cancelar",-11.455067558183378],["gustos",-11.455137659611722],
[...]
