{"version":"1.0","truncation":null,"padding":null,"added_tokens":[{"id":0,"special":true,"content":"<UNK>","single_word":false,"lstrip":false,"rstrip":false,"normalized":false},{"id":1,"special":true,"content":"<SEP>","single_word":false,"lstrip":false,"rstrip":false,"normalized":false},{"id":2,"special":true,"content":"<MASK>","single_word":false,"lstrip":false,"rstrip":false,"normalized":false},{"id":3,"special":true,"content":"<CLS>","single_word":false,"lstrip":false,"rstrip":false,"normalized":false}],"normalizer":null,"pre_tokenizer":{"type":"Whitespace"},"post_processor":null,"decoder":null,"model":{"type":"Unigram","unk_id":0,"vocab":[["<UNK>",0.0],["<SEP>",0.0],["<MASK>",0.0],["<CLS>",0.0],["s",-2.5214853248296496],["de",-3.3386942553139285],["e",-3.3751039687229287],[",",-3.4968968155954094],[".",-3.6577500594195556],["’",-3.800568566600507],["a",-3.8850144664186086],["l",-3.9162616157518926],["la",-4.073537260973387],["d",-4.098006877198532],["le",-4.20010599921101],["t",-4.378947474706843],["à",-4.418494277165948],["r",-4.464593941333252],["n",-4.465241958751756],["et",-4.537366725931454],["en",-4.559806667906267],["'",-4.683887171659842],["les",-4.752203611717851],["un",-4.893766995253243],["-",-4.958829263242784],["est",-4.964132904330281],["i",-4.989935622924854],["du",-4.9907141400695565],["é",-5.007122991802596],["des",-5.096599831916304],["que",-5.166916713493917],["c",-5.168693758651621],["pour",-5.18076420287251],["une",-5.182743095387313],["au",-5.272646025341208],["ont",-5.284510784720151],["u",-5.2954764858310135],["ment",-5.367393707648308],["dans",-5.397224280510427],["qui",-5.404954740588726],["ce",-5.434593238662963],["il",-5.504845097134611],["par",-5.516316194432548],["sur",-5.545744462992021],["«",-5.7020169172572395],["on",-5.721126996254034],["pas",-5.741041023548213],["o",-5.755005500161591],["C",-5.779217686352782],["y",-5.806547377476212],["Le",-5.853587760874564],["A",-5.871530601909008],["qu",-5.924786257703326],["plus",-5.930620514079132],["nt",-5.979015083164114],["p",-5.987358547909153],["L",-6.024441457653797],["ou",-6.027638504916858],["son",-6.035587115579824],["aux",-6.039930866697279],["ent",-6.057230203599101],["\"",-6.078534531050918],["avec",-6.082365240993187],["x",-6.140666356892686],["été",-6.148257994225309],["in",-6.149882091952501],["La",-6.167748000032361],["(",-6.250191875102752],["m",-6.3341802740789035],["ant",-6.347173862660009],["f",-6.3882522589609785],["S",-6.495945797470679],["leur",-6.50147843281078],["Il",-6.505697853679067],["M",-6.519418917802998],["elle",-6.578174247757277],[":",-6.59390134894471],["Les",-6.595635190242321],["mais",-6.597124134431217],["fait",-6.597884248380312],["P",-6.614813510657834],["cette",-6.632191533282084],["20",-6.663747000002948],["étai",-6.669683897046365],["»,",-6.693422868430176],["z",-6.711460005763664],["tout",-6.714562056219741],["v",-6.724419379305491],["D",-6.73337171511352],["h",-6.758294012490289],["j",-6.759562076557653],["»",-6.781922501252959],["puis",-6.798300960591751],["être",-6.80498954723323],["nous",-6.827289160360831],["ai",-6.833556838186839],["E",-6.850652577482027],["En",-6.859562007773462],["jour",-6.862185345134746],["ans",-6.868855440142262],["T",-6.87046006608232],["g",-6.873127694273583],["deux",-6.889093587356072],["B",-6.892997598801939],["vou",-6.91591432726498],["b",-6.925196416949543],["autre",-6.939502152629482],["même",-6.940740229992818],["avait",-6.956967153651547],["comme",-6.961760810219747],[")",-6.96695236179905],["ur",-6.975516459541426],["tre",-6.976361736206368],["ré",-6.976389162747218],["lui",-6.996596763026275],["eux",-7.000660285369797],["aussi",-7.00407634363563],["mi",-7.020208041195863],["ait",-7.041263559446332],["I",-7.066797112753411],["faire",-7.08447802186976],["F",-7.09285779765346],["lors",-7.1038334867985204],["après",-7.107498359816007],["bien",-7.11013043294687],["k",-7.129353070013896],["1",-7.130982014387419],["me",-7.141903109585068],["Ce",-7.144323213578587],["G",-7.1474880338306335],["avoir",-7.156819955576894],["année",-7.159711416555996],["J",-7.162511068318683],["entre",-7.163668323739485],["ation",-7.176042317077172],["no",-7.18263411527746],["ri",-7.18601852104057],["N",-7.21595168295632],["va",-7.220324108135123],["rès",-7.220974988506816],["fois",-7.221530486659163],["té",-7.223305437165271],["2",-7.230170579333433],["je",-7.238346347947318],["O",-7.249316397540233],["5",-7.2571290068127325],["ci",-7.261479424151909],["contre",-7.289758668496671],["ma",-7.296105894228862],["oit",-7.299060916532909],["pays",-7.311900975682751],["De",-7.333758400674551],["On",-7.340446190309761],["ux",-7.3470654560307365],["Pour",-7.3546378388065135],["peu",-7.355743721406675],["tant",-7.359229687031013],["3",-7.366547030129686],["19",-7.369232657754386],["con",-7.373233138508054],["coup",-7.376356624012749],["ter",-7.395444273604927],["%",-7.396359040151676],["temp",-7.403737696262442],["fin",-7.4060338806963895],["personne",-7.407786747105511],["Un",-7.418917605605884],["près",-7.428010271662544],["Je",-7.430079500320097],["pri",-7.438993964221624],["or",-7.44021372723884],["avant",-7.447267172543353],["Mais",-7.450431851355911],["peut",-7.453113485056313],["encor",-7.454523496395692],["R",-7.460395732692775],["ch",-7.462992875915208],["égale",-7.479653649309021],["vie",-7.482913413079372],["dernier",-7.484145605975274],["rait",-7.485033858753065],["».",-7.500253737468735],["H",-7.5135934949091485],["ces",-7.515231972725721],["premier",-7.516376727240564],["ù",-7.522031988365362],["toute",-7.52409774256316],["ser",-7.532338797888875],["4",-7.532787628526135],["it",-7.535366922389317],["Et",-7.541623373789824],["dit",-7.546709883871166],["Une",-7.548840969062491],["V",-7.560464248980843],["age",-7.564740763258816],["ez",-7.565487075019697],["sera",-7.56898043797457],["co",-7.571640844364076],["monde",-7.593450670685796],["moin",-7.598638451831598],["président",-7.599040024801596],["place",-7.606591744765906],["ette",-7.606636524230636],[").",-7.6089143078504975],["ir",-7.613859237670457],["vo",-7.6282408877067045],["tou",-7.630051882973668],["pa",-7.632638161486874],["K",-7.635353911108877],["première",-7.637208353018372],["sans",-7.639343149469783],["\",",-7.647424790666256],["6",-7.652331843105801],["2022",-7.665132170957077],["elon",-7.669767373120759],["…",-7.689451564794056],["nouveau",-7.701736762277461],["ministre",-7.704823499668734],["mois",-7.706662095562023],["im",-7.710531892468779],["Dans",-7.7156056895332945],["grand",-7.7203214032241245],["Nous",-7.722812286465316],["cas",-7.727110636834478],["ro",-7.728589293756262],["tous",-7.731266656536911],["nouvelle",-7.731327199240656],["“",-7.737535292379316],["déjà",-7.73817863231641],["8",-7.744573608115487],["Au",-7.744907535952084],["point",-7.755088650788777],["quelque",-7.766423639226304],["ça",-7.7693330372950395],["7",-7.77461832884471],["trois",-7.775093296959228],["?",-7.784679863637058],["pro",-7.78488450616243],["ité",-7.7870410168669935],["Elle",-7.789591029520026],["Si",-7.792533706702225],["donc",-7.794255588635056],["ba",-7.796973305042753],["che",-7.797286490776739],["car",-7.7984140990954085],["vi",-7.803469085493598],["France",-7.8040271722588965],["man",-7.808953806402193],["ville",-7.816334846118314],["plusieur",-7.817176786039236],["sous",-7.820725180762438],["ve",-7.82738007197207],["Ma",-7.828688536430861],["voir",-7.831737693232396],["ing",-7.834294691787366],["beau",-7.8346350887403515],["semaine",-7.834927662848396],["heure",-7.835813326750435],["dernière",-7.839103708760762],["ainsi",-7.844153265444796],["tion",-7.84444886487214],["vers",-7.8461696567189225],["),",-7.846653271525794],["suite",-7.853520089568966],["À",-7.8620164330885345],["nombre",-7.864552230123144],["projet",-7.870074203921235],["000",-7.8759906406079185],["mon",-7.878506518626816],["homme",-7.878820361436384],["10",-7.883236839408114],["9",-7.8857753469620935],["able",-7.8857814597007145],["vent",-7.899802725578415],["équipe",-7.914727876443365],["début",-7.916924645848336],["po",-7.920705093522648],["faut",-7.921241084067043],["”",-7.926475350824598],["politique",-7.937236010456586],["partie",-7.94900924958878],["gouvernement",-7.9581412559666065],["aient",-7.962309905141921],["U",-7.97150907551377],["mal",-7.97170812409484],["jusqu",-7.974621641427035],["Ukraine",-7.9762292425331065],["Sa",-7.977436161199593],["lieu",-7.985092896478767],["pu",-7.990813005231541],["ées",-7.993085793976521],["groupe",-7.998397826762566],["com",-8.003873618650566],["ils",-8.007238898630183],["ici",-8.009346830383922],["part",-8.010047704988832],["embre",-8.013962045293457],["0",-8.020515083348677],["femme",-8.022038220269529],["État",-8.023621724225682],["million",-8.02532584795771],["non",-8.03465126330769],["eur",-8.035574612331173],["ôt",-8.03987575754357],["ons",-8.054286039790316],["travail",-8.057563347200295],["pendant",-8.063028774560781],["pré",-8.070287755148883],["ga",-8.07203198526167],["service",-8.073349817458679],["ion",-8.08312913896677],["jeu",-8.084202742698476],["entreprise",-8.084404071689892],["notamment",-8.085069537262505],["Par",-8.086193557116957],["avai",-8.086410287869558],["venir",-8.087082458726721],["ine",-8.088669493300037],["hui",-8.090130057340335],["face",-8.092092093133703],["mé",-8.097030538732696],["bon",-8.099352610149825],["match",-8.108938747412758],["18",-8.11208263823352],["Des",-8.113280868663228],["2021",-8.116895371504864],["bi",-8.120259675460144],["grande",-8.121790359529282],["moment",-8.122044403736016],["aire",-8.12215425676499],["W",-8.129413340922],["compte",-8.134319171990857],["ig",-8.135162055277142],["porte",-8.148174672622645],["question",-8.148327859585773],["avon",-8.159556727674033],["op",-8.161189951749915],["fi",-8.172331108636499],["saison",-8.172685338820152],["droit",-8.173322562102717],["certain",-8.174794706606637],["ner",-8.182452638692048],["déclaré",-8.184971340241418],["côté",-8.192035350209858],["vrai",-8.192061980220736],["tour",-8.192107886909817],["cours",-8.19879861928904],["Re",-8.20068161910218],["effet",-8.201333004082235],["ier",-8.204925542190114],["bre",-8.205707899251042],["rapport",-8.213544343053291],["long",-8.216710963294446],["ront",-8.21687118956641],["tte",-8.231832317592296],["ailleur",-8.23346870733891],["nos",-8.234371247194023],["ès",-8.236043672313349],["w",-8.237042855369284],["seule",-8.241145095836263],["go",-8.243698590005717],["veu",-8.24695164022711],["main",-8.247700627750929],["famille",-8.253301138748077],["ge",-8.262199500846801],["région",-8.263690140472153],["sept",-8.2688161257223],["ois",-8.268905133451298],["ique",-8.269876452854461],["reste",-8.272969872516747],["per",-8.274136470527198],["russe",-8.275454233932852],["joueur",-8.276558843516234],["euros",-8.276692035417472],["film",-8.280430421058936],["pouvoir",-8.281564369517564],["jeudi",-8.281661812694555],["30",-8.282987200780497],["situation",-8.292605078599912],["tra",-8.293577395483304],["plan",-8.293872121806142],["but",-8.296597297785581],["mercredi",-8.299416084249977],["15",-8.301127116026361],["raison",-8.302209515523007],["mesure",-8.302394716155902],["annoncé",-8.303808931000187],["dimanche",-8.303836056262362],["17",-8.305703150000475],["public",-8.30593211103814],["mardi",-8.30956536770952],["lundi",-8.310660409181452],["celle",-8.310671044856905],["Ro",-8.31096828921897],["mort",-8.311114222802487],["niveau",-8.31255369755143],["bo",-8.315509198095643],["chose",-8.316123676774716],["14",-8.31658649914636],["mo",-8.316814237508037],["produit",-8.317431858552446],["vendredi",-8.31743624379894],["ver",-8.322833206561237],["centre",-8.330153113616412],["Uni",-8.34194100470323],["chef",-8.34480685701457],["Saint",-8.345307604280476],["série",-8.34603195835318],["Russi",-8.34758123184031],["–",-8.35110722660087],["rien",-8.355789668893252],["ob",-8.366018481209254],["è",-8.36743351792368],["dire",-8.370600652945788],["St",-8.37099166049838],["/",-8.372600588753347],["jeune",-8.372756795929071],["quatre",-8.376451041252118],["quan",-8.379157474164625],["tique",-8.380274067723981],["suis",-8.380505655344042],["samedi",-8.381233395425747],["mettre",-8.385280990697385],["16",-8.389401411915017],["site",-8.393379006425853],["guerre",-8.397041372622887],["alor",-8.397223061820878],["ière",-8.403213381260123],["ard",-8.404802481918157],["somme",-8.405606035757222],["iste",-8.406010290663563],["force",-8.408030222563575],["devant",-8.410240584421047],["mise",-8.411338751138231],["finale",-8.41246612823954],["12",-8.413202719402449],["port",-8.416907926230287],["histoire",-8.417025018403113],["nom",-8.421550936977557],["prendre",-8.435166221927435],["demande",-8.435922018289556],["ang",-8.436709599498624],["membre",-8.43795275108685],["isme",-8.44083642128108],["parti",-8.441348619935074],["hi",-8.44142541969361],["Québec",-8.44388074522087],["bonne",-8.445079038859646],["devrai",-8.445151807033373],["bou",-8.446816714319747],["É",-8.450848081382578],["deuxième",-8.451889771552587],["semble",-8.452285130086441],["fond",-8.453412377886309],["marché",-8.455768251706093],["th",-8.455858167101486],["pris",-8.45640437777779],["24",-8.457193245532558],["police",-8.459141010777866],["enfants",-8.4628046784881],["No",-8.463998206301303],["fil",-8.469993141662052],["ancien",-8.471154546433898],["sécurité",-8.475455895845693],["mer",-8.477690464451367],["gi",-8.483414365832768],["loi",-8.484271147471306],["voi",-8.488569553739335],["afin",-8.49047945885886],["appel",-8.491787758503751],["13",-8.492663831643874],["mis",-8.496468585459848],["soir",-8.49801375514459],["mar",-8.49821764808059],["ive",-8.499270694080407],["petit",-8.501747180601882],["cela",-8.50371267827166],["Selo",-8.508254944674388],["ha",-8.50849384106176],["ka",-8.510106995568476],["gue",-8.512208248642988],["nov",-8.513589899534633],["aujourd",-8.51367809247116],["jama",-8.515589159907524],["Ave",-8.516375133414],["Z",-8.518827652476821],["passé",-8.521266457968824],["réseau",-8.526833764320958],["ère",-8.531790182835888],["vol",-8.534042989297784],["élection",-8.537499137828288],["mai",-8.53840133055309],["tif",-8.540596600197203],["anté",-8.54293124425148],["rie",-8.554737517581271],["!",-8.554801426082808],["25",-8.554917854246895],["rencontre",-8.555242895285364],["Etat",-8.556973631195891],["eurs",-8.55988076403521],["nationale",-8.56079313800943],["11",-8.561771704772912],["possible",-8.567457393025876],["trop",-8.570091465545687],["annonce",-8.57676721261098],["retour",-8.579656253990276],["risque",-8.583348267018213],["occasion",-8.587181034990525],["ateur",-8.587257021959307],["rue",-8.590858261614255],["Jean",-8.590945706505243],["janvier",-8.593182524119307],["affaire",-8.59350367490661],["quoi",-8.594259702287275],["ligne",-8.595299834929687],["présent",-8.597721799821798],["ho",-8.599126089445466],["cadre",-8.605302850790416],["ab",-8.606288332235145],["om",-8.606456699121207],["gré",-8.606568666159987],["français",-8.608047883030128],["Ha",-8.608135452583099],["décision",-8.611406497626499],["agit",-8.612630609087752],["titre",-8.613389533757154],["victime",-8.616014555511615],["50",-8.61893960289291],["accord",-8.624092203247812],["forme",-8.625387008561622],["milliard",-8.628408205272848],["gé",-8.629711421121442],["Di",-8.630898191201757],["Du",-8.631588089537612],["activité",-8.6330323258744],["cinq",-8.633076388099479],["général",-8.633574463167475],["X",-8.634322016989614],["besoin",-8.634678214322829],["aura",-8.635740387381471],["charge",-8.63711729340514],["tête",-8.637391341023491],["ance",-8.638457056779636],[".»",-8.642416750768387],["gra",-8.643267136899649],["système",-8.645704303570323],["jui",-8.647699466862683],["information",-8.652066242054895],["Ch",-8.652495380129867],["gens",-8.65854291383514],["fa",-8.659428346495364],["explique",-8.661166093999686],["action",-8.664733553250233],["important",-8.665303157679068],["table",-8.666058524617068],["col",-8.667482860476824],["jeunes",-8.667537629991013],["crise",-8.668257683471662],["société",-8.670162807920763],["Fa",-8.673288585760012],["200",-8.673561628562467],["décembre",-8.678215435348623],["ger",-8.680396745730581],["inter",-8.686313948017967],["Mo",-8.687420511836235],["cet",-8.689334621255409],["Sur",-8.691185105570497],["offre",-8.695219171628645],["matin",-8.69595945302811],["cha",-8.698726084079997],["and",-8.701156158380904],["\".",-8.701676233327712],["indiqué",-8.702822684563127],["national",-8.703410282168601],["responsable",-8.70618015411672],["Ar",-8.707133775950119],["secteur",-8.707867457810973],["autorité",-8.707871757342566],["passe",-8.708825332383837],["attaque",-8.70932980402028],["vue",-8.709839258125257],["abord",-8.70985683166993],["ensemble",-8.710113852331515],["Son",-8.712882160526819],["journée",-8.713601274700094],["cause",-8.71891065815161],["Car",-8.720708357742872],["militaire",-8.72146084896568],["fort",-8.72198606068523],["période",-8.72493633613083],["permet",-8.726477604166844],["cou",-8.726806605105127],["ph",-8.730152596326644],["min",-8.731979713065481],["bas",-8.73226209512204],["octo",-8.732571893446744],["Vi",-8.734948251966994],["candidat",-8.735048151563184],["publique",-8.736230726129406],["soci",-8.739063104351764],["simple",-8.739646376287947],["ég",-8.739790931782958],["gne",-8.741434279995065],["maison",-8.743172402864687],["enquête",-8.7438218848465],["hez",-8.744184307774363],["Go",-8.746566046621624],["certaine",-8.747835795503573],["population",-8.749216062848683],["prochain",-8.750525986001419],["ienne",-8.752615118446428],["problème",-8.75274027898477],["image",-8.754290443638979],["moi",-8.754869036061535],["Ra",-8.755944810251147],["presse",-8.756949717030105],["désor",-8.757541427598788],["actuelle",-8.75801165550325],["uillet",-8.759428646365727],["mars",-8.765789121724396],["art",-8.768310265810769],["chaqu",-8.771941183511968],["tard",-8.773427497853994],["Q",-8.774485168064334],["Cha",-8.774639472171966],["évrier",-8.777766440110764],["Mi",-8.780914543420053],["mment",-8.78105779201437],["€",-8.781390392668449],["rend",-8.781786482487266],["minute",-8.783211029439588],["Ni",-8.784488952431857],["état",-8.785506086582762],["école",-8.78621266246946],["seul",-8.787531073052975],["partir",-8.787531595590583],["Europe",-8.788700744070642],["Na",-8.792301577303846],["Ba",-8.79288595038587],["soutien",-8.79350560940895],["Mar",-8.79484486701335],["tir",-8.795743862225994],["ck",-8.79684111843915],["zone",-8.796927582187887],["ib",-8.799631714491321],["passer",-8.804524127526879],["directeur",-8.8059956948388],["objectif",-8.809016452454994],["Or",-8.8092057251108],["œuvre",-8.810885777794898],["ché",-8.812863120127503],["elles",-8.813075969797016],["Paris",-8.813893490588383],["exemple",-8.814635548559083],["conseil",-8.816587273824597],["Mon",-8.817725317336418],["lin",-8.817915193258745],["hausse",-8.818032419093223],["souven",-8.820282031110217],["tri",-8.820602917097924],["Con",-8.820606050106754],["quelle",-8.821385219933966],["travers",-8.826988914141957],["marque",-8.828486129595339],["font",-8.829169946813614],["armée",-8.829968929226693],["ak",-8.831416437423961],["club",-8.837431238777704],["cour",-8.839196172485437],["Bo",-8.841264385484877],["coût",-8.84152247685876],["événement",-8.843207806271943],["donner",-8.843402528730799],["rapide",-8.847139036826643],["prise",-8.84915644761956],["condition",-8.850970228558362],["vril",-8.851539956357747],["meilleur",-8.854205346524687],["organisation",-8.855034459774467],[".\"",-8.855514574688982],["prêt",-8.856448505792759],["communiqué",-8.85682675808651],["environ",-8.856946507617513],["ê",-8.857150861958585],["cher",-8.857887694110271],["économique",-8.858787511732167],["rôle",-8.858860599067288],["Comme",-8.85991218902143],["père",-8.860506713153363],["donné",-8.860570576472707],["terme",-8.860816643650743],["programme",-8.86082242309764],["déc",-8.865160527732094],["prochaine",-8.867177345025851],["ayant",-8.870240184438423],["américain",-8.87253290719713],["Ga",-8.872557926869252],["aurai",-8.873634662371938],["difficile",-8.876609826973386],["Ils",-8.876694156402191],["Cela",-8.878475621774616],["ry",-8.878683517287758],["Covid",-8.880620771945061],["aller",-8.886726102605405],["tor",-8.886839872755917],["commune",-8.887639647399403],["nuit",-8.88954820327083],["vidéo",-8.89069547228743],["Ka",-8.893520760613047],["Y",-8.893788769258823],["troisième",-8.894880010373193],["gar",-8.895529767068558],["Pro",-8.89587061386384],["Tout",-8.89796269950617],["Al",-8.899621342423735],["40",-8.899852200647064],["parole",-8.901174878591515],["député",-8.902927257353305],["route",-8.90765017651971],["ire",-8.908921260092262],["juste",-8.91060481936843],["scène",-8.911425906574665],["wa",-8.913546380534784],["production",-8.915311123021418],["feu",-8.915728801330673],["asse",-8.916524573613756],["développement",-8.917390077443107],["pourrai",-8.92053550000215],["victoire",-8.921561115320431],["Co",-8.923060757858654],["urant",-8.92333868034195],["sol",-8.923817545848514],["choi",-8.925666904342776],["sujet",-8.925884861810506],["jouer",-8.928737091876446],["position",-8.929187924227255],["fer",-8.929418454334535],["jeux",-8.92982725824642],["énergie",-8.929956821575882],["avantage",-8.932297324681095],["aucun",-8.933633300392557],["acteur",-8.935670197050335],["grâ",-8.936309148401133],["ministère",-8.938421391076965],["livre",-8.938867505815693],["ajouté",-8.938868238644993],["août",-8.942681513915375],["opération",-8.94389366679951],["cor",-8.944478011788881],["22",-8.944734677028261],["21",-8.946764593590547],["terrain",-8.94696887146226],["So",-8.950118779899608],["recherche",-8.95175763810429],["voiture",-8.955743310429362],["manière",-8.958534497507504],["total",-8.958646984698383],["gaz",-8.958824814656872],["autour",-8.959279351675313],["Ri",-8.95978078335024],["écrit",-8.960256107778239],["idée",-8.963572394356643],["app",-8.96365036382678],["vez",-8.964141543609465],["loin",-8.964630683985495],["haut",-8.965902613127655],["comment",-8.966083979259956],["forte",-8.966119395047823],["campagne",-8.96644280000394],["petite",-8.967962300929248],["attend",-8.968674757032321],["six",-8.970844914469732],["formation",-8.973219539013947],["transport",-8.973982053732367],["ï",-8.977281533086082],["Conseil",-8.977461204488907],["résultat",-8.97964190927009],["2023",-8.980806223551896],["$",-8.981859203969007],["belle",-8.982168555410391],["dés",-8.98374339678541],["édition",-8.984097693853656],["rac",-8.985013800958559],["trouver",-8.985937627568457],["reçu",-8.986309756199722],["aine",-8.986628777703881],["anti",-8.986656583324582],["juge",-8.988599385534979],["bu",-8.990495680617105],["mètre",-8.990779802197654],["connu",-8.991445681873468],["Afrique",-8.99302574382195],["Lo",-8.994885955359607],["source",-8.995374569983884],["donnée",-8.995470475798495],["Macron",-8.99752472983225],["contrôle",-8.997563436691713],["â",-8.999698757721571],["cré",-9.000157882684409],["indique",-9.00047309490322],["pandémie",-9.00430682705527],["pense",-9.004631098012652],["Po",-9.004829301169252],["base",-9.005319643806434],["départ",-9.00652371020112],["isation",-9.007406472990674],["trouve",-9.007918628085266],["rat",-9.008493774783288],["Vou",-9.008676781347226],["gui",-9.010295917929957],["can",-9.011164028159364],["arrivée",-9.011288260071884],["permis",-9.016131951241611],["met",-9.018921825329127],["élu",-9.018981376464096],["voie",-9.019124466485986],["mission",-9.020255815672577],["ori",-9.02111662097473],["média",-9.022840272545753],["dollars",-9.02450216703702],["Ta",-9.02633055878768],["réussi",-9.029212898068424],["Gu",-9.030893810000833],["manque",-9.033980055525038],["aide",-9.036951242855437],["moyen",-9.038629976037296],["100",-9.038842993495198],["territoire",-9.038952317034662],["terre",-9.039642727080327],["rem",-9.039720728693023],["direction",-9.041104351412637],["combat",-9.041239192950261],["sortie",-9.041921291062684],["sein",-9.04353874061487],["décidé",-9.043953294232725],["donne",-9.045017259133292],["plut",-9.045728513721592],["parce",-9.047413015371005],["Ces",-9.047546500800838],["succès",-9.050772802346268],["fille",-9.053003865899019],["corp",-9.054142951227647],["proche",-9.054632793177582],["Dé",-9.055232324449385],["façon",-9.055541738231849],["client",-9.055616456513858],["soi",-9.056604475753987],["Canada",-9.065146675855045],["urs",-9.066928996285931],["Ou",-9.072258334373785],["intérêt",-9.077280334895764],["23",-9.077418828853503],["dû",-9.077438314774934],["estime",-9.077850053705902],["60",-9.081646628559287],["quant",-9.081691416877039],["bar",-9.082519735396547],["chi",-9.083864031525152],["aï",-9.084798039133489],["lutte",-9.085073933385239],["cro",-9.085439120377066],["lier",-9.086532056301746],["hé",-9.086918021635752],["Grand",-9.088725329938912],["ukrainien",-9.089175925413686],["parent",-9.089703804328726],["lancé",-9.092901583572221],["mes",-9.09323262172666],["liste",-9.09414922355667],["27",-9.095991553555537],["ban",-9.096934482479767],["Suisse",-9.097010934906702],["sûr",-9.100776159515664],["bout",-9.105746870498539],["26",-9.108248537562611],["midi",-9.108746094074213],["ali",-9.109082722991396],["doive",-9.110072931070995],["mou",-9.110799473270248],["habitant",-9.112403315213323],["milieu",-9.112471641463383],["ko",-9.112507359398414],["précise",-9.113269002629364],["maire",-9.115727540406606],["chance",-9.115840914355896],["poste",-9.116059578088127],["Jo",-9.116510738671938],["qualité",-9.117009069032008],["mère",-9.118308473598372],["hôpita",-9.119680697016822],["étude",-9.11993846730445],["val",-9.11994269118673],["date",-9.122745790964498],["train",-9.124352083369306],["citoyen",-9.124789255440668],["européenne",-9.125114915257193],["plu",-9.126648233613913],["carte",-9.128855652449715],["vert",-9.12951204760336],["roi",-9.129712388307045],["association",-9.129925929785093],["telle",-9.131628224175145],["bra",-9.131923743058639],["cœur",-9.13250645619002],["rang",-9.135104510862687],["visite",-9.13659469466251],["justice",-9.137676025046202],["propos",-9.139791159654033],["mot",-9.141290523805983],["trav",-9.142432909280942],["PS",-9.14319982041345],["mont",-9.143705175411304],["peine",-9.145861734098476],["court",-9.146145168189905],["amp",-9.14671015377396],["argent",-9.146748066398589],["générale",-9.147418744725044],["Nord",-9.149344662849467],["Ho",-9.149688142523278],["atteint",-9.15073330104112],["dossier",-9.150750151911037],["ël",-9.152852807328808],["valeur",-9.155115298202741],["28",-9.155612967683552],["nombreuse",-9.156050932795004],["baisse",-9.156162312685662],["Belgi",-9.158948646487211],["Bou",-9.16114341381472],["espace",-9.16138754061678],["Com",-9.162251019362087],["propre",-9.162269855234111],["prend",-9.163009628518534],["rendre",-9.16384478223431],["cité",-9.16415929908926],["ran",-9.166908515729947],["wi",-9.168031870142542],["ite",-9.168468374255415],["maintenan",-9.170644603659053],["aucune",-9.171080582193305],["rendu",-9.171494069044927],["pied",-9.172089231821314],["fonction",-9.173947052519502],["nord",-9.174493182304715],["nécessaire",-9.174668336980016],["vit",-9.174906919758154],["arrêt",-9.178649167810086],["longue",-9.178826675597113],["publié",-9.179458567576699],["iers",-9.179647038801868],["chant",-9.180361887372566],["500",-9.18269885458335],["française",-9.183305831238416],["perdu",-9.183631446117623],["han",-9.185372039772982],["ki",-9.185724432056563],["réalisé",-9.186382605557984],["igne",-9.1866896531332],["venue",-9.187479194506697],["gauche",-9.188270074564421],["cri",-9.188603924588618],["rester",-9.188921133836434],["fédéral",-9.189084149362891],["ber",-9.189676955362831],["course",-9.189737101838656],["pér",-9.1918739508553],["vis",-9.191939358009435],["80",-9.192280711852979],["van",-9.192870630092017],["solution",-9.193979181793473],["permettr",-9.19435078515519],["précisé",-9.19447481021735],["Emmanuel",-9.196437874204822],["matière",-9.19645773761402],["marqué",-9.196506874837144],["Maroc",-9.199243153198463],["ouvert",-9.199353824514397],["ami",-9.199630208193433],["ouverture",-9.2006528837674],["ordre",-9.201412540926196],["vente",-9.201759509337068],["violence",-9.201992877040222],["emp",-9.203315951370234],["changement",-9.204020148019811],["aff",-9.205369748396983],["respect",-9.206279630047911],["Qu",-9.207260972758018],["appelé",-9.208443420455886],["profit",-9.209177953426284],["présenté",-9.210212878325944],["og",-9.213025681154047],["Plus",-9.213047936766142],["communauté",-9.21308481291698],["sanitaire",-9.21308801323169],["plein",-9.213552439495581],["avance",-9.216101858424484],["doute",-9.216177930482662],["alité",-9.216469610511473],["internationale",-9.217982103219178],["expérience",-9.218691910113716],["photo",-9.218692928985732],["prévu",-9.221438252912456],["économie",-9.22150887175773],["entrée",-9.221885169568042],["quartier",-9.221904147957282],["répond",-9.222633769313072],["Ver",-9.223244207448317],["particulière",-9.224333667894328],["pratique",-9.224335957486517],["rappel",-9.224590742246908],["ong",-9.227127782260247],["modèle",-9.22716701525054],["oire",-9.227202862129575],["porter",-9.229097563116657],["impact",-9.230074087679576],["Est",-9.23148403127113],["auto",-9.232036161000462],[";",-9.232856440681577],["montre",-9.233589864441484],["Ben",-9.234413567514228],["vote",-9.235462794932543],["savoir",-9.23581282886489],["auteur",-9.238188414726213],["gros",-9.238434922845338],["personnage",-9.24145284878175],["technique",-9.241453157826658],["oli",-9.241535233477672],["russes",-9.242961871906093],["propose",-9.244938875095604],["parler",-9.245103581098093],["hu",-9.246013991477017],["ow",-9.248546624353716],["avion",-9.248745315762324],["Ville",-9.2495618949483],["accè",-9.250146297798906],["relation",-9.250212661063362],["journaliste",-9.250502622334576],["via",-9.250973754717066],["70",-9.25155751249212],["lorsqu",-9.252204453177539],["élevé",-9.252888078966736],["veille",-9.252925393759359],["Hu",-9.253513808569693],["garde",-9.255770287630193],["disponible",-9.255945473441638],["objet",-9.255999541305115],["salle",-9.256027911421143],["République",-9.256097692565756],["viv",-9.259885552997728],["Pas",-9.26027229776078],["souligne",-9.262545106546632],["représente",-9.265362884043258],["achat",-9.266754261350957],["vienne",-9.266829267147596],["élève",-9.26719007329568],["insi",-9.267605652931419],["présence",-9.267706820722488],["amb",-9.269478903249343],["Premier",-9.27065215859674],["venu",-9.271555520907865],["Bar",-9.271571471919561],["née",-9.273071866938015],["Tr",-9.273672913838881],["importante",-9.27374071504457],["Quan",-9.274117860155581],["revenu",-9.274966044330451],["retrouve",-9.276139594890598],["Coupe",-9.27660969104437],["défense",-9.278162607861688],["sanction",-9.279580693466203],["message",-9.28265815391363],["artiste",-9.283884364505116],["devenu",-9.284205180981168],["Union",-9.284244514679749],["gestion",-9.285754773511707],["char",-9.285762983988636],["différente",-9.286651817666154],["dix",-9.287686449694686],["défi",-9.289742102287827],["seconde",-9.291487196862056],["époque",-9.291765108835413],["errière",-9.292752537554836],["camp",-9.295226763421287],["mouvement",-9.297682924457973],["rez",-9.29939223081143],["enfant",-9.299853017886477],["serai",-9.299871008954504],["onne",-9.300071695536971],["capacité",-9.300731006125812],["emploi",-9.300977405858845],["istes",-9.302865804104652],["européen",-9.30339793118064],["éli",-9.304011926557841],["vivre",-9.304554493613447],["arrêté",-9.304567478477463],["affirme",-9.305464578783212],["arrive",-9.305791910294964],["men",-9.306421702571747],["demandé",-9.306887262779053],["voit",-9.30889783835077],["arme",-9.309033333187083],["air",-9.310414576311683],["ête",-9.310420491297922],["carrière",-9.310770626919256],["franc",-9.312839453920803],["différents",-9.312840518324489],["accident",-9.313018109869066],["reprise",-9.316414197002505],["Bi",-9.316917185298522],["présente",-9.318469117445659],["Man",-9.318913251148272],["tué",-9.319229089721292],["Ber",-9.319679798264186],["télé",-9.319944414273877],["cho",-9.320079700346891],["aider",-9.32150514784431],["étudiant",-9.322334805255313],["trans",-9.323922369180746],["accusé",-9.32413009227307],["pression",-9.324957710324973],["Pierre",-9.325496027784428],["droite",-9.326250618420328],["loc",-9.327413051622266],["principale",-9.32764189853619],["Sou",-9.328337579717198],["Poutin",-9.328600566923845],["bureau",-9.32888037334413],["Do",-9.330021879812477],["tenu",-9.331330981323688],["extrême",-9.331739254672197],["écran",-9.331797853026892],["armes",-9.332138678653155],["taire",-9.3334558891907],["version",-9.334799285837562],["Dr",-9.335693981479505],["meilleure",-9.33603216936836],["éré",-9.336182683379018],["assure",-9.33662739885085],["Marc",-9.337318214111054],["issant",-9.338144560242476],["existe",-9.338226963156998],["capitale",-9.338252594242082],["mondiale",-9.33826774640656],["bord",-9.339798428053186],["sociale",-9.340036808727472],["Français",-9.341232989732976],["vision",-9.341592188938913],["Ça",-9.342208863092928],["Montréal",-9.344418106455658],["établissement",-9.344418339048838],["policier",-9.34442081369253],["majorité",-9.344498466705852],["Gi",-9.344860897434483],["plateforme",-9.347615332042515],["Twit",-9.347635134408456],["américaine",-9.347755356049259],["personnel",-9.348374760162093],["origine",-9.354035659674839],["gan",-9.354376140293844],["bal",-9.35455143810832],["créer",-9.355168213788215],["réalité",-9.35519154152368],["peuple",-9.357942742990545],["pouv",-9.358450509675627],["é",-9.361784021357472],["retrouver",-9.362117231440328],["Mosco",-9.36285092551953],["vant",-9.364901028433543],["oir",-9.364977133234273],["unique",-9.366532786633782],["mine",-9.367180630692536],["Su",-9.36771174936294],["mor",-9.368152244887948],["erie",-9.368689325241775],["lien",-9.368790102281654],["anim",-9.368945555293635],["Ré",-9.369110964066525],["acte",-9.369490395552894],["affirmé",-9.371267063900603],["éni",-9.372499120342482],["approche",-9.37369013589233],["29",-9.373866713038321],["locale",-9.373993830613887],["Cour",-9.374186053907904],["dirigeant",-9.37428193732178],["bé",-9.375978983483122],["Même",-9.376837592519033],["lie",-9.377017254202325],["genre",-9.377234673678942],["véhicule",-9.378796840604515],["éro",-9.378883684910324],["compagnie",-9.380135753515361],["ajoute",-9.380359222291421],["étant",-9.380878373422881],["expliqué",-9.381545750033943],["gou",-9.382439073845978],["andis",-9.383020089407976],["contact",-9.383594768280958],["tro",-9.383603472559937],["PC",-9.383797159303622],["resse",-9.383871031918474],["âge",-9.383872925351891],["Ko",-9.388763572114007],["enir",-9.388952283093685],["cation",-9.3897955795353],["débat",-9.391078731355698],["vin",-9.391904592479953],["90",-9.39296839804436],["off",-9.393318412764659],["urgence",-9.393458194457164],["vite",-9.393565622227177],["chemin",-9.393876488792316],["village",-9.393923865784405],["lot",-9.3940751241281],["emb",-9.396742505107266],["viru",-9.399441554861365],["porté",-9.401238268632941],["naire",-9.401875811098531],["ram",-9.40336008306399],["africain",-9.40354830595236],["AFP",-9.403586216690623],["officielle",-9.40446963952039],["attendu",-9.404515796098192],["Pi",-9.406042909697712],["construction",-9.406938015892004],["continuer",-9.408165436616247],["gri",-9.408610255387057],["souhaite",-9.408859562505416],["ani",-9.409665870097326],["réponse",-9.410340111921604],["assurer",-9.410780148013627],["prison",-9.412797558108695],["conclu",-9.41370164747127],["dizaine",-9.41375255693319],["employé",-9.417176992408791],["menace",-9.417410542849066],["grave",-9.417862172415067],["For",-9.418004676313402],["hy",-9.418969854260077],["Sam",-9.419324774522913],["étape",-9.420615191197573],["facile",-9.424110966321628],["allait",-9.428388709853294],["Vo",-9.428659587629802],["Lors",-9.429040954985165],["ica",-9.429123659573255],["travailler",-9.429315907192052],["soirée",-9.429426312473076],["km",-9.429622661757126],["199",-9.4302733367219],["Tour",-9.430446436693178],["utilisé",-9.430995953767855],["bus",-9.431153286130218],["professionnel",-9.431338305224681],["conflit",-9.434479653671762],["Isra",-9.434673636874756],["my",-9.434826707089856],["ions",-9.435296158592763],["Que",-9.435324712194788],["eff",-9.436303686257341],["fier",-9.436417455802296],["bel",-9.43648881701143],["fo",-9.437745251397992],["augmentation",-9.43797519044519],["type",-9.438014664088255],["New",-9.43808112168653],["voyage",-9.440029536894809],["tar",-9.44029761489784],["signé",-9.440871452924632],["hiver",-9.442552543971665],["assis",-9.442593418308903],["rare",-9.443967762729931],["conférence",-9.445004841826858],["agent",-9.446417641642151],["gre",-9.447477001039072],["continue",-9.447669164357698],["suivi",-9.44883270660934],["anne",-9.44913871496307],["assuré",-9.449362657188857],["Chine",-9.44957837735113],["The",-9.450551846687652],["regard",-9.450951239275724],["lance",-9.451015970198267],["international",-9.45132151958337],["hier",-9.454449228936783],["isé",-9.455287953215194],["choisi",-9.455586330720525],["commencé",-9.455648846832457],["évolution",-9.455962983201314],["Deux",-9.457409622084128],["véritable",-9.459214675590273],["inflation",-9.459215697837706],["isant",-9.459251550910812],["critique",-9.459539140582184],["sait",-9.463929905411007],["cap",-9.465499905442643],["vre",-9.465732965398303],["incendie",-9.466396033358663],["Bruxelles",-9.466396299980069],["rouge",-9.467166651389189],["élément",-9.469928728669062],["historique",-9.470006132358137],["avocat",-9.470006338684238],["hor",-9.470035037001189],["domaine",-9.470091331804262],["lié",-9.470787429622257],["35",-9.47086021701347],["Centre",-9.472780060308406],["inscrit",-9.47363255012985],["ukrainienne",-9.474201565309722],["hors",-9.474749097176058],["touché",-9.474751615660661],["Sud",-9.475744413004968],["ène",-9.477061340098562],["administration",-9.477265672403153],["individu",-9.47726779774765],["ov",-9.47737155396334],["création",-9.478573248338215],["station",-9.478581282705568],["vise",-9.479568455721793],["noir",-9.480102236404857],["centrale",-9.480831213136],["performance",-9.480915324599625],["éviter",-9.481025441221771],["département",-9.481171634911137],["lit",-9.482522793743055],["classe",-9.48422637189084],["réunion",-9.484525676494673],["contrat",-9.484666960574804],["large",-9.485036870910111],["moyenne",-9.485186934183542],["sort",-9.4854345800112],["chaîne",-9.486304172069215],["fête",-9.486592440550336],["mandat",-9.487400738519524],["tribuna",-9.48814153248341],["note",-9.488530892257334],["Ser",-9.488824298878097],["Val",-9.491394611295028],["particip",-9.491961072170852],["permett",-9.493961387658624],["possibilité",-9.495648528905544],["page",-9.496470208880705],["battu",-9.497329684318537],["era",-9.497486297948225],["subi",-9.49749143661788],["Van",-9.497850902857845],["liberté",-9.499366831015648],["cinéma",-9.49936707321573],["province",-9.49936896549827],["ç",-9.499502510422179],["conséquence",-9.499671167618448],["uff",-9.501311615960617],["ach",-9.501836477851928],["futur",-9.502444410579988],["supplémentaire",-9.50309734173351],["football",-9.503277981414204],["frontière",-9.503291573848617],["danger",-9.503402227485715],["presqu",-9.503906614840655],["ndre",-9.504684331739256],["social",-9.505147311025834],["raconte",-9.506298017708609],["représentant",-9.506844382468465],["retrouvé",-9.507222875670843],["imp",-9.507449096717286],["ok",-9.507928774940833],["décè",-9.50957380098293],["compris",-9.509830028743258],["fini",-9.511930732741561],["particulier",-9.514375652078648],["Certain",-9.514377427900179],["médecin",-9.514380385226891],["joué",-9.514664480751136],["post",-9.518403982017505],["échange",-9.520572523132625],["record",-9.521978279364957],["partenaire",-9.521997893204475],["double",-9.521999001025087],["chargé",-9.52222740942916],["Col",-9.523754152343997],["ham",-9.524233349523843],["voisin",-9.52684049090428],["ément",-9.527391875493787],["engagement",-9.528698583247891],["trouvé",-9.52923301310539],["François",-9.529614011202433],["obteni",-9.52993252936377],["1er",-9.530254732495955],["of",-9.530576457405138],["31",-9.531891000721277],["huit",-9.533063389151783],["Wa",-9.533108518278166],["week",-9.533478614917934],["mode",-9.533519621171585],["Luc",-9.535602005646046],["texte",-9.536503932739134],["—",-9.537321168830399],["for",-9.537338312854517],["process",-9.537444506001513],["Ya",-9.537685650338359],["souligné",-9.538896377979388],["iser",-9.53973038304725],["berg",-9.539732069934269],["investissement",-9.541197742336669],["maladie",-9.541198172726325],["populaire",-9.541198545597375],["privé",-9.542273432198513],["crois",-9.542816155162505],["totale",-9.543690024109402],["iff",-9.543943126111579],["Malgr",-9.544428760204895],["sortir",-9.544978684125283],["millier",-9.54513780504649],["iens",-9.545415687341261],["atrice",-9.545422434783557],["chacun",-9.5457240855665],["affiche",-9.546317173831355],["éco",-9.546541684952478],["marche",-9.548187201485911],["application",-9.548994464512957],["aix",-9.550154644595182],["gh",-9.550216599044553],["Cor",-9.552114336380878],["by",-9.554402844112623],["banque",-9.554524512113733],["détail",-9.555240577544607],["centaine",-9.555352622865524],["soin",-9.555952807285408],["Bien",-9.556344885592484],["propriétaire",-9.55685301879014],["scolaire",-9.556917056417678],["climatique",-9.557040462033957],["super",-9.558161600778615],["pourra",-9.558720686307261],["tier",-9.559702623795456],["the",-9.561085904456625],["nation",-9.561870102220986],["second",-9.562748120616234],["ange",-9.562911769193166],["passage",-9.563228667754244],["ouverte",-9.564319713639062],["confirmé",-9.564775659504132],["probable",-9.564776415407968],["tic",-9.566292790590413],["San",-9.566492519689366],["étranger",-9.567005764437011],["lourd",-9.567315011018458],["directe",-9.567974570353964],["45",-9.56854832988287],["physique",-9.568758384756908],["champion",-9.568880182907822],["pres",-9.569715893881277],["touche",-9.570009164686526],["clé",-9.570095101775028],["commun",-9.571783018420696],["réce",-9.571873897558909],["pin",-9.572326204899571],["communication",-9.572758528774706],["gie",-9.572906086478985],["gen",-9.573707576983121],["joue",-9.575090549529612],["her",-9.575225115101727],["humain",-9.575329017748448],["allon",-9.576307952843106],["line",-9.57643303099072],["musique",-9.576776931941023],["initiative",-9.576824609718546],["compétition",-9.576862222704086],["suivr",-9.576867253184517],["opposition",-9.577332970009554],["Paul",-9.5777529487488],["gagner",-9.579294220673374],["Char",-9.580464035220633],["voulai",-9.580609110465327],["expert",-9.580927417674696],["effort",-9.58095017137033],["levé",-9.581988951091539],["patient",-9.584045012748508],["placé",-9.584700678615022],["ouvrir",-9.584716484698925],["engagé",-9.584865521937678],["changer",-9.586728667077498],["+",-9.586974828456434],["poursuit",-9.588833311616284],["protection",-9.58891985348654],["pièce",-9.58892031225303],["épisode",-9.5889338584256],["John",-9.588941633465062],["chev",-9.58909756396406],["terminé",-9.589371167965623],["FA",-9.589458078798428],["faudra",-9.589544078555956],["UE",-9.590393280639383],["bâtiment",-9.590485753852388],["top",-9.592306282335322],["difficulté",-9.593001480412022],["figure",-9.59300548658937],["har",-9.593497575036029],["blessé",-9.594759763981116],["Allema",-9.598245055111068],["Beau",-9.598475803464183],["émission",-9.600011125968075],["civil",-9.600378329552184],["numérique",-9.601215069438641],["présidentielle",-9.601318215422452],["culture",-9.60190110810882],["quotidien",-9.604962504074626],["blanc",-9.604979949296848],["phi",-9.605100660986036],["peur",-9.605113804688202],["pompiers",-9.605347303865699],["concerne",-9.60534866121338],["belge",-9.605697265214927],["pire",-9.606180194239549],["montant",-9.6066065580732],["véhicules",-9.607026941862681],["réuni",-9.608365196278541],["majeur",-9.609566536396285],["bois",-9.609974411617888],["Côte",-9.610005214498337],["agence",-9.610178853862724],["vait",-9.610251637118058],["Mari",-9.611601700922792],["ski",-9.612598402536863],["électrique",-9.61366335155561],["nier",-9.616218541313682],["vais",-9.61735089188777],["procè",-9.617963579268958],["laisse",-9.618513949942896],["pleine",-9.618610244825557],["Toute",-9.620756337409095],["arrivé",-9.621777132154168],["mondial",-9.621781348477937],["électrici",-9.622049305427074],["atteindr",-9.622050273536889],["rêve",-9.622392784948985],["estimé",-9.62264336581876],["fut",-9.622723763152226],["libre",-9.624171585444728],["tente",-9.62459578678617],["revien",-9.625898831937032],["mené",-9.625953107683412],["enregistré",-9.626268533460372],["technologie",-9.626268708284641],["article",-9.626282611457054],["Louis",-9.626482429319413],["Ex",-9.627117115319548],["fou",-9.62721396203607],["vaccin",-9.627490080826465],["faisant",-9.627819231966026],["rappelle",-9.627889685574923],["omb",-9.628099704274195],["document",-9.630198336479197],["cru",-9.630451406550415],["concerna",-9.630512845043866],["Algérie",-9.630512927531246],["Am",-9.633248496896867],["intérieur",-9.63476116404236],["attendr",-9.635387279891088],["ancienne",-9.636080432942848],["preuve",-9.636624711293067],["claire",-9.636989183556917],["vos",-9.63706269774855],["régime",-9.639322830243882],["pli",-9.63932598082069],["von",-9.639328633719801],["capable",-9.639497989892066],["confian",-9.639783621607197],["nommé",-9.6401702344126],["quart",-9.640832540544206],["proposé",-9.640912553059561],["constat",-9.641474940073689],["sommet",-9.64328931069047],["connaiss",-9.643647596540347],["Bre",-9.64500479918431],["réserve",-9.645446261904107],["sorte",-9.646755324371636],["œ",-9.647504487521699],["Ligue",-9.6476889407101],["invité",-9.647705648246239],["vingt",-9.647746949257034],["ouvre",-9.649164840071883],["spectacle",-9.651965839689865],["judiciaire",-9.651965839805959],["intervention",-9.651966497367685],["logement",-9.653733583888275],["analyse",-9.656313764830323],["ujourd",-9.656837884419936],["aime",-9.656879363887668],["tribu",-9.659769567636618],["dispose",-9.660611236850205],["manifestation",-9.660680489128012],["nucléaire",-9.660680508903791],["front",-9.660767139058692],["allé",-9.660772853015342],["endroit",-9.660781389071968],["Bra",-9.661408372463997],["lancer",-9.663827747849357],["évolu",-9.664834360895927],["Sénégal",-9.665066498184466],["plainte",-9.665158686084816],["commence",-9.665869760598744],["avis",-9.66715972891765],["To",-9.66736110515639],["condamné",-9.669471732794655],["institution",-9.669617808154968],["divers",-9.672477702293982],["commande",-9.674026994069607],["actions",-9.67466496447565],["%)",-9.67489470053668],["remporté",-9.67520510296746],["ume",-9.676602315689387],["signe",-9.676790374617557],["Fi",-9.67760356280943],["invasion",-9.678341677491577],["Bel",-9.678530252485604],["star",-9.679290947511847],["transition",-9.680456981839145],["endant",-9.682030848460641],["arrière",-9.682658621816806],["Michel",-9.682864162181264],["interne",-9.68486200923953],["faisai",-9.685097502063975],["faible",-9.687318748859088],["aventure",-9.687322494605713],["pouvai",-9.687356598112963],["créé",-9.687623993516564],["ado",-9.688844505025926],["yer",-9.690196737717134],["instant",-9.690326200294283],["ick",-9.690935996879576],["balle",-9.691571269118098],["festival",-9.691915908434193],["découvrir",-9.691952604040978],["initi",-9.693006340188305],["structure",-9.696319175848085],["cent",-9.696387857785533],["Mor",-9.696530143368172],["stade",-9.696628918582464],["Santé",-9.697979383274872],["%.",-9.698570504586844],["poi",-9.698682778432065],["II",-9.700811836207176],["financière",-9.700864392354793],["déclaration",-9.700864751912285],["puissance",-9.701118060301145],["plai",-9.702493264214878],["mur",-9.703836956343295],["continu",-9.704910769990692],["règle",-9.705301696148155],["°",-9.70543059904761],["budget",-9.705431126699862],["environnement",-9.705471661485308],["ménage",-9.705656831806769],["salaire",-9.705659935456532],["courant",-9.709837316370558],["constitue",-9.710017812602235],["tient",-9.710310406641677],["entretien",-9.712399808363198],["réforme",-9.713009433283586],["Ru",-9.713342527918849],["envers",-9.713711376656434],["piste",-9.713799361677232],["”.",-9.713803177224646],["oré",-9.713864972600803],["britannique",-9.714626049941998],["régulière",-9.714626050976158],["neuf",-9.714713639902463],["génér",-9.714992240809298],["fra",-9.71507489858778],["refus",-9.715123279234149],["espère",-9.716468602887897],["usine",-9.716763520117595],["déb",-9.716775519417475],["Mou",-9.717305114967122],["travaille",-9.718731782268286],["Ti",-9.720306490334163],["commerce",-9.720422888565743],["indi",-9.72078626357371],["perte",-9.720864697424384],["nature",-9.721004456006366],["coin",-9.721255948564977],["manche",-9.722332965985167],["clair",-9.722603226568538],["vague",-9.722737724114891],["nouvel",-9.722991913610503],["utiliser",-9.723873728541047],["espoir",-9.723958734608367],["tenue",-9.724122863333783],["patron",-9.724211886717999],["prenant",-9.724385476589868],["lever",-9.724421679319683],["langue",-9.724599056362297],["génération",-9.724690359976812],["augmenter",-9.72502295026557],["achete",-9.727566982951128],["offrir",-9.728616897375057],["ker",-9.72870325234111],["prévue",-9.729611037292504],["Kie",-9.730593094655134],["99",-9.732418975014408],["âgé",-9.732577058598304],["négociation",-9.733274575587537],["contexte",-9.734062993424008],["sport",-9.734326883073301],["répondr",-9.736314530218866],["univers",-9.73794360266872],["responsabilité",-9.737991556424848],["kilomètre",-9.738036149691892],["Martin",-9.738103185414552],["alimentaire",-9.7382911161505],["discour",-9.738533984813381],["bour",-9.739133675695982],["fera",-9.740460893568848],["mm",-9.742904358549076],["ète",-9.744121533303876],["reconnu",-9.74457380941172],["actuel",-9.747608492158157],["phase",-9.74825806524629],["participer",-9.748941353307828],["olo",-9.74934772277064],["unité",-9.749523876959714],["bio",-9.749660439486025],["frappe",-9.74992644128206],["sorti",-9.750716795971426],["chiffres",-9.750750282924958],["bras",-9.751717545623514],["tournoi",-9.752330924110755],["attente",-9.752584281645927],["direct",-9.752650377580583],["actif",-9.752704819789772],["situé",-9.752706056422802],["gon",-9.755781931435704],["secrétaire",-9.757085737642912],["visible",-9.757101384676467],["TV",-9.75750813708137],["profiter",-9.759351498387126],["Fo",-9.759453649300024],["prenne",-9.760280569353153],["laisser",-9.762809171966634],["puisqu",-9.762986127969334],["obtenu",-9.763326261446718],["outre",-9.76386372985715],["étrangère",-9.76677051071774],["supérieur",-9.766770757680233],["appareil",-9.766774205960488],["saisi",-9.767123312117619],["Pen",-9.768797543512264],["mène",-9.76929936769725],["lusieur",-9.769402224504049],["Bor",-9.770374308283419],["aliment",-9.770873455177487],["mainten",-9.770980992701496],["extérieur",-9.77164851562876],["cérémonie",-9.771648565775056],["potentiel",-9.771648839159756],["intention",-9.771653109046703],["volonté",-9.771778280289253],["soldat",-9.771810744564679],["00",-9.772015913829687],["géant",-9.772626018007752],["ative",-9.772790614796088],["quitter",-9.774563323603532],["entendu",-9.77475324521223],["quête",-9.774817908213995],["crime",-9.774881435758138],["souten",-9.775704267016177],["usage",-9.776105853815913],["numéro",-9.776550777491572],["siècle",-9.77655087081046],["atoire",-9.777569276555587],["épi",-9.778080849616483],["compter",-9.77848263110975],["péri",-9.78007191707828],["logique",-9.780537805837668],["Mont",-9.78063342945461],["compt",-9.780852202010553],["installé",-9.781482360870374],["appelle",-9.784831551203744],["75",-9.784912616846205],["Avant",-9.7859591063483],["championnat",-9.786430716408974],["entraîneur",-9.786434053693469],["forcé",-9.786452394607458],["bert",-9.787043044512508],["finance",-9.788782987958626],["leader",-9.78879255860112],["comprendre",-9.789217801368649],["Mat",-9.790321437033846],["ème",-9.790658892617014],["frère",-9.790818525548655],["habi",-9.791319205176165],["garanti",-9.793088082988268],["liée",-9.794754320975997],["remise",-9.795092265748139],["énergétique",-9.796402204605762],["financier",-9.796402215722537],["contraire",-9.79640506964368],["militant",-9.796406913553357],["Entre",-9.796754849842387],["ferme",-9.79689056067438],["US",-9.797061166523232],["réagi",-9.797155195299837],["Har",-9.80132673464934],["consommation",-9.801427329171826],["croissance",-9.80144552104534],["ombre",-9.802120486072715],["fermé",-9.802266725002688],["surprise",-9.802431948490604],["land",-9.803751286409925],["épreuve",-9.804269678924811],["limite",-9.805179077166642],["content",-9.806048494089197],["quatrième",-9.806477848306264],["couleur",-9.806511160650858],["comprend",-9.806553616410735],["amour",-9.806598032143992],["commission",-9.807247036748644],["proposition",-9.807490061781401],["bande",-9.807604675048797],["principal",-9.808016131896498],["occupe",-9.811554055834126],["blessure",-9.811583044924802],["conduit",-9.81171561219766],["vitesse",-9.811905531239017],["exclu",-9.813092559628394],["arriver",-9.813431232081498],["abilité",-9.815208723195205],["allemand",-9.81667892534273],["décédé",-9.81672341446695],["insist",-9.817045586967316],["élé",-9.817592155772415],["cherche",-9.82107662469489],["option",-9.821106216211309],["célèbre",-9.821784222736612],["tombé",-9.82186072902767],["établi",-9.822837420690533],["intégr",-9.823785345912128],["devien",-9.824665439099313],["Bri",-9.824693754435494],["durée",-9.826365337401437],["demi",-9.82685060898589],["effectué",-9.826938887376649],["David",-9.826949525175486],["parcours",-9.82774293199124],["éra",-9.827939062268506],["bilan",-9.828196277941828],["comité",-9.829581147532963],["matériel",-9.832120304692854],["tension",-9.832272934113913],["final",-9.836294118950091],["stratégie",-9.837328567174076],["York",-9.837335727365492],["tendance",-9.837336517868174],["envoyé",-9.837484030898434],["décide",-9.838093371226254],["ium",-9.838200100715245],["industrie",-9.838367752916037],["visé",-9.839027953854776],["AS",-9.839544745092397],["défini",-9.839939382801813],["essai",-9.841507176284624],["box",-9.842119670453275],["moitié",-9.842566956290398],["déroule",-9.842622962687276],["terroriste",-9.842750261377159],["Face",-9.842979437802292],["confirme",-9.844140511731782],["pose",-9.844356827087875],["favori",-9.844618721862904],["importe",-9.84468099458557],["entend",-9.84472653028665],["Parti",-9.844792163538731],["Ki",-9.845027610657738],["ondre",-9.845067624927879],["tourné",-9.845687567287683],["posé",-9.846115248434595],["domicile",-9.847832347040384],["absence",-9.847844138574107],["troupe",-9.848005704087726],["q",-9.848024891261794],["Russe",-9.848117065925912],["Trois",-9.848497219379297],["réclam",-9.848592021857986],["suisse",-9.849154436259603],["travailleur",-9.849991251037892],["198",-9.850629611389241],["prévoi",-9.852122701400969],["outil",-9.852354007421813],["laissé",-9.852503037868754],["anglais",-9.853162906765581],["ressource",-9.85319203727589],["esprit",-9.85350473440253],["oui",-9.854577606656452],["contenu",-9.85572252480401],["roman",-9.855906812460352],["rev",-9.856445852947266],["présenter",-9.856576263686023],["essus",-9.856718259470144],["isée",-9.858329011132618],["Vladimir",-9.858437456711258],["accueil",-9.860122280797782],["commis",-9.860826970091793],["demeure",-9.862342222245958],["issue",-9.862554857679504],["multi",-9.863535616289365],["Assemblée",-9.863785049499818],["syndicat",-9.86378505021107],["suspect",-9.863785055278639],["chinois",-9.863798794391467],["changé",-9.863815090692905],["300",-9.864007206648422],["û",-9.865325108470287],["tirer",-9.865640132469922],["entrer",-9.866142156174941],["FC",-9.867736440410638],["Tous",-9.868587880794758],["hauteur",-9.868683904802921],["Président",-9.868973488405398],["référence",-9.87034194084325],["Ali",-9.87053888934184],["ON",-9.871004788257132],["siège",-9.871495049880702],["nette",-9.871776525394907],["absolu",-9.87200786565368],["Sha",-9.872383632890276],["sub",-9.874340238330051],["conseiller",-9.875087957331534],["kh",-9.876093112562414],["itude",-9.876248307932007],["offert",-9.880012065553338],["Bon",-9.880228272138051],["quasi",-9.88058929498207],["ologie",-9.881383764849549],["haute",-9.881693807985943],["Alex",-9.882033347410193],["hôtel",-9.88314567024846],["excellent",-9.883417075385914],["financement",-9.885145762686712],["catégorie",-9.885466062449899],["scientifique",-9.885466063054997],["classique",-9.885469731510783],["dénonce",-9.885473433103762],["grosse",-9.88571695438835],["évidem",-9.88593922162999],["payer",-9.886171915427386],["2015",-9.886250550088949],["impression",-9.886256497145418],["participation",-9.8866179332848],["Per",-9.886826454164254],["chiffre",-9.8872145024581],["éducati",-9.887481586852475],["bénéfici",-9.889862859613986],["annuel",-9.890995895219383],["téléphone",-9.890998746587977],["aille",-9.891059224908425],["Noël",-9.891411894766634],["réduir",-9.8915257110236],["dose",-9.892975797503464],["Bas",-9.893269362991205],["organisé",-9.893988836978657],["envie",-9.896069674875875],["‘",-9.896485429662587],["Pri",-9.897419962878402],["connaîtr",-9.897663607421322],["isent",-9.897737745016975],["î",-9.89928684365046],["tenter",-9.901380827600896],["précédent",-9.902060880294698],["retraite",-9.902231827952141],["prévenu",-9.90398506416245],["trouvai",-9.904654799298093],["officiel",-9.906105860135906],["procédure",-9.907627595983923],["grève",-9.907627604596904],["RT",-9.909025480766974],["réaction",-9.909812568081495],["poursuivr",-9.909990182222014],["puisse",-9.911675174995136],["importan",-9.912104929353934],["journal",-9.912833025128997],["attention",-9.913246457423606],["lumière",-9.913246699039984],["Guinée",-9.913252846293336],["jugé",-9.913268595332024],["ajouter",-9.91353532227468],["chute",-9.913693378229368],["War",-9.913997885787609],["devra",-9.914614871064323],["toi",-9.915555385286007],["Mali",-9.915572757758335],["Sch",-9.915757156535275],["retrait",-9.916166712755828],["minim",-9.916306712108845],["exploit",-9.918117696948965],["circul",-9.918170045870665],["discussion",-9.918895272473424],["professeur",-9.918895274737608],["concerné",-9.918896220780013],["appréci",-9.91889947759866],["réalis",-9.919206360326363],["Haut",-9.919851808304582],["restaurant",-9.92018222274029],["classement",-9.920513337417386],["Wi",-9.920706309965588],["illon",-9.92367409713625],["appui",-9.924262440433342],["enseignant",-9.924577314045735],["active",-9.924816756602421],["cible",-9.925919150516588],["commencer",-9.925926305700774],["gardien",-9.92619832322404],["violent",-9.927048707526335],["passant",-9.928505448020953],["exercice",-9.93029137902758],["gratuit",-9.930293040756624],["revanch",-9.93030945462111],["Italie",-9.930484277817918],["île",-9.930736023066945],["ock",-9.930972846431942],["Nation",-9.933177217112654],["vivant",-9.934361307106172],["culturel",-9.934962821037207],["mani",-9.935000740736829],["contribu",-9.935081724033015],["entier",-9.935394543975463],["Quant",-9.935936084536326],["sais",-9.93601689350972],["agression",-9.936038644885054],["chambre",-9.936043122500205],["ô",-9.93704540742943],["civile",-9.937708784917902],["Qui",-9.937711002382358],["médi",-9.93981239432199],["agir",-9.939884620683726],["tonne",-9.941435860921144],["concert",-9.941619631975215],["principe",-9.941818858540344],["infrastructure",-9.941819019592497],["habitude",-9.941823616942187],["Marie",-9.941860063750285],["Affaire",-9.941900909707826],["camion",-9.941905260254018],["pilote",-9.9420372897141],["gro",-9.942044991592791],["champ",-9.942455712321653],["adresse",-9.942469783609793],["lettre",-9.94401312480008],["Her",-9.94428897434998],["Sans",-9.945129603405666],["adversaire",-9.947633696952792],["plaisir",-9.947695000652068],["riche",-9.948941228990002],["froid",-9.949415975171263],["ures",-9.94942203144636],["FI",-9.949897900047944],["Charles",-9.950567717134021],["Gar",-9.952862195883728],["positif",-9.953472567629193],["Commission",-9.953749686751328],["rempli",-9.953781062042864],["interdit",-9.955451613670913],["complètement",-9.956487600791881],["souhait",-9.956994152624805],["partage",-9.957223780304954],["ault",-9.95771669316615],["penser",-9.95860810187132],["olympique",-9.959363109243847],["circuit",-9.95936311757888],["considéré",-9.95936312124232],["protéger",-9.959364412054377],["Dan",-9.959569002963477],["accusation",-9.959625178624728],["accueillir",-9.96060145519002],["Fond",-9.9606488296701],["nage",-9.961083970909783],["400",-9.96131162942049],["issu",-9.962711643565925],["installation",-9.9652805383678],["faveur",-9.965316191005716],["tentative",-9.965318921027768],["regret",-9.965487147813985],["entière",-9.965572461943701],["issé",-9.965672875444783],["réaliser",-9.966324026206664],["commercial",-9.966479485886211],["Sport",-9.966827798719354],["entendre",-9.967333276988228],["local",-9.968746717491841],["poursuivi",-9.968877910199485],["32",-9.969677982288655],["tenant",-9.969748521616374],["ification",-9.970084367883326],["occident",-9.971232689444797],["température",-9.97123269492254],["viol",-9.972681767205948],["suivant",-9.972835196595945],["fonctionne",-9.973921884995516],["vendu",-9.974130645978935],["bleu",-9.975733193297305],["Marine",-9.976281301671403],["réfugié",-9.977220674308496],["magasin",-9.977221721908847],["trice",-9.977732772707814],["Juli",-9.977897503915006],["écoute",-9.977981328971664],["tiré",-9.978489066372227],["soumis",-9.978740616695834],["parquet",-9.979992146370403],["erreur",-9.980689182244129],["Canadien",-9.983257384640705],["vacance",-9.98328374765815],["secour",-9.983825972210756],["montrer",-9.98776477305654],["ague",-9.989020086512653],["honneur",-9.989308686966044],["Philippe",-9.98933189087942],["Laurent",-9.989430255402418],["déposé",-9.989434628110516],["réduit",-9.989517794393453],["organisme",-9.990217517286043],["promis",-9.990750373050268],["aval",-9.992945321159612],["portée",-9.99399524086741],["Gra",-9.994975197689172],["utilisation",-9.995403646079131],["disposition",-9.995430461201302],["rythme",-9.995449789848976],["relève",-9.995644930541099],["h30",-9.995740165689744],["Nic",-9.996254612648638],["lesquel",-9.99699477498924],["engage",-9.998409684010221],["LR",-10.000127256083019],["remis",-10.000449395631676],["immédiate",-10.001188576397603],["climat",-10.00124600348411],["occupé",-10.001537907252063],["incident",-10.001542896250609],["aéroport",-10.001552617042403],["traitement",-10.00156608557285],["paraît",-10.004087707369962],["chasse",-10.005219599321235],["Tou",-10.005315160840862],["héro",-10.005716430658707],["demander",-10.005776082760786],["suffi",-10.00668951072391],["comédie",-10.007125941188846],["affect",-10.008032451158805],["Kar",-10.008076394095324],["frais",-10.008484398172804],["fais",-10.009178658481805],["Air",-10.010714281501738],["fans",-10.013617139699132],["Olivier",-10.013921942302897],["thème",-10.014276708856807],["utile",-10.014509245547242],["précédente",-10.014573126451314],["33",-10.014706724693962],["circulation",-10.014777175934299],["barre",-10.015870972079195],["soutenu",-10.01638678081316],["reveni",-10.01695218012927],["Mer",-10.01701028343722],["familial",-10.018203585305892],["procureur",-10.020172244319191],["salarié",-10.020177136621935],["université",-10.020737190803608],["change",-10.022557301488309],["pic",-10.024898442149881],["démocratie",-10.02646123459381],["déplacement",-10.026467077352288],["avancé",-10.026473272039688],["Genè",-10.026519156941017],["défaite",-10.026607265999608],["CI",-10.027504077544974],["normale",-10.028438489382141],["36",-10.02846831484195],["servir",-10.028589970550087],["menée",-10.029181614230001],["Sy",-10.030754635030892],["istan",-10.030830119755887],["49",-10.03140857392378],["améliorer",-10.032790348420273],["passion",-10.03444253464426],["eth",-10.035061383582224],["Fre",-10.035809162643803],["amis",-10.03626511884164],["ouloir",-10.036440417888029],["poser",-10.03760509837472],["vice",-10.037809816605094],["fourni",-10.03817675588212],["Espagn",-10.03895479268317],["pétrole",-10.039164634541095],["exposition",-10.039383123418855],["bro",-10.039554856440233],["composé",-10.039570659406738],["sentiment",-10.040215495960767],["quitté",-10.040287184203533],["arrêter",-10.04091043331648],["moteur",-10.041614898965292],["iller",-10.04163094143264],["participant",-10.042273310577544],["destiné",-10.042858695555063],["dépense",-10.04323212949734],["Jér",-10.044188471548498],["abri",-10.044231094178745],["bru",-10.045320862873147],["obligation",-10.045570057138946],["rencontré",-10.045570151172708],["légère",-10.045665988254061],["imposé",-10.046164042550952],["ciel",-10.047453649162453],["retard",-10.047813110622368],["lancement",-10.0482898063036],["Anne",-10.048564546524378],["puissant",-10.05008377395596],["resté",-10.050348910877707],["reprendr",-10.051049766094643],["maximum",-10.05202164459435],["Université",-10.052022633264476],["Amazon",-10.052024226622365],["55",-10.052151497814739],["Dar",-10.052831786573213],["ung",-10.05434489626938],["iège",-10.0567763137362],["industriel",-10.057220503397119],["intéressant",-10.058515151144539],["phénomène",-10.058515152986253],["réduction",-10.058515512817545],["augmenté",-10.058519551188427],["différence",-10.058541076874551],["exceptionnel",-10.058875490162158],["pénal",-10.058943350525709],["Patric",-10.058951816177128],["alerte",-10.0589781612973],["évoque",-10.05898737179365],["recul",-10.061335473964302],["émotion",-10.061361889497157],["viendra",-10.062369934047062],["écart",-10.062740583796172],["Aucun",-10.063577475893574],["connue",-10.063669488995131],["permettra",-10.064753787615572],["accompagné",-10.065051098655532],["construir",-10.065051103386606],["goût",-10.065124528548935],["réalisateur",-10.065265562661452],["recru",-10.065742347757071],["qualifié",-10.065938451924278],["dépend",-10.066173850068926],["défend",-10.066263988026925],["Za",-10.06696788858337],["Peu",-10.067019969921706],["DG",-10.067711512770614],["prime",-10.068100945496363],["dom",-10.068913201509984],["suiv",-10.069526568856162],["Im",-10.069733096257334],["investi",-10.07028240256731],["̀",-10.071630046023415],["studio",-10.071630087648362],["hommage",-10.071630198946117],["fréque",-10.07186992316419],["dos",-10.07329899719452],["Mé",-10.07337033394991],["voulu",-10.073963518590958],["pluie",-10.074064754606981],["ologue",-10.074342255890736],["constaté",-10.076495978558533],["spectateur",-10.078252564716514],["producteur",-10.07825257105982],["examen",-10.078256704473535],["oubli",-10.078653987501248],["recev",-10.078845592360338],["délai",-10.078961091696439],["Ivoir",-10.079923441638975],["atta",-10.080965956759947],["feuille",-10.081103541389425],["pouss",-10.08206681838945],["efficace",-10.082308229159285],["Wo",-10.082494189045756],["formul",-10.083520932550458],["apporter",-10.084221879082818],["consommateur",-10.084919229376787],["dialogue",-10.084919229950788],["sportif",-10.084942533681764],["Défen",-10.084986127582123],["promotion",-10.085101546473688],["exprime",-10.085173176419243],["valid",-10.085433602599217],["recour",-10.086024119619474],["inclu",-10.086732155177987],["crédit",-10.087050650853048],["pensé",-10.087082656064624],["Apple",-10.087235001936032],["blé",-10.087967708808257],["étal",-10.090517841600791],["37",-10.090604606369094],["pénurie",-10.09163064478291],["audience",-10.091631452454804],["limité",-10.091732320789923],["canton",-10.091801764121623],["médical",-10.091810896484441],["mari",-10.093387500507013],["34",-10.09390447841963],["rier",-10.094133548297819],["magi",-10.094803551931639],["tenté",-10.095153676979413],["affich",-10.09660555578439],["proposer",-10.097161618567263],["tarif",-10.097488340194321],["Américain",-10.09838739571964],["correspond",-10.098387398183142],["ashington",-10.098387405392952],["collectif",-10.098387471305845],["agricole",-10.09838902021393],["algérien",-10.098390766424007],["diminu",-10.09839175548871],["priorité",-10.098392597471925],["attaquant",-10.098508523262318],["traditionnel",-10.098653009328192],["neige",-10.098677267172981],["awa",-10.099180610516509],["Iran",-10.100775702136048],["lancée",-10.10303188431689],["déf",-10.104088293885422],["RS",-10.104505445467641],["&",-10.105190116487538],["développer",-10.105190116489325],["Ukrainien",-10.105190116639047],["indépendant",-10.105196066491368],["volontaire",-10.105199359074176],["vélo",-10.105221829091983],["igné",-10.105345704684755],["durable",-10.106076697441845],["pit",-10.106719170030502],["profond",-10.106803805705098],["visage",-10.109676839009799],["micro",-10.10994880117673],["refusé",-10.11133166861586],["Min",-10.111493522097696],["dépasse",-10.111848046748083],["manifestant",-10.112039462850628],["smartphone",-10.112039554867467],["gagné",-10.112042050780751],["arbre",-10.112126569674594],["utilise",-10.112126736263205],["livré",-10.112151589939955],["otte",-10.113875927639596],["trou",-10.114011309668658],["tourner",-10.114165654571853],["fri",-10.114346545449113],["défenseur",-10.115336655930907],["Seul",-10.115390592738443],["Tra",-10.116073629224182],["Joe",-10.116523885237438],["thé",-10.118046617802264],["COVID",-10.118935983308795],["collègue",-10.118935987369948],["jardin",-10.118951807329589],["adjoint",-10.119055174895067],["ième",-10.119613579463088],["garder",-10.120873703877068],["comportement",-10.121284978856394],["diffusé",-10.121315787911065],["Gre",-10.124567014418068],["pur",-10.125084909243238],["lire",-10.125410009768295],["dédié",-10.125884340928398],["adopté",-10.125886536290388],["médaille",-10.12588773994575],["soleil",-10.127127021141774],["Maison",-10.127853515597304],["vide",-10.128804496531739],["65",-10.12899487985051],["bloc",-10.132515147935461],["fié",-10.133039517386678],["missile",-10.133273187292524],["spécialiste",-10.133588733299868],["Dam",-10.13401929532196],["signal",-10.134655173438016],["chaleur",-10.135523478853294],["surface",-10.13577701925028],["taille",-10.13738832621533],["résidence",-10.137423573508205],["truc",-10.137446699752815],["mauvaise",-10.138294031774],["Thi",-10.139490175983333],["conservateur",-10.139915690416627],["Bour",-10.139997874644731],["israélienne",-10.140259174420986],["Robert",-10.140274202163072],["Parlement",-10.140492518599093],["Lion",-10.141715304623848],["2000",-10.142745618064692],["animal",-10.14291227823557],["croir",-10.14303026586897],["Inter",-10.144423731086857],["Art",-10.145444818223478],["détermin",-10.145812405802804],["québécois",-10.147007886910592],["global",-10.147021046950188],["valu",-10.147413333825781],["embar",-10.147661713660732],["candidature",-10.147804092312601],["Chi",-10.14811583493876],["mauvais",-10.14866552082139],["venant",-10.148736410525352],["Puis",-10.149081630547784],["ieuse",-10.151286542784796],["ajout",-10.152107419775149],["pêche",-10.153464846983013],["énorme",-10.15395226414913],["Ouest",-10.154133803286314],["carburant",-10.154152203146255],["continent",-10.154157067389107],["machine",-10.154157490148854],["identité",-10.154160982372149],["SP",-10.154324379934149],["égalité",-10.159113225757615],["justifi",-10.160205955644024],["influence",-10.161344989238431],["Royaume",-10.161345127954126],["marocain",-10.16134522114739],["dirigé",-10.161346915111206],["démarche",-10.161550283479798],["collaboration",-10.161774956824795],["appris",-10.16218214166411],["retenu",-10.162777186230404],["Ange",-10.16285499203043],["essay",-10.163515041502055],["confié",-10.163652613555826],["précis",-10.164006743191528],["plat",-10.165845349679039],["chercher",-10.166316742329313],["promet",-10.167886934719686],["exprimé",-10.168591734109512],["directrice",-10.168599266838218],["assurance",-10.168641462201112],["connaissance",-10.16910529900332],["détenu",-10.169699230575322],["Bid",-10.17034144247421],["ulaire",-10.170933074481908],["reine",-10.17150996663287],["amende",-10.171572398076464],["préparer",-10.171695189736754],["rappelé",-10.171978584462568],["souvenir",-10.172436187373304],["score",-10.17293947580201],["repos",-10.173334756454071],["franchi",-10.174188828911824],["formé",-10.174649612601014],["canadien",-10.17550043937845],["parlementaire",-10.17589303692992],["Qatar",-10.175897680835888],["dispositif",-10.175902602529622],["vécu",-10.175906413672763],["rejoindr",-10.176003388471482],["Nicola",-10.176012962792774],["Cam",-10.176061405972254],["Quelque",-10.17614615435955],["encourage",-10.176736508507076],["organisée",-10.178108193662695],["venai",-10.178236880338593],["témoigne",-10.178603988246351],["communal",-10.181012057510303],["National",-10.181343077555091],["arabe",-10.181546563111965],["jeunesse",-10.182358813046978],["visiteur",-10.182552092425196],["connaît",-10.182597581871153],["scénario",-10.183243576677867],["décennie",-10.18324368462029],["détention",-10.18324376503348],["criminel",-10.183263115627895],["gamme",-10.183275691600617],["atelier",-10.183278369384041],["exploitation",-10.184257746046853],["vaccination",-10.184597393250282],["Nor",-10.184602124518383],["chaud",-10.184921650902663],["renforcer",-10.1850877851671],["développé",-10.190650984036264],["compliqué",-10.190651012781453],["Australie",-10.190662904500817],["contraint",-10.190674723347353],["corona",-10.190909612459851],["aérienne",-10.190914563073015],["tombe",-10.191526257077047],["défendr",-10.19205111177865],["poli",-10.192076125105054],["Franc",-10.192182919823907],["montée",-10.19255957755643],["écrir",-10.193277413706017],["spéciale",-10.194343588284898],["aye",-10.195441139636657],["Can",-10.195517804858238],["anda",-10.196699820057905],["gène",-10.19717781356519],["igh",-10.197696190334309],["stratégique",-10.198113671756586],["opportunité",-10.198113776753438],["tomber",-10.19833105465393],["descend",-10.198774786350256],["ôme",-10.199453375162705],["chantier",-10.19967852447676],["animation",-10.19990424051976],["ature",-10.201708004982411],["rian",-10.203482475192423],["essentiel",-10.203745815330226],["invite",-10.204383403225945],["reconnaît",-10.204695334358538],["professionnelle",-10.204905228526775],["talent",-10.205507242801051],["Netflix",-10.205632467702085],["complexe",-10.205632493864892],["Facebook",-10.205632495743451],["nécessité",-10.205632531837235],["offensive",-10.205632871676638],["révélé",-10.205634341781936],["perçu",-10.205635058831648],["livraison",-10.205636361627334],["immeuble",-10.205756717963352],["progress",-10.20598985894279],["RE",-10.20669966818079],["uck",-10.207767930968574],["confort",-10.20924242834182],["Bru",-10.210642481314405],["vir",-10.211216987979293],["monter",-10.212197915594643],["38",-10.212265878796957],["personnalité",-10.213208246332298],["ambition",-10.213216700046903],["isait",-10.21350178275745],["échec",-10.213636510441589],["Claude",-10.213797570564864],["métier",-10.213885735198106],["électorale",-10.213944636721104],["geste",-10.214181259029024],["remonte",-10.214517075693816],["choc",-10.214749209915215],["séance",-10.215747729061793],["Star",-10.215763403129932],["démo",-10.2158229219315],["montré",-10.216496424201875],["apport",-10.217817371718194],["Port",-10.218504084467522],["SE",-10.219047286446212],["portant",-10.219122096313962],["ressort",-10.21949141687056],["lice",-10.219529781719338],["législative",-10.220841813085617],["hockey",-10.220842052333055],["statut",-10.220842400745461],["médicament",-10.220842615645026],["adolescent",-10.220843233371149],["Vincent",-10.220848568226693],["trafic",-10.220853234726862],["chanson",-10.22113022581054],["perdre",-10.221856104080551],["dessin",-10.222724937177741],["spécial",-10.227499823632828],["régionale",-10.227936396961683],["Zelensky",-10.228534120664081],["Fédération",-10.228534120859265],["solidarité",-10.228534121098377],["proximité",-10.228534125684302],["entrepreneur",-10.228534129418428],["trimestre",-10.228534900260849],["mémoire",-10.228536521618036],["partenariat",-10.228537364439667],["séjour",-10.22866081613922],["Tunisie",-10.228739667933276],["sondage",-10.229179893991265],["gain",-10.22999724965698],["batt",-10.231728960124052],["réelle",-10.233008014750727],["alisé",-10.234804467638593],["accordé",-10.23523301427691],["Rou",-10.23544716048302],["naissance",-10.235638861970587],["Institut",-10.236286058687963],["Burkina",-10.23628606257593],["favorable",-10.236286136432717],["athlète",-10.236286209672237],["Luxembourg",-10.236286433972712],["installer",-10.236300108336993],["ône",-10.236541624015526],["Donc",-10.237426167143656],["vocation",-10.23750333586068],["chien",-10.239194611891046],["Lorsqu",-10.239364370256414],["ronde",-10.240083385382233],["sexuelle",-10.240276875143905],["Fin",-10.240641169272207],["game",-10.241037804595315],["confie",-10.243995398056482],["possède",-10.244099158192311],["remerci",-10.244106646653423],["Jacque",-10.244113420956353],["exige",-10.24412157752916],["billet",-10.244236482316534],["organisateur",-10.24425829840165],["fixé",-10.244354455253674],["rentrée",-10.244494272913467],["moindre",-10.24452478814823],["impôt",-10.24478942659777],["ntaine",-10.244960472818711],["euro",-10.245290909402254],["quinz",-10.24605362674241],["radio",-10.24687638858137],["chercheur",-10.248706226253923],["normal",-10.249739000989898],["séquence",-10.251335262306949],["bénéfice",-10.251972574819126],["utilisateur",-10.251972575132221],["construit",-10.251972576316877],["féminin",-10.25197302598832],["cabinet",-10.251973635272464],["affronter",-10.251973986540815],["accessible",-10.251986655100916],["urbain",-10.252097212625827],["partagé",-10.255423324727996],["olé",-10.255667355914763],["remettr",-10.25633317121459],["restaur",-10.25848032949516],["bruxellois",-10.259909082361277],["dévoilé",-10.25990945563045],["craint",-10.259930745888337],["tâche",-10.259931490534449],["pauvre",-10.259943706980657],["entraînement",-10.25995254363156],["désign",-10.26072521676717],["coopération",-10.26191882331273],["battre",-10.262847631559387],["Ses",-10.263783132891596],["dirige",-10.266148412862165],["israélien",-10.267518844027776],["caméra",-10.267909734857971],["frappé",-10.267910632677747],["mobile",-10.267961388767155],["réjoui",-10.26796706539944],["suffisant",-10.26811088860321],["ennemi",-10.268145310743627],["console",-10.268294941180752],["planète",-10.268335924775347],["adapté",-10.268479482027207],["oublier",-10.268570389011614],["masque",-10.269568380227804],["provenan",-10.270483342881583],["souci",-10.27127493771304],["envisage",-10.272924084825625],["confi",-10.275055511138964],["théâtre",-10.2759737475074],["dommage",-10.275976496155387],["évoqué",-10.275977836645325],["migrant",-10.275987267611349],["musée",-10.276003767719931],["adulte",-10.276008109999347],["décor",-10.276655003852479],["érer",-10.276780515986928],["Eric",-10.27686642766182],["Abd",-10.277697953674606],["allié",-10.278453153482747],["enseigne",-10.279462700201524],["signifie",-10.280769975989191],["play",-10.281143815737197],["Éri",-10.281175369060058],["48",-10.282927030199827],["devron",-10.283980622803497],["conducteur",-10.28410368890829],["déclare",-10.284205346298817],["imagine",-10.284220288311886],["produir",-10.284440126581934],["coalition",-10.285623034836568],["témoin",-10.288100434439537],["OS",-10.288149838876796],["repris",-10.288448832571156],["Autre",-10.28856656595953],["traité",-10.28927605332889],["Ham",-10.290686707888657],["collection",-10.292300587869462],["explor",-10.292300598763779],["cinquième",-10.292301684979154],["garçon",-10.292301991760418],["intéresse",-10.292305320516611],["atti",-10.29233723736797],["religieu",-10.292355059791825],["instance",-10.292372905504042],["ologne",-10.292638688995073],["accompagne",-10.293301733294745],["fuite",-10.293523053559529],["bénéficier",-10.293942430106242],["trace",-10.29428852116336],["Game",-10.294886647583317],["vaut",-10.295826088629383],["ES",-10.296978984635917],["Cal",-10.29853954922897],["ray",-10.2986342518339],["argement",-10.298743583805653],["établir",-10.298870869555406],["ivité",-10.29892068310199],["apporté",-10.299861936690059],["Tim",-10.300211438418412],["mineur",-10.300260060267815],["restriction",-10.300565341546967],["Première",-10.300565945654569],["album",-10.300567706331815],["variant",-10.300609223006957],["rump",-10.300626823936765],["moral",-10.300647421842996],["moto",-10.300971544363719],["reuse",-10.301540369585076],["armé",-10.301770409897896],["remarque",-10.302281080722974],["partisan",-10.302739346965874],["présidence",-10.303533191440025],["icule",-10.30401612552863],["tourne",-10.304065516043641],["jaune",-10.304812331944497],["résident",-10.306388998425671],["Simon",-10.306515813755915],["foule",-10.308184367416656],["pprovisionnement",-10.30826395477703],["quelqu",-10.308404524681706],["capital",-10.30844774927338],["Québécois",-10.308898197207473],["humanitaire",-10.30889821253313],["original",-10.3088995845863],["fermeture",-10.308901356488175],["fédération",-10.309158592700385],["cherch",-10.309218121204168],["spécialisé",-10.309745497782025],["MI",-10.31036999980589],["OM",-10.314495369188485],["44",-10.315698085141953],["Leur",-10.316200213675227],["extra",-10.316804233888085],["incroyable",-10.317301567394974],["Cameroun",-10.317301726349601],["fruit",-10.31730647987011],["Japon",-10.31730750275969],["papier",-10.317323417492194],["automn",-10.317365787966082],["solide",-10.317710739790666],["multiple",-10.317761407184886],["gué",-10.318210796121132],["cache",-10.318398038669034],["illage",-10.319837593932887],["accepté",-10.3199295643197],["convainc",-10.320772644279016],["panne",-10.32332284058488],["délégation",-10.325776169041742],["Oui",-10.325802583254678],["Otan",-10.325862017047626],["distance",-10.32589912603886],["échelle",-10.325982572287252],["47",-10.331326676449976],["marin",-10.333388760466274],["partager",-10.33361770986166],["concept",-10.33397005444093],["dynamique",-10.334323155726818],["Festival",-10.334323285649457],["montagne",-10.334562592618578],["Wil",-10.335442533689758],["essentielle",-10.336473511875052],["Comment",-10.336633093563863],["respecter",-10.337470625415005],["régional",-10.33789627774049],["publication",-10.340336847836024],["libéral",-10.340948813474002],["finir",-10.341730227739859],["graphique",-10.342829193983185],["cesse",-10.34284767298491],["indépendance",-10.342944330195689],["Association",-10.342944707344401],["immense",-10.342948729569137],["maître",-10.343016792085772],["déployé",-10.343158471163651],["tels",-10.343309686154921],["stock",-10.34391618879122],["causé",-10.344380791752101],["drame",-10.344541571929145],["impossible",-10.345684873031285],["Pré",-10.34665098591959],["diplomatique",-10.346733670064197],["bourg",-10.350417299769962],["exception",-10.351156625645068],["science",-10.351476948492682],["explosion",-10.351639485211216],["provoqué",-10.351639711051401],["principau",-10.351639947345866],["habituel",-10.351644345715687],["mérite",-10.351721418135892],["facture",-10.351758635302765],["griculture",-10.351817927921502],["Pays",-10.351846729039146],["Banque",-10.35199686760587],["colère",-10.352844646604519],["côte",-10.353599036810204],["désir",-10.35378135100544],["gérer",-10.353973040111985],["pouce",-10.354081710806348],["dame",-10.354542138979966],["salu",-10.354962974179067],["Euro",-10.355515981270806],["ador",-10.35561897268752],["choisir",-10.355692984786744],["alisation",-10.357520984357512],["Mag",-10.357576491570175],["recette",-10.359027831159402],["landais",-10.36010003445598],["manifeste",-10.360414464538483],["perturb",-10.360415552805199],["Alexandr",-10.36047553274856],["essence",-10.360797136022995],["canadienne",-10.360881554174586],["cancer",-10.360968545818599],["calme",-10.361676448436647],["douz",-10.36194670544915],["apprendre",-10.362481844155031],["bris",-10.362538314231546],["43",-10.362544181220425],["réalisation",-10.362611907336344],["pérer",-10.36285981530176],["fui",-10.363119162902784],["maintien",-10.368704263719614],["servi",-10.369186870825107],["perspective",-10.369260972542829],["obligatoire",-10.369260975123678],["concurrent",-10.36926097587601],["Occident",-10.369260985755396],["espagnol",-10.369260990284001],["dénoncé",-10.3692610632631],["paiement",-10.369292846605973],["associé",-10.369409097314572],["exacte",-10.36948321062193],["satisfai",-10.369536792457607],["Agenc",-10.370227641862133],["SI",-10.370774690215404],["èche",-10.37239833032656],["néan",-10.373209357222258],["éclat",-10.373277441070101],["Chris",-10.373931428889286],["ignon",-10.375951380656968],["vigue",-10.37633661140339],["ordinateur",-10.377766522264608],["72",-10.377816097887543],["anniversaire",-10.37818954404883],["compétence",-10.37818957104312],["espèce",-10.378189980173662],["musical",-10.378190882128187],["forêt",-10.37819379316463],["autorisé",-10.378231845864612],["concurrence",-10.378361364954968],["rejoint",-10.378366321973633],["amateur",-10.3784204638707],["vérifi",-10.37865531045351],["supporter",-10.378677280308308],["radi",-10.379327157674659],["ONG",-10.379526088968433],["personnelle",-10.38269594558932],["récit",-10.384694960424468],["réel",-10.385788748436457],["Stéphan",-10.387198629875959],["similaire",-10.387200262043969],["opérateur",-10.387200674606479],["navire",-10.387211206935483],["propriété",-10.387215918867899],["félicit",-10.387242163650154],["Jusqu",-10.387271101161872],["sœur",-10.387439624579551],["Moham",-10.387617636337264],["secondaire",-10.38789828011172],["animé",-10.388540461901073],["marge",-10.389194931978738],["justement",-10.389696654114227],["norme",-10.391006748750396],["accompagner",-10.395422744744772],["agissai",-10.395457493902164],["censé",-10.39547976727988],["Sall",-10.396077805341083],["détruit",-10.396289465024438],["dispute",-10.396292204715035],["interview",-10.396294719236181],["disparu",-10.396295538655554],["organiser",-10.397164012264962],["étoile",-10.397232053337952],["Gabon",-10.39781621934824],["réussite",-10.397961561618075],["volé",-10.398142876441106],["prince",-10.398395080624255],["soft",-10.398923454406788],["vendre",-10.399044721134896],["découvert",-10.399461340523617],["erre",-10.399920067662425],["150",-10.399946592218562],["complète",-10.400756975690275],["voulo",-10.401122529391507],["hésit",-10.40261090459088],["fournir",-10.403008361607341],["publi",-10.403430255802604],["organis",-10.40365264019993],["circonstance",-10.405463775165138],["attentat",-10.405463964365536],["rassemblement",-10.405464397323206],["George",-10.405465850238238],["lecture",-10.405467403427638],["cyber",-10.40552184281066],["qualification",-10.40552714011152],["session",-10.405737250766833],["destination",-10.406094254441655],["municipalité",-10.406141412767077],["ultra",-10.406383140827794],["italien",-10.40689902666902],["style",-10.407615125555637],["bilité",-10.408061811426293],["Var",-10.409755777689849],["42",-10.411668491932616],["600",-10.412127254171335],["fonctionnement",-10.412734078873887],["artistique",-10.414723708956728],["mobilisation",-10.414727110978886],["complet",-10.414734386299118],["sensible",-10.41474271788341],["témoignage",-10.41492319799411],["libération",-10.415199033041118],["opposé",-10.415245986409364],["Petit",-10.415476474056833],["meurtre",-10.415600888088377],["diversité",-10.415620504974655],["égard",-10.415960072292423],["fondateur",-10.416048680387911],["quantité",-10.416442649275654],["admis",-10.41733902902929],["chère",-10.41879624549838],["tuer",-10.419215749369476],["accept",-10.419928835293371],["coach",-10.420036094468617],["couvert",-10.421099141966282],["saga",-10.421550402749016],["fiscal",-10.42195471907541],["Tom",-10.422622595193396],["Fort",-10.422708102275305],["traîne",-10.423204722207075],["Ram",-10.42398546672407],["francophone",-10.424069034589678],["aspect",-10.424069159049058],["Group",-10.424092186884957],["socialiste",-10.425463851594165],["Terre",-10.425540451292912],["envoye",-10.426140678217868],["efficac",-10.427802115194709],["présentation",-10.428504747190846],["accueilli",-10.432545142711668],["tendre",-10.43267728365643],["ntendo",-10.433274316086973],["égal",-10.433299347939677],["Christian",-10.43350282187891],["appartement",-10.433503005677869],["provincia",-10.433503246547456],["métrage",-10.43350436179449],["surveillan",-10.433507318532866],["emmour",-10.433508060528087],["Valérie",-10.43351020560523],["confronté",-10.433535103470568],["expression",-10.433726195421944],["écrivain",-10.433841465276759],["imposer",-10.434620397666496],["fixe",-10.436144513421091],["ores",-10.437383012527988],["Cap",-10.437456321872935],["rement",-10.438817640804633],["relance",-10.439381629593722],["illégal",-10.439601505203608],["concour",-10.439945799283056],["59",-10.440847441569582],["pensai",-10.441882731601352],["cédé",-10.44294114941257],["interpellé",-10.443026603682863],["William",-10.44302660521512],["Justice",-10.443026629397973],["syndical",-10.44302674692528],["capitaine",-10.443026847667046],["fournisseur",-10.443043626862492],["lycée",-10.443054705983943],["prestation",-10.443057651234955],["conserve",-10.443316011993588],["conjoint",-10.443340744152994],["travaillé",-10.444963677060617],["insul",-10.445517604432995],["tiendra",-10.445568970400165],["idi",-10.446497059473991],["sauver",-10.446676144996726],["64",-10.448036706759284],["Play",-10.448722167043261],["arch",-10.44901743453682],["bloqué",-10.449271121699258],["rap",-10.44945478910358],["Krem",-10.450114975689011],["analyste",-10.452641984867276],["impliqué",-10.45264210109311],["discute",-10.452642349949823],["ambiance",-10.452645877523366],["temporaire",-10.45264600004877],["doigt",-10.452649494353956],["menacé",-10.4526494952949],["André",-10.452660669880206],["secret",-10.452711186719721],["automobile",-10.452760440191732],["palais",-10.452848759772381],["épouse",-10.452855277033265],["ignan",-10.452873657706634],["sportive",-10.453198564897514],["bataille",-10.453238092688514],["cure",-10.453318659076821],["ballon",-10.455284939632525],["ixième",-10.45599979089818],["électeur",-10.45613658723746],["résolution",-10.456399651521131],["kov",-10.457955058783394],["62",-10.458401824437342],["Brun",-10.460016430549771],["frein",-10.460654404869972],["strict",-10.461560136556622],["interdiction",-10.46235072339374],["intéressé",-10.462350725662722],["Grâce",-10.46235090604516],["Nouvelle",-10.4623509188672],["Thomas",-10.462351127802869],["spécifique",-10.462352514251322],["pierre",-10.46238276510228],["reçoi",-10.462383703113556],["dressé",-10.462386535285706],["adaptation",-10.462635816166268],["malheureuse",-10.463819573793161],["profil",-10.465818289998417],["prétend",-10.469280849811515],["800",-10.471103998911989],["immobilier",-10.472154643679815],["collective",-10.47215464493144],["réfléchi",-10.47215464631347],["privilégi",-10.472154652224615],["prononcé",-10.472155307445597],["abonné",-10.472193969005241],["emprunt",-10.472270655502182],["nourri",-10.472278408680811],["actrice",-10.472526272333699],["sourire",-10.472549037214865],["lâche",-10.472570988322843],["prouve",-10.473197239035711],["vérité",-10.473245078158197],["reli",-10.474177085968261],["Bleu",-10.474953777702193],["étage",-10.475224621370309],["courage",-10.475800163187296],["Prix",-10.476082300308294],["plage",-10.47629707300867],["averti",-10.476324021143757],["lève",-10.476709786806795],["récent",-10.477237286685245],["souvien",-10.477266287543953],["peau",-10.477737958794094],["ékin",-10.478924570655327],["coupable",-10.480764722435318],["mettant",-10.481125097401028],["accéder",-10.48205569852528],["vainqueur",-10.482056197077224],["tweet",-10.482404346389329],["oya",-10.482420881596227],["Denis",-10.482452347599883],["présumé",-10.483065933858594],["écologique",-10.48398142187273],["prendra",-10.484596972511952],["recevo",-10.485352546420145],["67",-10.48557559041491],["mille",-10.485616932698065],["plonge",-10.486220541782169],["résidentiel",-10.489298682464899],["ariat",-10.49072906843939],["facteur",-10.490945605491442],["NU",-10.491369348343454],["gouverneur",-10.492055640208628],["juridique",-10.492055642912545],["accompli",-10.492055728235062],["évènement",-10.492055738027428],["dépôt",-10.492058850499436],["relative",-10.492072141856719],["correct",-10.492075895007968],["conscience",-10.492803243018272],["aît",-10.492919464053578],["Super",-10.492925460670069],["prévision",-10.493061095497927],["défaut",-10.493604845937156],["rond",-10.493921948427168],["préparation",-10.4942074735647],["39",-10.49557112695772],["malade",-10.495803149897846],["sortant",-10.498044413246195],["souri",-10.499586572726244],["différent",-10.500770769486447],["circonscription",-10.502156643685149],["définitive",-10.502161653333498],["applique",-10.50218429924999],["parfaitement",-10.502188666621711],["massive",-10.50219112978615],["optimis",-10.502192375925741],["calcul",-10.502201372217987],["batterie",-10.502273372615512],["drapeau",-10.502420841464264],["déterminer",-10.502919883601994],["quotidienne",-10.503115500629637],["infection",-10.503357597246044],["lumin",-10.503689968091653],["acquis",-10.503694840144083],["bateau",-10.504759808597418],["Yve",-10.507233344686913],["informe",-10.507662498457693],["douce",-10.51074565245747],["ü",-10.512360725317627],["sénégalais",-10.512360726004708],["récupérer",-10.51236075869216],["originaire",-10.512360820222288],["révèle",-10.512360908725647],["église",-10.512362906687265],["virtuel",-10.512365837779033],["Chambre",-10.512366114512417],["promesse",-10.51236837886847],["mobilité",-10.512622409022352],["télévision",-10.512653847147174],["Rouge",-10.512794256989542],["intervien",-10.51361890040577],["triste",-10.515892830749468],["She",-10.51691688525996],["vacciné",-10.518071384443198],["brill",-10.518489792904],["llah",-10.519415762089576],["signalé",-10.52024994103105],["Pat",-10.521945221904195],["identifié",-10.522080878697569],["terminer",-10.522606695616886],["affirma",-10.522608664746603],["démocratique",-10.522670004364365],["calendrier",-10.522670005043473],["bénévole",-10.522670017585714],["dégât",-10.522670157639094],["affrontement",-10.522670220963656],["suspendu",-10.522670226887488],["palestinien",-10.522671496303133],["Macky",-10.522677606373225],["moderne",-10.52268371542888],["investisseur",-10.5226951384041],["signature",-10.522725305699028],["visuel",-10.523454645767295],["taxe",-10.523497159308121],["Bay",-10.524944174065439],["Goo",-10.525138982653846],["payé",-10.525252005778505],["Outre",-10.526842807554488],["parlé",-10.527245713408115],["conform",-10.528789250528721],["consacré",-10.528876004124069],["Ott",-10.531168965702971],["patrimoine",-10.533086724846044],["cuisine",-10.533086917317524],["inaugur",-10.53308725826354],["horizon",-10.533089206577113],["transfert",-10.533092324346569],["Africa",-10.533093065101083],["existence",-10.533266374639492],["foyer",-10.533277356126606],["résilien",-10.533995538446494],["localité",-10.53417747861512],["elli",-10.534695350794564],["Corée",-10.535904601025806],["gagne",-10.53911179702505],["sacré",-10.540466935880108],["gère",-10.540691768620357],["onnant",-10.541234497446524],["souhaité",-10.54189690617818],["zer",-10.542656765365656],["insta",-10.54294787955051],["amélioration",-10.54361298619789],["Intérieur",-10.543612986637447],["distribution",-10.543612994635584],["considère",-10.543613031165286],["déroulé",-10.543613150626005],["thématique",-10.543613270192816],["méthode",-10.54361536880926],["mobilisé",-10.543616140180482],["alcool",-10.5436181662729],["nomination",-10.543637545610505],["apparaît",-10.54370099693288],["Domini",-10.54376499130867],["rebond",-10.543771779930655],["masse",-10.543822919184915],["conclusion",-10.54418628616996],["acheté",-10.544296548704693],["bruit",-10.544885451450034],["RN",-10.545328164737509],["mairie",-10.545379716431345],["portable",-10.54568848944318],["fameu",-10.5483840862743],["salon",-10.548412046772512],["format",-10.548702188601613],["roule",-10.549367209329514],["Ter",-10.55092721187568],["iranien",-10.552695898810198],["japonais",-10.554251285099092],["évaluation",-10.554259242982193],["conçu",-10.55426057537409],["Gabriel",-10.55427919650695],["provoque",-10.554300592458851],["Blanc",-10.554428371972485],["Daniel",-10.554475484040244],["vêtement",-10.554579913864849],["essayer",-10.55492186493274],["ège",-10.555171034404001],["primaire",-10.556799317552745],["Ger",-10.557401690706302],["voté",-10.559739562127374],["augmente",-10.562723372508511],["déplore",-10.565003989233915],["inspiré",-10.565004265526685],["préfère",-10.565008022474935],["habitation",-10.565025068093494],["Marseill",-10.565034414378335],["intense",-10.565055691339804],["Service",-10.565141811226916],["chôm",-10.56520785532874],["aménagement",-10.565231754964337],["Micro",-10.565741135789844],["ambassadeur",-10.565944684709198],["représenté",-10.56657338870364],["org",-10.571871607210735],["ressenti",-10.573449481329426],["explication",-10.575873553995589],["instruction",-10.575873645695246],["arrestation",-10.57587438311641],["conscient",-10.57587752958894],["confinement",-10.575878742938283],["républicain",-10.575885065474498],["Maxim",-10.575902072271736],["déchet",-10.576046235418593],["tradition",-10.576132965472612],["division",-10.576259894846359],["fusion",-10.576288906151962],["pousser",-10.577546147900973],["neuv",-10.578278796086547],["Alpe",-10.57832805397541],["résume",-10.578385337567378],["location",-10.578996637131468],["préféré",-10.579237406720368],["78",-10.579447614497383],["glace",-10.580251871956463],["connecté",-10.581055201429644],["érité",-10.581198660367072],["Turqu",-10.58129434353317],["voyageur",-10.582967526850236],["croit",-10.584557742906425],["allant",-10.58561855274245],["statistique",-10.5868625496568],["caractère",-10.586862554433726],["élenchon",-10.58686433060344],["Richard",-10.586871738491334],["Bernard",-10.586871862281438],["fallu",-10.586879036529531],["opinion",-10.58688277690598],["considérable",-10.58688663347531],["drogue",-10.586924692520086],["islamique",-10.587112386477745],["préoccupation",-10.587131270377604],["Blue",-10.587634056497048],["commentaire",-10.588508649891828],["pause",-10.588540873383211],["couche",-10.59138356475561],["indice",-10.591574086779254],["plante",-10.596913392371103],["registre",-10.597922427673607],["catastrophe",-10.597973659486948],["réflexion",-10.597973660571231],["annulé",-10.59797384654204],["subvention",-10.597974305274676],["informatique",-10.597974351483579],["Disney",-10.597974371768055],["interrogé",-10.597974478909105],["pension",-10.597988714761367],["glisse",-10.597991416627373],["équilibre",-10.598053982017337],["Jack",-10.598080868789182],["Guerre",-10.598131144519542],["Lausann",-10.598138384140249],["découvre",-10.59834494439675],["café",-10.598690463328545],["Open",-10.598745962734263],["classé",-10.598910675173789],["relevé",-10.599042275073792],["décroch",-10.600150689725739],["regarder",-10.600333380380675],["rayon",-10.602965177673454],["démontre",-10.606169292315146],["oppose",-10.607108643067798],["Voic",-10.608833434611064],["profession",-10.609180905097912],["ouvrage",-10.609210325795578],["électronique",-10.609211264928984],["gagnant",-10.609212291896501],["fidèle",-10.609212325722586],["récompense",-10.609220970707671],["inquiète",-10.609233652115119],["tennis",-10.609248575919466],["blanche",-10.609332775421057],["support",-10.609419071172614],["Blanche",-10.609630274416748],["idéal",-10.609672882352907],["mariage",-10.610149403221495],["aérien",-10.610219881765516],["intégrer",-10.610288549801055],["cheffe",-10.610428678901025],["inverse",-10.610927011940323],["nazi",-10.611046716247248],["absent",-10.611338981194395],["Syrie",-10.61255755009512],["culte",-10.612878670696627],["ravi",-10.615638327919408],["royal",-10.616508113108596],["pouvant",-10.616661340715202],["oît",-10.616787353626286],["alternative",-10.620573257726626],["handicap",-10.620573308564168],["positive",-10.620573404884034],["opposant",-10.62057388809642],["automatique",-10.62057392531709],["excuse",-10.620573967140533],["scrutin",-10.62057920186587],["permanent",-10.620584286584608],["exposé",-10.620735371925457],["préfet",-10.620815981471356],["collecte",-10.621080929479902],["volume",-10.621129059748025],["impose",-10.621348777400453],["Mathi",-10.621417470798983],["Lyon",-10.62156203182597],["honor",-10.621850713946905],["Jame",-10.622041874228088],["central",-10.622103317976213],["âme",-10.622355912299398],["doté",-10.622533452138994],["79",-10.622731078148693],["vaste",-10.623009951527056],["litre",-10.625867969119831],["salem",-10.625932680243075],["Lui",-10.626449549026429],["léger",-10.6282995531764],["hydro",-10.628421965753715],["prenai",-10.629691943036033],["environnemental",-10.630585377122515],["uprême",-10.632067505432147],["quarantaine",-10.632067529243557],["apparition",-10.632067564866624],["argument",-10.632067737631422],["Amérique",-10.63206793084978],["Nouveau",-10.632068441513415],["ultime",-10.632068613275674],["solidaire",-10.6320693400688],["bonheur",-10.632074128964415],["souffle",-10.632080597844917],["podium",-10.632081110205048],["oblige",-10.632086082742104],["Black",-10.632186778102643],["étroit",-10.632188382627712],["récolte",-10.632229065821125],["écriture",-10.632391319404558],["Phon",-10.632427470352022],["incarne",-10.632462490934273],["manqué",-10.63250079873065],["Belge",-10.63305107508176],["loge",-10.63354464865463],["spéci",-10.634114240114018],["suscite",-10.63448093151919],["déclin",-10.636878599673198],["connect",-10.639329871288254],["Jan",-10.640858393083054],["cadeau",-10.641754013711067],["progr",-10.643084516926482],["gramme",-10.643329740796016],["automobiliste",-10.643695410818761],["constructeur",-10.643695412747576],["expériment",-10.643696333384504],["communautaire",-10.643696819107511],["dévoile",-10.643714503459321],["évident",-10.643742984155452],["office",-10.643819830639785],["250",-10.643957378837658],["pét",-10.644337554361018],["décret",-10.644459360674084],["tempête",-10.646020857234076],["Mario",-10.646899430314136],["verge",-10.648575518396397],["stream",-10.64919392445021],["emme",-10.649783184028212],["Dieu",-10.651469434974889],["abouti",-10.652553767557707],["arros",-10.652613243678914],["renforce",-10.653695359430653],["rejet",-10.653964741957228],["App",-10.65488746267446],["loyer",-10.655064980682598],["gendarme",-10.65528861624616],["Christophe",-10.65546019671185],["logiciel",-10.655460444725133],["Photo",-10.655460539734724],["commerçant",-10.655460713115911],["Mondial",-10.655460730158254],["néerlandais",-10.655461624353563],["convention",-10.65546731995696],["sécuris",-10.655474988073095],["plastique",-10.65549475965344],["équipé",-10.655513733697227],["multiplie",-10.655534804969655],["percut",-10.655582617950051],["huitième",-10.6555926287792],["transformé",-10.655608262309359],["City",-10.655705942559736],["autonomi",-10.656069585142436],["précision",-10.656427655904935],["tranche",-10.656500324263487],["aliser",-10.65785422411692],["transmis",-10.658349148851116],["retourner",-10.658516606590045],["enquêteur",-10.658963171622144],["relai",-10.660280454525509],["consta",-10.6604542192411],["parisien",-10.661933797713111],["plateau",-10.663508009665673],["empêche",-10.66360793303297],["apprend",-10.664584958147449],["terroris",-10.667022738973454],["effective",-10.66736488025132],["disparition",-10.66736488301779],["épidémie",-10.667364886718817],["actualité",-10.667364909328906],["observé",-10.66736498481761],["acquisition",-10.66736828071862],["échappe",-10.667368435307404],["Région",-10.667370709714291],["innovation",-10.66737977632927],["Musk",-10.667391257515906],["Angle",-10.667416855922529],["Monaco",-10.66743823052599],["audio",-10.667452579286753],["assemblée",-10.667486610608496],["Steve",-10.667753959811035],["procédé",-10.667890834570798],["aîné",-10.668346644909128],["branche",-10.668374166423002],["Comité",-10.669310291652796],["trente",-10.673033889792269],["commercia",-10.677719060342802],["cycle",-10.678543358768337],["bilis",-10.678657612068223],["vaccinal",-10.679099721784723],["Frédéric",-10.679413071578793],["caractéris",-10.679413072524014],["Brunswick",-10.67941307479462],["avortement",-10.67941308252755],["symbole",-10.679413280473586],["oeuvre",-10.679414983793096],["souffre",-10.679417419153978],["licence",-10.679526375335252],["Finance",-10.679706701727435],["remplacé",-10.679773664273533],["Albert",-10.67990825079898],["conduir",-10.680181615862601],["respective",-10.680310491055948],["ë",-10.68076691611679],["informé",-10.683137146008868],["Plan",-10.686346497584545],["bâti",-10.686995302328718],["artisan",-10.689271827989145],["bombardement",-10.691608194043564],["effectif",-10.691608326927843],["chronique",-10.69160851961792],["humanité",-10.691609185175412],["réservé",-10.691623647009585],["cinquant",-10.691922395699855],["semblai",-10.692368815215993],["aggrav",-10.69280762695184],["Merci",-10.694537733457661],["combi",-10.695250617487872],["convien",-10.697898189954998],["Spi",-10.70157699607497],["occupant",-10.703953872408224],["dimension",-10.703954091008388],["maxima",-10.703958236959096],["Dakar",-10.703958417502054],["autorisation",-10.703964575068802],["suffisam",-10.704143904733552],["adapter",-10.704188949920546],["Madri",-10.704225092448354],["reconnaissance",-10.704621323879516],["contribution",-10.70480862826389],["rival",-10.705919113476696],["Rock",-10.706957525944368],["assume",-10.708800547483907],["enfan",-10.709661919991646],["élite",-10.712596196955635],["magnifique",-10.716453884543956],["négatif",-10.716454420557707],["magistrat",-10.71645697139185],["agénaire",-10.716468616927724],["entraîné",-10.716484626798897],["Sénat",-10.716646562906146],["situe",-10.716654123979282],["bébé",-10.716845037937428],["ralenti",-10.716873469988556],["Justin",-10.71691187685811],["château",-10.717088718699193],["fausse",-10.717528626632998],["drone",-10.717546585654459],["clos",-10.717748428591825],["patin",-10.71776669984283],["voyai",-10.7220269850339],["sexuel",-10.722583983173934],["700",-10.724086635326653],["intensif",-10.724553425822823],["Brésil",-10.728824482912541],["osité",-10.729023542221665],["arrondissement",-10.72911210012829],["disputé",-10.729112245565954],["conséquent",-10.729112467666626],["proportion",-10.729114424762196],["inscrir",-10.729124260693288],["élargi",-10.729172202204538],["attaqué",-10.729193114987899],["rumeur",-10.72925882260356],["profondeur",-10.730246440503965],["fondamenta",-10.73033949540509],["isolé",-10.730746994681514],["accepter",-10.730785980729202],["constater",-10.732213312649069],["internation",-10.738504455960204],["certe",-10.741834693932361],["ö",-10.741932612946684],["obligé",-10.741934152863289],["humour",-10.741940168275558],["rivière",-10.74194677487865],["joie",-10.741971633393085],["transfér",-10.742156899971771],["section",-10.742215186554919],["ressemble",-10.742242629371386],["fonctionnaire",-10.742343758713455],["transformation",-10.742461590574319],["prépare",-10.742822562992888],["abandonné",-10.742928544348887],["dépassé",-10.74297643234873],["bouche",-10.74693964024161],["lisab",-10.74720481869578],["boutique",-10.748903156217015],["collabor",-10.7539548938393],["occupation",-10.754601820604826],["souverain",-10.75482143711103],["considéra",-10.754891489697524],["sécuritaire",-10.754919626091564],["laboratoire",-10.7549197925212],["cycliste",-10.754920221601711],["officier",-10.754920263319313],["infraction",-10.754920717464753],["Personne",-10.75500372899813],["Tchad",-10.755065728792701],["constitutionnel",-10.755115918149032],["progressive",-10.755275724265934],["raconté",-10.755284759739713],["émerge",-10.755365040962651],["couteau",-10.755397905933428],["désert",-10.755547199510609],["progression",-10.755617133055628],["silence",-10.7557682455169],["documentaire",-10.755867106978773],["Wallon",-10.756612502035336],["oupol",-10.756628975586711],["violation",-10.756630157094135],["coordonn",-10.756680335530678],["islam",-10.758024904716926],["chanteur",-10.758703759028927],["requis",-10.761574331203239],["amedi",-10.762793718243286],["qualifi",-10.76569146651998],["gaul",-10.766309214100481],["ector",-10.766600688361853],["administrative",-10.768077520670946],["préfecture",-10.768077520675387],["Sébasti",-10.768077528478877],["maîtrise",-10.768077690978886],["homologue",-10.768078623892652],["enceinte",-10.768081143408205],["inondation",-10.768083365746747],["Société",-10.768087523505834],["(…)",-10.768285126325575],["onnait",-10.76868645812053],["kilo",-10.769185715341962],["réchauffe",-10.77021329986],["douleur",-10.771052630431305],["orum",-10.77122323703727],["contribuer",-10.771332491670696],["Adam",-10.77151735752901],["météo",-10.773543109309706],["agna",-10.775053548806287],["diplomati",-10.775563634012691],["Constitution",-10.781410854013862],["discipline",-10.781410854078745],["corruption",-10.78141085438256],["démocrate",-10.781410896403802],["contamination",-10.78141092796105],["déploie",-10.781411135979317],["délégué",-10.781412361028814],["touristique",-10.781412942424012],["policière",-10.781413497323221],["protégé",-10.781415311927706],["extraordinaire",-10.781438071599524],["mentionné",-10.781458854788022],["impressionnant",-10.781461477573433],["inquiétude",-10.781463461287352],["parking",-10.781473453829738],["doublé",-10.78149044101341],["bombe",-10.781533495868523],["Libre",-10.781633711722538],["Henri",-10.781685916896343],["thèse",-10.781806115533737],["Néan",-10.781904314111358],["emplacement",-10.78198568668312],["Tech",-10.782921342463027],["otage",-10.78294965477546],["transaction",-10.783710015778158],["renonc",-10.78379394350467],["guéri",-10.784469112580624],["allai",-10.785950918028558],["dispos",-10.789373374934792],["́",-10.789532969142586],["monnaie",-10.79492330500278],["Î",-10.794924367517385],["critiqué",-10.794924379724385],["Switch",-10.794924430003414],["masculin",-10.79492445823183],["exportation",-10.794924976157354],["composant",-10.794925245507613],["Antoine",-10.794925823474973],["Michael",-10.794925897902136],["universitaire",-10.794926627143912],["prévention",-10.794926905645458],["Victor",-10.794933893394028],["sauvage",-10.794942113915948],["maillot",-10.794953025497074],["implique",-10.794954641134957],["sérieuse",-10.795094215717809],["assassinat",-10.79510434789018],["exigence",-10.795112389432813],["plongé",-10.79514756269391],["immigration",-10.79531994496008],["radical",-10.795410494149564],["Mainten",-10.796141892944426],["accent",-10.796786151502523],["matinée",-10.797237327142955],["assister",-10.797374574489886],["flamme",-10.799239567188472],["attendai",-10.801128635534525],["Eli",-10.801430269034242],["haine",-10.801735999752747],["intervenu",-10.802333424012149],["cumul",-10.808508231022692],["Anderlecht",-10.80862299773658],["recommandation",-10.8086229982159],["cinéaste",-10.808623002388822],["évacué",-10.808623248767677],["Rivière",-10.80862532150596],["spatial",-10.808626999530746],["récolté",-10.808632102041093],["Club",-10.808637976071878],["interroge",-10.80863892937057],["commissaire",-10.808686947305603],["fraude",-10.809616384579378],["Quatr",-10.811154502420624],["heureuse",-10.816676575084692],["caisse",-10.817273018330123],["Instagram",-10.822511886547268],["hospitalisé",-10.822511887734453],["musulman",-10.822511888092013],["employeur",-10.822511888108338],["Palestinien",-10.822511891623545],["inscription",-10.822511978666064],["provisoire",-10.822512239381624],["vaudois",-10.82251401173566],["adopter",-10.822519963019314],["exerce",-10.82252421903242],["foulée",-10.822536321980271],["Volod",-10.822545926699775],["pompe",-10.822605156755024],["extension",-10.822710857829213],["Eliza",-10.822767248687256],["gendarmerie",-10.822781772901482],["respir",-10.823112404724116],["fenêtre",-10.823530242298894],["entraîner",-10.823708388245848],["brutal",-10.823853300689237],["assurant",-10.824176367146688],["Peter",-10.824259299931764],["Manche",-10.824626887939171],["verre",-10.8316452535657],["varié",-10.832840886688535],["Office",-10.836596475085356],["World",-10.836607480953163],["transformer",-10.836613129387793],["vigilan",-10.836676519166687],["collaborateur",-10.836800819270263],["diffusion",-10.836912930891147],["urgent",-10.83700583371056],["consiste",-10.83722420031614],["retirer",-10.83766763132142],["simul",-10.83778347349321],["ivoirien",-10.8382021801051],["Cath",-10.83938109178626],["alheureuse",-10.840681097401884],["ipp",-10.841338778477585],["Péc",-10.84186908268131],["aming",-10.84741247216456],["ambassade",-10.84963205239309],["problématique",-10.850882108019238],["résistance",-10.850882994670956],["lauréat",-10.850886050259103],["rénovation",-10.850890338504753],["assistance",-10.85089233670384],["Sept",-10.850997326515596],["éditeur",-10.851125958500774],["suspension",-10.85116009242003],["sélectionneu",-10.85117032618175],["identifier",-10.851205295733143],["confrère",-10.852761781449118],["disque",-10.853589800888441],["seuil",-10.85423178855492],["métro",-10.854923313798077],["distinct",-10.85568022814337],["morceau",-10.864506816061798],["symbolique",-10.865374861538871],["inférieur",-10.86537486329718],["consultation",-10.865374864184076],["Vendredi",-10.86537486941599],["Actuelle",-10.865374934215648],["alliance",-10.865375355815793],["nourriture",-10.865375639132015],["importation",-10.86537899597412],["collège",-10.865379780806748],["escalade",-10.865385708007299],["guinéen",-10.86538724723809],["critère",-10.86538918124881],["ambitieu",-10.865391435874162],["Jeudi",-10.86539299327895],["cellule",-10.865402897737352],["Lundi",-10.865482069320187],["flamand",-10.865726326225218],["sélectionné",-10.865842168684559],["golf",-10.865933361905308],["igny",-10.866217895069815],["tube",-10.867813691853858],["opérationnel",-10.868025242353827],["biais",-10.868232998585226],["hâte",-10.868374654378425],["tagne",-10.87147414121089],["Interne",-10.871763196820002],["Kev",-10.872745792593271],["magn",-10.878201987304909],["exécut",-10.87962526276836],["teuse",-10.879899114769652],["bidjan",-10.880080816453724],["bourgmestre",-10.880081045243802],["mécanique",-10.880081395190953],["maritime",-10.880081559151947],["débarque",-10.880089505790881],["conversation",-10.880091753998641],["scandale",-10.880127528129456],["Pascal",-10.880149820724336],["remplacer",-10.880151600530276],["agréable",-10.880158140500075],["plomb",-10.880263953234127],["Thierr",-10.88038156891592],["coordinat",-10.880783409232334],["tournage",-10.880886668728651],["stockage",-10.880990278715299],["bloquer",-10.881195345405756],["certificat",-10.881920427485198],["compose",-10.885571176654246],["voudrai",-10.885790358654017],["rupture",-10.895006127759366],["Pokémon",-10.89500614559168],["polémique",-10.895006158988059],["mécanisme",-10.895006574813603],["procéder",-10.89500678534351],["Portuga",-10.895009596672722],["fonctionnalité",-10.895012521031546],["matériau",-10.895026743235023],["psychologique",-10.895040975587012],["Bureau",-10.895045794904405],["joueuse",-10.895057330202295],["ignore",-10.895063526521234],["Marvel",-10.895082092967517],["atteign",-10.895095559659573],["audition",-10.895124773505033],["recueilli",-10.895377952522312],["déplacé",-10.89541927983532],["répliqu",-10.895459972327654],["autoroute",-10.895726837875912],["abonnement",-10.896131683540395],["retiré",-10.896223358407095],["chauffeur",-10.896349749493584],["boîte",-10.896818409770123],["fum",-10.904759092238766],["énorm",-10.906652130325575],["aimerai",-10.908869911554913],["modifi",-10.909186595941051],["facilit",-10.909510272009067],["pétition",-10.909826866073828],["Britannique",-10.910157632162644],["compatible",-10.910157633070824],["compagnon",-10.910157636013835],["instrument",-10.910157664512997],["Général",-10.910157664698925],["piscine",-10.910157811154361],["majoritaire",-10.910158348794296],["démarre",-10.910160103696505],["locataire",-10.910166859046669],["végéta",-10.9101700624679],["clinique",-10.910175455546021],["clientèle",-10.910185900121114],["chèque",-10.9102010211265],["anonym",-10.910206929961763],["déficit",-10.91028886466352],["éventuel",-10.910368453765924],["stabilis",-10.9103863418345],["repoussé",-10.910695651478504],["Mexi",-10.910793640097209],["libér",-10.911650225917521],["communiste",-10.911799438163735],["abandon",-10.914746447133016],["spectaculaire",-10.925542247517939],["administratif",-10.92554224752039],["hospitalier",-10.925542247610474],["emblématique",-10.925542247642728],["approuvé",-10.925542250234363],["évacuation",-10.925542253721124],["artificiel",-10.925542308343138],["internaute",-10.92554248902304],["délicat",-10.925542491077742],["Alliance",-10.92554250214593],["illustre",-10.92554402666688],["complété",-10.925544223428028],["délit",-10.925544905832766],["chanteuse",-10.925547758402198],["phrase",-10.925549784942278],["banlieue",-10.925616830974874],["Guilla",-10.926102166479437],["tunisien",-10.926132751740653],["représentation",-10.926188724994597],["préparé",-10.926427616462085],["passionné",-10.927056612044607],["oigner",-10.927069943957001],["Rousse",-10.92786643915166],["engin",-10.928531687014328],["actionnaire",-10.92931052331019],["appartien",-10.930035511795435],["tisse",-10.930189019739421],["chauffe",-10.937334701781996],["pèse",-10.938366849709015],["apprentissage",-10.94116724752261],["symptôme",-10.94116724754577],["incontournable",-10.941167247619408],["indispensable",-10.94116724774419],["contrôlé",-10.94116724799269],["condamnation",-10.941167249265348],["coéquipier",-10.941167249773986],["hectare",-10.94116728361306],["boulevard",-10.94116732758437],["comparaison",-10.941170005780158],["existant",-10.941174136725293],["sévère",-10.941174443923991],["colonel",-10.941190204068702],["déplacer",-10.94123874508238],["Strasbourg",-10.941319066863118],["habitué",-10.941458228972728],["envahi",-10.941473421885991],["renforcé",-10.941565044467783],["Natha",-10.941775683648963],["fumée",-10.942168414806584],["Togo",-10.94224381073899],["tournant",-10.942848453261375],["nuage",-10.942892840639853],["saoudi",-10.947959670001975],["latéral",-10.955314990661922],["migration",-10.956579709801058],["intelligence",-10.95704026341882],["protocole",-10.957040288162826],["territoria",-10.957040314398569],["Organisation",-10.957040367598951],["Heureuse",-10.957040448642735],["Journée",-10.95704107264327],["compatriote",-10.957047677360533],["barrage",-10.957082353175274],["autonome",-10.957089705883305],["trophée",-10.957103538934442],["légende",-10.957174312422236],["hasard",-10.957296553439566],["carbone",-10.95729930630408],["avère",-10.957320008730775],["flambée",-10.957372256515875],["suicide",-10.957427860986645],["Mauric",-10.957644311824719],["allum",-10.957938706863406],["Trude",-10.958098653672442],["Aussi",-10.958399296587011],["International",-10.959436449567932],["électoral",-10.971596754198874],["écriv",-10.971679449457902],["ordinaire",-10.97313705486109],["téléphonique",-10.973169296512282],["interprète",-10.973169312336012],["introduit",-10.973169424408187],["chapitre",-10.973169640125313],["équivalent",-10.973169876624691],["océan",-10.973201554464556],["Toulon",-10.973355074422287],["adhésion",-10.973405901301444],["archive",-10.97352016647461],["Carlo",-10.97377370583101],["richesse",-10.973792437675577],["enrichi",-10.973798285849998],["cercle",-10.973851702787073],["mentionne",-10.974072232056486],["caché",-10.974486986395808],["suscité",-10.976949373199576],["attache",-10.979209289154397],["réside",-10.984275020073138],["susceptible",-10.989562738275122],["Benjamin",-10.989562780745217],["concrète",-10.989562884957628],["implication",-10.98956295197127],["musicien",-10.98956296952042],["fabrication",-10.989563125277261],["terrible",-10.989566083106725],["réception",-10.989567108582746],["Capital",-10.989574644348973],["écologiste",-10.989580051528783],["règne",-10.989588283583327],["Toronto",-10.98959168280864],["borne",-10.989658524918324],["accumul",-10.989703030348302],["révélation",-10.989811869627985],["Royal",-10.989845155977688],["déposer",-10.989857187843224],["dinar",-10.990070934715842],["assaut",-10.990079030628298],["faciliter",-10.990278746401938],["croissant",-10.990782158123938],["foot",-10.992259418382964],["précieu",-10.993584423978009],["enchaîn",-10.9988140220565],["dépens",-11.000441355807745],["différe",-11.003540511356345],["major",-11.005842693615554],["firme",-11.005872587309955],["logistique",-11.006229435354928],["chaussée",-11.006230500886897],["genevois",-11.006232368747035],["atterri",-11.006243048798893],["attitude",-11.006244569270208],["titulaire",-11.006247858491943],["brigade",-11.006265522673372],["expertise",-11.006306587573373],["routier",-11.006379554624788],["épaule",-11.006511131049248],["monument",-11.006779564968088],["fact",-11.015317866962713],["diffus",-11.017270055014375],["éparer",-11.01738307847922],["intensi",-11.021052667387506],["sensibilisation",-11.023178558384158],["Académi",-11.023178559513758],["Jonathan",-11.02317856403353],["parallèle",-11.023178569843923],["programmé",-11.023178614122447],["Maritime",-11.023180210744023],["annonça",-11.023181541405206],["recrutement",-11.02318376564032],["fossile",-11.023206486942044],["appartenan",-11.023217448855494],["Total",-11.023241521898903],["casting",-11.023316949271418],["jambe",-11.023409735788615],["failli",-11.023510639178692],["libérer",-11.023661698310319],["vedette",-11.023671884488877],["qualifier",-11.02384576375119],["plaidé",-11.024248098871503],["Ontari",-11.027128061681715],["promouv",-11.036132722085114],["accus",-11.03694303702536],["consolid",-11.037141320486583],["développeur",-11.04041993679266],["vulnérable",-11.040419936794274],["collectivité",-11.040419937213326],["technologique",-11.04041999301559],["échappé",-11.04042019104432],["baptisé",-11.040420340386856],["sécheresse",-11.040421139655788],["dangereuse",-11.040424821949832],["prolongation",-11.04042547738589],["soignant",-11.040425950421099],["déclenche",-11.040441165093654],["mélange",-11.040459065694453],["recommandé",-11.040620846261666],["jury",-11.040685249085337],["covid",-11.040701959323902],["trajet",-11.040763840614822],["Colombie",-11.040819205377378],["expliqu",-11.045588249168627],["soulign",-11.048759830595895],["Web",-11.051264948924313],["culé",-11.051524653383172],["fiction",-11.057720116133844],["catalogue",-11.057963796464607],["légitime",-11.057963801811034],["annulation",-11.057963815262653],["hypothèse",-11.057963837158034],["technicien",-11.05796386605417],["déclenché",-11.057964356812125],["standard",-11.057966667122102],["destruction",-11.057972803945987],["éliminé",-11.057987814139441],["craign",-11.057998043776925],["Alpha",-11.058014275567423],["inquiétant",-11.058020443185123],["modification",-11.058079109289153],["valorisation",-11.058091386137693],["Finland",-11.072838757046178],["Directeur",-11.07582093983211],["sensibiliser",-11.075820939880396],["budgétaire",-11.075820941837502],["agriculteur",-11.07582094485475],["référendum",-11.075821032211692],["clôture",-11.075821159275495],["intermédiaire",-11.075821292930241],["gouvernan",-11.075821810739157],["politicien",-11.075827660962236],["vétéran",-11.07584731697206],["arrefour",-11.075869530152328],["bouteille",-11.075893137765693],["céréale",-11.075906931634101],["apprête",-11.075936493697437],["TAN",-11.075958556111203],["modeste",-11.076107811010447],["organe",-11.076117383315115],["Gaza",-11.076217583580274],["SAN",-11.076400435361606],["immédiat",-11.076890051174292],["nvironnement",-11.079618447559668],["approch",-11.082502000293594],["heurt",-11.08359374891016],["recycl",-11.091697502235256],["compréhension",-11.094002757482219],["célébré",-11.094002780135423],["contemporain",-11.094002786146309],["pharmacie",-11.094002834855033],["appliqué",-11.094002884992456],["réputation",-11.094002986087203],["Européen",-11.094003140166837],["neutrali",-11.094005007630237],["déçu",-11.094005496132818],["Smith",-11.094023223862767],["attribué",-11.094031570594826],["horreur",-11.094043660729042],["possession",-11.094062128829178],["Light",-11.094078725283598],["dominé",-11.094108740355171],["PME",-11.094141054417001],["alentour",-11.094156665030878],["répété",-11.094417504008941],["Point",-11.094507425345341],["Contrai",-11.095200914118816],["lecteur",-11.10512111123963],["Environ",-11.110850119886369],["programmation",-11.112521277860939],["exemplaire",-11.11252128021555],["observation",-11.112521286972978],["pollution",-11.11252129506369],["amélioré",-11.112521298027046],["Ibrahim",-11.112521299869147],["accessoire",-11.112521384723747],["tranquille",-11.112521892608896],["résoudr",-11.112523782046916],["Ryan",-11.112548692698965],["régler",-11.112558665227356],["confirma",-11.112697013073857],["vallée",-11.112806791166548],["gérant",-11.112886748996639],["Galax",-11.11289800732505],["apparu",-11.112959727945723],["moderni",-11.113353823194464],["Josep",-11.115231727564803],["Xavi",-11.116590457905005],["intimi",-11.118181352758011],["clusion",-11.12009973229884],["réparation",-11.127606986118494],["connais",-11.129322852026455],["ercredi",-11.129623919227768],["hélicoptère",-11.131389200526195],["infirmière",-11.131389200890624],["observateur",-11.131389202753997],["éliminatoire",-11.131389262541026],["correctionnel",-11.131389325510025],["renouvelable",-11.13138983476608],["cultiv",-11.131390679661799],["Juif",-11.131392185430002],["arbitre",-11.131393757381797],["pourcentage",-11.131405947695638],["stimul",-11.131424108950988],["orientation",-11.131430299692221],["Frank",-11.131441918323443],["soixant",-11.131472135534676],["Arabi",-11.131493045229156],["souveraineté",-11.131535734561835],["COP",-11.131591016729033],["AIP",-11.131608312462372],["défunt",-11.131685184566056],["épargne",-11.131697263436514],["phare",-11.131992018389802],["Duran",-11.137303709417086],["consacr",-11.140309690509113],["contien",-11.14083881738466],["assassin",-11.150369296309991],["bourgeois",-11.150451772946612],["Philip",-11.150535999831867],["consécutive",-11.150619969758708],["discrimination",-11.1506199697734],["intelligent",-11.150619970137026],["hospitalisation",-11.150619971194208],["endommagé",-11.150619974992214],["constitué",-11.150620000259716],["isjordanie",-11.150620019630257],["Républicain",-11.150620415330257],["dramatique",-11.150620483330574],["économiste",-11.150620564027594],["conservé",-11.150620684170258],["religion",-11.15062265416619],["réservation",-11.150622827616834],["doléance",-11.15062717123823],["invitation",-11.1506327821588],["terrasse",-11.150689191092262],["traduit",-11.150755959409114],["Liban",-11.150761417152216],["appuye",-11.150865915730542],["dégage",-11.15096192840085],["statue",-11.151381036162094],["répand",-11.152450692766351],["détien",-11.161131843974463],["identifi",-11.165265234317758],["joint",-11.16885924717582],["diplomate",-11.170227812895169],["intellectuel",-11.170227813113033],["Théâtre",-11.17022781390865],["prédécesseur",-11.170227813960453],["Egypt",-11.170227820085909],["connexion",-11.170227870716923],["refuge",-11.170227879727204],["souffrance",-11.170227888372604],["célébrer",-11.170227891028784],["obstacle",-11.170227942938329],["congolais",-11.170227952634487],["Olymp",-11.170228073726118],["patrouille",-11.170229963195732],["colonial",-11.170231256908792],["ingénieur",-11.170234950820717],["stationnement",-11.1702378952427],["métropole",-11.170246001129161],["TF1",-11.170277369072103],["conjug",-11.17030366647839],["Carolin",-11.170326654832891],["capteur",-11.170329258722624],["Transport",-11.170384118995855],["estimation",-11.170408755850948],["fréquence",-11.170446308973464],["trompe",-11.170493736565465],["ouffer",-11.170620217302377],["trembl",-11.170799716409597],["Florid",-11.171377178182166],["irection",-11.173584906410987],["impatien",-11.17675554710317],["excellen",-11.17768669662154],["biologi",-11.181669235752686],["obtien",-11.186217172403705],["visan",-11.188282865936179],["vaincu",-11.189581696417426],["̂",-11.19022781289416],["célébration",-11.19022781409916],["intitulé",-11.190227815201837],["compléter",-11.19022781794859],["photographie",-11.190227822210526],["Taïwan",-11.190227828639683],["soviétique",-11.190227829152587],["projection",-11.190227865123555],["revendique",-11.190228222142041],["typique",-11.190229796047305],["bronze",-11.19023131171096],["bascule",-11.190234249131564],["ouvrier",-11.190240302546913],["intérim",-11.190242141853638],["œuf",-11.190267019880697],["exclusive",-11.190293780994235],["filiale",-11.19029668424059],["Bénin",-11.190313907197698],["flotte",-11.1903590937414],["concentrer",-11.190414381533376],["guère",-11.190580312881323],["amassé",-11.190583901808834],["écurité",-11.19063995364361],["Orient",-11.190707875421628],["soudain",-11.190820016657712],["soupçonné",-11.191246320382882],["autorise",-11.191445924958717],["étrange",-11.19917214895052],["soupçon",-11.2095976807264],["résolu",-11.210293404715049],["architecture",-11.210635976160308],["illustration",-11.210635976677015],["littérature",-11.210635978527591],["Culture",-11.210636010848484],["collision",-11.210636042552204],["pétrolier",-11.210636101534478],["Djoko",-11.210636188160962],["Interrogé",-11.210636257011668],["significative",-11.210636258079017],["mythique",-11.210636484503084],["évidence",-11.2106376550615],["investigation",-11.210638867931065],["approfondi",-11.21063959396732],["Jordan",-11.21064780418821],["théorie",-11.210651871795621],["conseillère",-11.210679078956023],["Flandre",-11.210718231808343],["immersi",-11.210730074487078],["basket",-11.210766366474834],["rituel",-11.211107331959575],["éhéra",-11.211235595152512],["oreille",-11.211365511628635],["robot",-11.211779641277523],["compagne",-11.230910525593055],["Netanyah",-11.23146930967276],["législation",-11.231469316132905],["Argentine",-11.231469333447892],["massacre",-11.231469334121693],["Californie",-11.231469392899118],["fraîche",-11.23146941964937],["édifice",-11.231469420803691],["jihadiste",-11.231469434654354],["régulier",-11.231469442440297],["antisémit",-11.231469556845445],["boycott",-11.231469631643924],["néglige",-11.23146974882072],["défensive",-11.231469857891497],["convoqué",-11.231469907636548],["gabonais",-11.231470097832464],["élimination",-11.231470685482199],["vestiaire",-11.231470696649406],["compétent",-11.231471239782206],["reproché",-11.231471267828303],["magazine",-11.23147196710693],["indicateur",-11.231474066131188],["amitié",-11.231474472062438],["MONT",-11.231475335672673],["Concern",-11.231476562893484],["tactique",-11.231494979927696],["évoquant",-11.23149947267274],["massif",-11.231501138227081],["sénateur",-11.23155657834862],["agenda",-11.231668776947487],["roulant",-11.2317434018297],["humili",-11.231968185575647],["provien",-11.234547063110012],["dollar",-11.235560162454767],["festiv",-11.23766073767076],["brouill",-11.24560187034384],["rassemblé",-11.252527405133941],["·",-11.25274590523748],["Championnat",-11.252745905238994],["accélérer",-11.252745905486668],["prudence",-11.252745935721768],["fabricant",-11.252745972015155],["motivation",-11.252745976594827],["mystérieu",-11.252746049099155],["héroïne",-11.252746077932155],["Histoire",-11.25274623741698],["Conakry",-11.252746263511542],["honnête",-11.252746384575254],["Leclerc",-11.252747232800218],["Économi",-11.25274768231434],["inacceptable",-11.252747867641336],["perpétu",-11.252751438374466],["routière",-11.252752523994118],["exagon",-11.252753441258516],["Sarah",-11.252753849729991],["multiplié",-11.252757175677148],["Musée",-11.252764484286018],["fabrique",-11.252779831956087],["interpelle",-11.252791978898703],["mixte",-11.252810248638223],["allure",-11.252901614799795],["prolongé",-11.252967407684329],["dignit",-11.253039747855599],["erveur",-11.260656330060892],["éprouv",-11.266375335034482],["chrono",-11.26781246402621],["Cinq",-11.271317690321009],["™",-11.274485035672264],["revendication",-11.274485036613461],["ordonnance",-11.274485040961572],["satellite",-11.274485059418996],["introducti",-11.274485107382873],["polonais",-11.274485236512284],["sollicité",-11.274485261055183],["déception",-11.274485449189159],["thermique",-11.274485833911324],["bâton",-11.274486591797714],["appuyé",-11.274487300602638],["cimetière",-11.27448756003655],["semblable",-11.274489481500819],["consulte",-11.274504401769626],["isolement",-11.27450647620121],["lâché",-11.274515697750104],["Croix",-11.274544835517554],["réhabilit",-11.274560211121651],["Texa",-11.274608511107008],["impliqua",-11.274615012811035],["accroche",-11.274620675813084],["narrati",-11.274781857245049],["helem",-11.278916798244037],["constitution",-11.296369911206229],["atmosphère",-11.296707257907823],["satisfaction",-11.296707258186686],["Raphaël",-11.296707263665766],["photographe",-11.296707266040528],["remarquable",-11.296707267078219],["littéraire",-11.296707279542055],["conviction",-11.296707305054813],["séparatiste",-11.29670731729321],["héritage",-11.296707341039918],["Afghan",-11.296707353612664],["supprimer",-11.29670735584098],["Tokyo",-11.296707361010455],["étudier",-11.296707416562544],["prestigieu",-11.296707504742578],["disparaîtr",-11.296707636462516],["prioritaire",-11.296707810744461],["populari",-11.29670855591397],["avertissement",-11.29670965910681],["incarcér",-11.296712450981067],["personnalis",-11.296720995715766],["australien",-11.296731151019179],["recherché",-11.296746619023633],["fragile",-11.296757440404383],["Dijon",-11.296766083139863],["trésor",-11.296767418517332],["mensonge",-11.296767841367343],["mensuel",-11.296792257245656],["embauche",-11.296843421580672],["concentré",-11.297074529612939],["pirate",-11.299775178322522],["natal",-11.302686536808801],["diagnostic",-11.319434530626374],["Communauté",-11.319434531150796],["luxembourgeois",-11.319434531554142],["concentration",-11.319434570533907],["docteur",-11.319434742966415],["fabriqué",-11.319434775650135],["cosmétique",-11.319434793873263],["hybride",-11.319434891016195],["maternelle",-11.3194353483556],["Standard",-11.319435465197023],["Tribuna",-11.319435656163932],["ralentissement",-11.319436428943929],["Ministre",-11.31943648915765],["confrontation",-11.319437200130693],["préalable",-11.319438908347758],["suppression",-11.319441900679001],["électro",-11.319447687092755],["craindr",-11.319448408557957],["variable",-11.31945478594553],["réputé",-11.319465187218174],["monétaire",-11.319470075205965],["Sahara",-11.31948123431335],["ponctu",-11.319496692438271],["cerveau",-11.319688760870298],["piéton",-11.319759119122292],["peinture",-11.319803633895479],["obscur",-11.320053284446612],["Autrich",-11.320669468932591],["ransparenc",-11.322747256838005],["Hollywood",-11.342690344575246],["explosif",-11.342690344576129],["disponibilité",-11.342690344628611],["consécutif",-11.342690344742614],["systématique",-11.342690344801715],["catholique",-11.342690346005224],["inspiration",-11.342690363054773],["infecté",-11.342690419795751],["fantastique",-11.342690458356184],["Cheikh",-11.342690567654023],["Atlantique",-11.342690596192401],["annuler",-11.342690807951668],["cardiaque",-11.342690898751032],["Département",-11.342690988712555],["prononcer",-11.342691070147813],["examiné",-11.34269132191674],["junior",-11.342693426792389],["acquér",-11.342694501314405],["anticipé",-11.342695596846681],["cliché",-11.342700203433871],["prudent",-11.342702092133166],["Croat",-11.34272217578188],["semestre",-11.342731216846497],["communiquer",-11.342735436156865],["tunnel",-11.342752133340108],["adéquat",-11.34288545748256],["proclam",-11.342886645806095],["Isabell",-11.343149498343042],["rattrap",-11.343578300571092],["créativ",-11.351354741857994],["adopti",-11.357165082119977],["signifi",-11.357175978576535],["expuls",-11.366063076655633],["ä",-11.366499868384771],["philosophi",-11.366499868397748],["empreinte",-11.36649987353806],["détruir",-11.366499896948323],["météorologique",-11.366499917410035],["Horizon",-11.366499936186457],["étudié",-11.366499954174007],["SNCF",-11.366500115322228],["effectue",-11.366500423986475],["financé",-11.366500972787692],["Ahmed",-11.366503914766957],["chaussure",-11.366504569259877],["ricolore",-11.366511443486027],["capture",-11.366512720578852],["sincère",-11.36651704408937],["ouvrant",-11.366521311128531],["funérai",-11.366534688691704],["arrivai",-11.366562937444918],["Yanni",-11.366803324178933],["Genev",-11.368001802664871],["demandai",-11.368453914454138],["authenti",-11.368705823037144],["présidé",-11.369877340992836],["vieilli",-11.378722807816978],["témoign",-11.381394360032736],["résumé",-11.388402649071672],["patriot",-11.390886264648259],["interlocuteur",-11.390890112371867],["précipitation",-11.390890112986716],["configuration",-11.390890114705805],["interrompu",-11.390890128136702],["diplôme",-11.390890130656569],["dégradation",-11.390890135552356],["interprétation",-11.390890158655315],["reflète",-11.39089018063355],["complicité",-11.390890324081255],["précaution",-11.390890446004567],["triomph",-11.3908906876752],["Rwanda",-11.390890758584407],["cannabi",-11.39089105988712],["Mamadou",-11.390891223248921],["costume",-11.390893355200376],["munition",-11.390894213663266],["minorité",-11.39089609822226],["riverain",-11.390897325455459],["Radio",-11.390897733847408],["Telegra",-11.390900922277813],["Burund",-11.390901178044718],["Sûre",-11.390901589504955],["sauvegarde",-11.390906325050935],["intime",-11.390985504875992],["prôn",-11.392081875050687],["psycho",-11.40371563337],["fédér",-11.407268638529391],["viendron",-11.41019694388628],["joindr",-11.415505324040478],["Méditerranée",-11.415890112287327],["administrateur",-11.415890112290121],["Drummondvill",-11.415890112294875],["camerounais",-11.415890112301852],["Gouvernement",-11.415890112400042],["Résultat",-11.415890112495491],["protagoniste",-11.415890112887482],["interruption",-11.415890113151569],["enveloppe",-11.415890114082638],["brûlé",-11.415890125886428],["tragédie",-11.41589012851374],["considérer",-11.415890131320088],["offensif",-11.415890187607324],["abstention",-11.415890216569032],["LGBT",-11.415890296933782],["sauvetage",-11.415890488574169],["Nigeria",-11.415890950030828],["Autorité",-11.415892749916324],["Andrew",-11.415895185191467],["intrigue",-11.415896717106314],["domestique",-11.415901333492695],["répète",-11.415903919140808],["mobiliser",-11.41590544270392],["dominant",-11.415907823365437],["esthétique",-11.415910371921335],["tapis",-11.416167788634372],["anticipe",-11.416770558348578],["Acadie",-11.417206062934042],["référ",-11.440378632048311],["diplômé",-11.441531137936346],["burkinab",-11.44153113809466],["récupération",-11.441531138140641],["interpellation",-11.441531138520077],["Égypt",-11.441531139841358],["inspection",-11.441531141069687],["explose",-11.441531184827896],["formidable",-11.441531291138414],["bulletin",-11.441531360804962],["chauffage",-11.441531809999953],["substance",-11.44153198299014],["performant",-11.441532367492668],["décisive",-11.44153274131111],["Rafael",-11.441533415600288],["Jacob",-11.441534395617932],["applaudi",-11.441534484921114],["mosquée",-11.441534891815419],["dynamis",-11.441539195568845],["élevage",-11.441539495306964],["Juste",-11.441543466996228],["grippe",-11.441544784341424],["bagage",-11.441556372384508],["Provenc",-11.44158608519523],["fascin",-11.441628292643228],["chrétien",-11.44163366901662],["suggér",-11.442114571194063],["ransition",-11.455336539663927],["révéla",-11.467626696131184],["juridiction",-11.467846927409685],["rémunération",-11.467846927508402],["ferroviaire",-11.46784692826009],["activiste",-11.467846928412285],["détecté",-11.467846950562224],["perquisition",-11.467846954341137],["synonyme",-11.46784695476808],["penalty",-11.467846967199115],["Élysée",-11.467847036971774],["challenge",-11.467847453670737],["Montpelli",-11.467850480605614],["allégation",-11.46785271940763],["complot",-11.46785367097606],["mutation",-11.467855108814947],["Fernand",-11.467858349294797],["historien",-11.467866256305655],["agressé",-11.467866961142864],["imaginé",-11.46786911437112],["carbure",-11.467873528738412],["Hôtel",-11.467886456812746],["officialis",-11.467900886961148],["renchéri",-11.468089570345404],["exempt",-11.46822188512424],["Sorti",-11.468373497358021],["erception",-11.46857521946203],["visibili",-11.470752515311888],["suspens",-11.472710552613087],["cyclable",-11.473490222793574],["navigu",-11.481212020531844],["remboursement",-11.494873963992548],["supprimé",-11.494873973963236],["vétérinaire",-11.494873974338518],["légendaire",-11.494873976988117],["affaibli",-11.494874024267336],["souffrir",-11.494874098554053],["féministe",-11.494874113365672],["Ndiaye",-11.494874315752574],["Gérald",-11.494875485731683],["bienveillan",-11.494875743225679],["meurtrier",-11.494875964275254],["ambulance",-11.494877962639933],["cortège",-11.49487855588403],["imposant",-11.49487976558035],["contracté",-11.494883598577747],["Khark",-11.495056571007687],["déploy",-11.495499358189566],["olsonar",-11.497078064246042],["famili",-11.507791367076358],["institut",-11.521720998794198],["meuble",-11.522230885787613],["marchand",-11.522465503043259],["crypto",-11.522630978720294],["pédagogique",-11.522651732206974],["trajectoire",-11.522651732348494],["scénariste",-11.522651732654646],["distributeur",-11.522651733514971],["trottinette",-11.52265173442142],["ministériel",-11.522651741168833],["thérapie",-11.522651766029455],["intègre",-11.522651817657975],["égyptien",-11.522652029247778],["examiner",-11.522652173929398],["humoriste",-11.522652185137375],["permanence",-11.522652357041652],["envisagé",-11.522652410449087],["agresseur",-11.522653499583974],["préventive",-11.522654216493136],["clandestin",-11.522656258735777],["câble",-11.522657070020449],["Crimée",-11.522657277802752],["fleuve",-11.522657657686242],["Charlotte",-11.522658782627545],["Munich",-11.522674258576037],["mbledo",-11.522682072322693],["éternel",-11.522821588250439],["suppl",-11.524273920213655],["curieu",-11.526579871831625],["´",-11.551223160778154],["accélération",-11.551223160813072],["remplaçant",-11.551223164174996],["togolais",-11.551223177772583],["controversé",-11.551223257897927],["accroît",-11.551223315675387],["Journal",-11.551223341532221],["concrétise",-11.551223820785385],["contraste",-11.55122422181607],["pelouse",-11.551224324758671],["complexi",-11.551224563838987],["motivé",-11.551224789870059],["gazoduc",-11.551224841387084],["inématographique",-11.551224928280194],["orchestre",-11.55122528157803],["pixel",-11.551225727790333],["pavillon",-11.551226519837394],["élaboré",-11.55122751519634],["protestation",-11.551227564738381],["inscriv",-11.551434073432794],["immunit",-11.551899166833719],["soumettr",-11.552896071157367],["bilatéra",-11.556356943997374],["catastrophique",-11.580634925484123],["CEDEA",-11.580634926738645],["inculpé",-11.580634927689445],["cohérence",-11.580634930426072],["accéléré",-11.580634930690927],["pratiqué",-11.580634931677663],["Église",-11.580634934126616],["lizzard",-11.580634937503156],["psychologue",-11.580634944716108],["maîtrisé",-11.580634967298902],["révéler",-11.580635086488975],["artifice",-11.58063531535713],["injection",-11.580635334170479],["manifesté",-11.580635394016028],["Énergie",-11.580635449274656],["récompensé",-11.580636455492057],["rembourser",-11.58063660437076],["arrivant",-11.580636808847796],["homicide",-11.580636822859976],["Global",-11.580636944382169],["propagand",-11.580637008985967],["éloigné",-11.580637080629106],["épargné",-11.580637731726279],["téléviseur",-11.580637814407124],["incliné",-11.580637850991852],["promenade",-11.580641437391531],["conservati",-11.580648324950047],["géographi",-11.580887028535638],["harmonie",-11.582117281596831],["bibliothèque",-11.610937955787065],["agglomération",-11.610937955787065],["hebdomadaire",-11.610937955787085],["coopérative",-11.610937956975869],["infirmier",-11.610937958041001],["additionnel",-11.610937958667758],["réglementaire",-11.610937962878433],["Virgini",-11.610937963291892],["successeur",-11.610937977367632],["aménagé",-11.610937989247775],["dépistage",-11.610938010288622],["infligé",-11.61093806540172],["verdict",-11.610938176633947],["incidence",-11.610938576361894],["implantation",-11.610938617974824],["cauchemar",-11.610938739449479],["détecte",-11.610939041086306],["crédible",-11.610939547398786],["mystère",-11.610939792817405],["Zurich",-11.610939856862228],["plaignant",-11.610939885846882],["pénétr",-11.610940062882111],["Gérard",-11.610940466640134],["toxique",-11.61094078411888],["peloton",-11.610940867070465],["mutuel",-11.610941280770792],["tronçon",-11.6109465189394],["blindé",-11.610965088687246],["arrache",-11.610989103538921],["Baptis",-11.611175329530441],["éveillé",-11.624431994448825],["démonstration",-11.642187956679592],["YouTube",-11.642187956900855],["explosé",-11.642187956901926],["discrète",-11.642187959730066],["compositeur",-11.642187960961671],["équilibré",-11.642187969826885],["idéologique",-11.642187971192751],["réglementation",-11.642187974216275],["interrogation",-11.642187981540774],["discuté",-11.64218798396088],["régulation",-11.642187991728466],["sacrifice",-11.642187998700779],["analysé",-11.642188004089501],["Secrétaire",-11.642188025381603],["pacifique",-11.642188052382101],["décisif",-11.64218806403705],["arkozy",-11.6421880728777],["ascension",-11.642188636662413],["illusion",-11.642190240870548],["existai",-11.642192774302163],["automatis",-11.642197736600739],["Océan",-11.642211300094052],["spectr",-11.642599218382294],["Pacifi",-11.642700679952673],["recueil",-11.673636019774975],["*",-11.674446020303193],["Développe",-11.674446020360916],["Bruxellois",-11.674446020448247],["récupéré",-11.674446026152754],["envergure",-11.674446037703255],["propagation",-11.674446044581666],["approbation",-11.674446060200285],["Studio",-11.674446072661596],["niçois",-11.674446196794346],["apparaisse",-11.674446207332611],["économiser",-11.674446251751263],["leadership",-11.674446318939854],["plafonne",-11.67444698946205],["accroché",-11.674447008720467],["secrète",-11.67444725955195],["suédois",-11.674447363904374],["dégradé",-11.674447484760602],["limitation",-11.67444764940552],["détenteur",-11.674448445974193],["Victoriavill",-11.674449389643238],["sculpt",-11.674457284385106],["Raymond",-11.674506132381767],["écologi",-11.67506713595892],["prétext",-11.675932997543034],["dépêch",-11.677362529821073],["transmettr",-11.677993276730248],["currence",-11.707130662004726],["²",-11.707779353636528],["Ê",-11.707779353636528],["orthodoxe",-11.707779353637408],["administré",-11.707779355513756],["rejoign",-11.707779394280589],["escroquerie",-11.707779412992249],["Hôpita",-11.707779458599196],["Chevalier",-11.707779461834498],["légitimi",-11.707779478224897],["curiosité",-11.70777951299955],["Arrivé",-11.707779516165672],["criminalité",-11.707779588282769],["primordia",-11.707779728413133],["fatigue",-11.707779808262817],["artillerie",-11.707779979798168],["emprisonné",-11.707779980034013],["douloureu",-11.707781298580423],["superficie",-11.707781304017693],["sollicite",-11.707782308104367],["homosexu",-11.70786932147321],["attractiv",-11.709159796718357],["stupéfiant",-11.742262112262754],["particularité",-11.742262112349085],["architecte",-11.742262113337443],["préliminaire",-11.742262113427534],["perfection",-11.742262116464563],["Windows",-11.742262132540889],["portugais",-11.742262149902125],["compétitiv",-11.742262150392431],["Norvégien",-11.742262170134817],["trilogie",-11.74226224065998],["bservatoire",-11.742262255877755],["littérale",-11.74226227474392],["commémorati",-11.742262302162011],["Elysée",-11.74226253873766],["Xiaomi",-11.742262834020504],["Lorrain",-11.74227728053683],["uotidien",-11.777924563675583],["préjudice",-11.777976398133951],["frustration",-11.777976398182389],["interrogatoire",-11.777976400038877],["Néerlandais",-11.777976405888658],["Economie",-11.777976416168126],["récurrent",-11.777976419545872],["manipulation",-11.777976452834158],["pédiatr",-11.777976480828631],["électorat",-11.77797649588289],["utilisable",-11.777976501860886],["substitu",-11.77797657005916],["introduir",-11.77797717346931],["matérialis",-11.777977830322701],["Capitol",-11.777980309331927],["succomb",-11.777980459439226],["compréhensible",-11.815013435008632],["Conférence",-11.815013435155093],["TikTok",-11.815013437176821],["nettoyage",-11.81501343788932],["itinéraire",-11.815013440883359],["pétrolière",-11.8150134437084],["Lougansk",-11.815013443748175],["succession",-11.815013444333688],["expansion",-11.815013445359584],["agressif",-11.815013451381015],["démarrage",-11.815013454387811],["Industrie",-11.81501346019992],["ingrédient",-11.815013466527823],["souffrant",-11.81501350084553],["compensation",-11.815013514725365],["trottoir",-11.8150136801548],["inflige",-11.815014448571663],["culpabili",-11.815024558903232],["bactérie",-11.815026996574916],["pharmaceutique",-11.853474973470195],["répercussion",-11.853474973478763],["Sebastian",-11.853474973520708],["Sherbrook",-11.853474973675286],["ultérieure",-11.853474973768396],["combustible",-11.853474974224053],["Ministère",-11.853474982234491],["Cristian",-11.853474983924661],["médaillé",-11.853474991648948],["boulangerie",-11.85347499571182],["norvégien",-11.853475008000853],["chirurgie",-11.853475010749976],["bombardé",-11.853475011844946],["coïncid",-11.853475022028233],["approvisionne",-11.856452227550525],["assouplissement",-11.893474973473271],["périphérique",-11.893474973562167],["hiérarchie",-11.893474973577034],["blockbuster",-11.893474973739437],["entraînant",-11.893474973968221],["compétitif",-11.893474975071936],["explicite",-11.89347497732266],["effectua",-11.89347522705675],["productivi",-11.893476166100223],["athléti",-11.893478514533635],["Neuchâtel",-11.935141640205696],["chirurgica",-11.935141640257644],["spéculation",-11.935141640266064],["divertissement",-11.935141641015568],["académie",-11.935141641394269],["Initiale",-11.935141642166505],["quinquennat",-11.935141642596443],["emprisonnement",-11.93514164304396],["conservatrice",-11.935141647068534],["régulateur",-11.935141648636865],["malveillant",-11.935141648721807],["occupai",-11.935141657733563],["succède",-11.935141660478376],["incendié",-11.935141821894746],["crédibili",-11.935211483286166],["hollywoodien",-11.978619901006311],["hypothécaire",-11.978619901006802],["helvétique",-11.978619901243796],["Administrati",-11.978619902290783],["Parallèle",-11.978619902476641],["Syndicat",-11.97861990254734],["injonction",-11.978619904075963],["pornographi",-11.978635033507713],["chorégraph",-11.978827779807105],["imaginati",-11.979671712302682],["á",-12.024074446460856],["pénitentiaire",-12.024074446463374],["repêchage",-12.024074446469228],["Molenbeek",-12.024074446471339],["revendiqué",-12.024074446846875],["législature",-12.024074446970587],["traumatisme",-12.024074447109333],["lucratif",-12.024074450918715],["gastronomi",-12.024074451037546],["Zaporij",-12.024074452031032],["rentabili",-12.046931005992704],["immatriculation",-12.07169349407991],["vulnérabilité",-12.071693494081337],["Solidarité",-12.071693494133884],["sympathis",-12.071693494473706],["stigmatis",-12.071693553983819],["zerbaïdjan",-12.121693494079908],["sympathique",-12.121693494083383],["philosophe",-12.121693494099887],["Communication",-12.121693494253506],["académique",-12.121693494361955],["extrémiste",-12.12169349443636],["Amsterdam",-12.121693494491316],["•",-12.174325073027273],["disciplinaire",-12.174325073039427],["algorithme",-12.174325073040007],["méditerranéen",-12.174325073077082],["chaerbeek",-12.174325073086127],["californien",-12.174325091591177],["victorieu",-12.174325799825052],["ã",-12.22988062858283],["enthousiaste",-12.229880628584027],["Biélorussie",-12.28870415799461],["accompagnant",-12.288704157995932],["conjoncture",-12.288704158020316],["Éthiopie",-12.288704158298742],["Ç",-12.396943552934445],["ó",-12.417870824661277],["È",-12.417870824661279],["️",-12.566222473012987],["❤",-12.740464897255784],["﻿",-12.840464897256556],["í",-12.951576008370143],["ø",-13.076576008379245],["ᵉ",-13.076576008379247],["ñ",-13.076576008379247],["Ö",-13.076576008379247],["Ô",-13.076576008379247],["®",-13.386099817943016],["−",-13.386099817943016],["×",-13.586099817943017],["″",-13.586099817943017],["̈",-13.836099817903058],["‹",-13.836099817943017],["³",-13.836099817943017],["õ",-14.169433151236392],["ō",-14.169433151236392],["Š",-14.169433151236392],["Œ",-14.169433151276346],["å",-14.16943315127635],["›",-14.16943315127635],["ć",-14.16943315127635],[">",-14.16943315127635],["ā",-14.16943315127635],["‑",-14.16943315127635],["₂",-14.16943315127635],["Ÿ",-14.16943315127635],["ē",-14.669433151236394],["ş",-14.66943315127634],["с",-14.669433151276346],["➤",-14.669433151276351],["‒",-14.669433151276351],["‡",-14.669433151276351],["ū",-14.669433151276351],["‐",-14.669433151276351],["а",-14.669433151276351],["Û",-14.669433151276351],["ð",-14.669433151276351],["′",-14.669433151276351],["☹",-14.669433151276351],["―",-14.669433151276351],["Å",-14.669433151276351],["♦",-14.669433151276351],["ș",-14.669433151276351],["ă",-14.669433151276351],["̧",-15.66923315127635],["ž",-15.66933315127635],["Ō",-15.669433151236401],["ł",-15.66943315127635],["ń",-15.66943315127635],["Ï",-15.66943315127635],["ﬁ",-15.66943315127635],["ğ",-15.66943315127635],["‰",-15.66943315127635],["½",-15.66943315127635],["º",-15.66943315127635],["Ø",-15.66943315127635],["α",-15.66943315127635],["~",-15.66943315127635],["ř",-15.66943315127635],["ú",-15.66943315127635],["ì",-15.66943315127635],["ļ",-15.66943315127635],["š",-15.66943315127635],["č",-15.66943315127635],["",-15.66943315127635],["◆",-15.66943315127635],["Ä",-15.66943315127635],["▶",-15.66943315127635],["✍",-15.66943315127635],["➢",-15.66943315127635],["Á",-15.66943315127635],["ﬂ",-15.66943315127635],["▪",-15.66943315127635],["¦",-15.66943315127635],["æ",-15.66943315127635],["е",-15.66943315127635],["`",-15.66943315127635],["£",-15.66943315127635],["¼",-15.66943315127635],["✓",-15.66943315127635]]}}