{"version":"1.0","truncation":null,"padding":null,"added_tokens":[{"id":0,"special":true,"content":"<UNK>","single_word":false,"lstrip":false,"rstrip":false,"normalized":false},{"id":1,"special":true,"content":"<SEP>","single_word":false,"lstrip":false,"rstrip":false,"normalized":false},{"id":2,"special":true,"content":"<MASK>","single_word":false,"lstrip":false,"rstrip":false,"normalized":false},{"id":3,"special":true,"content":"<CLS>","single_word":false,"lstrip":false,"rstrip":false,"normalized":false}],"normalizer":null,"pre_tokenizer":{"type":"Whitespace"},"post_processor":null,"decoder":null,"model":{"type":"Unigram","unk_id":0,"vocab":[["<UNK>",0.0],["<SEP>",0.0],["<MASK>",0.0],["<CLS>",0.0],[".",-3.1751688042913564],["de",-3.2495290866543183],["en",-3.326508183976637],[",",-3.8281568462254327],["s",-3.9112347020392644],["van",-4.038455360253716],["een",-4.095059821548341],["e",-4.102049789274336],["in",-4.126221764629673],["het",-4.12943961013899],["t",-4.179346985052222],["is",-4.518592454063297],["op",-4.561478079719054],["dat",-4.602306700637904],["te",-4.700752305168196],["n",-4.762084729798598],["er",-4.7722299333365665],["voor",-4.886264655094985],["met",-5.0123800048762295],["zijn",-5.033859149958573],["je",-5.054164975868513],["die",-5.086257619425341],["niet",-5.088471500654681],["om",-5.149289231868636],["De",-5.170175138885861],["-",-5.179758678162678],["aan",-5.21238583722322],["d",-5.486501889681628],["al",-5.496315628333022],["ook",-5.519314002781975],["als",-5.536913890323104],["bij",-5.568334637181305],["uit",-5.575209850629445],["ge",-5.599092630468499],["maar",-5.611548008853001],["ze",-5.630287045983113],["Het",-5.772296238086463],["nog",-5.783282915703607],["ik",-5.790875158837752],["’",-5.803595730447688],["zo",-5.805144185600515],["over",-5.814640017693112],["dan",-5.835000375828706],["door",-5.919137435872505],["wel",-5.930660598744533],["naar",-5.953750133466782],[":",-5.974343454366167],["heeft",-5.996875098433078],["of",-6.018867678138404],["'",-6.029111675217752],["was",-6.076683501821494],["meer",-6.130602505961013],["(",-6.132420402867075],["\"",-6.136587449216085],["hij",-6.1589910380862065],["?",-6.163954288819049],["a",-6.178764883526441],["“",-6.185491269652697],["hebben",-6.190191696311041],["moet",-6.205662589640177],["we",-6.214283075570679],["jaar",-6.223452667676291],["na",-6.252563070085529],["worden",-6.269288607042343],["i",-6.299159032838395],["wat",-6.3244978607263285],[")",-6.32926137827239],["word",-6.333569831401581],["waar",-6.338083800030256],["kan",-6.34037112305794],["‘",-6.363237069057021],["k",-6.365785561682378],["r",-6.385011729964855],["In",-6.396582819579107],["m",-6.398404328859414],["Dat",-6.41442229880624],["Ik",-6.429609893927532],["ver",-6.432224525511835],["dit",-6.439237959770503],["o",-6.448443858787382],["af",-6.492677455552634],["daar",-6.49384472254045],["be",-6.509112927872568],["zich",-6.510550633784099],["geen",-6.520732826088878],["l",-6.529021155340958],["werd",-6.5351234717096],["tot",-6.550530083869809],["nu",-6.551065856231963],["veel",-6.569525239827112],["kunnen",-6.573166621459572],["onder",-6.589459397153046],["f",-6.6135946039381714],["gaan",-6.619684021817082],["g",-6.638026570385778],["Maar",-6.665085320352264],["gaat",-6.666144385342067],["had",-6.67194998518936],["mensen",-6.674226061991138],["mee",-6.67517964599325],["hun",-6.675690289441419],["ing",-6.679568844628971],["En",-6.690883050550169],["z",-6.718539952597416],["weer",-6.718958888160504],["zou",-6.727257082998454],["tegen",-6.731273367360913],["on",-6.736586053047334],["deze",-6.758869804929444],["dus",-6.766527026419134],["p",-6.796185006658058],["Een",-6.823450196421874],["u",-6.82594410009909],["1",-6.831309509248963],["alle",-6.849198377114228],["haar",-6.85621500849416],["A",-6.880169948564071],["komen",-6.904344297412245],[".”",-6.90732538421471],["goed",-6.92108566787992],["S",-6.933040729672127],["heb",-6.942843653829312],["zelf",-6.947361614403046],["kom",-6.9504322290475224],["me",-6.955788034675695],["twee",-6.968385869127171],["K",-6.968846356077946],["andere",-7.002551235976471],["h",-7.004564201418725],["land",-7.0064650454688895],["y",-7.021211624950035],["doen",-7.028350509735369],["staat",-7.041064711014495],["2",-7.042705092574878],["man",-7.044120236892561],["tijd",-7.053350808556728],["maken",-7.054042954225525],["20",-7.082779883522405],["krijg",-7.08638040221408],["nieuwe",-7.089003124230585],["toch",-7.103119555972733],["le",-7.104430360623962],["b",-7.104795405233169],["el",-7.110372502151637],["wil",-7.113742781032542],["weg",-7.121742357018068],["Daar",-7.12874343049507],["maal",-7.129185934024567],["B",-7.137393751944461],["zal",-7.137897189888558],["hier",-7.14760184327335],["Als",-7.150562643463396],["toe",-7.1520620042584895],["volgen",-7.16737124968237],["mijn",-7.1675760027718525],["”",-7.1754516019831405],["vind",-7.179275432859269],["D",-7.195876493921659],["We",-7.20774544548156],["lopen",-7.2203964616244996],["heel",-7.222921452108979],["hoe",-7.225370621755142],["v",-7.228429550747972],["Van",-7.232404067173236],["Er",-7.232780280667368],["E",-7.242502062353529],["zegt",-7.244602770573071],["eerste",-7.257998849042726],["Ook",-7.258565279744206],["zien",-7.259703334054913],["hele",-7.265730131255027],["Ze",-7.268988973644431],["Op",-7.278993684982948],["Hij",-7.280260523943336],["heid",-7.294385318251899],["iets",-7.299242286905565],["even",-7.301449772808821],["auto",-7.31763630306916],["P",-7.329225300625765],["tussen",-7.331260059830766],["V",-7.345997143060945],["ons",-7.349982014695562],["Nederland",-7.355721496865135],["G",-7.368079066372056],["grote",-7.371818903014],["Zo",-7.375788987876466],["alleen",-7.380559659699358],["Die",-7.381191524964062],["dag",-7.39685151786054],["procent",-7.403270533954727],["per",-7.407677559302026],["ooit",-7.416490361689963],["3",-7.41952025451477],["”,",-7.422086273539774],["hem",-7.427140321808806],["C",-7.44895054524649],["Je",-7.449176637285091],["euro",-7.44950059833464],["uur",-7.4598947624461305],["leven",-7.464172080145265],["houden",-7.472959711810371],["kun",-7.473644842760835],["F",-7.484111932708871],["O",-7.4867073690334625],["echt",-7.489137789561775],["terug",-7.495530418644882],["kwam",-7.495845061092658],["keer",-7.512171205773133],["zij",-7.522149261383941],["altijd",-7.522731876176918],["T",-7.523468604656643],["W",-7.525601063349373],["binnen",-7.528845868320991],["eigen",-7.530282976140614],["Dit",-7.533342795112372],["gewoon",-7.536086902298861],["waren",-7.541005479457838],["laten",-7.542629857348269],["!",-7.542767386119973],["I",-7.5482077626815665],["w",-7.548848789865558],["c",-7.560696668253609],["werk",-7.568981808106058],["staan",-7.571211244403827],["net",-7.574146095238885],["mogelijk",-7.582181707785878],["5",-7.59520760286985],["ben",-7.597329280286227],["week",-7.603954424394877],["afge",-7.619808076771781],["M",-7.6267935212057445],["geld",-7.628268964898645],["Voor",-7.630893163669921],["achter",-7.633572701908287],["willen",-7.634545247690586],["mij",-7.634707804982797],["huis",-7.6400630049084945],["minder",-7.644510980070424],["onze",-7.64685498411325],["politie",-7.653539387575125],["us",-7.660369617538364],["steed",-7.663025751574172],["tijden",-7.664072964435801],["lang",-7.667319341652026],["drie",-7.678269170901805],["rond",-7.687872292074663],["Na",-7.699637909363864],["4",-7.701322769586663],["toen",-7.706621268474829],["jaren",-7.7212264241661215],["want",-7.731941119146753],["ie",-7.732578955414778],["Met",-7.733691603338301],["wereld",-7.737695670734051],["plaats",-7.743288992720033],["moment",-7.746545682934739],["Oekraïne",-7.754462789562843],["Bij",-7.75570002524572],["Wat",-7.764494685844499],["laatste",-7.765830059204785],["één",-7.765894695575674],["ter",-7.767151205299537],["ers",-7.780590767656816],["Rusland",-7.783113291689777],["ren",-7.791502085208439],["deel",-7.799033615218227],["Volgen",-7.804073073735497],["j",-7.804581344490359],["Russisch",-7.807424420135892],["mag",-7.81500165525093],["kinder",-7.81838242087314],["zit",-7.818931228817791],["verder",-7.824051886484354],["gebruik",-7.825985898082237],["weten",-7.828990416147546],["/",-7.8312516422421155],["nodig",-7.83794086187549],["blijven",-7.840400005577408],[".\"",-7.841068001981766],["voorbeeld",-7.846626197122078],["zonder",-7.846876195636192],["R",-7.8518293724601635],["N",-7.857826332465121],["eens",-7.862197990753792],["der",-7.862247096939956],["gemaakt",-7.8637710969631724],["onderzoek",-7.865066733571844],["maakt",-7.873051016015886],["snel",-7.877312096505643],["Nederlands",-7.8781371723902724],["geven",-7.879147643525931],["19",-7.882756211488196],["groot",-7.889590430967222],["H",-7.892364044321743],["vol",-7.898477427867468],["jarige",-7.898646372081803],["laat",-7.899329063039168],["an",-7.8993776121861945],["nieuw",-7.899490987941815],["000",-7.899806701196535],["6",-7.9009047807925015],["aantal",-7.9028908745859985],["ging",-7.906726763650753],["ullen",-7.920065020842709],["10",-7.924211233147493],["Hoe",-7.92990562096055],["samen",-7.939864145862084],["vooral",-7.940232210721187],["stad",-7.9429533789819144],["weet",-7.943361690285843],["Dan",-7.952209152139492],["zitten",-7.95222339433908],["beter",-7.953211190538858],["nemen",-7.958187026661782],["bedrijf",-7.961754283373045],["energie",-7.961947961534883],["elkaar",-7.963806308129784],["miljoen",-7.968494206316782],["zeggen",-7.969062830243028],[").",-7.9725139332957955],["werken",-7.978763515100594],["alles",-7.9803473709610095],["gemeente",-7.981124773519005],["anders",-7.981999922634266],["0",-7.988854292750378],["ken",-7.991295641747709],["zeker",-7.993211606898604],["202",-7.993759350473397],["bekend",-7.998202602316542],["L",-7.998399802091397],["avond",-8.000687185703695],["eerder",-8.001558434538264],["vrij",-8.003119169321206],["zelfs",-8.012459837701694],["vier",-8.01803596682333],["via",-8.026632048490118],["ga",-8.034127590965833],["wij",-8.038068759624345],["Zij",-8.038672102347839],["hand",-8.039073065888726],["boven",-8.043343840042873],["kon",-8.045135836210054],["Al",-8.048484546464195],["blijft",-8.050448406133238],["doet",-8.05060104636664],["–",-8.054251577325626],["oorlog",-8.05664786391491],["8",-8.05941831703528],["vond",-8.060642832343458],["water",-8.074489869223594],["lijkt",-8.075750317039525],["ma",-8.075895192750606],["naast",-8.077945606429392],["vaak",-8.084631910118432],["U",-8.090357234968069],["baar",-8.091602622099332],["licht",-8.101585040016413],["Om",-8.113578618918003],["neer",-8.114825733520764],["zetten",-8.115818928708297],["ja",-8.118645379262482],["leden",-8.118715545238926],["moest",-8.119397270283681],["vraag",-8.136986171251618],["ig",-8.137093003214648],["vrouw",-8.144435996886443],["natuurlijk",-8.144474700020186],["hoofd",-8.149892579918376],["soort",-8.151478599555942],["lig",-8.162044013035338],["vast",-8.16828259486287],["at",-8.169615181735043],["iemand",-8.173355019061818],["erg",-8.173945104621279],["iedere",-8.174825325826342],["sinds",-8.176354260830482],["duidelijk",-8.176708924044528],["recht",-8.17768575145384],["buiten",-8.178034280993355],["woning",-8.178569531701633],["wedstrijd",-8.17949328253476],["ve",-8.179567131594874],["kijken",-8.184125238236986],["ont",-8.190251027051874],["later",-8.19403823871027],["zei",-8.198063516401414],["geef",-8.198529387908323],["juist",-8.199235069492168],["blijk",-8.204676607255806],["Deze",-8.211169011324301],["genomen",-8.213045440811328],["breng",-8.217658163840888],["gek",-8.218954308291586],["verschillen",-8.224561782983184],["Be",-8.228656916893403],["gas",-8.230116702027095],["wie",-8.231625943796093],["corona",-8.234220551132442],["ar",-8.235063610608574],["denk",-8.239439037361933],["dagen",-8.240793655167487],["paar",-8.246957869446035],["eerst",-8.247998286453758],["landen",-8.250039756291617],["tweede",-8.250160352362395],["men",-8.252894096161306],["la",-8.253824468409313],["7",-8.255209939655213],["Nu",-8.256170621971187],["he",-8.259707840054105],["goede",-8.261990648796875],["Ja",-8.262105442615985],["genoeg",-8.262609104094487],["gezien",-8.267964390707206],["Ver",-8.272574019665962],["manier",-8.273487893550431],["markt",-8.276183789525426],["pas",-8.279650120078141],["maanden",-8.28014656362258],["ste",-8.287207067471893],["enkele",-8.29078312768705],["Amerikaans",-8.290994379107339],["30",-8.291879915049755],["extra",-8.29305079576622],["ra",-8.293223380881138],["partij",-8.293224988019855],["bijna",-8.2977150127689],["stond",-8.317549504281454],["prijs",-8.319681554697883],["weinig",-8.322833636971996],["9",-8.325915385091001],["gedaan",-8.327538509379893],["Europe",-8.327673494706286],["…",-8.330276501950094],["minister",-8.33882321566676],["bedrijven",-8.339919840503036],["straat",-8.344865728189832],["amelijk",-8.347718520010496],["rijden",-8.349960681932323],["ander",-8.35111048620989],["rol",-8.352150558276353],["Waar",-8.354351802692221],["seizoen",-8.361018871206369],["15",-8.36136959305028],["hoog",-8.361989846257245],["kree",-8.363392924818564],["vijf",-8.365463221800315],["beetje",-8.366905890892308],["eigenlijk",-8.371318621185598],["wan",-8.374790825235387],["groep",-8.377221924932503],["um",-8.377325102802622],["hoor",-8.38094651163162],["media",-8.381152541085012],["weken",-8.382466133101776],["Of",-8.385191543096271],["verwacht",-8.386027782817836],["ruim",-8.390586908884167],["geval",-8.393543764366942],["ton",-8.395252591108664],["halen",-8.395721992744926],["eind",-8.396591470112352],["druk",-8.401143035449392],["vragen",-8.402226081965694],["thuis",-8.403517365365733],["Z",-8.404810793723275],["wege",-8.405016364185744],["weest",-8.405195786411152],["kant",-8.406167351474407],["da",-8.406173295109433],["regen",-8.40781992207648],["ut",-8.408513056443502],["heden",-8.40958627736511],["hard",-8.410603726761938],["reden",-8.412330525644773],["il",-8.417083696371503],["Door",-8.417566702365896],["gebied",-8.419794638381191],["ziet",-8.425258372782935],["len",-8.426124648139652],["maakte",-8.426297400804618],["zorg",-8.42651658087218],["Europa",-8.427597428714975],["prijzen",-8.43274548957686],["ij",-8.433233208421619],["app",-8.441539236199285],["zie",-8.444543215746707],["18",-8.447225431469006],["stellen",-8.448609599605758],["probleem",-8.450783174146261],["maand",-8.453830359340971],["vandaag",-8.455063350874177],["EU",-8.459395985477153],["vrouwen",-8.460607163091769],["kans",-8.460660339420434],["mogen",-8.462069991521144],["Dus",-8.463412695127278],["vanaf",-8.465681723305282],["neem",-8.46638697144329],["club",-8.46741975136996],["tien",-8.468970766766123],["meest",-8.47244002118725],["rij",-8.473887117451863],["pen",-8.477058024765622],["zorgen",-8.479894181081276],["basis",-8.48243084505684],["Niet",-8.483157139736026],["foto",-8.48865131005202],["or",-8.488865866091503],["kosten",-8.489747334201276],["best",-8.490960134795454],["werkt",-8.496018604030482],["her",-8.497009600284839],["denken",-8.499964455144715],["middels",-8.503279991395672],["problem",-8.503368518317156],["sch",-8.50526866702526],["team",-8.505693452241164],["Ge",-8.510655518961798],["zaterdag",-8.51241404559503],["ieder",-8.512462416410944],["president",-8.512594522458675],["gelijk",-8.513983840039284],["%",-8.516369380858979],["tjes",-8.517634118492722],["zoude",-8.520443318520783],["echter",-8.520833307410692],["ruimte",-8.524195852864795],["langs",-8.527312454597816],["12",-8.528654180506704],["regering",-8.53064857199297],["vorig",-8.530870967028854],["woensdag",-8.533051801533713],["mis",-8.534373440392699],["enige",-8.53704528742686],["Poetin",-8.537698490795616],["niets",-8.541818731249045],["atie",-8.542986695179419],["beste",-8.544230610760605],["mannen",-8.54624174464747],["ul",-8.547531599343266],["kort",-8.547824647521793],["zaak",-8.549406503033147],["naam",-8.550132288639912],["eerd",-8.550143590966798],["Wij",-8.550749441382518],["kabinet",-8.551765766156745],["dood",-8.553814406945364],["maandag",-8.55665000978635],["zat",-8.558959156553177],["co",-8.559087052317011],["plek",-8.560616978368174],["„",-8.561255693760211],["sport",-8.562096393535995],["bent",-8.562247896559178],["lo",-8.564340382369824],["17",-8.565821345923991],["isschie",-8.565895689199554],["nieuws",-8.568040521015671],["dienst",-8.56897172337823],["hoger",-8.570174645509564],["vrijdag",-8.571612916495042],["vallen",-8.57197979960402],["uw",-8.572344587795776],["begin",-8.576455328882524],["ur",-8.57744756417397],["hoge",-8.583298016759795],["terwij",-8.584804417341397],["familie",-8.585382343466097],["ch",-8.585945821287737],["spelen",-8.587214562108048],["stuk",-8.588490462040951],["grootste",-8.588923362588982],["school",-8.591988626319583],["betalen",-8.594524800037464],["bouw",-8.594918035307535],[";",-8.600142712808003],["graag",-8.600346736914123],["overheid",-8.600760429468671],["plan",-8.601187806086724],["idee",-8.602923518377255],["acht",-8.606270645857272],["oud",-8.606855809750147],["regel",-8.611348792389904],["valt",-8.617855509104324],["mo",-8.618710271382763],["elke",-8.620893564607108],["aar",-8.622361020083687],["gekomen",-8.626386010149758],["totaal",-8.633567558842408],["brand",-8.635916382696617],["ster",-8.638416928838904],["moeder",-8.639611971474714],["di",-8.640562072187919],["dinsdag",-8.640607997391143],["ha",-8.642205317871051],["stand",-8.643571769452281],["Re",-8.64442526259031],["Apple",-8.645889782228657],["16",-8.647447875202097],["25",-8.648826411973339],["langer",-8.654384834512342],["50",-8.655072178888954],["va",-8.657337133031586],["bare",-8.660493790346496],["grond",-8.660946166269227],["veld",-8.660967725060821],["ari",-8.663315362413165],["gegeven",-8.666317263063675],["slag",-8.667390361019145],["ploeg",-8.670415476483615],["Wel",-8.671125947827964],["zondag",-8.671672877862083],["ige",-8.67267402619705],["volledig",-8.674766380811558],["200",-8.676321388857946],["gevolg",-8.680386279377682],["donderdag",-8.682790584263104],["beeld",-8.682989461482416],["verhaal",-8.684455124878458],["Is",-8.684462879324993],["21",-8.685892237091466],["Oekraïens",-8.68852735997736],["leggen",-8.691055057823213],["22",-8.692853764698508],["beleid",-8.694176211021649],["richting",-8.696287218850093],["uiteindelijk",-8.698732142107188],["houdt",-8.700037302663127],["hoop",-8.702276840820183],["start",-8.704505856864255],["gebruikt",-8.706530201967698],["ongeveer",-8.707447785800875],["jij",-8.707820880023412],["liggen",-8.708325180486984],["Aan",-8.70967301191861],["Rutte",-8.710103440248613],["punten",-8.711140709977863],["it",-8.711334352571395],["as",-8.712049104807544],["heen",-8.712314398046665],["situatie",-8.71340004020775],["actie",-8.71599763648402],["nacht",-8.71772696146543],["programma",-8.71855329415202],["welke",-8.718627657656167],["belangrijk",-8.720886834771274],["miljard",-8.721289565679651],["bank",-8.722052513667984],["Hier",-8.722944536386748],["gezet",-8.723314415791148],["go",-8.727841306809133],["ven",-8.728514475867126],["zaken",-8.729579075017138],["organisatie",-8.732262418357534],["gelede",-8.732750670649839],["mooi",-8.733005928224646],["bied",-8.738100639499741],["periode",-8.738110089651979],["wind",-8.739119296348491],["eel",-8.742294199958213],["waardoor",-8.742327580009823],["eten",-8.74632889713721],["loopt",-8.749545053765102],["kleine",-8.750684616430833],["beteken",-8.751275678758972],["ka",-8.753713846443219],["ic",-8.753786693126614],["zomer",-8.753886074001247],["Wie",-8.754291845198217],["cijfer",-8.755190092287657],["boeren",-8.757367787593124],["00",-8.758459817128232],["punt",-8.759113158248862],["100",-8.762897359990363],["derde",-8.764457467237055],["niks",-8.767438988022898],["zoveel",-8.767798247408106],["waarom",-8.76867302001278],["vak",-8.772756283741796],["doel",-8.77575647168928],["strijd",-8.776648194948626],["helpen",-8.778815521744159],["én",-8.780066066187631],["vorige",-8.781603625959185],["lijk",-8.782881079101806],["rekening",-8.78578991944126],["rechts",-8.786818212166787],["wilde",-8.787457322989024],["klimaat",-8.787687729280657],["boek",-8.790377146729412],["rechter",-8.79486173694461],["voetbal",-8.795393485087459],["ex",-8.79819811392063],["precie",-8.79928446442346],["einde",-8.801064669740802],["olie",-8.80108150252542],["La",-8.80159682772187],["lekker",-8.803159879864273],["delen",-8.804720697860706],["centrum",-8.805788661187016],["Uit",-8.806391562851687],["vorm",-8.80786677796107],["daad",-8.80855333974204],["Ro",-8.809985459678476],["systeem",-8.811129162055124],["kopen",-8.811895643206231],["é",-8.812606817389373],["bezig",-8.813387736781984],["li",-8.816441257081],["Toen",-8.81878898897267],["ochtend",-8.821119950289212],["Me",-8.823535170800778],["&",-8.824215919584127],["direct",-8.825606995070894],["rest",-8.825744484551052],["dicht",-8.826365571098734],["ogen",-8.826548459776115],["middag",-8.827218050834762],["groter",-8.827517574987535],["zeer",-8.829058922776],["maatregelen",-8.83230139600688],["’,",-8.832308020372572],["11",-8.833862603206635],["Mijn",-8.834363365179152],["vader",-8.837422571353589],["liet",-8.837474582754432],["hulp",-8.838403156626613],["rgens",-8.839025671327244],["meeste",-8.840354824405194],["Amsterdam",-8.845277396433953],["ho",-8.848025121840259],["honderd",-8.848364525823222],["Want",-8.849452469554858],["flink",-8.849784333208564],["trekken",-8.850367600303525],["huidig",-8.851430557338624],["to",-8.851953761735441],["Ma",-8.85472593232592],["vertelt",-8.856892515667372],["ce",-8.857597780381287],["gedrag",-8.85815455836515],["huizen",-8.859551997862734],["half",-8.860753212088994],["lucht",-8.861351784980881],["Duitsland",-8.86221847366365],["gebracht",-8.86463764396194],["zoek",-8.866649080103654],["gevallen",-8.870374585610104],["leuk",-8.87040088694809],["gen",-8.871234971080778],["sector",-8.871844233256223],["Russen",-8.872089514436524],["meter",-8.872295005521082],["ouders",-8.872315383671346],["On",-8.872434705802657],["klaar",-8.87375030031858],["zag",-8.874587505510274],["daarom",-8.876119887752832],["dollar",-8.878369444713304],["relatie",-8.878434374996907],["meld",-8.885363305927314],["halve",-8.88733418254111],["zelfde",-8.888537305187807],["partijen",-8.88877960541714],["meerdere",-8.889644031040213],["sociale",-8.89038980592803],["waarschijnlijk",-8.894963131278654],["China",-8.895003887867505],["voorzitter",-8.895596790092462],["spel",-8.896866471675],["finale",-8.898167732117047],["regio",-8.898940009088777],["hoeveel",-8.899056501816368],["The",-8.899087901716708],["belasting",-8.901675902890013],["Le",-8.901999909451382],["daarna",-8.902734658421606],["lever",-8.903485893637143],["grens",-8.90862761495425],["blij",-8.911396268433968],["40",-8.911991784226856],["gang",-8.912235691131663],["los",-8.912728801044606],["24",-8.912989320162065],["oplossing",-8.915040386957788],["Li",-8.915680025978068],["hart",-8.91620227285442],["aange",-8.916995992690167],["val",-8.921464591694704],["winst",-8.921713296251612],["klein",-8.922470520838141],["deur",-8.923076101796342],["2020",-8.92358043737011],["soms",-8.925526025406988],["lange",-8.926184107435674],["He",-8.92652721649933],["X",-8.928321514954106],["ën",-8.929886661561909],["inflatie",-8.932002070606888],["Ter",-8.932527650916867],["am",-8.932943902005103],["slechts",-8.933515803862264],["lijn",-8.934427743478716],["lid",-8.935057564747373],["vakantie",-8.935463680480954],["politiek",-8.935929825152432],["aard",-8.936470223639581],["bi",-8.939697209225898],["kilometer",-8.940335186472286],["ck",-8.941189455097323],["nou",-8.94165008008611],["Onder",-8.942813789472453],["oude",-8.943310428276341],["film",-8.945498485819085],["Toch",-8.946128897825433],["voel",-8.950057221874124],["stelt",-8.951301602396683],["13",-8.951303678121864],["Ka",-8.95506527545895],["moeilijk",-8.958293521398724],["steun",-8.958690454687327],["x",-8.95898434294628],["jonge",-8.967479718430122],["leef",-8.967602219371194],["horen",-8.9686145011827],["fiets",-8.968624016302211],["J",-8.970314724136518],["project",-8.970899801788454],["muziek",-8.970901754775925],["wijk",-8.97126409558959],["oog",-8.971540430850236],["toekomst",-8.972546229727579],["zin",-8.97317216784977],["dingen",-8.97351468103048],["duizend",-8.973558106946198],["ziekenhuis",-8.974096096520888],["vlucht",-8.975019719073222],["medewerker",-8.975026546452934],["VS",-8.97510593732132],["sterk",-8.975241543913718],["beide",-8.975379212781233],["gesloten",-8.976133222309318],["Kamer",-8.978006320862704],["niemand",-8.97932541306458],["ou",-8.979679086082868],["gemiddeld",-8.98129065685337],["niveau",-8.981731306555215],["Groningen",-8.981731421923733],["Over",-8.983736333853496],["minuten",-8.98537027113035],["reactie",-8.985652711306575],["Co",-8.985874291259712],["sta",-8.987469172868925],["vroeg",-8.988339724715349],["14",-8.990832765547204],["lijst",-8.994685554772088],["nummer",-8.994967082316823],["inder",-8.996171283549181],["aanwezig",-8.99635992558245],["anderen",-8.998008882257086],["gevoel",-8.998197966445058],["planne",-8.998964365103733],["Verenigd",-9.000082296965417],["Duitse",-9.002540718518485],["€",-9.003748879470493],["mooie",-9.005003142172786],["Mo",-9.00573143684507],["buurt",-9.005854478608544],["rust",-9.009475724587432],["vervolgen",-9.009961128344639],["loos",-9.010060464574789],["kost",-9.010140625752861],["dezelfde",-9.01114910597623],["elk",-9.012585470280209],["lezen",-9.014356057249106],["mens",-9.017131902902147],["Jan",-9.018979909595195],["dacht",-9.02005122864401],["betrokken",-9.020063043414346],["bleek",-9.020136878343559],["test",-9.020548662605577],["Noord",-9.02127234385318],["po",-9.02130810151402],["liep",-9.021409653181351],["pakken",-9.02283495963627],["bijzonder",-9.023596620095237],["woon",-9.02561825994115],["helft",-9.026537701570394],["stroom",-9.026877635649473],["uren",-9.028517540482243],["woord",-9.028876552386263],["23",-9.029175153467818],["kind",-9.031219255784183],["won",-9.032050159452854],["kamer",-9.034876507735579],["aandacht",-9.035959042708699],["gesprok",-9.038303581740081],["weekend",-9.038357916336079],["schade",-9.041645539155297],["viel",-9.04232386910816],["ë",-9.044043077113496],["enkel",-9.044526409135901],["wachten",-9.045052137343365],["risico",-9.045423241442332],["sommige",-9.045424616268335],["mocht",-9.04542755881517],["functie",-9.049301347338222],["elijk",-9.050160890307907],["terecht",-9.051471895162548],["ro",-9.052959906841112],["up",-9.057232178337053],["Tot",-9.059458332670811],["gesprek",-9.059734545354452],["kond",-9.060481753415479],["band",-9.061845545698773],["gezegd",-9.062141020424496],["informatie",-9.063639294981492],["natuur",-9.06456174114255],["ulli",-9.065312461956143],["grad",-9.066101621426117],["verkiezing",-9.068491925596689],["winkel",-9.068680629430354],["België",-9.06892694843648],["januari",-9.072876470865294],["ële",-9.072979080492079],["gebeurt",-9.075200846492107],["woordvoerder",-9.076909201000664],["opge",-9.077475132443002],["leger",-9.079794041434841],["schap",-9.08277297716032],["wagen",-9.08911749180801],["denkt",-9.089229875597145],["wegen",-9.091354452261644],["eert",-9.09145888196359],["bal",-9.091919564156022],["FC",-9.09210599502481],["ca",-9.09253959336072],["begon",-9.092684590261051],["koers",-9.093624856507706],["bezoek",-9.094459816351966],["Ben",-9.095705711799695],["contract",-9.097024184622905],["verschil",-9.097026511980584],["dorp",-9.098334485574448],["wet",-9.09953037114529],["winnen",-9.099535237223325],["zwaar",-9.099720674942256],["handen",-9.100803878554755],["beelden",-9.10380626371784],["dank",-9.105118530572874],["kop",-9.10544621222368],["bak",-9.109814815823356],["crisis",-9.109817571934773],["pro",-9.110934677992233],["baan",-9.111284320591633],["trokken",-9.112401700810075],["juni",-9.113524348093023],["ag",-9.114883533457846],["ling",-9.115959853116905],["uitge",-9.116671267250222],["slecht",-9.121161465697433],["motor",-9.121868100072597],["beginnen",-9.12230046573341],["voorbij",-9.124382553965773],["wijl",-9.12465089836003],["ische",-9.124914550854609],["Zuid",-9.125952439394398],["race",-9.127056550767033],["verdachte",-9.127203639867766],["macht",-9.129723342959782],["zoeken",-9.129925547463165],["video",-9.130298690254863],["500",-9.13050128953659],["ronde",-9.13131147498029],["begint",-9.131434315630937],["strak",-9.132535527823233],["gesteld",-9.132668750679372],["speelt",-9.133545395713044],["kracht",-9.134141784913405],["Ca",-9.139054685038893],["wonen",-9.14041247715543],["rs",-9.144398558433071],["voldoende",-9.148452898686909],["slachtoffer",-9.148611256946255],["loop",-9.150806970365327],["verantwoordelijk",-9.151559986711408],["Veel",-9.152510892374481],["eindelijk",-9.153376820315035],["park",-9.154048147525629],["80",-9.154763805495367],["rente",-9.155064319040395],["Vlaams",-9.155738811066648],["gaf",-9.155942176013152],["mei",-9.156307666142721],["studenten",-9.158924315983064],["Sch",-9.15930898011316],["slot",-9.160026527092366],["Britse",-9.160261743597186],["Franse",-9.160312312946338],["zeg",-9.16073973679255],["spraak",-9.162885993518747],["Geen",-9.165031314397627],["positie",-9.165650824117957],["rit",-9.166844347693136],["laag",-9.170262257999045],["voorkomen",-9.170811918686503],["lager",-9.171348657707075],["locatie",-9.171398705212319],["ba",-9.17396199343142],["VVD",-9.174523639908278],["Pro",-9.175950995177665],["ci",-9.177725388450291],["korte",-9.179052430424218],["vertrouwen",-9.179606410594097],["post",-9.180440521579415],["Ra",-9.180623850185121],["bo",-9.180975672910254],["begrijp",-9.182459585100112],["online",-9.182510206932356],["gebeur",-9.182662890080538],["vlak",-9.18334288439269],["Alle",-9.18347385161682],["personeel",-9.184104997382061],["bedrag",-9.186557860942745],["belang",-9.190084432872442],["Net",-9.191018676743347],["spreken",-9.191549159976166],["publiek",-9.191904423184162],["personen",-9.193168875736413],["schrijft",-9.193198481686267],["Belgisch",-9.193346928015412],["reis",-9.19407462770786],["noem",-9.194105416040518],["contact",-9.194903568531638],["D66",-9.19512854671072],["politieke",-9.195758496668853],["duur",-9.19627884992044],["mi",-9.196557959198099],["klanten",-9.197771325505343],["straf",-9.198396127660263],["CO",-9.198409090235328],["ak",-9.199151584282966],["versie",-9.199542316508836],["september",-9.199896017697425],["echte",-9.200760756405106],["klink",-9.201012316279694],["zware",-9.201044608382604],["pa",-9.201823195774312],["trein",-9.202800308117526],["raad",-9.203124354068867],["legt",-9.203347718958025],["for",-9.204941951977773],["hoeft",-9.207191729943748],["leren",-9.208078502617767],["voeren",-9.20851085667565],["elektrisch",-9.208966364342805],["volk",-9.210725088748767],["afstand",-9.211589289952357],["last",-9.212082537662713],["St",-9.212992365890154],["kieze",-9.215107996564026],["vluchtelingen",-9.215672737759721],["Kan",-9.217144212222834],["ding",-9.218050310312051],["Sinds",-9.21813302213346],["stemmen",-9.218441690058995],["sche",-9.218758629370392],["vi",-9.219703842587961],["hoogte",-9.219951998422001],["omgeving",-9.220261229229898],["belangrijke",-9.220392239167694],["zeven",-9.221853287524924],["ri",-9.222389597201742],["premier",-9.223186121205906],["Alleen",-9.223309510218257],["ger",-9.224213325142491],["stappen",-9.224793256261458],["ebru",-9.225219357994616],["stikstof",-9.227358219690878],["voormalig",-9.22736857093594],["productie",-9.228182929187788],["verbod",-9.228307808435858],["antwoord",-9.233753827791382],["international",-9.234601308355767],["prima",-9.236115350532796],["zes",-9.23645293563801],["leiding",-9.236944606243528],["ontwikkeling",-9.2369946544264],["El",-9.23782311978448],["geweld",-9.238004956774509],["volle",-9.238112663902108],["bericht",-9.239282509332902],["winter",-9.240609901991288],["Boven",-9.241874206998077],["kerk",-9.242450915095949],["waarde",-9.24531251362139],["Ha",-9.246511738995416],["persoon",-9.247563650771523],["koop",-9.249341015492163],["fout",-9.249471027150259],["Haag",-9.249789186339163],["normaal",-9.25086697282348],["links",-9.251633978463179],["nam",-9.251834265824137],["bepaalde",-9.25251768946675],["trainer",-9.252920722905557],["wist",-9.253917023202625],["controle",-9.254342350254682],["Bo",-9.25499747820043],["rechtbank",-9.256236722191197],["ko",-9.256323515429907],["enorm",-9.257996446611518],["nood",-9.258137175172003],["rapport",-9.258432224970026],["berg",-9.258739362005443],["serie",-9.259226075450965],["leider",-9.260157483447012],["ministerie",-9.261990625412581],["onge",-9.263052817392662],["plaatsen",-9.263184238546813],["vele",-9.263370307062134],["Frankrijk",-9.265216719961266],["stoppen",-9.266764448287688],["stem",-9.267417717465012],["ijs",-9.269354301764093],["schrijven",-9.27001828610464],["economisch",-9.270020250375753],["geloof",-9.270020883039349],["liefst",-9.270409225487992],["diensten",-9.270535326962744],["PS",-9.2716349403989],["ru",-9.272917752262176],["pers",-9.273044436339642],["stil",-9.273161670289667],["doe",-9.273599396339652],["groei",-9.273999871479678],["keuze",-9.27465317337801],["ingen",-9.277790571648085],["bel",-9.278208704217326],["geschr",-9.278801834475388],["succes",-9.279276543771964],["twintig",-9.279752389236284],["hi",-9.280042544572549],["inwoners",-9.28190668539941],["Twitter",-9.284654725443822],["mening",-9.285574279811554],["jongeren",-9.286659628259203],["rie",-9.287579665239221],["bevolking",-9.288494937696987],["besluit",-9.28859068148055],["League",-9.289578556745766],["ktober",-9.28958482791155],["directeur",-9.289847586589127],["Heb",-9.290109677788971],["termijn",-9.29083878043906],["scherm",-9.291650876398556],["Ho",-9.292522911096773],["oor",-9.293332984613544],["liever",-9.293469247293205],["Ajax",-9.294529572978712],["maatschappij",-9.294582577174637],["spelers",-9.294609944498355],["Ga",-9.295431398138373],["jouw",-9.295578869715637],["35",-9.29658835152731],["stap",-9.297620974594171],["reed",-9.298266894919841],["proces",-9.299311743447149],["collega",-9.299504300853469],["camera",-9.299504691298326],["sluiten",-9.299645045896353],["Oost",-9.30203969271443],["kennen",-9.302479731691628],["Sa",-9.302523868104558],["platform",-9.304502662370599],["kwaliteit",-9.304504945408986],["politic",-9.304550630472644],["dochter",-9.304556519367564],["betref",-9.304834167853743],["persoonlijk",-9.305834297886122],["Nederlanders",-9.307571565968695],["kijk",-9.307679770595383],["feit",-9.308242067513998],["Misschie",-9.310567643655093],["tekort",-9.3112610804993],["melding",-9.313018694518483],["handel",-9.313356116524691],["Twee",-9.313688941941367],["middel",-9.315959436903384],["sprake",-9.317620434914115],["dragen",-9.317715620501325],["Brussel",-9.319309758168412],["dieren",-9.3209781582148],["zoon",-9.32491163477413],["Jo",-9.325285980717261],["70",-9.32552663097627],["Tijden",-9.326810776578775],["tafel",-9.327500928054189],["juli",-9.329888717278088],["Nog",-9.330665478274724],["producten",-9.331340720138474],["kaart",-9.333936318800777],["gratis",-9.335129761154388],["bloed",-9.335323280891313],["stel",-9.336589513297742],["les",-9.336655005298526],["ring",-9.340802096170341],["provincie",-9.340928585126616],["Staten",-9.342164295400227],["Ar",-9.34272936918537],["maat",-9.342928372458871],["lokale",-9.343039774828963],["bestaan",-9.343725163668724],["tuin",-9.344028260912967],["dra",-9.344502224285547],["economie",-9.345431051586992],["vel",-9.346495709884726],["artikel",-9.347637043848568],["Lu",-9.349936891460818],["draaien",-9.35020817101518],["uk",-9.350430288516533],["cultuur",-9.350673741149794],["geschiedenis",-9.35070878947381],["verlies",-9.351125901416902],["kijkt",-9.351982458219197],["enorme",-9.353162901644627],["taal",-9.353839546893031],["60",-9.355200272038012],["sprong",-9.35594225233264],["hield",-9.355943968770388],["zak",-9.358205778333424],["qua",-9.358213398775586],["Ri",-9.35895561489917],["hout",-9.359891605840879],["november",-9.361220276936091],["voertuig",-9.361245960862384],["titel",-9.361910203744383],["woorden",-9.36320616849275],["ny",-9.36321707361762],["name",-9.364778886856296],["jou",-9.367235679966925],["bouwen",-9.367362129728873],["lastig",-9.367590757447934],["gevraagd",-9.367897103768936],["gehaald",-9.36876925096005],["zorgt",-9.368805013172787],["NAV",-9.370359036076536],["dak",-9.371470823027593],["Mark",-9.371611787258683],["telefoon",-9.372860685184587],["speelde",-9.373308852380072],["wijzen",-9.373738557884185],["advies",-9.374933985483015],["verlo",-9.376624076043903],["toernooi",-9.377263426977137],["voorlopig",-9.377350742565302],["ov",-9.377732179309032],["krant",-9.377846981850482],["Verder",-9.378755017603517],["namen",-9.379862044404891],["sturen",-9.380208916498912],["sloot",-9.380497627611092],["model",-9.383069594595913],["burger",-9.386097220100883],["merk",-9.388157694980208],["leiden",-9.388675259383476],["morgen",-9.389024110059427],["schuld",-9.390082784287568],["ol",-9.39190849573216],["lichaam",-9.393568047036988],["Trump",-9.393568505988409],["financië",-9.393585583397844],["verwachting",-9.39406326065112],["Nee",-9.39849800942587],["prob",-9.39884983045425],["sprak",-9.398902210319683],["Chine",-9.399520688652553],["verandering",-9.399915169736627],["geldt",-9.400146922194557],["burgers",-9.40302716489009],["drugs",-9.403173818623717],["opvang",-9.404462397823263],["hof",-9.404522133224592],["geraakt",-9.405980445844104],["kozen",-9.406125877445998],["eerde",-9.406367945692898],["Mar",-9.409233654648204],["27",-9.410328736675368],["feest",-9.41037875724961],["Antwerpen",-9.410958527711554],["vrienden",-9.411086575916126],["aanval",-9.412168837102481],["kunst",-9.41244758246522],["90",-9.413153244472005],["verdacht",-9.416442809838752],["wapen",-9.416514869870113],["gingen",-9.417190584304635],["él",-9.41852463075422],["noemen",-9.420032275907863],["leeftijd",-9.420945207788408],["militaire",-9.421419189576504],["overigen",-9.423935156350868],["veiligheid",-9.426385743698553],["Mensen",-9.427537035526932],["Wil",-9.428231538842727],["ervaring",-9.429208775987796],["sneller",-9.429563553388892],["vrije",-9.432020115858748],["ry",-9.432859883294665],["duel",-9.434351228502205],["West",-9.43594526196298],["loze",-9.436074184821745],["makkelijk",-9.438202379169592],["april",-9.438394670309817],["dagelijks",-9.438423076726856],["eken",-9.438933288865275],["28",-9.439717651229738],["gezin",-9.440477744045175],["verkoop",-9.440751809398737],["anti",-9.44231909788382],["ber",-9.442563764350684],["bus",-9.442891481369838],["tegenover",-9.443327984890253],["iPhone",-9.44414047346316],["ugust",-9.444141209455097],["burgemeester",-9.447093418594584],["agent",-9.447093474819848],["vriend",-9.448900874047098],["veilig",-9.449082438699172],["jeugd",-9.449699744957023],["OS",-9.449845224726054],["december",-9.44992082998624],["website",-9.449935489116552],["praten",-9.450090920452505],["samenwerking",-9.450126951806828],["slachtoffers",-9.45374156840079],["sloten",-9.455101680939794],["volgend",-9.455313062395216],["26",-9.456940629387141],["waard",-9.457573563172414],["kent",-9.457594423836305],["verkocht",-9.46215624990866],["bestuur",-9.462364167979313],["lag",-9.463503255557395],["Open",-9.4653131655727],["Ju",-9.466217223992558],["erd",-9.466901416371996],["kwartaal",-9.467511533753926],["Lo",-9.470989401316864],["moord",-9.471302350308218],["rijk",-9.471575317637043],["ot",-9.473109777218804],["kennis",-9.473945934260547],["roepen",-9.474005376730249],["midden",-9.474710191889898],["rug",-9.475254148200385],["verkeer",-9.475503418631067],["keren",-9.475959817528222],["hangen",-9.479238624328978],["heet",-9.47939494544584],["invloed",-9.481255954797929],["ion",-9.481619159945243],["vo",-9.48165584185638],["Max",-9.482963964605954],["ijn",-9.48489310946031],["+",-9.485322644020712],["milieu",-9.485322875538909],["beschikbaar",-9.485387233836573],["Verstappen",-9.485659294692567],["ziekte",-9.488371693292457],["kamp",-9.489131011822595],["Hu",-9.489422636398869],["ff",-9.489866902222081],["sanctie",-9.491348347191677],["slaan",-9.49175493933413],["getroffen",-9.49419931692254],["gewon",-9.494676662007643],["vermogen",-9.495847910920968],["pandemie",-9.49741255403979],["red",-9.49779441669818],["45",-9.498838758234779],["NL",-9.499450674967228],["Tweede",-9.500304461214084],["Nou",-9.500682569603946],["elijke",-9.500926263914584],["verleden",-9.501978213659054],["orde",-9.503097416391778],["fijn",-9.503178972835562],["Q",-9.505959304834608],["industrie",-9.506121933538228],["warm",-9.508508053679588],["Rotterdam",-9.509212158197169],["haven",-9.509596157504117],["â",-9.509639876767626],["mond",-9.510442296774364],["overleden",-9.5106346754766],["mede",-9.512522958797636],["bond",-9.512744153208471],["bewust",-9.51296391686492],["verkopen",-9.51311469366501],["com",-9.51336057974358],["vliegtuig",-9.515250280138428],["gel",-9.519651062262685],["samenleving",-9.522096339565982],["eeuw",-9.522697981488555],["schoten",-9.523696602766009],["angst",-9.525281108510313],["liefde",-9.526915913657357],["gebouw",-9.527705596448719],["brief",-9.528024986518613],["virus",-9.528038672318598],["tijdelijk",-9.528273915793655],["beslissing",-9.52827732025943],["stijgen",-9.528383985235617],["tip",-9.528599386793474],["ment",-9.528973828666857],["voelen",-9.530295141146484],["tie",-9.530399944170629],["gewerkt",-9.530652892924106],["snelheid",-9.531841693933757],["Utrecht",-9.534317631490016],["expert",-9.534416467219746],["sluit",-9.535463216992914],["onderzoeker",-9.535472664207266],["Onze",-9.535661251441262],["centrale",-9.535767482978434],["actief",-9.536374793439263],["immers",-9.53764921701158],["ieso",-9.538266755159274],["gegevens",-9.539358956287943],["akkoord",-9.54088609104192],["coach",-9.541219439641768],["bar",-9.541861416624286],["con",-9.54260378581194],["hoek",-9.544131672067131],["bewoners",-9.545749311005395],["werkelijk",-9.545952990652601],["Pas",-9.546012647675532],["tegenwoordig",-9.546194800922995],["begonnen",-9.547751166270471],["bed",-9.547857661036447],["kleur",-9.548412719918801],["poging",-9.548840911153546],["plekke",-9.549010074495833],["gelegd",-9.549969193418328],["brandweer",-9.550326033739818],["wezen",-9.55129369455058],["volgt",-9.551353076417067],["wapens",-9.551356224741312],["allerle",-9.55384809222452],["belangrijkst",-9.555121571798557],["stijging",-9.555769118619482],["maak",-9.556401413828327],["merken",-9.55685799537891],["gezicht",-9.556946036436003],["ondank",-9.558203246559831],["genoot",-9.558624594127306],["pijn",-9.55934018904357],["passen",-9.560837193653857],["generatie",-9.56162641343374],["omzet",-9.56163818962525],["draagt",-9.561640375332328],["twijfel",-9.563811723888431],["Te",-9.565505929125056],["gelukkig",-9.566467382117894],["organisaties",-9.567016731729883],["cel",-9.567780353862286],["patiënten",-9.568506109322094],["asielzoekers",-9.568931768704054],["maxima",-9.56899522529313],["Tour",-9.569083093337484],["gericht",-9.569517224557796],["vierde",-9.57285596373644],["ham",-9.573133427779172],["kwijt",-9.57327316541435],["wacht",-9.574216127368938],["OM",-9.574229935635667],["Eerder",-9.574353021865385],["raakte",-9.574955569197623],["pot",-9.57515734003609],["gebeurde",-9.576279200605107],["trouw",-9.57672577868928],["fans",-9.577163317829541],["werknemers",-9.577382186916795],["eigenaar",-9.57808556694891],["boom",-9.578708052798664],["trouwens",-9.578832974476143],["aal",-9.579488321498388],["incident",-9.579696189070662],["Naast",-9.57975866515168],["verklaring",-9.580428359480791],["duren",-9.582349701733438],["vroeger",-9.582364406062226],["groeien",-9.582425294604942],["wijze",-9.583494000546843],["ly",-9.585027155600162],["hoogste",-9.585974601628019],["interview",-9.586354532863567],["Vlaanderen",-9.58635507590147],["kritiek",-9.586355084349481],["Vorig",-9.586380567810885],["show",-9.586382195712412],["type",-9.587393977075205],["massa",-9.58777023774811],["vertelle",-9.587800123137754],["Kie",-9.588610012146702],["trekt",-9.589437689139807],["iteit",-9.592102260070641],["record",-9.592631725627317],["Oranje",-9.593023000373794],["verbruik",-9.593023497924678],["plein",-9.593449621893773],["duurder",-9.593755566867173],["wereldwijd",-9.59495860411253],["vuur",-9.595823845853271],["Pa",-9.596856785727544],["eerlijk",-9.597505688898828],["berichten",-9.598266277351645],["variant",-9.599733561450737],["commissie",-9.599768449903408],["bracht",-9.599845962478305],["populair",-9.599856834716737],["gewond",-9.600672652255255],["positief",-9.601799388036664],["code",-9.602487907076572],["Berg",-9.60400074144024],["afhankelijk",-9.605287960968898],["car",-9.60584073978239],["tekst",-9.606670612670285],["aandeel",-9.60878222203446],["vervoer",-9.609610412001645],["vrijheid",-9.609889760269187],["Du",-9.612870369950578],["overwinning",-9.614310038227831],["rustig",-9.615011621596292],["arm",-9.615392009886236],["stelling",-9.61566119790512],["probeer",-9.617879526445517],["Iedereen",-9.619009356672732],["cent",-9.619628333072423],["negen",-9.620327487095139],["vraagt",-9.621760756535924],["speler",-9.621803068245256],["New",-9.62206785713918],["raden",-9.622273437738544],["ok",-9.6231623374654],["wild",-9.624695532959027],["voet",-9.625926092735401],["kwestie",-9.627038539129325],["29",-9.627439215762784],["kel",-9.627513374768366],["boete",-9.628367432725401],["bang",-9.628440105850425],["hal",-9.62851454797841],["raken",-9.628702509504887],["vertelde",-9.63082850403028],["komst",-9.630846848357216],["leek",-9.634480947877096],["mon",-9.635037590861735],["bewijs",-9.635062335507081],["pre",-9.63565421598723],["terrein",-9.636092243289596],["leid",-9.637607776754521],["gewone",-9.638164062246851],["aller",-9.639267407428335],["bestaande",-9.639768613643476],["wa",-9.640636600592511],["sow",-9.640760697590164],["vaccin",-9.640777484056349],["pensioen",-9.640924188216761],["omstandighe",-9.642996042230603],["netwerk",-9.643186008595606],["Ko",-9.644176380407986],["baas",-9.646725890655468],["schakel",-9.647641820213764],["blauw",-9.6480983641319],["super",-9.648309459191998],["air",-9.649116120831799],["bord",-9.64914716104807],["gebeurd",-9.649583333274094],["optie",-9.650832157722022],["overal",-9.65104333141797],["loon",-9.651503478355004],["rode",-9.651623178859483],["res",-9.651742504780461],["leed",-9.652169910378351],["treden",-9.65220876358851],["national",-9.653999304809076],["TV",-9.654109705664318],["aandelen",-9.654413942142705],["simpel",-9.65462137330301],["Frans",-9.654759785576228],["fabriek",-9.655109857244508],["Zaken",-9.655381573887972],["vergeten",-9.655584818502877],["onderwijs",-9.65589194479979],["beroep",-9.658228161919943],["buitenland",-9.661252599030673],["Nederlander",-9.661562560439343],["Unie",-9.662317409517712],["Biden",-9.662597880121314],["schree",-9.663287629371613],["bezoekers",-9.663385102263629],["ker",-9.663701395449802],["beurs",-9.664844435130604],["75",-9.665244608658124],["ziek",-9.665849116741862],["Vooral",-9.666012705454488],["og",-9.667439986699021],["levert",-9.668706357944227],["betaald",-9.66905222530335],["beweging",-9.669520615293862],["behoorlijk",-9.669608682410942],["du",-9.669811407675748],["Suriname",-9.670417874616206],["wit",-9.670560849467627],["spreekt",-9.672584460408036],["advoca",-9.676061056488937],["diep",-9.676382876304949],["eisen",-9.676539236911587],["jaarlijks",-9.676788972317873],["protest",-9.676955414481656],["Red",-9.678314590165485],["veranderen",-9.679929620601579],["doden",-9.680050523603395],["pel",-9.681133289250347],["ongeluk",-9.681752534762275],["Doe",-9.681796449055895],["definitie",-9.683992946868056],["Kaag",-9.6842128022369],["selectie",-9.684301956644699],["regelmatig",-9.684494548666631],["Daarna",-9.685488255710972],["gisteren",-9.687595279642874],["fase",-9.688121275906092],["iek",-9.689086637045754],["lijken",-9.689514353019746],["moeite",-9.691353046495173],["Ne",-9.693453402333878],["waarden",-9.693957421318368],["steken",-9.69480729049367],["Zelfs",-9.696671218498365],["kern",-9.69705084015309],["pad",-9.69729898314857],["Mi",-9.697351629142265],["algemeen",-9.698150679289208],["meerderheid",-9.698770984261321],["steden",-9.699481533675907],["landse",-9.699571631973566],["groen",-9.699854716338306],["studie",-9.700040790895077],["gebruikers",-9.70048314914046],["witte",-9.7027166152535],["Sint",-9.702807504525488],["zette",-9.704266048374308],["leeg",-9.705849889507881],["kampioen",-9.706931402841601],["festival",-9.709332646666859],["levens",-9.709816655728183],["hopen",-9.711030694906752],["out",-9.711935931019886],["rem",-9.711942658142206],["teken",-9.71313464913134],["boeken",-9.713778874751082],["gevaar",-9.714909412825401],["mail",-9.715453639418676],["pand",-9.715635357343487],["Si",-9.716166823128667],["bestuurder",-9.717019725454438],["brug",-9.719850728515542],["reeks",-9.720980297131625],["vers",-9.721251896457904],["Feyenoord",-9.721310195516029],["Air",-9.721645362732167],["genoemd",-9.721923021535552],["vlees",-9.722052985258628],["dergelijk",-9.722234235690225],["So",-9.7227521063704],["tig",-9.722835783466156],["gebrek",-9.722895924364483],["bureau",-9.728698852425028],["Wa",-9.729174054449235],["uwelijks",-9.729294123781834],["operatie",-9.729353555016473],["Rob",-9.7298713670077],["daarvan",-9.730050128296845],["che",-9.730537395814263],["voren",-9.73135820785346],["gebouwd",-9.732285734793514],["zwart",-9.732601934786691],["hoeven",-9.732891041250875],["tank",-9.73321077278811],["lees",-9.733766497272672],["diverse",-9.735417740565236],["verliezen",-9.736636252829065],["Google",-9.736637762276251],["wijn",-9.737472901736687],["Zou",-9.737477563790575],["goud",-9.73772340063553],["Da",-9.739057012870195],["vereniging",-9.739393136839428],["handig",-9.740798260800197],["ontstaan",-9.741226983741601],["huur",-9.741551896513961],["wijst",-9.741824244276081],["middelen",-9.742410597050167],["stelde",-9.744014827229853],["gespeeld",-9.744250992486807],["militair",-9.744289046157231],["betaal",-9.744379494339103],["podium",-9.744388567315143],["verhalen",-9.744958687842175],["Wanne",-9.745064562747634],["temperatuur",-9.745077558941226],["stof",-9.745375429394693],["Even",-9.746804596182091],["deels",-9.747562033467489],["training",-9.748256635950007],["geleverd",-9.748543744780456],["haalt",-9.75009390821402],["stop",-9.75143797650652],["helpt",-9.75223711915972],["bereid",-9.752366163225648],["Sport",-9.753126779960375],["tegelijk",-9.753239354132758],["bepaald",-9.753753312673682],["schot",-9.753849715824309],["bu",-9.754359855589536],["Ta",-9.756083546062772],["rand",-9.758039522778688],["Afrika",-9.758051806267698],["vormen",-9.758288874674712],["hotel",-9.75927476863459],["ontvangen",-9.759309086740085],["geboren",-9.760370471780766],["afdeling",-9.760478617612128],["dy",-9.760603314167827],["hoef",-9.761769285951871],["Vandaa",-9.7629877062659],["speel",-9.763021648689604],["effect",-9.763291360052424],["Go",-9.764032321189667],["gelaten",-9.764295086680583],["optreden",-9.764534345822266],["site",-9.765435854613473],["geplaatst",-9.766483876958963],["dader",-9.767029440237916],["omhoog",-9.767833453762677],["technologie",-9.76801114822004],["twaalf",-9.768011160446179],["kantoor",-9.76841663890738],["Willem",-9.768641531779235],["internet",-9.769813170258058],["dam",-9.77037062034372],["zege",-9.770949611092075],["Jong",-9.772590617451716],["betere",-9.773121928165335],["voer",-9.773325406241128],["hoopt",-9.773733761456914],["spoor",-9.774234859356257],["lui",-9.774548664263497],["elukkig",-9.774687901406892],["laas",-9.774821955227054],["rijdt",-9.774987552932828],["route",-9.775149315996938],["voedsel",-9.775540224300162],["broek",-9.776084855876798],["kleding",-9.776187863015407],["Kijk",-9.776220339939488],["Do",-9.77698489682085],["and",-9.778499425507558],["bos",-9.77954650746579],["hu",-9.781846221585086],["stemming",-9.782576245088995],["Qatar",-9.784076667749062],["veroorzaakt",-9.784168732653859],["geloven",-9.784184565437155],["letter",-9.784852517405673],["Europees",-9.785491258174593],["meisje",-9.785532499541777],["jongen",-9.78572584174777],["Meer",-9.786080704438836],["Denk",-9.787604184610434],["isch",-9.787698549375694],["logisch",-9.788687722498958],["afscheid",-9.7903111891974],["stal",-9.790614455935458],["campagne",-9.792205649866215],["standaard",-9.792630310882178],["prachtig",-9.793155425205796],["verdienen",-9.794130476684888],["discussie",-9.796463748480463],["lijke",-9.796764133172356],["trap",-9.79793686319352],["John",-9.800289021145897],["Schiphol",-9.80040240348788],["asiel",-9.800410299800955],["Musk",-9.800436118901668],["klopt",-9.800526302359849],["cor",-9.80065266483626],["Spanj",-9.800727589711965],["bot",-9.801104576215666],["zagen",-9.801237798495166],["vis",-9.801553185959019],["raakt",-9.80170905748654],["gestuurd",-9.802502307263149],["bier",-9.803617174665074],["troepen",-9.805474620536524],["ap",-9.805502982779998],["regeling",-9.805505880222986],["voordeel",-9.806576631092478],["verschijn",-9.806626096630495],["carrière",-9.80866683398475],["horeca",-9.808668183583256],["scholen",-9.808706731420282],["gar",-9.810289640827534],["beurt",-9.810365347335063],["hond",-9.810760388998482],["debat",-9.812015213895013],["winnaar",-9.813921384331083],["comple",-9.81407208638832],["past",-9.81468291206986],["geheel",-9.81598912303324],["helaa",-9.816162547970334],["museum",-9.817000242489314],["papier",-9.817020388041604],["Zeker",-9.818440473707678],["Lat",-9.818677141755145],["hangt",-9.818841044680571],["klachten",-9.81961793471499],["zwarte",-9.821408665673438],["product",-9.821541644692894],["ley",-9.821959525351481],["resultaa",-9.825403540291157],["budget",-9.825403769096264],["pakket",-9.825406465651362],["college",-9.825420388108128],["zone",-9.82604781081411],["Som",-9.826310251027767],["Bu",-9.826888733321178],["bedoeld",-9.826891075015666],["Gent",-9.827124921916193],["minste",-9.828710817377758],["kerst",-9.829020296031263],["Haar",-9.82959154997635],["Her",-9.829931210955579],["veiligheids",-9.83001265988702],["jongens",-9.830340702673926],["klap",-9.830757508071471],["schoon",-9.831211539643869],["staats",-9.831289430691104],["bekende",-9.831607161627527],["melden",-9.831762403225158],["Cor",-9.8320585920416],["offici",-9.832135666042694],["ator",-9.832446871580007],["vliegen",-9.832801348893774],["schieten",-9.833482094704191],["geweldig",-9.833680982510824],["geluid",-9.833959650315737],["Man",-9.834638843691273],["serieus",-9.834757184207154],["Kom",-9.834764119135833],["uitstoot",-9.834933687158848],["opleiding",-9.835967451657465],["apps",-9.838941760405808],["modellen",-9.839488047630237],["update",-9.840017273000099],["ingezet",-9.840078028935267],["tor",-9.840125345425996],["pak",-9.840277606469536],["fa",-9.840509898088378],["Y",-9.841383942979643],["sterke",-9.84217183763395],["Car",-9.84229781736039],["etc",-9.842557493198322],["Polen",-9.842637372541764],["eur",-9.842668000175301],["autoriteit",-9.84273714635113],["waarvan",-9.842991708192287],["laden",-9.843070582106648],["33",-9.844888077790424],["lage",-9.846351086256622],["mate",-9.847312636025828],["gehoord",-9.847635330923321],["partner",-9.848248618594326],["stijds",-9.848633679477864],["VV",-9.848971880816427],["blad",-9.849426311832165],["ester",-9.85021970528857],["Sommige",-9.851047361070048],["competitie",-9.851058590066394],["baby",-9.851117854442302],["Binnen",-9.851428180496704],["onderwerp",-9.851752083889387],["son",-9.851772263077725],["ium",-9.85274337815466],["opdracht",-9.853758067793803],["arts",-9.854253218354884],["Tesl",-9.854631882148606],["pelijk",-9.856446702750505],["act",-9.857545349486802],["ica",-9.85838875107249],["Parijs",-9.859832046577495],["brandstof",-9.85989446672395],["sfeer",-9.859921734816783],["slapen",-9.860134027588142],["trots",-9.860252313766203],["digital",-9.860655216141161],["eenvoudig",-9.861118062519658],["activiteiten",-9.861305241523898],["liter",-9.862869900732871],["broer",-9.86531320873923],["banken",-9.866721044323599],["Paul",-9.867452339839499],["groene",-9.867618019710847],["wens",-9.867955550350711],["Laat",-9.868011100017085],["resultaten",-9.868513385176024],["plezier",-9.868513416816775],["concert",-9.868513496369443],["grenzen",-9.868515389520105],["spits",-9.86882617942338],["pr",-9.86924875238795],["port",-9.870192329367207],["herstel",-9.870292961145253],["nek",-9.871234873559521],["voorzien",-9.8734334376102],["aat",-9.874247666283342],["ouder",-9.8752038617313],["verband",-9.875394286251392],["gooien",-9.87618133112671],["vergunning",-9.877011201746972],["Mercedes",-9.877363019766506],["praktijk",-9.87736311051582],["invasie",-9.87736353620831],["impact",-9.877385727358135],["kapot",-9.8777013643894],["talië",-9.878140931715631],["blik",-9.878770902184757],["Groen",-9.879064804720084],["beperkt",-9.879253209301758],["noord",-9.880403370011177],["speciale",-9.880707983066507],["verplicht",-9.881178266560376],["32",-9.881260053381956],["US",-9.881434422987905],["bekijk",-9.882396754867036],["Grote",-9.882785566417963],["elf",-9.88292578144922],["Ba",-9.884087071559719],["igheid",-9.884575488808176],["za",-9.884910341297395],["koffie",-9.886292920501813],["PvdA",-9.88637932933611],["bescherming",-9.886624537734662],["schepen",-9.88686641680802],["droom",-9.887630204540432],["Kort",-9.888052730728496],["aangekondigd",-9.88809912067886],["eventue",-9.888269480891516],["verkeers",-9.888503267569957],["aanbod",-9.889378292714088],["station",-9.889523080457453],["genieten",-9.893408593737238],["minuut",-9.895301466759767],["deelnemers",-9.895306806830153],["supermarkt",-9.895587181806599],["versch",-9.895685667074963],["dertig",-9.895908026984298],["investering",-9.896214220669549],["verzoek",-9.8967201162676],["aarde",-9.896799051016306],["toont",-9.898109530752006],["kers",-9.898926475160781],["geschikt",-9.898999650662336],["bedrijfs",-9.900292012287636],["consumenten",-9.90100205457254],["Peter",-9.901194382921533],["eeft",-9.902087996496482],["vervangen",-9.902550558742885],["doorgaan",-9.903940333911137],["trok",-9.904088822688259],["opzichte",-9.904579069942947],["filmpje",-9.90491396098845],["goedkoper",-9.905505937946035],["CDA",-9.906309120218834],["2014",-9.906498240621447],["hou",-9.906872675726305],["gast",-9.90775235834882],["EC",-9.908460360451247],["overleg",-9.908784057314342],["jarenlang",-9.909882590291673],["Amerika",-9.911634821757234],["geslag",-9.912049924877154],["koning",-9.912688649042638],["bevestig",-9.913119932949243],["conflict",-9.913565745035573],["tegenstander",-9.913671037484612],["loog",-9.913682670249012],["Euro",-9.913958314954368],["veroordeeld",-9.914195986605076],["31",-9.914350029302504],["daling",-9.915220729200634],["opvallend",-9.915511963362366],["Hoog",-9.915692390066189],["wetenschapper",-9.915886488582048],["mogelijke",-9.916065992595417],["openbaar",-9.916368280426141],["Bos",-9.917029472025902],["stukje",-9.917069611446536],["game",-9.917370760786739],["criminele",-9.917389456464015],["lor",-9.917795178281743],["Drie",-9.91809196103597],["gesteg",-9.91863621231745],["talent",-9.91913906830118],["Was",-9.91985503283845],["bomen",-9.921396207740983],["duurt",-9.921526343069631],["Mosk",-9.922003056318214],["fonds",-9.92215944875805],["99",-9.922326990734218],["kwart",-9.922612291728864],["kast",-9.922987395339142],["acties",-9.9231739248314],["Bank",-9.92366356514897],["total",-9.92399720857264],["ondernemers",-9.924996291804101],["roept",-9.925851529555647],["live",-9.927072521191004],["400",-9.929214073042978],["vriendin",-9.929983638683785],["pan",-9.930557957983146],["werkte",-9.931126246986777],["minima",-9.931300514557122],["combinatie",-9.932170805914229],["historisch",-9.932170859219282],["Eindhoven",-9.932186580637424],["uitkering",-9.932186695550715],["gesprekken",-9.933146047099527],["Wereld",-9.933466440381029],["dikke",-9.934338573643416],["koel",-9.934468177565623],["Nieuw",-9.937975111633797],["gereden",-9.938097134385426],["toegang",-9.94049257151574],["reizen",-9.941604838873248],["haalde",-9.941626322199454],["Putin",-9.94165714095027],["daadwerkelijk",-9.941829188868317],["lot",-9.941917863445546],["link",-9.941948041063604],["verzekering",-9.942026075948114],["brood",-9.942359969999355],["westers",-9.943557095914855],["centra",-9.943767801106905],["draait",-9.943900610777252],["nieuwd",-9.943933484848667],["God",-9.945211112522838],["term",-9.946223487472444],["Leiden",-9.948301446401231],["schip",-9.94834919749233],["stra",-9.948883922281153],["stoken",-9.949488587665853],["blessure",-9.951128574453268],["gezondheid",-9.95160319375347],["Di",-9.952158829603938],["stuur",-9.952777179885434],["geleid",-9.952810503932948],["tientallen",-9.952836161054456],["aanvallen",-9.952921099019468],["dig",-9.953714910777316],["danks",-9.953986994708679],["las",-9.954906424735785],["Samen",-9.955326429944128],["voorstel",-9.956208228837742],["geb",-9.956957216946808],["Mol",-9.957408121743395],["vergelijking",-9.960171030186647],["aak",-9.96129358950714],["fan",-9.961585039643087],["Oekraïner",-9.961806547899071],["Or",-9.962678309753718],["Po",-9.964325991860214],["300",-9.965654200349784],["oordeel",-9.965663004250306],["vertrekken",-9.966046575156838],["off",-9.966310694775675],["verbeter",-9.966352428397013],["burg",-9.967248069067566],["leg",-9.967403077532433],["sprint",-9.968467668941917],["eiland",-9.968674406411242],["36",-9.968677303984862],["golf",-9.969301564901867],["?”",-9.969446940639212],["extreem",-9.969782761208174],["respect",-9.970127259493198],["reageren",-9.97045271859225],["fractie",-9.970477053198081],["perfect",-9.970683064705668],["editie",-9.970971518874455],["schaal",-9.971101189514012],["feiten",-9.971170242178044],["redelijk",-9.971929212967956],["Ni",-9.972962578758434],["Sp",-9.973532009172857],["maker",-9.974826652979937],["gekocht",-9.974846601221856],["gevoerd",-9.97566286986369],["Alles",-9.976050534357816],["ach",-9.977269535164188],["hol",-9.977599200083132],["Holland",-9.978083224649982],["westen",-9.979181041910516],["Instagram",-9.980257021194394],["techniek",-9.9802572140072],["reclame",-9.980257261680727],["televisie",-9.980262557442558],["vaccinatie",-9.980532208477076],["City",-9.980570617767832],["behandeling",-9.980856554251961],["Gu",-9.980926499316555],["vuurwerk",-9.981022733043087],["pomp",-9.981452606328517],["EK",-9.981989945181935],["vertegenwoordig",-9.98240460202187],["ernstig",-9.982520896499476],["geluk",-9.983625861423288],["miljoenen",-9.983868743051355],["Moet",-9.984026754567186],["boer",-9.984175670664621],["waarschuw",-9.984689874931078],["drinken",-9.985314586648961],["Gi",-9.986752962413137],["lukt",-9.987057716536338],["Bal",-9.98732062371003],["ong",-9.99015431106201],["conclusie",-9.990157603699048],["dossier",-9.990168439511562],["Spaans",-9.990278387860517],["Echt",-9.99044976625221],["steeg",-9.990699349134172],["stadion",-9.990825456057603],["greep",-9.990906117906794],["199",-9.99116450292339],["gevangen",-9.993236038406184],["behoefte",-9.993605301224402],["ongeval",-9.995358468536129],["AM",-9.996134313635407],["rekenen",-9.996360514315576],["indruk",-9.99678459735771],["Tom",-9.997540133639482],["aanslag",-9.99763370056353],["krege",-9.99824862406232],["analyse",-10.000134599731064],["instantie",-10.000157931057613],["BMW",-10.000162179905152],["democratie",-10.000182005872368],["Italiaanse",-10.000258850295847],["Dank",-10.000466571258219],["gelegenheid",-10.000752341269846],["Par",-10.000941331812372],["Tr",-10.000965160988482],["scherp",-10.00100483663889],["inkomsten",-10.001022491545372],["Vi",-10.00127444289025],["Martin",-10.001314231517926],["Zelf",-10.003270155098864],["Gra",-10.005114862289265],["lon",-10.005192947761532],["roep",-10.00624497216],["Bi",-10.006726477303499],["knop",-10.00703840300509],["ies",-10.007256199917116],["bron",-10.00921735874453],["Rond",-10.009340509006197],["gevangenis",-10.00954297256579],["37",-10.009699978419643],["bol",-10.00995728888943],["besmetting",-10.010007298307064],["crypto",-10.010217119014165],["Formule",-10.010258618009594],["gezellig",-10.010258980145899],["machine",-10.01025957829842],["proef",-10.010314040594743],["aangifte",-10.01032043539023],["vaste",-10.010549952575754],["gewicht",-10.010692892591688],["testen",-10.011334704810452],["aflevering",-10.011716828485845],["mini",-10.012519485296597],["Spel",-10.012619333053962],["Buiten",-10.012685214950162],["aangepast",-10.012942188978858],["Overige",-10.01415819541811],["mir",-10.015010355954068],["Pi",-10.015063770693335],["klant",-10.015079777598],["reken",-10.015091615508108],["gra",-10.01629558640162],["werking",-10.016885262992094],["tas",-10.017823302135774],["banden",-10.018067485248132],["bek",-10.01884625199641],["Goed",-10.01944563723051],["privé",-10.02046274116545],["Facebook",-10.020463085310462],["misbruik",-10.020463158387914],["line",-10.020666068874714],["gerekend",-10.020762972491552],["fietsen",-10.021650271450863],["66",-10.021991998493117],["55",-10.022473207748721],["lachen",-10.023252942147927],["boos",-10.024384143038645],["isten",-10.02477652901007],["Naar",-10.024897833893093],["volks",-10.025016306176045],["kansen",-10.025610482437141],["ui",-10.025643704314211],["spulle",-10.025652853485415],["betaling",-10.02618854688163],["zetel",-10.026260165592154],["wend",-10.027125124685426],["verzet",-10.02773971007369],["Ol",-10.02808148694525],["Fi",-10.029823258853687],["gan",-10.030117393740817],["rood",-10.030292485638968],["prestatie",-10.030772927004321],["Groot",-10.030843571631129],["manager",-10.030938761934653],["luchthaven",-10.031010488042924],["huishouden",-10.031610289067537],["Limburg",-10.031648368381504],["ders",-10.03207983835321],["braak",-10.03283483218187],["ertijd",-10.032953579857123],["Fa",-10.033710151644827],["lek",-10.034780293438068],["aardig",-10.034949209230442],["groepen",-10.035204323517762],["errari",-10.035286401115123],["voorstellen",-10.035914718835013],["rot",-10.036491815241156],["dalen",-10.038052230663192],["vechten",-10.038077684886302],["gemakkelijk",-10.038201663185532],["vijftien",-10.038746341641662],["clusief",-10.03880396475605],["Mu",-10.039395826400177],["boot",-10.03941806364978],["rijke",-10.039642666305173],["aire",-10.040213637241077],["bodem",-10.041414650345779],["acteur",-10.04141879100981],["jammer",-10.041484577654387],["verdw",-10.041495170582762],["excuse",-10.041518715955048],["gat",-10.04201487907082],["gezond",-10.042731202747575],["leuke",-10.043017103004427],["Watch",-10.04314085549951],["amper",-10.043229281792442],["inzet",-10.043731286325379],["linkse",-10.04390675948618],["Har",-10.044975064065945],["klasse",-10.04499676714607],["snap",-10.045355752267515],["vrede",-10.045760809849726],["lat",-10.045788255468382],["spanning",-10.045870947940099],["voeg",-10.046359222750388],["rel",-10.04696469316599],["uiter",-10.04756096527256],["gemeenschap",-10.04758530278097],["38",-10.047589779128021],["fi",-10.047660773129323],["slechte",-10.047791570378223],["ramp",-10.04811873618715],["coalitie",-10.048276606203938],["tische",-10.0484469294226],["Bart",-10.04881461890973],["herinner",-10.048994138861683],["noemde",-10.049136189427504],["interessant",-10.050772678341112],["richten",-10.050775392744965],["sten",-10.050797918157219],["leidde",-10.05117923740048],["Johan",-10.051727109759842],["pleit",-10.051729544881251],["Beide",-10.052215636851656],["zekerheid",-10.052628076986768],["stijl",-10.052967621838533],["stukken",-10.053493679311323],["legde",-10.05520537225144],["BS",-10.055434944159565],["hersen",-10.055592918829204],["Had",-10.055667106437568],["Ten",-10.056881733118715],["har",-10.057002400588443],["kar",-10.057070597739571],["Afge",-10.057315445405132],["vertrek",-10.057603510007587],["wisten",-10.058390827067363],["beslag",-10.059452794577249],["levering",-10.059471594955964],["dijk",-10.059885847504908],["erger",-10.060948489867066],["breken",-10.061332115443738],["bereikt",-10.061856067813743],["Minister",-10.06189260433528],["duurzame",-10.06204635345798],["slagen",-10.06226574241525],["Raad",-10.06237357512641],["bereiken",-10.062533065198409],["jong",-10.062624665721025],["Su",-10.063064206402103],["lam",-10.06332961184987],["strand",-10.063558030314525],["bedoeling",-10.06365646034794],["Am",-10.064472842270394],["index",-10.065021095382148],["beleggers",-10.065532912267976],["dreig",-10.06607713034754],["praat",-10.067153537394006],["beslist",-10.068462271598996],["afval",-10.069707984126385],["gebrok",-10.069924117928602],["second",-10.070423298209397],["Za",-10.071800906222336],["Huis",-10.071885424092166],["pk",-10.072091761086366],["koppel",-10.0721508056372],["verre",-10.072815677015884],["Sta",-10.072943964522743],["slaap",-10.072966240615308],["universiteit",-10.07310594525179],["bepalen",-10.07311266461237],["bondscoach",-10.073219205895455],["vakbond",-10.073380238163761],["soldat",-10.073507513764447],["Fin",-10.073931933329582],["beschermen",-10.074384302321612],["Dam",-10.075520844980115],["Men",-10.075690443106307],["Ander",-10.075999823652602],["ich",-10.076052874637789],["lan",-10.07985798081928],["ron",-10.081307778398191],["buitenlands",-10.082630612946721],["landelijk",-10.082722902669511],["vaart",-10.082758077808052],["Mag",-10.082787144460926],["slim",-10.082813248949615],["fabrikant",-10.08329448132365],["pu",-10.08359582894104],["alcohol",-10.083976375504609],["focus",-10.083977158501227],["defensie",-10.083977158835054],["uitdaging",-10.084140650761242],["zichtbaar",-10.084144517000283],["seks",-10.08453820852461],["tellen",-10.085366375915267],["apart",-10.085413783904315],["Rijks",-10.085912952618923],["War",-10.08680463467607],["AD",-10.087920322673611],["IS",-10.088134236783322],["Kar",-10.088479377470128],["velen",-10.088776824733724],["schijn",-10.08982677785518],["leraar",-10.090786877409457],["leeft",-10.09103546986844],["storm",-10.093554187997892],["scenario",-10.094964525746061],["maatschappelijk",-10.09496453254118],["dwong",-10.09503347938469],["winkels",-10.095275156566682],["decennia",-10.095427179256765],["zieken",-10.096009931478829],["zakken",-10.096336477384813],["sterren",-10.097201230684849],["wijken",-10.099692837801244],["Ru",-10.100212398956451],["vreemd",-10.100566357591251],["ü",-10.100803867625057],["positieve",-10.101677004178002],["mans",-10.10242889811676],["welkom",-10.102789291271993],["NS",-10.103623121915712],["Bull",-10.104399266559039],["verspreid",-10.105178030924154],["è",-10.105250784869138],["system",-10.105847949163431],["ooi",-10.105872142594965],["Defensie",-10.10607569318707],["Oekraine",-10.106076031250144],["droeg",-10.106099633524696],["munt",-10.106100614501601],["vrachtwagen",-10.106109271261392],["gedacht",-10.106610775570234],["all",-10.107239409600389],["beland",-10.108001661145215],["Zie",-10.108366526791725],["minsten",-10.10949711839655],["blok",-10.110282804969824],["ering",-10.111014888526707],["complex",-10.112339009763065],["pakt",-10.112343894387518],["stoel",-10.115553104754916],["ya",-10.116629366308283],["wiel",-10.116920014884327],["$",-10.117311584656537],["Koninkrijk",-10.11731158474312],["account",-10.117311584789128],["argument",-10.117311587104952],["chauffeur",-10.11731159032416],["café",-10.117315049405992],["NPO",-10.117315156112653],["ontwerp",-10.11773188413626],["Commissie",-10.118361096632164],["para",-10.118375665482892],["eerdere",-10.118936330038137],["San",-10.119100414441975],["achtergrond",-10.11941710624859],["zorgde",-10.120189845987632],["luid",-10.120339989646379],["boel",-10.122203109222529],["afloop",-10.122214511684502],["handels",-10.123460047211433],["oproep",-10.124001569164857],["kap",-10.124549012184048],["ervaren",-10.125011785589262],["ware",-10.125901863566327],["vet",-10.12594447553602],["journalist",-10.126138187870485],["VA",-10.126444889712952],["Elke",-10.1278335367612],["volgde",-10.12814189617918],["boodschap",-10.128459852023651],["lockdown",-10.128675228984662],["Club",-10.128675247775153],["sleutel",-10.128675448333835],["software",-10.128675982493196],["Dijk",-10.128960715882215],["play",-10.128973563022022],["uniek",-10.128980258207319],["vijftig",-10.129043601878656],["kust",-10.129591318804145],["tuig",-10.129664743915981],["ban",-10.130864201494738],["elders",-10.130990293229926],["belangen",-10.131062014854319],["neus",-10.131210219511072],["zonne",-10.131330832446096],["est",-10.132176305871322],["ill",-10.132222271259248],["aanpak",-10.1328347036536],["Andr",-10.13320366513333],["uitgevoerd",-10.133468486992133],["150",-10.13361505329468],["duik",-10.133981176284765],["34",-10.135146514971922],["honden",-10.135301895183838],["SP",-10.136524818961195],["sluiting",-10.137665088938771],["LM",-10.137705406431756],["officie",-10.138159647717657],["sloeg",-10.138548019443167],["voelde",-10.138620198884624],["Bor",-10.138720791053979],["dubbel",-10.139013550819765],["tevreden",-10.139075072555059],["leiders",-10.139094502513421],["keten",-10.139594372500923],["Arnhem",-10.139842411847003],["principe",-10.140169473941523],["negatieve",-10.140169498164678],["theater",-10.14017578517058],["woke",-10.140215133444649],["leerlingen",-10.140216243853292],["Natuurlijk",-10.140265604719765],["toon",-10.140633583118507],["match",-10.140870215290285],["bijdrage",-10.141102963297666],["gelegen",-10.141544129676898],["vlag",-10.141914486037194],["alternatie",-10.141965644939658],["Anders",-10.142430227237963],["ineens",-10.143054541658238],["wethouder",-10.143207659950015],["diesel",-10.143209966958988],["breed",-10.14325474262339],["Joe",-10.144450325660856],["Londen",-10.144743868956411],["voorkeur",-10.145496358900512],["medische",-10.14573557508286],["durf",-10.147069111933337],["ram",-10.147075174161982],["kanker",-10.147877965145762],["Christ",-10.147950882576552],["verbinding",-10.1482626170776],["clubs",-10.14987154424901],["put",-10.151110182514408],["bit",-10.151548505764325],["capaciteit",-10.151797381594257],["beperking",-10.151799323245474],["ambitie",-10.151983386861817],["detail",-10.15212980960913],["Tegen",-10.152175159812991],["rechten",-10.152417058346025],["gevuld",-10.152691700045576],["onderhandeling",-10.154216776642414],["bb",-10.15440866207199],["ië",-10.154615608874195],["chip",-10.155020880808973],["oosten",-10.155222129455034],["gedragen",-10.155882563380489],["ski",-10.1600629397015],["onduidelijk",-10.160458089235021],["vrees",-10.160865268290483],["wint",-10.16186898238721],["Ass",-10.16222083869209],["opgepakt",-10.162288094278626],["lingen",-10.16288373964603],["beloof",-10.162885115331257],["zuiden",-10.163093458848458],["gebaseerd",-10.163635135570559],["adem",-10.164038097193128],["ruil",-10.164145694303654],["huwelijk",-10.164296671145994],["zolang",-10.164680501060765],["zulk",-10.164782362615567],["Manch",-10.16538136876844],["Hun",-10.165410039263875],["zul",-10.165540948435773],["gevaarlijk",-10.165889962105956],["raads",-10.16593515212547],["Maas",-10.16669916158133],["woont",-10.16676037367677],["Heel",-10.168175613692352],["voldoen",-10.168552107458758],["ier",-10.169444963535472],["vergelijk",-10.170062452662464],["pil",-10.171625224049532],["nië",-10.172602895619429],["und",-10.172625654774057],["cho",-10.173598021927681],["stijg",-10.173791800431946],["sociaal",-10.175466878578966],["Jumbo",-10.17550962348243],["Antwerpse",-10.175746819753613],["vrijwilligers",-10.175989929324011],["Ministerie",-10.176027672971355],["vermoedelijk",-10.176347418262512],["thema",-10.177569161442722],["Nieuwe",-10.178253802669678],["haal",-10.178363583695424],["mar",-10.178584950877518],["stads",-10.178613301379537],["65",-10.178939633519036],["gezondheids",-10.180108212750904],["toren",-10.180736275574986],["telt",-10.181677675664634],["getuigen",-10.183041018438498],["Westen",-10.183345094128947],["gepakt",-10.183382272625773],["schappen",-10.183712038190942],["verdwijnen",-10.18395388225807],["draai",-10.184525900392734],["verloo",-10.18568780639043],["NA",-10.185852870774447],["zaal",-10.186236262065087],["probeerd",-10.187135748315356],["iet",-10.187203338939288],["richt",-10.187466992334734],["materiaal",-10.187515192838568],["coureur",-10.187515635326879],["begrip",-10.187517506995334],["automatisch",-10.187517508367783],["Baudet",-10.187615656181721],["spiegel",-10.187627793326325],["bezit",-10.188070113771033],["onderzocht",-10.188866651282748],["kilo",-10.18921716281648],["starten",-10.189309926305874],["subsidie",-10.189572866176807],["paard",-10.189887261128241],["schiet",-10.190044157712446],["Ti",-10.19081740556771],["oudere",-10.19137717146496],["dia",-10.191810621285342],["Ros",-10.192939695257671],["onderhoud",-10.194092912884805],["gepland",-10.194529036139869],["bedoel",-10.195979221446901],["geland",-10.196073328351764],["plaatsvind",-10.19637247919814],["nauw",-10.196425653483528],["verander",-10.196647008534086],["lijden",-10.196751333861037],["gele",-10.19834778038171],["riep",-10.198929865723258],["armoede",-10.199698685565338],["stichting",-10.199710171152628],["financieel",-10.199710270401624],["keuken",-10.199712949072236],["York",-10.19971324722871],["€™",-10.19971549691152],["vloer",-10.199743081052326],["culture",-10.199743647958904],["verhogen",-10.199787174464433],["luxe",-10.199843504499494],["kies",-10.199852160384633],["ick",-10.200344427390448],["voeding",-10.200573664657092],["Brugge",-10.200989577279577],["zus",-10.20113088064645],["drukken",-10.201246142274059],["voetballer",-10.2012555612677],["gemeld",-10.201275663510991],["achterstand",-10.20203774261898],["ontvang",-10.20216069720812],["bad",-10.20234416844471],["ell",-10.2026219279475],["EV",-10.202733543689103],["verkeerde",-10.202839083072979],["Live",-10.203108292122195],["oorlogs",-10.20314710157015],["hel",-10.203565398168754],["Lang",-10.204180447679402],["houd",-10.204260408508308],["plant",-10.204527841110473],["eek",-10.204682108573474],["wer",-10.205471641609904],["NV",-10.206279449034739],["kie",-10.206586343026338],["kleuren",-10.207189201655389],["Mac",-10.2076512444181],["Rome",-10.207933737095956],["teams",-10.208869574562833],["bra",-10.209520645118822],["zacht",-10.21018045041067],["status",-10.211191483803457],["tak",-10.211230408570097],["To",-10.211324334479368],["zocht",-10.211337091610968],["veranderd",-10.21136119797141],["AS",-10.211372667135116],["fraude",-10.212057284998014],["procedure",-10.212059869108693],["Gelderland",-10.212060657925447],["transport",-10.212079260729809],["benzine",-10.212092379750171],["front",-10.212111095358077],["écht",-10.21214360233509],["lie",-10.212181558583948],["Hamil",-10.212216314587945],["bon",-10.212548569913588],["leer",-10.212770925354647],["openbare",-10.213965302684144],["piek",-10.214076647542722],["reizigers",-10.214221935882813],["Pri",-10.214521651465585],["snelweg",-10.215174167528561],["sters",-10.215587664986412],["buren",-10.215773556784644],["verdediger",-10.21663387746657],["tro",-10.216735618128148],["Ach",-10.216855858099882],["gif",-10.21691743983321],["landbouw",-10.218465279991774],["pol",-10.219616272699323],["lossen",-10.219672546329246],["lichting",-10.220249654074081],["ard",-10.22056679545739],["ontdekt",-10.221383138557577],["varen",-10.221693338018447],["BB",-10.222738998722857],["trek",-10.222872008864872],["gevecht",-10.224058655662096],["eentje",-10.224075843560055],["alarm",-10.224137148947474],["schaats",-10.224561063353356],["communicatie",-10.224658415158915],["Frank",-10.224681187577147],["comment",-10.224717335601843],["Robert",-10.225133948334946],["beschikk",-10.225330700946337],["geregeld",-10.225357267552836],["gaten",-10.22595320178422],["georganiseerd",-10.22597410625669],["EN",-10.226027857178956],["gedeeld",-10.226552139737628],["log",-10.22679573626967],["geving",-10.227992622695394],["melk",-10.228034031392783],["daalde",-10.22893974861283],["glas",-10.229410142397676],["plaatse",-10.22946833932093],["vlieg",-10.229836900423463],["meldde",-10.230210176330292],["II",-10.231185727477293],["harde",-10.232725043019702],["publieke",-10.232871420526411],["snelle",-10.233184998329335],["Col",-10.23320893457505],["39",-10.233707780667054],["zame",-10.235076272633295],["ö",-10.2359414607803],["verg",-10.23616507725391],["strategie",-10.237214080157237],["kandidaat",-10.237214235873305],["schoot",-10.237390625815632],["oorzaak",-10.23757466827794],["sneeuw",-10.237581689298635],["bronnen",-10.237608270794258],["2000",-10.237681884123095],["agina",-10.237792743957234],["Mooi",-10.23785460283192],["coronacrisis",-10.23804002008361],["normale",-10.238103108755952],["nie",-10.238160997365128],["raket",-10.238677424784104],["blijf",-10.238804820348273],["Turki",-10.23918410451965],["planten",-10.2392746046484],["oven",-10.23984115906946],["absolu",-10.240471929807539],["rakette",-10.2405896136153],["factor",-10.241023179362323],["oren",-10.241284531310797],["Bar",-10.243225280441923],["nazi",-10.244671730708788],["kondigde",-10.245108578132943],["anse",-10.24534340267345],["matig",-10.245391182587223],["nemer",-10.246400339823925],["Eind",-10.248871234583312],["geboorte",-10.250036130812713],["zonnepanelen",-10.25005383746264],["salaris",-10.250056014932992],["schatting",-10.250056125760569],["raak",-10.25037470145016],["export",-10.250433469746287],["zogenaamd",-10.251472378722756],["dichter",-10.251723279798249],["boord",-10.251856457894354],["makers",-10.252014399785187],["aanleiding",-10.252234764649033],["Cha",-10.252544594263863],["stro",-10.252959811725457],["onmogelijk",-10.25317997424649],["parlement",-10.253208596223965],["herinnering",-10.25337038236022],["ontslag",-10.25413277263776],["supporters",-10.254670835350268],["mat",-10.254870234592282],["tra",-10.255301220548862],["roer",-10.257127278507614],["rook",-10.257608485759778],["tri",-10.257841354368773],["Belg",-10.258513674980012],["overlast",-10.258660487945521],["Bas",-10.259355868695435],["Eerst",-10.259578341284136],["qu",-10.26043407535496],["eindigde",-10.260570242825345],["stoffen",-10.26196630520976],["betaalt",-10.262120640634848],["Zelensky",-10.263021660031164],["speciaal",-10.263021707007036],["vocht",-10.263037378462693],["United",-10.263050022973694],["veertig",-10.263065152682017],["lief",-10.263113054987924],["aanzienlijk",-10.263136307621702],["koningin",-10.263458299775342],["houding",-10.263768293826718],["categorie",-10.264014675318517],["Vol",-10.264579972240462],["grap",-10.264806279423617],["ontstond",-10.265077494991743],["waarna",-10.266046483449411],["bergen",-10.26650217480858],["ance",-10.266717542579629],["luisteren",-10.268250123323789],["bedacht",-10.268644168433342],["plicht",-10.269599651807738],["Via",-10.269648894665114],["hor",-10.269769118691642],["prik",-10.270958113161218],["gerust",-10.272308136981815],["wal",-10.27253118381024],["wereldkampioen",-10.272772704282811],["Tu",-10.27353150922259],["Zorg",-10.27368479862469],["vic",-10.274917969719208],["wakker",-10.275291377797949],["Champions",-10.276179490847662],["batterij",-10.276179816215818],["Michael",-10.276179911671164],["Premi",-10.27621387278852],["ontzettend",-10.276268607556762],["Johnson",-10.276385275325719],["coronavirus",-10.276744448901088],["laad",-10.276775586289048],["geboden",-10.276894718747055],["gro",-10.277083528684848],["redden",-10.27723664137094],["stevig",-10.277270238318925],["uitgebreid",-10.277418468277453],["verkeerd",-10.277597762268408],["gevoelig",-10.277669081652629],["Rus",-10.27814399869492],["onafhankelijk",-10.278276669852712],["Dor",-10.279248376033621],["ief",-10.279592084343653],["interesse",-10.280514581561416],["by",-10.280851590502857],["probeerde",-10.28130355063692],["Weet",-10.281706656515269],["twijfeld",-10.281913105925565],["achtste",-10.282155729132915],["Japan",-10.282883879414864],["specialist",-10.282935265542],["ekt",-10.283205038921672],["gemeenteraad",-10.283626135208392],["600",-10.283674713871736],["sporen",-10.283819075153271],["lkens",-10.28424942729402],["elft",-10.28475800155376],["beheer",-10.285905232907425],["No",-10.286152900503593],["ernstige",-10.286439001944355],["matige",-10.286662980654963],["wo",-10.287353419915881],["gestart",-10.288115577218084],["Amerikan",-10.28874263999706],["vrijwillig",-10.288929354280562],["*",-10.289512824118049],["podcast",-10.289513084718422],["traject",-10.289513382884977],["plastic",-10.289514861001823],["iPad",-10.289527788049828],["stress",-10.28953262408583],["drong",-10.289547910188707],["verrassend",-10.290109220003448],["straten",-10.290369961279556],["mor",-10.290743043547643],["vervelend",-10.291088439605392],["ontmoet",-10.291927307091171],["films",-10.291937762500485],["Jonge",-10.292043627471084],["benadrukt",-10.292310465830699],["Vrij",-10.293123814841422],["ontwikkelen",-10.293146855548542],["ior",-10.293279564100242],["Wal",-10.2933336300264],["our",-10.293483790601744],["Ger",-10.293894322072337],["trui",-10.293940806724883],["roe",-10.295468626085645],["vangen",-10.295726757919304],["AZ",-10.296337804332875],["werkgever",-10.296537457850844],["reageer",-10.297281976071286],["kiest",-10.297423321070625],["IC",-10.297641406067141],["France",-10.298024945416289],["Mon",-10.298287487079401],["Centra",-10.298821817117272],["iër",-10.29885429234518],["helder",-10.299369463950622],["ó",-10.299703941948323],["dol",-10.300657192616823],["tech",-10.300910900139527],["inzicht",-10.3012111704844],["Ali",-10.302498864729582],["Vroeger",-10.303026412724048],["jury",-10.303029409465623],["Zweden",-10.30303282648058],["kaarten",-10.303056586778688],["draag",-10.303310692121942],["bil",-10.303452634436429],["ym",-10.303715672252633],["staten",-10.30463995932197],["bellen",-10.305443966970206],["beker",-10.305670547640515],["vermoord",-10.306729684915314],["Kinder",-10.306949367832853],["bio",-10.307178053683357],["kra",-10.308489872604326],["Welke",-10.308853198941868],["Iet",-10.308924217560723],["dreigen",-10.309276456148236],["opslag",-10.310029821047593],["Sy",-10.310628687574715],["verdient",-10.310864552916936],["42",-10.311097539183347],["uck",-10.311249345340038],["plat",-10.31132630743656],["Bro",-10.311490855824271],["waardig",-10.312106478111753],["Hoge",-10.31275271406587],["recente",-10.313566591433592],["kas",-10.31411342239044],["federal",-10.315258076440399],["collectie",-10.315293986327816],["inval",-10.315858073384206],["vaardig",-10.316601460484843],["drama",-10.316693931549127],["juridisch",-10.316724967867792],["justitie",-10.316724969849327],["theorie",-10.316725002666775],["creër",-10.316725009405143],["treffer",-10.316736470355721],["realiteit",-10.316771009910717],["verbonden",-10.316854590993888],["beneden",-10.316857343089938],["opgelost",-10.31686332102181],["aliteit",-10.316917920956325],["accu",-10.316922256951548],["moslim",-10.316951559666364],["uitzending",-10.317123162219165],["Tegelijk",-10.3172096096023],["initiatief",-10.317313279340306],["wissel",-10.317317428231675],["bedenk",-10.31765772081856],["Henk",-10.317934115283467],["schrik",-10.318447470930693],["drijven",-10.318754105209461],["95",-10.319121012433166],["schilder",-10.31988520740899],["can",-10.319936814067981],["Mal",-10.320778081322265],["ney",-10.320828802660387],["lening",-10.32117308908305],["maatregel",-10.322834810979575],["Charles",-10.32283549900901],["verzamel",-10.32299418902961],["pit",-10.32320563201423],["Wi",-10.323341368127526],["homo",-10.323379086704028],["kro",-10.324070329105785],["allen",-10.326440454088937],["CB",-10.326571423402164],["zi",-10.327268994697747],["weiger",-10.327684660388293],["motie",-10.327826219886028],["borst",-10.32785496824149],["steek",-10.327907168998035],["ira",-10.328489352336957],["bert",-10.32866575765378],["gaven",-10.3300014445769],["abonnement",-10.330613912335515],["Vitesse",-10.330613945843599],["computer",-10.330615183598018],["schoenen",-10.330655289096327],["Iran",-10.33065994740652],["etappe",-10.330695252490408],["pakte",-10.330895157399883],["Team",-10.330938065845835],["radio",-10.331495246585519],["overschrijdend",-10.331678070811659],["bevestigd",-10.332368920866212],["trend",-10.332473946667522],["weder",-10.332746476870273],["Aert",-10.332795087221635],["feestje",-10.3328462664612],["F1",-10.33291604531983],["bor",-10.333413173266454],["moedig",-10.33348368699037],["dronken",-10.334562719582003],["kader",-10.33465722011028],["schat",-10.334894054416115],["gescho",-10.335376441799497],["stak",-10.33638100326899],["produceren",-10.337197709690667],["wonder",-10.337698644265414],["ang",-10.339501338933527],["Wit",-10.339801632098562],["geest",-10.340174216711677],["onderzoeken",-10.340261798186672],["instellingen",-10.340597482566253],["goal",-10.341601465209994],["schop",-10.341697252453603],["Antwerp",-10.342300127204929],["war",-10.343928586357524],["design",-10.343985587170366],["Hel",-10.344140849565377],["ambulance",-10.344698363736297],["onderneming",-10.344698387012745],["medaille",-10.344698585049274],["keihard",-10.344699606419152],["Thomas",-10.344705791028025],["opmerking",-10.34476338871215],["uitzondering",-10.344806524594507],["emotione",-10.345106269971598],["geroep",-10.345334156944446],["leverde",-10.34552543853189],["vervuil",-10.345670430375655],["Apel",-10.346653782979654],["aai",-10.346862878997726],["Vel",-10.347097724698529],["makkelijker",-10.347307187163047],["?’",-10.347736604174244],["zanger",-10.348039893293963],["oost",-10.348743877550739],["illa",-10.350143403852941],["pest",-10.351819856457281],["doelman",-10.352566437624766],["Let",-10.35275449385934],["bl",-10.352850134885657],["opvolger",-10.353135539783594],["GS",-10.35355745044614],["Ch",-10.353706013419453],["Ron",-10.356141482401124],["hoorde",-10.356193999246727],["waai",-10.3564453288108],["46",-10.356690875167175],["chef",-10.357054172984846],["CE",-10.357657362851809],["parkeer",-10.35780741534731],["slaat",-10.35795672789961],["vergoeding",-10.3589459703125],["smartphone",-10.358984078003896],["gezamenlijk",-10.358984157078318],["Universiteit",-10.35898508358368],["Nijmegen",-10.358985763802032],["GroenLinks",-10.359003189890135],["kwalificatie",-10.359042161089086],["voorzichtig",-10.359052843689334],["heren",-10.35913087827004],["technisch",-10.359167962605927],["aanvaller",-10.359265148075805],["vergadering",-10.359385582992925],["ondersteuning",-10.359689094650912],["Hans",-10.359932732067868],["Br",-10.359956776200365],["vullen",-10.360494437040472],["ontmoeting",-10.360665897341292],["Bre",-10.3615247496733],["verwijder",-10.361645919793828],["apparaten",-10.362152240438391],["Land",-10.362331206205166],["rat",-10.362437199608305],["fel",-10.36371208872359],["zoekt",-10.364169196726277],["issen",-10.365900013537107],["Val",-10.365908615332664],["Inter",-10.366937337720817],["bezorg",-10.367208836171798],["goedkoop",-10.367294533046016],["kijker",-10.367742262503139],["wisselen",-10.368315869326214],["ire",-10.368505755867757],["Zonder",-10.368892826594534],["Per",-10.371576613352286],["pop",-10.371599720245712],["missie",-10.371893781104324],["CD",-10.372783073379633],["daarop",-10.37294557964246],["à",-10.373476831608594],["boodschappen",-10.373815395395496],["250",-10.373880050386354],["box",-10.373891534286884],["ation",-10.373960846213723],["openings",-10.374915827871586],["VN",-10.375405948202845],["Af",-10.375653471206272],["dringen",-10.37633807913975],["Grand",-10.3763493612359],["recent",-10.376900878538414],["India",-10.377368180217818],["lul",-10.379330972443277],["oo",-10.379833306430879],["Post",-10.380120441090666],["vul",-10.38056290175804],["fors",-10.380639640773891],["kleiner",-10.380850993154466],["Kerk",-10.381064175775371],["verminder",-10.381188066037312],["overname",-10.381950739688701],["wijs",-10.382130167300362],["avonds",-10.38303524484282],["waarheid",-10.383204915049998],["plus",-10.383253677287069],["behouden",-10.384844162487754],["Australië",-10.385177117299593],["Sal",-10.385186161943313],["muur",-10.385245006928567],["rouw",-10.385394341218088],["mars",-10.385876314439766],["43",-10.38599728700629],["gedachte",-10.386667391234123],["temperatu",-10.38687140997574],["schuldig",-10.387129742541575],["ieke",-10.38757072525964],["44",-10.38785030423547],["technische",-10.38799510935053],["Sovjet",-10.388183123749869],["Porsche",-10.38818346213947],["vertraging",-10.388184237327192],["kandidaten",-10.388186801015483],["meisjes",-10.388202664421401],["cu",-10.388399985632041],["graven",-10.388453958969677],["exact",-10.388467604939297],["overtuigd",-10.389005413810683],["bedreiging",-10.38924398025103],["plaat",-10.389629294832005],["verstandig",-10.390294244100001],["netto",-10.391017044917888],["oot",-10.39108287242216],["bevind",-10.391591681930405],["verdeeld",-10.392134790659805],["toestand",-10.392803838312075],["aren",-10.393328635729809],["blaze",-10.394190089524615],["zand",-10.394337362501489],["Vervolg",-10.395304292886298],["onzin",-10.397971021451568],["gerecht",-10.398802134710923],["zinnig",-10.399473339831388],["hit",-10.400737134738165],["voudig",-10.400754445351385],["jacht",-10.40090949429747],["okken",-10.400910948523348],["rollen",-10.401742045082301],["genot",-10.402091808061694],["RS",-10.402585424021787],["Mechel",-10.40277907116671],["stelsel",-10.402924544185689],["Netflix",-10.403108087384332],["olympisch",-10.403108087478788],["fantastisch",-10.403108297139635],["transfer",-10.403116202053443],["lichte",-10.403197820404662],["Alexander",-10.403221070478528],["noodzakelijk",-10.403497699553885],["haat",-10.403518214940068],["god",-10.403682043674557],["merkt",-10.403825009426384],["kraan",-10.404056231498437],["Werk",-10.404103453637287],["tallen",-10.40445508374765],["Energie",-10.404667050469588],["vernieuw",-10.405174343480269],["verdrag",-10.405740591597855],["grondstoffen",-10.405788983560797],["pet",-10.406091637074596],["rec",-10.406466168352523],["vermoed",-10.406590722539828],["begeleid",-10.40672455460217],["spannend",-10.407162618067796],["kanaal",-10.407445018939516],["48",-10.408011783593413],["scheiden",-10.408024738755394],["opties",-10.409073442398434],["Gaal",-10.409494213685896],["VD",-10.411116928026622],["tegel",-10.412555094136238],["korting",-10.413065136240856],["gestopt",-10.413205386084933],["anne",-10.414147810029824],["welk",-10.414197710764952],["geheim",-10.416295876274923],["knie",-10.416329605200772],["zitting",-10.416797608584535],["dubbele",-10.417562420756528],["organiseren",-10.418261813866762],["Mocht",-10.418271379448598],["album",-10.418298661591834],["dienen",-10.418345977310803],["David",-10.41843008751698],["Brit",-10.418457246338969],["Word",-10.418741174813125],["Morgen",-10.418881118400005],["droge",-10.419197283159413],["fietser",-10.419937956413666],["ung",-10.420074321010254],["Sc",-10.420496185983136],["stopt",-10.421658803358804],["beur",-10.421728578275054],["verbetering",-10.421920783407021],["achtig",-10.422615090241164],["Matt",-10.422747159038838],["Ex",-10.42295515284637],["grijpen",-10.423342982231006],["harder",-10.423568438370012],["ix",-10.423814406724311],["Vo",-10.42482989122189],["National",-10.424961315109151],["way",-10.425496167574552],["verbied",-10.425528604012518],["long",-10.425626149580323],["gok",-10.42601635965193],["inkomen",-10.42605558579692],["koud",-10.427227218514936],["grep",-10.427626622843515],["Gaa",-10.42804931322365],["Mel",-10.428599332753446],["bom",-10.428867320099485],["ille",-10.429040483807995],["q",-10.429187366631428],["Qua",-10.430539129702154],["unnen",-10.431242837819212],["realis",-10.431877013940209],["GP",-10.432281326036126],["paal",-10.432520443865677],["Wo",-10.432683169450106],["agressie",-10.433534073376963],["seksueel",-10.433665145806838],["overeenkomst",-10.433762029932721],["urven",-10.433789082623925],["achtige",-10.43398069805574],["koopkracht",-10.434002340592517],["controleren",-10.435297572989041],["verhouding",-10.43555933138047],["gasten",-10.43626062994987],["journalisten",-10.436348896661462],["veertien",-10.436568490223397],["vinger",-10.437034733713698],["ER",-10.437180884051115],["heerlijk",-10.437333324828366],["overlijden",-10.437519878690676],["Wout",-10.437732745017195],["wi",-10.437748707135349],["klok",-10.437785312455338],["Mart",-10.440244045799345],["time",-10.441110256536593],["onderdelen",-10.441293767117788],["mist",-10.44136401737326],["stam",-10.441852216260024],["Zand",-10.442050179419134],["198",-10.443040616995372],["Con",-10.443320630388094],["toestel",-10.443516060301446],["Engels",-10.444151885532047],["volwassen",-10.444496093406011],["gestemd",-10.44502393272272],["aanpassen",-10.446881400617329],["Hug",-10.447254151577592],["BO",-10.447338607737422],["brak",-10.448156633672824],["import",-10.448962554293562],["enthousiast",-10.449269217633567],["privacy",-10.44926922029136],["William",-10.449269474681564],["grappig",-10.44927367854589],["Krim",-10.44929337798061],["plots",-10.449305194305811],["relevant",-10.449362735148842],["besparen",-10.449898242585794],["warme",-10.450086816808636],["voorbereiding",-10.450210668969234],["advocaten",-10.450639679874527],["Angel",-10.450809644153312],["visie",-10.451570376502346],["istan",-10.451651747810832],["Mogelijk",-10.45182460599083],["bestemming",-10.452198906267252],["overheids",-10.452809716459694],["kabel",-10.452910566231356],["57",-10.453020623877542],["Enkele",-10.453702673519233],["han",-10.454071230676806],["Canad",-10.454338533770413],["lagen",-10.45445447796391],["Cup",-10.455142773261263],["geopend",-10.455889542524282],["laatst",-10.456104620526588],["wees",-10.456631255081959],["minst",-10.456644831215641],["werkgevers",-10.456942796160464],["rijbewij",-10.457336167159294],["nul",-10.458928258989683],["zwak",-10.459702857603267],["sma",-10.459888737782418],["hinder",-10.460141491810422],["file",-10.460363204052392],["restaurant",-10.460818919551999],["onbekende",-10.46090647348573],["steen",-10.461461454659283],["tachtig",-10.461999484813372],["52",-10.462227578193861],["raam",-10.462290729396763],["cher",-10.462605699800548],["invester",-10.462685001744521],["jarig",-10.462761390783337],["Mer",-10.463164233531623],["Engelse",-10.463767232672737],["bewolkt",-10.463896931616933],["agenda",-10.464764497390524],["streep",-10.464832282110812],["goederen",-10.464881781633192],["»",-10.46514223350501],["commerci",-10.46514225271525],["abortus",-10.465247199649582],["langzaam",-10.465477829674505],["concurrentie",-10.465509747499416],["49",-10.465596539896318],["reserve",-10.465738260867372],["omroep",-10.465809812177396],["atten",-10.466461960800052],["Olympisch",-10.466724601818658],["Amsterdamse",-10.466816170126894],["eieren",-10.467981546577],["dor",-10.468253912663084],["low",-10.47023104336061],["Water",-10.470266044066594],["lic",-10.470324130959959],["gezinne",-10.470536940333307],["cla",-10.47442287857747],["MA",-10.474534640386748],["bod",-10.474591363075472],["gras",-10.475111699530126],["uitslag",-10.475222088350101],["zingen",-10.475426810783546],["Marc",-10.47551400075301],["gram",-10.476007926509697],["ellende",-10.477706172282051],["chan",-10.478075238678837],["zwakke",-10.478097537568349],["í",-10.47876580047604],["beek",-10.479082452611927],["ondernemer",-10.479225936994549],["gri",-10.479879121761604],["leert",-10.480266077304469],["lust",-10.480735971438515],["verhoging",-10.480914280308617],["slimme",-10.480992850096388],["producent",-10.481271283666121],["interieur",-10.481271441855743],["advertentie",-10.481274382361386],["liefhebber",-10.481288886646084],["wetenschappelijk",-10.481325340992711],["Albert",-10.481664456314906],["dient",-10.481704922614878],["bizar",-10.482097118414613],["huid",-10.482281352060397],["Poel",-10.48304892890723],["Ya",-10.48332483302989],["Noor",-10.484269721790351],["geï",-10.484284241836775],["chi",-10.484416621401131],["mobiele",-10.484720207788762],["ans",-10.484927705938038],["bestuurders",-10.484929465180652],["Michel",-10.48500518360105],["kor",-10.485112315804393],["Louis",-10.485175853209409],["Tim",-10.486436872303063],["profit",-10.486674735048359],["officier",-10.487498283749513],["deug",-10.487707385169646],["missen",-10.488484732711775],["tennis",-10.488648785475204],["kocht",-10.48867294397498],["GT",-10.488851954394129],["gevolgd",-10.489072731669562],["meester",-10.489142414407507],["buik",-10.489451298279299],["41",-10.489504379393273],["Hag",-10.489650167715402],["cul",-10.489710463390082],["Andere",-10.490350575414109],["cha",-10.490780734644613],["bloemen",-10.491158397288183],["betekenen",-10.491922843564254],["oppositie",-10.492007856807593],["onderzoeks",-10.49382110166413],["evenement",-10.494344896417656],["uitsprak",-10.495280132051311],["graf",-10.495297208176718],["Jam",-10.495443990439165],["ermee",-10.49571930684531],["organiseer",-10.495852233049554],["rang",-10.497267416251594],["rio",-10.497529105206663],["breuk",-10.497665682128034],["Vladi",-10.497666187280561],["plafond",-10.497667204778221],["cliënt",-10.497668873076707],["honger",-10.497712086599943],["verjaardag",-10.49776367775425],["ontwikkelaar",-10.497770161129845],["Begin",-10.497895952744319],["traditionele",-10.497999142306062],["Vrijdag",-10.498428150064692],["bestuurs",-10.498526547586087],["zestien",-10.498974442101979],["arcelo",-10.499354614421893],["extreme",-10.499397489330704],["oefening",-10.499727564063697],["fysiek",-10.500199025464713],["tegenstelling",-10.500542564542695],["volg",-10.501051027293265],["Lees",-10.501415309378029],["vogels",-10.502023905734637],["For",-10.502403231525168],["draad",-10.50338621567034],["verslag",-10.503493816616347],["topman",-10.504860490944534],["800",-10.505704767719024],["fouten",-10.506602940735206],["International",-10.50702504312535],["adres",-10.507149370529316],["MI",-10.507267413214542],["aankoop",-10.507808127593588],["buur",-10.508003737508655],["run",-10.508229821101125],["heer",-10.508387909773845],["kruis",-10.508400855494024],["ontwikkeld",-10.508465056511383],["keur",-10.509049668146343],["spannen",-10.509588353296333],["gegooid",-10.509590664916944],["Brabant",-10.510877913718117],["overleven",-10.510979732431219],["96",-10.511273539038253],["premie",-10.512619652394822],["moderne",-10.512952051434167],["verblijf",-10.512959191180066],["stevige",-10.512997256231042],["Ku",-10.51398439463248],["Brazili",-10.51421589681473],["Leclerc",-10.514331375156388],["adviseur",-10.514331379629159],["negatief",-10.514331385930879],["apparaat",-10.51433158148814],["bocht",-10.514342415570207],["Ruim",-10.514347490322262],["figur",-10.514378548582943],["rendement",-10.51438440925283],["serieuze",-10.514397208053165],["overtuigen",-10.514490589772095],["bijeenkomst",-10.514493819575714],["kwartfinale",-10.514580534280949],["presentator",-10.514609073679416],["Achter",-10.515023391146457],["Maak",-10.515755909783184],["nederla",-10.516233316609796],["klagen",-10.516426395771425],["waarschuwing",-10.517537396154413],["Vier",-10.517676622749407],["hak",-10.518431484779676],["donker",-10.51921609024922],["lost",-10.519483786765578],["Herman",-10.519551619673726],["Gewo",-10.519852476189248],["aanbied",-10.521035547592469],["kampen",-10.52107629748556],["ministers",-10.52214245027113],["Turks",-10.522224177882975],["Audi",-10.522244044282477],["á",-10.522634038209961],["kring",-10.522791747329503],["Nik",-10.523549845949237],["ving",-10.524966938478357],["toekomstig",-10.525423634087755],["kende",-10.525831757793576],["terugkeer",-10.525846518928727],["circ",-10.526233188934008],["springen",-10.52630862511575],["Bol",-10.526506836241776],["banen",-10.527136143178758],["Star",-10.527996101836385],["hitte",-10.528435889054338],["igenlijk",-10.528986404779614],["ku",-10.529231202215964],["miljarden",-10.53023300655703],["zins",-10.531023899602433],["reageerde",-10.53116063670307],["begroting",-10.53128056941068],["ambtenaren",-10.531282527190504],["schrijver",-10.531284360162854],["Oostenrijk",-10.531290235319405],["automobilist",-10.531298470474754],["zilver",-10.531299238050199],["Wilders",-10.531456556260498],["behandeld",-10.531560586752557],["prins",-10.531695204844892],["schr",-10.531762359586605],["back",-10.531841576972237],["veroorzake",-10.531898291150299],["Super",-10.532314008320347],["bedreigd",-10.532546156058062],["Rij",-10.532823460683403],["Hebben",-10.533211994399029],["lap",-10.533317447593731],["Th",-10.53422490010621],["wetenschap",-10.534874128358096],["scoorde",-10.535269972597355],["Vl",-10.535277270320435],["spaar",-10.535321196053712],["handelen",-10.536145056162542],["verantwoord",-10.536664109816304],["uitvoeren",-10.537005404599242],["NO",-10.537071145439722],["Duitser",-10.537744953546945],["geleerd",-10.538377554548816],["Boe",-10.539540900824065],["nummers",-10.540122913812393],["eau",-10.540732502552878],["ras",-10.540903527892725],["85",-10.541058897337866],["onbe",-10.541718379468435],["explosie",-10.542663516802566],["col",-10.542702128937169],["1000",-10.54272249291066],["toeslagen",-10.542841194961722],["dames",-10.543099073509353],["malen",-10.54442533944749],["aert",-10.545093230329504],["bezorgd",-10.546163244157956],["succesvol",-10.548461799013026],["aantrekkelijk",-10.5485219152165],["percentage",-10.548521930687006],["anoniem",-10.548522217961779],["praktisch",-10.548522820119764],["wijziging",-10.548523146046342],["finish",-10.54853036690843],["haupt",-10.548534009659503],["Ronald",-10.548543557219897],["regime",-10.54855612413661],["haast",-10.5485807889714],["toegevoegd",-10.548653848942578],["Gemeente",-10.548673637653597],["pauze",-10.548683065847934],["diefstal",-10.548698470692166],["Harry",-10.548712910814892],["prof",-10.548744784258087],["fruit",-10.548850371327497],["zestig",-10.54893129429707],["belegging",-10.549711538273161],["aardgas",-10.54992599637659],["achttien",-10.550017956921272],["signal",-10.550324083160248],["IT",-10.55052058904578],["inch",-10.550849244364908],["getekend",-10.550949868571559],["verdedigen",-10.551988315609346],["roze",-10.553754790362879],["vrouwelijk",-10.553963035021631],["institu",-10.554005312955681],["vest",-10.554063380009499],["staatssecretaris",-10.554634002764583],["Ham",-10.554781975329169],["Jette",-10.554940881488974],["degelijk",-10.555073730810594],["Pieter",-10.556132771998204],["najaar",-10.55711201593143],["Rode",-10.55749081386615],["internationa",-10.55765100229241],["belangrijker",-10.558074106128322],["wou",-10.558350213832274],["gestelde",-10.55841174656954],["Anne",-10.558455624525447],["Marokk",-10.55851162158558],["cus",-10.558641204510103],["uitvoering",-10.559619372605628],["Israël",-10.559747119195624],["ET",-10.559871097439125],["stromen",-10.560288100799582],["kleinere",-10.561028681051104],["drank",-10.561148024855818],["bru",-10.56129399169745],["rpool",-10.561352406143563],["Uni",-10.56228878169097],["werkzaam",-10.562346010459354],["opgelegd",-10.562950355648072],["offer",-10.562951475188388],["yr",-10.563646942152678],["ac",-10.564094707665387],["branden",-10.564415030067815],["domme",-10.565425778922409],["Luc",-10.565712218004272],["hang",-10.56584785098483],["Bouw",-10.566006713515009],["experiment",-10.566065767167775],["kwetsbaar",-10.566065826576173],["garantie",-10.56606907993082],["Vijf",-10.566074004115604],["transitie",-10.566079254868619],["Pools",-10.566080731945565],["Justitie",-10.566086377285021],["kennelijk",-10.566091899315442],["traditie",-10.566092538521893],["hé",-10.566112926710536],["beperken",-10.566130667360614],["Rijk",-10.566510139750632],["monument",-10.566668483702323],["democratisch",-10.566910493728798],["ID",-10.567430815638396],["Weer",-10.567702385396426],["wekken",-10.567726158052576],["mensenrechten",-10.56851154967052],["kroon",-10.56884246027169],["nader",-10.569078166412766],["Lam",-10.569274505459664],["onzeker",-10.570105268410714],["huisarts",-10.570660592886721],["ive",-10.571716298468889],["ight",-10.572501618443304],["veilige",-10.573718764285235],["bas",-10.576181640506045],["bereik",-10.576739052670167],["toenemen",-10.576988610965595],["uitstekend",-10.579317411662887],["kat",-10.580194410132648],["rap",-10.581980281118247],["aankomen",-10.582558294933971],["wolk",-10.583208715497811],["rek",-10.583293964378287],["ique",-10.583625564705219],["hybride",-10.583922909509782],["dividend",-10.583922911115828],["prioriteit",-10.583922924024742],["World",-10.583922946422241],["concern",-10.583923029872466],["kloppen",-10.58392316952588],["claim",-10.583929536338111],["persconferentie",-10.583974847887674],["Hongar",-10.583977843342378],["Macron",-10.583993904020069],["zelfstandig",-10.583996829110667],["drone",-10.58403760494587],["propaganda",-10.584053487153884],["Shell",-10.584121676133266],["documenten",-10.58453826730901],["check",-10.584620799140804],["ruzie",-10.584719672856277],["vergele",-10.584887312879804],["assistent",-10.585311397815076],["circuit",-10.587985844515991],["Mil",-10.588033764682125],["taak",-10.588981436231132],["moed",-10.590606627695262],["vermoeden",-10.591244154030637],["wond",-10.591426735046927],["Lan",-10.592917480469755],["ity",-10.592944186576759],["que",-10.593168203283337],["uitkomst",-10.593978721547256],["qui",-10.59422932209402],["besteed",-10.594269398068286],["vervolg",-10.594361858408817],["EL",-10.59557685194441],["ouderen",-10.596815882907329],["Jos",-10.597238813022027],["63",-10.59746261360331],["hoogst",-10.597581109531923],["bro",-10.597659100376395],["gevaarlijke",-10.597717838744716],["verklaarde",-10.597777982708198],["raag",-10.598454314569281],["Pol",-10.598983322498402],["FI",-10.599100382612882],["Stel",-10.599157062684789],["alternatieve",-10.599262477824354],["fysieke",-10.59929900948915],["raar",-10.59934843882715],["schouder",-10.599646251510162],["nep",-10.599791513274738],["herken",-10.600006376690082],["Boris",-10.600398835053648],["treffen",-10.60054877975451],["Uiter",-10.600757909212005],["poort",-10.600799148866983],["lect",-10.600950182064484],["overwegen",-10.601260655166067],["Stra",-10.601783474876553],["wandel",-10.602013390689075],["kwaad",-10.602061563599522],["demonstratie",-10.60210474096311],["vóór",-10.60210553509445],["nucleair",-10.602107265431709],["toenmalig",-10.602107458519615],["verlaging",-10.60211823970914],["oranje",-10.602125419024997],["job",-10.602131009717787],["verwonding",-10.602138394027664],["actrice",-10.602143268843204],["personeelstekort",-10.60217457011688],["Koning",-10.6021783159248],["effectief",-10.602184742150172],["paniek",-10.602237129289048],["beroemd",-10.602238758823507],["gecontroleerd",-10.602257796617053],["balans",-10.602278605495473],["luchtvaart",-10.602345994333024],["Jammer",-10.602353695728919],["persbureau",-10.602365285518774],["robot",-10.602381041083165],["zangeres",-10.602533891941125],["Hi",-10.603929628344504],["overzicht",-10.604219868070476],["rix",-10.60422567886282],["nest",-10.604339208341978],["doelpunt",-10.605118006863709],["wensen",-10.60531949437806],["toevallig",-10.605380593607645],["social",-10.606097218990675],["kaartje",-10.606472299243965],["73",-10.606491206792077],["197",-10.608058744280559],["partners",-10.608114330605519],["verstand",-10.60840916270864],["Politie",-10.608788010913155],["Real",-10.609376442817574],["stier",-10.609792147467322],["zender",-10.612529437467611],["stort",-10.612859076793287],["biliteit",-10.613218814552436],["geel",-10.615443930387308],["ruime",-10.615674818399457],["51",-10.616521864997758],["elektriciteit",-10.61661417320015],["lukken",-10.617824931125963],["Geef",-10.617935687231396],["puur",-10.618317245779956],["Oh",-10.618360338308593],["duw",-10.619151628293707],["54",-10.619565534513713],["ux",-10.620324121584467],["opening",-10.620349219032637],["58",-10.620492726808326],["˜",-10.620623246112011],["Groninger",-10.620623396479125],["branche",-10.620624034521974],["Eredivisie",-10.620629878175206],["algemene",-10.62064610640391],["Radio",-10.620701944192499],["kwartier",-10.620735129366462],["Simon",-10.620850640134108],["figuur",-10.620942688797625],["Gold",-10.621091272008412],["Tussen",-10.62114963575334],["afkomstig",-10.62118921892126],["netjes",-10.621279009714387],["filter",-10.6213789865524],["klappen",-10.621394700421515],["verwarming",-10.621485488841829],["favoriete",-10.621620849701314],["Bosch",-10.621808176050832],["Patric",-10.622216408804405],["ova",-10.62226041705836],["verteld",-10.622795546852295],["moois",-10.6228810460518],["stok",-10.623495067154613],["AI",-10.623863313846574],["voed",-10.624211970900635],["groeps",-10.624227081940546],["terras",-10.624808134337336],["knal",-10.625217477111734],["voeten",-10.625224740908028],["straffen",-10.625794457482286],["grid",-10.62580162075932],["BN",-10.626411388006847],["Lind",-10.626607469155307],["Ah",-10.62665688391673],["graaf",-10.626800537256383],["zakt",-10.626812704205937],["reet",-10.62812755282904],["vieren",-10.628796124053501],["specifiek",-10.62902624907437],["lies",-10.630870004837547],["WO",-10.63104784728371],["sterker",-10.631518127540687],["IJ",-10.631940418557072],["Hof",-10.632054156808342],["bestand",-10.632209964849258],["lecht",-10.632524821563635],["ici",-10.632729882202792],["klas",-10.633297832840217],["verhuis",-10.63398604852542],["gouden",-10.634070729871405],["vogel",-10.635321086616782],["Scha",-10.63541849451866],["bespro",-10.635453580074111],["genoemde",-10.635561699616385],["verwijderd",-10.636022339746194],["oplopen",-10.636105791513176],["behoud",-10.636134129059453],["art",-10.636246790084106],["gezocht",-10.63654365659348],["aanhouden",-10.636948585107334],["poel",-10.637594487386977],["istische",-10.638279831003908],["cy",-10.638386233925463],["slaven",-10.63865475163577],["Mor",-10.638728097397632],["correct",-10.638793353519947],["beveiliging",-10.639099821159931],["slavernij",-10.639491171274932],["Portugal",-10.639491173039795],["Donald",-10.63949118180934],["management",-10.639491205209842],["perspectie",-10.63949150555295],["scooter",-10.639491965136411],["Covid",-10.639493316847426],["seksuele",-10.639494530599075],["vreselijk",-10.63951393110219],["hypotheek",-10.63951494829088],["aanwijzing",-10.63953146095202],["Maandag",-10.639561138585641],["oorspronkelijk",-10.639660101562356],["Lijk",-10.639661121118149],["storing",-10.63966527834484],["paspoort",-10.639766202028442],["infrastructuur",-10.639932925375394],["eigenaren",-10.640428206215757],["64",-10.640528904174873],["gigantisch",-10.640993230913887],["vereist",-10.641221294790311],["Plan",-10.642039887136896],["kut",-10.642206924958103],["ballen",-10.642248768588843],["dode",-10.64232791982564],["tegemoet",-10.642428375354532],["gehol",-10.642658449036738],["geslaagd",-10.64349163272946],["herkenn",-10.645201782982138],["marge",-10.645677029263238],["brede",-10.645821444262715],["fles",-10.646139082892539],["Bra",-10.646203578723581],["lokaa",-10.646344611506843],["handeld",-10.646757155213956],["verk",-10.648250754702282],["ure",-10.648632167181376],["warmte",-10.649370587273133],["scoren",-10.649886603143058],["eking",-10.650045611291285],["gebouwen",-10.650066487079519],["specifieke",-10.650066763190114],["Will",-10.650415943034556],["Steven",-10.650666133299321],["rez",-10.650861496416017],["tion",-10.65170446479878],["Auto",-10.652052579015974],["oord",-10.652427340906662],["verenigingen",-10.652654711033303],["getoond",-10.652820040025118],["oid",-10.653999954528954],["gedaald",-10.654163197183632],["wettelijk",-10.654519752418796],["score",-10.654562276821288],["Toe",-10.655355838202345],["voert",-10.655419007690215],["normen",-10.655557101760326],["char",-10.656347549045256],["doelen",-10.657118507038236],["Maria",-10.657251988322006],["vijfde",-10.657345351448651],["favoriet",-10.657686652949016],["Boer",-10.657819416807001],["drukte",-10.658144809732699],["ijzer",-10.658469934382163],["recessie",-10.658721943940684],["Kremlin",-10.658722025050926],["verrassing",-10.658722025655832],["gearresteerd",-10.658722669130754],["stabiel",-10.658722758853937],["crash",-10.658723482058917],["prettig",-10.65872636015787],["aanloop",-10.658771037201586],["Staat",-10.65878178055653],["tarief",-10.658785913941076],["individuele",-10.658786476390791],["ify",-10.658815665130764],["Jeroen",-10.658831691161417],["Fortu",-10.658864599747032],["service",-10.658994298704242],["schilderij",-10.659030163550508],["doelstelling",-10.659158997815059],["RIV",-10.659264893465124],["trad",-10.659720409264082],["Just",-10.659835692607123],["Lee",-10.659954189366553],["53",-10.660045780836995],["hè",-10.660156992395017],["verluid",-10.66022696040062],["graan",-10.660987902700269],["zwaarder",-10.661136721596321],["keuzes",-10.661185005599485],["voorstelling",-10.66123708547491],["droog",-10.661258101891155],["stuurde",-10.662575891454875],["koude",-10.662718998880056],["dertien",-10.663142411983257],["Mario",-10.6637794461462],["koper",-10.663783008115562],["directe",-10.664185104757085],["gebeurtenis",-10.6646827592397],["72",-10.664990241347532],["beëindig",-10.666794710346636],["Fed",-10.668189757858002],["tekenen",-10.668928300668581],["norm",-10.669005700161629],["parke",-10.66904594027321],["lov",-10.669113323120246],["Tja",-10.669327744569008],["rapper",-10.669531558665149],["effecten",-10.669891140062765],["afspra",-10.670444095430604],["lak",-10.671328331426437],["rommel",-10.672437884014508],["bedien",-10.673218438071338],["kou",-10.673891625713228],["kampioenschap",-10.673899847843618],["dure",-10.673906448203736],["Belgen",-10.674176679773225],["deelt",-10.674459277931375],["gelukt",-10.674657143940255],["mega",-10.674957017635975],["oplossen",-10.675280514322289],["tref",-10.677243648322099],["werkzaamhe",-10.677295213590142],["stream",-10.67826579882554],["medicijn",-10.678329785419391],["Financië",-10.678329786563884],["installatie",-10.678329801889596],["kwetsbare",-10.678329831139953],["Djoko",-10.678330070775141],["vijand",-10.678330547054012],["typisch",-10.678332742216808],["inspectie",-10.678333580777053],["auteur",-10.67833766871748],["boerderij",-10.678346943562627],["zwembad",-10.67836233332124],["toeristen",-10.678363996031619],["Waarschijnlijk",-10.678403020136862],["suiker",-10.678450595851192],["über",-10.678478398091166],["rechtstreeks",-10.678524283809319],["koos",-10.678556553206073],["arbeidsmarkt",-10.678589486059924],["Breda",-10.678675146023554],["toezicht",-10.678880637740875],["krachtig",-10.678954746714295],["wegge",-10.679291469227039],["linker",-10.67976376321446],["gunstig",-10.679833986400357],["ima",-10.679879874650002],["Jij",-10.679916160651207],["optima",-10.680073407462086],["voetballen",-10.680211707025816],["stapt",-10.680268191031026],["vrijdagavond",-10.681125259605299],["par",-10.681443501368394],["ï",-10.681922423562096],["getest",-10.68293994802554],["arbeids",-10.683024877265133],["held",-10.683315050325774],["ingediend",-10.683885175273458],["Bel",-10.684068433297554],["duo",-10.684109879978525],["Witte",-10.684601378789239],["complete",-10.684988022220145],["spec",-10.685369238535314],["afspraak",-10.68556008498505],["aanvraag",-10.685732710924164],["reageerd",-10.686891124533071],["Japans",-10.68849517586329],["aanmeld",-10.688687830109222],["voerde",-10.689104187538419],["spot",-10.689228190632157],["lach",-10.689445164483363],["Kuiper",-10.689605798533437],["Rijn",-10.689737559850222],["69",-10.690073895122394],["betaalde",-10.690478718229343],["verover",-10.691217041542474],["bruin",-10.691270041853002],["lege",-10.69283538154214],["stapel",-10.692848290025188],["eeuwen",-10.6930763358853],["afgerond",-10.69345945973236],["bonus",-10.694665878866271],["imp",-10.694790387508142],["breek",-10.69506473707542],["winning",-10.695327466648179],["leveranciers",-10.695476175531441],["Markt",-10.695834788702332],["67",-10.695836113500153],["Park",-10.696473803322704],["gezonde",-10.696572750425958],["ING",-10.696822541702803],["gesto",-10.696831518644903],["uiterst",-10.697485224742564],["ezen",-10.697575967397],["wolf",-10.697712057131112],["Prins",-10.698287449488365],["Zwitser",-10.698315566568034],["portemonnee",-10.698329783014225],["beïnvloed",-10.698329783126882],["Elizabeth",-10.69832978572879],["container",-10.698329824917417],["tunnel",-10.698329846334277],["Barneveld",-10.69832994383237],["Oisterwijk",-10.698329977250314],["adviseer",-10.698330101414793],["toepassing",-10.69833013724523],["gevestigd",-10.698330698985082],["lidmaatschap",-10.698334545311756],["racisme",-10.698339342089916],["Corona",-10.698344923129891],["opbrengst",-10.698413455246133],["streng",-10.698414996867847],["humor",-10.698420924164223],["klonk",-10.698437729675897],["nemark",-10.698493705847227],["kerncentrale",-10.698531587547734],["Play",-10.698705782259747],["ipv",-10.698750296370338],["Leuk",-10.698890264260369],["schietpartij",-10.699516925057663],["verlichting",-10.700942512933498],["herstellen",-10.701001989227866],["vastgesteld",-10.70107078004857],["ontken",-10.701282479977408],["puntje",-10.701505048890567],["schuive",-10.70151097055054],["47",-10.70226583404524],["FA",-10.703021352493163],["woonde",-10.703219126917586],["euze",-10.703225896236933],["seconde",-10.703500520637771],["iro",-10.703888349422332],["schulden",-10.704091438893329],["loper",-10.704594103649345],["jongst",-10.704662194008652],["illen",-10.704691223897902],["gedrukt",-10.705600206783036],["Geld",-10.70560131465789],["Los",-10.705651336891323],["handelaar",-10.70592311723749],["Jans",-10.706235241696023],["moeilijke",-10.706548489834683],["AN",-10.7067393888682],["isering",-10.707138165772196],["ping",-10.707706982437545],["ussen",-10.7078705386405],["fenome",-10.70802965612678],["overstap",-10.708323467779628],["onderweg",-10.708355293672167],["lasten",-10.709939034366167],["lieve",-10.70997441423416],["stuurt",-10.710008287497178],["olksgezondheid",-10.71072496685738],["App",-10.711872150031487],["mmer",-10.711927577844255],["ES",-10.713048388857809],["lacht",-10.713257507050852],["lieden",-10.713405149684922],["micro",-10.71351605825755],["Dag",-10.71364408955496],["accepte",-10.715122347152125],["weeg",-10.715376508215636],["vaar",-10.716477601298882],["spijt",-10.716732819623127],["Erik",-10.716786292130188],["lieten",-10.717011039598582],["itie",-10.717187761159849],["lijf",-10.717201679807195],["opgezet",-10.717291216077765],["verloop",-10.718063709571384],["arch",-10.718078250516555],["onderscheid",-10.718129454761923],["concurrent",-10.718264563221348],["Surinaams",-10.718737949776338],["regulier",-10.718737954893058],["Sticht",-10.718741239149777],["profiel",-10.718741393606908],["signaal",-10.718776988362642],["Vries",-10.718793646441746],["Grieken",-10.718808802571257],["vrezen",-10.718813132296916],["tempo",-10.718831893338983],["Madri",-10.71885144734053],["compensatie",-10.718878143576084],["Lekker",-10.718918492882313],["betrouwbaar",-10.71894194800602],["wetgeving",-10.718975964806596],["Bou",-10.719086095218618],["onafhankelijke",-10.719132669517512],["Sterk",-10.719191630662678],["Schot",-10.71923379914384],["doelpunten",-10.719372029544271],["noodzaak",-10.719589310196618],["booster",-10.71983233063299],["realistisch",-10.71990064682955],["trof",-10.72040796534866],["methode",-10.720566806031389],["Son",-10.7207137915507],["ontdekk",-10.720827797962299],["cur",-10.720995696497427],["heilig",-10.721628919021324],["katten",-10.721674146265421],["hoogtepunt",-10.72203075073202],["groeit",-10.72206972321735],["slechter",-10.722150762690303],["terugge",-10.722924241651139],["schermen",-10.723154731608805],["!’",-10.723510327911695],["genodigd",-10.723727196216384],["student",-10.72419142378469],["uitgaven",-10.72445799203393],["verplichting",-10.724512816728804],["beantwoord",-10.724730058447058],["spring",-10.724935407719878],["ria",-10.725472459636096],["drome",-10.725626792621416],["kogel",-10.726014733174317],["trainen",-10.72629197897144],["Nij",-10.726441389858426],["Wim",-10.727212625304025],["zeventien",-10.72807813701403],["Dia",-10.72844846839597],["GL",-10.72848735209189],["Gre",-10.730115692678343],["herhaal",-10.730413574240453],["elaar",-10.731970618915964],["laan",-10.732649553342835],["lessen",-10.733475404556554],["hemel",-10.73349291144444],["blind",-10.73418476575247],["uitsluiten",-10.73506944797058],["EX",-10.735426593920227],["ontslagen",-10.73584127854685],["steunen",-10.737428514208133],["amp",-10.737877472753132],["ucht",-10.73788736458362],["Kim",-10.737957281729594],["belast",-10.738557951376691],["Don",-10.738862758621],["Lew",-10.738910262666812],["activisten",-10.738932626565491],["spa",-10.738937183904078],["Mexic",-10.739456567293402],["toegankelijk",-10.739571281013642],["TikTok",-10.739571806230957],["Zaterdag",-10.739571953227422],["download",-10.739577311711374],["Partij",-10.739578287108527],["Amazon",-10.739579384058688],["wappie",-10.739625654256992],["toilet",-10.739644092305314],["migratie",-10.739680970930285],["generaal",-10.739707782890852],["belofte",-10.73982462476038],["constant",-10.739847221569866],["ontving",-10.739957987989992],["Smith",-10.739965339387508],["hip",-10.740028475842113],["west",-10.740207150375664],["Vraag",-10.740323524004568],["hoven",-10.740372408345161],["Kees",-10.740633100948328],["uitbreiding",-10.740646564759357],["verklaar",-10.74122225153962],["onschuldig",-10.741311828322608],["more",-10.74133227284785],["dreiging",-10.7413495643566],["topic",-10.74136058096681],["beweer",-10.742255084062457],["staking",-10.742519297992894],["jagen",-10.74266399380841],["bevat",-10.742692142748346],["Spot",-10.742992261879794],["Ji",-10.743443669502103],["gebruikelijk",-10.743620733546637],["evenementen",-10.74385621698875],["beschermd",-10.744021300464862],["Ye",-10.744796677772756],["Ford",-10.745402999949079],["Kno",-10.745723089852445],["verdwijn",-10.745963324441844],["verklaard",-10.746197327817404],["gedreven",-10.746868597235215],["staf",-10.747592606765558],["Neem",-10.747730071617937],["Meta",-10.74821309830062],["Dav",-10.748403225417556],["oudste",-10.748571303737428],["knap",-10.748618186767343],["constructie",-10.749023952914769],["%.",-10.749314944429788],["allebe",-10.749486722756131],["plas",-10.750051786034016],["celstraf",-10.750660153411795],["vecht",-10.750722457871735],["haak",-10.750911942024521],["behaald",-10.75118459173145],["uitgesteld",-10.75347619910859],["kstra",-10.753996678382897],["ail",-10.754105901003054],["ties",-10.754673766156516],["standpunt",-10.754791248431323],["lidsta",-10.755050146424264],["letje",-10.755074934235648],["schijnt",-10.755267256615026],["wijd",-10.755445475494168],["meneer",-10.755538462049174],["stoten",-10.755575711129612],["Wouter",-10.757125535706216],["lied",-10.758067554554469],["gemak",-10.758840516459227],["verklar",-10.759056334428792],["spin",-10.759166188437788],["vriendelijk",-10.75945003403523],["waterstof",-10.760003830085733],["poli",-10.760093210889805],["inhoud",-10.760288376016529],["ME",-10.760609321558508],["Trans",-10.760722696822725],["Republikein",-10.760847875356598],["identiteit",-10.760847919157348],["tentoonstelling",-10.760847965163409],["innovatie",-10.760848061737125],["Burgemeester",-10.760848374035342],["juich",-10.760848946514738],["Leidse",-10.760848984785673],["Taiwan",-10.760849084100464],["Leuven",-10.760849882094105],["Precie",-10.760850528134732],["herfst",-10.760852463246392],["gezelschap",-10.76085983839552],["botsing",-10.760918914301993],["nuttig",-10.760973232208599],["ranglijst",-10.761009120430924],["laptop",-10.76105306775752],["RTL",-10.76110676760916],["Media",-10.761126068106282],["Midden",-10.761158068243963],["noteerde",-10.761546344927261],["wandelen",-10.76170798135989],["taxi",-10.761832653689037],["Kun",-10.762432605413988],["elite",-10.762700761386522],["ingrijpen",-10.762803690853568],["bezocht",-10.763461031538338],["Normaal",-10.763975587979038],["passagiers",-10.764174053242757],["tisch",-10.764789693314741],["emotie",-10.764856131790905],["AB",-10.764922490380165],["taken",-10.765129774619332],["games",-10.765146755205798],["62",-10.765257231535031],["diversiteit",-10.765313567426539],["NB",-10.765367566842553],["indien",-10.766095641512369],["uni",-10.766220232599608],["Afrikaans",-10.766379549139641],["mmers",-10.766686533966475],["stom",-10.766920708005662],["heus",-10.767207788507326],["onbekend",-10.767219503027613],["graad",-10.767368893471092],["oefen",-10.76861695440236],["oek",-10.769071996633953],["luister",-10.769350656574556],["likken",-10.769531497096153],["afwachten",-10.769552560924755],["Goud",-10.770288624072107],["gewezen",-10.770364453135983],["76",-10.770394840011702],["eck",-10.770419361386436],["munitie",-10.771039516054193],["bleke",-10.77116416303652],["Bern",-10.771237311198654],["kritisch",-10.772513489320383],["doek",-10.772558536010596],["bussen",-10.776612839344308],["smaak",-10.776772397243144],["groeide",-10.778647668387666],["BA",-10.778706928694264],["provincies",-10.779603983973722],["ophef",-10.780092916387497],["potentie",-10.780120376232155],["digita",-10.780388848139026],["peil",-10.7805409731006],["akker",-10.781314023799162],["gevaccineerd",-10.781366909004134],["spoed",-10.781596599154195],["under",-10.781764514357343],["Zeeland",-10.78180968719827],["religie",-10.782583140860089],["studio",-10.782587050146446],["Gronings",-10.782587168319049],["wekelijks",-10.782587390047437],["onmiddellijk",-10.78259087447612],["idiote",-10.782591121790999],["aanpassing",-10.782591146039277],["dokter",-10.782596024272713],["docent",-10.782608163185454],["Syrië",-10.782618909711763],["Berlijn",-10.782633260012684],["sponsor",-10.782642000057184],["spier",-10.782647990730563],["cursus",-10.782672675783644],["beslissen",-10.782816210938758],["Momente",-10.78285027464414],["Oud",-10.782945613510737],["jongere",-10.78295351799295],["houder",-10.782973480926378],["discriminatie",-10.782995982743188],["boei",-10.783022110163605],["klus",-10.7830222360708],["verrast",-10.783030741347456],["noch",-10.78325427694087],["toevoegen",-10.783334525445882],["fluit",-10.78353237164255],["mentale",-10.783636618427394],["Jezus",-10.78364489516665],["ord",-10.783726237823348],["Nick",-10.783949650426852],["bevoegd",-10.784039689574096],["ticket",-10.784348958406195],["benader",-10.78478404077977],["middenvelder",-10.786284703142698],["rey",-10.786754601818933],["migranten",-10.787355672767074],["verlaagd",-10.787954128482989],["Von",-10.788052698726705],["scheel",-10.788912496729338],["veer",-10.788990625517032],["menselijke",-10.789100349011903],["omvang",-10.789185382764886],["bloem",-10.789377989002224],["afsluiten",-10.789507553475122],["roken",-10.790145188992366],["actieve",-10.79038333824505],["Ons",-10.790595991185144],["consument",-10.790791608686412],["Wester",-10.791071445138794],["nabij",-10.79111086481422],["lijnen",-10.79238108070975],["Top",-10.792477912528561],["ideale",-10.792714512816],["toonde",-10.79293261751345],["voorzieningen",-10.792935504766543],["bewegen",-10.79309350089192],["vloei",-10.793096882854046],["verhoogd",-10.793218680343998],["knip",-10.793711440988943],["toenam",-10.794346386592792],["té",-10.794770736197535],["gedachten",-10.796094766366565],["uitgang",-10.796292108480039],["onderhandel",-10.796392981278803],["lip",-10.79643841060638],["chao",-10.79648480327478],["zogenoemd",-10.796517057315766],["instelling",-10.79673933353909],["gegroeid",-10.796812156751002],["gave",-10.796903408292808],["eindig",-10.797098451418293],["woede",-10.798308727721466],["Wh",-10.799209104084529],["degene",-10.799605680913896],["ola",-10.799670802984378],["77",-10.799977249447265],["68",-10.799995020457612],["Cel",-10.800349101100045],["Bert",-10.800649687727883],["dos",-10.801275760929464],["verleng",-10.801357176115253],["artsen",-10.80203530159171],["appel",-10.80221648097163],["forse",-10.802235381474434],["spreek",-10.802497418259978],["ST",-10.802618444016094],["zaam",-10.803043871178545],["scheur",-10.80329902279842],["gaard",-10.803596073410233],["blanke",-10.803770576517062],["kaars",-10.804332630607611],["daags",-10.804618438291046],["conservatieve",-10.804809228120426],["instrument",-10.804809231793687],["Dinsdag",-10.804816834489255],["ingewikkeld",-10.804835831137915],["Donderdag",-10.804840893129604],["zoektocht",-10.804897565519743],["schuil",-10.805053873796089],["ture",-10.805401284561745],["gedeeltelijk",-10.805708442848712],["mbo",-10.806174641825688],["verlagen",-10.807377327259509],["concept",-10.807532985808216],["presenteer",-10.807550252566546],["Mathi",-10.80777813729975],["verdubbel",-10.808093141221324],["schrap",-10.808172995353457],["liberale",-10.808471455525009],["kampt",-10.808796383817013],["tour",-10.809353200907035],["sterf",-10.809640569956786],["zig",-10.809782025654929],["achteruit",-10.809810173439267],["verdiend",-10.810108819046114],["beleef",-10.81052790653153],["beschikt",-10.810874238925248],["vermist",-10.811317486319224],["behoor",-10.812203541936341],["omlaag",-10.812376064701283],["ax",-10.812543287113657],["AP",-10.813021874167525],["ervaringen",-10.813694191188382],["ambt",-10.814119760204807],["onrust",-10.814757334048963],["lelijk",-10.814960704032956],["huren",-10.815054875367839],["bla",-10.815339069893067],["commun",-10.815594398212475],["behulp",-10.815610129510494],["abel",-10.815646826721258],["kok",-10.815659337607102],["Serie",-10.815843900301154],["moeilijker",-10.81616956644821],["grijp",-10.816438535750969],["enigs",-10.818475292988989],["achteraf",-10.818857815864199],["baat",-10.81895930570095],["maximal",-10.819314916493207],["kindje",-10.820575703652043],["ziel",-10.82076548142496],["toeslag",-10.820772102836926],["verkracht",-10.820949233652346],["voorganger",-10.821036729607814],["cadeau",-10.822112180423034],["gun",-10.822200380751203],["Zeg",-10.822462486750597],["kanten",-10.822896427239279],["overige",-10.823041740971643],["gender",-10.823324647829825],["komend",-10.824231126301958],["Kleine",-10.825363464747811],["merkte",-10.826496156568908],["menig",-10.826499552391201],["tikken",-10.82720044818318],["thans",-10.827488611777213],["Black",-10.827537879377033],["covid",-10.827540381348724],["Twente",-10.827545982958632],["Geert",-10.82754798086004],["content",-10.827577177050353],["mishandeling",-10.827738639414195],["Onderwijs",-10.827778580983198],["vulling",-10.827866887724914],["negentien",-10.828253178127472],["trappen",-10.828264458698822],["shirt",-10.828332376644338],["kippen",-10.828333839956438],["gew",-10.828372008736848],["Kamerlid",-10.828386533054356],["gedeelte",-10.828531959776416],["Marokkaans",-10.828680502328861],["staal",-10.828760083657064],["zucht",-10.828880032158622],["beveiligings",-10.828912761999156],["Sh",-10.829001102521294],["pleegd",-10.829263842573653],["stemt",-10.82962664932302],["behandelen",-10.829822510885524],["koffer",-10.829831298813758],["vestiging",-10.830107626734435],["uiterlijk",-10.830813955301988],["artiesten",-10.830986464631106],["Bon",-10.831286711069072],["blo",-10.831975442865444],["Green",-10.832350420481857],["lers",-10.832515636053607],["koek",-10.832582648701893],["KN",-10.832698297662569],["gelden",-10.833155954529662],["GB",-10.833330005234725],["enburg",-10.833830273498135],["flat",-10.834416135002488],["hing",-10.834427795660416],["enberg",-10.834536429605786],["ros",-10.834566662078844],["vingers",-10.835152166288179],["deelnemen",-10.83552654733104],["toegangs",-10.835647630683422],["waarschuwd",-10.83586295478],["appartement",-10.837448594096493],["element",-10.837461415863068],["gepast",-10.83749962035581],["bezwaar",-10.837546746319308],["Jean",-10.837559361335149],["aansluiting",-10.838590512405204],["stapte",-10.838951474030125],["án",-10.839418288114695],["Gas",-10.839894514260596],["zoge",-10.840093052267473],["inspanning",-10.840351700428856],["zwem",-10.840437009864822],["berekening",-10.84105994482767],["beest",-10.842023408465952],["ota",-10.842220322803902],["gevangenisstraf",-10.842266922246159],["voorraad",-10.843279736597063],["situaties",-10.844638603318403],["Mat",-10.844986356494344],["leverancier",-10.845922427779554],["uizen",-10.846150468791631],["meren",-10.84730154963678],["moe",-10.848665688292494],["vuil",-10.849128310975116],["vorder",-10.84989332724603],["Bur",-10.850208811051784],["cli",-10.850240263100812],["cro",-10.850248299178268],["erkenning",-10.850385258767798],["reeds",-10.850564709864836],["diploma",-10.850791480577755],["Zwolle",-10.850792315601897],["demonstrant",-10.850792317758053],["Parlement",-10.850792463006218],["besparing",-10.850792547222635],["preventie",-10.850792756569803],["organisator",-10.850792900503459],["scheidsrechter",-10.850794371486984],["Vlaming",-10.850797055714642],["material",-10.85079779099636],["confronteer",-10.850798971194067],["Plus",-10.850816885429637],["aanrijding",-10.850818399943858],["debuut",-10.850819294405614],["voorspel",-10.850834587262215],["Group",-10.85086756851467],["ouwe",-10.850900037590272],["arrestatie",-10.850955716088029],["aanvoerder",-10.851488503136276],["redactie",-10.851883969902834],["perk",-10.851978770891172],["AC",-10.851983683793957],["pijl",-10.852107398546442],["kenmerken",-10.852366277706986],["vergelijken",-10.852748397724284],["):",-10.853168409843716],["single",-10.853445020230524],["Britt",-10.853474268752679],["islam",-10.85357034104263],["opeens",-10.85375520241087],["rivier",-10.853813472215652],["ontbre",-10.854303099143012],["eigendom",-10.854465081906946],["88",-10.854504827319868],["stoelen",-10.854508685235638],["vooraf",-10.85457878128873],["Brand",-10.855177869975925],["hevige",-10.85549031933433],["wereldtitel",-10.856195918844078],["schuif",-10.856539028925734],["gelijke",-10.85688616354686],["buurland",-10.857044079390317],["geheime",-10.857210103736364],["samenwerken",-10.857542551922982],["organ",-10.857850486564901],["!”",-10.857927167049702],["Giro",-10.858706013110648],["wassen",-10.859622456010474],["lading",-10.85964422754616],["uitvoer",-10.859889286936513],["uth",-10.85999023287349],["verricht",-10.860287341267334],["drang",-10.860793002814782],["beschadigd",-10.862147353974274],["rac",-10.86225689470471],["droogte",-10.862312437875385],["feesten",-10.863444440887488],["gister",-10.863466820441072],["letten",-10.864261472174206],["trainings",-10.86456908989963],["drink",-10.86529739481331],["label",-10.865356308685355],["vermeld",-10.86544418259329],["vastgoed",-10.865486950763035],["ara",-10.865962584112449],["zwanger",-10.866151183145707],["oefenen",-10.866560618540383],["deelname",-10.866695601227047],["lukte",-10.867284782106559],["renners",-10.867741077689404],["Cla",-10.867834792902503],["menselijk",-10.868782589061684],["Kroati",-10.869718399799785],["emand",-10.86983683336146],["immer",-10.870595317094159],["uel",-10.871020491031466],["diende",-10.871054362677626],["Qu",-10.872506987731338],["Game",-10.872868147418188],["goedkope",-10.873028572008725],["Leg",-10.873445816457087],["duurzaam",-10.87402390199795],["verwachte",-10.874322692408928],["multi",-10.874536789473762],["communic",-10.874575202496858],["Belasting",-10.87459952371441],["commissaris",-10.874601838639862],["Institu",-10.87460184824208],["overtreding",-10.874602382304982],["goedgekeurd",-10.874603934911168],["heftig",-10.874604499350845],["amateur",-10.874604925579408],["affaire",-10.874607179776971],["George",-10.87461014301936],["continu",-10.874628146275578],["goeie",-10.874715852451555],["Zondag",-10.874787798807787],["AR",-10.874815627794174],["negentig",-10.874824646127259],["koste",-10.874888047427651],["slepen",-10.874950486071377],["arbeiders",-10.875058614778283],["brok",-10.875075647644525],["bevatte",-10.875096115281586],["vermijd",-10.875190944404599],["betaalbaar",-10.875609295014216],["verdediging",-10.875681381395491],["journalistiek",-10.875760407288102],["sub",-10.875780240421342],["tage",-10.875830770763917],["mode",-10.875936409134741],["Slecht",-10.875953753615576],["Korea",-10.876194116645785],["reedt",-10.876242304675838],["inkomens",-10.876668597896662],["toneel",-10.87694526296523],["Afghan",-10.877701700471373],["zing",-10.878387306708415],["streek",-10.878564088844167],["Hond",-10.879159995849196],["tienduizend",-10.879954616392322],["Australi",-10.880575139069109],["Ok",-10.880650497599374],["pijnlijk",-10.880940833466537],["Kev",-10.881345148361643],["leest",-10.881955132281789],["rian",-10.882274028511024],["gooide",-10.88237879073108],["meent",-10.882396561231378],["fijne",-10.88324821383107],["ubai",-10.883275965304748],["130",-10.88331182711628],["IV",-10.88332106193496],["paarden",-10.883606855819842],["uurtje",-10.88439121555074],["formatie",-10.884493465338654],["mac",-10.885165956527509],["akken",-10.885357447174039],["rondje",-10.885383277544998],["sier",-10.885722345300934],["kritische",-10.885766290749448],["thee",-10.886226384115576],["lonen",-10.886659767225627],["zielig",-10.887316764353681],["bijstand",-10.887469108213725],["zuur",-10.88749546723877],["teller",-10.888813647112128],["gemist",-10.890109661413518],["cker",-10.890607979796686],["mevrouw",-10.89085453975479],["truck",-10.89090842119196],["soortgelijk",-10.891004069377907],["hersteld",-10.891401459328694],["cancel",-10.893090496402529],["Oude",-10.89354782526951],["drijf",-10.893715554496955],["aankomst",-10.89402507412315],["idd",-10.894190076173542],["cle",-10.895042307974123],["GG",-10.895587454076304],["fit",-10.896271249338977],["overgang",-10.89642291397967],["neutra",-10.897794781750406],["Argenti",-10.898988786593677],["marketing",-10.89899237028926],["hobby",-10.898992571090552],["schrijving",-10.898992595396184],["WhatsApp",-10.898997407965279],["infectie",-10.899006835071148],["Schouten",-10.899010593929084],["gids",-10.899018486357846],["documentaire",-10.899023946627281],["Apeldoorn",-10.899032958914098],["vlogen",-10.899055854438163],["geduld",-10.899065238347038],["grijs",-10.89944718594925],["cross",-10.899451235402239],["straling",-10.899492425270292],["sensor",-10.899538527378073],["duurzaamheid",-10.899801994384216],["Tor",-10.900183273418445],["ward",-10.900216722227716],["laagste",-10.900456890688234],["Brusselse",-10.900673434807201],["beschuldiging",-10.900726092280046],["Zit",-10.901281731659259],["oplever",-10.901325947350614],["succesvolle",-10.901474059553761],["neger",-10.902042891794629],["zondagavond",-10.902150748613048],["criminaliteit",-10.90262796206729],["?\"",-10.902721329974637],["toegest",-10.902757881795218],["Beste",-10.90283217011152],["room",-10.903151123535558],["Zweeds",-10.903328454529198],["kelder",-10.904991322197642],["halver",-10.905470622646348],["star",-10.905784042643427],["vice",-10.905955935024393],["cellen",-10.906145681259932],["plank",-10.906228229977922],["verse",-10.906454201456164],["nieuwbouw",-10.906570863560898],["Chris",-10.906602532004934],["zaamheid",-10.906627111841289],["handeling",-10.907484923556108],["Zal",-10.907632552208048],["dwingen",-10.907903736648484],["Hol",-10.908039352208254],["imi",-10.908859147602278],["vorming",-10.910665892940013],["Joris",-10.911718986157782],["tiener",-10.913127405637919],["hecht",-10.913343220348725],["Iedere",-10.914795534902494],["kilometers",-10.915435159218307],["700",-10.91580093503979],["Pere",-10.915859571802248],["gelijkheid",-10.915897127612876],["Vos",-10.915960289074784],["ijl",-10.916015873866662],["truc",-10.916645288378103],["ingevoerd",-10.916668971712705],["bui",-10.916920675452923],["duid",-10.917171893011218],["huilen",-10.917574748954387],["Ton",-10.918290906373631],["120",-10.918490444038657],["subsidies",-10.919610562070368],["agentschap",-10.920028675439937],["machts",-10.920118654307352],["aanleg",-10.92018984291465],["verkrijg",-10.922080921007316],["econo",-10.922212697334414],["rechters",-10.922419694972325],["zuinig",-10.922475993044515],["ado",-10.923146511736007],["psycho",-10.923576344452863],["concludeer",-10.923992082402888],["vacature",-10.923992104857222],["context",-10.923992327664678],["lobby",-10.923992742734324],["maandelijks",-10.924020019343946],["knuffel",-10.924022564542065],["uitgeschakeld",-10.924046281932611],["illegale",-10.924059529340981],["indrukwekkend",-10.924072278552302],["douan",-10.924074695844853],["eredivisie",-10.924098007281131],["biologisch",-10.924099872978577],["illegaal",-10.924106351049423],["klassement",-10.924174940864471],["strafschop",-10.924186166860713],["ontwikkel",-10.924262755625824],["corruptie",-10.924299175595102],["promotie",-10.924505263393801],["huisvesting",-10.924532929285302],["verbazen",-10.924587062659034],["professionele",-10.9246286555216],["knoppen",-10.924630101805313],["klassieke",-10.924795201152378],["richtlijn",-10.925088831512687],["sportieve",-10.925269136913773],["Thijs",-10.925405831374698],["statushouder",-10.925810872855081],["sterven",-10.925974104252113],["rechtvaardig",-10.926075933569125],["rassen",-10.926380589369408],["wandeling",-10.926478977630916],["begrijpelijk",-10.92649656311378],["server",-10.926663363052924],["griep",-10.926819476190666],["Flori",-10.926825871399792],["energierekening",-10.9269912288527],["verblijven",-10.927231592913946],["werf",-10.927406627091077],["Nieuws",-10.92756541341511],["voorbereiden",-10.927853506297648],["Mont",-10.927915141291965],["Bekijk",-10.928126731903896],["Fra",-10.929959248135324],["getuige",-10.92997258598839],["eeuwig",-10.930027500776557],["krui",-10.93003948012812],["ontdekte",-10.930436651571124],["scheiding",-10.9313428836959],["Eerste",-10.931346339718115],["Zwarte",-10.931770003138087],["Koe",-10.931997068165888],["MS",-10.932034625011177],["volwassenen",-10.932152666855362],["web",-10.932192710876247],["regelen",-10.932597408137195],["TO",-10.933373845416925],["plaatsge",-10.934168501776513],["epoel",-10.934235430442584],["rice",-10.934374488332502],["landschap",-10.934585734185024],["volgers",-10.935439656571667],["besmet",-10.936844659761562],["opkomst",-10.937515182469516],["natie",-10.938435171642217],["ploegen",-10.93861459229591],["Tur",-10.938946024417984],["71",-10.939104043359022],["Stad",-10.939243551741532],["Tijd",-10.939326675353218],["Ram",-10.939665278324675],["bach",-10.939680961625365],["bestrijding",-10.941017062411854],["machtig",-10.941062683825724],["chat",-10.941809095136641],["61",-10.94237137050709],["brugge",-10.942408649767302],["dri",-10.942591749552948],["VO",-10.942596100692713],["Sun",-10.942875467814536],["zelde",-10.943520994761364],["beperkte",-10.944222008099857],["%)",-10.944406007112335],["DP",-10.94487893421351],["Ly",-10.945119347382558],["analisten",-10.945124235859982],["Tro",-10.945567430547694],["dringend",-10.945785815430972],["heim",-10.94609322322134],["schone",-10.947023217951816],["worstel",-10.947499618017696],["storten",-10.948158663448673],["verdriet",-10.949085932739852],["Rotterdams",-10.949104824582083],["cocaïne",-10.949633108053844],["Museum",-10.949633353005217],["druppel",-10.949633474001981],["gestorven",-10.949633874743382],["Derksen",-10.949634214692725],["verschrikkelijk",-10.949634371824516],["vrucht",-10.949634450820875],["peloton",-10.949635569089974],["immigratie",-10.949636887219796],["aankondiging",-10.94964195336065],["beledig",-10.94964335249962],["SUV",-10.9496441420338],["strenge",-10.949647824952493],["garage",-10.949651454655802],["schaduw",-10.949655874643698],["vonnis",-10.94971412587223],["uitzonderlijk",-10.94972838190862],["Visser",-10.949746336964084],["dwars",-10.949784605820536],["bruto",-10.94988191199688],["oprichter",-10.949933979689073],["zeventig",-10.94999630832544],["materie",-10.949996634797337],["Emma",-10.950010296811424],["wieler",-10.950048966032977],["Spanjaard",-10.950069064029728],["gespecialiseerd",-10.950208443665375],["Gister",-10.95041962586461],["romp",-10.950541596713268],["lippen",-10.950590219763255],["prijsstijging",-10.950632056568905],["éér",-10.9506323941931],["vrolijk",-10.950669545581144],["alia",-10.95091201844278],["triest",-10.951236297154281],["schrift",-10.95156171286628],["Onderzoek",-10.951680985226485],["Tien",-10.951713228166103],["begeleiding",-10.951881439919314],["Waal",-10.952041799303338],["Brun",-10.952121157084783],["istisch",-10.952751621517521],["kaas",-10.95285791370948],["behoren",-10.953016110722025],["nachts",-10.953865911918657],["vastge",-10.95404319139462],["IP",-10.955011133136475],["ologie",-10.955300957315568],["tand",-10.955544252525458],["welvaart",-10.956091103933035],["sporters",-10.956115546693633],["nomen",-10.95618097694705],["Hei",-10.956305443550985],["breid",-10.956468432546766],["ezorgd",-10.95668736511347],["vroege",-10.956714260373621],["voegen",-10.956843609797527],["pri",-10.957381704077111],["Franc",-10.958676975833384],["anten",-10.95888730829416],["Tri",-10.959154688973875],["uif",-10.959304506967065],["Zu",-10.959496294342522],["helm",-10.959510634161962],["geluids",-10.959601897347554],["houders",-10.959695550891327],["getraind",-10.959837019391795],["cast",-10.960227715112877],["aanhouding",-10.960682876230706],["ritten",-10.960727441362925],["kernwapen",-10.960841415902873],["gedur",-10.961050918729686],["ondersteunen",-10.961413742420277],["zië",-10.962202844203663],["vreemde",-10.96251342177887],["lease",-10.963144154429857],["toets",-10.963530739174463],["geble",-10.963868644910697],["klacht",-10.9639650709546],["parlements",-10.964223492535393],["raans",-10.964261709828547],["drukke",-10.964426454563549],["Che",-10.964915369613081],["nota",-10.965032297351186],["Carlo",-10.965718427692892],["vatten",-10.966137994836505],["slu",-10.966213457167154],["You",-10.966591113869914],["ius",-10.966620836344603],["ouch",-10.966880289467746],["opmerkelijk",-10.966927170160613],["ondersteun",-10.967193589577287],["overval",-10.967557037303841],["Dieren",-10.968268203616242],["aap",-10.969365961013192],["lamp",-10.969881473219235],["operatione",-10.970937298039367],["iers",-10.972120341105837],["besprek",-10.97227558609905],["rant",-10.97337829955322],["overleefd",-10.973722253042471],["dé",-10.974180749159876],["mix",-10.97420741237838],["trauma",-10.974328518564194],["slaagde",-10.97564748480795],["fun",-10.975894563804998],["object",-10.975915708985527],["Amersfoort",-10.97594889752042],["Microsoft",-10.975948897572529],["München",-10.975948897588612],["vleugel",-10.975948901391945],["Chelsea",-10.97594895545967],["karakter",-10.975949025762443],["satelliet",-10.975949050254837],["kapitaal",-10.975949342328196],["Blue",-10.975950121674494],["geregistreerd",-10.97595080583596],["schutter",-10.975950825269987],["factuur",-10.975951272751859],["plotseling",-10.97595475965837],["Sparta",-10.97595942077572],["afbeelding",-10.97598564950274],["panelen",-10.976008870026105],["Tilburg",-10.976030561335788],["gestapt",-10.976091012245012],["blokkeren",-10.976141492412639],["buigen",-10.97622649205522],["toezichthouder",-10.976262208607864],["Voic",-10.976264299348642],["vergeet",-10.976418126898373],["limiet",-10.97651001263193],["lanceer",-10.976600579940355],["tranen",-10.976630484250741],["remmen",-10.97714273192759],["wisseling",-10.977148502082061],["betrekking",-10.977179845848433],["gewenste",-10.977284130987854],["transactie",-10.977453474483148],["Union",-10.977786474795728],["vee",-10.97794386176699],["beleg",-10.978032799142529],["zwaai",-10.978212535537622],["beheerder",-10.978342287097737],["vervolgd",-10.978422629883234],["semi",-10.978500370174022],["part",-10.978506319687652],["brein",-10.978552055156776],["terugkeren",-10.97857839114889],["Best",-10.978683546717651],["peiling",-10.978924615429019],["RO",-10.979101457516471],["Mc",-10.97923744174986],["tanks",-10.980271854139072],["schenk",-10.980558934528384],["valse",-10.980655104645415],["Gar",-10.98089853031065],["uitgebracht",-10.981514714032478],["Eigen",-10.982260114957496],["directie",-10.982264627721802],["row",-10.982416059331769],["reus",-10.982436345608972],["Vind",-10.982609100842296],["NU",-10.98300161859632],["vervanger",-10.983370792236503],["assist",-10.983464665146016],["ella",-10.983614375161707],["KV",-10.983776751619173],["Leeuw",-10.984093867368115],["Philips",-10.984528646338552],["zwijgen",-10.984556297433995],["Tele",-10.98491186804253],["uff",-10.984940018135886],["ongekend",-10.985000087845775],["stapje",-10.985692146647846],["Gri",-10.985797535656193],["Zeven",-10.985864883843],["Nor",-10.987635088471153],["geslacht",-10.987919367647754],["bewuste",-10.988301124093343],["Vergee",-10.988768191273964],["lei",-10.99113606216169],["uitleg",-10.991959250700562],["liedjes",-10.992306375623894],["ool",-10.993403061916695],["gebruikte",-10.993471394613465],["crucia",-10.993493267359739],["ambte",-10.993817174779997],["concrete",-10.9943879065818],["NC",-10.994761271357785],["Stor",-10.995497100298564],["ric",-10.99593390107851],["pap",-10.995948916995978],["OC",-10.996400014637548],["beveiliger",-10.996513450635218],["kov",-10.996912601763075],["Maarten",-10.997149894630986],["Marco",-10.997378387425455],["tekening",-10.998192920005897],["beroeps",-10.998310137375585],["herdenking",-10.99961729958427],["shit",-10.999925986082905],["opzet",-11.00071210751125],["diens",-11.00088391168178],["Hele",-11.001405105222238],["column",-11.001789623939],["Hor",-11.00190674883925],["creëer",-11.002473254134504],["helikopter",-11.002958250428385],["portefeuille",-11.002975924544113],["quarantaine",-11.002975924594558],["maximum",-11.00297592486744],["psychisch",-11.002975925788954],["tribune",-11.002975943831657],["smokkel",-11.002976027724163],["YouTube",-11.002976474225074],["geruchten",-11.002981171882038],["bagage",-11.002988080833958],["verslaggever",-11.002989136779192],["Emmen",-11.002999672621343],["ction",-11.003120363365353],["windmolen",-11.003140801485447],["koploper",-11.003156870114232],["Visma",-11.003193931776808],["Lei",-11.003261152083585],["Winter",-11.003290592123737],["betrapt",-11.003358665720173],["verdeling",-11.003397711857591],["vlaggen",-11.003496213634225],["presentatie",-11.003503376536587],["loopbaan",-11.003737200657056],["aanvankelijk",-11.003882626215315],["opsporing",-11.003915099659196],["Opvallend",-11.00450778665558],["old",-11.004692877972413],["day",-11.005404011266872],["vlot",-11.005613281198787],["racistisch",-11.00561436845041],["uitbreid",-11.00561830082269],["sim",-11.005753147538798],["inhoudelijk",-11.006047576011923],["doodge",-11.006298236163975],["Pel",-11.006879082829103],["mark",-11.007197539066766],["Luka",-11.007232967281642],["Nord",-11.007758178955974],["ariev",-11.008239650427338],["keeper",-11.008386178567342],["Gir",-11.00858404412193],["kamers",-11.008703962412323],["stations",-11.008747439933884],["Sam",-11.008913408759724],["bekek",-11.009835364781967],["verbaasd",-11.010434009698802],["tweehonderd",-11.01124502929937],["emco",-11.011684430470071],["Stee",-11.011834364185198],["HO",-11.011842180233046],["opgeleid",-11.012102246067064],["renner",-11.01301909202927],["Rog",-11.01374618696544],["gepubliceerd",-11.013876304337149],["Eric",-11.014424573558507],["bestur",-11.014958878652347],["Elk",-11.015286780293186],["straal",-11.01550181666592],["handhave",-11.015653585083186],["TI",-11.016109523875858],["verbrand",-11.017323332362077],["personeels",-11.017372269983763],["bepaal",-11.018129757080098],["Wall",-11.018303463198663],["State",-11.018860091693757],["nadenk",-11.0194435361985],["verliefd",-11.01985569477532],["trekkers",-11.020299909707035],["opgericht",-11.020515316735821],["nationaal",-11.020653252746003],["titels",-11.020718343059626],["koken",-11.021335717153319],["klem",-11.021437370343746],["nier",-11.021491286930425],["My",-11.0220754091888],["train",-11.02217450776568],["openlijk",-11.022387114723834],["patiënt",-11.022627152534884],["grijze",-11.022686349358041],["beheers",-11.022858568534076],["Canade",-11.023795998946184],["geldig",-11.023847101322144],["lijstje",-11.02393989539017],["arme",-11.025457657745703],["schadelijk",-11.026308051422705],["56",-11.026324184517595],["voorgaande",-11.027555734725603],["fossiele",-11.027917419603295],["lastige",-11.028312406385595],["stille",-11.02942417609446],["onderteken",-11.029795560923954],["reikt",-11.029913437490347],["mobilis",-11.030730505416367],["administratie",-11.03075370232812],["Sinterklaas",-11.030753705509767],["district",-11.030753716436394],["Erdogan",-11.03075372124152],["Pogacar",-11.030753769856272],["gewelddadig",-11.03075386432872],["penalty",-11.030754575874054],["bitcoin",-11.030761791663656],["Dirk",-11.03076238817786],["toeschouwer",-11.030765243480678],["isolatie",-11.030766038929917],["segment",-11.030772115141474],["heffing",-11.030773864029701],["Natuur",-11.030777114252793],["aanmerking",-11.030791980333854],["omikron",-11.03080181802736],["Volkskrant",-11.03081886641383],["cilinder",-11.03086298552942],["Wetenschap",-11.030903568269006],["neef",-11.030949286215087],["brons",-11.030956724696154],["voortdurend",-11.03098515978205],["Pan",-11.03099258293142],["Christian",-11.03100666015541],["Stefan",-11.031038298187088],["boks",-11.031041204734752],["permanent",-11.031165742220937],["ness",-11.031230649876814],["drager",-11.03138365624286],["óó",-11.031566835483941],["besef",-11.031751735631723],["plu",-11.031993019057875],["Burg",-11.032194862375821],["Jack",-11.032984188933058],["meermaals",-11.033120742259475],["betreffen",-11.033354941297663],["Time",-11.033495507985922],["vervolgt",-11.03366969885295],["KNV",-11.033750940965895],["potenti",-11.033954203200562],["bezorger",-11.033984705238154],["molen",-11.034100445247887],["barst",-11.034102310540122],["rad",-11.034222466846444],["vuurwapen",-11.034475577769541],["Economisch",-11.034607244037566],["Pet",-11.034680255475429],["Hart",-11.034913604587224],["busje",-11.034921528200407],["Cent",-11.035619435119955],["belde",-11.03568611014426],["vierkante",-11.035805771732978],["koopt",-11.035833062079861],["zaai",-11.03592018543521],["schreeuw",-11.036167582464842],["bestrijd",-11.036172960245544],["Brabants",-11.036569449301428],["lift",-11.03687248174482],["mmy",-11.03700101236837],["steekt",-11.037308448121546],["offs",-11.037450429565176],["Hollandse",-11.03816549992381],["tevens",-11.038579619747031],["Ouder",-11.03858970484911],["geweten",-11.039237431741435],["Tag",-11.039244937128286],["blog",-11.039245909664851],["aandeelhouders",-11.039297846758817],["instroom",-11.039585760012297],["rail",-11.039839219139061],["onterecht",-11.04012310657201],["onderling",-11.040502629501798],["rijtje",-11.041151682491947],["klim",-11.041236441385879],["arrest",-11.041242444718648],["gekend",-11.042176091979028],["pond",-11.042498420545176],["winnaars",-11.042604325081289],["verzameld",-11.042625559634075],["rare",-11.043239823417142],["botst",-11.044100071374336],["beschik",-11.04412496891124],["schrijf",-11.044613139030794],["900",-11.045620396241413],["kleed",-11.046076462631055],["eltje",-11.046465090174898],["tijdig",-11.046588965442966],["aanhanger",-11.047290763556013],["Staats",-11.047563230095262],["kondig",-11.047673682652617],["zong",-11.04774810250021],["schatte",-11.04782683408959],["oordelen",-11.048521022330815],["gedo",-11.048794160780647],["ctie",-11.04903845167734],["verkoopt",-11.049494669824266],["efficiënt",-11.050590167563762],["pech",-11.050767873343823],["plaatje",-11.051508745789725],["jas",-11.051849613257142],["RT",-11.05192505379625],["84",-11.052014970205235],["rus",-11.052431128869076],["logo",-11.05252846267397],["jongetje",-11.0525651486916],["ble",-11.05256935251225],["Queen",-11.052573800825218],["bakke",-11.053996585591708],["Camb",-11.054606528647426],["lader",-11.055961377753544],["beschouw",-11.057559479431523],["compens",-11.058387139370137],["planeet",-11.058848922577324],["Boeren",-11.058881300583744],["donkere",-11.059109182505194],["bril",-11.0591717930307],["doos",-11.059300889154283],["spectaculair",-11.059325130894736],["obligatie",-11.05932513582056],["President",-11.059325138834634],["Aziatisch",-11.059325146284156],["verpakking",-11.059325152951988],["hectare",-11.059325169402445],["Verschillen",-11.059325211267065],["Woensdag",-11.05932597696597],["rabië",-11.059326340049864],["centimeter",-11.059326845140964],["carnaval",-11.059326872371587],["valuta",-11.059329570801907],["stunt",-11.059330745278354],["Disney",-11.059344615876409],["jurk",-11.059347510563525],["Croo",-11.059350368127586],["investeerders",-11.059370675724749],["Gelderse",-11.059375311929365],["HEM",-11.059386783830524],["Moeder",-11.059405467257342],["Volkswagen",-11.059414644413016],["volume",-11.05944195756717],["planning",-11.059463127987435],["Gerrit",-11.059594498540193],["zwemmen",-11.0597464038691],["VRT",-11.059991572929023],["kleuter",-11.060004177852026],["zó",-11.06020064924224],["hielp",-11.060258723642654],["gepresenteerd",-11.060624902617151],["waardering",-11.060632674741596],["Utrechtse",-11.060862523174672],["gedoe",-11.060946919949137],["poep",-11.061240491998646],["Feder",-11.061287281679235],["dramatisch",-11.061353989667536],["kolen",-11.061393606593212],["kenteken",-11.061398587173317],["verzekerd",-11.061523535369282],["kruising",-11.061732259748082],["interessante",-11.061910551961745],["verkoper",-11.062286640277406],["Belang",-11.062335320158985],["getuig",-11.062618014225384],["baal",-11.06322036119283],["doelgroep",-11.063342938450742],["staakt",-11.063362953705386],["Beet",-11.063854006060437],["afnemen",-11.064344738741937],["waarts",-11.065277722898113],["erkennen",-11.06551115753139],["opinie",-11.065942527571963],["vergroot",-11.06598240782327],["beschuldigd",-11.066175634175162],["papa",-11.066194179055092],["uitgeven",-11.066328853912268],["interne",-11.066374572245936],["bevrijd",-11.067264094842479],["trekker",-11.069033770180987],["Els",-11.069515660854158],["ppie",-11.069792720516954],["lezing",-11.069959673170207],["teelt",-11.070028801718736],["print",-11.070104087398867],["Cu",-11.070181582122562],["gekke",-11.070941302723293],["OV",-11.07108740005101],["boze",-11.071205456393425],["rijder",-11.071242394695677],["cao",-11.071445802955378],["getrouwd",-11.071501746500642],["reg",-11.071680084699457],["stol",-11.072247698873817],["aanvoer",-11.072966046027465],["Hou",-11.07336638434662],["mooier",-11.073510994879683],["Ell",-11.073604310128918],["kiezers",-11.073648948690387],["pjes",-11.073794173355228],["werkers",-11.074002566215958],["Spi",-11.074129198378909],["varkens",-11.074409489843154],["Tha",-11.076237753130698],["buit",-11.076323237807319],["head",-11.076338943592045],["vergrot",-11.076559407416578],["Nation",-11.077263423193157],["aangeven",-11.078436996785118],["richtte",-11.078925079519644],["78",-11.079632839545209],["shop",-11.080055023663409],["mest",-11.08169486334468],["aangevallen",-11.081760251020789],["Wol",-11.081782940132014],["apparat",-11.082212902691479],["regiona",-11.082374263794161],["bevestigen",-11.083125709974263],["Stads",-11.083482274167778],["lol",-11.084394586010642],["schaffe",-11.08456084950959],["79",-11.084711592329654],["Mak",-11.085375980743889],["ift",-11.085578631072663],["Bat",-11.086444375594455],["initiatie",-11.08744306682074],["trans",-11.087502444847425],["ault",-11.08780758729203],["Est",-11.087841379190838],["versterkt",-11.087846447771335],["Turnhout",-11.088396247372073],["verzekeraar",-11.08864099509169],["archi",-11.08866012954704],["ä",-11.088736895598213],["Consument",-11.08873691037386],["puzzel",-11.088736936410204],["Joods",-11.088737659233454],["Heerenveen",-11.08873766143347],["Portuge",-11.088739273150138],["horloge",-11.088739852037573],["stiekem",-11.08874009671002],["langzamer",-11.088740371777497],["terreur",-11.088740442475261],["zuiver",-11.08874268911758],["statement",-11.088742770174857],["Zwitsers",-11.088758069709446],["nauwkeurig",-11.088764272265536],["FIFA",-11.088776002133635],["ultiem",-11.088787296919863],["geschaft",-11.088807777603803],["kroeg",-11.088838841346515],["schaars",-11.088843212653188],["School",-11.088856974497784],["strook",-11.088943671845993],["Remk",-11.088981093969316],["schadevergoeding",-11.088986409461347],["wolven",-11.089077076421107],["nieuwkomer",-11.089158107886663],["Forum",-11.089166297675167],["vreten",-11.08930491941243],["process",-11.089454708653381],["gekoppeld",-11.089492912254242],["onverwacht",-11.089732567632334],["modern",-11.09126103750058],["vink",-11.09136129715121],["jank",-11.091499263526202],["bescheiden",-11.091755874853366],["krap",-11.091819946969093],["gaaf",-11.091852279411903],["meiden",-11.092182317550622],["Weg",-11.09232813249195],["Reg",-11.093240339974074],["bewolk",-11.093322466252262],["vooruitzicht",-11.094640676130583],["Meest",-11.094882152804637],["Bak",-11.095790224385869],["hack",-11.095910139681305],["Haags",-11.09600945682843],["verwoest",-11.09610423215263],["aangewezen",-11.09733475742475],["razend",-11.09771970070317],["Xi",-11.097946208840886],["staart",-11.09885976017252],["Schu",-11.098940481314685],["mol",-11.099720844458233],["chips",-11.100579054017444],["verdedig",-11.100605669561956],["NEC",-11.10141178067507],["aannemer",-11.101513005818285],["oontje",-11.101659692983247],["Intussen",-11.101913447835859],["rock",-11.101949292851653],["vermeend",-11.102308433345836],["Burger",-11.103311948328441],["hervat",-11.104049405007498],["DC",-11.104321828462473],["gemeenteraads",-11.10513799518799],["verlopen",-11.10558283947704],["tering",-11.10562986254892],["Genk",-11.107032702921117],["cap",-11.107372951311474],["bevel",-11.107695824915961],["Las",-11.108816669209675],["Piet",-11.10896997653546],["OP",-11.110216655641086],["Act",-11.11075803873142],["snapp",-11.111155753594868],["AF",-11.111312591456606],["tenzij",-11.111400846633874],["lood",-11.111561076014295],["59",-11.11183771890194],["worp",-11.112630145915428],["mobiel",-11.112875365616919],["activiteit",-11.113597802244218],["stemmer",-11.114209781133447],["tijdrit",-11.114542886797954],["streeks",-11.114963099965529],["visse",-11.116069164622482],["RE",-11.116449300620065],["SE",-11.118164127693941],["individu",-11.118705284645054],["stoot",-11.118779824652739],["leving",-11.11891313626106],["audio",-11.118921043006994],["ceremonie",-11.11903992681341],["intimidatie",-11.119039928131075],["Arabisch",-11.119040062646066],["Oorlog",-11.119040217720244],["NIET",-11.119040294870212],["formule",-11.119041638586435],["koninklijk",-11.119041696649504],["Hitler",-11.119044409075912],["vanzelfsprekend",-11.119048897385198],["afwezig",-11.119052949304384],["letsel",-11.119055360852961],["symptom",-11.119066748915701],["Telegram",-11.119072929952473],["Donbas",-11.119082718074841],["kachel",-11.119082730324202],["beseffen",-11.11909361549106],["Volod",-11.119131480993765],["teleurgesteld",-11.119139282618494],["Stijl",-11.119184340375899],["lichtingendienst",-11.119195813591446],["hervorming",-11.119309496684435],["stekker",-11.119310888501813],["ideaal",-11.119395788202024],["drinkwater",-11.119468269398443],["Messi",-11.119495283959772],["Model",-11.119553946410285],["geïnteresseerd",-11.119617569068824],["beschouwd",-11.119694984644948],["Kerst",-11.119712312076071],["originele",-11.119755704132544],["Hout",-11.119788279973434],["bommen",-11.11983783145944],["Milan",-11.11989212365921],["verlenen",-11.119939320326571],["opgesteld",-11.12018959331666],["bevond",-11.12033445709069],["atlete",-11.120540622314904],["Ooi",-11.120554506072052],["zondagmiddag",-11.120764115392507],["pool",-11.12092601690304],["voorstander",-11.12096276067301],["kinderopvang",-11.121327274044427],["horst",-11.121473497436789],["Cre",-11.121694696576853],["Koreaans",-11.12170485996421],["geboekt",-11.121765300912024],["versoepeling",-11.12182962733283],["Bill",-11.121948294810414],["elektriciteits",-11.121966078315284],["Vincen",-11.122108798666211],["borg",-11.122124717332134],["asso",-11.12214569483975],["ongewenst",-11.122287047898038],["maag",-11.122526822170618],["flits",-11.122677184414638],["Klein",-11.122844348113757],["bestorm",-11.123275376369321],["Tay",-11.124773409669247],["Laatst",-11.125183960863238],["stukjes",-11.126479240152939],["oppervlakte",-11.126578920137398],["Bond",-11.126653929626272],["etter",-11.127164649764172],["douche",-11.127854152289219],["arbeid",-11.129408046168672],["opmerkelijke",-11.12956279055983],["Ban",-11.129585655756149],["dodelijke",-11.12971503951474],["Sander",-11.129837428185258],["May",-11.130283487977824],["Aar",-11.130632662487706],["werknemer",-11.13132576439633],["startte",-11.13200503827452],["llong",-11.132317496223408],["ller",-11.133080264871102],["MC",-11.133120353659706],["opnames",-11.133768214973141],["mondkapjes",-11.134737738769275],["gehakt",-11.1349339931089],["ingericht",-11.135127792015677],["Ur",-11.135683274260664],["vor",-11.135815612593273],["ips",-11.13586245539333],["rev",-11.136197421831687],["Camp",-11.136231090024564],["appartementen",-11.1367618672184],["Dar",-11.136773209092778],["98",-11.137164687144207],["verslaan",-11.138401585255098],["uiven",-11.138601258068833],["Hem",-11.139088977178773],["dansen",-11.139181405946042],["kno",-11.139751315664267],["oli",-11.13980517392018],["duct",-11.140007158491594],["bout",-11.140074572179861],["mid",-11.140218104749028],["verplaatst",-11.140313711098932],["noodopvang",-11.14071153057598],["kist",-11.141093096845657],["absolute",-11.14221758103408],["spe",-11.142637164664997],["fata",-11.14276364637761],["worst",-11.142784475297335],["kruip",-11.14287769375801],["Groene",-11.14296238788157],["mers",-11.144847898914419],["artiest",-11.145565681045086],["Saint",-11.1470656833868],["liegen",-11.147105172965867],["opgehaald",-11.147557018516416],["constateer",-11.148063023051886],["AL",-11.149110401172834],["afgezet",-11.149125945637236],["plege",-11.149153401970473],["rink",-11.149456928483655],["begre",-11.14977287639335],["Filip",-11.150277359353382],["complot",-11.150284347599177],["ngeveer",-11.150287382854252],["ú",-11.150289925901243],["respectievelijk",-11.150289926694054],["fragment",-11.15028995577159],["Omtzigt",-11.150290030024918],["break",-11.150290091526335],["identifice",-11.150290289212213],["Vereniging",-11.150290810031365],["koeien",-11.150297981323916],["ouderwets",-11.150318496048342],["Krijg",-11.15032902899354],["gracht",-11.150329906346085],["Kruis",-11.150355924936694],["cryptomunt",-11.150419684409995],["patroon",-11.15043419630172],["regenboog",-11.150463078737548],["gewaardeerd",-11.150653238891172],["Window",-11.150673696866676],["Sams",-11.150732050398169],["vliegveld",-11.150734283438691],["geteld",-11.150830952536708],["versterken",-11.15088179765555],["prinses",-11.150910084578515],["coronabesmetting",-11.151133872302939],["onnodig",-11.151607376534102],["leerkracht",-11.151608442753622],["velgen",-11.151620073730667],["VID",-11.151633552214259],["Award",-11.151640338784528],["Algeme",-11.152261274706467],["strafbaar",-11.152481372892456],["FT",-11.152548166200765],["Toy",-11.152589032820154],["bereken",-11.15293668994251],["monster",-11.153325690282447],["Ring",-11.153687929505315],["óg",-11.153764106470227],["bez",-11.153901252442736],["track",-11.153958033723871],["krachtige",-11.154101829008862],["gemerkt",-11.154310444573857],["Alex",-11.154352584790626],["Racin",-11.154458575128608],["emissie",-11.154644182323644],["ontbijt",-11.154942404821085],["Donets",-11.155636776780142],["opbouwen",-11.155851329008703],["tallo",-11.156709944350375],["Thier",-11.156807548142334],["Home",-11.156963372364245],["bevinding",-11.15877597773409],["Ley",-11.15908601880529],["Kamp",-11.159818744170739],["achterban",-11.159971288508322],["plaatsvond",-11.159994340724154],["snapt",-11.160005247828312],["geë",-11.161352760121424],["Maz",-11.161442705606111],["vernietigen",-11.161463230937972],["Plas",-11.161533524008176],["light",-11.161753816136711],["zeil",-11.161826421469048],["bewer",-11.161838399862594],["klassieker",-11.16232051789315],["sleep",-11.162614187167021],["VAR",-11.162700715698321],["zoet",-11.162908953142495],["exemplar",-11.163100539186008],["verplichte",-11.16358693068346],["dame",-11.165843539935965],["afgelegd",-11.166335212636733],["beschadig",-11.166938037058376],["troffen",-11.16729840589003],["verdien",-11.167913120570013],["trage",-11.16791634648253],["Stop",-11.168128354873316],["Thuis",-11.168481231176251],["rijders",-11.16902707106346],["Luik",-11.169336334426951],["daalt",-11.169741117503012],["Rechts",-11.170183820733632],["beta",-11.170208035781787],["spuit",-11.170902209709794],["ASM",-11.171254208829081],["NN",-11.171395674837994],["dodelijk",-11.171658802351741],["vertrekt",-11.172599197238872],["maaltijd",-11.173055928546304],["potje",-11.173905786314101],["topper",-11.174588283317531],["donk",-11.174776611035236],["Sha",-11.174818707919966],["voorbereid",-11.174938737572923],["ongelijk",-11.176018557924174],["Egypte",-11.176268677342552],["bestond",-11.176352927126226],["present",-11.1769475588383],["hap",-11.177038034220613],["kunstwerk",-11.17712111835254],["verton",-11.177619227277612],["zonde",-11.178393486860836],["Dol",-11.178539561448424],["info",-11.181162067126014],["trekking",-11.181178481738232],["binden",-11.181424904196916],["comfort",-11.182535282280352],["inspiratie",-11.182547990502325],["Hasselt",-11.182548026927355],["handhaving",-11.182548104260007],["onference",-11.18254829536884],["Grieks",-11.18254880097145],["Klimaat",-11.182548874968365],["cirkel",-11.182548906825838],["virtue",-11.18254898500896],["Sophie",-11.182549489642426],["glazen",-11.182549814248514],["krimp",-11.182552615765411],["achtervolging",-11.18255616844741],["MacBook",-11.18255677552479],["sessie",-11.182560083738633],["versterking",-11.182575230025972],["Klaver",-11.1825761197981],["introductie",-11.182581396464133],["aspect",-11.182605260031432],["warmtepomp",-11.182631013363862],["concentratie",-11.182636396079705],["presteren",-11.182679647955878],["vuilnis",-11.18268196490363],["makelaar",-11.18269214666244],["dingetje",-11.182700045612746],["schijt",-11.182713932352295],["installer",-11.182761193588997],["TA",-11.182908815302165],["Roos",-11.182927444261145],["ontsnapt",-11.183081805759914],["dienstverlen",-11.183110110594622],["vorst",-11.183117173654145],["werven",-11.183168813863752],["verwijt",-11.18316989286846],["consequentie",-11.183265742505407],["vriendjes",-11.183279534529785],["passie",-11.183353065669046],["kwalijk",-11.18343420944656],["Tech",-11.183475169260312],["Klop",-11.183611923302758],["Prima",-11.183623390293503],["hekel",-11.183801363738873],["Snap",-11.183936670318007],["ontbreken",-11.184097826784814],["scanne",-11.184388080645652],["beloofd",-11.184500407029532],["vro",-11.184620502526593],["extreemrechts",-11.184802507182805],["koppen",-11.184916622302287],["Italiaan",-11.185102785428503],["ontvlucht",-11.185248413274449],["breder",-11.185510274878025],["verkrachting",-11.18564396536694],["Sara",-11.185655481104583],["lab",-11.18614499834037],["schal",-11.186377385176359],["Anna",-11.186497160883778],["schaamte",-11.187129482725382],["boekje",-11.187512467084861],["rum",-11.18770789501409],["deskundigen",-11.187788263512093],["gevel",-11.189227239119317],["roman",-11.189291186085944],["biertje",-11.18936782844787],["omgekeerd",-11.189486808941014],["dankbaar",-11.189658046792893],["hebber",-11.1898258708217],["strategische",-11.190442886967425],["Noors",-11.190531106047978],["350",-11.190730778609868],["toeval",-11.19087695083763],["Gij",-11.191572075873612],["1500",-11.191676980514199],["rukt",-11.19203904074617],["uitgedeeld",-11.192959753275229],["Central",-11.193139524757983],["bemoeien",-11.193407829891523],["modu",-11.193517361465513],["cruciaal",-11.19401527439217],["zwangerschap",-11.194164142006157],["plak",-11.194206486997862],["Au",-11.194582899079501],["rijst",-11.19488373667639],["aanvullen",-11.195348354436678],["ergste",-11.195703662527581],["kunstenaar",-11.195761659849698],["verzin",-11.19618963643692],["Amerikaan",-11.19710765988371],["verbinden",-11.197351789272231],["complexe",-11.197630940876998],["geur",-11.199278216954829],["Recht",-11.199446622819663],["sterkst",-11.200385937366123],["egenwoordig",-11.200546991478776],["leugens",-11.20066774014029],["lezers",-11.200717542171326],["verwerkt",-11.200927504584698],["Anton",-11.201127622259207],["roof",-11.201658306408428],["geschikte",-11.202101619058553],["dracht",-11.202323306203677],["tool",-11.202326786847177],["exempla",-11.202381123809252],["Big",-11.203261735232687],["vre",-11.20368809266596],["Kor",-11.203767647021076],["loot",-11.204431221053596],["mannetje",-11.20446496555342],["rado",-11.204838133772267],["profiteer",-11.205418516146457],["baard",-11.205595826877474],["liedje",-11.20573035341039],["poll",-11.205923646153606],["cass",-11.206578867591288],["Vrouwen",-11.207082902820694],["wethouders",-11.20743821775433],["order",-11.207490230444334],["gered",-11.207844387893946],["stook",-11.20950388809928],["trip",-11.209595064175124],["scoor",-11.209934579970481],["Kenne",-11.2099670534601],["82",-11.210244693944613],["kundige",-11.21038561759159],["aria",-11.210448888944855],["Arm",-11.211236099995379],["rellen",-11.21135628945682],["versnelle",-11.211435668614575],["450",-11.211841068898783],["mits",-11.211997428312191],["brieven",-11.212206468791198],["Kre",-11.212897279809393],["evolutie",-11.214269350848987],["fascis",-11.214467445909577],["versneld",-11.21454478502427],["iviteit",-11.214854587852507],["recept",-11.214877238695232],["Middel",-11.214991669888065],["structure",-11.215002596396927],["opgebouwd",-11.215034046930352],["Fries",-11.215473385758042],["criminee",-11.215863746462816],["immuun",-11.215881323754523],["Beleggers",-11.2158813269998],["enquête",-11.215881328378366],["Koninklijk",-11.215881332419352],["zorgvuldig",-11.215881368197358],["commandant",-11.215881565274813],["Kempen",-11.215881825601201],["Heuvel",-11.215882314903201],["camping",-11.215882857697274],["Voetbal",-11.21588318393703],["kliniek",-11.21588492119409],["Space",-11.215885033976999],["problematiek",-11.215888572320146],["reiking",-11.215890013440603],["medium",-11.215900123022573],["fusie",-11.215912572637832],["release",-11.215920955522982],["offensie",-11.21594589148993],["geheugen",-11.215956475921109],["Nationaal",-11.215966628345251],["AOW",-11.215967205662391],["Sky",-11.215990909113515],["tweedehands",-11.216025481661198],["leraren",-11.216028150032976],["dictator",-11.216062973396426],["chemisch",-11.216067360635133],["sneu",-11.216112472131265],["renteverhoging",-11.216115464281469],["divisie",-11.216117382863052],["fatsoenlijk",-11.216154844481103],["Cherson",-11.216155958552665],["ambassadeur",-11.216330831844832],["islamitisch",-11.216350915594944],["voorgesteld",-11.216355331070762],["zwaargewond",-11.216568872682133],["PN",-11.216662546920482],["fil",-11.216744970047657],["ansk",-11.216805885326307],["voorspelling",-11.217034580333921],["tier",-11.21708542456579],["stilstand",-11.217136209156573],["huurwoning",-11.21714374652313],["klaag",-11.217204580423868],["protesteren",-11.217364952983367],["geopolitiek",-11.217486661518446],["bitter",-11.217707714633974],["Terug",-11.218271848604017],["ondernemen",-11.21829970118252],["verliet",-11.218301376145046],["ontdekking",-11.218908519181845],["polder",-11.218950305829926],["slinger",-11.219065313838229],["vertrok",-11.219390349776123],["Haarlem",-11.219510611823466],["woningbouw",-11.219768207526322],["Store",-11.220144149008066],["twitter",-11.220344038222402],["kool",-11.220513571360334],["buis",-11.220970721618158],["gemeenschappe",-11.221329734562723],["regenbui",-11.221606914031767],["geestelijk",-11.221756652145713],["180",-11.221794368058006],["Amsterdammer",-11.221802061081716],["Drenth",-11.221997920222712],["Vre",-11.222371101963855],["roei",-11.22250887578182],["Alpe",-11.222527292762415],["epol",-11.222666889148945],["broeder",-11.222714406404918],["intensieve",-11.222966949696442],["schakeling",-11.223043122411813],["Gil",-11.223495451563817],["schreeuwen",-11.223995571806942],["restaurants",-11.225102412608358],["voorspeld",-11.225112599618246],["prikk",-11.225489430122925],["reaguurders",-11.22610787872431],["Boom",-11.226257495925799],["groenten",-11.226468159601678],["concre",-11.226840847827606],["bell",-11.227307291349677],["Not",-11.22737224715947],["aanstaand",-11.227393667233482],["mmel",-11.227600152897004],["aanbieder",-11.228897632297492],["bakker",-11.2296117177341],["Engel",-11.230631110647726],["Mike",-11.232085983907117],["Koop",-11.233300885193703],["medisch",-11.233714188116267],["creatieve",-11.23446193330637],["hoest",-11.234491498679073],["deugd",-11.234873419721282],["Hall",-11.235186515633897],["kunstenaars",-11.236773783089363],["pleeg",-11.236802324290629],["zetting",-11.237009914912806],["strip",-11.237055447053857],["wille",-11.237247750683949],["excu",-11.237890788736802],["gevierd",-11.238015237714215],["Theo",-11.238085381410599],["dreven",-11.239903496539068],["ON",-11.24002338280425],["buitenspel",-11.240346128008989],["Mah",-11.240379172800049],["minderheid",-11.240832165803738],["Bob",-11.24182186233465],["pakje",-11.242193016971283],["stopte",-11.242363786740535],["MR",-11.24242960697544],["Sol",-11.242618795730095],["intens",-11.242690437962985],["Lil",-11.244685102687395],["externe",-11.244989774037203],["kopje",-11.24500093570473],["MO",-11.245691827193472],["besmette",-11.246177996400508],["kuu",-11.246445108824544],["tickets",-11.247581203878436],["vertoon",-11.247666962348072],["ary",-11.248675845818862],["document",-11.249163607093244],["gemeentelijk",-11.24917726918794],["Meerder",-11.24923941629261],["verplaats",-11.24939779731574],["soep",-11.249435978517853],["koepel",-11.250134896753467],["Pap",-11.250180059494921],["bood",-11.250270976910347],["minimum",-11.250298623029735],["verbazing",-11.250345010262112],["pijp",-11.250362074968796],["faillissement",-11.250364082371444],["stimuleren",-11.250364082383623],["humanitair",-11.2503640841641],["statistiek",-11.250364085177242],["symbool",-11.250364085991068],["frustratie",-11.250364088150327],["Ecuador",-11.250364113344844],["regisseur",-11.250364132707485],["schandaal",-11.25036424129783],["avontuur",-11.250364567804993],["logistiek",-11.250364611731545],["Ziggo",-11.250364858466963],["krediet",-11.250364918248117],["drempel",-11.250364918517485],["strafrechtelijk",-11.250366968326972],["attractie",-11.25036707134275],["Excels",-11.250367361076012],["NASA",-11.250372283439727],["Senegal",-11.250375742914306],["Golf",-11.250378502201702],["biosco",-11.250388658471547],["down",-11.250410603598567],["poets",-11.250420756619913],["koolstof",-11.25042636350181],["dwang",-11.250429617830285],["schepp",-11.250496357415571],["McLa",-11.250598796133245],["Prijs",-11.250611297835448],["examen",-11.250612064490616],["gouverneur",-11.250623058213119],["geloofwaardig",-11.250631595589704],["comité",-11.250633809260048],["evenwicht",-11.250643461595818],["piep",-11.2506627276004],["lengte",-11.250688612987076],["nationaliteit",-11.250707580401336],["verwarmen",-11.250727897750378],["professor",-11.250738666714094],["bescherm",-11.25076157569421],["NFT",-11.25080612711482],["mbledo",-11.250817679091133],["wolde",-11.250836805520136],["hardware",-11.251073042415458],["miljardair",-11.251188653717168],["Heijn",-11.251208302722231],["structureel",-11.251241515936744],["houdbaar",-11.25125637860836],["Vuel",-11.25137501325582],["smart",-11.25157089522304],["genaamd",-11.251583026993103],["financiering",-11.251620565409393],["plusser",-11.251726113629902],["bezetting",-11.2519221306615],["uitval",-11.251923317027716],["Rabo",-11.252110058249658],["Duits",-11.252127786597406],["gold",-11.25221440113167],["blokken",-11.25225158975109],["studeer",-11.252272514044975],["friet",-11.252521183488346],["doelwit",-11.252870975099295],["ontkenne",-11.252924582969289],["verlenging",-11.252986043150702],["ikke",-11.253218501262943],["strooi",-11.253293259240603],["bedden",-11.253315469024056],["gedraaid",-11.253898200790378],["flessen",-11.253997868374002],["Valt",-11.254369096735765],["boter",-11.25440027680897],["stoer",-11.254581856699641],["voorspellen",-11.254731924938756],["versloeg",-11.255311845970837],["Minder",-11.255439182351871],["big",-11.256007372438479],["warming",-11.256084778254058],["lijm",-11.256132295522463],["kantoren",-11.25686484026085],["Eva",-11.257000197870154],["voetbalclub",-11.25762875536927],["Beat",-11.25766259837432],["gewisseld",-11.25768687063526],["Alf",-11.258345321259046],["sticker",-11.258718713527479],["lappe",-11.259201009574376],["zitter",-11.259276129281668],["mama",-11.259356444763615],["CR",-11.260181241542135],["Carl",-11.261497779285698],["Beter",-11.262680951424297],["racle",-11.262694445215965],["opgemerkt",-11.263137419604892],["Stree",-11.263298166654522],["saai",-11.264568390547499],["Sven",-11.26468047055952],["verbeterd",-11.26560546021503],["kolon",-11.267106706259185],["ckx",-11.26713271231072],["verplaatsing",-11.26784258626552],["talige",-11.26829273823854],["CP",-11.268324490027133],["89",-11.268792374981771],["geliefde",-11.270038194473889],["sorry",-11.270823614809165],["86",-11.271065804309897],["orry",-11.272360516410414],["onverwachte",-11.272400265474738],["lijd",-11.273013231904141],["geklaag",-11.273076796487821],["BV",-11.273891732406142],["bespreek",-11.274129440653056],["particuliere",-11.274160483538552],["inzittende",-11.274165315390718],["mislukte",-11.274388455959958],["home",-11.274580972884333],["faal",-11.274631504504912],["bloot",-11.275854907532898],["loods",-11.276054022761432],["Dome",-11.276137904749774],["rnacht",-11.278445037548082],["dring",-11.279499723376532],["pra",-11.279658357259128],["anno",-11.279734758599776],["pikke",-11.279869449985913],["Eli",-11.28028652573087],["AH",-11.280509407943871],["Direct",-11.280521988863203],["financier",-11.283862346105723],["97",-11.284501805725693],["verbaas",-11.284567364098534],["benoemd",-11.285593794509115],["muzika",-11.285929494632677],["waanzin",-11.286069749872524],["solidariteit",-11.286078368094559],["Voedsel",-11.28607837166359],["tertainment",-11.28607837621129],["verzuim",-11.286078379615471],["therapie",-11.286078382295894],["evaluatie",-11.286078410827582],["talkshow",-11.286078957027753],["congres",-11.286078982280774],["Stream",-11.286080353403985],["Winterswijk",-11.286081828836874],["bibliotheek",-11.28608318139121],["business",-11.286084938201238],["versnelling",-11.286085711638943],["lunch",-11.286089497998347],["VTM",-11.286091921861736],["veiling",-11.286093790482404],["reality",-11.286096128726552],["aanbeveling",-11.286098245783778],["Ryan",-11.286099877691285],["speech",-11.28610477506862],["Richard",-11.286106945459963],["volstrekt",-11.28612126429409],["Meijer",-11.286123483770549],["zuig",-11.286131254722834],["verdenking",-11.286134628293237],["Roemeni",-11.286156243569629],["aardbeving",-11.28616943949854],["invoering",-11.28617447556692],["ingeschakeld",-11.286186025875724],["kassa",-11.28620270916417],["Familie",-11.28623133700913],["paleis",-11.286251755626829],["publicatie",-11.286262876797213],["klets",-11.28631180452255],["voorwaardelijk",-11.28635892237095],["cash",-11.286389223859938],["moeiza",-11.286447813924873],["radar",-11.286477517516365],["Ziekenhui",-11.286487348615818],["RB",-11.286509985625989],["Peet",-11.28651976940952],["badkamer",-11.286533279358196],["Alpin",-11.286552616729573],["schorsing",-11.28661087625968],["masker",-11.286638872955507],["dump",-11.286751612031292],["gezondheidszorg",-11.286762600400078],["brandstoffen",-11.286786326102687],["Boo",-11.28698921256037],["geproduceerd",-11.287204638352073],["rooster",-11.287214488017327],["prikkel",-11.287241094626616],["Snel",-11.287334947843858],["expositie",-11.287373350858442],["Janssen",-11.28753303400337],["Haas",-11.287640085330096],["Rock",-11.287655819726433],["paas",-11.287672305313079],["Bakker",-11.287693862301495],["schuur",-11.287728019661332],["vervanging",-11.287799078026714],["gelanceerd",-11.287799168776921],["revolutie",-11.287913261183796],["benoem",-11.288088670990204],["lijsttrekker",-11.288290453641475],["veeg",-11.288473800817972],["verlengd",-11.289126409401527],["jager",-11.289432321084544],["keel",-11.289845981436658],["beweeg",-11.29012228411783],["Texa",-11.290395972593961],["gor",-11.291004328800723],["Federal",-11.2913710832764],["Mid",-11.291454347890046],["Bayer",-11.291668589811378],["wachting",-11.29166937202639],["verhuur",-11.292431646293707],["hernieuw",-11.29249911223468],["ür",-11.293071392687906],["langdurige",-11.293738253281315],["schadelijke",-11.293842053541177],["Pé",-11.293936637692177],["adel",-11.294060661925434],["weekeinde",-11.294115597932466],["03",-11.294317292218459],["Veer",-11.294618382071336],["uyt",-11.294663293675775],["hark",-11.295398550556119],["bur",-11.295603511299909],["gematigd",-11.295872757960613],["baantje",-11.296322338480268],["HL",-11.296381414534963],["Tel",-11.296683613074864],["mé",-11.29751609344346],["automaa",-11.298444208338703],["genre",-11.299751146685956],["zakelijke",-11.299983787087012],["list",-11.300154482678476],["feestelijk",-11.300968920064186],["geten",-11.30122220610389],["pure",-11.3014562229584],["Tan",-11.301663914064735],["erkend",-11.301693398873965],["nagedacht",-11.301758235239705],["Kap",-11.30184387252335],["uitgezet",-11.30191128718866],["Volks",-11.302823591441282],["Gezi",-11.303060414283454],["leugen",-11.30340527464539],["besteding",-11.303493594878345],["Marie",-11.303828398559917],["chema",-11.30430673032609],["lezer",-11.305448186417328],["grootschalige",-11.305697654288867],["stoom",-11.305899373583909],["PF",-11.30608300407485],["nipt",-11.306882848557773],["geschat",-11.308694483354426],["Test",-11.310810039558756],["hub",-11.311058942442587],["Mach",-11.311272887886483],["Shar",-11.312347857694244],["Internationa",-11.312786021505222],["ray",-11.313364801665054],["bovenstaand",-11.313659670530882],["RD",-11.314849318364976],["ruk",-11.315103179988093],["lex",-11.31580809945309],["endaal",-11.316972803464106],["betrouwba",-11.317081232495914],["plaatselijk",-11.318129271193],["Amb",-11.318271793854782],["activist",-11.32052449765406],["voorziening",-11.320543180446869],["MH",-11.320821080144391],["versoepel",-11.321146681027262],["democra",-11.321225954313919],["investeer",-11.321765883926828],["ddy",-11.321956177411865],["depressie",-11.322252633335788],["intelligent",-11.322630930417983],["conferentie",-11.32300664755917],["vracht",-11.323020890422997],["ç",-11.323115405119799],["—",-11.323115405122717],["Festival",-11.323115405738267],["Hongkong",-11.323115405912995],["Studio",-11.323115409010125],["glimlach",-11.32311541715324],["verslaving",-11.32311545936279],["gruwelijk",-11.323115547059343],["manifest",-11.323115588650094],["personage",-11.32311563541942],["Milieu",-11.323116710202429],["bewaking",-11.323116771781104],["extremis",-11.32311729424792],["snoep",-11.323117921764036],["boycot",-11.323118276413705],["continent",-11.323119569513576],["pantser",-11.323128322705106],["streven",-11.323133294272111],["Centrum",-11.32313653624561],["haalbaar",-11.323139011262693],["comfortabel",-11.323139989474019],["verdieping",-11.323157329328058],["Oscar",-11.323179277442437],["Hoofd",-11.323193401890315],["zuid",-11.323204872034077],["Gerard",-11.323234269065168],["privat",-11.323246444150215],["verwarr",-11.32330142309564],["eenmalig",-11.323304167184947],["hausse",-11.323334871120588],["moraal",-11.32334598662009],["Blind",-11.323432800218729],["ontstaa",-11.323441662660885],["sparen",-11.323588078218943],["geëist",-11.323603604493059],["geschrapt",-11.323631441545832],["muts",-11.323802265012995],["ARN",-11.323804955498534],["beoordeling",-11.324076954541619],["board",-11.324100288936554],["borgh",-11.324299845702475],["federatie",-11.324374089346536],["HR",-11.324391470147594],["puber",-11.324517454578851],["Francisc",-11.324610710399496],["uniform",-11.325011119266962],["Mur",-11.325042947619274],["vastgelegd",-11.325133679443967],["natuurgebied",-11.3252745191688],["wielrenner",-11.325756653550346],["Dick",-11.325999963640905],["basisschool",-11.326366865282349],["kussen",-11.326442426525663],["Rotterdammer",-11.326511924997828],["cil",-11.32658002010812],["fuck",-11.326707216612348],["telling",-11.327092256811548],["Slot",-11.327385669168578],["klep",-11.329265793132144],["zelfmoord",-11.32937669231534],["massale",-11.329522296348342],["omring",-11.32968474680926],["Delft",-11.33056711719833],["gedicht",-11.330629073631613],["European",-11.330872249004058],["Take",-11.330972818696635],["nteren",-11.331043323737653],["ghan",-11.331832517915515],["Gro",-11.332199235016763],["feitelijk",-11.332251844815769],["ami",-11.33249709554961],["Natie",-11.33354985987419],["bestuurlijk",-11.33412722843795],["fris",-11.335303688242012],["Houd",-11.336278117942417],["leun",-11.337524435316613],["Marine",-11.339957094901916],["deeltjes",-11.340134042709996],["ontvoer",-11.34023145818791],["Maxim",-11.340452179901389],["verouder",-11.34064654141981],["intensie",-11.340680455856807],["ectie",-11.341059935750632],["bewoner",-11.34147279839194],["huisdier",-11.34276208873785],["gestort",-11.343010199868322],["heem",-11.343213674583765],["explosief",-11.344597502270965],["belangstell",-11.344781969175882],["WA",-11.344831864941465],["lay",-11.345654327781634],["bezighoud",-11.345909518333345],["blond",-11.346061348180655],["verstopt",-11.34666833242594],["secretaris",-11.346869714526058],["ezel",-11.347627802518751],["rou",-11.349251278465587],["cyber",-11.350011296008024],["uitstel",-11.350687966454828],["portie",-11.351195642329829],["radi",-11.351855803550274],["oppervlak",-11.352110718442258],["strategisch",-11.352215523250665],["bedank",-11.353320512531058],["hevig",-11.353844773194169],["klik",-11.354406792362871],["besteld",-11.354749870670194],["Economi",-11.356240878652303],["RK",-11.357165811796259],["Loo",-11.357349816460864],["item",-11.35951717000732],["bezuinig",-11.360913804377343],["Wees",-11.361027331209844],["corrupt",-11.361101987338117],["Roy",-11.361109883306877],["public",-11.361138739772102],["Kost",-11.361163695476861],["uitzicht",-11.36143733223793],["Links",-11.361544328806538],["structuur",-11.361576460712415],["Curaçao",-11.36157694358432],["populariteit",-11.361576943598497],["expliciet",-11.361576943620895],["parcours",-11.361576945749974],["artillerie",-11.361576950571237],["reputatie",-11.361576962474727],["Duivels",-11.361576976266267],["Californi",-11.361576987344433],["Hendrik",-11.361577008635155],["Wageningen",-11.361577118182854],["resulteer",-11.36157722875678],["Zelenski",-11.36157761908318],["renovatie",-11.36157780776904],["adviser",-11.361578220035376],["Russell",-11.361579119251854],["begraafplaats",-11.361579356550301],["Victor",-11.361580037010121],["Colombia",-11.36158154210952],["prominent",-11.3615828259815],["flauw",-11.36158447926823],["dominant",-11.361584665066959],["Tokio",-11.361586382239542],["Dutch",-11.361596044217853],["fiscal",-11.36160028837383],["elektronisch",-11.361600663878924],["Jones",-11.361602715181917],["sentiment",-11.361631237009934],["eenzijdig",-11.36163985862117],["Quick",-11.361640236263082],["snijd",-11.361650948600321],["Niels",-11.361652736299828],["donatie",-11.361671324706988],["grafiek",-11.36174371940492],["display",-11.361744818778877],["dialoog",-11.361752235458589],["gemengd",-11.36178227309184],["mentaliteit",-11.361796690038696],["individueel",-11.36180702290018],["republiek",-11.361831095282966],["functioneren",-11.361860945154529],["NRC",-11.361903156014126],["roebel",-11.361963056806951],["ontsnapp",-11.361973431635029],["Depp",-11.362184598340924],["regie",-11.362219931220565],["grappen",-11.362344823472032],["importeren",-11.362371362707098],["hypocriet",-11.3623884346073],["ashing",-11.36250670957191],["tablet",-11.362623287119053],["Light",-11.362758136912166],["visum",-11.362905600226876],["vieze",-11.363055210820676],["nvesteerd",-11.363236311104778],["beleving",-11.36351870230419],["Walter",-11.363571773029195],["persbericht",-11.363849777691488],["Blijf",-11.363894325603205],["woestijn",-11.363972277302924],["bested",-11.364134899517074],["Democrati",-11.364139151025128],["uffel",-11.364227415026898],["overstroming",-11.364513408843852],["wachtwoord",-11.364520917689834],["witch",-11.364712023072986],["stink",-11.36521175612171],["akpo",-11.365414335018777],["Colleg",-11.365607245621797],["regelgev",-11.365633790335552],["kwa",-11.365644136245498],["paus",-11.365784407019428],["verspreiding",-11.366158414646621],["wetsvoorstel",-11.366237640757252],["stikke",-11.3675865624607],["woonwijk",-11.367828348549395],["eroofd",-11.368201863123211],["noter",-11.369391925505564],["heerst",-11.369785761842895],["rennen",-11.369881595713553],["oir",-11.370323623829638],["Laur",-11.370966926368173],["ritme",-11.37111834453576],["VW",-11.37128201850098],["torenho",-11.37136769934482],["Bell",-11.371635613051733],["boy",-11.372423210397073],["habi",-11.372505053503502],["arre",-11.372693019719012],["ondersteund",-11.373020875832335],["Out",-11.373219171396952],["kapper",-11.373343682289459],["mantel",-11.37341352725113],["weergave",-11.375173355613736],["natte",-11.375287650185301],["stokje",-11.375372249437664],["grondig",-11.375403289655484],["burn",-11.375568348707215],["master",-11.375831591165973],["verliep",-11.376645283087822],["bezet",-11.376827387587324],["verdienmodel",-11.377216758548347],["expo",-11.377437835173692],["geruimd",-11.378372668143435],["kerel",-11.37883509956519],["intern",-11.38084014913619],["Veiligheid",-11.381037935606274],["Domin",-11.38107510897895],["mondkapje",-11.381129360619152],["roy",-11.382440793984454],["roos",-11.382641002051773],["oogst",-11.383231945133296],["Mou",-11.383280076549593],["ooth",-11.38364822960063],["levenslang",-11.383997203974968],["Demir",-11.384625388728589],["knappe",-11.385545667652607],["kenner",-11.38663033290115],["Doel",-11.38798273243317],["ekker",-11.388249528812974],["gewapend",-11.389318550468646],["tassen",-11.389348686209587],["balk",-11.390956950739447],["hype",-11.391982744103961],["xx",-11.393189227200814],["logge",-11.393555150670531],["ago",-11.394040315452228],["rechtszaa",-11.394167423457144],["anim",-11.394994645725586],["zuidelijke",-11.395693570775737],["Ann",-11.3962639986439],["minimal",-11.396488803363319],["wortel",-11.39713087233065],["kud",-11.39763513783381],["glad",-11.397904574941572],["Shi",-11.398020679962372],["sky",-11.399190969442284],["SL",-11.399266658664569],["onthul",-11.400545931103855],["scheld",-11.400638688268824],["stempel",-11.400677958402055],["FB",-11.400754120337645],["JA",-11.401040277837208],["É",-11.401576943580489],["Kardashian",-11.401576943585328],["demonstreren",-11.401576943652152],["motivatie",-11.401576943665537],["suggestie",-11.40157694367538],["chirurg",-11.40157694718107],["scène",-11.401576952381799],["vreugde",-11.401577011093792],["cannabis",-11.401577011648126],["suggere",-11.401577154034431],["Bitcoin",-11.401577172633335],["Randstad",-11.401577781175668],["geblesseerd",-11.401577813105826],["schimmel",-11.401578445191749],["asfalt",-11.401578529657199],["America",-11.40157872918664],["herhaling",-11.401579278279442],["Vriend",-11.401579596202396],["criteri",-11.401580115336674],["sympathie",-11.401584706267691],["schudd",-11.401588290107068],["epidemi",-11.401588549472736],["willekeurig",-11.401590662794034],["platteland",-11.40160275950212],["Film",-11.401608488671119],["technologisch",-11.40161091591025],["Belarus",-11.401622975780743],["arrive",-11.401671246881977],["full",-11.401685283573203],["Achterhoek",-11.401757846292279],["hypotheekrente",-11.40181865314702],["Stro",-11.401828514528166],["Leeuwarde",-11.401832141033044],["modder",-11.401897422909872],["Drag",-11.401899526482541],["Ligt",-11.401947473191445],["mobiliteit",-11.401976246545225],["imago",-11.402028730635951],["regeren",-11.402035990454278],["handtekening",-11.402074529929239],["Wolf",-11.402097005602057],["ridge",-11.402154558622954],["fietspad",-11.402271449421997],["bereikbaar",-11.402289133267413],["macro",-11.402316332242577],["Stijn",-11.402356344123696],["Bedrijven",-11.402414959056445],["schetst",-11.40248993833822],["Lely",-11.402495921226752],["veroordeling",-11.402517837360284],["Phil",-11.402572740584864],["erfgoed",-11.402604082543974],["tactiek",-11.402610497481845],["IND",-11.402770525430913],["Vader",-11.40291173854985],["kermis",-11.402984901070528],["tankstation",-11.40311114910972],["honderdduizend",-11.403240844062154],["symbolisch",-11.403403172481013],["blank",-11.4035433749085],["kernenergie",
[...]
