{"version":"1.0","truncation":null,"padding":null,"added_tokens":[{"id":0,"special":true,"content":"<UNK>","single_word":false,"lstrip":false,"rstrip":false,"normalized":false},{"id":1,"special":true,"content":"<SEP>","single_word":false,"lstrip":false,"rstrip":false,"normalized":false},{"id":2,"special":true,"content":"<MASK>","single_word":false,"lstrip":false,"rstrip":false,"normalized":false},{"id":3,"special":true,"content":"<CLS>","single_word":false,"lstrip":false,"rstrip":false,"normalized":false}],"normalizer":null,"pre_tokenizer":{"type":"Whitespace"},"post_processor":null,"decoder":null,"model":{"type":"BPE","dropout":null,"unk_token":"<UNK>","continuing_subword_prefix":null,"end_of_word_suffix":null,"fuse_unk":false,"vocab":{"<UNK>":0,"<SEP>":1,"<MASK>":2,"<CLS>":3,"!":4,"\"":5,"$":6,"%":7,"&":8,"'":9,"(":10,")":11,"*":12,"+":13,",":14,"-":15,".":16,"/":17,"0":18,"1":19,"2":20,"3":21,"4":22,"5":23,"6":24,"7":25,"8":26,"9":27,":":28,";":29,"<":30,">":31,"?":32,"A":33,"B":34,"C":35,"D":36,"E":37,"F":38,"G":39,"H":40,"I":41,"J":42,"K":43,"L":44,"M":45,"N":46,"O":47,"P":48,"Q":49,"R":50,"S":51,"T":52,"U":53,"V":54,"W":55,"X":56,"Y":57,"Z":58,"`":59,"a":60,"b":61,"c":62,"d":63,"e":64,"f":65,"g":66,"h":67,"i":68,"j":69,"k":70,"l":71,"m":72,"n":73,"o":74,"p":75,"q":76,"r":77,"s":78,"t":79,"u":80,"v":81,"w":82,"x":83,"y":84,"z":85,"~":86,"¡":87,"¢":88,"£":89,"¤":90,"¥":91,"¦":92,"§":93,"¨":94,"ª":95,"«":96,"¬":97,"®":98,"¯":99,"°":100,"±":101,"²":102,"³":103,"´":104,"·":105,"¹":106,"º":107,"»":108,"¼":109,"½":110,"¾":111,"¿":112,"À":113,"Á":114,"Ä":115,"Å":116,"Ç":117,"È":118,"É":119,"Ê":120,"Í":121,"Î":122,"Ï":123,"Ñ":124,"Ò":125,"Ó":126,"Ô":127,"Ö":128,"×":129,"Ø":130,"Ú":131,"Û":132,"Ü":133,"Þ":134,"ß":135,"à":136,"á":137,"â":138,"ã":139,"ä":140,"å":141,"æ":142,"ç":143,"è":144,"é":145,"ê":146,"ë":147,"ì":148,"í":149,"î":150,"ï":151,"ð":152,"ñ":153,"ò":154,"ó":155,"ô":156,"õ":157,"ö":158,"ø":159,"ù":160,"ú":161,"û":162,"ü":163,"ý":164,"Ā":165,"ā":166,"ă":167,"ć":168,"Č":169,"č":170,"ē":171,"ę":172,"ě":173,"ğ":174,"Ġ":175,"ġ":176,"ħ":177,"İ":178,"ı":179,"ĳ":180,"ķ":181,"ļ":182,"Ľ":183,"ł":184,"ń":185,"ņ":186,"Ō":187,"ō":188,"Œ":189,"œ":190,"ř":191,"ś":192,"ş":193,"Š":194,"š":195,"ţ":196,"ū":197,"Ÿ":198,"Ż":199,"ż":200,"Ž":201,"ž":202,"ƅ":203,"ș":204,"ț":205,"ȼ":206,"ɑ":207,"ʏ":208,"ʻ":209,"ʼ":210,"˚":211,"˜":212,"˝":213,"̀":214,"́":215,"̂":216,"̃":217,"̈":218,"̧":219,"̶":220,"α":221,"β":222,"γ":223,"μ":224,"ν":225,"ο":226,"ς":227,"υ":228,"Ё":229,"Ђ":230,"Ѓ":231,"І":232,"Ј":233,"Њ":234,"Ў":235,"А":236,"Г":237,"П":238,"Р":239,"Т":240,"У":241,"Ш":242,"Щ":243,"Ъ":244,"Ь":245,"Э":246,"Ю":247,"Я":248,"а":249,"б":250,"г":251,"д":252,"е":253,"ж":254,"н":255,"о":256,"с":257,"т":258,"у":259,"ю":260,"я":261,"ђ":262,"ѓ":263,"ѕ":264,"і":265,"њ":266,"ќ":267,"ў":268,"џ":269,"қ":270,"һ":271,"օ":272,"א":273,"ב":274,"ד":275,"ה":276,"ו":277,"י":278,"ל":279,"ם":280,"מ":281,"נ":282,"ע":283,"צ":284,"ק":285,"ש":286,"ת":287,"ن":288,"ߋ":289,"ं":290,"अ":291,"क":292,"घ":293,"च":294,"ट":295,"ड":296,"त":297,"न":298,"ब":299,"म":300,"य":301,"र":302,"ल":303,"श":304,"स":305,"ा":306,"ि":307,"ी":308,"ु":309,"े":310,"्":311,"က":312,"င":313,"ည":314,"တ":315,"န":316,"ပ":317,"ဖ":318,"မ":319,"ရ":320,"လ":321,"သ":322,"အ":323,"ါ":324,"ာ":325,"ိ":326,"ု":327,"ေ":328,"်":329,"ြ":330,"ွ":331,"ှ":332,"ᥙ":333,"ᴠ":334,"ᵃ":335,"ᵉ":336,"ḥ":337,"ễ":338,"ỗ":339,"‎":340,"‐":341,"‑":342,"‒":343,"–":344,"—":345,"―":346,"‘":347,"’":348,"‚":349,"“":350,"”":351,"„":352,"†":353,"‡":354,"•":355,"․":356,"…":357,"‪":358,"‰":359,"′":360,"″":361,"‹":362,"›":363,"‼":364,"⁠":365,"⁣":366,"₁":367,"₂":368,"₡":369,"₦":370,"€":371,"₵":372,"₹":373,"℃":374,"™":375,"ⅼ":376,"⇧":377,"−":378,"≈":379,"⌘":380,"⏩":381,"⏰":382,"⏱":383,"─":384,"├":385,"┬":386,"╕":387,"╖":388,"▌":389,"▪":390,"▶":391,"◆":392,"☀":393,"★":394,"☆":395,"☕":396,"☝":397,"☹":398,"☺":399,"♦":400,"⚠":401,"⚽":402,"⛓":403,"✅":404,"✊":405,"✍":406,"✓":407,"✔":408,"✨":409,"❉":410,"❌":411,"❗":412,"❣":413,"❤":414,"➡":415,"➢":416,"➤":417,"⬇":418,"⭐":419,"【":420,"】":421,"ー":422,"化":423,"地":424,"帽":425,"暖":426,"期":427,"温":428,"煤":429,"球":430,"脕":431,"茅":432,"谩":433,"贸":434,"铆":435,"静":436,"默":437,"":438,"":439,"":440,"ﬁ":441,"ﬂ":442,"️":443,"﻿":444,"＊":445,"－":446,"ｅ":447,"en":448,"de":449,"er":450,"es":451,"an":452,"on":453,"in":454,"ar":455,"or":456,"al":457,"re":458,"la":459,"is":460,"he":461,"ti":462,"te":463,"le":464,"os":465,"as":466,"ou":467,"el":468,"qu":469,"it":470,"un":471,"ent":472,"at":473,"ci":474,"et":475,"om":476,"ad":477,"to":478,"pr":479,"the":480,"se":481,"ch":482,"ur":483,"que":484,"tr":485,"di":486,"ing":487,"li":488,"con":489,"and":490,"il":491,"am":492,"us":493,"ta":494,"ce":495,"id":496,"ver":497,"th":498,"of":499,"par":500,"ge":501,"ma":502,"op":503,"tion":504,"ij":505,"me":506,"ve":507,"ol":508,"au":509,"ter":510,"ac":511,"ir":512,"des":513,"est":514,"ic":515,"no":516,"be":517,"ra":518,"com":519,"ne":520,"lo":521,"ie":522,"our":523,"les":524,"vo":525,"ment":526,"der":527,"van":528,"do":529,"si":530,"su":531,"ab":532,"por":533,"for":534,"per":535,"du":536,"ón":537,"ant":538,"st":539,"pe":540,"los":541,"pro":542,"een":543,"mo":544,"da":545,"cu":546,"gen":547,"ed":548,"ten":549,"gr":550,"ha":551,"im":552,"ans":553,"het":554,"del":555,"ni":556,"we":557,"po":558,"ri":559,"vi":560,"sa":561,"son":562,"ción":563,"ex":564,"res":565,"pu":566,"je":567,"so":568,"den":569,"las":570,"pa":571,"go":572,"ro":573,"na":574,"20":575,"ca":576,"qui":577,"ado":578,"dé":579,"ue":580,"ven":581,"em":582,"ig":583,"ers":584,"dat":585,"ho":586,"man":587,"és":588,"va":589,"ly":590,"co":591,"une":592,"ut":593,"tra":594,"ct":595,"bi":596,"pas":597,"pl":598,"ke":599,"ga":600,"para":601,"pour":602,"tre":603,"ente":604,"aar":605,"fr":606,"that":607,"ul":608,"ser":609,"voor":610,"té":611,"De":612,"una":613,"met":614,"ces":615,"mi":616,"out":617,"ken":618,"ze":619,"ré":620,"ont":621,"ía":622,"00":623,"lu":624,"ap":625,"fa":626,"ari":627,"ill":628,"ijn":629,"tu":630,"sur":631,"pre":632,"hi":633,"ous":634,"was":635,"wit":636,"La":637,"oo":638,"af":639,"min":640,"cion":641,"ere":642,"ire":643,"pos":644,"The":645,"pres":646,"are":647,"ted":648,"ef":649,"ine":650,"ag":651,"ts":652,"all":653,"che":654,"cor":655,"bre":656,"dans":657,"En":658,"ru":659,"with":660,"dis":661,"wor":662,"aan":663,"ons":664,"ble":665,"fe":666,"ation":667,"pla":668,"ale":669,"mar":670,"end":671,"ás":672,"men":673,"El":674,"In":675,"die":676,"zijn":677,"uit":678,"fi":679,"zo":680,"ali":681,"cia":682,"cas":683,"niet":684,"ée":685,"Le":686,"over":687,"era":688,"sen":689,"ada":690,"ins":691,"ist":692,"bli":693,"urs":694,"tie":695,"car":696,"mis":697,"fin":698,"mu":699,"ay":700,"has":701,"oun":702,"ber":703,"can":704,"gi":705,"cial":706,"én":707,"más":708,"cer":709,"sta":710,"gu":711,"ld":712,"bo":713,"cht":714,"tions":715,"ux":716,"wer":717,"mer":718,"one":719,"ante":720,"ek":721,"ak":722,"ste":723,"ik":724,"als":725,"gh":726,"port":727,"pen":728,"br":729,"inter":730,"plus":731,"cal":732,"her":733,"jo":734,"cre":735,"vol":736,"ple":737,"cr":738,"ér":739,"sch":740,"lar":741,"19":742,"cent":743,"ard":744,"vis":745,"elle":746,"ien":747,"mes":748,"nu":749,"ando":750,"esta":751,"ook":752,"dr":753,"za":754,"his":755,"Al":756,"mon":757,"dos":758,"este":759,"have":760,"ès":761,"said":762,"gel":763,"parti":764,"án":765,"person":766,"aux":767,"ses":768,"bij":769,"mp":770,"ck":771,"ion":772,"don":773,"ient":774,"ica":775,"tor":776,"ang":777,"wel":778,"vec":779,"ba":780,"ity":781,"ciones":782,"entre":783,"mil":784,"ère":785,"cam":786,"by":787,"wh":788,"fer":789,"ves":790,"will":791,"ité":792,"ales":793,"ye":794,"lij":795,"ia":796,"ud":797,"ance":798,"hu":799,"ados":800,"land":801,"tro":802,"como":803,"mor":804,"sus":805,"cou":806,"vid":807,"ille":808,"from":809,"été":810,"not":811,"vel":812,"io":813,"ure":814,"day":815,"gan":816,"gar":817,"ben":818,"ina":819,"avec":820,"ind":821,"ques":822,"An":823,"mos":824,"ges":825,"ond":826,"but":827,"202":828,"ors":829,"maar":830,"poli":831,"dan":832,"Ch":833,"ijk":834,"idad":835,"mun":836,"its":837,"tes":838,"onder":839,"ob":840,"ger":841,"had":842,"añ":843,"bu":844,"ome":845,"fic":846,"col":847,"cho":848,"cha":849,"tien":850,"ann":851,"tri":852,"ande":853,"hab":854,"ise":855,"tin":856,"val":857,"ette":858,"Mar":859,"ido":860,"vir":861,"this":862,"eg":863,"ju":864,"ll":865,"ite":866,"able":867,"ction":868,"wo":869,"sion":870,"vers":871,"ach":872,"hor":873,"up":874,"cur":875,"fir":876,"ores":877,"vent":878,"pli":879,"Het":880,"nen":881,"ther":882,"nog":883,"ici":884,"ust":885,"wn":886,"sti":887,"door":888,"han":889,"heb":890,"cti":891,"medi":892,"str":893,".”":894,"posi":895,"waar":896,"”,":897,"ok":898,"you":899,"nes":900,"mé":901,"jour":902,"eft":903,"ong":904,"alle":905,"Fr":906,"mat":907,"tur":908,"Ne":909,"sont":910,"tar":911,"lijk":912,"ya":913,"uer":914,"part":915,"dur":916,"dit":917,"ens":918,"whi":919,"ding":920,"int":921,"pri":922,"produ":923,"aba":924,"bas":925,"mas":926,"og":927,"ys":928,"ero":929,"ide":930,"wat":931,"art":932,"ren":933,"get":934,"ambi":935,"rou":936,"iden":937,"their":938,"éta":939,"contr":940,"ep":941,"fo":942,"lle":943,"Il":944,"publi":945,"Les":946,"clu":947,"ais":948,"sin":949,"kom":950,"ele":951,"rij":952,"forma":953,"they":954,"hou":955,"ord":956,"ili":957,"dire":958,"minis":959,"pel":960,"ines":961,"tot":962,"Un":963,"hij":964,"naar":965,"Con":966,"ento":967,"ées":968,"»,":969,"sol":970,"prop":971,"ded":972,"No":973,"ents":974,"dad":975,"ame":976,"who":977,"voir":978,"ack":979,"ingen":980,"lan":981,"pré":982,"ión":983,"ita":984,"We":985,"cos":986,"He":987,"zi":988,"Th":989,"000":990,"elf":991,"if":992,"heeft":993,"igh":994,"ico":995,"fam":996,"ants":997,"cl":998,"been":999,"tij":1000,"year":1001,"ese":1002,"meer":1003,"eld":1004,"10":1005,"ence":1006,"od":1007,"Re":1008,"acti":1009,"ario":1010,"mais":1011,"Es":1012,"aut":1013,"aron":1014,"Par":1015,"gra":1016,"entes":1017,"antes":1018,"tres":1019,"mente":1020,"gro":1021,"bet":1022,").":1023,"prés":1024,"ally":1025,"ava":1026,"pon":1027,"eur":1028,"It":1029,"cen":1030,"près":1031,"fue":1032,"bar":1033,"um":1034,"nos":1035,"king":1036,"sé":1037,"ople":1038,"ona":1039,"pi":1040,"ida":1041,"ner":1042,"ting":1043,"\",":1044,"ún":1045,"open":1046,"ks":1047,"Com":1048,"dig":1049,"Se":1050,"ast":1051,",”":1052,"cé":1053,"prim":1054,"ctor":1055,"sit":1056,"ght":1057,"ambién":1058,"tout":1059,"ker":1060,"time":1061,"ación":1062,"ments":1063,"sou":1064,"ders":1065,"more":1066,"now":1067,"kun":1068,"bel":1069,"puis":1070,"cette":1071,"ps":1072,"ana":1073,"reg":1074,"jaar":1075,"201":1076,"were":1077,"ano":1078,"ires":1079,"tel":1080,"mom":1081,"ets":1082,"dt":1083,"cis":1084,"sal":1085,"ats":1086,"moet":1087,"On":1088,"nie":1089,"cour":1090,"comp":1091,"arr":1092,"iste":1093,"kan":1094,"deux":1095,"nation":1096,"fait":1097,"ties":1098,"vie":1099,"Je":1100,"seg":1101,"ones":1102,"any":1103,"bien":1104,"pit":1105,"hebben":1106,"inst":1107,"how":1108,"dif":1109,"ies":1110,"premi":1111,"Rus":1112,"ident":1113,"tan":1114,"indi":1115,"also":1116,"ban":1117,"ador":1118,"pero":1119,"tos":1120,"sig":1121,"ede":1122,"Ar":1123,"iz":1124,"teur":1125,"trans":1126,"amos":1127,"about":1128,"people":1129,"ving":1130,"ég":1131,"may":1132,"vic":1133,"worden":1134,"bes":1135,"dag":1136,"eren":1137,"”.":1138,"organ":1139,"cto":1140,"mand":1141,"ras":1142,"aliz":1143,"inci":1144,"ty":1145,"),":1146,"años":1147,"age":1148,"tive":1149,"rap":1150,"adas":1151,"mb":1152,"new":1153,"ose":1154,"very":1155,"ris":1156,"way":1157,"As":1158,"ton":1159,"fun":1160,"low":1161,"daar":1162,"use":1163,"leur":1164,"mal":1165,"amente":1166,"ja":1167,"ning":1168,"tras":1169,"hel":1170,"ura":1171,"né":1172,"vier":1173,"spe":1174,"tou":1175,"sel":1176,"gram":1177,"ussi":1178,"vra":1179,"cri":1180,"être":1181,"30":1182,"kt":1183,"ort":1184,"bor":1185,"lie":1186,"kel":1187,"gens":1188,"Qu":1189,"which":1190,"jor":1191,"ême":1192,"prof":1193,"vant":1194,"hom":1195,"nous":1196,"qué":1197,"pé":1198,"cau":1199,"bus":1200,"lis":1201,"también":1202,"contin":1203,"có":1204,"cio":1205,"ph":1206,"tem":1207,"cla":1208,"ound":1209,"ier":1210,"ould":1211,"she":1212,"fil":1213,"coun":1214,"nom":1215,"ai":1216,"import":1217,"gt":1218,"sy":1219,"uur":1220,"plan":1221,"off":1222,"Ro":1223,"veel":1224,"would":1225,"jus":1226,"vin":1227,"Dat":1228,"rela":1229,"encia":1230,"cel":1231,"nue":1232,"está":1233,"erg":1234,"nou":1235,"vé":1236,"sobre":1237,"wordt":1238,"ate":1239,"Los":1240,"cional":1241,"cin":1242,"tir":1243,"jou":1244,"heid":1245,"15":1246,"pris":1247,"pañ":1248,"present":1249,"geen":1250,"Est":1251,"Co":1252,"Ik":1253,"situ":1254,"commun":1255,"week":1256,"some":1257,"traba":1258,"ils":1259,"zelf":1260,"milli":1261,"ings":1262,"ures":1263,"virus":1264,"udi":1265,"desde":1266,"2022":1267,"zich":1268,"red":1269,"derni":1270,"vor":1271,"pal":1272,"cep":1273,"soci":1274,"oor":1275,"tijd":1276,"rit":1277,"tique":1278,"led":1279,"faire":1280,"war":1281,"som":1282,"cuent":1283,"my":1284,"quel":1285,"mit":1286,"sup":1287,"ko":1288,"after":1289,"uel":1290,"était":1291,"dra":1292,"wij":1293,"ros":1294,"ende":1295,"sh":1296,"avait":1297,"comme":1298,"char":1299,"tic":1300,"nor":1301,"cul":1302,"ima":1303,"parte":1304,"sie":1305,"there":1306,"bal":1307,"ouver":1308,"actu":1309,"vous":1310,"place":1311,"Uni":1312,"av":1313,"ft":1314,"clar":1315,"sor":1316,"ree":1317,"conom":1318,"sto":1319,"nieu":1320,"hun":1321,"Eur":1322,"lé":1323,"when":1324,"alement":1325,"Por":1326,"oc":1327,"than":1328,"ait":1329,"tal":1330,"cir":1331,"pol":1332,"aussi":1333,"nel":1334,"tros":1335,"leg":1336,"ms":1337,"plo":1338,"tig":1339,"même":1340,"vac":1341,"tegen":1342,"ug":1343,"pes":1344,"even":1345,"vas":1346,"cción":1347,"try":1348,"ías":1349,"12":1350,"test":1351,"Po":1352,"play":1353,"work":1354,"pun":1355,"dom":1356,"ary":1357,"ff":1358,"twe":1359,"ran":1360,"\".":1361,"tour":1362,"cher":1363,"Des":1364,"tiene":1365,"ations":1366,"alis":1367,"vos":1368,"arios":1369,"To":1370,"jar":1371,"CO":1372,"anti":1373,"geb":1374,".\"":1375,"social":1376,"gres":1377,"Ce":1378,"zou":1379,"ved":1380,"Su":1381,"kunnen":1382,"50":1383,"ème":1384,"len":1385,"mic":1386,"ters":1387,"uni":1388,"bier":1389,"back":1390,"iento":1391,"endo":1392,"».":1393,"net":1394,"cy":1395,"bles":1396,"nat":1397,"amen":1398,"Ma":1399,"Ho":1400,"fuer":1401,"just":1402,"ische":1403,"dar":1404,"igen":1405,"nement":1406,"them":1407,"ual":1408,"ron":1409,"ino":1410,"après":1411,"tas":1412,"vit":1413,"anci":1414,"bil":1415,"tom":1416,"2020":1417,"ense":1418,"cause":1419,"acer":1420,"like":1421,"dre":1422,"Me":1423,"das":1424,"last":1425,"kra":1426,"much":1427,"Europ":1428,"main":1429,"inclu":1430,"ase":1431,"zen":1432,"rus":1433,"dus":1434,"tivo":1435,"muy":1436,"todo":1437,"resp":1438,"form":1439,"other":1440,"ds":1441,"jet":1442,"ick":1443,"weer":1444,"gun":1445,"tru":1446,"ade":1447,"gaan":1448,"jer":1449,"cono":1450,"program":1451,"Jo":1452,"paí":1453,"contre":1454,"esti":1455,"what":1456,"deze":1457,"Maar":1458,"act":1459,"sub":1460,"bat":1461,"down":1462,"mber":1463,"prom":1464,"mensen":1465,"Car":1466,"temp":1467,"úl":1468,"Na":1469,"tat":1470,"public":1471,"dere":1472,"famili":1473,"into":1474,"hay":1475,"18":1476,"gran":1477,"lin":1478,"gaat":1479,"wa":1480,"ará":1481,"alth":1482,"pare":1483,"inf":1484,"gas":1485,"win":1486,"ito":1487,"won":1488,"hal":1489,"jes":1490,"hasta":1491,"mid":1492,"esto":1493,"Mon":1494,"via":1495,"blij":1496,"state":1497,"últi":1498,"dent":1499,"Si":1500,"So":1501,"informa":1502,"first":1503,"año":1504,"cat":1505,"cli":1506,"cap":1507,"tif":1508,"core":1509,"erd":1510,"bon":1511,"two":1512,"wil":1513,"exper":1514,"jours":1515,"VI":1516,"tiem":1517,"fois":1518,"ini":1519,"lig":1520,"goed":1521,"dro":1522,"ear":1523,"depuis":1524,"ath":1525,"proble":1526,"espe":1527,"fici":1528,"contra":1529,"Neder":1530,"vre":1531,"autor":1532,"11":1533,"2021":1534,"avoir":1535,"blo":1536,"pop":1537,"mee":1538,"cle":1539,"cus":1540,"kken":1541,"vez":1542,"come":1543,"komen":1544,"trou":1545,"personas":1546,"aga":1547,"equi":1548,"14":1549,"Be":1550,"him":1551,"cias":1552,"expli":1553,"vil":1554,"200":1555,"ori":1556,"resul":1557,"olog":1558,"peu":1559,"fore":1560,"reci":1561,"lui":1562,"ior":1563,"long":1564,"Fran":1565,"your":1566,"servi":1567,"dam":1568,"comple":1569,"stand":1570,"hora":1571,"donde":1572,"ign":1573,"titu":1574,"porte":1575,"san":1576,"werd":1577,"partici":1578,"uti":1579,"side":1580,"termin":1581,"vide":1582,"eron":1583,"local":1584,"cuando":1585,"moment":1586,"Ju":1587,"bur":1588,"gelijk":1589,"could":1590,"zien":1591,"conf":1592,"Bo":1593,"stru":1594,"ister":1595,"udad":1596,"Een":1597,"sp":1598,"zar":1599,"adi":1600,"pital":1601,"ily":1602,"San":1603,"ced":1604,"corona":1605,"gener":1606,"chan":1607,"lit":1608,"maak":1609,"arri":1610,"tain":1611,"tric":1612,"hist":1613,"ned":1614,"ler":1615,"pays":1616,"proces":1617,"old":1618,"organis":1619,"rent":1620,"eten":1621,"veau":1622,"ied":1623,"princi":1624,"atten":1625,"most":1626,"cted":1627,"16":1628,"Lo":1629,"This":1630,"très":1631,"For":1632,"But":1633,"ight":1634,"ging":1635,"trat":1636,"put":1637,"Pour":1638,"Min":1639,"ían":1640,"Go":1641,"ista":1642,"jun":1643,"grou":1644,"haar":1645,"hand":1646,"ful":1647,"dio":1648,"Sa":1649,"ches":1650,"hos":1651,"ares":1652,"Tru":1653,"bra":1654,"idente":1655,"isse":1656,"pag":1657,"bierno":1658,"inves":1659,"oot":1660,"25":1661,"Wh":1662,"Is":1663,"ères":1664,"under":1665,"inte":1666,"porque":1667,"fran":1668,"recor":1669,"bou":1670,"lation":1671,"13":1672,"pren":1673,"Mais":1674,"Mo":1675,"show":1676,"fu":1677,"Nederland":1678,"Pro":1679,"rough":1680,"mill":1681,"pande":1682,"íti":1683,"uno":1684,"VID":1685,"úbli":1686,"neces":1687,"non":1688,"med":1689,"team":1690,"24":1691,"teurs":1692,"tent":1693,"dien":1694,"want":1695,"Er":1696,"inde":1697,"gion":1698,"17":1699,"mie":1700,"quien":1701,"tant":1702,"Lu":1703,"dijo":1704,"amiento":1705,"ry":1706,"COVID":1707,"lang":1708,"auto":1709,"idades":1710,"zit":1711,"lors":1712,"nues":1713,"super":1714,"ass":1715,"nombre":1716,"aria":1717,"peti":1718,"Amer":1719,"otros":1720,"cada":1721,"hacer":1722,"prend":1723,"var":1724,"zoek":1725,"clus":1726,"adores":1727,"let":1728,"New":1729,"iss":1730,"gent":1731,"día":1732,"conse":1733,"Las":1734,"scho":1735,"gover":1736,"todos":1737,"Au":1738,"ues":1739,"kw":1740,"idos":1741,"werk":1742,"line":1743,"Et":1744,"vida":1745,"Li":1746,"Gu":1747,"pat":1748,"país":1749,"peut":1750,"bla":1751,"fon":1752,"hier":1753,"inten":1754,"ison":1755,"lic":1756,"quer":1757,"allen":1758,"gre":1759,"pan":1760,"ink":1761,"bro":1762,"mbre":1763,"pou":1764,"sing":1765,"ena":1766,"fri":1767,"sera":1768,"velop":1769,"prob":1770,"being":1771,"aten":1772,"national":1773,"encore":1774,"autres":1775,"temps":1776,"mismo":1777,"fac":1778,"ged":1779,"real":1780,"zon":1781,"total":1782,"fut":1783,"hing":1784,"Bel":1785,"best":1786,"through":1787,"top":1788,"ert":1789,"puede":1790,"gin":1791,"lot":1792,"cios":1793,"ín":1794,"zet":1795,"imp":1796,"maal":1797,"sans":1798,"twee":1799,"dol":1800,"comun":1801,"only":1802,"well":1803,"chten":1804,"Trump":1805,"nment":1806,"enti":1807,"tech":1808,"need":1809,"durante":1810,"ture":1811,"face":1812,"lec":1813,"realiz":1814,"while":1815,"primer":1816,"where":1817,"amp":1818,"leurs":1819,"ato":1820,"trois":1821,"profes":1822,"ño":1823,"mejor":1824,"ander":1825,"many":1826,"andere":1827,"estos":1828,"doen":1829,"coup":1830,"cré":1831,"labor":1832,"did":1833,"til":1834,"police":1835,"stra":1836,"ular":1837,"Pr":1838,"ala":1839,"trava":1840,"également":1841,"respe":1842,"mayor":1843,"jue":1844,"moeten":1845,"during":1846,"possi":1847,"Une":1848,"fé":1849,"mag":1850,"yo":1851,"ête":1852,"years":1853,"cro":1854,"uk":1855,"And":1856,"every":1857,"solo":1858,"miento":1859,"ene":1860,"nam":1861,"Can":1862,"sla":1863,"ore":1864,"Van":1865,"lun":1866,"pués":1867,"avant":1868,"consu":1869,"senti":1870,"conta":1871,"secon":1872,"mijn":1873,"où":1874,"coronavirus":1875,"ciudad":1876,"look":1877,"deel":1878,"millones":1879,"cation":1880,"maken":1881,"Di":1882,"Daar":1883,"eigen":1884,"están":1885,"weg":1886,"premier":1887,"club":1888,"ppen":1889,"make":1890,"gé":1891,"heel":1892,"final":1893,"krij":1894,"thing":1895,"bin":1896,"see":1897,"wen":1898,"chos":1899,"dia":1900,"quar":1901,"econom":1902,"identi":1903,"same":1904,"équi":1905,"zal":1906,"ason":1907,"hoe":1908,"monde":1909,"incre":1910,"istas":1911,"az":1912,"ling":1913,"insi":1914,"because":1915,"lea":1916,"nieuwe":1917,"cra":1918,"ood":1919,"concer":1920,"confir":1921,"él":1922,"say":1923,"Ser":1924,"pend":1925,"sed":1926,"cons":1927,"moins":1928,"going":1929,"emos":1930,"gén":1931,"eu":1932,"2019":1933,"ça":1934,"ward":1935,"xi":1936,"know":1937,"vari":1938,"ating":1939,"har":1940,"enne":1941,"tribu":1942,"event":1943,"ley":1944,"anda":1945,"eer":1946,"fect":1947,"ern":1948,"laat":1949,"mission":1950,"ket":1951,"set":1952,"tiva":1953,"dou":1954,"40":1955,"tus":1956,"lement":1957,"kend":1958,"100":1959,"Cor":1960,"ités":1961,"dont":1962,"toe":1963,"tiempo":1964,"cado":1965,"cours":1966,"ieurs":1967,"Pres":1968,"señ":1969,"erste":1970,"presidente":1971,"condi":1972,"before":1973,"ory":1974,"lugar":1975,"aire":1976,"euros":1977,"ables":1978,"Die":1979,"vrij":1980,"Col":1981,"sido":1982,"ough":1983,"ijf":1984,"ration":1985,"shou":1986,"cil":1987,"Als":1988,"clos":1989,"those":1990,"ace":1991,"home":1992,"omen":1993,"komt":1994,"sure":1995,"iso":1996,"cta":1997,"22":1998,"Man":1999,"mul":2000,"fen":2001,"clas":2002,"sep":2003,"tous":2004,"offi":2005,"tener":2006,"cambi":2007,"huis":2008,"point":2009,"eens":2010,"stat":2011,"ustr":2012,"présent":2013,"empres":2014,"site":2015,"grand":2016,"podr":2017,"star":2018,"four":2019,"seman":2020,"demás":2021,"toch":2022,"France":2023,"atta":2024,"government":2025,"hip":2026,"annon":2027,"esa":2028,"school":2029,"Mi":2030,"zor":2031,"health":2032,"iones":2033,"help":2034,"venir":2035,"fort":2036,"own":2037,"momento":2038,"mois":2039,"mus":2040,"ministra":2041,"Or":2042,"bili":2043,"She":2044,"estar":2045,"illa":2046,"hace":2047,"repor":2048,"ique":2049,"energ":2050,"read":2051,"opé":2052,"Ze":2053,"fem":2054,"Ex":2055,"ief":2056,"candi":2057,"should":2058,"made":2059,"constru":2060,"against":2061,"ish":2062,"esper":2063,"jà":2064,"stud":2065,"perio":2066,"month":2067,"21":2068,"inv":2069,"ció":2070,"políti":2071,"avan":2072,"viol":2073,"obje":2074,"respon":2075,"Dans":2076,"dy":2077,"keer":2078,"continu":2079,"take":2080,"ws":2081,"zación":2082,"année":2083,"ball":2084,"tó":2085,"accor":2086,"solu":2087,"cteur":2088,"ché":2089,"Vol":2090,"tle":2091,"US":2092,"así":2093,"mient":2094,"colle":2095,"high":2096,"tér":2097,"embar":2098,"ani":2099,"arm":2100,"ville":2101,"emplo":2102,"respons":2103,"lado":2104,"Nous":2105,"rele":2106,"action":2107,"dó":2108,"arse":2109,"tran":2110,"bol":2111,"guer":2112,"cual":2113,"staat":2114,"fal":2115,"pra":2116,"Op":2117,"eden":2118,"ige":2119,"hele":2120,"prote":2121,"fel":2122,"Te":2123,"días":2124,"ix":2125,"nal":2126,"después":2127,"zegt":2128,"anten":2129,"Cent":2130,"care":2131,"lla":2132,"déjà":2133,"Sta":2134,"Sin":2135,"kes":2136,"later":2137,"then":2138,"pati":2139,"lí":2140,"zie":2141,"président":2142,"personnes":2143,"Oek":2144,"jan":2145,"vés":2146,"maakt":2147,"gouver":2148,"oper":2149,"regis":2150,"suc":2151,"Fe":2152,"Ook":2153,"Oekra":2154,"eerste":2155,"fol":2156,"beau":2157,"centr":2158,"kon":2159,"Hij":2160,"ícu":2161,"gele":2162,"woon":2163,"rece":2164,"isten":2165,"Bar":2166,"públi":2167,"politie":2168,"60":2169,"log":2170,"ños":2171,"médi":2172,"film":2173,"dió":2174,"still":2175,"Ver":2176,"ref":2177,"Br":2178,"Seg":2179,"sent":2180,"dernier":2181,"Wat":2182,"encuent":2183,"pasado":2184,"eso":2185,"algun":2186,"Ha":2187,"hem":2188,"bru":2189,"geven":2190,"Inter":2191,"houden":2192,"había":2193,"these":2194,"Gr":2195,"decis":2196,"position":2197,"mir":2198,"istes":2199,"iets":2200,"chter":2201,"nacional":2202,"media":2203,"sous":2204,"primera":2205,"kin":2206,"Cu":2207,"three":2208,"crim":2209,"gebru":2210,"isch":2211,"certa":2212,"segu":2213,"condu":2214,"They":2215,"abr":2216,"volu":2217,"érie":2218,"habit":2219,"baar":2220,"dial":2221,"première":2222,"table":2223,"tura":2224,"Zo":2225,"ara":2226,"aura":2227,"mó":2228,"hui":2229,"lieu":2230,"áti":2231,"echt":2232,"mento":2233,"ped":2234,"donc":2235,"Ge":2236,"alleen":2237,"ked":2238,"23":2239,"Da":2240,"ald":2241,"Ukra":2242,"appro":2243,"Además":2244,"rest":2245,"change":2246,"tiga":2247,"issu":2248,"ama":2249,"ctions":2250,"sema":2251,"Met":2252,"tell":2253,"segur":2254,"geme":2255,"tiques":2256,"munici":2257,"ministre":2258,"mble":2259,"atre":2260,"bedr":2261,"eter":2262,"prise":2263,"rio":2264,"right":2265,"oi":2266,"plusieurs":2267,"alors":2268,"eff":2269,"cuenta":2270,"fér":2271,"lijke":2272,"toujours":2273,"hed":2274,"mujer":2275,"estas":2276,"ka":2277,"diri":2278,"stre":2279,"extra":2280,"Oekraï":2281,"especial":2282,"caso":2283,"wi":2284,"pay":2285,"stitu":2286,"euro":2287,"Don":2288,"air":2289,"hn":2290,"cue":2291,"tex":2292,"maand":2293,",\"":2294,"ui":2295,"ints":2296,"cases":2297,"segun":2298,"autre":2299,"trabaj":2300,"wan":2301,"jam":2302,"human":2303,"elles":2304,"ainsi":2305,"dido":2306,"favor":2307,"menos":2308,"ather":2309,"president":2310,"Mé":2311,"particu":2312,"Nor":2313,"onge":2314,"ical":2315,"aller":2316,"country":2317,"Tr":2318,"ctos":2319,"achter":2320,"says":2321,"Pre":2322,"good":2323,"vices":2324,"Europe":2325,"proye":2326,"suite":2327,"schap":2328,"horas":2329,"terug":2330,"At":2331,"tienen":2332,"cier":2333,"memb":2334,"sive":2335,"Pero":2336,"rec":2337,"times":2338,"Per":2339,"chil":2340,"match":2341,"Of":2342,"deci":2343,"partir":2344,"tussen":2345,"uego":2346,"tanto":2347,"demand":2348,"leven":2349,"forme":2350,"érica":2351,"permet":2352,"paña":2353,"million":2354,"Cas":2355,"xim":2356,"dition":2357,"agu":2358,"lt":2359,"selon":2360,"sex":2361,"eds":2362,"gente":2363,"illi":2364,"Ap":2365,"pandemic":2366,"unque":2367,"expe":2368,"pue":2369,"possible":2370,"ican":2371,"Ben":2372,"adre":2373,"27":2374,"80":2375,"ost":2376,"ot":2377,"chi":2378,"estado":2379,"There":2380,"control":2381,"chez":2382,"Ri":2383,"aug":2384,"popu":2385,"Ale":2386,"Sal":2387,"notre":2388,"deren":2389,"ahora":2390,"amer":2391,"procent":2392,"date":2393,"volgens":2394,"trabajo":2395,"dru":2396,"gue":2397,"amb":2398,"game":2399,"hecho":2400,"busines":2401,"equipo":2402,"gol":2403,"sho":2404,"laten":2405,"stem":2406,"Fin":2407,"cris":2408,"hard":2409,"view":2410,"due":2411,"start":2412,"dens":2413,"propos":2414,"oria":2415,"sector":2416,"arrol":2417,"Este":2418,"nex":2419,"around":2420,"orig":2421,"provin":2422,"Covid":2423,"candidat":2424,"atie":2425,"hon":2426,"pró":2427,"Af":2428,"dades":2429,"viron":2430,"zó":2431,"aseg":2432,"Qué":2433,"rien":2434,"minut":2435,"grote":2436,"less":2437,"rol":2438,"prix":2439,"enf":2440,"head":2441,"does":2442,"otro":2443,"cele":2444,"acuer":2445,"ater":2446,"omdat":2447,"Elle":2448,"zij":2449,"China":2450,"kle":2451,"nada":2452,"déclar":2453,"trop":2454,"water":2455,"26":2456,"Voor":2457,"bert":2458,"justi":2459,"situation":2460,"conoci":2461,"You":2462,"toda":2463,"ham":2464,"sea":2465,"Ukraine":2466,"fueron":2467,"gru":2468,"zeg":2469,"illeurs":2470,"amment":2471,"ôt":2472,"ième":2473,"ible":2474,"If":2475,"rem":2476,"els":2477,"ctive":2478,"enten":2479,"world":2480,"tempor":2481,"hol":2482,"vient":2483,"train":2484,"anger":2485,"28":2486,"sour":2487,"kil":2488,"cès":2489,"ata":2490,"poten":2491,"John":2492,"ls":2493,"such":2494,"run":2495,"vision":2496,"Cette":2497,"uso":2498,"según":2499,"eri":2500,"eta":2501,"bit":2502,"partido":2503,"Pe":2504,"velle":2505,"soit":2506,"dri":2507,"quier":2508,"toute":2509,"importante":2510,"ismo":2511,"toire":2512,"sui":2513,"ject":2514,"gouvernement":2515,"result":2516,"Gen":2517,"mel":2518,"erde":2519,"life":2520,"olo":2521,"mundo":2522,"onze":2523,"ijke":2524,"lor":2525,"difer":2526,"think":2527,"sant":2528,"docu":2529,"début":2530,"dollar":2531,"hy":2532,"encontr":2533,"fron":2534,"vrou":2535,"mucho":2536,"expres":2537,"waren":2538,"gon":2539,"rés":2540,"sche":2541,"represent":2542,"manera":2543,"jug":2544,"nationale":2545,"tage":2546,"acces":2547,"book":2548,"atur":2549,"Minister":2550,"70":2551,"minu":2552,"experien":2553,"prendre":2554,"embargo":2555,"second":2556,"caus":2557,"spo":2558,"ope":2559,"follow":2560,"opera":2561,"service":2562,"PS":2563,"bé":2564,"sc":2565,"snel":2566,"versch":2567,"wereld":2568,"financi":2569,"company":2570,"Hu":2571,"née":2572,"ello":2573,"Ni":2574,"pt":2575,"pie":2576,"report":2577,"question":2578,"since":2579,"señal":2580,"porta":2581,"lleg":2582,"ames":2583,"pourra":2584,"nuevo":2585,"mple":2586,"regi":2587,"administra":2588,"That":2589,"elen":2590,"itaire":2591,"agen":2592,"poco":2593,"season":2594,"Para":2595,"500":2596,"cn":2597,"consi":2598,"institu":2599,"tement":2600,"lè":2601,"redu":2602,"isla":2603,"crit":2604,"NA":2605,"jur":2606,"Gobierno":2607,"altijd":2608,"Univers":2609,"gest":2610,"veh":2611,"binnen":2612,"tical":2613,"Bu":2614,"puesto":2615,"será":2616,"semana":2617,"Dit":2618,"minder":2619,"support":2620,"investiga":2621,"witter":2622,"cab":2623,"Sur":2624,"sión":2625,"millions":2626,"Mor":2627,"Du":2628,"poder":2629,"vu":2630,"beeld":2631,"important":2632,"video":2633,"geno":2634,"Val":2635,"prij":2636,"signi":2637,"Sou":2638,"family":2639,"faut":2640,"années":2641,"kelijk":2642,"Ste":2643,"spel":2644,"jusqu":2645,"vice":2646,"hoog":2647,"autom":2648,"Am":2649,"mogelijk":2650,"cran":2651,"direct":2652,"din":2653,"tivos":2654,"eno":2655,"gement":2656,"hoy":2657,"ways":2658,"ester":2659,"recu":2660,"ards":2661,"Whi":2662,"May":2663,"mpre":2664,"algo":2665,"came":2666,"cía":2667,"fis":2668,"samen":2669,"Mun":2670,"eje":2671,"kaar":2672,"cela":2673,"nivel":2674,"90":2675,"vou":2676,"toen":2677,"paci":2678,"fica":2679,"ances":2680,"Ci":2681,"mij":2682,"cación":2683,"emple":2684,"differ":2685,"zonder":2686,"éli":2687,"resta":2688,"acuerdo":2689,"including":2690,"big":2691,"personal":2692,"junto":2693,"base":2694,"Dan":2695,"ween":2696,"tuvo":2697,"ki":2698,"kla":2699,"inici":2700,"visit":2701,"apo":2702,"got":2703,"nouveau":2704,"atro":2705,"gewoon":2706,"environ":2707,"appel":2708,"Mad":2709,"Coun":2710,"far":2711,"plaats":2712,"tier":2713,"grande":2714,"zoals":2715,"Twitter":2716,"génér":2717,"weten":2718,"allow":2719,"middel":2720,"Son":2721,"declar":2722,"espa":2723,"2023":2724,"minister":2725,"next":2726,"pir":2727,"pur":2728,"jeu":2729,"équipe":2730,"29":2731,"turn":2732,"official":2733,"moe":2734,"glo":2735,"alité":2736,"conver":2737,"services":2738,"mientras":2739,"Ra":2740,"tele":2741,"teit":2742,"manif":2743,"app":2744,"techn":2745,"ated":2746,"rá":2747,"aciones":2748,"desarrol":2749,"rad":2750,"orden":2751,"reven":2752,"notamment":2753,"ciales":2754,"desta":2755,"chef":2756,"call":2757,"sac":2758,"anal":2759,"crisis":2760,"days":2761,"vind":2762,"lier":2763,"six":2764,"ster":2765,"ork":2766,"oud":2767,"chte":2768,"major":2769,"ports":2770,"ready":2771,"death":2772,"terior":2773,"staan":2774,"circu":2775,"35":2776,"urt":2777,"wever":2778,"ased":2779,"told":2780,"afe":2781,"Pla":2782,"law":2783,"2018":2784,"entr":2785,"gebruik":2786,"St":2787,"quelques":2788,"fig":2789,"vuel":2790,"sions":2791,"antal":2792,"brand":2793,"geld":2794,"Mr":2795,"Mac":2796,"seu":2797,"jaren":2798,"sle":2799,"front":2800,"milit":2801,"vri":2802,"procha":2803,"icos":2804,"current":2805,"cet":2806,"là":2807,"really":2808,"ví":2809,"unes":2810,"ates":2811,"general":2812,"Ad":2813,"medio":2814,"spre":2815,"gobierno":2816,"points":2817,"individ":2818,"lio":2819,"begin":2820,"iller":2821,"tt":2822,"ars":2823,"través":2824,"dez":2825,"osten":2826,"ellement":2827,"ña":2828,"pers":2829,"appe":2830,"between":2831,"vraag":2832,"nouvelle":2833,"obli":2834,"number":2835,"Nacional":2836,"oog":2837,"beaucoup":2838,"estudi":2839,"director":2840,"rond":2841,"cole":2842,"both":2843,"asegur":2844,"credi":2845,"benef":2846,"ming":2847,"territ":2848,"Sel":2849,"willen":2850,"enga":2851,"Ban":2852,"Biden":2853,"band":2854,"break":2855,"cing":2856,"anim":2857,"edad":2858,"edu":2859,"anos":2860,"ator":2861,"ries":2862,"buil":2863,"used":2864,"gers":2865,"lación":2866,"además":2867,"ror":2868,"soir":2869,"drie":2870,"lock":2871,"recent":2872,"onderzoek":2873,"gez":2874,"steeds":2875,"ral":2876,"pueden":2877,"initi":2878,"princip":2879,"Una":2880,"gos":2881,"indus":2882,"cru":2883,"ney":2884,"elec":2885,"inform":2886,"unt":2887,"inds":2888,"actual":2889,"zas":2890,"lack":2891,"pic":2892,"tradi":2893,"conna":2894,"oit":2895,"partie":2896,"siempre":2897,"tives":2898,"ids":2899,"post":2900,"teg":2901,"cies":2902,"volgen":2903,"bir":2904,"cit":2905,"krijgen":2906,"ór":2907,"gelopen":2908,"Jus":2909,"travail":2910,"ène":2911,"debe":2912,"rez":2913,"tera":2914,"cover":2915,"case":2916,"niveau":2917,"ross":2918,"También":2919,"Do":2920,"anun":2921,"prises":2922,"Jan":2923,"fra":2924,"gir":2925,"xico":2926,"uses":2927,"Jos":2928,"mers":2929,"éle":2930,"isme":2931,"projet":2932,"nieuw":2933,"élec":2934,"secre":2935,"tió":2936,"situación":2937,"çais":2938,"inien":2939,"ellos":2940,"estre":2941,"cô":2942,"partij":2943,"strij":2944,"tido":2945,"nent":2946,"ús":2947,"haber":2948,"cómo":2949,"registr":2950,"seguridad":2951,"logr":2952,"zeker":2953,"truct":2954,"devra":2955,"stad":2956,"recei":2957,"soli":2958,"continue":2959,"ah":2960,"uren":2961,"another":2962,"inclus":2963,"nove":2964,"mise":2965,"pens":2966,"Dur":2967,"aires":2968,"keep":2969,"Ber":2970,"deli":2971,"opt":2972,"aange":2973,"mocra":2974,"atr":2975,"destin":2976,"mettre":2977,"bres":2978,"Dis":2979,"kre":2980,"funcion":2981,"mode":2982,"Char":2983,"Según":2984,"zona":2985,"persona":2986,"manche":2987,"eel":2988,"fla":2989,"luego":2990,"vendre":2991,"groupe":2992,"México":2993,"aunque":2994,"sage":2995,"President":2996,"lus":2997,"ío":2998,"asse":2999,"otras":3000,"zul":3001,"force":3002,"invest":3003,"pp":3004,"ences":3005,"Europa":3006,"iday":3007,"31":3008,"jó":3009,"contact":3010,"commen":3011,"région":3012,"llegar":3013,"information":3014,"meses":3015,"defin":3016,"Friday":3017,"uiten":3018,"gui":3019,"jourd":3020,"avons":3021,"deb":3022,"too":3023,"todas":3024,"offer":3025,"ith":3026,"gique":3027,"nueva":3028,"Ac":3029,"Em":3030,"ess":3031,"conó":3032,"multi":3033,"économ":3034,"tely":3035,"coming":3036,"web":3037,"York":3038,"doit":3039,"Bij":3040,"vr":3041,"dige":3042,"meet":3043,"utilis":3044,"chts":3045,"ami":3046,"bour":3047,"hen":3048,"otra":3049,"inos":3050,"SA":3051,"ware":3052,"lever":3053,"voit":3054,"deral":3055,"bie":3056,"infe":3057,"déclaré":3058,"pho":3059,"différ":3060,"ancia":3061,"abil":3062,"Esta":3063,"deman":3064,"gs":3065,"Vi":3066,"yer":3067,"wed":3068,"sab":3069,"develop":3070,"former":3071,"Tur":3072,"vast":3073,"casa":3074,"Selon":3075,"few":3076,"étaient":3077,"Ils":3078,"consider":3079,"comen":3080,"España":3081,"CA":3082,"unos":3083,"Oekraïne":3084,"Den":3085,"here":3086,"lon":3087,"idas":3088,"Sun":3089,"algunos":3090,"Net":3091,"Nation":3092,"ella":3093,"ety":3094,"ams":3095,"sociales":3096,"orde":3097,"jamais":3098,"eral":3099,"community":3100,"blis":3101,"tipo":3102,"dente":3103,"tijdens":3104,"TV":3105,"laire":3106,"aban":3107,"salud":3108,"américa":3109,"mpli":3110,"obser":3111,"laatste":3112,"45":3113,"clear":3114,"cun":3115,"ocu":3116,"erta":3117,"elijk":3118,"univers":3119,"estaba":3120,"alter":3121,"mentos":3122,"simple":3123,"ague":3124,"night":3125,"rup":3126,"politique":3127,"ailleurs":3128,"Mc":3129,"fre":3130,"ez":3131,"natuur":3132,"ximo":3133,"added":3134,"bec":3135,"Rusland":3136,"ajou":3137,"bajo":3138,"ural":3139,"tenido":3140,"Après":3141,"aal":3142,"pouvoir":3143,"dado":3144,"saison":3145,"faci":3146,"compli":3147,"vio":3148,"werken":3149,"Estados":3150,"different":3151,"étu":3152,"blijven":3153,"kwam":3154,"Mer":3155,"ofi":3156,"porté":3157,"tendr":3158,"ctu":3159,"llen":3160,"Russ":3161,"één":3162,"atri":3163,"jeudi":3164,"serie":3165,"friend":3166,"near":3167,"sten":3168,"llev":3169,"sever":3170,"efe":3171,"êt":3172,"heure":3173,"leid":3174,"business":3175,"Sch":3176,"online":3177,"succes":3178,"Dr":3179,"dor":3180,"bras":3181,"half":3182,"ON":3183,"ions":3184,"rea":3185,"vidad":3186,"permi":3187,"agr":3188,"past":3189,"centre":3190,"ísti":3191,"esp":3192,"fans":3193,"semaine":3194,"voer":3195,"bun":3196,"nis":3197,"ctif":3198,"quand":3199,"mercredi":3200,"199":3201,"rapport":3202,"dernière":3203,"Cam":3204,"liz":3205,"belan":3206,"bedrijf":3207,"aver":3208,"joen":3209,"valu":3210,"iment":3211,"emer":3212,"%.":3213,"Ter":3214,"réalis":3215,"market":3216,"city":3217,"hit":3218,"rid":3219,"grandes":3220,"Her":3221,"edi":3222,"ocur":3223,"rom":3224,"casos":3225,"econó":3226,"vul":3227,"uro":3228,"crimin":3229,"compañ":3230,"cuatro":3231,"homme":3232,"ases":3233,"chang":3234,"dimanche":3235,"oft":3236,"announ":3237,"Unidos":3238,"nú":3239,"sí":3240,"fense":3241,"commer":3242,"mardi":3243,"power":3244,"dévelop":3245,"Asi":3246,"hizo":3247,"lundi":3248,"self":3249,"acci":3250,"weet":3251,"Poli":3252,"Premi":3253,"nad":3254,"happen":3255,"vée":3256,"suis":3257,"exten":3258,"mani":3259,"key":3260,"move":3261,"muchos":3262,"vendredi":3263,"siste":3264,"feel":3265,"defen":3266,"lead":3267,"compag":3268,"great":3269,"Mos":3270,"luit":3271,"mostr":3272,"impact":3273,"Mal":3274,"lais":3275,"enter":3276,"Argent":3277,"Sen":3278,"exp":3279,"concern":3280,"State":3281,"II":3282,"appli":3283,"ruim":3284,"compte":3285,"Vla":3286,"communi":3287,"Face":3288,"alles":3289,"constitu":3290,"miljoen":3291,"reported":3292,"ago":3293,"each":3294,"gros":3295,"ub":3296,"across":3297,"job":3298,"quis":3299,"illes":3300,"CE":3301,"jari":3302,"Pas":3303,"prove":3304,"restaur":3305,"wee":3306,"fur":3307,"uw":3308,"Estado":3309,"oport":3310,"muer":3311,"participa":3312,"gebe":3313,"afir":3314,"carr":3315,"level":3316,"dispon":3317,"aanse":3318,"Ab":3319,"vía":3320,"crania":3321,"West":3322,"cine":3323,"Russie":3324,"Ucrania":3325,"pron":3326,"working":3327,"seguir":3328,"EU":3329,"unidad":3330,"mia":3331,"bank":3332,"stock":3333,"bilidad":3334,"reste":3335,"cts":3336,"sécur":3337,"Pri":3338,"pose":3339,"alg":3340,"refer":3341,"tenir":3342,"promo":3343,"último":3344,"When":3345,"vallen":3346,"óg":3347,"ought":3348,"maat":3349,"comment":3350,"lares":3351,"ness":3352,"Gar":3353,"inté":3354,"cimiento":3355,"usu":3356,"actor":3357,"foto":3358,"proyecto":3359,"Ja":3360,"éti":3361,"Volgens":3362,"Austr":3363,"eux":3364,"’,":3365,"estad":3366,"principal":3367,"effet":3368,"Hou":3369,"requi":3370,"things":3371,"offici":3372,"vooral":3373,"autoridades":3374,"’.":3375,"uits":3376,"Saint":3377,"record":3378,"fli":3379,"onden":3380,"nemen":3381,"Chris":3382,"toutes":3383,"soon":3384,"rée":3385,"buiten":3386,"delen":3387,"quarter":3388,"argent":3389,"familia":3390,"côté":3391,"má":3392,"seront":3393,"organiz":3394,"hospital":3395,"Del":3396,"ila":3397,"quatre":3398,"nego":3399,"forman":3400,"oney":3401,"coles":3402,"foot":3403,"vien":3404,"jarige":3405,"decir":3406,"gesch":3407,"beter":3408,"sil":3409,"anders":3410,"porter":3411,"jeunes":3412,"eria":3413,"cido":3414,"dren":3415,"Conse":3416,"abri":3417,"late":3418,"nodig":3419,"samedi":3420,"Mu":3421,"Ré":3422,"bom":3423,"capital":3424,"voorbeeld":3425,"posible":3426,"spr":3427,"atis":3428,"ingo":3429,"nooit":3430,"alen":3431,"lag":3432,"though":3433,"effect":3434,"abili":3435,"without":3436,"estable":3437,"belie":3438,"ky":3439,"frente":3440,"ficul":3441,"eurs":3442,"manten":3443,"áb":3444,"lear":3445,"occas":3446,"xima":3447,"afin":3448,"sino":3449,"interven":3450,"news":3451,"númer":3452,"confi":3453,"body":3454,"interes":3455,"offic":3456,"ôle":3457,"verder":3458,"pendant":3459,"hour":3460,"assur":3461,"Ros":3462,"ously":3463,"atte":3464,"never":3465,"Apple":3466,"kers":3467,"elo":3468,"endre":3469,"called":3470,"deal":3471,"zitten":3472,"Sy":3473,"pus":3474,"zig":3475,"rière":3476,"geda":3477,"jos":3478,"kte":3479,"left":3480,"dir":3481,"idé":3482,"gré":3483,"members":3484,"ital":3485,"cont":3486,"chting":3487,"Jean":3488,"profession":3489,"alla":3490,"redes":3491,"ething":3492,"project":3493,"affir":3494,"distin":3495,"2017":3496,"gemaakt":3497,"mate":3498,"according":3499,"Bor":3500,"rac":3501,"tivas":3502,"dieron":3503,"Esto":3504,".’":3505,"City":3506,"Pau":3507,"retour":3508,"capac":3509,"Russische":3510,"Pu":3511,"recht":3512,"iser":3513,"quit":3514,"grad":3515,"partment":3516,"United":3517,"russe":3518,"quienes":3519,"grupo":3520,"FC":3521,"Was":3522,"gal":3523,"série":3524,"cionales":3525,"avaient":3526,"belangr":3527,"emp":3528,"bió":3529,"court":3530,"noti":3531,"septem":3532,"found":3533,"conser":3534,"vinden":3535,"stop":3536,"months":3537,"groot":3538,"estival":3539,"información":3540,"kind":3541,"yen":3542,"publique":3543,"enfants":3544,"One":3545,"kno":3546,"ijken":3547,"ined":3548,"afgelopen":3549,"dise":3550,"Mus":3551,"arán":3552,"ordin":3553,"zorg":3554,"AN":3555,"ilo":3556,"agua":3557,"Ke":3558,"aantal":3559,"eng":3560,"isation":3561,"atar":3562,"iedere":3563,"judi":3564,"thers":3565,"haal":3566,"course":3567,"shor":3568,"incen":3569,"contribu":3570,"votre":3571,"doel":3572,"casi":3573,"onds":3574,"blan":3575,"anza":3576,"tit":3577,"paro":3578,"valor":3579,"group":3580,"licit":3581,"Pa":3582,"devant":3583,"area":3584,"March":3585,"ën":3586,"trouver":3587,"neer":3588,"icación":3589,"house":3590,"something":3591,"arch":3592,"already":3593,"ingres":3594,"oles":3595,"semb":3596,"verk":3597,"Isra":3598,"guerre":3599,"ût":3600,"mental":3601,"ctie":3602,"coach":3603,"vista":3604,"ligne":3605,"proceso":3606,"Québec":3607,"away":3608,"sos":3609,"alcan":3610,"raz":3611,"comes":3612,"zelfs":3613,"Monday":3614,"75":3615,"Alle":3616,"annoncé":3617,"Amerik":3618,"ár":3619,"elkaar":3620,"oma":3621,"bekend":3622,"students":3623,".»":3624,"Tra":3625,"order":3626,"Mic":3627,"tief":3628,"veili":3629,"ny":3630,"wing":3631,"tenu":3632,"deuxième":3633,"oso":3634,"ciendo":3635,"conven":3636,"verse":3637,"data":3638,"zeggen":3639,"comer":3640,"provo":3641,"better":3642,"seen":3643,"accep":3644,"perman":3645,"certains":3646,"reli":3647,"historia":3648,"occu":3649,"pagne":3650,"analy":3651,"ners":3652,"until":3653,"Así":3654,"política":3655,"South":3656,"geste":3657,"spé":3658,"estra":3659,"extre":3660,"heures":3661,"cuer":3662,"frica":3663,"lunes":3664,"beste":3665,"dres":3666,"sum":3667,"zetten":3668,"region":3669,"adres":3670,"However":3671,"Gre":3672,"Ten":3673,"Vo":3674,"ying":3675,"zullen":3676,"crip":3677,"PC":3678,"ora":3679,"entra":3680,"jeune":3681,"nuestro":3682,"Bru":3683,"cito":3684,"divers":3685,"igual":3686,"hacia":3687,"woord":3688,"países":3689,"Alex":3690,"name":3691,"ólo":3692,"tation":3693,"actie":3694,"plaat":3695,"ientos":3696,"èrement":3697,"didn":3698,"FA":3699,"must":3700,"inet":3701,"genera":3702,"impu":3703,"Rusia":3704,"Brit":3705,"vijf":3706,"ane":3707,"mañ":3708,"acto":3709,"viernes":3710,"illet":3711,"puntos":3712,"With":3713,"vond":3714,"determin":3715,"dice":3716,"estu":3717,"pass":3718,"production":3719,"children":3720,"strijd":3721,"reun":3722,"progres":3723,"restric":3724,"certain":3725,"fire":3726,"hé":3727,"ists":3728,"déci":3729,"vehícu":3730,"Stat":3731,"Wel":3732,"went":3733,"eros":3734,"intér":3735,"adora":3736,"últimos":3737,"itos":3738,"ofd":3739,"Air":3740,"Om":3741,"Tor":3742,"arti":3743,"stor":3744,"datos":3745,"podría":3746,"conocer":3747,"vue":3748,"décis":3749,"boven":3750,"histoire":3751,"cinco":3752,"origin":3753,"puesta":3754,"hospit":3755,"took":3756,"aujourd":3757,"jas":3758,"potenti":3759,"version":3760,"neu":3761,"arias":3762,"nature":3763,"integr":3764,"enqu":3765,"mocr":3766,"phone":3767,"Dire":3768,"five":3769,"visión":3770,"idelijk":3771,"mujeres":3772,"minutes":3773,"Bro":3774,"gere":3775,"conclu":3776,"nuestra":3777,"resid":3778,"oorlog":3779,"helemaal":3780,"municip":3781,"kans":3782,"always":3783,"werden":3784,"County":3785,"Ces":3786,"Ger":3787,"ffer":3788,"rist":3789,"reco":3790,"frent":3791,"finale":3792,"Canada":3793,"kinderen":3794,"aurait":3795,"36":3796,"ative":3797,"adap":3798,"chas":3799,"gencia":3800,"rése":3801,"europé":3802,"Ph":3803,"celle":3804,"allemaal":3805,"materi":3806,"prior":3807,"cant":3808,"tí":3809,"trata":3810,"might":3811,"wal":3812,"français":3813,"mica":3814,"Cour":3815,"pace":3816,"metros":3817,"posición":3818,"occasion":3819,"Plus":3820,"Wor":3821,"bere":3822,"tard":3823,"bed":3824,"What":3825,"icas":3826,"voel":3827,"blijft":3828,"iter":3829,"making":3830,"acter":3831,"vait":3832,"series":3833,"augment":3834,"fiscal":3835,"34":3836,"bud":3837,"sci":3838,"lim":3839,"sáb":3840,"heden":3841,"imiento":3842,"addition":3843,"niets":3844,"eerder":3845,"energie":3846,"emo":3847,"live":3848,"pourrait":3849,"Black":3850,"Lig":3851,"taal":3852,"terdam":3853,"Mat":3854,"positive":3855,"activ":3856,"Hoe":3857,"raison":3858,"moi":3859,"Health":3860,"cualquier":3861,"Ca":3862,"utte":3863,"2016":3864,"cambio":3865,"mano":3866,"directeur":3867,"avi":3868,"sm":3869,"doet":3870,"fier":3871,"mañana":3872,"66":3873,"uda":3874,"cumpli":3875,"zaak":3876,"Thurs":3877,"programa":3878,"David":3879,"hop":3880,"opport":3881,"imos":3882,"pobla":3883,"based":3884,"celui":3885,"charge":3886,"General":3887,"vrouw":3888,"Bur":3889,"cop":3890,"lent":3891,"light":3892,"distribu":3893,"ministro":3894,"fonction":3895,"Hay":3896,"agres":3897,"nar":3898,"migr":3899,"While":3900,"agit":3901,"Entre":3902,"staff":3903,"model":3904,"Thursday":3905,"tek":3906,"vícti":3907,"aún":3908,"asi":3909,"veces":3910,"pression":3911,"éné":3912,"temper":3913,"afect":3914,"etje":3915,"Dé":3916,"Satur":3917,"quant":3918,"gence":3919,"toria":3920,"Cons":3921,"likel":3922,"denun":3923,"coura":3924,"curity":3925,"ukra":3926,"rum":3927,"précis":3928,"weeks":3929,"33":3930,"Pal":3931,"poner":3932,"número":3933,"My":3934,"varios":3935,"ray":3936,"tries":3937,"besch":3938,"Res":3939,"free":3940,"kijken":3941,"dagen":3942,"sécurité":3943,"sábado":3944,"ukrainien":3945,"Cha":3946,"Lou":3947,"nee":3948,"box":3949,"dentro":3950,"empresa":3951,"National":3952,"Cap":3953,"enor":3954,"tré":3955,"actions":3956,"suit":3957,"kele":3958,"election":3959,"famille":3960,"Nederlandse":3961,"hic":3962,"ice":3963,"sait":3964,"vaak":3965,"chaque":3966,"pril":3967,"meille":3968,"bia":3969,"hô":3970,"encias":3971,"centro":3972,"groe":3973,"comunic":3974,"Tues":3975,"audi":3976,"mars":3977,"All":3978,"villa":3979,"público":3980,"Madrid":3981,"aring":3982,"sement":3983,"rain":3984,"handel":3985,"particip":3986,"mado":3987,"ental":3988,"neur":3989,"tweede":3990,"ancien":3991,"sentido":3992,"employ":3993,"Avec":3994,"kop":3995,"rue":3996,"semble":3997,"ira":3998,"matin":3999,"cosas":4000,"money":4001,"parents":4002,"previ":4003,"alia":4004,"shares":4005,"early":4006,"Argentina":4007,"mont":4008,"lijkt":4009,"zes":4010,"duidelijk":4011,"Desde":4012,"Chi":4013,"jets":4014,"dese":4015,"oni":4016,"auth":4017,"acción":4018,"voy":4019,"vieron":4020,"Sunday":4021,"ril":4022,"cerca":4023,"prijs":4024,"likely":4025,"deber":4026,"oman":4027,"field":4028,"curso":4029,"pandemia":4030,"dólares":4031,"Tuesday":4032,"Fern":4033,"ever":4034,"limit":4035,"paar":4036,"naast":4037,"statement":4038,"janvier":4039,"compr":4040,"buen":4041,"basis":4042,"Saturday":4043,"coment":4044,"ager":4045,"Paris":4046,"izen":4047,"segundo":4048,"acom":4049,"percent":4050,"capaci":4051,"women":4052,"conne":4053,"ieur":4054,"proce":4055,"tenemos":4056,"beso":4057,"domingo":4058,"lopen":4059,"dem":4060,"télé":4061,"misma":4062,"Nu":4063,"vote":4064,"journal":4065,"population":4066,"DA":4067,"food":4068,"remain":4069,"challen":4070,"accus":4071,"Ru":4072,"enci":4073,"feu":4074,"Congres":4075,"normal":4076,"quent":4077,"why":4078,"Wil":4079,"regel":4080,"déce":4081,"corpor":4082,"plat":4083,"hombre":4084,"temporada":4085,"tje":4086,"compar":4087,"voet":4088,"discus":4089,"berg":4090,"ghts":4091,"Pen":4092,"fas":4093,"det":4094,"conside":4095,"Over":4096,"çon":4097,"quí":4098,"unca":4099,"terror":4100,"finan":4101,"zelfde":4102,"kr":4103,"tiz":4104,"rique":4105,"iendo":4106,"nouvel":4107,"future":4108,"IN":4109,"Tu":4110,"pand":4111,"retrou":4112,"noche":4113,"having":4114,"excep":4115,"gag":4116,"aliment":4117,"fus":4118,"along":4119,"quoi":4120,"toget":4121,"tax":4122,"opge":4123,"little":4124,"performan":4125,"moest":4126,"room":4127,"mandat":4128,"cherche":4129,"wacht":4130,"particular":4131,"technolog":4132,"Hol":4133,"fais":4134,"prepar":4135,"syst":4136,"influ":4137,"large":4138,"santé":4139,"together":4140,"Wed":4141,"ecu":4142,"leden":4143,"ched":4144,"halen":4145,"sistema":4146,"32":4147,"apare":4148,"pez":4149,"tenía":4150,"capit":4151,"passe":4152,"patients":4153,"Nig":4154,"mou":4155,"unas":4156,"prue":4157,"loc":4158,"give":4159,"bate":4160,"again":4161,"iken":4162,"mur":4163,"ël":4164,"impli":4165,"resol":4166,"tarde":4167,"tics":4168,"cs":4169,"vro":4170,"ceux":4171,"ird":4172,"hoofd":4173,"Deze":4174,"martes":4175,"ayud":4176,"cinq":4177,"empresas":4178,"eas":4179,"eken":4180,"ió":4181,"orge":4182,"today":4183,"competi":4184,"corre":4185,"ending":4186,"landen":4187,"300":4188,"Mas":4189,"argu":4190,"wijl":4191,"oficial":4192,"ony":4193,"acciones":4194,"protest":4195,"League":4196,"instru":4197,"sigue":4198,"%,":4199,"using":4200,"idea":4201,"ao":4202,"mad":4203,"doing":4204,"effe":4205,"endant":4206,"ís":4207,"enfrent":4208,"tige":4209,"solicit":4210,"mart":4211,"intent":4212,"full":4213,"diferentes":4214,"recuper":4215,"informó":4216,"bl":4217,"taken":4218,"99":4219,"fle":4220,"sau":4221,"associ":4222,"tée":4223,"Afri":4224,"return":4225,"atal":4226,"ércoles":4227,"oung":4228,"bijvoorbeeld":4229,"cks":4230,"aren":4231,"forces":4232,"198":4233,"Justi":4234,"international":4235,"servicio":4236,"andon":4237,"conditions":4238,"const":4239,"muchas":4240,"jueves":4241,"photo":4242,"demande":4243,"uis":4244,"Wednes":4245,"BC":4246,"nées":4247,"mail":4248,"décou":4249,"38":4250,"ric":4251,"abord":4252,"peque":4253,"provi":4254,"werkt":4255,"55":4256,"Cali":4257,"gio":4258,"Ali":4259,"dose":4260,"ureau":4261,"system":4262,"culture":4263,"iedereen":4264,"ature":4265,"licht":4266,"marché":4267,"mercado":4268,"kunt":4269,"prison":4270,"Jap":4271,"kker":4272,"asked":4273,"ijven":4274,"cade":4275,"miércoles":4276,"mark":4277,"juin":4278,"ensemble":4279,"leaders":4280,"dollars":4281,"Wednesday":4282,"ram":4283,"sinds":4284,"enfer":4285,"member":4286,"vement":4287,"cations":4288,"schien":4289,"suspen":4290,"relations":4291,"Che":4292,"hac":4293,"tación":4294,"serait":4295,"difficul":4296,"spread":4297,"bos":4298,"jon":4299,"km":4300,"tenant":4301,"bren":4302,"koop":4303,"celebra":4304,"document":4305,"once":4306,"iemand":4307,"volle":4308,"bouw":4309,"kilom":4310,"37":4311,"champ":4312,"haus":4313,"venue":4314,"punto":4315,"peuvent":4316,"respecto":4317,"consul":4318,"officials":4319,"Facebook":4320,"kl":4321,"nant":4322,"vamente":4323,"yp":4324,"État":4325,"españ":4326,"hether":4327,"objetivo":4328,"done":4329,"ition":4330,"estamos":4331,"mogen":4332,"Juan":4333,"American":4334,"décembre":4335,"ping":4336,"représent":4337,"legal":4338,"bilité":4339,"several":4340,"AM":4341,"Gro":4342,"Ou":4343,"find":4344,"groep":4345,"bri":4346,"ición":4347,"mains":4348,"global":4349,"DC":4350,"Pol":4351,"cabe":4352,"given":4353,"hadden":4354,"getting":4355,"domin":4356,"indelijk":4357,"taking":4358,"nea":4359,"résu":4360,"Unis":4361,"drag":4362,"celebr":4363,"kant":4364,"enton":4365,"vaccin":4366,"Joe":4367,"devrait":4368,"SE":4369,"inig":4370,"tron":4371,"niños":4372,"vig":4373,"ctores":4374,"mplo":4375,"justice":4376,"scen":4377,"œu":4378,"recom":4379,"bonne":4380,"geleden":4381,"announced":4382,"def":4383,"love":4384,"apli":4385,"uitge":4386,"droit":4387,"lockdown":4388,"Vic":4389,"quali":4390,"duur":4391,"venu":4392,"indre":4393,"gemeente":4394,"segunda":4395,".,":4396,"avo":4397,"pet":4398,"anto":4399,"verda":4400,"goede":4401,"plu":4402,"énerg":4403,"virtu":4404,"close":4405,"natuurlijk":4406,"cham":4407,"motor":4408,"presente":4409,"ages":4410,"néces":4411,"confer":4412,"exam":4413,"vely":4414,"Cham":4415,"próximo":4416,"Tour":4417,"evit":4418,"tats":4419,"vale":4420,"zin":4421,"reas":4422,"tici":4423,"nega":4424,"mod":4425,"nombreux":4426,"femmes":4427,"veer":4428,"manage":4429,"bern":4430,"fuera":4431,"Cre":4432,"ios":4433,"ocas":4434,"dedi":4435,"tient":4436,"least":4437,"ciento":4438,"dipl":4439,"markt":4440,"pério":4441,"explique":4442,"zone":4443,"vert":4444,"rais":4445,"AR":4446,"liber":4447,"zei":4448,"Union":4449,"wards":4450,"benefici":4451,"alterna":4452,"Police":4453,"writ":4454,"nia":4455,"passer":4456,"party":4457,"andaag":4458,"fall":4459,"ile":4460,"sujet":4461,"price":4462,"Secre":4463,"Super":4464,"krijgt":4465,"After":4466,"inas":4467,"contex":4468,"propu":4469,"minutos":4470,"dies":4471,"tional":4472,"vangen":4473,"cut":4474,"federal":4475,"gues":4476,"joven":4477,"verschill":4478,"Red":4479,"aide":4480,"tière":4481,"resear":4482,"indiqué":4483,"syste":4484,"membres":4485,"adel":4486,"reve":4487,"fras":4488,"appar":4489,"trodu":4490,"players":4491,"hington":4492,"sport":4493,"aquel":4494,"mí":4495,"lations":4496,"invol":4497,"travel":4498,"mensa":4499,"zouden":4500,"anderen":4501,"bunal":4502,"Washington":4503,"known":4504,"hau":4505,"simil":4506,"sais":4507,"India":4508,"femme":4509,"responsable":4510,"izo":4511,"jard":4512,"isión":4513,"gewe":4514,"meas":4515,"passé":4516,"Cela":4517,"doesn":4518,"OS":4519,"gado":4520,"games":4521,"ota":4522,"wie":4523,"enero":4524,"siendo":4525,"road":4526,"popular":4527,"AF":4528,"béné":4529,"sk":4530,"tête":4531,"savoir":4532,"personne":4533,"señaló":4534,"général":4535,"400":4536,"zado":4537,"venta":4538,"office":4539,"65":4540,"bare":4541,"cali":4542,"fan":4543,"eth":4544,"ológ":4545,"dencia":4546,"pions":4547,"novembre":4548,"Tom":4549,"âce":4550,"éc":4551,"teen":4552,"become":4553,"bring":4554,"bijna":4555,"campa":4556,"entraî":4557,"invas":4558,"accue":4559,"couple":4560,"availa":4561,"secret":4562,"combat":4563,"speci":4564,"claim":4565,"maanden":4566,"développe":4567,".'":4568,"Har":4569,"sort":4570,"èle":4571,"denk":4572,"uela":4573,"meter":4574,"cargo":4575,"looking":4576,"Macron":4577,"vrier":4578,"House":4579,"Ba":4580,"essenti":4581,"comprom":4582,"Waar":4583,"dès":4584,"inno":4585,"ared":4586,"mai":4587,"genomen":4588,"grond":4589,"entreprise":4590,"stij":4591,"formation":4592,"issue":4593,"ización":4594,"omer":4595,"chose":4596,"libre":4597,"compl":4598,"moder":4599,"Donald":4600,"vindt":4601,"stu":4602,"paso":4603,"gaz":4604,"ursos":4605,"cerr":4606,"industr":4607,"sign":4608,"población":4609,"Iran":4610,"PP":4611,"Tri":4612,"ow":4613,"wach":4614,"Ministerio":4615,"Bre":4616,"Dom":4617,"Sep":4618,"list":4619,"veut":4620,"utin":4621,"Depuis":4622,"mort":4623,"2014":4624,"belangrijk":4625,"septembre":4626,"48":4627,"cadre":4628,"técn":4629,"oots":4630,"political":4631,"José":4632,"ois":4633,"pin":4634,"États":4635,"esse":4636,"terre":4637,"explo":4638,"désor":4639,"respect":4640,"research":4641,"zu":4642,"err":4643,"among":4644,"icul":4645,"dispu":4646,"érer":4647,"última":4648,"ément":4649,"pues":4650,"Como":4651,"individu":4652,"Premier":4653,"budget":4654,"AS":4655,"Gover":4656,"wet":4657,"enough":4658,"cast":4659,"stay":4660,"crise":4661,"manifest":4662,"nunca":4663,"vlu":4664,"infor":4665,"itan":4666,"rép":4667,"souha":4668,"Tout":4669,"invit":4670,"isé":4671,"opa":4672,"race":4673,"soort":4674,"started":4675,"désormais":4676,"Ay":4677,"Sam":4678,"cée":4679,"eau":4680,"adop":4681,"seis":4682,"sele":4683,"connu":4684,"Insta":4685,"aso":4686,"practi":4687,"amor":4688,"veaux":4689,"forts":4690,"rug":4691,"juillet":4692,"itaires":4693,"incident":4694,"eerst":4695,"demos":4696,"ely":4697,"absolu":4698,"surtout":4699,"speel":4700,"atención":4701,"factor":4702,"weekend":4703,"further":4704,"yet":4705,"pect":4706,"compan":4707,"joueurs":4708,"debido":4709,"RE":4710,"enkele":4711,"acus":4712,"Asimismo":4713,"Stre":4714,"others":4715,"éri":4716,"reç":4717,"stel":4718,"small":4719,"Bou":4720,"cad":4721,"octo":4722,"introdu":4723,"quo":4724,"emt":4725,"presse":4726,"véhic":4727,"problemas":4728,"juego":4729,"encuentro":4730,"municipal":4731,"expected":4732,"Paul":4733,"Hos":4734,"adien":4735,"mach":4736,"categ":4737,"fice":4738,"partidos":4739,"period":4740,"Aug":4741,"reden":4742,"interest":4743,"osa":4744,"ford":4745,"gestion":4746,"offen":4747,"Ama":4748,"ian":4749,"versión":4750,"2015":4751,"workers":4752,"ología":4753,"Ed":4754,"hold":4755,"ias":4756,"lion":4757,"permis":4758,"precios":4759,"fication":4760,"pesos":4761,"confli":4762,"fau":4763,"mico":4764,"wik":4765,"held":4766,"lei":4767,"sible":4768,"kende":4769,"relación":4770,"link":4771,"falta":4772,"Instagram":4773,"evid":4774,"tio":4775,"irs":4776,"imple":4777,"direc":4778,"février":4779,"ampli":4780,"punt":4781,"Star":4782,"ism":4783,"dici":4784,"wege":4785,"rédu":4786,"distan":4787,"largo":4788,"aría":4789,"convo":4790,"areas":4791,"volver":4792,"Carlos":4793,"servicios":4794,"veilig":4795,"ive":4796,"whether":4797,"thuis":4798,"saire":4799,"vaar":4800,"count":4801,"tiembre":4802,"mayoría":4803,"administration":4804,"opportun":4805,"available":4806,"ép":4807,"commit":4808,"precio":4809,"board":4810,"ández":4811,"sommes":4812,"football":4813,"gia":4814,"Luis":4815,"Ko":4816,"tam":4817,"escen":4818,"abo":4819,"process":4820,"assist":4821,"decisión":4822,"véhicu":4823,"lég":4824,"aco":4825,"neo":4826,"plann":4827,"bros":4828,"entreprises":4829,"refle":4830,"sólo":4831,"émie":4832,"security":4833,"chance":4834,"ache":4835,"questions":4836,"bility":4837,"probable":4838,"objectif":4839,"besta":4840,"depen":4841,"annu":4842,"civil":4843,"rijden":4844,"souvent":4845,"trict":4846,"mieux":4847,"guerra":4848,"entonces":4849,"Men":4850,"pite":4851,"dict":4852,"campagne":4853,"ctubre":4854,"explos":4855,"campaign":4856,"Cal":4857,"story":4858,"pasa":4859,"',":4860,"yó":4861,"sug":4862,"fecha":4863,"special":4864,"genoeg":4865,"apoyo":4866,"incluso":4867,"période":4868,"octobre":4869,"ître":4870,"deur":4871,"lait":4872,"embre":4873,"autant":4874,"hours":4875,"World":4876,"ámar":4877,"alo":4878,"titre":4879,"term":4880,"nage":4881,"hebt":4882,"grave":4883,"nuevos":4884,"société":4885,"décision":4886,"Cou":4887,"Mari":4888,"Ram":4889,"gang":4890,"mment":4891,"wap":4892,"étr":4893,"quet":4894,"socia":4895,"Indi":4896,"pier":4897,"líder":4898,"seul":4899,"chau":4900,"abon":4901,"proper":4902,"syn":4903,"programme":4904,"profesion":4905,"semaines":4906,"North":4907,"inge":4908,"third":4909,"péri":4910,"following":4911,"University":4912,"flu":4913,"aldus":4914,"amar":4915,"stuk":4916,"Dus":4917,"Phi":4918,"pom":4919,"épo":4920,"escu":4921,"aument":4922,"rate":4923,"route":4924,"dernières":4925,"llegó":4926,"War":4927,"kab":4928,"adul":4929,"mede":4930,"junio":4931,"consecu":4932,"bedrijven":4933,"signific":4934,"seulement":4935,"gau":4936,"spor":4937,"lief":4938,"gies":4939,"class":4940,"región":4941,"Amerikaanse":4942,"enquête":4943,"almente":4944,"nique":4945,"pregun":4946,"journée":4947,"row":4948,"Institu":4949,"alización":4950,"visto":4951,"juste":4952,"espera":4953,"Califor":4954,"évé":4955,"vanaf":4956,"vraiment":4957,"44":4958,"geval":4959,"mean":4960,"cues":4961,"vió":4962,"pul":4963,"plans":4964,"gation":4965,"rapide":4966,"maakte":4967,"algunas":4968,"short":4969,"Some":4970,"Willi":4971,"font":4972,"memor":4973,"investig":4974,"decision":4975,"source":4976,"FI":4977,"Sh":4978,"issement":4979,"fédé":4980,"zos":4981,"tico":4982,"itor":4983,"interview":4984,"ejemplo":4985,"Sant":4986,"fres":4987,"vies":4988,"cture":4989,"autorités":4990,"Flor":4991,"Ga":4992,"fabr":4993,"vidé":4994,"meld":4995,"octubre":4996,"eras":4997,"abandon":4998,"buena":4999,"llevar":5000,"direction":5001,"rappel":5002,"realizar":5003,"within":5004,"pense":5005,"schijn":5006,"fico":5007,"economic":5008,"annonce":5009,"dinero":5010,"acompañ":5011,"Que":5012,"wis":5013,"insu":5014,"omas":5015,"seem":5016,"sociale":5017,"July":5018,"Accor":5019,"woman":5020,"ète":5021,"gency":5022,"cated":5023,"hoor":5024,"watch":5025,"qual":5026,"illed":5027,"avril":5028,"problema":5029,"vidades":5030,"carrera":5031,"bad":5032,"fou":5033,"ip":5034,"kor":5035,"tés":5036,"ground":5037,"bot":5038,"volg":5039,"zicht":5040,"psy":5041,"regó":5042,"locales":5043,"confirmed":5044,"Ham":5045,"Kar":5046,"Scho":5047,"yens":5048,"seizo":5049,"dida":5050,"lip":5051,"opin":5052,"beetje":5053,"provide":5054,"ooit":5055,"attend":5056,"music":5057,"BA":5058,"mig":5059,"ètres":5060,"plate":5061,"medidas":5062,"arrê":5063,"Ara":5064,"Bos":5065,"CI":5066,"iet":5067,"nés":5068,"dej":5069,"iez":5070,"sier":5071,"studi":5072,"marzo":5073,"reno":5074,"Roy":5075,"namelijk":5076,"varias":5077,"espacio":5078,"diciembre":5079,"Qatar":5080,"dejar":5081,"exemple":5082,"dispar":5083,"personnel":5084,"accord":5085,"gedaan":5086,"ibles":5087,"nelle":5088,"lives":5089,"terwijl":5090,"risk":5091,"Polic":5092,"Europese":5093,"Grand":5094,"abilidad":5095,"Edu":5096,"cise":5097,"lée":5098,"alto":5099,"beh":5100,"calle":5101,"Cla":5102,"uite":5103,"thre":5104,"mex":5105,"weken":5106,"weinig":5107,"grow":5108,"diffici":5109,"eigenlijk":5110,"druk":5111,"aseguró":5112,"Vene":5113,"ament":5114,"ardo":5115,"aming":5116,"amento":5117,"dure":5118,"gobern":5119,"emen":5120,"militaire":5121,"investigación":5122,"39":5123,"April":5124,"anterior":5125,"faires":5126,"vragen":5127,"provincia":5128,"Ciudad":5129,"ER":5130,"tecn":5131,"parce":5132,"manier":5133,"derniers":5134,"Francis":5135,"Mag":5136,"cust":5137,"sir":5138,"septiembre":5139,"employe":5140,"kreeg":5141,"état":5142,"encoura":5143,"ics":5144,"rég":5145,"milliards":5146,"burg":5147,"ability":5148,"rim":5149,"vont":5150,"estruct":5151,"diente":5152,"concre":5153,"haya":5154,"vais":5155,"worth":5156,"197":5157,"indicó":5158,"communic":5159,"desarrollo":5160,"June":5161,"tema":5162,"tail":5163,"geeft":5164,"note":5165,"existen":5166,"plant":5167,"precis":5168,"présente":5169,"regular":5170,"communiqué":5171,"ève":5172,"cember":5173,"aces":5174,"vation":5175,"geweest":5176,"Door":5177,"bent":5178,"requ":5179,"hemos":5180,"cidad":5181,"gezien":5182,"zorgen":5183,"champion":5184,"Aut":5185,"flo":5186,"wind":5187,"lib":5188,"plante":5189,"sens":5190,"encuentra":5191,"Som":5192,"ola":5193,"loin":5194,"iek":5195,"plata":5196,"viembre":5197,"concep":5198,"schrij":5199,"ziet":5200,"share":5201,"industri":5202,"Policía":5203,"Has":5204,"milieu":5205,"internet":5206,"transport":5207,"central":5208,"deaths":5209,"changes":5210,"capacidad":5211,"verschillende":5212,"companies":5213,"died":5214,"Real":5215,"troisième":5216,"building":5217,"According":5218,"seizoen":5219,"Tras":5220,"commis":5221,"agos":5222,"touch":5223,"cten":5224,"fs":5225,"anima":5226,"town":5227,"dood":5228,"agre":5229,"station":5230,"actividad":5231,"ública":5232,"issues":5233,"vrouwen":5234,"Mil":5235,"alcal":5236,"reger":5237,"jeux":5238,"denken":5239,"Commission":5240,"cuerpo":5241,"SS":5242,"xe":5243,"vertel":5244,"manos":5245,"mientos":5246,"His":5247,"lance":5248,"young":5249,"istère":5250,"gelo":5251,"experience":5252,"Fun":5253,"regu":5254,"donner":5255,"donné":5256,"color":5257,"hommes":5258,"Cuando":5259,"dirig":5260,"UE":5261,"secteur":5262,"teri":5263,"noviembre":5264,"excel":5265,"brero":5266,"medios":5267,"opération":5268,"atures":5269,"loten":5270,"saf":5271,"outside":5272,"medida":5273,"prijzen":5274,"residents":5275,"Ken":5276,"Yo":5277,"tim":5278,"dingen":5279,"understand":5280,"realidad":5281,"Mundial":5282,"conversa":5283,"Day":5284,"Goog":5285,"festival":5286,"dete":5287,"Trans":5288,"nouvelles":5289,"Tim":5290,"falle":5291,"oire":5292,"iné":5293,"ligt":5294,"comb":5295,"groots":5296,"exclus":5297,"trying":5298,"système":5299,"49":5300,"bab":5301,"forward":5302,"Eng":5303,"baj":5304,"specta":5305,"phy":5306,"domici":5307,"sources":5308,"Clu":5309,"cune":5310,"ácti":5311,"loi":5312,"iev":5313,"offre":5314,"shows":5315,"evitar":5316,"Harr":5317,"Os":5318,"kijk":5319,"alco":5320,"lam":5321,"unta":5322,"producción":5323,"ateurs":5324,"cabo":5325,"friends":5326,"Bay":5327,"orio":5328,"sud":5329,"grâce":5330,"akt":5331,"produits":5332,"dienst":5333,"comunidad":5334,"transi":5335,"LE":5336,"fact":5337,"ît":5338,"alta":5339,"uras":5340,"icana":5341,"lost":5342,"défense":5343,"internationale":5344,"needs":5345,"saying":5346,"Colom":5347,"Google":5348,"stan":5349,"vite":5350,"petit":5351,"ático":5352,"août":5353,"Even":5354,"Sim":5355,"Tou":5356,"kosten":5357,"esos":5358,"laun":5359,"aard":5360,"symp":5361,"ráp":5362,"ubic":5363,"besoin":5364,"vandaag":5365,"ensuite":5366,"reken":5367,"loop":5368,"grij":5369,"efforts":5370,"autour":5371,"trasla":5372,"histori":5373,"parole":5374,"Venez":5375,"Gra":5376,"Spe":5377,"TA":5378,"mune":5379,"makes":5380,"icano":5381,"Santa":5382,"issance":5383,"states":5384,"quiere":5385,"hotel":5386,"strong":5387,"priva":5388,"actividades":5389,"speak":5390,"punten":5391,"probleem":5392,"comunicado":5393,"Fis":5394,"zan":5395,"thé":5396,"plein":5397,"julio":5398,"dedor":5399,"leader":5400,"46":5401,"conten":5402,"priv":5403,"idence":5404,"received":5405,"meeting":5406,"wedstrijd":5407,"average":5408,"believe":5409,"ash":5410,"posed":5411,"mond":5412,"ieron":5413,"Rob":5414,"Sco":5415,"aient":5416,"smart":5417,"ouw":5418,"existe":5419,"tomar":5420,"explicó":5421,"riesgo":5422,"Ahora":5423,"bureau":5424,"mant":5425,"zer":5426,"ración":5427,"disfr":5428,"overheid":5429,"message":5430,"tested":5431,"instal":5432,"Johnson":5433,"développement":5434,"clo":5435,"mús":5436,"dios":5437,"faite":5438,"ouniden":5439,"komende":5440,"maison":5441,"trabajar":5442,"msterdam":5443,"prensa":5444,"oportunidad":5445,"Blan":5446,"SP":5447,"Ti":5448,"fond":5449,"meest":5450,"aucun":5451,"daad":5452,"extr":5453,"taron":5454,"Comme":5455,"similar":5456,"wood":5457,"Ant":5458,"difí":5459,"tifs":5460,"agosto":5461,"'.":5462,"Nue":5463,"bul":5464,"quick":5465,"queda":5466,"lid":5467,"norm":5468,"categor":5469,"Our":5470,"sein":5471,"dicho":5472,"taux":5473,"means":5474,"nez":5475,"execu":5476,"nosotros":5477,"woning":5478,"47":5479,"tbol":5480,"chen":5481,"ambas":5482,"gegeven":5483,"mej":5484,"tero":5485,"ills":5486,"drop":5487,"estadouniden":5488,"Club":5489,"42":5490,"AP":5491,"Kiev":5492,"Mel":5493,"consé":5494,"mak":5495,"dation":5496,"exist":5497,"empe":5498,"agra":5499,"colo":5500,"jugar":5501,"closed":5502,"Niet":5503,"Gran":5504,"apar":5505,"vonden":5506,"útbol":5507,"collabor":5508,"type":5509,"unique":5510,"utili":5511,"God":5512,"Pan":5513,"vinci":5514,"manuel":5515,"ulp":5516,"aliteit":5517,"soutien":5518,"billion":5519,"condiciones":5520,"particuli":5521,"performance":5522,"Hen":5523,"Open":5524,"œur":5525,"regres":5526,"diag":5527,"simp":5528,"calidad":5529,"construction":5530,"resultado":5531,"hausse":5532,"Amsterdam":5533,"MI":5534,"cés":5535,"eind":5536,"tado":5537,"recla":5538,"content":5539,"abier":5540,"ministère":5541,"objet":5542,"parece":5543,"wachten":5544,"Cru":5545,"amientos":5546,"legisla":5547,"release":5548,"kamp":5549,"quelle":5550,"cieron":5551,"consom":5552,"acy":5553,"mesure":5554,"morning":5555,"futuro":5556,"middels":5557,"financial":5558,"Ag":5559,"EC":5560,"Ta":5561,"ude":5562,"cient":5563,"stond":5564,"cuar":5565,"exer":5566,"turned":5567,"respond":5568,"organisation":5569,"everyone":5570,"manière":5571,"muerte":5572,"Afrique":5573,"utôt":5574,"ontwik":5575,"vehic":5576,"père":5577,"vér":5578,"wide":5579,"entren":5580,"limi":5581,"verwacht":5582,"often":5583,"vain":5584,"medical":5585,"jouer":5586,"tests":5587,"behind":5588,"Bas":5589,"yes":5590,"laag":5591,"trá":5592,"iding":5593,"accu":5594,"posé":5595,"poser":5596,"productos":5597,"These":5598,"jornada":5599,"image":5600,"problemen":5601,"success":5602,"Sud":5603,"inspir":5604,"finales":5605,"stellen":5606,"alizar":5607,"countries":5608,"Micha":5609,"significa":5610,"vrir":5611,"Amazon":5612,"nau":5613,"zater":5614,"chto":5615,"grat":5616,"palab":5617,"slag":5618,"avance":5619,"currently":5620,"Etat":5621,"Ló":5622,"Ya":5623,"cados":5624,"pack":5625,"sco":5626,"uve":5627,"arma":5628,"reconoci":5629,"mation":5630,"travers":5631,"tieve":5632,"camp":5633,"experts":5634,"America":5635,"armée":5636,"Munici":5637,"López":5638,"Centre":5639,"Ka":5640,"Rep":5641,"epen":5642,"hers":5643,"êtes":5644,"ñas":5645,"addres":5646,"moo":5647,"focus":5648,"blijkt":5649,"States":5650,"pandémie":5651,"Nos":5652,"cera":5653,"corrup":5654,"vités":5655,"ática":5656,"Conseil":5657,"California":5658,"Grou":5659,"Pier":5660,"echter":5661,"kort":5662,"unidades":5663,"sería":5664,"Department":5665,"juist":5666,"rencontre":5667,"mayo":5668,"quelque":5669,"Poet":5670,"fit":5671,"pilo":5672,"enige":5673,"lament":5674,"nemers":5675,"cate":5676,"carrière":5677,"Alors":5678,"restrictions":5679,"Fue":5680,"OT":5681,"Vous":5682,"vaux":5683,"track":5684,"rote":5685,"minim":5686,"buy":5687,"choix":5688,"cultur":5689,"línea":5690,"Salud":5691,"Secretar":5692,"OM":5693,"icht":5694,"maire":5695,"steun":5696,"opening":5697,"entire":5698,"released":5699,"lou":5700,"vest":5701,"vanwege":5702,"pot":5703,"page":5704,"trait":5705,"campe":5706,"inese":5707,"played":5708,"News":5709,"abril":5710,"ambos":5711,"ajouté":5712,"Tok":5713,"nuit":5714,"ële":5715,"iner":5716,"constat":5717,"iro":5718,"sabe":5719,"role":5720,"aliza":5721,"zaken":5722,"woens":5723,"nuevas":5724,"remo":5725,"lagen":5726,"ung":5727,"viene":5728,"agregó":5729,"crani":5730,"nouveaux":5731,"wijs":5732,"pueblo":5733,"businesses":5734,"todavía":5735,"apro":5736,"fant":5737,"lay":5738,"thought":5739,"treat":5740,"centa":5741,"equipos":5742,"ji":5743,"aumento":5744,"réun":5745,"Now":5746,"dirige":5747,"scène":5748,"tendrá":5749,"BT":5750,"scre":5751,"yn":5752,"remar":5753,"tian":5754,"quin":5755,"taire":5756,"descu":5757,"sole":5758,"gave":5759,"poursui":5760,"numé":5761,"industry":5762,"Bra":5763,"Jack":5764,"aans":5765,"cure":5766,"plek":5767,"natural":5768,"history":5769,"Mis":5770,"Ren":5771,"lop":5772,"pis":5773,"yle":5774,"inder":5775,"diendo":5776,"contar":5777,"nements":5778,"parties":5779,"obra":5780,"contrat":5781,"claro":5782,"wanted":5783,"Emmanuel":5784,"mantener":5785,"CN":5786,"pér":5787,"ucrani":5788,"escal":5789,"tica":5790,"teach":5791,"bew":5792,"vanuit":5793,"ayant":5794,"visite":5795,"chois":5796,"curren":5797,"vorig":5798,"suppor":5799,"everything":5800,"especially":5801,"iled":5802,"maxim":5803,"design":5804,"tend":5805,"reser":5806,"mannen":5807,"febrero":5808,"garanti":5809,"films":5810,"décidé":5811,"Dani":5812,"hig":5813,"diver":5814,"sigu":5815,"plutôt":5816,"preocu":5817,"profit":5818,"langs":5819,"ziek":5820,"trabajadores":5821,"43":5822,"Bal":5823,"ayuda":5824,"risque":5825,"pesar":5826,"woners":5827,"Bol":5828,"bak":5829,"chap":5830,"chif":5831,"caron":5832,"canti":5833,"icio":5834,"succès":5835,"étudi":5836,"Hospital":5837,"aur":5838,"space":5839,"heen":5840,"matique":5841,"descri":5842,"persoon":5843,"provinci":5844,"Chinese":5845,"antici":5846,"nuestros":5847,"semanas":5848,"additional":5849,"Zel":5850,"nas":5851,"vres":5852,"auté":5853,"expl":5854,"disposi":5855,"misschien":5856,"précé":5857,"families":5858,"Lors":5859,"enta":5860,"parten":5861,"ayer":5862,"Mark":5863,"fundam":5864,"derecho":5865,"violence":5866,"James":5867,"Tam":5868,"lines":5869,"deten":5870,"derde":5871,"endra":5872,"episo":5873,"economy":5874,"prochain":5875,"avis":5876,"elim":5877,"terrain":5878,"accompag":5879,"vantage":5880,"goal":5881,"ordina":5882,"regard":5883,"violencia":5884,"enferme":5885,"Venezuela":5886,"AC":5887,"Ob":5888,"cter":5889,"kli":5890,"mari":5891,"rang":5892,"esas":5893,"lection":5894,"suce":5895,"resto":5896,"régi":5897,"rencontr":5898,"digital":5899,"Bank":5900,"Tex":5901,"gus":5902,"ring":5903,"yan":5904,"zz":5905,"rokken":5906,"bile":5907,"propor":5908,"arrivée":5909,"América":5910,"ège":5911,"alre":5912,"pak":5913,"itación":5914,"results":5915,"Durante":5916,"safety":5917,"Cos":5918,"DE":5919,"Día":5920,"dû":5921,"opnieuw":5922,"nacionales":5923,"venes":5924,"coin":5925,"seri":5926,"mencion":5927,"berto":5928,"include":5929,"winning":5930,"attention":5931,"pública":5932,"ejecu":5933,"brengen":5934,"œuvre":5935,"mejores":5936,"Part":5937,"cán":5938,"zak":5939,"advis":5940,"waarde":5941,"ciné":5942,"150":5943,"response":5944,"recursos":5945,"training":5946,"41":5947,"cina":5948,"zwaar":5949,"press":5950,"Anton":5951,"partis":5952,"gets":5953,"necesario":5954,"inicio":5955,"600":5956,"UK":5957,"sluit":5958,"elden":5959,"cij":5960,"ices":5961,"logo":5962,"vación":5963,"zoeken":5964,"valt":5965,"salir":5966,"importantes":5967,"issent":5968,"attack":5969,"grootste":5970,"Michael":5971,"Nou":5972,"RT":5973,"pick":5974,"cident":5975,"tails":5976,"outine":5977,"trole":5978,"ctivo":5979,"Nord":5980,"Ve":5981,"rer":5982,"rido":5983,"wait":5984,"emi":5985,"tiek":5986,"geles":5987,"ficar":5988,"transfer":5989,"assez":5990,"School":5991,"//":5992,"Fo":5993,"ffe":5994,"vamos":5995,"deben":5996,"hoge":5997,"check":5998,"works":5999,"victoire":6000,"testing":6001,"pareja":6002,"infla":6003,"shot":6004,"White":6005,"usuarios":6006,"Ron":6007,"belle":6008,"iza":6009,"spra":6010,"joint":6011,"mesures":6012,"active":6013,"bestuur":6014,"recently":6015,"tradition":6016,"compañía":6017,"iPh":6018,"satis":6019,"ands":6020,"began":6021,"begon":6022,"ably":6023,"menor":6024,"bum":6025,"waarin":6026,"elek":6027,"graag":6028,"betalen":6029,"single":6030,"resultados":6031,"frastruct":6032,"Street":6033,"Cul":6034,"Putin":6035,"ises":6036,"hechos":6037,"diput":6038,"saw":6039,"expla":6040,"mondi":6041,"energía":6042,"cierto":6043,"Poetin":6044,"://":6045,"Fi":6046,"RI":6047,"sw":6048,"tiers":6049,"trad":6050,"correspon":6051,"camino":6052,"habr":6053,"gracias":6054,"ctoral":6055,"Max":6056,"gebruiken":6057,"radio":6058,"bâ":6059,"fá":6060,"sû":6061,"almost":6062,"ither":6063,"iles":6064,"frau":6065,"geluk":6066,"sociedad":6067,"mith":6068,"derechos":6069,"fully":6070,"needed":6071,"Mont":6072,"htt":6073,"org":6074,"elke":6075,"veren":6076,"faits":6077,"formación":6078,"shop":6079,"vrijdag":6080,"child":6081,"AFP":6082,"85":6083,"selec":6084,"colabor":6085,"donder":6086,"veld":6087,"Andre":6088,"habían":6089,"partement":6090,"inicia":6091,"recibir":6092,"Center":6093,"Centro":6094,"afirmó":6095,"Gi":6096,"Mex":6097,"quir":6098,"conjunto":6099,"cuid":6100,"pasar":6101,"agree":6102,"maron":6103,"garde":6104,"selves":6105,"inflación":6106,"grands":6107,"atregel":6108,"experiencia":6109,"Louis":6110,"Hier":6111,"ivent":6112,"vera":6113,"gew":6114,"passen":6115,"num":6116,"mayores":6117,"Carol":6118,"slachto":6119,"province":6120,"oblig":6121,"accident":6122,"zw":6123,"propri":6124,"hoop":6125,"fix":6126,"playing":6127,"kregen":6128,"implement":6129,"kabinet":6130,"Oli":6131,"Stu":6132,"amig":6133,"quite":6134,"bio":6135,"midi":6136,"usement":6137,"próxim":6138,"spécial":6139,"répond":6140,"significant":6141,"scor":6142,"área":6143,"arts":6144,"ret":6145,"respuesta":6146,"mane":6147,"miles":6148,"idee":6149,"dragen":6150,"problem":6151,"teams":6152,"Organ":6153,"toutefois":6154,"volgende":6155,"énergie":6156,"aquí":6157,"ejer":6158,"ellas":6159,"outbreak":6160,"coron":6161,"brief":6162,"joy":6163,"Mart":6164,"Martin":6165,"mediate":6166,"égal":6167,"liggen":6168,"participar":6169,"consegu":6170,"Central":6171,"measures":6172,"AT":6173,"pau":6174,"winter":6175,"école":6176,"informe":6177,"tagon":6178,"doivent":6179,"loss":6180,"nap":6181,"ends":6182,"matter":6183,"clé":6184,"actually":6185,"fuerte":6186,"russes":6187,"familias":6188,"Zu":6189,"pous":6190,"artic":6191,"adver":6192,"mother":6193,"safe":6194,"inement":6195,"evento":6196,"periodis":6197,"Cel":6198,"bord":6199,"iques":6200,"uary":6201,"aucune":6202,"haciendo":6203,"façon":6204,"zondag":6205,"primeros":6206,"responsables":6207,"sexual":6208,"flix":6209,"Nat":6210,"dins":6211,"sali":6212,"dead":6213,"alli":6214,"telle":6215,"marca":6216,"orities":6217,"increase":6218,"seule":6219,"jóvenes":6220,"Gron":6221,"Zij":6222,"rating":6223,"vons":6224,"escri":6225,"arte":6226,"gewel":6227,"paz":6228,"campaña":6229,"vaccine":6230,"choses":6231,"zieken":6232,"principales":6233,"Netflix":6234,"recog":6235,"difícil":6236,"Act":6237,"Vir":6238,"rôle":6239,"eto":6240,"augh":6241,"boek":6242,"ikt":6243,"cros":6244,"pelícu":6245,"sociaux":6246,"avond":6247,"winkel":6248,"clients":6249,"langer":6250,"custom":6251,"Aunque":6252,"Bus":6253,"hope":6254,"shi":6255,"ál":6256,"lap":6257,"cie":6258,"zeer":6259,"erait":6260,"primero":6261,"ningún":6262,"volution":6263,"moei":6264,"website":6265,"municipio":6266,"mensaje":6267,"57":6268,"800":6269,"leef":6270,"pros":6271,"prácti":6272,"trekken":6273,"internacional":6274,"durant":6275,"ámara":6276,"tari":6277,"écrit":6278,"totaal":6279,"prome":6280,"voya":6281,"cuanto":6282,"répon":6283,"gesti":6284,"telli":6285,"nieuws":6286,"range":6287,"gebied":6288,"spir":6289,"https":6290,"AI":6291,"leu":6292,"tag":6293,"acu":6294,"mix":6295,"sence":6296,"2024":6297,"soulig":6298,"heids":6299,"maintenant":6300,"black":6301,"jugadores":6302,"spelen":6303,"alrededor":6304,"Mur":6305,"Ped":6306,"èg":6307,"eran":6308,"aspe":6309,"seven":6310,"illo":6311,"taine":6312,"expéri":6313,"plazo":6314,"utiliz":6315,"double":6316,"reçu":6317,"arme":6318,"etc":6319,"verd":6320,"beg":6321,"cula":6322,"hubo":6323,"hablar":6324,"indique":6325,"Minis":6326,"intéres":6327,"vehículos":6328,"Constitu":6329,"Lin":6330,"úa":6331,"Christ":6332,"Barcel":6333,"anunci":6334,"Nad":6335,"eléc":6336,"iten":6337,"coali":6338,"réussi":6339,"presencia":6340,"corps":6341,"inste":6342,"trice":6343,"premiers":6344,"disponible":6345,"gesteld":6346,"Econom":6347,"Mig":6348,"bs":6349,"onia":6350,"isn":6351,"loopt":6352,"dossier":6353,"houdt":6354,"hijos":6355,"lange":6356,"January":6357,"estuvo":6358,"regering":6359,"higher":6360,"Wij":6361,"haut":6362,"pén":6363,"sue":6364,"vive":6365,"naam":6366,"ount":6367,"único":6368,"ploeg":6369,"Suisse":6370,"schools":6371,"madre":6372,"oli":6373,"west":6374,"enos":6375,"lez":6376,"diza":6377,"bepa":6378,"voz":6379,"Park":6380,"someone":6381,"ahí":6382,"Francisco":6383,"ader":6384,"honder":6385,"reason":6386,"mobil":6387,"rió":6388,"Democr":6389,"Israel":6390,"Liga":6391,"Mes":6392,"dle":6393,"abor":6394,"places":6395,"mucha":6396,"lleva":6397,"hombres":6398,"Social":6399,"factur":6400,"consci":6401,"nadie":6402,"zaterdag":6403,"68":6404,"Pat":6405,"bout":6406,"uze":6407,"départ":6408,"fair":6409,"tribunal":6410,"Antwer":6411,"Duits":6412,"gingen":6413,"juni":6414,"rat":6415,"round":6416,"tick":6417,"vili":6418,"gespre":6419,"disfrut":6420,"woensdag":6421,"iPhone":6422,"Africa":6423,"BI":6424,"Im":6425,"Pé":6426,"Pet":6427,"règ":6428,"íamos":6429,"tee":6430,"teren":6431,"vois":6432,"pret":6433,"affaire":6434,"ctiva":6435,"contract":6436,"grap":6437,"últimas":6438,"running":6439,"destacó":6440,"education":6441,"difficile":6442,"52":6443,"High":6444,"chief":6445,"voie":6446,"perspe":6447,"mov":6448,"surve":6449,"policía":6450,"komst":6451,"lasting":6452,"strateg":6453,"reports":6454,"klaar":6455,"--":6456,"Smith":6457,"ww":6458,"encar":6459,"oude":6460,"mention":6461,"equip":6462,"ruimte":6463,"Japan":6464,"Sol":6465,"enen":6466,"ange":6467,"meteen":6468,"estará":6469,"passion":6470,"portes":6471,"anything":6472,"nombreuses":6473,"straat":6474,"pueda":6475,"guez":6476,"access":6477,"Fernández":6478,"Pierre":6479,"?”":6480,"Jer":6481,"Villa":6482,"frap":6483,"indé":6484,"infrastruct":6485,"teken":6486,"adio":6487,"ijs":6488,"hase":6489,"guard":6490,"activi":6491,"officers":6492,"reveal":6493,"vidéo":6494,"lés":6495,"rendre":6496,"reti":6497,"condam":6498,"conclus":6499,"verhaal":6500,"camente":6501,"cost":6502,"auton":6503,"sites":6504,"Onder":6505,"partijen":6506,"Sán":6507,"Vers":6508,"gla":6509,"jij":6510,"mans":6511,"detal":6512,"lak":6513,"adoles":6514,"ault":6515,"entemente":6516,"endas":6517,"zaam":6518,"identif":6519,"sell":6520,"related":6521,"allowed":6522,"covered":6523,"Fiscal":6524,"Sánchez":6525,"aler":6526,"tof":6527,"opti":6528,"fique":6529,"lancé":6530,"cédé":6531,"expresó":6532,"participación":6533,"acht":6534,"fers":6535,"édition":6536,"retir":6537,"idée":6538,"rations":6539,"edan":6540,"gua":6541,"boeren":6542,"cryp":6543,"ganar":6544,"María":6545,"waarom":6546,"Itali":6547,"lieux":6548,"programma":6549,"momentos":6550,"ongeveer":6551,"67":6552,"Gon":6553,"Hor":6554,"dents":6555,"danger":6556,"hang":6557,"iv":6558,"plas":6559,"uales":6560,"recherche":6561,"dimiento":6562,"nood":6563,"pod":6564,"montr":6565,"hijo":6566,"propio":6567,"protection":6568,"anunció":6569,"development":6570,"algún":6571,"réseau":6572,"propuesta":6573,"Septem":6574,"quedó":6575,"divis":6576,"dientes":6577,"opposition":6578,"meur":6579,"terme":6580,"vang":6581,"perfect":6582,"proto":6583,"caí":6584,"waardoor":6585,"Federal":6586,"acceso":6587,"enorme":6588,"schijnlijk":6589,"private":6590,"Sha":6591,"Tele":6592,"inqui":6593,"toek":6594,"racht":6595,"covid":6596,"luz":6597,"step":6598,"penal":6599,"welke":6600,"strat":6601,"produit":6602,"Nove":6603,"pios":6604,"sortie":6605,"droits":6606,"reunión":6607,"Plan":6608,"fútbol":6609,"omo":6610,"trim":6611,"tercer":6612,"sons":6613,"serán":6614,"tarjet":6615,"petite":6616,"Belgique":6617,"modelo":6618,"alguna":6619,"95":6620,"Mient":6621,"Wal":6622,"einde":6623,"mol":6624,"gekomen":6625,"baja":6626,"uerto":6627,"2013":6628,"letter":6629,"BS":6630,"Pi":6631,"debate":6632,"ofre":6633,"geving":6634,"protagon":6635,"immediate":6636,"sola":6637,"Después":6638,"How":6639,"defini":6640,"víctimas":6641,"étrang":6642,"Rutte":6643,"bly":6644,"nord":6645,"erop":6646,"arlo":6647,"quée":6648,"itario":6649,"verander":6650,"parts":6651,"pudo":6652,"cara":6653,"données":6654,"leggen":6655,"Medi":6656,"adió":6657,"events":6658,"gebeur":6659,"potential":6660,"Bul":6661,"Octo":6662,"deed":6663,"aster":6664,"adamente":6665,"comien":6666,"genes":6667,"témo":6668,"boy":6669,"politiques":6670,"ficado":6671,"issant":6672,"agricul":6673,"gauche":6674,"uiteindelijk":6675,"gestión":6676,"MP":6677,"soft":6678,"enas":6679,"dimir":6680,"park":6681,"neemt":6682,"menten":6683,"mula":6684,"activités":6685,"actuellement":6686,"earlier":6687,"maandag":6688,"comenzó":6689,"réseaux":6690,"platform":6691,"Mientras":6692,"VV":6693,"tante":6694,"rechter":6695,"ators":6696,"iler":6697,"nothing":6698,"pagar":6699,"illé":6700,"posibilidad":6701,"centrale":6702,"Play":6703,"Court":6704,"September":6705,"58":6706,"Bien":6707,"Dra":6708,"MA":6709,"mê":6710,"rie":6711,"wrote":6712,"élé":6713,"democra":6714,"estime":6715,"lots":6716,"antwo":6717,"haven":6718,"vivi":6719,"nacht":6720,"traite":6721,"zodat":6722,"vecinos":6723,"clair":6724,"jeros":6725,"informations":6726,"wilde":6727,"Nederlan":6728,"conseil":6729,"Oekraïense":6730,"bertad":6731,"gebruikt":6732,"figure":6733,"vehículo":6734,"voetbal":6735,"Aan":6736,"bido":6737,"évo":6738,"rechts":6739,"bezig":6740,"podemos":6741,"zoveel":6742,"sensi":6743,"guar":6744,"bran":6745,"histor":6746,"honor":6747,"américain":6748,"August":6749,"cantidad":6750,"cente":6751,"éx":6752,"loos":6753,"2000":6754,"coû":6755,"session":6756,"liter":6757,"zoekers":6758,"géné":6759,"kleine":6760,"ataque":6761,"Zelens":6762,"Ah":6763,"Lat":6764,"dera":6765,"liet":6766,"probe":6767,"projets":6768,"crecimiento":6769,"prima":6770,"situatie":6771,"ffen":6772,"block":6773,"Manuel":6774,"jugador":6775,"NF":6776,"gó":6777,"parfois":6778,"commune":6779,"poste":6780,"presiden":6781,"scher":6782,"estima":6783,"territoire":6784,"Colombia":6785,"Group":6786,"Pedro":6787,"rijk":6788,"ervar":6789,"laquelle":6790,"seek":6791,"veroor":6792,"icans":6793,"2010":6794,"Chief":6795,"victimes":6796,"siete":6797,"solution":6798,"économique":6799,"Nigeria":6800,"opportunity":6801,"Texas":6802,"Bri":6803,"Gol":6804,"ront":6805,"anden":6806,"opos":6807,"sique":6808,"rester":6809,"paración":6810,"mala":6811,"vacu":6812,"worked":6813,"çaise":6814,"causa":6815,"Want":6816,"hér":6817,"hulp":6818,"miljard":6819,"campo":6820,"histór":6821,"cambios":6822,"People":6823,"nearly":6824,"permite":6825,"Congreso":6826,"considera":6827,"teriores":6828,"Jon":6829,"aus":6830,"ahead":6831,"cœur":6832,"father":6833,"gevoel":6834,"dénon":6835,"march":6836,"salari":6837,"busca":6838,"vorige":6839,"elecciones":6840,"Charles":6841,"maatschap":6842,"zomer":6843,"anas":6844,"reac":6845,"latest":6846,"quences":6847,"jefe":6848,"senior":6849,"muestra":6850,"zonas":6851,"economía":6852,"idential":6853,"certaines":6854,"proyectos":6855,"meilleur":6856,"cuestion":6857,"música":6858,"toekom":6859,"Za":6860,"aper":6861,"cando":6862,"cciones":6863,"étant":6864,"onto":6865,"isra":6866,"became":6867,"niks":6868,"however":6869,"masks":6870,"kracht":6871,"Tech":6872,"moeder":6873,"económica":6874,"République":6875,"quoti":6876,"bond":6877,"reach":6878,"ask":6879,"lower":6880,"camera":6881,"lijst":6882,"obst":6883,"waarbij":6884,"partamento":6885,"propose":6886,"victoria":6887,"images":6888,"necess":6889,"Australia":6890,"Bon":6891,"Rou":6892,"ati":6893,"fie":6894,"zat":6895,"ensure":6896,"ouders":6897,"dix":6898,"maatregel":6899,"sigui":6900,"chaî":6901,"2012":6902,"Robert":6903,"warm":6904,"estudio":6905,"transition":6906,"República":6907,"Barcelona":6908,"November":6909,"Hon":6910,"UN":6911,"aim":6912,"wijk":6913,"qualité":6914,"améli":6915,"lok":6916,"tuig":6917,"preven":6918,"volon":6919,"schade":6920,"vorm":6921,"talent":6922,"Hoy":6923,"halve":6924,"attaque":6925,"Rich":6926,"asesin":6927,"RS":6928,"Sil":6929,"Ur":6930,"evalu":6931,"lème":6932,"ples":6933,"alde":6934,"quedar":6935,"geworden":6936,"raad":6937,"commission":6938,"iedad":6939,"dero":6940,"ctors":6941,"frir":6942,"helpen":6943,"vacuna":6944,"problème":6945,"Municipal":6946,"Eso":6947,"Sus":6948,"estr":6949,"beleid":6950,"voire":6951,"mooi":6952,"daily":6953,"code":6954,"interior":6955,"droite":6956,"istencia":6957,"presidenta":6958,"encontrar":6959,"Universidad":6960,"événement":6961,"rapidement":6962,"October":6963,"IS":6964,"Nico":6965,"fís":6966,"mère":6967,"pij":6968,"esfuer":6969,"inaug":6970,"orient":6971,"lia":6972,"pool":6973,"produce":6974,"Thomas":6975,"sito":6976,"joueur":6977,"Segur":6978,"expect":6979,"vriend":6980,"bourg":6981,"original":6982,"tréal":6983,"syndi":6984,"Dar":6985,"Mid":6986,"avent":6987,"else":6988,"attemp":6989,"takes":6990,"suff":6991,"roy":6992,"coordin":6993,"presu":6994,"tory":6995,"lands":6996,"player":6997,"condition":6998,"llam":6999,"manifesta":7000,"gezond":7001,"officer":7002,"involved":7003,"Luego":7004,"ship":7005,"travaux":7006,"lucht":7007,"cercan":7008,"centes":7009,"whole":7010,"présence":7011,"tels":7012,"malgré":7013,"Quand":7014,"habitants":7015,"nadat":7016,"Coupe":7017,"Jac":7018,"Tes":7019,"jud":7020,"nalis":7021,"ply":7022,"inmiddels":7023,"tram":7024,"affaires":7025,"Chine":7026,"betre":7027,"gebracht":7028,"Israël":7029,"village":7030,"growth":7031,"250":7032,"King":7033,"pied":7034,"incorpor":7035,"verde":7036,"loy":7037,"fini":7038,"finalement":7039,"Civil":7040,"différents":7041,"européenne":7042,"víctima":7043,"hacen":7044,"Champions":7045,"ontwikkel":7046,"Cer":7047,"Peter":7048,"RC":7049,"Wie":7050,"aling":7051,"aste":7052,"conce":7053,"gezet":7054,"modo":7055,"cuales":7056,"interés":7057,"gelijke":7058,"donne":7059,"ordre":7060,"piers":7061,"conoce":7062,"arrive":7063,"refus":7064,"kiló":7065,"tekent":7066,"Gel":7067,"unto":7068,"accès":7069,"racon":7070,"formas":7071,"bero":7072,"politici":7073,"impac":7074,"quarant":7075,"quality":7076,"62":7077,"Bras":7078,"Jor":7079,"aprove":7080,"cteurs":7081,"cien":7082,"compen":7083,"combin":7084,"puer":7085,"établis":7086,"Not":7087,"clin":7088,"relacion":7089,"Toen":7090,"micro":7091,"saber":7092,"longer":7093,"technology":7094,"compromiso":7095,"makkelijk":7096,"64":7097,"Valle":7098,"padre":7099,"alu":7100,"advo":7101,"gek":7102,"destru":7103,"manque":7104,"vak":7105,"istan":7106,"gios":7107,"troom":7108,"Commun":7109,"longtemps":7110,"organisatie":7111,"periode":7112,"schedu":7113,"Vladimir":7114,"Ala":7115,"Cô":7116,"VS":7117,"fos":7118,"fight":7119,"licen":7120,"daga":7121,"effort":7122,"marque":7123,"certi":7124,"stage":7125,"estaban":7126,"publican":7127,"nings":7128,"ruso":7129,"atoire":7130,"career":7131,"títu":7132,"fase":7133,"llu":7134,"mbros":7135,"inside":7136,"auprès":7137,"gene":7138,"Associ":7139,"daarom":7140,"wagen":7141,"continued":7142,"wanneer":7143,"golpe":7144,"Green":7145,"aven":7146,"kie":7147,"kopen":7148,"pá":7149,"ench":7150,"escue":7151,"chat":7152,"genre":7153,"centrum":7154,"visible":7155,"lijn":7156,"mundial":7157,"indica":7158,"buscar":7159,"International":7160,"cabeza":7161,"époque":7162,"Rom":7163,"Zijn":7164,"édi":7165,"inted":7166,"arro":7167,"cipl":7168,"tait":7169,"vivir":7170,"exact":7171,"puedan":7172,"paid":7173,"familiar":7174,"hands":7175,"demons":7176,"Many":7177,"rement":7178,"heart":7179,"modi":7180,"régu":7181,"mind":7182,"polici":7183,"ctivos":7184,"contrôle":7185,"explica":7186,"trabajando":7187,"klein":7188,"drive":7189,"recuer":7190,"Ari":7191,"Han":7192,"Ville":7193,"cadas":7194,"depor":7195,"erie":7196,"conci":7197,"desig":7198,"puestos":7199,"pación":7200,"mige":7201,"Maroc":7202,"partner":7203,"graph":7204,"groter":7205,"inflation":7206,"expert":7207,"zitter":7208,"Belgi":7209,"mejorar":7210,"emergency":7211,"viennent":7212,"Consejo":7213,"titular":7214,"association":7215,"hus":7216,"sang":7217,"assu":7218,"lieg":7219,"gevaar":7220,"meeste":7221,"bele":7222,"moving":7223,"feest":7224,"habil":7225,"Febru":7226,"grupos":7227,"klimaat":7228,"Ainsi":7229,"Mijn":7230,"Win":7231,"acep":7232,"vlo":7233,"ites":7234,"prol":7235,"irá":7236,"perfe":7237,"cuad":7238,"Democra":7239,"habrá":7240,"woor":7241,"white":7242,"himself":7243,"miembros":7244,"deliver":7245,"amélior":7246,"cité":7247,"mam":7248,"oly":7249,"ieden":7250,"culo":7251,"happ":7252,"richting":7253,"vivre":7254,"nages":7255,"December":7256,"peli":7257,"criti":7258,"fuerza":7259,"apoy":7260,"defensa":7261,"Musk":7262,"executive":7263,"Nie":7264,"avez":7265,"figh":7266,"fast":7267,"deep":7268,"living":7269,"peine":7270,"proche":7271,"district":7272,"calles":7273,"Montréal":7274,"Prim":7275,"vulner":7276,"management":7277,"February":7278,"Poutine":7279,"Tro":7280,"ateur":7281,"ady":7282,"ustra":7283,"wegen":7284,"sorte":7285,"trouve":7286,"permettre":7287,"professionnel":7288,"estrate":7289,"employees":7290,"AD":7291,"Guer":7292,"mée":7293,"obras":7294,"ually":7295,"ering":7296,"retrouver":7297,"atori":7298,"parlement":7299,"sia":7300,"cionar":7301,"stell":7302,"críti":7303,"masi":7304,"anyone":7305,"recibió":7306,"confér":7307,"indepen":7308,"Prof":7309,"moeilijk":7310,"By":7311,"ES":7312,"puso":7313,"envi":7314,"ería":7315,"urch":7316,"mage":7317,"icamente":7318,"abeth":7319,"proken":7320,"dación":7321,"voorbij":7322,"mini":7323,"geren":7324,"propia":7325,"ninguna":7326,"político":7327,"approach":7328,"wife":7329,"voerder":7330,"69":7331,"ocho":7332,"score":7333,"tance":7334,"éche":7335,"iling":7336,"guien":7337,"horen":7338,"négo":7339,"familie":7340,"ciudadanos":7341,"leave":7342,"sept":7343,"candidate":7344,"origine":7345,"agenda":7346,"voiture":7347,"capitale":7348,"Cro":7349,"Let":7350,"Vis":7351,"hes":7352,"mour":7353,"Ça":7354,"seur":7355,"conden":7356,"gevonden":7357,"descar":7358,"movie":7359,"tengo":7360,"marco":7361,"firm":7362,"compet":7363,"organización":7364,"aider":7365,"imagin":7366,"clubs":7367,"issued":7368,"application":7369,"virtual":7370,"psych":7371,"vertelt":7372,"Fon":7373,"PI":7374,"esca":7375,"atura":7376,"parmi":7377,"impres":7378,"dérou":7379,"trade":7380,"precies":7381,"policy":7382,"majorité":7383,"disease":7384,"diplom":7385,"adelante":7386,"industrie":7387,"diagnos":7388,"Kon":7389,"Kamer":7390,"Mol":7391,"dejó":7392,"inmedi":7393,"emd":7394,"shut":7395,"chester":7396,"française":7397,"euw":7398,"abilité":7399,"Florida":7400,"donderdag":7401,"customers":7402,"gather":7403,"tamente":7404,"rival":7405,"nación":7406,"lying":7407,"create":7408,"cties":7409,"digit":7410,"permitir":7411,"Brux":7412,"dinsdag":7413,"Duitsland":7414,"Rod":7415,"VO":7416,"cte":7417,"daugh":7418,"kamer":7419,"pire":7420,"sha":7421,"teau":7422,"asing":7423,"ury":7424,"lies":7425,"option":7426,"gren":7427,"venez":7428,"céré":7429,"compéti":7430,"natur":7431,"straf":7432,"dagavond":7433,"Bi":7434,"tand":7435,"zag":7436,"áreas":7437,"ources":7438,"voeren":7439,"vakan":7440,"schul":7441,"inación":7442,"Russen":7443,"gebouw":7444,"study":7445,"blished":7446,"happened":7447,"CEO":7448,"Government":7449,"mondiale":7450,"77":7451,"Có":7452,"GT":7453,"Lon":7454,"farm":7455,"vall":7456,"temas":7457,"leuk":7458,"concent":7459,"permit":7460,"vile":7461,"kennen":7462,"finance":7463,"homes":7464,"Todos":7465,"doub":7466,"representa":7467,"solidar":7468,"affirmé":7469,"activité":7470,"59":7471,"gy":7472,"nab":7473,"sports":7474,"wens":7475,"çois":7476,"itaria":7477,"contain":7478,"parle":7479,"parler":7480,"zeven":7481,"stap":7482,"visi":7483,"drama":7484,"sold":7485,"profun":7486,"doma":7487,"complex":7488,"sanctions":7489,"impacto":7490,"encuentran":7491,"huidige":7492,"Moscou":7493,"regional":7494,"exception":7495,"quotidien":7496,"54":7497,"Ms":7498,"Veren":7499,"aprob":7500,"rente":7501,"rend":7502,"xy":7503,"yendo":7504,"hear":7505,"cular":7506,"vader":7507,"Comisión":7508,"daarna":7509,"fourn":7510,"operation":7511,"Disney":7512,"hôpital":7513,"Vin":7514,"WK":7515,"kig":7516,"lant":7517,"vuur":7518,"indig":7519,"ilar":7520,"perdu":7521,"papel":7522,"dés":7523,"affi":7524,"virtió":7525,"kwamen":7526,"políticas":7527,"enfant":7528,"purch":7529,"vuelta":7530,"Publi":7531,"Verenig":7532,"ME":7533,"tjes":7534,"terecht":7535,"cum":7536,"démar":7537,"discipl":7538,"fié":7539,"victime":7540,"zichzelf":7541,"subsi":7542,"créer":7543,"protect":7544,"jury":7545,"More":7546,"slow":7547,"decre":7548,"reconna":7549,"lien":7550,"démocra":7551,"hood":7552,"wasn":7553,"install":7554,"ugg":7555,"franch":7556,"hoeveel":7557,"college":7558,"George":7559,"demanda":7560,"réser":7561,"resolu":7562,"estructura":7563,"Just":7564,"Même":7565,"kids":7566,"leer":7567,"dicht":7568,"matière":7569,"beelden":7570,"derro":7571,"hate":7572,"misión":7573,"gels":7574,"felt":7575,"minute":7576,"commercial":7577,"habría":7578,"Association":7579,"hors":7580,"vlieg":7581,"recha":7582,"unis":7583,"vermo":7584,"mez":7585,"ieux":7586,"quiera":7587,"gations":7588,"pourtant":7589,"presque":7590,"précise":7591,"meerdere":7592,"soms":7593,"longue":7594,"chtend":7595,"crow":7596,"podrán":7597,"construcción":7598,"ambul":7599,"beschik":7600,"difficult":7601,"distancing":7602,"quickly":7603,"palabras":7604,"article":7605,"bill":7606,"fera":7607,"fonds":7608,"vali":7609,"acteur":7610,"betekent":7611,"thern":7612,"elección":7613,"middag":7614,"drugs":7615,"investigation":7616,"material":7617,"estadounidense":7618,"tarjeta":7619,"Bat":7620,"Duit":7621,"aid":7622,"oil":7623,"tôt":7624,"écri":7625,"acteurs":7626,"desc":7627,"despite":7628,"manager":7629,"discu":7630,"fiets":7631,"canadien":7632,"guay":7633,"materia":7634,"clave":7635,"expliqué":7636,"prueba":7637,"Cruz":7638,"Seguridad":7639,"63":7640,"Copa":7641,"cí":7642,"killed":7643,"mons":7644,"armes":7645,"ell":7646,"confron":7647,"mau":7648,"neigh":7649,"facil":7650,"huizen":7651,"betaal":7652,"imagen":7653,"tellen":7654,"verkiez":7655,"inflatie":7656,"expérience":7657,"Cy":7658,"Clar":7659,"DP":7660,"MC":7661,"TO":7662,"ial":7663,"klin":7664,"mys":7665,"wish":7666,"évit":7667,"aro":7668,"tima":7669,"elk":7670,"libertad":7671,"vertrou":7672,"dacht":7673,"déten":7674,"graf":7675,"Americans":7676,"comunicación":7677,"considé":7678,"environnement":7679,"prochaine":7680,"territorio":7681,"facili":7682,"conserva":7683,"summer":7684,"scene":7685,"Bern":7686,"Cl":7687,"Ear":7688,"Tij":7689,"jonge":7690,"lande":7691,"remains":7692,"semi":7693,"beper":7694,"voix":7695,"cannot":7696,"numb":7697,"soldat":7698,"crime":7699,"titude":7700,"necesidad":7701,"entidad":7702,"telling":7703,"demandé":7704,"leading":7705,"Australi":7706,"tizens":7707,"Justice":7708,"screen":7709,"Brus":7710,"cles":7711,"wants":7712,"arra":7713,"entrée":7714,"toer":7715,"prin":7716,"idge":7717,"bod":7718,"montre":7719,"waarschijnlijk":7720,"2011":7721,"lorsque":7722,"futbol":7723,"gemeen":7724,"Prime":7725,"alcohol":7726,"sûr":7727,"Miguel":7728,"53":7729,"Glo":7730,"Kan":7731,"Sén":7732,"bers":7733,"either":7734,"idi":7735,"lekker":7736,"cidos":7737,"réalité":7738,"gelu":7739,"gesloten":7740,"présidenti":7741,"bloque":7742,"Moham":7743,"fugi":7744,"doute":7745,"justicia":7746,"précisé":7747,"gobernador":7748,"plataforma":7749,"ziekenhuis":7750,"51":7751,"stri":7752,"winst":7753,"éna":7754,"dele":7755,"alie":7756,"terms":7757,"tuvieron":7758,"irement":7759,"word":7760,"brind":7761,"numer":7762,"ogue":7763,"fuego":7764,"ancias":7765,"appear":7766,"volledig":7767,"extrême":7768,"Daniel":7769,"amigos":7770,"Ori":7771,"Reg":7772,"mali":7773,"sale":7774,"€™":7775,"ically":7776,"dépu":7777,"gain":7778,"ekt":7779,"dings":7780,"alizado":7781,"suppl":7782,"character":7783,"During":7784,"Michel":7785,"explor":7786,"LA":7787,"liste":7788,"yenne":7789,"delijk":7790,"inversión":7791,"armas":7792,"thin":7793,"gehad":7794,"acab":7795,"doctor":7796,"tors":7797,"Assemb":7798,"Guar":7799,"decided":7800,"operación":7801,"military":7802,"untamiento":7803,"économie":7804,"mandatario":7805,"effective":7806,"voyage":7807,"Patr":7808,"till":7809,"cone":7810,"surpris":7811,"allá":7812,"Ley":7813,"insis":7814,"ghan":7815,"interro":7816,"triun":7817,"matéri":7818,"talk":7819,"Todo":7820,"individual":7821,"García":7822,"particulièrement":7823,"enfermedad":7824,"Adam":7825,"Jim":7826,"bás":7827,"Án":7828,"voorzitter":7829,"Deux":7830,"lucha":7831,"ándose":7832,"habla":7833,"strugg":7834,"alleged":7835,"europe":7836,"batter":7837,"máximo":7838,"Philip":7839,"fácil":7840,"700":7841,"East":7842,"Más":7843,"baan":7844,"gés":7845,"kleur":7846,"sosten":7847,"zá":7848,"ïn":7849,"osos":7850,"store":7851,"rode":7852,"affe":7853,"Energ":7854,"sense":7855,"brought":7856,"lista":7857,"Rock":7858,"leiding":7859,"español":7860,"Victoria":7861,"above":7862,"baby":7863,"numbers":7864,"Afr":7865,"Every":7866,"Tal":7867,"aien":7868,"alum":7869,"ising":7870,"assure":7871,"thous":7872,"gedrag":7873,"abog":7874,"ston":7875,"preuve":7876,"giving":7877,"value":7878,"prime":7879,"prévu":7880,"sélection":7881,"Tot":7882,"themselves":7883,"Français":7884,"slechts":7885,"bieden":7886,"vienda":7887,"spéci":7888,"exploit":7889,"alcalde":7890,"kilómetros":7891,"Hab":7892,"Lan":7893,"lat":7894,"amount":7895,"forms":7896,"moved":7897,"mobili":7898,"appu":7899,"witch":7900,"afhan":7901,"cerem":7902,"Rodr":7903,"balance":7904,"legd":7905,"bless":7906,"clean":7907,"Belg":7908,"regio":7909,"vroeg":7910,"provided":7911,"fabric":7912,"Eje":7913,"Fir":7914,"iba":7915,"kill":7916,"âge":7917,"democr":7918,"aly":7919,"limp":7920,"doors":7921,"vention":7922,"cash":7923,"iens":7924,"target":7925,"partners":7926,"izquier":7927,"importance":7928,"kocht":7929,"Toch":7930,"fuerzas":7931,"groups":7932,"revenue":7933,"communities":7934,"cumplir":7935,"pruebas":7936,"kilometer":7937,"vakantie":7938,"Kir":7939,"MS":7940,"aties":7941,"cita":7942,"fille":7943,"lutte":7944,"rust":7945,"erden":7946,"alguien":7947,"untos":7948,"sede":7949,"andro":7950,"ests":7951,"igne":7952,"keur":7953,"inspe":7954,"missions":7955,"stelt":7956,"suspect":7957,"puiss":7958,"arrêt":7959,"tegenwoor":7960,"realizó":7961,"student":7962,"spokes":7963,"Buenos":7964,"intérêt":7965,"authorities":7966,"venezol":7967,"61":7968,"Med":7969,"klas":7970,"pad":7971,"dezelfde":7972,"chu":7973,"dier":7974,"derrière":7975,"ablo":7976,"tenue":7977,"impression":7978,"hicieron":7979,"agent":7980,"sentir":7981,"habl":7982,"stit":7983,"mediante":7984,"positie":7985,"niemand":7986,"structure":7987,"générale":7988,"author":7989,"example":7990,"systeem":7991,"rekening":7992,"pelle":7993,"account":7994,"voters":7995,"juge":7996,"product":7997,"lanz":7998,"Rot":7999,"showed":8000,"throughout":8001,"travailler":8002,"politiek":8003,"ísticas":8004,"Instituto":8005,"address":8006,"Antonio":8007,"cijfers":8008,"Brussel":8009,"ró":8010,"rop":8011,"album":8012,"acun":8013,"compos":8014,"traded":8015,"opened":8016,"bescher":8017,"Estamos":8018,"ouvert":8019,"inois":8020,"especialmente":8021,"económico":8022,"vérit":8023,"Ir":8024,"LC":8025,"gam":8026,"wonder":8027,"êts":8028,"erder":8029,"dosis":8030,"vesti":8031,"mitad":8032,"ouverture":8033,"orial":8034,"médias":8035,"distintos":8036,"Chile":8037,"secretario":8038,"Fiscalía":8039,"obstante":8040,"Aires":8041,"Pay":8042,"aé":8043,"eight":8044,"foun":8045,"álogo":8046,"enregistr":8047,"arres":8048,"aspir":8049,"gemiddel":8050,"proje":8051,"rich":8052,"hiver":8053,"Laur":8054,"caracter":8055,"visita":8056,"Angeles":8057,"digd":8058,"celles":8059,"shared":8060,"patron":8061,"Prin":8062,"magne":8063,"Daarnaast":8064,"équipes":8065,"receive":8066,"différentes":8067,"impuls":8068,"selección":8069,"éxito":8070,"Bruxelles":8071,"supplément":8072,"aj":8073,"oubli":8074,"ettes":8075,"parta":8076,"raak":8077,"compla":8078,"exig":8079,"surprise":8080,"carte":8081,"pidió":8082,"below":8083,"Colle":8084,"espace":8085,"photos":8086,"edición":8087,"restaurant":8088,"citoyens":8089,"técnico":8090,"plannen":8091,"72":8092,"Hy":8093,"Nic":8094,"gée":8095,"huit":8096,"ué":8097,"review":8098,"attr":8099,"lif":8100,"verantwo":8101,"proté":8102,"vente":8103,"allí":8104,"distance":8105,"personeel":8106,"landse":8107,"buts":8108,"products":8109,"hija":8110,"instant":8111,"clasi":8112,"ploy":8113,"estoy":8114,"patri":8115,"Office":8116,"jobs":8117,"plaatsen":8118,"résult":8119,"communication":8120,"toekomst":8121,"Democratic":8122,"Bl":8123,"Dou":8124,"Festival":8125,"Sport":8126,"rê":8127,"écu":8128,"bey":8129,"importa":8130,"poor":8131,"pago":8132,"ignor":8133,"serve":8134,"werking":8135,"entrega":8136,"Manchester":8137,"ajoute":8138,"accidente":8139,"previous":8140,"symptom":8141,"mooie":8142,"Groningen":8143,"instead":8144,"78":8145,"Big":8146,"Cris":8147,"Pala":8148,"igens":8149,"zed":8150,"íguez":8151,"itar":8152,"aanwe":8153,"Heb":8154,"souligne":8155,"concert":8156,"minuten":8157,"commencé":8158,"ística":8159,"Rodríguez":8160,"ET":8161,"Ig":8162,"Lim":8163,"apren":8164,"lour":8165,"demi":8166,"gevallen":8167,"belasting":8168,"manu":8169,"kens":8170,"elementos":8171,"arran":8172,"transpar":8173,"capable":8174,"popul":8175,"consumo":8176,"zegd":8177,"militar":8178,"concerns":8179,"analyst":8180,"limited":8181,"elimin":8182,"Ky":8183,"glas":8184,"hous":8185,"espos":8186,"oro":8187,"sey":8188,"muse":8189,"iness":8190,"signed":8191,"Qui":8192,"placement":8193,"various":8194,"podrá":8195,"spot":8196,"sterk":8197,"build":8198,"initiative":8199,"lograr":8200,"asiel":8201,"escenario":8202,"conférence":8203,"equ":8204,"hur":8205,"olie":8206,"phase":8207,"oplos":8208,"format":8209,"rock":8210,"transporte":8211,"continues":8212,"fils":8213,"charges":8214,"ronde":8215,"crédit":8216,"recru":8217,"animal":8218,"atteint":8219,"Director":8220,"technologie":8221,"argument":8222,"véhicule":8223,"Hasta":8224,"Ejecu":8225,"vado":8226,"wall":8227,"decen":8228,"verkeer":8229,"acce":8230,"esté":8231,"emde":8232,"marcha":8233,"ioen":8234,"juicio":8235,"salida":8236,"signal":8237,"daarmee":8238,"communauté":8239,"avy":8240,"handen":8241,"Diego":8242,"provincial":8243,"biggest":8244,"électri":8245,"ayudar":8246,"tampoco":8247,"seems":8248,"Pue":8249,"ech":8250,"wr":8251,"changer":8252,"true":8253,"noted":8254,"ieder":8255,"forced":8256,"peur":8257,"Marc":8258,"premières":8259,"familiares":8260,"Geor":8261,"hypo":8262,"logró":8263,"ocurrió":8264,"bâti":8265,"trimestre":8266,"israéli":8267,"Duitse":8268,"résultats":8269,"CC":8270,"Der":8271,"PR":8272,"apart":8273,"bag":8274,"wijn":8275,"cifra":8276,"verte":8277,"rage":8278,"luch":8279,"apun":8280,"prefer":8281,"menores":8282,"cará":8283,"Ander":8284,"añadió":8285,"importancia":8286,"presentó":8287,"Portu":8288,"Council":8289,"fundamental":8290,"pretty":8291,"maatregelen":8292,"happy":8293,"AL":8294,"rare":8295,"details":8296,"atra":8297,"begrij":8298,"doende":8299,"peace":8300,"haald":8301,"sages":8302,"hogar":8303,"pasó":8304,"presión":8305,"brut":8306,"contrac":8307,"malad":8308,"François":8309,"hacerlo":8310,"status":8311,"responsabilidad":8312,"áticos":8313,"European":8314,"llevó":8315,"disponibles":8316,"mouvement":8317,"éviter":8318,"Gor":8319,"Hun":8320,"Jes":8321,"bande":8322,"chet":8323,"demostr":8324,"ised":8325,"qua":8326,"pedir":8327,"pakken":8328,"révé":8329,"boos":8330,"creo":8331,"méde":8332,"betrokken":8333,"viaje":8334,"quartier":8335,"conocido":8336,"levels":8337,"required":8338,"véhicules":8339,"maximum":8340,"1er":8341,"Certa":8342,"Fel":8343,"Pos":8344,"Sing":8345,"egen":8346,"wers":8347,"alem":8348,"suffer":8349,"abus":8350,"davantage":8351,"paper":8352,"entrevista":8353,"mates":8354,"lancer":8355,"keren":8356,"signé":8357,"energy":8358,"Congress":8359,"easy":8360,"56":8361,"Far":8362,"Fam":8363,"Geen":8364,"Mir":8365,"NS":8366,"Sé":8367,"dón":8368,"fied":8369,"allo":8370,"partes":8371,"matig":8372,"compris":8373,"moto":8374,"huge":8375,"trial":8376,"nomin":8377,"complete":8378,"llegada":8379,"tecnología":8380,"%)":8381,"Cup":8382,"bb":8383,"gera":8384,"ski":8385,"ume":8386,"anne":8387,"repe":8388,"gevolg":8389,"perten":8390,"song":8391,"passage":8392,"chemin":8393,"muziek":8394,"curr":8395,"célé":8396,"dreig":8397,"probably":8398,"trabajos":8399,"niveles":8400,"élection":8401,"restaurants":8402,"bombar":8403,"plupart":8404,"Secretaría":8405,"88":8406,"Pel":8407,"cussi":8408,"lise":8409,"urgence":8410,"makers":8411,"options":8412,"tures":8413,"eleg":8414,"phys":8415,"wonen":8416,"Since":8417,"béco":8418,"reducir":8419,"secretar":8420,"Christian":8421,"affirme":8422,"nummer":8423,"honderd":8424,"mêmes":8425,"daughter":8426,"Jen":8427,"Jam":8428,"Kore":8429,"ei":8430,"mètres":8431,"íos":8432,"reur":8433,"tible":8434,"verdad":8435,"terri":8436,"formar":8437,"gend":8438,"mite":8439,"affron":8440,"rules":8441,"bleek":8442,"carre":8443,"Anne":8444,"artícu":8445,"rendu":8446,"helft":8447,"continuer":8448,"Supre":8449,"Servi":8450,"seguro":8451,"educación":8452,"scienti":8453,"compared":8454,"Williams":8455,"inaugur":8456,"quarantine":8457,"arrested":8458,"Fre":8459,"Ly":8460,"dentes":8461,"fij":8462,"hin":8463,"pone":8464,"wol":8465,"zing":8466,"aris":8467,"lees":8468,"quen":8469,"qués":8470,"atac":8471,"tercera":8472,"acing":8473,"rite":8474,"rights":8475,"excus":8476,"mique":8477,"obtenir":8478,"privé":8479,"piè":8480,"Mean":8481,"dynam":8482,"intégr":8483,"learning":8484,"profesional":8485,"Ferr":8486,"avenir":8487,"rise":8488,"laires":8489,"ently":8490,"sean":8491,"livre":8492,"accoun":8493,"formes":8494,"lymp":8495,"preten":8496,"agents":8497,"gesproken":8498,"Consu":8499,"telé":8500,"fund":8501,"isteren":8502,"élections":8503,"Scott":8504,"supporters":8505,"120":8506,"dred":8507,"ried":8508,"rather":8509,"sad":8510,"écran":8511,"enkel":8512,"department":8513,"onie":8514,"oren":8515,"gende":8516,"goo":8517,"quieren":8518,"afge":8519,"mule":8520,"eks":8521,"internation":8522,"join":8523,"garder":8524,"buurt":8525,"From":8526,"diffus":8527,"llamado":8528,"konden":8529,"App":8530,"actualmente":8531,"atrás":8532,"económic":8533,"comentó":8534,"specific":8535,"evidence":8536,"serious":8537,"geweld":8538,"Bour":8539,"CH":8540,"scr":8541,"vat":8542,"combus":8543,"voed":8544,"suma":8545,"sufici":8546,"procé":8547,"denkt":8548,"hoger":8549,"ficial":8550,"coups":8551,"Chica":8552,"tiende":8553,"artis":8554,"étaire":8555,"publica":8556,"stof":8557,"maintain":8558,"Soci":8559,"increased":8560,"Casa":8561,"expecta":8562,"américaine":8563,"Malgré":8564,"distintas":8565,"conference":8566,"ocasiones":8567,"vehicle":8568,"gratuit":8569,"Bla":8570,"Out":8571,"mbo":8572,"tieron":8573,"acudi":8574,"décès":8575,"traf":8576,"servir":8577,"stig":8578,"producto":8579,"propre":8580,"Provin":8581,"govern":8582,"werkers":8583,"tillo":8584,"educa":8585,"atorio":8586,"soirée":8587,"augmentation":8588,"Justicia":8589,"industria":8590,"London":8591,"IT":8592,"Jorge":8593,"NH":8594,"Santi":8595,"ieten":8596,"uari":8597,"óli":8598,"laas":8599,"citizens":8600,"dium":8601,"common":8602,"siè":8603,"proven":8604,"torneo":8605,"huur":8606,"familles":8607,"experiment":8608,"resulta":8609,"gebeurt":8610,"Cabe":8611,"cinéma":8612,"ejerci":8613,"conseguir":8614,"película":8615,"souligné":8616,"Tik":8617,"cale":8618,"kent":8619,"vet":8620,"ágenes":8621,"lada":8622,"oppos":8623,"perder":8624,"imágenes":8625,"viven":8626,"exporta":8627,"venus":8628,"ciación":8629,"created":8630,"norte":8631,"localidad":8632,"fuentes":8633,"reality":8634,"création":8635,"looks":8636,"Presidente":8637,"cambiar":8638,"shoo":8639,"pacientes":8640,"espacios":8641,"learn":8642,"retrouve":8643,"Cat":8644,"Port":8645,"kap":8646,"asis":8647,"ciar":8648,"vervolgens":8649,"sufri":8650,"absence":8651,"rob":8652,"hot":8653,"holi":8654,"mask":8655,"única":8656,"Road":8657,"tweet":8658,"damage":8659,"Mike":8660,"étude":8661,"ONU":8662,"ramient":8663,"Harry":8664,"iniciativa":8665,"gesprek":8666,"België":8667,"EE":8668,"PO":8669,"iva":8670,"padres":8671,"zada":8672,"encu":8673,"revis":8674,"itali":8675,"cement":8676,"gezegd":8677,"auteur":8678,"comparti":8679,"gratis":8680,"pain":8681,"rées":8682,"prevent":8683,"affect":8684,"words":8685,"mens":8686,"crear":8687,"baisse":8688,"itself":8689,"Contr":8690,"alizó":8691,"Daarom":8692,"solutions":8693,"matchs":8694,"asegura":8695,"audience":8696,"Ayuntamiento":8697,"treatment":8698,"husband":8699,"tandis":8700,"Cámara":8701,"Lam":8702,"Last":8703,"africa":8704,"gast":8705,"ogen":8706,"éten":8707,"archi":8708,"orie":8709,"lets":8710,"quence":8711,"ofrece":8712,"ónica":8713,"décl":8714,"distr":8715,"interpre":8716,"hero":8717,"herramient":8718,"stress":8719,"spent":8720,"élè":8721,"januari":8722,"hoogte":8723,"empê":8724,"enorm":8725,"valeur":8726,"standig":8727,"siguen":8728,"Carolina":8729,"siguiente":8730,"Bet":8731,"Blo":8732,"bis":8733,"balle":8734,"gone":8735,"gust":8736,"pantal":8737,"sales":8738,"ède":8739,"insur":8740,"tié":8741,"entor":8742,"opción":8743,"duda":8744,"deling":8745,"mantiene":8746,"trek":8747,"référ":8748,"card":8749,"carry":8750,"mues":8751,"Noord":8752,"occident":8753,"superior":8754,"Etats":8755,"classes":8756,"instituciones":8757,"convertir":8758,"assurer":8759,"épiso":8760,"chauffe":8761,"Brasil":8762,"Meanwhile":8763,"Chicago":8764,"CS":8765,"Crist":8766,"Ray":8767,"vó":8768,"anía":8769,"bevol":8770,"load":8771,"forte":8772,"motivo":8773,"vivienda":8774,"pakt":8775,"pasada":8776,"Marie":8777,"contrato":8778,"prépar":8779,"risico":8780,"estión":8781,"winnen":8782,"2008":8783,"andacht":8784,"protección":8785,"engagement":8786,"gradu":8787,"bénéfici":8788,"Costa":8789,"Ty":8790,"aandacht":8791,"tis":8792,"maker":8793,"compren":8794,"feature":8795,"monie":8796,"Ante":8797,"Region":8798,"links":8799,"changed":8800,"Corona":8801,"lugares":8802,"podrían":8803,"streaming":8804,"compagnie":8805,"européen":8806,"Ligue":8807,"challenge":8808,"recogni":8809,"revealed":8810,"olymp":8811,"Ejecutivo":8812,"Fer":8813,"Olymp":8814,"Pablo":8815,"Tan":8816,"echte":8817,"èmes":8818,"comité":8819,"vante":8820,"stal":8821,"improve":8822,"robo":8823,"vaient":8824,"cionado":8825,"sensa":8826,"torno":8827,"beta":8828,"imag":8829,"amenaz":8830,"Beau":8831,"infections":8832,"comenz":8833,"atrice":8834,"graden":8835,"Micros":8836,"woordvoerder":8837,"relationship":8838,"míni":8839,"invasion":8840,"Waarom":8841,"meldt":8842,"ofrecer":8843,"véritable":8844,"Hern":8845,"jero":8846,"kost":8847,"twin":8848,"inner":8849,"unda":8850,"qued":8851,"ofic":8852,"veille":8853,"dessus":8854,"voil":8855,"exter":8856,"goes":8857,"gaf":8858,"gación":8859,"apenas":8860,"cancer":8861,"welijk":8862,"vestig":8863,"electoral":8864,"Notre":8865,"jeron":8866,"peuple":8867,"necesit":8868,"techni":8869,"Haag":8870,"etapa":8871,"occup":8872,"faisant":8873,"machine":8874,"faudra":8875,"necessary":8876,"Dam":8877,"Stor":8878,"send":8879,"decl":8880,"chant":8881,"maje":8882,"audio":8883,"acte":8884,"wearing":8885,"paix":8886,"agentes":8887,"ienne":8888,"monitor":8889,"sommet":8890,"sortir":8891,"Frank":8892,"krijg":8893,"Service":8894,"starting":8895,"verschil":8896,"funcionarios":8897,"claims":8898,"manifestó":8899,"vluch":8900,"bestaat":8901,"detalles":8902,"software":8903,"Microsoft":8904,"Tre":8905,"vité":8906,"ètement":8907,"devenir":8908,"advan":8909,"urban":8910,"olu":8911,"aca":8912,"irse":8913,"nota":8914,"impro":8915,"resources":8916,"pair":8917,"mania":8918,"endro":8919,"Andr":8920,"acties":8921,"mented":8922,"views":8923,"fortuna":8924,"diferencia":8925,"simplement":8926,"sostuvo":8927,"pompiers":8928,"inderdaad":8929,"begint":8930,"disfrutar":8931,"Public":8932,"Rotterdam":8933,"GP":8934,"IA":8935,"Mario":8936,"Tay":8937,"Will":8938,"enjoy":8939,"moyenne":8940,"dates":8941,"enteel":8942,"dank":8943,"waarop":8944,"graves":8945,"informatie":8946,"client":8947,"bouwen":8948,"términ":8949,"Watch":8950,"humanos":8951,"appelé":8952,"declaraciones":8953,"contam":8954,"leadership":8955,"liberté":8956,"property":8957,"William":8958,"African":8959,"CD":8960,"Pop":8961,"Wer":8962,"cats":8963,"ns":8964,"wist":8965,"zones":8966,"isa":8967,"isés":8968,"heard":8969,"sectores":8970,"trau":8971,"consen":8972,"ussen":8973,"loca":8974,"prohi":8975,"belang":8976,"puisque":8977,"Unión":8978,"cycl":8979,"ologie":8980,"technique":8981,"pendent":8982,"River":8983,"environment":8984,"calls":8985,"Allemagne":8986,"arrêté":8987,"studio":8988,"Zelensky":8989,"Gir":8990,"Krem":8991,"Nations":8992,"Span":8993,"écou":8994,"ols":8995,"duel":8996,"moyen":8997,"rier":8998,"ullie":8999,"tuigen":9000,"zowel":9001,"obvi":9002,"ficó":9003,"Martí":9004,"homici":9005,"ualmente":9006,"ology":9007,"videos":9008,"Prote":9009,"diensten":9010,"Prés":9011,"capacity":9012,"planning":9013,"detect":9014,"Nueva":9015,"elektr":9016,"Cómo":9017,"IV":9018,"Sar":9019,"Sams":9020,"kar":9021,"mut":9022,"sée":9023,"incu":9024,"controle":9025,"sitio":9026,"grados":9027,"militaires":9028,"massive":9029,"phones":9030,"supply":9031,"sorti":9032,"incremento":9033,"fortale":9034,"Person":9035,"nécessaire":9036,"Fort":9037,"Lab":9038,"Obr":9039,"Uno":9040,"jér":9041,"alidad":9042,"verano":9043,"voerd":9044,"passed":9045,"illon":9046,"cord":9047,"uiter":9048,"gif":9049,"yeux":9050,"velo":9051,"bastante":9052,"houd":9053,"growing":9054,"telingen":9055,"charged":9056,"included":9057,"clientes":9058,"burger":9059,"seconde":9060,"populaire":9061,"beginnen":9062,"stelling":9063,"négoci":9064,"verantwoorde":9065,"BO":9066,"Radio":9067,"TE":9068,"pm":9069,"slo":9070,"adé":9071,"desapare":9072,"hetzelfde":9073,"wear":9074,"trage":9075,"mine":9076,"mises":9077,"bron":9078,"achie":9079,"positions":9080,"ideas":9081,"llega":9082,"funding":9083,"plane":9084,"toma":9085,"respir":9086,"Eric":9087,"señala":9088,"Finalmente":9089,"ficación":9090,"wetenschap":9091,"facilit":9092,"cantante":9093,"Fu":9094,"Ric":9095,"imed":9096,"ladas":9097,"outre":9098,"ombi":9099,"beide":9100,"perform":9101,"pase":9102,"centros":9103,"streng":9104,"publiek":9105,"milliers":9106,"koers":9107,"sanitaire":9108,"nuestras":9109,"petits":9110,"realizado":9111,"térieur":9112,"entrada":9113,"pensar":9114,"modèle":9115,"profesionales":9116,"fédéral":9117,"Côte":9118,"cussions":9119,"Kremlin":9120,"Here":9121,"Ot":9122,"bús":9123,"mue":9124,"sis":9125,"essa":9126,"idents":9127,"tho":9128,"oferta":9129,"déli":9130,"beren":9131,"voldoende":9132,"camion":9133,"tricité":9134,"dolor":9135,"seeing":9136,"musique":9137,"Rafa":9138,"tendrán":9139,"historique":9140,"wrong":9141,"Hel":9142,"Kim":9143,"Pho":9144,"Sau":9145,"fro":9146,"hid":9147,"tone":9148,"devenu":9149,"income":9150,"sements":9151,"verho":9152,"opvang":9153,"pointed":9154,"roe":9155,"appr":9156,"minor":9157,"whose":9158,"somos":9159,"integra":9160,"necesita":9161,"Aujourd":9162,"crétaire":9163,"musical":9164,"Senate":9165,"ingresos":9166,"raised":9167,"contexto":9168,"accueilli":9169,"GO":9170,"Ira":9171,"rul":9172,"vador":9173,"elig":9174,"contó":9175,"nies":9176,"maart":9177,"achat":9178,"artista":9179,"publié":9180,"cosa":9181,"profon":9182,"includes":9183,"adecu":9184,"followed":9185,"girl":9186,"judicial":9187,"influence":9188,"essential":9189,"Fede":9190,"Mul":9191,"Zelf":9192,"hart":9193,"otor":9194,"slot":9195,"veter":9196,"enfin":9197,"lados":9198,"gehouden":9199,"command":9200,"compra":9201,"pedido":9202,"importe":9203,"delito":9204,"débat":9205,"pourquoi":9206,"voorkomen":9207,"survi":9208,"alimentos":9209,"chair":9210,"kelijke":9211,"counter":9212,"joué":9213,"placed":9214,"univer":9215,"contacto":9216,"variant":9217,"periodo":9218,"razón":9219,"conflicto":9220,"leider":9221,"plateforme":9222,"próximos":9223,"autonom":9224,"Agr":9225,"Aja":9226,"Gru":9227,"Pad":9228,"vlak":9229,"cemment":9230,"empla":9231,"disminu":9232,"mées":9233,"avais":9234,"vrai":9235,"aime":9236,"Internacional":9237,"volución":9238,"decidió":9239,"icanos":9240,"Alej":9241,"lèmes":9242,"confianza":9243,"permane":9244,"champions":9245,"individuals":9246,"suggest":9247,"kampioen":9248,"Richard":9249,"Samsung":9250,"89":9251,"RA":9252,"SU":9253,"Sw":9254,"Tar":9255,"Veel":9256,"bid":9257,"dal":9258,"antie":9259,"ished":9260,"cite":9261,"suici":9262,"daire":9263,"poursuit":9264,"standing":9265,"juez":9266,"confirmó":9267,"intervención":9268,"capacité":9269,"judicia":9270,"walk":9271,"cultural":9272,"Party":9273,"Martín":9274,"cross":9275,"immediately":9276,"réguli":9277,"policiers":9278,"76":9279,"BM":9280,"PD":9281,"elabor":9282,"kwar":9283,"sound":9284,"vals":9285,"pocos":9286,"extran":9287,"hoef":9288,"trein":9289,"posted":9290,"Inc":9291,"bois":9292,"center":9293,"campus":9294,"gesto":9295,"tiendo":9296,"belo":9297,"alized":9298,"claimed":9299,"midden":9300,"wild":9301,"tiempos":9302,"2009":9303,"index":9304,"lorsqu":9305,"políticos":9306,"collection":9307,"médico":9308,"électricité":9309,"require":9310,"Britse":9311,"challenges":9312,"souhaite":9313,"periodista":9314,"aanwezig":9315,"teléfon":9316,"Dem":9317,"cins":9318,"gig":9319,"ergens":9320,"incon":9321,"omp":9322,"quez":9323,"diario":9324,"tappen":9325,"macht":9326,"tuur":9327,"presidential":9328,"diez":9329,"zocht":9330,"bericht":9331,"werkelijk":9332,"nuclé":9333,"personen":9334,"journalis":9335,"barrio":9336,"daarvoor":9337,"problèmes":9338,"patient":9339,"drug":9340,"pourraient":9341,"administración":9342,"estudiantes":9343,"commerce":9344,"argentino":9345,"noticia":9346,"korte":9347,"VVD":9348,"título":9349,"bevolking":9350,"jército":9351,"GE":9352,"Jour":9353,"Wall":9354,"gou":9355,"pil":9356,"ervoor":9357,"innen":9358,"revel":9359,"lequel":9360,"chron":9361,"tried":9362,"ratio":9363,"podium":9364,"expan":9365,"exécu":9366,"café":9367,"détermin":9368,"cars":9369,"cker":9370,"hua":9371,"moments":9372,"organiza":9373,"woningen":9374,"generar":9375,"attendre":9376,"intensi":9377,"respecti":9378,"bruik":9379,"changement":9380,"reduce":9381,"desarrollar":9382,"slecht":9383,"Banco":9384,"built":9385,"negocio":9386,"previously":9387,"ocasión":9388,"launch":9389,"thousands":9390,"Uit":9391,"fat":9392,"gie":9393,"sín":9394,"didos":9395,"mann":9396,"ruk":9397,"critical":9398,"ception":9399,"problems":9400,"Francia":9401,"conflit":9402,"Minnes":9403,"realmente":9404,"présenté":9405,"levens":9406,"Administra":9407,"engage":9408,"sospe":9409,"British":9410,"gagner":9411,"Gonzá":9412,"First":9413,"NC":9414,"Oc":9415,"Rem":9416,"dang":9417,"dores":9418,"jong":9419,"mere":9420,"nit":9421,"encial":9422,"cida":9423,"uri":9424,"contest":9425,"verz":9426,"soient":9427,"hoc":9428,"giques":9429,"instala":9430,"función":9431,"county":9432,"Estos":9433,"politieke":9434,"denuncia":9435,"Domin":9436,"England":9437,"fantas":9438,"réunion":9439,"slachtoffer":9440,"eléctr":9441,"Messi":9442,"NL":9443,"Sto":9444,"Wol":9445,"knew":9446,"salle":9447,"dement":9448,"aná":9449,"aclar":9450,"comman":9451,"neas":9452,"loir":9453,"quién":9454,"stations":9455,"internacionales":9456,"volunt":9457,"Alberto":9458,"turning":9459,"dirección":9460,"planes":9461,"mitted":9462,"ugd":9463,"increasing":9464,"studenten":9465,"ologies":9466,"Alleen":9467,"klanten":9468,"Fox":9469,"oposición":9470,"Sénégal":9471,"79":9472,"Ano":9473,"Eliz":9474,"Jones":9475,"Puerto":9476,"pijn":9477,"édu":9478,"leger":9479,"veur":9480,"compon":9481,"común":9482,"votes":9483,"grens":9484,"fré":9485,"voort":9486,"Defen":9487,"volun":9488,"kov":9489,"espect":9490,"futur":9491,"primeras":9492,"participation":9493,"alcanzar":9494,"stories":9495,"regels":9496,"speelt":9497,"chiffres":9498,"activities":9499,"Tesla":9500,"González":9501,"Miss":9502,"festi":9503,"hout":9504,"ltat":9505,"ísi":9506,"ended":9507,"teor":9508,"parcours":9509,"imen":9510,"saires":9511,"zee":9512,"file":9513,"ganó":9514,"fiche":9515,"média":9516,"Republic":9517,"Franse":9518,"videmment":9519,"putés":9520,"remporté":9521,"belangrijke":9522,"incendie":9523,"neutr":9524,"Brown":9525,"encima":9526,"defens":9527,"aquellos":9528,"Santé":9529,"présidentielle":9530,"tegenwoordig":9531,"élèves":9532,"Martínez":9533,"Obrador":9534,"Ajax":9535,"73":9536,"Dere":9537,"Kam":9538,"Mme":9539,"hat":9540,"sop":9541,"requis":9542,"heer":9543,"ouder":9544,"atos":9545,"didas":9546,"liep":9547,"gehe":9548,"voeg":9549,"tenga":9550,"fines":9551,"speed":9552,"planta":9553,"presenta":9554,"hundred":9555,"peso":9556,"tasa":9557,"burgers":9558,"groupes":9559,"possibilité":9560,"réponse":9561,"estrategia":9562,"Patrick":9563,"Santiago":9564,"Rap":9565,"TI":9566,"zy":9567,"hect":9568,"divid":9569,"rik":9570,"igu":9571,"hoeft":9572,"lywood":9573,"preci":9574,"afstand":9575,"agt":9576,"inscrit":9577,"ientes":9578,"obtener":9579,"stil":9580,"renfor":9581,"rendez":9582,"beslis":9583,"funds":9584,"género":9585,"institución":9586,"concernant":9587,"spring":9588,"september":9589,"indépend":9590,"vertrouwen":9591,"Elizabeth":9592,"Camp":9593,"D66":9594,"Ku":9595,"Wester":9596,"flink":9597,"jal":9598,"alf":9599,"legt":9600,"trust":9601,"sio":9602,"mot":9603,"roep":9604,"cook":9605,"outes":9606,"afi":9607,"firma":9608,"iff":9609,"ody":9610,"rappelle":9611,"cultura":9612,"alisation":9613,"particulier":9614,"golf":9615,"multipli":9616,"Merce":9617,"estadio":9618,"analyse":9619,"certainly":9620,"amarilla":9621,"verkiezingen":9622,"oplossing":9623,"Gabri":9624,"Home":9625,"Mem":9626,"Sports":9627,"rar":9628,"rates":9629,"anes":9630,"intelli":9631,"ciel":9632,"diálogo":9633,"vele":9634,"estados":9635,"raf":9636,"procès":9637,"immédi":9638,"pation":9639,"istische":9640,"añad":9641,"étape":9642,"tivement":9643,"caused":9644,"trouvé":9645,"Perú":9646,"glob":9647,"forcement":9648,"multiple":9649,"emergencia":9650,"flexi":9651,"découvrir":9652,"Indian":9653,"Sinds":9654,"Than":9655,"ax":9656,"digo":9657,"gevolgen":9658,"movili":9659,"récemment":9660,"overall":9661,"finally":9662,"boom":9663,"aker":9664,"volvió":9665,"stric":9666,"renou":9667,"totale":9668,"kunst":9669,"register":9670,"joue":9671,"Force":9672,"intention":9673,"broad":9674,"tilla":9675,"consist":9676,"calling":9677,"criminal":9678,"Omdat":9679,"tráfico":9680,"Mercedes":9681,"LG":9682,"Sara":9683,"Two":9684,"anni":9685,"arbe":9686,"regen":9687,"isée":9688,"ouest":9689,"entos":9690,"dite":9691,"ilton":9692,"gegaan":9693,"veux":9694,"negen":9695,"dog":9696,"stuur":9697,"déf":9698,"gate":9699,"paration":9700,"britan":9701,"mondial":9702,"morts":9703,"helped":9704,"prisión":9705,"especi":9706,"Program":9707,"cierre":9708,"agency":9709,"infection":9710,"hospitals":9711,"municipales":9712,"particularly":9713,"symptoms":9714,"Minnesota":9715,"1000":9716,"Bit":9717,"Fuer":9718,"ahor":9719,"pese":9720,"zware":9721,"escol":9722,"essay":9723,"arily":9724,"adding":9725,"dieren":9726,"noon":9727,"dul":9728,"peau":9729,"gencias":9730,"delines":9731,"ulent":9732,"alló":9733,"discours":9734,"disposición":9735,"Indus":9736,"stated":9737,"stiks":9738,"Republican":9739,"barre":9740,"besluit":9741,"osecu":9742,"daarbij":9743,"terminó":9744,"azón":9745,"continuar":9746,"principio":9747,"máxima":9748,"connect":9749,"afhankelijk":9750,"Bill":9751,"Lé":9752,"Mana":9753,"Sie":9754,"stroom":9755,"lage":9756,"verwij":9757,"verlen":9758,"meu":9759,"dest":9760,"comis":9761,"moyens":9762,"delà":9763,"vaart":9764,"served":9765,"corri":9766,"Mary":9767,"waarmee":9768,"ambiente":9769,"subray":9770,"climate":9771,"host":9772,"gemeester":9773,"Alemania":9774,"destino":9775,"études":9776,"atteindre":9777,"versiones":9778,"Andrés":9779,"Públi":9780,"uil":9781,"ener":9782,"titel":9783,"tières":9784,"towards":9785,"conqu":9786,"acquis":9787,"dub":9788,"style":9789,"emis":9790,"collè":9791,"rouge":9792,"Then":9793,"conoció":9794,"foreign":9795,"Boven":9796,"áticas":9797,"driver":9798,"radic":9799,"considered":9800,"verdachte":9801,"ológico":9802,"assistance":9803,"Pérez":9804,"crypto":9805,"Sans":9806,"revan":9807,"section":9808,"idores":9809,"exhi":9810,"febru":9811,"suspe":9812,"positivo":9813,"ograp":9814,"participer":9815,"juegos":9816,"candidats":9817,"infected":9818,"gebeuren":9819,"correct":9820,"vigil":9821,"ambassa":9822,"explained":9823,"bepaalde":9824,"Verstappen":9825,"Another":9826,"februari":9827,"HD":9828,"IM":9829,"Up":9830,"kru":9831,"mm":9832,"nó":9833,"pê":9834,"vimos":9835,"verzeker":9836,"doe":9837,"provid":9838,"proches":9839,"answer":9840,"exces":9841,"presta":9842,"Alg":9843,"colog":9844,"controver":9845,"Those":9846,"completo":9847,"feeling":9848,"instalaciones":9849,"Ven":9850,"cées":9851,"fill":9852,"jullie":9853,"nul":9854,"remember":9855,"représente":9856,"unit":9857,"ops":9858,"prot":9859,"grá":9860,"dence":9861,"correspond":9862,"plais":9863,"Invest":9864,"obil":9865,"ierra":9866,"relaciones":9867,"ffers":9868,"tourno":9869,"panel":9870,"móvil":9871,"confiance":9872,"meilleure":9873,"krijk":9874,"pequeño":9875,"OTAN":9876,"salió":9877,"beyond":9878,"Lond":9879,"Muse":9880,"Var":9881,"flow":9882,"wester":9883,"árez":9884,"arbit":9885,"leo":9886,"chtig":9887,"comprend":9888,"procure":9889,"frac":9890,"voorzien":9891,"staats":9892,"creación":9893,"largest":9894,"mesa":9895,"basket":9896,"itaciones":9897,"Comité":9898,"nueve":9899,"clima":9900,"energéti":9901,"crimes":9902,"suivre":9903,"Turk":9904,"afirma":9905,"intervention":9906,"cription":9907,"Plusieurs":9908,"Tribunal":9909,"equipment":9910,"caída":9911,"NFL":9912,"kiezen":9913,"Profes":9914,"facilities":9915,"TikTok":9916,"vluchtelingen":9917,"debut":9918,"devait":9919,"concurren":9920,"illas":9921,"olen":9922,"votos":9923,"abel":9924,"sures":9925,"León":9926,"énor":9927,"merk":9928,"aking":9929,"Algun":9930,"inaire":9931,"villes":9932,"pratique":9933,"Station":9934,"texte":9935,"automa":9936,"Kevin":9937,"categoría":9938,"simply":9939,"movimiento":9940,"esfuerzo":9941,"verantwoordelijk":9942,"AE":9943,"cere":9944,"mpe":9945,"mando":9946,"defe":9947,"deeld":9948,"debat":9949,"incar":9950,"invent":9951,"arre":9952,"lated":9953,"asking":9954,"novel":9955,"peor":9956,"cuán":9957,"edom":9958,"delan":9959,"save":9960,"expos":9961,"coinci":9962,"voordat":9963,"apps":9964,"cionados":9965,"pressure":9966,"fiesta":9967,"carga":9968,"calend":9969,"cents":9970,"entrepren":9971,"Any":9972,"upon":9973,"préci":9974,"cependant":9975,"normaal":9976,"infra":9977,"Frankrijk":9978,"couldn":9979,"processus":9980,"recordar":9981,"dienen":9982,"Liver":9983,"named":9984,"looked":9985,"Miami":9986,"esterday":9987,"declaró":9988,"solid":9989,"temperatur":9990,"Capital":9991,"reached":9992,"shooting":9993,"Cur":9994,"Gal":9995,"MT":9996,"Mali":9997,"Nog":9998,"Vill":9999},"merges":["e n","d e","e r","e s","a n","o n","i n","a r","o r","a l","r e","l a","i s","h e","t i","t e","l e","o s","a s","o u","e l","q u","i t","u n","en t","a t","c i","e t","o m","a d","t o","p r","t he","s e","c h","u r","qu e","t r","d i","in g","l i","c on","an d","i l","a m","u s","t a","c e","i d","v er","t h","o f","p ar","g e","m a","o p","ti on","i j","m e","v e","o l","a u","t er","a c","i r","de s","es t","i c","n o","b e","r a","c om","n e","l o","i e","ou r","l es","v o","m ent","de r","v an","d o","s i","s u","a b","p or","f or","p er","d u","ó n","an t","s t","p e","l os","pr o","e en","m o","d a","c u","g en","e d","t en","g r","h a","i m","an s","he t","de l","n i","w e","p o","r i","v i","s a","s on","ci ón","e x","r es","p u","j e","s o","d en","la s","p a","g o","r o","n a","2 0","c a","qu i","ad o","d é","u e","v en","e m","i g","er s","d at","h o","m an","é s","v a","l y","c o","un e","u t","tr a","c t","b i","p as","p l","k e","g a","par a","p our","t re","en te","a ar","f r","th at","u l","s er","vo or","t é","D e","un a","m et","c es","m i","ou t","k en","z e","r é","on t","í a","0 0","l u","a p","f a","ar i","il l","ij n","t u","s ur","p re","h i","ou s","w as","w it","L a","o o","a f","m in","ci on","er e","i re","p os","T he","pr es","ar e","te d","e f","in e","a g","t s","al l","c he","c or","b re","d ans","E n","r u","wit h","d is","w or","a an","on s","b le","f e","a tion","p la","al e","m ar","en d","á s","m en","E l","I n","di e","z ijn","u it","f i","z o","al i","ci a","c as","ni et","é e","L e","o ver","er a","s en","ad a","in s","is t","b li","ur s","ti e","c ar","m is","f in","m u","a y","h as","ou n","b er","c an","g i","ci al","é n","m ás","c er","s ta","g u","l d","b o","ch t","tion s","u x","w er","m er","on e","an te","e k","a k","s te","i k","al s","g h","por t","p en","b r","in ter","pl us","c al","h er","j o","c re","v ol","p le","c r","é r","s ch","l ar","1 9","c ent","ar d","v is","el le","i en","m es","n u","and o","es ta","oo k","d r","z a","h is","A l","m on","d os","es te","ha ve","è s","sa id","g el","par ti","á n","per son","au x","s es","b ij","m p","c k","i on","d on","i ent","ic a","t or","an g","w el","ve c","b a","it y","cion es","ent re","m il","è re","c am","b y","w h","f er","v es","w ill","it é","al es","y e","li j","i a","u d","an ce","h u","ad os","l and","tr o","com o","m or","s us","c ou","v id","il le","fr om","é té","no t","v el","i o","u re","da y","g an","g ar","b en","in a","a vec","in d","qu es","A n","m os","g es","on d","b ut","20 2","or s","ma ar","po li","d an","C h","ij k","id ad","m un","it s","t es","on der","o b","g er","h ad","a ñ","b u","om e","f ic","c ol","ch o","ch a","ti en","an n","tr i","an de","h ab","is e","t in","v al","et te","M ar","id o","v ir","th is","e g","j u","l l","i te","ab le","c tion","w o","si on","ver s","a ch","h or","u p","c ur","f ir","or es","v ent","p li","H et","n en","th er","no g","i ci","us t","w n","s ti","do or","h an","he b","c ti","me di","s tr",". ”","pos i","w aar","” ,","o k","y ou","n es","m é","j our","ef t","on g","al le","F r","m at","t ur","N e","son t","t ar","lij k","y a","u er","par t","d ur","d it","en s","w hi","d ing","in t","pr i","pro du","ab a","b as","m as","o g","y s","er o","i de","w at","ar t","r en","g et","am bi","r ou","id en","the ir","é ta","con tr","e p","f o","l le","I l","pu bli","L es","c lu","a is","s in","k om","e le","r ij","for ma","the y","h ou","or d","i li","di re","min is","p el","in es","to t","U n","h ij","na ar","C on","ent o","é es","» ,","s ol","pr op","de d","N o","ent s","d ad","am e","w ho","vo ir","ac k","ing en","l an","pr é","i ón","it a","W e","c os","H e","z i","T h","00 0","el f","i f","he eft","ig h","ic o","f am","ant s","c l","be en","ti j","ye ar","es e","me er","el d","1 0","en ce","o d","R e","ac ti","ari o","ma is","E s","au t","ar on","P ar","g ra","ent es","ant es","tr es","m ente","gr o","b et",") .","pr és","al ly","a va","p on","e ur","I t","c en","pr ès","f ue","b ar","u m","n os","k ing","s é","op le","on a","p i","id a","n er","t ing","\" ,","ú n","op en","k s","C om","di g","S e","as t",", ”","c é","pr im","ct or","s it","gh t","ambi én","t out","k er","ti me","a ción","ment s","s ou","der s","mor e","no w","k un","b el","pu is","c ette","p s","an a","re g","j aar","20 1","w ere","an o","ir es","te l","m om","et s","d t","c is","s al","at s","mo et","O n","n ie","c our","com p","ar r","is te","k an","de ux","na tion","fa it","ti es","v ie","J e","se g","on es","an y","bi en","p it","heb ben","in st","ho w","di f","i es","pre mi","R us","id ent","t an","in di","al so","b an","ad or","per o","t os","si g","e de","A r","i z","te ur","tr ans","am os","ab out","pe ople","v ing","é g","ma y","v ic","wor den","b es","da g","er en","” .","or gan","c to","m and","r as","ali z","in ci","t y",") ,","añ os","a ge","ti ve","ra p","ad as","m b","ne w","os e","ver y","r is","w ay","A s","t on","f un","lo w","da ar","u se","le ur","m al","am ente","j a","n ing","tr as","he l","ur a","n é","vi er","s pe","t ou","s el","gr am","us si","v ra","c ri","ê tre","3 0","k t","or t","b or","li e","k el","gen s","Q u","whi ch","j or","ê me","pr of","van t","h om","n ous","qu é","p é","c au","b us","l is","t ambién","con tin","c ó","ci o","p h","te m","c la","oun d","i er","ou ld","s he","f il","c oun","n om","a i","im port","g t","s y","u ur","pl an","of f","R o","ve el","w ould","j us","v in","D at","re la","en cia","c el","n ue","est á","er g","n ou","v é","so bre","wor dt","a te","L os","cion al","c in","ti r","j ou","he id","1 5","pr is","pa ñ","pres ent","ge en","E st","C o","I k","sit u","com mun","we ek","s ome","tr aba","il s","z elf","mil li","ing s","ur es","vir us","u di","des de","202 2","zi ch","re d","der ni","v or","p al","ce p","so ci","o or","tij d","r it","ti que","le d","fa ire","w ar","s om","cu ent","m y","qu el","m it","su p","k o","af ter","u el","éta it","d ra","w ij","r os","en de","s h","ava it","com me","ch ar","ti c","n or","cu l","i ma","par te","s ie","th ere","b al","ou ver","ac tu","v ous","pla ce","U ni","a v","f t","c lar","s or","re e","con om","s to","nie u","h un","E ur","l é","wh en","ale ment","P or","o c","th an","a it","t al","ci r","p ol","a ussi","n el","tr os","le g","m s","p lo","ti g","m ême","v ac","te gen","u g","p es","e ven","v as","c ción","tr y","í as","1 2","t est","P o","pla y","wor k","p un","d om","ar y","f f","t we","r an","\" .","t our","ch er","D es","tien e","ation s","al is","v os","ari os","T o","j ar","C O","an ti","ge b",". \"","so cial","gr es","C e","z ou","ve d","S u","kun nen","5 0","è me","l en","m ic","ter s","un i","bi er","b ack","ient o","en do","» .","n et","c y","b les","n at","am en","M a","H o","f uer","j ust","is che","d ar","i gen","ne ment","the m","u al","r on","in o","a près","t as","v it","an ci","b il","t om","20 20","en se","cau se","ac er","li ke","d re","M e","d as","la st","k ra","mu ch","Eur op","ma in","in clu","as e","z en","r us","d us","ti vo","mu y","to do","res p","for m","o ther","d s","j et","ic k","we er","g un","tr u","a de","ga an","j er","con o","pro gram","J o","pa í","con tre","es ti","wh at","de ze","M aar","ac t","su b","b at","do wn","m ber","pr om","men sen","C ar","te mp","ú l","N a","t at","publi c","de re","fam ili","in to","ha y","1 8","gr an","l in","ga at","w a","ar á","al th","par e","in f","g as","w in","it o","w on","h al","j es","has ta","m id","es to","M on","vi a","bli j","sta te","úl ti","d ent","S i","S o","in forma","fir st","añ o","c at","c li","ca p","ti f","cor e","er d","b on","t wo","w il","ex per","jour s","V I","ti em","fo is","in i","li g","go ed","d ro","e ar","de puis","at h","pro ble","es pe","fi ci","con tra","Ne der","v re","au tor","1 1","202 1","a voir","b lo","p op","me e","c le","c us","k ken","ve z","com e","kom en","tr ou","person as","a ga","e qui","1 4","B e","h im","ci as","ex pli","v il","20 0","or i","res ul","ol og","pe u","for e","re ci","lu i","i or","l ong","Fr an","y our","ser vi","d am","com ple","st and","hor a","don de","ig n","ti tu","por te","s an","wer d","parti ci","u ti","si de","ter min","vi de","er on","lo cal","cu ando","mom ent","J u","b ur","gel ijk","cou ld","z ien","con f","B o","str u","is ter","ud ad","E en","s p","z ar","ad i","pit al","il y","S an","ce d","cor ona","gen er","ch an","l it","ma ak","ar ri","ta in","tr ic","h ist","ne d","l er","pa ys","pro ces","ol d","organ is","r ent","et en","ve au","ie d","pr inci","at ten","mos t","c ted","1 6","L o","T his","tr ès","F or","B ut","igh t","g ing","tr at","pu t","P our","M in","í an","G o","is ta","j un","gr ou","ha ar","h and","f ul","di o","S a","ch es","h os","ar es","T ru","b ra","id ente","is se","pa g","bier no","in ves","oo t","2 5","W h","I s","è res","un der","in te","por que","fr an","re cor","b ou","la tion","1 3","pr en","M ais","M o","s how","f u","Neder land","P ro","rou gh","m ill","p ande","í ti","un o","VI D","ú bli","ne ces","n on","me d","te am","2 4","te urs","t ent","di en","w ant","E r","in de","gi on","1 7","m ie","qui en","t ant","L u","di jo","am iento","r y","CO VID","l ang","au to","ida des","z it","l ors","nu es","su per","as s","nom bre","ari a","pe ti","A mer","o tros","c ada","h acer","pr end","v ar","zo ek","cl us","ad ores","le t","Ne w","is s","g ent","d ía","con se","L as","sch o","go ver","to dos","A u","u es","k w","id os","wer k","l ine","E t","vid a","L i","G u","p at","paí s","pe ut","b la","f on","hi er","in ten","is on","li c","qu er","all en","g re","p an","in k","b ro","m bre","p ou","s ing","en a","f ri","ser a","vel op","pro b","be ing","at en","nation al","en core","au tres","temp s","mis mo","f ac","ge d","re al","z on","tot al","f ut","h ing","B el","b est","th rough","to p","er t","pu ede","g in","lo t","ci os","í n","z et","im p","ma al","s ans","twe e","d ol","com un","on ly","wel l","ch ten","Tru mp","n ment","en ti","te ch","ne ed","dur ante","tu re","fa ce","le c","re aliz","whi le","prim er","wh ere","am p","le urs","at o","tro is","prof es","ñ o","me jor","an der","man y","ande re","est os","do en","cou p","c ré","la bor","di d","ti l","poli ce","s tra","ul ar","P r","al a","tra va","ég alement","res pe","may or","j ue","moet en","dur ing","pos si","U ne","f é","ma g","y o","ê te","year s","c ro","u k","An d","e very","sol o","mi ento","en e","n am","C an","s la","or e","V an","l un","pu és","a vant","con su","sen ti","con ta","se con","m ijn","o ù","corona virus","ci udad","lo ok","de el","mill ones","ca tion","ma ken","D i","D aar","e igen","est án","we g","premi er","clu b","p pen","ma ke","g é","he el","fin al","k rij","th ing","b in","se e","w en","ch os","di a","qu ar","e conom","iden ti","s ame","é qui","z al","as on","ho e","mon de","in cre","ist as","a z","l ing","in si","be cause","le a","nieu we","c ra","oo d","con cer","con fir","é l","sa y","S er","p end","se d","con s","mo ins","go ing","em os","g én","e u","20 19","ç a","w ard","x i","k now","v ari","at ing","h ar","en ne","tri bu","e vent","le y","and a","e er","fe ct","er n","la at","mis sion","k et","s et","ti va","d ou","4 0","t us","le ment","ken d","1 00","C or","it és","d ont","to e","tiem po","c ado","cour s","ie urs","P res","se ñ","ers te","pres idente","con di","be fore","or y","lu gar","a ire","eur os","ab les","D ie","v rij","C ol","s ido","ou gh","ij f","ra tion","s hou","ci l","Al s","c los","th ose","a ce","h ome","om en","kom t","su re","is o","c ta","2 2","M an","m ul","f en","c las","se p","t ous","of fi","ten er","cam bi","hu is","po int","een s","st at","us tr","prés ent","em pres","si te","gr and","po dr","st ar","f our","se man","de más","to ch","Fr ance","at ta","gover nment","hi p","ann on","es a","scho ol","M i","z or","he alth","ion es","hel p","ven ir","for t","o wn","mom ento","mo is","m us","minis tra","O r","bi li","S he","est ar","il la","ha ce","re por","i que","en erg","re ad","op é","Z e","f em","E x","ie f","can di","shou ld","ma de","con stru","aga inst","is h","es per","j à","st ud","per io","mon th","2 1","in v","ci ó","pol íti","a van","vi ol","ob je","res pon","D ans","d y","ke er","contin u","ta ke","w s","za ción","ann ée","b all","t ó","ac cor","sol u","c teur","ch é","V ol","t le","U S","as í","mi ent","col le","h igh","té r","em bar","an i","ar m","v ille","em plo","resp ons","la do","N ous","re le","ac tion","d ó","ar se","tr an","b ol","gu er","cu al","sta at","f al","pr a","O p","ed en","i ge","he le","pro te","f el","T e","d ías","i x","n al","des pués","ze gt","ant en","C ent","c are","l la","dé jà","S ta","S in","k es","la ter","th en","pa ti","l í","z ie","prés ident","person nes","O ek","j an","v és","maak t","g ouver","op er","reg is","su c","F e","O ok","Oek ra","e erste","f ol","be au","cent r","k on","H ij","í cu","ge le","wo on","re ce","is ten","B ar","p úbli","poli tie","6 0","lo g","ñ os","mé di","fil m","di ó","sti ll","V er","re f","B r","S eg","s ent","derni er","W at","en cuent","pas ado","es o","al gun","H a","he m","b ru","ge ven","In ter","hou den","hab ía","th ese","G r","de cis","posi tion","m ir","ist es","i ets","ch ter","na cional","medi a","s ous","prim era","k in","C u","th ree","cr im","geb ru","is ch","cer ta","se gu","con du","The y","ab r","vol u","ér ie","hab it","b aar","di al","premi ère","ta ble","tur a","Z o","ar a","a ura","m ó","hu i","lie u","á ti","e cht","ment o","pe d","don c","G e","alle en","k ed","2 3","D a","al d","U kra","ap pro","A demás","r est","chan ge","ti ga","is su","am a","c tions","se ma","M et","te ll","seg ur","ge me","ti ques","mun ici","minis tre","m ble","at re","be dr","et er","pr ise","ri o","ri ght","o i","plus ieurs","al ors","ef f","cuent a","f ér","lij ke","tou jours","he d","mu jer","est as","k a","di ri","st re","ex tra","Oekra ï","espe cial","cas o","w i","pa y","sti tu","eur o","D on","a ir","h n","cu e","te x","ma and",", \"","u i","in ts","cas es","seg un","au tre","traba j","w an","j am","hu man","el les","a insi","di do","fa vor","men os","at her","pres ident","M é","parti cu","N or","on ge","ic al","all er","coun try","T r","ct os","ach ter","sa ys","P re","go od","vic es","Europ e","pro ye","su ite","sch ap","hor as","ter ug","A t","tien en","ci er","me mb","si ve","P ero","re c","ti mes","P er","ch il","mat ch","O f","de ci","parti r","tus sen","ue go","tan to","de mand","le ven","for me","ér ica","per met","pañ a","milli on","C as","x im","di tion","ag u","l t","sel on","se x","ed s","gen te","il li","A p","pande mic","un que","ex pe","pu e","possi ble","ic an","B en","ad re","2 7","8 0","os t","o t","ch i","est ado","Th ere","contr ol","che z","R i","au g","pop u","A le","S al","no tre","der en","a hora","am er","pro cent","da te","vol gens","traba jo","d ru","g ue","am b","g ame","he cho","bus ines","equi po","g ol","s ho","la ten","ste m","F in","cr is","h ard","vie w","du e","st art","den s","prop os","or ia","se ctor","arr ol","E ste","ne x","ar ound","or ig","pro vin","Co vid","candi dat","a tie","h on","pr ó","A f","da des","vir on","z ó","as eg","Qu é","ri en","min ut","gro te","les s","r ol","pri x","en f","he ad","do es","o tro","ce le","ac uer","at er","om dat","El le","z ij","Ch ina","k le","n ada","dé clar","tr op","wat er","2 6","V oor","ber t","jus ti","situ ation","cono ci","Y ou","to da","h am","se a","Ukra ine","fuer on","gr u","ze g","ille urs","am ment","ô t","i ème","i ble","I f","re m","el s","cti ve","ent en","wor ld","tem por","h ol","vi ent","tra in","ang er","2 8","s our","k il","c ès","at a","po ten","Jo hn","l s","su ch","r un","vis ion","C ette","us o","seg ún","er i","et a","b it","parti do","P e","v elle","so it","d ri","qui er","tou te","import ante","is mo","to ire","su i","je ct","gouver nement","resul t","G en","m el","er de","li fe","ol o","mun do","on ze","ij ke","l or","di fer","th ink","s ant","do cu","dé but","dol lar","h y","en contr","fr on","v rou","mu cho","ex pres","war en","g on","r és","s che","re present","man era","ju g","nation ale","ta ge","ac ces","b ook","at ur","Min ister","7 0","min u","exper ien","prend re","embar go","secon d","ca us","s po","op e","fol low","op era","servi ce","P S","b é","s c","s nel","ver sch","wer eld","fin anci","comp any","H u","n ée","el lo","N i","p t","p ie","re port","ques tion","sin ce","señ al","por ta","lle g","am es","pour ra","nue vo","m ple","re gi","ad ministra","Th at","el en","ita ire","a gen","po co","se ason","Par a","5 00","c n","con si","ins titu","te ment","l è","re du","is la","cr it","N A","j ur","Go bierno","al tijd","Uni vers","g est","ve h","bin nen","ti cal","B u","pu esto","ser á","seman a","D it","min der","sup port","inves tiga","wit ter","c ab","S ur","si ón","milli ons","M or","D u","po der","v u","be eld","import ant","vide o","gen o","V al","pr ij","sig ni","S ou","fam ily","f aut","ann ées","kel ijk","S te","s pel","jus qu","vi ce","ho og","aut om","A m","mo gelijk","cr an","dire ct","d in","ti vos","en o","ge ment","ho y","way s","es ter","re cu","ard s","W hi","M ay","m pre","al go","cam e","c ía","f is","s amen","M un","e je","k aar","ce la","ni vel","9 0","v ou","to en","pa ci","f ica","an ces","C i","m ij","ca ción","em ple","dif fer","z onder","é li","res ta","acuer do","inclu ding","b ig","person al","jun to","bas e","D an","w een","tu vo","k i","k la","in ici","vis it","a po","go t","nou veau","at ro","ge woon","en viron","ap pel","M ad","C oun","f ar","pla ats","ti er","gr ande","zo als","T witter","gén ér","w eten","al low","mid del","S on","de clar","es pa","202 3","minis ter","nex t","p ir","p ur","je u","équi pe","2 9","tur n","offi cial","mo e","g lo","al ité","con ver","ser vices","mient ras","R a","te le","te it","man if","ap p","tech n","a ted","r á","a ciones","des arrol","r ad","or den","re ven","not amment","cial es","des ta","che f","c all","s ac","an al","cris is","day s","v ind","li er","si x","s ter","or k","ou d","ch te","ma jor","por ts","read y","de ath","ter ior","sta an","cir cu","3 5","ur t","we ver","as ed","to ld","af e","P la","la w","201 8","ent r","gebru ik","S t","quel ques","f ig","v uel","si ons","ant al","br and","gel d","M r","M ac","se u","jar en","s le","fr ont","mil it","v ri","pro cha","ic os","cur rent","c et","l à","re ally","v í","un es","at es","gener al","A d","medi o","s pre","go bierno","po ints","indi vid","li o","be gin","ill er","t t","ar s","tra vés","de z","os ten","elle ment","ñ a","per s","ap pe","bet ween","vra ag","nou velle","o bli","nu mber","Na cional","oo g","beau coup","est udi","dire ctor","r ond","co le","bo th","aseg ur","cre di","ben ef","m ing","ter rit","S el","will en","en ga","B an","B iden","b and","bre ak","c ing","an im","ed ad","e du","an os","at or","ri es","bu il","use d","g ers","la ción","ade más","r or","so ir","dr ie","lo ck","re cent","onder zoek","ge z","ste eds","r al","pu eden","ini ti","princi p","U na","g os","ind us","c ru","ne y","ele c","in form","un t","ind s","actu al","z as","la ck","p ic","tr adi","con na","o it","par tie","sie mpre","ti ves","id s","pos t","te g","ci es","vol gen","b ir","c it","krij gen","ó r","gel open","J us","trava il","è ne","de be","re z","ter a","co ver","cas e","ni veau","ros s","T ambién","D o","an un","pris es","J an","f ra","g ir","x ico","us es","J os","m ers","é le","is me","pro jet","nieu w","é lec","se cre","ti ó","situ ación","ç ais","in ien","el los","est re","c ô","parti j","str ij","ti do","n ent","ú s","hab er","có mo","regis tr","segur idad","lo gr","ze ker","tru ct","de vra","st ad","rece i","so li","contin ue","a h","ur en","ano ther","in clus","no ve","mis e","pen s","D ur","a ires","ke ep","B er","de li","op t","aan ge","mo cra","at r","des tin","met tre","b res","D is","k re","fun cion","mo de","Ch ar","Seg ún","z ona","person a","man che","e el","f la","l uego","ven dre","grou pe","Mé xico","a unque","sa ge","Pres ident","l us","í o","as se","o tras","z ul","for ce","inv est","p p","en ces","Europ a","id ay","3 1","j ó","conta ct","com men","ré gion","lle gar","informa tion","mes es","de fin","Fr iday","uit en","gu i","jour d","av ons","de b","to o","to das","of fer","it h","gi que","nue va","A c","E m","es s","con ó","mul ti","é conom","te ly","com ing","we b","Y ork","do it","B ij","v r","di ge","me et","uti lis","ch ts","am i","b our","h en","o tra","in os","S A","w are","le ver","vo it","der al","b ie","in fe","déclar é","p ho","dif fér","an cia","ab il","E sta","de man","g s","V i","y er","w ed","s ab","de velop","for mer","T ur","v ast","cas a","Sel on","fe w","éta ient","Il s","consi der","com en","Es paña","C A","un os","Oekraï ne","D en","h ere","l on","id as","S un","algun os","N et","N ation","el la","et y","am s","social es","or de","jam ais","er al","commun ity","b lis","ti po","den te","tij dens","T V","la ire","ab an","sal ud","am érica","mp li","ob ser","laat ste","4 5","cle ar","c un","o cu","er ta","el ijk","uni vers","esta ba","al ter","ment os","si mple","ag ue","ni ght","ru p","poli tique","a illeurs","M c","f re","e z","nat uur","xi mo","ad ded","be c","Rus land","a jou","ba jo","ur al","ten ido","A près","a al","pou voir","d ado","sa ison","fa ci","com pli","vi o","wer ken","Est ados","differ ent","é tu","blij ven","kw am","M er","of i","por té","ten dr","ct u","ll en","Rus s","é én","at ri","je udi","ser ie","fri end","ne ar","st en","lle v","se ver","ef e","ê t","he ure","le id","busines s","S ch","on line","suc ces","D r","d or","br as","hal f","O N","i ons","re a","vid ad","per mi","a gr","pas t","cent re","í sti","es p","f ans","sema ine","vo er","b un","n is","cti f","qu and","mer credi","19 9","rap port","derni ère","C am","li z","bel an","bedr ijf","a ver","jo en","val u","i ment","em er","% .","T er","ré alis","mar ket","c ity","h it","r id","gran des","H er","e di","o cur","r om","cas os","e conó","v ul","ur o","crim in","com pañ","cu atro","hom me","as es","ch ang","di manche","of t","ann oun","Un idos","n ú","s í","f ense","com mer","mar di","po wer","dé velop","A si","hi zo","lun di","s elf","ac ci","we et","Po li","Pre mi","n ad","ha ppen","v ée","su is","ex ten","man i","ke y","mo ve","much os","vendre di","s iste","fe el","de fen","le ad","com pag","gre at","M os","lu it","mos tr","imp act","M al","la is","ent er","Ar gent","S en","ex p","concer n","Sta te","I I","ap pli","ru im","comp te","V la","commun i","F ace","al les","con stitu","mil joen","repor ted","a go","e ach","gr os","u b","ac ross","jo b","qu is","il les","C E","j ari","P as","pro ve","resta ur","we e","f ur","u w","Est ado","op ort","mu er","partici pa","ge be","af ir","car r","le vel","dis pon","aan se","A b","v ía","cran ia","W est","c ine","Rus sie","U crania","pr on","wor king","segu ir","E U","un idad","mi a","ban k","sto ck","bili dad","res te","ct s","sé cur","P ri","pos e","al g","re fer","ten ir","prom o","últi mo","Wh en","v allen","ó g","ou ght","ma at","com ment","lar es","nes s","G ar","in té","ci miento","us u","ac tor","fo to","proye cto","J a","é ti","Vol gens","A ustr","e ux","’ ,","est ad","princi pal","eff et","H ou","re qui","th ings","of fici","voor al","autor idades","’ .","uit s","Sa int","recor d","f li","on den","ne men","Ch ris","tout es","so on","ré e","b uiten","del en","quar ter","ar gent","famili a","cô té","m á","ser ont","organ iz","hos pital","D el","i la","qu atre","ne go","for man","one y","col es","f oot","vi en","jari ge","de cir","ges ch","bet er","s il","an ders","por ter","je unes","er ia","ci do","dr en","Con se","ab ri","la te","no dig","same di","M u","R é","b om","ca pital","voor beeld","posi ble","s pr","at is","ing o","no oit","al en","la g","th ough","ef fect","ab ili","with out","esta ble","bel ie","k y","fr ente","fic ul","e urs","m anten","á b","le ar","oc cas","x ima","af in","sin o","inter ven","new s","nú mer","con fi","bo dy","inter es","of fic","ô le","ver der","pend ant","h our","as sur","R os","ous ly","at te","ne ver","Ap ple","k ers","el o","end re","cal led","de al","zit ten","S y","p us","z ig","ri ère","ge da","j os","k te","le ft","di r","id é","gr é","memb ers","it al","con t","cht ing","Je an","profes sion","al la","re des","et hing","pro ject","af fir","dis tin","201 7","ge maakt","ma te","accor ding","B or","r ac","ti vas","di eron","Es to",". ’","C ity","P au","re tour","cap ac","Russ ische","P u","re cht","is er","qu it","gr ad","part ment","Uni ted","rus se","quien es","gru po","F C","W as","g al","s érie","cion ales","ava ient","belan gr","em p","bi ó","cour t","no ti","sep tem","f ound","con ser","vin den","sto p","month s","gr oot","esti val","informa ción","k ind","y en","publi que","enf ants","O ne","k no","ij ken","in ed","af gelopen","dis e","M us","ar án","ord in","zor g","A N","il o","agu a","K e","a antal","en g","is ation","at ar","ie dere","ju di","th ers","ha al","cour se","s hor","in cen","con tribu","vo tre","do el","cas i","ond s","b lan","an za","ti t","par o","val or","grou p","lic it","P a","de vant","are a","Mar ch","ë n","tr ouver","ne er","ica ción","hou se","som ething","ar ch","al ready","ing res","ol es","se mb","ver k","Is ra","guer re","û t","ment al","c tie","co ach","vis ta","lig ne","proces o","Qué bec","a way","s os","al can","ra z","com es","zelf s","Mon day","7 5","Al le","annon cé","Amer ik","á r","el kaar","om a","be kend","stud ents",". »","T ra","or der","M ic","ti ef","ve ili","n y","w ing","ten u","deux ième","os o","ci endo","con ven","ver se","dat a","zeg gen","com er","pro vo","bet ter","se en","ac cep","per man","certa ins","re li","hist oria","oc cu","pag ne","anal y","n ers","un til","As í","políti ca","Sou th","g este","s pé","es tra","ex tre","he ures","cu er","fr ica","lun es","b este","d res","su m","zet ten","re gion","ad res","Ho wever","G re","T en","V o","y ing","zul len","cri p","P C","or a","ent ra","je une","nues tro","B ru","c ito","di vers","ig ual","ha cia","wo ord","paí ses","Ale x","n ame","ó lo","ta tion","ac tie","pla at","ient os","ère ment","did n","F A","m ust","in et","gen era","im pu","Rus ia","B rit","v ijf","an e","ma ñ","ac to","vier nes","ille t","pun tos","W ith","v ond","de termin","di ce","est u","pas s","produ ction","chil dren","strij d","re un","pro gres","res tric","cer tain","f ire","h é","is ts","dé ci","veh ícu","S tat","W el","w ent","er os","in tér","ador a","últi mos","it os","of d","A ir","O m","T or","ar ti","st or","dat os","podr ía","cono cer","v ue","dé cis","bo ven","his toire","cin co","orig in","pu esta","hos pit","to ok","au jourd","j as","poten ti","ver sion","ne u","ari as","nat ure","inte gr","en qu","mo cr","ph one","D ire","fi ve","vis ión","ide lijk","mujer es","minut es","B ro","g ere","con clu","nues tra","res id","oor log","hele maal","munici p","k ans","al ways","wer den","Coun ty","C es","G er","f fer","r ist","re co","fr ent","fin ale","Can ada","kin deren","aura it","3 6","a tive","ad ap","ch as","gen cia","ré se","eur opé","P h","c elle","alle maal","mat eri","pri or","c ant","t í","trat a","m ight","w al","fran çais","m ica","C our","pa ce","met ros","posi ción","occas ion","P lus","W or","b ere","t ard","be d","Wh at","ic as","vo el","blij ft","it er","ma king","ac ter","va it","ser ies","aug ment","fis cal","3 4","b ud","s ci","li m","s áb","he den","im iento","ad dition","niet s","eer der","energ ie","e mo","li ve","pourra it","B lack","L ig","ta al","ter dam","M at","posi tive","acti v","Ho e","ra ison","mo i","He alth","cual quier","C a","ut te","201 6","cambi o","man o","dire cteur","a vi","s m","do et","fi er","mañ ana","6 6","u da","cu mpli","za ak","Th urs","program a","Da vid","h op","op port","im os","po bla","bas ed","cel ui","char ge","Gen eral","vrou w","B ur","c op","l ent","li ght","dis tribu","minis tro","fon ction","H ay","a gres","n ar","mi gr","Whi le","ag it","En tre","sta ff","mo del","Thurs day","te k","ví cti","a ún","as i","ve ces","pres sion","én é","tem per","afe ct","et je","D é","S atur","qu ant","gen ce","tor ia","C ons","li kel","den un","cou ra","cur ity","u kra","ru m","pré cis","week s","3 3","P al","pon er","númer o","M y","v arios","ra y","tri es","bes ch","R es","f ree","k ijken","da gen","sécur ité","sáb ado","ukra inien","C ha","L ou","ne e","bo x","dent ro","empres a","Nation al","C ap","en or","tr é","ac tions","su it","ke le","ele ction","fam ille","Nederland se","h ic","i ce","sa it","va ak","cha que","pr il","me ille","bi a","h ô","en cias","cent ro","gro e","comun ic","T ues","au di","mar s","Al l","vil la","públi co","Mad rid","ar ing","se ment","ra in","han del","partici p","m ado","ent al","ne ur","twe ede","anci en","senti do","emplo y","A vec","k op","r ue","se mble","ir a","mat in","cos as","m oney","par ents","pre vi","ali a","sh ares","ear ly","Argent ina","m ont","lijk t","z es","du idelijk","Des de","C hi","j ets","de se","on i","au th","ac ción","vo y","vier on","Sun day","r il","cer ca","prij s","likel y","de ber","om an","fi eld","cur so","pande mia","dó lares","Tues day","F ern","e ver","li mit","pa ar","na ast","state ment","jan vier","com pr","bu en","bas is","Satur day","com ent","ag er","Par is","iz en","segun do","ac om","per cent","ca paci","w omen","con ne","ie ur","pro ce","ten emos","bes o","dom ingo","l open","de m","té lé","mis ma","N u","vo te","jour nal","popu lation","D A","f ood","re main","ch allen","ac cus","R u","en ci","fe u","Con gres","nor mal","qu ent","wh y","W il","re gel","dé ce","cor por","pla t","hom bre","tempor ada","t je","com par","vo et","dis cus","ber g","gh ts","P en","f as","de t","con side","O ver","ç on","qu í","un ca","ter ror","fin an","zelf de","k r","ti z","ri que","ien do","nou vel","fut ure","I N","T u","p and","re trou","no che","ha ving","ex cep","ga g","ali ment","f us","al ong","qu oi","to get","ta x","op ge","lit tle","per forman","mo est","ro om","mand at","cher che","wa cht","particu lar","techn olog","H ol","fa is","pre par","sy st","inf lu","lar ge","sant é","toget her","W ed","e cu","le den","che d","hal en","siste ma","3 2","a pare","pe z","ten ía","ca pit","pas se","pati ents","N ig","m ou","un as","pr ue","lo c","gi ve","ba te","aga in","i ken","m ur","ë l","im pli","res ol","tar de","tic s","c s","v ro","ce ux","ir d","ho ofd","De ze","mar tes","ay ud","cin q","empres as","e as","e ken","i ó","or ge","to day","com peti","cor re","end ing","land en","3 00","M as","ar gu","wij l","ofi cial","on y","ac ciones","pro test","Le ague","ins tru","sig ue","% ,","us ing","ide a","a o","m ad","do ing","ef fe","end ant","í s","en frent","ti ge","so licit","mar t","int ent","ful l","difer entes","recu per","inform ó","b l","ta ken","9 9","f le","s au","as soci","té e","A fri","re turn","at al","ér coles","oun g","bij voorbeeld","ck s","ar en","for ces","19 8","Jus ti","inter national","servi cio","and on","condi tions","con st","much as","jue ves","pho to","deman de","u is","Wed nes","B C","n ées","ma il","dé cou","3 8","r ic","ab ord","pe que","pro vi","wer kt","5 5","C ali","gi o","A li","dos e","ure au","sy stem","cul ture","iedere en","at ure","li cht","mar ché","mer cado","kun t","pris on","J ap","k ker","as ked","ij ven","ca de","mi ércoles","mar k","ju in","ense mble","lea ders","dollar s","Wednes day","r am","s inds","en fer","me mber","ve ment","ca tions","sch ien","sus pen","rela tions","C he","h ac","ta ción","ser ait","dif ficul","spre ad","b os","j on","k m","ten ant","br en","ko op","cele bra","docu ment","on ce","ie mand","vol le","bou w","kil om","3 7","ch amp","ha us","ven ue","pun to","peu vent","respe cto","consu l","official s","Face book","k l","n ant","v amente","y p","É tat","es pañ","he ther","obje tivo","d one","i tion","est amos","mo gen","Ju an","Amer ican","déce mbre","p ing","re présent","leg al","bil ité","sever al","A M","G ro","O u","fin d","gro ep","b ri","i ción","ma ins","glo bal","D C","P ol","ca be","gi ven","had den","get ting","dom in","inde lijk","ta king","ne a","ré su","Un is","dra g","cele br","k ant","ent on","vac cin","Jo e","devra it","S E","in ig","tr on","ni ños","vi g","ct ores","mp lo","justi ce","s cen","œ u","re com","bon ne","gele den","announ ced","de f","lo ve","ap li","uit ge","dro it","lock down","V ic","qu ali","du ur","ven u","ind re","geme ente","segun da",". ,","a vo","p et","an to","ver da","go ede","pl u","én erg","vir tu","clos e","natuur lijk","ch am","mo tor","pres ente","ag es","né ces","con fer","ex am","vel y","Ch am","pró ximo","T our","e vit","t ats","v ale","z in","re as","ti ci","ne ga","mo d","nombre ux","fem mes","ve er","man age","ber n","fu era","C re","i os","o cas","de di","ti ent","le ast","ci ento","di pl","mar kt","pé rio","expli que","z one","ver t","ra is","A R","li ber","ze i","Uni on","ward s","benef ici","alter na","Poli ce","w rit","ni a","pas ser","part y","anda ag","f all","i le","su jet","pri ce","Se cre","Su per","krij gt","Af ter","in as","con tex","prop u","minut os","di es","tion al","van gen","cu t","fe deral","gu es","jo ven","versch ill","R ed","a ide","ti ère","res ear","indi qué","sy ste","memb res","a del","re ve","fr as","ap par","tro du","play ers","hing ton","s port","a quel","m í","la tions","in vol","tra vel","men sa","zou den","ander en","bun al","Was hington","kno wn","h au","si mil","sa is","In dia","fem me","respons able","i zo","j ard","is ión","ge we","me as","pas sé","Ce la","does n","O S","g ado","g ames","o ta","w ie","en ero","si endo","ro ad","pop ular","A F","b éné","s k","t ête","sa voir","person ne","señal ó","génér al","4 00","z ado","vent a","offi ce","6 5","b are","c ali","f an","et h","ol óg","den cia","pi ons","nove mbre","T om","â ce","é c","te en","be come","br ing","bij na","cam pa","entra î","in vas","ac cue","cou ple","ava ila","secre t","com bat","spe ci","cla im","maand en","dévelop pe",". '","H ar","s ort","è le","den k","ue la","met er","car go","look ing","Mac ron","vri er","Hou se","B a","es senti","com prom","W aar","d ès","in no","ar ed","ma i","gen omen","gr ond","entre prise","sti j","forma tion","issu e","i zación","om er","ch ose","li bre","com pl","mo der","Don ald","vind t","st u","pas o","ga z","urs os","cer r","ind ustr","sig n","pobla ción","I ran","P P","T ri","o w","w ach","Minister io","B re","D om","S ep","l ist","ve ut","ut in","De puis","mor t","201 4","belangr ijk","septem bre","4 8","c adre","té cn","oo ts","poli tical","Jos é","o is","p in","É tats","es se","ter re","ex plo","dé sor","respe ct","resear ch","z u","er r","am ong","ic ul","dis pu","ér er","últi ma","é ment","pu es","Com o","individ u","Premi er","bud get","A S","G over","w et","en ough","cas t","sta y","cr ise","manif est","n unca","v lu","in for","it an","ré p","sou ha","T out","in vit","is é","op a","ra ce","so ort","star ted","désor mais","A y","S am","c ée","e au","ad op","se is","se le","con nu","In sta","as o","pr acti","am or","ve aux","for ts","ru g","ju illet","ita ires","inci dent","eer st","de mos","el y","ab solu","sur tout","spe el","aten ción","fac tor","wee kend","fur ther","y et","pe ct","comp an","jou eurs","deb ido","R E","en kele","ac us","Asi mismo","S tre","o thers","é ri","re ç","ste l","sm all","B ou","c ad","o cto","in trodu","qu o","em t","pres se","vé hic","proble mas","jue go","encuent ro","munici pal","expe cted","Pau l","H os","ad ien","ma ch","ca teg","fi ce","parti dos","perio d","A ug","re den","inter est","os a","for d","ges tion","off en","A ma","i an","ver sión","201 5","work ers","olog ía","E d","h old","i as","li on","per mis","pre cios","fic ation","pes os","conf li","f au","m ico","w ik","he ld","le i","si ble","ken de","rela ción","lin k","fal ta","Insta gram","e vid","ti o","ir s","im ple","dire c","fé vrier","am pli","pun t","S tar","is m","di ci","we ge","ré du","dis tan","lar go","ar ía","con vo","are as","vol ver","Car los","servi cios","veili g","i ve","w hether","th uis","sa ire","va ar","coun t","tiem bre","mayor ía","administra tion","opport un","availa ble","é p","com mit","pre cio","bo ard","án dez","som mes","foot ball","gi a","Lu is","K o","t am","es cen","ab o","proces s","ass ist","decis ión","véhic u","l ég","ac o","ne o","pl ann","br os","entre prises","ref le","s ólo","é mie","se curity","ch ance","ac he","ques tions","bil ity","prob able","obje ctif","b esta","de pen","an nu","ci vil","rij den","sou vent","tric t","mie ux","guer ra","enton ces","M en","p ite","di ct","cam pagne","ctu bre","exp los","campa ign","C al","st ory","pas a","' ,","y ó","su g","fe cha","spe cial","geno eg","apo yo","inclus o","pério de","octo bre","î tre","de ur","la it","em bre","aut ant","hour s","Wor ld","á mar","al o","ti tre","ter m","na ge","heb t","gra ve","nue vos","soci été","décis ion","C ou","M ari","R am","g ang","m ment","w ap","é tr","qu et","so cia","In di","pi er","lí der","se ul","ch au","ab on","prop er","sy n","program me","profes ion","sema ines","Nor th","ing e","th ird","pé ri","follow ing","Univers ity","f lu","al dus","am ar","st uk","D us","P hi","p om","é po","es cu","au ment","ra te","rou te","derni ères","lleg ó","W ar","k ab","ad ul","me de","jun io","conse cu","bedr ijven","signi fic","seu lement","g au","s por","li ef","gi es","clas s","regi ón","Amerik aanse","enqu ête","al mente","ni que","pre gun","jour née","ro w","In stitu","ali zación","vis to","jus te","esper a","Cali for","é vé","van af","vra iment","4 4","ge val","me an","cu es","vi ó","pu l","pl ans","ga tion","rap ide","maak te","algun as","shor t","S ome","W illi","f ont","me mor","inves tig","decis ion","sour ce","F I","S h","isse ment","fé dé","z os","ti co","it or","inter view","eje mplo","S ant","f res","vi es","ct ure","autor ités","F lor","G a","f abr","vid é","m eld","o ctubre","er as","ab andon","bu ena","lle var","dire ction","rap pel","realiz ar","with in","pen se","sch ijn","fic o","econom ic","annon ce","din ero","acom pañ","Q ue","w is","in su","om as","se em","soci ale","Ju ly","Ac cor","w oman","è te","gen cy","ca ted","ho or","wat ch","qu al","ille d","av ril","proble ma","vida des","carr era","b ad","f ou","i p","k or","t és","gr ound","bo t","vol g","zi cht","ps y","reg ó","local es","confir med","H am","K ar","S cho","y ens","se izo","di da","li p","op in","be etje","pro vide","oo it","atten d","mus ic","B A","m ig","è tres","pla te","medi das","arr ê","A ra","B os","C I","i et","n és","de j","ie z","si er","st udi","mar zo","ren o","Ro y","nam elijk","vari as","espa cio","dici embre","Q atar","de jar","ex emple","dis par","person nel","accor d","geda an","i bles","n elle","li ves","ter wijl","ris k","Po lic","Europ ese","Gr and","abili dad","E du","c ise","l ée","al to","be h","cal le","C la","u ite","th re","me x","we ken","we inig","gro w","dif fici","eigen lijk","dru k","asegur ó","V ene","am ent","ar do","am ing","am ento","du re","go bern","em en","mil itaire","investiga ción","3 9","A pril","an terior","fa ires","vra gen","provin cia","Ci udad","E R","te cn","par ce","man ier","derni ers","Fran cis","M ag","c ust","s ir","sep tiembre","emplo ye","kre eg","é tat","en coura","ic s","ré g","milli ards","bur g","abil ity","r im","v ont","es truct","di ente","con cre","ha ya","va is","wor th","19 7","indi có","commun ic","desarrol lo","J une","te ma","ta il","ge eft","no te","ex isten","pl ant","pre cis","prés ente","reg ular","communi qué","è ve","ce mber","ac es","va tion","gewe est","D oor","b ent","re qu","he mos","ci dad","ge zien","zor gen","champ ion","A ut","f lo","w ind","li b","pl ante","sen s","encuent ra","S om","o la","lo in","ie k","pla ta","vie mbre","con cep","sch rij","zi et","sh are","indus tri","Polic ía","H as","mi lieu","inter net","trans port","centr al","death s","chang es","capaci dad","verschill ende","compan ies","di ed","Re al","trois ième","buil ding","Accor ding","seizo en","T ras","com mis","ag os","tou ch","c ten","f s","an ima","to wn","do od","ag re","sta tion","acti vidad","úbli ca","issu es","vrou wen","M il","al cal","re ger","je ux","den ken","Com mission","cuer po","S S","x e","ver tel","man os","mient os","H is","l ance","y oung","ist ère","gel o","experien ce","F un","re gu","don ner","don né","col or","hom mes","Cu ando","diri g","U E","se cteur","ter i","no viembre","ex cel","br ero","medi os","opé ration","at ures","lo ten","sa f","out side","medi da","prij zen","resid ents","K en","Y o","ti m","ding en","under stand","real idad","Mun dial","conver sa","D ay","G oog","f estival","de te","Tr ans","nouvel les","T im","f alle","o ire","in é","li gt","com b","gr oots","ex clus","try ing","syst ème","4 9","b ab","for ward","En g","ba j","spe cta","ph y","dom ici","sour ces","C lu","c une","á cti","lo i","ie v","off re","show s","evit ar","H arr","O s","k ijk","al co","la m","un ta","produ cción","ate urs","cab o","friend s","B ay","or io","su d","gr âce","ak t","produ its","dien st","comun idad","tran si","L E","f act","î t","al ta","ur as","ic ana","los t","dé fense","inter nationale","need s","say ing","Col om","Goog le","st an","vi te","peti t","áti co","ao ût","E ven","S im","T ou","k osten","es os","la un","aar d","sy mp","rá p","ub ic","beso in","v andaag","en suite","re ken","lo op","gr ij","ef forts","aut our","tras la","hist ori","paro le","Vene z","G ra","S pe","T A","m une","ma kes","ic ano","San ta","iss ance","stat es","qui ere","ho tel","str ong","pri va","acti vidades","spe ak","pun ten","proble em","comunic ado","F is","z an","th é","ple in","ju lio","ded or","lea der","4 6","con ten","pri v","iden ce","recei ved","meet ing","wed strijd","aver age","belie ve","as h","pos ed","mon d","ier on","R ob","S co","a ient","s mart","ou w","ex iste","tom ar","expli có","ries go","A hora","b ureau","m ant","z er","ra ción","dis fr","over heid","mes sage","tes ted","inst al","John son","développe ment","c lo","m ús","di os","fa ite","oun iden","kom ende","mais on","traba jar","ms terdam","pren sa","oport unidad","B lan","S P","T i","f ond","me est","au cun","da ad","ex tr","tar on","Com me","simil ar","w ood","An t","dif í","tif s","agos to","' .","N ue","b ul","qu ick","que da","li d","nor m","categ or","O ur","se in","di cho","ta ux","me ans","ne z","ex ecu","nos otros","won ing","4 7","t bol","ch en","am bas","ge geven","me j","ter o","ill s","dr op","estad ouniden","Clu b","4 2","A P","K iev","M el","con sé","ma k","da tion","ex ist","em pe","ag ra","col o","ju gar","clos ed","Ni et","G ran","a par","v onden","ú tbol","col labor","ty pe","uni que","uti li","G od","P an","v inci","man uel","ul p","ali teit","sou tien","bil lion","condi ciones","particu li","performan ce","H en","O pen","œ ur","re gres","di ag","si mp","cal idad","constru ction","result ado","haus se","A msterdam","M I","c és","e ind","t ado","re cla","con tent","ab ier","min istère","ob jet","pare ce","wach ten","C ru","am ientos","leg isla","rele ase","k amp","qu elle","ci eron","con som","ac y","mes ure","mor ning","fut uro","middel s","finan cial","A g","E C","T a","u de","ci ent","st ond","cu ar","ex er","tur ned","resp ond","organis ation","every one","mani ère","muer te","Afri que","ut ôt","ont wik","veh ic","p ère","v ér","w ide","ent ren","li mi","ver wacht","of ten","va in","medi cal","jou er","test s","beh ind","B as","y es","la ag","tr á","id ing","ac cu","pos é","pos er","produ ctos","Th ese","jor nada","ima ge","proble men","succes s","S ud","ins pir","fin ales","ste llen","aliz ar","coun tries","Mi cha","signi fica","vr ir","Ama zon","n au","z ater","ch to","gr at","pal ab","sla g","avan ce","current ly","E tat","L ó","Y a","c ados","p ack","s co","u ve","ar ma","re conoci","ma tion","tra vers","tie ve","cam p","exper ts","Amer ica","arm ée","Mun ici","Ló pez","C entre","K a","R ep","e pen","h ers","ê tes","ñ as","ad dres","mo o","fo cus","blij kt","Stat es","pand émie","N os","c era","cor rup","vit és","áti ca","Conse il","Califor nia","G rou","P ier","e chter","k ort","un idades","ser ía","De partment","ju ist","ren contre","may o","quel que","Po et","f it","p ilo","en ige","la ment","ne mers","ca te","car rière","Al ors","restric tions","F ue","O T","V ous","v aux","tr ack","ro te","min im","bu y","cho ix","cul tur","lí nea","Sal ud","Secre tar","O M","i cht","ma ire","ste un","open ing","enti re","rele ased","l ou","v est","van wege","po t","pa ge","tra it","cam pe","ines e","play ed","New s","abr il","amb os","ajou té","T ok","n uit","ë le","in er","con stat","ir o","sa be","ro le","ali za","za ken","wo ens","nue vas","re mo","la gen","un g","vi ene","ag regó","cr ani","nou veaux","wij s","pue blo","busines ses","toda vía","a pro","f ant","la y","th ought","tre at","cent a","equi pos","j i","au mento","ré un","No w","diri ge","sc ène","tendr á","B T","s cre","y n","re mar","ti an","qu in","ta ire","des cu","so le","ga ve","pour sui","nu mé","indus try","B ra","J ack","a ans","cu re","ple k","nat ural","hist ory","M is","R en","l op","p is","y le","in der","di endo","con tar","ne ments","parti es","ob ra","contr at","clar o","wan ted","Em manuel","manten er","C N","p ér","u crani","es cal","ti ca","te ach","be w","van uit","ay ant","vis ite","cho is","cur ren","vor ig","sup por","every thing","especial ly","i led","ma xim","des ign","ten d","res er","man nen","fe brero","gar anti","fil ms","déci dé","D ani","h ig","di ver","si gu","pl utôt","pre ocu","prof it","lang s","zie k","trabaj adores","4 3","B al","ay uda","ris que","pes ar","won ers","B ol","b ak","ch ap","ch if","car on","can ti","ici o","suc cès","étu di","Hos pital","a ur","s pace","he en","ma tique","des cri","per soon","pro vinci","Ch inese","anti ci","nues tros","seman as","addition al","Z el","n as","v res","au té","ex pl","dis posi","mis schien","pré cé","famili es","L ors","ent a","par ten","ay er","Mar k","fun dam","dere cho","viol ence","J ames","T am","l ines","de ten","der de","end ra","ep iso","econom y","procha in","a vis","el im","ter rain","ac compag","van tage","go al","ord ina","reg ard","viol encia","enfer me","Venez uela","A C","O b","c ter","k li","m ari","r ang","es as","le ction","su ce","res to","ré gi","ren contr","dig ital","Ban k","T ex","g us","r ing","y an","z z","ro kken","bi le","prop or","arri vée","Am érica","è ge","al re","pa k","ita ción","resul ts","Dur ante","saf ety","C os","D E","D ía","d û","op nieuw","na cionales","ven es","co in","ser i","men cion","ber to","inclu de","win ning","atten tion","públi ca","eje cu","bren gen","œu vre","mej ores","P art","c án","z ak","ad vis","waar de","cin é","15 0","respon se","rec ursos","train ing","4 1","c ina","z waar","pres s","An ton","part is","get s","neces ario","inici o","6 00","U K","s luit","el den","ci j","ic es","lo go","va ción","zo eken","val t","sal ir","import antes","iss ent","atta ck","groots te","Micha el","N ou","R T","p ick","ci dent","ta ils","out ine","tro le","cti vo","N ord","V e","r er","r ido","w ait","em i","tie k","gel es","fic ar","trans fer","asse z","Scho ol","/ /","F o","f fe","v amos","de ben","ho ge","che ck","wor ks","vic toire","test ing","pare ja","inf la","sho t","Whi te","usu arios","R on","b elle","i za","s pra","jo int","mes ures","acti ve","best uur","recent ly","tradi tion","compañ ía","i Ph","s atis","and s","be gan","be gon","ab ly","men or","bu m","waar in","ele k","gra ag","bet alen","sing le","result ados","fras truct","Stre et","C ul","P utin","is es","he chos","di put","sa w","ex pla","mon di","energ ía","cier to","Poet in",": //","F i","R I","s w","ti ers","tr ad","cor respon","cam ino","hab r","gra cias","ctor al","Ma x","gebru iken","rad io","b â","f á","s û","al most","it her","il es","fr au","gel uk","soci edad","mit h","dere chos","ful ly","nee ded","M ont","h tt","or g","el ke","ver en","fa its","forma ción","sh op","vrij dag","chil d","AF P","8 5","se lec","co labor","don der","vel d","An dre","hab ían","parte ment","ini cia","reci bir","Cent er","Cent ro","afir mó","G i","M ex","qu ir","con junto","cu id","pas ar","ag ree","mar on","gar de","sel ves","inf lación","grand s","atre gel","experien cia","Lou is","H ier","i vent","ver a","ge w","pas sen","nu m","may ores","Car ol","sla chto","provin ce","obli g","acci dent","z w","pro pri","ho op","fi x","play ing","kre gen","imple ment","kab inet","O li","S tu","am ig","qui te","bi o","mi di","use ment","pró xim","spé cial","rép ond","signific ant","s cor","á rea","ar ts","re t","res puesta","man e","mil es","ide e","dra gen","proble m","team s","Or gan","toute fois","volgen de","énerg ie","a quí","e jer","el las","out break","cor on","br ief","jo y","Mar t","Mar tin","medi ate","ég al","lig gen","partici par","conse gu","Cent ral","meas ures","A T","p au","w inter","é cole","in forme","ta gon","do ivent","los s","na p","end s","mat ter","cl é","actu ally","fuer te","rus ses","famili as","Z u","p ous","ar tic","ad ver","mo ther","sa fe","ine ment","event o","perio dis","C el","b ord","i ques","u ary","au cune","ha ciendo","fa çon","zon dag","primer os","respons ables","sex ual","fli x","N at","d ins","s ali","de ad","al li","te lle","mar ca","ori ties","incre ase","seu le","jó venes","G ron","Z ij","r ating","v ons","es cri","ar te","ge wel","pa z","cam paña","vac cine","chos es","zie ken","princip ales","Net flix","reco g","difí cil","A ct","V ir","r ôle","et o","au gh","bo ek","ik t","cr os","pel ícu","soci aux","av ond","win kel","cli ents","lang er","cust om","A unque","B us","h ope","s hi","á l","la p","ci e","ze er","era it","prim ero","ning ún","volu tion","moe i","web site","municip io","mensa je","5 7","8 00","le ef","pr os","pr ácti","tre kken","inter nacional","dur ant","ámar a","t ari","é crit","to taal","pr ome","vo ya","cu anto","ré pon","ges ti","tel li","nieu ws","ran ge","geb ied","sp ir","htt ps","A I","le u","ta g","ac u","mi x","sen ce","202 4","sou lig","heid s","main tenant","bla ck","jug adores","spel en","alre dedor","M ur","P ed","è g","er an","as pe","se ven","il lo","ta ine","ex péri","pla zo","uti liz","dou ble","reç u","ar me","et c","ver d","be g","cu la","hu bo","hab lar","indi que","Min is","inté res","vehícu los","Cons titu","L in","ú a","Ch rist","Bar cel","anun ci","N ad","el éc","it en","co ali","ré ussi","pres encia","cor ps","ins te","tri ce","premi ers","dispon ible","geste ld","E conom","M ig","b s","on ia","is n","lo opt","dos sier","hou dt","hij os","lan ge","Jan uary","estu vo","reger ing","hig her","W ij","h aut","p én","su e","vi ve","na am","oun t","ún ico","plo eg","Su isse","school s","m adre","o li","w est","en os","le z","di za","be pa","vo z","Par k","some one","ah í","Francis co","a der","h onder","re ason","mo bil","ri ó","De mocr","Isra el","Lig a","M es","d le","ab or","pla ces","mu cha","lle va","hom bres","So cial","fac tur","cons ci","nad ie","zater dag","6 8","P at","b out","u ze","dé part","fa ir","tri bunal","Ant wer","D uits","g ingen","j uni","r at","r ound","ti ck","vi li","ges pre","disfr ut","woens dag","iPh one","A frica","B I","I m","P é","P et","r èg","í amos","te e","ter en","vo is","pre t","af faire","cti va","contr act","gra p","últi mas","run ning","desta có","edu cation","diffici le","5 2","H igh","ch ief","vo ie","per spe","mo v","sur ve","poli cía","kom st","last ing","stra teg","repor ts","kla ar","- -","S mith","w w","en car","ou de","men tion","equi p","ruim te","Jap an","S ol","en en","an ge","me teen","est ará","pas sion","port es","any thing","nombre uses","stra at","pue da","gue z","acces s","Fern ández","Pier re","? ”","J er","V illa","f rap","in dé","in frastruct","te ken","ad io","ij s","has e","gu ard","acti vi","offic ers","reve al","vidé o","l és","r endre","re ti","con dam","con clus","ver haal","cam ente","cos t","aut on","sit es","On der","partij en","S án","V ers","g la","j ij","m ans","de tal","la k","ad oles","au lt","ente mente","end as","za am","iden tif","sel l","rela ted","allow ed","cover ed","Fis cal","Sán chez","al er","to f","op ti","fi que","lan cé","cé dé","expres ó","participa ción","a cht","f ers","é dition","re tir","id ée","ra tions","ed an","gu a","bo eren","cr yp","gan ar","Mar ía","waar om","It ali","lie ux","program ma","moment os","onge veer","6 7","G on","H or","d ents","d anger","h ang","i v","p las","u ales","re cherche","di miento","no od","po d","mon tr","hij o","prop io","prote ction","anun ció","develop ment","alg ún","rése au","propu esta","Sep tem","que dó","di vis","di entes","op position","me ur","ter me","van g","per fect","pro to","ca í","waar door","Fe deral","acces o","enor me","schijn lijk","priva te","S ha","T ele","in qui","to ek","ra cht","co vid","lu z","ste p","pen al","wel ke","str at","produ it","No ve","pi os","sor tie","dro its","reun ión","P lan","f útbol","om o","tr im","ter cer","son s","ser án","tar jet","peti te","Bel gique","mode lo","alg una","9 5","M ient","W al","e inde","m ol","ge komen","ba ja","uer to","201 3","let ter","B S","P i","de bate","of re","ge ving","pro tagon","im mediate","so la","Des pués","Ho w","defin i","vícti mas","étr ang","R utte","b ly","n ord","er op","ar lo","qu ée","it ario","ver ander","par ts","pu do","car a","don nées","leg gen","Me di","adi ó","event s","gebe ur","potenti al","B ul","O cto","de ed","as ter","ad amente","com ien","gen es","té mo","bo y","poli tiques","fic ado","iss ant","agr icul","gau che","uite indelijk","gesti ón","M P","s oft","en as","di mir","par k","ne emt","ment en","mu la","acti vités","actu ellement","ear lier","maand ag","comen zó","rése aux","plat form","Mient ras","V V","t ante","re chter","at ors","il er","no thing","pa gar","ill é","posi bilidad","centr ale","Pla y","Cour t","Septem ber","5 8","B ien","D ra","M A","m ê","r ie","w rote","é lé","de mocra","es time","lo ts","ant wo","ha ven","vi vi","na cht","tra ite","zo dat","vec inos","cla ir","jer os","informa tions","wil de","Neder lan","conse il","Oekraï ense","bert ad","gebruik t","fig ure","vehícu lo","voet bal","A an","b ido","é vo","re chts","be zig","po demos","zo veel","sen si","gu ar","br an","hist or","hon or","américa in","Aug ust","canti dad","c ente","é x","lo os","20 00","co û","ses sion","lit er","zoek ers","gén é","kle ine","ata que","Zel ens","A h","L at","de ra","li et","pro be","pro jets","cre cimiento","pri ma","situ atie","ff en","blo ck","Man uel","jug ador","N F","g ó","par fois","com mune","pos te","pres iden","sch er","esti ma","territ oire","Colom bia","Grou p","Ped ro","r ijk","er var","la quelle","se ek","ver oor","ic ans","20 10","Ch ief","vic times","sie te","solu tion","économ ique","Nig eria","opportun ity","Tex as","B ri","G ol","r ont","and en","op os","si que","res ter","para ción","mal a","vac u","work ed","ça ise","caus a","W ant","h ér","h ulp","mil jard","cam po","hist ór","cambi os","Pe ople","near ly","permi te","Congres o","conside ra","teri ores","J on","a us","a head","c œur","f ather","ge voel","dé non","mar ch","sal ari","bus ca","vor ige","elec ciones","Char les","maat schap","z omer","an as","re ac","la test","qu ences","je fe","sen ior","mu estra","zon as","econom ía","identi al","certa ines","proye ctos","meille ur","cues tion","mús ica","toek om","Z a","a per","c ando","c ciones","é tant","on to","is ra","be came","ni ks","ho wever","mas ks","kra cht","Te ch","moe der","econó mica","Ré publique","quo ti","b ond","re ach","as k","lo wer","cam era","lij st","ob st","waar bij","part amento","prop ose","vic toria","ima ges","neces s","Austr alia","B on","R ou","a ti","f ie","z at","en sure","ou ders","di x","ma atregel","si gui","cha î","201 2","Ro bert","war m","estudi o","transi tion","Rep ública","Barcel ona","Nove mber","H on","U N","a im","w ijk","qu alité","am éli","lo k","tu ig","pre ven","vol on","sch ade","vor m","tal ent","Ho y","hal ve","atta que","Ri ch","ases in","R S","S il","U r","e valu","l ème","p les","al de","que dar","ge worden","ra ad","com mission","ie dad","der o","ct ors","fr ir","hel pen","vac una","prob lème","Munici pal","E so","S us","es tr","be leid","vo ire","mo oi","da ily","co de","inter ior","dro ite","isten cia","president a","encontr ar","Univers idad","évé nement","rapide ment","Octo ber","I S","N ico","f ís","m ère","p ij","es fuer","in aug","or ient","li a","po ol","produ ce","Th omas","sit o","jou eur","Seg ur","expe ct","vri end","bour g","origin al","tré al","syn di","D ar","M id","a vent","el se","at temp","ta kes","su ff","ro y","co ordin","pres u","tor y","land s","play er","condi tion","lla m","manif esta","gez ond","offic er","invol ved","L uego","s hip","tra vaux","lu cht","cer can","cent es","who le","prés ence","tel s","mal gré","Qu and","habit ants","nad at","Cou pe","J ac","T es","j ud","n alis","p ly","in middels","tr am","af faires","Ch ine","bet re","geb racht","Isra ël","villa ge","grow th","2 50","K ing","p ied","in corpor","ver de","lo y","fin i","fin alement","Ci vil","différ ents","europé enne","vícti ma","hac en","Cham pions","ontwik kel","C er","P eter","R C","W ie","al ing","as te","con ce","ge zet","mo do","cu ales","inter és","gel ijke","don ne","ord re","pi ers","cono ce","arri ve","ref us","kil ó","tek ent","G el","un to","ac cès","ra con","for mas","ber o","poli tici","imp ac","quar ant","qual ity","6 2","B ras","J or","a prove","c teurs","ci en","com pen","com bin","pu er","éta blis","No t","cl in","rela cion","To en","mic ro","sab er","lon ger","technolog y","comprom iso","mak kelijk","6 4","V alle","p adre","al u","ad vo","ge k","des tru","man que","va k","ist an","gi os","tro om","Com mun","long temps","organis atie","perio de","sche du","Vla dimir","A la","C ô","V S","f os","f ight","li cen","da ga","ef fort","mar que","cer ti","sta ge","esta ban","publi can","ning s","rus o","ato ire","care er","tí tu","f ase","l lu","m bros","in side","au près","gen e","As soci","daar om","wa gen","continu ed","wan neer","gol pe","Gre en","a ven","k ie","k open","p á","en ch","es cue","ch at","gen re","cent rum","vis ible","lij n","mun dial","indi ca","bus car","Inter national","cabe za","épo que","R om","Z ijn","é di","in ted","ar ro","ci pl","ta it","vi vir","ex act","pu edan","pa id","famili ar","hand s","dem ons","M any","re ment","he art","mo di","ré gu","min d","poli ci","cti vos","contr ôle","expli ca","trabaj ando","kle in","dri ve","recu er","A ri","H an","V ille","c adas","de por","er ie","con ci","des ig","pu estos","pa ción","mi ge","Mar oc","part ner","gra ph","gro ter","inf lation","exper t","zit ter","Bel gi","mejor ar","emer gency","vien nent","Conse jo","tit ular","associ ation","h us","s ang","as su","li eg","ge vaar","me este","be le","mo ving","fe est","hab il","Fe bru","gru pos","kli maat","A insi","M ijn","W in","a cep","v lo","it es","pr ol","ir á","per fe","cu ad","De mocra","hab rá","wo or","whi te","him self","mie mbros","deli ver","améli or","c ité","m am","ol y","ie den","cu lo","ha pp","ri chting","vi vre","na ges","De cember","pel i","cri ti","fuer za","apo y","defen sa","Mus k","execu tive","N ie","a vez","f igh","f ast","de ep","li ving","pe ine","pro che","dis trict","cal les","Mon tréal","Pr im","vul ner","manage ment","Febru ary","P outine","T ro","a teur","ad y","us tra","we gen","sor te","trou ve","permet tre","profession nel","estra te","employe es","A D","G uer","m ée","o bras","u ally","er ing","re trouver","at ori","par lement","si a","cion ar","ste ll","cr íti","mas i","any one","reci bió","conf ér","inde pen","Pr of","moei lijk","B y","E S","p uso","en vi","er ía","ur ch","ma ge","ic amente","ab eth","pro ken","da ción","voor bij","min i","ger en","prop ia","ning una","políti co","appro ach","wi fe","voer der","6 9","o cho","s core","t ance","é che","il ing","gu ien","hor en","né go","famili e","ciudad anos","lea ve","sep t","candi date","orig ine","agen da","voit ure","capit ale","C ro","L et","V is","h es","m our","Ç a","se ur","con den","ge vonden","des car","mo vie","ten go","mar co","fir m","comp et","organ ización","ai der","ima gin","club s","issu ed","appli cation","virtu al","psy ch","vertel t","F on","P I","es ca","at ura","par mi","im pres","dé rou","tra de","pre cies","poli cy","major ité","dise ase","dipl om","adel ante","industr ie","diag nos","K on","K amer","M ol","de jó","in medi","em d","sh ut","ches ter","fran çaise","eu w","abil ité","Flor ida","donder dag","custom ers","g ather","t amente","ri val","na ción","ly ing","cre ate","cti es","dig it","permi tir","Bru x","dins dag","Duits land","R od","V O","c te","d augh","k amer","p ire","s ha","te au","as ing","ur y","li es","op tion","gr en","ven ez","cé ré","comp éti","nat ur","stra f","daga vond","B i","t and","z ag","á reas","our ces","vo eren","va kan","sch ul","ina ción","Rus sen","geb ouw","stud y","blis hed","happen ed","CE O","Gover nment","mondi ale","7 7","C ó","G T","L on","f arm","v all","te mas","le uk","con cent","per mit","vi le","ken nen","fin ance","hom es","To dos","dou b","represent a","soli dar","affir mé","activ ité","5 9","g y","n ab","s ports","w ens","ç ois","it aria","con tain","par le","par ler","ze ven","sta p","vis i","dr ama","sol d","prof un","dom a","comple x","san ctions","imp acto","encuent ran","hui dige","Mos cou","region al","excep tion","quoti dien","5 4","M s","V eren","a prob","r ente","r end","x y","y endo","he ar","cu lar","va der","Com isión","daar na","four n","oper ation","Dis ney","hô pital","V in","W K","k ig","l ant","v uur","in dig","il ar","per du","pa pel","dé s","af fi","vir tió","kw amen","políti cas","enf ant","pur ch","vuel ta","Pu bli","Veren ig","M E","t jes","ter echt","cu m","dé mar","dis cipl","fi é","vic time","zich zelf","sub si","cré er","prote ct","jur y","M ore","s low","de cre","re conna","li en","dé mocra","ho od","was n","inst all","ug g","fran ch","hoe veel","colle ge","Ge orge","demand a","rés er","resol u","estruct ura","J ust","M ême","k ids","le er","di cht","ma tière","be elden","der ro","ha te","mis ión","gel s","fel t","minu te","commer cial","habr ía","Associ ation","h ors","v lieg","re cha","un is","ver mo","me z","ie ux","qui era","ga tions","pour tant","pres que","pré cise","meer dere","som s","long ue","chten d","cro w","podr án","constru cción","amb ul","besch ik","difficul t","distan cing","quick ly","palab ras","artic le","b ill","f era","f onds","v ali","ac teur","be tekent","ther n","ele cción","mid dag","dru gs","investiga tion","materi al","estadouniden se","tarjet a","B at","D uit","a id","o il","t ôt","é cri","ac teurs","des c","des pite","man ager","dis cu","fi ets","can adien","gu ay","mat eria","cla ve","expli qué","prue ba","Cru z","Segur idad","6 3","C opa","c í","k illed","m ons","ar mes","el l","con fron","ma u","ne igh","fa cil","hu izen","bet aal","ima gen","tell en","verk iez","infla tie","expéri ence","C y","C lar","D P","M C","T O","i al","k lin","m ys","w ish","é vit","ar o","ti ma","el k","li bertad","ver trou","da cht","dé ten","gra f","Amer icans","comun icación","cons idé","environ nement","procha ine","territ orio","faci li","conser va","sum mer","scen e","B ern","C l","E ar","T ij","j onge","l ande","re mains","se mi","be per","vo ix","can not","nu mb","sol dat","cri me","titu de","neces idad","enti dad","tell ing","demand é","lead ing","Austr ali","tiz ens","Justi ce","scre en","B rus","c les","w ants","ar ra","ent rée","to er","pr in","id ge","bo d","mon tre","waar schijnlijk","201 1","lors que","fut bol","geme en","Pri me","alco hol","sû r","Mig uel","5 3","G lo","K an","S én","b ers","e ither","i di","le kker","ci dos","ré alité","gel u","ges loten","prés identi","blo que","Mo ham","fu gi","dou te","justi cia","précis é","gobern ador","plata forma","zieken huis","5 1","s tri","w inst","é na","de le","al ie","ter ms","tu vieron","ire ment","wor d","br ind","nu mer","og ue","fue go","anci as","appe ar","volle dig","extr ême","Dani el","amig os","O ri","R eg","m ali","s ale","€ ™","ic ally","dé pu","ga in","ek t","ding s","aliz ado","sup pl","char acter","Dur ing","Mic hel","expl or","L A","l iste","y enne","de lijk","in versión","ar mas","th in","ge had","ac ab","do ctor","tor s","As semb","Gu ar","deci ded","opera ción","milit ary","unt amiento","économ ie","mandat ario","effe ctive","voya ge","P atr","ti ll","con e","sur pris","all á","Le y","ins is","gh an","inter ro","tri un","mat éri","tal k","To do","individ ual","Gar cía","particuli èrement","enferme dad","A dam","J im","b ás","Á n","voor zitter","De ux","lu cha","án dose","hab la","str ugg","alle ged","eur ope","bat ter","má ximo","Phi lip","fá cil","7 00","E ast","M ás","b aan","g és","k leur","s osten","z á","ï n","os os","st ore","ro de","af fe","En erg","sen se","br ought","lis ta","Ro ck","leid ing","españ ol","Vic toria","abo ve","bab y","numb ers","A fr","E very","T al","a ien","al um","is ing","as sure","th ous","ge drag","ab og","st on","pre uve","gi ving","val ue","pri me","pré vu","sé lection","To t","them selves","Fran çais","sle chts","bie den","vien da","spé ci","explo it","alcal de","kiló metros","H ab","L an","la t","am ount","for ms","mo ved","mo bili","ap pu","wit ch","af han","cer em","Ro dr","bal ance","leg d","bles s","cle an","Bel g","regi o","vro eg","provi ded","fabr ic","E je","F ir","i ba","k ill","â ge","de mocr","al y","li mp","do ors","ven tion","cas h","ien s","tar get","part ners","iz quier","import ance","ko cht","To ch","fuer zas","grou ps","reven ue","communi ties","cumpli r","prue bas","kilom eter","vakan tie","K ir","M S","a ties","c ita","f ille","l utte","r ust","er den","al guien","un tos","se de","and ro","est s","ig ne","ke ur","ins pe","mis sions","ste lt","sus pect","puis s","arr êt","tegen woor","realiz ó","stud ent","spo kes","Bu enos","intér êt","auth orities","venez ol","6 1","M ed","k las","p ad","de zelfde","ch u","di er","der rière","ab lo","ten ue","im pression","hi cieron","ag ent","sen tir","hab l","sti t","medi ante","posi tie","nie mand","stru cture","génér ale","auth or","exam ple","syste em","reken ing","p elle","ac count","vo ters","ju ge","produ ct","lan z","Ro t","show ed","through out","trava iller","politie k","ísti cas","Institu to","addres s","Anton io","cij fers","Brus sel","r ó","r op","al bum","ac un","com pos","tra ded","open ed","bes cher","Est amos","ouver t","ino is","especial mente","econó mico","vér it","I r","L C","g am","w onder","ê ts","er der","dos is","ves ti","mit ad","ouver ture","ori al","médi as","distin tos","Chi le","secret ario","Fiscal ía","obst ante","A ires","P ay","a é","e ight","f oun","á logo","en registr","ar res","as pir","ge middel","pro je","ri ch","hi ver","La ur","car acter","vis ita","An geles","dig d","cel les","sh ared","pat ron","Pr in","mag ne","Daar naast","équi pes","recei ve","différ entes","impu ls","sele cción","éx ito","Brux elles","suppl ément","a j","ou bli","et tes","par ta","ra ak","com pla","ex ig","sur prise","car te","pi dió","bel ow","Col le","espa ce","pho tos","edi ción","restaur ant","cito yens","técn ico","plann en","7 2","H y","N ic","g ée","h uit","u é","re view","at tr","li f","ver antwo","pro té","ven te","all í","dis tance","person eel","land se","but s","produ cts","hij a","inst ant","cla si","plo y","esto y","pat ri","Of fice","job s","plaat sen","résu lt","communic ation","toekom st","Democra tic","B l","D ou","F estival","S port","r ê","é cu","be y","im porta","po or","pa go","ig nor","ser ve","wer king","entre ga","Man chester","ajou te","acci dente","previ ous","symp tom","moo ie","Gron ingen","inste ad","7 8","B ig","C ris","P ala","i gens","z ed","í guez","it ar","aan we","He b","sou ligne","concer t","minu ten","commen cé","ísti ca","Rodr íguez","E T","I g","L im","a pren","l our","de mi","ge vallen","be lasting","man u","ken s","ele mentos","arr an","trans par","cap able","pop ul","consu mo","zeg d","milit ar","concern s","analy st","limi ted","elim in","K y","g las","h ous","es pos","or o","se y","mu se","ines s","sig ned","Qu i","place ment","vari ous","podr á","spo t","ster k","buil d","initi ative","logr ar","asi el","escen ario","confér ence","e qu","h ur","o lie","p hase","op los","for mat","ro ck","trans porte","contin ues","fil s","char ges","ron de","cré dit","rec ru","anim al","atte int","Dire ctor","technolog ie","argu ment","véhicu le","Has ta","Eje cu","v ado","w all","de cen","ver keer","ac ce","est é","em de","mar cha","io en","ju icio","sal ida","sig nal","daar mee","commun auté","av y","hand en","Die go","provin cial","big gest","élec tri","ayud ar","tam poco","seem s","P ue","e ch","w r","ch anger","tr ue","no ted","ie der","for ced","pe ur","Mar c","premi ères","famili ares","Ge or","hy po","logr ó","ocur rió","bâ ti","trim estre","isra éli","Duit se","résult ats","C C","D er","P R","a part","b ag","w ijn","ci fra","ver te","ra ge","lu ch","ap un","pre fer","men ores","car á","An der","añ adió","import ancia","present ó","Por tu","Coun cil","fundam ental","pret ty","maatregel en","happ y","A L","r are","de tails","at ra","be grij","do ende","pe ace","ha ald","sa ges","ho gar","pas ó","pres ión","br ut","contr ac","mal ad","Fran çois","hacer lo","stat us","respons abilidad","áti cos","Europe an","llev ó","dispon ibles","mou vement","évit er","G or","H un","J es","b ande","c het","de mostr","is ed","qu a","pe dir","pa kken","ré vé","bo os","cre o","mé de","bet rokken","via je","quar tier","conoci do","level s","requi red","véhicu les","maxim um","1 er","C erta","F el","P os","S ing","e gen","w ers","al em","su ffer","ab us","da vantage","pa per","entre vista","mat es","lan cer","ker en","sig né","energ y","Congres s","eas y","5 6","F ar","F am","G een","M ir","N S","S é","d ón","f ied","al lo","par tes","ma tig","com pris","mo to","hu ge","tri al","nom in","comple te","lleg ada","tecn ología","% )","C up","b b","g era","s ki","u me","an ne","re pe","ge volg","per ten","son g","pas sage","che min","mu ziek","cur r","cé lé","dre ig","prob ably","trabaj os","nivel es","éle ction","restaur ants","bom bar","plu part","Secretar ía","8 8","P el","c ussi","l ise","ur gence","ma kers","op tions","tur es","ele g","ph ys","won en","Sin ce","bé co","redu cir","secre tar","Chris tian","affir me","num mer","honder d","mê mes","daugh ter","J en","J am","K ore","e i","m ètres","í os","re ur","ti ble","ver dad","ter ri","for mar","gen d","mi te","af fron","ru les","ble ek","car re","An ne","art ícu","ren du","hel ft","contin uer","Su pre","Ser vi","segur o","edu cación","sci enti","compar ed","Willi ams","inaug ur","quarant ine","arres ted","F re","L y","d entes","f ij","h in","p one","w ol","z ing","ar is","le es","qu en","qu és","at ac","ter cera","ac ing","ri te","ri ghts","ex cus","mi que","ob tenir","pri vé","pi è","Me an","dy nam","inté gr","lear ning","profesion al","F err","a venir","r ise","la ires","ent ly","se an","li vre","ac coun","for mes","ly mp","pre ten","ag ents","ges proken","Con su","tel é","fun d","ister en","élec tions","Sco tt","suppor ters","1 20","d red","r ied","r ather","s ad","é cran","en kel","de partment","on ie","or en","gen de","go o","qui eren","af ge","mu le","ek s","inter nation","jo in","gar der","bu urt","Fr om","dif fus","lla mado","kon den","Ap p","actual mente","atr ás","econó mic","coment ó","speci fic","evid ence","seri ous","gewel d","B our","C H","s cr","v at","com bus","vo ed","su ma","su fici","pro cé","den kt","ho ger","fi cial","cou ps","Ch ica","tien de","art is","éta ire","publi ca","sto f","main tain","So ci","incre ased","Cas a","expe cta","américa ine","Mal gré","distin tas","confer ence","ocas iones","vehic le","grat uit","B la","O ut","m bo","ti eron","ac udi","dé cès","tra f","ser vir","sti g","produ cto","prop re","Pro vin","gover n","werk ers","til lo","edu ca","ator io","soir ée","augment ation","Justi cia","industr ia","Lon don","I T","J orge","N H","S anti","i eten","u ari","ó li","la as","ci tizens","di um","com mon","si è","pro ven","tor neo","hu ur","fam illes","exper iment","resul ta","gebe urt","Ca be","ciné ma","ejer ci","consegu ir","pelícu la","soulig né","T ik","c ale","k ent","v et","á genes","la da","op pos","per der","im ágenes","vi ven","ex porta","ven us","cia ción","cre ated","nor te","local idad","fu entes","real ity","cré ation","look s","Pres idente","cambi ar","sho o","paci entes","espa cios","lear n","retrou ve","C at","P ort","k ap","as is","ci ar","ver volgens","su fri","ab sence","ro b","ho t","ho li","mas k","ún ica","Ro ad","twe et","dam age","Mi ke","étu de","ON U","ram ient","Harr y","inicia tiva","gespre k","Belgi ë","E E","P O","i va","p adres","z ada","en cu","re vis","it ali","ce ment","ge zegd","au teur","com parti","gr atis","pa in","ré es","pre vent","af fect","wor ds","men s","cre ar","ba isse","its elf","Con tr","aliz ó","Daar om","solu tions","match s","aseg ura","audi ence","Ay untamiento","treat ment","hus band","tand is","C ámara","L am","L ast","a frica","g ast","o gen","é ten","ar chi","or ie","le ts","qu ence","of rece","ón ica","dé cl","dis tr","inter pre","her o","her ramient","str ess","sp ent","él è","jan uari","hoog te","emp ê","enor m","vale ur","stan dig","sigu en","Carol ina","sigui ente","B et","B lo","b is","b alle","g one","g ust","p antal","s ales","è de","in sur","ti é","ent or","op ción","du da","del ing",
[...]
