{"version":"1.0","truncation":null,"padding":null,"added_tokens":[{"id":0,"special":true,"content":"<UNK>","single_word":false,"lstrip":false,"rstrip":false,"normalized":false},{"id":1,"special":true,"content":"<SEP>","single_word":false,"lstrip":false,"rstrip":false,"normalized":false},{"id":2,"special":true,"content":"<MASK>","single_word":false,"lstrip":false,"rstrip":false,"normalized":false},{"id":3,"special":true,"content":"<CLS>","single_word":false,"lstrip":false,"rstrip":false,"normalized":false}],"normalizer":null,"pre_tokenizer":{"type":"Whitespace"},"post_processor":null,"decoder":null,"model":{"type":"BPE","dropout":null,"unk_token":"<UNK>","continuing_subword_prefix":null,"end_of_word_suffix":null,"fuse_unk":false,"vocab":{"<UNK>":0,"<SEP>":1,"<MASK>":2,"<CLS>":3,"!":4,"\"":5,"$":6,"%":7,"&":8,"'":9,"(":10,")":11,"*":12,"+":13,",":14,"-":15,".":16,"/":17,"0":18,"1":19,"2":20,"3":21,"4":22,"5":23,"6":24,"7":25,"8":26,"9":27,":":28,";":29,">":30,"?":31,"A":32,"B":33,"C":34,"D":35,"E":36,"F":37,"G":38,"H":39,"I":40,"J":41,"K":42,"L":43,"M":44,"N":45,"O":46,"P":47,"Q":48,"R":49,"S":50,"T":51,"U":52,"V":53,"W":54,"X":55,"Y":56,"Z":57,"`":58,"a":59,"b":60,"c":61,"d":62,"e":63,"f":64,"g":65,"h":66,"i":67,"j":68,"k":69,"l":70,"m":71,"n":72,"o":73,"p":74,"q":75,"r":76,"s":77,"t":78,"u":79,"v":80,"w":81,"x":82,"y":83,"z":84,"~":85,"£":86,"¦":87,"«":88,"®":89,"°":90,"²":91,"³":92,"´":93,"·":94,"º":95,"»":96,"¼":97,"½":98,"À":99,"Á":100,"Ä":101,"Å":102,"Ç":103,"È":104,"É":105,"Ê":106,"Î":107,"Ï":108,"Ô":109,"Ö":110,"×":111,"Ø":112,"Û":113,"à":114,"á":115,"â":116,"ã":117,"ä":118,"å":119,"æ":120,"ç":121,"è":122,"é":123,"ê":124,"ë":125,"ì":126,"í":127,"î":128,"ï":129,"ð":130,"ñ":131,"ó":132,"ô":133,"õ":134,"ö":135,"ø":136,"ù":137,"ú":138,"û":139,"ü":140,"ā":141,"ă":142,"ć":143,"č":144,"ē":145,"ğ":146,"ļ":147,"ł":148,"ń":149,"Ō":150,"ō":151,"Œ":152,"œ":153,"ř":154,"ş":155,"Š":156,"š":157,"ū":158,"Ÿ":159,"ž":160,"ș":161,"̀":162,"́":163,"̂":164,"̈":165,"̧":166,"α":167,"а":168,"е":169,"с":170,"ᵉ":171,"‐":172,"‑":173,"‒":174,"–":175,"—":176,"―":177,"‘":178,"’":179,"“":180,"”":181,"‡":182,"•":183,"…":184,"‰":185,"′":186,"″":187,"‹":188,"›":189,"₂":190,"€":191,"™":192,"−":193,"▪":194,"▶":195,"◆":196,"☹":197,"♦":198,"✍":199,"✓":200,"❤":201,"➢":202,"➤":203,"":204,"ﬁ":205,"ﬂ":206,"️":207,"﻿":208,"es":209,"en":210,"on":211,"de":212,"an":213,"le":214,"re":215,"ou":216,"er":217,"ai":218,"ti":219,"qu":220,"la":221,"ent":222,"is":223,"ne":224,"ar":225,"au":226,"et":227,"in":228,"te":229,"ur":230,"pr":231,"les":232,"or":233,"our":234,"se":235,"tion":236,"ce":237,"it":238,"que":239,"il":240,"des":241,"ch":242,"un":243,"tr":244,"om":245,"si":246,"ment":247,"al":248,"du":249,"dé":250,"av":251,"ant":252,"as":253,"di":254,"ont":255,"est":256,"li":257,"ans":258,"par":259,"me":260,"us":261,"ré":262,"té":263,"une":264,"el":265,"pour":266,"ait":267,"con":268,"at":269,"ation":270,"ri":271,"ci":272,"oi":273,"ais":274,"qui":275,"ag":276,"pl":277,"eu":278,"ac":279,"dans":280,"com":281,"am":282,"sur":283,"vi":284,"pro":285,"po":286,"pas":287,"tre":288,"ec":289,"res":290,"ous":291,"és":292,"ouv":293,"ée":294,"ap":295,"ain":296,"son":297,"ab":298,"ter":299,"ff":300,"ol":301,"urs":302,"pu":303,"ois":304,"su":305,"ale":306,"aux":307,"aire":308,"mi":309,"ès":310,"Le":311,"plus":312,"ni":313,"end":314,"ét":315,"ser":316,"ère":317,"ons":318,"per":319,"ces":320,"ran":321,"ité":322,"ex":323,"été":324,"20":325,"im":326,"né":327,"tou":328,"por":329,"elle":330,"avec":331,"os":332,"che":333,"ra":334,"ers":335,"man":336,"pe":337,"ux":338,"pré":339,"cu":340,"ve":341,"sa":342,"oir":343,"co":344,"pé":345,"lu":346,"tes":347,"fi":348,"sé":349,"ge":350,"ques":351,"tu":352,"La":353,"for":354,"ette":355,"lle":356,"ie":357,"sont":358,"mes":359,"mo":360,"der":361,"mb":362,"ses":363,"ins":364,"jour":365,"mé":366,"ille":367,"Il":368,"age":369,"ma":370,"ir":371,"Les":372,"min":373,"oc":374,"ien":375,"gr":376,"entre":377,"ten":378,"pa":379,"mar":380,"lé":381,"fin":382,"ts":383,"ue":384,"mais":385,"sion":386,"ad":387,"ro":388,"so":389,"près":390,"ors":391,"cé":392,"aut":393,"aine":394,"mp":395,"ction":396,"mis":397,"fait":398,"ot":399,"puis":400,"cette":401,"00":402,"eur":403,"peu":404,"mon":405,"ence":406,"vo":407,"»,":408,"deux":409,"op":410,"cer":411,"ssi":412,"pre":413,"dis":414,"parti":415,"ob":416,"gé":417,"ven":418,"ance":419,"gi":420,"ants":421,"don":422,"cont":423,"tout":424,"cou":425,"aient":426,"En":427,"bu":428,"eux":429,"tri":430,"st":431,"ann":432,"ations":433,"déc":434,"ens":435,"je":436,"pris":437,"être":438,"ême":439,"cr":440,"teur":441,"ouver":442,"nous":443,"dent":444,"leur":445,"lon":446,"premi":447,"port":448,"nes":449,"eau":450,"aires":451,"nement":452,"vé":453,"mil":454,"sou":455,"cour":456,"met":457,"tres":458,"202":459,"tique":460,"comm":461,"able":462,"pla":463,"avait":464,"derni":465,"tions":466,"jou":467,"gu":468,"était":469,"endre":470,"comme":471,"nouv":472,"comp":473,"ner":474,"tin":475,"alement":476,"vous":477,"ver":478,"vis":479,"ord":480,"aussi":481,"ys":482,"alis":483,"même":484,"avoir":485,"inter":486,"lui":487,"no":488,"person":489,"ér":490,"rer":491,"ard":492,"faire":493,"ème":494,"bli":495,"omb":496,"and":497,"oire":498,"rap":499,"prés":500,"après":501,"pi":502,"ils":503,"car":504,"Ce":505,"Ch":506,"ren":507,"ph":508,"em":509,"contre":510,"qué":511,"pri":512,"ble":513,"sie":514,"trav":515,"bien":516,"vers":517,"ure":518,"uni":519,"mer":520,"teurs":521,"19":522,"Je":523,"ca":524,"dev":525,"gran":526,"minis":527,"lis":528,"enti":529,"ég":530,"Un":531,"lo":532,"tif":533,"ron":534,"sui":535,"ler":536,"jours":537,"fois":538,"aff":539,"quel":540,"publi":541,"lors":542,"depuis":543,"Et":544,"poli":545,"lan":546,"ui":547,"avant":548,"acc":549,"jet":550,"col":551,"att":552,"ats":553,"ail":554,"tour":555,"ves":556,"soci":557,"jus":558,"hi":559,"tement":560,"va":561,"rait":562,"dire":563,"cher":564,"pli":565,"pays":566,"ig":567,"main":568,"présent":569,"vent":570,"coup":571,"Mar":572,"fa":573,"sor":574,"ine":575,"On":576,"très":577,"Fran":578,"ju":579,"nation":580,"Pour":581,"eff":582,"plu":583,"ités":584,"prési":585,"nu":586,"ense":587,"core":588,"cons":589,"ères":590,"fon":591,"Mais":592,"ici":593,"temp":594,"tis":595,"Qu":596,"elles":597,"ul":598,"aille":599,"kr":600,"enne":601,"sans":602,"ang":603,"off":604,"tant":605,"ments":606,"Au":607,"peut":608,"milli":609,"jeu":610,"».":611,"encore":612,"pos":613,"autres":614,"temps":615,"dit":616,"part":617,"ali":618,"diff":619,"lig":620,"ents":621,"Par":622,"ion":623,"mbre":624,"ées":625,"trois":626,"do":627,"ist":628,"leurs":629,"tra":630,"De":631,"pres":632,"\",":633,"éle":634,"sera":635,").":636,"Une":637,"év":638,"également":639,"ante":640,"bon":641,"où":642,"ains":643,"nées":644,"ombre":645,"ric":646,"all":647,"lement":648,"fr":649,"hom":650,"itu":651,"int":652,"oy":653,"monde":654,"aison":655,"moins":656,"ing":657,"rou":658,"og":659,"vie":660,"ture":661,"président":662,"lar":663,"pel":664,"ête":665,"cent":666,"cert":667,"dont":668,"équi":669,"nombre":670,"produ":671,"opé":672,"ures":673,"cré":674,"cours":675,"cas":676,"place":677,"tous":678,"bi":679,"posi":680,"its":681,"sy":682,"2022":683,"tive":684,"indi":685,"fran":686,"non":687,"rie":688,"ct":689,"sieurs":690,"th":691,"vre":692,"ages":693,"ique":694,"mois":695,"org":696,"but":697,"can":698,"cri":699,"jà":700,"annon":701,"fil":702,"ris":703,"pec":704,"alité":705,"An":706,"année":707,"Dans":708,"ché":709,"erre":710,"mat":711,"premier":712,"Nous":713,"men":714,"bles":715,"lè":716,"contr":717,"arri":718,"pend":719,"déjà":720,"),":721,"cul":722,"personnes":723,"sol":724,"sant":725,"cap":726,"anis":727,"form":728,"lation":729,"inté":730,"ay":731,"pouv":732,"dernier":733,"gouver":734,"sement":735,"trouv":736,"cin":737,"mont":738,"anci":739,"cip":740,"pon":741,"tiques":742,"sous":743,"tent":744,"gar":745,"géné":746,"rê":747,"cur":748,"201":749,"nel":750,"donc":751,"rus":752,"semb":753,"amé":754,"000":755,"bé":756,"première":757,"France":758,"ise":759,"ministre":760,"dou":761,"plusieurs":762,"tru":763,"alors":764,"mal":765,"toujours":766,"fer":767,"tés":768,"rit":769,"ru":770,"péri":771,"ième":772,"autre":773,"bou":774,"ainsi":775,"tiv":776,"trans":777,"bil":778,"cla":779,"deman":780,"hu":781,"ales":782,"cor":783,"oupe":784,"cre":785,"ass":786,"Ukr":787,"régi":788,"iste":789,"permet":790,"selon":791,"déf":792,"proch":793,"suite":794,"grand":795,"servi":796,"titu":797,"projet":798,"ça":799,"fé":800,"beau":801,"clu":802,"ori":803,"cha":804,"notre":805,"organis":806,"rest":807,"cteur":808,"dre":809,"gouvernement":810,"In":811,"Al":812,"long":813,"Com":814,"sig":815,"mor":816,"Si":817,"ga":818,"prix":819,"amment":820,"conn":821,"là":822,"née":823,"cation":824,"Elle":825,"travail":826,"Des":827,"génér":828,"ges":829,"situ":830,"uti":831,"prise":832,"Cette":833,"not":834,"enf":835,"10":836,"soit":837,"toute":838,"ville":839,"vol":840,"char":841,"prof":842,"aines":843,"chan":844,"agne":845,"Ukraine":846,"sus":847,"prendre":848,"import":849,"ari":850,"expli":851,"Ét":852,"confi":853,"cl":854,"ber":855,"porte":856,"Con":857,"rée":858,"dro":859,"ple":860,"vient":861,"vr":862,"médi":863,"cô":864,"peti":865,"pendant":866,"ez":867,"da":868,"face":869,"amp":870,"hab":871,"fem":872,"nos":873,"nouveau":874,"années":875,"jusqu":876,"eure":877,"lais":878,"fam":879,"fu":880,"quer":881,"voi":882,"ables":883,"nom":884,"voir":885,"ôt":886,"décla":887,"nent":888,"cep":889,"ger":890,"hui":891,"loc":892,"ach":893,"ton":894,"équipe":895,"public":896,"hist":897,"ailleurs":898,"vu":899,"unes":900,"mani":901,"bre":902,"tel":903,"notamment":904,"seu":905,"vel":906,"cet":907,"faut":908,"bat":909,"id":910,"ration":911,"mom":912,"jam":913,"cli":914,"quelques":915,"30":916,"début":917,"match":918,"Rus":919,"emp":920,"prin":921,"chi":922,"2021":923,"possi":924,"ajou":925,"conom":926,"nouvelle":927,"beaucoup":928,"aus":929,"préc":930,"pes":931,"15":932,"ta":933,"Su":934,"rien":935,"rés":936,"appel":937,"utilis":938,"ront":939,"ences":940,"som":941,"lieu":942,"millions":943,"franç":944,"moi":945,"iter":946,"avons":947,"partie":948,"ba":949,"lég":950,"ctions":951,"suis":952,"ole":953,"bas":954,"Mon":955,"venir":956,"cela":957,"ban":958,"one":959,"elon":960,"Tou":961,"eurs":962,"aise":963,"effet":964,"maine":965,"vendre":966,"sep":967,"position":968,"ellement":969,"ill":970,"réalis":971,"mettre":972,"undi":973,"sions":974,"rent":975,"groupe":976,"manche":977,"ck":978,"économ":979,"région":980,"dur":981,"dom":982,"chez":983,"jourd":984,"itaire":985,"prob":986,"contin":987,"doit":988,"déclaré":989,"sent":990,"nant":991,"politique":992,"pen":993,"étu":994,"mise":995,"différ":996,"autor":997,"prises":998,"san":999,"moment":1000,"nat":1001,"porté":1002,"voit":1003,"credi":1004,"vier":1005,"tte":1006,"eng":1007,"Av":1008,"Selon":1009,"sal":1010,"étaient":1011,"Ils":1012,"voy":1013,"Di":1014,"mission":1015,"go":1016,"jamais":1017,"pons":1018,"tir":1019,"édi":1020,"velop":1021,"euros":1022,"Ar":1023,"forme":1024,"atta":1025,"ds":1026,"ente":1027,"ène":1028,"tien":1029,"action":1030,"medi":1031,"heure":1032,"ites":1033,"éb":1034,"Après":1035,"atre":1036,"pouvoir":1037,"ili":1038,"pan":1039,"mée":1040,"gique":1041,"heur":1042,"saison":1043,"jeudi":1044,"ode":1045,"ak":1046,"popu":1047,"nationale":1048,"time":1049,"aint":1050,"vrai":1051,"semaine":1052,"dernière":1053,"mercredi":1054,"aî":1055,"quand":1056,"auc":1057,"viron":1058,"aug":1059,"actu":1060,"nive":1061,"dimanche":1062,"sécur":1063,"homme":1064,"mardi":1065,"dévelop":1066,"lundi":1067,"soi":1068,"rique":1069,"hé":1070,"lt":1071,"mu":1072,"vendredi":1073,"tal":1074,"vou":1075,"br":1076,"prom":1077,"venu":1078,"he":1079,"compte":1080,"uses":1081,"commun":1082,"oin":1083,"dr":1084,"asse":1085,"chef":1086,"film":1087,"sour":1088,"prend":1089,"bes":1090,"seront":1091,"ches":1092,"trop":1093,"Russie":1094,"anti":1095,"grande":1096,"situation":1097,"reg":1098,"plan":1099,"communi":1100,"bo":1101,"toutes":1102,"meille":1103,"ainien":1104,"national":1105,"côté":1106,"18":1107,"seil":1108,"jec":1109,"quatre":1110,"améric":1111,"tré":1112,"représent":1113,"jeunes":1114,"tenir":1115,"russe":1116,"terr":1117,"samedi":1118,"inf":1119,"vil":1120,"Co":1121,"\".":1122,"cit":1123,"veu":1124,"lent":1125,"ôle":1126,"avaient":1127,"pose":1128,"respons":1129,"ances":1130,"site":1131,"tifs":1132,"dat":1133,"rir":1134,"visi":1135,"uel":1136,"ini":1137,"cident":1138,"spé":1139,"arrê":1140,"centre":1141,"annoncé":1142,"arti":1143,"enfants":1144,"afin":1145,"jan":1146,"retour":1147,"répon":1148,"gement":1149,"reste":1150,"cad":1151,"devant":1152,"publique":1153,"votre":1154,"Li":1155,"ût":1156,"environ":1157,"dus":1158,"ébec":1159,"vic":1160,"tie":1161,"tech":1162,"empl":1163,"Québec":1164,"guerre":1165,"ligne":1166,"Br":1167,"question":1168,"cond":1169,"cir":1170,"gram":1171,"augment":1172,"14":1173,"gré":1174,"gie":1175,"ose":1176,"air":1177,"niveau":1178,"éli":1179,"rier":1180,"éch":1181,"vée":1182,"cel":1183,"12":1184,"Mi":1185,"Uni":1186,"camp":1187,"deuxième":1188,"certains":1189,"um":1190,"compag":1191,"heures":1192,"50":1193,"aite":1194,"police":1195,"affir":1196,"cue":1197,"pit":1198,"pass":1199,"téri":1200,"esp":1201,"trouver":1202,"Ré":1203,"cau":1204,"Re":1205,"Sa":1206,"point":1207,"jeune":1208,"tot":1209,"tôt":1210,"ok":1211,"èrement":1212,"atte":1213,".»":1214,"soir":1215,"élec":1216,"Saint":1217,"nor":1218,"poin":1219,"ire":1220,"quant":1221,"cham":1222,"porter":1223,"aurait":1224,"tenu":1225,"cal":1226,"posé":1227,"décis":1228,"histoire":1229,"mie":1230,"aujourd":1231,".\"":1232,"ert":1233,"dien":1234,"minu":1235,"candi":1236,"Eur":1237,"europé":1238,"spéci":1239,"éner":1240,"anim":1241,"pren":1242,"assu":1243,"rése":1244,"sécurité":1245,"Ma":1246,"tives":1247,"possible":1248,"français":1249,"Can":1250,"conf":1251,"act":1252,"ards":1253,"na":1254,"formation":1255,"concer":1256,"rapport":1257,"eaux":1258,"pourrait":1259,"sup":1260,"emb":1261,"vue":1262,"moy":1263,"raison":1264,"ath":1265,"oli":1266,"celui":1267,"fonction":1268,"ement":1269,"souv":1270,"200":1271,"lit":1272,"profes":1273,"activ":1274,"ukr":1275,"let":1276,"précis":1277,"sance":1278,"16":1279,"ukrainien":1280,"bar":1281,"famille":1282,"Ces":1283,"Car":1284,"rem":1285,"const":1286,"raî":1287,"gue":1288,"hô":1289,"quête":1290,"expl":1291,"pect":1292,"olog":1293,"cès":1294,"rière":1295,"termin":1296,"Avec":1297,"matin":1298,"cité":1299,"occa":1300,"senti":1301,"Gu":1302,"Ni":1303,"Jean":1304,"raient":1305,"particu":1306,"chaque":1307,"ancien":1308,"pression":1309,"janvier":1310,"déce":1311,"mai":1312,"2020":1313,"dée":1314,"télé":1315,"lin":1316,"étr":1317,"illet":1318,"quoi":1319,"17":1320,"retrouv":1321,"inves":1322,"crit":1323,"tribu":1324,"Bel":1325,"tée":1326,"viol":1327,"personne":1328,"agit":1329,"solu":1330,"aura":1331,"çon":1332,"ide":1333,"ép":1334,"istes":1335,"gens":1336,"santé":1337,"éco":1338,"rec":1339,"olo":1340,"13":1341,"els":1342,"ceux":1343,"vision":1344,"24":1345,"No":1346,"fais":1347,"lex":1348,"celle":1349,"cinq":1350,"Euro":1351,"nés":1352,"isse":1353,"vid":1354,"série":1355,"occu":1356,"tine":1357,"demande":1358,"déci":1359,"program":1360,"antes":1361,"25":1362,"suc":1363,"mag":1364,"sc":1365,"vin":1366,"aud":1367,"lec":1368,"tenant":1369,"passé":1370,"serait":1371,"to":1372,"art":1373,"Af":1374,"mble":1375,"prim":1376,"particuli":1377,"œu":1378,"connu":1379,"juin":1380,"cle":1381,"feu":1382,"lée":1383,"passe":1384,"mars":1385,"marché":1386,"société":1387,"Son":1388,"peuvent":1389,"Sur":1390,"fier":1391,"princip":1392,"résu":1393,"État":1394,"décembre":1395,"die":1396,"occasion":1397,"abil":1398,"devrait":1399,"Mac":1400,"Ou":1401,"simp":1402,"offici":1403,"ral":1404,"oct":1405,"Unis":1406,"bonne":1407,"cess":1408,"lations":1409,"Du":1410,"sau":1411,"bor":1412,"démie":1413,"mondi":1414,"tière":1415,"rési":1416,"nombreux":1417,"femmes":1418,"val":1419,"era":1420,"ensemble":1421,"cherche":1422,"droit":1423,"ril":1424,"memb":1425,"trice":1426,"justi":1427,"mment":1428,"icile":1429,"indiqué":1430,"dos":1431,"ha":1432,"neur":1433,"vembre":1434,"explique":1435,"accus":1436,"maines":1437,"service":1438,"membres":1439,"Jo":1440,"cro":1441,"ël":1442,"points":1443,"çu":1444,"journ":1445,"donner":1446,"syst":1447,"femme":1448,"As":1449,"St":1450,"appar":1451,"semble":1452,"savoir":1453,"tête":1454,"we":1455,"béné":1456,"Franç":1457,"tard":1458,"novembre":1459,"entraî":1460,"tembre":1461,"ane":1462,"tex":1463,"accue":1464,"lus":1465,"âce":1466,"èle":1467,"diri":1468,"fort":1469,"anger":1470,"développe":1471,"exemp":1472,"maj":1473,"use":1474,"ateur":1475,"dès":1476,"ry":1477,"entreprise":1478,"gag":1479,"ock":1480,"désor":1481,"comment":1482,"11":1483,"sait":1484,"Depuis":1485,"septembre":1486,"veut":1487,"ao":1488,"États":1489,"continu":1490,"bal":1491,"ines":1492,"cadre":1493,"habit":1494,"nage":1495,"tient":1496,"objec":1497,"crise":1498,"four":1499,"aide":1500,"associ":1501,"souh":1502,"général":1503,"cen":1504,"gent":1505,"illes":1506,"désormais":1507,"joueurs":1508,"juillet":1509,"Dé":1510,"ace":1511,"surtout":1512,"Cela":1513,"cée":1514,"loi":1515,"capit":1516,"Pi":1517,"fév":1518,"ps":1519,"poser":1520,"commer":1521,"Tr":1522,"illi":1523,"presse":1524,"tention":1525,"ateurs":1526,"mul":1527,"étab":1528,"véhi":1529,"ensi":1530,"partir":1531,"clas":1532,"vacc":1533,"ager":1534,"oise":1535,"be":1536,"Sé":1537,"oix":1538,"obre":1539,"Europe":1540,"véhicu":1541,"février":1542,"mieux":1543,"nécess":1544,"gros":1545,"ly":1546,"rédu":1547,"haus":1548,"itaires":1549,"assur":1550,"passer":1551,"commen":1552,"compl":1553,"ément":1554,"six":1555,"réus":1556,"pion":1557,"sommes":1558,"accord":1559,"entreprises":1560,"quit":1561,"isme":1562,"isation":1563,"souvent":1564,"services":1565,"explo":1566,"Paris":1567,"période":1568,"octobre":1569,"autant":1570,"font":1571,"titre":1572,"décision":1573,"atique":1574,"dol":1575,"ic":1576,"seul":1577,"manif":1578,"Pre":1579,"semaines":1580,"fédé":1581,"artis":1582,"Is":1583,"Lu":1584,"cy":1585,"nelle":1586,"ade":1587,"dernières":1588,"effec":1589,"rez":1590,"dition":1591,"donné":1592,"seulement":1593,"trait":1594,"orité":1595,"imp":1596,"journée":1597,"gen":1598,"doi":1599,"tan":1600,"évé":1601,"club":1602,"vraiment":1603,"Ne":1604,"Se":1605,"vidé":1606,"Or":1607,"entes":1608,"autorités":1609,"attend":1610,"El":1611,"annonce":1612,"zon":1613,"mobil":1614,"constru":1615,"ier":1616,"ète":1617,"avril":1618,"iser":1619,"fav":1620,"tère":1621,"événement":1622,"vain":1623,"ètres":1624,"esti":1625,"nie":1626,"mort":1627,"connais":1628,"”,":1629,"profession":1630,"ate":1631,"net":1632,"gal":1633,"vict":1634,"crois":1635,"électri":1636,"az":1637,"directeur":1638,"nature":1639,"confir":1640,"exemple":1641,"direc":1642,"Covid":1643,"derniers":1644,"Ph":1645,"enquête":1646,"chose":1647,"dés":1648,"cause":1649,"nique":1650,"milliards":1651,"aller":1652,"état":1653,"dépu":1654,"grap":1655,"tur":1656,"proche":1657,"territ":1658,"culture":1659,"communiqué":1660,"vont":1661,"réf":1662,"ada":1663,"adminis":1664,"érence":1665,"table":1666,"tomb":1667,"parce":1668,"troisième":1669,"comman":1670,"rapide":1671,"séqu":1672,"bour":1673,"jeux":1674,"test":1675,"ze":1676,"abord":1677,"hommes":1678,"dollar":1679,"secteur":1680,"opération":1681,"22":1682,"2019":1683,"matique":1684,"ty":1685,"yer":1686,"consi":1687,"nouvelles":1688,"amen":1689,"système":1690,"Tout":1691,"vaccin":1692,"tran":1693,"travaille":1694,"Premi":1695,"mas":1696,"grâce":1697,"numé":1698,"produits":1699,"charge":1700,"rue":1701,"défense":1702,"gaz":1703,"août":1704,"manifest":1705,"Gran":1706,"gau":1707,"lage":1708,"aliste":1709,"besoin":1710,"initi":1711,"Pa":1712,"ports":1713,"autour":1714,"phot":1715,"lance":1716,"petit":1717,"fus":1718,"ensuite":1719,"important":1720,"pelle":1721,"aute":1722,"ouvert":1723,"mili":1724,"vant":1725,"sujet":1726,"hy":1727,"grav":1728,"cru":1729,"bel":1730,"résult":1731,"développement":1732,"cs":1733,"sens":1734,"maison":1735,"40":1736,"telle":1737,"prê":1738,"aucun":1739,"Mal":1740,"loin":1741,"fs":1742,"venus":1743,"Ber":1744,"ions":1745,"qua":1746,"Comme":1747,"Pro":1748,"21":1749,"las":1750,"2023":1751,"cat":1752,"rac":1753,"cier":1754,"Char":1755,"formations":1756,"date":1757,"œur":1758,"connaî":1759,"bénéfi":1760,"éc":1761,"parole":1762,"condu":1763,"mesure":1764,"ministère":1765,"sique":1766,"rencontre":1767,"travers":1768,"Ri":1769,"jouer":1770,"quelle":1771,"manière":1772,"Afrique":1773,"ek":1774,"ies":1775,"père":1776,"iller":1777,"consom":1778,"ception":1779,"hausse":1780,"gn":1781,"forces":1782,"Macron":1783,"appli":1784,"ève":1785,"autom":1786,"voul":1787,"oires":1788,"propos":1789,"ore":1790,"ond":1791,"armée":1792,"Etat":1793,"enir":1794,"pandémie":1795,"times":1796,"expéri":1797,"Es":1798,"taux":1799,"propri":1800,"quelque":1801,"offre":1802,"Conseil":1803,"Alors":1804,"gues":1805,"production":1806,"Vous":1807,"choix":1808,"dollars":1809,"sub":1810,"pati":1811,"wit":1812,"tem":1813,"preu":1814,"ajouté":1815,"hon":1816,"len":1817,"vit":1818,"tro":1819,"oses":1820,"Vi":1821,"sein":1822,"tron":1823,"permis":1824,"nouveaux":1825,"juste":1826,"teau":1827,"ON":1828,"poursui":1829,"xim":1830,"campagne":1831,"muni":1832,"ras":1833,"tier":1834,"programme":1835,"Em":1836,"cra":1837,"dio":1838,"ouvrir":1839,"finale":1840,"tivement":1841,"Me":1842,"inst":1843,"Don":1844,"rant":1845,"èg":1846,"endu":1847,"olu":1848,"instal":1849,"plutôt":1850,"ayant":1851,"étudi":1852,"population":1853,"iques":1854,"pai":1855,"risque":1856,"champion":1857,"êtes":1858,"chois":1859,"financi":1860,"succès":1861,"23":1862,"pense":1863,"péti":1864,"estiv":1865,"précé":1866,"Lors":1867,"bais":1868,"actions":1869,"partici":1870,"présid":1871,"constitu":1872,"garde":1873,"bilité":1874,"prochain":1875,"chiff":1876,"abilité":1877,"ets":1878,"soutien":1879,"nuit":1880,"démo":1881,"texte":1882,"fou":1883,"suff":1884,"airement":1885,"arrivée":1886,"circu":1887,"minutes":1888,"100":1889,"dû":1890,"Canada":1891,"scène":1892,"Ser":1893,"af":1894,"ki":1895,"ret":1896,"unis":1897,"syn":1898,"œuvre":1899,"pie":1900,"ditions":1901,"collec":1902,"aé":1903,"ège":1904,"ara":1905,"direction":1906,"intérê":1907,"ciné":1908,"nal":1909,"lection":1910,"univers":1911,"mod":1912,"assez":1913,"objectif":1914,"vale":1915,"quent":1916,"base":1917,"candidat":1918,"vais":1919,"euse":1920,"affi":1921,"victoire":1922,"od":1923,"mesures":1924,"soli":1925,"dats":1926,"land":1927,"trai":1928,"rom":1929,"particip":1930,"terrain":1931,"décidé":1932,"droi":1933,"multi":1934,"oot":1935,"sû":1936,"rappel":1937,"cam":1938,"sin":1939,"quali":1940,"faits":1941,"poni":1942,"fac":1943,"vois":1944,"bâ":1945,"reçu":1946,"alle":1947,"venue":1948,"lancé":1949,"60":1950,"neu":1951,"fini":1952,"prison":1953,"grands":1954,"PS":1955,"gence":1956,"vite":1957,"enseig":1958,"clé":1959,"fai":1960,"hor":1961,"pous":1962,"rale":1963,"parten":1964,"toutefois":1965,"énergie":1966,"Mo":1967,"vention":1968,"trib":1969,"russes":1970,"hôpit":1971,"ke":1972,"labor":1973,"personnel":1974,"école":1975,"doivent":1976,"iné":1977,"tration":1978,"sir":1979,"aisons":1980,"pare":1981,"citoy":1982,"rôle":1983,"ablement":1984,"façon":1985,"change":1986,"aucune":1987,"seule":1988,"identi":1989,"Ben":1990,"départ":1991,"lim":1992,"aliment":1993,"conse":1994,"mala":1995,"disponi":1996,"avantage":1997,"sociaux":1998,"27":1999,"choses":2000,"agé":2001,"force":2002,"employ":2003,"oti":2004,"dépl":2005,"midi":2006,"intéres":2007,"organisation":2008,"durant":2009,"investis":2010,"Pou":2011,"occup":2012,"For":2013,"soulig":2014,"maintenant":2015,"justice":2016,"of":2017,"lou":2018,"dossi":2019,"vidéo":2020,"auteur":2021,"ienne":2022,"conseil":2023,"marque":2024,"considé":2025,"haut":2026,"anal":2027,"Bou":2028,"dy":2029,"conclu":2030,"indique":2031,"provin":2032,"données":2033,"regis":2034,"ball":2035,"conser":2036,"28":2037,"AF":2038,"Pas":2039,"rendre":2040,"van":2041,"régu":2042,"ainte":2043,"pom":2044,"écrit":2045,"difficile":2046,"adi":2047,"règ":2048,"atten":2049,"respec":2050,"élè":2051,"politiques":2052,"cations":2053,"pens":2054,"isla":2055,"indus":2056,"accompag":2057,"abon":2058,"nombreuses":2059,"lier":2060,"total":2061,"dirige":2062,"sements":2063,"habitu":2064,"condam":2065,"26":2066,"Lou":2067,"vos":2068,"avez":2069,"front":2070,"ative":2071,"mouv":2072,"route":2073,"corps":2074,"Emman":2075,"frap":2076,"indre":2077,"vien":2078,"Suisse":2079,"édition":2080,"Man":2081,"ky":2082,"lème":2083,"zone":2084,"fication":2085,"volont":2086,"dan":2087,"rat":2088,"armes":2089,"argent":2090,"terme":2091,"souff":2092,"Maroc":2093,"réseau":2094,"remp":2095,"auté":2096,"ami":2097,"extr":2098,"fond":2099,"droits":2100,"sage":2101,"liv":2102,"premiers":2103,"Mos":2104,"Nord":2105,"élé":2106,"oupes":2107,"quet":2108,"conditions":2109,"acité":2110,"ambi":2111,"sortie":2112,"Belgique":2113,"prochaine":2114,"étrang":2115,"ls":2116,"joueur":2117,"199":2118,"80":2119,"maire":2120,"nord":2121,"quée":2122,"quarti":2123,"sud":2124,"perdu":2125,"prévu":2126,"donne":2127,"effectu":2128,"gauche":2129,"mation":2130,"secon":2131,"évolu":2132,"actuellement":2133,"réseaux":2134,"activités":2135,"Plus":2136,"réuni":2137,"comb":2138,"gée":2139,"mê":2140,"pou":2141,"informations":2142,"chés":2143,"my":2144,"dix":2145,"accep":2146,"hier":2147,"estime":2148,"quis":2149,"américain":2150,"responsable":2151,"enregis":2152,"dépend":2153,"conséqu":2154,"ouverture":2155,"plate":2156,"alistes":2157,"projets":2158,"ko":2159,"parfois":2160,"territoire":2161,"han":2162,"laquelle":2163,"adap":2164,"produit":2165,"économique":2166,"victimes":2167,"Jus":2168,"lant":2169,"épo":2170,"étant":2171,"commune":2172,"Emmanuel":2173,"mère":2174,"dénon":2175,"petite":2176,"tréal":2177,"cœur":2178,"évo":2179,"obser":2180,"objet":2181,"certaines":2182,"améli":2183,"meilleur":2184,"quoti":2185,"second":2186,"plai":2187,"ape":2188,"sive":2189,"procé":2190,"coû":2191,"oblig":2192,"République":2193,"milieu":2194,"précédent":2195,"kin":2196,"parler":2197,"chaî":2198,"laire":2199,"qualité":2200,"sex":2201,"chau":2202,"attaque":2203,"droite":2204,"Cor":2205,"dez":2206,"militaire":2207,"ordre":2208,"problème":2209,"voire":2210,"meur":2211,"rapidement":2212,"gres":2213,"lib":2214,"préf":2215,"trouve":2216,"Union":2217,"Ain":2218,"CO":2219,"vari":2220,"rend":2221,"ess":2222,"recherche":2223,"dét":2224,"travaux":2225,"Quand":2226,"traté":2227,"malgré":2228,"estival":2229,"dépar":2230,"présence":2231,"affaire":2232,"finalement":2233,"différents":2234,"engage":2235,"européenne":2236,"Coupe":2237,"seur":2238,"pace":2239,"affaires":2240,"tements":2241,"nels":2242,"Alle":2243,"accès":2244,"70":2245,"manque":2246,"buts":2247,"compli":2248,"bout":2249,"établis":2250,"mir":2251,"longtemps":2252,"plein":2253,"ologie":2254,"500":2255,"Face":2256,"ani":2257,"vide":2258,"gestion":2259,"idée":2260,"auprès":2261,"négal":2262,"célé":2263,"Premier":2264,"Cô":2265,"vés":2266,"super":2267,"époque":2268,"jo":2269,"sci":2270,"dipl":2271,"accident":2272,"propose":2273,"pén":2274,"bure":2275,"contrôle":2276,"sources":2277,"straté":2278,"habitants":2279,"Isra":2280,"PC":2281,"mau":2282,"viennent":2283,"Ju":2284,"Val":2285,"foot":2286,"ka":2287,"ordin":2288,"atoire":2289,"course":2290,"liste":2291,"thé":2292,"photo":2293,"Ainsi":2294,"lay":2295,"vivre":2296,"Pierre":2297,"iens":2298,"Inter":2299,"syndi":2300,"oun":2301,"dérou":2302,"peine":2303,"carrière":2304,"permettre":2305,"Poutine":2306,"tor":2307,"docu":2308,"Bar":2309,"belle":2310,"cus":2311,"lot":2312,"incen":2313,"anté":2314,"Mari":2315,"clair":2316,"sept":2317,"Fin":2318,"négo":2319,"Montréal":2320,"capitale":2321,"démocra":2322,"Twit":2323,"Ça":2324,"aider":2325,"avent":2326,"fique":2327,"rendu":2328,"voiture":2329,"sac":2330,"parmi":2331,"majorité":2332,"blan":2333,"fla":2334,"join":2335,"française":2336,"Ab":2337,"sés":2338,"aces":2339,"image":2340,"rester":2341,"Lig":2342,"ey":2343,"retrouver":2344,"agres":2345,"compéti":2346,"exper":2347,"céré":2348,"Brux":2349,"solution":2350,"fille":2351,"refus":2352,"abs":2353,"terre":2354,"créer":2355,"environnement":2356,"tiers":2357,"affirmé":2358,"activité":2359,"Cour":2360,"Ville":2361,"uri":2362,"lieux":2363,"agri":2364,"combat":2365,"abri":2366,"polici":2367,"mains":2368,"Moscou":2369,"mage":2370,"usement":2371,"train":2372,"rées":2373,"réser":2374,"mine":2375,"phone":2376,"hôpital":2377,"dg":2378,"démar":2379,"adop":2380,"ritan":2381,"voie":2382,"victime":2383,"résident":2384,"écri":2385,"inqui":2386,"doute":2387,"demandé":2388,"techn":2389,"dossier":2390,"29":2391,"Même":2392,"fié":2393,"matière":2394,"ctor":2395,"source":2396,"pectac":2397,"Go":2398,"bur":2399,"inten":2400,"pourtant":2401,"presque":2402,"montre":2403,"précise":2404,"Sh":2405,"hér":2406,"atu":2407,"longue":2408,"municip":2409,"Alex":2410,"rég":2411,"faci":2412,"enfant":2413,"Col":2414,"cale":2415,"hors":2416,"pir":2417,"perfor":2418,"expliqué":2419,"bri":2420,"ague":2421,"AFP":2422,"Sam":2423,"gne":2424,"spectac":2425,"diz":2426,"alisation":2427,"lorsque":2428,"sorti":2429,"voix":2430,"expérience":2431,"entrée":2432,"suppl":2433,"sûr":2434,"ite":2435,"réalité":2436,"piers":2437,"phy":2438,"précisé":2439,"présidenti":2440,"km":2441,"kil":2442,"dispar":2443,"extrême":2444,"Tour":2445,"parents":2446,"ouverte":2447,"orique":2448,"contribu":2449,"séri":2450,"mari":2451,"grandes":2452,"économie":2453,"réussi":2454,"Grand":2455,"Mer":2456,"mus":2457,"spec":2458,"unal":2459,"divers":2460,"ack":2461,"impli":2462,"matéri":2463,"fut":2464,"assurer":2465,"particulièrement":2466,"gam":2467,"idé":2468,"iner":2469,"pied":2470,"Cam":2471,"II":2472,"cteurs":2473,"progres":2474,"gine":2475,"poste":2476,"intérêt":2477,"Deux":2478,"ah":2479,"chance":2480,"témoi":2481,"sélection":2482,"mondiale":2483,"Français":2484,"New":2485,"preuve":2486,"So":2487,"avan":2488,"tenue":2489,"phon":2490,"juge":2491,"assure":2492,"Twitter":2493,"Est":2494,"âge":2495,"dég":2496,"révé":2497,"appu":2498,"aler":2499,"celles":2500,"simple":2501,"fron":2502,"isra":2503,"estre":2504,"exer":2505,"lutte":2506,"version":2507,"unique":2508,"allait":2509,"performan":2510,"lob":2511,"mètres":2512,"gies":2513,"Chine":2514,"générale":2515,"voyage":2516,"ption":2517,"pil":2518,"agi":2519,"fie":2520,"Sud":2521,"Centre":2522,"oré":2523,"avais":2524,"parle":2525,"tées":2526,"migr":2527,"derrière":2528,"vérit":2529,"internationale":2530,"intéri":2531,"clients":2532,"inflation":2533,"Sy":2534,"2018":2535,"médias":2536,"achet":2537,"travailler":2538,"joint":2539,"gés":2540,"écu":2541,"isé":2542,"chant":2543,"budg":2544,"hiver":2545,"équipes":2546,"différentes":2547,"Joh":2548,"Bruxelles":2549,"supplément":2550,"%.":2551,"destin":2552,"liber":2553,"acteurs":2554,"commis":2555,"judi":2556,"construction":2557,"citoyens":2558,"Israël":2559,"AN":2560,"dant":2561,"espace":2562,"oubli":2563,"information":2564,"avoc":2565,"mique":2566,"terror":2567,"nav":2568,"lau":2569,"orig":2570,"proté":2571,"hique":2572,"indivi":2573,"ajoute":2574,"commencé":2575,"bâti":2576,"Gen":2577,"Roy":2578,"déb":2579,"souligne":2580,"huit":2581,"restau":2582,"hos":2583,"ition":2584,"taire":2585,"phé":2586,"éviter":2587,"ennes":2588,"propre":2589,"institu":2590,"conférence":2591,"favor":2592,"ader":2593,"inv":2594,"atteint":2595,"véhicule":2596,"Amé":2597,"més":2598,"trim":2599,"questions":2600,"international":2601,"communauté":2602,"visite":2603,"continuer":2604,"association":2605,"afric":2606,"35":2607,"fils":2608,"poi":2609,"wi":2610,"effor":2611,"résultats":2612,"israéli":2613,"Pau":2614,"bru":2615,"cture":2616,"demi":2617,"suit":2618,"premières":2619,"Cham":2620,"ia":2621,"ow":2622,"mouvement":2623,"Hu":2624,"essa":2625,"devenu":2626,"tection":2627,"méde":2628,"vente":2629,"signé":2630,"véhicules":2631,"genre":2632,"quartier":2633,"négoci":2634,"Cert":2635,"davantage":2636,"envoy":2637,"ars":2638,"défi":2639,"livre":2640,"mour":2641,"libér":2642,"ham":2643,"icul":2644,"oie":2645,"plupart":2646,"élection":2647,"assis":2648,"record":2649,"chauff":2650,"spor":2651,"veille":2652,"pétr":2653,"court":2654,"2017":2655,"béc":2656,"affirme":2657,"mêmes":2658,"Dav":2659,"infr":2660,"sition":2661,"sées":2662,"certaine":2663,"retrouve":2664,"Gr":2665,"pol":2666,"obtenir":2667,"pha":2668,"origine":2669,"week":2670,"1er":2671,"Lau":2672,"lois":2673,"naire":2674,"alli":2675,"avenir":2676,"conten":2677,"annu":2678,"sort":2679,"élections":2680,"positions":2681,"écran":2682,"rece":2683,"chac":2684,"endra":2685,"piè":2686,"térieur":2687,"Aus":2688,"Ste":2689,"reux":2690,"alu":2691,"proces":2692,"étaire":2693,"adres":2694,"coups":2695,"américaine":2696,"impact":2697,"Malgré":2698,"écou":2699,"trie":2700,"dure":2701,"mode":2702,"décès":2703,"tourn":2704,"soirée":2705,"augmentation":2706,"détail":2707,"Bu":2708,"Bor":2709,"Mont":2710,"sensi":2711,"siè":2712,"alités":2713,"semblée":2714,"familles":2715,"épis":2716,"souligné":2717,"analy":2718,"avance":2719,"personn":2720,"création":2721,"cinéma":2722,"quotidien":2723,"31":2724,"Ap":2725,"vation":2726,"chu":2727,"trui":2728,"exception":2729,"images":2730,"impression":2731,"marqué":2732,"étude":2733,"Mich":2734,"attendu":2735,"Ad":2736,"tirer":2737,"qués":2738,"ork":2739,"fix":2740,"importante":2741,"matchs":2742,"commerci":2743,"tandis":2744,"tend":2745,"ving":2746,"ède":2747,"déclar":2748,"lancer":2749,"collabor":2750,"social":2751,"présente":2752,"empê":2753,"baisse":2754,"valeur":2755,"tar":2756,"”.":2757,"essenti":2758,"aie":2759,"dial":2760,"vir":2761,"appro":2762,"prépar":2763,"maxim":2764,"Etats":2765,"arrive":2766,"Pe":2767,"SS":2768,"tié":2769,"lace":2770,"lie":2771,"voil":2772,"François":2773,"Bien":2774,"UE":2775,"har":2776,"magne":2777,"sée":2778,"pourra":2779,"accueilli":2780,"administration":2781,"judici":2782,"cés":2783,"faud":2784,"stru":2785,"via":2786,"45":2787,"FA":2788,"The":2789,"ong":2790,"deur":2791,"dessus":2792,"ado":2793,"difficul":2794,"sanctions":2795,"tribunal":2796,"Ex":2797,"Mé":2798,"lés":2799,"forte":2800,"peuple":2801,"alisé":2802,"double":2803,"paix":2804,"John":2805,"ala":2806,"scol":2807,"èmes":2808,"ètement":2809,"rela":2810,"urgence":2811,"oly":2812,"sortir":2813,"faisant":2814,"simplement":2815,"devenir":2816,"anne":2817,"ash":2818,"exclu":2819,"parer":2820,"ting":2821,"vasion":2822,"appelé":2823,"sommet":2824,"compagnie":2825,"moyenne":2826,"liberté":2827,"gri":2828,"yp":2829,"endro":2830,"exprim":2831,"puisque":2832,"solid":2833,"pompiers":2834,"Allemagne":2835,"diplom":2836,"ati":2837,"mét":2838,"rations":2839,"quin":2840,"compris":2841,"Plu":2842,"Te":2843,"Van":2844,"avis":2845,"meu":2846,"sons":2847,"militaires":2848,"Beau":2849,"élu":2850,"unité":2851,"protection":2852,"lées":2853,"carte":2854,"garder":2855,"Algé":2856,"signi":2857,"suffis":2858,"Pr":2859,"bord":2860,"ctu":2861,"demain":2862,"excel":2863,"peur":2864,"milliers":2865,"petits":2866,"modèle":2867,"CE":2868,"lour":2869,"épi":2870,"conne":2871,"cole":2872,"nements":2873,"accor":2874,"historique":2875,"musique":2876,"VI":2877,"bois":2878,"lien":2879,"chemin":2880,"mées":2881,"tenti":2882,"parties":2883,"renfor":2884,"Aujourd":2885,"village":2886,"responsables":2887,"Côte":2888,"Pri":2889,"arb":2890,"débu":2891,"détermin":2892,"exécu":2893,"publié":2894,"achat":2895,"promo":2896,"ige":2897,"vac":2898,"enfin":2899,"leader":2900,"pourquoi":2901,"compar":2902,"imag":2903,"joué":2904,"gagner":2905,"fédéral":2906,"plateforme":2907,"Rob":2908,"cemment":2909,"consu":2910,"maî":2911,"lèmes":2912,"human":2913,"Bur":2914,"tation":2915,"tari":2916,"provo":2917,"ouvre":2918,"capacité":2919,"réguli":2920,"Ligue":2921,"policiers":2922,"Rou":2923,"ana":2924,"allu":2925,"aver":2926,"former":2927,"sole":2928,"lorsqu":2929,"élector":2930,"continue":2931,"sanitaire":2932,"souhait":2933,"souhaite":2934,"électricité":2935,"football":2936,"pau":2937,"vres":2938,"arme":2939,"pourraient":2940,"nuclé":2941,"problèmes":2942,"tait":2943,"lequel":2944,"débat":2945,"sala":2946,"Chris":2947,"attendre":2948,"changement":2949,"Sénégal":2950,"Per":2951,"lait":2952,"issu":2953,"concur":2954,"mandat":2955,"finance":2956,"opposition":2957,"rappelle":2958,"présenté":2959,"conflit":2960,"origin":2961,"monie":2962,"vote":2963,"positif":2964,"ilip":2965,"réunion":2966,"adien":2967,"by":2968,"hie":2969,"outi":2970,"soient":2971,"passage":2972,"aï":2973,"yeux":2974,"reur":2975,"eth":2976,"invasion":2977,"vice":2978,"interro":2979,"ailles":2980,"salle":2981,"exploit":2982,"chiffres":2983,"bureau":2984,"ritannique":2985,"pal":2986,"stu":2987,"édu":2988,"changer":2989,"apon":2990,"tradition":2991,"remporté":2992,"connaître":2993,"élèves":2994,"videmment":2995,"incendie":2996,"présidentielle":2997,"cie":2998,"mand":2999,"groupes":3000,"privé":3001,"fonds":3002,"possibilité":3003,"arrêt":3004,"réponse":3005,"transition":3006,"province":3007,"département":3008,"kilom":3009,"vingt":3010,"99":3011,"Be":3012,"Mme":3013,"Pen":3014,"Ren":3015,"nis":3016,"ladi":3017,"secré":3018,"trou":3019,"trent":3020,"iev":3021,"message":3022,"lève":3023,"concernant":3024,"bourg":3025,"Santé":3026,"Ver":3027,"ya":3028,"viv":3029,"milit":3030,"rendez":3031,"certain":3032,"fré":3033,"noir":3034,"âgé":3035,"ouest":3036,"procès":3037,"étape":3038,"immédi":3039,"formes":3040,"suivi":3041,"ogue":3042,"trouvé":3043,"arrêté":3044,"Notre":3045,"récemment":3046,"endant":3047,"compter":3048,"sociale":3049,"At":3050,"Bour":3051,"relations":3052,"seurs":3053,"découvrir":3054,"versaire":3055,"proches":3056,"volu":3057,"CA":3058,"Ro":3059,"morts":3060,"Esp":3061,"Ge":3062,"bomb":3063,"delà":3064,"indépend":3065,"aban":3066,"ray":3067,"études":3068,"atteindre":3069,"moyens":3070,"mondial":3071,"Cas":3072,"Kiev":3073,"Pu":3074,"aque":3075,"tières":3076,"passion":3077,"giques":3078,"collè":3079,"rouge":3080,"bert":3081,"croy":3082,"Net":3083,"usi":3084,"audi":3085,"civi":3086,"niques":3087,"technique":3088,"candidats":3089,"salari":3090,"atiques":3091,"den":3092,"lade":3093,"nies":3094,"distribu":3095,"moyen":3096,"Ama":3097,"bus":3098,"dence":3099,"chir":3100,"Ang":3101,"confiance":3102,"meilleure":3103,"représente":3104,"véritable":3105,"ram":3106,"veux":3107,"reli":3108,"appr":3109,"veill":3110,"discours":3111,"Che":3112,"devait":3113,"suivre":3114,"posée":3115,"constat":3116,"participer":3117,"Plusieurs":3118,"Nouv":3119,"wa":3120,"pratique":3121,"note":3122,"colon":3123,"utiliser":3124,"villes":3125,"nais":3126,"orer":3127,"énor":3128,"levé":3129,"cependant":3130,"tral":3131,"partis":3132,"centrale":3133,"montant":3134,"films":3135,"type":3136,"processus":3137,"90":3138,"Por":3139,"TV":3140,"inée":3141,"appré":3142,"appare":3143,"inscri":3144,"auto":3145,"stade":3146,"répondre":3147,"violence":3148,"Blan":3149,"pê":3150,"outre":3151,"convain":3152,"contexte":3153,"potenti":3154,"particulier":3155,"Philip":3156,"connaît":3157,"employés":3158,"75":3159,"AS":3160,"gh":3161,"nam":3162,"existe":3163,"station":3164,"fonda":3165,"transport":3166,"régions":3167,"député":3168,"disponible":3169,"mant":3170,"lever":3171,"aime":3172,"chent":3173,"décé":3174,"conte":3175,"procu":3176,"matiques":3177,"Entre":3178,"profiter":3179,"réalisé":3180,"énergé":3181,"quitter":3182,"document":3183,"hospit":3184,"gor":3185,"ny":3186,"aste":3187,"atar":3188,"comprend":3189,"étais":3190,"tenus":3191,"Avant":3192,"nécessaire":3193,"assuré":3194,"chaîne":3195,"intérieur":3196,"budget":3197,"secrétaire":3198,"Tru":3199,"ame":3200,"festival":3201,"hou":3202,"psy":3203,"uré":3204,"uns":3205,"sif":3206,"comprendre":3207,"amis":3208,"formé":3209,"dispu":3210,"trième":3211,"guer":3212,"devraient":3213,"élevé":3214,"arriver":3215,"locaux":3216,"musi":3217,"députés":3218,"neuf":3219,"industri":3220,"%,":3221,"odes":3222,"sai":3223,"sais":3224,"ciel":3225,"soins":3226,"Parmi":3227,"ctures":3228,"contrat":3229,"espoir":3230,"Louis":3231,"seconde":3232,"Paul":3233,"Sans":3234,"Tous":3235,"ples":3236,"esse":3237,"devient":3238,"ina":3239,"acte":3240,"mot":3241,"entrer":3242,"consci":3243,"montrer":3244,"domaine":3245,"heureusement":3246,"augmenter":3247,"accusé":3248,"volonté":3249,"chacun":3250,"Aff":3251,"sport":3252,"écol":3253,"chin":3254,"agir":3255,"roy":3256,"personnage":3257,"concerne":3258,"Elles":3259,"revenir":3260,"auront":3261,"récu":3262,"rang":3263,"célè":3264,"missions":3265,"puissance":3266,"pire":3267,"évalu":3268,"régime":3269,"emploi":3270,"Certains":3271,"page":3272,"vites":3273,"parcours":3274,"med":3275,"mises":3276,"uite":3277,"Quel":3278,"contrô":3279,"arrivé":3280,"fera":3281,"princi":3282,"maladie":3283,"compétition":3284,"Nor":3285,"entour":3286,"pron":3287,"parlement":3288,"réfu":3289,"pourront":3290,"acteur":3291,"mière":3292,"grès":3293,"pales":3294,"patron":3295,"caté":3296,"famili":3297,"dirigeants":3298,"individu":3299,"truire":3300,"sis":3301,"recher":3302,"quar":3303,"ames":3304,"supéri":3305,"arrière":3306,"titude":3307,"publics":3308,"quatrième":3309,"tempé":3310,"rassemb":3311,"étudiants":3312,"engagement":3313,"Algérie":3314,"Bon":3315,"Ban":3316,"Oli":3317,"Ti":3318,"ote":3319,"çant":3320,"défini":3321,"membre":3322,"fe":3323,"faite":3324,"dement":3325,"gure":3326,"sorte":3327,"présidente":3328,"box":3329,"directement":3330,"rempla":3331,"éléments":3332,"kilomètres":3333,"Cap":3334,"gou":3335,"rage":3336,"èrent":3337,"avions":3338,"parc":3339,"poursuit":3340,"agence":3341,"plainte":3342,"aper":3343,"pay":3344,"vise":3345,"198":3346,"quels":3347,"élimin":3348,"croissance":3349,"prêt":3350,"consommation":3351,"bécois":3352,"York":3353,"lux":3354,"recomman":3355,"ome":3356,"oine":3357,"acces":3358,"pul":3359,"marche":3360,"joue":3361,"durée":3362,"communication":3363,"principal":3364,"initiative":3365,"Bi":3366,"Sou":3367,"US":3368,"dra":3369,"her":3370,"sel":3371,"récla":3372,"concert":3373,"agers":3374,"respect":3375,"fic":3376,"mart":3377,"visage":3378,"rencontr":3379,"ancienne":3380,"classi":3381,"laisser":3382,"moitié":3383,"législa":3384,"européen":3385,"ologique":3386,"Trois":3387,"estimé":3388,"automob":3389,"Vladi":3390,"xi":3391,"espr":3392,"aume":3393,"offrir":3394,"ariat":3395,"climatique":3396,"ryth":3397,"David":3398,"Ra":3399,"cos":3400,"ji":3401,"rité":3402,"vali":3403,"ley":3404,"tini":3405,"archi":3406,"affront":3407,"laisse":3408,"journaliste":3409,"belge":3410,"Vladimir":3411,"Dr":3412,"Vin":3413,"équ":3414,"lir":3415,"libre":3416,"instant":3417,"somme":3418,"domicile":3419,"veulent":3420,"confirmé":3421,"cérémonie":3422,"tab":3423,"rement":3424,"recru":3425,"inte":3426,"libé":3427,"profon":3428,"modi":3429,"espère":3430,"application":3431,"lâ":3432,"mun":3433,"raisons":3434,"scé":3435,"zz":3436,"émo":3437,"reprises":3438,"traite":3439,"quelles":3440,"Assemblée":3441,"administra":3442,"scienti":3443,"Ali":3444,"dres":3445,"pap":3446,"évent":3447,"acu":3448,"raconte":3449,"stock":3450,"diffus":3451,"large":3452,"opérations":3453,"pouvez":3454,"2015":3455,"bilan":3456,"conseiller":3457,"conséquences":3458,"LR":3459,"Président":3460,"blo":3461,"gend":3462,"espé":3463,"arr":3464,"inscrit":3465,"aliser":3466,"risques":3467,"résultat":3468,"quasi":3469,"Jac":3470,"âtre":3471,"oui":3472,"assi":3473,"dir":3474,"agents":3475,"méd":3476,"placé":3477,"populaire":3478,"article":3479,"ukrainienne":3480,"accueil":3481,"numérique":3482,"revan":3483,"alter":3484,"acté":3485,"appelle":3486,"minim":3487,"obtenu":3488,"Enfin":3489,"Parti":3490,"largement":3491,"Michel":3492,"Mor":3493,"RT":3494,"ènes":3495,"écr":3496,"évidemment":3497,"envie":3498,"instru":3499,"payer":3500,"mention":3501,"norm":3502,"Noël":3503,"numéro":3504,"absence":3505,"récupé":3506,"300":3507,"faute":3508,"sante":3509,"enqu":3510,"revient":3511,"entend":3512,"incar":3513,"dies":3514,"exis":3515,"Marie":3516,"aître":3517,"Univers":3518,"ologue":3519,"commencer":3520,"zones":3521,"physique":3522,"DC":3523,"Dis":3524,"Sch":3525,"britannique":3526,"ano":3527,"anni":3528,"entendu":3529,"astru":3530,"coût":3531,"missi":3532,"renouv":3533,"couple":3534,"Quant":3535,"intégr":3536,"monter":3537,"2016":3538,"infec":3539,"influ":3540,"embour":3541,"partenaires":3542,"spectacle":3543,"Cons":3544,"cab":3545,"ed":3546,"çons":3547,"plon":3548,"approche":3549,"tera":3550,"discus":3551,"racont":3552,"aéro":3553,"mauvais":3554,"tournoi":3555,"olymp":3556,"vitesse":3557,"réfugi":3558,"Bo":3559,"Bas":3560,"Ital":3561,"glob":3562,"rence":3563,"del":3564,"attention":3565,"agent":3566,"Marc":3567,"capable":3568,"nelles":3569,"connue":3570,"importance":3571,"Lé":3572,"èse":3573,"reven":3574,"chale":3575,"déplace":3576,"récent":3577,"importe":3578,"coin":3579,"pleine":3580,"exerci":3581,"faudra":3582,"LE":3583,"lor":3584,"oins":3585,"stitu":3586,"encour":3587,"line":3588,"partout":3589,"courant":3590,"nouvel":3591,"travailleurs":3592,"centaines":3593,"symb":3594,"client":3595,"Toute":3596,"attaques":3597,"Nice":3598,"faisait":3599,"classe":3600,"artiste":3601,"Charles":3602,"affiche":3603,"étrangères":3604,"siècle":3605,"connec":3606,"FC":3607,"FI":3608,"ov":3609,"ald":3610,"offensi":3611,"blessés":3612,"réduire":3613,"choisi":3614,"infrastru":3615,"scén":3616,"cant":3617,"nour":3618,"élus":3619,"anmoins":3620,"rienne":3621,"agis":3622,"commission":3623,"proposé":3624,"peler":3625,"entretien":3626,"Pourtant":3627,"froi":3628,"prennent":3629,"investi":3630,"fourn":3631,"plaisir":3632,"Har":3633,"Nation":3634,"Que":3635,"Sim":3636,"Tur":3637,"xe":3638,"cien":3639,"ambas":3640,"éton":3641,"devra":3642,"pouvait":3643,"suspen":3644,"probablement":3645,"actuelle":3646,"bras":3647,"aventure":3648,"issue":3649,"pronon":3650,"33":3651,"Den":3652,"Vo":3653,"glis":3654,"ttes":3655,"remise":3656,"entendre":3657,"comité":3658,"contact":3659,"commence":3660,"complex":3661,"devoir":3662,"besoins":3663,"fourni":3664,"complètement":3665,"événements":3666,"participation":3667,"conserva":3668,"accueillir":3669,"revanche":3670,"ambassa":3671,"Dès":3672,"atis":3673,"reconnu":3674,"ault":3675,"auraient":3676,"ressources":3677,"statu":3678,"ington":3679,"opéra":3680,"Commission":3681,"iden":3682,"écoles":3683,"entraîneur":3684,"protéger":3685,"nucléaire":3686,"Bé":3687,"Mus":3688,"Pendant":3689,"fans":3690,"sil":3691,"prét":3692,"occident":3693,"prochaines":3694,"profit":3695,"penser":3696,"classement":3697,"joindre":3698,"efforts":3699,"judiciaire":3700,"températ":3701,"CN":3702,"Cet":3703,"Mali":3704,"bloc":3705,"mou":3706,"quart":3707,"chet":3708,"dique":3709,"récol":3710,"confront":3711,"acquis":3712,"internation":3713,"cade":3714,"présenter":3715,"francs":3716,"2014":3717,"bande":3718,"phénom":3719,"négociations":3720,"Cel":3721,"pin":3722,"portes":3723,"verse":3724,"istance":3725,"changé":3726,"côtés":3727,"résil":3728,"tempor":3729,"phase":3730,"Min":3731,"h30":3732,"hauteur":3733,"ination":3734,"dép":3735,"surprise":3736,"forcé":3737,"portant":3738,"Cependant":3739,"réaliser":3740,"magas":3741,"grave":3742,"phones":3743,"Philippe":3744,"fête":3745,"pont":3746,"revenus":3747,"urb":3748,"parquet":3749,"agu":3750,"céder":3751,"évacu":3752,"assin":3753,"ajouter":3754,"portée":3755,"retrouvé":3756,"vacances":3757,"36":3758,"voc":3759,"ètre":3760,"incident":3761,"cié":3762,"agn":3763,"comédi":3764,"satis":3765,"opport":3766,"vert":3767,"ministres":3768,"situé":3769,"illus":3770,"économiques":3771,"multipli":3772,"industrie":3773,"scolaire":3774,"400":3775,"AM":3776,"Né":3777,"gur":3778,"sang":3779,"ôme":3780,"oration":3781,"diction":3782,"ates":3783,"cite":3784,"grève":3785,"discu":3786,"intervention":3787,"tisme":3788,"clairement":3789,"connaissance":3790,"experts":3791,"32":3792,"Tunis":3793,"cis":3794,"zi":3795,"èles":3796,"olé":3797,"extérieur":3798,"fir":3799,"soldats":3800,"utilisation":3801,"propriétaire":3802,"stratégie":3803,"célèbre":3804,"Air":3805,"Fer":3806,"San":3807,"rons":3808,"lah":3809,"seig":3810,"cule":3811,"compét":3812,"demander":3813,"génération":3814,"locale":3815,"artistes":3816,"professionnels":3817,"dange":3818,"évolution":3819,"Olivier":3820,"Her":3821,"eroun":3822,"tiré":3823,"arab":3824,"dédi":3825,"abat":3826,"puisqu":3827,"franco":3828,"menace":3829,"ferme":3830,"heureux":3831,"hôtel":3832,"solutions":3833,"circulation":3834,"dynam":3835,"condamné":3836,"Bri":3837,"Mas":3838,"Mad":3839,"ica":3840,"naires":3841,"ski":3842,"édé":3843,"écar":3844,"inclu":3845,"lumière":3846,"venant":3847,"communes":3848,"interpel":3849,"salu":3850,"totalement":3851,"Nico":3852,"Déf":3853,"championnat":3854,"frontière":3855,"Affaires":3856,"sites":3857,"vê":3858,"champ":3859,"prévue":3860,"soutenir":3861,"blement":3862,"197":3863,"entis":3864,"répond":3865,"animaux":3866,"terminé":3867,"journalistes":3868,"patients":3869,"financement":3870,"Espagne":3871,"55":3872,"Clau":3873,"DG":3874,"vague":3875,"envers":3876,"ital":3877,"dul":3878,"lic":3879,"condition":3880,"passant":3881,"prévoit":3882,"Chaque":3883,"Marine":3884,"bonnes":3885,"frais":3886,"Anne":3887,"permettant":3888,"ario":3889,"promis":3890,"commerce":3891,"faveur":3892,"règles":3893,"Genève":3894,"pétrole":3895,"Ke":3896,"Met":3897,"ice":3898,"mail":3899,"ung":3900,"radi":3901,"mots":3902,"mach":3903,"puisse":3904,"peux":3905,"gué":3906,"allée":3907,"banque":3908,"regard":3909,"violences":3910,"technologie":3911,"maximum":3912,"34":3913,"Mc":3914,"Pé":3915,"ile":3916,"jui":3917,"lles":3918,"vils":3919,"reç":3920,"allon":3921,"avion":3922,"chement":3923,"fiques":3924,"mén":3925,"montré":3926,"langue":3927,"Martin":3928,"Auc":3929,"consta":3930,"bâtiment":3931,"Amazon":3932,"esprit":3933,"CI":3934,"Lo":3935,"Peu":3936,"belles":3937,"haute":3938,"lages":3939,"ares":3940,"chat":3941,"algé":3942,"moder":3943,"actuel":3944,"ockey":3945,"tellement":3946,"consomma":3947,"trodu":3948,"landais":3949,"qualifi":3950,"déploy":3951,"améliorer":3952,"Université":3953,"Biden":3954,"We":3955,"pt":3956,"sh":3957,"arité":3958,"ama":3959,"dispose":3960,"signal":3961,"effets":3962,"aît":3963,"voulu":3964,"ONU":3965,"sexu":3966,"établissement":3967,"tendance":3968,"approvision":3969,"TA":3970,"Tu":3971,"smart":3972,"rejet":3973,"retrait":3974,"ouse":3975,"tension":3976,"affec":3977,"permettra":3978,"futur":3979,"meilleurs":3980,"responsabilité":3981,"échap":3982,"vouloir":3983,"honneur":3984,"chiffre":3985,"supplémentaires":3986,"Apple":3987,"rythme":3988,"Ac":3989,"Th":3990,"retraite":3991,"chron":3992,"termes":3993,"rales":3994,"construire":3995,"allons":3996,"laissé":3997,"prenant":3998,"ukrainiens":3999,"dizaines":4000,"performance":4001,"adoles":4002,"endroit":4003,"énergétique":4004,"anie":4005,"issement":4006,"cho":4007,"trés":4008,"avir":4009,"livr":4010,"seraient":4011,"touché":4012,"mécan":4013,"consac":4014,"tivité":4015,"voitures":4016,"chefs":4017,"arrêter":4018,"lancement":4019,"pénur":4020,"blanc":4021,"Améric":4022,"personnages":4023,"VID":4024,"Iran":4025,"Seu":4026,"Wash":4027,"remis":4028,"aig":4029,"entôt":4030,"isés":4031,"intention":4032,"dévoil":4033,"sures":4034,"respon":4035,"rad":4036,"auton":4037,"interdit":4038,"pions":4039,"prime":4040,"million":4041,"tenter":4042,"coron":4043,"correspon":4044,"orient":4045,"médica":4046,"book":4047,"Guinée":4048,"Luc":4049,"Patri":4050,"investissement":4051,"facile":4052,"poids":4053,"37":4054,"Mau":4055,"Mat":4056,"Zel":4057,"bran":4058,"fre":4059,"mons":4060,"tt":4061,"île":4062,"introdu":4063,"chap":4064,"siège":4065,"actes":4066,"abeth":4067,"cesse":4068,"session":4069,"marchés":4070,"gion":4071,"blessé":4072,"Ukrainien":4073,"développer":4074,"barre":4075,"preuves":4076,"faible":4077,"accessi":4078,"Défense":4079,"MS":4080,"ye":4081,"subi":4082,"sépar":4083,"présents":4084,"anglais":4085,"milliard":4086,"frères":4087,"mené":4088,"engag":4089,"populations":4090,"téléphone":4091,"balle":4092,"démocratie":4093,"réfugiés":4094,"Washington":4095,"49":4096,"Gi":4097,"bons":4098,"jard":4099,"ony":4100,"remb":4101,"secours":4102,"ell":4103,"compor":4104,"2024":4105,"Maison":4106,"alition":4107,"organisé":4108,"tirs":4109,"poursuivre":4110,"COVID":4111,"syndic":4112,"Res":4113,"grés":4114,"mit":4115,"rection":4116,"lix":4117,"réforme":4118,"sert":4119,"immobil":4120,"figure":4121,"distin":4122,"inet":4123,"suisse":4124,"matériel":4125,"épisode":4126,"Jeux":4127,"Ly":4128,"nants":4129,"aga":4130,"nier":4131,"2000":4132,"entrepren":4133,"lande":4134,"partage":4135,"filles":4136,"aye":4137,"restent":4138,"chargé":4139,"utilisé":4140,"Ouest":4141,"dizaine":4142,"éducation":4143,"Nations":4144,"Sal":4145,"danger":4146,"ney":4147,"inno":4148,"due":4149,"faites":4150,"cartes":4151,"publiques":4152,"Parlement":4153,"view":4154,"Russes":4155,"officielle":4156,"électrique":4157,"sivement":4158,"régulièrement":4159,"Dom":4160,"Ivoire":4161,"Lux":4162,"Qui":4163,"gol":4164,"juri":4165,"ester":4166,"riens":4167,"civils":4168,"post":4169,"apporter":4170,"perte":4171,"patri":4172,"géant":4173,"chercher":4174,"climat":4175,"établissements":4176,"céléb":4177,"Laurent":4178,"Cr":4179,"Po":4180,"SP":4181,"bra":4182,"sen":4183,"revenu":4184,"inde":4185,"chon":4186,"chée":4187,"virus":4188,"maroc":4189,"marquer":4190,"finir":4191,"ventions":4192,"carbur":4193,"attente":4194,"the":4195,"quitté":4196,"photos":4197,"voulait":4198,"poursuivi":4199,"acheter":4200,"difficultés":4201,"Puis":4202,"Gar":4203,"Ses":4204,"cents":4205,"fis":4206,"hen":4207,"reprise":4208,"out":4209,"avor":4210,"absolu":4211,"mite":4212,"cuis":4213,"croire":4214,"fémin":4215,"augmenté":4216,"réduction":4217,"circuit":4218,"avocat":4219,"psych":4220,"Gé":4221,"are":4222,"din":4223,"gner":4224,"piste":4225,"relève":4226,"chasse":4227,"plant":4228,"acti":4229,"amour":4230,"préparer":4231,"anges":4232,"créé":4233,"menac":4234,"signe":4235,"petites":4236,"répondu":4237,"souvenir":4238,"gueur":4239,"référence":4240,"disponibles":4241,"Italie":4242,"65":4243,"Jon":4244,"Ru":4245,"atives":4246,"otes":4247,"ange":4248,"illé":4249,"chans":4250,"restri":4251,"oss":4252,"préoccup":4253,"alisme":4254,"devons":4255,"hommage":4256,"bientôt":4257,"And":4258,"gardien":4259,"défaite":4260,"Royaume":4261,"renforcer":4262,"civile":4263,"avirus":4264,"(.":4265,"cles":4266,"fab":4267,"lai":4268,"tter":4269,"deme":4270,"reprendre":4271,"unités":4272,"dia":4273,"atoires":4274,"accélé":4275,"maisons":4276,"oppos":4277,"décen":4278,"direct":4279,"effic":4280,"américains":4281,"européens":4282,"graphique":4283,"analyse":4284,"AI":4285,"SE":4286,"blé":4287,"sit":4288,"perman":4289,"final":4290,"gui":4291,"visant":4292,"importants":4293,"printemps":4294,"jeunesse":4295,"techniques":4296,"minute":4297,"principale":4298,"Joe":4299,"journal":4300,"rappelé":4301,"alimentaire":4302,"secondes":4303,"enregistré":4304,"héros":4305,"Austral":4306,"déclaration":4307,"Fédé":4308,"Qatar":4309,"hau":4310,"jau":4311,"nait":4312,"oit":4313,"ciens":4314,"agon":4315,"micro":4316,"trices":4317,"loge":4318,"tenté":4319,"fermet":4320,"humains":4321,"embar":4322,"vaccination":4323,"changements":4324,"sensibil":4325,"audience":4326,"salariés":4327,"Cit":4328,"flix":4329,"vait":4330,"enri":4331,"recours":4332,"troupes":4333,"avou":4334,"contres":4335,"cine":4336,"accu":4337,"immeu":4338,"touche":4339,"finan":4340,"anda":4341,"attent":4342,"tourner":4343,"canadi":4344,"semblent":4345,"tels":4346,"chambre":4347,"manifestants":4348,"Facebook":4349,"Netflix":4350,"usine":4351,"exercice":4352,"Zelens":4353,"Jér":4354,"fant":4355,"lits":4356,"rais":4357,"émission":4358,"diminu":4359,"lire":4360,"paravant":4361,"cible":4362,"appris":4363,"sond":4364,"sure":4365,"tué":4366,"places":4367,"accro":4368,"centres":4369,"crimi":4370,"crimin":4371,"prochains":4372,"tateurs":4373,"échec":4374,"nécessaires":4375,"lendemain":4376,"gamme":4377,"pièces":4378,"bombar":4379,"principe":4380,"classique":4381,"demeure":4382,"AR":4383,"Non":4384,"hockey":4385,"kh":4386,"âteau":4387,"remer":4388,"rejoindre":4389,"détention":4390,"ries":4391,"amas":4392,"proxim":4393,"abor":4394,"perdre":4395,"fortement":4396,"mém":4397,"dist":4398,"rues":4399,"continent":4400,"sentiment":4401,"graphie":4402,"participé":4403,"valeurs":4404,"refusé":4405,"séries":4406,"promotion":4407,"Robert":4408,"Burkin":4409,"Vincent":4410,"phénomène":4411,"Dou":4412,"rav":4413,"roi":4414,"souver":4415,"score":4416,"échange":4417,"tire":4418,"iss":4419,"dépla":4420,"astrop":4421,"viendra":4422,"contrer":4423,"diffici":4424,"symp":4425,"Institu":4426,"expliquer":4427,"principalement":4428,"directrice":4429,"financière":4430,"traitement":4431,"identité":4432,"extrêmement":4433,"collaboration":4434,"Zelensky":4435,"proximité":4436,"Ha":4437,"Lond":4438,"Pet":4439,"bres":4440,"illég":4441,"allé":4442,"dite":4443,"riches":4444,"proposition":4445,"proposer":4446,"exam":4447,"mini":4448,"donnée":4449,"star":4450,"mener":4451,"anciens":4452,"athlè":4453,"étranger":4454,"nécessité":4455,"manifestation":4456,"chinois":4457,"enquê":4458,"Nicolas":4459,"Luxembour":4460,"Fédération":4461,"Londres":4462,"38":4463,"tâ":4464,"yé":4465,"dette":4466,"relation":4467,"til":4468,"rép":4469,"raf":4470,"geois":4471,"couleurs":4472,"logement":4473,"lancée":4474,"poss":4475,"visiteurs":4476,"objectifs":4477,"nalités":4478,"structure":4479,"pêche":4480,"aéroport":4481,"forcément":4482,"Ed":4483,"Sau":4484,"ref":4485,"aval":4486,"vieux":4487,"prévenu":4488,"oto":4489,"Chr":4490,"trafic":4491,"critiques":4492,"organisations":4493,"brux":4494,"représentants":4495,"professeur":4496,"gagné":4497,"invité":4498,"chute":4499,".”":4500,"AT":4501,"mos":4502,"top":4503,"exposition":4504,"imm":4505,"opti":4506,"privil":4507,"lignes":4508,"fru":4509,"moments":4510,"différence":4511,"attaquant":4512,"litté":4513,"Donc":4514,"camion":4515,"combats":4516,"soleil":4517,"Oc":4518,"Rom":4519,"tian":4520,"tième":4521,"intel":4522,"réjou":4523,"récomp":4524,"rite":4525,"étaires":4526,"bum":4527,"frère":4528,"contraire":4529,"tomber":4530,"installer":4531,"coûts":4532,"appui":4533,"méth":4534,"excell":4535,"procureur":4536,"coronavirus":4537,"Az":4538,"CF":4539,"Kar":4540,"RC":4541,"adul":4542,"pée":4543,"épreuve":4544,"préfé":4545,"vég":4546,"play":4547,"alisée":4548,"critique":4549,"fili":4550,"tente":4551,"sauv":4552,"Associ":4553,"catastrop":4554,"collectif":4555,"effectué":4556,"performances":4557,"trimestre":4558,"solidarité":4559,"consul":4560,"décédé":4561,"catégor":4562,"48":4563,"AD":4564,"Fré":4565,"Thom":4566,"remettre":4567,"isée":4568,"prest":4569,"illon":4570,"coopération":4571,"mond":4572,"vécu":4573,"quées":4574,"formu":4575,"permettent":4576,"défendre":4577,"réalisateur":4578,"rentrée":4579,"sanitaires":4580,"meilleures":4581,"décisions":4582,"intérêts":4583,"étrangers":4584,"contenu":4585,"recevoir":4586,"Claude":4587,"He":4588,"Sta":4589,"èque":4590,"reine":4591,"lac":4592,"desc":4593,"chaus":4594,"attr":4595,"attribu":4596,"rid":4597,"dissement":4598,"déclen":4599,"renseig":4600,"devront":4601,"maintenir":4602,"crédit":4603,"Ant":4604,"cinqui":4605,"locales":4606,"battu":4607,"salaires":4608,"pointe":4609,"officiel":4610,"roman":4611,"idées":4612,"exploitation":4613,"Toutefois":4614,"canton":4615,"statut":4616,"catégorie":4617,"47":4618,"CR":4619,"Del":4620,"Tri":4621,"ira":4622,"sti":4623,"vaut":4624,"œil":4625,"issent":4626,"insu":4627,"tec":4628,"album":4629,"dépen":4630,"surface":4631,"surveill":4632,"prolong":4633,"exig":4634,"internet":4635,"Qué":4636,"posent":4637,"gare":4638,"passée":4639,"constitution":4640,"agression":4641,"migration":4642,"oublier":4643,"dialogue":4644,"Ukrainiens":4645,"Cou":4646,"Fre":4647,"OS":4648,"Pal":4649,"citer":4650,"faux":4651,"set":4652,"lets":4653,"titres":4654,"quanti":4655,"invit":4656,"limite":4657,"réaction":4658,"logique":4659,"Autre":4660,"thème":4661,"intég":4662,"Comment":4663,"vols":4664,"ologne":4665,"seuls":4666,"prêts":4667,"présidence":4668,"aérien":4669,"habitude":4670,"militants":4671,"offensive":4672,"Celui":4673,"cinquième":4674,"Eli":4675,"Eric":4676,"Japon":4677,"Oui":4678,"atement":4679,"jon":4680,"Éric":4681,"ende":4682,"etc":4683,"incroy":4684,"endo":4685,"nér":4686,"sty":4687,"rencontres":4688,"entier":4689,"suiv":4690,"franch":4691,"menée":4692,"garanti":4693,"nommé":4694,"banc":4695,"salles":4696,"planète":4697,"majeur":4698,"associations":4699,"facilement":4700,"Cameroun":4701,"discussions":4702,"constaté":4703,"Mil":4704,"Mag":4705,"Tch":4706,"atrice":4707,"bap":4708,"dons":4709,"fallait":4710,"taille":4711,"délég":4712,"pourrez":4713,"concep":4714,"vez":4715,"gérer":4716,"quelqu":4717,"canadien":4718,"2013":4719,"local":4720,"uels":4721,"lettre":4722,"confirme":4723,"allemand":4724,"livres":4725,"institution":4726,"certainement":4727,"pénurie":4728,"absolument":4729,"Luxembourg":4730,"Dani":4731,"Festival":4732,"Grou":4733,"Otan":4734,"mété":4735,"tic":4736,"chard":4737,"chante":4738,"détru":4739,"cide":4740,"terie":4741,"séjour":4742,"mess":4743,"mobi":4744,"cées":4745,"lise":4746,"bio":4747,"ruption":4748,"boule":4749,"servir":4750,"choisir":4751,"participants":4752,"limit":4753,"procédure":4754,"alerte":4755,"supplémentaire":4756,"législatives":4757,"Fi":4758,"MI":4759,"PI":4760,"Tim":4761,"ker":4762,"mam":4763,"nance":4764,"rares":4765,"tiens":4766,"istique":4767,"prati":4768,"choc":4769,"omie":4770,"liés":4771,"usage":4772,"agré":4773,"terres":4774,"néga":4775,"inspi":4776,"montée":4777,"telles":4778,"résidence":4779,"professionnel":4780,"Bern":4781,"automne":4782,"financier":4783,"modèles":4784,"Alexand":4785,"commiss":4786,"maîtr":4787,"Trump":4788,"équili":4789,"consommateurs":4790,"Christ":4791,"Dar":4792,"Dur":4793,"EA":4794,"Jour":4795,"Sté":4796,"dor":4797,"xes":4798,"neige":4799,"simil":4800,"débar":4801,"concent":4802,"code":4803,"durable":4804,"promet":4805,"attendant":4806,"Pays":4807,"université":4808,"facil":4809,"respecter":4810,"olympique":4811,"icace":4812,"Patrick":4813,"intellig":4814,"CH":4815,"Ky":4816,"Str":4817,"scru":4818,"up":4819,"vul":4820,"éter":4821,"écla":4822,"€.":4823,"quait":4824,"isent":4825,"secteurs":4826,"cht":4827,"vig":4828,"apprendre":4829,"ffe":4830,"pertur":4831,"examen":4832,"métro":4833,"tensions":4834,"log":4835,"affron":4836,"alier":4837,"transports":4838,"Alain":4839,"échelle":4840,"Red":4841,"principaux":4842,"frappe":4843,"terroriste":4844,"pièce":4845,"studio":4846,"indépendance":4847,"Banque":4848,"déplacement":4849,"mémoire":4850,"Fas":4851,"dité":4852,"king":4853,"nante":4854,"ood":4855,"toi":4856,"érie":4857,"antaine":4858,"quie":4859,"aintes":4860,"perspec":4861,"option":4862,"content":4863,"véri":4864,"efficace":4865,"offert":4866,"oyer":4867,"tentative":4868,"rêve":4869,"prendra":4870,"représentant":4871,"circonst":4872,"bénévo":4873,"major":4874,"tests":4875,"détails":4876,"immédiatement":4877,"scénario":4878,"Occident":4879,"2e":4880,"44":4881,"Fe":4882,"Ram":4883,"Tor":4884,"asi":4885,"ld":4886,"épar":4887,"éclair":4888,"’’":4889,"repris":4890,"tice":4891,"isté":4892,"arra":4893,"auteurs":4894,"dict":4895,"dium":4896,"liers":4897,"tream":4898,"mane":4899,"coalition":4900,"forê":4901,"coupe":4902,"crimes":4903,"située":4904,"régional":4905,"niveaux":4906,"espè":4907,"supporter":4908,"ologiques":4909,"cyc":4910,"ONG":4911,"multiples":4912,"oft":4913,"flamb":4914,"appareil":4915,"approvisionnement":4916,"AL":4917,"Bla":4918,"Lam":4919,"cais":4920,"ogique":4921,"tons":4922,"vaise":4923,"ît":4924,"isant":4925,"infor":4926,"ores":4927,"lié":4928,"vigueur":4929,"cession":4930,"métr":4931,"rappeler":4932,"lante":4933,"blessures":4934,"visions":4935,"Star":4936,"hypo":4937,"bénéficier":4938,"propriété":4939,"partenariat":4940,"accompagner":4941,"médecin":4942,"vingtaine":4943,"infrastructures":4944,"comportement":4945,"Association":4946,"Stéph":4947,"%)":4948,"Gabon":4949,"OT":4950,"Rap":4951,"drap":4952,"ja":4953,"laté":4954,"auparavant":4955,"sec":4956,"liées":4957,"plans":4958,"étoi":4959,"contest":4960,"cron":4961,"tradu":4962,"fermer":4963,"confie":4964,"réflex":4965,"investissements":4966,"analys":4967,"déroule":4968,"frontières":4969,"migrants":4970,"supérieur":4971,"rencontré":4972,"anniversaire":4973,"cabinet":4974,"Institut":4975,"War":4976,"Willi":4977,"gas":4978,"mn":4979,"wan":4980,"égi":4981,"inaire":4982,"démission":4983,"sonne":4984,"imposé":4985,"impossible":4986,"rare":4987,"gées":4988,"interview":4989,"196":4990,"colère":4991,"larité":4992,"sign":4993,"graves":4994,"bénéfici":4995,"documents":4996,"écrire":4997,"Soci":4998,"institutions":4999},"merges":["e s","e n","o n","d e","a n","l e","r e","o u","e r","a i","t i","q u","l a","en t","i s","n e","a r","a u","e t","i n","t e","u r","p r","l es","o r","ou r","s e","ti on","c e","i t","qu e","i l","d es","c h","u n","t r","o m","s i","m ent","a l","d u","d é","a v","an t","a s","d i","on t","es t","l i","an s","p ar","m e","u s","r é","t é","u ne","e l","p our","ai t","c on","a t","a tion","r i","c i","o i","ai s","qu i","a g","p l","e u","a c","d ans","c om","a m","s ur","v i","pr o","p o","p as","t re","e c","r es","ou s","é s","ou v","é e","a p","ai n","s on","a b","t er","f f","o l","ur s","p u","o is","s u","a le","au x","ai re","m i","è s","L e","pl us","n i","en d","é t","s er","è re","on s","p er","c es","r an","it é","e x","é té","2 0","i m","n é","t ou","p or","el le","av ec","o s","ch e","r a","er s","m an","p e","u x","pr é","c u","v e","s a","oi r","c o","p é","l u","t es","f i","s é","g e","qu es","t u","L a","f or","et te","l le","i e","s ont","m es","m o","de r","m b","s es","in s","j our","m é","il le","I l","ag e","m a","i r","L es","m in","o c","i en","g r","ent re","t en","p a","m ar","l é","f in","t s","u e","m ais","si on","a d","r o","s o","pr ès","or s","c é","au t","ai ne","m p","c tion","m is","f ait","o t","pu is","c ette","0 0","e ur","p eu","m on","en ce","v o","» ,","de ux","o p","c er","s si","p re","d is","par ti","o b","g é","v en","an ce","g i","ant s","d on","c ont","tou t","c ou","ai ent","E n","b u","eu x","tr i","s t","an n","ation s","dé c","en s","j e","pr is","ê tre","ê me","c r","te ur","ouv er","n ous","d ent","le ur","l on","pre mi","por t","n es","e au","ai res","ne ment","v é","m il","s ou","c our","m et","tr es","20 2","ti que","com m","ab le","p la","av ait","der ni","tion s","j ou","g u","ét ait","end re","com me","n ouv","com p","n er","ti n","ale ment","v ous","v er","v is","or d","au ssi","y s","al is","m ême","av oir","in ter","lu i","n o","per son","é r","re r","ar d","f aire","è me","b li","om b","an d","oi re","r ap","pr és","a près","p i","il s","c ar","C e","C h","r en","p h","e m","cont re","qu é","pr i","b le","si e","tr av","b ien","v ers","u re","un i","m er","te urs","1 9","J e","c a","de v","g ran","min is","l is","en ti","é g","U n","l o","ti f","r on","su i","le r","jour s","f ois","a ff","que l","pu bli","l ors","de puis","E t","po li","l an","u i","av ant","ac c","j et","c ol","at t","at s","ai l","t our","v es","so ci","j us","h i","te ment","v a","r ait","di re","ch er","p li","pa ys","i g","m ain","prés ent","v ent","cou p","M ar","f a","s or","i ne","O n","tr ès","F ran","j u","n ation","P our","e ff","pl u","it és","pré si","n u","en se","co re","con s","è res","f on","M ais","i ci","te mp","ti s","Q u","el les","u l","ai lle","k r","en ne","s ans","an g","o ff","t ant","ment s","A u","peu t","mil li","j eu","» .","en core","po s","au tres","temp s","d it","par t","al i","di ff","li g","ent s","P ar","i on","mb re","é es","tr ois","d o","is t","le urs","tr a","D e","pr es","\" ,","é le","ser a",") .","U ne","é v","ég alement","an te","b on","o ù","ain s","né es","omb re","ri c","al l","le ment","f r","h om","it u","in t","o y","mon de","ais on","mo ins","in g","r ou","o g","vi e","tu re","prési dent","la r","p el","ê te","c ent","cer t","d ont","é qui","n ombre","pro du","o pé","ur es","c ré","cour s","c as","pla ce","t ous","b i","po si","it s","s y","202 2","ti ve","in di","f ran","n on","ri e","c t","sie urs","t h","v re","ag es","i que","m ois","or g","bu t","c an","c ri","j à","ann on","f il","r is","p ec","al ité","A n","ann ée","D ans","ch é","er re","m at","premi er","N ous","m en","b les","l è","con tr","ar ri","p end","dé jà",") ,","cu l","person nes","s ol","s ant","c ap","an is","for m","la tion","in té","a y","p ouv","derni er","g ouver","se ment","tr ouv","c in","m ont","an ci","ci p","p on","ti ques","s ous","t ent","g ar","gé né","r ê","c ur","20 1","ne l","don c","r us","se mb","am é","00 0","b é","premi ère","Fran ce","is e","minis tre","d ou","plu sieurs","tr u","al ors","m al","tou jours","f er","té s","r it","r u","pé ri","i ème","au tre","b ou","ain si","ti v","tr ans","b il","c la","de man","h u","a les","c or","ou pe","c re","as s","U kr","ré gi","is te","per met","se lon","dé f","pro ch","sui te","gran d","ser vi","ti tu","pro jet","ç a","f é","b eau","c lu","or i","ch a","no tre","org anis","r est","c teur","d re","gouver nement","I n","A l","lon g","C om","si g","m or","S i","g a","pri x","am ment","con n","l à","n ée","c ation","E lle","trav ail","D es","géné r","g es","s itu","u ti","pris e","C ette","n ot","en f","1 0","so it","tou te","v ille","v ol","ch ar","pro f","ain es","ch an","ag ne","Ukr aine","s us","pr endre","im port","ar i","ex pli","É t","con fi","c l","b er","por te","C on","ré e","d ro","p le","vi ent","v r","mé di","c ô","pe ti","pend ant","e z","d a","fa ce","am p","h ab","f em","n os","nouv eau","an nées","jus qu","eu re","l ais","f am","f u","qu er","v oi","ab les","n om","v oir","ô t","déc la","n ent","ce p","g er","h ui","l oc","a ch","t on","équi pe","publi c","h ist","aille urs","v u","un es","man i","b re","te l","not amment","se u","v el","c et","f aut","b at","i d","r ation","m om","j am","c li","quel ques","3 0","dé but","mat ch","R us","e mp","pr in","ch i","202 1","po ssi","a jou","con om","nouv elle","beau coup","au s","pré c","p es","1 5","t a","S u","ri en","ré s","ap pel","uti lis","r ont","en ces","s om","li eu","milli ons","fran ç","m oi","it er","av ons","parti e","b a","lé g","ction s","su is","o le","b as","M on","ven ir","ce la","b an","on e","el on","T ou","e urs","ai se","eff et","m aine","v endre","se p","posi tion","elle ment","il l","ré alis","met tre","un di","si ons","r ent","gr oupe","man che","c k","é conom","régi on","d ur","d om","che z","jour d","it aire","pro b","con tin","do it","décla ré","s ent","n ant","poli tique","p en","ét u","mis e","diff ér","aut or","pris es","s an","mom ent","n at","por té","vo it","cre di","vi er","t te","en g","A v","S elon","s al","ét aient","Il s","vo y","D i","mis sion","g o","jam ais","p ons","ti r","é di","vel op","eur os","A r","for me","att a","d s","ent e","è ne","ti en","ac tion","me di","h eure","it es","é b","A près","at re","pouv oir","il i","p an","m ée","gi que","h eur","s aison","jeu di","o de","a k","po pu","nation ale","ti me","ain t","vr ai","se maine","derni ère","mer credi","a î","qu and","au c","vi ron","au g","ac tu","ni ve","di manche","sé cur","hom me","mar di","dé velop","l undi","s oi","ri que","h é","l t","m u","vendre di","t al","v ou","b r","pr om","ven u","h e","comp te","us es","comm un","o in","d r","as se","che f","fil m","s our","pr end","b es","ser ont","ch es","tr op","Rus sie","an ti","gran de","situ ation","re g","pl an","comm uni","b o","tou tes","me ille","ain ien","nation al","cô té","1 8","se il","j ec","qu atre","amé ric","tr é","re présent","je unes","ten ir","rus se","ter r","sa medi","in f","v il","C o","\" .","c it","v eu","l ent","ô le","av aient","po se","res pons","an ces","si te","tif s","d at","ri r","vis i","u el","in i","ci dent","s pé","ar rê","c entre","annon cé","ar ti","enf ants","a fin","j an","re tour","ré pon","ge ment","res te","c ad","dev ant","publi que","vo tre","L i","û t","en viron","du s","éb ec","vi c","ti e","te ch","em pl","Qu ébec","gu erre","lig ne","B r","ques tion","con d","ci r","gr am","aug ment","1 4","g ré","g ie","o se","ai r","nive au","é li","ri er","é ch","v ée","ce l","1 2","M i","U ni","c amp","deux ième","cert ains","u m","comp ag","heur es","5 0","ai te","poli ce","aff ir","cu e","p it","pas s","té ri","es p","tr ouver","R é","c au","R e","S a","po int","je une","t ot","t ôt","o k","ère ment","at te",". »","s oir","éle c","S aint","n or","po in","i re","qu ant","ch am","por ter","au rait","ten u","c al","po sé","déc is","hist oire","mi e","au jourd",". \"","er t","di en","min u","can di","E ur","eur opé","spé ci","é ner","an im","pr en","as su","ré se","sécur ité","M a","ti ves","possi ble","franç ais","C an","con f","ac t","ard s","n a","form ation","con cer","rap port","e aux","pour rait","su p","e mb","v ue","mo y","r aison","at h","o li","ce lui","fon ction","e ment","s ouv","20 0","l it","prof es","ac tiv","u kr","le t","préc is","s ance","1 6","ukr ainien","b ar","fam ille","C es","C ar","re m","con st","ra î","g ue","h ô","qu ête","ex pl","pec t","ol og","c ès","ri ère","ter min","Av ec","ma tin","c ité","oc ca","s enti","G u","N i","Je an","r aient","parti cu","cha que","anci en","pres sion","jan vier","dé ce","m ai","20 20","dé e","té lé","l in","é tr","ille t","qu oi","1 7","re trouv","in ves","cr it","tri bu","B el","té e","vi ol","person ne","ag it","sol u","au ra","ç on","i de","é p","is tes","g ens","sant é","é co","re c","ol o","1 3","el s","ce ux","vis ion","2 4","N o","f ais","le x","ce lle","cin q","Eur o","n és","is se","vi d","sé rie","oc cu","ti ne","deman de","dé ci","pro gram","ant es","2 5","su c","m ag","s c","v in","au d","le c","ten ant","pas sé","ser ait","t o","ar t","A f","mb le","pr im","particu li","œ u","con nu","ju in","c le","f eu","l ée","pas se","mar s","mar ché","soci été","S on","peu vent","S ur","fi er","prin cip","ré su","Ét at","déce mbre","di e","occa sion","ab il","dev rait","M ac","O u","si mp","off ici","r al","oc t","Un is","bon ne","ces s","la tions","D u","s au","b or","dé mie","mon di","ti ère","ré si","nombre ux","fem mes","v al","er a","ense mble","cher che","dro it","r il","me mb","tri ce","jus ti","m ment","ici le","indi qué","d os","h a","ne ur","ve mbre","expli que","acc us","main es","servi ce","memb res","J o","c ro","ë l","poin ts","ç u","jour n","don ner","sy st","fem me","A s","S t","ap par","semb le","s avoir","t ête","w e","bé né","Fran ç","t ard","no vembre","ent raî","te mbre","an e","te x","ac cue","l us","â ce","è le","di ri","for t","ang er","dévelop pe","ex emp","ma j","u se","a teur","d ès","r y","entre prise","g ag","oc k","dé sor","com ment","1 1","s ait","De puis","sep tembre","veu t","a o","Ét ats","contin u","b al","in es","cad re","hab it","n age","ti ent","ob jec","cr ise","f our","ai de","as soci","sou h","génér al","c en","g ent","il les","désor mais","jou eurs","ju illet","D é","a ce","sur tout","Ce la","c ée","l oi","cap it","P i","f év","p s","po ser","comm er","T r","il li","pres se","ten tion","a teurs","m ul","ét ab","vé hi","en si","parti r","cla s","v acc","ag er","ois e","b e","S é","oi x","ob re","Euro pe","véhi cu","fév rier","mi eux","né cess","gr os","l y","ré du","h aus","it aires","as sur","pas ser","comm en","com pl","é ment","si x","ré us","pi on","som mes","acc ord","entre prises","qu it","is me","is ation","souv ent","servi ces","expl o","Par is","péri ode","oct obre","aut ant","f ont","ti tre","décis ion","a tique","d ol","i c","se ul","mani f","P re","se maines","fé dé","ar tis","I s","L u","c y","ne lle","a de","derni ères","eff ec","re z","di tion","don né","seu lement","tr ait","or ité","im p","jour née","g en","d oi","t an","é vé","clu b","vrai ment","N e","S e","vi dé","O r","ent es","autor ités","att end","E l","annon ce","z on","mo bil","cons tru","i er","è te","av ril","is er","f av","t ère","évé nement","v ain","è tres","es ti","ni e","mor t","conn ais","” ,","profes sion","a te","ne t","g al","vi ct","cr ois","élec tri","a z","dire cteur","nat ure","confi r","exemp le","dire c","Co vid","derni ers","P h","en quête","ch ose","dé s","cau se","ni que","milli ards","al ler","ét at","dé pu","gr ap","t ur","pro che","ter rit","cul ture","communi qué","v ont","ré f","ad a","ad minis","ér ence","t able","t omb","par ce","trois ième","com man","rap ide","sé qu","b our","j eux","t est","z e","ab ord","hom mes","dol lar","se cteur","opé ration","2 2","20 19","ma tique","t y","y er","con si","nouv elles","am en","syst ème","Tou t","vacc in","tr an","trav aille","Pre mi","m as","gr âce","nu mé","produ its","char ge","r ue","déf ense","ga z","ao ût","manif est","G ran","g au","la ge","alis te","bes oin","ini ti","P a","por ts","aut our","ph ot","l ance","peti t","f us","en suite","import ant","p elle","au te","ouver t","mil i","v ant","su jet","h y","gr av","cr u","b el","résu lt","développe ment","c s","s ens","mais on","4 0","te lle","pr ê","auc un","M al","lo in","f s","ven us","B er","i ons","qu a","Com me","P ro","2 1","la s","202 3","c at","r ac","ci er","Ch ar","form ations","da te","œ ur","conn aî","béné fi","é c","par ole","con du","mes ure","minis tère","si que","ren contre","trav ers","R i","jou er","que lle","mani ère","Af rique","e k","i es","p ère","ille r","cons om","cep tion","haus se","g n","for ces","Mac ron","ap pli","è ve","aut om","vou l","oi res","pro pos","o re","on d","ar mée","Et at","en ir","pan démie","ti mes","ex péri","E s","t aux","pro pri","quel que","off re","Con seil","A lors","gu es","produ ction","V ous","ch oix","dollar s","su b","pa ti","w it","te m","pre u","ajou té","h on","l en","v it","tr o","os es","V i","se in","tr on","per mis","nouv eaux","jus te","te au","O N","pour sui","x im","camp agne","m uni","r as","ti er","program me","E m","c ra","di o","ouv rir","fin ale","tive ment","M e","ins t","D on","r ant","è g","en du","ol u","ins tal","plu tôt","ay ant","étu di","popu lation","i ques","p ai","ris que","cham pion","ê tes","ch ois","fin anci","suc cès","2 3","p ense","pé ti","es tiv","pré cé","L ors","b ais","ac tions","parti ci","prési d","cons titu","gar de","bil ité","proch ain","chi ff","abil ité","et s","sou tien","nu it","dé mo","tex te","f ou","su ff","aire ment","arri vée","cir cu","minu tes","1 00","d û","Can ada","sc ène","S er","a f","k i","re t","un is","sy n","œu vre","p ie","di tions","col lec","a é","è ge","ar a","dire ction","inté rê","cin é","n al","le ction","uni vers","mo d","asse z","objec tif","v ale","qu ent","ba se","candi dat","v ais","eu se","aff i","vict oire","o d","mes ures","so li","d ats","l and","tr ai","r om","parti cip","terr ain","déci dé","dr oi","mul ti","o ot","s û","rap pel","c am","s in","qu ali","fait s","pon i","f ac","v ois","b â","re çu","al le","ven ue","lan cé","6 0","ne u","fin i","pris on","grand s","P S","g ence","vi te","ense ig","c lé","f ai","h or","p ous","r ale","par ten","toute fois","éner gie","M o","ven tion","tri b","rus ses","hô pit","k e","la bor","person nel","éco le","doi vent","in é","tr ation","si r","ais ons","pa re","cit oy","r ôle","able ment","fa çon","chan ge","auc une","seu le","id enti","B en","dé part","li m","ali ment","con se","ma la","dis poni","avant age","soci aux","2 7","ch oses","ag é","for ce","empl oy","o ti","dé pl","mi di","inté res","organis ation","dur ant","inves tis","P ou","occu p","F or","sou lig","main tenant","justi ce","o f","l ou","dos si","vidé o","au teur","ien ne","con seil","mar que","consi dé","h aut","an al","B ou","d y","con clu","indi que","pro vin","don nées","reg is","b all","con ser","2 8","A F","P as","r endre","v an","ré gu","ain te","p om","é crit","diff icile","a di","r èg","at ten","res pec","é lè","poli tiques","c ations","p ens","is la","in dus","ac compag","ab on","nombre uses","li er","tot al","diri ge","se ments","hab itu","cond am","2 6","L ou","v os","av ez","fr ont","a tive","m ouv","rou te","cor ps","Em man","f rap","in dre","vi en","Su isse","édi tion","M an","k y","l ème","z one","fi cation","vol ont","d an","r at","ar mes","ar gent","ter me","sou ff","Mar oc","rése au","re mp","au té","am i","ex tr","fon d","dro its","s age","li v","premi ers","M os","N ord","é lé","ou pes","qu et","con ditions","ac ité","am bi","sor tie","Bel gique","proch aine","étr ang","l s","jou eur","19 9","8 0","m aire","n ord","qu ée","qu arti","su d","per du","pré vu","don ne","effec tu","gau che","m ation","se con","év olu","actu ellement","rése aux","activ ités","P lus","ré uni","com b","g ée","m ê","p ou","in formations","ch és","m y","di x","ac cep","hi er","es time","qu is","améric ain","respons able","en regis","dé pend","con séqu","ouver ture","pla te","alis tes","projet s","k o","par fois","territ oire","h an","la quelle","ad ap","produ it","économ ique","vic times","J us","l ant","é po","ét ant","comm une","Emman uel","m ère","dé non","peti te","tré al","c œur","é vo","ob ser","ob jet","cert aines","amé li","meille ur","qu oti","se cond","pl ai","ap e","si ve","pro cé","co û","ob lig","Ré publique","mili eu","précé dent","k in","par ler","cha î","l aire","qu alité","se x","ch au","atta que","droi te","C or","de z","mil itaire","ord re","prob lème","v oire","me ur","rapide ment","g res","li b","pré f","trouv e","Uni on","A in","C O","v ari","r end","es s","re cherche","dé t","trav aux","Qu and","tra té","mal gré","estiv al","dé par","prés ence","aff aire","fin alement","différ ents","eng age","europé enne","C oupe","se ur","pa ce","aff aires","tement s","nel s","A lle","acc ès","7 0","man que","bu ts","comp li","bou t","étab lis","mi r","long temps","ple in","olog ie","5 00","F ace","an i","vi de","ges tion","i dée","au près","né gal","cé lé","Premi er","C ô","v és","su per","épo que","j o","s ci","di pl","ac cident","pro pose","pé n","bu re","contr ôle","sour ces","s traté","habit ants","Is ra","P C","m au","vien nent","J u","V al","f oot","k a","ord in","at oire","cour se","lis te","th é","phot o","Ain si","la y","vi vre","Pi erre","ien s","In ter","syn di","ou n","dé rou","pe ine","car rière","permet tre","Pou tine","t or","do cu","B ar","b elle","c us","l ot","in cen","ant é","Mar i","cl air","sep t","F in","né go","Mon tréal","capit ale","démo cra","T wit","Ç a","ai der","av ent","fi que","ren du","voit ure","s ac","par mi","maj orité","b lan","f la","j oin","franç aise","A b","s és","ac es","im age","rest er","L ig","e y","re trouver","ag res","com péti","ex per","cé ré","Br ux","solu tion","f ille","re fus","ab s","ter re","cré er","environ nement","ti ers","affir mé","activ ité","C our","V ille","ur i","li eux","ag ri","com bat","ab ri","poli ci","main s","Mos cou","m age","u sement","tr ain","ré es","ré ser","mi ne","ph one","hôpit al","d g","dé mar","ad op","rit an","voi e","vic time","rési dent","é cri","in qui","dou te","deman dé","tech n","dossi er","2 9","M ême","fi é","ma tière","ct or","sour ce","pect ac","G o","b ur","in ten","pour tant","pres que","mont re","préc ise","S h","h ér","at u","long ue","muni cip","A lex","ré g","fa ci","enf ant","C ol","c ale","h ors","p ir","per for","expli qué","b ri","ag ue","AF P","S am","g ne","s pectac","di z","alis ation","lors que","sor ti","voi x","expéri ence","ent rée","sup pl","sû r","i te","ré alité","pi ers","ph y","précis é","présid enti","k m","k il","dis par","extr ême","T our","par ents","ouver te","or ique","con tribu","sé ri","mar i","gran des","économ ie","réus si","Gran d","M er","m us","s pec","un al","di vers","ac k","im pli","ma téri","fu t","assu rer","particuli èrement","g am","i dé","in er","pie d","C am","I I","c teurs","pro gres","gi ne","pos te","intérê t","D eux","a h","ch ance","té moi","sé lection","mondi ale","Franç ais","Ne w","preu ve","S o","av an","ten ue","ph on","ju ge","assu re","Twit ter","E st","â ge","dé g","ré vé","ap pu","ale r","cel les","simp le","f ron","is ra","est re","ex er","lu tte","ver sion","uni que","all ait","perfor man","l ob","m ètres","gi es","Ch ine","génér ale","voy age","p tion","p il","ag i","fi e","Su d","C entre","or é","av ais","par le","té es","mi gr","der rière","vé rit","inter nationale","inté ri","cli ents","inf lation","S y","201 8","médi as","ach et","travaille r","jo int","g és","é cu","is é","ch ant","bu dg","hi ver","équi pes","différ entes","Jo h","Brux elles","suppl ément","% .","des tin","li ber","ac teurs","com mis","ju di","constru ction","citoy ens","Isra ël","A N","d ant","es pace","ou bli","in formation","av oc","mi que","terr or","n av","la u","or ig","pro té","hi que","indi vi","ajou te","commen cé","bâ ti","G en","R oy","dé b","sou ligne","hu it","rest au","h os","i tion","t aire","ph é","év iter","en nes","pro pre","ins titu","conf érence","fav or","a der","in v","atte int","véhicu le","A mé","m és","tr im","ques tions","inter national","commun auté","visi te","continu er","associ ation","af ric","3 5","f ils","p oi","w i","eff or","résult ats","isra éli","P au","b ru","c ture","de mi","su it","premi ères","Ch am","i a","o w","mouv ement","H u","es sa","de venu","te ction","mé de","vent e","sig né","véhicu les","gen re","quarti er","négo ci","C ert","d avantage","en voy","ar s","dé fi","li vre","m our","lib ér","h am","i cul","oi e","plu part","éle ction","ass is","rec ord","chau ff","s por","ve ille","pé tr","cour t","201 7","bé c","affir me","mê mes","D av","in fr","si tion","sé es","cert aine","retrouv e","G r","po l","ob tenir","ph a","ori gine","we ek","1 er","L au","l ois","n aire","al li","av enir","cont en","ann u","sor t","éle ctions","posi tions","éc ran","re ce","ch ac","end ra","pi è","téri eur","A us","S te","re ux","al u","pro ces","ét aire","ad res","coup s","améric aine","imp act","Mal gré","é cou","tr ie","du re","mo de","déc ès","tour n","soi rée","augment ation","dét ail","B u","B or","M ont","s ensi","si è","al ités","semb lée","fam illes","ép is","soulig né","anal y","av ance","person n","cré ation","ciné ma","quoti dien","3 1","A p","v ation","ch u","tr ui","ex ception","im ages","im pression","mar qué","étu de","Mi ch","atten du","A d","ti rer","qu és","or k","fi x","import ante","match s","commer ci","tan dis","t end","v ing","è de","déc lar","lan cer","col labor","soci al","présent e","emp ê","bais se","vale ur","t ar","” .","es senti","ai e","di al","vi r","ap pro","pré par","ma xim","Et ats","arri ve","P e","S S","ti é","la ce","li e","vo il","Franç ois","B ien","U E","h ar","m agne","s ée","pour ra","accue illi","adminis tration","judi ci","c és","f aud","s tru","vi a","4 5","F A","T he","on g","de ur","des sus","ad o","diff icul","san ctions","trib unal","E x","M é","l és","for te","peu ple","alis é","dou ble","pai x","Joh n","a la","s col","è mes","è tement","re la","ur gence","ol y","sor tir","fais ant","simp lement","de venir","an ne","as h","ex clu","pa rer","tin g","va sion","appel é","som met","compag nie","moy enne","liber té","g ri","y p","end ro","ex prim","puis que","soli d","pom piers","Alle magne","dipl om","a ti","m ét","r ations","qu in","com pris","P lu","T e","V an","av is","me u","son s","mil itaires","B eau","é lu","un ité","pro tection","lé es","car te","gar der","Al gé","sig ni","suff is","P r","b ord","c tu","de main","ex cel","pe ur","milli ers","peti ts","mod èle","C E","l our","é pi","con ne","co le","nement s","acc or","hist orique","mu sique","V I","b ois","li en","che min","mé es","ten ti","parti es","ren for","Au jourd","vil lage","respons ables","Cô te","P ri","ar b","dé bu","dé termin","ex écu","publi é","ach at","prom o","i ge","v ac","en fin","le ader","pour quoi","com par","im ag","jou é","gag ner","fédé ral","plate forme","R ob","ce mment","con su","ma î","lè mes","hu man","B ur","t ation","t ari","pro vo","ouv re","cap acité","régu li","Lig ue","polici ers","R ou","an a","al lu","av er","for mer","so le","lors qu","éle ctor","contin ue","san itaire","souh ait","souh aite","électri cité","foot ball","p au","v res","ar me","pour raient","nu clé","prob lèmes","t ait","le quel","dé bat","sa la","Ch ris","att endre","chan gement","Sé négal","P er","l ait","is su","con cur","man dat","fin ance","op position","rap pelle","présent é","conf lit","orig in","mon ie","vo te","posi tif","ili p","réuni on","a dien","b y","h ie","ou ti","soi ent","pass age","a ï","y eux","re ur","et h","in vasion","vi ce","inter ro","ail les","sal le","explo it","chiff res","bure au","ritan nique","p al","s tu","é du","ch anger","ap on","tra dition","rem porté","connaî tre","élè ves","vide mment","incen die","présidenti elle","ci e","man d","gr oupes","pri vé","fon ds","possi bilité","arrê t","répon se","tran sition","provin ce","dépar tement","kil om","ving t","9 9","B e","M me","P en","R en","n is","la di","se cré","tr ou","tr ent","ie v","mes sage","lè ve","concer nant","bour g","S anté","V er","y a","vi v","mil it","ren dez","cert ain","f ré","n oir","â gé","ou est","pro cès","ét ape","im médi","for mes","sui vi","og ue","trouv é","arrê té","No tre","ré cemment","end ant","comp ter","soci ale","A t","B our","re lations","se urs","déc ouvrir","vers aire","proch es","vol u","C A","R o","mor ts","Es p","G e","b omb","de là","in dépend","ab an","ra y","étu des","atte indre","moy ens","mondi al","C as","K iev","P u","a que","ti ères","pas sion","gi ques","col lè","rou ge","ber t","cro y","N et","u si","au di","ci vi","ni ques","tech nique","candi dats","sala ri","a tiques","d en","la de","ni es","dis tribu","moy en","A ma","b us","d ence","ch ir","An g","confi ance","meille ure","représent e","vérit able","r am","v eux","re li","ap pr","ve ill","dis cours","Ch e","dev ait","sui vre","pos ée","const at","partici per","Plu sieurs","N ouv","w a","pr atique","no te","col on","utilis er","vil les","n ais","o rer","é nor","le vé","ce pendant","tr al","parti s","cent rale","mont ant","film s","ty pe","proces sus","9 0","P or","T V","in ée","ap pré","ap pare","ins cri","aut o","st ade","répon dre","viol ence","B lan","p ê","ou tre","con vain","con texte","po tenti","particuli er","Ph ilip","connaî t","employ és","7 5","A S","g h","n am","ex iste","st ation","fon da","trans port","régi ons","dépu té","disponi ble","m ant","le ver","ai me","ch ent","dé cé","con te","pro cu","ma tiques","En tre","prof iter","réalis é","éner gé","quit ter","docu ment","hos pit","g or","n y","as te","at ar","com prend","ét ais","ten us","Av ant","nécess aire","assur é","chaî ne","intéri eur","budg et","secré taire","T ru","a me","f estival","h ou","p sy","ur é","un s","si f","com prendre","am is","for mé","dis pu","tri ème","gu er","dev raient","éle vé","arri ver","loc aux","mu si","dépu tés","neu f","indus tri","% ,","o des","s ai","s ais","ci el","so ins","Par mi","ct ures","contr at","esp oir","Lou is","secon de","Pau l","S ans","T ous","p les","es se","de vient","in a","ac te","mo t","entre r","cons ci","mont rer","dom aine","heure usement","augment er","accus é","volont é","chac un","A ff","s port","é col","ch in","ag ir","ro y","person nage","concer ne","El les","re venir","au ront","ré cu","ran g","cé lè","mis sions","puis sance","pi re","év alu","régi me","empl oi","Cert ains","p age","v ites","par cours","me d","mis es","ui te","Qu el","contr ô","arri vé","fer a","prin ci","mala die","compéti tion","N or","ent our","pr on","par lement","ré fu","pour ront","ac teur","mi ère","gr ès","pa les","pa tron","ca té","fam ili","dirige ants","indivi du","trui re","s is","re cher","qu ar","am es","su péri","arri ère","titu de","public s","qua trième","tem pé","ras semb","étudi ants","engage ment","Algé rie","B on","B an","O li","T i","o te","ç ant","dé fini","me mbre","f e","f aite","de ment","gu re","sor te","président e","bo x","direc tement","remp la","élé ments","kilom ètres","C ap","g ou","r age","è rent","av ions","par c","pour suit","ag ence","pl ainte","ap er","pa y","vis e","19 8","quel s","éli min","crois sance","prê t","consom mation","béc ois","Y ork","l ux","re comman","om e","oi ne","ac ces","pu l","mar che","jou e","dur ée","communi cation","princip al","initi ative","B i","S ou","U S","d ra","h er","se l","ré cla","con cert","ag ers","res pect","fi c","mar t","vis age","ren contr","anci enne","cla ssi","lais ser","moi tié","lég isla","europé en","olo gique","Tr ois","esti mé","autom ob","V ladi","x i","es pr","au me","off rir","ari at","cli matique","ry th","Dav id","R a","c os","j i","r ité","v ali","le y","ti ni","ar chi","aff ront","lais se","journ aliste","bel ge","Vladi mir","D r","V in","é qu","li r","li bre","ins tant","som me","dom icile","veu lent","confir mé","céré monie","t ab","re ment","re cru","in te","li bé","pro fon","mo di","esp ère","appli cation","l â","m un","r aisons","s cé","z z","é mo","re prises","tr aite","quel les","As semblée","adminis tra","sci enti","A li","d res","p ap","é vent","ac u","ra conte","st ock","diff us","lar ge","opé rations","pouv ez","201 5","bil an","conse iller","conséqu ences","L R","P résident","b lo","g end","es pé","ar r","ins crit","alis er","ris ques","résult at","qua si","J ac","â tre","ou i","as si","di r","ag ents","mé d","pla cé","popu laire","arti cle","ukrainien ne","accue il","numé rique","re van","al ter","ac té","ap pelle","min im","ob tenu","En fin","Par ti","lar gement","Mich el","M or","R T","è nes","é cr","é videmment","en vie","ins tru","pa yer","men tion","nor m","No ël","numé ro","abs ence","récu pé","3 00","f aute","s ante","en qu","re vient","ent end","in car","di es","ex is","Mar ie","aî tre","Uni vers","olog ue","commen cer","zon es","phy sique","D C","D is","S ch","b ritannique","an o","an ni","ent endu","as tru","co ût","mis si","ren ouv","coup le","Qu ant","inté gr","mont er","201 6","inf ec","inf lu","emb our","parten aires","spectac le","C ons","c ab","e d","ç ons","pl on","ap proche","ter a","dis cus","rac ont","aé ro","mau vais","tourn oi","oly mp","vites se","réfu gi","B o","B as","I tal","g lob","r ence","de l","at tention","ag ent","Mar c","cap able","nel les","conn ue","import ance","L é","è se","re ven","ch ale","dé place","ré cent","im porte","co in","ple ine","exer ci","faud ra","L E","l or","o ins","s titu","en cour","li ne","par tout","cour ant","nouv el","trav ailleurs","cent aines","sy mb","cli ent","Tou te","atta ques","Ni ce","fais ait","clas se","artis te","Char les","affi che","étrang ères","siè cle","conne c","F C","F I","o v","al d","off ensi","bles sés","rédu ire","chois i","infr astru","scé n","c ant","n our","é lus","an moins","ri enne","ag is","com mission","pro posé","pe ler","entre tien","Pour tant","fr oi","pren nent","inves ti","four n","plai sir","H ar","N ation","Q ue","S im","T ur","x e","ci en","am bas","ét on","dev ra","pouv ait","sus pen","prob ablement","actu elle","br as","avent ure","issu e","pron on","3 3","D en","V o","g lis","t tes","re mise","ent endre","com ité","cont act","comm ence","comp lex","dev oir","bes oins","four ni","compl ètement","événement s","particip ation","conser va","accueilli r","revan che","ambas sa","D ès","a tis","re connu","au lt","au raient","res sources","st atu","ing ton","opé ra","Com mission","id en","éco les","entraî neur","proté ger","nuclé aire","B é","M us","P endant","f ans","s il","pr ét","oc cident","proch aines","prof it","pen ser","clas sement","join dre","effor ts","judici aire","tempé rat","C N","C et","M ali","b loc","m ou","qu art","ch et","di que","ré col","con front","ac quis","inter nation","ca de","présent er","fran cs","201 4","ban de","phé nom","négoci ations","C el","p in","por tes","ver se","ist ance","chan gé","cô tés","rés il","tem por","pha se","M in","h 30","h auteur","in ation","dé p","sur prise","for cé","port ant","Ce pendant","réalis er","mag as","grav e","phon es","Philip pe","f ête","p ont","re venus","ur b","par quet","ag u","cé der","év acu","ass in","ajou ter","porté e","retrouv é","vac ances","3 6","v oc","è tre","in cident","ci é","ag n","com édi","sa tis","op port","ver t","minis tres","situ é","ill us","économ iques","multi pli","indus trie","scol aire","4 00","A M","N é","g ur","s ang","ô me","or ation","di ction","at es","ci te","gr ève","dis cu","inter vention","tis me","cl airement","connais sance","exper ts","3 2","T unis","c is","z i","è les","ol é","ex térieur","fi r","sol dats","utilis ation","propri étaire","straté gie","célè bre","A ir","F er","S an","r ons","la h","se ig","cu le","comp ét","deman der","génér ation","loc ale","artis tes","profession nels","dan ge","évolu tion","Oli vier","H er","er oun","ti ré","ar ab","dé di","ab at","puis qu","fran co","men ace","fer me","heure ux","hô tel","solu tions","circu lation","dy nam","condam né","B ri","M as","M ad","i ca","n aires","s ki","é dé","é car","in clu","lu mière","ven ant","comm unes","inter pel","sal u","tot alement","Ni co","Dé f","champion nat","fron tière","Aff aires","s ites","v ê","ch amp","pré vue","sou tenir","ble ment","19 7","enti s","répon d","anim aux","termin é","journ alistes","pati ents","finance ment","Esp agne","5 5","C lau","D G","v ague","en vers","it al","du l","li c","con dition","pas sant","pré voit","Ch aque","Mar ine","bon nes","fr ais","An ne","permet tant","ari o","prom is","commer ce","fav eur","règ les","Gen ève","pétr ole","K e","M et","i ce","m ail","un g","ra di","mo ts","ma ch","puis se","peu x","gu é","all ée","ban que","reg ard","viol ences","techn ologie","maxim um","3 4","M c","P é","i le","j ui","l les","v ils","re ç","al lon","av ion","che ment","fi ques","mé n","mon tré","lan gue","Mar tin","Au c","const a","bâti ment","Ama zon","espr it","C I","L o","P eu","b elles","h aute","la ges","ar es","ch at","al gé","mo der","actu el","ock ey","telle ment","consom ma","tro du","land ais","quali fi","dépl oy","améli orer","Univers ité","B iden","W e","p t","s h","ar ité","am a","dis pose","sig nal","effet s","aî t","vou lu","ON U","sex u","établis sement","tend ance","appro vision","T A","T u","s mart","re jet","re trait","ou se","ten sion","aff ec","permet tra","fu tur","meille urs","respons abilité","éch ap","voul oir","hon neur","chiff re","supplément aires","Ap ple","ryth me","A c","T h","re traite","ch ron","ter mes","ra les","cons truire","all ons","lais sé","pren ant","ukrainien s","diz aines","performan ce","ado les","endro it","énergé tique","an ie","is sement","ch o","tr és","av ir","li vr","ser aient","tou ché","mé can","cons ac","tiv ité","voit ures","chef s","arrê ter","lance ment","pén ur","blan c","Amé ric","personn ages","VI D","I ran","S eu","W ash","re mis","ai g","ent ôt","is és","in tention","dé voil","sur es","res pon","ra d","aut on","inter dit","pi ons","pri me","milli on","tent er","cor on","cor respon","ori ent","médi ca","bo ok","Gu inée","Lu c","Pa tri","investis sement","faci le","poi ds","3 7","M au","M at","Z el","b ran","f re","m ons","t t","î le","in trodu","ch ap","si ège","ac tes","ab eth","ces se","ses sion","mar chés","gi on","bles sé","Ukr ainien","dévelop per","bar re","preu ves","fai ble","acces si","Déf ense","M S","y e","su bi","sé par","présent s","ang lais","milli ard","fr ères","men é","eng ag","popu lations","télé phone","bal le","démocra tie","réfugi és","Wash ington","4 9","G i","b ons","j ard","on y","re mb","se cours","el l","com por","202 4","Mais on","ali tion","organis é","tir s","poursui vre","CO VID","syndi c","R es","g rés","m it","re ction","li x","ré forme","ser t","im mobil","fi gure","dis tin","ine t","suis se","matéri el","épis ode","J eux","L y","n ants","ag a","ni er","20 00","entre pren","lan de","part age","fil les","ay e","rest ent","char gé","utilis é","Ou est","diz aine","édu cation","N ations","S al","d anger","ne y","in no","du e","fait es","car tes","publi ques","Par lement","vie w","Rus ses","offici elle","électri que","sive ment","réguli èrement","D om","I voire","L ux","Q ui","g ol","j uri","est er","ri ens","ci vils","po st","ap porter","per te","pa tri","gé ant","cher cher","cli mat","établis sements","célé b","Lau rent","C r","P o","S P","b ra","s en","re venu","in de","ch on","ch ée","vi rus","mar oc","mar quer","fin ir","ven tions","car bur","att ente","th e","quit té","phot os","voul ait","poursui vi","achet er","difficul tés","Pu is","G ar","S es","c ents","f is","h en","re prise","ou t","av or","ab solu","mi te","cu is","cr oire","fé min","augment é","rédu ction","circu it","avoc at","psy ch","G é","a re","d in","g ner","p iste","re lève","ch asse","pl ant","ac ti","am our","pré parer","ang es","cré é","men ac","sig ne","peti tes","répon du","souv enir","gue ur","réf érence","disponi bles","Ital ie","6 5","J on","R u","a tives","o tes","an ge","il lé","ch ans","res tri","os s","pré occup","alis me","dev ons","hom mage","bi entôt","An d","gar dien","déf aite","Roy aume","renfor cer","civi le","avir us","( .","c les","f ab","l ai","t ter","de me","re prendre","un ités","di a","at oires","ac célé","mais ons","op pos","déc en","dire ct","eff ic","améric ains","europé ens","grap hique","analy se","A I","S E","b lé","s it","per man","fin al","gu i","vis ant","import ants","prin temps","jeunes se","tech niques","minu te","princip ale","Jo e","journ al","rappel é","aliment aire","secon des","enregis tré","hér os","Aus tral","déclar ation","F édé","Q atar","h au","j au","n ait","o it","ci ens","ag on","mi cro","tri ces","lo ge","tent é","fer met","hu mains","emb ar","vaccin ation","change ments","sensi bil","audi ence","salari és","C it","f lix","v ait","en ri","re cours","tr oupes","av ou","con tres","ci ne","ac cu","im meu","tou che","fin an","and a","att ent","tour ner","can adi","semb lent","tel s","cham bre","manifest ants","Face book","Net flix","usi ne","exerci ce","Zel ens","J ér","f ant","l its","r ais","é mission","di minu","li re","par avant","ci ble","ap pris","son d","su re","tu é","pla ces","acc ro","cent res","cri mi","cri min","proch ains","ta teurs","éch ec","nécess aires","len demain","gam me","piè ces","bomb ar","princi pe","classi que","deme ure","A R","N on","h ockey","k h","â teau","re mer","re joindre","dé tention","ri es","am as","pro xim","ab or","per dre","for tement","mé m","dis t","ru es","contin ent","senti ment","grap hie","partici pé","vale urs","refus é","séri es","promo tion","Rob ert","Bur kin","Vin cent","phénom ène","D ou","r av","r oi","s ouver","s core","é change","ti re","is s","dé pla","as trop","vi endra","cont rer","diff ici","sy mp","In stitu","expli quer","princip alement","direc trice","financi ère","trai tement","identi té","extrême ment","collabor ation","Zelens ky","proxim ité","H a","L ond","P et","b res","il lég","al lé","di te","ri ches","pro position","pro poser","ex am","min i","don née","st ar","men er","anci ens","ath lè","étr anger","nécess ité","manifest ation","chin ois","enqu ê","Nico las","Lux embour","Fédé ration","Lond res","3 8","t â","y é","de tte","re lation","ti l","ré p","ra f","ge ois","cou leurs","lo gement","lan cée","pos s","visi teurs","objec tifs","nal ités","stru cture","pê che","aéro port","forcé ment","E d","S au","re f","av al","vi eux","pré venu","ot o","Ch r","tra fic","cri tiques","organis ations","br ux","représent ants","profes seur","gag né","inv ité","chu te",". ”","A T","m os","t op","ex position","im m","op ti","pri vil","lig nes","fr u","mom ents","différ ence","atta quant","lit té","Don c","cam ion","comb ats","sole il","O c","R om","ti an","ti ème","in tel","ré jou","ré comp","ri te","ét aires","bu m","fr ère","contr aire","tomb er","instal ler","coû ts","appu i","mét h","excel l","procu reur","coron avirus","A z","C F","K ar","R C","a dul","p ée","é preuve","pré fé","vé g","pla y","alis ée","cri tique","fil i","tent e","sau v","As soci","cat astrop","collec tif","effectu é","performan ces","trim estre","solid arité","consu l","décé dé","caté gor","4 8","A D","F ré","T hom","re mettre","is ée","pr est","il lon","co opération","mon d","vé cu","qué es","form u","permet tent","déf endre","réalis ateur","rent rée","san itaires","meille ures","décis ions","intérê ts","étrang ers","conten u","rece voir","Clau de","H e","S ta","è que","re ine","la c","des c","ch aus","at tr","at tribu","ri d","dis sement","déc len","ren seig","dev ront","main tenir","cré dit","An t","cin qui","loc ales","bat tu","sal aires","poin te","offici el","rom an","idé es","exploit ation","Toute fois","cant on","statu t","catégor ie","4 7","C R","D el","T ri","i ra","s ti","v aut","œ il","is sent","in su","te c","al bum","dé pen","sur face","sur veill","pro long","ex ig","inter net","Qu é","pos ent","ga re","pass ée","constitu tion","agres sion","migr ation","oubli er","dial ogue","Ukrainien s","C ou","F re","O S","P al","c iter","f aux","s et","le ts","ti tres","qu anti","in vit","li mite","ré action","lo gique","Au tre","th ème","inté g","Com ment","vol s","olog ne","seul s","prê ts","présid ence","aé rien","habitu de","milit ants","offensi ve","Cel ui","cinqui ème","E li","E ric","J apon","O ui","a tement","j on","É ric","en de","et c","in croy","end o","né r","st y","ren contres","enti er","sui v","fran ch","men ée","gar anti","nom mé","ban c","sal les","plan ète","maj eur","associ ations","faci lement","Cam eroun","discus sions","consta té","M il","M ag","T ch","a trice","b ap","d ons","f allait","t aille","dé lég","pour rez","con cep","ve z","gé rer","quel qu","can adien","201 3","loc al","uel s","let tre","confir me","alle mand","liv res","institu tion","certaine ment","pénur ie","absolu ment","Luxembour g","D ani","F estival","G rou","O tan","m été","ti c","ch ard","ch ante","dé tru","ci de","ter ie","sé jour","mes s","mo bi","cé es","lis e","bi o","ru ption","bou le","servi r","chois ir","particip ants","lim it","procé dure","aler te","supplément aire","législa tives","F i","M I","P I","T im","k er","m am","n ance","r ares","ti ens","is tique","pr ati","ch oc","om ie","li és","us age","ag ré","ter res","né ga","ins pi","mont ée","tel les","rési dence","profession nel","Ber n","autom ne","financi er","mod èles","Alex and","commis s","maî tr","Tru mp","équ ili","consomma teurs","Chr ist","D ar","D ur","E A","J our","S té","d or","x es","ne ige","si mil","dé bar","con cent","co de","dur able","prom et","attend ant","Pa ys","univers ité","fac il","respec ter","olymp ique","ica ce","Patri ck","intel lig","C H","K y","S tr","s cru","u p","v ul","é ter","é cla","€ .","qu ait","is ent","se cteurs","ch t","vi g","ap prendre","ff e","per tur","ex amen","mé tro","ten sions","lo g","aff ron","ali er","trans ports","Al ain","éch elle","Re d","princip aux","frap pe","terror iste","piè ce","stu dio","indépend ance","Ban que","déplace ment","mém oire","F as","d ité","k ing","n ante","o od","t oi","é rie","ant aine","qui e","ain tes","per spec","op tion","cont ent","vé ri","eff icace","off ert","oy er","tent ative","rê ve","prend ra","représent ant","cir const","béné vo","maj or","test s","détail s","immédi atement","scén ario","Oc cident","2 e","4 4","F e","R am","T or","a si","l d","é par","é clair","’ ’","re pris","ti ce","is té","ar ra","au teurs","di ct","di um","li ers","tre am","man e","co alition","for ê","cou pe","cri mes","situ ée","région al","nive aux","esp è","sup porter","olo giques","cy c","ON G","multi ples","of t","fla mb","appare il","approvision nement","A L","B la","L am","c ais","o gique","t ons","v aise","î t","is ant","in for","or es","li é","vi gueur","ces sion","mé tr","rap peler","lan te","bles sures","visi ons","St ar","hy po","bénéfi cier","propri été","parten ariat","accompag ner","méde cin","vingt aine","infrastru ctures","compor tement","Associ ation","Sté ph","% )","G abon","O T","R ap","d rap","j a","la té","au paravant","se c","li ées","pl ans","ét oi","cont est","cr on","tra du","fer mer","confi e","réf lex","investis sements","anal ys","dérou le","fron tières","migr ants","supéri eur","rencontr é","anni versaire","cab inet","Institu t","W ar","W illi","g as","m n","w an","é gi","in aire","dé mission","son ne","im posé","im possible","ra re","gé es","inter view","19 6","col ère","lar ité","sig n","grav es","bénéfi ci","docu ments","écri re","So ci","institu tions"]}}