{"version":"1.0","truncation":null,"padding":null,"added_tokens":[{"id":0,"special":true,"content":"<UNK>","single_word":false,"lstrip":false,"rstrip":false,"normalized":false},{"id":1,"special":true,"content":"<SEP>","single_word":false,"lstrip":false,"rstrip":false,"normalized":false},{"id":2,"special":true,"content":"<MASK>","single_word":false,"lstrip":false,"rstrip":false,"normalized":false},{"id":3,"special":true,"content":"<CLS>","single_word":false,"lstrip":false,"rstrip":false,"normalized":false}],"normalizer":null,"pre_tokenizer":{"type":"Whitespace"},"post_processor":null,"decoder":null,"model":{"type":"Unigram","unk_id":0,"vocab":[["<UNK>",0.0],["<SEP>",0.0],["<MASK>",0.0],["<CLS>",0.0],["s",-2.82810580578146],["a",-3.0115989968120083],["de",-3.2235535478935233],["e",-3.4884599235960785],[",",-3.7407077858052897],["la",-3.783058919662741],["en",-3.905895323157388],[".",-3.978710222014966],["o",-4.086349753938842],["l",-4.092670435745848],["n",-4.100652610684676],["el",-4.15666157134023],["que",-4.164161296532354],["y",-4.21310891516687],["r",-4.221223364370472],["es",-4.338964643667701],["i",-4.57380877995346],["c",-4.6571404469450535],["u",-4.7055668321859265],["al",-4.7701386238731835],["d",-4.783592689682992],["con",-4.785340438387841],["ó",-4.829169122665382],["re",-4.914827853809145],["un",-4.957180438824285],["t",-4.973454077847995],["los",-4.974829224911343],["ta",-5.131364676476888],["no",-5.164328545674794],["p",-5.18411554843089],["ción",-5.209279884370456],["do",-5.2603584326776645],["por",-5.279570926557419],["del",-5.291130091747437],["su",-5.319713617783277],["di",-5.323959331924868],["lo",-5.335251621616296],["to",-5.335263100681363],["ar",-5.384178013918586],["para",-5.448969805377162],["te",-5.449413699915715],["ci",-5.452912772353498],["m",-5.482481354264328],["f",-5.484002242099367],["ti",-5.5106267165358584],["vi",-5.5143541376266985],["in",-5.5529298060105745],["A",-5.556357690130845],["g",-5.574379967671765],["las",-5.59889531630701],["una",-5.615354512207455],["ca",-5.673695405352495],["co",-5.691958813678923],["ra",-5.736754833628005],["b",-5.782219661365533],["er",-5.792949775241334],["cu",-5.8071712454357485],["P",-5.825027281277343],["ha",-5.82772064526327],["mi",-5.829726087976123],["ma",-5.848780505292835],["ado",-5.872461495353987],["si",-5.891745603432046],["z",-5.91298313429661],["é",-5.975807416435334],["ro",-5.98998847178299],["ri",-6.0074148060832435],["El",-6.030352738601973],["í",-6.031255124966458],["esta",-6.035818183190841],["S",-6.038631489217773],["La",-6.058439928811779],["mo",-6.063758909583834],["más",-6.107788139021988],["me",-6.126893454106991],["“",-6.145219334289889],["C",-6.146470829245937],["á",-6.163943434782571],["T",-6.191220334980729],["B",-6.248064843963075],["pro",-6.249418365920446],["go",-6.255539532527983],["va",-6.256325766029461],["ba",-6.297793120600646],["pa",-6.298471731515365],["dos",-6.313127496079984],["ex",-6.313197960163016],["mente",-6.322195187179913],["res",-6.330737592783766],["po",-6.345206341040317],["\"",-6.354784941042846],["como",-6.35491070862985],["2",-6.37534007468917],["pre",-6.385061010639088],["or",-6.389591997405654],["ni",-6.39173319021986],["tu",-6.3986850584764365],["tra",-6.427634091753518],["gu",-6.435378121206533],["En",-6.45370827062011],["F",-6.461210234290775],["mos",-6.461663904239458],["ga",-6.465338089447695],["E",-6.468406928764443],["ciones",-6.47962858403722],["ver",-6.495145099966454],["rá",-6.496874594168945],["idad",-6.499270814615048],["v",-6.50247552245769],["h",-6.5060807721663],["ve",-6.541765921292873],["ada",-6.561550180943721],["este",-6.565251077473018],["M",-6.577819789419225],["pi",-6.595020125995532],["per",-6.599282719208228],["ter",-6.610533690259738],["fue",-6.621742392954598],["on",-6.629019153833482],["les",-6.632159675439185],["ven",-6.67948311273277],["ten",-6.680180071487056],["N",-6.6883073635519885],["pu",-6.691913749798317],["tar",-6.698732318405888],["G",-6.714481939550044],["vo",-6.716034102581357],["(",-6.717406338912959],["R",-6.718111163559644],["D",-6.746554508897367],["bi",-6.752741201834912],["O",-6.76018203962327],["encia",-6.766697995441453],[":",-6.776814796140725],["nos",-6.780513107352862],["I",-6.788179326495465],["L",-6.818650229329958],["4",-6.824680657730074],["tos",-6.835941301423778],["k",-6.850902817636138],["miento",-6.852636675509805],["ble",-6.854274756710387],["sión",-6.864788450249577],["za",-6.865327479800051],["3",-6.870457710828553],["5",-6.878576620760946],["ron",-6.879219573087084],["car",-6.895393778777461],["entre",-6.899168314116402],["ju",-6.903090509420558],["je",-6.910056987528861],["ú",-6.915293419579932],["ja",-6.918125812751969],["sus",-6.930255264688457],["nte",-6.9340761947604825],["mar",-6.938582494410836],["ía",-6.940345356413932],["ida",-6.956576672415002],["gra",-6.959861223270696],["qui",-6.9656639769557245],["rio",-6.972096146352779],["ría",-6.9762512679956785],["tro",-6.977804143206569],["jo",-6.998063287760452],["dic",-7.0019614241252235],["ando",-7.008640339799266],["V",-7.015774774899716],["”,",-7.019902716244811],["tiene",-7.026844549509448],["com",-7.030644668660678],["bo",-7.033441361393107],["20",-7.035518472922206],["-",-7.04534482597475],["6",-7.048143245982649],["De",-7.050241298595962],["ir",-7.0560389287469505],["pero",-7.061805512887641],["años",-7.064390979291796],["1",-7.066994529192122],["man",-7.070975831432564],["0",-7.073249440418023],["gi",-7.074528663374924],["ón",-7.075864044779745],["ico",-7.084599331571383],["fi",-7.0884732816892235],["ho",-7.103969652630187],["día",-7.107142230682749],["can",-7.109729349770035],["8",-7.1127046656125685],["ser",-7.1208303712208085],["cio",-7.130506329756047],["án",-7.130720580421871],["ido",-7.142468860043806],["mb",-7.1429428847333],["tal",-7.145676186548602],["ista",-7.1462631619154156],["7",-7.151604731669574],["hora",-7.152076936186527],["cre",-7.161636881596408],["ante",-7.174608346757861],["inter",-7.177057158623972],["ment",-7.178990709905754],["está",-7.182351297911753],["también",-7.185167954772142],["ina",-7.1900964369751925],["aron",-7.205549484243601],["das",-7.210267331704111],["tras",-7.212828961275182],["iente",-7.215562029509284],["sobre",-7.221875773805449],["9",-7.2230728058808396],["Es",-7.231082707460649],["cor",-7.236036904643731],["cer",-7.2369555472408],["tor",-7.2399111437297154],["ncia",-7.246594577565043],["son",-7.2730815367259165],["han",-7.276704599251879],["ndo",-7.295477816827782],["Y",-7.297079366620865],["Un",-7.298808950287594],["par",-7.301862166869908],["Al",-7.303805727329625],["j",-7.3044213702067164],["cha",-7.305958637861666],["contra",-7.308384291121245],["Ca",-7.311415099426306],["comp",-7.319319718348957],["tiva",-7.320485311092197],["x",-7.321467120751169],["rec",-7.329053849892727],[")",-7.340682237409069],["”.",-7.34510029922267],["puede",-7.349547430822724],["era",-7.352527429188127],["ario",-7.352619574877311],["im",-7.355096242395824],["forma",-7.359625110025901],["«",-7.362287202117546],["tri",-7.365512853909138],["Los",-7.368157719566581],["»",-7.371332803335038],["%",-7.373214566459183],["ur",-7.375054243668039],["pas",-7.3775028417120065],["Con",-7.378105810410615],["ran",-7.380773584100568],["Se",-7.3817716898110195],["”",-7.383870522134034],["zo",-7.385461325153079],["Re",-7.390023771058713],["H",-7.3924405678117555],["tivo",-7.406038273414476],["U",-7.413837898700166],["parte",-7.414145680134043],["rse",-7.415857995570532],["cas",-7.420566182041398],["año",-7.426603374802143],["desde",-7.43102218191358],["No",-7.432451409179974],["bu",-7.435971560245905],["todo",-7.441081812434553],["hay",-7.4426465291022845],["lic",-7.443707430280382],["iendo",-7.445005067816139],["ntes",-7.452812172228167],["tado",-7.45397546562307],["tura",-7.457564979273666],["Ma",-7.457789857358325],["ig",-7.458302624840922],["Por",-7.459450591992678],["ña",-7.4642002929531035],["gan",-7.467887091705473],["mento",-7.473067292669273],["muy",-7.474583082724173],["ab",-7.475864102728906],["país",-7.482402881075467],["ob",-7.48936470215937],["ras",-7.494802236416422],["ero",-7.495396541197166],["fic",-7.503614758192668],["hi",-7.508412027471785],["Co",-7.510924012939764],["cri",-7.517511767033045],["ion",-7.52176892717702],["hasta",-7.53605743420339],["In",-7.545688165242153],["ing",-7.551592268276773],["gran",-7.555861402048745],["bra",-7.557428570812843],["mu",-7.569127274103679],["J",-7.573581048706099],["ban",-7.579451022275358],["és",-7.590763142595636],["ieron",-7.598718504296308],["duc",-7.605918794278198],["bri",-7.610162863735213],["19",-7.612157869331171],["mina",-7.619120686199352],["donde",-7.629265608729232],["cuando",-7.641876878646685],["tan",-7.64591235469974],["personas",-7.646340153011801],["dio",-7.648493695026164],["aria",-7.652341730151655],["mejor",-7.653525548641389],["rán",-7.6539346972549644],["00",-7.675101625852031],["tas",-7.676475982544926],["tre",-7.694193670625962],["mismo",-7.697619477179722],["caso",-7.698547466527648],["imp",-7.699101539567899],["sol",-7.699824823563595],["ión",-7.70040651313736],["leg",-7.704478148246433],["cada",-7.70861010242192],["emos",-7.7146521229131295],["firm",-7.717805096323572],["iones",-7.718992700467196],["mayor",-7.719933169425262],["che",-7.721882017105654],["ist",-7.723403776146013],["w",-7.723786676962311],["egún",-7.725601174532786],["ber",-7.730969365483616],["emp",-7.740511711498374],["cho",-7.7514817778700476],["fer",-7.752741083501827],["pec",-7.754059215239145],["sin",-7.755517230473165],["vida",-7.773746666962441],["primer",-7.7752012999943565],["fin",-7.775712216594959],["tener",-7.780811623512009],["Ju",-7.781414845485401],["toda",-7.781472875601954],["tica",-7.782996365450439],["ciudad",-7.783959594933486],["quien",-7.786857539915182],["mucho",-7.786938204932635],["ch",-7.793498456128879],["otros",-7.793826397632328],["hacer",-7.79540371576738],["antes",-7.800203247746048],["hace",-7.805274451265827],["dor",-7.819625525352348],["?",-7.824034365726869],["Mi",-7.824350864796221],["persona",-7.826106971197788],["momento",-7.829502807360989],["llega",-7.831735122988399],["dar",-7.834968953201815],["it",-7.835771607272391],["plan",-7.836850396250708],["tiempo",-7.837505957009182],["Ha",-7.837786775237154],["¿",-7.837926923288177],["\",",-7.842759009823289],["durant",-7.8429172717887505],["San",-7.843511442508944],["nacional",-7.846457787155376],["cal",-7.847764887916422],["ño",-7.848171941435418],["Pa",-7.850435488047191],["K",-7.856077156474391],["gen",-7.861793754684266],["había",-7.86376708960083],["uno",-7.866787961362712],["'",-7.874044785237385],["debe",-7.877247061168961],["tí",-7.882645323580268],["ito",-7.883986715327632],["todos",-7.884073449417816],["millones",-7.8876093413887345],["Si",-7.888984334819174],["Di",-7.8907353728546195],["genera",-7.892062238958044],["Su",-7.89263274738058],["porque",-7.91608814639306],["fo",-7.91851500117733],["gente",-7.921318153261872],["están",-7.927429581402409],["presidente",-7.9283379093790245],["vez",-7.931281686970795],["medio",-7.931936242508196],["final",-7.9373898731335855],["puesto",-7.941587853357337],["W",-7.942094598968056],["anza",-7.945280831937894],["solo",-7.946366410810471],["uso",-7.951866287148696],["cuenta",-7.953920744199791],["bien",-7.959712610642672],["partido",-7.959787789496891],["lugar",-7.964135755299855],["equipo",-7.966945207377725],["Cu",-7.9673034744331055],["nuevo",-7.974798896936714],["10",-7.975488827124694],["mil",-7.977469227505681],["inc",-7.978241454753936],["hecho",-7.978286700810566],["Ro",-7.984903976577947],["gar",-7.987441789708262],["Esta",-7.988006149799591],["Estado",-7.988640350028296],["tario",-7.992468270489778],["ific",-7.995644078528267],["ismo",-7.997916111119239],["\".",-8.002668439327284],["familia",-8.003256811917186],["inici",-8.00662314007685],["semana",-8.014836551746257],["trans",-8.016273699446932],["Com",-8.023739122985265],["cent",-8.024440988833472],["adas",-8.025812052002873],["empresa",-8.030365818808548],["for",-8.03410526091109],[";",-8.042323980434876],["tuvo",-8.047127353284374],["Ch",-8.04981297634707],["primera",-8.054765802190595],["trabajo",-8.061429145004572],["social",-8.06479691057666],["Lo",-8.06961913859061],["así",-8.072668673686326],["Me",-8.073947067234851],["último",-8.079160228095645],["después",-8.081073740635038],["ili",-8.08112636197951],["auto",-8.085364671643596],["To",-8.086179161951792],["nueva",-8.092631296563336],["uego",-8.093822722983685],["embre",-8.095946613302637],["pasado",-8.098457141733391],["señal",-8.104112699426079],["her",-8.105643349945874],["Mar",-8.10822317292522],["edad",-8.118263945845523],["bor",-8.12063642763001],["lleva",-8.131164988539954],["espera",-8.131224299357541],["tanto",-8.134576401390184],["tres",-8.13478168461878],["ult",-8.136255793299778],["mí",-8.137132385119006],["inten",-8.14010399829178],["nada",-8.142262840486033],["trata",-8.151881044400367],["pri",-8.15318907767467],["Gu",-8.156452703242604],["Jo",-8.159899752568919],["toria",-8.160922533456173],["mujer",-8.16840477557341],["Ademá",-8.169229962236933],["sido",-8.169541010865874],["será",-8.172529018183463],["’",-8.178002937650362],[").",-8.189897043485097],["poco",-8.194046562286536],["menos",-8.202387340304265],["media",-8.211023838121655],["Pero",-8.211192962708868],["dij",-8.212622768931986],["2022",-8.217387595422132],["inform",-8.21832058678828],["baja",-8.227921861304239],["000",-8.228896832802638],["empre",-8.231017518766365],["junto",-8.239385556582752],["estado",-8.242105211937364],["punto",-8.242585158871481],["illa",-8.243959377134644],["cerca",-8.244747789915554],["Para",-8.250132373912116],["situa",-8.260568773472059],["asegur",-8.262998163777915],["eguridad",-8.2667846109109],["importante",-8.268341979004749],["Vi",-8.268828627236076],["realiz",-8.269789392397229],["Este",-8.277893527212115],["acuerdo",-8.279916571588327],["Car",-8.282741851787474],["30",-8.28653166478283],["manera",-8.292700252276578],["zona",-8.293231286556345],["qué",-8.29477992461495],["tenido",-8.296526333791121],["mundo",-8.298831394413664],["acto",-8.305648392964269],["‘",-8.309080335158846],["curso",-8.319066734746226],["Z",-8.329291207940756],["present",-8.337503287313584],["Ho",-8.342130391779662],["gobierno",-8.34410047996723],["Gobierno",-8.347421084151417],["embargo",-8.355773289094582],["participa",-8.357451274045786],["pet",-8.358842430295498],["produc",-8.359634912101008],["ización",-8.362482839778838],["actual",-8.364717520982534],["proyecto",-8.365039347060662],["conoce",-8.365672673367783],["trav",-8.369687682287111],["servicio",-8.373554551254866],["izar",-8.376528524242069],["nuestro",-8.37868274257119],["Sin",-8.380266492258908],["local",-8.382091333296056],["especial",-8.382114741280688],["estaba",-8.386314678078968],["poder",-8.38694544548219],["opera",-8.388003305551937],["dato",-8.391846943872402],["nivel",-8.39488310652251],["seguir",-8.395140277819097],["18",-8.396836652856525],["recibi",-8.39691244182601],["mient",-8.397966575490138],["12",-8.405450924082697],["investiga",-8.407396261351813],["chi",-8.40743513801931],["grupo",-8.42705784964829],["cep",-8.429488919639152],["desarroll",-8.431526869462896],["manda",-8.434291542716164],["15",-8.434599116943367],["política",-8.436059323470374],["tru",-8.436888277240799],["anti",-8.439363359564732],["logr",-8.439611406826472],["precio",-8.450584310713019],["Nacional",-8.45439996937785],["busca",-8.456059684516052],["programa",-8.457221692825058],["queda",-8.474178462412462],["bajo",-8.47465067040293],["cambio",-8.488290202818664],["podría",-8.491231244760227],["agua",-8.494773326716714],["registr",-8.495058171792321],["hombre",-8.50378809505396],["50",-8.504717939206383],["destac",-8.507085874637651],["public",-8.507630873375621],["sector",-8.513728062152522],["ambién",-8.5164894815506],["ayuda",-8.517784200457966],["quiere",-8.522255455061254],["problema",-8.523391319028375],["anunci",-8.527192510206476],["llama",-8.530554149459572],["autoridad",-8.531364297846721],["mucha",-8.534329953152042],["comunica",-8.537343285958094],["cómo",-8.53757320764504],["pública",-8.539352059789731],["funciona",-8.541371885082118],["vía",-8.541628354990237],["alguno",-8.542273963940616],["haber",-8.543474096064896],["medida",-8.545903572661294],["hum",-8.554016980750353],["Méx",-8.55766655629941],["posible",-8.557716759109491],["X",-8.558681243343628],["ñ",-8.566245288883643],["salud",-8.576133877494502],["nuestra",-8.576352760207467],["parece",-8.578094256333557],["posición",-8.583908484750246],["actividad",-8.585910178576551],["última",-8.587866275931178],["proceso",-8.589015998057718],["tribu",-8.589556741312412],["producto",-8.598899642399502],["fac",-8.602609918768067],["centro",-8.60337121660897],["España",-8.60601409655079],["vista",-8.606095034338148],["historia",-8.611461476073142],["principal",-8.6135763050826],["let",-8.616196213489946],["sigue",-8.619297514121126],["declar",-8.621239988055518],["organiza",-8.626814174270683],["11",-8.627652607493673],["habla",-8.63493936200033],["2021",-8.636636147093915],["/",-8.642196838662493],["14",-8.642966244102892],["cuatro",-8.657644403670403],["público",-8.660225496407094],["viern",-8.661601732553333],["alguna",-8.663397007065248],["Unidos",-8.663924483726703],["respond",-8.665001817237377],["quí",-8.665935358254094],["bilidad",-8.666090878416695],["mostr",-8.666213328939335],["varia",-8.668101481032956],["sistema",-8.673992971414862],["ministra",-8.675121192398223],["encontr",-8.675740834685604],["oficial",-8.679754483458407],["fuero",-8.682513809048135],["sabe",-8.687505131937263],["resultado",-8.690254356216798],["valor",-8.69424043643707],["diferente",-8.694936251156282],["Ucrania",-8.6961090012455],["frente",-8.713036751573108],["próximo",-8.718755942224444],["afecta",-8.718768683571533],["izado",-8.726628569205648],["comenz",-8.729288526250627],["provincia",-8.730921093378461],["derecho",-8.733126260269465],["ministro",-8.733330747743008],["respect",-8.740278710437444],["euros",-8.740486090730657],["número",-8.741928898535125],["considera",-8.743260744280406],["tendrá",-8.744022463550484],["encuentra",-8.74441448799282],["dólar",-8.747019151693552],["calle",-8.747112676834519],["mercado",-8.74813769820283],["viaj",-8.75679420454265],["misma",-8.757774216879968],["…",-8.761866060136445],["objetivo",-8.763127899517867],["cualquier",-8.766914310950543],["segundo",-8.768198711459931],["expres",-8.769113774708437],["continu",-8.770761372175244],["igual",-8.78029105818321],["Fue",-8.785023223470649],["visita",-8.787279139696906],["espacio",-8.799260713160162],["juego",-8.80084979139809],["minuto",-8.80173763685374],["jugador",-8.814877010999805],["control",-8.818381072376486],["Así",-8.819858864938398],["explica",-8.820182530170708],["punt",-8.821512097202351],["dura",-8.825069394141604],["ático",-8.838893034916616],["vehículo",-8.8431157011605],["nunc",-8.845297703984897],["Á",-8.847219665863303],["activ",-8.852158625370699],["celebra",-8.85273532087394],["cinco",-8.854372289799773],["pueda",-8.85574266283417],["causa",-8.856802189237326],["sentido",-8.873913163621243],["ciento",-8.875807604596835],["mañana",-8.880682401290052],["falta",-8.886213071491118],["temporada",-8.886359489800657],["sábado",-8.886377167304206],["cumpli",-8.890650883491732],["Europ",-8.890655818031096],["víctima",-8.90506370916452],["ller",-8.905220335265048],["funda",-8.91593479313519],["partir",-8.920963404110113],["domingo",-8.921176039313007],["anda",-8.926436445628788],["Argentina",-8.930065005716],["pandemia",-8.931556836873327],["encuentro",-8.936049216239063],["inclus",-8.936988536794315],["$",-8.937538878706246],["fecha",-8.944246833430999],["menor",-8.946090697924088],["utiliza",-8.948141729537115],["comunidad",-8.951213979898156],["ocurri",-8.951253387560376],["solicit",-8.955742782940746],["anterior",-8.957578327911218],["ance",-8.968210520650873],["iana",-8.972823334604872],["favor",-8.973271019575023],["línea",-8.975777288429889],["agreg",-8.97605901002649],["oportunidad",-8.982024814144236],["podrá",-8.982326640652467],["hub",-8.984129126269902],["alcanz",-8.987421531009689],["iércol",-8.993143912376816],["aplica",-8.995056857469546],["carrera",-8.998337174571523],["cuerpo",-8.999590101647257],["segunda",-9.00423090489366],["necesita",-9.00583591495548],["materia",-9.005990982753127],["vacuna",-9.009060340882517],["fuerza",-9.01247007089502],["existe",-9.016513241937233],["español",-9.02381457928934],["importa",-9.029346562229762],["enfrenta",-9.041826415528039],["ofrece",-9.042021846610233],["prueba",-9.04850317254465],["muestra",-9.062234438157603],["fiscal",-9.066011208570602],["Qui",-9.074166620641641],["capital",-9.075739147465239],["cierto",-9.07871614061516],["pueblo",-9.079177133446136],["elección",-9.081109742995912],["denuncia",-9.08113651493147],["Ministerio",-9.087821052240509],["trabajador",-9.0895710518814],["muerte",-9.093150402764484],["apoyo",-9.09326367159689],["población",-9.098348214484371],["municipio",-9.100101903066463],["tuvier",-9.10377638922661],["guerra",-9.105636087117478],["ubica",-9.10577591215069],["político",-9.108967218633856],["capacidad",-9.11432549752279],["ejemplo",-9.1161176932977],["jornada",-9.121556131070076],["mensaje",-9.123320862908937],["acompañ",-9.123419121236367],["volver",-9.129089109806479],["permiti",-9.132787811685354],["recupera",-9.134334829626964],["accione",-9.136424277353315],["instala",-9.161186249813627],["ernández",-9.16387581694774],["líder",-9.170478615719317],["hospital",-9.17332836123583],["estudio",-9.173466823622817],["positivo",-9.17526750874108],["profesional",-9.177133540012973],["policía",-9.180966116239077],["manifest",-9.180975146601293],["pregunt",-9.18304850968785],["residencia",-9.188968889168137],["Madrid",-9.196386499356917],["octubr",-9.198331223796721],["club",-9.198370223064082],["ampli",-9.206156977029337],["mática",-9.21798617040242],["Ciudad",-9.217995368565976],["necesario",-9.225973159245695],["Mundial",-9.22798188660793],["compañía",-9.229983461650255],["futuro",-9.229985619541882],["estructura",-9.23401178105383],["Policía",-9.234011935670466],["–",-9.238056082162462],["experiencia",-9.238056399378529],["conocido",-9.25863546241667],["trabajar",-9.25900936466201],["municipal",-9.266835045870494],["impact",-9.267396282594262],["Luis",-9.27107862112776],["económica",-9.277317703683075],["posibilidad",-9.279440979737396],["cabeza",-9.279446290275267],["campe",-9.285847447718524],["!",-9.294320900371353],["natural",-9.294499543095707],["necesidad",-9.29862181326246],["increment",-9.302143049265815],["campaña",-9.302932576143471],["falleci",-9.305099438327801],["explicó",-9.307266588092503],["difícil",-9.318183264965874],["2023",-9.320398483050884],["estadounidense",-9.322583641427606],["General",-9.327017365853116],["disfrut",-9.329221195794624],["miembro",-9.331449006486764],["obliga",-9.331475372785942],["significa",-9.333670622952054],["energía",-9.335905874194665],["condicione",-9.339876071132462],["sociedad",-9.349415754029064],["industria",-9.356219109170642],["conocimiento",-9.356227979690871],["Salud",-9.360833169491354],["médico",-9.367691925338757],["violencia",-9.37001163360351],["¡",-9.372311377815558],["identific",-9.374632120212858],["vivienda",-9.381647138314383],["febrero",-9.391025503912797],["Durant",-9.400835542013663],["mencion",-9.407267205578854],["enfermedad",-9.41976999276589],["pendiente",-9.427097335485982],["plataforma",-9.429544526432391],["Q",-9.430944827350492],["eleccione",-9.433517048564688],["económico",-9.436927478887046],["efecto",-9.442002731507365],["mundial",-9.449388924936802],["gobernador",-9.451871441761817],["lógica",-9.454394955648013],["Twitter",-9.459428066850048],["principio",-9.482446972593],["compromiso",-9.482447105039265],["película",-9.48244741822272],["lógico",-9.482458993521846],["responsable",-9.485037642975355],["ningún",-9.48503953703439],["institucion",-9.511321942256355],["ología",-9.511819442721677],["comercial",-9.522032388535736],["próxima",-9.532855485341717],["territorio",-9.54379987693753],["fútbol",-9.549316757656449],["periodista",-9.55486466628899],["técnico",-9.560443472668359],["Después",-9.56044427873806],["amenaza",-9.566060734586868],["práctica",-9.568870963109205],["Congreso",-9.583076642996636],["efectiv",-9.594603396106226],["música",-9.597485487082178],["máximo",-9.603307105878232],["beneficio",-9.603307123718796],["accidente",-9.603311223422802],["distinto",-9.60331895125151],["presidenta",-9.606234468409356],["levant",-9.618803081511189],["consecuencia",-9.63293970347507],["kilómetro",-9.642002374452503],["libertad",-9.648091026432647],["aprovech",-9.648101962746695],["Colombia",-9.65114885861692],["responsabilidad",-9.660379600748506],["América",-9.694974225605996],["temperatura",-9.704620625164956],["particular",-9.704620900603626],["disponible",-9.727497397623637],["mexicano",-9.727497476871596],["compañero",-9.74416450829765],["estrategia",-9.754299712218021],["Municipal",-9.764538619495767],["emergencia",-9.771423436704609],["ü",-9.788845343773568],["Instituto",-9.788845364805766],["Fiscalía",-9.79236648089363],["—",-9.8430101480922],["Rodríguez",-9.846727620211425],["COVID",-9.884682794688814],["ucraniano",-9.9241356070165],["máxima",-9.94857670086294],["°",-9.952708924609926],["González",-10.03465116887432],["º",-10.061987675741598],["É",-10.138763828901954],["+",-10.238322193583945],["q",-10.489898200210924],["Ó",-10.631465305548609],["ç",-10.752825399796933],["́",-10.790388225236677],["&",-10.849518269484786],["è",-10.991057036556116],["´",-11.142285993317198],["€",-11.169873512343072],["Í",-11.227442369647168],["à",-11.304401889190643],["ª",-11.387781562591043],["•",-11.405325422240166],["Ú",-11.459882901797645],["贸",-11.788892763728047],["*",-11.81520855320173],["®",-12.021807646103007],["`",-12.055140979436338],["ö",-12.055140979436338],["′",-12.089623738057028],["Ñ",-12.125338023771313],["¢",-12.125338023771313],["″",-12.325981526806123],["·",-12.577242254382641],["️",-12.577242254382643],["¨",-12.765232450461088],["ã",-12.765232450461088],["―",-13.087826523055595],["ò",-13.298937634169954],["â",-13.423937634179058],["ä",-13.423937634179058],["ê",-13.423937634179058],["茅",-13.566794777036202],["×",-13.566794777076161],["™",-13.566794777076161],["谩",-13.566794777076161],["Ö",-13.733461443742826],["‎",-13.73346144374283],["❤",-13.73346144374283],["✅",-13.73346144374283],["ë",-13.73346144374283],["ï",-13.933461443742829],["【",-13.933461443742829],["⬇",-13.933461443742829],["】",-13.933461443742829],["铆",-14.183461443702871],["煤",-14.183461443742829],["ć",-14.183461443742829],["£",-14.183461443742829],["₂",-14.183461443742829],["˜",-14.183461443742829],["ę",-14.516794777036207],["å",-14.516794777076159],["ō",-14.51679477707616],["ş",-14.51679477707616],["Ç",-14.51679477707616],["À",-14.51679477707616],["²",-15.016794777036203],["ā",-15.016794777036205],["帽",-15.016794777036205],["Š",-15.016794777076152],["û",-15.016794777076157],["Ü",-15.016794777076157],["ô",-15.016794777076159],["★",-15.01679477707616],["~",-15.01679477707616],["➡",-15.01679477707616],["н",-15.01679477707616],["✨",-15.01679477707616],["＊",-15.01679477707616],["¼",-15.01679477707616],["−",-15.01679477707616],["ē",-15.01679477707616],["▶",-15.01679477707616],["Å",-15.01679477707616],["î",-15.01679477707616],["ı",-15.01679477707616],["✔",-15.01679477707616],["─",-15.01679477707616],["⭐",-15.01679477707616],["Ä",-15.01679477707616],["у",-15.01679477707616],["ğ",-16.01659477707616],["ì",-16.01669477707616],["̀",-16.016794777036207],["ø",-16.01679477707615],["õ",-16.01679477707615],["İ",-16.01679477707615],["̃",-16.01679477707616],["➤",-16.01679477707616],["¯",-16.01679477707616],["⚠",-16.01679477707616],["Ÿ",-16.01679477707616],["₡",-16.01679477707616],["§",-16.01679477707616],["⚽",-16.01679477707616],["ł",-16.01679477707616],["ß",-16.01679477707616],["ś",-16.01679477707616],["Î",-16.01679477707616],["‡",-16.01679477707616],["❉",-16.01679477707616],["Ò",-16.01679477707616],["ỗ",-16.01679477707616],["ð",-16.01679477707616],["¾",-16.01679477707616],["³",-16.01679477707616],["ń",-16.01679477707616],["✊",-16.01679477707616],["ễ",-16.01679477707616],["˝",-16.01679477707616],["ă",-16.01679477707616],["☝",-16.01679477707616],["⏱",-16.01679477707616],["½",-16.01679477707616],["❣",-16.01679477707616],["▌",-16.01679477707616],["◆",-16.01679477707616],["❗",-16.01679477707616],["†",-16.01679477707616],["ᵃ",-16.01679477707616],["✓",-16.01679477707616],["☕",-16.01679477707616],["脕",-16.01679477707616],["℃",-16.01679477707616],["μ",-16.01679477707616],["",-16.01679477707616],["<",-16.01679477707616],["☀",-16.01679477707616],["⏰",-16.01679477707616],["⏩",-16.01679477707616],["ﬁ",-16.01679477707616],["¦",-16.01679477707616]]}}