{"version":"1.0","truncation":null,"padding":null,"added_tokens":[{"id":0,"special":true,"content":"<UNK>","single_word":false,"lstrip":false,"rstrip":false,"normalized":false},{"id":1,"special":true,"content":"<SEP>","single_word":false,"lstrip":false,"rstrip":false,"normalized":false},{"id":2,"special":true,"content":"<MASK>","single_word":false,"lstrip":false,"rstrip":false,"normalized":false},{"id":3,"special":true,"content":"<CLS>","single_word":false,"lstrip":false,"rstrip":false,"normalized":false}],"normalizer":null,"pre_tokenizer":{"type":"Whitespace"},"post_processor":null,"decoder":null,"model":{"type":"BPE","dropout":null,"unk_token":"<UNK>","continuing_subword_prefix":null,"end_of_word_suffix":null,"fuse_unk":false,"vocab":{"<UNK>":0,"<SEP>":1,"<MASK>":2,"<CLS>":3,"!":4,"\"":5,"$":6,"%":7,"&":8,"'":9,"(":10,")":11,"*":12,"+":13,",":14,"-":15,".":16,"/":17,"0":18,"1":19,"2":20,"3":21,"4":22,"5":23,"6":24,"7":25,"8":26,"9":27,":":28,";":29,"<":30,">":31,"?":32,"A":33,"B":34,"C":35,"D":36,"E":37,"F":38,"G":39,"H":40,"I":41,"J":42,"K":43,"L":44,"M":45,"N":46,"O":47,"P":48,"Q":49,"R":50,"S":51,"T":52,"U":53,"V":54,"W":55,"X":56,"Y":57,"Z":58,"`":59,"a":60,"b":61,"c":62,"d":63,"e":64,"f":65,"g":66,"h":67,"i":68,"j":69,"k":70,"l":71,"m":72,"n":73,"o":74,"p":75,"q":76,"r":77,"s":78,"t":79,"u":80,"v":81,"w":82,"x":83,"y":84,"z":85,"~":86,"£":87,"¤":88,"¦":89,"¨":90,"«":91,"¬":92,"®":93,"°":94,"±":95,"²":96,"³":97,"´":98,"·":99,"º":100,"»":101,"Á":102,"Å":103,"Ç":104,"È":105,"É":106,"Ó":107,"Ö":108,"×":109,"Ø":110,"Ü":111,"ß":112,"à":113,"á":114,"â":115,"ã":116,"ä":117,"å":118,"æ":119,"ç":120,"è":121,"é":122,"ê":123,"ë":124,"ì":125,"í":126,"î":127,"ï":128,"ð":129,"ñ":130,"ò":131,"ó":132,"ô":133,"ö":134,"ø":135,"ù":136,"ú":137,"û":138,"ü":139,"ý":140,"ć":141,"č":142,"ě":143,"ğ":144,"Ġ":145,"ĳ":146,"ķ":147,"ł":148,"ń":149,"ō":150,"ş":151,"š":152,"Ÿ":153,"Ž":154,"ž":155,"˜":156,"́":157,"̈":158,"̶":159,"ν":160,"ο":161,"ς":162,"υ":163,"Ў":164,"Р":165,"ю":166,"ђ":167,"–":168,"—":169,"‘":170,"’":171,"‚":172,"“":173,"”":174,"„":175,"†":176,"‡":177,"•":178,"…":179,"‰":180,"′":181,"‹":182,"₂":183,"€":184,"℃":185,"™":186,"⇧":187,"−":188,"≈":189,"⌘":190,"├":191,"▶":192,"★":193,"☆":194,"期":195,"静":196,"默":197,"":198,"﻿":199,"en":200,"er":201,"an":202,"de":203,"et":204,"in":205,"ij":206,"aa":207,"el":208,"st":209,"oo":210,"ie":211,"at":212,"ch":213,"ge":214,"on":215,"aar":216,"een":217,"al":218,"van":219,"is":220,"te":221,"oor":222,"ver":223,"het":224,"it":225,"op":226,"gen":227,"der":228,"den":229,"om":230,"or":231,"re":232,"aan":233,"oe":234,"le":235,"be":236,"he":237,"dat":238,"we":239,"ar":240,"voor":241,"cht":242,"ijn":243,"ing":244,"ijk":245,"iet":246,"ze":247,"je":248,"ken":249,"ur":250,"ol":251,"ou":252,"me":253,"met":254,"ig":255,"ra":256,"il":257,"zijn":258,"niet":259,"die":260,"uit":261,"sch":262,"De":263,"ik":264,"and":265,"un":266,"ro":267,"aat":268,"as":269,"og":270,"us":271,"men":272,"ste":273,"id":274,"ers":275,"ten":276,"ven":277,"rij":278,"se":279,"to":280,"ag":281,"wer":282,"ft":283,"sp":284,"over":285,"ook":286,"bij":287,"gel":288,"eer":289,"als":290,"am":291,"sen":292,"wor":293,"ter":294,"ve":295,"ien":296,"maar":297,"onder":298,"ru":299,"aal":300,"mo":301,"len":302,"af":303,"lijk":304,"of":305,"zo":306,"wel":307,"nen":308,"dan":309,"ad":310,"Het":311,"ap":312,"ben":313,"nog":314,"kt":315,"heb":316,"waar":317,"door":318,"eft":319,"ct":320,"ier":321,"sl":322,"ne":323,"kom":324,"acht":325,"ond":326,"vol":327,"ele":328,"eld":329,"ingen":330,"gr":331,"uur":332,"naar":333,"land":334,"kan":335,"tij":336,"atie":337,"dt":338,"ul":339,"pro":340,"do":341,"heeft":342,"im":343,"meer":344,"pl":345,"ist":346,"elijk":347,"was":348,"eren":349,"wee":350,"ak":351,"na":352,"ige":353,"isch":354,"dag":355,"wat":356,"ander":357,"kun":358,"jaar":359,"ke":360,"hij":361,"moet":362,"pen":363,"hebben":364,"bl":365,"ic":366,"ent":367,"zi":368,"ang":369,"worden":370,"In":371,"ont":372,"daar":373,"ant":374,"ieu":375,"gt":376,"zel":377,"geb":378,"ker":379,"ind":380,"ma":381,"dit":382,"mee":383,"ouw":384,"20":385,"vo":386,"veel":387,"zen":388,"oed":389,"es":390,"au":391,"heid":392,"oon":393,"nu":394,"tot":395,"wordt":396,"ger":397,"bet":398,"vr":399,"Dat":400,"geen":401,"igen":402,"wil":403,"zelf":404,"Ik":405,"man":406,"open":407,"per":408,"hu":409,"Al":410,"ber":411,"kl":412,"val":413,"min":414,"ische":415,"hou":416,"aag":417,"ok":418,"nieu":419,"wij":420,"tegen":421,"zich":422,"00":423,"dr":424,"itie":425,"icht":426,"ite":427,"ot":428,"ast":429,"Ne":430,"tijd":431,"ek":432,"gaan":433,"del":434,"aak":435,"aren":436,"komen":437,"zou":438,"En":439,"alle":440,"kunnen":441,"br":442,"gens":443,"du":444,"oek":445,"bo":446,"weer":447,"gem":448,"art":449,"bel":450,"em":451,"deze":452,"dig":453,"mensen":454,"Maar":455,"lu":456,"had":457,"ale":458,"gaat":459,"hun":460,"ies":461,"ed":462,"toe":463,"aten":464,"ac":465,"werk":466,"all":467,"mer":468,"twee":469,"delijk":470,"sten":471,"Neder":472,"goed":473,"ort":474,"dus":475,"stel":476,"di":477,"os":478,"oen":479,"ster":480,"hoo":481,"hoe":482,"elen":483,"oot":484,"werd":485,"cent":486,"Een":487,"zien":488,"con":489,"zet":490,"str":491,"haar":492,"ion":493,"doen":494,".”":495,"kw":496,"huis":497,"gro":498,"Nederland":499,"Rus":500,"zit":501,"gew":502,"echt":503,"bed":504,"agen":505,"ci":506,"lie":507,"staat":508,"ut":509,"act":510,"We":511,"ex":512,"tre":513,"maal":514,"blij":515,"par":516,"ug":517,"eten":518,"han":519,"weg":520,"fe":521,"aakt":522,"innen":523,"ko":524,"jes":525,"andere":526,"pol":527,"sn":528,"deel":529,"moe":530,"moeten":531,"zoek":532,"gev":533,"eel":534,"pr":535,"mijn":536,"lang":537,"eg":538,"ir":539,"pt":540,"oord":541,"mil":542,"uk":543,"maken":544,"eigen":545,"Daar":546,"alen":547,"keer":548,"krij":549,"ple":550,"amen":551,"plaat":552,"ran":553,"org":554,"ged":555,"nieuwe":556,"tra":557,"recht":558,"iets":559,"won":560,"com":561,"pre":562,"ussen":563,"iek":564,"iden":565,"vin":566,"ble":567,"laat":568,"erg":569,"staan":570,"hier":571,"kken":572,"zal":573,"Er":574,"vrij":575,"iteit":576,"ië":577,"orm":578,"komt":579,"Als":580,"eens":581,"ine":582,"heel":583,"win":584,"mis":585,"beg":586,"dien":587,"ders":588,"ons":589,"toch":590,"pers":591,"ert":592,"ide":593,"oeg":594,"erd":595,"no":596,"av":597,"Ze":598,"ater":599,"nat":600,"ab":601,"net":602,"zegt":603,"eur":604,"eerste":605,"aam":606,"racht":607,"oren":608,"Oek":609,"houden":610,"schap":611,"ks":612,"Ook":613,"Oekra":614,"maan":615,"politie":616,"mid":617,"Van":618,"deren":619,"tal":620,"hele":621,"kle":622,"ia":623,"Hij":624,"um":625,"geven":626,"uren":627,"gebru":628,"baar":629,"ood":630,"tussen":631,"Op":632,"alleen":633,"vert":634,"kend":635,"onden":636,"ip":637,"leven":638,"hem":639,"achter":640,"Oekraï":641,"bedrij":642,"gele":643,"her":644,"uiten":645,"snel":646,"nieuw":647,"ard":648,"lan":649,"cor":650,"St":651,"terug":652,"ogelijk":653,"ouwen":654,"omen":655,"even":656,"cr":657,"kel":658,"”,":659,"sie":660,"ooit":661,"auto":662,"ment":663,"volgens":664,"aad":665,"Die":666,"procent":667,"ings":668,"grote":669,"milj":670,"ef":671,"off":672,"mogelijk":673,"groot":674,"omdat":675,"ron":676,"zij":677,"iv":678,"get":679,"Eur":680,"su":681,"stand":682,"wacht":683,"Voor":684,"Je":685,"lig":686,"hel":687,"co":688,"gelijk":689,"zeg":690,"groe":691,"én":692,"ho":693,"oop":694,"Zo":695,"zonder":696,"lo":697,"sel":698,"wereld":699,"versch":700,"euro":701,"beeld":702,"ctie":703,"gest":704,"kr":705,"io":706,"An":707,"binnen":708,"are":709,"best":710,"Vol":711,"iel":712,"dens":713,"altijd":714,"toen":715,"ce":716,"gra":717,"gemeen":718,"Europ":719,"Dit":720,"samen":721,"waren":722,"gesch":723,"minder":724,"gewoon":725,"kijk":726,"elk":727,"hoog":728,"inter":729,"Ch":730,"la":731,"ging":732,"Le":733,"leg":734,"laten":735,"mij":736,"prij":737,"onze":738,"zoals":739,"ank":740,"fl":741,"uw":742,"plaats":743,"eds":744,"ister":745,"weten":746,"lijkt":747,"mar":748,"geld":749,"202":750,"gebruik":751,"ren":752,"ijf":753,"week":754,"jaren":755,"chte":756,"regel":757,"spre":758,"Ver":759,"19":760,"log":761,"besch":762,"kelijk":763,"spe":764,"anders":765,".\"":766,"cont":767,"ieder":768,"willen":769,"haal":770,"iem":771,"pas":772,"lucht":773,"res":774,"vallen":775,"pun":776,"Mar":777,"int":778,"kin":779,"steeds":780,"ullen":781,"drie":782,"Wat":783,"bur":784,"jon":785,"stad":786,"oten":787,"krijgen":788,"Met":789,"vor":790,"volgen":791,"dui":792,"fen":793,"fin":794,"gelopen":795,"strij":796,"kant":797,"rond":798,"zeker":799,"da":800,"hand":801,"sle":802,"aanse":803,"delen":804,"pe":805,"beter":806,"kon":807,"want":808,"elt":809,"onderzoek":810,"dru":811,"gez":812,"so":813,"partij":814,"oort":815,"amer":816,"On":817,"kre":818,"hal":819,"beur":820,"jar":821,"ser":822,"sdag":823,"Oekraïne":824,"één":825,").":826,"va":827,"vier":828,"tijdens":829,"zie":830,"laatste":831,"proble":832,"mag":833,"Br":834,"natuur":835,"Rusland":836,"ruim":837,"vl":838,"ga":839,"aast":840,"amp":841,"tien":842,"belan":843,"werken":844,"ragen":845,"blijven":846,"vraag":847,"kwam":848,"stem":849,"eerd":850,"stra":851,"Russ":852,"iemand":853,"oog":854,"ool":855,"verk":856,"bal":857,"ari":858,"bedrijf":859,"Bij":860,"buiten":861,"besl":862,"est":863,"ui":864,"oom":865,"roe":866,"verder":867,"aange":868,"avond":869,"000":870,"inds":871,"zig":872,"verl":873,"ult":874,"fd":875,"weet":876,"miljoen":877,"li":878,"ens":879,"woor":880,"za":881,"nemen":882,"verb":883,"eerder":884,"mers":885,"Fran":886,"aantal":887,"vooral":888,"aties":889,"bele":890,"tje":891,"ust":892,"energ":893,"Volgens":894,"verschil":895,"Sch":896,"enk":897,"zw":898,"ade":899,"actie":900,"Bel":901,"jarige":902,"ann":903,"maat":904,"sy":905,"voorbeeld":906,"organ":907,"vast":908,"nodig":909,"grijk":910,"nam":911,"nooit":912,"chten":913,"gemaakt":914,"zorg":915,"veil":916,"stap":917,"bu":918,"po":919,"pel":920,"aard":921,"zitten":922,"Na":923,"alles":924,"spel":925,"10":926,"Amer":927,"pu":928,"orgen":929,"Russische":930,"belangrijk":931,"ding":932,"coron":933,"ai":934,"vinden":935,"oem":936,"maak":937,"afgelopen":938,"ink":939,"plan":940,"voer":941,"dam":942,"kop":943,"water":944,"ja":945,"woord":946,"komst":947,"Sp":948,"zelfs":949,"bekend":950,"elkaar":951,"Amerik":952,"Dan":953,"organis":954,"ler":955,"zeggen":956,"Be":957,"king":958,"strijd":959,"slag":960,"ooi":961,"zetten":962,"ri":963,"ces":964,"goe":965,"zullen":966,"verd":967,"doel":968,"maakt":969,"Hoe":970,"licht":971,"oorlog":972,"bre":973,"boven":974,"handel":975,"etje":976,"oud":977,"kinderen":978,"ha":979,"vers":980,"sche":981,"ck":982,"He":983,"minister":984,"helemaal":985,"werden":986,"produ":987,"los":988,"verwacht":989,"allemaal":990,"pak":991,"heden":992,"aas":993,"niets":994,"blijft":995,"middel":996,"Om":997,"erde":998,"mat":999,"\",":1000,"ere":1001,"doet":1002,"stij":1003,"isten":1004,"Po":1005,"reden":1006,"elijke":1007,"vrouw":1008,"energie":1009,"zicht":1010,"kijken":1011,"ina":1012,"brand":1013,"if":1014,"bru":1015,"bere":1016,"bas":1017,"mom":1018,"les":1019,"Europe":1020,"duur":1021,"som":1022,"Nederlandse":1023,"vaak":1024,"stellen":1025,"wit":1026,"stig":1027,"veilig":1028,"via":1029,"tweede":1030,"richt":1031,"opt":1032,"Duit":1033,"leid":1034,"voet":1035,"moment":1036,"age":1037,"dagen":1038,"lub":1039,"halen":1040,"naast":1041,"201":1042,"rol":1043,"els":1044,"ling":1045,"mp":1046,"form":1047,"sing":1048,"vis":1049,"gas":1050,"kort":1051,"ein":1052,"wed":1053,"stuk":1054,"zelfde":1055,"lever":1056,"bren":1057,"landen":1058,"reg":1059,"hoofd":1060,"wijl":1061,"des":1062,"Deze":1063,"oos":1064,"natuurlijk":1065,"col":1066,"werkt":1067,"ieren":1068,"meld":1069,"app":1070,"zon":1071,"top":1072,"volle":1073,"markt":1074,"bijvoorbeeld":1075,"ijna":1076,"zoe":1077,"tig":1078,"50":1079,"eind":1080,"prijs":1081,"Vl":1082,"hoor":1083,"iedereen":1084,"kunt":1085,"lopen":1086,"ieden":1087,"geval":1088,"sinds":1089,"rag":1090,"schien":1091,"duidelijk":1092,"din":1093,"fil":1094,"schrij":1095,"groep":1096,"pos":1097,"gebeur":1098,"aart":1099,"fo":1100,"iken":1101,"grond":1102,"hadden":1103,"elden":1104,"dere":1105,"lende":1106,"wet":1107,"mogen":1108,"vrien":1109,"geleden":1110,"gang":1111,"gevo":1112,"leden":1113,"speel":1114,"qu":1115,"war":1116,"goede":1117,"Bo":1118,"lij":1119,"bouw":1120,"later":1121,"kn":1122,"30":1123,"paar":1124,"Ar":1125,"inig":1126,"pp":1127,"rec":1128,"krijgt":1129,"person":1130,"slecht":1131,"gemeente":1132,"zin":1133,"vangen":1134,"kent":1135,"eerst":1136,"ident":1137,"stu":1138,"zouden":1139,"tu":1140,"ern":1141,"stof":1142,"club":1143,"hard":1144,"gezet":1145,"denk":1146,"mot":1147,"zei":1148,"bank":1149,"hen":1150,"si":1151,"Am":1152,"zaak":1153,"druk":1154,"aire":1155,"Te":1156,"maanden":1157,"Ge":1158,"ief":1159,"ach":1160,"vand":1161,"genomen":1162,"itu":1163,"vindt":1164,"nation":1165,".’":1166,"gere":1167,"ay":1168,"ziek":1169,"amil":1170,"Waar":1171,"draa":1172,"ket":1173,"bijna":1174,"ris":1175,"raak":1176,"stre":1177,"air":1178,"ju":1179,"kende":1180,"soort":1181,"ton":1182,"enkele":1183,"ner":1184,"volg":1185,"vijf":1186,"tem":1187,"hog":1188,"Belg":1189,"last":1190,"lijke":1191,"sc":1192,"burg":1193,"Nu":1194,"To":1195,"gesl":1196,"ass":1197,"dia":1198,"mak":1199,"wege":1200,"eter":1201,"ation":1202,"rokken":1203,"extra":1204,"bedrijven":1205,"beste":1206,"bare":1207,"pres":1208,"publ":1209,"positie":1210,"mede":1211,"steun":1212,"wie":1213,"denken":1214,"bew":1215,"thuis":1216,"gedaan":1217,"genoeg":1218,"hebt":1219,"Of":1220,"ni":1221,"aldus":1222,"ob":1223,"vlucht":1224,"out":1225,"rijden":1226,"acc":1227,"Amerikaanse":1228,"vind":1229,"zom":1230,"vanaf":1231,"zoen":1232,"dacht":1233,"ikt":1234,"schijn":1235,"rel":1236,"sei":1237,"cl":1238,"straat":1239,"tr":1240,"spra":1241,"fr":1242,"gezien":1243,"rest":1244,"ban":1245,"beetje":1246,"Wil":1247,"namelijk":1248,"euw":1249,"geeft":1250,"reken":1251,"weken":1252,"terwijl":1253,"ciale":1254,"punt":1255,"Europese":1256,"gegeven":1257,"hul":1258,"weinig":1259,"eigenlijk":1260,"one":1261,"kreeg":1262,"lin":1263,"vragen":1264,"roken":1265,"aut":1266,"wik":1267,"itein":1268,"wijk":1269,"ans":1270,"gewee":1271,"ong":1272,"manier":1273,"seizoen":1274,"geweest":1275,"kracht":1276,"zorgen":1277,"lei":1278,"ondag":1279,"Re":1280,"vrouwen":1281,"ziet":1282,"erv":1283,"kans":1284,"aterdag":1285,"team":1286,"verschillende":1287,"Door":1288,"ied":1289,"verander":1290,"),":1291,"menten":1292,"’.":1293,"sport":1294,"’,":1295,"bep":1296,"basis":1297,"ving":1298,"dienst":1299,"Jo":1300,"teur":1301,"Europa":1302,"15":1303,"Gr":1304,"oopt":1305,"woon":1306,"igd":1307,"maakte":1308,"bi":1309,"ligt":1310,"ds":1311,"ts":1312,"bestuur":1313,"vak":1314,"straf":1315,"Is":1316,"cten":1317,"overheid":1318,"kosten":1319,"elke":1320,"meest":1321,"iteindelijk":1322,"lief":1323,"vandaag":1324,"EU":1325,"igde":1326,"atief":1327,"bete":1328,"oensdag":1329,"vrijdag":1330,"prijzen":1331,"kker":1332,"dem":1333,"probleem":1334,"conom":1335,"wedstrijd":1336,"tele":1337,"vre":1338,"Dus":1339,"moest":1340,"punten":1341,"tech":1342,"neem":1343,"reger":1344,"nis":1345,"anten":1346,"etin":1347,"gram":1348,"kil":1349,"stond":1350,"olen":1351,"anneer":1352,"ming":1353,"pan":1354,"aliteit":1355,"meter":1356,"ontwik":1357,"woning":1358,"zondag":1359,"ets":1360,"El":1361,"onnen":1362,"echter":1363,"klein":1364,"middels":1365,"daad":1366,"delijke":1367,"kab":1368,"maand":1369,"wijs":1370,"dood":1371,"geluk":1372,"foto":1373,"uid":1374,"zes":1375,"komende":1376,"zaterdag":1377,"media":1378,"blijkt":1379,"izen":1380,"inet":1381,"juist":1382,"betaal":1383,"enige":1384,"eerde":1385,"bent":1386,"ss":1387,"vanwege":1388,"vlie":1389,"inder":1390,"president":1391,"nacht":1392,"woensdag":1393,"nemers":1394,"zaken":1395,"Den":1396,"buur":1397,"hol":1398,"the":1399,"ruimte":1400,"Poetin":1401,"Mo":1402,"kamp":1403,"mannen":1404,"Niet":1405,"vanuit":1406,"persoon":1407,"vorig":1408,"Ja":1409,"kie":1410,"plek":1411,"langs":1412,"woners":1413,"maandag":1414,"voetbal":1415,"verg":1416,"oll":1417,"slacht":1418,"mu":1419,"ene":1420,"opge":1421,"ieten":1422,"mes":1423,"apen":1424,"dige":1425,"elde":1426,"misschien":1427,"alis":1428,"12":1429,"zak":1430,"onderdag":1431,"fun":1432,"heen":1433,"derde":1434,"gesteld":1435,"inst":1436,"famil":1437,"ov":1438,"betalen":1439,"sterdam":1440,"problemen":1441,"opnieuw":1442,"brengen":1443,"kabinet":1444,"valt":1445,"train":1446,"zwaar":1447,"teren":1448,"hoge":1449,"grootste":1450,"Amsterdam":1451,"up":1452,"Ap":1453,"Over":1454,"for":1455,"stop":1456,"schapp":1457,"jul":1458,"vang":1459,"begin":1460,"waarin":1461,"graag":1462,"ep":1463,"hulp":1464,"klim":1465,"gebruiken":1466,"kor":1467,"ta":1468,"veld":1469,"elekt":1470,"zoeken":1471,"hi":1472,"situ":1473,"school":1474,"Ant":1475,"Ma":1476,"rect":1477,"vorm":1478,"slachtoff":1479,"koop":1480,"spelen":1481,"kregen":1482,"lag":1483,"amb":1484,"geveer":1485,"iën":1486,"fa":1487,"volgende":1488,"regering":1489,"ning":1490,"houdt":1491,"idee":1492,"2022":1493,"start":1494,"test":1495,"18":1496,"ffen":1497,"uni":1498,"mens":1499,"huid":1500,"conc":1501,"liggen":1502,"gebied":1503,"zeer":1504,"schul":1505,"200":1506,"totaal":1507,"bericht":1508,"minu":1509,"kwart":1510,"kte":1511,"rijk":1512,"gewel":1513,"rum":1514,"stelling":1515,"zieken":1516,"dinsdag":1517,"Par":1518,"Zij":1519,"mooi":1520,"Apple":1521,"ogen":1522,"eert":1523,"ess":1524,"stappen":1525,"ff":1526,"che":1527,"nieuws":1528,"techn":1529,"zaam":1530,"iks":1531,"Ro":1532,"econom":1533,"kap":1534,"ilijk":1535,"mun":1536,"sh":1537,"dra":1538,"honder":1539,"pa":1540,"gekomen":1541,"hoop":1542,"dicht":1543,"ieke":1544,"utte":1545,"moeilijk":1546,"syste":1547,"Gron":1548,"anden":1549,"oof":1550,"verkl":1551,"trekken":1552,"regelen":1553,"leiding":1554,"ijs":1555,"oude":1556,"wen":1557,"yp":1558,"aller":1559,"bepaal":1560,"heids":1561,"sland":1562,"winkel":1563,"beleid":1564,"donderdag":1565,"gespre":1566,"ue":1567,"zu":1568,"verhaal":1569,"25":1570,"dingen":1571,"vel":1572,"ijnen":1573,"Onder":1574,"ting":1575,"miljard":1576,"Me":1577,"loop":1578,"mal":1579,"pop":1580,"meteen":1581,"uiteindelijk":1582,"cies":1583,"ian":1584,"ense":1585,"ploeg":1586,"Wij":1587,"boeren":1588,"leggen":1589,"Aan":1590,"tie":1591,"iging":1592,"jij":1593,"macht":1594,"ongeveer":1595,"waarom":1596,"belast":1597,"har":1598,"veren":1599,"olog":1600,"waardoor":1601,"rechter":1602,"Brit":1603,"schijnlijk":1604,"Wel":1605,"scher":1606,"welke":1607,"waarde":1608,"Hier":1609,"Oo":1610,"ën":1611,"Gro":1612,"Twee":1613,"cel":1614,"VV":1615,"cus":1616,"aars":1617,"naam":1618,"finan":1619,"Rutte":1620,"ice":1621,"neemt":1622,"Nederl":1623,"bezig":1624,"zodat":1625,"ctor":1626,"zoekers":1627,"Oekraïense":1628,"2021":1629,"gebruikt":1630,"NA":1631,"zoveel":1632,"partijen":1633,"gramma":1634,"Ben":1635,"gesp":1636,"wilde":1637,"16":1638,"100":1639,"elf":1640,"ore":1641,"oplos":1642,"ico":1643,"kleine":1644,"situatie":1645,"veroor":1646,"gezond":1647,"cie":1648,"lok":1649,"vond":1650,"duizen":1651,"organisatie":1652,"boek":1653,"horen":1654,"red":1655,"vorige":1656,"dis":1657,"lingen":1658,"tran":1659,"antwoor":1660,"moeder":1661,"ouders":1662,"jong":1663,"zomer":1664,"The":1665,"cijf":1666,"don":1667,"niks":1668,"waarbij":1669,"cties":1670,"achten":1671,"keu":1672,"bestaan":1673,"aring":1674,"geving":1675,"rechts":1676,"dre":1677,"pat":1678,"ustr":1679,"geworden":1680,"toekomst":1681,"helpen":1682,"nationale":1683,"elektr":1684,"go":1685,"zingen":1686,"aris":1687,"chter":1688,"gebracht":1689,"atuur":1690,"perio":1691,"66":1692,"speci":1693,"Antwer":1694,"zat":1695,"nadat":1696,"klimaat":1697,"inmiddels":1698,"verdien":1699,"oper":1700,"betre":1701,"richting":1702,"alist":1703,"west":1704,"jo":1705,"urn":1706,"welijk":1707,"gevaar":1708,"film":1709,"kers":1710,"keren":1711,"sk":1712,"Toen":1713,"moo":1714,"half":1715,"jan":1716,"nood":1717,"kilom":1718,"Wie":1719,"rit":1720,"iddel":1721,"centrum":1722,"ca":1723,"wanneer":1724,"daarom":1725,"num":1726,"17":1727,"Ter":1728,"loopt":1729,"ochten":1730,"verkeer":1731,"ima":1732,"einde":1733,"Gel":1734,"Zijn":1735,"model":1736,"kopen":1737,"sol":1738,"tro":1739,"gebouw":1740,"liet":1741,"raad":1742,"deed":1743,"huizen":1744,"groter":1745,"lijst":1746,"ontwikkel":1747,"wind":1748,"name":1749,"zitter":1750,"gevonden":1751,"langer":1752,"halve":1753,"familie":1754,"Kamer":1755,"tel":1756,"meeste":1757,"ioen":1758,"lekker":1759,"voldoen":1760,"centr":1761,"baan":1762,"wan":1763,"ras":1764,"corona":1765,"laag":1766,"prem":1767,"Mijn":1768,"bond":1769,"milit":1770,"oep":1771,"wegen":1772,"olie":1773,"programma":1774,"vertr":1775,"flatie":1776,"voerder":1777,"cces":1778,"rie":1779,"middag":1780,"vertelt":1781,"Want":1782,"mige":1783,"rust":1784,"precies":1785,"lange":1786,"personeel":1787,"accin":1788,"14":1789,"car":1790,"dom":1791,"fiets":1792,"imp":1793,"Duitsland":1794,"voeren":1795,"iteiten":1796,"ollar":1797,"Jan":1798,"voorbij":1799,"clus":1800,"periode":1801,"cu":1802,"zeven":1803,"kennen":1804,"Russen":1805,"wachten":1806,"fra":1807,"let":1808,"oemen":1809,"anderen":1810,"kamer":1811,"tjes":1812,"dec":1813,"leuk":1814,"terecht":1815,"probe":1816,"feest":1817,"verkie":1818,"huidige":1819,"dollar":1820,"noem":1821,"daarna":1822,"krijk":1823,"Veren":1824,"inflatie":1825,"egd":1826,"succes":1827,"kig":1828,"vat":1829,"onge":1830,"zichzelf":1831,"direct":1832,"kwamen":1833,"vakant":1834,"”.":1835,"stelt":1836,"hoeveel":1837,"Net":1838,"bak":1839,"lid":1840,"stru":1841,"beelden":1842,"prof":1843,"gedrag":1844,"systeem":1845,"ich":1846,"uil":1847,"ate":1848,"reven":1849,"meerdere":1850,"klaar":1851,"bod":1852,"stroom":1853,"China":1854,"beschik":1855,"woordig":1856,"sluiten":1857,"imin":1858,"feit":1859,"vader":1860,"gevoel":1861,"betekent":1862,"bar":1863,"line":1864,"rekening":1865,"Men":1866,"keur":1867,"ick":1868,"soms":1869,"formatie":1870,"gingen":1871,"kind":1872,"verde":1873,"denten":1874,"Ste":1875,"beper":1876,"waarschijnlijk":1877,"2020":1878,"jonge":1879,"sociale":1880,"ochtend":1881,"WK":1882,"grens":1883,"vlak":1884,"ziekenhuis":1885,"wis":1886,"voort":1887,"ject":1888,"volledig":1889,"Eer":1890,"neer":1891,"uiter":1892,"schade":1893,"asiel":1894,"Lu":1895,"bor":1896,"ator":1897,"gehad":1898,"hart":1899,"vuur":1900,"40":1901,"dor":1902,"afhan":1903,"kocht":1904,"regio":1905,"voorzitter":1906,"missie":1907,"Ph":1908,"leeft":1909,"slagen":1910,"haven":1911,"Uit":1912,"cre":1913,"toon":1914,"leu":1915,"pport":1916,"ka":1917,"mon":1918,"stil":1919,"contro":1920,"Toch":1921,"vakantie":1922,"wagen":1923,"zor":1924,"vestig":1925,"Un":1926,"ekt":1927,"niemand":1928,"dezelfde":1929,"bes":1930,"bescher":1931,"denkt":1932,"sterk":1933,"rente":1934,"kilometer":1935,"site":1936,"ijd":1937,"sto":1938,"crimin":1939,"maatschapp":1940,"VS":1941,"spraak":1942,"contra":1943,"kond":1944,"gemiddel":1945,"Daarnaast":1946,"lijn":1947,"past":1948,"cijfers":1949,".'":1950,"11":1951,"bat":1952,"nou":1953,"isme":1954,"landse":1955,"Groningen":1956,"gevallen":1957,"ids":1958,"plaatsen":1959,"serie":1960,"mooie":1961,"teken":1962,"heer":1963,"igens":1964,"minuten":1965,"momen":1966,"ry":1967,"klas":1968,"trek":1969,"offic":1970,"zegd":1971,"kampioen":1972,"muziek":1973,"belasting":1974,"afhankelijk":1975,"Ital":1976,"aanwe":1977,"isteren":1978,"kost":1979,"politiek":1980,"zag":1981,"Pro":1982,"elingen":1983,"its":1984,"erse":1985,"sluit":1986,"daarmee":1987,"vroeg":1988,"tegenwoordig":1989,"handen":1990,"wonen":1991,"Som":1992,"part":1993,"plat":1994,"meester":1995,"plannen":1996,"Duitse":1997,"',":1998,"Bra":1999,"leen":2000,"nor":2001,"uigen":2002,"ete":2003,"inci":2004,"oun":2005,"bijzonder":2006,"maatregelen":2007,"honderd":2008,"bus":2009,"las":2010,"vij":2011,"rug":2012,"begrij":2013,"deur":2014,"betrokken":2015,"haald":2016,"buurt":2017,"cult":2018,"huur":2019,"uig":2020,"provin":2021,"cris":2022,"hoogte":2023,"effe":2024,"gesloten":2025,"Geen":2026,"wa":2027,"aandacht":2028,"danks":2029,"imaal":2030,"activ":2031,"slechts":2032,"gevolg":2033,"med":2034,"houd":2035,"super":2036,"finale":2037,"21":2038,"24":2039,"Rot":2040,"mond":2041,"verantwoor":2042,"krijg":2043,"bleek":2044,"helft":2045,"pakken":2046,"nummer":2047,"chen":2048,"sla":2049,"winst":2050,"coach":2051,"fabr":2052,"vie":2053,"teel":2054,"oegen":2055,"gelegd":2056,"Heb":2057,"konden":2058,"stik":2059,"web":2060,"sep":2061,"atieve":2062,"wijf":2063,"roepen":2064,"Com":2065,"gezegd":2066,"veau":2067,"volk":2068,"werking":2069,"hoger":2070,"\".":2071,"enkel":2072,"opvang":2073,"gener":2074,"tit":2075,"uari":2076,"ieuw":2077,"werkers":2078,"gebeurt":2079,"uitge":2080,"iding":2081,"spr":2082,"weekend":2083,"standig":2084,"Noord":2085,"sm":2086,"zer":2087,"vervolgens":2088,"voc":2089,"België":2090,"direc":2091,"Daarom":2092,"ific":2093,"publiek":2094,"gesprek":2095,"13":2096,"Tot":2097,"bie":2098,"hy":2099,"inkt":2100,"stat":2101,"ity":2102,"berg":2103,"januari":2104,"Fe":2105,"san":2106,"vide":2107,"informatie":2108,"ign":2109,"voert":2110,"geweld":2111,"popul":2112,"ime":2113,"deling":2114,"midden":2115,"loc":2116,"pakt":2117,"FC":2118,"hang":2119,"ïn":2120,"inve":2121,"max":2122,"begon":2123,"graden":2124,"woordvoerder":2125,"meldt":2126,"Waarom":2127,"22":2128,"band":2129,"echte":2130,"gek":2131,"lees":2132,"Haag":2133,"winnen":2134,"verlie":2135,"bestaat":2136,"ase":2137,"dank":2138,"ners":2139,"sf":2140,"rem":2141,"begint":2142,"inderdaad":2143,"Min":2144,"aaf":2145,"regen":2146,"ussel":2147,"waarop":2148,"Man":2149,"juni":2150,"ill":2151,"mocr":2152,"belang":2153,"80":2154,"lop":2155,"atis":2156,"aanval":2157,"sector":2158,"zowel":2159,"plicht":2160,"diensten":2161,"risico":2162,"appar":2163,"beginnen":2164,"goo":2165,"gegaan":2166,"itic":2167,"rap":2168,"Engel":2169,"presen":2170,"makkelijk":2171,"controle":2172,"VO":2173,"aken":2174,"hetzelfde":2175,"olf":2176,"Brussel":2177,"bure":2178,"crisis":2179,"vergelijk":2180,"beide":2181,"comple":2182,"beren":2183,"zoon":2184,"wezen":2185,"gelo":2186,"slim":2187,"gebre":2188,"koers":2189,"matig":2190,"voldoende":2191,"boe":2192,"erk":2193,"gehouden":2194,"spron":2195,"ace":2196,"comp":2197,"leveren":2198,"gesproken":2199,"vertrouwen":2200,"Mis":2201,"Zelf":2202,"bouwen":2203,"gar":2204,"vir":2205,"vaart":2206,"teerd":2207,"verz":2208,"voorkomen":2209,"maart":2210,"spreken":2211,"speelt":2212,"bieden":2213,"voed":2214,"zing":2215,"witter":2216,"Vlaam":2217,"studenten":2218,"autom":2219,"negen":2220,"ack":2221,"Sur":2222,"Veel":2223,"bin":2224,"genoem":2225,"ugd":2226,"500":2227,"lich":2228,"Britse":2229,"VVD":2230,"aanwezig":2231,"gaf":2232,"ergens":2233,"terdam":2234,"zocht":2235,"daarvoor":2236,"werkelijk":2237,"regels":2238,"result":2239,"Rotterdam":2240,"Tru":2241,"ervoor":2242,"verse":2243,"hoef":2244,"woningen":2245,"visie":2246,"vriend":2247,"korte":2248,"premier":2249,"foon":2250,"vaccin":2251,"wn":2252,"ateg":2253,"zee":2254,"ram":2255,"tember":2256,"CO":2257,"hn":2258,"proces":2259,"klanten":2260,"kleur":2261,"Af":2262,"Open":2263,"ële":2264,"aagt":2265,"online":2266,"kunst":2267,"Alleen":2268,"politieke":2269,"legt":2270,"leger":2271,"slot":2272,"stelde":2273,"acties":2274,"slachtoffer":2275,"Pr":2276,"Zuid":2277,"gebe":2278,"leer":2279,"arm":2280,"Franse":2281,"belangrijke":2282,"verm":2283,"arbe":2284,"urs":2285,"hoeft":2286,"warm":2287,"personen":2288,"leider":2289,"september":2290,"D66":2291,"ys":2292,"ges":2293,"use":2294,"2019":2295,"schuw":2296,"flink":2297,"oplossing":2298,"verkiezingen":2299,"port":2300,"stuur":2301,"besp":2302,"anger":2303,"passen":2304,"burger":2305,"colle":2306,"vluchtelingen":2307,"besmet":2308,"Sinds":2309,"ix":2310,"wap":2311,"gevolgen":2312,"stemmen":2313,"Omdat":2314,"motor":2315,"sse":2316,"alt":2317,"lement":2318,"houder":2319,"offen":2320,"beslis":2321,"zware":2322,"niveau":2323,"bot":2324,"vi":2325,"voormal":2326,"daarbij":2327,"eks":2328,"bruari":2329,"stikstof":2330,"23":2331,"vies":2332,"verlen":2333,"verda":2334,"ikken":2335,"waarmee":2336,"hout":2337,"wintig":2338,"roep":2339,"dorp":2340,"dieren":2341,"deeld":2342,"ins":2343,"ellen":2344,"gemeester":2345,"verwij":2346,"ruk":2347,"exper":2348,"extre":2349,"kijkt":2350,"verdachte":2351,"ware":2352,"kern":2353,"februari":2354,"Boven":2355,"bepaalde":2356,"gebeuren":2357,"Ie":2358,"PS":2359,"bevol":2360,"seks":2361,"antwoord":2362,"Ol":2363,"dragen":2364,"vele":2365,"ervan":2366,"ague":2367,"contact":2368,"spelers":2369,"jullie":2370,"verantwoordelijk":2371,"Mer":2372,"wist":2373,"voorzien":2374,"blok":2375,"groen":2376,"beleg":2377,"kiezen":2378,"journ":2379,"normaal":2380,"'.":2381,"jur":2382,"verv":2383,"merk":2384,"snap":2385,"strijden":2386,"Tij":2387,"mel":2388,"pijn":2389,"ure":2390,"gekregen":2391,"ome":2392,"voordat":2393,"ciële":2394,"lega":2395,"drug":2396,"Frankrijk":2397,"stoppen":2398,"Bar":2399,"Car":2400,"bro":2401,"kru":2402,"mig":2403,"onde":2404,"ichting":2405,"kinder":2406,"versiteit":2407,"sommige":2408,"Ga":2409,"Kon":2410,"ril":2411,"enorm":2412,"gevangen":2413,"leiden":2414,"geloof":2415,"alsnog":2416,"dub":2417,"prima":2418,"straks":2419,"burgers":2420,"por":2421,"anen":2422,"inwoners":2423,"waarschuw":2424,"fest":2425,"iële":2426,"gevoerd":2427,"medewerkers":2428,"jongeren":2429,"zorgt":2430,"Ke":2431,"fijn":2432,"aandeel":2433,"mei":2434,"igt":2435,"tober":2436,"post":2437,"jax":2438,"video":2439,"Don":2440,"Li":2441,"Twitter":2442,"nee":2443,"ontde":2444,"ronde":2445,"League":2446,"Nederlanders":2447,"Ajax":2448,"jui":2449,"advoc":2450,"trein":2451,"rechtbank":2452,"schrijft":2453,"links":2454,"vliegt":2455,"keuze":2456,"35":2457,"geldt":2458,"lijken":2459,"soci":2460,"woorden":2461,"liefst":2462,"OS":2463,"doe":2464,"priv":2465,"schappen":2466,"how":2467,"collega":2468,"betreft":2469,"bureau":2470,"Bl":2471,"eeuw":2472,"ieken":2473,"aling":2474,"ales":2475,"orme":2476,"meis":2477,"Alle":2478,"veiligheid":2479,"vaker":2480,"wapens":2481,"70":2482,"camer":2483,"jouw":2484,"pap":2485,"aarde":2486,"verzeker":2487,"vroe":2488,"oktober":2489,"John":2490,"contract":2491,"titel":2492,"Misschien":2493,"dur":2494,"schil":2495,"kwaliteit":2496,"liever":2497,"gast":2498,"mber":2499,"orie":2500,"slaan":2501,"volgt":2502,"politic":2503,"vraagd":2504,"iedenis":2505,"schrijven":2506,"Tijdens":2507,"Nog":2508,"twintig":2509,"inge":2510,"isen":2511,"rein":2512,"ologie":2513,"Tur":2514,"Utre":2515,"enorme":2516,"stal":2517,"afstand":2518,"gratis":2519,"proberen":2520,"ministerie":2521,"draaien":2522,"Belgische":2523,"telefoon":2524,"Max":2525,"vijft":2526,"iste":2527,"rouw":2528,"bekende":2529,"iger":2530,"schat":2531,"schre":2532,"termijn":2533,"vember":2534,"ica":2535,"winter":2536,"Staten":2537,"sub":2538,"gelijke":2539,"60":2540,"gers":2541,"reactie":2542,"antie":2543,"klinkt":2544,"bleef":2545,"levens":2546,"juli":2547,"bevolking":2548,"dik":2549,"digen":2550,"kaart":2551,"erop":2552,"inde":2553,"omgeving":2554,"ille":2555,"dio":2556,"liep":2557,"West":2558,"geschiedenis":2559,"momenteel":2560,"directeur":2561,"Utrecht":2562,"Ex":2563,"Hol":2564,"veer":2565,"dent":2566,"lezen":2567,"internationale":2568,"Verenigde":2569,"viel":2570,"annen":2571,"daarvan":2572,"gemak":2573,"merken":2574,"november":2575,"productie":2576,"iënten":2577,"NAVO":2578,"90":2579,"CD":2580,"ium":2581,"aap":2582,"advies":2583,"artik":2584,"temper":2585,"maatschappij":2586,"provincie":2587,"eil":2588,"rist":2589,"ante":2590,"voorlop":2591,"ouder":2592,"commun":2593,"producten":2594,"lokale":2595,"hom":2596,"od":2597,"reis":2598,"gren":2599,"project":2600,"industr":2601,"aug":2602,"vrienden":2603,"Kan":2604,"kam":2605,"lem":2606,"bewijs":2607,"race":2608,"diep":2609,"afge":2610,"akk":2611,"brief":2612,"moesten":2613,"geschreven":2614,"scherm":2615,"Har":2616,"orde":2617,"lex":2618,"mocht":2619,"waarvan":2620,"herin":2621,"krant":2622,"sprake":2623,"Oost":2624,"Groen":2625,"taf":2626,"wol":2627,"oppen":2628,"reed":2629,"keken":2630,"itiek":2631,"vloed":2632,"frik":2633,"Antwerpen":2634,"Trump":2635,"by":2636,"dak":2637,"pra":2638,"geïn":2639,"tegenover":2640,"staande":2641,"gelegen":2642,"Chine":2643,"Verder":2644,"bra":2645,"wapen":2646,"anje":2647,"democr":2648,"station":2649,"vermoe":2650,"iter":2651,"bevestig":2652,"vooruit":2653,"kens":2654,"rapport":2655,"bert":2656,"kozen":2657,"groei":2658,"lichaam":2659,"Du":2660,"Vor":2661,"camp":2662,"jou":2663,"mass":2664,"él":2665,"versie":2666,"mans":2667,"spraken":2668,"27":2669,"cy":2670,"jeugd":2671,"kerk":2672,"prom":2673,"besluit":2674,"duizend":2675,"La":2676,"leren":2677,"noemen":2678,"rent":2679,"singen":2680,"yen":2681,"ering":2682,"genoot":2683,"bewoners":2684,"apan":2685,"othe":2686,"vrije":2687,"ctief":2688,"fensie":2689,"cultuur":2690,"Hel":2691,"Pa":2692,"Su":2693,"bood":2694,"ije":2695,"ongeluk":2696,"bos":2697,"cir":2698,"Mensen":2699,"view":2700,"Bovendien":2701,"Fin":2702,"fiet":2703,"hoek":2704,"son":2705,"alisten":2706,"behandel":2707,"daten":2708,"overigens":2709,"dron":2710,"Nederlands":2711,"sneller":2712,"stemming":2713,"verkoop":2714,"elektrische":2715,"drugs":2716,"bezoek":2717,"dagelijk":2718,"wijzen":2719,"ember":2720,"economie":2721,"Afrik":2722,"iPh":2723,"morgen":2724,"erden":2725,"sturen":2726,"leving":2727,"igheid":2728,"april":2729,"bloed":2730,"koning":2731,"Minister":2732,"Bor":2733,"Mich":2734,"gl":2735,"hoort":2736,"tw":2737,"aardig":2738,"arte":2739,"ager":2740,"ondersteun":2741,"ionele":2742,"praten":2743,"winning":2744,"december":2745,"website":2746,"camera":2747,"Eind":2748,"Hu":2749,"Sa":2750,"hor":2751,"link":2752,"rou":2753,"wijn":2754,"idt":2755,"Tweede":2756,"Do":2757,"Mac":2758,"dracht":2759,"oefen":2760,"neg":2761,"dochter":2762,"Inter":2763,"Nee":2764,"sych":2765,"ernooi":2766,"Ger":2767,"Se":2768,"iers":2769,"mater":2770,"inten":2771,"alter":2772,"istische":2773,"geraakt":2774,"burgemeester":2775,"schuld":2776,"kwartaal":2777,"26":2778,"28":2779,"EC":2780,"fi":2781,"ht":2782,"ham":2783,"stoffen":2784,"kennis":2785,"iere":2786,"tijden":2787,"bedrag":2788,"2023":2789,"slachtoffers":2790,"gezondheid":2791,"Ieder":2792,"ule":2793,"end":2794,"inv":2795,"stoot":2796,"heet":2797,"voelt":2798,"ustus":2799,"NL":2800,"hot":2801,"vari":2802,"oost":2803,"roffen":2804,"spor":2805,"overal":2806,"voelen":2807,"plaatst":2808,"ouwens":2809,"Verstappen":2810,"beschikbaar":2811,"45":2812,"fout":2813,"hof":2814,"ieel":2815,"iti":2816,"dium":2817,"getroffen":2818,"brug":2819,"wedstrijden":2820,"duizenden":2821,"Co":2822,"Nou":2823,"feren":2824,"mor":2825,"oorden":2826,"verleden":2827,"gene":2828,"overleden":2829,"wassen":2830,"blijf":2831,"milieu":2832,"plekken":2833,"Mark":2834,"vierde":2835,"demie":2836,"augustus":2837,"Mat":2838,"TV":2839,"bom":2840,"enn":2841,"stonden":2842,"teerde":2843,"dering":2844,"reag":2845,"waard":2846,"down":2847,"auw":2848,"gericht":2849,"houders":2850,"treden":2851,"wetenschap":2852,"juiste":2853,"voorlopig":2854,"prakt":2855,"Vand":2856,"onen":2857,"schak":2858,"nemer":2859,"daardoor":2860,"aagd":2861,"vertellen":2862,"verkopen":2863,"actief":2864,"stijgen":2865,"gebeurde":2866,"bewust":2867,"hield":2868,"sprong":2869,"ters":2870,"gezel":2871,"oepen":2872,"impel":2873,"stellingen":2874,"volgend":2875,"speelde":2876,"tuin":2877,"gegevens":2878,"trainer":2879,"leeftijd":2880,"akkoord":2881,"Cor":2882,"Her":2883,"Qu":2884,"grij":2885,"ival":2886,"lam":2887,"moord":2888,"vd":2889,"ymp":2890,"ère":2891,"tes":2892,"verplicht":2893,"schot":2894,"digit":2895,"ieso":2896,"consu":2897,"belangrijkste":2898,"organisaties":2899,"militaire":2900,"aden":2901,"sele":2902,"gehe":2903,"ull":2904,"willig":2905,"stijging":2906,"hogere":2907,"hon":2908,"tv":2909,"wieso":2910,"ats":2911,"rac":2912,"combin":2913,"ips":2914,"groeien":2915,"samenleving":2916,"gezin":2917,"zonne":2918,"berichten":2919,"duren":2920,"kaar":2921,"sal":2922,"etten":2923,"aandelen":2924,"beveilig":2925,"hangen":2926,"middelen":2927,"iedere":2928,"Onze":2929,"verloren":2930,"brengt":2931,"studie":2932,"ervaring":2933,"functie":2934,"useum":2935,"Vr":2936,"Wer":2937,"werp":2938,"immers":2939,"esse":2940,"arts":2941,"begonnen":2942,"brandweer":2943,"autor":2944,"allerlei":2945,"Mus":2946,"Mart":2947,"OM":2948,"Ru":2949,"Sy":2950,"koff":2951,"psych":2952,"woe":2953,"recor":2954,"waarden":2955,"plot":2956,"vraagt":2957,"beroep":2958,"winnaar":2959,"Hoewel":2960,"financiële":2961,"struct":2962,"tafel":2963,"boom":2964,"pog":2965,"ona":2966,"itte":2967,"ord":2968,"olang":2969,"toernooi":2970,"overtu":2971,"nau":2972,"klap":2973,"zette":2974,"trekt":2975,"hoven":2976,"samenwerking":2977,"produc":2978,"draagt":2979,"verdedig":2980,"biedt":2981,"iPhone":2982,"Con":2983,"Oran":2984,"gre":2985,"iele":2986,"kwij":2987,"loon":2988,"invloed":2989,"geh":2990,"behoor":2991,"raket":2992,"schoon":2993,"wilt":2994,"gemeenten":2995,"zame":2996,"lastig":2997,"noemt":2998,"asielzoekers":2999,"platform":3000,"standigheden":3001,"Col":3002,"Cent":3003,"ude":3004,"tekort":3005,"omzet":3006,"erende":3007,"pensi":3008,"werknemers":3009,"speeld":3010,"Tour":3011,"economische":3012,"pensioen":3013,"Air":3014,"Austr":3015,"Ber":3016,"erbij":3017,"defin":3018,"levert":3019,"uldig":3020,"goedkop":3021,"bedre":3022,"Vlaan":3023,"trouwens":3024,"Antwerp":3025,"fans":3026,"mening":3027,"icatie":3028,"gewonnen":3029,"expl":3030,"wereldwij":3031,"cept":3032,"ontwikkeling":3033,"industrie":3034,"Austral":3035,"Vlaanderen":3036,"aft":3037,"drij":3038,"kou":3039,"kand":3040,"gehaald":3041,"gevraagd":3042,"tev":3043,"verkocht":3044,"respe":3045,"reage":3046,"tocht":3047,"ammer":3048,"verbru":3049,"gebouwd":3050,"Lin":3051,"Naast":3052,"Rijk":3053,"bil":3054,"ondanks":3055,"data":3056,"komsten":3057,"wijze":3058,"park":3059,"Daarmee":3060,"hoogste":3061,"spreekt":3062,"zwak":3063,"scheid":3064,"Nederlander":3065,"29":3066,"Au":3067,"Nieuw":3068,"Pol":3069,"bracht":3070,"hist":3071,"sers":3072,"uele":3073,"zil":3074,"testen":3075,"derheid":3076,"bedo":3077,"bedoel":3078,"Inst":3079,"deels":3080,"Eerder":3081,"artikel":3082,"Iedereen":3083,"Haar":3084,"Laat":3085,"mb":3086,"uurd":3087,"indruk":3088,"ditie":3089,"boer":3090,"Char":3091,"beurs":3092,"verlies":3093,"positief":3094,"gelukkig":3095,"Ha":3096,"daal":3097,"ty":3098,"vou":3099,"tek":3100,"angst":3101,"gewone":3102,"locatie":3103,"Pas":3104,"bab":3105,"gever":3106,"stegen":3107,"parlement":3108,"optie":3109,"centrale":3110,"militair":3111,"kwijt":3112,"Mos":3113,"bier":3114,"iaanse":3115,"rom":3116,"tingen":3117,"zwe":3118,"eling":3119,"allen":3120,"leef":3121,"agne":3122,"spro":3123,"namen":3124,"mail":3125,"New":3126,"interview":3127,"liefde":3128,"virus":3129,"voedsel":3130,"gevangenis":3131,"altern":3132,"voudig":3133,"75":3134,"Bur":3135,"Mil":3136,"ratie":3137,"twijf":3138,"old":3139,"rode":3140,"mach":3141,"zomaar":3142,"welijks":3143,"Ho":3144,"vermogen":3145,"leek":3146,"ses":3147,"docu":3148,"ieuze":3149,"hoopt":3150,"rechten":3151,"commissie":3152,"sowieso":3153,"speler":3154,"lager":3155,"gemiddelde":3156,"Zaken":3157,"hopen":3158,"kat":3159,"kwest":3160,"wiel":3161,"ieven":3162,"omstandigheden":3163,"onds":3164,"toegang":3165,"kwal":3166,"Daarbij":3167,"verwachten":3168,"vreem":3169,"vergeten":3170,"dankzij":3171,"boeken":3172,"Oranje":3173,"Biden":3174,"aur":3175,"aus":3176,"fact":3177,"gewerkt":3178,"opdracht":3179,"leeg":3180,"bezoekers":3181,"Daarna":3182,"vertelde":3183,"raakte":3184,"veranderen":3185,"verandering":3186,"record":3187,"Can":3188,"cap":3189,"fan":3190,"kten":3191,"zier":3192,"debat":3193,"initi":3194,"steen":3195,"beweg":3196,"ikte":3197,"vent":3198,"spann":3199,"terrein":3200,"houding":3201,"mogelijkheid":3202,"Vooral":3203,"vormen":3204,"iname":3205,"vergun":3206,"Vlaamse":3207,"Turk":3208,"baas":3209,"inkomen":3210,"steden":3211,"secon":3212,"jaarlijk":3213,"handelen":3214,"interess":3215,"betere":3216,"gebeurd":3217,"qua":3218,"Unie":3219,"verzam":3220,"vroeger":3221,"otheek":3222,"Kl":3223,"Kaag":3224,"my":3225,"melden":3226,"oze":3227,"star":3228,"stev":3229,"haalt":3230,"soft":3231,"aangehouden":3232,"product":3233,"demon":3234,"concur":3235,"Zelfs":3236,"Suriname":3237,"definitie":3238,"Lim":3239,"Uni":3240,"Vrij":3241,"blijk":3242,"sign":3243,"simpel":3244,"oorten":3245,"voorbere":3246,"zege":3247,"alsof":3248,"advis":3249,"keers":3250,"vrijheid":3251,"vrijwillig":3252,"mogelijke":3253,"Volks":3254,"gebruikers":3255,"banken":3256,"patiënten":3257,"PSV":3258,"Sint":3259,"ffe":3260,"kelen":3261,"vog":3262,"err":3263,"algemeen":3264,"tent":3265,"aalf":3266,"wilden":3267,"strateg":3268,"Schip":3269,"gemiddeld":3270,"schreef":3271,"Ten":3272,"ah":3273,"bang":3274,"eet":3275,"eisen":3276,"loos":3277,"pom":3278,"anc":3279,"leed":3280,"snelheid":3281,"code":3282,"internet":3283,"bovendien":3284,"relatie":3285,"extreem":3286,"Rob":3287,"cou":3288,"gisteren":3289,"ud":3290,"zagen":3291,"inken":3292,"ell":3293,"onderwijs":3294,"protest":3295,"doden":3296,"meerderheid":3297,"iciteit":3298,"kerst":3299,"broek":3300,"gewond":3301,"kritiek":3302,"duurder":3303,"Arn":3304,"wissel":3305,"present":3306,"politici":3307,"Chinese":3308,"Put":3309,"Wor":3310,"pracht":3311,"deden":3312,"etitie":3313,"tegelijk":3314,"steken":3315,"onderdeel":3316,"rustig":3317,"staats":3318,"deelt":3319,"besloten":3320,"bud":3321,"witte":3322,"Geluk":3323,"Feyen":3324,"BS":3325,"gif":3326,"sne":3327,"inclus":3328,"ijen":3329,"westen":3330,"geluid":3331,"rukt":3332,"hoeven":3333,"groepen":3334,"199":3335,"oogle":3336,"eerdere":3337,"geslagen":3338,"maximaal":3339,"genoemd":3340,"Nation":3341,"pot":3342,"oosten":3343,"spannen":3344,"ontstaan":3345,"ontvangen":3346,"diverse":3347,"serv":3348,"ustitie":3349,"ziekte":3350,"bestuurder":3351,"betaald":3352,"verliezen":3353,"lat":3354,"norm":3355,"gezicht":3356,"verhalen":3357,"omhoog":3358,"bev":3359,"asie":3360,"moeite":3361,"podium":3362,"eindelijk":3363,"Terwijl":3364,"sancties":3365,"arbeids":3366,"Em":3367,"Jong":3368,"VA":3369,"Was":3370,"Wanneer":3371,"Zou":3372,"voordeel":3373,"spoor":3374,"vest":3375,"werkte":3376,"proe":3377,"eigenaar":3378,"prest":3379,"geleid":3380,"helpt":3381,"regelmatig":3382,"haalde":3383,"vlag":3384,"miljoenen":3385,"lijden":3386,"festival":3387,"Paul":3388,"Or":3389,"ict":3390,"lot":3391,"meen":3392,"ente":3393,"det":3394,"verkeers":3395,"geboren":3396,"jongen":3397,"onderzoekers":3398,"buitenland":3399,"sprak":3400,"grotere":3401,"advocaat":3402,"nauwelijks":3403,"histor":3404,"Feyenoord":3405,"Berg":3406,"Google":3407,"bit":3408,"dy":3409,"vlees":3410,"gekozen":3411,"verhog":3412,"nogal":3413,"waaronder":3414,"iër":3415,"apps":3416,"rassen":3417,"creë":3418,"voormalige":3419,"kwestie":3420,"AS":3421,"Kijk":3422,"Qat":3423,"RT":3424,"onafhankelijk":3425,"aly":3426,"ise":3427,"schiet":3428,"rijdt":3429,"eerlijk":3430,"akker":3431,"parkeer":3432,"ippen":3433,"Sport":3434,"verwachting":3435,"levering":3436,"Willem":3437,"discus":3438,"effect":3439,"twaalf":3440,"selectie":3441,"behoorlijk":3442,"Gelukkig":3443,"Bre":3444,"Japan":3445,"Kort":3446,"dier":3447,"hond":3448,"ior":3449,"rik":3450,"show":3451,"ueel":3452,"ende":3453,"geheel":3454,"genaam":3455,"overwinning":3456,"blik":3457,"klachten":3458,"droom":3459,"kleding":3460,"kantoor":3461,"rière":3462,"verdw":3463,"sidie":3464,"sfeer":3465,"geloven":3466,"gebrek":3467,"gemakkelijk":3468,"Vandaag":3469,"BM":3470,"Kr":3471,"Meer":3472,"Natuur":3473,"Red":3474,"cas":3475,"goud":3476,"ti":3477,"zul":3478,"ingezet":3479,"opper":3480,"wekken":3481,"voorstel":3482,"outen":3483,"gelu":3484,"gelaten":3485,"uld":3486,"wijst":3487,"duel":3488,"dure":3489,"lage":3490,"pass":3491,"breken":3492,"Europees":3493,"bepaald":3494,"Gelder":3495,"generatie":3496,"bers":3497,"cur":3498,"emot":3499,"hers":3500,"hore":3501,"kar":3502,"set":3503,"zus":3504,"atische":3505,"teert":3506,"derd":3507,"beheer":3508,"vecht":3509,"ions":3510,"Marok":3511,"relatief":3512,"verdienen":3513,"meisje":3514,"demonstr":3515,"Schiphol":3516,"Even":3517,"azen":3518,"rid":3519,"staten":3520,"bezorg":3521,"jezelf":3522,"vechten":3523,"benad":3524,"blad":3525,"sterke":3526,"mogelijkheden":3527,"helaas":3528,"Zoals":3529,"jongens":3530,"gaven":3531,"Spanje":3532,"beteken":3533,"vliegen":3534,"status":3535,"hangt":3536,"beslissing":3537,"subsidie":3538,"materi":3539,"Noor":3540,"Pvd":3541,"boot":3542,"cast":3543,"gun":3544,"pad":3545,"atisch":3546,"issen":3547,"wellicht":3548,"tallen":3549,"zwart":3550,"2018":3551,"technologie":3552,"uiteraard":3553,"fabriek":3554,"Musk":3555,"NP":3556,"Polen":3557,"bon":3558,"bun":3559,"rand":3560,"xe":3561,"zaakt":3562,"ooft":3563,"gep":3564,"ald":3565,"wegens":3566,"amper":3567,"agenten":3568,"cret":3569,"zwarte":3570,"modellen":3571,"carrière":3572,"klasse":3573,"begrijp":3574,"temperatuur":3575,"budget":3576,"Ko":3577,"ain":3578,"taal":3579,"zanger":3580,"anne":3581,"onver":3582,"verspre":3583,"opvallen":3584,"genoten":3585,"uitstoot":3586,"overeen":3587,"doorgaan":3588,"gebieden":3589,"acteur":3590,"feder":3591,"trap":3592,"miss":3593,"Zeker":3594,"standaard":3595,"zoekt":3596,"rekenen":3597,"bonds":3598,"serieus":3599,"poging":3600,"Bos":3601,"Gent":3602,"IN":3603,"NV":3604,"km":3605,"not":3606,"vracht":3607,"raken":3608,"kansen":3609,"istisch":3610,"pens":3611,"minste":3612,"coal":3613,"besloot":3614,"stijds":3615,"aliseren":3616,"vereniging":3617,"invester":3618,"campagne":3619,"33":3620,"Binnen":3621,"dw":3622,"ift":3623,"ph":3624,"raal":3625,"yn":3626,"chem":3627,"vergoed":3628,"opmer":3629,"schieten":3630,"waardig":3631,"gerecht":3632,"herstel":3633,"gestuurd":3634,"vloe":3635,"Tegen":3636,"nationaal":3637,"panelen":3638,"specif":3639,"Italië":3640,"incident":3641,"compleet":3642,"journalist":3643,"dagelijks":3644,"baby":3645,"coalitie":3646,"BB":3647,"Kie":3648,"Kom":3649,"Tom":3650,"mand":3651,"etc":3652,"stak":3653,"igingen":3654,"werker":3655,"ction":3656,"achtig":3657,"ontmoet":3658,"geroepen":3659,"minist":3660,"praat":3661,"ivid":3662,"ressie":3663,"bruik":3664,"verklaring":3665,"trans":3666,"Soms":3667,"resultaat":3668,"blijkbaar":3669,"Kun":3670,"Nij":3671,"So":3672,"US":3673,"anci":3674,"ance":3675,"sters":3676,"stige":3677,"alweer":3678,"verbod":3679,"bezit":3680,"scholen":3681,"toer":3682,"individ":3683,"lukt":3684,"gedacht":3685,"geleverd":3686,"uidelijk":3687,"hoofdstad":3688,"meestal":3689,"persoonlijk":3690,"profess":3691,"activiteiten":3692,"populair":3693,"dubbel":3694,"grenzen":3695,"variant":3696,"book":3697,"fig":3698,"oken":3699,"ineens":3700,"ijt":3701,"verst":3702,"verwar":3703,"geno":3704,"genieten":3705,"bergen":3706,"groene":3707,"plezier":3708,"ranten":3709,"vrijwel":3710,"cedes":3711,"roept":3712,"live":3713,"verdachten":3714,"2017":3715,"Tesla":3716,"gereden":3717,"bewol":3718,"pandemie":3719,"kapot":3720,"solu":3721,"impact":3722,"competitie":3723,"resultaten":3724,"Mercedes":3725,"Apel":3726,"Wh":3727,"nel":3728,"selen":3729,"enen":3730,"deal":3731,"sta":3732,"onne":3733,"onlangs":3734,"arch":3735,"voorspel":3736,"voorsprong":3737,"raden":3738,"oond":3739,"totale":3740,"eventu":3741,"binnenkort":3742,"gemeenter":3743,"Christ":3744,"speciale":3745,"aangekond":3746,"Johan":3747,"fabrik":3748,"consumenten":3749,"bedoeld":3750,"Qatar":3751,"PvdA":3752,"EN":3753,"Pat":3754,"bomen":3755,"gu":3756,"keld":3757,"zers":3758,"gekeken":3759,"gestegen":3760,"vervangen":3761,"dertig":3762,"reeks":3763,"begr":3764,"jecten":3765,"uitzonder":3766,"schop":3767,"stens":3768,"deelnemers":3769,"plein":3770,"avor":3771,"front":3772,"minuut":3773,"harde":3774,"99":3775,"Alex":3776,"Face":3777,"troepen":3778,"geplaatst":3779,"reur":3780,"aanvallen":3781,"sens":3782,"erend":3783,"gebroken":3784,"werkzaam":3785,"kwets":3786,"prop":3787,"absolu":3788,"schepen":3789,"brandstof":3790,"duurt":3791,"2014":3792,"restaur":3793,"feiten":3794,"beperkt":3795,"CDA":3796,"Afrika":3797,"Ferr":3798,"IJ":3799,"IV":3800,"Kar":3801,"Lo":3802,"No":3803,"ame":3804,"caf":3805,"hop":3806,"ongeval":3807,"vertegenwoordig":3808,"iend":3809,"ondernemers":3810,"plant":3811,"play":3812,"openbaar":3813,"tegenst":3814,"boden":3815,"confl":3816,"deelde":3817,"netwerk":3818,"getrokken":3819,"geschikt":3820,"stukje":3821,"filmp":3822,"vriendin":3823,"updat":3824,"voorbije":3825,"sluiting":3826,"gooien":3827,"index":3828,"gehoord":3829,"gemeenteraad":3830,"ael":3831,"fel":3832,"wo":3833,"wens":3834,"uitspraak":3835,"steek":3836,"eerden":3837,"word":3838,"agent":3839,"markten":3840,"Amerika":3841,"leidt":3842,"draait":3843,"Parijs":3844,"toont":3845,"officieel":3846,"Brab":3847,"fietsen":3848,"32":3849,"Bu":3850,"Dr":3851,"Denk":3852,"Peter":3853,"Vis":3854,"hyp":3855,"put":3856,"opzich":3857,"uitker":3858,"schip":3859,"afscheid":3860,"Alles":3861,"Oekraïners":3862,"geschoten":3863,"beurt":3864,"pakket":3865,"Eindhoven":3866,"31":3867,"Samen":3868,"koe":3869,"kingen":3870,"kast":3871,"ret":3872,"geë":3873,"eenmaal":3874,"aanbod":3875,"ouden":3876,"rad":3877,"anda":3878,"agram":3879,"gels":3880,"onderhandel":3881,"zoiets":3882,"slapen":3883,"ioneel":3884,"pret":3885,"Stad":3886,"lock":3887,"Leiden":3888,"vaste":3889,"melding":3890,"banden":3891,"gesprekken":3892,"vliegtuig":3893,"invasie":3894,"praktijk":3895,"horeca":3896,"cretaris":3897,"400":3898,"AM":3899,"ball":3900,"favor":3901,"keten":3902,"ny":3903,"ring":3904,"var":3905,"wél":3906,"destijds":3907,"iep":3908,"vanavond":3909,"overleg":3910,"Staat":3911,"stads":3912,"tientallen":3913,"clubs":3914,"Grote":3915,"probeert":3916,"kruis":3917,"digitale":3918,"tevreden":3919,"Limburg":3920,"opzichte":3921,"36":3922,"Ad":3923,"EK":3924,"Zelen":3925,"cle":3926,"oven":3927,"sa":3928,"tru":3929,"vonden":3930,"erger":3931,"ertijd":3932,"inke":3933,"gemen":3934,"isse":3935,"verbeter":3936,"vertrekken":3937,"ley":3938,"arden":3939,"ario":3940,"rab":3941,"uitgebre":3942,"unt":3943,"rot":3944,"ondertussen":3945,"welkom":3946,"volwassen":3947,"daarop":3948,"gaande":3949,"boete":3950,"persoonlijke":3951,"cieel":3952,"leuke":3953,"Kiev":3954,"Zelensk":3955,"Form":3956,"Mag":3957,"Sm":3958,"liter":3959,"poten":3960,"voorstellen":3961,"inger":3962,"perfe":3963,"okken":3964,"dringen":3965,"droog":3966,"Daardoor":3967,"Vanaf":3968,"verband":3969,"tonen":3970,"vluchten":3971,"ieuwd":3972,"tekst":3973,"beweging":3974,"Arnhem":3975,"Putin":3976,"55":3977,"City":3978,"Gu":3979,"Hong":3980,"II":3981,"Mon":3982,"Uiteindelijk":3983,"Vo":3984,"ane":3985,"verlaten":3986,"gent":3987,"ilen":3988,"moder":3989,"brood":3990,"prik":3991,"sieke":3992,"handig":3993,"voering":3994,"winkels":3995,"bord":3996,"reageren":3997,"verbruik":3998,"discussie":3999,"Ferrari":4000,"37":4001,"Del":4002,"ba":4003,"cro":4004,"izig":4005,"vac":4006,"wisten":4007,"analy":4008,"deta":4009,"gespeeld":4010,"dergelijke":4011,"dend":4012,"reizen":4013,"behoef":4014,"ils":4015,"uitzen":4016,"onderzoeken":4017,"drinken":4018,"conclus":4019,"stren":4020,"utie":4021,"cep":4022,"Ondanks":4023,"verschillen":4024,"matige":4025,"stijl":4026,"zone":4027,"ernstig":4028,"nergens":4029,"schuldig":4030,"ologische":4031,"Oosten":4032,"veroorzaakt":4033,"partner":4034,"Cl":4035,"Doe":4036,"Ju":4037,"Jon":4038,"paal":4039,"inkomsten":4040,"verbet":4041,"optreden":4042,"aanzien":4043,"aringen":4044,"oloog":4045,"steeg":4046,"afval":4047,"ake":4048,"gedragen":4049,"richten":4050,"honderden":4051,"Italiaanse":4052,"college":4053,"herinner":4054,"Instagram":4055,"Moskou":4056,"kwalific":4057,"Bau":4058,"Buiten":4059,"Di":4060,"Dank":4061,"ET":4062,"SP":4063,"kking":4064,"moed":4065,"museum":4066,"pand":4067,"tar":4068,"enten":4069,"inte":4070,"ooster":4071,"verw":4072,"aangif":4073,"weig":4074,"ada":4075,"appe":4076,"neder":4077,"akken":4078,"anti":4079,"gewicht":4080,"ergie":4081,"slechte":4082,"verloor":4083,"scen":4084,"westerse":4085,"trok":4086,"vuurwerk":4087,"bijzondere":4088,"koffie":4089,"explos":4090,"BMW":4091,"38":4092,"300":4093,"?”":4094,"Naar":4095,"cru":4096,"golf":4097,"riv":4098,"tweet":4099,"eters":4100,"gevers":4101,"verboden":4102,"iteren":4103,"aanv":4104,"lecht":4105,"werpen":4106,"afgesloten":4107,"auwe":4108,"bron":4109,"evene":4110,"krit":4111,"kelijke":4112,"bedrijfs":4113,"coronav":4114,"recla":4115,"Gewoon":4116,"Isra":4117,"functies":4118,"Overigens":4119,"bestaande":4120,"elektriciteit":4121,"gevaarlijk":4122,"privé":4123,"vijftien":4124,"democratie":4125,"Facebook":4126,"Formule":4127,"Eigen":4128,"Ka":4129,"Port":4130,"cul":4131,"zine":4132,"inval":4133,"inzet":4134,"aai":4135,"oofd":4136,"ieve":4137,"geef":4138,"versl":4139,"raf":4140,"uitdag":4141,"aming":4142,"minimaal":4143,"iviteit":4144,"luchthaven":4145,"Russisch":4146,"mate":4147,"veiligheids":4148,"install":4149,"gezondheids":4150,"trots":4151,"bescherming":4152,"Sommige":4153,"supermarkt":4154,"genoemde":4155,"linkse":4156,"combinatie":4157,"Bart":4158,"Had":4159,"Kle":4160,"Sam":4161,"bad":4162,"dro":4163,"fant":4164,"pk":4165,"typ":4166,"eruit":4167,"vere":4168,"verre":4169,"bese":4170,"schoen":4171,"spullen":4172,"volks":4173,"plus":4174,"icro":4175,"gebleven":4176,"tijdje":4177,"branden":4178,"bodem":4179,"toege":4180,"gewen":4181,"excus":4182,"cohol":4183,"regeling":4184,"ress":4185,"Watch":4186,"belangen":4187,"Frans":4188,"Heeft":4189,"redenen":4190,"bereiken":4191,"wijken":4192,"begrijpen":4193,"voertuig":4194,"dikke":4195,"wereldwijd":4196,"vergunning":4197,"seconden":4198,"starten":4199,"Brabant":4200,"AD":4201,"Fl":4202,"IS":4203,"Jer":4204,"Nieu":4205,"Per":4206,"bol":4207,"back":4208,"daling":4209,"emen":4210,"mas":4211,"rook":4212,"rele":4213,"soorten":4214,"aaien":4215,"vern":4216,"bevat":4217,"spits":4218,"nem":4219,"klopt":4220,"aagde":4221,"bellen":4222,"huishouden":4223,"flinke":4224,"finales":4225,"adem":4226,"coronac":4227,"oorlogs":4228,"stukken":4229,"meldingen":4230,"zinn":4231,"gerekend":4232,"Eén":4233,"God":4234,"Med":4235,"Rad":4236,"Raad":4237,"ire":4238,"ps":4239,"pij":4240,"ror":4241,"telijke":4242,"ël":4243,"inkrijk":4244,"ish":4245,"verzet":4246,"vertrek":4247,"bekijken":4248,"voorwaarden":4249,"steerd":4250,"lied":4251,"plaatse":4252,"tradit":4253,"lachen":4254,"jarenlang":4255,"woont":4256,"daadwerkelijk":4257,"beschermen":4258,"smart":4259,"vergelijking":4260,"beleggers":4261,"autoriteiten":4262,"respect":4263,"Da":4264,"ID":4265,"fase":4266,"kol":4267,"velen":4268,"vlo":4269,"ande":4270,"arre":4271,"vooraf":4272,"spl":4273,"aald":4274,"voel":4275,"gerust":4276,"braak":4277,"hoof":4278,"groten":4279,"maakten":4280,"zoeker":4281,"krachten":4282,"bepalen":4283,"vlieg":4284,"zakken":4285,"ambten":4286,"iënt":4287,"donker":4288,"voertuigen":4289,"Vlaams":4290,"gelegenheid":4291,"initiatief":4292,"concurrent":4293,"bondscoach":4294,"restaurant":4295,"Dav":4296,"Jul":4297,"Ser":4298,"ino":4299,"alcohol":4300,"vanzelf":4301,"verzoek":4302,"schaal":4303,"sem":4304,"spar":4305,"slaap":4306,"minstens":4307,"boel":4308,"oegd":4309,"gestoken":4310,"grap":4311,"control":4312,"tiende":4313,"Frank":4314,"zichtbaar":4315,"maker":4316,"operatie":4317,"wagens":4318,"structuur":4319,"inclusief":4320,"aangekondigd":4321,"conflict":4322,"Bank":4323,"Brug":4324,"Mol":4325,"Tim":4326,"fic":4327,"glas":4328,"heren":4329,"rood":4330,"tan":4331,"zaten":4332,"óó":4333,"deuren":4334,"heten":4335,"behalve":4336,"auffe":4337,"nut":4338,"geru":4339,"klant":4340,"sterren":4341,"moede":4342,"princi":4343,"compl":4344,"bles":4345,"beslag":4346,"zorgde":4347,"verdacht":4348,"Groot":4349,"Mech":4350,"Holland":4351,"hotel":4352,"goedkoper":4353,"vergoeding":4354,"izigers":4355,"excuses":4356,"Hen":4357,"Piet":4358,"Ros":4359,"Ts":4360,"fas":4361,"jammer":4362,"tank":4363,"voren":4364,"ye":4365,"zaal":4366,"defensie":4367,"onie":4368,"eenvoudig":4369,"ali":4370,"vervolg":4371,"aans":4372,"Westen":4373,"gemeenschap":4374,"interesse":4375,"koppel":4376,"que":4377,"soldaten":4378,"pporters":4379,"bescherm":4380,"locaties":4381,"maxim":4382,"voormalig":4383,"Ab":4384,"Gi":4385,"LM":4386,"NS":4387,"Pad":4388,"Rem":4389,"abel":4390,"fonds":4391,"hat":4392,"zolang":4393,"intussen":4394,"stab":4395,"opleiding":4396,"argu":4397,"ight":4398,"ramp":4399,"ilip":4400,"uitbre":4401,"aff":4402,"afdeling":4403,"adres":4404,"landbouw":4405,"kanker":4406,"opening":4407,"luidt":4408,"keerd":4409,"beschuldig":4410,"stemd":4411,"positieve":4412,"accoun":4413,"ervaren":4414,"ypto":4415,"verkeerde":4416,"letter":4417,"hoeveelheid":4418,"Koninkrijk":4419,"Huis":4420,"ympische":4421,"NPO":4422,"150":4423,"34":4424,"Dijk":4425,"Nor":4426,"Tok":4427,"been":4428,"can":4429,"gat":4430,"honden":4431,"pil":4432,"stor":4433,"ieur":4434,"ateur":4435,"geest":4436,"verrassen":4437,"opgenomen":4438,"iete":4439,"schaat":4440,"Defensie":4441,"assen":4442,"ney":4443,"neus":4444,"goedkoop":4445,"zijde":4446,"buitenlandse":4447,"risis":4448,"teleur":4449,"veroordeeld":4450,"stoel":4451,"Commissie":4452,"eiland":4453,"café":4454,"scenario":4455,"As":4456,"FA":4457,"Londen":4458,"Ron":4459,"ive":4460,"ku":4461,"tri":4462,"vet":4463,"etsen":4464,"diesel":4465,"vee":4466,"bene":4467,"conferen":4468,"Champ":4469,"lay":4470,"198":4471,"bereik":4472,"public":4473,"Elke":4474,"training":4475,"officiële":4476,"medische":4477,"complex":4478,"CO2":4479,"leerlingen":4480,"vervelen":4481,"behandeling":4482,"Links":4483,"bedoeling":4484,"capac":4485,"interessant":4486,"software":4487,"verhoging":4488,"Bull":4489,"Club":4490,"FI":4491,"For":4492,"Pl":4493,"gig":4494,"ider":4495,"ipt":4496,"lap":4497,"rice":4498,"voegen":4499,"steren":4500,"vertra":4501,"verga":4502,"ork":4503,"aanpak":4504,"beker":4505,"begele":4506,"schui":4507,"doordat":4508,"nauw":4509,"enthou":4510,"wijzig":4511,"keert":4512,"kleuren":4513,"2024":4514,"sleut":4515,"verbind":4516,"Spelen":4517,"Spaanse":4518,"leidde":4519,"wethouder":4520,"makers":4521,"ambitie":4522,"concert":4523,"rijke":4524,"zuiden":4525,"gelost":4526,"schilder":4527,"Helaas":4528,"Heel":4529,"IC":4530,"Por":4531,"Tu":4532,"Zwit":4533,"bby":4534,"cal":4535,"lon":4536,"ugen":4537,"zover":4538,"verster":4539,"overschrij":4540,"ama":4541,"tijdelijk":4542,"gebo":4543,"gebas":4544,"getuigen":4545,"wereldkampioen":4546,"Anders":4547,"geschak":4548,"onzeker":4549,"logisch":4550,"stadion":4551,"leraar":4552,"bereikt":4553,"vandaan":4554,"obil":4555,"opgepakt":4556,"besmettingen":4557,"migratie":4558,"negatieve":4559,"alternatief":4560,"verdwijnen":4561,"Natuurlijk":4562,"App":4563,"Gem":4564,"Hun":4565,"Jum":4566,"Thom":4567,"Zwe":4568,"bum":4569,"editie":4570,"iz":4571,"laad":4572,"pool":4573,"enig":4574,"ermee":4575,"ijden":4576,"standen":4577,"redelijk":4578,"outer":4579,"illeg":4580,"bijeen":4581,"terij":4582,"waarna":4583,"onduidelijk":4584,"icket":4585,"toeval":4586,"achtergrond":4587,"hogen":4588,"aangepast":4589,"avonds":4590,"noemde":4591,"Brazil":4592,"papier":4593,"vijftig":4594,"Vorig":4595,"wetenschappers":4596,"Antwerpse":4597,"jaarlijks":4598,"vrijwilligers":4599,"lockdown":4600,"ER":4601,"Hoog":4602,"Ra":4603,"Tele":4604,"achte":4605,"boos":4606,"dalen":4607,"fac":4608,"mus":4609,"rang":4610,"vaardig":4611,"ini":4612,"elders":4613,"weder":4614,"idaat":4615,"gelden":4616,"nes":4617,"Inmiddels":4618,"daarin":4619,"voelde":4620,"betal":4621,"ited":4622,"crypto":4623,"game":4624,"volledige":4625,"hoorde":4626,"lopende":4627,"Engeland":4628,"Ministerie":4629,"woke":4630,"hypotheek":4631,"Jumbo":4632,"Kat":4633,"Kore":4634,"Mc":4635,"buren":4636,"jet":4637,"€™":4638,"alvast":4639,"verhogen":4640,"armoede":4641,"oudere":4642,"uitgevoerd":4643,"spaar":4644,"spir":4645,"afspraken":4646,"2000":4647,"gemeld":4648,"irus":4649,"baarheid":4650,"Euro":4651,"rondom":4652,"planten":4653,"bereid":4654,"teams":4655,"momenten":4656,"vaccinatie":4657,"Openbaar":4658,"Baudet":4659,"blessu":4660,"Hamil":4661,"Ren":4662,"fles":4663,"gan":4664,"kust":4665,"eentje":4666,"verniet":4667,"ree":4668,"reacties":4669,"voornamelijk":4670,"afloop":4671,"slaat":4672,"nek":4673,"proce":4674,"ics":4675,"toezicht":4676,"wongen":4677,"Ander":4678,"laden":4679,"breed":4680,"leiders":4681,"kilo":4682,"zakelijk":4683,"chester":4684,"financieel":4685,"Verenigd":4686,"boodschap":4687,"raketten":4688,"filmpje":4689,"gebaseerd":4690,"At":4691,"Dis":4692,"Drie":4693,"Tr":4694,"gaten":4695,"lijnen":4696,"veen":4697,"elle":4698,"georganis":4699,"reizigers":4700,"ike":4701,"ogan":4702,"benieuwd":4703,"benzine":4704,"ierd":4705,"kei":4706,"daarnaast":4707,"betrouw":4708,"divisie":4709,"gedwongen":4710,"comment":4711,"compens":4712,"Oekraine":4713,"197":4714,"duurzaam":4715,"streeks":4716,"publieke":4717,"vrede":4718,"welijke":4719,"Manchester":4720,"verantwoordelijkheid":4721,"ennia":4722,"type":4723,"Israël":4724,"Hamilton":4725,"?’":4726,"AR":4727,"EV":4728,"Jor":4729,"Lou":4730,"San":4731,"Ster":4732,"Win":4733,"bbel":4734,"dou":4735,"fys":4736,"vervoer":4737,"oma":4738,"recent":4739,"aanvragen":4740,"schoot":4741,"agressie":4742,"onderzocht":4743,"adver":4744,"tijdelijke":4745,"bronnen":4746,"maals":4747,"fee":4748,"loze":4749,"peil":4750,"onderzoeks":4751,"breekt":4752,"duurzame":4753,"ituut":4754,"geregeld":4755,"betaalt":4756,"films":4757,"Afgelopen":4758,"zwem":4759,"analyse":4760,"aangifte":4761,"coronacrisis":4762,",”":4763,"39":4764,"65":4765,"Achter":4766,"Goed":4767,"Joe":4768,"Sc":4769,"Vroe":4770,"York":4771,"dcast":4772,"ét":4773,"oorzaak":4774,"verblijf":4775,"ars":4776,"rapt":4777,"agina":4778,"overlast":4779,"afkomst":4780,"zogenaam":4781,"apt":4782,"slid":4783,"lands":4784,"zichten":4785,"openbare":4786,"minim":4787,"artie":4788,"stelsel":4789,"commer":4790,"wint":4791,"snelle":4792,"sief":4793,"drukken":4794,"aangezien":4795,"veilige":4796,"bekendgemaakt":4797,"Beide":4798,"ffer":4799,"decennia":4800,"ssecretaris":4801,"zonnepanelen":4802,"salaris":4803,"Turkije":4804,"strategie":4805,"proef":4806,"materiaal":4807,"begrip":4808,"werkzaamheden":4809,"absoluut":4810,"reclame":4811,"Hug":4812,"categ":4813,"eiden":4814,"ielen":4815,"stichting":4816,"chip":4817,"verra":4818,"aangetroffen":4819,"lege":4820,"meten":4821,"neut":4822,"ontzetten":4823,"openen":4824,"beland":4825,"digd":4826,"nodige":4827,"verschijn":4828,"Vervolgens":4829,"agement":4830,"speciaal":4831,"United":4832,"criminelen":4833,"wachte":4834,"sprint":4835,"Surin":4836,"broer":4837,"sociaal":4838,"veertig":4839,"Zelensky":4840,"Dam":4841,"Hop":4842,"Mid":4843,"Prem":4844,"cade":4845,"eu":4846,"fort":4847,"ld":4848,"voe":4849,"zui":4850,"ün":4851,"opslag":4852,"aanleiding":4853,"lek":4854,"voorkeur":4855,"ura":4856,"urele":4857,"dief":4858,"waarvoor":4859,"achtste":4860,"uliere":4861,"strand":4862,"Weet":4863,"gevuld":4864,"pleit":4865,"achterstand":4866,"verkracht":4867,"lossen":4868,"2015":4869,"meldde":4870,"knop":4871,"ernstige":4872,"televisie":4873,"ontwikkelen":4874,"financ":4875,"redden":4876,"probeerde":4877,"Eerst":4878,"apparte":4879,"warmte":4880,"experts":4881,"massaal":4882,"koningin":4883,"route":4884,"gezellig":4885,"vreemd":4886,"sneeuw":4887,"gemene":4888,"Buitenlandse":4889,"conferentie":4890,"geboden":4891,"AZ":4892,"Beg":4893,"Gen":4894,"Mad":4895,"Wit":4896,"Wim":4897,"cla":4898,"hitte":4899,"ichte":4900,"iPad":4901,"rat":4902,"scor":4903,"gecon":4904,"gekocht":4905,"opvol":4906,"gend":4907,"arrest":4908,"meet":4909,"tennis":4910,"ftal":4911,"mochten":4912,"plast":4913,"ontslag":4914,"manager":4915,"droeg":4916,"artsen":4917,"luisteren":4918,"cons":4919,"straten":4920,"pleeg":4921,"lanc":4922,"gestart":4923,"bass":4924,"2016":4925,"ssier":4926,"Moet":4927,"systemen":4928,"Ondertussen":4929,"kondigde":4930,"Michael":4931,"kaarten":4932,"kandi":4933,"pomp":4934,"zulke":4935,"Gelderland":4936,"tegenstander":4937,"uitkering":4938,"Dankzij":4939,"coronavirus":4940,"vloer":4941,"capaciteit":4942,"Hugo":4943,"ontzettend":4944,"46":4945,"Go":4946,"Ham":4947,"Let":4948,"Nat":4949,"Rond":4950,"Wout":4951,"telt":4952,"wal":4953,"erin":4954,"eraan":4955,"degelijk":4956,"inspe":4957,"aturen":4958,"geet":4959,"iss":4960,"islam":4961,"vernieuw":4962,"verslag":4963,"itaire":4964,"urt":4965,"scha":4966,"sporen":4967,"welk":4968,"atieven":4969,"dossier":4970,"imir":4971,"eveneens":4972,"gete":4973,"beschad":4974,"kopp":4975,"Amerikanen":4976,"pakte":4977,"eindigde":4978,"recente":4979,"ambul":4980,"techniek":4981,"verdient":4982,"jury":4983,"communicatie":4984,"drijven":4985,"Rijks":4986,"spanning":4987,"opvallend":4988,"update":4989,"42":4990,"Arab":4991,"Bru":4992,"Lan":4993,"Spe":4994,"Welke":4995,"dijk":4996,"hie":4997,"imen":4998,"iment":4999,"justitie":5000,"lim":5001,"lige":5002,"lagen":5003,"nad":5004,"poort":5005,"inzetten":5006,"stok":5007,"storm":5008,"onk":5009,"realiteit":5010,"heil":5011,"datie":5012,"onderwerp":5013,"aflevering":5014,"kunsten":5015,"hijs":5016,"werkgever":5017,"supporters":5018,"legde":5019,"verbonden":5020,"Tegelijk":5021,"thema":5022,"kiest":5023,"oplossingen":5024,"automatisch":5025,"jurid":5026,"herinn":5027,"brak":5028,"Charles":5029,"normale":5030,"integr":5031,"huishoudens":5032,"beneden":5033,"Zweden":5034,"Vroeger":5035,"600":5036,"Aert":5037,"F1":5038,"Henk":5039,"Iran":5040,"VN":5041,"Vite":5042,"cte":5043,"ius":5044,"muur":5045,"ther":5046,"uwe":5047,"elftal":5048,"chauffe":5049,"ophe":5050,"opgelost":5051,"behouden":5052,"hev":5053,"datum":5054,"overleed":5055,"ctoren":5056,"blauw":5057,"huwelijk":5058,"ptie":5059,"bleven":5060,"miljarden":5061,"graf":5062,"verdere":5063,"podcast":5064,"vijfde":5065,"assist":5066,"medewerker":5067,"euwen":5068,"vorming":5069,"lagere":5070,"fractie":5071,"wisselen":5072,"migranten":5073,"dronken":5074,"kandidaat":5075,"militairen":5076,"benadrukt":5077,"betekenen":5078,"behoefte":5079,"schoenen":5080,"Nieuwe":5081,"Brugge":5082,"Vitesse":5083,"EO":5084,"GS":5085,"Iets":5086,"Land":5087,"kele":5088,"migen":5089,"rale":5090,"enter":5091,"inden":5092,"instellingen":5093,"oorte":5094,"versnel":5095,"oproep":5096,"meda":5097,"rain":5098,"schaf":5099,"tenminste":5100,"rijding":5101,"nazi":5102,"kee":5103,"luxe":5104,"acy":5105,"energieprijzen":5106,"opties":5107,"leverde":5108,"breng":5109,"volgde":5110,"veranderd":5111,"geweldig":5112,"wijfeld":5113,"apparaten":5114,"vervuil":5115,"verdediger":5116,"Centraal":5117,"twijfel":5118,"vrachtwagen":5119,"Nijme":5120,"categorie":5121,"Ronde":5122,"Sal":5123,"Zonder":5124,"nl":5125,"pit":5126,"tren":5127,"ooien":5128,"oorde":5129,"verstand":5130,"verhoog":5131,"gende":5132,"voorjaar":5133,"voorzicht":5134,"mezelf":5135,"term":5136,"terror":5137,"projecten":5138,"blauwe":5139,"geboorte":5140,"aakte":5141,"Zee":5142,"getwijfeld":5143,"Zowel":5144,"verschijnen":5145,"gezamen":5146,"gave":5147,"liber":5148,"maatregel":5149,"oemd":5150,"doelman":5151,"stijgt":5152,"Team":5153,"streep":5154,"aliseerd":5155,"keuken":5156,"expert":5157,"meisjes":5158,"Johnson":5159,"GroenLinks":5160,"schakelen":5161,"creëren":5162,"federale":5163,"ministers":5164,"uitgebreid":5165,"Nijmegen":5166,"Azi":5167,"BO":5168,"Cons":5169,"Jac":5170,"Jonge":5171,"Sov":5172,"Wal":5173,"ader":5174,"boord":5175,"ei":5176,"fy":5177,"lers":5178,"scr":5179,"th":5180,"iegel":5181,"gede":5182,"lee":5183,"uitste":5184,"ago":5185,"sloot":5186,"sloeg":5187,"kes":5188,"opend":5189,"drank":5190,"delingen":5191,"deloos":5192,"lukte":5193,"bedien":5194,"bedacht":5195,"langere":5196,"umn":5197,"flix":5198,"beschouw":5199,"contin":5200,"vieren":5201,"bereken":5202,"2012":5203,"Willi":5204,"instantie":5205,"fors":5206,"technische":5207,"Groning":5208,"Hierdoor":5209,"verzekering":5210,"schatting":5211,"ondersteuning":5212,"ECB":5213,"greep":5214,"simpelweg":5215,"historische":5216,"Champions":5217,"enthousi":5218,"geschakeld":5219,"blessure":5220,"44":5221,"Bet":5222,"Cal":5223,"Gaal":5224,"Ken":5225,"KLM":5226,"Pool":5227,"Pri":5228,"Sh":5229,"Stra":5230,"Tran":5231,"Val":5232,"az":5233,"ls":5234,"oc":5235,"dement":5236,"inged":5237,"geheten":5238,"onmogelijk":5239,"beoor":5240,"rok":5241,"overzicht":5242,"moslim":5243,"uleren":5244,"hoewel":5245,"treffen":5246,"hiervoor":5247,"netjes":5248,"talent":5249,"urende":5250,"vertrokken":5251,"Markt":5252,"zekerheid":5253,"daden":5254,"gezinnen":5255,"beslist":5256,"lerc":5257,"Hoeveel":5258,"design":5259,"accu":5260,"kleiner":5261,"universiteit":5262,"verkeerd":5263,"fraude":5264,"journalisten":5265,"temperaturen":5266,"vermoedelijk":5267,"boodschappen":5268,"Australië":5269,"machine":5270,"Universiteit":5271,"prachtige":5272,"onderhandelingen":5273,"fantast":5274,"gigant":5275,"Thomas":5276,"Premier":5277,"250":5278,"Fr":5279,"Fort":5280,"Hoek":5281,"Kui":5282,"Mor":5283,"Veil":5284,"baller":5285,"dad":5286,"fot":5287,"hiel":5288,"iders":5289,"kies":5290,"ypt":5291,"zuid":5292,"teveel":5293,"leert":5294,"begro":5295,"kenn":5296,"bijdra":5297,"afger":5298,"neu":5299,"kanaal":5300,"meedoen":5301,"wild":5302,"manieren":5303,"duc":5304,"Daarvoor":5305,"keerde":5306,"gelezen":5307,"ivis":5308,"jarig":5309,"pels":5310,"Vlad":5311,"quent":5312,"function":5313,"antwoorden":5314,"riep":5315,"Netflix":5316,"grensoverschrij":5317,"partic":5318,"dubbele":5319,"gasten":5320,"bevestigt":5321,"Vorige":5322,"Alexander":5323,"Smit":5324,"Porsche":5325,"kandidaten":5326,"%.":5327,"EM":5328,"Gaat":5329,"Ku":5330,"PVV":5331,"Weer":5332,"Water":5333,"Zolang":5334,"akt":5335,"bis":5336,"bonden":5337,"haat":5338,"kool":5339,"raakt":5340,"sor":5341,"von":5342,"velden":5343,"écht":5344,"stien":5345,"gevecht":5346,"onzin":5347,"alarm":5348,"album":5349,"repen":5350,"bewijzen":5351,"igh":5352,"schri":5353,"waarheid":5354,"doorlog":5355,"volop":5356,"najaar":5357,"box":5358,"empl":5359,"accep":5360,"diversiteit":5361,"gedachte":5362,"corru":5363,"kraan":5364,"spreek":5365,"sleden":5366,"Brand":5367,"lichte":5368,"symb":5369,"grondstoffen":5370,"Argent":5371,"biele":5372,"ideeën":5373,"ziekenhuizen":5374,"Rode":5375,"telkens":5376,"frastructuur":5377,"kampen":5378,"produceren":5379,"reageert":5380,"document":5381,"definitief":5382,"plastic":5383,"bijdrage":5384,"AC":5385,"Bijna":5386,"GT":5387,"Ir":5388,"Morgen":5389,"RS":5390,"Th":5391,"cra":5392,"doek":5393,"fouten":5394,"ly":5395,"pagina":5396,"sat":5397,"varen":5398,"way":5399,"ana":5400,"inz":5401,"inch":5402,"cha":5403,"chan":5404,"gestelde":5405,"oni":5406,"onvoldoende":5407,"vervan":5408,"opgelopen":5409,"aanpassen":5410,"beek":5411,"weers":5412,"onderdelen":5413,"hebbers":5414,"beth":5415,"mann":5416,"draag":5417,"werkgevers":5418,"ortus":5419,"constru":5420,"ciaal":5421,"Wester":5422,"eelt":5423,"mishandel":5424,"ertje":5425,"netto":5426,"daders":5427,"France":5428,"buien":5429,"Nadat":5430,"organiseren":5431,"optim":5432,"deskun":5433,"relig":5434,"vinger":5435,"Grand":5436,"bestuurders":5437,"tax":5438,"koopkracht":5439,"technisch":5440,"makkelijker":5441,"stijgende":5442,"daalde":5443,"Eigenlijk":5444,"principe":5445,"letterlijk":5446,"Hopelijk":5447,"opvolger":5448,"57":5449,"95":5450,"Dj":5451,"FT":5452,"GP":5453,"Hans":5454,"Maan":5455,"Mex":5456,"Mogelijk":5457,"Serv":5458,"You":5459,"Zie":5460,"dist":5461,"fit":5462,"meren":5463,"telijk":5464,"taak":5465,"toren":5466,"zz":5467,"ines":5468,"eldoorlog":5469,"veront":5470,"reet":5471,"aantrek":5472,"bei":5473,"radio":5474,"overleven":5475,"zodra":5476,"zogeheten":5477,"doelen":5478,"istan":5479,"blazen":5480,"gemer":5481,"div":5482,"zetels":5483,"plaatste":5484,"misbruik":5485,"snelweg":5486,"gestopt":5487,"handels":5488,"Post":5489,"warme":5490,"zins":5491,"banen":5492,"overheids":5493,"Feder":5494,"sfer":5495,"aanvaller":5496,"besparen":5497,"seksueel":5498,"advocaten":5499,"vliegtuigen":5500,"Syr":5501,"Krim":5502,"verbeteren":5503,"relevan":5504,"William":5505,"43":5506,"48":5507,"AE":5508,"Bou":5509,"Cup":5510,"Dom":5511,"Eg":5512,"Econom":5513,"Gra":5514,"IT":5515,"Stre":5516,"TO":5517,"Tik":5518,"bag":5519,"cond":5520,"clerc":5521,"daag":5522,"fron":5523,"nul":5524,"ticket":5525,"uim":5526,"ward":5527,"stopt":5528,"geï":5529,"onbekende":5530,"verjaar":5531,"ouderen":5532,"schal":5533,"wees":5534,"bloemen":5535,"gebouwen":5536,"essen":5537,"Enkele":5538,"dum":5539,"gewend":5540,"gevaccin":5541,"langzaam":5542,"Stu":5543,"effic":5544,"grapp":5545,"hoogleraar":5546,"plaatsvinden":5547,"wets":5548,"biz":5549,"theorie":5550,"Amsterdamse":5551,"verdeeld":5552,"springen":5553,"investeren":5554,"Engelse":5555,"Donald":5556,"privacy":5557,"vogel":5558,"georganiseerd":5559,"52":5560,"Hou":5561,"Heer":5562,"NI":5563,"Zorg":5564,"mult":5565,"non":5566,"noord":5567,"pau":5568,"uin":5569,"waan":5570,"xt":5571,"stress":5572,"aanslag":5573,"aankoop":5574,"bek":5575,"behoren":5576,"ariteit":5577,"schen":5578,"rijbewijs":5579,"toel":5580,"weren":5581,"ruil":5582,"mobiele":5583,"ofte":5584,"slam":5585,"sloten":5586,"achtige":5587,"nabij":5588,"blan":5589,"zend":5590,"draad":5591,"bels":5592,"toestel":5593,"stromen":5594,"rechtse":5595,"missen":5596,"abonne":5597,"interieur":5598,"wetenschapp":5599,"mars":5600,"intro":5601,"dader":5602,"match":5603,"holpen":5604,"theater":5605,"alisme":5606,"lidstaten":5607,"Steven":5608,"slaven":5609,"investe":5610,"COA":5611,"ontdekt":5612,"Wereld":5613,"Martin":5614,"Politie":5615,"spanningen":5616,"vogels":5617,"Kortom":5618,"ontmoeting":5619,"bewolkt":5620,"perfect":5621,"grotendeels":5622,"gemerkt":5623,"Ach":5624,"BN":5625,"Bal":5626,"Sim":5627,"Shel":5628,"hing":5629,"tab":5630,"zuur":5631,"’:":5632,"inderen":5633,"eloos":5634,"cher":5635,"ongetwijfeld":5636,"verover":5637,"verdr":5638,"aankl":5639,"leken":5640,"ara":5641,"ijkt":5642,"zestien":5643,"uitvoeren":5644,"uss":5645,"rijs":5646,"spot":5647,"overlijden":5648,"ondernemer":5649,"names":5650,"namens":5651,"Ali":5652,"klok":5653,"exempl":5654,"laatst":5655,"coin":5656,"Andere":5657,"bovenop":5658,"ovic":5659,"scherp":5660,"gevaarlijke":5661,"wandel":5662,"succesvol":5663,"medic":5664,"slimme":5665,"durven":5666,"bevestigd":5667,"woest":5668,"overtuigd":5669,"Vrijdag":5670,"controleren":5671,"óór":5672,"Gemeen":5673,"zogenaamde":5674,"Sovjet":5675,"Ere":5676,"Eli":5677,"Kim":5678,"Kerk":5679,"Laten":5680,"cuit":5681,"lood":5682,"loper":5683,"mol":5684,"mist":5685,"pet":5686,"tik":5687,"tas":5688,"tip":5689,"wonder":5690,"wakker":5691,"ïne":5692,"inzicht":5693,"cho":5694,"geopend":5695,"opeens":5696,"aanhouden":5697,"aangeven":5698,"ouwer":5699,"illen":5700,"und":5701,"ograf":5702,"spoed":5703,"weleens":5704,"neur":5705,"prog":5706,"kunde":5707,"ziel":5708,"totdat":5709,"vrou":5710,"mini":5711,"ductie":5712,"merkt":5713,"dipl":5714,"strom":5715,"agenda":5716,"abortus":5717,"Leclerc":5718,"reser":5719,"buik":5720,"cessie":5721,"goederen":5722,"topman":5723,"drama":5724,"harder":5725,"celona":5726,"discrimin":5727,"nummers":5728,"directe":5729,"apparaat":5730,"Barcelona":5731,"negatief":5732,"geheim":5733,"overtuigen":5734,"Canada":5735,"stevige":5736,"adviseur":5737,"iërs":5738,"fabrikant":5739,"verwond":5740,"Vladimir":5741,"grensoverschrijdend":5742,"1000":5743,"Boe":5744,"Bas":5745,"Cap":5746,"Dag":5747,"EL":5748,"Pal":5749,"Sen":5750,"Top":5751,"Vi":5752,"bijk":5753,"cke":5754,"fos":5755,"hit":5756,"jer":5757,"knu":5758,"melk":5759,"ow":5760,"roo":5761,"raam":5762,"ér":5763,"erover":5764,"ellende":5765,"geel":5766,"vergele":5767,"oppositie":5768,"oeder":5769,"igar":5770,"uitslag":5771,"ash":5772,"aganda":5773,"spo":5774,"blog":5775,"ontstaat":5776,"ontstond":5777,"daarover":5778,"voeten":5779,"ichten":5780,"bride":5781,"belooft":5782,"dient":5783,"ctieve":5784,"Behalve":5785,"verwachtingen":5786,"knie":5787,"national":5788,"raakten":5789,"Elon":5790,"wensen":5791,"malig":5792,"letten":5793,"verdedigen":5794,"voortaan":5795,"kader":5796,"Hebben":5797,"gooid":5798,"automobil":5799,"homo":5800,"dagelijkse":5801,"kaartje":5802,"stevig":5803,"investeringen":5804,"eventuele":5805,"moderne":5806,"uitzending":5807,"Oostenrijk":5808,"traditionele":5809,"concurrentie":5810,"account":5811,"fysiek":5812,"verjaardag":5813,"41":5814,"49":5815,"Bol":5816,"Ed":5817,"Han":5818,"Ker":5819,"Later":5820,"Mel":5821,"Mal":5822,"Rou":5823,"Rome":5824,"Sl":5825,"VD":5826,"ec":5827,"gouden":5828,"hau":5829,"jacht":5830,"kra":5831,"piek":5832,"sur":5833,"tachtig":5834,"vres":5835,"vuil":5836,"erf":5837,"atoren":5838,"chn":5839,"opzet":5840,"orig":5841,"resp":5842,"aanhang":5843,"aangeboden":5844,"beë":5845,"beer":5846,"zestig":5847,"tentoon":5848,"ctr":5849,"indien":5850,"klagen":5851,"emar":5852,"toegev":5853,"centage":5854,"bedragen":5855,"staatssecretaris":5856,"uters":5857,"comfort":5858,"idend":5859,"kleed":5860,"inters":5861,"aardgas":5862,"voerde":5863,"Poel":5864,"fruit":5865,"Wilders":5866,"kleinere":5867,"instru":5868,"schulden":5869,"dinsdagavond":5870,"Uiter":5871,"mondkap":5872,"vielen":5873,"treinen":5874,"Harry":5875,"grijpen":5876,"reageerde":5877,"Auto":5878,"spannend":5879,"oppervlak":5880,"conclusie":5881,"ambtenaren":5882,"vergadering":5883,"verbinding":5884,"diefstal":5885,"Begin":5886,"haupt":5887,"58":5888,"Justitie":5889,"Niemand":5890,"Oh":5891,"Rom":5892,"Recht":5893,"cteur":5894,"dol":5895,"fru":5896,"lieten":5897,"noorden":5898,"uma":5899,"etappe":5900,"chef":5901,"verstandig":5902,"orten":5903,"oepel":5904,"bezet":5905,"rijpen":5906,"aging":5907,"overname":5908,"nep":5909,"eleg":5910,"griep":5911,"weegt":5912,"2010":5913,"nucle":5914,"Alp":5915,"lui":5916,"prins":5917,"prior":5918,"aving":5919,"nieuwste":5920,"landelijke":5921,"toenemen":5922,"Leu":5923,"gezonde":5924,"belangrijker":5925,"verdwen":5926,"rollen":5927,"betaalde":5928,"Mocht":5929,"verklaarde":5930,"verenigingen":5931,"lokaal":5932,"dreigen":5933,"klimaatverandering":5934,"noodzakelijk":5935,"centrales":5936,"Afg":5937,"Super":5938,"beveiliging":5939,"plots":5940,"zwakke":5941,"documenten":5942,"tegelijkertijd":5943,"Kunnen":5944,"aanzienlijk":5945,"vernij":5946,"fasc":5947,"Louis":5948,"ambulance":5949,"verdwenen":5950,"Gor":5951,"Jetten":5952,"Ky":5953,"Kro":5954,"Kru":5955,"Lek":5956,"MC":5957,"Pek":5958,"SA":5959,"Vier":5960,"fer":5961,"gok":5962,"lad":5963,"mm":5964,"mut":5965,"ws":5966,"dele":5967,"debu":5968,"stim":5969,"gedeeld":5970,"vermin":5971,"verpool":5972,"rek":5973,"aanwij":5974,"bewezen":5975,"armen":5976,"uitspraken":5977,"Democr":5978,"ikein":5979,"una":5980,"unieke":5981,"aatregelen":5982,"tens":5983,"overwegen":5984,"mobil":5985,"naartoe":5986,"dos":5987,"anties":5988,"Albert":5989,"berhaupt":5990,"minst":5991,"Energie":5992,"stelen":5993,"sterf":5994,"const":5995,"woner":5996,"hierbij":5997,"nov":5998,"netje":5999,"kroon":6000,"ballen":6001,"uizen":6002,"zwanger":6003,"coronam":6004,"publikein":6005,"steunen":6006,"korten":6007,"concern":6008,"Robert":6009,"zuinig":6010,"Wellicht":6011,"schermen":6012,"keuzes":6013,"rechtszaak":6014,"dreigt":6015,"monu":6016,"maatschappelijke":6017,"hybride":6018,"populaire":6019,"werkelijkheid":6020,"Liverpool":6021,"circuit":6022,"Finland":6023,"Boris":6024,"Ruim":6025,"gelukt":6026,"anciers":6027,"fysieke":6028,"kennelijk":6029,"Bern":6030,"Cov":6031,"Gar":6032,"Mu":6033,"Maas":6034,"Via":6035,"WO":6036,"Zand":6037,"curs":6038,"huren":6039,"job":6040,"ningen":6041,"puur":6042,"paard":6043,"vid":6044,"vóór":6045,"zand":6046,"zamer":6047,"….":6048,"dek":6049,"vankelijk":6050,"iseren":6051,"opgeroepen":6052,"realiseren":6053,"bestemming":6054,"voorheen":6055,"metho":6056,"ogel":6057,"seerd":6058,"overval":6059,"afond":6060,"danken":6061,"meegenomen":6062,"wille":6063,"asten":6064,"bran":6065,"toeslagen":6066,"dict":6067,"sterker":6068,"kwaad":6069,"orgd":6070,"internationaal":6071,"lach":6072,"market":6073,"renner":6074,"passing":6075,"luchtvaart":6076,"serieuze":6077,"voetballer":6078,"focus":6079,"gangers":6080,"verandert":6081,"vrees":6082,"tain":6083,"conclu":6084,"mooiste":6085,"personeelste":6086,"batterij":6087,"effectief":6088,"Engels":6089,"voeding":6090,"Financi":6091,"behandeld":6092,"ancier":6093,"prachtig":6094,"passag":6095,"gepland":6096,"David":6097,"tribun":6098,"bassade":6099,"abonnement":6100,"Shell":6101,"800":6102,"BA":6103,"Hil":6104,"Hag":6105,"Jammer":6106,"MI":6107,"Mooi":6108,"Pe":6109,"RO":6110,"Sil":6111,"Tussen":6112,"aert":6113,"flu":6114,"lul":6115,"pin":6116,"risten":6117,"ugt":6118,"voud":6119,"’-":6120,"deug":6121,"inspir":6122,"stam":6123,"staf":6124,"isc":6125,"derij":6126,"rectie":6127,"heft":6128,"illa":6129,"schr":6130,"under":6131,"doorn":6132,"volging":6133,"volutie":6134,"kanten":6135,"imi":6136,"meerd":6137,"2030":6138,"tegenstelling":6139,"ota":6140,"mensenrechten":6141,"conserv":6142,"liepen":6143,"export":6144,"rechters":6145,"hiermee":6146,"Erik":6147,"crypt":6148,"mentale":6149,"Angel":6150,"gras":6151,"Leid":6152,"2025":6153,"balans":6154,"verlaging":6155,"verbieden":6156,"Belgen":6157,"poel":6158,"scheids":6159,"2013":6160,"korting":6161,"leveringen":6162,"Bosch":6163,"gezeten":6164,"kapit":6165,"moeilijke":6166,"transport":6167,"bestaanden":6168,"toekomstige":6169,"alistisch":6170,"probeerd":6171,"tekenen":6172,"ureel":6173,"wereldwijde":6174,"jaarlijkse":6175,"World":6176,"Patr":6177,"evenement":6178,"uitdaging":6179,"Mechelen":6180,"vertraging":6181,"keihard":6182,"voegt":6183,"Eredivisie":6184,"Uiteraard":6185,"coronamaatregelen":6186,"):":6187,"51":6188,"63":6189,"64":6190,"CBS":6191,"CEO":6192,"Fo":6193,"Krem":6194,"MA":6195,"Ti":6196,"Tien":6197,"Vaak":6198,"cteren":6199,"hinder":6200,"iaan":6201,"koud":6202,"koude":6203,"letje":6204,"wapp":6205,"erders":6206,"infrastructuur":6207,"ijst":6208,"geg":6209,"gemoet":6210,"algemene":6211,"tegemoet":6212,"oorspron":6213,"orn":6214,"oranje":6215,"reu":6216,"aanloop":6217,"bedenken":6218,"arije":6219,"ologen":6220,"oup":6221,"medi":6222,"schoten":6223,"ventie":6224,"sectoren":6225,"volu":6226,"ici":6227,"betaling":6228,"duels":6229,"elens":6230,"zitting":6231,"gedurende":6232,"commiss":6233,"command":6234,"dienen":6235,"abele":6236,"Vanwege":6237,"achteruit":6238,"Str":6239,"getu":6240,"logen":6241,"gestolen":6242,"Andr":6243,"Lees":6244,"Franc":6245,"stream":6246,"scoren":6247,"instituut":6248,"veroorzaken":6249,"god":6250,"alistische":6251,"tellen":6252,"keurd":6253,"officier":6254,"slavernij":6255,"besproken":6256,"verwijderen":6257,"veertien":6258,"sporten":6259,"reaguur":6260,"zangeres":6261,"specifieke":6262,"Hongarije":6263,"vacu":6264,"Portug":6265,"Anderlecht":6266,"medaille":6267,"Maandag":6268,"verwondingen":6269,"Covid":6270,"47":6271,"Ah":6272,"Best":6273,"Hal":6274,"Lijkt":6275,"Ou":6276,"RIV":6277,"Toe":6278,"Vin":6279,"dings":6280,"dogan":6281,"ee":6282,"flex":6283,"hè":6284,"iOS":6285,"ky":6286,"tips":6287,"voeg":6288,"gearre":6289,"onnee":6290,"iswaar":6291,"verminder":6292,"verzorg":6293,"verstre":6294,"oplopen":6295,"aanvraag":6296,"beweer":6297,"illes":6298,"ung":6299,"robot":6300,"tour":6301,"overtre":6302,"geleerd":6303,"ves":6304,"onderweg":6305,"dode":6306,"ontwerp":6307,"anta":6308,"gereg":6309,"management":6310,"openings":6311,"toestemming":6312,"langdur":6313,"Daarin":6314,"gedachten":6315,"helik":6316,"groeit":6317,"toename":6318,"dames":6319,"coronapan":6320,"sommigen":6321,"gebeurten":6322,"drukte":6323,"scoorde":6324,"ontwikkeld":6325,"kwartier":6326,"oplossen":6327,"begrijpt":6328,"verwijderd":6329,"Olympische":6330,"snappen":6331,"vermoeden":6332,"Macron":6333,"honger":6334,"coureur":6335,"Marokko":6336,"figuur":6337,"eventueel":6338,"fabrikanten":6339,"propaganda":6340,"Jeroen":6341,"Radio":6342,"verrassend":6343,"sleutel":6344,"ivisie":6345,"Djok":6346,"beëind":6347,"Kremlin":6348,"Portugal":6349,"coronapandemie":6350,"85":6351,"Cat":6352,"Cam":6353,"Din":6354,"Fed":6355,"Hof":6356,"Jij":6357,"Just":6358,"Lot":6359,"Nad":6360,"NOS":6361,"Rijn":6362,"bok":6363,"blijken":6364,"booster":6365,"cker":6366,"oer":6367,"ya":6368,"ör":6369,"aait":6370,"elaar":6371,"gej":6372,"gegooid":6373,"geprobeerd":6374,"verluidt":6375,"genen":6376,"recessie":6377,"oes":6378,"bevrij":6379,"ouwe":6380,"meu":6381,"spiegel":6382,"worpen":6383,"tere":6384,"onderhoud":6385,"onderzoeker":6386,"afspraak":6387,"zogenoemde":6388,"benen":6389,"graaf":6390,"keek":6391,"blo":6392,"ontpl":6393,"ontslagen":6394,"auteur":6395,"tijdig":6396,"actrice":6397,"persconferentie":6398,"Stel":6399,"groeide":6400,"gebruikte":6401,"pectief":6402,"Ons":6403,"aangegeven":6404,"energiet":6405,"aardige":6406,"doelpunten":6407,"brede":6408,"ify":6409,"Boer":6410,"Waarschijnlijk":6411,"Real":6412,"vrijdagavond":6413,"economisch":6414,"goal":6415,"ontwikkelingen":6416,"extreme":6417,"seksuele":6418,"politicus":6419,"drongen":6420,"Qua":6421,"Wereldoorlog":6422,"zwemb":6423,"Turkse":6424,"arbeidsmarkt":6425,"bezorgd":6426,"Noorwegen":6427,"ING":6428,"specifiek":6429,"individuele":6430,"Whats":6431,"gewenste":6432,"getekend":6433,"schaffen":6434,"voorzichtig":6435,"aantrekkelijk":6436,"verdriet":6437,"vergeleken":6438,"RIVM":6439,"gearresteerd":6440,"AN":6441,"Ama":6442,"Aren":6443,"Bil":6444,"Cy":6445,"Oister":6446,"Pale":6447,"Play":6448,"Tra":6449,"Tja":6450,"Turn":6451,"Vel":6452,"Winters":6453,"Zwee":6454,"avan":6455,"boog":6456,"dse":6457,"haast":6458,"kut":6459,"laan":6460,"micro":6461,"sug":6462,"talen":6463,"ub":6464,"ures":6465,"vullen":6466,"yste":6467,"zik":6468,"zeld":6469,"gevestig":6470,"gecontrole":6471,"geholpen":6472,"eense":6473,"opbreng":6474,"rechte":6475,"bevel":6476,"beïn":6477,"kenning":6478,"iliteit":6479,"schrik":6480,"iker":6481,"overstap":6482,"ambassade":6483,"ador":6484,"apart":6485,"neveld":6486,"graan":6487,"zender":6488,"humor":6489,"allebei":6490,"acte":6491,"stenen":6492,"trekker":6493,"gedaald":6494,"herstellen":6495,"Anton":6496,"contain":6497,"Marc":6498,"finish":6499,"zabeth":6500,"syn":6501,"puter":6502,"coronap":6503,"doelpunt":6504,"lichtingen":6505,"column":6506,"Griek":6507,"straffen":6508,"Denemar":6509,"univers":6510,"dichtbij":6511,"Mede":6512,"malige":6513,"centraal":6514,"provincies":6515,"vermoord":6516,"portem":6517,"Michel":6518,"Audi":6519,"wisseling":6520,"presentator":6521,"onafhankelijke":6522,"Japanse":6523,"toeristen":6524,"favoriete":6525,"details":6526,"nederlaag":6527,"procedure":6528,"commentaar":6529,"feesten":6530,"trend":6531,"grappig":6532,"Elizabeth":6533,"vrouwelijke":6534,"origin":6535,"verminderen":6536,"Djokovic":6537,"Oisterwijk":6538,"Denemarken":6539,"54":6540,"67":6541,"Dor":6542,"ED":6543,"GL":6544,"Jos":6545,"Res":6546,"SU":6547,"Sn":6548,"Slo":6549,"Til":6550,"Vijf":6551,"Wol":6552,"Wall":6553,"Werk":6554,"Witte":6555,"bussen":6556,"cer":6557,"edt":6558,"eieren":6559,"raar":6560,"ssen":6561,"sma":6562,"tand":6563,"uvel":6564,"überhaupt":6565,"€˜":6566,"ingew":6567,"staal":6568,"gekeerd":6569,"opter":6570,"omin":6571,"omst":6572,"uitsluiten":6573,"uitgaven":6574,"schut":6575,"ikron":6576,"welzijn":6577,"nest":6578,"atiek":6579,"ploegen":6580,"nabestaanden":6581,"ontbreekt":6582,"percentage":6583,"drink":6584,"aster":6585,"toeg":6586,"centra":6587,"computer":6588,"hierover":6589,"ipv":6590,"getest":6591,"getoond":6592,"ankelijk":6593,"renners":6594,"Meta":6595,"handh":6596,"eltje":6597,"Ont":6598,"beurzen":6599,"verlichting":6600,"actieve":6601,"scheiding":6602,"leidingen":6603,"schrijver":6604,"gevoelens":6605,"motiv":6606,"linker":6607,"ervaringen":6608,"Grieken":6609,"paniek":6610,"etsk":6611,"situaties":6612,"tieel":6613,"transfer":6614,"jongste":6615,"gevoelig":6616,"keurig":6617,"beperken":6618,"Phil":6619,"partners":6620,"incidenten":6621,"activisten":6622,"ontdekken":6623,"geïnter":6624,"cyber":6625,"racisme":6626,"katten":6627,"vloeden":6628,"verwarming":6629,"kwalificatie":6630,"zinnig":6631,"vervelend":6632,"Zwitser":6633,"toevallig":6634,"wederom":6635,"afkomstig":6636,"Surinaam":6637,"afgerond":6638,"Lekker":6639,"branche":6640,"portemonnee":6641,"53":6642,"69":6643,"Bro":6644,"Bek":6645,"Echt":6646,"Fi":6647,"Hul":6648,"Home":6649,"Ly":6650,"Son":6651,"Waal":6652,"Zaterdag":6653,"bio":6654,"cken":6655,"fre":6656,"jagen":6657,"pru":6658,"smaak":6659,"tim":6660,"tige":6661,"uken":6662,"vice":6663,"wolf":6664,"ette":6665,"inië":6666,"innov":6667,"stan":6668,"stier":6669,"gestemd":6670,"oning":6671,"vangt":6672,"ope":6673,"omroep":6674,"aankond":6675,"ingrijpen":6676,"seg":6677,"agers":6678,"spons":6679,"spijt":6680,"onderwerpen":6681,"weliswaar":6682,"bena":6683,"nadenken":6684,"vocht":6685,"Neem":6686,"boy":6687,"exter":6688,"hans":6689,"gedreven":6690,"perspectief":6691,"herf":6692,"herkennen":6693,"Star":6694,"helder":6695,"groeid":6696,"Andre":6697,"spect":6698,"contac":6699,"werkende":6700,"aantallen":6701,"maatschap":6702,"inklijke":6703,"Spot":6704,"regime":6705,"wetgeving":6706,"knap":6707,"motie":6708,"besteed":6709,"trouw":6710,"vakbond":6711,"vrezen":6712,"trainen":6713,"liggende":6714,"geweldige":6715,"Partij":6716,"cijfer":6717,"stoelen":6718,"criminele":6719,"normen":6720,"effecten":6721,"gevolgd":6722,"generaal":6723,"stuurt":6724,"Barneveld":6725,"Koning":6726,"waarschuwt":6727,"communic":6728,"downlo":6729,"Vries":6730,"klappen":6731,"voorbereiding":6732,"prestaties":6733,"Breda":6734,"curity":6735,"complete":6736,"Kuipers":6737,"TikTok":6738,"Patrick":6739,"68":6740,"72":6741,"AP":6742,"Bouw":6743,"GB":6744,"Im":6745,"Kamp":6746,"Los":6747,"Prec":6748,"QR":6749,"RC":6750,"Tai":6751,"War":6752,"Zal":6753,"Zeel":6754,"Zwol":6755,"bs":6756,"dal":6757,"fris":6758,"lacht":6759,"reren":6760,"yl":6761,"eng":6762,"state":6763,"char":6764,"gestaan":6765,"alo":6766,"isol":6767,"verwachte":6768,"itair":6769,"opol":6770,"opgelegd":6771,"gender":6772,"denking":6773,"aanbieden":6774,"led":6775,"mest":6776,"schuil":6777,"meneer":6778,"ida":6779,"idio":6780,"rijven":6781,"toil":6782,"terras":6783,"afwachten":6784,"graad":6785,"akel":6786,"anderhalf":6787,"bloe":6788,"India":6789,"inda":6790,"meegemaakt":6791,"opende":6792,"dromen":6793,"asting":6794,"lukken":6795,"winsten":6796,"begrepen":6797,"sieve":6798,"getra":6799,"Anne":6800,"stemt":6801,"vastgesteld":6802,"oudste":6803,"vriendelijk":6804,"schijnt":6805,"Republikein":6806,"meesters":6807,"Roy":6808,"munt":6809,"verklaren":6810,"velder":6811,"cellen":6812,"ski":6813,"beperking":6814,"betrokkenheid":6815,"spring":6816,"vermoed":6817,"voorzieningen":6818,"snapt":6819,"Corona":6820,"signaal":6821,"RTL":6822,"wekkend":6823,"Marokk":6824,"schuiven":6825,"bijeenkomst":6826,"compensatie":6827,"Midden":6828,"juridische":6829,"begroting":6830,"Smith":6831,"toegevoegd":6832,"Leuven":6833,"Peking":6834,"Leidse":6835,"Taiwan":6836,"-,":6837,"Ass":6838,"Bay":6839,"Derk":6840,"Jans":6841,"Kinderen":6842,"Luk":6843,"Momen":6844,"Pers":6845,"Reg":6846,"ax":6847,"econ":6848,"koos":6849,"mie":6850,"malen":6851,"nag":6852,"zzel":6853,"ani":6854,"instelling":6855,"iness":6856,"inhoud":6857,"ijer":6858,"steld":6859,"ath":6860,"onbe":6861,"onmiddel":6862,"ité":6863,"opent":6864,"omlaag":6865,"ors":6866,"reeds":6867,"aankomen":6868,"aanslagen":6869,"bewegen":6870,"behoud":6871,"wekelijk":6872,"kenden":6873,"meel":6874,"uitkomst":6875,"schand":6876,"roze":6877,"toet":6878,"gelooft":6879,"mok":6880,"afsluiten":6881,"waardige":6882,"neming":6883,"achttien":6884,"istiek":6885,"bli":6886,"kloppen":6887,"brieven":6888,"duo":6889,"toevoegen":6890,"accept":6891,"kov":6892,"koel":6893,"rechtstreeks":6894,"Vanuit":6895,"achteraf":6896,"Stichting":6897,"Jezus":6898,"hoogst":6899,"jongere":6900,"eltjes":6901,"games":6902,"Bijvoorbeeld":6903,"verbaas":6904,"waterstof":6905,"verdwijn":6906,"knal":6907,"identiteit":6908,"achel":6909,"bewu":6910,"vingers":6911,"James":6912,"voetballen":6913,"forse":6914,"vormt":6915,"menselijke":6916,"shit":6917,"celstraf":6918,"kilometers":6919,"wandelen":6920,"vertrouw":6921,"fietser":6922,"import":6923,"beschikken":6924,"uiterst":6925,"zorger":6926,"contracten":6927,"stuurde":6928,"beslissen":6929,"botsing":6930,"verleng":6931,"Kees":6932,"Vraag":6933,"Berlijn":6934,"verzamelen":6935,"vestigen":6936,"prestatie":6937,"benadru":6938,"betekenis":6939,"kwetsbaar":6940,"kritisch":6941,"Flor":6942,"Normaal":6943,"laptop":6944,"Brazilië":6945,"claim":6946,"enthousiast":6947,"ingediend":6948,"distri":6949,"nucleaire":6950,"passagiers":6951,"Turnhout":6952,"Precies":6953,"Zeeland":6954,".)":6955,"73":6956,"Donderdag":6957,"Fv":6958,"Fre":6959,"Lang":6960,"Micro":6961,"Ot":6962,"Pog":6963,"ST":6964,"Sw":6965,"Twen":6966,"kal":6967,"look":6968,"mant":6969,"ppel":6970,"rr":6971,"sier":6972,"sverkiezingen":6973,"tol":6974,"tun":6975,"tiële":6976,"deerde":6977,"infe":6978,"inlichtingen":6979,"elite":6980,"ston":6981,"stic":6982,"atten":6983,"gedeelt":6984,"onrust":6985,"oordeel":6986,"oplicht":6987,"opgezet":6988,"omp":6989,"rekken":6990,"reerd":6991,"lein":6992,"leest":6993,"bestellen":6994,"behulp":6995,"bezoeken":6996,"heers":6997,"uitvoer":6998,"uitvoering":6999,"rog":7000,"rijder":7001,"overige":7002,"ruime":7003,"dans":7004,"aparte":7005,"ical":7006,"duw":7007,"belde":7008,"huisvest":7009,"eigenaren":7010,"bleken":7011,"avont":7012,"hemel":7013,"verscheen":7014,"Leeuw":7015,"passingen":7016,"Mari":7017,"verlagen":7018,"energiere":7019,"scheiden":7020,"reguliere":7021,"ganger":7022,"volgers":7023,"tempo":7024,"nachts":7025,"maandagavond":7026,"feestje":7027,"lidmaatschap":7028,"profiteren":7029,"titels":7030,"garage":7031,"massa":7032,"promot":7033,"bommen":7034,"gezelschap":7035,"ympisch":7036,"Wordt":7037,"doorgaans":7038,"figuren":7039,"Juist":7040,"Pieter":7041,"ranglijst":7042,"artiesten":7043,"Madrid":7044,"score":7045,"inspectie":7046,"herinneren":7047,"ophef":7048,"assistent":7049,"crash":7050,"discriminatie":7051,"Dinsdag":7052,"ingewik":7053,"Surinaamse":7054,"FvD":7055,"62":7056,"Bon":7057,"Der":7058,"Frie":7059,"Ford":7060,"Hoo":7061,"Mi":7062,"NH":7063,"Nik":7064,"Oor":7065,"Pel":7066,"Plan":7067,"Sar":7068,"bai":7069,"hap":7070,"pelen":7071,"vals":7072,"vuldig":7073,"yan":7074,"zacht":7075,"zwij":7076,"án":7077,"inses":7078,"gedeel":7079,"gehele":7080,"ongen":7081,"ongelijk":7082,"eend":7083,"teven":7084,"tegel":7085,"text":7086,"verhuur":7087,"verhouding":7088,"ita":7089,"opnames":7090,"aangenomen":7091,"bezwaar":7092,"behandelen":7093,"voordelen":7094,"voorraad":7095,"voorbeelden":7096,"vooralsnog":7097,"ola":7098,"meters":7099,"uitgeno":7100,"ros":7101,"overheden":7102,"appl":7103,"aker":7104,"akter":7105,"onthul":7106,"pert":7107,"drol":7108,"goedge":7109,"content":7110,"deelnemen":7111,"zoektocht":7112,"rans":7113,"hiervan":7114,"iëren":7115,"begra":7116,"persbureau":7117,"verteld":7118,"zijds":7119,"covid":7120,"lost":7121,"interkl":7122,"Leuk":7123,"Lewis":7124,"gebruiker":7125,"gezorgd":7126,"anny":7127,"oemde":7128,"regist":7129,"studio":7130,"Geef":7131,"relaties":7132,"Green":7133,"zaterdagavond":7134,"woensdagavond":7135,"zaamheid":7136,"paste":7137,"moeilijker":7138,"verklaard":7139,"Onderwijs":7140,"elektrisch":7141,"Kamerlid":7142,"Luc":7143,"culturele":7144,"middenvelder":7145,"rappen":7146,"arbeid":7147,"fijne":7148,"digitaal":7149,"woede":7150,"Burgemeester":7151,"Hoge":7152,"voorbereid":7153,"schietpartij":7154,"verspreid":7155,"herinneringen":7156,"Kleine":7157,"maximale":7158,"uitbreiding":7159,"ambities":7160,"minimum":7161,"Tegelijkertijd":7162,"Poolse":7163,"Prix":7164,"schrift":7165,"gecontroleerd":7166,"toegankelijk":7167,"Zwitserland":7168,"contacten":7169,"Spotify":7170,"Momenteel":7171,"uitgenodigd":7172,"?\"":7173,"AT":7174,"Bert":7175,"Gir":7176,"Kn":7177,"Pres":7178,"Roe":7179,"Weten":7180,"centen":7181,"fou":7182,"held":7183,"jas":7184,"mr":7185,"ppen":7186,"ssel":7187,"szins":7188,"tur":7189,"trokken":7190,"time":7191,"ux":7192,"uis":7193,"vaar":7194,"ered":7195,"ijds":7196,"ela":7197,"onbekend":7198,"verhuis":7199,"verblijven":7200,"verpleeg":7201,"opp":7202,"opricht":7203,"ommel":7204,"voorsp":7205,"ijken":7206,"iland":7207,"uiting":7208,"schouw":7209,"stein":7210,"sex":7211,"werkl":7212,"afgesproken":7213,"akers":7214,"klonk":7215,"wijd":7216,"broe":7217,"toegenomen":7218,"merkte":7219,"exact":7220,"parket":7221,"traject":7222,"trauma":7223,"getrouw":7224,"gestor":7225,"graven":7226,"plaatsgevonden":7227,"paspoort":7228,"intell":7229,"series":7230,"verderop":7231,"aangepakt":7232,"anning":7233,"stapte":7234,"coronat":7235,"breuk":7236,"2011":7237,"zonn":7238,"lasten":7239,"zesde":7240,"hulpdiensten":7241,"2008":7242,"Parlement":7243,"shir":7244,"verklaart":7245,"belastingen":7246,"beschikking":7247,"ound":7248,"hoogtepunt":7249,"social":7250,"Afrikaanse":7251,"oefenen":7252,"lampen":7253,"geheime":7254,"zilver":7255,"meent":7256,"phone":7257,"conclusies":7258,"evenementen":7259,"besef":7260,"smartphone":7261,"beschermd":7262,"Plus":7263,"chauffeur":7264,"verhoogd":7265,"Hoekstra":7266,"chaos":7267,"daagse":7268,"blanke":7269,"diplom":7270,"responden":7271,"frustr":7272,"Amazon":7273,"herfst":7274,"Twente":7275,"intelligen":7276,"!)":7277,"120":7278,"130":7279,"Blu":7280,"Cru":7281,"Drent":7282,"Filip":7283,"GG":7284,"Geert":7285,"IP":7286,"Koop":7287,"Ok":7288,"Rac":7289,"Wet":7290,"Zondag":7291,"bac":7292,"fus":7293,"ln":7294,"moorden":7295,"tak":7296,"tall":7297,"vru":7298,"wielen":7299,"zige":7300,"erie":7301,"stort":7302,"ooter":7303,"geze":7304,"ongeloof":7305,"opgesch":7306,"aanmer":7307,"aanpakken":7308,"ijnse":7309,"mevrouw":7310,"uitgesproken":7311,"unda":7312,"overgang":7313,"ookt":7314,"bijstand":7315,"amateur":7316,"lening":7317,"bende":7318,"weeg":7319,"bla":7320,"hui":7321,"drang":7322,"bril":7323,"gemaakte":7324,"allang":7325,"concentr":7326,"exclus":7327,"koste":7328,"eigendom":7329,"terugkeer":7330,"omende":7331,"crete":7332,"selt":7333,"verschrik":7334,"mijden":7335,"rennen":7336,"slepen":7337,"Belasting":7338,"vastgoed":7339,"verdrag":7340,"Vld":7341,"slechter":7342,"streek":7343,"Doordat":7344,"veranderingen":7345,"Group":7346,"aliseerde":7347,"elektron":7348,"menselijk":7349,"dichter":7350,"iano":7351,"ianne":7352,"operation":7353,"premie":7354,"domme":7355,"impor":7356,"verkiezing":7357,"bakken":7358,"barst":7359,"criminaliteit":7360,"heerlijk":7361,"rapper":7362,"negentig":7363,"arbeiders":7364,"alty":7365,"Black":7366,"vroege":7367,"maatschappijen":7368,"ody":7369,"kamers":7370,"stations":7371,"consument":7372,"grepen":7373,"goedkope":7374,"boerderij":7375,"gevangenisstraf":7376,"kwetsbare":7377,"radic":7378,"gewenst":7379,"bevatten":7380,"commerciële":7381,"appartement":7382,"geconfron":7383,"hevige":7384,"prioriteit":7385,"Afghan":7386,"Financiën":7387,"zwembad":7388,"Zwolle":7389,"Marokkaanse":7390,"interklaas":7391,"geconfronteerd":7392,"!’":7393,"AI":7394,"AO":7395,"Che":7396,"ES":7397,"Est":7398,"Echter":7399,"ME":7400,"Nooit":7401,"Pet":7402,"Rid":7403,"Vos":7404,"Zit":7405,"Zwar":7406,"ail":7407,"gru":7408,"kippen":7409,"lijf":7410,"mpt":7411,"nie":7412,"tap":7413,"uter":7414,"vingen":7415,"vul":7416,"wicht":7417,"inform":7418,"aaid":7419,"stoten":7420,"itische":7421,"opkomst":7422,"dertien":7423,"aankomst":7424,"lekken":7425,"beiden":7426,"voorstelling":7427,"voorraden":7428,"urgen":7429,"rak":7430,"uitkomen":7431,"schaam":7432,"iking":7433,"unten":7434,"sea":7435,"sequent":7436,"tok":7437,"overleef":7438,"iens":7439,"icus":7440,"vrie":7441,"vrol":7442,"klin":7443,"valu":7444,"boet":7445,"bocht":7446,"weerstand":7447,"emand":7448,"toestand":7449,"toespraak":7450,"gewonden":7451,"traditie":7452,"complot":7453,"hersteld":7454,"landelijk":7455,"hobby":7456,"Zodra":7457,"samenwerken":7458,"intje":7459,"intimi":7460,"hands":7461,"elta":7462,"Schouten":7463,"Beste":7464,"region":7465,"knip":7466,"motoren":7467,"Geor":7468,"woonde":7469,"zondagavond":7470,"muzik":7471,"ford":7472,"2009":7473,"munitie":7474,"shop":7475,"dreiging":7476,"laagste":7477,"beperkte":7478,"borden":7479,"Brusselse":7480,"vergelijken":7481,"garantie":7482,"durf":7483,"drones":7484,"bedreigd":7485,"Nieuws":7486,"factor":7487,"Volksgezondheid":7488,"wekkende":7489,"hersen":7490,"karakter":7491,"overeenkomst":7492,"Komt":7493,"volwassenen":7494,"kritische":7495,"argument":7496,"Sterker":7497,"verschijnt":7498,"Argentinië":7499,"mishandeling":7500,"religie":7501,"marketing":7502,"voudige":7503,"cryptom":7504,"commissaris":7505,"helikopter":7506,"WhatsApp":7507,"gedeelte":7508,"77":7509,"Aut":7510,"Bul":7511,"Dy":7512,"Fa":7513,"Has":7514,"Hart":7515,"Iemand":7516,"Kor":7517,"Kap":7518,"My":7519,"Nick":7520,"PN":7521,"Pere":7522,"Rog":7523,"Rich":7524,"SC":7525,"Slecht":7526,"Thijs":7527,"Veen":7528,"cil":7529,"cteerd":7530,"dun":7531,"fat":7532,"foort":7533,"gor":7534,"gister":7535,"kas":7536,"koopt":7537,"lor":7538,"mi":7539,"ange":7540,"analisten":7541,"instroom":7542,"ieme":7543,"aldo":7544,"isa":7545,"opwar":7546,"omme":7547,"aanleg":7548,"aanstaande":7549,"leerd":7550,"bejaar":7551,"hect":7552,"iga":7553,"igheids":7554,"schad":7555,"bijdragen":7556,"tering":7557,"ruzie":7558,"mode":7559,"dankt":7560,"ado":7561,"blig":7562,"klus":7563,"iteerd":7564,"gaand":7565,"sterven":7566,"consequent":7567,"treffer":7568,"maandelijk":7569,"nieuwbouw":7570,"correct":7571,"getje":7572,"seling":7573,"Chris":7574,"flat":7575,"uwen":7576,"halver":7577,"besluiten":7578,"verbazen":7579,"symp":7580,"stapt":7581,"Span":7582,"goeie":7583,"hakt":7584,"vissen":7585,"paarden":7586,"identific":7587,"siele":7588,"assa":7589,"posities":7590,"krachtig":7591,"buurman":7592,"trainings":7593,"oofde":7594,"transpar":7595,"drem":7596,"vatten":7597,"Eerste":7598,"Philip":7599,"kabel":7600,"klassieke":7601,"virtu":7602,"aanwezigheid":7603,"vaccins":7604,"melo":7605,"durft":7606,"kampt":7607,"circa":7608,"horst":7609,"Matt":7610,"praktisch":7611,"beveiligings":7612,"Nationale":7613,"demonstranten":7614,"Evene":7615,"opmerking":7616,"Apeldoorn":7617,"verbetering":7618,"droogte":7619,"vacat":7620,"weigeren":7621,"tanks":7622,"enigszins":7623,"illegaal":7624,"accepteren":7625,"debuut":7626,"getuige":7627,"energiereken":7628,"!”":7629,".,":7630,"61":7631,"Ba":7632,"Bus":7633,"Book":7634,"Beer":7635,"Cre":7636,"Cro":7637,"Chel":7638,"Cong":7639,"Dir":7640,"Dieren":7641,"Ier":7642,"KV":7643,"Lil":7644,"Museum":7645,"Oude":7646,"Oud":7647,"Rij":7648,"Ram":7649,"Sop":7650,"Ton":7651,"Ven":7652,"ao":7653,"azing":7654,"btw":7655,"dwar":7656,"fats":7657,"hé":7658,"hok":7659,"hai":7660,"iale":7661,"ji":7662,"ki":7663,"krap":7664,"lab":7665,"ronden":7666,"tings":7667,"uel":7668,"éér":7669,"ero":7670,"etjes":7671,"inn":7672,"aaie":7673,"gespeci":7674,"vervo":7675,"verbrand":7676,"reep":7677,"aanrijding":7678,"bemoe":7679,"ouver":7680,"rapp":7681,"uitgesteld":7682,"schor":7683,"ikker":7684,"menig":7685,"tentie":7686,"terugt":7687,"ondernem":7688,"modus":7689,"afgesch":7690,"ofwel":7691,"welvaart":7692,"kante":7693,"protesten":7694,"zigen":7695,"zelden":7696,"meesten":7697,"audi":7698,"oton":7699,"constat":7700,"geweten":7701,"lieden":7702,"maaltijd":7703,"Alsof":7704,"diens":7705,"noteerde":7706,"Zeven":7707,"grootschal":7708,"coca":7709,"gestapt":7710,"rendement":7711,"sprekend":7712,"vallend":7713,"vallende":7714,"Maria":7715,"verkoopt":7716,"verbazing":7717,"eindigt":7718,"posit":7719,"wetten":7720,"quar":7721,"knoppen":7722,"geslaagd":7723,"sporters":7724,"strafrecht":7725,"regerings":7726,"families":7727,"taken":7728,"beleids":7729,"goals":7730,"specialist":7731,"verdiend":7732,"solid":7733,"zeventig":7734,"beperkingen":7735,"trekkers":7736,"volkings":7737,"verliest":7738,"Rotterdamse":7739,"Prins":7740,"besmetting":7741,"beslissingen":7742,"Iedere":7743,"Kevin":7744,"ontdekte":7745,"bombar":7746,"vreemde":7747,"Canade":7748,"pompen":7749,"service":7750,"verhogingen":7751,"statushouders":7752,"subsidies":7753,"klassement":7754,"dwang":7755,"uitzondering":7756,"prettig":7757,"Giro":7758,"affaire":7759,"betalingen":7760,"betrouwbaar":7761,"beschadigd":7762,"gezamenlijke":7763,"corruptie":7764,"efficiën":7765,"bizar":7766,"Gemeente":7767,"cursus":7768,"geregist":7769,"Palest":7770,"SUV":7771,"Bekijk":7772,"gestorven":7773,"Zwarte":7774,"vrolijk":7775,"Spanjaar":7776,"Evenepoel":7777,"''":7778,"2e":7779,"88":7780,"96":7781,"Amers":7782,"DP":7783,"Danny":7784,"Jas":7785,"Kra":7786,"Kem":7787,"Koen":7788,"Kla":7789,"Maak":7790,"Mün":7791,"NU":7792,"Pen":7793,"Sig":7794,"Tor":7795,"VT":7796,"Vre":7797,"Wouter":7798,"bast":7799,"biel":7800,"ese":7801,"fik":7802,"ften":7803,"nar":7804,"tanden":7805,"zings":7806,"inzitten":7807,"gekl":7808,"gewaarschuw":7809,"gemeesters":7810,"vervolgt":7811,"vergeet":7812,"opa":7813,"ophalen":7814,"aanmeld":7815,"aansluiting":7816,"oekt":7817,"bevestigen":7818,"ijns":7819,"diezelfde":7820,"uitgeven":7821,"uitgeschakeld":7822,"uns":7823,"ami":7824,"mod":7825,"afbeeld":7826,"administ":7827,"ula":7828,"immigratie":7829,"icon":7830,"ontvang":7831,"deloze":7832,"huisarts":7833,"lieve":7834,"uta":7835,"deelname":7836,"diende":7837,"ideale":7838,"klem":7839,"oods":7840,"oodse":7841,"terugkeren":7842,"kelder":7843,"offs":7844,"Jean":7845,"verschenen":7846,"plaatsing":7847,"Verschil":7848,"puntje":7849,"verbouw":7850,"buigen":7851,"Spart":7852,"organiseert":7853,"lijsten":7854,"Techn":7855,"iefde":7856,"streaming":7857,"lastige":7858,"scooter":7859,"alisatie":7860,"zakelijke":7861,"Maur":7862,"iekem":7863,"Britten":7864,"zeventien":7865,"succesvolle":7866,"voortduren":7867,"borst":7868,"remmen":7869,"verlening":7870,"blokkeren":7871,"broers":7872,"Saoed":7873,"file":7874,"verdediging":7875,"tevoren":7876,"teksten":7877,"inkomens":7878,"historisch":7879,"trappen":7880,"opmerkelijk":7881,"professionele":7882,"hopelijk":7883,"explosie":7884,"uitdagingen":7885,"droge":7886,"vereist":7887,"argumenten":7888,"begeleiding":7889,"Korea":7890,"Joris":7891,"financier":7892,"moslims":7893,"vonnis":7894,"Iraanse":7895,"Mexico":7896,"AEX":7897,"molens":7898,"knuff":7899,"ördin":7900,"toilet":7901,"Derksen":7902,"onmiddellijk":7903,"verdwijnt":7904,"Microsoft":7905,"fatsoen":7906,"Amersfoort":7907,"München":7908,"gewaarschuwd":7909,"Bed":7910,"Beleg":7911,"Cult":7912,"Gas":7913,"Geld":7914,"HO":7915,"Hy":7916,"Hor":7917,"Lat":7918,"Lam":7919,"NO":7920,"Pak":7921,"Raf":7922,"Stij":7923,"cat":7924,"fu":7925,"gal":7926,"gol":7927,"hip":7928,"qui":7929,"raaf":7930,"tact":7931,"erachter":7932,"inhou":7933,"stip":7934,"ata":7935,"chips":7936,"gepublic":7937,"aarse":7938,"tefe":7939,"verpl":7940,"verras":7941,"opbouw":7942,"opspor":7943,"geniet":7944,"dert":7945,"reist":7946,"referen":7947,"aanvoerder":7948,"bestel":7949,"bestand":7950,"bedraagt":7951,"bevolkings":7952,"heim":7953,"scheelt":7954,"sper":7955,"spers":7956,"lenen":7957,"dansen":7958,"landschap":7959,"watt":7960,"jaars":7961,"auton":7962,"human":7963,"klacht":7964,"ities":7965,"komend":7966,"brom":7967,"brons":7968,"luid":7969,"toepassing":7970,"tweehonderd":7971,"concept":7972,"context":7973,"moeders":7974,"efd":7975,"rondes":7976,"ivel":7977,"suiker":7978,"pest":7979,"vlot":7980,"tiener":7981,"peloton":7982,"duurde":7983,"leverancier":7984,"natuurlijke":7985,"sindsdien":7986,"foc":7987,"Boeren":7988,"toneel":7989,"geslacht":7990,"besteden":7991,"trie":7992,"vakbonden":7993,"ruimtes":7994,"opgevangen":7995,"shof":7996,"donderdagavond":7997,"zucht":7998,"Ooster":7999,"tranen":8000,"ontwikkelaars":8001,"domin":8002,"ongeacht":8003,"profiel":8004,"Union":8005,"koersen":8006,"slotte":8007,"voorziening":8008,"Allemaal":8009,"wolken":8010,"International":8011,"winnaars":8012,"bedreiging":8013,"sproble":8014,"seconde":8015,"signalen":8016,"voorbereiden":8017,"presentatie":8018,"Emmen":8019,"vlaggen":8020,"materialen":8021,"begrijpelijk":8022,"opvallende":8023,"dwingen":8024,"individu":8025,"agentschap":8026,"ballers":8027,"Voice":8028,"cross":8029,"strenge":8030,"cruciale":8031,"installatie":8032,"Media":8033,"geruchten":8034,"Remco":8035,"onzekerheid":8036,"Groningse":8037,"YouTu":8038,"relevant":8039,"automobilist":8040,"personeelstekort":8041,"scheidsrechter":8042,"Zweedse":8043,"Griekenland":8044,"bliotheek":8045,"huisvesting":8046,"Belastingdienst":8047,"Chelsea":8048,"cocaïne":8049,"tefeuil":8050,"verrassing":8051,"71":8052,"Ban":8053,"DR":8054,"Famil":8055,"Gold":8056,"Hit":8057,"KNV":8058,"Mes":8059,"Middel":8060,"Sor":8061,"Saf":8062,"Sinterklaas":8063,"Tag":8064,"baat":8065,"cot":8066,"dé":8067,"hr":8068,"ile":8069,"iveau":8070,"ique":8071,"jen":8072,"koek":8073,"kade":8074,"melen":8075,"our":8076,"uge":8077,"you":8078,"zó":8079,"zond":8080,"entegen":8081,"inse":8082,"instellen":8083,"ingevoerd":8084,"geple":8085,"vergroot":8086,"vermijden":8087,"opin":8088,"opers":8089,"optre":8090,"omeen":8091,"omvang":8092,"omikron":8093,"ref":8094,"repar":8095,"realistisch":8096,"aanvankelijk":8097,"lev":8098,"bevinden":8099,"bezocht":8100,"bekeken":8101,"arische":8102,"voorgaande":8103,"urg":8104,"urne":8105,"mega":8106,"uitleg":8107,"schreven":8108,"iddag":8109,"geldig":8110,"amers":8111,"onderuit":8112,"afnemen":8113,"nogmaals":8114,"doorheen":8115,"neef":8116,"docht":8117,"penalty":8118,"Intussen":8119,"veelal":8120,"perman":8121,"valse":8122,"acar":8123,"acul":8124,"mere":8125,"concrete":8126,"straling":8127,"cia":8128,"mijnen":8129,"gedoe":8130,"gedrukt":8131,"State":8132,"Vooruit":8133,"coördin":8134,"geschool":8135,"kijker":8136,"lazen":8137,"Vergeet":8138,"beschikt":8139,"fenomeen":8140,"rondje":8141,"strak":8142,"aangevallen":8143,"verlopen":8144,"Fransen":8145,"verduur":8146,"brein":8147,"producent":8148,"matisch":8149,"topic":8150,"groeps":8151,"student":8152,"cliënt":8153,"betaalbaar":8154,"berichtgeving":8155,"redactie":8156,"operaties":8157,"betreffen":8158,"wandeling":8159,"hoeveelheden":8160,"Step":8161,"Stefan":8162,"kampioenschap":8163,"gewelddad":8164,"Haagse":8165,"automaat":8166,"collectie":8167,"waarschuwing":8168,"aandeelhouders":8169,"artikelen":8170,"grijs":8171,"ieleden":8172,"Australische":8173,"factuur":8174,"ventil":8175,"interessante":8176,"Klim":8177,"Volkskrant":8178,"tenties":8179,"bevoegd":8180,"emotioneel":8181,"bonus":8182,"annex":8183,"investering":8184,"felic":8185,"Visma":8186,"perfecte":8187,"detail":8188,"liedjes":8189,"vervolgd":8190,"maximum":8191,"Ronaldo":8192,"facil":8193,"cadeau":8194,"schadelijk":8195,"fantastisch":8196,"fotog":8197,"Heeren":8198,"pauze":8199,"Capit":8200,"tentoonstelling":8201,"conservatieve":8202,"kapitaal":8203,"Francis":8204,"opbrengst":8205,"isolatie":8206,"bewuste":8207,"tevens":8208,"goedgekeurd":8209,"eredivisie":8210,"schaduw":8211,"Dirk":8212,"911":8213,"AA":8214,"Bi":8215,"FNV":8216,"Kal":8217,"Krij":8218,"Maa":8219,"Nic":8220,"Roo":8221,"Tex":8222,"Tijd":8223,"VK":8224,"Von":8225,"VRT":8226,"Wijn":8227,"Woensdag":8228,"Zeg":8229,"baren":8230,"cert":8231,"cab":8232,"cks":8233,"evalu":8234,"fisc":8235,"kart":8236,"kranten":8237,"lol":8238,"long":8239,"mit":8240,"mir":8241,"mix":8242,"yer":8243,"erkennen":8244,"degene":8245,"ijzer":8246,"atië":8247,"gehal":8248,"gepresen":8249,"vanmiddag":8250,"vanochtend":8251,"verpak":8252,"opte":8253,"opnemen":8254,"opgericht":8255,"real":8256,"recept":8257,"oei":8258,"leerde":8259,"wein":8260,"voorop":8261,"ingang":8262,"kenteken":8263,"schim":8264,"scheur":8265,"steel":8266,"rijzen":8267,"werf":8268,"ruimen":8269,"well":8270,"danig":8271,"grand":8272,"meermaals":8273,"platen":8274,"bloot":8275,"Indi":8276,"daaraan":8277,"gebleken":8278,"Altijd":8279,"drit":8280,"zout":8281,"werkelijke":8282,"ally":8283,"centi":8284,"parken":8285,"wonden":8286,"hierdoor":8287,"Eric":8288,"Erdogan":8289,"levensl":8290,"evens":8291,"cours":8292,"lobby":8293,"wereldtitel":8294,"kring":8295,"regelgeving":8296,"logo":8297,"beschrij":8298,"burgemeesters":8299,"dame":8300,"pech":8301,"vlam":8302,"Schil":8303,"Schot":8304,"sympt":8305,"puin":8306,"planeet":8307,"koploper":8308,"handeld":8309,"bruto":8310,"lessen":8311,"Duitsers":8312,"ageerd":8313,"stukjes":8314,"leveranciers":8315,"quê":8316,"drukke":8317,"dachten":8318,"seizoenen":8319,"sportieve":8320,"biologische":8321,"zwaarder":8322,"verklaringen":8323,"wennen":8324,"patr":8325,"carna":8326,"impele":8327,"zevende":8328,"probeer":8329,"probeerden":8330,"verkiezings":8331,"uiterlijk":8332,"maatschappelijk":8333,"vijand":8334,"hypo":8335,"verliefd":8336,"zoontje":8337,"Utrechtse":8338,"Hollandse":8339,"glim":8340,"Gerrit":8341,"Queen":8342,"pogingen":8343,"Volkswagen":8344,"meenemen":8345,"updates":8346,"Visser":8347,"trui":8348,"tarief":8349,"toegestaan":8350,"donkere":8351,"Hendr":8352,"illegale":8353,"Disney":8354,"zwemmen":8355,"rainer":8356,"Consu":8357,"Syrië":8358,"Williams":8359,"investeerders":8360,"fossiele":8361,"aanwijzingen":8362,"André":8363,"flexi":8364,"gevestigd":8365,"spectacul":8366,"Pogacar":8367,"gedeeltelijk":8368,"President":8369,"mrd":8370,"aanmerking":8371,"Afghanistan":8372,"energierekening":8373,"Ierland":8374,"KNVB":8375,"700":8376,"Bit":8377,"Croo":8378,"Dut":8379,"DNA":8380,"Fil":8381,"Genk":8382,"Hond":8383,"Linda":8384,"MS":8385,"Meg":8386,"May":8387,"NC":8388,"Part":8389,"PEC":8390,"Rand":8391,"Voed":8392,"Wagen":8393,"aver":8394,"buit":8395,"doos":8396,"ept":8397,"fir":8398,"gin":8399,"hac":8400,"kolen":8401,"kaars":8402,"laf":8403,"lelijk":8404,"rig":8405,"tom":8406,"tzig":8407,"vleu":8408,"wood":8409,"enni":8410,"analist":8411,"deert":8412,"deerd":8413,"ijl":8414,"ijing":8415,"ely":8416,"chat":8417,"geerd":8418,"onverwacht":8419,"aarden":8420,"eende":8421,"isatie":8422,"verdeling":8423,"vertrekt":8424,"opname":8425,"opleveren":8426,"opbouwen":8427,"rekent":8428,"behalen":8429,"bevind":8430,"bespreken":8431,"bezorger":8432,"head":8433,"heff":8434,"arme":8435,"voorwaar":8436,"olympisch":8437,"meiden":8438,"uitbraak":8439,"schouders":8440,"tenzij":8441,"toetsen":8442,"wort":8443,"vezel":8444,"aalt":8445,"mos":8446,"leng":8447,"afdelingen":8448,"kansl":8449,"tijdrit":8450,"ulling":8451,"dows":8452,"bloem":8453,"entie":8454,"ontving":8455,"kernen":8456,"vreten":8457,"huil":8458,"houdingen":8459,"osc":8460,"koken":8461,"plegen":8462,"plaatje":8463,"hieronder":8464,"misbru":8465,"misdaden":8466,"nose":8467,"Opvallend":8468,"nieuwkom":8469,"Steen":8470,"sels":8471,"binnenstad":8472,"besturen":8473,"iels":8474,"toenmalige":8475,"interne":8476,"gebruikelijk":8477,"bescheiden":8478,"aangewezen":8479,"Schol":8480,"School":8481,"namiddag":8482,"duidelijkheid":8483,"speelden":8484,"knoop":8485,"gereageerd":8486,"pressie":8487,"bewonder":8488,"kiezers":8489,"stopte":8490,"2007":8491,"dichterbij":8492,"loopbaan":8493,"noodopvang":8494,"raadslid":8495,"fietsers":8496,"keuring":8497,"tekening":8498,"gooide":8499,"bureaus":8500,"Ollon":8501,"diepte":8502,"wolven":8503,"democratische":8504,"Suz":8505,"oefeningen":8506,"Math":8507,"Burg":8508,"Gelderse":8509,"hersenen":8510,"archite":8511,"tegenstanders":8512,"Portuge":8513,"masker":8514,"hoofdrol":8515,"Timmer":8516,"onieme":8517,"FIFA":8518,"Forum":8519,"lockdowns":8520,"duurzaamheid":8521,"verrast":8522,"neutraal":8523,"appartementen":8524,"uitstekende":8525,"taxi":8526,"gevaccineerd":8527,"progressie":8528,"Kroatië":8529,"methode":8530,"ysteem":8531,"beïnvloeden":8532,"Tilburg":8533,"statement":8534,"verbaasd":8535,"drempel":8536,"Sigrid":8537,"gepleegd":8538,"Heerenveen":8539,"Ollongren":8540,",-":8541,"56":8542,"Ari":8543,"BT":8544,"Ede":8545,"Gisteren":8546,"Hele":8547,"KN":8548,"Kos":8549,"Moeder":8550,"NEC":8551,"Nord":8552,"PC":8553,"Thier":8554,"Tay":8555,"Zu":8556,"ecol":8557,"fon":8558,"gi":8559,"gy":8560,"gids":8561,"hoed":8562,"kter":8563,"kige":8564,"kaas":8565,"lonen":8566,"ping":8567,"pale":8568,"ric":8569,"room":8570,"sj":8571,"simpele":8572,"wou":8573,"zinnen":8574,"zooi":8575,"erom":8576,"ano":8577,"anonieme":8578,"inen":8579,"aadt":8580,"aafd":8581,"ches":8582,"geer":8583,"gekopp":8584,"onken":8585,"iseerd":8586,"teerden":8587,"verricht":8588,"verdubbel":8589,"opgesteld":8590,"reurs":8591,"beest":8592,"heven":8593,"voorst":8594,"olympische":8595,"iler":8596,"schok":8597,"aspe":8598,"steekt":8599,"rijders":8600,"overgenomen":8601,"overgebracht":8602,"afwe":8603,"afgezet":8604,"appel":8605,"program":8606,"dodelijke":8607,"plank":8608,"plafond":8609,"nagenoeg":8610,"kundige":8611,"betrapt":8612,"vroegen":8613,"zelfstandig":8614,"beroemde":8615,"aagden":8616,"dels":8617,"Maarten":8618,"luister":8619,"directie":8620,"langzamer":8621,"ego":8622,"trad":8623,"ideaal":8624,"abi":8625,"herken":8626,"bestrijden":8627,"Volgende":8628,"duiken":8629,"fenis":8630,"vierkante":8631,"aangesloten":8632,"verloop":8633,"puzzel":8634,"organisator":8635,"Beijing":8636,"versoepel":8637,"stijgingen":8638,"streven":8639,"bewind":8640,"krachtige":8641,"liefhebbers":8642,"Elk":8643,"Model":8644,"trainingen":8645,"startte":8646,"Park":8647,"machts":8648,"financi":8649,"patiënt":8650,"Kamerleden":8651,"letjes":8652,"decenni":8653,"vatting":8654,"bakker":8655,"kindje":8656,"leeftijds":8657,"toonde":8658,"leuker":8659,"wonenden":8660,"houdbaar":8661,"kernwapens":8662,"merkingen":8663,"festiv":8664,"papieren":8665,"stalige":8666,"bevestigde":8667,"ondersteunt":8668,"ondersteunen":8669,"Sainz":8670,"horlo":8671,"bruggen":8672,"Vandaar":8673,"kathol":8674,"initiatieven":8675,"opmerkelijke":8676,"kruising":8677,"dringend":8678,"tarieven":8679,"beseffen":8680,"ADO":8681,"uitbreiden":8682,"beschuldigingen":8683,"Telegram":8684,"advertenties":8685,"Arabië":8686,"nadruk":8687,"Veiligheids":8688,"documentaire":8689,"deskundigen":8690,"dividend":8691,"NIET":8692,"wetenschappelijke":8693,"vreselijk":8694,"lading":8695,"overwegend":8696,"cerem":8697,"drinkwater":8698,"geïnteresse":8699,"promotie":8700,"talloze":8701,"hectare":8702,"ouverneur":8703,"verduurz":8704,"tzigt":8705,"gekoppeld":8706,"76":8707,"Award":8708,"Blij":8709,"Ca":8710,"Las":8711,"RA":8712,"Sander":8713,"Tal":8714,"Thuis":8715,"Vu":8716,"Vers":8717,"VID":8718,"Zig":8719,"bb":8720,"boeg":8721,"iaal":8722,"kook":8723,"kot":8724,"ms":8725,"oft":8726,"rouwen":8727,"twe":8728,"yota":8729,"anon":8730,"deugen":8731,"else":8732,"staken":8733,"stiekem":8734,"ones":8735,"eenheid":8736,"tekorten":8737,"oordelen":8738,"verh":8739,"verkrijg":8740,"itt":8741,"itsen":8742,"dergelijk":8743,"dende":8744,"rez":8745,"aanvoer":8746,"aanpassingen":8747,"oever":8748,"bevindt":8749,"hek":8750,"voorkomt":8751,"older":8752,"mechan":8753,"iller":8754,"uiteen":8755,"uitgaan":8756,"uitmaken":8757,"uitleggen":8758,"uitgebracht":8759,"schit":8760,"uniek":8761,"spion":8762,"bijt":8763,"terreur":8764,"ienden":8765,"ondergrond":8766,"onderhandelen":8767,"onderneming":8768,"ads":8769,"benut":8770,"waaraan":8771,"gronden":8772,"landgenoot":8773,"dokter":8774,"planning":8775,"isterd":8776,"Indon":8777,"ontkennen":8778,"geboekt":8779,"escal":8780,"valuta":8781,"ott":8782,"astron":8783,"digde":8784,"toestellen":8785,"acu":8786,"werknemer":8787,"allo":8788,"diag":8789,"doende":8790,"liegen":8791,"parkeren":8792,"prim":8793,"prinses":8794,"ctiev":8795,"bestrijding":8796,"geschikte":8797,"kijkers":8798,"Leon":8799,"marge":8800,"handhaven":8801,"Ongeveer":8802,"haling":8803,"tienduizenden":8804,"stemde":8805,"roef":8806,"verlaagd":8807,"Schu":8808,"Omtzigt":8809,"optimaal":8810,"Art":8811,"lastiger":8812,"rekeningen":8813,"bestuurs":8814,"strafbaar":8815,"doods":8816,"betaalbare":8817,"opgehaald":8818,"terende":8819,"tests":8820,"Groene":8821,"mooier":8822,"ritten":8823,"gebouwde":8824,"apparatuur":8825,"experiment":8826,"eeuwen":8827,"Johnny":8828,"Saint":8829,"routes":8830,"groeiende":8831,"studies":8832,"beroeps":8833,"respectiev":8834,"Haha":8835,"factoren":8836,"adviseert":8837,"emotionele":8838,"beheerder":8839,"demonstratie":8840,"absolute":8841,"vertegenwoordigers":8842,"Dries":8843,"koeien":8844,"AMG":8845,"favoriet":8846,"Klein":8847,"Brabantse":8848,"vanzelfsprekend":8849,"vernietigen":8850,"consum":8851,"liberale":8852,"Egyp":8853,"aanhoudende":8854,"Kruis":8855,"originele":8856,"omstreden":8857,"zwijgen":8858,"Wetenschap":8859,"boetes":8860,"regionale":8861,"George":8862,"Perez":8863,"Slechts":8864,"dwars":8865,"geregistreerd":8866,"aanmeldcentrum":8867,"Stijl":8868,"verplichte":8869,"opinie":8870,"betreffende":8871,"symptomen":8872,"quête":8873,"verkrijgbaar":8874,"Indones":8875,"59":8876,"900":8877,"Big":8878,"Bun":8879,"Bah":8880,"DC":8881,"Ein":8882,"Ele":8883,"Fle":8884,"Hot":8885,"Hem":8886,"Jaar":8887,"Jack":8888,"KC":8889,"Lie":8890,"MR":8891,"Meerdere":8892,"Niets":8893,"Oe":8894,"Roemen":8895,"Tel":8896,"Tun":8897,"Ur":8898,"Verd":8899,"bou":8900,"bind":8901,"daan":8902,"diet":8903,"donder":8904,"eem":8905,"git":8906,"glazen":8907,"iat":8908,"ira":8909,"lic":8910,"molen":8911,"vult":8912,"zult":8913,"óg":8914,"inc":8915,"inspanningen":8916,"gezocht":8917,"onrecht":8918,"tekent":8919,"verhuizen":8920,"verplaatsen":8921,"opmerkingen":8922,"aandrij":8923,"oede":8924,"bede":8925,"beving":8926,"bewoner":8927,"hekel":8928,"date":8929,"ieter":8930,"kenmerken":8931,"igden":8932,"rare":8933,"ramen":8934,"raft":8935,"radi":8936,"diepe":8937,"mental":8938,"idd":8939,"erson":8940,"werven":8941,"spier":8942,"ondernemen":8943,"onderscheid":8944,"afgenomen":8945,"afwijk":8946,"afstanden":8947,"apie":8948,"dodelijk":8949,"aks":8950,"ontmoeten":8951,"daarentegen":8952,"ants":8953,"klass":8954,"itieke":8955,"iteert":8956,"gemat":8957,"strook":8958,"orgh":8959,"track":8960,"preventie":8961,"ertjes":8962,"gevende":8963,"mentaal":8964,"grootte":8965,"geteld":8966,"helden":8967,"geschat":8968,"Lee":8969,"verloopt":8970,"buis":8971,"inkoop":8972,"koppen":8973,"schema":8974,"single":8975,"regisse":8976,"zonde":8977,"duidelijke":8978,"wethouders":8979,"draaid":8980,"strekt":8981,"Toyota":8982,"1500":8983,"strafschop":8984,"zondagmiddag":8985,"instanties":8986,"2002":8987,"velgen":8988,"iana":8989,"Jansen":8990,"cuus":8991,"schadevergoeding":8992,"dorpen":8993,"activiteit":8994,"complexe":8995,"collectief":8996,"Sindsdien":8997,"verlenen":8998,"papa":8999,"MacBook":9000,"grijze":9001,"Vrouwen":9002,"plotseling":9003,"drijf":9004,"daalt":9005,"alternatieve":9006,"wieler":9007,"kwalijk":9008,"definitieve":9009,"strategische":9010,"coureurs":9011,"latform":9012,"bitcoin":9013,"Noorse":9014,"journalistiek":9015,"staking":9016,"genote":9017,"varkens":9018,"potentiële":9019,"Voet":9020,"streng":9021,"herinnering":9022,"cruciaal":9023,"aanvullen":9024,"types":9025,"zinnige":9026,"liedje":9027,"restaurants":9028,"stabiel":9029,"Koreaanse":9030,"betrouwbare":9031,"compenseren":9032,"Windows":9033,"gezamenlijk":9034,"Aziatische":9035,"Groningers":9036,"fantastische":9037,"exemplaren":9038,"stromingen":9039,"oppervlakte":9040,"inspiratie":9041,"Vincent":9042,"antaine":9043,"aankondiging":9044,"communiceren":9045,"infectie":9046,"Oorlog":9047,"GGD":9048,"Racing":9049,"intimidatie":9050,"bemoeien":9051,"quarantaine":9052,"Verschillende":9053,"gepubliceerd":9054,"YouTube":9055,"tefeuille":9056,"Messi":9057,"gepresenteerd":9058,"bevindingen":9059,"Thierry":9060,"350":9061,"450":9062,"Ac":9063,"Cu":9064,"Dig":9065,"Et":9066,"Islam":9067,"Mas":9068,"OC":9069,"Peters":9070,"Sol":9071,"Sun":9072,"Vind":9073,"Valt":9074,"Xi":9075,"Zet":9076,"Zieken":9077,"bid":9078,"cd":9079,"fond":9080,"fut":9081,"gracht":9082,"hert":9083,"iro":9084,"kWh":9085,"kogel":9086,"noor":9087,"pon":9088,"pte":9089,"pokken":9090,"ringen":9091,"snu":9092,"sigar":9093,"toed":9094,"villa":9095,"dete":9096,"eth":9097,"stag":9098,"oogt":9099,"atlet":9100,"chron":9101,"geur":9102,"geopol":9103,"gehakt":9104,"onterecht":9105,"verslaan":9106,"omgaan":9107,"aankopen":9108,"bekl":9109,"behoort":9110,"beweren":9111,"ark":9112,"ary":9113,"medium":9114,"uitgesloten":9115,"schol":9116,"unch":9117,"overnemen":9118,"gelach":9119,"ape":9120,"benoem":9121,"waardering":9122,"elementen":9123,"kanalen":9124,"kansel":9125,"ulier":9126,"docent":9127,"immu":9128,"meerde":9129,"nader":9130,"main":9131,"mani":9132,"tijds":9133,"board":9134,"ems":9135,"aco":9136,"cong":9137,"Russel":9138,"cipl":9139,"treft":9140,"weging":9141,"feite":9142,"iri":9143,"geduld":9144,"ergste":9145,"hierop":9146,"schapen":9147,"gevend":9148,"evenveel":9149,"ivels":9150,"standpunt":9151,"low":9152,"kringen":9153,"Cherson":9154,"Marco":9155,"peper":9156,"vloog":9157,"Belang":9158,"koper":9159,"Amerikaan":9160,"Beetje":9161,"doelgroep":9162,"break":9163,"Heuvel":9164,"Omroep":9165,"eindigen":9166,"wettelijke":9167,"recre":9168,"draaide":9169,"soortgelijke":9170,"Belgisch":9171,"Journ":9172,"vreest":9173,"woningbouw":9174,"thee":9175,"vergis":9176,"alisering":9177,"Maz":9178,"180":9179,"kwartfinale":9180,"kwartfinales":9181,"bepaalt":9182,"ianen":9183,"zoveelste":9184,"verdiende":9185,"noodzaak":9186,"cao":9187,"trof":9188,"troffen":9189,"windmolens":9190,"teller":9191,"Vereniging":9192,"leugens":9193,"stilstand":9194,"generaties":9195,"uitgedeeld":9196,"groenten":9197,"Donetsk":9198,"verzekerd":9199,"schatten":9200,"Exc":9201,"vooruitgang":9202,"materieel":9203,"Herman":9204,"geheugen":9205,"Centrale":9206,"Haarlem":9207,"Milan":9208,"Univers":9209,"Nationaal":9210,"Bergkamp":9211,"dynam":9212,"verdween":9213,"verspreiden":9214,"Binnenlandse":9215,"Tegenwoordig":9216,"bewolking":9217,"installeren":9218,"ambtenaar":9219,"storing":9220,"wijziging":9221,"vaardigheden":9222,"McL":9223,"artiest":9224,"arrestatie":9225,"verslaggever":9226,"nadien":9227,"kunstenaar":9228,"kunstenaars":9229,"versnellen":9230,"beschouwd":9231,"symbol":9232,"torenhoge":9233,"Kerst":9234,"vuilnis":9235,"mondkapje":9236,"constant":9237,"dictator":9238,"fluen":9239,"Nadal":9240,"container":9241,"Philips":9242,"getraind":9243,"acceptabel":9244,"oprichter":9245,"Hasselt":9246,"Sophie":9247,"Klaver":9248,"Sparta":9249,"Beleggers":9250,"Klimaat":9251,"immuun":9252,"84":9253,"AB":9254,"AF":9255,"AH":9256,"BI":9257,"BV":9258,"Boom":9259,"Cast":9260,"EA":9261,"Evert":9262,"Ecu":9263,"Far":9264,"Fem":9265,"Gol":9266,"Jef":9267,"Kam":9268,"Kard":9269,"Moo":9270,"Minder":9271,"NFT":9272,"SE":9273,"Sand":9274,"Sven":9275,"Sky":9276,"Ve":9277,"Veg":9278,"Ye":9279,"ault":9280,"bach":9281,"cover":9282,"cam":9283,"edit":9284,"frag":9285,"gooit":9286,"géén":9287,"haak":9288,"hagen":9289,"lamp":9290,"mmer":9291,"matiek":9292,"oblig":9293,"pal":9294,"pond":9295,"run":9296,"soep":9297,"serse":9298,"twitter":9299,"waak":9300,"enzo":9301,"etst":9302,"ingesteld":9303,"aapt":9304,"elang":9305,"elaars":9306,"staart":9307,"attra":9308,"gepl":9309,"geplan":9310,"gewaarde":9311,"tekende":9312,"verzu":9313,"vergroten":9314,"opgel":9315,"opstand":9316,"opleggen":9317,"opport":9318,"dernacht":9319,"reus":9320,"reiking":9321,"aanbie":9322,"lezers":9323,"bez":9324,"voorganger":9325,"uring":9326,"metingen":9327,"razend":9328,"uitkomt":9329,"uitdruk":9330,"schuur":9331,"schrappen":9332,"roer":9333,"stee":9334,"rijen":9335,"overhand":9336,"geling":9337,"geliefde":9338,"iende":9339,"onderzoekt":9340,"rusten":9341,"mobiel":9342,"afgelegd":9343,"waarderen":9344,"kanen":9345,"imd":9346,"pluim":9347,"keuren":9348,"ontbreken":9349,"ontvangt":9350,"gered":9351,"openlijk":9352,"Alban":9353,"Alfa":9354,"boze":9355,"boter":9356,"bedden":9357,"Wee":9358,"excuus":9359,"snaam":9360,"prikken":9361,"ukkel":9362,"comité":9363,"noch":9364,"kshow":9365,"middernacht":9366,"achtervolging":9367,"Stop":9368,"lozen":9369,"interpret":9370,"Christen":9371,"label":9372,"specul":9373,"resul":9374,"kantoren":9375,"jarigen":9376,"viert":9377,"aangesp":9378,"waterstaat":9379,"Space":9380,"leraren":9381,"doelwit":9382,"doelstellingen":9383,"bereikte":9384,"richtte":9385,"gasprijs":9386,"Vlam":9387,"schrijf":9388,"bouwt":9389,"hardware":9390,"siers":9391,"nationaliteit":9392,"steunt":9393,"biosc":9394,"faill":9395,"Hiermee":9396,"Ooit":9397,"NASA":9398,"betrekking":9399,"Terug":9400,"raads":9401,"lijstje":9402,"letsel":9403,"beschikbare":9404,"Lux":9405,"Luik":9406,"sterkste":9407,"crimineel":9408,"betrokkenen":9409,"GeenStijl":9410,"medisch":9411,"vergelijkbare":9412,"garande":9413,"vaccineren":9414,"verleners":9415,"blokken":9416,"waarschuwen":9417,"schild":9418,"eilanden":9419,"Chinezen":9420,"Dubai":9421,"Hermans":9422,"OMT":9423,"Conferen":9424,"bedreigingen":9425,"machines":9426,"vergunningen":9427,"emoties":9428,"onverwachte":9429,"BBB":9430,"BBC":9431,"verwarmen":9432,"uitzonderingen":9433,"proport":9434,"truc":9435,"verbeterde":9436,"uitgebreide":9437,"teleurgesteld":9438,"kuub":9439,"Zwitserse":9440,"versterken":9441,"flessen":9442,"toezichthouder":9443,"belandde":9444,"Rijkswaterstaat":9445,"limiet":9446,"chauffeurs":9447,"keeper":9448,"vervuiling":9449,"Azië":9450,"koolstof":9451,"sorry":9452,"Economische":9453,"wetenschappelijk":9454,"exemplaar":9455,"Seneg":9456,"Rechts":9457,"zwangerschap":9458,"reaguurders":9459,"gebeurtenissen":9460,"Snap":9461,"externe":9462,"wekelijkse":9463,"avontuur":9464,"ransitie":9465,"AOW":9466,"vacatures":9467,"ondernemingen":9468,"Spanjaard":9469,"Kempen":9470,"voortdurend":9471,"sproblemen":9472,"gewelddadige":9473,"centimeter":9474,"architect":9475,"Ziggo":9476,"respectievelijk":9477,"Egypte":9478,"fondsen":9479,"Excels":9480,"Ecuador":9481,"faillisse":9482,"!\"":9483,"ABN":9484,"Bond":9485,"Buur":9486,"Bak":9487,"Beter":9488,"Balt":9489,"Cas":9490,"Fest":9491,"Gal":9492,"Gre":9493,"Golf":9494,"IM":9495,"Jam":9496,"Kies":9497,"Kinder":9498,"Log":9499,"Lex":9500,"ML":9501,"Mur":9502,"Mike":9503,"NB":9504,"Pé":9505,"Peet":9506,"Prijs":9507,"Ring":9508,"Ryan":9509,"Ty":9510,"Vir":9511,"big":9512,"bui":9513,"evacu":9514,"gaaf":9515,"gauw":9516,"joen":9517,"jets":9518,"kok":9519,"mln":9520,"nas":9521,"pik":9522,"phon":9523,"song":9524,"tse":9525,"tikken":9526,"uyn":9527,"vit":9528,"wall":9529,"zang":9530,"enz":9531,"ernaar":9532,"erkent":9533,"andel":9534,"dev":9535,"degenen":9536,"etter":9537,"inlog":9538,"inleveren":9539,"atmo":9540,"geweer":9541,"gepakt":9542,"geproduc":9543,"gemeten":9544,"aloog":9545,"verdiep":9546,"verplaatst":9547,"verwoest":9548,"opzij":9549,"opgemerkt":9550,"recher":9551,"aanbevel":9552,"beheers":9553,"heus":9554,"wekt":9555,"voorgesteld":9556,"zeil":9557,"metje":9558,"Des":9559,"asme":9560,"ashi":9561,"idi":9562,"rijtje":9563,"spin":9564,"spand":9565,"sparen":9566,"speur":9567,"splan":9568,"overw":9569,"overwin":9570,"overheen":9571,"gelen":9572,"gelie":9573,"gelanc":9574,"work":9575,"onderaan":9576,"lente":9577,"leningen":9578,"ofzo":9579,"zojuist":9580,"hebber":9581,"waaruit":9582,"ness":9583,"volkomen":9584,"atieke":9585,"immer":9586,"weeke":9587,"nadeel":9588,"icoon":9589,"wijzer":9590,"Eng":9591,"hoeverre":9592,"ootjes":9593,"stri":9594,"gewapen":9595,"Daarop":9596,"gedood":9597,"staand":9598,"mislukte":9599,"abon":9600,"orens":9601,"talkshow":9602,"vertrok":9603,"levend":9604,"achterban":9605,"hernieuw":9606,"snelste":9607,"Store":9608,"evenwicht":9609,"iving":9610,"Voordat":9611,"loy":9612,"bestorm":9613,"fluit":9614,"plaatselijke":9615,"spee":9616,"haalden":9617,"pesten":9618,"ultieme":9619,"lift":9620,"verbinden":9621,"stapje":9622,"Amerikaans":9623,"verdragen":9624,"ckx":9625,"middelbare":9626,"brandstoffen":9627,"tweedehands":9628,"ages":9629,"formaat":9630,"lopend":9631,"groepje":9632,"press":9633,"bibliotheek":9634,"ruimtevaart":9635,"zake":9636,"ovatie":9637,"formen":9638,"concer":9639,"Meest":9640,"Hierbij":9641,"vuurwapen":9642,"tekeningen":9643,"kostte":9644,"dankbaar":9645,"COVID":9646,"besparing":9647,"Carol":9648,"verzekeraars":9649,"wolde":9650,"tegenovergestelde":9651,"genees":9652,"schakeling":9653,"beveiligers":9654,"structureel":9655,"Colom":9656,"bewegingen":9657,"Washing":9658,"genaamd":9659,"uitzonderlijk":9660,"filmpjes":9661,"Limburgse":9662,"gezondheidszorg":9663,"spartij":9664,"Remkes":9665,"beschuldigd":9666,"accounts":9667,"storten":9668,"FIA":9669,"schilderij":9670,"Rabo":9671,"dalende":9672,"schadelijke":9673,"Fortuyn":9674,"symbool":9675,"deskundige":9676,"waanzin":9677,"introductie":9678,"chocol":9679,"aanhangers":9680,"instrument":9681,"mondkapjes":9682,"langdurige":9683,"Winterswijk":9684,"talenten":9685,"idioten":9686,"Republikeinen":9687,"schandaal":9688,"schouwers":9689,"Richard":9690,"maandelijks":9691,"halverwege":9692,"solidariteit":9693,"Canadese":9694,"VTM":9695,"ontvangst":9696,"Hitler":9697,"Taghi":9698,"optredens":9699,"reality":9700,"Voedsel":9701,"Mathieu":9702,"Vuelta":9703,"kanselier":9704,"Excelsior":9705,"Washington":9706,",\"":9707,"Acht":9708,"Act":9709,"CI":9710,"Cura":9711,"Dre":9712,"Deense":9713,"Eva":9714,"Gren":9715,"HL":9716,"Haal":9717,"Leg":9718,"MH":9719,"Mul":9720,"Mont":9721,"Mot":9722,"Nas":9723,"Osc":9724,"PF":9725,"Rol":9726,"Stal":9727,"Tha":9728,"Veer":9729,"dop":9730,"daat":9731,"gij":9732,"geren":9733,"glo":9734,"gaard":9735,"hil":9736,"ière":9737,"jam":9738,"lit":9739,"leten":9740,"mits":9741,"pes":9742,"ped":9743,"té":9744,"ww":9745,"át":9746,"çao":9747,"enquête":9748,"anim":9749,"deau":9750,"inzien":9751,"influen":9752,"stoom":9753,"stunt":9754,"ates":9755,"ativiteit":9756,"gezichten":9757,"onschuldig":9758,"alia":9759,"vanmorgen":9760,"issan":9761,"oordeelde":9762,"verwerkt":9763,"opgebouwd":9764,"ommen":9765,"aandoen":9766,"oepol":9767,"lezer":9768,"lezing":9769,"bee":9770,"beu":9771,"bestem":9772,"bedroeg":9773,"voornaam":9774,"inget":9775,"ingel":9776,"zeiden":9777,"races":9778,"uitstel":9779,"uitlaat":9780,"unif":9781,"rock":9782,"menu":9783,"meningen":9784,"stekker":9785,"rijst":9786,"toele":9787,"werpt":9788,"spil":9789,"splein":9790,"worst":9791,"termen":9792,"rub":9793,"zowat":9794,"advie":9795,"slopen":9796,"slaagde":9797,"volhouden":9798,"uurtje":9799,"istieke":9800,"ked":9801,"keel":9802,"icaties":9803,"willige":9804,"huilen":9805,"kleren":9806,"Energ":9807,"duik":9808,"duwen":9809,"gemoe":9810,"toeschouwers":9811,"sterd":9812,"zetel":9813,"Weg":9814,"ugde":9815,"moei":9816,"gevierd":9817,"winters":9818,"oegde":9819,"avel":9820,"avië":9821,"Stand":9822,"wachting":9823,"heldere":9824,"gelijkspel":9825,"bestond":9826,"gescheiden":9827,"hooguit":9828,"lader":9829,"vorst":9830,"zekere":9831,"koninklijke":9832,"drukt":9833,"aangekomen":9834,"Sche":9835,"zorgvuldig":9836,"kopje":9837,"woordvoer":9838,"lichten":9839,"haken":9840,"versies":9841,"versoep":9842,"energiecrisis":9843,"ifi":9844,"richtlijnen":9845,"hoorn":9846,"filter":9847,"draai":9848,"bewak":9849,"basisschool":9850,"Graaf":9851,"doodgeschoten":9852,"Moeten":9853,"familieleden":9854,"Mah":9855,"ologisch":9856,"boekje":9857,"Theo":9858,"Steeds":9859,"creatieve":9860,"leugen":9861,"rentes":9862,"supermarkten":9863,"regenbuien":9864,"belangstelling":9865,"vergelijkbaar":9866,"processen":9867,"Prima":9868,"Gaz":9869,"telefoons":9870,"schreeuw":9871,"braken":9872,"bossen":9873,"cirkel":9874,"fietsp":9875,"Internationaal":9876,"hammed":9877,"psychische":9878,"Centrum":9879,"verbruikt":9880,"brachten":9881,"Milieu":9882,"sessie":9883,"toegangs":9884,"protesteren":9885,"professor":9886,"voorspellen":9887,"begraaf":9888,"putatie":9889,"pakketten":9890,"ingericht":9891,"Hongkon":9892,"tweets":9893,"plussers":9894,"smartphon":9895,"kolon":9896,"Tsje":9897,"advertentie":9898,"ratten":9899,"isseld":9900,"vernieuwde":9901,"bedienen":9902,"gigantische":9903,"hielden":9904,"vervanger":9905,"vervanging":9906,"bagage":9907,"Simon":9908,"stimuleren":9909,"dossiers":9910,"monument":9911,"tainment":9912,"oorspronkelijk":9913,"commandant":9914,"energietransitie":9915,"econoom":9916,"benadrukte":9917,"Marioepol":9918,"ingewikkeld":9919,"getrouwd":9920,"shirt":9921,"consequenties":9922,"grootschalige":9923,"patroon":9924,"lengte":9925,"versoepelingen":9926,"congres":9927,"opportun":9928,"Vlamingen":9929,"Conference":9930,"weekeinde":9931,"%)":9932,"79":9933,"Agen":9934,"Blok":9935,"Bakker":9936,"Dum":9937,"Fit":9938,"FVD":9939,"Get":9940,"Gil":9941,"Gak":9942,"Gün":9943,"Hert":9944,"Holl":9945,"Jaap":9946,"Joodse":9947,"Lamb":9948,"MO":9949,"NN":9950,"NRC":9951,"OK":9952,"Out":9953,"Plas":9954,"SW":9955,"Sto":9956,"Snel":9957,"Test":9958,"Thi":9959,"Take":9960,"Ul":9961,"Valle":9962,"Zes":9963,"gh":9964,"gier":9965,"haren":9966,"iver":9967,"iveren":9968,"kg":9969,"kussen":9970,"maag":9971,"mbo":9972,"miste":9973,"mama":9974,"nik":9975,"nóg":9976,"ovo":9977,"smer":9978,"smok":9979,"tor":9980,"tool":9981,"vig":9982,"wand":9983,"ertoe":9984,"degra":9985,"eta":9986,"info":9987,"ijpen":9988,"ella":9989,"athon":9990,"chir":9991,"geerde":9992,"gevechten":9993,"eenzij":9994,"eenvoudige":9995,"verko":9996,"versn":9997,"verslagen":9998,"verwezen":9999,"verantwoord":10000,"oprecht":10001,"omer":10002,"reding":10003,"revolutie":10004,"reputatie":10005,"oest":10006,"bemiddel":10007,"ingt":10008,"ous":10009,"ouch":10010,"metro":10011,"uitgang":10012,"Depp":10013,"Demir":10014,"asf":10015,"menings":10016,"see":10017,"toeren":10018,"spont":10019,"overeind":10020,"amelijk":10021,"senti":10022,"onderling":10023,"afleveringen":10024,"benoemd":10025,"ingenomen":10026,"nabis":10027,"jaarbasis":10028,"blu":10029,"blind":10030,"ontkent":10031,"antis":10032,"zelfmoord":10033,"perk":10034,"Alt":10035,"gemist":10036,"artiller":10037,"toegeven":10038,"academ":10039,"dialoog":10040,"ositie":10041,"ution":10042,"Wees":10043,"treedt":10044,"parcours":10045,"bledon":10046,"hierboven":10047,"helm":10048,"Volgend":10049,"ceaan":10050,"spekt":10051,"Marie":10052,"burn":10053,"jongetje":10054,"druppel":10055,"gezonden":10056,"zieke":10057,"beleving":10058,"pure":10059,"dingetje":10060,"scheep":10061,"Heijn":10062,"matische":10063,"energieverbruik":10064,"iforn":10065,"Duits":10066,"Duitser":10067,"voetballers":10068,"filos":10069,"vriendelijke":10070,"Gezond":10071,"rellen":10072,"nachten":10073,"fund":10074,"zwaargewond":10075,"checken":10076,"paus":10077,"Aangezien":10078,"display":10079,"rechtsstaat":10080,"uiterste":10081,"havens":10082,"busje":10083,"ificatie":10084,"populariteit":10085,"itici":10086,"voedings":10087,"negentien":10088,"vriendjes":10089,"offensief":10090,"kerncentrale":10091,"Carlos":10092,"portefeuille":10093,"camping":10094,"massale":10095,"promin":10096,"websites":10097,"oefening":10098,"intensieve":10099,"verplichting":10100,"ielever":10101,"explic":10102,"biertje":10103,"rommel":10104,"sprogramma":10105,"mails":10106,"Burger":10107,"strategisch":10108,"sneu":10109,"gemakkelijker":10110,"verspreiding":10111,"Binnenkort":10112,"chemische":10113,"individueel":10114,"profession":10115,"Christian":10116,"vertegenwoordiger":10117,"gemeng":10118,"verbeteringen":10119,"Zelenski":10120,"potentieel":10121,"Jones":10122,"verbeterd":10123,"explosief":10124,"rivier":10125,"Sams":10126,"badkamer":10127,"typisch":10128,"release":10129,"Jullie":10130,"grappen":10131,"nuttig":10132,"Tokio":10133,"wijzigingen":10134,"Wimbledon":10135,"juridisch":10136,"continu":10137,"Californ":10138,"gigantisch":10139,"hielp":10140,"particuliere":10141,"Stream":10142,"medicijnen":10143,"ografie":10144,"zielig":10145,"Victor":10146,"bezetting":10147,"Angeles":10148,"oorspronkelijke":10149,"volume":10150,"beweert":10151,"suggest":10152,"ambassadeur":10153,"uitsluitend":10154,"schutter":10155,"stierf":10156,"sponsor":10157,"boycot":10158,"district":10159,"werkloos":10160,"bacter":10161,"fusie":10162,"opwarming":10163,"schorsing":10164,"financiering":10165,"humanitaire":10166,"focussen":10167,"Sorry":10168,"hypocr":10169,"Dutch":10170,"Wageningen":10171,"paleis":10172,"afwezig":10173,"financiën":10174,"ceremonie":10175,"Roemenië":10176,"mentaliteit":10177,"klassiek":10178,"gelachen":10179,"Russell":10180,"geplande":10181,"Senegal":10182,"Peeters":10183,"Curaçao":10184,"Hongkong":10185,"Gakpo":10186,"78":10187,"Astr":10188,"Bat":10189,"Bot":10190,"Dick":10191,"FS":10192,"Frit":10193,"GO":10194,"HR":10195,"Hout":10196,"Jap":10197,"Jaren":10198,"Kit":10199,"Kre":10200,"Lok":10201,"Light":10202,"Lely":10203,"Mach":10204,"Nap":10205,"Not":10206,"Naties":10207,"Pier":10208,"Pay":10209,"SL":10210,"TI":10211,"Up":10212,"Ukra":10213,"VW":10214,"Vader":10215,"WA":10216,"bied":10217,"dj":10218,"dij":10219,"full":10220,"gings":10221,"gift":10222,"gouverneur":10223,"ib":10224,"kachel":10225,"lippen":10226,"maf":10227,"saf":10228,"smee":10229,"too":10230,"ualiteit":10231,"waait":10232,"xx":10233,"yt":10234,"yne":10235,"ür":10236,"erkende":10237,"erkenning":10238,"ingeschakeld":10239,"aaide":10240,"stoor":10241,"stuit":10242,"ieerd":10243,"atrice":10244,"gehoor":10245,"onte":10246,"onnodig":10247,"ala":10248,"verf":10249,"verwerken":10250,"verzetten":10251,"itus":10252,"opgegeven":10253,"opletten":10254,"aanvang":10255,"aanhouding":10256,"leum":10257,"weiger":10258,"aret":10259,"voornemen":10260,"voorwaarde":10261,"zeilen":10262,"zijnde":10263,"uitnodig":10264,"uitzicht":10265,"schij":10266,"schaar":10267,"schoor":10268,"schone":10269,"schud":10270,"steam":10271,"seerde":10272,"tocol":10273,"agr":10274,"spunt":10275,"vesteerd":10276,"rukken":10277,"aalde":10278,"afgevoerd":10279,"zozeer":10280,"appen":10281,"volstrekt":10282,"plo":10283,"nagedacht":10284,"watch":10285,"antser":10286,"gebonden":10287,"gebles":10288,"kermis":10289,"macro":10290,"pere":10291,"houten":10292,"boten":10293,"weergave":10294,"belofte":10295,"beloofde":10296,"hoeken":10297,"gewisseld":10298,"echtgenoot":10299,"exacte":10300,"polder":10301,"wonnen":10302,"come":10303,"comprom":10304,"kleuter":10305,"geleide":10306,"ingsdienst":10307,"Zoiets":10308,"selaar":10309,"Anna":10310,"Volt":10311,"intern":10312,"legden":10313,"plaatsvond":10314,"ijfers":10315,"190":10316,"andersom":10317,"resol":10318,"Marine":10319,"day":10320,"buitenspel":10321,"besliste":10322,"Belan":10323,"Belar":10324,"system":10325,"vastgelegd":10326,"zittende":10327,"slagveld":10328,"goeden":10329,"scheppen":10330,"richtingen":10331,"regie":10332,"bouwde":10333,"frit":10334,"friet":10335,"regeringen":10336,"woningmarkt":10337,"doodslag":10338,"Poetins":10339,"muis":10340,"schappelijke":10341,"concreet":10342,"schuldige":10343,"Rock":10344,"harte":10345,"Britt":10346,"specialisten":10347,"ochtends":10348,"teland":10349,"stoken":10350,"heerst":10351,"belastingdienst":10352,"platteland":10353,"vieze":10354,"gekke":10355,"regenboog":10356,"vermeende":10357,"verlengen":10358,"verlenging":10359,"verwijst":10360,"ureau":10361,"kinderopvang":10362,"waarschuwde":10363,"Donbas":10364,"juichen":10365,"schreeuwen":10366,"Westerse":10367,"geïnvesteerd":10368,"Duivels":10369,"ongelukken":10370,"glad":10371,"Gerard":10372,"moraal":10373,"wetenschapper":10374,"koffer":10375,"Airport":10376,"alternatieven":10377,"geluids":10378,"Nations":10379,"shows":10380,"gunstig":10381,"federatie":10382,"IND":10383,"nota":10384,"transitie":10385,"USA":10386,"uitkeringen":10387,"Stads":10388,"ketens":10389,"behoeften":10390,"Direct":10391,"versloeg":10392,"geruimd":10393,"verbindingen":10394,"versterkt":10395,"Renault":10396,"agressief":10397,"zuidelijke":10398,"stokje":10399,"verhoogde":10400,"Veiligheid":10401,"constructie":10402,"Mexic":10403,"PostNL":10404,"Studio":10405,"toelichting":10406,"medicijn":10407,"reserve":10408,"beëindigen":10409,"universiteiten":10410,"handhaving":10411,"segment":10412,"verlengd":10413,"tunnel":10414,"ongelijkheid":10415,"voorspeld":10416,"Drenthe":10417,"importeren":10418,"Matthijs":10419,"labor":10420,"Bedrijven":10421,"triest":10422,"evaluatie":10423,"Randstad":10424,"kernenergie":10425,"voorstander":10426,"anoniem":10427,"eemt":10428,"regisseur":10429,"McLaren":10430,"Kardashi":10431,"verzuim":10432,"aangesproken":10433,"bestorming":10434,"smartphones":10435,"fundamen":10436,"82":10437,"98":10438,"Aal":10439,"Aals":10440,"Cr":10441,"Cla":10442,"DO":10443,"Drag":10444,"Eras":10445,"Fra":10446,"GEN":10447,"Jin":10448,"Len":10449,"Ligt":10450,"Nico":10451,"One":10452,"Pass":10453,"RD":10454,"Shar":10455,"Slot":10456,"Tan":10457,"Tuur":10458,"UMC":10459,"Vert":10460,"Vleu":10461,"WB":10462,"WE":10463,"Wo":10464,"Wop":10465,"WHO":10466,"beld":10467,"cking":10468,"eist":10469,"falen":10470,"gold":10471,"hne":10472,"kont":10473,"lings":10474,"landers":10475,"mam":10476,"mart":10477,"maten":10478,"muse":10479,"nische":10480,"ote":10481,"pion":10482,"palen":10483,"roos":10484,"sna":10485,"sons":10486,"tbs":10487,"veter":10488,"wak":10489,"wiens":10490,"ène":10491,"dema":10492,"ination":10493,"invoering":10494,"stom":10495,"sticht":10496,"atleten":10497,"chie":10498,"champ":10499,"christen":10500,"gedronken":10501,"alu":10502,"vermo":10503,"verkozen":10504,"verdenking":10505,"opvangen":10506,"genet":10507,"derdaad":10508,"omstreeks":10509,"orst":10510,"aannemen":10511,"aankomende":10512,"aansluiten":10513,"bewaren":10514,"bezorgen":10515,"behaald":10516,"bekijkt":10517,"bezuinig":10518,"hekken":10519,"ardo":10520,"arrog":10521,"oli":10522,"oul":10523,"meta":10524,"rade":10525,"ili":10526,"schom":10527,"ikke":10528,"roy":10529,"roet":10530,"ush":10531,"tenten":10532,"rijd":10533,"seweg":10534,"secretaris":10535,"overstappen":10536,"gelov":10537,"termin":10538,"zoet":10539,"slu":10540,"neden":10541,"neers":10542,"uls":10543,"ulden":10544,"doctr":10545,"imago":10546,"Inderdaad":10547,"ontbijt":10548,"gebeld":10549,"master":10550,"bero":10551,"klopte":10552,"dures":10553,"duikt":10554,"beloofd":10555,"acles":10556,"sterkte":10557,"ootje":10558,"confront":10559,"echten":10560,"examen":10561,"deeltjes":10562,"moes":10563,"gevoed":10564,"plaatjes":10565,"misdaad":10566,"persbericht":10567,"erts":10568,"avi":10569,"politiebureau":10570,"tussentijd":10571,"vertonen":10572,"achterhalen":10573,"herkomst":10574,"herhaling":10575,"criter":10576,"offer":10577,"ronen":10578,"werelds":10579,"gestort":10580,"gestude":10581,"kroeg":10582,"Volody":10583,"geschrapt":10584,"mijl":10585,"renovatie":10586,"passie":10587,"Mars":10588,"jonger":10589,"oorts":10590,"krediet":10591,"problematiek":10592,"blijvend":10593,"stemmers":10594,"zakt":10595,"veiling":10596,"bubbel":10597,"bovenaan":10598,"bovenstaande":10599,"haus":10600,"Heard":10601,"Pod":10602,"veiliger":10603,"gevoeld":10604,"Bob":10605,"Georg":10606,"ziekten":10607,"etermijn":10608,"publicatie":10609,"clip":10610,"trop":10611,"basispunten":10612,"vreugde":10613,"apenpokken":10614,"zakte":10615,"Overmars":10616,"epide":10617,"tabl":10618,"Rober":10619,"drager":10620,"zuin":10621,"miljardair":10622,"donk":10623,"verdienmodel":10624,"ontwikkelaar":10625,"feestjes":10626,"controles":10627,"Provin":10628,"business":10629,"huurders":10630,"stikke":10631,"hyster":10632,"verliep":10633,"Management":10634,"automatis":10635,"kerncentrales":10636,"groente":10637,"jurk":10638,"Carl":10639,"private":10640,"Blind":10641,"verzekeringen":10642,"digend":10643,"gloed":10644,"ondersteund":10645,"Internationale":10646,"intensief":10647,"hotels":10648,"Heracles":10649,"Instituut":10650,"verzameld":10651,"myr":10652,"adviseren":10653,"cash":10654,"geluiden":10655,"gepaard":10656,"overeenkomsten":10657,"geëist":10658,"radar":10659,"Guy":10660,"Delft":10661,"Jonas":10662,"moedigen":10663,"weigerde":10664,"bedrijfsleven":10665,"typische":10666,"hoofdt":10667,"tanken":10668,"óók":10669,"adressen":10670,"cannabis":10671,"begeleiden":10672,"schilderijen":10673,"Atl":10674,"ARNH":10675,"Achterhoek":10676,"verblijfs":10677,"islamitische":10678,"Arabische":10679,"integriteit":10680,"Conserv":10681,"Jacob":10682,"Street":10683,"woestijn":10684,"mobiliteit":10685,"Times":10686,"wappie":10687,"gegeten":10688,"overtreding":10689,"Griekse":10690,"Bayern":10691,"Janssen":10692,"Leeuwarden":10693,"zonnige":10694,"exclusief":10695,"gespecialiseerd":10696,"inzittenden":10697,"Saoedi":10698,"knuffel":10699,"fiscale":10700,"Consumenten":10701,"Meghan":10702,"heffing":10703,"orghini":10704,"Ziekenhuis":10705,"Pérez":10706,"gelanceerd":10707,"concerten":10708,"toelever":10709,"Tsjech":10710,"asfalt":10711,"artillerie":10712,"vermogens":10713,"Volodymyr":10714,"ARNHEM":10715,"\"\"":10716,"(!)":10717,"2G":10718,"AL":10719,"Avond":10720,"Bureau":10721,"CC":10722,"Caf":10723,"Cont":10724,"Cool":10725,"Crist":10726,"Center":10727,"Dh":10728,"Dacht":10729,"Duur":10730,"Dome":10731,"Glen":10732,"Gouden":10733,"HP":10734,"Heren":10735,"Ivan":10736,"JA":10737,"KPN":10738,"Mens":10739,"NM":10740,"Nijk":10741,"ON":10742,"RB":10743,"SD":10744,"Seg":10745,"Tri":10746,"Tevens":10747,"VU":10748,"Vlucht":10749,"Wes":10750,"Wales":10751,"Zul":10752,"adel":10753,"cm":10754,"cs":10755,"cin":10756,"ckt":10757,"cens":10758,"flan":10759,"hh":10760,"hals":10761,"kalen":10762,"kno":10763,"misten":10764,"noe":10765,"natie":10766,"nomen":10767,"odigde":10768,"pie":10769,"pikken":10770,"poorten":10771,"russen":10772,"xit":10773,"éél":10774,"ër":10775,"erkend":10776,"dex":10777,"deleg":10778,"invoeren":10779,"stook":10780,"oodt":10781,"gedraaid":10782,"onveilige":10783,"tewel":10784,"tegels":10785,"itel":10786,"ophouden":10787,"opgeven":10788,"opzicht":10789,"opstellen":10790,"opladen":10791,"opleidingen":10792,"omgev":10793,"omheen":10794,"omgekomen":10795,"orden":10796,"rees":10797,"oeslag":10798,"besten":10799,"hey":10800,"heem":10801,"voorhand":10802,"ingaan":10803,"olo":10804,"igers":10805,"uitgelegd":10806,"uitgeroepen":10807,"schijf":10808,"schouder":10809,"schoppen":10810,"uno":10811,"unen":10812,"rof":10813,"rots":10814,"tenslotte":10815,"agon":10816,"werpers":10817,"sprijs":10818,"overdag":10819,"overvallen":10820,"overduidelijk":10821,"overschot":10822,"bijten":10823,"bijbehoren":10824,"eerlijke":10825,"zochten":10826,"gran":10827,"tijde":10828,"provi":10829,"doven":10830,"immun":10831,"plak":10832,"anderhalve":10833,"pende":10834,"daartoe":10835,"meewerken":10836,"gerd":10837,"gerichte":10838,"zelfstand":10839,"managers":10840,"hub":10841,"drong":10842,"iteerde":10843,"emburg":10844,"werkten":10845,"osi":10846,"conne":10847,"huisje":10848,"Wever":10849,"expor":10850,"parte":10851,"polit":10852,"sniveau":10853,"gevat":10854,"gevlogen":10855,"trag":10856,"vink":10857,"bless":10858,"misdrijf":10859,"onso":10860,"natte":10861,"absur":10862,"nette":10863,"netwerken":10864,"middele":10865,"Stijn":10866,"Station":10867,"evenals":10868,"hocke":10869,"wereldbeker":10870,"gestraft":10871,"gemeentelijke":10872,"law":10873,"Vera":10874,"haalbaar":10875,"Marcel":10876,"balk":10877,"beleef":10878,"energielever":10879,"vasthouden":10880,"kopers":10881,"bruin":10882,"bruine":10883,"berekend":10884,"visum":10885,"hoofddoek":10886,"grondwet":10887,"slechtste":10888,"Gezien":10889,"Gebruik":10890,"jubi":10891,"bewoon":10892,"Oftewel":10893,"schijnen":10894,"fraaie":10895,"Will":10896,"Reken":10897,"ervaart":10898,"betekende":10899,"telefon":10900,"buurland":10901,"Mohammed":10902,"kiezer":10903,"maandagochtend":10904,"voetbalclub":10905,"terend":10906,"Paris":10907,"chez":10908,"dramatisch":10909,"Groninger":10910,"ijssel":10911,"donderdagochtend":10912,"Benieuwd":10913,"veroorzaak":10914,"veroordeling":10915,"redacteur":10916,"dreven":10917,"westelijke":10918,"keurige":10919,"jongeman":10920,"Lucas":10921,"stilte":10922,"vestiging":10923,"tekens":10924,"aanwezige":10925,"platformen":10926,"gooch":10927,"hoefde":10928,"vermist":10929,"besmette":10930,"stikstofuitstoot":10931,"pijnlijk":10932,"Game":10933,"ontdekking":10934,"briefje":10935,"vooruitzichten":10936,"Gerwen":10937,"Sebast":10938,"grijpt":10939,"verplichtingen":10940,"durende":10941,"autoriteit":10942,"producenten":10943,"explo":10944,"Australian":10945,"aftrap":10946,"billen":10947,"parlementaire":10948,"leefde":10949,"twijfels":10950,"Klopt":10951,"presentatrice":10952,"National":10953,"lating":10954,"bevonden":10955,"Kortrijk":10956,"Marokkanen":10957,"pension":10958,"uitzend":10959,"rivaal":10960,"oorlogsmisdaden":10961,"hoofden":10962,"Series":10963,"Mechelse":10964,"stabiliteit":10965,"verrassende":10966,"teleurstellen":10967,"vervelende":10968,"Braziliaanse":10969,"koppelen":10970,"uitstekend":10971,"berekenen":10972,"Trans":10973,"Fortuna":10974,"functioneren":10975,"spreekbaar":10976,"verontwaardig":10977,"tickets":10978,"wetsvoorstel":10979,"Autoblog":10980,"toenemende":10981,"schrikken":10982,"wappies":10983,"langdurig":10984,"gebeurtenis":10985,"avanc":10986,"sugger":10987,"motivatie":10988,"toetreding":10989,"applaus":10990,"frustratie":10991,"vrucht":10992,"verschrikkelijk":10993,"schaamte":10994,"muzikale":10995,"Roger":10996,"cilinder":10997,"fatale":10998,"gisteravond":10999,"Congo":11000,"Rafael":11001,"referendum":11002,"insecten":11003,"fotograaf":11004,"grandslam":11005,"beschrijft":11006,"Honda":11007,"ecolog":11008,"horloge":11009,"katholieke":11010,"geïnteresseerd":11011,"Tunes":11012,"Voetbal":11013,"Luxemburg":11014,"geproduceerd":11015,"hernieuwbare":11016,"Meestal":11017,"voornaamste":11018,"woordvoerster":11019,"begraafplaats":11020,"Samsung":11021,"03":11022,"AW":11023,"Ak":11024,"Aar":11025,"Bill":11026,"Bommel":11027,"CU":11028,"Ce":11029,"Dien":11030,"Day":11031,"Eu":11032,"Eat":11033,"Essen":11034,"Eems":11035,"Fern":11036,"Ged":11037,"Geel":11038,"Kok":11039,"Krist":11040,"Lier":11041,"LED":11042,"Maakt":11043,"OV":11044,"Pim":11045,"Riet":11046,"Rik":11047,"Roos":11048,"Serg":11049,"SGP":11050,"TA":11051,"Uw":11052,"Uber":11053,"Va":11054,"Vit":11055,"Var":11056,"Valen":11057,"Waren":11058,"Wolf":11059,"Zi":11060,"Zonne":11061,"baten":11062,"cit":11063,"clu":11064,"coun":11065,"evolutie":11066,"furt":11067,"hent":11068,"late":11069,"louter":11070,"lunch":11071,"poe":11072,"pou":11073,"pist":11074,"poep":11075,"rop":11076,"rische":11077,"ration":11078,"roof":11079,"sus":11080,"snee":11081,"tast":11082,"wc":11083,"zalen":11084,"áá":11085,"anno":11086,"ineen":11087,"inck":11088,"inner":11089,"inwoner":11090,"elder":11091,"athie":11092,"geblok":11093,"gegarande":11094,"geavanc":11095,"onië":11096,"iso":11097,"teit":11098,"oorn":11099,"oorzaken":11100,"oorlogen":11101,"vermeld":11102,"verrijk":11103,"hetgeen":11104,"itor":11105,"derik":11106,"omie":11107,"omring":11108,"omwille":11109,"omwonenden":11110,"resten":11111,"vooraan":11112,"voorrang":11113,"chtans":11114,"ollen":11115,"mete":11116,"metalen":11117,"dies":11118,"uitgeb":11119,"uitval":11120,"uitgerekend":11121,"schu":11122,"Deut":11123,"Dekker":11124,"aats":11125,"asy":11126,"rijp":11127,"spul":11128,"spart":11129,"overstromingen":11130,"ient":11131,"ondergaan":11132,"apor":11133,"appels":11134,"benodigde":11135,"doorgaat":11136,"sloop":11137,"slaaf":11138,"slikken":11139,"voldoet":11140,"grim":11141,"weef":11142,"nadelen":11143,"icten":11144,"ontworpen":11145,"antische":11146,"beru":11147,"beraad":11148,"beroemd":11149,"kloof":11150,"tegendeel":11151,"belt":11152,"belof":11153,"divers":11154,"Eens":11155,"grof":11156,"actor":11157,"egde":11158,"compen":11159,"prestig":11160,"vrijwillige":11161,"derende":11162,"vertoon":11163,"achterin":11164,"hervat":11165,"hervorming":11166,"herdenking":11167,"corresponden":11168,"evenmin":11169,"sieker":11170,"ingssysteem":11171,"groots":11172,"getreden":11173,"getuig":11174,"wachtwoord":11175,"Voorzitter":11176,"Voorlop":11177,"eurozone":11178,"kraam":11179,"Ann":11180,"Andro":11181,"ielid":11182,"samenstelling":11183,"geschoven":11184,"minderheid":11185,"gewoond":11186,"international":11187,"2026":11188,"renten":11189,"handje":11190,"sleep":11191,"gezag":11192,"aribo":11193,"aangeeft":11194,"verliet":11195,"verlof":11196,"zach":11197,"Navo":11198,"doelstelling":11199,"breder":11200,"handelaar":11201,"handeling":11202,"ckers":11203,"Hey":11204,"matchen":11205,"stijd":11206,"Pods":11207,"witch":11208,"gasprijzen":11209,"eindeloos":11210,"stuks":11211,"topscor":11212,"filmen":11213,"gevochten":11214,"speelgoed":11215,"tuig":11216,"strepen":11217,"scannen":11218,"publiciteit":11219,"thuisland":11220,"cliënten":11221,"veranderde":11222,"vrijdagmiddag":11223,"Dennis":11224,"Moha":11225,"persoons":11226,"plekje":11227,"ollic":11228,"trainers":11229,"ups":11230,"forman":11231,"mensheid":11232,"Param":11233,"technologische":11234,"munten":11235,"winkelcentrum":11236,"waardevolle":11237,"Theater":11238,"betrekken":11239,"halfjaar":11240,"soldaat":11241,"ontwikkelde":11242,"domein":11243,"feestdagen":11244,"atorium":11245,"Probeer":11246,"mondiale":11247,"verantwoorden":11248,"verantwoordelijke":11249,"Noordzee":11250,"hyper":11251,"presenteren":11252,"computers":11253,"verzinnen":11254,"leerkrachten":11255,"vizier":11256,"dorps":11257,"brow":11258,"Live":11259,"voorlopige":11260,"camerabeelden":11261,"varianten":11262,"bewustzijn":11263,"gezellige":11264,"Syl":11265,"roman":11266,"macher":11267,"Klaas":11268,"elly":11269,"1996":11270,"presteren":11271,"discuss":11272,"demonstreren":11273,"onvermij":11274,"gerechtshof":11275,"gemeenteraadsverkiezingen":11276,"steekpartij":11277,"favorieten":11278,"III":11279,"verniel":11280,"voorafgaand":11281,"splafond":11282,"vliegveld":11283,"schaats":11284,"Ronald":11285,"Israëlische":11286,"douche":11287,"pleiten":11288,"warmtepomp":11289,"heilig":11290,"eiwit":11291,"berekening":11292,"Straks":11293,"gevechts":11294,"schriften":11295,"merendeel":11296,"dividen":11297,"Federal":11298,"bizarre":11299,"zuurstof":11300,"Kyiv":11301,"sterfte":11302,"tribune":11303,"voegde":11304,"verzorging":11305,"ANWB":11306,"Kampioen":11307,"Persoon":11308,"mantel":11309,"begraven":11310,"huizing":11311,"vriezen":11312,"kliniek":11313,"cryptomunten":11314,"virtuele":11315,"vervoers":11316,"efficiënter":11317,"fatsoenlijk":11318,"youtu":11319,"refle":11320,"Nicol":11321,"weinige":11322,"spectaculaire":11323,"misbruikt":11324,"Kosovo":11325,"Digit":11326,"manifest":11327,"steevast":11328,"pluimvee":11329,"ChristenUnie":11330,"Festival":11331,"Lamborghini":11332,"meningsuiting":11333,"expliciet":11334,"Ukraine":11335,"Kardashian":11336,"Erasmus":11337,"JA21":11338,"kalender":11339,"jubileum":11340,"Voorlopig":11341,"()":11342,"01":11343,"3000":11344,"5000":11345,"83":11346,"Ay":11347,"Abu":11348,"Aston":11349,"Blijk":11350,"Bab":11351,"Blan":11352,"Chan":11353,"Camp":11354,"DS":11355,"Daan":11356,"Fijn":11357,"Fir":11358,"Gun":11359,"Gert":11360,"Hall":11361,"Hui":11362,"Haas":11363,"Hoofd":11364,"IK":11365,"Il":11366,"King":11367,"Kopen":11368,"Klin":11369,"Komende":11370,"Má":11371,"Mit":11372,"Mak":11373,"Mir":11374,"Mobil":11375,"Pan":11376,"Pop":11377,"Riv":11378,"UE":11379,"UK":11380,"Vide":11381,"Woon":11382,"Walter":11383,"away":11384,"bv":11385,"bul":11386,"dic":11387,"eis":11388,"gil":11389,"him":11390,"hak":11391,"ial":11392,"ioren":11393,"jalo":11394,"kran":11395,"kip":11396,"kassa":11397,"llen":11398,"méér":11399,"nomin":11400,"okt":11401,"pje":11402,"pic":11403,"smaken":11404,"sia":11405,"tte":11406,"touw":11407,"tassen":11408,"vaten":11409,"vuren":11410,"wiet":11411,"wier":11412,"waaien":11413,"öz":11414,"eringen":11415,"erna":11416,"anter":11417,"ety":11418,"inne":11419,"inbraak":11420,"elat":11421,"elli":11422,"elliet":11423,"stro":11424,"stall":11425,"aters":11426,"atoom":11427,"christ":11428,"chaus":11429,"gekend":11430,"gesteun":11431,"gepraat":11432,"gegroeid":11433,"gehandeld":11434,"ongemakkelijk":11435,"onacceptabel":11436,"onschuldige":11437,"eenheden":11438,"ted":11439,"teer":11440,"temin":11441,"verzocht":11442,"verhoudingen":11443,"hete":11444,"opgeslagen":11445,"opgeleverd":11446,"opmars":11447,"genre":11448,"genomin":11449,"ormen":11450,"rekende":11451,"regeer":11452,"aanra":11453,"aannemer":11454,"lease":11455,"bevoor":11456,"bevor":11457,"hecht":11458,"datac":11459,"dateert":11460,"aro":11461,"aria":11462,"voorzit":11463,"voorziet":11464,"ietwat":11465,"zeuren":11466,"zeiken":11467,"oligar":11468,"metaal":11469,"illiet":11470,"uitzien":11471,"uitmaakt":11472,"uitgere":11473,"uitbarst":11474,"Defen":11475,"aatschapp":11476,"ogels":11477,"usden":11478,"stek":11479,"sec":11480,"sema":11481,"tof":11482,"spit":11483,"overwel":11484,"overdreven":11485,"terijen":11486,"vegan":11487,"onderste":11488,"onderhouden":11489,"afvragen":11490,"afrekenen":11491,"zoens":11492,"zodanig":11493,"ady":11494,"adijs":11495,"waarb":11496,"waarts":11497,"sling":11498,"slap":11499,"koming":11500,"electr":11501,"doken":11502,"istel":11503,"elijkheid":11504,"aku":11505,"naï":11506,"keus":11507,"ices":11508,"entje":11509,"Intel":11510,"kerij":11511,"indi":11512,"audio":11513,"gering":11514,"manip":11515,"mannetje":11516,"ots":11517,"alleerd":11518,"brid":11519,"emig":11520,"elende":11521,"utter":11522,"expositie":11523,"gevel":11524,"print":11525,"langetermijn":11526,"pleging":11527,"precie":11528,"vrijgelaten":11529,"noten":11530,"avia":11531,"vertel":11532,"snelheids":11533,"Stat":11534,"Stor":11535,"aadje":11536,"Zoeter":11537,"self":11538,"verschu":11539,"besteld":11540,"toenmalig":11541,"minderjarige":11542,"prijsplafond":11543,"ijff":11544,"stadium":11545,"handige":11546,"konings":11547,"gezins":11548,"gezakt":11549,"verborgen":11550,"stapel":11551,"power":11552,"Beek":11553,"handelaars":11554,"Heist":11555,"bereidt":11556,"duurste":11557,"rolstoel":11558,"formule":11559,"gaswinning":11560,"prijsstijging":11561,"grondgebied":11562,"latere":11563,"Arbe":11564,"stofzu":11565,"volgd":11566,"make":11567,"rijdende":11568,"trent":11569,"euwse":11570,"linie":11571,"ongfestival":11572,"Doorn":11573,"teurs":11574,"vredes":11575,"zaterdagmiddag":11576,"zaterdagochtend":11577,"opgeheven":11578,"ambt":11579,"failliet":11580,"mund":11581,"allereerste":11582,"Hiervoor":11583,"NAC":11584,"160":11585,"discipl":11586,"lijsttrekker":11587,"première":11588,"bondgenoot":11589,"ongekend":11590,"ongevallen":11591,"Lucht":11592,"toonaangeven":11593,"monet":11594,"Bram":11595,"activist":11596,"sms":11597,"illus":11598,"presenteerde":11599,"slotfase":11600,"Prin":11601,"vermoorden":11602,"leiderschap":11603,"dorpje":11604,"beleggen":11605,"belegging":11606,"beleggingen":11607,"Koninklijke":11608,"gevangenen":11609,"porno":11610,"Donar":11611,"kwaliteiten":11612,"stallen":11613,"afgewezen":11614,"geïnst":11615,"circul":11616,"Doet":11617,"intens":11618,"invulling":11619,"moreel":11620,"verplichten":11621,"racistisch":11622,"Martijn":11623,"Martine":11624,"structurele":11625,"Linux":11626,"wielrenner":11627,"Vrijwel":11628,"potje":11629,"Emma":11630,"VAR":11631,"detin":11632,"passeren":11633,"bezorgde":11634,"investerings":11635,"waardigheid":11636,"vloei":11637,"transacties":11638,"professioneel":11639,"bewolkte":11640,"dealer":11641,"praktijken":11642,"Advoc":11643,"Monaco":11644,"modern":11645,"Kazach":11646,"koloni":11647,"Julian":11648,"Serie":11649,"piloot":11650,"piloten":11651,"Asiel":11652,"schuift":11653,"René":11654,"neutrale":11655,"financieren":11656,"heilige":11657,"hevig":11658,"continent":11659,"berekeningen":11660,"enthousiasme":11661,"zuidwesten":11662,"Westerlo":11663,"geïso":11664,"gevaccineerden":11665,"vogelgriep":11666,"Rousse":11667,"comfortabel":11668,"Romein":11669,"Fox":11670,"Ouders":11671,"Cambuur":11672,"Arena":11673,"Reser":11674,"timing":11675,"toler":11676,"Miami":11677,"Pelosi":11678,"gezeik":11679,"operationele":11680,"Dylan":11681,"bejaarden":11682,"transparantie":11683,"Cross":11684,"rappor":11685,"strafrechtelijk":11686,"modder":11687,"afbeelding":11688,"Familie":11689,"permanente":11690,"Capitool":11691,"Texas":11692,"certific":11693,"vleugel":11694,"festivals":11695,"Wetenschappers":11696,"sigaretten":11697,"Mooie":11698,"gewaardeerd":11699,"SpaceX":11700,"faillissement":11701,"Baltische":11702,"overwinningen":11703,"versneld":11704,"Althans":11705,"werkloosheid":11706,"Japann":11707,"comeback":11708,"Belarus":11709,"Aalsmeer":11710,"Vleuten":11711,"Wopke":11712,"gestudeerd":11713,"prestigieuze":11714,"Android":11715,"chaussee":11716,"oligarchen":11717,"86":11718,"89":11719,"93":11720,"97":11721,"?)":11722,"A2":11723,"Bie":11724,"Bad":11725,"Bent":11726,"Bes":11727,"CP":11728,"Cels":11729,"DD":11730,"DE":11731,"DJ":11732,"Dar":11733,"Dale":11734,"Eerd":11735,"Fen":11736,"Gij":11737,"Ghan":11738,"Glo":11739,"Hand":11740,"Hanne":11741,"Irak":11742,"Jen":11743,"Jim":11744,"Jamb":11745,"KB":11746,"Kw":11747,"Klas":11748,"Les":11749,"Lisa":11750,"M3":11751,"Nissan":11752,"Olie":11753,"Oss":11754,"Pink":11755,"Plot":11756,"RU":11757,"Ric":11758,"RTV":11759,"Sad":11760,"Sjo":11761,"Shang":11762,"Tata":11763,"Viet":11764,"Viv":11765,"Wa":11766,"Wacht":11767,"Za":11768,"bijn":11769,"bia":11770,"bull":11771,"cup":11772,"dap":11773,"dheid":11774,"far":11775,"fier":11776,"fran":11777,"fred":11778,"gooi":11779,"hl":11780,"haan":11781,"has":11782,"ires":11783,"imenten":11784,"koor":11785,"kmaar":11786,"kist":11787,"lander":11788,"mic":11789,"muren":11790,"oh":11791,"pantser":11792,"ruit":11793,"rus":11794,"rally":11795,"raadt":11796,"sim":11797,"soepel":11798,"sukkel":11799,"ties":11800,"era":11801,"deken":11802,"dementen":11803,"etijd":11804,"iner":11805,"inders":11806,"invoer":11807,"inbre":11808,"aaste":11809,"eland":11810,"standers":11811,"gepre":11812,"gekost":11813,"gewezen":11814,"gecombin":11815,"gehoopt":11816,"geparkeer":11817,"gedetin":11818,"onmis":11819,"onveilig":11820,"ongewenst":11821,"alert":11822,"vanger":11823,"iseerde":11824,"tekend":11825,"vervolgen":11826,"verslecht":11827,"itut":11828,"oproepen":11829,"oplevert":11830,"omot":11831,"ometer":11832,"omgerekend":11833,"order":11834,"reductie":11835,"bec":11836,"bezette":11837,"behaalde":11838,"bestemd":11839,"datab":11840,"ouan":11841,"uitgel":11842,"uitstraling":11843,"uitreiking":11844,"aso":11845,"steerde":11846,"bijv":11847,"worstelen":11848,"onderbre":11849,"onderdak":11850,"rui":11851,"moer":11852,"afgegeven":11853,"afwachting":11854,"benoemen":11855,"doorbraak":11856,"eleinden":11857,"grid":11858,"plakken":11859,"istr":11860,"istieken":11861,"kundigen":11862,"kest":11863,"Indien":11864,"mac":11865,"may":11866,"aux":11867,"geraken":11868,"Alpe":11869,"Alkmaar":11870,"klik":11871,"minima":11872,"okte":11873,"bourne":11874,"lust":11875,"toeslag":11876,"acces":11877,"werkdruk":11878,"dusver":11879,"stelden":11880,"ooth":11881,"stralen":11882,"strikt":11883,"utten":11884,"hansk":11885,"pols":11886,"snijden":11887,"gevorm":11888,"milli":11889,"gedis":11890,"trage":11891,"hierin":11892,"Ern":11893,"vrijgegeven":11894,"vrijgesproken":11895,"mislukt":11896,"misdrijven":11897,"onszelf":11898,"politiewoordvoerder":11899,"Vanden":11900,"Vanavond":11901,"achterkant":11902,"herhalen":11903,"corpor":11904,"crè":11905,"kels":11906,"getjes":11907,"hoelang":11908,"ares":11909,"mindere":11910,"plaatsvindt":11911,"marathon":11912,"luchtmacht":11913,"reserv":11914,"sleept":11915,"Onlangs":11916,"Broek":11917,"belanden":11918,"oogde":11919,"balkon":11920,"uif":11921,"uiven":11922,"roeven":11923,"aangekl":11924,"verlichten":11925,"zachte":11926,"annië":11927,"Spoor":11928,"bekendste":11929,"Bewoners":11930,"losse":11931,"pakweg":11932,"Power":11933,"bereiden":11934,"basket":11935,"vissers":11936,"hoofdpijn":11937,"knappe":11938,"Arsen":11939,"gemeentes":11940,"studeren":11941,"Tech":11942,"achelijk":11943,"riskeert":11944,"juf":11945,"scoort":11946,"gesloopt":11947,"mededeling":11948,"class":11949,"Wilde":11950,"Reuters":11951,"dienstverlening":11952,"paneel":11953,"buurlanden":11954,"vergift":11955,"Amsterdammers":11956,"formeel":11957,"vormde":11958,"2005":11959,"2006":11960,"rijken":11961,"dinsdagochtend":11962,"short":11963,"hoopte":11964,"Mee":11965,"NAM":11966,"NATO":11967,"boekte":11968,"reddings":11969,"janken":11970,"Gelre":11971,"raadsel":11972,"lekkere":11973,"olieprijs":11974,"personeels":11975,"body":11976,"feitelijk":11977,"gevoelige":11978,"Steel":11979,"vlakbij":11980,"creatief":11981,"monster":11982,"batterijen":11983,"heerlijke":11984,"sanctie":11985,"winnende":11986,"rapte":11987,"presenteert":11988,"compon":11989,"garanderen":11990,"binden":11991,"Trudeau":11992,"rampen":11993,"passende":11994,"antwoordde":11995,"groenen":11996,"Konings":11997,"industriële":11998,"Chinees":11999,"democratisch":12000,"jeugdzorg":12001,"Laura":12002,"circus":12003,"fietst":12004,"glets":12005,"Doel":12006,"invullen":12007,"oostelijke":12008,"Costa":12009,"morele":12010,"Music":12011,"Ruud":12012,"platforms":12013,"pensioenen":12014,"AirPods":12015,"Bergen":12016,"bedreigen":12017,"historie":12018,"Laatst":12019,"sproces":12020,"News":12021,"twijfelen":12022,"opdrachten":12023,"myster":12024,"Robin":12025,"geluisterd":12026,"beheerders":12027,"gunstige":12028,"technologieën":12029,"acteurs":12030,"Gentse":12031,"aangekondigde":12032,"sensor":12033,"sensoren":12034,"Novak":12035,"vertegenwoordigd":12036,"Staats":12037,"stadsbestuur":12038,"aanzienlijke":12039,"reclames":12040,"elektriciteits":12041,"veiligheidsregio":12042,"toegepast":12043,"pijl":12044,"slaapkamer":12045,"Frankfurt":12046,"principes":12047,"yech":12048,"teleurstelling":12049,"Assen":12050,"veehouder":12051,"onzekere":12052,"Telegraaf":12053,"musical":12054,"spaargeld":12055,"procedures":12056,"douchen":12057,"peiling":12058,"salarissen":12059,"belandt":12060,"Surinamers":12061,"verkrachting":12062,"Lange":12063,"integratie":12064,"thermo":12065,"therapie":12066,"entertainment":12067,"versnelling":12068,"occas":12069,"Kuip":12070,"Brandweer":12071,"satelliet":12072,"draagvlak":12073,"multination":12074,"introduc":12075,"veroverde":12076,"Palace":12077,"bijkomen":12078,"vreselijke":12079,"Democraten":12080,"Muziek":12081,"luchtvaartmaatschappij":12082,"heftig":12083,"Angela":12084,"Lotte":12085,"Winterspelen":12086,"Hulp":12087,"Royal":12088,"vertrouwde":12089,"Florida":12090,"sticker":12091,"foute":12092,"Cruijff":12093,"Estland":12094,"Ridder":12095,"identificeren":12096,"verbrandings":12097,"administratie":12098,"golven":12099,"levard":12100,"carnaval":12101,"Bitcoin":12102,"kansloos":12103,"Scholz":12104,"Portugese":12105,"Helemaal":12106,"langzamerhand":12107,"decennium":12108,"diagnose":12109,"hertog":12110,"atletiek":12111,"benoeming":12112,"Rabobank":12113,"Stalin":12114,"gijzel":12115,"adviezen":12116,"Gazprom":12117,"spektakel":12118,"Californië":12119,"Pierre":12120,"Brittannië":12121,"musea":12122,"metaverse":12123,"neerslag":12124,"Nijkerk":12125,"Vluchtelingen":12126,"immuniteit":12127,"Ziyech":12128,"omringd":12129,"correspondent":12130,"getuigt":12131,"Mohamed":12132,"formance":12133,"Blijkbaar":12134,"gesteund":12135,"koloniale":12136,"Rousseau":12137,"Celsius":12138,"Shanghai":12139,"accesso":12140,"-)":12141,"5G":12142,"750":12143,"87":12144,":/":12145,"?”,":12146,"Ale":12147,"ANP":12148,"Agent":12149,"Bin":12150,"Ball":12151,"Bras":12152,"Cou":12153,"Cir":12154,"Dal":12155,"Dim":12156,"Dort":12157,"EQ":12158,"Fer":12159,"Fel":12160,"Fren":12161,"Grond":12162,"Hum":12163,"Houd":12164,"HBO":12165,"Kas":12166,"Kir":12167,"Kab":12168,"Kenn":12169,"Knot":12170,"LO":12171,"Loe":12172,"Liga":12173,"M2":12174,"MP":12175,"Mond":12176,"Must":12177,"Mob":12178,"Molen":12179,"Ni":12180,"Niels":12181,"Os":12182,"Pap":12183,"Pot":12184,"Ran":12185,"Rel":12186,"RKC":12187,"Sj":12188,"Sle":12189,"Saudi":12190,"UW":12191,"V8":12192,"Veld":12193,"Wu":12194,"Wiel":12195,"Zeer":12196,"bt":12197,"bü":12198,"boost":12199,"bike":12200,"bouwer":12201,"clo":12202,"eiste":12203,"fast":12204,"gord":12205,"horm":12206,"hakken":12207,"high":12208,"imo":12209,"idelijk":12210,"iaans":12211,"kaal":12212,"kings":12213,"kkingen":12214,"mét":12215,"oi":12216,"paas":12217,"petitie":12218,"piep":12219,"rige":12220,"véél":12221,"wd":12222,"went":12223,"ype":12224,"ée":12225,"eraf":12226,"deugd":12227,"departe":12228,"etooth":12229,"inzake":12230,"stage":12231,"atiënten":12232,"gee":12233,"gef":12234,"geit":12235,"gebl":12236,"gecreë":12237,"gekeerde":12238,"vanop":12239,"isd":12240,"verhe":12241,"verdie":12242,"verne":12243,"vervallen":12244,"verhoor":12245,"vervoeren":12246,"versturen":12247,"opvoeding":12248,"deringen":12249,"omliggende":12250,"omtrent":12251,"redelijke":12252,"rebellen":12253,"aangen":12254,"aankomt":12255,"lef":12256,"beke":12257,"begeleid":12258,"bewijst":12259,"beantwoorden":12260,"bedankt":12261,"heuvel":12262,"ardi":12263,"arche":12264,"ariërs":12265,"ietje":12266,"zeep":12267,"uretijd":12268,"igo":12269,"ray":12270,"illu":12271,"dieper":12272,"uitgezet":12273,"uitslagen":12274,"iki":12275,"andin":12276,"unie":12277,"search":12278,"agu":12279,"agel":12280,"spen":12281,"spook":12282,"spositie":12283,"overen":12284,"overkomen":12285,"overgedragen":12286,"overgebleven":12287,"overspo":12288,"overweegt":12289,"senioren":12290,"ondervinden":12291,"onderscheiden":12292,"lens":12293,"afgev":12294,"aflopen":12295,"afname":12296,"afschaffen":12297,"doorgeven":12298,"slij":12299,"grie":12300,"protocol":12301,"doeleinden":12302,"blin":12303,"blank":12304,"icap":12305,"ontruim":12306,"ontgooch":12307,"daaruit":12308,"gebaar":12309,"gebakken":12310,"auwen":12311,"geres":12312,"beta":12313,"vroren":12314,"All":12315,"Aller":12316,"Algemene":12317,"Almelo":12318,"vallig":12319,"valler":12320,"tegenaan":12321,"Enfin":12322,"bochten":12323,"bell":12324,"belu":12325,"beloond":12326,"empat":12327,"toegezegd":12328,"dichte":12329,"straal":12330,"stricht":12331,"strip":12332,"huisartsen":12333,"prie":12334,"irrit":12335,"pleid":12336,"rechtvaardig":12337,"baard":12338,"ipo":12339,"levende":12340,"herkent":12341,"Stap":12342,"event":12343,"Voort":12344,"cock":12345,"gelijkheid":12346,"gelijkmaker":12347,"wereldrecord":12348,"gestoord":12349,"iode":12350,"Volvo":12351,"samenwerk":12352,"geschorst":12353,"interim":12354,"Leyen":12355,"legaal":12356,"gebruikten":12357,"stadhuis":12358,"wantrouwen":12359,"magne":12360,"Brent":12361,"stempel":12362,"buitenkant":12363,"uime":12364,"verbaast":12365,"zwang":12366,"zorgden":12367,"voerders":12368,"Daniel":12369,"organiseerde":12370,"leroi":12371,"Beat":12372,"versum":12373,"roll":12374,"zones":12375,"prijskaartje":12376,"lijdt":12377,"ituatie":12378,"streerd":12379,"volgden":12380,"making":12381,"thuiswerken":12382,"resterende":12383,"Wilhel":12384,"wikkel":12385,"liefdes":12386,"etinchem":12387,"kleinste":12388,"woensdagmiddag":12389,"buurvrouw":12390,"voetbalbond":12391,"zwaarste":12392,"korter":12393,"huids":12394,"2001":12395,"rijkdom":12396,"uez":12397,"Onderzoek":12398,"Welzijn":12399,"veroordeelde":12400,"lokken":12401,"opereren":12402,"filmd":12403,"ritor":12404,"ritme":12405,"fract":12406,"leukste":12407,"noemden":12408,"Steve":12409,"creativiteit":12410,"kabels":12411,"kasteel":12412,"sites":12413,"aanwezigen":12414,"Somal":12415,"Sommigen":12416,"oung":12417,"cultureel":12418,"huurd":12419,"provinciale":12420,"fabrieken":12421,"lopers":12422,"compet":12423,"vriendinnen":12424,"althans":12425,"Oliv":12426,"blokkade":12427,"vervullen":12428,"pijnlijke":12429,"krui":12430,"ontdekten":12431,"eeuwige":12432,"verzekeraar":12433,"twintigste":12434,"afstands":12435,"Harris":12436,"rentree":12437,"Finan":12438,"snellere":12439,"iPhones":12440,"Doetinchem":12441,"negeren":12442,"files":12443,"sporter":12444,"genezen":12445,"schoonheid":12446,"College":12447,"goedkopere":12448,"bedoelt":12449,"bedoelde":12450,"indrukwekkend":12451,"indrukwekkende":12452,"Charleroi":12453,"terreinen":12454,"coup":12455,"ellieten":12456,"Arnold":12457,"rustiger":12458,"proeven":12459,"creëert":12460,"ASML":12461,"emotie":12462,"demonstraties":12463,"vrachtwagens":12464,"chemie":12465,"bezittingen":12466,"toerisme":12467,"populairste":12468,"verstopt":12469,"brandstofprijzen":12470,"Buff":12471,"Buijs":12472,"koepel":12473,"maskers":12474,"traditioneel":12475,"pillen":12476,"schaatsen":12477,"vette":12478,"bereikbaar":12479,"wijzigd":12480,"laadpaal":12481,"betalings":12482,"breedte":12483,"Scott":12484,"Gener":12485,"lancering":12486,"Landbouw":12487,"terroristen":12488,"azc":12489,"neuzen":12490,"ACM":12491,"inzam":12492,"relevante":12493,"noordoosten":12494,"oftewel":12495,"ografische":12496,"automobilisten":12497,"ecos":12498,"erfgoed":12499,"indienen":12500,"kleedkamer":12501,"Alpine":12502,"Zandvoort":12503,"dictatuur":12504,"Hilversum":12505,"heftige":12506,"block":12507,"microfoon":12508,"containers":12509,"economen":12510,"beslissende":12511,"benadrukken":12512,"respondenten":12513,"Wethouder":12514,"vruchten":12515,"ongelooflijk":12516,"radicale":12517,"Business":12518,"afgeschaft":12519,"Jasper":12520,"iconische":12521,"inhoudelijke":12522,"wattuur":12523,"Maastricht":12524,"gehalte":12525,"vlammen":12526,"moskee":12527,"nieuwkomer":12528,"Timmermans":12529,"KNMI":12530,"consumptie":12531,"Indonesië":12532,"binding":12533,"Vegas":12534,"bioscoop":12535,"atmosfeer":12536,"gewapende":12537,"Caroline":12538,"Thailand":12539,"Agenten":12540,"Takeaway":12541,"sentiment":12542,"Astrid":12543,"onteigen":12544,"Tuurlijk":12545,"criteria":12546,"Café":12547,"Cristiano":12548,"Dhabi":12549,"Herent":12550,"censuur":12551,"bijbehorende":12552,"blessuretijd":12553,"hockey":12554,"Sergio":12555,"Valencia":12556,"poule":12557,"geblokkeerd":12558,"Paramaribo":12559,"browser":12560,"Kopenhagen":12561,"UEFA":12562,"uitgereikt":12563,"geïnstalleerd":12564,"Reserve":12565,"millimeter":12566,"Dortmund":12567,",’":12568,"1e":12569,"2x":12570,"74":12571,"94":12572,"?'":12573,"A4":12574,"Ag":12575,"Bron":12576,"Bren":12577,"Bonds":12578,"Blee":12579,"Camer":12580,"Duidelijk":12581,"Edit":12582,"FD":12583,"FM":12584,"Fu":12585,"Fred":12586,"FBI":12587,"Gl":12588,"Gill":12589,"Honder":12590,"Jav":12591,"Joost":12592,"Jesse":12593,"Kelly":12594,"Lis":12595,"Lit":12596,"Lar":12597,"Mem":12598,"Mare":12599,"Morgan":12600,"Merk":12601,"NIJ":12602,"PR":12603,"TB":12604,"Ther":12605,"VI":12606,"VR":12607,"Vlie":12608,"Vug":12609,"Vinge":12610,"Vrouw":12611,"Wijk":12612,"Wiers":12613,"Zoek":12614,"Zoom":12615,"bik":12616,"berse":12617,"butie":12618,"call":12619,"case":12620,"canc":12621,"dd":12622,"das":12623,"dog":12624,"doop":12625,"gaar":12626,"iak":12627,"kiv":12628,"koorts":12629,"list":12630,"mingen":12631,"nal":12632,"ozen":12633,"peren":12634,"pir":12635,"pare":12636,"phen":12637,"ratief":12638,"sis":12639,"saai":12640,"sollic":12641,"tin":12642,"tante":12643,"tps":12644,"ucteur":12645,"vic":12646,"woud":12647,"yts":12648,"zy":12649,"zan":12650,"zeren":12651,"zooit":12652,"’?":12653,"erzijds":12654,"anker":12655,"dekt":12656,"decor":12657,"innemen":12658,"ingeschreven":12659,"stalen":12660,"ieft":12661,"ieert":12662,"chel":12663,"chain":12664,"geacht":12665,"gekleur":12666,"gefilmd":12667,"onweer":12668,"ongeschikt":12669,"ontevreden":12670,"aler":12671,"aliter":12672,"issie":12673,"verwaar":12674,"verblijft":12675,"verspil":12676,"itas":12677,"opzetten":12678,"opgetrokken":12679,"oplopende":12680,"genood":12681,"derby":12682,"omslag":12683,"omgezet":12684,"orter":12685,"oriteit":12686,"rekt":12687,"aanwinst":12688,"aangevuld":12689,"beet":12690,"bedrie":12691,"beck":12692,"bemacht":12693,"bedanken":12694,"heide":12695,"wei":12696,"arisch":12697,"voorval":12698,"voordel":12699,"voorzet":12700,"vooravond":12701,"voordeur":12702,"voorgangers":12703,"kenner":12704,"urk":12705,"urig":12706,"olten":12707,"oute":12708,"meg":12709,"uitgegeven":12710,"uitrust":12711,"uitvaart":12712,"uitspreken":12713,"uitbreken":12714,"schalen":12715,"schreden":12716,"schijt":12717,"ikel":12718,"tenham":12719,"tox":12720,"wert":12721,"werper":12722,"overgrote":12723,"overleggen":12724,"ondergang":12725,"afgel":12726,"zov":12727,"adu":12728,"adic":12729,"doorsnee":12730,"sloegen":12731,"slogan":12732,"nez":12733,"volution":12734,"gret":12735,"landgenoten":12736,"ulieren":12737,"prote":12738,"pla":12739,"plas":12740,"plos":12741,"navig":12742,"kundig":12743,"blikken":12744,"bladen":12745,"Inwoners":12746,"ontstonden":12747,"ontwerpen":12748,"ontsnappen":12749,"kert":12750,"kerel":12751,"vos":12752,"voerd":12753,"gerelat":12754,"Almere":12755,"Alonso":12756,"beroepen":12757,"kliek":12758,"klinken":12759,"minium":12760,"tegenhouden":12761,"otische":12762,"tijdstip":12763,"delings":12764,"brou":12765,"brio":12766,"duiden":12767,"belen":12768,"emd":12769,"emiss":12770,"digden":12771,"diging":12772,"toegelaten":12773,"hoogt":12774,"zetting":12775,"stront":12776,"echtgenote":12777,"uth":12778,"uts":12779,"koer":12780,"jesdag":12781,"sno":12782,"snet":12783,"langst":12784,"Ergens":12785,"nodigen":12786,"derend":12787,"klep":12788,"kleden":12789,"Opel":12790,"achteraan":12791,"achtergelaten":12792,"Oekraïens":12793,"heropening":12794,"snelwegen":12795,"correctie":12796,"eventjes":12797,"getal":12798,"supp":12799,"standpunten":12800,"Voormalig":12801,"Jeugd":12802,"losl":12803,"krimp":12804,"Annem":12805,"grado":12806,"geschil":12807,"kijkje":12808,"gebruiks":12809,"Vermoe":12810,"beschreven":12811,"Market":12812,"intjes":12813,"intelle":12814,"handtekening":12815,"vage":12816,"oogst":12817,"verkopers":12818,"roeien":12819,"aangespannen":12820,"belemmer":12821,"Schreu":12822,"Belgrado":12823,"buds":12824,"spellen":12825,"puteerde":12826,"bekendheid":12827,"Hoef":12828,"breiden":12829,"ouds":12830,"cky":12831,"pakje":12832,"meldden":12833,"prijsstijgingen":12834,"filters":12835,"grondig":12836,"grondwater":12837,"wettelijk":12838,"knel":12839,"knallen":12840,"recte":12841,"gemeentehuis":12842,"Amstel":12843,"gereed":12844,"thuisploeg":12845,"trip":12846,"lines":12847,"woonden":12848,"woonkamer":12849,"nissen":12850,"panden":12851,"zondagochtend":12852,"wijsheid":12853,"hold":12854,"Moer":12855,"125":12856,"stopgezet":12857,"starters":12858,"schulp":12859,"2004":12860,"rijks":12861,"rijkste":12862,"ffers":12863,"nieuwsgier":12864,"technieken":12865,"bezighouden":12866,"Benz":12867,"zomervakantie":12868,"dreigde":12869,"arissen":12870,"raadsleden":12871,"coronabesmettingen":12872,"caravan":12873,"feestdag":12874,"successen":12875,"vakanties":12876,"bakje":12877,"keurde":12878,"hartje":12879,"kazer":12880,"stille":12881,"contrast":12882,"klassieker":12883,"sluitingen":12884,"party":12885,"honderdduizenden":12886,"medicatie":12887,"webwinkel":12888,"webshop":12889,"sprook":12890,"Tottenham":12891,"hyg":12892,"hype":12893,"middenveld":12894,"sfase":12895,"regent":12896,"regenen":12897,"Mannen":12898,"Brussels":12899,"slimmer":12900,"negentiende":12901,"Rotterdammers":12902,"kunstwerk":12903,"vermiste":12904,"gesele":12905,"gesneden":12906,"burgerlijke":12907,"alth":12908,"Olymp":12909,"kruid":12910,"Games":12911,"Kei":12912,"Liban":12913,"wolk":12914,"campus":12915,"hoekje":12916,"horror":12917,"https":12918,"praktische":12919,"Quick":12920,"Ruben":12921,"psycholoog":12922,"psychiat":12923,"overtuiging":12924,"reageerden":12925,"facturen":12926,"steentje":12927,"concurreren":12928,"concurrenten":12929,"Unilever":12930,"1991":12931,"1998":12932,"Emir":12933,"Organ":12934,"padden":12935,"federaal":12936,"voorspelbaar":12937,"voorspellingen":12938,"Stadion":12939,"Staatssecretaris":12940,"rotzooi":12941,"Oostende":12942,"cruise":12943,"tweetal":12944,"verslaving":12945,"bollen":12946,"Medve":12947,"verzets":12948,"compliment":12949,"Tsja":12950,"tankstation":12951,"stabiele":12952,"affia":12953,"cancel":12954,"goedkoopste":12955,"publiceerde":12956,"nauwkeurig":12957,"versterking":12958,"vernietigd":12959,"Truss":12960,"Scien":12961,"Scandin":12962,"Landelijke":12963,"herinnert":12964,"categorieën":12965,"expertise":12966,"screen":12967,"bediening":12968,"Marktplaats":12969,"satellieten":12970,"daags":12971,"aanklacht":12972,"aanklager":12973,"stroming":12974,"bijkomende":12975,"Democratie":12976,"personeelstekorten":12977,"tournee":12978,"overtredingen":12979,"Justin":12980,"aantrekkelijker":12981,"HomePod":12982,"biodiversiteit":12983,"frequent":12984,"innovatie":12985,"Andrew":12986,"download":12987,"nagel":12988,"inlichtingendiensten":12989,"Friesland":12990,"ongenoegen":12991,"registratie":12992,"minimumloon":12993,"voorspelt":12994,"Bluetooth":12995,"operationeel":12996,"radicaal":12997,"informeren":12998,"overleefd":12999,"overleefde":13000,"sympathie":13001,"Beerschot":13002,"terugtrekken":13003,"position":13004,"Kramer":13005,"inhoudelijk":13006,"dochters":13007,"faciliteren":13008,"cabaret":13009,"schimmel":13010,"glimlach":13011,"flexibel":13012,"toetsenbord":13013,"Suzanne":13014,"Taylor":13015,"nadrukkelijk":13016,"Schumacher":13017,"aanvullende":13018,"vergissing":13019,"University":13020,"Golden":13021,"attractie":13022,"Buurt":13023,"aanbevelingen":13024,"idioot":13025,"overwogen":13026,"speech":13027,"chocolade":13028,"fietspad":13029,"hypocriet":13030,"Frits":13031,"uitnodiging":13032,"schaarste":13033,"Belangrijk":13034,"mijlpaal":13035,"delegatie":13036,"ordening":13037,"meteor":13038,"Máx":13039,"christelijke":13040,"indirect":13041,"gevormd":13042,"aangeklaagd":13043,"Arsenal":13044,"occasion":13045,"://":13046,"Bleeker":13047,"Vingegaard":13048,"zooitje":13049,"genoodzaakt":13050,"intellect":13051,"Schreuder":13052,"+-":13053,"92":13054,"Av":13055,"Adr":13056,"Camil":13057,"DW":13058,"Dol":13059,"Dou":13060,"Dil":13061,"Dri":13062,"DNB":13063,"FO":13064,"Fun":13065,"Fab":13066,"Gran":13067,"Gene":13068,"Goede":13069,"HT":13070,"Hom":13071,"Hind":13072,"Hard":13073,"Hay":13074,"Hass":13075,"Istan":13076,"Joop":13077,"Jens":13078,"Ket":13079,"Kia":13080,"Leer":13081,"Lach":13082,"Mb":13083,"Mig":13084,"Mick":13085,"Mold":13086,"Odes":13087,"Pre":13088,"Pater":13089,"Rap":13090,"Rest":13091,"Rein":13092,"SS":13093,"Sem":13094,"Sitt":13095,"Siri":13096,"Ta":13097,"Vet":13098,"Vak":13099,"Vikt":13100,"Vene":13101,"Wonen":13102,"Woning":13103,"Yes":13104,"Young":13105,"Zw":13106,"Zut":13107,"Zapor":13108,"azijn":13109,"bieke":13110,"cen":13111,"card":13112,"dolf":13113,"darm":13114,"ev":13115,"fak":13116,"food":13117,"face":13118,"haakt":13119,"hoff":13120,"hullen":13121,"hamer":13122,"jor":13123,"jun":13124,"kne":13125,"lak":13126,"mont":13127,"nop":13128,"nisch":13129,"nale":13130,"ngo":13131,"ova":13132,"py":13133,"piz":13134,"sin":13135,"sho":13136,"smak":13137,"tat":13138,"uderen":13139,"vs":13140,"veerd":13141,"vaard":13142,"vlek":13143,"wh":13144,"ywood":13145,"zolder":13146,"ál":13147,"endam":13148,"ances":13149,"ancy":13150,"indoor":13151,"inslag":13152,"inchem":13153,"ingevuld":13154,"stoe":13155,"stisch":13156,"staakt":13157,"atiet":13158,"gekr":13159,"geoper":13160,"geweig":13161,"gefinanc":13162,"gemotiv":13163,"geduw":13164,"gecompen":13165,"ongel":13166,"oneel":13167,"ongemak":13168,"onvrede":13169,"vandoor":13170,"vannacht":13171,"verval":13172,"verstaan":13173,"verdelen":13174,"verklein":13175,"verzoeken":13176,"verkregen":13177,"verwerking":13178,"verstuur":13179,"verbergen":13180,"oprit":13181,"opgelu":13182,"denker":13183,"omgekeerd":13184,"oriën":13185,"realis":13186,"aanget":13187,"aangesch":13188,"aantrekken":13189,"aangelegd":13190,"aanschaf":13191,"oeken":13192,"bezoeker":13193,"beheren":13194,"heuse":13195,"weide":13196,"arriv":13197,"voorschot":13198,"ingele":13199,"zem":13200,"zeden":13201,"zeges":13202,"oler":13203,"medio":13204,"igings":13205,"dieet":13206,"uitje":13207,"uitgest":13208,"uitwedstrijd":13209,"uitgekomen":13210,"uitgerust":13211,"uitschakeling":13212,"schaap":13213,"schetst":13214,"unnel":13215,"ogram":13216,"menteren":13217,"menstru":13218,"steert":13219,"overbo":13220,"overweg":13221,"overdracht":13222,"gelul":13223,"aman":13224,"veget":13225,"onderstaande":13226,"ruilen":13227,"afgeb":13228,"waarover":13229,"waardeloze":13230,"slaapt":13231,"neven":13232,"neger":13233,"uurs":13234,"provis":13235,"dagje":13236,"jaarwisseling":13237,"ontsnap":13238,"meemaken":13239,"zenders":13240,"beton":13241,"beroofd":13242,"aagse":13243,"wijzigen":13244,"duister":13245,"beloven":13246,"beloning":13247,"belachelijk":13248,"toevoeg":13249,"goedkeuring":13250,"hoeve":13251,"kwetsen":13252,"gewonde":13253,"cial":13254,"actuele":13255,"Week":13256,"paras":13257,"wegdek":13258,"koets":13259,"snoep":13260,"gevaren":13261,"eigenschappen":13262,"range":13263,"eurs":13264,"midt":13265,"urens":13266,"alleenstaande":13267,"ipper":13268,"achternaam":13269,"geleidelijk":13270,"herhaalde":13271,"lans":13272,"Sta":13273,"teruggekeerd":13274,"kelde":13275,"offeren":13276,"rongen":13277,"zijl":13278,"iva":13279,"hobbel":13280,"kraak":13281,"binnenkomen":13282,"bestanden":13283,"Volendam":13284,"ielijst":13285,"Leef":13286,"Leeuwen":13287,"marine":13288,"jarenlange":13289,"Vermeer":13290,"1945":13291,"spectie":13292,"Mario":13293,"rondlopen":13294,"handicap":13295,"halt":13296,"vaders":13297,"iemands":13298,"verkond":13299,"verkoper":13300,"arib":13301,"ulting":13302,"Scher":13303,"aardbeving":13304,"Beiden":13305,"Bezoekers":13306,"handelingen":13307,"haha":13308,"energiekosten":13309,"duurdere":13310,"somber":13311,"visies":13312,"desondanks":13313,"appy":13314,"appé":13315,"volley":13316,"duidelijker":13317,"ques":13318,"Arne":13319,"recy":13320,"zinloos":13321,"motto":13322,"Teun":13323,"airco":13324,"makelaar":13325,"besteding":13326,"Offic":13327,"obje":13328,"seizoens":13329,"troon":13330,"troost":13331,"authent":13332,"Josep":13333,"biom":13334,"Els":13335,"sson":13336,"presidentsverkiezingen":13337,"nachtmer":13338,"buurten":13339,"plekke":13340,"zwaardere":13341,"forc":13342,"hias":13343,"2003":13344,"gewelds":13345,"check":13346,"kappen":13347,"Meijer":13348,"machtig":13349,"machtige":13350,"veroordelen":13351,"redding":13352,"ontwikkelt":13353,"wangedrag":13354,"bondgenoten":13355,"140":13356,"ongekende":13357,"Meneer":13358,"Stef":13359,"asielzoeker":13360,"borsten":13361,"renteverhogingen":13362,"klassen":13363,"Italiaan":13364,"coaches":13365,"Commun":13366,"genereren":13367,"smuseum":13368,"ificeerd":13369,"statistieken":13370,"makkelijke":13371,"garije":13372,"personenauto":13373,"burgeroorlog":13374,"collectieve":13375,"ixel":13376,"botste":13377,"verwijten":13378,"Merkel":13379,"brok":13380,"broertje":13381,"eeuwig":13382,"schilderen":13383,"subt":13384,"Exper":13385,"ouderwets":13386,"geïnfor":13387,"vermoedt":13388,"élf":13389,"Finse":13390,"Borger":13391,"psychologische":13392,"schoonmaak":13393,"Column":13394,"aftrek":13395,"verbruiken":13396,"bedoelen":13397,"typen":13398,"Milaan":13399,"wielrennen":13400,"opdrachtgever":13401,"debatten":13402,"signific":13403,"vrijwilliger":13404,"extreemrechtse":13405,"1995":13406,"spannende":13407,"parkeerplaats":13408,"bezorgers":13409,"Noorder":13410,"overeenstemming":13411,"coalitiepartijen":13412,"praatje":13413,"Christus":13414,"Johannes":13415,"IJssel":13416,"Nobel":13417,"felle":13418,"wenselijk":13419,"retor":13420,"invaller":13421,"beseft":13422,"Peru":13423,"semi":13424,"interesseert":13425,"koppeling":13426,"ateurs":13427,"kubieke":13428,"hypotheekrente":13429,"georganiseerde":13430,"keiharde":13431,"douane":13432,"peilingen":13433,"zogenaamd":13434,"neutr":13435,"AZC":13436,"consult":13437,"inspecteur":13438,"grafiek":13439,"medailles":13440,"screens":13441,"drankje":13442,"Weerwind":13443,"mannelijke":13444,"religieuze":13445,"Economie":13446,"conditie":13447,"essentieel":13448,"taboe":13449,"veroveren":13450,"diploma":13451,"Romeo":13452,"Gorinchem":13453,"aanwijzing":13454,"constante":13455,"monumenten":13456,"concludeert":13457,"Silva":13458,"Catal":13459,"zeldzame":13460,"coronapatiënten":13461,"stierven":13462,"springt":13463,"wekelijks":13464,"Swift":13465,"Friese":13466,"begrafenis":13467,"verhuisde":13468,"coronatest":13469,"coronatijd":13470,"concentratie":13471,"exclusieve":13472,"MEGEN":13473,"Autoriteit":13474,"gorit":13475,"bejaarde":13476,"constateert":13477,"afbeeldingen":13478,"verbouwing":13479,"Hyunda":13480,"spersoon":13481,"individuen":13482,"Safari":13483,"Film":13484,"Arib":13485,"BTW":13486,"aspecten":13487,"verduurzamen":13488,"uitgaans":13489,"acute":13490,"Eindelijk":13491,"Liever":13492,"gitaar":13493,"licentie":13494,"noordelijke":13495,"geopolitieke":13496,"recreatie":13497,"aanbieders":13498,"architectuur":13499,"uniform":13500,"moeizaam":13501,"bewakings":13502,"Gündogan":13503,"eenzijdig":13504,"professionals":13505,"geblesseerd":13506,"Draghi":13507,"aluminium":13508,"confrontatie":13509,"tablet":13510,"verblijfsvergunning":13511,"beleefde":13512,"veroorzaakte":13513,"gegarandeerd":13514,"jaloers":13515,"precieze":13516,"toonaangevende":13517,"Plots":13518,"Ernst":13519,"gecreëerd":13520,"Gillis":13521,"NIJMEGEN":13522,"Vught":13523,"bersecurity":13524,"supporter":13525,"Máxima":13526,"Mbappé":13527,"Sittard":13528,"Viktor":13529,"Zutphen":13530,"geopereerd":13531,"geweigerd":13532,"gefinancierd":13533,"geduwd":13534,"!'":13535,"%,":13536,"(+":13537,"81":13538,"Ahead":13539,"Baar":13540,"Bog":13541,"Bier":13542,"Bir":13543,"CB":13544,"Cit":13545,"Doen":13546,"Divisie":13547,"EB":13548,"FF":13549,"Gide":13550,"Grace":13551,"HD":13552,"Haan":13553,"Hak":13554,"Jol":13555,"Jak":13556,"Juni":13557,"Landen":13558,"Nab":13559,"NBA":13560,"Och":13561,"Pi":13562,"Pic":13563,"Pac":13564,"Pir":13565,"Ris":13566,"Rover":13567,"Ray":13568,"Sin":13569,"Sie":13570,"Spr":13571,"Songfestival":13572,"Tiel":13573,"Tade":13574,"That":13575,"UGent":13576,"Vij":13577,"Vander":13578,"Vran":13579,"Vogel":13580,"Welk":13581,"Zullen":13582,"Zanger":13583,"balen":13584,"borg":13585,"boren":13586,"dley":13587,"dát":13588,"eut":13589,"fis":13590,"gam":13591,"göz":13592,"houw":13593,"home":13594,"kro":13595,"kul":13596,"kick":13597,"krab":13598,"lelijke":13599,"mad":13600,"ns":13601,"piet":13602,"riem":13603,"ritu":13604,"side":13605,"sets":13606,"soever":13607,"tt":13608,"tum":13609,"ulen":13610,"vlekken":13611,"wond":13612,"wraak":13613,"yo":13614,"zn":13615,"zélf":13616,"ón":13617,"ül":13618,"erwijs":13619,"anal":13620,"anken":13621,"deals":13622,"defe":13623,"iners":13624,"inschrijven":13625,"eler":13626,"stoep":13627,"ieerde":13628,"chal":13629,"geert":13630,"gewassen":13631,"gewild":13632,"geblazen":13633,"gedrongen":13634,"gegrepen":13635,"onwel":13636,"oneens":13637,"oneind":13638,"vandaar":13639,"issu":13640,"tegre":13641,"verze":13642,"verlaat":13643,"vergeven":13644,"verplaats":13645,"verzon":13646,"verni":13647,"vervang":13648,"vervolging":13649,"verhoogt":13650,"opgave":13651,"genoegen":13652,"omgaat":13653,"rept":13654,"reerde":13655,"republiek":13656,"aantonen":13657,"oef":13658,"legen":13659,"lema":13660,"bewer":13661,"beman":13662,"bewerk":13663,"bevallen":13664,"bezuin":13665,"bespreekbaar":13666,"hed":13667,"voorzorg":13668,"voormiddag":13669,"ijnzen":13670,"ingre":13671,"zeik":13672,"zema":13673,"ilanden":13674,"niettemin":13675,"uitverkocht":13676,"uitbrak":13677,"ika":13678,"andro":13679,"rov":13680,"aatje":13681,"asen":13682,"tenen":13683,"security":13684,"spek":13685,"amine":13686,"territor":13687,"ondermijn":13688,"moji":13689,"afko":13690,"afget":13691,"affen":13692,"afgebroken":13693,"apothe":13694,"aplay":13695,"slan":13696,"neiging":13697,"kommer":13698,"achtert":13699,"ulde":13700,"docenten":13701,"immigranten":13702,"meert":13703,"plassen":13704,"hebbende":13705,"blussen":13706,"blieft":13707,"ontvlucht":13708,"voelden":13709,"voice":13710,"veelvuldig":13711,"total":13712,"geruime":13713,"betog":13714,"manuel":13715,"houwer":13716,"ites":13717,"tijdschrift":13718,"tijdperk":13719,"ducten":13720,"bode":13721,"gemiste":13722,"lux":13723,"lucr":13724,"toestaan":13725,"toezeg":13726,"acia":13727,"werkvloer":13728,"ortiment":13729,"diën":13730,"hoede":13731,"hoesten":13732,"Eenmaal":13733,"huisdieren":13734,"gros":13735,"echtpaar":13736,"cide":13737,"actoren":13738,"exec":13739,"parall":13740,"parade":13741,"weggelegd":13742,"snor":13743,"snoei":13744,"gevlucht":13745,"uki":13746,"gedicht":13747,"iël":13748,"winden":13749,"begreep":13750,"avonden":13751,"kshop":13752,"herzien":13753,"herdenk":13754,"Stik":13755,"Start":13756,"terugkomen":13757,"Vooraf":13758,"coins":13759,"host":13760,"Zoveel":13761,"wereldranglijst":13762,"gravel":13763,"gemeenschappen":13764,"geschrokken":13765,"interventie":13766,"Leger":13767,"fly":13768,"Verhe":13769,"1990":13770,"logistieke":13771,"passe":13772,"stadions":13773,"strijders":13774,"konv":13775,"gezind":13776,"server":13777,"servers":13778,"Bruno":13779,"oomberg":13780,"Franç":13781,"verschilt":13782,"Schulting":13783,"ademen":13784,"vastleggen":13785,"posten":13786,"point":13787,"Nazi":13788,"America":13789,"Beveren":13790,"Bedankt":13791,"strijdkrachten":13792,"riool":13793,"lichting":13794,"lichtjes":13795,"Hein":13796,"hedendaagse":13797,"aasje":13798,"energiebedrijven":13799,"sommen":13800,"gaskraan":13801,"Vlis":13802,"Vlaming":13803,"groepsfase":13804,"grondstof":13805,"warmer":13806,"gereisd":13807,"risic":13808,"scène":13809,"geslaagde":13810,"bewapen":13811,"bewoond":13812,"object":13813,"obstak":13814,"outs":13815,"rell":13816,"traag":13817,"puntjes":13818,"conomie":13819,"pany":13820,"pannen":13821,"Elf":13822,"geluks":13823,"kampte":13824,"Overijssel":13825,"hulpverlening":13826,"hulpverleners":13827,"klimmen":13828,"dinsdagmiddag":13829,"Rodr":13830,"kapitein":13831,"poppen":13832,"Aanvankelijk":13833,"disc":13834,"patronen":13835,"goden":13836,"arisatie":13837,"halfuur":13838,"noodgedwongen":13839,"solo":13840,"stroomt":13841,"borstel":13842,"hartstikke":13843,"stoer":13844,"stocht":13845,"kondigt":13846,"belastingbetal":13847,"vroegtijdig":13848,"huurwoningen":13849,"effectieve":13850,"Geenstijl":13851,"mondmasker":13852,"opvanglocaties":13853,"Totdat":13854,"maxima":13855,"bands":13856,"Zelfde":13857,"vriendschap":13858,"Zuidoost":13859,"bespaart":13860,"passend":13861,"beleggings":13862,"leidende":13863,"Bloomberg":13864,"vroegere":13865,"ingegrepen":13866,"kaartjes":13867,"daklozen":13868,"geïntegre":13869,"vermoedelijke":13870,"promoten":13871,"Helder":13872,"intensi":13873,"racist":13874,"racistische":13875,"combineren":13876,"zwakte":13877,"verzameling":13878,"Vrije":13879,"Putten":13880,"Emmanuel":13881,"Orde":13882,"bitter":13883,"Kroon":13884,"mission":13885,"notte":13886,"Kunst":13887,"Karel":13888,"conflicten":13889,"onderhandeling":13890,"varken":13891,"kruispunt":13892,"potentie":13893,"verschillend":13894,"Clau":13895,"weigert":13896,"explosies":13897,"rivieren":13898,"aanvaard":13899,"coronavaccin":13900,"Israel":13901,"luchthavens":13902,"Fransman":13903,"Julia":13904,"Rossem":13905,"beschermt":13906,"hatch":13907,"stabil":13908,"geestelijke":13909,"ieteam":13910,"enthousia":13911,"geconstat":13912,"Bruyne":13913,"fractievoorzitter":13914,"Salman":13915,"terroristische":13916,"continue":13917,"beoordelen":13918,"zuidoosten":13919,"duceerd":13920,"bisschop":13921,"corrupte":13922,"Federer":13923,"Syrische":13924,"conducteur":13925,"efficiënt":13926,"Simons":13927,"overtuigend":13928,"knieën":13929,"instrumenten":13930,"muts":13931,"dosis":13932,"Zandschulp":13933,"concludeerde":13934,"Foto":13935,"commando":13936,"reaguurder":13937,"verstrekt":13938,"ontploff":13939,"auteurs":13940,"Veluwe":13941,"ystemen":13942,"coronapas":13943,"downloaden":13944,"Lukaku":13945,"hoogstwaarschijnlijk":13946,"oplichting":13947,"Sarah":13948,"ATP":13949,"diplomatieke":13950,"intelligentie":13951,"verschrikkelijke":13952,"elektronische":13953,"elektronica":13954,"Ridouan":13955,"urgentie":13956,"Bulgarije":13957,"sympath":13958,"vervoerd":13959,"Palestijnse":13960,"streamingdienst":13961,"opsporing":13962,"opsporings":13963,"autonome":13964,"omikronvariant":13965,"annexatie":13966,"Francisco":13967,"verpakking":13968,"levenslang":13969,"Hendrik":13970,"hackers":13971,"tomaten":13972,"wortels":13973,"herkenbaar":13974,"Awards":13975,"Bunde":13976,"toedracht":13977,"peperdure":13978,"edities":13979,"obligatie":13980,"Weesp":13981,"Ryanair":13982,"stricties":13983,"Colombia":13984,"MH17":13985,"Roland":13986,"Graafschap":13987,"degradatie":13988,"chirurg":13989,"verkochte":13990,"gemengde":13991,"laboratorium":13992,"schomm":13993,"epidemie":13994,"Avonds":13995,"NMBS":13996,"flank":13997,"lawaai":13998,"telefonisch":13999,"Deutsche":14000,"weefsel":14001,"topscorer":14002,"discussies":14003,"Video":14004,"naïef":14005,"verschuiving":14006,"Martinez":14007,"Jambon":14008,"Vietnam":14009,"gecombineerd":14010,"Alpecin":14011,"Agentschap":14012,"aangename":14013,"illustr":14014,"gereserv":14015,"Herentals":14016,"pareerd":14017,"uitrusting":14018,"loslaten":14019,"Vermoedelijk":14020,"Medvedev":14021,"Odessa":14022,"gecompenseerd":14023,"opgelucht":14024,"geïnformeerd":14025,"Hyundai":14026,"Gideon":14027,"euthan":14028,"bezuinigen":14029,"achtertuin":14030,"enthousiaste":14031,"02":14032,"05":14033,"110":14034,"230":14035,"3D":14036,"Adam":14037,"Azov":14038,"BP":14039,"Bis":14040,"Baren":14041,"CR":14042,"Cra":14043,"CNN":14044,"Carib":14045,"Dur":14046,"Dert":14047,"Dia":14048,"Eag":14049,"Gaan":14050,"Gek":14051,"Glas":14052,"Glor":14053,"Hill":14054,"Ierse":14055,"Job":14056,"KU":14057,"Kris":14058,"Kaster":14059,"LE":14060,"Lav":14061,"Lamp":14062,"Lille":14063,"Lars":14064,"Mij":14065,"Mie":14066,"Moe":14067,"Mun":14068,"Mast":14069,"Melk":14070,"Mult":14071,"Nie":14072,"Noem":14073,"Niger":14074,"Oper":14075,"Oeg":14076,"OPEC":14077,"P2":14078,"Pil":14079,"Peu":14080,"Ri":14081,"Rie":14082,"Roma":14083,"Sou":14084,"Sab":14085,"Show":14086,"Simpel":14087,"Tab":14088,"Vil":14089,"Verg":14090,"WW":14091,"Winter":14092,"Wierd":14093,"WTA":14094,"Zaan":14095,"bug":14096,"bieder":14097,"cteert":14098,"camper":14099,"dook":14100,"eit":14101,"eum":14102,"fop":14103,"fjes":14104,"fix":14105,"free":14106,"gate":14107,"haanse":14108,"hack":14109,"izon":14110,"idatie":14111,"kuil":14112,"ligen":14113,"naakt":14114,"oa":14115,"oï":14116,"oceaan":14117,"pi":14118,"pse":14119,"ruiten":14120,"roost":14121,"russ":14122,"sw":14123,"sab":14124,"sverhoging":14125,"takken":14126,"uzen":14127,"vlu":14128,"vits":14129,"what":14130,"xide":14131,"zussen":14132,"zweet":14133,"échte":14134,"óch":14135,"erfenis":14136,"anium":14137,"ded":14138,"dekken":14139,"depressie":14140,"ett":14141,"inhaal":14142,"inrichting":14143,"inzichten":14144,"ijtig":14145,"aaier":14146,"storen":14147,"stitel":14148,"oomen":14149,"gekun":14150,"geot":14151,"gekken":14152,"geprom":14153,"gedeelde":14154,"gedrang":14155,"eenmalig":14156,"eenzaamheid":14157,"algorit":14158,"isers":14159,"isering":14160,"oorsprong":14161,"verbij":14162,"verwarm":14163,"verwoe":14164,"verdoven":14165,"verhuizing":14166,"ition":14167,"opstaan":14168,"opvalt":14169,"opstelling":14170,"oprichting":14171,"genot":14172,"genaaid":14173,"dente":14174,"omzetten":14175,"omgang":14176,"omschreven":14177,"omzeilen":14178,"reële":14179,"aangaan":14180,"aangedaan":14181,"aangericht":14182,"aangenaam":14183,"aangereden":14184,"aangetrokken":14185,"aannem":14186,"aangetoond":14187,"aangedreven":14188,"legend":14189,
[...]
