{"version":"1.0","truncation":null,"padding":null,"added_tokens":[{"id":0,"special":true,"content":"<UNK>","single_word":false,"lstrip":false,"rstrip":false,"normalized":false},{"id":1,"special":true,"content":"<SEP>","single_word":false,"lstrip":false,"rstrip":false,"normalized":false},{"id":2,"special":true,"content":"<MASK>","single_word":false,"lstrip":false,"rstrip":false,"normalized":false},{"id":3,"special":true,"content":"<CLS>","single_word":false,"lstrip":false,"rstrip":false,"normalized":false}],"normalizer":null,"pre_tokenizer":{"type":"Whitespace"},"post_processor":null,"decoder":null,"model":{"type":"BPE","dropout":null,"unk_token":"<UNK>","continuing_subword_prefix":null,"end_of_word_suffix":null,"fuse_unk":false,"vocab":{"<UNK>":0,"<SEP>":1,"<MASK>":2,"<CLS>":3,"!":4,"\"":5,"$":6,"%":7,"&":8,"'":9,"(":10,")":11,"*":12,"+":13,",":14,"-":15,".":16,"/":17,"0":18,"1":19,"2":20,"3":21,"4":22,"5":23,"6":24,"7":25,"8":26,"9":27,":":28,";":29,"<":30,">":31,"?":32,"A":33,"B":34,"C":35,"D":36,"E":37,"F":38,"G":39,"H":40,"I":41,"J":42,"K":43,"L":44,"M":45,"N":46,"O":47,"P":48,"Q":49,"R":50,"S":51,"T":52,"U":53,"V":54,"W":55,"X":56,"Y":57,"Z":58,"`":59,"a":60,"b":61,"c":62,"d":63,"e":64,"f":65,"g":66,"h":67,"i":68,"j":69,"k":70,"l":71,"m":72,"n":73,"o":74,"p":75,"q":76,"r":77,"s":78,"t":79,"u":80,"v":81,"w":82,"x":83,"y":84,"z":85,"~":86,"£":87,"¤":88,"¦":89,"¨":90,"«":91,"¬":92,"®":93,"°":94,"±":95,"²":96,"³":97,"´":98,"·":99,"º":100,"»":101,"Á":102,"Å":103,"Ç":104,"È":105,"É":106,"Ó":107,"Ö":108,"×":109,"Ø":110,"Ü":111,"ß":112,"à":113,"á":114,"â":115,"ã":116,"ä":117,"å":118,"æ":119,"ç":120,"è":121,"é":122,"ê":123,"ë":124,"ì":125,"í":126,"î":127,"ï":128,"ð":129,"ñ":130,"ò":131,"ó":132,"ô":133,"ö":134,"ø":135,"ù":136,"ú":137,"û":138,"ü":139,"ý":140,"ć":141,"č":142,"ě":143,"ğ":144,"Ġ":145,"ĳ":146,"ķ":147,"ł":148,"ń":149,"ō":150,"ş":151,"š":152,"Ÿ":153,"Ž":154,"ž":155,"˜":156,"́":157,"̈":158,"̶":159,"ν":160,"ο":161,"ς":162,"υ":163,"Ў":164,"Р":165,"ю":166,"ђ":167,"–":168,"—":169,"‘":170,"’":171,"‚":172,"“":173,"”":174,"„":175,"†":176,"‡":177,"•":178,"…":179,"‰":180,"′":181,"‹":182,"₂":183,"€":184,"℃":185,"™":186,"⇧":187,"−":188,"≈":189,"⌘":190,"├":191,"▶":192,"★":193,"☆":194,"期":195,"静":196,"默":197,"":198,"﻿":199,"en":200,"er":201,"an":202,"de":203,"et":204,"in":205,"ij":206,"aa":207,"el":208,"st":209,"oo":210,"ie":211,"at":212,"ch":213,"ge":214,"on":215,"aar":216,"een":217,"al":218,"van":219,"is":220,"te":221,"oor":222,"ver":223,"het":224,"it":225,"op":226,"gen":227,"der":228,"den":229,"om":230,"or":231,"re":232,"aan":233,"oe":234,"le":235,"be":236,"he":237,"dat":238,"we":239,"ar":240,"voor":241,"cht":242,"ijn":243,"ing":244,"ijk":245,"iet":246,"ze":247,"je":248,"ken":249,"ur":250,"ol":251,"ou":252,"me":253,"met":254,"ig":255,"ra":256,"il":257,"zijn":258,"niet":259,"die":260,"uit":261,"sch":262,"De":263,"ik":264,"and":265,"un":266,"ro":267,"aat":268,"as":269,"og":270,"us":271,"men":272,"ste":273,"id":274,"ers":275,"ten":276,"ven":277,"rij":278,"se":279,"to":280,"ag":281,"wer":282,"ft":283,"sp":284,"over":285,"ook":286,"bij":287,"gel":288,"eer":289,"als":290,"am":291,"sen":292,"wor":293,"ter":294,"ve":295,"ien":296,"maar":297,"onder":298,"ru":299,"aal":300,"mo":301,"len":302,"af":303,"lijk":304,"of":305,"zo":306,"wel":307,"nen":308,"dan":309,"ad":310,"Het":311,"ap":312,"ben":313,"nog":314,"kt":315,"heb":316,"waar":317,"door":318,"eft":319,"ct":320,"ier":321,"sl":322,"ne":323,"kom":324,"acht":325,"ond":326,"vol":327,"ele":328,"eld":329,"ingen":330,"gr":331,"uur":332,"naar":333,"land":334,"kan":335,"tij":336,"atie":337,"dt":338,"ul":339,"pro":340,"do":341,"heeft":342,"im":343,"meer":344,"pl":345,"ist":346,"elijk":347,"was":348,"eren":349,"wee":350,"ak":351,"na":352,"ige":353,"isch":354,"dag":355,"wat":356,"ander":357,"kun":358,"jaar":359,"ke":360,"hij":361,"moet":362,"pen":363,"hebben":364,"bl":365,"ic":366,"ent":367,"zi":368,"ang":369,"worden":370,"In":371,"ont":372,"daar":373,"ant":374,"ieu":375,"gt":376,"zel":377,"geb":378,"ker":379,"ind":380,"ma":381,"dit":382,"mee":383,"ouw":384,"20":385,"vo":386,"veel":387,"zen":388,"oed":389,"es":390,"au":391,"heid":392,"oon":393,"nu":394,"tot":395,"wordt":396,"ger":397,"bet":398,"vr":399,"Dat":400,"geen":401,"igen":402,"wil":403,"zelf":404,"Ik":405,"man":406,"open":407,"per":408,"hu":409,"Al":410,"ber":411,"kl":412,"val":413,"min":414,"ische":415,"hou":416,"aag":417,"ok":418,"nieu":419,"wij":420,"tegen":421,"zich":422,"00":423,"dr":424,"itie":425,"icht":426,"ite":427,"ot":428,"ast":429,"Ne":430,"tijd":431,"ek":432,"gaan":433,"del":434,"aak":435,"aren":436,"komen":437,"zou":438,"En":439,"alle":440,"kunnen":441,"br":442,"gens":443,"du":444,"oek":445,"bo":446,"weer":447,"gem":448,"art":449,"bel":450,"em":451,"deze":452,"dig":453,"mensen":454,"Maar":455,"lu":456,"had":457,"ale":458,"gaat":459,"hun":460,"ies":461,"ed":462,"toe":463,"aten":464,"ac":465,"werk":466,"all":467,"mer":468,"twee":469,"delijk":470,"sten":471,"Neder":472,"goed":473,"ort":474,"dus":475,"stel":476,"di":477,"os":478,"oen":479,"ster":480,"hoo":481,"hoe":482,"elen":483,"oot":484,"werd":485,"cent":486,"Een":487,"zien":488,"con":489,"zet":490,"str":491,"haar":492,"ion":493,"doen":494,".”":495,"kw":496,"huis":497,"gro":498,"Nederland":499,"Rus":500,"zit":501,"gew":502,"echt":503,"bed":504,"agen":505,"ci":506,"lie":507,"staat":508,"ut":509,"act":510,"We":511,"ex":512,"tre":513,"maal":514,"blij":515,"par":516,"ug":517,"eten":518,"han":519,"weg":520,"fe":521,"aakt":522,"innen":523,"ko":524,"jes":525,"andere":526,"pol":527,"sn":528,"deel":529,"moe":530,"moeten":531,"zoek":532,"gev":533,"eel":534,"pr":535,"mijn":536,"lang":537,"eg":538,"ir":539,"pt":540,"oord":541,"mil":542,"uk":543,"maken":544,"eigen":545,"Daar":546,"alen":547,"keer":548,"krij":549,"ple":550,"amen":551,"plaat":552,"ran":553,"org":554,"ged":555,"nieuwe":556,"tra":557,"recht":558,"iets":559,"won":560,"com":561,"pre":562,"ussen":563,"iek":564,"iden":565,"vin":566,"ble":567,"laat":568,"erg":569,"staan":570,"hier":571,"kken":572,"zal":573,"Er":574,"vrij":575,"iteit":576,"ië":577,"orm":578,"komt":579,"Als":580,"eens":581,"ine":582,"heel":583,"win":584,"mis":585,"beg":586,"dien":587,"ders":588,"ons":589,"toch":590,"pers":591,"ert":592,"ide":593,"oeg":594,"erd":595,"no":596,"av":597,"Ze":598,"ater":599,"nat":600,"ab":601,"net":602,"zegt":603,"eur":604,"eerste":605,"aam":606,"racht":607,"oren":608,"Oek":609,"houden":610,"schap":611,"ks":612,"Ook":613,"Oekra":614,"maan":615,"politie":616,"mid":617,"Van":618,"deren":619,"tal":620,"hele":621,"kle":622,"ia":623,"Hij":624,"um":625,"geven":626,"uren":627,"gebru":628,"baar":629,"ood":630,"tussen":631,"Op":632,"alleen":633,"vert":634,"kend":635,"onden":636,"ip":637,"leven":638,"hem":639,"achter":640,"Oekraï":641,"bedrij":642,"gele":643,"her":644,"uiten":645,"snel":646,"nieuw":647,"ard":648,"lan":649,"cor":650,"St":651,"terug":652,"ogelijk":653,"ouwen":654,"omen":655,"even":656,"cr":657,"kel":658,"”,":659,"sie":660,"ooit":661,"auto":662,"ment":663,"volgens":664,"aad":665,"Die":666,"procent":667,"ings":668,"grote":669,"milj":670,"ef":671,"off":672,"mogelijk":673,"groot":674,"omdat":675,"ron":676,"zij":677,"iv":678,"get":679,"Eur":680,"su":681,"stand":682,"wacht":683,"Voor":684,"Je":685,"lig":686,"hel":687,"co":688,"gelijk":689,"zeg":690,"groe":691,"én":692,"ho":693,"oop":694,"Zo":695,"zonder":696,"lo":697,"sel":698,"wereld":699,"versch":700,"euro":701,"beeld":702,"ctie":703,"gest":704,"kr":705,"io":706,"An":707,"binnen":708,"are":709,"best":710,"Vol":711,"iel":712,"dens":713,"altijd":714,"toen":715,"ce":716,"gra":717,"gemeen":718,"Europ":719,"Dit":720,"samen":721,"waren":722,"gesch":723,"minder":724,"gewoon":725,"kijk":726,"elk":727,"hoog":728,"inter":729,"Ch":730,"la":731,"ging":732,"Le":733,"leg":734,"laten":735,"mij":736,"prij":737,"onze":738,"zoals":739,"ank":740,"fl":741,"uw":742,"plaats":743,"eds":744,"ister":745,"weten":746,"lijkt":747,"mar":748,"geld":749,"202":750,"gebruik":751,"ren":752,"ijf":753,"week":754,"jaren":755,"chte":756,"regel":757,"spre":758,"Ver":759,"19":760,"log":761,"besch":762,"kelijk":763,"spe":764,"anders":765,".\"":766,"cont":767,"ieder":768,"willen":769,"haal":770,"iem":771,"pas":772,"lucht":773,"res":774,"vallen":775,"pun":776,"Mar":777,"int":778,"kin":779,"steeds":780,"ullen":781,"drie":782,"Wat":783,"bur":784,"jon":785,"stad":786,"oten":787,"krijgen":788,"Met":789,"vor":790,"volgen":791,"dui":792,"fen":793,"fin":794,"gelopen":795,"strij":796,"kant":797,"rond":798,"zeker":799,"da":800,"hand":801,"sle":802,"aanse":803,"delen":804,"pe":805,"beter":806,"kon":807,"want":808,"elt":809,"onderzoek":810,"dru":811,"gez":812,"so":813,"partij":814,"oort":815,"amer":816,"On":817,"kre":818,"hal":819,"beur":820,"jar":821,"ser":822,"sdag":823,"Oekraïne":824,"één":825,").":826,"va":827,"vier":828,"tijdens":829,"zie":830,"laatste":831,"proble":832,"mag":833,"Br":834,"natuur":835,"Rusland":836,"ruim":837,"vl":838,"ga":839,"aast":840,"amp":841,"tien":842,"belan":843,"werken":844,"ragen":845,"blijven":846,"vraag":847,"kwam":848,"stem":849,"eerd":850,"stra":851,"Russ":852,"iemand":853,"oog":854,"ool":855,"verk":856,"bal":857,"ari":858,"bedrijf":859,"Bij":860,"buiten":861,"besl":862,"est":863,"ui":864,"oom":865,"roe":866,"verder":867,"aange":868,"avond":869,"000":870,"inds":871,"zig":872,"verl":873,"ult":874,"fd":875,"weet":876,"miljoen":877,"li":878,"ens":879,"woor":880,"za":881,"nemen":882,"verb":883,"eerder":884,"mers":885,"Fran":886,"aantal":887,"vooral":888,"aties":889,"bele":890,"tje":891,"ust":892,"energ":893,"Volgens":894,"verschil":895,"Sch":896,"enk":897,"zw":898,"ade":899,"actie":900,"Bel":901,"jarige":902,"ann":903,"maat":904,"sy":905,"voorbeeld":906,"organ":907,"vast":908,"nodig":909,"grijk":910,"nam":911,"nooit":912,"chten":913,"gemaakt":914,"zorg":915,"veil":916,"stap":917,"bu":918,"po":919,"pel":920,"aard":921,"zitten":922,"Na":923,"alles":924,"spel":925,"10":926,"Amer":927,"pu":928,"orgen":929,"Russische":930,"belangrijk":931,"ding":932,"coron":933,"ai":934,"vinden":935,"oem":936,"maak":937,"afgelopen":938,"ink":939,"plan":940,"voer":941,"dam":942,"kop":943,"water":944,"ja":945,"woord":946,"komst":947,"Sp":948,"zelfs":949,"bekend":950,"elkaar":951,"Amerik":952,"Dan":953,"organis":954,"ler":955,"zeggen":956,"Be":957,"king":958,"strijd":959,"slag":960,"ooi":961,"zetten":962,"ri":963,"ces":964,"goe":965,"zullen":966,"verd":967,"doel":968,"maakt":969,"Hoe":970,"licht":971,"oorlog":972,"bre":973,"boven":974,"handel":975,"etje":976,"oud":977,"kinderen":978,"ha":979,"vers":980,"sche":981,"ck":982,"He":983,"minister":984,"helemaal":985,"werden":986,"produ":987,"los":988,"verwacht":989,"allemaal":990,"pak":991,"heden":992,"aas":993,"niets":994,"blijft":995,"middel":996,"Om":997,"erde":998,"mat":999,"\",":1000,"ere":1001,"doet":1002,"stij":1003,"isten":1004,"Po":1005,"reden":1006,"elijke":1007,"vrouw":1008,"energie":1009,"zicht":1010,"kijken":1011,"ina":1012,"brand":1013,"if":1014,"bru":1015,"bere":1016,"bas":1017,"mom":1018,"les":1019,"Europe":1020,"duur":1021,"som":1022,"Nederlandse":1023,"vaak":1024,"stellen":1025,"wit":1026,"stig":1027,"veilig":1028,"via":1029,"tweede":1030,"richt":1031,"opt":1032,"Duit":1033,"leid":1034,"voet":1035,"moment":1036,"age":1037,"dagen":1038,"lub":1039,"halen":1040,"naast":1041,"201":1042,"rol":1043,"els":1044,"ling":1045,"mp":1046,"form":1047,"sing":1048,"vis":1049,"gas":1050,"kort":1051,"ein":1052,"wed":1053,"stuk":1054,"zelfde":1055,"lever":1056,"bren":1057,"landen":1058,"reg":1059,"hoofd":1060,"wijl":1061,"des":1062,"Deze":1063,"oos":1064,"natuurlijk":1065,"col":1066,"werkt":1067,"ieren":1068,"meld":1069,"app":1070,"zon":1071,"top":1072,"volle":1073,"markt":1074,"bijvoorbeeld":1075,"ijna":1076,"zoe":1077,"tig":1078,"50":1079,"eind":1080,"prijs":1081,"Vl":1082,"hoor":1083,"iedereen":1084,"kunt":1085,"lopen":1086,"ieden":1087,"geval":1088,"sinds":1089,"rag":1090,"schien":1091,"duidelijk":1092,"din":1093,"fil":1094,"schrij":1095,"groep":1096,"pos":1097,"gebeur":1098,"aart":1099,"fo":1100,"iken":1101,"grond":1102,"hadden":1103,"elden":1104,"dere":1105,"lende":1106,"wet":1107,"mogen":1108,"vrien":1109,"geleden":1110,"gang":1111,"gevo":1112,"leden":1113,"speel":1114,"qu":1115,"war":1116,"goede":1117,"Bo":1118,"lij":1119,"bouw":1120,"later":1121,"kn":1122,"30":1123,"paar":1124,"Ar":1125,"inig":1126,"pp":1127,"rec":1128,"krijgt":1129,"person":1130,"slecht":1131,"gemeente":1132,"zin":1133,"vangen":1134,"kent":1135,"eerst":1136,"ident":1137,"stu":1138,"zouden":1139,"tu":1140,"ern":1141,"stof":1142,"club":1143,"hard":1144,"gezet":1145,"denk":1146,"mot":1147,"zei":1148,"bank":1149,"hen":1150,"si":1151,"Am":1152,"zaak":1153,"druk":1154,"aire":1155,"Te":1156,"maanden":1157,"Ge":1158,"ief":1159,"ach":1160,"vand":1161,"genomen":1162,"itu":1163,"vindt":1164,"nation":1165,".’":1166,"gere":1167,"ay":1168,"ziek":1169,"amil":1170,"Waar":1171,"draa":1172,"ket":1173,"bijna":1174,"ris":1175,"raak":1176,"stre":1177,"air":1178,"ju":1179,"kende":1180,"soort":1181,"ton":1182,"enkele":1183,"ner":1184,"volg":1185,"vijf":1186,"tem":1187,"hog":1188,"Belg":1189,"last":1190,"lijke":1191,"sc":1192,"burg":1193,"Nu":1194,"To":1195,"gesl":1196,"ass":1197,"dia":1198,"mak":1199,"wege":1200,"eter":1201,"ation":1202,"rokken":1203,"extra":1204,"bedrijven":1205,"beste":1206,"bare":1207,"pres":1208,"publ":1209,"positie":1210,"mede":1211,"steun":1212,"wie":1213,"denken":1214,"bew":1215,"thuis":1216,"gedaan":1217,"genoeg":1218,"hebt":1219,"Of":1220,"ni":1221,"aldus":1222,"ob":1223,"vlucht":1224,"out":1225,"rijden":1226,"acc":1227,"Amerikaanse":1228,"vind":1229,"zom":1230,"vanaf":1231,"zoen":1232,"dacht":1233,"ikt":1234,"schijn":1235,"rel":1236,"sei":1237,"cl":1238,"straat":1239,"tr":1240,"spra":1241,"fr":1242,"gezien":1243,"rest":1244,"ban":1245,"beetje":1246,"Wil":1247,"namelijk":1248,"euw":1249,"geeft":1250,"reken":1251,"weken":1252,"terwijl":1253,"ciale":1254,"punt":1255,"Europese":1256,"gegeven":1257,"hul":1258,"weinig":1259,"eigenlijk":1260,"one":1261,"kreeg":1262,"lin":1263,"vragen":1264,"roken":1265,"aut":1266,"wik":1267,"itein":1268,"wijk":1269,"ans":1270,"gewee":1271,"ong":1272,"manier":1273,"seizoen":1274,"geweest":1275,"kracht":1276,"zorgen":1277,"lei":1278,"ondag":1279,"Re":1280,"vrouwen":1281,"ziet":1282,"erv":1283,"kans":1284,"aterdag":1285,"team":1286,"verschillende":1287,"Door":1288,"ied":1289,"verander":1290,"),":1291,"menten":1292,"’.":1293,"sport":1294,"’,":1295,"bep":1296,"basis":1297,"ving":1298,"dienst":1299,"Jo":1300,"teur":1301,"Europa":1302,"15":1303,"Gr":1304,"oopt":1305,"woon":1306,"igd":1307,"maakte":1308,"bi":1309,"ligt":1310,"ds":1311,"ts":1312,"bestuur":1313,"vak":1314,"straf":1315,"Is":1316,"cten":1317,"overheid":1318,"kosten":1319,"elke":1320,"meest":1321,"iteindelijk":1322,"lief":1323,"vandaag":1324,"EU":1325,"igde":1326,"atief":1327,"bete":1328,"oensdag":1329,"vrijdag":1330,"prijzen":1331,"kker":1332,"dem":1333,"probleem":1334,"conom":1335,"wedstrijd":1336,"tele":1337,"vre":1338,"Dus":1339,"moest":1340,"punten":1341,"tech":1342,"neem":1343,"reger":1344,"nis":1345,"anten":1346,"etin":1347,"gram":1348,"kil":1349,"stond":1350,"olen":1351,"anneer":1352,"ming":1353,"pan":1354,"aliteit":1355,"meter":1356,"ontwik":1357,"woning":1358,"zondag":1359,"ets":1360,"El":1361,"onnen":1362,"echter":1363,"klein":1364,"middels":1365,"daad":1366,"delijke":1367,"kab":1368,"maand":1369,"wijs":1370,"dood":1371,"geluk":1372,"foto":1373,"uid":1374,"zes":1375,"komende":1376,"zaterdag":1377,"media":1378,"blijkt":1379,"izen":1380,"inet":1381,"juist":1382,"betaal":1383,"enige":1384,"eerde":1385,"bent":1386,"ss":1387,"vanwege":1388,"vlie":1389,"inder":1390,"president":1391,"nacht":1392,"woensdag":1393,"nemers":1394,"zaken":1395,"Den":1396,"buur":1397,"hol":1398,"the":1399,"ruimte":1400,"Poetin":1401,"Mo":1402,"kamp":1403,"mannen":1404,"Niet":1405,"vanuit":1406,"persoon":1407,"vorig":1408,"Ja":1409,"kie":1410,"plek":1411,"langs":1412,"woners":1413,"maandag":1414,"voetbal":1415,"verg":1416,"oll":1417,"slacht":1418,"mu":1419,"ene":1420,"opge":1421,"ieten":1422,"mes":1423,"apen":1424,"dige":1425,"elde":1426,"misschien":1427,"alis":1428,"12":1429,"zak":1430,"onderdag":1431,"fun":1432,"heen":1433,"derde":1434,"gesteld":1435,"inst":1436,"famil":1437,"ov":1438,"betalen":1439,"sterdam":1440,"problemen":1441,"opnieuw":1442,"brengen":1443,"kabinet":1444,"valt":1445,"train":1446,"zwaar":1447,"teren":1448,"hoge":1449,"grootste":1450,"Amsterdam":1451,"up":1452,"Ap":1453,"Over":1454,"for":1455,"stop":1456,"schapp":1457,"jul":1458,"vang":1459,"begin":1460,"waarin":1461,"graag":1462,"ep":1463,"hulp":1464,"klim":1465,"gebruiken":1466,"kor":1467,"ta":1468,"veld":1469,"elekt":1470,"zoeken":1471,"hi":1472,"situ":1473,"school":1474,"Ant":1475,"Ma":1476,"rect":1477,"vorm":1478,"slachtoff":1479,"koop":1480,"spelen":1481,"kregen":1482,"lag":1483,"amb":1484,"geveer":1485,"iën":1486,"fa":1487,"volgende":1488,"regering":1489,"ning":1490,"houdt":1491,"idee":1492,"2022":1493,"start":1494,"test":1495,"18":1496,"ffen":1497,"uni":1498,"mens":1499,"huid":1500,"conc":1501,"liggen":1502,"gebied":1503,"zeer":1504,"schul":1505,"200":1506,"totaal":1507,"bericht":1508,"minu":1509,"kwart":1510,"kte":1511,"rijk":1512,"gewel":1513,"rum":1514,"stelling":1515,"zieken":1516,"dinsdag":1517,"Par":1518,"Zij":1519,"mooi":1520,"Apple":1521,"ogen":1522,"eert":1523,"ess":1524,"stappen":1525,"ff":1526,"che":1527,"nieuws":1528,"techn":1529,"zaam":1530,"iks":1531,"Ro":1532,"econom":1533,"kap":1534,"ilijk":1535,"mun":1536,"sh":1537,"dra":1538,"honder":1539,"pa":1540,"gekomen":1541,"hoop":1542,"dicht":1543,"ieke":1544,"utte":1545,"moeilijk":1546,"syste":1547,"Gron":1548,"anden":1549,"oof":1550,"verkl":1551,"trekken":1552,"regelen":1553,"leiding":1554,"ijs":1555,"oude":1556,"wen":1557,"yp":1558,"aller":1559,"bepaal":1560,"heids":1561,"sland":1562,"winkel":1563,"beleid":1564,"donderdag":1565,"gespre":1566,"ue":1567,"zu":1568,"verhaal":1569,"25":1570,"dingen":1571,"vel":1572,"ijnen":1573,"Onder":1574,"ting":1575,"miljard":1576,"Me":1577,"loop":1578,"mal":1579,"pop":1580,"meteen":1581,"uiteindelijk":1582,"cies":1583,"ian":1584,"ense":1585,"ploeg":1586,"Wij":1587,"boeren":1588,"leggen":1589,"Aan":1590,"tie":1591,"iging":1592,"jij":1593,"macht":1594,"ongeveer":1595,"waarom":1596,"belast":1597,"har":1598,"veren":1599,"olog":1600,"waardoor":1601,"rechter":1602,"Brit":1603,"schijnlijk":1604,"Wel":1605,"scher":1606,"welke":1607,"waarde":1608,"Hier":1609,"Oo":1610,"ën":1611,"Gro":1612,"Twee":1613,"cel":1614,"VV":1615,"cus":1616,"aars":1617,"naam":1618,"finan":1619,"Rutte":1620,"ice":1621,"neemt":1622,"Nederl":1623,"bezig":1624,"zodat":1625,"ctor":1626,"zoekers":1627,"Oekraïense":1628,"2021":1629,"gebruikt":1630,"NA":1631,"zoveel":1632,"partijen":1633,"gramma":1634,"Ben":1635,"gesp":1636,"wilde":1637,"16":1638,"100":1639,"elf":1640,"ore":1641,"oplos":1642,"ico":1643,"kleine":1644,"situatie":1645,"veroor":1646,"gezond":1647,"cie":1648,"lok":1649,"vond":1650,"duizen":1651,"organisatie":1652,"boek":1653,"horen":1654,"red":1655,"vorige":1656,"dis":1657,"lingen":1658,"tran":1659,"antwoor":1660,"moeder":1661,"ouders":1662,"jong":1663,"zomer":1664,"The":1665,"cijf":1666,"don":1667,"niks":1668,"waarbij":1669,"cties":1670,"achten":1671,"keu":1672,"bestaan":1673,"aring":1674,"geving":1675,"rechts":1676,"dre":1677,"pat":1678,"ustr":1679,"geworden":1680,"toekomst":1681,"helpen":1682,"nationale":1683,"elektr":1684,"go":1685,"zingen":1686,"aris":1687,"chter":1688,"gebracht":1689,"atuur":1690,"perio":1691,"66":1692,"speci":1693,"Antwer":1694,"zat":1695,"nadat":1696,"klimaat":1697,"inmiddels":1698,"verdien":1699,"oper":1700,"betre":1701,"richting":1702,"alist":1703,"west":1704,"jo":1705,"urn":1706,"welijk":1707,"gevaar":1708,"film":1709,"kers":1710,"keren":1711,"sk":1712,"Toen":1713,"moo":1714,"half":1715,"jan":1716,"nood":1717,"kilom":1718,"Wie":1719,"rit":1720,"iddel":1721,"centrum":1722,"ca":1723,"wanneer":1724,"daarom":1725,"num":1726,"17":1727,"Ter":1728,"loopt":1729,"ochten":1730,"verkeer":1731,"ima":1732,"einde":1733,"Gel":1734,"Zijn":1735,"model":1736,"kopen":1737,"sol":1738,"tro":1739,"gebouw":1740,"liet":1741,"raad":1742,"deed":1743,"huizen":1744,"groter":1745,"lijst":1746,"ontwikkel":1747,"wind":1748,"name":1749,"zitter":1750,"gevonden":1751,"langer":1752,"halve":1753,"familie":1754,"Kamer":1755,"tel":1756,"meeste":1757,"ioen":1758,"lekker":1759,"voldoen":1760,"centr":1761,"baan":1762,"wan":1763,"ras":1764,"corona":1765,"laag":1766,"prem":1767,"Mijn":1768,"bond":1769,"milit":1770,"oep":1771,"wegen":1772,"olie":1773,"programma":1774,"vertr":1775,"flatie":1776,"voerder":1777,"cces":1778,"rie":1779,"middag":1780,"vertelt":1781,"Want":1782,"mige":1783,"rust":1784,"precies":1785,"lange":1786,"personeel":1787,"accin":1788,"14":1789,"car":1790,"dom":1791,"fiets":1792,"imp":1793,"Duitsland":1794,"voeren":1795,"iteiten":1796,"ollar":1797,"Jan":1798,"voorbij":1799,"clus":1800,"periode":1801,"cu":1802,"zeven":1803,"kennen":1804,"Russen":1805,"wachten":1806,"fra":1807,"let":1808,"oemen":1809,"anderen":1810,"kamer":1811,"tjes":1812,"dec":1813,"leuk":1814,"terecht":1815,"probe":1816,"feest":1817,"verkie":1818,"huidige":1819,"dollar":1820,"noem":1821,"daarna":1822,"krijk":1823,"Veren":1824,"inflatie":1825,"egd":1826,"succes":1827,"kig":1828,"vat":1829,"onge":1830,"zichzelf":1831,"direct":1832,"kwamen":1833,"vakant":1834,"”.":1835,"stelt":1836,"hoeveel":1837,"Net":1838,"bak":1839,"lid":1840,"stru":1841,"beelden":1842,"prof":1843,"gedrag":1844,"systeem":1845,"ich":1846,"uil":1847,"ate":1848,"reven":1849,"meerdere":1850,"klaar":1851,"bod":1852,"stroom":1853,"China":1854,"beschik":1855,"woordig":1856,"sluiten":1857,"imin":1858,"feit":1859,"vader":1860,"gevoel":1861,"betekent":1862,"bar":1863,"line":1864,"rekening":1865,"Men":1866,"keur":1867,"ick":1868,"soms":1869,"formatie":1870,"gingen":1871,"kind":1872,"verde":1873,"denten":1874,"Ste":1875,"beper":1876,"waarschijnlijk":1877,"2020":1878,"jonge":1879,"sociale":1880,"ochtend":1881,"WK":1882,"grens":1883,"vlak":1884,"ziekenhuis":1885,"wis":1886,"voort":1887,"ject":1888,"volledig":1889,"Eer":1890,"neer":1891,"uiter":1892,"schade":1893,"asiel":1894,"Lu":1895,"bor":1896,"ator":1897,"gehad":1898,"hart":1899,"vuur":1900,"40":1901,"dor":1902,"afhan":1903,"kocht":1904,"regio":1905,"voorzitter":1906,"missie":1907,"Ph":1908,"leeft":1909,"slagen":1910,"haven":1911,"Uit":1912,"cre":1913,"toon":1914,"leu":1915,"pport":1916,"ka":1917,"mon":1918,"stil":1919,"contro":1920,"Toch":1921,"vakantie":1922,"wagen":1923,"zor":1924,"vestig":1925,"Un":1926,"ekt":1927,"niemand":1928,"dezelfde":1929,"bes":1930,"bescher":1931,"denkt":1932,"sterk":1933,"rente":1934,"kilometer":1935,"site":1936,"ijd":1937,"sto":1938,"crimin":1939,"maatschapp":1940,"VS":1941,"spraak":1942,"contra":1943,"kond":1944,"gemiddel":1945,"Daarnaast":1946,"lijn":1947,"past":1948,"cijfers":1949,".'":1950,"11":1951,"bat":1952,"nou":1953,"isme":1954,"landse":1955,"Groningen":1956,"gevallen":1957,"ids":1958,"plaatsen":1959,"serie":1960,"mooie":1961,"teken":1962,"heer":1963,"igens":1964,"minuten":1965,"momen":1966,"ry":1967,"klas":1968,"trek":1969,"offic":1970,"zegd":1971,"kampioen":1972,"muziek":1973,"belasting":1974,"afhankelijk":1975,"Ital":1976,"aanwe":1977,"isteren":1978,"kost":1979,"politiek":1980,"zag":1981,"Pro":1982,"elingen":1983,"its":1984,"erse":1985,"sluit":1986,"daarmee":1987,"vroeg":1988,"tegenwoordig":1989,"handen":1990,"wonen":1991,"Som":1992,"part":1993,"plat":1994,"meester":1995,"plannen":1996,"Duitse":1997,"',":1998,"Bra":1999,"leen":2000,"nor":2001,"uigen":2002,"ete":2003,"inci":2004,"oun":2005,"bijzonder":2006,"maatregelen":2007,"honderd":2008,"bus":2009,"las":2010,"vij":2011,"rug":2012,"begrij":2013,"deur":2014,"betrokken":2015,"haald":2016,"buurt":2017,"cult":2018,"huur":2019,"uig":2020,"provin":2021,"cris":2022,"hoogte":2023,"effe":2024,"gesloten":2025,"Geen":2026,"wa":2027,"aandacht":2028,"danks":2029,"imaal":2030,"activ":2031,"slechts":2032,"gevolg":2033,"med":2034,"houd":2035,"super":2036,"finale":2037,"21":2038,"24":2039,"Rot":2040,"mond":2041,"verantwoor":2042,"krijg":2043,"bleek":2044,"helft":2045,"pakken":2046,"nummer":2047,"chen":2048,"sla":2049,"winst":2050,"coach":2051,"fabr":2052,"vie":2053,"teel":2054,"oegen":2055,"gelegd":2056,"Heb":2057,"konden":2058,"stik":2059,"web":2060,"sep":2061,"atieve":2062,"wijf":2063,"roepen":2064,"Com":2065,"gezegd":2066,"veau":2067,"volk":2068,"werking":2069,"hoger":2070,"\".":2071,"enkel":2072,"opvang":2073,"gener":2074,"tit":2075,"uari":2076,"ieuw":2077,"werkers":2078,"gebeurt":2079,"uitge":2080,"iding":2081,"spr":2082,"weekend":2083,"standig":2084,"Noord":2085,"sm":2086,"zer":2087,"vervolgens":2088,"voc":2089,"België":2090,"direc":2091,"Daarom":2092,"ific":2093,"publiek":2094,"gesprek":2095,"13":2096,"Tot":2097,"bie":2098,"hy":2099,"inkt":2100,"stat":2101,"ity":2102,"berg":2103,"januari":2104,"Fe":2105,"san":2106,"vide":2107,"informatie":2108,"ign":2109,"voert":2110,"geweld":2111,"popul":2112,"ime":2113,"deling":2114,"midden":2115,"loc":2116,"pakt":2117,"FC":2118,"hang":2119,"ïn":2120,"inve":2121,"max":2122,"begon":2123,"graden":2124,"woordvoerder":2125,"meldt":2126,"Waarom":2127,"22":2128,"band":2129,"echte":2130,"gek":2131,"lees":2132,"Haag":2133,"winnen":2134,"verlie":2135,"bestaat":2136,"ase":2137,"dank":2138,"ners":2139,"sf":2140,"rem":2141,"begint":2142,"inderdaad":2143,"Min":2144,"aaf":2145,"regen":2146,"ussel":2147,"waarop":2148,"Man":2149,"juni":2150,"ill":2151,"mocr":2152,"belang":2153,"80":2154,"lop":2155,"atis":2156,"aanval":2157,"sector":2158,"zowel":2159,"plicht":2160,"diensten":2161,"risico":2162,"appar":2163,"beginnen":2164,"goo":2165,"gegaan":2166,"itic":2167,"rap":2168,"Engel":2169,"presen":2170,"makkelijk":2171,"controle":2172,"VO":2173,"aken":2174,"hetzelfde":2175,"olf":2176,"Brussel":2177,"bure":2178,"crisis":2179,"vergelijk":2180,"beide":2181,"comple":2182,"beren":2183,"zoon":2184,"wezen":2185,"gelo":2186,"slim":2187,"gebre":2188,"koers":2189,"matig":2190,"voldoende":2191,"boe":2192,"erk":2193,"gehouden":2194,"spron":2195,"ace":2196,"comp":2197,"leveren":2198,"gesproken":2199,"vertrouwen":2200,"Mis":2201,"Zelf":2202,"bouwen":2203,"gar":2204,"vir":2205,"vaart":2206,"teerd":2207,"verz":2208,"voorkomen":2209,"maart":2210,"spreken":2211,"speelt":2212,"bieden":2213,"voed":2214,"zing":2215,"witter":2216,"Vlaam":2217,"studenten":2218,"autom":2219,"negen":2220,"ack":2221,"Sur":2222,"Veel":2223,"bin":2224,"genoem":2225,"ugd":2226,"500":2227,"lich":2228,"Britse":2229,"VVD":2230,"aanwezig":2231,"gaf":2232,"ergens":2233,"terdam":2234,"zocht":2235,"daarvoor":2236,"werkelijk":2237,"regels":2238,"result":2239,"Rotterdam":2240,"Tru":2241,"ervoor":2242,"verse":2243,"hoef":2244,"woningen":2245,"visie":2246,"vriend":2247,"korte":2248,"premier":2249,"foon":2250,"vaccin":2251,"wn":2252,"ateg":2253,"zee":2254,"ram":2255,"tember":2256,"CO":2257,"hn":2258,"proces":2259,"klanten":2260,"kleur":2261,"Af":2262,"Open":2263,"ële":2264,"aagt":2265,"online":2266,"kunst":2267,"Alleen":2268,"politieke":2269,"legt":2270,"leger":2271,"slot":2272,"stelde":2273,"acties":2274,"slachtoffer":2275,"Pr":2276,"Zuid":2277,"gebe":2278,"leer":2279,"arm":2280,"Franse":2281,"belangrijke":2282,"verm":2283,"arbe":2284,"urs":2285,"hoeft":2286,"warm":2287,"personen":2288,"leider":2289,"september":2290,"D66":2291,"ys":2292,"ges":2293,"use":2294,"2019":2295,"schuw":2296,"flink":2297,"oplossing":2298,"verkiezingen":2299,"port":2300,"stuur":2301,"besp":2302,"anger":2303,"passen":2304,"burger":2305,"colle":2306,"vluchtelingen":2307,"besmet":2308,"Sinds":2309,"ix":2310,"wap":2311,"gevolgen":2312,"stemmen":2313,"Omdat":2314,"motor":2315,"sse":2316,"alt":2317,"lement":2318,"houder":2319,"offen":2320,"beslis":2321,"zware":2322,"niveau":2323,"bot":2324,"vi":2325,"voormal":2326,"daarbij":2327,"eks":2328,"bruari":2329,"stikstof":2330,"23":2331,"vies":2332,"verlen":2333,"verda":2334,"ikken":2335,"waarmee":2336,"hout":2337,"wintig":2338,"roep":2339,"dorp":2340,"dieren":2341,"deeld":2342,"ins":2343,"ellen":2344,"gemeester":2345,"verwij":2346,"ruk":2347,"exper":2348,"extre":2349,"kijkt":2350,"verdachte":2351,"ware":2352,"kern":2353,"februari":2354,"Boven":2355,"bepaalde":2356,"gebeuren":2357,"Ie":2358,"PS":2359,"bevol":2360,"seks":2361,"antwoord":2362,"Ol":2363,"dragen":2364,"vele":2365,"ervan":2366,"ague":2367,"contact":2368,"spelers":2369,"jullie":2370,"verantwoordelijk":2371,"Mer":2372,"wist":2373,"voorzien":2374,"blok":2375,"groen":2376,"beleg":2377,"kiezen":2378,"journ":2379,"normaal":2380,"'.":2381,"jur":2382,"verv":2383,"merk":2384,"snap":2385,"strijden":2386,"Tij":2387,"mel":2388,"pijn":2389,"ure":2390,"gekregen":2391,"ome":2392,"voordat":2393,"ciële":2394,"lega":2395,"drug":2396,"Frankrijk":2397,"stoppen":2398,"Bar":2399,"Car":2400,"bro":2401,"kru":2402,"mig":2403,"onde":2404,"ichting":2405,"kinder":2406,"versiteit":2407,"sommige":2408,"Ga":2409,"Kon":2410,"ril":2411,"enorm":2412,"gevangen":2413,"leiden":2414,"geloof":2415,"alsnog":2416,"dub":2417,"prima":2418,"straks":2419,"burgers":2420,"por":2421,"anen":2422,"inwoners":2423,"waarschuw":2424,"fest":2425,"iële":2426,"gevoerd":2427,"medewerkers":2428,"jongeren":2429,"zorgt":2430,"Ke":2431,"fijn":2432,"aandeel":2433,"mei":2434,"igt":2435,"tober":2436,"post":2437,"jax":2438,"video":2439,"Don":2440,"Li":2441,"Twitter":2442,"nee":2443,"ontde":2444,"ronde":2445,"League":2446,"Nederlanders":2447,"Ajax":2448,"jui":2449,"advoc":2450,"trein":2451,"rechtbank":2452,"schrijft":2453,"links":2454,"vliegt":2455,"keuze":2456,"35":2457,"geldt":2458,"lijken":2459,"soci":2460,"woorden":2461,"liefst":2462,"OS":2463,"doe":2464,"priv":2465,"schappen":2466,"how":2467,"collega":2468,"betreft":2469,"bureau":2470,"Bl":2471,"eeuw":2472,"ieken":2473,"aling":2474,"ales":2475,"orme":2476,"meis":2477,"Alle":2478,"veiligheid":2479,"vaker":2480,"wapens":2481,"70":2482,"camer":2483,"jouw":2484,"pap":2485,"aarde":2486,"verzeker":2487,"vroe":2488,"oktober":2489,"John":2490,"contract":2491,"titel":2492,"Misschien":2493,"dur":2494,"schil":2495,"kwaliteit":2496,"liever":2497,"gast":2498,"mber":2499,"orie":2500,"slaan":2501,"volgt":2502,"politic":2503,"vraagd":2504,"iedenis":2505,"schrijven":2506,"Tijdens":2507,"Nog":2508,"twintig":2509,"inge":2510,"isen":2511,"rein":2512,"ologie":2513,"Tur":2514,"Utre":2515,"enorme":2516,"stal":2517,"afstand":2518,"gratis":2519,"proberen":2520,"ministerie":2521,"draaien":2522,"Belgische":2523,"telefoon":2524,"Max":2525,"vijft":2526,"iste":2527,"rouw":2528,"bekende":2529,"iger":2530,"schat":2531,"schre":2532,"termijn":2533,"vember":2534,"ica":2535,"winter":2536,"Staten":2537,"sub":2538,"gelijke":2539,"60":2540,"gers":2541,"reactie":2542,"antie":2543,"klinkt":2544,"bleef":2545,"levens":2546,"juli":2547,"bevolking":2548,"dik":2549,"digen":2550,"kaart":2551,"erop":2552,"inde":2553,"omgeving":2554,"ille":2555,"dio":2556,"liep":2557,"West":2558,"geschiedenis":2559,"momenteel":2560,"directeur":2561,"Utrecht":2562,"Ex":2563,"Hol":2564,"veer":2565,"dent":2566,"lezen":2567,"internationale":2568,"Verenigde":2569,"viel":2570,"annen":2571,"daarvan":2572,"gemak":2573,"merken":2574,"november":2575,"productie":2576,"iënten":2577,"NAVO":2578,"90":2579,"CD":2580,"ium":2581,"aap":2582,"advies":2583,"artik":2584,"temper":2585,"maatschappij":2586,"provincie":2587,"eil":2588,"rist":2589,"ante":2590,"voorlop":2591,"ouder":2592,"commun":2593,"producten":2594,"lokale":2595,"hom":2596,"od":2597,"reis":2598,"gren":2599,"project":2600,"industr":2601,"aug":2602,"vrienden":2603,"Kan":2604,"kam":2605,"lem":2606,"bewijs":2607,"race":2608,"diep":2609,"afge":2610,"akk":2611,"brief":2612,"moesten":2613,"geschreven":2614,"scherm":2615,"Har":2616,"orde":2617,"lex":2618,"mocht":2619,"waarvan":2620,"herin":2621,"krant":2622,"sprake":2623,"Oost":2624,"Groen":2625,"taf":2626,"wol":2627,"oppen":2628,"reed":2629,"keken":2630,"itiek":2631,"vloed":2632,"frik":2633,"Antwerpen":2634,"Trump":2635,"by":2636,"dak":2637,"pra":2638,"geïn":2639,"tegenover":2640,"staande":2641,"gelegen":2642,"Chine":2643,"Verder":2644,"bra":2645,"wapen":2646,"anje":2647,"democr":2648,"station":2649,"vermoe":2650,"iter":2651,"bevestig":2652,"vooruit":2653,"kens":2654,"rapport":2655,"bert":2656,"kozen":2657,"groei":2658,"lichaam":2659,"Du":2660,"Vor":2661,"camp":2662,"jou":2663,"mass":2664,"él":2665,"versie":2666,"mans":2667,"spraken":2668,"27":2669,"cy":2670,"jeugd":2671,"kerk":2672,"prom":2673,"besluit":2674,"duizend":2675,"La":2676,"leren":2677,"noemen":2678,"rent":2679,"singen":2680,"yen":2681,"ering":2682,"genoot":2683,"bewoners":2684,"apan":2685,"othe":2686,"vrije":2687,"ctief":2688,"fensie":2689,"cultuur":2690,"Hel":2691,"Pa":2692,"Su":2693,"bood":2694,"ije":2695,"ongeluk":2696,"bos":2697,"cir":2698,"Mensen":2699,"view":2700,"Bovendien":2701,"Fin":2702,"fiet":2703,"hoek":2704,"son":2705,"alisten":2706,"behandel":2707,"daten":2708,"overigens":2709,"dron":2710,"Nederlands":2711,"sneller":2712,"stemming":2713,"verkoop":2714,"elektrische":2715,"drugs":2716,"bezoek":2717,"dagelijk":2718,"wijzen":2719,"ember":2720,"economie":2721,"Afrik":2722,"iPh":2723,"morgen":2724,"erden":2725,"sturen":2726,"leving":2727,"igheid":2728,"april":2729,"bloed":2730,"koning":2731,"Minister":2732,"Bor":2733,"Mich":2734,"gl":2735,"hoort":2736,"tw":2737,"aardig":2738,"arte":2739,"ager":2740,"ondersteun":2741,"ionele":2742,"praten":2743,"winning":2744,"december":2745,"website":2746,"camera":2747,"Eind":2748,"Hu":2749,"Sa":2750,"hor":2751,"link":2752,"rou":2753,"wijn":2754,"idt":2755,"Tweede":2756,"Do":2757,"Mac":2758,"dracht":2759,"oefen":2760,"neg":2761,"dochter":2762,"Inter":2763,"Nee":2764,"sych":2765,"ernooi":2766,"Ger":2767,"Se":2768,"iers":2769,"mater":2770,"inten":2771,"alter":2772,"istische":2773,"geraakt":2774,"burgemeester":2775,"schuld":2776,"kwartaal":2777,"26":2778,"28":2779,"EC":2780,"fi":2781,"ht":2782,"ham":2783,"stoffen":2784,"kennis":2785,"iere":2786,"tijden":2787,"bedrag":2788,"2023":2789,"slachtoffers":2790,"gezondheid":2791,"Ieder":2792,"ule":2793,"end":2794,"inv":2795,"stoot":2796,"heet":2797,"voelt":2798,"ustus":2799,"NL":2800,"hot":2801,"vari":2802,"oost":2803,"roffen":2804,"spor":2805,"overal":2806,"voelen":2807,"plaatst":2808,"ouwens":2809,"Verstappen":2810,"beschikbaar":2811,"45":2812,"fout":2813,"hof":2814,"ieel":2815,"iti":2816,"dium":2817,"getroffen":2818,"brug":2819,"wedstrijden":2820,"duizenden":2821,"Co":2822,"Nou":2823,"feren":2824,"mor":2825,"oorden":2826,"verleden":2827,"gene":2828,"overleden":2829,"wassen":2830,"blijf":2831,"milieu":2832,"plekken":2833,"Mark":2834,"vierde":2835,"demie":2836,"augustus":2837,"Mat":2838,"TV":2839,"bom":2840,"enn":2841,"stonden":2842,"teerde":2843,"dering":2844,"reag":2845,"waard":2846,"down":2847,"auw":2848,"gericht":2849,"houders":2850,"treden":2851,"wetenschap":2852,"juiste":2853,"voorlopig":2854,"prakt":2855,"Vand":2856,"onen":2857,"schak":2858,"nemer":2859,"daardoor":2860,"aagd":2861,"vertellen":2862,"verkopen":2863,"actief":2864,"stijgen":2865,"gebeurde":2866,"bewust":2867,"hield":2868,"sprong":2869,"ters":2870,"gezel":2871,"oepen":2872,"impel":2873,"stellingen":2874,"volgend":2875,"speelde":2876,"tuin":2877,"gegevens":2878,"trainer":2879,"leeftijd":2880,"akkoord":2881,"Cor":2882,"Her":2883,"Qu":2884,"grij":2885,"ival":2886,"lam":2887,"moord":2888,"vd":2889,"ymp":2890,"ère":2891,"tes":2892,"verplicht":2893,"schot":2894,"digit":2895,"ieso":2896,"consu":2897,"belangrijkste":2898,"organisaties":2899,"militaire":2900,"aden":2901,"sele":2902,"gehe":2903,"ull":2904,"willig":2905,"stijging":2906,"hogere":2907,"hon":2908,"tv":2909,"wieso":2910,"ats":2911,"rac":2912,"combin":2913,"ips":2914,"groeien":2915,"samenleving":2916,"gezin":2917,"zonne":2918,"berichten":2919,"duren":2920,"kaar":2921,"sal":2922,"etten":2923,"aandelen":2924,"beveilig":2925,"hangen":2926,"middelen":2927,"iedere":2928,"Onze":2929,"verloren":2930,"brengt":2931,"studie":2932,"ervaring":2933,"functie":2934,"useum":2935,"Vr":2936,"Wer":2937,"werp":2938,"immers":2939,"esse":2940,"arts":2941,"begonnen":2942,"brandweer":2943,"autor":2944,"allerlei":2945,"Mus":2946,"Mart":2947,"OM":2948,"Ru":2949,"Sy":2950,"koff":2951,"psych":2952,"woe":2953,"recor":2954,"waarden":2955,"plot":2956,"vraagt":2957,"beroep":2958,"winnaar":2959,"Hoewel":2960,"financiële":2961,"struct":2962,"tafel":2963,"boom":2964,"pog":2965,"ona":2966,"itte":2967,"ord":2968,"olang":2969,"toernooi":2970,"overtu":2971,"nau":2972,"klap":2973,"zette":2974,"trekt":2975,"hoven":2976,"samenwerking":2977,"produc":2978,"draagt":2979,"verdedig":2980,"biedt":2981,"iPhone":2982,"Con":2983,"Oran":2984,"gre":2985,"iele":2986,"kwij":2987,"loon":2988,"invloed":2989,"geh":2990,"behoor":2991,"raket":2992,"schoon":2993,"wilt":2994,"gemeenten":2995,"zame":2996,"lastig":2997,"noemt":2998,"asielzoekers":2999,"platform":3000,"standigheden":3001,"Col":3002,"Cent":3003,"ude":3004,"tekort":3005,"omzet":3006,"erende":3007,"pensi":3008,"werknemers":3009,"speeld":3010,"Tour":3011,"economische":3012,"pensioen":3013,"Air":3014,"Austr":3015,"Ber":3016,"erbij":3017,"defin":3018,"levert":3019,"uldig":3020,"goedkop":3021,"bedre":3022,"Vlaan":3023,"trouwens":3024,"Antwerp":3025,"fans":3026,"mening":3027,"icatie":3028,"gewonnen":3029,"expl":3030,"wereldwij":3031,"cept":3032,"ontwikkeling":3033,"industrie":3034,"Austral":3035,"Vlaanderen":3036,"aft":3037,"drij":3038,"kou":3039,"kand":3040,"gehaald":3041,"gevraagd":3042,"tev":3043,"verkocht":3044,"respe":3045,"reage":3046,"tocht":3047,"ammer":3048,"verbru":3049,"gebouwd":3050,"Lin":3051,"Naast":3052,"Rijk":3053,"bil":3054,"ondanks":3055,"data":3056,"komsten":3057,"wijze":3058,"park":3059,"Daarmee":3060,"hoogste":3061,"spreekt":3062,"zwak":3063,"scheid":3064,"Nederlander":3065,"29":3066,"Au":3067,"Nieuw":3068,"Pol":3069,"bracht":3070,"hist":3071,"sers":3072,"uele":3073,"zil":3074,"testen":3075,"derheid":3076,"bedo":3077,"bedoel":3078,"Inst":3079,"deels":3080,"Eerder":3081,"artikel":3082,"Iedereen":3083,"Haar":3084,"Laat":3085,"mb":3086,"uurd":3087,"indruk":3088,"ditie":3089,"boer":3090,"Char":3091,"beurs":3092,"verlies":3093,"positief":3094,"gelukkig":3095,"Ha":3096,"daal":3097,"ty":3098,"vou":3099,"tek":3100,"angst":3101,"gewone":3102,"locatie":3103,"Pas":3104,"bab":3105,"gever":3106,"stegen":3107,"parlement":3108,"optie":3109,"centrale":3110,"militair":3111,"kwijt":3112,"Mos":3113,"bier":3114,"iaanse":3115,"rom":3116,"tingen":3117,"zwe":3118,"eling":3119,"allen":3120,"leef":3121,"agne":3122,"spro":3123,"namen":3124,"mail":3125,"New":3126,"interview":3127,"liefde":3128,"virus":3129,"voedsel":3130,"gevangenis":3131,"altern":3132,"voudig":3133,"75":3134,"Bur":3135,"Mil":3136,"ratie":3137,"twijf":3138,"old":3139,"rode":3140,"mach":3141,"zomaar":3142,"welijks":3143,"Ho":3144,"vermogen":3145,"leek":3146,"ses":3147,"docu":3148,"ieuze":3149,"hoopt":3150,"rechten":3151,"commissie":3152,"sowieso":3153,"speler":3154,"lager":3155,"gemiddelde":3156,"Zaken":3157,"hopen":3158,"kat":3159,"kwest":3160,"wiel":3161,"ieven":3162,"omstandigheden":3163,"onds":3164,"toegang":3165,"kwal":3166,"Daarbij":3167,"verwachten":3168,"vreem":3169,"vergeten":3170,"dankzij":3171,"boeken":3172,"Oranje":3173,"Biden":3174,"aur":3175,"aus":3176,"fact":3177,"gewerkt":3178,"opdracht":3179,"leeg":3180,"bezoekers":3181,"Daarna":3182,"vertelde":3183,"raakte":3184,"veranderen":3185,"verandering":3186,"record":3187,"Can":3188,"cap":3189,"fan":3190,"kten":3191,"zier":3192,"debat":3193,"initi":3194,"steen":3195,"beweg":3196,"ikte":3197,"vent":3198,"spann":3199,"terrein":3200,"houding":3201,"mogelijkheid":3202,"Vooral":3203,"vormen":3204,"iname":3205,"vergun":3206,"Vlaamse":3207,"Turk":3208,"baas":3209,"inkomen":3210,"steden":3211,"secon":3212,"jaarlijk":3213,"handelen":3214,"interess":3215,"betere":3216,"gebeurd":3217,"qua":3218,"Unie":3219,"verzam":3220,"vroeger":3221,"otheek":3222,"Kl":3223,"Kaag":3224,"my":3225,"melden":3226,"oze":3227,"star":3228,"stev":3229,"haalt":3230,"soft":3231,"aangehouden":3232,"product":3233,"demon":3234,"concur":3235,"Zelfs":3236,"Suriname":3237,"definitie":3238,"Lim":3239,"Uni":3240,"Vrij":3241,"blijk":3242,"sign":3243,"simpel":3244,"oorten":3245,"voorbere":3246,"zege":3247,"alsof":3248,"advis":3249,"keers":3250,"vrijheid":3251,"vrijwillig":3252,"mogelijke":3253,"Volks":3254,"gebruikers":3255,"banken":3256,"patiënten":3257,"PSV":3258,"Sint":3259,"ffe":3260,"kelen":3261,"vog":3262,"err":3263,"algemeen":3264,"tent":3265,"aalf":3266,"wilden":3267,"strateg":3268,"Schip":3269,"gemiddeld":3270,"schreef":3271,"Ten":3272,"ah":3273,"bang":3274,"eet":3275,"eisen":3276,"loos":3277,"pom":3278,"anc":3279,"leed":3280,"snelheid":3281,"code":3282,"internet":3283,"bovendien":3284,"relatie":3285,"extreem":3286,"Rob":3287,"cou":3288,"gisteren":3289,"ud":3290,"zagen":3291,"inken":3292,"ell":3293,"onderwijs":3294,"protest":3295,"doden":3296,"meerderheid":3297,"iciteit":3298,"kerst":3299,"broek":3300,"gewond":3301,"kritiek":3302,"duurder":3303,"Arn":3304,"wissel":3305,"present":3306,"politici":3307,"Chinese":3308,"Put":3309,"Wor":3310,"pracht":3311,"deden":3312,"etitie":3313,"tegelijk":3314,"steken":3315,"onderdeel":3316,"rustig":3317,"staats":3318,"deelt":3319,"besloten":3320,"bud":3321,"witte":3322,"Geluk":3323,"Feyen":3324,"BS":3325,"gif":3326,"sne":3327,"inclus":3328,"ijen":3329,"westen":3330,"geluid":3331,"rukt":3332,"hoeven":3333,"groepen":3334,"199":3335,"oogle":3336,"eerdere":3337,"geslagen":3338,"maximaal":3339,"genoemd":3340,"Nation":3341,"pot":3342,"oosten":3343,"spannen":3344,"ontstaan":3345,"ontvangen":3346,"diverse":3347,"serv":3348,"ustitie":3349,"ziekte":3350,"bestuurder":3351,"betaald":3352,"verliezen":3353,"lat":3354,"norm":3355,"gezicht":3356,"verhalen":3357,"omhoog":3358,"bev":3359,"asie":3360,"moeite":3361,"podium":3362,"eindelijk":3363,"Terwijl":3364,"sancties":3365,"arbeids":3366,"Em":3367,"Jong":3368,"VA":3369,"Was":3370,"Wanneer":3371,"Zou":3372,"voordeel":3373,"spoor":3374,"vest":3375,"werkte":3376,"proe":3377,"eigenaar":3378,"prest":3379,"geleid":3380,"helpt":3381,"regelmatig":3382,"haalde":3383,"vlag":3384,"miljoenen":3385,"lijden":3386,"festival":3387,"Paul":3388,"Or":3389,"ict":3390,"lot":3391,"meen":3392,"ente":3393,"det":3394,"verkeers":3395,"geboren":3396,"jongen":3397,"onderzoekers":3398,"buitenland":3399,"sprak":3400,"grotere":3401,"advocaat":3402,"nauwelijks":3403,"histor":3404,"Feyenoord":3405,"Berg":3406,"Google":3407,"bit":3408,"dy":3409,"vlees":3410,"gekozen":3411,"verhog":3412,"nogal":3413,"waaronder":3414,"iër":3415,"apps":3416,"rassen":3417,"creë":3418,"voormalige":3419,"kwestie":3420,"AS":3421,"Kijk":3422,"Qat":3423,"RT":3424,"onafhankelijk":3425,"aly":3426,"ise":3427,"schiet":3428,"rijdt":3429,"eerlijk":3430,"akker":3431,"parkeer":3432,"ippen":3433,"Sport":3434,"verwachting":3435,"levering":3436,"Willem":3437,"discus":3438,"effect":3439,"twaalf":3440,"selectie":3441,"behoorlijk":3442,"Gelukkig":3443,"Bre":3444,"Japan":3445,"Kort":3446,"dier":3447,"hond":3448,"ior":3449,"rik":3450,"show":3451,"ueel":3452,"ende":3453,"geheel":3454,"genaam":3455,"overwinning":3456,"blik":3457,"klachten":3458,"droom":3459,"kleding":3460,"kantoor":3461,"rière":3462,"verdw":3463,"sidie":3464,"sfeer":3465,"geloven":3466,"gebrek":3467,"gemakkelijk":3468,"Vandaag":3469,"BM":3470,"Kr":3471,"Meer":3472,"Natuur":3473,"Red":3474,"cas":3475,"goud":3476,"ti":3477,"zul":3478,"ingezet":3479,"opper":3480,"wekken":3481,"voorstel":3482,"outen":3483,"gelu":3484,"gelaten":3485,"uld":3486,"wijst":3487,"duel":3488,"dure":3489,"lage":3490,"pass":3491,"breken":3492,"Europees":3493,"bepaald":3494,"Gelder":3495,"generatie":3496,"bers":3497,"cur":3498,"emot":3499,"hers":3500,"hore":3501,"kar":3502,"set":3503,"zus":3504,"atische":3505,"teert":3506,"derd":3507,"beheer":3508,"vecht":3509,"ions":3510,"Marok":3511,"relatief":3512,"verdienen":3513,"meisje":3514,"demonstr":3515,"Schiphol":3516,"Even":3517,"azen":3518,"rid":3519,"staten":3520,"bezorg":3521,"jezelf":3522,"vechten":3523,"benad":3524,"blad":3525,"sterke":3526,"mogelijkheden":3527,"helaas":3528,"Zoals":3529,"jongens":3530,"gaven":3531,"Spanje":3532,"beteken":3533,"vliegen":3534,"status":3535,"hangt":3536,"beslissing":3537,"subsidie":3538,"materi":3539,"Noor":3540,"Pvd":3541,"boot":3542,"cast":3543,"gun":3544,"pad":3545,"atisch":3546,"issen":3547,"wellicht":3548,"tallen":3549,"zwart":3550,"2018":3551,"technologie":3552,"uiteraard":3553,"fabriek":3554,"Musk":3555,"NP":3556,"Polen":3557,"bon":3558,"bun":3559,"rand":3560,"xe":3561,"zaakt":3562,"ooft":3563,"gep":3564,"ald":3565,"wegens":3566,"amper":3567,"agenten":3568,"cret":3569,"zwarte":3570,"modellen":3571,"carrière":3572,"klasse":3573,"begrijp":3574,"temperatuur":3575,"budget":3576,"Ko":3577,"ain":3578,"taal":3579,"zanger":3580,"anne":3581,"onver":3582,"verspre":3583,"opvallen":3584,"genoten":3585,"uitstoot":3586,"overeen":3587,"doorgaan":3588,"gebieden":3589,"acteur":3590,"feder":3591,"trap":3592,"miss":3593,"Zeker":3594,"standaard":3595,"zoekt":3596,"rekenen":3597,"bonds":3598,"serieus":3599,"poging":3600,"Bos":3601,"Gent":3602,"IN":3603,"NV":3604,"km":3605,"not":3606,"vracht":3607,"raken":3608,"kansen":3609,"istisch":3610,"pens":3611,"minste":3612,"coal":3613,"besloot":3614,"stijds":3615,"aliseren":3616,"vereniging":3617,"invester":3618,"campagne":3619,"33":3620,"Binnen":3621,"dw":3622,"ift":3623,"ph":3624,"raal":3625,"yn":3626,"chem":3627,"vergoed":3628,"opmer":3629,"schieten":3630,"waardig":3631,"gerecht":3632,"herstel":3633,"gestuurd":3634,"vloe":3635,"Tegen":3636,"nationaal":3637,"panelen":3638,"specif":3639,"Italië":3640,"incident":3641,"compleet":3642,"journalist":3643,"dagelijks":3644,"baby":3645,"coalitie":3646,"BB":3647,"Kie":3648,"Kom":3649,"Tom":3650,"mand":3651,"etc":3652,"stak":3653,"igingen":3654,"werker":3655,"ction":3656,"achtig":3657,"ontmoet":3658,"geroepen":3659,"minist":3660,"praat":3661,"ivid":3662,"ressie":3663,"bruik":3664,"verklaring":3665,"trans":3666,"Soms":3667,"resultaat":3668,"blijkbaar":3669,"Kun":3670,"Nij":3671,"So":3672,"US":3673,"anci":3674,"ance":3675,"sters":3676,"stige":3677,"alweer":3678,"verbod":3679,"bezit":3680,"scholen":3681,"toer":3682,"individ":3683,"lukt":3684,"gedacht":3685,"geleverd":3686,"uidelijk":3687,"hoofdstad":3688,"meestal":3689,"persoonlijk":3690,"profess":3691,"activiteiten":3692,"populair":3693,"dubbel":3694,"grenzen":3695,"variant":3696,"book":3697,"fig":3698,"oken":3699,"ineens":3700,"ijt":3701,"verst":3702,"verwar":3703,"geno":3704,"genieten":3705,"bergen":3706,"groene":3707,"plezier":3708,"ranten":3709,"vrijwel":3710,"cedes":3711,"roept":3712,"live":3713,"verdachten":3714,"2017":3715,"Tesla":3716,"gereden":3717,"bewol":3718,"pandemie":3719,"kapot":3720,"solu":3721,"impact":3722,"competitie":3723,"resultaten":3724,"Mercedes":3725,"Apel":3726,"Wh":3727,"nel":3728,"selen":3729,"enen":3730,"deal":3731,"sta":3732,"onne":3733,"onlangs":3734,"arch":3735,"voorspel":3736,"voorsprong":3737,"raden":3738,"oond":3739,"totale":3740,"eventu":3741,"binnenkort":3742,"gemeenter":3743,"Christ":3744,"speciale":3745,"aangekond":3746,"Johan":3747,"fabrik":3748,"consumenten":3749,"bedoeld":3750,"Qatar":3751,"PvdA":3752,"EN":3753,"Pat":3754,"bomen":3755,"gu":3756,"keld":3757,"zers":3758,"gekeken":3759,"gestegen":3760,"vervangen":3761,"dertig":3762,"reeks":3763,"begr":3764,"jecten":3765,"uitzonder":3766,"schop":3767,"stens":3768,"deelnemers":3769,"plein":3770,"avor":3771,"front":3772,"minuut":3773,"harde":3774,"99":3775,"Alex":3776,"Face":3777,"troepen":3778,"geplaatst":3779,"reur":3780,"aanvallen":3781,"sens":3782,"erend":3783,"gebroken":3784,"werkzaam":3785,"kwets":3786,"prop":3787,"absolu":3788,"schepen":3789,"brandstof":3790,"duurt":3791,"2014":3792,"restaur":3793,"feiten":3794,"beperkt":3795,"CDA":3796,"Afrika":3797,"Ferr":3798,"IJ":3799,"IV":3800,"Kar":3801,"Lo":3802,"No":3803,"ame":3804,"caf":3805,"hop":3806,"ongeval":3807,"vertegenwoordig":3808,"iend":3809,"ondernemers":3810,"plant":3811,"play":3812,"openbaar":3813,"tegenst":3814,"boden":3815,"confl":3816,"deelde":3817,"netwerk":3818,"getrokken":3819,"geschikt":3820,"stukje":3821,"filmp":3822,"vriendin":3823,"updat":3824,"voorbije":3825,"sluiting":3826,"gooien":3827,"index":3828,"gehoord":3829,"gemeenteraad":3830,"ael":3831,"fel":3832,"wo":3833,"wens":3834,"uitspraak":3835,"steek":3836,"eerden":3837,"word":3838,"agent":3839,"markten":3840,"Amerika":3841,"leidt":3842,"draait":3843,"Parijs":3844,"toont":3845,"officieel":3846,"Brab":3847,"fietsen":3848,"32":3849,"Bu":3850,"Dr":3851,"Denk":3852,"Peter":3853,"Vis":3854,"hyp":3855,"put":3856,"opzich":3857,"uitker":3858,"schip":3859,"afscheid":3860,"Alles":3861,"Oekraïners":3862,"geschoten":3863,"beurt":3864,"pakket":3865,"Eindhoven":3866,"31":3867,"Samen":3868,"koe":3869,"kingen":3870,"kast":3871,"ret":3872,"geë":3873,"eenmaal":3874,"aanbod":3875,"ouden":3876,"rad":3877,"anda":3878,"agram":3879,"gels":3880,"onderhandel":3881,"zoiets":3882,"slapen":3883,"ioneel":3884,"pret":3885,"Stad":3886,"lock":3887,"Leiden":3888,"vaste":3889,"melding":3890,"banden":3891,"gesprekken":3892,"vliegtuig":3893,"invasie":3894,"praktijk":3895,"horeca":3896,"cretaris":3897,"400":3898,"AM":3899,"ball":3900,"favor":3901,"keten":3902,"ny":3903,"ring":3904,"var":3905,"wél":3906,"destijds":3907,"iep":3908,"vanavond":3909,"overleg":3910,"Staat":3911,"stads":3912,"tientallen":3913,"clubs":3914,"Grote":3915,"probeert":3916,"kruis":3917,"digitale":3918,"tevreden":3919,"Limburg":3920,"opzichte":3921,"36":3922,"Ad":3923,"EK":3924,"Zelen":3925,"cle":3926,"oven":3927,"sa":3928,"tru":3929,"vonden":3930,"erger":3931,"ertijd":3932,"inke":3933,"gemen":3934,"isse":3935,"verbeter":3936,"vertrekken":3937,"ley":3938,"arden":3939,"ario":3940,"rab":3941,"uitgebre":3942,"unt":3943,"rot":3944,"ondertussen":3945,"welkom":3946,"volwassen":3947,"daarop":3948,"gaande":3949,"boete":3950,"persoonlijke":3951,"cieel":3952,"leuke":3953,"Kiev":3954,"Zelensk":3955,"Form":3956,"Mag":3957,"Sm":3958,"liter":3959,"poten":3960,"voorstellen":3961,"inger":3962,"perfe":3963,"okken":3964,"dringen":3965,"droog":3966,"Daardoor":3967,"Vanaf":3968,"verband":3969,"tonen":3970,"vluchten":3971,"ieuwd":3972,"tekst":3973,"beweging":3974,"Arnhem":3975,"Putin":3976,"55":3977,"City":3978,"Gu":3979,"Hong":3980,"II":3981,"Mon":3982,"Uiteindelijk":3983,"Vo":3984,"ane":3985,"verlaten":3986,"gent":3987,"ilen":3988,"moder":3989,"brood":3990,"prik":3991,"sieke":3992,"handig":3993,"voering":3994,"winkels":3995,"bord":3996,"reageren":3997,"verbruik":3998,"discussie":3999,"Ferrari":4000,"37":4001,"Del":4002,"ba":4003,"cro":4004,"izig":4005,"vac":4006,"wisten":4007,"analy":4008,"deta":4009,"gespeeld":4010,"dergelijke":4011,"dend":4012,"reizen":4013,"behoef":4014,"ils":4015,"uitzen":4016,"onderzoeken":4017,"drinken":4018,"conclus":4019,"stren":4020,"utie":4021,"cep":4022,"Ondanks":4023,"verschillen":4024,"matige":4025,"stijl":4026,"zone":4027,"ernstig":4028,"nergens":4029,"schuldig":4030,"ologische":4031,"Oosten":4032,"veroorzaakt":4033,"partner":4034,"Cl":4035,"Doe":4036,"Ju":4037,"Jon":4038,"paal":4039,"inkomsten":4040,"verbet":4041,"optreden":4042,"aanzien":4043,"aringen":4044,"oloog":4045,"steeg":4046,"afval":4047,"ake":4048,"gedragen":4049,"richten":4050,"honderden":4051,"Italiaanse":4052,"college":4053,"herinner":4054,"Instagram":4055,"Moskou":4056,"kwalific":4057,"Bau":4058,"Buiten":4059,"Di":4060,"Dank":4061,"ET":4062,"SP":4063,"kking":4064,"moed":4065,"museum":4066,"pand":4067,"tar":4068,"enten":4069,"inte":4070,"ooster":4071,"verw":4072,"aangif":4073,"weig":4074,"ada":4075,"appe":4076,"neder":4077,"akken":4078,"anti":4079,"gewicht":4080,"ergie":4081,"slechte":4082,"verloor":4083,"scen":4084,"westerse":4085,"trok":4086,"vuurwerk":4087,"bijzondere":4088,"koffie":4089,"explos":4090,"BMW":4091,"38":4092,"300":4093,"?”":4094,"Naar":4095,"cru":4096,"golf":4097,"riv":4098,"tweet":4099,"eters":4100,"gevers":4101,"verboden":4102,"iteren":4103,"aanv":4104,"lecht":4105,"werpen":4106,"afgesloten":4107,"auwe":4108,"bron":4109,"evene":4110,"krit":4111,"kelijke":4112,"bedrijfs":4113,"coronav":4114,"recla":4115,"Gewoon":4116,"Isra":4117,"functies":4118,"Overigens":4119,"bestaande":4120,"elektriciteit":4121,"gevaarlijk":4122,"privé":4123,"vijftien":4124,"democratie":4125,"Facebook":4126,"Formule":4127,"Eigen":4128,"Ka":4129,"Port":4130,"cul":4131,"zine":4132,"inval":4133,"inzet":4134,"aai":4135,"oofd":4136,"ieve":4137,"geef":4138,"versl":4139,"raf":4140,"uitdag":4141,"aming":4142,"minimaal":4143,"iviteit":4144,"luchthaven":4145,"Russisch":4146,"mate":4147,"veiligheids":4148,"install":4149,"gezondheids":4150,"trots":4151,"bescherming":4152,"Sommige":4153,"supermarkt":4154,"genoemde":4155,"linkse":4156,"combinatie":4157,"Bart":4158,"Had":4159,"Kle":4160,"Sam":4161,"bad":4162,"dro":4163,"fant":4164,"pk":4165,"typ":4166,"eruit":4167,"vere":4168,"verre":4169,"bese":4170,"schoen":4171,"spullen":4172,"volks":4173,"plus":4174,"icro":4175,"gebleven":4176,"tijdje":4177,"branden":4178,"bodem":4179,"toege":4180,"gewen":4181,"excus":4182,"cohol":4183,"regeling":4184,"ress":4185,"Watch":4186,"belangen":4187,"Frans":4188,"Heeft":4189,"redenen":4190,"bereiken":4191,"wijken":4192,"begrijpen":4193,"voertuig":4194,"dikke":4195,"wereldwijd":4196,"vergunning":4197,"seconden":4198,"starten":4199,"Brabant":4200,"AD":4201,"Fl":4202,"IS":4203,"Jer":4204,"Nieu":4205,"Per":4206,"bol":4207,"back":4208,"daling":4209,"emen":4210,"mas":4211,"rook":4212,"rele":4213,"soorten":4214,"aaien":4215,"vern":4216,"bevat":4217,"spits":4218,"nem":4219,"klopt":4220,"aagde":4221,"bellen":4222,"huishouden":4223,"flinke":4224,"finales":4225,"adem":4226,"coronac":4227,"oorlogs":4228,"stukken":4229,"meldingen":4230,"zinn":4231,"gerekend":4232,"Eén":4233,"God":4234,"Med":4235,"Rad":4236,"Raad":4237,"ire":4238,"ps":4239,"pij":4240,"ror":4241,"telijke":4242,"ël":4243,"inkrijk":4244,"ish":4245,"verzet":4246,"vertrek":4247,"bekijken":4248,"voorwaarden":4249,"steerd":4250,"lied":4251,"plaatse":4252,"tradit":4253,"lachen":4254,"jarenlang":4255,"woont":4256,"daadwerkelijk":4257,"beschermen":4258,"smart":4259,"vergelijking":4260,"beleggers":4261,"autoriteiten":4262,"respect":4263,"Da":4264,"ID":4265,"fase":4266,"kol":4267,"velen":4268,"vlo":4269,"ande":4270,"arre":4271,"vooraf":4272,"spl":4273,"aald":4274,"voel":4275,"gerust":4276,"braak":4277,"hoof":4278,"groten":4279,"maakten":4280,"zoeker":4281,"krachten":4282,"bepalen":4283,"vlieg":4284,"zakken":4285,"ambten":4286,"iënt":4287,"donker":4288,"voertuigen":4289,"Vlaams":4290,"gelegenheid":4291,"initiatief":4292,"concurrent":4293,"bondscoach":4294,"restaurant":4295,"Dav":4296,"Jul":4297,"Ser":4298,"ino":4299,"alcohol":4300,"vanzelf":4301,"verzoek":4302,"schaal":4303,"sem":4304,"spar":4305,"slaap":4306,"minstens":4307,"boel":4308,"oegd":4309,"gestoken":4310,"grap":4311,"control":4312,"tiende":4313,"Frank":4314,"zichtbaar":4315,"maker":4316,"operatie":4317,"wagens":4318,"structuur":4319,"inclusief":4320,"aangekondigd":4321,"conflict":4322,"Bank":4323,"Brug":4324,"Mol":4325,"Tim":4326,"fic":4327,"glas":4328,"heren":4329,"rood":4330,"tan":4331,"zaten":4332,"óó":4333,"deuren":4334,"heten":4335,"behalve":4336,"auffe":4337,"nut":4338,"geru":4339,"klant":4340,"sterren":4341,"moede":4342,"princi":4343,"compl":4344,"bles":4345,"beslag":4346,"zorgde":4347,"verdacht":4348,"Groot":4349,"Mech":4350,"Holland":4351,"hotel":4352,"goedkoper":4353,"vergoeding":4354,"izigers":4355,"excuses":4356,"Hen":4357,"Piet":4358,"Ros":4359,"Ts":4360,"fas":4361,"jammer":4362,"tank":4363,"voren":4364,"ye":4365,"zaal":4366,"defensie":4367,"onie":4368,"eenvoudig":4369,"ali":4370,"vervolg":4371,"aans":4372,"Westen":4373,"gemeenschap":4374,"interesse":4375,"koppel":4376,"que":4377,"soldaten":4378,"pporters":4379,"bescherm":4380,"locaties":4381,"maxim":4382,"voormalig":4383,"Ab":4384,"Gi":4385,"LM":4386,"NS":4387,"Pad":4388,"Rem":4389,"abel":4390,"fonds":4391,"hat":4392,"zolang":4393,"intussen":4394,"stab":4395,"opleiding":4396,"argu":4397,"ight":4398,"ramp":4399,"ilip":4400,"uitbre":4401,"aff":4402,"afdeling":4403,"adres":4404,"landbouw":4405,"kanker":4406,"opening":4407,"luidt":4408,"keerd":4409,"beschuldig":4410,"stemd":4411,"positieve":4412,"accoun":4413,"ervaren":4414,"ypto":4415,"verkeerde":4416,"letter":4417,"hoeveelheid":4418,"Koninkrijk":4419,"Huis":4420,"ympische":4421,"NPO":4422,"150":4423,"34":4424,"Dijk":4425,"Nor":4426,"Tok":4427,"been":4428,"can":4429,"gat":4430,"honden":4431,"pil":4432,"stor":4433,"ieur":4434,"ateur":4435,"geest":4436,"verrassen":4437,"opgenomen":4438,"iete":4439,"schaat":4440,"Defensie":4441,"assen":4442,"ney":4443,"neus":4444,"goedkoop":4445,"zijde":4446,"buitenlandse":4447,"risis":4448,"teleur":4449,"veroordeeld":4450,"stoel":4451,"Commissie":4452,"eiland":4453,"café":4454,"scenario":4455,"As":4456,"FA":4457,"Londen":4458,"Ron":4459,"ive":4460,"ku":4461,"tri":4462,"vet":4463,"etsen":4464,"diesel":4465,"vee":4466,"bene":4467,"conferen":4468,"Champ":4469,"lay":4470,"198":4471,"bereik":4472,"public":4473,"Elke":4474,"training":4475,"officiële":4476,"medische":4477,"complex":4478,"CO2":4479,"leerlingen":4480,"vervelen":4481,"behandeling":4482,"Links":4483,"bedoeling":4484,"capac":4485,"interessant":4486,"software":4487,"verhoging":4488,"Bull":4489,"Club":4490,"FI":4491,"For":4492,"Pl":4493,"gig":4494,"ider":4495,"ipt":4496,"lap":4497,"rice":4498,"voegen":4499,"steren":4500,"vertra":4501,"verga":4502,"ork":4503,"aanpak":4504,"beker":4505,"begele":4506,"schui":4507,"doordat":4508,"nauw":4509,"enthou":4510,"wijzig":4511,"keert":4512,"kleuren":4513,"2024":4514,"sleut":4515,"verbind":4516,"Spelen":4517,"Spaanse":4518,"leidde":4519,"wethouder":4520,"makers":4521,"ambitie":4522,"concert":4523,"rijke":4524,"zuiden":4525,"gelost":4526,"schilder":4527,"Helaas":4528,"Heel":4529,"IC":4530,"Por":4531,"Tu":4532,"Zwit":4533,"bby":4534,"cal":4535,"lon":4536,"ugen":4537,"zover":4538,"verster":4539,"overschrij":4540,"ama":4541,"tijdelijk":4542,"gebo":4543,"gebas":4544,"getuigen":4545,"wereldkampioen":4546,"Anders":4547,"geschak":4548,"onzeker":4549,"logisch":4550,"stadion":4551,"leraar":4552,"bereikt":4553,"vandaan":4554,"obil":4555,"opgepakt":4556,"besmettingen":4557,"migratie":4558,"negatieve":4559,"alternatief":4560,"verdwijnen":4561,"Natuurlijk":4562,"App":4563,"Gem":4564,"Hun":4565,"Jum":4566,"Thom":4567,"Zwe":4568,"bum":4569,"editie":4570,"iz":4571,"laad":4572,"pool":4573,"enig":4574,"ermee":4575,"ijden":4576,"standen":4577,"redelijk":4578,"outer":4579,"illeg":4580,"bijeen":4581,"terij":4582,"waarna":4583,"onduidelijk":4584,"icket":4585,"toeval":4586,"achtergrond":4587,"hogen":4588,"aangepast":4589,"avonds":4590,"noemde":4591,"Brazil":4592,"papier":4593,"vijftig":4594,"Vorig":4595,"wetenschappers":4596,"Antwerpse":4597,"jaarlijks":4598,"vrijwilligers":4599,"lockdown":4600,"ER":4601,"Hoog":4602,"Ra":4603,"Tele":4604,"achte":4605,"boos":4606,"dalen":4607,"fac":4608,"mus":4609,"rang":4610,"vaardig":4611,"ini":4612,"elders":4613,"weder":4614,"idaat":4615,"gelden":4616,"nes":4617,"Inmiddels":4618,"daarin":4619,"voelde":4620,"betal":4621,"ited":4622,"crypto":4623,"game":4624,"volledige":4625,"hoorde":4626,"lopende":4627,"Engeland":4628,"Ministerie":4629,"woke":4630,"hypotheek":4631,"Jumbo":4632,"Kat":4633,"Kore":4634,"Mc":4635,"buren":4636,"jet":4637,"€™":4638,"alvast":4639,"verhogen":4640,"armoede":4641,"oudere":4642,"uitgevoerd":4643,"spaar":4644,"spir":4645,"afspraken":4646,"2000":4647,"gemeld":4648,"irus":4649,"baarheid":4650,"Euro":4651,"rondom":4652,"planten":4653,"bereid":4654,"teams":4655,"momenten":4656,"vaccinatie":4657,"Openbaar":4658,"Baudet":4659,"blessu":4660,"Hamil":4661,"Ren":4662,"fles":4663,"gan":4664,"kust":4665,"eentje":4666,"verniet":4667,"ree":4668,"reacties":4669,"voornamelijk":4670,"afloop":4671,"slaat":4672,"nek":4673,"proce":4674,"ics":4675,"toezicht":4676,"wongen":4677,"Ander":4678,"laden":4679,"breed":4680,"leiders":4681,"kilo":4682,"zakelijk":4683,"chester":4684,"financieel":4685,"Verenigd":4686,"boodschap":4687,"raketten":4688,"filmpje":4689,"gebaseerd":4690,"At":4691,"Dis":4692,"Drie":4693,"Tr":4694,"gaten":4695,"lijnen":4696,"veen":4697,"elle":4698,"georganis":4699,"reizigers":4700,"ike":4701,"ogan":4702,"benieuwd":4703,"benzine":4704,"ierd":4705,"kei":4706,"daarnaast":4707,"betrouw":4708,"divisie":4709,"gedwongen":4710,"comment":4711,"compens":4712,"Oekraine":4713,"197":4714,"duurzaam":4715,"streeks":4716,"publieke":4717,"vrede":4718,"welijke":4719,"Manchester":4720,"verantwoordelijkheid":4721,"ennia":4722,"type":4723,"Israël":4724,"Hamilton":4725,"?’":4726,"AR":4727,"EV":4728,"Jor":4729,"Lou":4730,"San":4731,"Ster":4732,"Win":4733,"bbel":4734,"dou":4735,"fys":4736,"vervoer":4737,"oma":4738,"recent":4739,"aanvragen":4740,"schoot":4741,"agressie":4742,"onderzocht":4743,"adver":4744,"tijdelijke":4745,"bronnen":4746,"maals":4747,"fee":4748,"loze":4749,"peil":4750,"onderzoeks":4751,"breekt":4752,"duurzame":4753,"ituut":4754,"geregeld":4755,"betaalt":4756,"films":4757,"Afgelopen":4758,"zwem":4759,"analyse":4760,"aangifte":4761,"coronacrisis":4762,",”":4763,"39":4764,"65":4765,"Achter":4766,"Goed":4767,"Joe":4768,"Sc":4769,"Vroe":4770,"York":4771,"dcast":4772,"ét":4773,"oorzaak":4774,"verblijf":4775,"ars":4776,"rapt":4777,"agina":4778,"overlast":4779,"afkomst":4780,"zogenaam":4781,"apt":4782,"slid":4783,"lands":4784,"zichten":4785,"openbare":4786,"minim":4787,"artie":4788,"stelsel":4789,"commer":4790,"wint":4791,"snelle":4792,"sief":4793,"drukken":4794,"aangezien":4795,"veilige":4796,"bekendgemaakt":4797,"Beide":4798,"ffer":4799,"decennia":4800,"ssecretaris":4801,"zonnepanelen":4802,"salaris":4803,"Turkije":4804,"strategie":4805,"proef":4806,"materiaal":4807,"begrip":4808,"werkzaamheden":4809,"absoluut":4810,"reclame":4811,"Hug":4812,"categ":4813,"eiden":4814,"ielen":4815,"stichting":4816,"chip":4817,"verra":4818,"aangetroffen":4819,"lege":4820,"meten":4821,"neut":4822,"ontzetten":4823,"openen":4824,"beland":4825,"digd":4826,"nodige":4827,"verschijn":4828,"Vervolgens":4829,"agement":4830,"speciaal":4831,"United":4832,"criminelen":4833,"wachte":4834,"sprint":4835,"Surin":4836,"broer":4837,"sociaal":4838,"veertig":4839,"Zelensky":4840,"Dam":4841,"Hop":4842,"Mid":4843,"Prem":4844,"cade":4845,"eu":4846,"fort":4847,"ld":4848,"voe":4849,"zui":4850,"ün":4851,"opslag":4852,"aanleiding":4853,"lek":4854,"voorkeur":4855,"ura":4856,"urele":4857,"dief":4858,"waarvoor":4859,"achtste":4860,"uliere":4861,"strand":4862,"Weet":4863,"gevuld":4864,"pleit":4865,"achterstand":4866,"verkracht":4867,"lossen":4868,"2015":4869,"meldde":4870,"knop":4871,"ernstige":4872,"televisie":4873,"ontwikkelen":4874,"financ":4875,"redden":4876,"probeerde":4877,"Eerst":4878,"apparte":4879,"warmte":4880,"experts":4881,"massaal":4882,"koningin":4883,"route":4884,"gezellig":4885,"vreemd":4886,"sneeuw":4887,"gemene":4888,"Buitenlandse":4889,"conferentie":4890,"geboden":4891,"AZ":4892,"Beg":4893,"Gen":4894,"Mad":4895,"Wit":4896,"Wim":4897,"cla":4898,"hitte":4899,"ichte":4900,"iPad":4901,"rat":4902,"scor":4903,"gecon":4904,"gekocht":4905,"opvol":4906,"gend":4907,"arrest":4908,"meet":4909,"tennis":4910,"ftal":4911,"mochten":4912,"plast":4913,"ontslag":4914,"manager":4915,"droeg":4916,"artsen":4917,"luisteren":4918,"cons":4919,"straten":4920,"pleeg":4921,"lanc":4922,"gestart":4923,"bass":4924,"2016":4925,"ssier":4926,"Moet":4927,"systemen":4928,"Ondertussen":4929,"kondigde":4930,"Michael":4931,"kaarten":4932,"kandi":4933,"pomp":4934,"zulke":4935,"Gelderland":4936,"tegenstander":4937,"uitkering":4938,"Dankzij":4939,"coronavirus":4940,"vloer":4941,"capaciteit":4942,"Hugo":4943,"ontzettend":4944,"46":4945,"Go":4946,"Ham":4947,"Let":4948,"Nat":4949,"Rond":4950,"Wout":4951,"telt":4952,"wal":4953,"erin":4954,"eraan":4955,"degelijk":4956,"inspe":4957,"aturen":4958,"geet":4959,"iss":4960,"islam":4961,"vernieuw":4962,"verslag":4963,"itaire":4964,"urt":4965,"scha":4966,"sporen":4967,"welk":4968,"atieven":4969,"dossier":4970,"imir":4971,"eveneens":4972,"gete":4973,"beschad":4974,"kopp":4975,"Amerikanen":4976,"pakte":4977,"eindigde":4978,"recente":4979,"ambul":4980,"techniek":4981,"verdient":4982,"jury":4983,"communicatie":4984,"drijven":4985,"Rijks":4986,"spanning":4987,"opvallend":4988,"update":4989,"42":4990,"Arab":4991,"Bru":4992,"Lan":4993,"Spe":4994,"Welke":4995,"dijk":4996,"hie":4997,"imen":4998,"iment":4999},"merges":["e n","e r","a n","d e","e t","i n","i j","a a","e l","s t","o o","i e","a t","c h","g e","o n","aa r","e en","a l","v an","i s","t e","oo r","v er","h et","i t","o p","g en","d er","d en","o m","o r","r e","a an","o e","l e","b e","h e","d at","w e","a r","v oor","ch t","ij n","in g","ij k","i et","z e","j e","k en","u r","o l","o u","m e","m et","i g","r a","i l","z ijn","n iet","d ie","u it","s ch","D e","i k","an d","u n","r o","aa t","a s","o g","u s","m en","st e","i d","er s","t en","v en","r ij","s e","t o","a g","w er","f t","s p","o ver","oo k","b ij","g el","e er","al s","a m","s en","w or","t er","v e","i en","m aar","on der","r u","aa l","m o","l en","a f","l ijk","o f","z o","w el","n en","d an","a d","H et","a p","b en","n og","k t","he b","w aar","d oor","e ft","c t","i er","s l","n e","k om","a cht","on d","v ol","el e","el d","in gen","g r","u ur","n aar","l and","k an","t ij","at ie","d t","u l","p ro","d o","he eft","i m","me er","p l","i st","el ijk","w as","er en","we e","a k","n a","i ge","is ch","d ag","w at","an der","k un","j aar","k e","h ij","mo et","p en","heb ben","b l","i c","en t","z i","an g","wor den","I n","on t","d aar","an t","ie u","g t","z el","ge b","k er","in d","m a","d it","me e","ou w","2 0","v o","ve el","z en","oe d","e s","a u","he id","oo n","n u","to t","wor dt","g er","b et","v r","D at","ge en","i gen","w il","zel f","I k","m an","op en","p er","h u","A l","b er","k l","v al","m in","isch e","h ou","aa g","o k","n ieu","w ij","te gen","zi ch","0 0","d r","it ie","i cht","i te","o t","a st","N e","tij d","e k","g aan","de l","aa k","ar en","kom en","z ou","E n","al le","kun nen","b r","gen s","d u","oe k","b o","we er","ge m","ar t","b el","e m","de ze","d ig","men sen","M aar","l u","h ad","al e","g aat","h un","ie s","e d","t oe","at en","a c","wer k","al l","m er","t wee","de lijk","st en","Ne der","g oed","or t","d us","st el","d i","o s","o en","st er","h oo","h oe","el en","oo t","wer d","c ent","E en","z ien","c on","z et","st r","h aar","i on","do en",". ”","k w","hu is","g ro","Neder land","R us","z it","ge w","e cht","be d","a gen","c i","l ie","st aat","u t","a ct","W e","e x","t re","m aal","bl ij","p ar","u g","et en","h an","we g","f e","aa kt","in nen","k o","je s","ander e","p ol","s n","de el","m oe","moet en","z oek","ge v","e el","p r","m ijn","l ang","e g","i r","p t","oor d","m il","u k","ma ken","e igen","D aar","al en","k eer","k rij","p le","a men","pl aat","r an","or g","ge d","nieu we","t ra","re cht","iet s","w on","c om","p re","us sen","ie k","i den","v in","b le","l aat","er g","st aan","h ier","k ken","z al","E r","v rij","ite it","i ë","or m","kom t","Al s","een s","in e","he el","w in","m is","be g","d ien","der s","on s","to ch","p ers","er t","i de","oe g","er d","n o","a v","Z e","at er","n at","a b","n et","ze gt","e ur","eer ste","aa m","ra cht","or en","O ek","hou den","sch ap","k s","O ok","Oek ra","m aan","pol itie","m id","V an","der en","t al","h ele","k le","i a","H ij","u m","ge ven","ur en","geb ru","b aar","oo d","t ussen","O p","all een","ver t","ken d","on den","i p","le ven","he m","acht er","Oekra ï","bed rij","gel e","h er","uit en","sn el","nieu w","ar d","l an","c or","S t","ter ug","og elijk","ouw en","om en","e ven","c r","k el","” ,","s ie","oo it","au to","men t","vol gens","aa d","D ie","pro cent","ing s","gro te","mil j","e f","of f","m ogelijk","gr oot","om dat","r on","z ij","i v","g et","E ur","s u","st and","w acht","V oor","J e","l ig","h el","c o","gel ijk","ze g","gr oe","é n","h o","oo p","Z o","z onder","l o","s el","wer eld","ver sch","eur o","be eld","ct ie","ge st","k r","i o","A n","b innen","a re","be st","V ol","i el","den s","al tijd","to en","c e","g ra","gem een","Eur op","D it","s amen","w aren","ge sch","min der","gew oon","k ijk","el k","hoo g","in ter","C h","l a","g ing","L e","le g","l aten","m ij","p rij","on ze","zo als","an k","f l","u w","plaat s","ed s","ist er","w eten","lijk t","m ar","gel d","20 2","gebru ik","r en","ij f","wee k","j aren","ch te","re gel","sp re","V er","1 9","l og","be sch","k elijk","sp e","ander s",". \"","c ont","ie der","wil len","h aal","ie m","p as","lu cht","re s","val len","p un","M ar","in t","k in","ste eds","ul len","dr ie","W at","b ur","j on","st ad","o ten","krij gen","M et","v or","vol gen","du i","f en","f in","gel open","st rij","kan t","r ond","ze ker","d a","h and","s le","aan se","de len","p e","bet er","k on","w ant","el t","onder zoek","d ru","ge z","s o","par tij","oor t","am er","O n","k re","h al","be ur","j ar","s er","s dag","Oekraï ne","é én",") .","v a","v ier","tij dens","z ie","laat ste","pro ble","m ag","B r","nat uur","Rus land","ru im","v l","g a","aa st","am p","t ien","bel an","wer ken","ra gen","blij ven","vr aag","kw am","ste m","eer d","st ra","Rus s","iem and","oo g","oo l","ver k","b al","ar i","bedrij f","B ij","b uiten","be sl","e st","u i","oo m","r oe","ver der","aan ge","av ond","00 0","ind s","z ig","ver l","ul t","f d","we et","milj oen","l i","en s","w oor","z a","ne men","ver b","eer der","m ers","F ran","aan tal","voor al","atie s","b ele","t je","u st","en erg","Vol gens","versch il","S ch","en k","z w","a de","act ie","B el","jar ige","an n","m aat","s y","voor beeld","org an","v ast","no dig","gr ijk","n am","n ooit","cht en","gem aakt","z org","ve il","st ap","b u","p o","p el","aar d","zit ten","N a","alle s","sp el","1 0","A mer","p u","or gen","Russ ische","belan grijk","d ing","cor on","a i","vin den","oe m","m aak","af gelopen","in k","pl an","vo er","d am","k op","wat er","j a","w oord","kom st","S p","zelf s","be kend","elk aar","Amer ik","D an","organ is","l er","zeg gen","B e","k ing","strij d","sl ag","oo i","zet ten","r i","c es","g oe","z ullen","ver d","do el","m aakt","H oe","l icht","oor log","b re","bo ven","han del","et je","ou d","kin deren","h a","ver s","sch e","c k","H e","min ister","hele maal","wer den","pro du","l os","ver wacht","alle maal","p ak","he den","aa s","niet s","blij ft","mid del","O m","er de","m at","\" ,","er e","do et","st ij","ist en","P o","re den","elijk e","vr ouw","energ ie","zi cht","kijk en","in a","br and","i f","b ru","ber e","b as","m om","le s","Europ e","d uur","s om","Nederland se","v aak","stel len","w it","st ig","veil ig","v ia","twee de","r icht","op t","D uit","le id","vo et","mom ent","a ge","d agen","lu b","h alen","n aast","20 1","r ol","el s","l ing","m p","f orm","s ing","v is","g as","k ort","e in","we d","st uk","zelf de","le ver","br en","lan den","re g","hoo fd","wij l","de s","De ze","oo s","natuur lijk","c ol","wer kt","ier en","m eld","ap p","z on","t op","vol le","mar kt","bij voorbeeld","ijn a","z oe","t ig","5 0","e ind","prij s","V l","h oor","ieder een","kun t","l open","ie den","ge val","s inds","ra g","sch ien","dui delijk","d in","f il","sch rij","groe p","p os","ge beur","aar t","f o","i ken","gr ond","had den","el den","der e","len de","w et","mo gen","vr ien","gele den","g ang","ge vo","le den","sp eel","q u","w ar","goe de","B o","l ij","b ouw","l ater","k n","3 0","p aar","A r","in ig","p p","re c","krij gt","pers on","sle cht","gemeen te","z in","van gen","ken t","eer st","iden t","st u","zou den","t u","er n","st of","c lub","h ard","ge zet","den k","mo t","ze i","b ank","h en","s i","A m","z aak","dru k","ai re","T e","maan den","G e","ie f","a ch","van d","gen omen","it u","vin dt","nat ion",". ’","ger e","a y","z iek","am il","W aar","dr aa","k et","b ijna","r is","r aak","st re","a ir","j u","ken de","s oort","t on","enk ele","n er","vol g","v ijf","te m","h og","Bel g","l ast","lijk e","s c","bur g","N u","T o","ge sl","as s","di a","m ak","we ge","et er","at ion","ro kken","ex tra","bedrij ven","be ste","b are","pre s","pu bl","pos itie","me de","ste un","w ie","den ken","be w","t huis","ged aan","gen oeg","heb t","O f","n i","al dus","o b","v lucht","ou t","rij den","ac c","Amerik aanse","v ind","z om","van af","zo en","d acht","ik t","sch ijn","r el","se i","c l","str aat","t r","sp ra","f r","ge zien","re st","b an","be etje","W il","nam elijk","e uw","ge eft","re ken","we ken","ter wijl","ci ale","pun t","Europe se","ge geven","h ul","we inig","eigen lijk","on e","kre eg","l in","v ragen","ro ken","au t","w ik","ite in","w ijk","an s","ge wee","on g","man ier","sei zoen","gewee st","k racht","z orgen","le i","ond ag","R e","vr ouwen","z iet","er v","kan s","ater dag","te am","verschil lende","D oor","ie d","ver ander",") ,","men ten","’ .","sp ort","’ ,","be p","bas is","v ing","dien st","J o","te ur","Europ a","1 5","G r","oo pt","w oon","ig d","maak te","b i","lig t","d s","t s","best uur","v ak","stra f","I s","c ten","over heid","ko sten","el ke","mee st","itein delijk","lie f","vand aag","E U","ig de","atie f","bet e","oen sdag","vrij dag","prij zen","k ker","de m","proble em","con om","wed strijd","t ele","v re","D us","moe st","pun ten","te ch","ne em","re ger","n is","an ten","et in","gra m","k il","st ond","ol en","ann eer","m ing","p an","al iteit","met er","ont wik","won ing","z ondag","et s","E l","on nen","echt er","kle in","middel s","d aad","delijk e","k ab","maan d","wij s","d ood","gel uk","fo to","u id","ze s","komen de","z aterdag","me dia","b lijkt","i zen","in et","ju ist","bet aal","en ige","eer de","ben t","s s","van wege","v lie","in der","pres ident","n acht","w oensdag","ne mers","za ken","D en","b uur","h ol","t he","ruim te","Po etin","M o","k amp","man nen","N iet","van uit","pers oon","vor ig","J a","k ie","ple k","lang s","won ers","maan dag","voet bal","ver g","ol l","sl acht","m u","en e","op ge","iet en","me s","ap en","d ige","el de","mis schien","al is","1 2","z ak","onder dag","f un","h een","der de","gest eld","in st","f amil","o v","bet alen","ster dam","proble men","op nieuw","bren gen","kab inet","val t","tra in","z waar","ter en","ho ge","groot ste","Am sterdam","u p","A p","O ver","f or","st op","schap p","j ul","van g","beg in","waar in","gr aag","e p","hul p","kl im","gebru iken","k or","t a","v eld","ele kt","zoe ken","h i","s itu","sch ool","An t","M a","re ct","v orm","slacht off","k oop","sp elen","kre gen","l ag","am b","gev eer","ië n","f a","volgen de","reger ing","n ing","hou dt","ide e","202 2","st art","te st","1 8","f fen","un i","men s","hu id","con c","lig gen","geb ied","ze er","sch ul","20 0","tot aal","ber icht","min u","kw art","k te","r ijk","ge wel","ru m","stel ling","zie ken","din sdag","P ar","Z ij","m ooi","Ap ple","o gen","eer t","es s","stap pen","f f","ch e","nieuw s","tech n","z aam","ik s","R o","e conom","k ap","il ijk","m un","s h","d ra","h onder","p a","ge komen","hoo p","d icht","ie ke","ut te","moe ilijk","sy ste","G ron","an den","oo f","ver kl","tre kken","regel en","leid ing","ij s","ou de","w en","y p","all er","bep aal","heid s","sl and","win kel","bele id","d onderdag","ge spre","u e","z u","ver haal","2 5","d ingen","v el","ijn en","On der","t ing","milj ard","M e","l oop","m al","p op","met een","u iteindelijk","c ies","i an","en se","pl oeg","W ij","bo eren","leg gen","A an","t ie","ig ing","j ij","m acht","on geveer","waar om","bel ast","h ar","ver en","ol og","waar door","recht er","Br it","schijn lijk","W el","sch er","wel ke","waar de","H ier","O o","ë n","G ro","T wee","c el","V V","c us","aar s","n aam","fin an","R utte","ic e","neem t","Neder l","be zig","zo dat","ct or","zoek ers","Oekraï ense","202 1","gebruik t","N A","zo veel","partij en","gram ma","B en","ge sp","wil de","1 6","1 00","el f","or e","op los","ic o","kle ine","situ atie","ver oor","gez ond","c ie","l ok","v ond","dui zen","organis atie","b oek","h oren","re d","vor ige","d is","l ingen","t ran","ant woor","moe der","ou ders","jon g","zom er","T he","c ijf","d on","n iks","waar bij","ct ies","acht en","ke u","be staan","ar ing","gev ing","recht s","d re","p at","u str","ge worden","toe komst","hel pen","nation ale","elekt r","g o","z ingen","ar is","cht er","geb racht","at uur","per io","6 6","spe ci","Ant wer","z at","na dat","klim aat","in middels","ver dien","op er","bet re","richt ing","al ist","we st","j o","ur n","wel ijk","gev aar","fil m","k ers","k eren","s k","T oen","m oo","hal f","j an","n ood","kil om","W ie","r it","id del","cent rum","c a","w anneer","daar om","nu m","1 7","T er","l oopt","o chten","ver keer","im a","ein de","G el","Z ijn","mo del","k open","s ol","t ro","geb ouw","l iet","r aad","de ed","hu izen","gro ter","lij st","ontwik kel","w ind","na me","zit ter","gev onden","lang er","hal ve","famil ie","K amer","t el","mee ste","i oen","le kker","vol doen","cent r","b aan","w an","ra s","coron a","l aag","pre m","M ijn","b ond","mil it","oe p","we gen","ol ie","pro gramma","vert r","fl atie","voer der","c ces","r ie","mid dag","vert elt","W ant","m ige","ru st","pre cies","lan ge","person eel","acc in","1 4","c ar","d om","f iets","im p","Duit sland","vo eren","iteit en","oll ar","J an","voor bij","cl us","perio de","c u","ze ven","ken nen","Rus sen","wacht en","f ra","l et","oe men","ander en","k amer","t jes","de c","le uk","ter echt","pro be","fe est","verk ie","huid ige","d ollar","n oem","daar na","kr ijk","V eren","in flatie","eg d","su cces","k ig","v at","on ge","zich zelf","di rect","kw amen","va kant","” .","stel t","hoe veel","N et","b ak","l id","st ru","be elden","pro f","ged rag","syste em","i ch","u il","at e","re ven","meer dere","kl aar","bo d","str oom","Ch ina","besch ik","woor dig","sl uiten","im in","fe it","va der","gevo el","bete kent","b ar","l ine","reken ing","M en","ke ur","ic k","som s","form atie","g ingen","k ind","ver de","den ten","S te","be per","waar schijnlijk","20 20","jon ge","so ciale","ochten d","W K","gr ens","vl ak","zieken huis","w is","voor t","je ct","volle dig","E er","n eer","uit er","sch ade","as iel","L u","b or","at or","ge had","h art","v uur","4 0","d or","af han","ko cht","reg io","voor zitter","mis sie","P h","le eft","sl agen","ha ven","U it","c re","t oon","le u","pp ort","k a","m on","st il","cont ro","To ch","vakant ie","w agen","z or","ve stig","U n","e kt","n iemand","de zelfde","be s","besch er","den kt","ster k","ren te","kilom eter","s ite","ij d","st o","cr imin","maat schapp","V S","sp raak","cont ra","k ond","gem iddel","Daar naast","l ijn","p ast","cijf ers",". '","1 1","b at","n ou","is me","land se","Gron ingen","ge vallen","id s","plaat sen","ser ie","moo ie","te ken","he er","igen s","minu ten","m omen","r y","kl as","tre k","off ic","zeg d","kamp ioen","mu ziek","belast ing","afhan kelijk","I tal","aan we","ist eren","ko st","politie k","z ag","P ro","el ingen","it s","ers e","sl uit","daar mee","vr oeg","tegen woordig","han den","won en","S om","p art","pl at","mee ster","plan nen","Duit se","' ,","B ra","l een","n or","u igen","et e","in ci","ou n","bij zonder","maat regelen","honder d","b us","l as","v ij","ru g","beg rij","de ur","bet rokken","haal d","buur t","c ult","h uur","u ig","pro vin","cr is","hoog te","ef fe","gesl oten","G een","w a","aan dacht","dan ks","im aal","act iv","slecht s","ge volg","me d","hou d","su per","fin ale","2 1","2 4","R ot","m ond","ver antwoor","krij g","ble ek","hel ft","pak ken","num mer","ch en","sl a","win st","co ach","fa br","v ie","te el","oe gen","gel egd","He b","k onden","st ik","we b","se p","atie ve","wij f","roe pen","C om","ge zegd","ve au","vol k","werk ing","hog er","\" .","en kel","op vang","gen er","t it","u ari","ieu w","werk ers","gebeur t","uit ge","id ing","sp r","wee kend","stand ig","N oord","s m","z er","ver volgens","vo c","Belg ië","di rec","Daar om","if ic","publ iek","gespre k","1 3","T ot","b ie","h y","in kt","st at","it y","ber g","jan uari","F e","s an","v ide","in formatie","ig n","vo ert","gewel d","pop ul","i me","del ing","mid den","lo c","pa kt","F C","h ang","ï n","in ve","ma x","beg on","gra den","woord voerder","meld t","Waar om","2 2","b and","e chte","ge k","le es","H aag","w innen","ver lie","be staat","as e","dan k","n ers","s f","re m","beg int","inder daad","M in","aa f","re gen","us sel","waar op","M an","j uni","il l","mo cr","bel ang","8 0","l op","at is","aan val","se ctor","zo wel","pl icht","dien sten","ris ico","ap par","beg innen","g oo","ge gaan","it ic","ra p","En gel","pre sen","mak kelijk","contro le","V O","a ken","het zelfde","ol f","Br ussel","bu re","cris is","ver gelijk","be ide","com ple","b eren","z oon","we zen","gel o","sl im","geb re","ko ers","mat ig","voldoen de","b oe","er k","ge houden","sp ron","ac e","com p","lever en","gesp roken","vertr ouwen","M is","Z elf","b ouwen","g ar","v ir","v aart","te erd","ver z","voor komen","maar t","spre ken","speel t","b ieden","v oed","z ing","wit ter","Vl aam","stu denten","aut om","ne gen","ac k","S ur","V eel","b in","gen oem","ug d","5 00","li ch","Brit se","VV D","aanwe zig","g af","er gens","ter dam","zo cht","daar voor","werk elijk","regel s","res ult","Rot terdam","T ru","er voor","ver se","hoe f","won ingen","vis ie","vrien d","kor te","prem ier","f oon","v accin","w n","at eg","ze e","ra m","tem ber","C O","h n","pro ces","kl anten","kle ur","A f","O pen","ë le","aa gt","on line","kun st","Al leen","politie ke","le gt","le ger","sl ot","stel de","act ies","slachtoff er","P r","Z uid","ge be","le er","ar m","Fran se","belangrijk e","ver m","ar be","ur s","hoe ft","war m","person en","lei der","sep tember","D 66","y s","ge s","us e","20 19","sch uw","fl ink","oplos sing","verkie zingen","p ort","st uur","be sp","ang er","pas sen","bur ger","col le","vlucht elingen","bes met","S inds","i x","w ap","ge volgen","stem men","Om dat","mot or","s se","al t","le ment","hou der","off en","besl is","zw are","ni veau","b ot","v i","voor mal","daar bij","ek s","bru ari","stik stof","2 3","v ies","ver len","ver da","ik ken","waar mee","hou t","win tig","roe p","dor p","d ieren","de eld","in s","el len","ge meester","ver wij","ru k","ex per","ex tre","kijk t","verda chte","w are","ker n","fe bruari","Bo ven","bepaal de","gebe uren","I e","P S","be vol","se ks","ant woord","O l","d ragen","v ele","er van","ag ue","cont act","spel ers","jul lie","verantwoor delijk","M er","w ist","voor zien","bl ok","gro en","bele g","kie zen","jo urn","nor maal","' .","j ur","ver v","mer k","sn ap","strij den","T ij","m el","p ijn","u re","ge kregen","om e","voor dat","ci ële","leg a","dru g","Fran krijk","stop pen","B ar","C ar","b ro","k ru","m ig","on de","icht ing","kin der","vers iteit","som mige","G a","K on","r il","en orm","ge vangen","le iden","gel oof","als nog","du b","pr ima","stra ks","burg ers","p or","an en","in woners","waar schuw","fe st","ië le","gevo erd","mede werkers","jong eren","zor gt","K e","f ijn","aan deel","me i","ig t","to ber","po st","ja x","vide o","D on","L i","T witter","ne e","ont de","ron de","Le ague","Nederl anders","A jax","j ui","ad voc","tre in","recht bank","schrij ft","lin ks","vlie gt","keu ze","3 5","gel dt","lijk en","so ci","woor den","lief st","O S","d oe","pr iv","schap pen","ho w","col lega","betre ft","bure au","B l","e euw","ie ken","al ing","al es","or me","me is","Al le","veilig heid","vak er","wap ens","7 0","c amer","j ouw","p ap","aar de","ver zeker","vr oe","ok tober","Jo hn","contra ct","tit el","Mis schien","d ur","sch il","kw aliteit","lie ver","g ast","m ber","or ie","sl aan","vol gt","pol itic","vraag d","ieden is","schrij ven","Tij dens","N og","t wintig","in ge","is en","re in","olog ie","T ur","U tre","en orme","st al","af stand","gr atis","pro beren","minister ie","draa ien","Belg ische","tele foon","Ma x","vij ft","i ste","r ouw","be kende","ig er","sch at","sch re","ter mijn","ve mber","ic a","win ter","St aten","su b","gelijk e","6 0","g ers","re actie","ant ie","kl inkt","ble ef","leven s","jul i","bevol king","d ik","d igen","k aart","er op","in de","om geving","il le","di o","lie p","We st","gesch iedenis","momen teel","direc teur","Utre cht","E x","H ol","v eer","den t","le zen","inter nationale","Veren igde","v iel","an nen","daar van","gem ak","mer ken","no vember","produ ctie","iën ten","NA VO","9 0","C D","i um","aa p","ad vies","art ik","tem per","maatschapp ij","provin cie","e il","r ist","an te","voor lop","ou der","com mun","produ cten","lok ale","h om","o d","re is","gr en","pro ject","ind ustr","au g","vrien den","K an","k am","le m","be wijs","ra ce","die p","af ge","ak k","br ief","moe sten","gesch reven","scher m","H ar","or de","le x","mo cht","waar van","her in","kr ant","spra ke","Oo st","Gro en","t af","w ol","op pen","re ed","ke ken","itie k","vl oed","fr ik","Antwer pen","Tru mp","b y","d ak","p ra","ge ïn","tegen over","staan de","gele gen","Ch ine","Ver der","b ra","w apen","an je","de mocr","st ation","ver moe","it er","be vestig","voor uit","ken s","ra pport","ber t","ko zen","groe i","lich aam","D u","V or","c amp","j ou","m ass","é l","ver sie","man s","spra ken","2 7","c y","je ugd","ker k","pr om","besl uit","duizen d","L a","l eren","n oemen","r ent","s ingen","y en","er ing","gen oot","be woners","ap an","ot he","vrij e","ctie f","fen sie","cult uur","H el","P a","S u","b ood","ij e","on geluk","bo s","ci r","Men sen","vie w","Boven dien","F in","f iet","h oek","s on","al isten","be handel","dat en","over igens","dr on","Nederland s","snel ler","stem ming","verk oop","elektr ische","drug s","be zoek","dag elijk","wij zen","em ber","econom ie","A frik","i Ph","m orgen","er den","st uren","le ving","ig heid","ap ril","bl oed","kon ing","Min ister","B or","M ich","g l","h oort","t w","aar dig","ar te","ag er","onder steun","ion ele","pr aten","win ning","dec ember","web site","camer a","E ind","H u","S a","h or","l ink","r ou","w ijn","id t","Twee de","D o","M ac","d racht","oe fen","ne g","do chter","In ter","Ne e","sy ch","ern ooi","G er","S e","i ers","m ater","in ten","al ter","ist ische","ger aakt","bur gemeester","schul d","kwart aal","2 6","2 8","E C","f i","h t","h am","st offen","ken nis","ier e","tij den","bed rag","202 3","slachtoff ers","gezond heid","Ie der","u le","en d","in v","st oot","he et","vo elt","ust us","N L","h ot","v ari","oo st","ro ffen","sp or","over al","vo elen","plaat st","ouwen s","Ver stappen","beschik baar","4 5","f out","h of","ie el","it i","di um","get roffen","bru g","wed strijden","duizen den","C o","N ou","f eren","m or","oor den","ver leden","gen e","over leden","was sen","blij f","mil ieu","ple kken","Mar k","vier de","dem ie","aug ustus","M at","T V","b om","en n","st onden","te erde","der ing","re ag","waar d","do wn","au w","ger icht","hou ders","tre den","weten schap","jui ste","voorlop ig","pra kt","V and","on en","sch ak","ne mer","daar door","aag d","vert ellen","verk open","actie f","stij gen","gebeur de","bew ust","hi eld","spron g","t ers","ge zel","oe pen","im pel","stel lingen","volgen d","speel de","tu in","gegeven s","train er","leeft ijd","akk oord","C or","H er","Q u","g rij","i val","l am","m oord","v d","y mp","è re","te s","ver plicht","sch ot","dig it","ies o","con su","belangrijk ste","organis aties","milit aire","a den","s ele","ge he","ul l","wil lig","stij ging","hog ere","h on","t v","w ieso","at s","ra c","com bin","ip s","groe ien","samen leving","gez in","zon ne","bericht en","d uren","k aar","s al","et ten","aan delen","be veilig","han gen","mid delen","ieder e","On ze","verl oren","bren gt","stu die","erv aring","fun ctie","use um","V r","W er","wer p","im mers","es se","art s","beg onnen","brand weer","aut or","aller lei","M us","M art","O M","R u","S y","k off","p sych","w oe","re cor","waar den","pl ot","vr aagt","ber oep","win naar","Hoe wel","finan ciële","stru ct","taf el","b oom","p og","on a","it te","or d","ol ang","to ernooi","over tu","na u","kl ap","zet te","tre kt","ho ven","samen werking","produ c","draa gt","verde dig","bie dt","iPh one","C on","O ran","g re","i ele","k wij","l oon","in vloed","ge h","be hoor","ra ket","sch oon","wil t","gemeen ten","za me","last ig","noem t","asiel zoekers","plat form","standig heden","C ol","C ent","u de","te kort","om zet","eren de","pen si","werk nemers","spe eld","To ur","econom ische","pensi oen","A ir","A ustr","B er","er bij","de fin","le vert","ul dig","goed kop","bed re","Vl aan","tr ouwens","Antwer p","f ans","men ing","ic atie","gew onnen","ex pl","wereld wij","ce pt","ontwikkel ing","industr ie","Austr al","Vlaan deren","a ft","d rij","k ou","k and","ge haald","ge vraagd","te v","ver kocht","re spe","re age","to cht","am mer","verb ru","gebouw d","L in","N aast","R ijk","b il","on danks","dat a","kom sten","wij ze","par k","Daar mee","hoog ste","spre ekt","zw ak","sche id","Nederl ander","2 9","A u","N ieuw","P ol","b racht","h ist","s ers","u ele","z il","te sten","der heid","be do","be doel","In st","deel s","Eer der","artik el","Ieder een","H aar","L aat","m b","uur d","ind ruk","dit ie","bo er","Ch ar","beur s","verl ies","positie f","geluk kig","H a","d aal","t y","v ou","te k","ang st","gew one","loc atie","P as","b ab","ge ver","ste gen","par lement","opt ie","centr ale","milit air","kwij t","M os","b ier","i aanse","r om","t ingen","z we","el ing","al len","le ef","ag ne","sp ro","na men","ma il","Ne w","inter view","lief de","vir us","voed sel","gevangen is","alter n","vou dig","7 5","B ur","M il","r atie","t wijf","ol d","ro de","ma ch","zom aar","welijk s","H o","ver mogen","le ek","se s","do cu","ieu ze","hoo pt","recht en","com missie","so wieso","spel er","lag er","gemiddel de","Z aken","h open","k at","k west","w iel","ie ven","om standigheden","ond s","toe gang","kw al","Daar bij","verwacht en","vre em","verg eten","dank zij","boe ken","Oran je","B iden","a ur","a us","f act","ge werkt","op dracht","le eg","be zoekers","Daar na","vert elde","raak te","verander en","verander ing","recor d","C an","c ap","f an","k ten","z ier","de bat","in iti","st een","be weg","ik te","ven t","sp ann","ter rein","hou ding","mogelijk heid","Voor al","vor men","ina me","verg un","Vlaam se","Tur k","b aas","in komen","ste den","se con","jaar lijk","han delen","inter ess","beter e","gebeur d","qu a","Un ie","verz am","vroe ger","othe ek","K l","K aag","m y","m elden","o ze","st ar","ste v","haal t","so ft","aange houden","produ ct","dem on","conc ur","Zelf s","Sur iname","defin itie","L im","U ni","V rij","b lijk","s ign","s impel","oor ten","voor bere","ze ge","als of","ad vis","ke ers","vrij heid","vrij willig","mogelijk e","Vol ks","gebruik ers","ban ken","pat iënten","PS V","S int","f fe","k elen","v og","er r","al gemeen","ten t","aal f","wil den","str ateg","Sch ip","gemiddel d","schre ef","T en","a h","b ang","e et","e isen","l oos","p om","an c","le ed","snel heid","co de","inter net","boven dien","rel atie","extre em","R ob","c ou","g isteren","u d","z agen","in ken","el l","onder wijs","pro test","do den","meer derheid","ic iteit","ker st","br oek","gew ond","kr itiek","duur der","Ar n","wis sel","presen t","politic i","Chine se","P ut","W or","p racht","de den","et itie","te gelijk","ste ken","onder deel","ru stig","staat s","deel t","besl oten","bu d","wit te","Gel uk","Fe yen","B S","g if","s ne","in clus","ij en","we sten","gel uid","ru kt","hoe ven","groe pen","19 9","oog le","eerder e","gesl agen","max imaal","genoem d","N ation","p ot","oo sten","sp annen","ont staan","ont vangen","di verse","ser v","ust itie","ziek te","bestuur der","betaal d","verlie zen","l at","n orm","ge zicht","ver halen","om hoog","be v","as ie","moe ite","po dium","ein delijk","Ter wijl","san cties","arbe ids","E m","J ong","V A","W as","W anneer","Z ou","voor deel","sp oor","ve st","werk te","pr oe","eigen aar","pre st","gele id","hel pt","regel matig","haal de","vl ag","miljoen en","lij den","fest ival","Pa ul","O r","i ct","l ot","m een","en te","de t","ver keers","geb oren","jon gen","onderzoek ers","buiten land","spra k","groter e","advoc aat","nau welijks","hist or","Feyen oord","B erg","G oogle","b it","d y","v lees","ge kozen","ver hog","nog al","waar onder","ië r","app s","ras sen","cre ë","voormal ige","kwest ie","A S","K ijk","Q at","R T","on afhankelijk","al y","is e","sch iet","rij dt","eer lijk","ak ker","par keer","ip pen","Sp ort","verwacht ing","lever ing","Wil lem","dis cus","effe ct","tw aalf","sele ctie","behoor lijk","Geluk kig","B re","J apan","K ort","d ier","h ond","i or","r ik","s how","u eel","en de","ge heel","gen aam","over winning","bl ik","kl achten","dr oom","kle ding","kant oor","ri ère","verd w","si die","sf eer","gelo ven","gebre k","gemak kelijk","Vand aag","B M","K r","M eer","N atuur","R ed","c as","g oud","t i","z ul","in gezet","op per","we kken","voor stel","ou ten","gel u","gel aten","ul d","wij st","du el","du re","la ge","pas s","bre ken","Europe es","bepaal d","Gel der","gener atie","b ers","c ur","e mot","h ers","h ore","k ar","s et","z us","at ische","te ert","der d","be heer","ve cht","ion s","Mar ok","rel atief","verdien en","meis je","demon str","Schip hol","E ven","a zen","r id","st aten","be zorg","je zelf","ve chten","ben ad","bl ad","ster ke","mogelijk heden","hel aas","Zo als","jon gens","ga ven","Sp anje","bete ken","vlie gen","stat us","hang t","beslis sing","sub sidie","mater i","N oor","P vd","b oot","c ast","g un","p ad","at isch","is sen","wel licht","tal len","zw art","201 8","techn ologie","uiter aard","fabr iek","Mus k","N P","P olen","b on","b un","r and","x e","z aakt","oo ft","ge p","al d","we gens","am per","agen ten","cr et","zw arte","model len","car rière","klas se","begrij p","temper atuur","bud get","K o","a in","t aal","z anger","an ne","on ver","ver spre","op vallen","gen oten","uit stoot","over een","door gaan","geb ieden","ac teur","fe der","tra p","mis s","Ze ker","stand aard","zoe kt","reken en","bond s","serie us","pog ing","B os","G ent","I N","N V","k m","n ot","v racht","ra ken","kan sen","ist isch","pen s","min ste","co al","besl oot","stij ds","alis eren","veren iging","inve ster","camp agne","3 3","B innen","d w","i ft","p h","r aal","y n","ch em","ver goed","op mer","sch ieten","waar dig","ger echt","her stel","gest uurd","vl oe","Te gen","nation aal","pan elen","speci f","Ital ië","inci dent","comple et","journ alist","dagelijk s","bab y","coal itie","B B","K ie","K om","T om","m and","et c","st ak","ig ingen","wer ker","ct ion","acht ig","ont moet","ger oepen","min ist","pr aat","iv id","res sie","bru ik","verkl aring","tran s","Som s","result aat","blijk baar","K un","N ij","S o","U S","an ci","an ce","st ers","st ige","al weer","ver bod","be zit","sch olen","to er","ind ivid","lu kt","ged acht","gele verd","ui delijk","hoofd stad","meest al","persoon lijk","prof ess","activ iteiten","popul air","dub bel","gren zen","vari ant","b ook","f ig","o ken","in eens","ij t","ver st","ver war","gen o","gen ieten","ber gen","gro ene","ple zier","ran ten","vrij wel","ce des","roe pt","li ve","verd achten","201 7","Te sla","gere den","bew ol","pan demie","kap ot","sol u","imp act","comp etitie","result aten","Mer cedes","A pel","W h","n el","s elen","en en","de al","st a","on ne","on langs","ar ch","voor spel","voor sprong","ra den","oon d","tot ale","even tu","binnen kort","gemeen ter","Ch rist","spe ciale","aange kond","Jo han","fabr ik","consu menten","bedo eld","Qat ar","Pvd A","E N","P at","b omen","g u","k eld","z ers","ge keken","ge stegen","ver vangen","der tig","re eks","be gr","je cten","uit zonder","sch op","sten s","deel nemers","ple in","av or","fr ont","minu ut","har de","9 9","A lex","F ace","t roepen","ge plaatst","re ur","aan vallen","sen s","eren d","geb roken","werk zaam","kw ets","pr op","ab solu","sche pen","brand stof","duur t","201 4","rest aur","feit en","beper kt","CD A","Afrik a","F err","I J","I V","K ar","L o","N o","a me","c af","h op","on geval","ver tegenwoordig","ien d","onder nemers","pl ant","pl ay","open baar","tegen st","bo den","con fl","deel de","net werk","get rokken","gesch ikt","stuk je","fil mp","vrien din","up dat","voorbij e","sluit ing","goo ien","inde x","geh oord","gemeenter aad","a el","f el","w o","w ens","uit spraak","ste ek","eer den","wor d","agen t","mar kten","Amerik a","leid t","draa it","Par ijs","toon t","offic ieel","Bra b","fiet sen","3 2","B u","D r","D enk","P eter","V is","h yp","p ut","op zich","uit ker","sch ip","af scheid","Al les","Oekraï ners","gesch oten","beur t","pak ket","Eind hoven","3 1","S amen","k oe","k ingen","k ast","r et","ge ë","een maal","aan bod","ou den","ra d","and a","ag ram","gel s","onder handel","zo iets","sl apen","ion eel","pr et","St ad","lo ck","Le iden","va ste","meld ing","ban den","gespre kken","vliegt uig","inv asie","prakt ijk","hore ca","cret aris","4 00","A M","b all","f avor","k eten","n y","r ing","v ar","w él","de stijds","ie p","van avond","over leg","St aat","stad s","tien tallen","club s","Gro te","probe ert","kru is","digit ale","tev reden","Lim burg","opzich te","3 6","A d","E K","Z elen","c le","o ven","s a","t ru","v onden","er ger","er tijd","in ke","ge men","is se","ver beter","ver trekken","le y","ar den","ar io","ra b","uit gebre","un t","ro t","onder tussen","wel kom","vol wassen","daar op","gaan de","bo ete","persoon lijke","cie el","leu ke","Kie v","Zelen sk","F orm","M ag","S m","l iter","p oten","voor stellen","ing er","per fe","ok ken","dr ingen","dr oog","Daar door","Van af","verb and","ton en","vlucht en","ieuw d","tek st","beweg ing","Arn hem","Put in","5 5","C ity","G u","H ong","I I","M on","U iteindelijk","V o","an e","ver laten","gen t","il en","mo der","br ood","pr ik","sie ke","hand ig","voer ing","winkel s","bor d","reag eren","verbru ik","discus sie","Ferr ari","3 7","D el","b a","c ro","i zig","v ac","w isten","an aly","de ta","ge speeld","der gelijke","den d","re izen","be hoef","il s","uit zen","onder zoeken","dr inken","con clus","str en","ut ie","ce p","On danks","verschil len","mat ige","stij l","zon e","ern stig","ner gens","schul dig","olog ische","Oo sten","veroor zaakt","part ner","C l","D oe","J u","J on","p aal","in komsten","ver bet","op treden","aan zien","ar ingen","ol oog","ste eg","af val","ak e","ged ragen","richt en","honder den","Ital iaanse","colle ge","herin ner","Inst agram","Mos kou","kwal ific","B au","B uiten","D i","D ank","E T","S P","k king","m oed","m useum","p and","t ar","en ten","in te","oo ster","ver w","aan gif","we ig","ad a","ap pe","ne der","ak ken","ant i","gew icht","erg ie","sle chte","verl oor","sc en","west erse","tro k","vuur werk","bijzonder e","koff ie","expl os","BM W","3 8","3 00","? ”","N aar","c ru","g olf","r iv","t weet","et ers","ge vers","ver boden","it eren","aan v","le cht","wer pen","af gesloten","au we","br on","even e","kr it","kelijk e","bedrijf s","coron av","rec la","Ge woon","Is ra","fun cties","Over igens","bestaan de","elektr iciteit","gevaar lijk","priv é","vijft ien","democr atie","Face book","Form ule","E igen","K a","P ort","c ul","z ine","in val","in zet","aa i","oo fd","ie ve","ge ef","ver sl","ra f","uit dag","am ing","min imaal","iv iteit","lucht haven","Russ isch","mat e","veilig heids","inst all","gezond heids","tro ts","bescher ming","Som mige","super markt","genoem de","link se","combin atie","B art","H ad","K le","S am","b ad","d ro","f ant","p k","t yp","er uit","ver e","ver re","be se","sch oen","sp ullen","vol ks","pl us","ic ro","geb leven","tijd je","br anden","bo dem","toe ge","gew en","ex cus","co hol","regel ing","res s","Wat ch","belan gen","Fran s","He eft","reden en","bere iken","wijk en","begrij pen","voert uig","dik ke","wereldwij d","vergun ning","secon den","star ten","Brab ant","A D","F l","I S","J er","N ieu","P er","b ol","b ack","d aling","e men","m as","r ook","r ele","s oorten","aa ien","ver n","be vat","sp its","ne m","kl opt","aag de","bel len","huis houden","fl inke","fin ales","ade m","coron ac","oorlog s","stuk ken","meld ingen","zin n","gere kend","E én","G od","M ed","R ad","R aad","i re","p s","p ij","r or","t elijke","ë l","in krijk","is h","ver zet","ver trek","be kijken","voor waarden","ste erd","lie d","plaat se","tra dit","la chen","jaren lang","woon t","daad werkelijk","bescher men","sm art","vergelijk ing","beleg gers","autor iteiten","respe ct","D a","I D","f ase","k ol","v elen","v lo","an de","ar re","voor af","sp l","aal d","vo el","ger ust","br aak","hoo f","gro ten","maak ten","zoe ker","kracht en","bep alen","vlie g","zak ken","amb ten","iën t","don ker","voert uigen","Vlaam s","gelegen heid","initi atief","concur rent","bonds coach","restaur ant","D av","J ul","S er","in o","al cohol","van zelf","ver zoek","sch aal","se m","sp ar","sl aap","min stens","bo el","oeg d","gest oken","gra p","cont rol","tien de","Fran k","zicht baar","mak er","oper atie","wa gens","struct uur","inclus ief","aangekond igd","confl ict","B ank","B rug","M ol","T im","f ic","g las","h eren","r ood","t an","z aten","ó ó","de uren","het en","be halve","au ffe","nu t","ger u","kl ant","ster ren","moe de","pr inci","com pl","ble s","besl ag","zorg de","verd acht","Gr oot","Me ch","Hol land","hot el","goedkop er","vergoed ing","izig ers","excus es","H en","P iet","R os","T s","f as","j ammer","t ank","v oren","y e","z aal","de fensie","on ie","een voudig","al i","ver volg","aan s","We sten","gemeen schap","inter esse","kop pel","qu e","sol daten","pport ers","bescher m","loc aties","max im","voormal ig","A b","G i","L M","N S","P ad","R em","a bel","f onds","h at","z olang","in tussen","st ab","op leiding","ar gu","ig ht","ra mp","il ip","uit bre","af f","af deling","ad res","land bouw","kan ker","open ing","lu idt","keer d","besch uldig","stem d","positie ve","acc oun","erv aren","yp to","verkeer de","let ter","hoeveel heid","Kon inkrijk","Hu is","ymp ische","NP O","1 50","3 4","D ijk","N or","T ok","b een","c an","g at","h onden","p il","st or","ie ur","at eur","ge est","ver rassen","op genomen","iet e","sch aat","De fensie","as sen","ne y","ne us","goed koop","zij de","buiten landse","ris is","tele ur","veroor deeld","sto el","Com missie","eil and","caf é","scen ario","A s","F A","L onden","R on","i ve","k u","t ri","v et","et sen","die sel","ve e","ben e","con feren","Ch amp","la y","19 8","bere ik","publ ic","El ke","train ing","offic iële","med ische","comple x","CO 2","leer lingen","verv elen","behandel ing","Lin ks","bedoel ing","cap ac","interess ant","soft ware","verhog ing","B ull","C lub","F I","F or","P l","g ig","i der","i pt","l ap","r ice","v oegen","st eren","ver tra","ver ga","or k","aan pak","be ker","be gele","sch ui","door dat","na uw","ent hou","wij zig","keer t","kle uren","202 4","sle ut","verb ind","Sp elen","Sp aanse","leid de","wet houder","mak ers","amb itie","conc ert","rijk e","zu iden","gelo st","schil der","Hel aas","H eel","I C","P or","T u","Z wit","b by","c al","l on","u gen","z over","ver ster","over schrij","am a","tij delijk","geb o","geb as","get uigen","wereld kampioen","An ders","gesch ak","onze ker","log isch","stad ion","ler aar","bere ikt","vand aan","ob il","opge pakt","besmet tingen","mig ratie","neg atieve","altern atief","verdw ijnen","Natuur lijk","A pp","G em","H un","J um","T hom","Z we","b um","e ditie","i z","l aad","p ool","en ig","er mee","ij den","st anden","re delijk","ou ter","il leg","bij een","ter ij","waar na","ond uidelijk","ic ket","toe val","achter grond","ho gen","aange past","avond s","noem de","Bra zil","pap ier","vijft ig","Vor ig","wetenschap pers","Antwerp se","jaarlijk s","vrijwillig ers","lock down","E R","H oog","R a","T ele","a chte","b oos","d alen","f ac","m us","r ang","v aardig","in i","el ders","we der","id aat","gel den","ne s","In middels","daar in","vo elde","bet al","ite d","cr ypto","ga me","volle dige","hoor de","lopen de","Engel and","Minister ie","wo ke","hyp otheek","Jum bo","K at","K ore","M c","b uren","j et","€ ™","al vast","ver hogen","ar moede","ou dere","uit gevoerd","sp aar","sp ir","af spraken","20 00","gem eld","ir us","baar heid","Eur o","rond om","plan ten","bere id","team s","momen ten","vaccin atie","Open baar","Bau det","bles su","H amil","R en","f les","g an","k ust","een tje","ver niet","re e","re acties","voor namelijk","af loop","sl aat","ne k","pro ce","ic s","toe zicht","won gen","An der","la den","bre ed","lei ders","kil o","zak elijk","che ster","finan cieel","Veren igd","bood schap","raket ten","filmp je","gebas eerd","A t","D is","D rie","T r","g aten","l ijnen","v een","el le","ge organis","re izigers","ik e","og an","ben ieuwd","ben zine","ier d","ke i","daar naast","bet rouw","di visie","ged wongen","com ment","com pens","Oekra ine","19 7","duur zaam","stre eks","publ ieke","vre de","welijk e","Man chester","verantwoordelijk heid","enn ia","ty pe","Isra ël","Hamil ton","? ’","A R","E V","J or","L ou","S an","S ter","W in","b bel","d ou","f ys","ver voer","om a","re cent","aan vragen","sch oot","ag ressie","onder zocht","ad ver","tij delijke","br onnen","maal s","fe e","lo ze","pe il","onderzoek s","bre ekt","duur zame","itu ut","gere geld","betaal t","film s","Af gelopen","zwe m","analy se","aangif te","coronac risis",", ”","3 9","6 5","A chter","G oed","J oe","S c","V roe","Y ork","d cast","é t","oor zaak","ver blijf","ar s","ra pt","ag ina","over last","af komst","zo genaam","ap t","sl id","land s","zi chten","open bare","min im","art ie","stel sel","com mer","win t","snel le","sie f","dru kken","aange zien","veil ige","bekend gemaakt","Be ide","ff er","dec ennia","sse cretaris","zonne panelen","sal aris","Turk ije","strateg ie","proe f","materi aal","begr ip","werkzaam heden","absolu ut","recla me","H ug","c ateg","e iden","i elen","st ichting","ch ip","ver ra","aan getroffen","le ge","met en","ne ut","ont zetten","open en","bel and","dig d","no dige","versch ijn","Ver volgens","age ment","speci aal","Un ited","crimin elen","wa chte","spr int","Sur in","bro er","soci aal","veer tig","Zelensk y","D am","H op","M id","P rem","c ade","e u","f ort","l d","v oe","z ui","ü n","op slag","aan leiding","le k","voor keur","ur a","ur ele","die f","waar voor","acht ste","ul iere","str and","We et","gev uld","ple it","achter stand","verk racht","los sen","201 5","meld de","kn op","ern stige","tele visie","ontwik kelen","finan c","red den","probe erde","Eer st","appar te","warm te","exper ts","mass aal","koning in","rou te","gezel lig","vreem d","sne euw","gemen e","Buiten landse","conferen tie","gebo den","A Z","B eg","G en","M ad","W it","W im","c la","h itte","i chte","i Pad","r at","s cor","ge con","ge kocht","op vol","gen d","ar rest","me et","ten nis","ft al","mo chten","pl ast","ont slag","man ager","dr oeg","art sen","lu isteren","con s","str aten","ple eg","lan c","gest art","bas s","201 6","ss ier","Mo et","syste men","Onder tussen","kond igde","Mich ael","kaar ten","kand i","pom p","zul ke","Gelder land","tegenst ander","uitker ing","Dank zij","coronav irus","vlo er","capac iteit","Hug o","ontzetten d","4 6","G o","H am","L et","N at","R ond","W out","t elt","w al","er in","er aan","de gelijk","in spe","at uren","ge et","is s","is lam","ver nieuw","ver slag","it aire","ur t","sch a","sp oren","wel k","atie ven","do ssier","im ir","even eens","get e","besch ad","kop p","Amerik anen","pak te","eind igde","rec ente","amb ul","techn iek","verdien t","jur y","commun icatie","drij ven","Rijk s","spann ing","opvallen d","updat e","4 2","A rab","B ru","L an","S pe","W elke","d ijk","h ie","i men","i ment"]}}