{"version":"1.0","truncation":null,"padding":null,"added_tokens":[{"id":0,"special":true,"content":"<UNK>","single_word":false,"lstrip":false,"rstrip":false,"normalized":false},{"id":1,"special":true,"content":"<SEP>","single_word":false,"lstrip":false,"rstrip":false,"normalized":false},{"id":2,"special":true,"content":"<MASK>","single_word":false,"lstrip":false,"rstrip":false,"normalized":false},{"id":3,"special":true,"content":"<CLS>","single_word":false,"lstrip":false,"rstrip":false,"normalized":false}],"normalizer":null,"pre_tokenizer":{"type":"Whitespace"},"post_processor":null,"decoder":null,"model":{"type":"Unigram","unk_id":0,"vocab":[["<UNK>",0.0],["<SEP>",0.0],["<MASK>",0.0],["<CLS>",0.0],["s",-2.6907316506078196],["de",-3.371574698039735],[".",-3.416023081531465],[",",-3.452362890556943],["e",-3.5377675742096066],["a",-3.8560634981095205],["en",-4.124387527570521],["t",-4.166733443332884],["la",-4.285058060647856],["d",-4.448260250895508],["’",-4.640061660549163],["the",-4.7048068992505225],["y",-4.719788446630181],["n",-4.787789685759773],["que",-4.8344318617475555],["in",-4.89571558511185],["el",-5.066762618928072],["l",-5.0774975805966385],["to",-5.115093429183775],["-",-5.184466260375606],["o",-5.283138212096361],["le",-5.284984686336291],["un",-5.305846002231242],["of",-5.342179402967917],["on",-5.3938115459702125],["and",-5.405887442767201],["'",-5.41763486942302],["is",-5.515987326632011],["à",-5.597416818203623],["u",-5.684536571473716],["van",-5.689841166567101],["het",-5.803152852837918],["les",-5.813808121659491],["i",-5.818464092603172],["ing",-5.829909296505514],["los",-5.835717034306798],["een",-5.846041546886495],["\"",-5.866694849265535],["“",-5.9529751468404335],["al",-5.970172159539963],["er",-5.97450540111209],["ó",-6.028545502383485],["est",-6.041623333631897],["du",-6.051209106651125],["con",-6.120414134268335],["del",-6.128382864106388],["dat",-6.191876246146412],["ción",-6.217897014438844],["op",-6.246833458251903],["no",-6.254516374472994],["(",-6.259403547706427],["r",-6.28232104770194],["por",-6.29639201233778],["for",-6.301505447643175],["A",-6.301948386100465],["that",-6.316063052416434],["be",-6.317161008582099],["para",-6.352422929838154],[":",-6.369773078455513],["De",-6.386394061366813],["ly",-6.3925094082241625],["une",-6.4004282047964995],["pour",-6.40286601797183],["La",-6.4075365102208846],["una",-6.45913616690159],["The",-6.470425228214438],["was",-6.487250644648352],["it",-6.49164987024948],["qui",-6.548227572567871],["I",-6.566056749475507],["je",-6.577548650578899],["dans",-6.602902126328427],["with",-6.609191676297959],["au",-6.62211858190245],["voor",-6.622400723058798],["met",-6.624738593151401],["«",-6.648526575293644],["sur",-6.663309723741946],["lo",-6.6841509604678695],["ce",-6.691822814231109],["il",-6.70800849850143],["die",-6.710023782407978],["zijn",-6.7117944357836485],["re",-6.727869974204598],["par",-6.7280016704462025],["niet",-6.729532787807431],["C",-6.736904300889238],["é",-6.748192939201401],["pas",-6.751115019653055],["En",-6.76233437995897],["las",-6.768791074618866],["an",-6.769517064619642],[")",-6.777778491908727],["ment",-6.796774920202601],["om",-6.802730553596728],["El",-6.812464235478403],["m",-6.829963818611073],["c",-6.877009156077362],["ha",-6.894625519281837],["Le",-6.900562538313672],["we",-6.946809505533508],["más",-6.949928947851978],["are",-6.968687461514644],["aan",-6.977941393949219],["he",-6.978894631735631],["?",-6.998573889580831],["have",-7.023121926330905],["said",-7.068026000140998],["L",-7.07655846429121],["ont",-7.077758147873022],["S",-7.08586166742975],["plus",-7.089944811589975],["over",-7.094591376908777],["f",-7.108303955430795],["son",-7.122662141472603],["ook",-7.1589282418560725],["p",-7.160436147363571],["z",-7.1616564160442895],["me",-7.170794144493051],["como",-7.186100218687313],["qu",-7.189274325863147],["19",-7.196395728092586],["from",-7.200617419732097],["or",-7.206776964887961],["by",-7.207348143634306],["1",-7.21077882454504],["has",-7.213482684931506],["aux",-7.226399581123662],["”",-7.2466480724328335],["will",-7.264486812124517],["avec",-7.264526833788315],["20",-7.26820999868926],["bij",-7.271496341775366],["ze",-7.276522984406599],["maar",-7.285365493414329],["mente",-7.289013567375861],["not",-7.30337200340162],["uit",-7.305536727190635],["In",-7.344129832206471],["été",-7.344321610406638],["had",-7.361892763240975],["2",-7.380971583988469],["dan",-7.382329039642729],["h",-7.395848204659989],["E",-7.40101070237205],["this",-7.408562186345646],["ik",-7.4283390557552735],["%",-7.428355028411705],["Het",-7.4524449490282585],["his",-7.4539754428368195],["nog",-7.458011992822225],["‘",-7.469577283661579],["ent",-7.490271459435792],["este",-7.497094187951442],["but",-7.5114076395245615],["you",-7.513013120509354],[".”",-7.513940229473127],["”,",-7.535513842030133],["sus",-7.537404577060295],["g",-7.539557764217474],["out",-7.547660766836895],["entre",-7.557787646306485],["door",-7.563828164242013],["their",-7.566630950482772],["can",-7.56827941462638],["zo",-7.5700378803022605],["ge",-7.593148579822298],["mi",-7.596694995869525],["T",-7.598667809735389],["»",-7.599434487687409],["her",-7.603018018357194],["3",-7.606225476821587],["k",-7.6103594114679485],["als",-7.615163606175329],["wel",-7.623434267314197],["naar",-7.633004401987053],["ou",-7.642328730589384],["5",-7.64694178078501],["ión",-7.648334494971039],["ver",-7.649989584967873],["who",-7.653241093652477],["»,",-7.659839334144859],["sont",-7.6622503823891],["Il",-7.662501633991557],["heeft",-7.67079862405877],["M",-7.685692191343868],["x",-7.701570603213449],["D",-7.701693536064756],["up",-7.70599788842711],["ciones",-7.706190327259108],["4",-7.709391142863803],["Les",-7.729608926577253],["We",-7.743570126063393],["all",-7.744532765648659],["000",-7.746748335346799],["been",-7.751356563728152],["dit",-7.7571054460558955],["they",-7.768083183817209],["fue",-7.773126279426464],["more",-7.78440122723188],["were",-7.790680909449204],["man",-7.796095847670527],["hij",-7.8016507744582455],["cette",-7.812362116562925],["meer",-7.81457260619346],["fait",-7.820983873979097],["mais",-7.8266998659703955],[",”",-7.839983315383666],["étai",-7.851056906078707],["mos",-7.854143212263063],["one",-7.855475879859769],[").",-7.863789640754817],["hebben",-7.863907768184804],["moet",-7.878976376831403],["6",-7.881440926399311],["kan",-7.886411438257408],["dos",-7.889626119171265],["about",-7.89673134586044],["pero",-7.8971766706568935],["people",-7.898261999554451],["P",-7.89856647370641],["also",-7.9019356245084325],["word",-7.919200467215976],["bien",-7.9192031088854],["tout",-7.923685314547766],["worden",-7.926502215594434],["jaar",-7.928013158536549],["It",-7.928436410179778],["B",-7.929344338060295],["time",-7.931268357731231],["años",-7.935084882807455],["$",-7.945423238649623],["10",-7.953615604136125],["va",-7.967489389328513],["esta",-7.969790737938924],["han",-7.975027564403526],["puis",-7.984080817731472],["”.",-7.9856938903735735],["elle",-7.991832976881481],["être",-7.992061278740351],["He",-7.994065005306393],["wat",-7.994166325074142],["which",-7.996953575546428],["nous",-8.007420407649375],["F",-8.007932461367883],["j",-8.011591143298494],["On",-8.017704027476782],["también",-8.022149112807188],["\",",-8.02377804844455],["No",-8.027143181017962],["está",-8.028046298253463],["leur",-8.02921739686111],["Un",-8.041511082811017],["ndo",-8.049945283012654],["tiene",-8.052837953221328],["Dat",-8.053664864685663],["even",-8.053727212828829],["waar",-8.05589165040509],["like",-8.057255377482136],["–",-8.057473011935771],["year",-8.063553430655634],["Je",-8.065066564449712],["deux",-8.06577469788006],["ve",-8.074382475178398],["N",-8.07466791106197],["sobre",-8.081188528210605],["),",-8.08152296721973],["8",-8.088807767634618],["Ik",-8.091271530148655],["…",-8.093698696118457],["would",-8.094947355004166],["O",-8.099961003725523],["día",-8.103984965171012],["/",-8.105877577235567],["Los",-8.106978233966558],["2022",-8.111278888323126],["our",-8.111430170117421],["ón",-8.11366819686553],["7",-8.11615404038242],["autre",-8.122586178064347],["même",-8.122761709985243],["v",-8.123927994597551],["new",-8.125125137432525],["ant",-8.128247757938661],["geen",-8.129300161094791],["avait",-8.139589931245276],["lui",-8.14474201635191],["comme",-8.149381857384354],["ies",-8.151928670268747],["b",-8.164289917608265],[";",-8.172649837613516],["per",-8.175239444057992],["G",-8.183136861341968],["if",-8.184654975770494],["aussi",-8.18544383165131],["vous",-8.187084679269883],["zich",-8.190462488757955],["fin",-8.191286616206403],["when",-8.192068109731176],["other",-8.194786098819543],["9",-8.19529521921098],["after",-8.202365741722081],["werd",-8.208823870411141],["30",-8.220924068615194],["day",-8.2249782467923],["—",-8.227207007480029],["cause",-8.230479024477537],["Y",-8.23953720940607],["place",-8.246652437736207],["kunnen",-8.246979951416245],["week",-8.247966735842171],["todo",-8.248814918946136],["0",-8.253573080619349],["Si",-8.25667675493472],["puede",-8.256933727856891],["ans",-8.25721465052223],["faire",-8.265609202292474],["she",-8.270556502823151],["there",-8.270680888004902],["what",-8.274149120490353],["just",-8.2749929709028],["veel",-8.279592848135053],["2020",-8.281339954151921],["parte",-8.282212832258587],["daar",-8.284007704744326],["Al",-8.286103165483212],["après",-8.28966173434798],["U",-8.29074500523501],["muy",-8.294177070952749],["some",-8.303467802444285],["hun",-8.307460363250375],["part",-8.310018949650178],["!",-8.311454436130571],["than",-8.311736970189795],["país",-8.31653570276773],["R",-8.318874525501219],["gaan",-8.320100166851695],["».",-8.322932366975246],["año",-8.330682767201985],["co",-8.332670034008327],["eux",-8.334580295783445],["Maar",-8.338031862067986],["année",-8.341767173110522],["gaat",-8.34281680472483],["point",-8.345050860266966],["mensen",-8.348732930964452],["avoir",-8.353081114356463],["now",-8.354232384719838],["onder",-8.355128779159841],["hasta",-8.366267533203278],["get",-8.370548107600317],["Por",-8.371601025121624],["J",-8.372564893128441],["them",-8.372661287864716],["rès",-8.37428713475094],["ando",-8.374668110558503],["go",-8.378489543520907],["first",-8.380479009848365],["15",-8.386889454683681],["zou",-8.389909651034138],["Se",-8.39436406561937],["two",-8.395765907682355],["ía",-8.39593409844122],["public",-8.396779180434338],["plan",-8.400778442608917],["its",-8.401473298465412],["fois",-8.403270764887964],["weer",-8.405030841112106],["tegen",-8.412661182397713],["2021",-8.413481014716233],["17",-8.415715681365992],["my",-8.41834513718905],["want",-8.41902464114371],["hay",-8.421166462096494],["how",-8.422336643394033],["million",-8.422781638228031],["deze",-8.425474116307095],["desde",-8.428083933059614],["16",-8.433193371183128],["w",-8.43436406841009],["oit",-8.43483034290687],["12",-8.439803710557724],["ar",-8.441884062854973],["ux",-8.442735070491475],["moment",-8.450203626813341],["ir",-8.45468067786176],["back",-8.456825392440248],["personas",-8.45778374009562],["him",-8.459209539381312],["11",-8.467868815735038],["cuando",-8.470809147531057],["donde",-8.483366306703163],["durant",-8.488926484358796],["contre",-8.503865612322368],["land",-8.51269994889066],["24",-8.518125760884114],["car",-8.522145104416104],["long",-8.522852688377778],["Een",-8.523879837165904],["lors",-8.524679140123197],["This",-8.525163532303345],["pays",-8.528703109593266],["haar",-8.532874790716324],["Pour",-8.53345355110736],["state",-8.534269713825271],["contra",-8.535402186922592],["But",-8.536486097400886],["most",-8.537454696658767],["your",-8.540387017118139],["caso",-8.543982808645946],["nos",-8.549623406342565],["peu",-8.553572568670218],["jour",-8.554064379972878],["toda",-8.554943917033878],["could",-8.558107708626384],["ces",-8.566431860031344],["18",-8.568259657233186],["dijo",-8.5780303074139],["COVID",-8.58007155702952],["ma",-8.582015474771413],["able",-8.587243469825157],["egún",-8.589876756807008],["13",-8.590209202848989],["coup",-8.590392129031851],["V",-8.597977853090082],["K",-8.600221618156027],["personne",-8.602383484779542],["any",-8.603897219763244],["près",-8.608592311465268],["work",-8.609388156037753],["goed",-8.611364234369423],["ser",-8.611681685232046],["heb",-8.611741853446777],["zelf",-8.61518597244814],["total",-8.616032462225487],["vez",-8.62377051647145],["ante",-8.624125085755683],["komen",-8.624520948753855],["mee",-8.627941284297876],["porque",-8.63087121840581],["Mais",-8.630912790544286],["tot",-8.631202703331365],["into",-8.637237967990373],["avant",-8.637351386788957],["peut",-8.639168699119361],["premier",-8.641960219945002],["ación",-8.643565335267503],["real",-8.646673995556437],["last",-8.648607496276291],["being",-8.654475524851582],["take",-8.656994492320939],["temp",-8.661118456536805],["through",-8.661627381922894],["Trump",-8.664131228230023],["staat",-8.66472325897714],["momento",-8.665283303144577],["dernier",-8.666117466425753],["final",-8.66640396600175],["50",-8.671667185223733],["hier",-8.671703395684219],["¿",-8.672584372283513],["25",-8.67481206138823],["twee",-8.675824018277966],["tiempo",-8.67889666257528],["andere",-8.679200798639261],["toute",-8.67946217467897],["police",-8.681174483488086],["face",-8.682194457946757],["during",-8.68785077523123],["ex",-8.69055909862504],["solo",-8.690888749977464],["14",-8.691056920326922],["social",-8.6916505040432],["forma",-8.694842207527413],["auto",-8.695549589814844],["án",-8.69614363227879],["make",-8.698053220261313],["había",-8.698402923639843],["ù",-8.703020400891617],["way",-8.70481147628748],["kom",-8.707387589858316],["quien",-8.709086587852727],["where",-8.714329502981453],["coronavirus",-8.718633608038914],["millones",-8.722268857825632],["nombre",-8.72369785861071],["Van",-8.726095355097751],["home",-8.72858165221654],["doen",-8.729943171353955],["Et",-8.734193909297451],["iendo",-8.741960774325257],["todos",-8.74414728733663],["hacer",-8.747412075850216],["Une",-8.7476539477368],["maken",-8.752161329992116],["H",-8.75361756517458],["well",-8.75614874885543],["base",-8.75929512367094],["nieuwe",-8.761683325132047],["krijg",-8.762876758277352],["every",-8.763706603533508],["monde",-8.764134066017677],["going",-8.76592037619287],["high",-8.766026480287664],["off",-8.76728424400007],["sera",-8.767997429117822],["government",-8.770194480607845],["team",-8.77178566350604],["many",-8.771960801484768],["San",-8.772939673295134],["encor",-8.778657605439273],["Er",-8.780516045157727],["président",-8.781795011027832],["á",-8.789139784269032],["Con",-8.789631603473694],["tijd",-8.791403672527213],["están",-8.792399836210585],["zal",-8.792762241003688],["whil",-8.79348080586564],["cuenta",-8.797070285085214],["thos",-8.797470777103175],["moin",-8.797842109119701],["100",-8.799550594615265],["New",-8.7998564398677],["before",-8.801525329644251],["equipo",-8.801542512420948],["sans",-8.803029554677536],["Estado",-8.805508687997275],["première",-8.806579827788918],["nuevo",-8.80944130384495],["mayor",-8.8096557002839],["And",-8.814943566943729],["ado",-8.815743943210016],["mis",-8.81790184229489],["club",-8.818033181358995],["need",-8.819209175325664],["help",-8.821419618918924],["sido",-8.824105510705627],["ville",-8.826852130366014],["emos",-8.827945309892801],["vida",-8.828017430135521],["France",-8.828915065415387],["toch",-8.830797172467918],["down",-8.831311680149332],["tous",-8.833617969099704],["hace",-8.833685185833527],["mismo",-8.836068451877319],["cada",-8.836083194236704],["weg",-8.8363221634959],["partido",-8.837054991988802],["ci",-8.841511164645944],["years",-8.841964178756347],["galement",-8.842353063905698],["primera",-8.842552181674808],["film",-8.842581550579558],["tres",-8.848052136210345],["th",-8.848831060855648],["semana",-8.849357845105189],["ca",-8.850801112254471],["health",-8.8527687209886],["vind",-8.853264822253612],["mijn",-8.855333801539288],["wil",-8.860429001134083],["era",-8.866013217733107],["euros",-8.866750932677686],["media",-8.867094679164481],["Ze",-8.867251347438312],["should",-8.8681933074045],["mal",-8.868348221978026],["gran",-8.86883258762412],["alle",-8.870237074686827],["question",-8.87873005779078],["dont",-8.879766487528737],["embre",-8.879790979104802],["Lo",-8.87998993883228],["importante",-8.882427972441288],["volgen",-8.8830609444723],["hoe",-8.887472725824267],["ministre",-8.887997343346981],["know",-8.88837788202223],["mois",-8.888581942394126],["Op",-8.88869035313136],["otros",-8.893319505705044],["continue",-8.895376135085518],["thing",-8.899379730964727],["tras",-8.899767276589024],["presidente",-8.900025200754246],["agains",-8.90268667450572],["así",-8.90606469699895],["Nous",-8.907490136584576],["cas",-8.910532805099011],["después",-8.915724289001185],["último",-8.916307655662056],["euro",-8.918021864377446],["zegt",-8.918677502333713],["déjà",-8.920194288762625],["ju",-8.920941479503934],["lugar",-8.921469043763754],["Als",-8.921775000802704],["21",-8.923659882603154],["nueva",-8.924056351806811],["nouveau",-8.924617656653645],["still",-8.925124322193456],["pasado",-8.926860644502284],["heel",-8.92732529024088],["Dans",-8.92803539027485],["idad",-8.928373836713218],["local",-8.929232089290437],["Ook",-8.93246874890592],["ation",-8.935704050220025],["eerste",-8.937348238191454],["Hij",-8.93773500968097],["nouvelle",-8.937961158868315],["40",-8.939520549178372],["será",-8.948101700581883],["ujour",-8.948903244385685],["quelque",-8.949867884378786],["certain",-8.953719610833321],["start",-8.955790391319827],["00",-8.957170139986308],["trois",-8.957453007536298],["ba",-8.957563434269648],["made",-8.958780395563844],["22",-8.959617905839057],["three",-8.960748863339395],["vie",-8.96159647783146],["tanto",-8.965071237451115],["She",-8.965562677737356],["medio",-8.967900082483226],["leurs",-8.969695656520514],["200",-8.972114390960325],["Na",-8.972201697104317],["force",-8.973067158137138],["iets",-8.973343147898115],["donc",-8.973410112602807],["Die",-8.974159719719179],["may",-8.97600636200998],["don",-8.982171366734462],["Daar",-8.985233025795022],["Nederland",-8.986324672113412],["look",-8.98657788784674],["game",-8.987167055818983],["lopen",-8.99029546584256],["Ademá",-8.990797799251968],["sector",-8.99257099538124],["ça",-8.993072599060952],["zien",-8.993082276109426],["second",-8.993765434049081],["support",-8.994803742116162],["hele",-8.99495579568363],["hem",-8.995800955046718],["mejor",-8.996020847219132],["use",-8.998738843044006],["plusieur",-9.000694398362075],["under",-9.003618424581658],["entras",-9.003955734768766],["very",-9.0053878766082],["ur",-9.005722764444453],["hecho",-9.006320589195361],["sous",-9.007114313940551],["virus",-9.007622674439183],["best",-9.009070265491706],["trabajo",-9.016549603724066],["semaine",-9.01692695077466],["tussen",-9.017499521477237],["otro",-9.018597738744027],["Elle",-9.018740749190535],["via",-9.020019427644964],["dernière",-9.02112177104775],["school",-9.021321504650379],["ainsi",-9.02138420428162],["situation",-9.021542165257687],["match",-9.023253578858046],["Zo",-9.024194067515044],["antes",-9.026385578114265],["alleen",-9.02704626017459],["W",-9.027078973036271],["sociale",-9.027156844946298],["grote",-9.028151092089946],["ever",-9.032434328378372],["heure",-9.035358426946516],["country",-9.03601506311115],["alors",-9.03612210385009],["Be",-9.036143281793976],["tant",-9.03622183922543],["Esta",-9.037639917163403],["much",-9.038418541170799],["good",-9.040530569771372],["Au",-9.040616458198542],["À",-9.041142196769023],["suite",-9.042775037704885],["ils",-9.042901915801448],["Pero",-9.043570513814974],["test",-9.051082439963675],["menos",-9.051289184427844],["issue",-9.054142731706975],["change",-9.054595689140196],["voir",-9.056217385171442],["ico",-9.05624029103189],["pandemic",-9.057160127776193],["punto",-9.066199751164849],["selon",-9.069548096766432],["number",-9.069730629272504],["horas",-9.073072320560101],["chez",-9.073082682052354],["homme",-9.074108118636287],["open",-9.075518527481268],["tener",-9.07765950359197],["important",-9.077703170465284],["cases",-9.07789694987019],["projet",-9.07917829195625],["business",-9.080178247997637],["service",-9.08019473226238],["think",-9.081758757745497],["Me",-9.08281191348289],["water",-9.08601622760796],["ahora",-9.086871992470357],["procent",-9.08722775717769],["There",-9.087270633845854],["mucho",-9.087690416857793],["information",-9.089557989007776],["So",-9.089633773345474],["Covid",-9.08998798695526],["empresa",-9.090482886994746],["qué",-9.091688495628343],["says",-9.09427320155283],["around",-9.094301345517756],["China",-9.095761925647622],["uego",-9.096805057702966],["heid",-9.098412791956132],["équipe",-9.10034443726976],["Europe",-9.10036407831053],["dag",-9.102737845125976],["Este",-9.102876646087314],["calle",-9.103378023698895],["ciudad",-9.1043436183923],["primer",-9.104531571395249],["these",-9.105052499560632],["actual",-9.105645927611516],["23",-9.108348638703191],["right",-9.108555470531961],["Para",-9.110489550271726],["come",-9.111216301947135],["leven",-9.111869486578694],["Ukraine",-9.11300254918281],["finale",-9.1145520797402],["Sin",-9.116670137312965],["familia",-9.116710865373793],["If",-9.117211604147155],["politique",-9.117669750630348],["season",-9.118584595330768],["old",-9.118776800465458],["beau",-9.119540193052021],["manera",-9.124700021343447],["world",-9.124720297512333],["vol",-9.128970670792521],["acuerdo",-9.13177097709803],["did",-9.133791604892938],["fuero",-9.134054770399661],["vers",-9.135576458240017],["mundo",-9.135878599546356],["gas",-9.137598132354082],["gouvernement",-9.138401098617976],["such",-9.138728214073884],["&",-9.141339701597863],["grand",-9.142565566797018],["hard",-9.14322044337042],["close",-9.143986272847197],["mil",-9.14535511086046],["estado",-9.14539696723656],["Cett",-9.14545203130465],["men",-9.146326393072865],["site",-9.148712822229058],["echt",-9.150955737101244],["general",-9.151666076267013],["kun",-9.152713273249905],["life",-9.15551673900682],["jusqu",-9.15787615830154],["later",-9.158136914524665],["embargo",-9.158248347967103],["ja",-9.159322711180119],["estos",-9.160464852601816],["26",-9.16266929978011],["estaba",-9.163214309986017],["Re",-9.164049896978156],["For",-9.169187256784241],["US",-9.170980479312824],["possible",-9.171219236002802],["ait",-9.173713393155634],["mo",-9.17448464888607],["since",-9.174958935372477],["video",-9.175584183923085],["show",-9.175923556706207],["début",-9.176312418582276],["kwam",-9.178015605679196],["ben",-9.178289419726614],["lieu",-9.17836274353798],["gobierno",-9.178757722955341],["communit",-9.179437125985555],["lot",-9.180127298564496],["Ma",-9.181441488163292],["Gobierno",-9.182078544958216],["self",-9.183833393821793],["afge",-9.185263547090166],["situa",-9.186620650190562],["age",-9.18826935968546],["keer",-9.190046065324061],["company",-9.190446417599137],["Su",-9.192102745220645],["play",-9.192928846620699],["zona",-9.193110353930745],["altijd",-9.194221775965435],["especial",-9.19509924019146],["empre",-9.197048708015613],["proyecto",-9.200168644040758],["28",-9.201073480794095],["That",-9.20109523544682],["femme",-9.203937696252918],["État",-9.20478954702996],["came",-9.205117355025624],["tuvo",-9.20604122253601],["family",-9.207343848069783],["500",-9.207948629938285],["servicio",-9.208215614386555],["nada",-9.2084430663984],["Dit",-9.208636421357738],["60",-9.210485793465898],["hoy",-9.210657212787044],["27",-9.211287546846396],["nuestro",-9.213331163108448],["eigen",-9.216286510882039],["algo",-9.216672608424926],["hand",-9.218952502526781],["president",-9.21974711084486],["hui",-9.220460217940225],["waren",-9.223111864392594],["Z",-9.225751735480216],["niveau",-9.226668167060604],["gewoon",-9.22688958549898],["national",-9.228303636658827],["including",-9.23065194390609],["result",-9.231240699585298],["faut",-9.238427467967746],["next",-9.239646451936272],["estar",-9.240339735899912],["Twitter",-9.242937719223459],["report",-9.243173229874273],["mogelijk",-9.24397964023891],["personal",-9.244719972322741],["partir",-9.245389829399114],["2023",-9.24817994999669],["terug",-9.249624687874253],["cours",-9.254015998770559],["laten",-9.25662592611417],["venir",-9.259706031716235],["grupo",-9.26167464127866],["main",-9.264373728052671],["uur",-9.265016392265915],["Dan",-9.265538209638308],["entreprise",-9.266318688109607],["notamment",-9.267198699097658],["ga",-9.269571015644122],["ter",-9.270116406454688],["avai",-9.270963325826044],["í",-9.271532770229697],["record",-9.272566371295294],["Par",-9.273153997904465],["groupe",-9.27316392116658],["vent",-9.27575821986872],["grande",-9.275929349589855],["ready",-9.276406144472556],["recent",-9.277100093068873],["crisis",-9.277286238604383],["poco",-9.281894165010483],["2018",-9.283081296136913],["head",-9.28333161489573],["binnen",-9.283376809324334],["rapport",-9.284504689104377],["Nacional",-9.285430751751903],["say",-9.285898935622857],["política",-9.286868398613585],["zoal",-9.287372162733618],["casa",-9.287506074575358],["X",-9.289162224985164],["mon",-9.289170595820641],["rix",-9.28933857744968],["person",-9.289598877023842],["Mr",-9.290733532360473],["own",-9.290737678331503],["partie",-9.291089130247553],["student",-9.292271557585028],["travé",-9.2959885317354],["onze",-9.296257873368301],["mij",-9.29940171950361],["same",-9.300828191444223],["impact",-9.30088349573154],["houden",-9.301281332536973],["lang",-9.303320282756125],["care",-9.30369346166863],["poder",-9.305397508323367],["told",-9.307809059983231],["tijden",-9.308311958511705],["between",-9.308717781187127],["Met",-9.310105281983635],["él",-9.311063601796196],["centre",-9.31290181501667],["Biden",-9.314502455688794],["both",-9.314995828342731],["You",-9.317794201823526],["group",-9.321337800637442],["tipo",-9.321561049964835],["mes",-9.324996221832194],["podría",-9.325829224748869],["line",-9.32603263425037],["rond",-9.326235718864309],["President",-9.326804885206656],["minder",-9.327239105784038],["top",-9.32780832658062],["cual",-9.328549590426402],["amos",-9.330094071114996],["put",-9.330888645549901],["hospital",-9.33142976289816],["post",-9.331435434373937],["control",-9.331512409793868],["large",-9.332038719958923],["steed",-9.335694542821841],["drie",-9.336424081624745],["politie",-9.336695374388238],["Mi",-9.336784790010487],["nother",-9.33779367468185],["hombre",-9.338438626375705],["services",-9.339666760771497],["six",-9.34127171161054],["otra",-9.34227706952667],["got",-9.342337536019222],["ambién",-9.34239864129395],["To",-9.346106066814706],["Esto",-9.348617714779056],["great",-9.351247394626547],["werk",-9.35463706007614],["ging",-9.356217806339561],["problema",-9.357127660964736],["ici",-9.358114916916238],["vote",-9.359206927648362],["dar",-9.359630271796387],["staan",-9.359933862382725],["droit",-9.360113396737276],["chose",-9.363879137128809],["29",-9.364462955455899],["won",-9.364589620092056],["problem",-9.365803628113252],["autoridad",-9.36600669900167],["déclaré",-9.366981463762329],["maal",-9.367314586941921],["air",-9.368288045562643],["Wat",-9.369907364733375],["pro",-9.370085275676637],["four",-9.370957239027454],["pris",-9.37284231697243],["jeu",-9.373508469819228],["côté",-9.374010718105964],["alguno",-9.375038809667705],["court",-9.375105573337736],["pu",-9.37706145614145],["current",-9.377838347803845],["tan",-9.378328706647416],["keep",-9.378499114985171],["geld",-9.379554377215424],["ôt",-9.379745310303647],["medida",-9.380126563126684],["ello",-9.380234041382163],["effet",-9.380462490129787],["Voor",-9.381293004657115],["extra",-9.382836639621756],["saison",-9.384499585427864],["avon",-9.385440817671059],["Una",-9.387177072708784],["notr",-9.38745785544707],["action",-9.388443135448023],["travail",-9.388658176016577],["achter",-9.390213068907322],["compte",-9.390586910005197],["low",-9.390714317399087],["haber",-9.391203059405843],["few",-9.391450820740959],["Méx",-9.394477480484694],["far",-9.395594468612696],["jaren",-9.397570774027088],["contact",-9.398033651590396],["Europa",-9.39849052336779],["€",-9.399117945924868],["call",-9.403026361957824],["cambio",-9.403234536432684],["director",-9.405179445254149],["York",-9.405191897789901],["coming",-9.405612155238266],["Friday",-9.405863915179427],["meses",-9.407097467763267],["35",-9.407444662579],["pendant",-9.40916740754928],["nuestra",-9.41095622319699],["70",-9.411739057903436],["cent",-9.413447965453827],["31",-9.414823647063365],["mag",-9.416983737307252],["anti",-9.417487703617878],["actividad",-9.420331342585673],["case",-9.424516675361385],["proceso",-9.42568800445726],["live",-9.42570201968907],["mucha",-9.428288248121795],["ooit",-9.428623720670426],["seule",-9.431122892237473],["State",-9.43244345997096],["Oekraïne",-9.432768107207686],["app",-9.433128836977223],["España",-9.43315630805378],["provide",-9.433521656012028],["última",-9.434181547266054],["famille",-9.435298349459242],["té",-9.436817852765493],["American",-9.438361405174879],["laatste",-9.439625478476538],["één",-9.439738052902264],["ailleur",-9.43999293841929],["wereld",-9.44114401727797],["night",-9.442008357169732],["willen",-9.443329393186787],["bon",-9.44373568432368],["nivel",-9.444696341513808],["pourrai",-9.445436805602217],["pre",-9.445866481005417],["jamai",-9.445894495649537],["condition",-9.445924704141303],["80",-9.44610488208605],["though",-9.446824317941811],["plaats",-9.447025817816739],["election",-9.447869215481552],["za",-9.45149540303856],["région",-9.4515304156717],["huis",-9.451956291777428],["programa",-9.452511651150886],["aurai",-9.453518546095674],["chef",-9.456012463115481],["Rusland",-9.45697610600888],["Saint",-9.458600506148485],["seguridad",-9.459815128947518],["different",-9.460613832375255],["ré",-9.46310585285068],["jeudi",-9.46358930046603],["pouvoir",-9.463598846753179],["direct",-9.466204511981601],["each",-9.467766646469267],["month",-9.467950405616978],["tien",-9.47026746645815],["centro",-9.470413281595295],["cosa",-9.47627972812558],["online",-9.477481092299708],["Dr",-9.47795041424345],["Volgen",-9.478273752401174],["vier",-9.478587554610693],["zij",-9.480760275221366],["Selo",-9.480969569810862],["ès",-9.481152387142073],["mercredi",-9.481395970695257],["Russisch",-9.481884187022068],["love",-9.482318813873414],["joueur",-9.482506194664506],["junto",-9.48332942463014],["historia",-9.483985347031142],["annoncé",-9.485863082839384],["system",-9.48594245518748],["unos",-9.486371579575309],["city",-9.486372467936096],["dimanche",-9.486519758802459],["otras",-9.4865416899014],["found",-9.487691022824286],["bajo",-9.489509468847473],["ch",-9.489959277331337],["cuatro",-9.490400399468546],["Sur",-9.491182969546543],["include",-9.491281603317514],["mardi",-9.491565472235916],["lundi",-9.492628409741084],["near",-9.493633910099812],["esto",-9.493652378718428],["stad",-9.494672531931432],["hizo",-9.494945805587271],["verder",-9.496224465012023],["principal",-9.496420153862402],["alguna",-9.497204770830614],["win",-9.497229121912099],["informa",-9.49740797393509],["term",-9.49752606346709],["eront",-9.497968564591336],["decision",-9.499444860265035],["vendredi",-9.499445772693273],["produit",-9.499459118321724],["aient",-9.499949546744997],["cómo",-9.502237281935493],["russe",-9.502621170071613],["90",-9.503393645565584],["vrai",-9.503644751073885],["Russi",-9.503852033551189],["tour",-9.5047649725524],["agua",-9.506965699572019],["persona",-9.508810753234762],["Bij",-9.509259828498688],["kinder",-9.509657218399285],["Unidos",-9.510175109554883],["dire",-9.513352142899912],["zit",-9.514203062365299],["weten",-9.514936367481003],["mar",-9.515826500972407],["voorbeeld",-9.51603070803022],["course",-9.516373290030858],["gebruik",-9.517112102286465],["population",-9.519051971273097],["reported",-9.51972120088069],["half",-9.522073652927283],["nodig",-9.522853230908147],["45",-9.523760851656633],["mesure",-9.523994821145015],["vía",-9.524322515970226],["fans",-9.524500912707008],["across",-9.524512843207551],["salud",-9.524722719408508],["bedrijf",-9.524942489125293],["inform",-9.525296856877304],["resultado",-9.525529832319002],["celle",-9.525752030276129],["onderzoek",-9.525901682128932],["used",-9.526044583429654],["unque",-9.527370295591016],["quand",-9.528355779953225],["série",-9.529795173531618],["tenía",-9.529816871826554],["Ucrania",-9.53076642010584],["blijven",-9.531483957414931],["red",-9.531494465305034],["When",-9.533112448311574],["gente",-9.533302843899088],["weet",-9.534095633234347],["raison",-9.534565372479886],["porte",-9.536303051692766],["gemaakt",-9.539477081657306],["vient",-9.539492396008724],["aantal",-9.539633778174387],["full",-9.539919323572441],["posible",-9.542621580899384],["give",-9.543800695661036],["mettre",-9.54511600774334],["vooral",-9.545196203080893],["charge",-9.548495622033856],["remain",-9.54874636674974],["adde",-9.55048221946992],["cet",-9.550707232440683],["dio",-9.55093891181134],["source",-9.551039324787023],["próximo",-9.55341339285641],["reste",-9.553953083850539],["frente",-9.554090673311055],["zonder",-9.554440630082027],["sigue",-9.555612031940262],["trata",-9.555920594916028],["minister",-9.557486392041243],["quatre",-9.558316761010163],["concern",-9.559697941765235],["cela",-9.560827041645044],["samedi",-9.561588714759207],["lado",-9.562600759743628],["side",-9.563788990642548],["event",-9.564554837681309],["derecho",-9.5667796851008],["working",-9.566935256852588],["Son",-9.56973351833511],["suis",-9.57012999550307],["guerre",-9.570325944939537],["zone",-9.572647754418368],["ron",-9.572703560503328],["hour",-9.57281020364395],["big",-9.574884158429711],["número",-9.57658517928549],["mort",-9.576637611410678],["jó",-9.577181545508441],["parent",-9.5786801755125],["encuentra",-9.57905594922664],["señal",-9.579898810518742],["maakt",-9.580343752931824],["ullen",-9.580482770704007],["dólar",-9.580563084994168],["market",-9.580877470551473],["capital",-9.581071311896974],["Apple",-9.58114872602274],["bonne",-9.582311754758614],["entro",-9.582617407877589],["position",-9.582969798895217],["miento",-9.583665092526246],["area",-9.584387584742313],["militaire",-9.58538585472819],["kind",-9.586161376822453],["March",-9.58653827593161],["grandes",-9.588736533311023],["misma",-9.589282122771353],["price",-9.589739159587683],["nacional",-9.59053205075542],["image",-9.591534313645802],["oficial",-9.591874270165953],["level",-9.592680260716902],["body",-9.593095310191204],["prendre",-9.59334988084263],["sistema",-9.593362116099339],["sino",-9.593582536623508],["niño",-9.59578705940175],["left",-9.596390907595705],["effort",-9.596534359635282],["never",-9.59670892157557],["objetivo",-9.597783250842317],["llegar",-9.597962859352482],["according",-9.598690831575592],["histoire",-9.59904601694776],["jarige",-9.599065369601988],["City",-9.599789340967096],["laat",-9.599828224950793],["cualquier",-9.601685698679002],["segundo",-9.602837241785332],["United",-9.60287247163192],["TV",-9.603212789834306],["devant",-9.603562248914749],["hit",-9.60483731746589],["casi",-9.604892808187962],["endo",-9.604906162070804],["rien",-9.607262277634597],["decir",-9.607323121697467],["comment",-9.607723766359168],["production",-9.607978449903138],["mean",-9.610693730983535],["ancien",-9.61249442405878],["sí",-9.613024496854198],["Du",-9.614591076757542],["vu",-9.615126393998214],["beter",-9.616556089957035],["muchos",-9.617024980753019],["snel",-9.617282440700691],["return",-9.618516778694065],["Jean",-9.619341110074647],["project",-9.62089162136079],["positive",-9.622076721982781],["something",-9.622540830542356],["avond",-9.622668351315024],["present",-9.622711155432665],["Québec",-9.623311984288968],["nationale",-9.623640155327262],["devrai",-9.623937826790364],["statement",-9.624207945161826],["wij",-9.624339761070836],["share",-9.624535418386186],["Monday",-9.624753602331072],["oorlog",-9.62588184242246],["hora",-9.625955950394609],["geven",-9.626094959782957],["power",-9.62638100210326],["Of",-9.627119027271029],["jeune",-9.627397629430549],["noche",-9.628247553312928],["primero",-9.629351138450515],["Co",-9.630879608633714],["Pro",-9.632154914311801],["occasion",-9.633227204520402],["deuxième",-9.633740871092918],["West",-9.635167770190751],["receive",-9.63598063468292],["investiga",-9.636740022297204],["elkaar",-9.637339055261329],["votr",-9.638538034741034],["enfants",-9.639056855218733],["minuto",-9.639504849408066],["believe",-9.64117559582732],["zitten",-9.642865551996657],["better",-9.642967220962333],["nemen",-9.643159518356082],["feel",-9.644950713173305],["Nederlands",-9.645573561716766],["until",-9.650772034385856],["Chine",-9.651259738215078],["must",-9.651430224251737],["kon",-9.651553737265296],["Así",-9.652938515159022],["chance",-9.65352963738756],["All",-9.653538927586919],["former",-9.653725349724478],["mise",-9.654357059259592],["gemeente",-9.65752127290478],["ally",-9.658332464971615],["eerder",-9.658348502177123],["What",-9.65889995827091],["groot",-9.658921703818628],["quiere",-9.659911020964943],["South",-9.659934775430596],["miljoen",-9.662539663408653],["Sa",-9.662747676686594],["cargo",-9.66408068872601],["zeker",-9.66458670180489],["soir",-9.664736854110693],["haci",-9.664885987274626],["lunes",-9.665465011573687],["zeggen",-9.666818360539246],["Rusia",-9.666918658085041],["directeur",-9.667030436693805],["ban",-9.667775160656056],["begin",-9.66872917338377],["bekend",-9.670245865208429],["Ja",-9.670357557417404],["children",-9.670991978978028],["vario",-9.671962426796117],["bank",-9.673676881546601],["wh",-9.674047902391754],["anders",-9.674097471384059],["pay",-9.674663432509373],["afin",-9.675136223959996],["expert",-9.675319585043653],["quarter",-9.676256897726336],["might",-9.676452629430793],["viern",-9.677258634008417],["vehículo",-9.677773142669782],["order",-9.67820302673578],["does",-9.679239023507172],["didn",-9.681312388402947],["serie",-9.683366590735895],["arly",-9.684045720422024],["mercado",-9.68457873832257],["cinco",-9.684657762995643],["future",-9.68471594219902],["petit",-9.685350868729287],["hi",-9.687081466300057],["away",-9.687246276008167],["National",-9.687269348047455],["trop",-9.68805007709891],["redes",-9.68843067208731],["months",-9.689184287365045],["five",-9.689570826372666],["público",-9.68985265399575],["things",-9.690674760947397],["nation",-9.691105367991227],["bi",-9.691418815291918],["Hoe",-9.692064529812946],["iedere",-9.692126431452428],["Ha",-9.692956874113175],["somme",-9.693041916504608],["stock",-9.693564906767481],["increase",-9.694297107578095],["Ver",-9.694540892064339],["aujourd",-9.69577920000565],["energie",-9.696192876360897],["mujeres",-9.696258903591133],["mujer",-9.696491569732013],["sécurité",-9.696809063005016],["alles",-9.69877374110296],["County",-9.69889493229779],["route",-9.701345090492818],["hijo",-9.701788472928996],["Or",-9.7023400911469],["werken",-9.702394405597051],["réseau",-9.70328768218775],["Canada",-9.703564888653851],["front",-9.70478835467926],["ciento",-9.705768767810767],["alway",-9.706427858283519],["risk",-9.707118127580777],["Zij",-9.70777703259655],["sentido",-9.708364366655694],["Plus",-9.709684770783651],["tendrá",-9.709883021837271],["producto",-9.710451940584594],["demande",-9.712030989757892],["affaire",-9.714657386379397],["ellos",-9.715052342838796],["mañana",-9.715334396127755],["here",-9.71634795531182],["ín",-9.717467760288923],["process",-9.71853145441974],["vast",-9.719471313435509],["making",-9.719506099222041],["David",-9.7196398244103],["Black",-9.719744946206063],["bar",-9.719874245109217],["vrij",-9.72051312100779],["dice",-9.720990619497826],["sábado",-9.721015623290752],["Health",-9.72244444436619],["officer",-9.722843058988449],["aire",-9.722875173106127],["sport",-9.723409128264615],["Whil",-9.724181186858633],["espera",-9.725295776377775],["minutes",-9.725604314665302],["members",-9.727106808714947],["juego",-9.727268528755884],["jugador",-9.727703335625268],["stay",-9.729951130224336],["realizar",-9.730426340634516],["With",-9.730426544382407],["Thursday",-9.731044980373344],["blijft",-9.732320672714948],["food",-9.732465053385056],["cerca",-9.734673260299227],["become",-9.734898362999397],["went",-9.73579675509431],["aún",-9.736303296248721],["idea",-9.736515741305157],["name",-9.736563851323938],["Car",-9.73658889046279],["ken",-9.737262186510161],["spread",-9.737348914996526],["global",-9.738866799563922],["sol",-9.739153113169131],["Etat",-9.73921925575469],["víctima",-9.739721155063538],["allemaa",-9.739791235941304],["pueda",-9.74073274726598],["EU",-9.740876592610753],["boven",-9.74369983451384],["ité",-9.744217518703337],["veces",-9.744343099930102],["international",-9.74554415353752],["Argentina",-9.745772244475901],["staff",-9.74599527079653],["again",-9.749105436278473],["Om",-9.750447443204738],["office",-9.752539273841629],["brand",-9.753347207969282],["Mo",-9.754321573687266],["Sunday",-9.754438179844364],["produc",-9.755159204967605],["rest",-9.755397531658918],["domingo",-9.755858591506247],["General",-9.755973202603649],["vaak",-9.756908083269028],["samen",-9.75711272328594],["One",-9.757636701773208],["doet",-9.758927759976242],["seguir",-9.759027427855326],["Madrid",-9.760264957985484],["Hay",-9.761682955556363],["Tuesday",-9.761748744971406],["erg",-9.761824804660709],["quoi",-9.763355442091214],["Ces",-9.764584496826085],["pandemia",-9.76621301726248],["May",-9.766500708986015],["money",-9.76671986877632],["crime",-9.76758301092887],["parti",-9.768521184334304],["aura",-9.768544722075088],["chaque",-9.768719608969374],["onces",-9.769062785229314],["gens",-9.769144719839455],["Nu",-9.770196320146265],["law",-9.771039374275688],["dollar",-9.77185236429677],["Saturday",-9.772196332858748],["juli",-9.772428790161918],["normal",-9.773329160803616],["uso",-9.773532226572684],["light",-9.774270258791155],["experience",-9.775052303670986],["janvier",-9.775217097788158],["Entre",-9.77658608069406],["fuera",-9.776832120735639],["St",-9.778390444431011],["rol",-9.780047566163784],["Ben",-9.78005236234089],["tra",-9.780452002932886],["agit",-9.781026898171916],["women",-9.781302056701739],["lijkt",-9.781388572384905],["field",-9.781715403828287],["risque",-9.782337673685333],["temporada",-9.78267355729201],["75",-9.782816198065492],["Ya",-9.78506167054633],["John",-9.785307410238289],["comunidad",-9.785845644077597],["anté",-9.785904253396183],["buena",-9.78638274325061],["foto",-9.786867656683198],["eves",-9.78688156924172],["taking",-9.78689188893157],["vi",-9.787379325308157],["%.",-9.787643676065654],["ic",-9.790538775051235],["fall",-9.792203952917397],["locale",-9.792282304233954],["past",-9.792458369766731],["free",-9.792571553003938],["incident",-9.793054288109857],["décision",-9.793425351931123],["little",-9.793440118369695],["ligne",-9.793582052384956],["encuentro",-9.793683043120609],["fecha",-9.79456521111322],["français",-9.79504616065687],["crise",-9.795187432539606],["death",-9.795713433120962],["titre",-9.796050707432258],["message",-9.798176144776342],["series",-9.798614163010889],["find",-9.800753389714885],["aten",-9.802058622821672],["marché",-9.802666666748724],["train",-9.802932279558288],["together",-9.803611911513364],["gan",-9.803707983047131],["disponible",-9.804211250867109],["mer",-9.804222282834289],["move",-9.805086381071376],["Do",-9.80564054137586],["edad",-9.806912569915504],["moest",-9.8080695882737],["300",-9.808465459793148],["mars",-9.809566398874239],["martes",-9.809606041301864],["basis",-9.81042402620523],["ido",-9.810872749694079],["wide",-9.81138466689984],["programme",-9.812306294708216],["cinq",-9.813535267195132],["League",-9.813590040653468],["retour",-9.813807920725413],["victime",-9.813843337419158],["puesto",-9.813986466574143],["vraag",-9.815365396501647],["podrá",-9.815659036030993],["activité",-9.81612997608222],["oportunidad",-9.816682314730498],["tête",-9.816809103898274],["inclus",-9.81682141420258],["besoin",-9.816914131883706],["natuurlijk",-9.818267116145233],["allow",-9.818378069805634],["job",-9.819562362926991],["tarde",-9.81983589186788],["cost",-9.820758105362913],["indic",-9.821385301678896],["Paris",-9.822645905649633],["km",-9.823048426913585],["corona",-9.824197322176587],["popular",-9.827153702927365],["iércol",-9.827745561309243],["stand",-9.827864670757904],["jeunes",-9.829240911864844],["zetten",-9.829310254434986],["carrera",-9.830902333335002],["Deze",-9.831575452334386],["mask",-9.831649043558567],["cadre",-9.832048359700936],["paso",-9.832610446862354],["aske",-9.832760083158202],["simple",-9.833486651520602],["worker",-9.834192123413754],["nieuw",-9.835660434567739],["star",-9.835964549648846],["zelfs",-9.836948324520185],["32",-9.837268904720297],["etting",-9.83792829410902],["com",-9.838149238645915],["veu",-9.838381271112514],["Wednesday",-9.838887689242267],["segunda",-9.838887874885373],["happen",-9.838991686462187],["Juan",-9.839982363987634],["diferentes",-9.841123148745186],["rate",-9.841534717255946],["principale",-9.842275335432845],["period",-9.84242479182279],["semble",-9.842569887958813],["note",-9.84289465321196],["federal",-9.843439672394945],["ij",-9.843497330907287],["dad",-9.84354221731173],["art",-9.844771439408905],["taken",-9.845099503311264],["super",-9.845129528959315],["couple",-9.845689708574364],["kijken",-9.847327815614506],["having",-9.847691374628635],["shares",-9.847808701335044],["soort",-9.848601251624128],["pai",-9.849048003312383],["mai",-9.849376689656138],["Man",-9.850217500806412],["société",-9.850660068388088],["poste",-9.851152319954613],["dici",-9.854042190983199],["bus",-9.854333479338958],["dagen",-9.855089190622138],["program",-9.855393511056867],["several",-9.855990332572738],["complete",-9.85636529082813],["Facebook",-9.856701911213051],["ensemble",-9.85700561675996],["ard",-9.857362820268392],["paar",-9.85746817968597],["appel",-9.857737025675148],["matin",-9.857900554290115],["cuerpo",-9.858239167810472],["run",-9.85911511111537],["respecto",-9.859705718053743],["décembre",-9.859978458734812],["internacional",-9.860664964404632],["trade",-9.861093651061509],["marca",-9.861754352898206],["Joe",-9.862357404708526],["aciones",-9.862519660581771],["pública",-9.86352322606728],["version",-9.864384867089512],["patients",-9.864456608268618],["militar",-9.865531913961476],["create",-9.865794021245673],["conocer",-9.865933053380118],["vrouw",-9.86621388606471],["mission",-9.868078973913285],["lockdown",-9.868216638992582],["zei",-9.869659196371838],["Go",-9.870368314659611],["document",-9.870502411801798],["ley",-9.871251131521667],["passe",-9.87363763810932],["juist",-9.873792054125879],["announced",-9.874836314931944],["solution",-9.87516318586219],["Union",-9.87528836293371],["particular",-9.875967367632018],["ministro",-9.87708560691432],["aller",-9.877295290011102],["landen",-9.877370011712236],["explique",-9.877969471014694],["miss",-9.87855084925996],["annonce",-9.878557395963036],["today",-9.87864996145737],["clear",-9.879447410284843],["using",-9.879921832161614],["fil",-9.87998036867012],["wie",-9.880382625603223],["India",-9.881258695357719],["enquête",-9.88149897560163],["général",-9.881675404170569],["tard",-9.882285344420609],["along",-9.88246508801991],["fire",-9.884716527193074],["milliard",-9.884782040403294],["indiqué",-9.884835635033635],["young",-9.885295411732478],["passé",-9.886077253976694],["+",-9.886858552841641],["organisation",-9.88780070589786],["house",-9.887884950378275],["Todo",-9.888367061048893],["least",-9.888417793244033],["varia",-9.888608505560807],["individual",-9.889222469498712],["vec",-9.88966858507823],["secteur",-9.889889849664335],["autorité",-9.889902165956638],["Premier",-9.891575160439245],["hoofd",-9.89170710815544],["Police",-9.89221389947516],["33",-9.892843207735856],["race",-9.89291587606066],["Minister",-9.893125156168754],["prueba",-9.893871672354681],["Howe",-9.894174846023315],["dado",-9.894565674797905],["responsable",-9.894739789711094],["journée",-9.895008579596528],["sinds",-9.895377884041494],["aide",-9.89609413023743],["Paul",-9.896393951949861],["took",-9.896419094952126],["fuerza",-9.897104465458717],["34",-9.897778016058684],["système",-9.898354827778576],["verschillen",-9.898492004745037],["woning",-9.899693802449143],["presse",-9.900817547131476],["simismo",-9.900900180806445],["hope",-9.900990834473806],["option",-9.901775412574093],["joven",-9.901812720022187],["weekend",-9.9020555980943],["valor",-9.902336023320807],["precio",-9.902749560876678],["duidelijk",-9.903177821330747],["held",-9.90343295839134],["similar",-9.903501813871717],["accord",-9.904358255451019],["client",-9.90453296365963],["ago",-9.904738600049193],["padre",-9.90509944434762],["political",-9.905600770384238],["Pas",-9.905831960402066],["After",-9.90686531874659],["Washington",-9.906907628778828],["période",-9.90691866962457],["falta",-9.90780122396556],["libre",-9.90892886170179],["eerst",-9.909129130751595],["tweede",-9.90934918621893],["How",-9.909559278378712],["campagne",-9.910346975336434],["gelede",-9.910432002039773],["legó",-9.910956243881673],["geef",-9.912093276482313],["posición",-9.912305934744953],["Red",-9.912426303122515],["Jan",-9.912434870268232],["rencontre",-9.912865257600885],["given",-9.913614839448126],["pueblo",-9.913798069150978],["Di",-9.913825258429513],["José",-9.913948479781313],["largo",-9.914147096345236],["My",-9.914189825833105],["enero",-9.914535158827784],["â",-9.914670313014593],["officials",-9.915404863932945],["reg",-9.916974914529845],["administration",-9.917284679406638],["Como",-9.91875490991405],["informe",-9.91884138685582],["Unis",-9.919146908263722],["Macron",-9.919596373547618],["Carlo",-9.919843310696752],["Cela",-9.919846509982545],["iemand",-9.921313457966164],["Ministerio",-9.922494058307802],["doesn",-9.922544488843606],["dollars",-9.922889622600483],["violence",-9.924233896518036],["membres",-9.924257927319832],["ólo",-9.924307437386881],["interview",-9.924348861788292],["maison",-9.924703222350384],["provincia",-9.925554205670593],["talk",-9.925603679194168],["board",-9.925956139473112],["línea",-9.92621203779882],["apoyo",-9.926594498152049],["400",-9.92731511072473],["muerte",-9.927764875751311],["familiar",-9.929616201130091],["novemb",-9.929648229049914],["meeting",-9.929975307026186],["party",-9.930603624974125],["North",-9.930833070574266],["presente",-9.931104386156385],["campaign",-9.9312351634794],["budget",-9.93123642513007],["lead",-9.931244583574681],["nunc",-9.931343495442913],["tion",-9.93160380098034],["población",-9.93299568998427],["permet",-9.933758552030344],["prochain",-9.933810258414862],["Ils",-9.93394067458324],["ier",-9.934659325797899],["municipio",-9.934760113835603],["fuerte",-9.934767135349926],["problème",-9.934779202865915],["debido",-9.934828761518897],["désor",-9.934945283448066],["uillet",-9.936082355453124],["genoeg",-9.936528583371452],["rez",-9.937502110247786],["small",-9.938077769491557],["gezien",-9.938305879238289],["2014",-9.938957319005507],["rue",-9.940064211572487],["guerra",-9.94007360324515],["among",-9.94014050904131],["moi",-9.940421212855483],["manier",-9.941237323559577],["genomen",-9.941503401197107],["justice",-9.943267365784305],["claim",-9.943321513782138],["actuelle",-9.943458294305398],["buiten",-9.943580514473279],["players",-9.944015242254565],["bijna",-9.94453312552001],["ness",-9.945824846709893],["école",-9.946550079672512],["third",-9.94722606662328],["seul",-9.947273578784266],["House",-9.947373577805998],["short",-9.950317954041726],["ejemplo",-9.950773936406417],["pues",-9.951467232014458],["mayoría",-9.951518746104115],["milieu",-9.951805019163503],["certaine",-9.952291522688983],["licht",-9.952462517857953],["further",-9.952580970946656],["wedstrijd",-9.952613103303348],["breng",-9.953492098951298],["vice",-9.953579348956296],["strong",-9.955274892169145],["bo",-9.955874944149205],["arrive",-9.955946329168682],["jornada",-9.956170151631307],["publique",-9.95641929985829],["major",-9.956520427465454],["asegur",-9.957713875128668],["direction",-9.95806255904844],["élection",-9.958702229906098],["évrier",-9.95986801830518],["Q",-9.960234777250376],["fact",-9.960316517549982],["denk",-9.96146686160136],["bit",-9.964900189402044],["model",-9.965264024509754],["espacio",-9.966529345204837],["availab",-9.966639083939768],["souven",-9.966852389181234],["Amerikaans",-9.967369250242248],["maanden",-9.967670461412023],["enkele",-9.970182769998285],["fund",-9.97023188184226],["36",-9.970267763008842],["chien",-9.97076112622651],["Universit",-9.971712686238522],["2015",-9.972277633168346],["Instagram",-9.972533935805403],["zie",-9.975819080870757],["igual",-9.975832044164362],["estas",-9.97734281884592],["rapide",-9.97737468529662],["expres",-9.97757834898178],["legal",-9.977808708986453],["sión",-9.97788169180767],["estamo",-9.978252869348728],["football",-9.979959585214617],["festival",-9.980418674997303],["PC",-9.980548292775739],["passer",-9.980722701735775],["genera",-9.985393097260197],["grave",-9.986732699093274],["causa",-9.986814940079674],["soutien",-9.987263208021945],["mensaje",-9.987286826564873],["combat",-9.987327553899984],["vis",-9.98739114010348],["turn",-9.9880851437634],["central",-9.988527682232966],["goede",-9.990255685232002],["tema",-9.991024215668858],["Luis",-9.991057234543359],["objectif",-9.991089584925396],["llevar",-9.991256786302689],["exemple",-9.991377543603384],["internationale",-9.992754038970151],["war",-9.992994602555632],["recurso",-9.99300007504711],["late",-9.99395045547454],["stond",-9.994334105883313],["figure",-9.995001544223342],["buy",-9.995515183114792],["pen",-9.995516537210346],["evento",-9.995875126595042],["offre",-9.996078981268678],["ayuda",-9.996200062022549],["aba",-9.996578796116612],["weinig",-9.996662529147986],["octob",-9.996992528172552],["serai",-9.99859562482223],["decisi",-9.998927188059218],["nough",-9.999143676425364],["stop",-9.999589123152052],["attack",-9.999671120446845],["hausse",-10.000048981473885],["World",-10.000424902176075],["gek",-10.002395838274676],["straat",-10.003985817782265],["líder",-10.00420063402099],["Sam",-10.005126775871489],["état",-10.006202677236654],["following",-10.006354934572574],["coach",-10.0074442855949],["hold",-10.008308716679203],["fight",-10.00923568335509],["pesos",-10.009280958254383],["attend",-10.009308690333476],["measure",-10.009577234083906],["armée",-10.010452116164391],["gedaan",-10.010967862394768],["consider",-10.01112347536933],["continu",-10.01148394168042],["propuesta",-10.011815076048899],["Grand",-10.012014801618058],["profesional",-10.012309723172985],["Que",-10.012452888229642],["septemb",-10.01323282359246],["Yo",-10.013331399535941],["fiscal",-10.013388952460154],["FC",-10.01339342541075],["junio",-10.014037464310793],["interest",-10.015303302694072],["amelijk",-10.015380527142387],["propio",-10.015614709663403],["policía",-10.015627298286683],["berg",-10.015794444689329],["starte",-10.016258099772472],["grow",-10.016414235216818],["utant",-10.017397364607394],["recht",-10.017476210847448],["Qatar",-10.017529089093504],["pa",-10.017604446795625],["bedrijven",-10.017755264835738],["fille",-10.020112494014878],["font",-10.020136889620384],["groep",-10.021138645435363],["%)",-10.021384402692082],["try",-10.021397513007837],["partij",-10.021947618568127],["done",-10.021969849751859],["abord",-10.021999015669572],["vanaf",-10.022686566877834],["estará",-10.02274103277211],["value",-10.02310755125229],["importanc",-10.024286993399414],["once",-10.024551459734905],["Waar",-10.024572877835535],["type",-10.025346711003813],["viene",-10.025855021580636],["score",-10.025966912606169],["demand",-10.027005755049585],["dinero",-10.027084929654162],["sexual",-10.027112808560357],["communiqué",-10.027168006975195],["official",-10.027610309260535],["Final",-10.028081248200792],["core",-10.028450056925346],["avance",-10.028592574251608],["economic",-10.029172003777889],["pez",-10.0313897630354],["ismo",-10.032060437819013],["meter",-10.03240724540122],["halen",-10.032805711222345],["octubr",-10.032986394117877],["percent",-10.033379443944195],["rijden",-10.03496612421734],["ven",-10.035117271468064],["challenge",-10.037486254086453],["markt",-10.038003886805516],["sujet",-10.038048672352561],["Donald",-10.03884673802212],["forme",-10.03891902043478],["muestra",-10.039197918777216],["civil",-10.039259413078272],["novi",-10.039676649998421],["Bar",-10.04047892136321],["beetje",-10.041071930292613],["meilleur",-10.041201746079441],["expected",-10.041921751057934],["wear",-10.042289801610465],["Durant",-10.04243192922791],["avril",-10.042627302587182],["visit",-10.04279866728307],["blijk",-10.043031146372758],["scène",-10.043053947620745],["appear",-10.0434386476193],["trabajador",-10.045062692082057],["parole",-10.046036966617603],["precios",-10.046098425929115],["require",-10.046189328077507],["platform",-10.04651265498918],["eigenlijk",-10.046625793252346],["woman",-10.046664859699751],["événement",-10.046688054154629],["kree",-10.046845856417514],["travel",-10.047577903243837],["confirmed",-10.047704097182208],["prochaine",-10.047812239704498],["terme",-10.047951374027978],["bring",-10.048053039160493],["verwacht",-10.048185662439156],["security",-10.048986625663662],["99",-10.049375798707077],["spite",-10.049497718890043],["ataque",-10.049759510896916],["gewe",-10.04976097130666],["alta",-10.049813150645111],["quelle",-10.050077830765595],["cut",-10.05057647815011],["tell",-10.050601915070299],["loi",-10.051563454377224],["37",-10.052281076034244],["48",-10.05304716176497],["septi",-10.05316624694594],["desarrollo",-10.053558889725338],["opportunit",-10.054612103104738],["économique",-10.054632196799098],["previous",-10.054838135473812],["poner",-10.054883595747835],["plein",-10.055763618793147],["ruso",-10.056352689007209],["watch",-10.056700026937872],["obra",-10.057311586875663],["transport",-10.057654241644418],["geval",-10.057963063041901],["natural",-10.057984272978707],["April",-10.058640281211062],["comunicado",-10.058764202137374],["terwij",-10.058850051120952],["difficile",-10.059279482327778],["environ",-10.059309751094059],["américain",-10.059432874803278],["sería",-10.059689231913932],["ko",-10.060166425188589],["necesario",-10.060628835589265],["Real",-10.061654635292966],["commune",-10.061708918586376],["rating",-10.061845846902123],["respect",-10.062305281289564],["Mundial",-10.062632916678744],["seem",-10.062637863831613],["vijf",-10.064049293137902],["compañía",-10.06464083628654],["Santa",-10.064831473819492],["busca",-10.065110749998581],["Kie",-10.065393170779577],["dejar",-10.066404625346898],["futuro",-10.066424594861468],["known",-10.066498793509714],["stead",-10.066668937214889],["encontrar",-10.067553988477108],["propose",-10.067820383853633],["leader",-10.06830902540516],["comes",-10.068596417731882],["Policía",-10.06867461655137],["Mar",-10.069971611469029],["riesgo",-10.071320687098254],["realidad",-10.071365498467523],["box",-10.071891594963068],["experiencia",-10.072722505776444],["worth",-10.072757985981479],["release",-10.07294302273577],["hub",-10.073643816661178],["space",-10.073759380935371],["po",-10.073818625169341],["Door",-10.07413585890955],["candidat",-10.074385655813838],["attaque",-10.074797197976638],["existe",-10.075324337844696],["troisième",-10.076795241804085],["culture",-10.078593799067676],["training",-10.078689366794897],["evitar",-10.079063001748906],["candidate",-10.080934902478823],["matter",-10.081398944293824],["55",-10.08175690375629],["Not",-10.082325858182063],["weken",-10.082378400214004],["vont",-10.083973924531538],["Tout",-10.08430981886534],["dicho",-10.084486675136976],["June",-10.08493918596578],["potential",-10.084949953363097],["wa",-10.085162465822549],["Niet",-10.08586401228838],["unique",-10.088329446040692],["According",-10.08919421966399],["dossier",-10.089235571097396],["forward",-10.089661624547004],["effect",-10.09034870048879],["parce",-10.090372087702626],["safe",-10.090612902779974],["Even",-10.090802188938662],["whe",-10.090883516372529],["seizoen",-10.090941258756514],["Over",-10.09096626105125],["mano",-10.091520710698529],["hotel",-10.091712048132164],["unidad",-10.091739524911496],["ster",-10.092421158302184],["companies",-10.093162536731189],["performance",-10.093474853408889],["centrale",-10.093957224834995],["Some",-10.094553561967206],["billion",-10.095217982954113],["wege",-10.095706938120177],["accione",-10.09580836336561],["aumento",-10.096109294406311],["38",-10.096145061505979],["cabo",-10.096774569954828],["account",-10.097104377329554],["application",-10.097330259819957],["ú",-10.097831160052149],["Bank",-10.097919438046006],["thought",-10.097991883373652],["tenido",-10.09874234843515],["développement",-10.099497382056821],["Bo",-10.099638652714809],["vue",-10.100624479862955],["ring",-10.101396424983871],["°",-10.101492485571587],["weeks",-10.102062380254523],["story",-10.102321788007863],["ziet",-10.102715444359472],["games",-10.102869451225768],["œuvre",-10.103163780126394],["shot",-10.10320714678775],["internet",-10.103262756614145],["victoire",-10.103580286275651],["formation",-10.104591048825503],["outside",-10.104744342124825],["recherche",-10.104823988055411],["cción",-10.105773852224544],["jeux",-10.106424741059213],["resto",-10.107756789551992],["feu",-10.107961671085073],["material",-10.108000086208834],["prijzen",-10.108021148163875],["Comme",-10.109053540990201],["province",-10.109869596181326],["maakte",-10.110138164117762],["Robert",-10.11019437748185],["petite",-10.110345022294226],["original",-10.110611942475312],["organiza",-10.110766737931222],["actor",-10.111289342027469],["eind",-10.111797399700109],["énergie",-10.111974775433742],["présent",-10.111998514646409],["average",-10.113107438793927],["contract",-10.113524611460168],["fun",-10.113696195832048],["ligt",-10.11381305332353],["Google",-10.114085585616762],["quick",-10.114728759658094],["sub",-10.115100892427929],["prison",-10.116964033807777],["Tour",-10.117359441014703],["aucun",-10.118392062559982],["ajouté",-10.118691221013744],["ruim",-10.119349870260937],["râce",-10.120184890533666],["ministère",-10.120453101978036],["firm",-10.121779964072513],["zorgen",-10.12209245376698],["denken",-10.124376097998146],["probleem",-10.124700516177132],["nom",-10.124890605817969],["65",-10.125305427508783],["août",-10.125451352713775],["residents",-10.125635328969668],["reden",-10.12600061506844],["saying",-10.126066395809548],["opération",-10.12660980821464],["respuesta",-10.12689462670648],["posibilidad",-10.12713322252378],["gebied",-10.12720627632697],["avantage",-10.127335850910661],["construction",-10.127680598999806],["député",-10.128840908303946],["mogen",-10.128899505130335],["vandaag",-10.12897889263591],["Club",-10.128980954030599],["news",-10.130334038448659],["act",-10.130612013188017],["human",-10.131494778718611],["limite",-10.132550435514329],["autour",-10.132750811227602],["Tras",-10.13277312397371],["económica",-10.133266536435134],["necesidad",-10.13327505667089],["restriction",-10.1333197096363],["asse",-10.133353379460836],["maintenan",-10.13371241813023],["color",-10.13474803108847],["inicio",-10.135401614534114],["page",-10.136925358037047],["campaña",-10.13759576009301],["vrouwen",-10.138176606892827],["agreg",-10.138300563122446],["neem",-10.13849735620295],["conseil",-10.138551093942073],["ki",-10.138767358882134],["voiture",-10.139739458339264],["prensa",-10.13979411980027],["ish",-10.139867436544245],["manière",-10.139907963314009],["America",-10.140063215118914],["explicó",-10.141994438571235],["rôle",-10.142480782680812],["regard",-10.142882244094],["prise",-10.14309948789189],["Dus",-10.143220323660877],["pri",-10.143923482933568],["hoor",-10.143945039361153],["soci",-10.144084321680786],["prijs",-10.145098265722801],["Johnson",-10.145701643603964],["list",-10.146425297600327],["research",-10.14644857943479],["gosto",-10.147290573641502],["band",-10.147792846782668],["druk",-10.148123186113752],["haut",-10.148455346812202],["gest",-10.148903244363296],["table",-10.14916002250575],["donné",-10.149537004784136],["rying",-10.150384856563488],["gaz",-10.15161760061908],["Fue",-10.151799123207233],["stellen",-10.152351211536198],["infection",-10.152809771438157],["difícil",-10.152840643902968],["association",-10.152851001466113],["God",-10.153086381106206],["response",-10.153782318940882],["terrain",-10.153835123502533],["parece",-10.153938976763584],["Hospital",-10.15503844832907],["participa",-10.156118129001836],["nosotros",-10.156266322187507],["Jul",-10.156317415825669],["wind",-10.156605737831104],["42",-10.156902719350292],["Ten",-10.156927978169701],["estadounidense",-10.157241089003191],["remos",-10.157571055755415],["store",-10.159027330928076],["bad",-10.159351149179429],["aldu",-10.159525749553644],["elección",-10.1597313199647],["naast",-10.16044238857722],["jouer",-10.160857330036457],["résultat",-10.161660983878921],["target",-10.161762721055897],["haya",-10.161764835423636],["esos",-10.161953354255026],["amigo",-10.162164455192144],["uando",-10.163789200609024],["vecino",-10.163956923349495],["calidad",-10.164263921493355],["form",-10.165470076312982],["miembro",-10.166100841124775],["reçu",-10.166101215757507],["condicione",-10.166126615271324],["Amazon",-10.166128921953284],["medical",-10.166610373107],["Center",-10.16667690578286],["accident",-10.167376752253187],["protest",-10.167819169577921],["claro",-10.16791525911163],["kosten",-10.168749144251322],["trabajar",-10.168855007025872],["Ju",-10.169131005332273],["financial",-10.169720355707382],["199",-10.169989142200762],["gún",-10.169998258997346],["industr",-10.17024613542312],["California",-10.17034799742046],["energía",-10.170565623857991],["mayo",-10.170898834210618],["Mark",-10.170927756072366],["stage",-10.172114090799399],["maand",-10.172387155004444],["morning",-10.172805954278779],["donner",-10.172901386700651],["che",-10.17297960648191],["presencia",-10.173174549005335],["carrière",-10.173333205268246],["seis",-10.173820940748183],["special",-10.174194198897588],["digital",-10.174613082626928],["pareja",-10.174710590675993],["Conseil",-10.175022038755856],["„",-10.175039104267414],["Afrique",-10.175042431480012],["cifra",-10.175080949467066],["drive",-10.175096236274145],["reason",-10.175151756130385],["pued",-10.175285096846599],["personnel",-10.175575105931149],["bureau",-10.175795013262963],["trouver",-10.1762863517095],["Vou",-10.176923216751794],["Emmanuel",-10.177286388119978],["behind",-10.177298238165182],["voter",-10.179229241528049],["website",-10.179647619280331],["val",-10.179652313804645],["inter",-10.18064481153943],["permis",-10.180760043472041],["capacidad",-10.180886001454386],["pasar",-10.181069448172291],["palabra",-10.181801057252926],["deaths",-10.18248885323565],["Centre",-10.182494466656628],["cher",-10.18287374708629],["Día",-10.182898130907882],["idée",-10.183316133531735],["countries",-10.18409744251611],["sociedad",-10.184126159617657],["Air",-10.18548506276217],["Day",-10.18587566964204],["pandémie",-10.186326089597465],["zaterdag",-10.186326228168777],["town",-10.186825486164278],["fan",-10.188499480219287],["econom",-10.188635970851113],["enige",-10.189385766768442],["entidad",-10.189423173755934],["single",-10.189628696977053],["tomar",-10.190586204079484],["arrivée",-10.190588226241001],["Department",-10.190889921550859],["Salud",-10.190954608251847],["vorig",-10.19215366084805],["É",-10.192366831430757],["ran",-10.192593441425888],["web",-10.192796690126332],["madre",-10.193745291787549],["middels",-10.193859551702765],["départ",-10.194570181932736],["bent",-10.194642011136771],["ayant",-10.1946670834367],["Iran",-10.194729996197287],["connu",-10.196044816847838],["echter",-10.19763018817478],["feature",-10.197634638443882],["Central",-10.197637402073102],["thuis",-10.197913364727231],["ham",-10.197949538300199],["double",-10.199682266365443],["abril",-10.200200806315264],["entire",-10.202972389407996],["gracia",-10.204350881218387],["39",-10.20446962023793],["regering",-10.204621755798074],["violencia",-10.204654430476278],["ambos",-10.206031201356467],["focus",-10.206061466278177],["Centro",-10.206892957997692],["woensdag",-10.206968830766508],["camino",-10.20797437573503],["choi",-10.2085859974335],["zoude",-10.209198974229048],["ander",-10.210116367774702],["room",-10.210510321326717],["Poetin",-10.211867672513977],["building",-10.211869633113189],["bal",-10.21272087797881],["Now",-10.213530459328283],["Venezuela",-10.21394562111844],["édition",-10.213946076101081],["vragen",-10.214900184331329],["overheid",-10.215459146548543],["ive",-10.215677226862855],["alto",-10.216374968516906],["book",-10.216517242617634],["46",-10.217135036248852],["venta",-10.217798067573948],["released",-10.217837870664372],["park",-10.21788976119404],["municipal",-10.218655095907387],["conjunto",-10.218662883982585],["senior",-10.218751106594185],["history",-10.218791034318732],["plut",-10.218876291394626],["43",-10.219040765556748],["station",-10.219621102395994],["vivienda",-10.220014833966978],["pesar",-10.220141596707535],["mí",-10.220246982354862],["lleva",-10.220324314503841],["additional",-10.220695188358544],["planne",-10.220882439421342],["territoire",-10.220971383162446],["moyen",-10.221154153630199],["Super",-10.221229497884096],["ganar",-10.221636928893918],["père",-10.22180302737288],["Park",-10.222312781989764],["radio",-10.222840905242554],["check",-10.223525575463038],["doctor",-10.22449867870734],["delito",-10.224689977122175],["mannen",-10.224859155433172],["update",-10.225023568786971],["involve",-10.225096433183957],["febrero",-10.225705015742477],["kabinet",-10.225756660254202],["décidé",-10.225819889178991],["anterior",-10.226027890905929],["role",-10.226040376818373],["surprise",-10.229426467941398],["marz",-10.23039402645852],["maandag",-10.230449261206783],["relate",-10.231777593458995],["gevolg",-10.232012783598684],["prend",-10.232615142303],["succès",-10.232798518840804],["Nord",-10.233208507307655],["James",-10.23330144548654],["sortie",-10.234616447034902],["heden",-10.234944806043721],["virtual",-10.235172939675266],["proche",-10.235475353898476],["employee",-10.235924074701604],["bio",-10.235998390224234],["content",-10.236155812819144],["reunió",-10.236453126291268],["lives",-10.237560369690339],["600",-10.238289537739082],["voi",-10.239055273607388],["belle",-10.239441017229424],["44",-10.239599213006095],["leave",-10.240054811889923],["baar",-10.240064205145366],["gré",-10.240798495489134],["visite",-10.24107426437225],["Qué",-10.241075287303765],["habitant",-10.241388577280873],["único",-10.24258675093062],["afirm",-10.242940979510806],["photo",-10.243642277194795],["reciente",-10.243712538347069],["travers",-10.24397288977611],["Ló",-10.243995923380151],["venes",-10.244140128153655],["goal",-10.244164689922627],["Michael",-10.244748449025444],["PS",-10.24483270358958],["vrijdag",-10.24488681973387],["region",-10.244911067710872],["favor",-10.246993179158084],["Street",-10.247197128950503],["área",-10.248041860911997],["meest",-10.248298794135383],["often",-10.2485198778049],["?”",-10.249491328568308],["attention",-10.249599257345238],["familie",-10.249747336692195],["vos",-10.2501852968917],["dû",-10.25059440901156],["Per",-10.25083062280591],["vidéo",-10.251778302864185],["manifest",-10.25217101778291],["ingreso",-10.252994078207347],["werkt",-10.253267977124835],["alrededor",-10.253338242144391],["White",-10.253709675584627],["phone",-10.254272146194545],["enfermedad",-10.254428491653815],["volver",-10.25515619811331],["development",-10.255513747626257],["kant",-10.255608862339585],["recover",-10.255810896568121],["zorg",-10.256009317572255],["debate",-10.256276349503691],["design",-10.256658116224068],["round",-10.256784601631242],["salir",-10.257009666854437],["ruimte",-10.258165100417886],["safety",-10.25836699000466],["rij",-10.258905369928016],["hoger",-10.259258741030227],["intérêt",-10.25929940935352],["zat",-10.26025239321],["donnée",-10.26029299728323],["nuit",-10.260703597734635],["Putin",-10.260841750523822],["diferencia",-10.261744397505055],["produce",-10.261877687277352],["August",-10.261892025828491],["mantener",-10.261905949883413],["customer",-10.262120079012385],["grootste",-10.262359923821107],["village",-10.26240387286618],["trabaja",-10.262480279615197],["façon",-10.262509344855431],["Open",-10.26281195667734],["raise",-10.263417642934428],["vond",-10.263547031101062],["UK",-10.263551015423042],["cuanto",-10.26420850374151],["plataforma",-10.264229590044643],["Service",-10.26431023232141],["demanda",-10.264338240059322],["ho",-10.264452424385835],["liste",-10.264559222453595],["operation",-10.264885172496813],["pré",-10.265688776336617],["pan",-10.26600607866941],["emment",-10.266223734101565],["baja",-10.266676884795382],["character",-10.267075585511467],["español",-10.267628940470559],["propos",-10.26770749639072],["letter",-10.268612087048357],["presenta",-10.269070599144168],["benefit",-10.269186966246833],["franc",-10.269346693690323],["saw",-10.270457648560154],["ukrainien",-10.271341732067956],["Suisse",-10.271469952385113],["black",-10.27187667100015],["kort",-10.27207701930637],["150",-10.272298639342711],["significant",-10.272797953424462],["aquí",-10.272846800896877],["Dur",-10.273046554249289],["ement",-10.27323554625906],["spelen",-10.273472576763258],["cantidad",-10.274093511509328],["graag",-10.274109610891283],["II",-10.274160367258395],["iPhone",-10.274211176095921],["situatie",-10.274232619236265],["Our",-10.274490971776121],["hoge",-10.274752785540759],["vehicle",-10.276541226441564],["profit",-10.276678101483233],["concert",-10.276784817426877],["aron",-10.276915925979402],["AFP",-10.276945246106076],["began",-10.277043424152504],["dood",-10.27765815920839],["expect",-10.27812338869887],["gave",-10.278961689484731],["detail",-10.278999936204539],["zaak",-10.279046181352765],["plazo",-10.27919148725315],["betalen",-10.279197028084813],["menor",-10.279994930707513],["Martin",-10.280195210151533],["etc",-10.280468119113607],["http",-10.280685428936808],["Ar",-10.281050418442197],["Ante",-10.281396484997334],["count",-10.282012161422834],["regular",-10.282593300504828],["rente",-10.282681129996885],["victoria",-10.28406210545601],["motivo",-10.284308166775851],["langer",-10.284419960826984],["Liga",-10.284568010744309],["Cha",-10.285317782633935],["sabe",-10.285601806278436],["argent",-10.285764004662889],["ría",-10.286031949907477],["elke",-10.286308226026026],["vaccine",-10.28681001121814],["Her",-10.287321236453408],["meet",-10.287489558983506],["realiz",-10.287620893246654],["naam",-10.287833265136044],["inflación",-10.289132123202979],["pic",-10.289190511490151],["confirm",-10.290312818765532],["recibi",-10.290707434420991],["friends",-10.29073908070433],["suspect",-10.290900178237093],["Ahor",-10.29097162703722],["¡",-10.291447923875454],[":/",-10.291687456837476],["Mon",-10.291721069191217],["ciudadano",-10.291873247595365],["animal",-10.291911331623034],["carte",-10.292042718602977],["avion",-10.29223163924764],["comenz",-10.292422371144347],["humano",-10.292524525079347],["41",-10.292895640580673],["usuarios",-10.293012179147375],["George",-10.29311917836262],["coût",-10.293294842518709],["iving",-10.293852542862007],["gelijk",-10.294349175730972],["midi",-10.294488534217217],["press",-10.294490127314567],["ither",-10.294541570868484],["camera",-10.294795876397938],["Hier",-10.294900206829462],["doive",-10.2953986469618],["Francisc",-10.29552994941362],["pago",-10.295736392232389],["member",-10.295963302463282],["viaje",-10.296362671038137],["factor",-10.296376301558078],["qualité",-10.296761299054314],["95",-10.296817691643035],["anunci",-10.29741537181559],["motor",-10.29831225019544],["key",-10.298680610729683],["effective",-10.299214186686108],["ball",-10.299630403052326],["access",-10.30095847093136],["reduce",-10.301010626799329],["artista",-10.301627289877711],["económico",-10.301683374521943],["hôpita",-10.301699754508244],["étude",-10.301752781012285],["buen",-10.301921269550444],["outbreak",-10.302182024499192],["Court",-10.302512538585031],["offer",-10.302595057118872],["article",-10.303646593826699],["iba",-10.303658120532402],["His",-10.303690394237467],["esté",-10.304033298367038],["donne",-10.304196471549508],["tribunal",-10.304909885643685],["lograr",-10.304915638406381],["spend",-10.305005000627876],["85",-10.305711140098225],["enorme",-10.30603646811819],["européenne",-10.307011294702995],["orden",-10.307100421524472],["haciendo",-10.307105984809992],["child",-10.30717436246633],["proces",-10.308017285724297],["duda",-10.308300290378149],["adas",-10.309621532315177],["totaal",-10.309623842146223],["permite",-10.30976000402795],["arme",-10.310071140857236],["gegeven",-10.310940609939394],["savoir",-10.31151746338734],["families",-10.31176428754615],["jefe",-10.312757609560052],["directe",-10.313250089443134],["gros",-10.313914080598956],["technique",-10.314031893815624],["institu",-10.314195114772879],["shows",-10.314218552682082],["active",-10.31437471179964],["52",-10.314468969903663],["Netflix",-10.314520434920954],["dinsdag",-10.314540482042283],["noticia",-10.314560553205919],["beste",-10.314652981097986],["47",-10.314833433205823],["times",-10.315911870847481],["follow",-10.31610599984055],["cœur",-10.316683350644208],["película",-10.317104758567295],["principio",-10.317109522200411],["Belgi",-10.317658007633264],["compromiso",-10.318048610394069],["ahí",-10.31810933182227],["49",-10.3183721867555],["dienst",-10.318399341585533],["peine",-10.31886580959025],["corps",-10.319497938669613],["private",-10.31971530322113],["ningún",-10.319777368755638],["trouve",-10.320114666967878],["acceso",-10.32015608254298],["abilit",-10.320428990922203],["protection",-10.320604051425056],["bill",-10.32115883778838],["lancé",-10.32140016215439],["indique",-10.322390062526342],["mejore",-10.32239128757295],["ayer",-10.323418474220475],["visto",-10.324062708044991],["ig",-10.32427901888073],["Ciudad",-10.324782581972917],["pequeño",-10.324896701983302],["ves",-10.32540994889724],["opposition",-10.329486205888795],["music",-10.329750659007821],["sort",-10.32979896559781],["initiative",-10.330173621966189],["générale",-10.330222357958265],["valeur",-10.330227054642764],["investigation",-10.330237565441177],["UE",-10.330364936641761],["track",-10.330765403827131],["interior",-10.33121197196389],["negocio",-10.332944885592326],["bord",-10.33362059606743],["trav",-10.333845242635153],["valt",-10.33412300380056],["modelo",-10.334247740554002],["Januar",-10.335399468844697],["Michel",-10.336294388110908],["800",-10.336536364837146],["stuk",-10.33656472826469],["llev",-10.336943640889851],["unning",-10.337322832771427],["mov",-10.339165016424442],["Eso",-10.339265676130005],["nombreuse",-10.339384813621948],["hoog",-10.34015528370177],["fi",-10.340168837401142],["habría",-10.340696842487525],["sept",-10.340919001864243],["Green",-10.341461667453629],["chief",-10.34225746919589],["camp",-10.342679408428712],["rendre",-10.34281755424838],["zeer",-10.34324452995158],["ensure",-10.343478116214005],["nadie",-10.34405231669173],["wait",-10.345739081536871],["zondag",-10.345953370130363],["punt",-10.346029381607122],["comunica",-10.346169044066276],["aucune",-10.346185084749044],["States",-10.347521004882264],["efecto",-10.347563053695206],["vo",-10.347765488418098],["gekomen",-10.348051600881298],["Wij",-10.348080988128014],["volledig",-10.348653153791155],["Texa",-10.349444761186797],["earlie",-10.34952092015601],["someone",-10.350051582944339],["bas",-10.350060376813477],["walk",-10.351151158837588],["mundial",-10.351267946993866],["pied",-10.351336635740335],["fer",-10.351668705833681],["leden",-10.352173451741272],["lucha",-10.352620536885041],["grado",-10.35291179000497],["pense",-10.352976240268708],["playing",-10.353804302955343],["Pierre",-10.354208221397945],["terre",-10.35533233629511],["winter",-10.355453578471929],["verhaal",-10.355998316416734],["Daniel",-10.356462008775647],["soi",-10.356623968796438],["nécessaire",-10.35668739548024],["donderdag",-10.356698497300972],["Smith",-10.356736490549654],["Barcelon",-10.356804207443172],["propre",-10.357267360970678],["modo",-10.357478924939569],["danger",-10.35777036708121],["Tom",-10.357953455796538],["opera",-10.358033719317405],["difficult",-10.358206755406846],["bout",-10.358259993009188],["llí",-10.358484724476192],["Commission",-10.358577058668324],["fundamental",-10.359227025418889],["Villa",-10.359302339941152],["serious",-10.359475608349811],["Federal",-10.360125237347782],["War",-10.361025006189085],["contrôle",-10.36118882943121],["activit",-10.361333807383426],["Oekraïens",-10.36208551554773],["emergenc",-10.36209940172782],["Colombia",-10.362310596469554],["André",-10.362459137268582],["regen",-10.362570631018606],["mère",-10.36277083818548],["Peter",-10.362844816628154],["luz",-10.362890073847698],["livre",-10.362958576727154],["authorit",-10.36343028624648],["School",-10.364020819718723],["communication",-10.364077307936734],["mail",-10.364197669932137],["protect",-10.364368203369349],["toward",-10.36448695359039],["Ni",-10.36459394366624],["economía",-10.364956309264734],["Ram",-10.365131580059053],["programma",-10.365418692423052],["miles",-10.366200688906211],["genre",-10.366262569535015],["Group",-10.366486686297556],["ernández",-10.367354991246124],["próxima",-10.36751293430264],["Rutte",-10.36752163964643],["eleccione",-10.367660090665986],["heart",-10.368006687601444],["mooi",-10.36818472555013],["celebra",-10.368430285106417],["gebruikt",-10.368579040460892],["gang",-10.368637115413188],["mother",-10.369258011833708],["langs",-10.369787368749737],["jij",-10.36987664956365],["organisatie",-10.370236680151905],["gauche",-10.370260650550431],["nature",-10.370855394570803],["uiteindelijk",-10.371334850262382],["gol",-10.372509733052247],["sanction",-10.3728611810104],["rappel",-10.37437159773291],["précisé",-10.374445277587716],["66",-10.37458682876191],["puerta",-10.375712066058998],["moeder",-10.376023565965731],["beleid",-10.376380737572926],["hablar",-10.37667011813382],["María",-10.377730930238684],["juste",-10.377773071250823],["vak",-10.377942911709866],["fase",-10.378076966942885],["lista",-10.378440138355884],["matière",-10.378467741764737],["territorio",-10.378726990511902],["signe",-10.379289550016669],["média",-10.379930895622064],["nord",-10.380908555723217],["suggest",-10.38165243166235],["ongeveer",-10.38165856259254],["vente",-10.382440578335615],["jugar",-10.383049491471656],["International",-10.383467388075703],["punten",-10.38389767735369],["covid",-10.383998834254745],["vallen",-10.384301933799211],["Max",-10.38500831171658],["read",-10.385342396067447],["fútbol",-10.385758190586671],["phase",-10.385859257550772],["playe",-10.386116618587376],["executive",-10.38674552004215],["llega",-10.386873952515018],["pudo",-10.387090718212795],["exist",-10.387442159867529],["Manuel",-10.387465968023651],["sanitaire",-10.387709041616398],["plek",-10.387874177475052],["changement",-10.38821971037941],["Hoy",-10.388795227773542],["ploeg",-10.389648479238677],["periodista",-10.389705377543962],["waarom",-10.389936428380924],["única",-10.390894852177421],["PP",-10.391148529554695],["soon",-10.392121448787691],["waardoor",-10.392134936588095],["district",-10.393824098469462],["Star",-10.393850586094196],["siete",-10.393928807155396],["welke",-10.394101425468936],["mode",-10.394213734164444],["elemento",-10.39472514790766],["assure",-10.394921426326615],["Después",-10.395100899025934],["communauté",-10.395100958780176],["tarjeta",-10.395101116687044],["siguiente",-10.395225644906416],["liggen",-10.39643269634141],["visita",-10.396972373213833],["speak",-10.397810615677411],["ordre",-10.397844114916246],["immediate",-10.397902004949586],["transition",-10.397933012640618],["explica",-10.39913910414164],["espace",-10.399586306283258],["concerne",-10.399682867666876],["cara",-10.399727959127597],["cierto",-10.400055485517502],["regel",-10.400214403551189],["compare",-10.400254659241924],["deben",-10.400257042823226],["expérience",-10.400710982722366],["cre",-10.400817544958262],["wante",-10.400850847461538],["lijk",-10.401199569102968],["capacit",-10.401280766824488],["zaken",-10.401317553822848],["Est",-10.40150456154603],["Amsterdam",-10.401545347460006],["reach",-10.401967117851516],["ther",-10.402663968813279],["plu",-10.402904091004423],["clave",-10.403030441331005],["práctica",-10.40352788359732],["économie",-10.403527985402267],["People",-10.403532368377295],["quartier",-10.403591083003217],["leggen",-10.403897266548006],["Charles",-10.403979319758154],["cliente",-10.404621838022042],["fast",-10.405158280524063],["vamo",-10.40521732903282],["structure",-10.405879436098239],["Want",-10.406088745583702],["career",-10.40629056477836],["paciente",-10.406349368416038],["particulière",-10.406352957738934],["pratique",-10.40636356749497],["maire",-10.406905122788846],["break",-10.40729472392755],["player",-10.407419598019267],["wilde",-10.408779735833676],["dieron",-10.40907459003414],["modèle",-10.409185731570169],["September",-10.409185954426832],["crecimiento",-10.409189624733923],["wrot",-10.409312138621376],["needs",-10.409334519511404],["Nigeria",-10.409480900528996],["journaliste",-10.410548696528888],["road",-10.410637290490703],["objet",-10.41071047247316],["agente",-10.410725988498957],["campo",-10.41074640814323],["57",-10.411944983244055],["escenario",-10.412208976107745],["industrie",-10.412873974283212],["girl",-10.412997035768864],["houdt",-10.413298249863068],["agenda",-10.41330914258088],["estudio",-10.413452463883713],["More",-10.413480232958147],["belangrijk",-10.41351548009086],["agent",-10.413973454410261],["técnico",-10.414504650107492],["seconde",-10.415213591565912],["miljard",-10.415387328937246],["nothing",-10.415483950133929],["Novemb",-10.4167343733377],["Ga",-10.417177464465638],["Wie",-10.417337457325578],["Congreso",-10.418023368527702],["llowed",-10.418164486759562],["ieder",-10.418425424106013],["friend",-10.418678670344436],["Ali",-10.418947861189826],["zoveel",-10.419320422222135],["criminal",-10.419331517314543],["movie",-10.420105481589317],["institution",-10.420389133099704],["Octob",-10.420602260467689],["Pedro",-10.420727181399569],["parler",-10.421024736298712],["Ka",-10.42270390329199],["amount",-10.424448764612618],["élu",-10.424728103217895],["grond",-10.42483159708662],["Brit",-10.425135933765189],["boeren",-10.425250896599625],["address",-10.425614682626538],["cha",-10.42563077062264],["loin",-10.426311136013787],["Chief",-10.426371185762974],["Don",-10.427351992338908],["zomer",-10.427559491848438],["bied",-10.427652041338344],["veld",-10.427658651540495],["amor",-10.427987788337514],["oud",-10.42878881164023],["victim",-10.429095609768503],["prévu",-10.429160223775636],["discussion",-10.429302549606728],["study",-10.429616934592174],["derde",-10.429683319789095],["acto",-10.431186334781032],["réussi",-10.431306862225279],["seguro",-10.43138523815292],["Pen",-10.431826496861174],["música",-10.43214212719366],["perfect",-10.432192031005872],["estime",-10.433411269617576],["Nation",-10.433425209394397],["ocho",-10.433505962014586],["Australia",-10.434163596556257],["2010",-10.434662323526009],["ampoco",-10.434736533813616],["République",-10.435063010106797],["Universidad",-10.435066374578476],["Toda",-10.435130642587769],["pool",-10.435422863323476],["vista",-10.43767005248058],["partner",-10.43799479708968],["máximo",-10.438018207853968],["college",-10.438082315491869],["habrá",-10.438099656787298],["distinto",-10.43842441932415],["rang",-10.438878695440364],["Japan",-10.439790047447337],["deliver",-10.440879125515801],["vuelta",-10.440913344682775],["Coupe",-10.440937492398799],["República",-10.441082841978995],["accè",-10.442761658542873],["nacht",-10.442807524409954],["responsables",-10.443110822297607],["localidad",-10.443230654826731],["ity",-10.443374843360866],["Plan",-10.4437154336053],["defensa",-10.443843970031008],["2000",-10.444001779179466],["Qu",-10.444704980992974],["montre",-10.444753584589556],["richting",-10.444936982788677],["permettr",-10.44532041493795],["esas",-10.44538391486013],["niks",-10.4455113147747],["64",-10.445900192124427],["ida",-10.446022111736987],["leaders",-10.446047324015744],["Marc",-10.446370390220968],["présence",-10.446764014410107],["location",-10.44677984114275],["titular",-10.446830127257119],["político",-10.447010599575918],["dix",-10.447018267290925],["54",-10.44774713497701],["ouvert",-10.448048827753869],["mantiene",-10.448975808648864],["entrada",-10.449158937281211],["mondiale",-10.44922240747426],["eeded",-10.449510747543089],["movimiento",-10.449722766283895],["white",-10.449893708954079],["rrière",-10.450145366047792],["hoop",-10.451042633451927],["quedar",-10.451236927872078],["2012",-10.451979509736123],["artiste",-10.452011115596846],["marque",-10.452314118341489],["62",-10.452316182485816],["Inter",-10.452562031982406],["Civil",-10.452694899249654],["Alle",-10.453397397586768],["necesita",-10.453564513384642],["impacto",-10.453989928134355],["voto",-10.454370801346009],["Thomas",-10.45565085678072],["daily",-10.45577585842485],["ère",-10.455970971140461],["suma",-10.456008170576453],["parties",-10.45624381753301],["amente",-10.456445312400257],["rare",-10.457599411089088],["Sud",-10.457910525054313],["kleine",-10.45826972948574],["disease",-10.458434358150523],["presentar",-10.458608040332596],["loopt",-10.458889150773999],["Can",-10.459143758354973],["totale",-10.459329214109676],["accidente",-10.459806847618774],["others",-10.460457405744112],["Democrat",-10.46049075053627],["ger",-10.460737280646994],["EE",-10.46082416501961],["sait",-10.461189289474586],["beteken",-10.461208307051901],["saber",-10.46136920718913],["citoyen",-10.46137790805836],["défense",-10.461472555020517],["attempt",-10.461630136878185],["entrée",-10.462226364027451],["actie",-10.462243045160875],["album",-10.462553072152861],["Just",-10.462648216752967],["garde",-10.462948591181599],["Israël",-10.463915451074593],["russes",-10.464117847485872],["vive",-10.464286033896855],["72",-10.464796188765078],["scene",-10.464981126919723],["cabeza",-10.465405806901781],["250",-10.465439032450616],["isation",-10.465718246097797],["oferta",-10.466066968439389],["mejorar",-10.466612826145138],["bigge",-10.466747567985912],["contar",-10.46704273104101],["différente",-10.467047942091675],["longer",-10.467265587067548],["growth",-10.467836025323855],["multiple",-10.468237887036373],["kopen",-10.469089842837892],["forte",-10.469488977322907],["ras",-10.469943248046409],["interés",-10.47071726645413],["sign",-10.470730368737708],["kille",-10.470815681274685],["centrum",-10.471091052601189],["propia",-10.47135796913365],["contrat",-10.471405843956227],["vorige",-10.471962678518636],["gestion",-10.472843776849576],["OS",-10.47284404523041],["ergens",-10.473210686469617],["Social",-10.473262910357533],["époque",-10.473644375711675],["rie",-10.474424674144368],["lever",-10.474727773758012],["cita",-10.474799083214904],["élève",-10.475081380100416],["ette",-10.475626590434931],["tenga",-10.47564244750622],["prêt",-10.476099154937238],["58",-10.476329277951518],["juge",-10.476580358167833],["kilómetro",-10.47665984975885],["ending",-10.477153678818297],["fond",-10.477559258996891],["iones",-10.47815531773692],["lekker",-10.478710565470506],["echnology",-10.479206308467765],["prima",-10.47932876514747],["esfuerzo",-10.47969936749112],["éxito",-10.479700014919446],["lorsqu",-10.480307578412793],["fonction",-10.480358574519817],["ización",-10.480530482564447],["song",-10.480874480335473],["ista",-10.481180343369196],["Louis",-10.481448121751637],["actions",-10.482726574803705],["Vladimir",-10.482750697236204],["emploi",-10.482775542653968],["minute",-10.482907722261047],["libertad",-10.48317077461083],["decade",-10.483487064884628],["capacité",-10.484037302323424],["manager",-10.484122564210196],["origine",-10.484657699566423],["reprise",-10.485080557434788],["understand",-10.4851913202441],["marco",-10.485353694122239],["européen",-10.485563618565287],["rendu",-10.485785071477515],["título",-10.485806259919991],["ary",-10.48581613246912],["gobernador",-10.485925906010618],["bueno",-10.485927966488244],["Musk",-10.485990426938985],["interven",-10.486173160140668],["father",-10.486173826298643],["Bien",-10.486440778691193],["participar",-10.487658806597604],["entrega",-10.488649016418037],["Consejo",-10.48887373277573],["enfant",-10.4891831229004],["Bueno",-10.489577451389582],["capitale",-10.490380008397313],["wanne",-10.490491166372536],["différents",-10.490644529890927],["periode",-10.490789739691646],["demandé",-10.491116375611808],["regional",-10.491475508384918],["Africa",-10.492137870998103],["Government",-10.492142518808798],["beeld",-10.492181610063268],["Tu",-10.492438612013212],["fuego",-10.492611927177421],["droite",-10.493262060645073],["conclu",-10.49419333455469],["jou",-10.494395718349686],["rechter",-10.494760006279208],["cap",-10.494879228785063],["ochtend",-10.495041726155687],["essential",-10.49504581553791],["argentino",-10.49509430453579],["Maroc",-10.495146004768644],["responsabilidad",-10.495176652282021],["industria",-10.495277375336034],["representa",-10.497056470738237],["ayudar",-10.497096187908149],["practice",-10.497114127509999],["bezig",-10.497536899643684],["escuela",-10.498228996117982],["tax",-10.49827882675515],["Ville",-10.499021127701774],["daarom",-10.499081418362922],["Luc",-10.499137900633864],["management",-10.49918106477551],["argument",-10.499437541886667],["grands",-10.49946815584683],["ecember",-10.499575996942564],["longue",-10.499719426859063],["distanc",-10.49974239528138],["incluye",-10.500198549371387],["talent",-10.50038196760203],["ieron",-10.50054678167097],["doute",-10.50056995926677],["detalle",-10.500773622333515],["67",-10.50080104132451],["perdu",-10.501136900468547],["tecnología",-10.501238683610353],["smartphone",-10.501255363017169],["Bay",-10.501416642100764],["aange",-10.501519323265086],["middag",-10.501654908712435],["maatregelen",-10.501740491774514],["driver",-10.503099675020323],["positivo",-10.503590162457861],["cijfer",-10.503649106581104],["seek",-10.503942828751903],["Aan",-10.5040350626281],["audience",-10.50435605029018],["iniciativa",-10.50435777139468],["relationship",-10.5043806291646],["Februar",-10.504574745215454],["accusé",-10.504782134859127],["termin",-10.505054730868657],["tie",-10.505457370507738],["systeem",-10.505702637281397],["appelé",-10.506641077693379],["metros",-10.507069524344276],["schedule",-10.507108099465716],["acht",-10.507542597329362],["década",-10.507627358557944],["arm",-10.507774845066955],["inside",-10.508028605727292],["Mijn",-10.50848781379425],["eguridad",-10.508584546009843],["revenue",-10.508607935030604],["ck",-10.509234904109759],["hacen",-10.509240683083835],["avez",-10.509325473509872],["aider",-10.509676367269247],["propert",-10.509875965874334],["meilleure",-10.51001400380721],["Poutin",-10.510681200596355],["volume",-10.510688876408306],["lutte",-10.510854305514576],["wife",-10.510918814560359],["ground",-10.511003734021166],["ofrece",-10.511487089555974],["plaza",-10.51169976439153],["América",-10.513704988175117],["extrême",-10.51375832959131],["debería",-10.513878292204733],["écran",-10.513893924461271],["Mario",-10.514956440675993],["hulp",-10.515055630440763],["Ça",-10.515243479471746],["Comis",-10.516089496446266],["quality",-10.516250002865888],["particulier",-10.516912911655474],["example",-10.516934476365293],["tengo",-10.51748915693959],["voie",-10.517631429351999],["précise",-10.51765083556332],["nieuws",-10.51783131406402],["guy",-10.518019904738956],["quarantine",-10.518096336266018],["tasa",-10.518696164098097],["precie",-10.519013419298915],["Net",-10.519074599034084],["Many",-10.519075108399864],["klimaat",-10.51988899487613],["mouvement",-10.52001753903318],["infrastructure",-10.520081477531388],["CEO",-10.520156315877127],["Sport",-10.521051649591422],["teste",-10.521278144988962],["ninguna",-10.521605936085813],["américaine",-10.521886096303888],["Antoni",-10.52248094520585],["atteint",-10.522613669867198],["dura",-10.52303198322003],["honderd",-10.52316476161083],["tension",-10.52326252545375],["huidig",-10.523462581689252],["française",-10.523768968425555],["flink",-10.523847703407691],["Da",-10.524016905014875],["rester",-10.524018478867625],["mental",-10.524729453158816],["serve",-10.52479421175839],["states",-10.525177785691213],["59",-10.525868331363547],["établissement",-10.526452841432263],["majorité",-10.527239609571897],["policier",-10.527426912393217],["armes",-10.52752481223953],["mètre",-10.528649283107214],["vertelt",-10.528872305298531],["presión",-10.528999832952678],["contrato",-10.529240611562809],["Ains",-10.529257315950472],["Vi",-10.52926991600366],["pod",-10.529471174683504],["Casa",-10.529650050846389],["lluvia",-10.529651378668056],["plateforme",-10.529693406084464],["68",-10.529957870797375],["Play",-10.530451597115373],["vader",-10.530512654902985],["zag",-10.530538491817746],["écrit",-10.530958923367153],["makes",-10.531350344087624],["añadi",-10.531906915644019],["guien",-10.531985262232716],["clase",-10.531994790971847],["lower",-10.53269480275991],["revenu",-10.532762031863648],["fácil",-10.532847868262916],["sitio",-10.533387125000505],["Bill",-10.533488215936579],["policy",-10.533827072536289],["étant",-10.534728049595827],["telle",-10.53519182852417],["product",-10.535470949875897],["Association",-10.536052251920033],["Duitsland",-10.536073278821252],["Florida",-10.5361105471785],["VS",-10.536147766075425],["69",-10.536198630497204],["pick",-10.53638495733132],["llamado",-10.536544534826701],["describe",-10.536619635067645],["hors",-10.536885830743131],["partijen",-10.536995242199282],["Jo",-10.537140181162851],["Ko",-10.5372557122182],["vaccin",-10.537447854474067],["créer",-10.537608794321702],["53",-10.538341442915902],["invers",-10.538412358414213],["inflation",-10.539029974862538],["temperatura",-10.539278100511899],["organization",-10.539374261016802],["Christian",-10.539471570854776],["ship",-10.539563857005346],["golpe",-10.539924833701043],["gebracht",-10.540436862608933],["zelfde",-10.540799730230155],["candidato",-10.540863850870032],["rival",-10.541613457222994],["peuple",-10.541716668759696],["arrêt",-10.541756860292711],["daarna",-10.54180176723438],["films",-10.54183697133626],["76",-10.542423460880718],["restaurant",-10.542752579952646],["barrio",-10.543184962431534],["commission",-10.543256521304048],["Pi",-10.544809518706124],["helpen",-10.54484101544204],["Toen",-10.545011055293703],["News",-10.54501849027288],["micro",-10.545082596228248],["alcalde",-10.545228459298226],["Po",-10.545297852306525],["compagnie",-10.545761435844785],["voit",-10.545822818617115],["mini",-10.547497526054023],["Ho",-10.547600556266167],["63",-10.547972947521465],["detenido",-10.548075422139084],["sûr",-10.548215722221748],["Ra",-10.549119182152616],["arse",-10.549820112684417],["halve",-10.549824681430078],["vot",-10.550702368341035],["Copa",-10.55099888312957],["Russen",-10.552197484455636],["gedrag",-10.552534767568062],["marcha",-10.55301371893091],["populaire",-10.55327598174263],["hechos",-10.553375776116326],["whole",-10.553852996860197],["range",-10.554005227813073],["meeste",-10.554268397102074],["relatie",-10.554365792647415],["facilit",-10.554493063350721],["patient",-10.554718534901689],["education",-10.554801491030442],["purchase",-10.555255869517346],["user",-10.555355888323849],["78",-10.555452232708006],["Disney",-10.555565457425928],["superior",-10.555567974817958],["conocido",-10.555796471632517],["Lors",-10.5561674769341],["plane",-10.556319449494145],["dirigeant",-10.55643811222797],["eight",-10.556541896782793],["hart",-10.557338580192068],["51",-10.558187058957838],["entrevista",-10.55847881603462],["Même",-10.558867521239476],["expliqué",-10.558964777551877],["pop",-10.559182146146899],["vin",-10.559200125997837],["vacuna",-10.560450144003745],["balance",-10.560507360559884],["jury",-10.56061220390628],["kilometer",-10.560704516500216],["opge",-10.56070939868264],["labor",-10.56081843194698],["dicht",-10.561012766812043],["adelant",-10.561570721764019],["slag",-10.562068940112425],["mexicano",-10.562154833698898],["présente",-10.562263783383294],["salida",-10.562388888444543],["request",-10.562786682543436],["Cruz",-10.562964013968994],["affirmé",-10.563171352373782],["ocurri",-10.563199654852044],["meerdere",-10.563278418537893],["representante",-10.563462412450349],["WK",-10.563722397100083],["class",-10.564053274542474],["vorm",-10.564303443757098],["klaar",-10.564822811222403],["liet",-10.565143164100594],["blessure",-10.565470043786299],["Justice",-10.565482713083721],["tests",-10.565567213705915],["groter",-10.565574909687829],["regio",-10.56595078864438],["âge",-10.566458657110395],["analyse",-10.566533217044924],["lucht",-10.566680185035798],["hoeveel",-10.56685243515625],["usual",-10.566897925530807],["construc",-10.567395927017776],["Bi",-10.567820158144002],["title",-10.56789489464692],["cour",-10.56793203884222],["olie",-10.568026477745683],["technologie",-10.568308896186277],["Montréal",-10.568696657018794],["waarschijnlijk",-10.568804753078812],["intervention",-10.568976650783377],["manque",-10.56914051967133],["vivre",-10.569624610727935],["retrouve",-10.569645217266427],["rekening",-10.570869253263089],["leuk",-10.571538714287204],["répond",-10.571797383188303],["contacto",-10.571992764832817],["réalité",-10.572128173533564],["relative",-10.572144899483416],["materia",-10.572528522470904],["égale",-10.57307796329637],["doel",-10.573166178341616],["pagar",-10.574100383812922],["initial",-10.574273212545549],["officielle",-10.574282433011529],["transporte",-10.574457470926971],["véhicule",-10.57447547056188],["comercial",-10.574548968926422],["particip",-10.574862106658973],["pie",-10.575032860880196],["enjoy",-10.575375244653141],["summer",-10.575510923121218],["77",-10.575885963256793],["96",-10.576974436722656],["anyon",-10.577145700425245],["tier",-10.57725458592898],["gen",-10.577611274002429],["rise",-10.578045236725657],["accuse",-10.578088556347021],["resource",-10.578931737569494],["ió",-10.580249969292895],["genes",-10.581064505608566],["700",-10.581183195688453],["exact",-10.581998707160665],["variant",-10.582136082099339],["distinta",-10.582221072714077],["estudiante",-10.582401546878732],["funciona",-10.582832146892859],["distance",-10.583432013738324],["Garc",-10.583483082058546],["Director",-10.583607269353287],["manage",-10.583968372202595],["step",-10.584336451694384],["recibir",-10.584569056964257],["soldat",-10.58479004799349],["ogen",-10.584801151328072],["ouders",-10.585149474073658],["vite",-10.585384858269158],["ach",-10.586388192255196],["privé",-10.586978903823628],["kids",-10.587650963746517],["daughter",-10.588872146432688],["estrategia",-10.588958031617379],["oplossing",-10.589003503786735],["treatment",-10.589656714436192],["Prime",-10.58970387133223],["standard",-10.59042092323455],["etapa",-10.590991304736548],["reports",-10.591277293022799],["cultura",-10.591490204684922],["trekken",-10.591957555685543],["diputado",-10.592289979329625],["wood",-10.592325870260701],["réponse",-10.592358462406711],["Miguel",-10.592359040098085],["categoría",-10.592458434623389],["opening",-10.59271876504376],["56",-10.59342783080781],["print",-10.593740031327659],["lack",-10.593758795165812],["Gran",-10.594871197733049],["alcohol",-10.595285082652556],["rusa",-10.595418580242523],["fair",-10.595438562037113],["politiek",-10.595465966630723],["dizaine",-10.595773326663343],["auteur",-10.595871734151864],["realiza",-10.596118044801635],["Mosco",-10.597130121637061],["huizen",-10.597473155346297],["error",-10.597891090331295],["ask",-10.598338098051098],["acte",-10.598493708226819],["presqu",-10.59853469813732],["strijd",-10.598748137772137],["capable",-10.598850934794855],["brough",-10.599294981932196],["critique",-10.599547759401611],["center",-10.59992147870733],["fiesta",-10.600059896075944],["fonds",-10.600174040573123],["passage",-10.601117453506196],["pena",-10.601140194158019],["habla",-10.601513987388651],["baby",-10.601534264743758],["gevallen",-10.601599944604569],["vision",-10.601971177675342],["voyage",-10.60200060894174],["stress",-10.60200684985302],["leading",-10.602314059168275],["€™",-10.60263634733045],["encourage",-10.60291412198037],["étape",-10.602990171649372],["voorbij",-10.603342588803631],["cast",-10.60335228747209],["imagen",-10.603419443503931],["allá",-10.603424157053581],["travailler",-10.60386105370672],["represent",-10.604027455669645],["diario",-10.605490530141676],["arrêté",-10.60555757405363],["happ",-10.605808920374358],["quite",-10.605935502003394],["commerce",-10.606122550163406],["facile",-10.606146882759571],["emergencia",-10.606171374723168],["eran",-10.606462318531715],["Israel",-10.606619275267867],["cash",-10.607055329859405],["mind",-10.607086075307926],["view",-10.607379527070588],["Bas",-10.608293322514424],["obras",-10.608627896954625],["East",-10.609056884572869],["pression",-10.609159633947979],["completa",-10.609488940965996],["soirée",-10.609725331026564],["Mac",-10.609969434826949],["style",-10.611182795926723],["voy",-10.611275730221493],["decided",-10.612990450432129],["judicial",-10.613033720425573],["documento",-10.613277604985164],["89",-10.61336977389104],["felt",-10.61344201961825],["eten",-10.613976337561766],["conflicto",-10.61426640620499],["alleged",-10.614354792907786],["approach",-10.615132010047272],["figura",-10.615222949583565],["libro",-10.615225554575103],["Chile",-10.615404880179446],["ronde",-10.615675622285876],["lange",-10.615712472891403],["ajoute",-10.615727280085341],["Hast",-10.615788372833077],["trimestre",-10.616498746686169],["mandatario",-10.616695644125105],["llegada",-10.616810212229831],["conflit",-10.616954433707116],["Toch",-10.617025032845552],["dingen",-10.617060258459704],["Más",-10.617061917721522],["schools",-10.617075017129089],["crea",-10.61736079227378],["nummer",-10.617442871240792],["above",-10.617722737646844],["themsel",-10.618142343499066],["horen",-10.61823768079461],["destino",-10.618481470451055],["zoek",-10.618861710963849],["winning",-10.619247902003782],["pasada",-10.619694398683453],["inflatie",-10.6197594255851],["deberá",-10.619988112228704],["augmentation",-10.620015664842658],["torneo",-10.620023783890868],["nam",-10.620877061516866],["fail",-10.620933573866168],["Congress",-10.6215998678011],["moeilijk",-10.621810817592928],["min",-10.622371972029676],["meld",-10.62269150101568],["considera",-10.624348291213181],["ried",-10.625099912769453],["realizado",-10.625142278150708],["probablement",-10.62541718376496],["prevent",-10.625418523694947],["verkiezing",-10.625855044849736],["Every",-10.626600197529735],["amenaza",-10.626625595693902],["Instituto",-10.626651135854523],["ble",-10.626865838755647],["conférence",-10.62702337523248],["Festival",-10.627067586037336],["Fiscalía",-10.62709467622231],["comité",-10.627162458551243],["baisse",-10.627895302580294],["worke",-10.627908990582768],["estatal",-10.628718386297392],["icieron",-10.628855438244623],["voorzitter",-10.629338795773334],["MP",-10.629342320137736],["Français",-10.629449505521897],["simplement",-10.629805087440579],["retrouver",-10.630370719248338],["thousand",-10.630602682173594],["card",-10.631296896868147],["code",-10.631358643671163],["ballot",-10.631663956813245],["Public",-10.632361215832887],["vivir",-10.632522155810285],["relations",-10.633280680482954],["publié",-10.633421805247242],["mediante",-10.633903682698353],["achat",-10.63396687125639],["obstant",-10.634104554499164],["diverse",-10.634269845404802],["trial",-10.634409685085913],["boek",-10.634878576437764],["cover",-10.634904618350852],["civile",-10.634989431293402],["professionnel",-10.635169912670197],["review",-10.635613000849101],["limit",-10.635810929231862],["blij",-10.63628507707452],["tenu",-10.636302721386249],["ouverture",-10.636631318003152],["mitad",-10.63704231701211],["administra",-10.63705829593262],["justicia",-10.63720002209833],["moved",-10.637420502807801],["commencé",-10.637662436434315],["Ángel",-10.637664636011522],["anderen",-10.638390337430664],["88",-10.638657617973415],["Force",-10.638746988834363],["buscar",-10.639146418075907],["devenu",-10.639301538872129],["79",-10.639549290084213],["Wel",-10.639715101380908],["Democrati",-10.639724778454],["necessar",-10.63973091983345],["urgence",-10.63983137223224],["Val",-10.641020091377133],["souligne",-10.641064009800516],["François",-10.641233735178174],["véritable",-10.641233775288764],["stelt",-10.642477642279285],["spel",-10.642783107011798],["cumplir",-10.64371775375766],["piece",-10.643847935812873],["muziek",-10.644819642148976],["empleo",-10.644829846160452],["specific",-10.644966337873248],["mot",-10.645126725396395],["encontraba",-10.645689294211703],["coment",-10.646349645132666],["Office",-10.646530690370478],["compra",-10.64735964070708],["duizend",-10.647491195300276],["ña",-10.647609708898795],["join",-10.647628338285994],["commercial",-10.647670348205402],["huge",-10.647885154799344],["Bruxelles",-10.64841617231187],["voetbal",-10.648429714651183],["venu",-10.64849724790784],["crear",-10.649243063461206],["Aire",-10.6493242180892],["patron",-10.64949170695354],["rouge",-10.649552560287573],["Angeles",-10.649828701606777],["opinion",-10.649955783541717],["foot",-10.650328121245362],["niemand",-10.651297867953481],["studio",-10.651339406048736],["avocat",-10.652155741243757],["incendie",-10.65218296048688],["cambiar",-10.652200149331051],["q",-10.652344923698475],["tierra",-10.652488318144352],["jonge",-10.653800869777244],["provincial",-10.654117428608707],["98",-10.654194323256789],["damage",-10.654868753277551],["domaine",-10.655007198874575],["disfrutar",-10.655363821819224],["Groningen",-10.655648608006604],["ukrainienne",-10.656005034902915],["affirme",-10.656381236539067],["feeling",-10.656519584374657],["gevoel",-10.656528268179606],["declar",-10.656593359810534],["department",-10.656646170644343],["AP",-10.656930574884024],["beide",-10.65703148698894],["leg",-10.657680078591232],["ziekenhuis",-10.658402476963783],["wegen",-10.658772978633483],["build",-10.658936945409124],["rápida",-10.65928427980597],["policial",-10.659302013805643],["création",-10.659323321376457],["historique",-10.659515177227945],["deja",-10.660129132907738],["tir",-10.660238358752911],["drugs",-10.66031999003557],["teams",-10.660586896796126],["multi",-10.661037624333204],["agree",-10.661300100812321],["host",-10.661472782645472],["vroeg",-10.66190170042195],["belasting",-10.662617944454283],["gevon",-10.662863678004378],["sense",-10.662887035614235],["étudiant",-10.662923065741644],["Rodríguez",-10.662934382232237],["continúa",-10.662934409782029],["impuesto",-10.66294362959156],["estimate",-10.663291424793162],["éviter",-10.663479322061573],["various",-10.663574258028117],["consumo",-10.663689688907969],["réunion",-10.664429673663324],["chi",-10.665555463286038],["reactie",-10.666129281705976],["answer",-10.666636159752503],["develop",-10.666851556233503],["moyenne",-10.666983419055049],["contenido",-10.66700081384808],["rich",-10.667062076925372],["Blue",-10.667345637291906],["klein",-10.668310000851497],["Kan",-10.668993483581346],["minuten",-10.669307227184184],["cree",-10.669657059206617],["pourra",-10.669706222900997],["rechts",-10.670001494100227],["cámara",-10.670273990733204],["aanwezig",-10.670274345240394],["prime",-10.670589924862087],["lijn",-10.670608680336208],["réalisé",-10.670792796341388],["inten",-10.670917430757349],["aught",-10.671210472111584],["cancer",-10.67170197047421],["hacerlo",-10.671843479565904],["professional",-10.672279082843442],["toekomst",-10.672341686407583],["extreme",-10.672376147122595],["vervolgen",-10.672627293967029],["reforma",-10.672628569119293],["Verenigd",-10.673975680846375],["High",-10.674340725855561],["probabl",-10.674427961538909],["organismo",-10.674667516368954],["temas",-10.67492932463449],["Col",-10.67559691903318],["73",-10.676054271691434],["save",-10.676149451855157],["spokes",-10.677051791698611],["Nueva",-10.677693646836442],["eventual",-10.678010960081565],["prett",-10.67837541679721],["deep",-10.678624931177483],["dezelfde",-10.678770284549891],["instant",-10.679319037355452],["African",-10.680019473848379],["lid",-10.680197969244846],["vakantie",-10.680699397817628],["creo",-10.681063037630079],["gne",-10.6810865883508],["conversation",-10.68143986120371],["liberté",-10.681543073696773],["Duitse",-10.681991882255247],["episode",-10.681999547874218],["conséquence",-10.682263967805955],["aspecto",-10.682483552628566],["buurt",-10.682651229471634],["ruta",-10.682794070238378],["présenté",-10.682856996355135],["eron",-10.683368882132571],["surface",-10.683491797897862],["dirigente",-10.683797230489038],["nez",-10.684577665452611],["Council",-10.68472316354878],["absence",-10.685116832220029],["supplémentaire",-10.685119109645019],["frontière",-10.685197055123936],["tercera",-10.685251920962198],["gemiddeld",-10.685257420291947],["décè",-10.68548399903823],["addition",-10.685497043512191],["pou",-10.685585510261234],["teacher",-10.685734434999382],["Kamer",-10.6858173783475],["estoy",-10.686593395470021],["ándose",-10.686686162389165],["voel",-10.686698683558213],["eur",-10.687016992388497],["roi",-10.687144150553287],["bijzonder",-10.687290342375782],["ición",-10.687450996544818],["boy",-10.687631505866971],["conflict",-10.68771767333796],["verdad",-10.68813664522671],["menores",-10.688185544280689],["engagement",-10.689023036135477],["European",-10.689060071875268],["représentant",-10.689080630910999],["protec",-10.68971799566368],["incremento",-10.68973492669081],["oog",-10.689803368430368],["gone",-10.690225671378098],["papel",-10.690385460036577],["science",-10.690469170080398],["Act",-10.690750050453286],["Qui",-10.69104131446527],["commence",-10.691096824389255],["conference",-10.691103234741991],["ogró",-10.691371402539035],["mooie",-10.69162434912333],["Costa",-10.691932150210452],["enkel",-10.692224967572134],["marge",-10.692676555547347],["Jorge",-10.692793882259007],["hile",-10.693124327226666],["lezen",-10.693278212104442],["employé",-10.693505518762246],["nchester",-10.693717265506468],["learn",-10.693835820916153],["bleek",-10.694143042513168],["betrokken",-10.69428320690067],["municipale",-10.694283814151067],["UU",-10.695123764664668],["elles",-10.695133049747898],["Williams",-10.695204844319584],["imá",-10.69547885617999],["Since",-10.695695502949402],["Brasil",-10.696025413116123],["directa",-10.696210986552936],["status",-10.696218801899274],["Río",-10.696399867477197],["pakken",-10.69640388433838],["massive",-10.696416581480701],["easy",-10.696426812467564],["medewerker",-10.696442056129367],["energy",-10.696778382523974],["Chris",-10.697400649486788],["golf",-10.697593927624101],["Uni",-10.697659518769044],["River",-10.697678897485748],["tech",-10.698779730046954],["liep",-10.69898904050422],["asegura",-10.699682802449878],["Eric",-10.699913341114009],["Will",-10.699934497274988],["partenaire",-10.700200556107381],["ski",-10.700236360745526],["Secretaría",-10.700332746966694],["helft",-10.700457069760652],["intention",-10.70152657937091],["arned",-10.701644390151612],["zin",-10.701787259069079],["learning",-10.702240062762893],["macht",-10.70253699133645],["Cup",-10.702993817018712],["machine",-10.703093668343996],["idió",-10.703126557719868],["stroom",-10.703254832641184],["DC",-10.704440694735062],["tren",-10.70479340845572],["border",-10.704795074782982],["beat",-10.705834264089471],["assuré",-10.706101122791804],["texte",-10.706544048109912],["paz",-10.706564211465963],["denuncia",-10.707000662250493],["King",-10.707031248739863],["maximum",-10.70718620518348],["avis",-10.707227967045316],["dosis",-10.707333954460719],["importe",-10.707427409670089],["pot",-10.707602045156957],["musical",-10.707617641996155],["avoid",-10.70763487883232],["depend",-10.707715599604269],["kennen",-10.707799309814938],["Justicia",-10.707804268238345],["banque",-10.70799165621738],["conductor",-10.708073832419743],["Richard",-10.708160417396327],["personeel",-10.708585188044363],["queda",-10.709614522179988],["84",-10.709950818836687],["rust",-10.710080311362798],["arreste",-10.71009596288993],["peor",-10.710216118245448],["compris",-10.710232951615291],["Mal",-10.710993522419805],["ducación",-10.711074002536101],["Victoria",-10.711237795456015],["mobile",-10.711481730829812],["artículo",-10.71163308646203],["Suprem",-10.711655997762307],["Geen",-10.712146763908056],["kamer",-10.712198425304312],["drone",-10.712380687275786],["podía",-10.712518466649957],["reduc",-10.714243862521872],["cinéma",-10.715412639994618],["gesprok",-10.715464037579544],["gezet",-10.71548093602857],["élément",-10.715487948742602],["suficiente",-10.71558829048267],["speed",-10.716157715080598],["wachten",-10.716541390388905],["cité",-10.716589512979734],["generar",-10.716668937869496],["elk",-10.717401471603726],["electoral",-10.717431848788586],["Deux",-10.71775289218459],["obteni",-10.717820083407727],["ance",-10.71838605711952],["symptom",-10.71933945141209],["Ayuntamiento",-10.719340244279028],["evidence",-10.719340396420746],["physique",-10.71934050972995],["cuarto",-10.71934062070542],["sommige",-10.719342606656923],["mocht",-10.719351619106032],["souligné",-10.719604291847212],["incendio",-10.719886038951342],["item",-10.720128543136276],["maladie",-10.720249003269842],["spot",-10.720304663483299],["Mont",-10.72065111919018],["recupera",-10.72071526004615],["assurer",-10.720948898996145],["brief",-10.721570711626672],["functie",-10.723216499582113],["investissement",-10.723281603176517],["inscrit",-10.723489894289077],["true",-10.725290507216407],["block",-10.725444269019626],["Mike",-10.725647199427524],["café",-10.725716262147442],["participant",-10.725934075418234],["rá",-10.726032332535429],["principe",-10.72632989982262],["wijk",-10.72701160659728],["chacun",-10.7271330585877],["cantante",-10.727313874030411],["millier",-10.727337001476428],["physical",-10.727586889835788],["investment",-10.727647742531708],["possibilité",-10.727707378497389],["habl",-10.727897688084735],["ocasione",-10.72825816055742],["Onder",-10.728490148976647],["tweet",-10.728580520064913],["imos",-10.729021557103417],["flight",-10.729229244746914],["conocimiento",-10.72998865244009],["86",-10.730582247728755],["Cámara",-10.731014087215785],["London",-10.73107248436361],["norte",-10.731165587322003],["supporters",-10.731417595248296],["Uno",-10.731857133367217],["hear",-10.73194418522867],["gaf",-10.731993437197623],["common",-10.732089874166597],["schade",-10.732263387967924],["Big",-10.733650849280473],["Inc",-10.733750730570106],["97",-10.73419010977879],["Mc",-10.73420810395466],["hiver",-10.734515310403017],["tratar",-10.734607857128623],["Carolina",-10.734766342320407],["centaine",-10.734976277407394],["improve",-10.735879497307007],["sports",-10.736288057139173],["size",-10.736347195465394],["slecht",-10.736916464562182],["rock",-10.736932731705249],["aandacht",-10.737143853307956],["tarea",-10.737459603232631],["cultural",-10.73795366491358],["operativo",-10.738088308000364],["products",-10.73817730859495],["scolaire",-10.738874788064743],["climatique",-10.738894114203934],["reality",-10.739222227434414],["gezegd",-10.739532607340868],["atrás",-10.739577420257296],["decidi",-10.739687997865872],["deur",-10.739759206700342],["120",-10.739776369385584],["armas",-10.740074249450629],["Marie",-10.740201368659026],["destac",-10.740728901844093],["tjes",-10.74083173741236],["lijst",-10.74134265217209],["voulai",-10.74136243994393],["preocupa",-10.741589052169246],["holding",-10.741605504640447],["aspect",-10.741741134719657],["aquello",-10.741822931787269],["acteur",-10.741835127226723],["threat",-10.742211601507947],["quant",-10.742637646792392],["push",-10.742761493069235],["Chicago",-10.742824747283079],["husband",-10.742824944039679],["Harry",-10.742848458847014],["België",-10.742860869243117],["ONU",-10.742870141717777],["Road",-10.743060334329778],["empez",-10.743610770234337],["huit",-10.743678539619047],["Ri",-10.74368266452301],["ities",-10.744498894597026],["software",-10.744801163262359],["arte",-10.745248896638007],["terecht",-10.745703815340368],["choice",-10.745969634760598],["Tho",-10.746053026846642],["payment",-10.746110623354946],["slechts",-10.746462501440277],["januari",-10.746792931446027],["Gabriel",-10.746796781182791],["Ejecutivo",-10.747047933569053],["étranger",-10.747159185188965],["drop",-10.747179797134816],["verdachte",-10.747269605461407],["niña",-10.747397049502684],["loc",-10.747477054133114],["Alex",-10.747504336129111],["transfer",-10.747571348751244],["German",-10.74762332979659],["rece",-10.74810082567705],["Meanw",-10.748511125483004],["gebeurt",-10.749017416511663],["spent",-10.749050588866208],["By",-10.749260823853422],["earning",-10.749616751304625],["email",-10.749959051675315],["invasion",-10.750033448008937],["ées",-10.75029622780569],["ways",-10.750711613170253],["herramienta",-10.750776976745229],["edificio",-10.750777374693119],["woordvoerder",-10.750785899165605],["From",-10.750961026223251],["mandat",-10.751162292610168],["09",-10.751262647603202],["réc",-10.751407549234884],["Cour",-10.751642537172076],["Watch",-10.752104868651784],["gratis",-10.752363783289722],["circuit",-10.752439162849173],["mond",-10.75287890497906],["Malgr",-10.753001059164799],["manos",-10.753144051929437],["daarme",-10.75339522060028],["suivr",-10.75352052854577],["amplia",-10.753784055189094],["environment",-10.753852644912616],["juicio",-10.754410259359872],["curso",-10.754671612843119],["bastante",-10.75479324926717],["contexto",-10.754798313208761],["Cor",-10.75513252402076],["hará",-10.755330763215674],["Internacional",-10.755594236696798],["profiter",-10.755652406830553],["sch",-10.755815018299689],["subi",-10.755940877028287],["winnen",-10.755997934014399],["Franci",-10.756393539161134],["economie",-10.75666559559901],["ncia",-10.757288076606173],["74",-10.757672622855742],["1er",-10.758557897352546],["collection",-10.758566893659141],["ucraniano",-10.758794892583296],["vulnerable",-10.758796026394934],["compétition",-10.758798634454426],["musique",-10.758805809084041],["tandis",-10.758832835149253],["Ligue",-10.758893284324143],["tre",-10.759314028392113],["periodo",-10.759504175805361],["trans",-10.759843879656884],["campus",-10.760318838895916],["humain",-10.760931524079059],["2008",-10.761082668849298],["session",-10.761783930710017],["voice",-10.76180757766562],["denkt",-10.762488936236583],["Pablo",-10.762825453059722],["sacar",-10.7629686231051],["revealed",-10.763062622132477],["gre",-10.76340576000118],["absolu",-10.763452298015025],["médico",-10.763470221638883],["arma",-10.763540517503326],["links",-10.763999192465445],["souhaite",-10.764244296647218],["pese",-10.764326936014237],["engage",-10.764470230103441],["winst",-10.764565749493103],["zoeken",-10.765581865711242],["coche",-10.765642739458407],["Bou",-10.765796555710143],["aving",-10.765846308159855],["chaîne",-10.765973939709767],["ratio",-10.765990955541053],["fédéral",-10.766452122543388],["piste",-10.766640260989995],["gar",-10.766891380649295],["montant",-10.766894969042548],["begon",-10.767380930818804],["league",-10.767473489807191],["fuentes",-10.768231100760529],["joué",-10.768530804507595],["mid",-10.768651074698923],["wild",-10.768712884412379],["cross",-10.768765009572519],["sound",-10.76880936368961],["estrella",-10.768946833430777],["£",-10.768971098469244],["normale",-10.770201934227536],["sloten",-10.77034313768338],["faudra",-10.770940702678995],["Microsoft",-10.770940792853821],["épisode",-10.770967403971518],["bâtiment",-10.771128606211725],["volvi",-10.771355478642233],["rules",-10.77136842675235],["alcanzar",-10.771414908440326],["!”",-10.771523192177973],["pouvai",-10.771754763964541],["reducir",-10.771767610491274],["verano",-10.771978985188692],["véhicules",-10.772144811845205],["winkel",-10.772408865209382],["secretario",-10.772478546000915],["slachtoffer",-10.773226476222462],["changer",-10.77515116421416],["mostr",-10.775407831633533],["poor",-10.775948357503989],["showe",-10.77600485836887],["champion",-10.776310219506787],["gasto",-10.776321204648097],["difficulté",-10.776805319565867],["Anne",-10.777001499849293],["rio",-10.777464547856955],["conseguir",-10.777667866001028],["planning",-10.778095890348723],["Ba",-10.778739900618845],["leger",-10.779034810244696],["oficina",-10.779124952561263],["leadership",-10.779576776855277],["Municipal",-10.780146348890968],["significa",-10.780320062342167],["émission",-10.780709232648025],["comenzar",-10.780848167106623],["honor",-10.78086424134721],["sorte",-10.780961997167442],["ritten",-10.781093556039755],["frontera",-10.78125149962156],["trokken",-10.782074195189315],["throw",-10.78312276121131],["pompiers",-10.783171933210243],["numérique",-10.78323414228278],["término",-10.783234159532006],["caída",-10.78323443778968],["máxima",-10.783549306935395],["belge",-10.783571397448593],["declaraciones",-10.78369074679965],["fac",-10.783776421412849],["ejercicio",-10.783793172835466],["citizens",-10.78393074883325],["continuar",-10.784188856400991],["handen",-10.784346806080087],["sung",-10.784583703713686],["pensar",-10.784972355414066],["présidentielle",-10.785067400427323],["OM",-10.785094017299095],["voorkomen",-10.785128222857416],["apena",-10.785333440900539],["ros",-10.78630691378961],["encontr",-10.78631370557121],["quotidien",-10.786828512016747],["banda",-10.787010445241446],["propriétaire",-10.787112329372663],["restaurants",-10.787145155119687],["verschil",-10.787163015592032],["launch",-10.787306429227339],["Zelensky",-10.787366396660364],["supply",-10.787368372114935],["premio",-10.78737635887402],["competencia",-10.787379123945602],["signé",-10.787959006795724],["rend",-10.788014332344739],["Fernand",-10.788023098947747],["Radio",-10.78821201192212],["Toute",-10.788627575304321],["sterk",-10.789411557673485],["implement",-10.789553882225494],["voulo",-10.789675555794592],["gesprek",-10.790041377743908],["ische",-10.790231846532144],["trip",-10.790336792854674],["afectado",-10.790484731592176],["risico",-10.791159491825983],["mur",-10.791288712627091],["sostuv",-10.791396390913672],["hermano",-10.791457490490767],["pérdida",-10.791516000921597],["annual",-10.791529480989713],["Cómo",-10.791534003914347],["papier",-10.791560098606169],["agence",-10.791682579279616],["vlucht",-10.791842201418191],["rappelle",-10.791930978262153],["einde",-10.792159678107227],["Banco",-10.793009474470287],["Côte",-10.79345263267654],["graden",-10.79403290126525],["fiets",-10.79415726421671],["sentir",-10.794497632981592],["imply",-10.794911168164028],["firma",-10.79504461838342],["heard",-10.795328975913186],["bouw",-10.795503236885953],["Vlaams",-10.79568261432879],["électrique",-10.795683611854745],["género",-10.795683822014514],["pressure",-10.795721533256325],["beginnen",-10.79610569688828],["triunfo",-10.796188231460867],["beelden",-10.796261677196126],["isme",-10.796366378483786],["analyst",-10.796526671844205],["terminar",-10.797526295519951],["quart",-10.79773016004954],["pose",-10.798286895530335],["Gu",-10.798291675208862],["ng",-10.79831005528112],["trouvé",-10.798514302572585],["vio",-10.798557146798338],["Chi",-10.798570175140636],["vic",-10.798678515458132],["inderda",-10.798784567512257],["direc",-10.79879264870975],["financier",-10.799133246780698],["ouverte",-10.799211998550131],["procè",-10.799884737407378],["peso",-10.799959876524056],["fear",-10.8001068500295],["pedido",-10.80026567454902],["élevé",-10.800336721116253],["natuur",-10.800385071885094],["vons",-10.800573272644627],["integrante",-10.800633674577103],["giving",-10.800753139925096],["anim",-10.800996552314098],["William",-10.801192152094911],["Euro",-10.801476313206221],["Messi",-10.801803663517276],["bare",-10.801808388703844],["Noord",-10.801974462623729],["carry",-10.802036143778132],["continuer",-10.802720446946417],["perdi",-10.802835334391936],["nivele",-10.802919733794479],["goes",-10.802977105729843],["poll",-10.803002895537759],["tercer",-10.803051083701108],["ving",-10.803204804857984],["deuda",-10.803275632273845],["estadio",-10.80372534244541],["estructura",-10.804001400296123],["soms",-10.804004546462071],["diálogo",-10.804068239833986],["atteindr",-10.804068632822684],["électrici",-10.804107462521237],["Ro",-10.804196713448173],["tratamiento",-10.804310918745442],["Capital",-10.804409367784052],["network",-10.804452758772793],["mark",-10.804534774999603],["nuclear",-10.804662067701564],["zeg",-10.80491680733282],["negocia",-10.80586518702182],["hot",-10.806349040962893],["instala",-10.807149504355639],["Last",-10.807857640823165],["remember",-10.807931252830516],["Kremlin",-10.808287626818164],["82",-10.808381855802738],["chemin",-10.808464800837315],["fut",-10.808468944960552],["faisant",-10.808495440132347],["participation",-10.808550845858562],["influence",-10.808797160138823],["spring",-10.80890099928032],["arrivé",-10.80932806957605],["señala",-10.809595253916427],["acteurs",-10.809847868632417],["strak",-10.810251472341054],["trainer",-10.811339158867792],["Face",-10.811769498568424],["agents",-10.812191544309144],["wrong",-10.812406691938351],["Port",-10.812453240131534],["shop",-10.812629947298127],["appeal",-10.812691173120019],["Franse",-10.81333584729876],["informatie",-10.813543619102312],["income",-10.813570541553883],["Lake",-10.813900374403431],["clara",-10.81393837390355],["Bu",-10.81410714624392],["aban",-10.814317760985388],["gagner",-10.81438127518608],["ventaja",-10.814654225749731],["finance",-10.814666480930228],["ful",-10.814967314199333],["affiche",-10.815211198930122],["Cuba",-10.815303969479093],["mostrar",-10.815422243307566],["lancer",-10.815687602622148],["delante",-10.815797358448524],["completo",-10.815849199709536],["Senat",-10.81623936139651],["Torre",-10.816270601987293],["storm",-10.81632773998226],["viven",-10.816381730870587],["Indian",-10.816692649409243],["venue",-10.817269043505775],["ancienne",-10.817791037431036],["razó",-10.818082618079462],["usted",-10.818259186269136],["classes",-10.818340026937939],["auron",-10.818412108727795],["loos",-10.81882599712032],["faisai",-10.818979085812362],["empleado",-10.819195873238833],["buil",-10.819662421338732],["fiance",-10.81967249775482],["carga",-10.820004242144526],["voldoende",-10.820775455355706],["spectacle",-10.82105396519961],["photos",-10.821360706238597],["baan",-10.82159719971696],["followed",-10.821623979404393],["moral",-10.822046172187585],["rent",-10.822136689385777],["instance",-10.82253765560204],["Uit",-10.822864979446233],["perder",-10.824025192570462],["pleine",-10.824171124447293],["preuve",-10.824212179348784],["sell",-10.824292930280949],["spreken",-10.824404057047763],["credit",-10.824474992035924],["suivi",-10.824629725271155],["amarilla",-10.825329507932375],["alternative",-10.825349776033597],["constante",-10.825355895334129],["manifestation",-10.825580798297555],["confianza",-10.82567490424504],["turne",-10.826030060507701],["jobs",-10.82608719327646],["peur",-10.826192929013931],["rán",-10.826300333713956],["success",-10.826307911025186],["ocas",-10.82631489233444],["probable",-10.826693393209839],["entrar",-10.826707928855257],["paper",-10.82680720547099],["sortir",-10.826814658429452],["sommet",-10.826999475663463],["verantwoordelijk",-10.827012190710278],["colabora",-10.827046570497231],["begint",-10.827341982834557],["Veel",-10.82766130398105],["quería",-10.82806622479799],["presidenti",-10.828158497112888],["juni",-10.828647370460008],["ated",-10.828756846463591],["touche",-10.828902516992128],["loop",-10.82922748543524],["vague",-10.829434123961963],["Brown",-10.829701514300703],["juez",-10.829905968485436],["toma",-10.829919147733008],["marqué",-10.830203517795589],["ix",-10.830255319179068],["Arm",-10.8303626453317],["artist",-10.831014003701572],["Sch",-10.831018734554952],["tuvier",-10.83157377609058],["71",-10.831760055555012],["concept",-10.831887701639964],["lager",-10.831900939008975],["standing",-10.832113588156085],["vit",-10.832195558156382],["haga",-10.83254229033978],["mate",-10.832633400211048],["ieurs",-10.832685276001664],["pull",-10.832916185474588],["woord",-10.83298080378146],["steun",-10.833010335056755],["Va",-10.833096559283875],["funcionarios",-10.833486226603839],["Party",-10.833860824623523],["judiciaire",-10.833988913568131],["cierre",-10.834013101260913],["sueño",-10.834038838788718],["logement",-10.83407126999925],["Zuid",-10.834085528042731],["Otro",-10.834285252103268],["gusta",-10.834345311686935],["supuesto",-10.834535016333936],["Martín",-10.834604843423111],["Cabe",-10.834994073590794],["mondial",-10.835267923138463],["cumple",-10.835553807866448],["passed",-10.836033148115744],["VVD",-10.83608025850021],["indica",-10.836132455063483],["iste",-10.836277877184838],["fête",-10.836479402013282],["speelt",-10.836777123010085],["alimentos",-10.837193499772056],["calles",-10.837429171703343],["Britse",-10.837696344818122],["Home",-10.838373668406508],["clair",-10.838643973229287],["bra",-10.839146214451869],["link",-10.83966724456099],["politic",-10.839774474894838],["tient",-10.839816594165084],["dacht",-10.839969572658003],["registro",-10.840077904421175],["Mari",-10.84161936642797],["ë",-10.841879811638753],["referencia",-10.841921220900463],["Frank",-10.842673429107826],["teléfono",-10.842699552941422],["nucléaire",-10.842699553956793],["pequeña",-10.84269977329193],["Alejandr",-10.84269977517052],["Puerto",-10.842700577755544],["combustible",-10.842712351820875],["Ministr",-10.843351757598924],["warm",-10.843809091025907],["Presidente",-10.844071635151892],["Heb",-10.84558524076835],["zwaar",-10.846252363602646],["Bre",-10.846478218001181],["plainte",-10.84657852416767],["necesaria",-10.847085562124075],["podium",-10.84731245346865],["trein",-10.848143483253555],["battle",-10.848217909596073],["mesa",-10.848296625481026],["Haag",-10.848380997902122],["reache",-10.84853659982804],["viel",-10.84880558132618],["parc",-10.848814412024645],["storie",-10.848869177057859],["OTA",-10.84943683394101],["diferente",-10.849760687647105],["banco",-10.849917514014724],["Nada",-10.850132629683268],["échange",-10.850351014720651],["noir",-10.850529820946981],["Minnesota",-10.8514909531151],["England",-10.851498656557784],["First",-10.851567355726552],["comprend",-10.851570588859904],["abogado",-10.851661906477958],["gebeur",-10.85166318875643],["remporté",-10.851904273553895],["publiek",-10.851978030454884],["discours",-10.852060627849834],["llegado",-10.852168092805595],["ira",-10.853424965365647],["dorp",-10.853810932844448],["vertrouwen",-10.854055498274715],["afecta",-10.854281639397119],["Bon",-10.854645537862837],["61",-10.855059680327795],["importa",-10.855094473569768],["Wi",-10.855337329044836],["locatie",-10.85565841201849],["Com",-10.855714815624168],["secret",-10.856034431497456],["kracht",-10.856576420811397],["critical",-10.857099681297537],["comprar",-10.857117905957326],["Bal",-10.857456485427491],["premiers",-10.85768656714379],["noem",-10.857973371370123],["televis",-10.858116377345478],["recordar",-10.858131532494731],["Fi",-10.858986177536778],["choisi",-10.85898735602786],["81",-10.859049967354363],["pur",-10.85934565235248],["adolescente",-10.859347996139412],["Most",-10.859431567033692],["sentiment",-10.859909342484919],["brother",-10.860407522688382],["llamada",-10.860424599794793],["représente",-10.860711895985418],["increasing",-10.860880474988143],["régime",-10.860904810522587],["Tesla",-10.861080887317117],["collaboration",-10.861082123660278],["quién",-10.861093186972084],["cadena",-10.861140763420003],["uitge",-10.861270815850435],["Alberto",-10.861489249937254],["Fox",-10.861666226704134],["Scott",-10.862516632978867],["guard",-10.862579092121216],["broad",-10.862605110537865],["begrijp",-10.862764873386084],["klanten",-10.862948217180218],["nou",-10.863001666613528],["Marine",-10.863326280836024],["è",-10.86334449828253],["Champions",-10.863529421511304],["offensive",-10.864824658715314],["abierta",-10.864830732725803],["González",-10.864833093889626],["cuál",-10.864844611332327],["común",-10.86486100563823],["successful",-10.864943015724759],["claire",-10.864999081492082],["journalist",-10.865159019421007],["Belgisch",-10.866011702997866],["Jones",-10.866349377286344],["endroit",-10.867241781513174],["volk",-10.867252620206875],["schrijft",-10.867291618180644],["rule",-10.867420518758884],["encima",-10.86756922570769],["Jim",-10.86764040449524],["zware",-10.867708322723953],["entorno",-10.867808085740126],["marche",-10.868101660992306],["maintain",-10.868230993876676],["fera",-10.868328979616905],["escribi",-10.868353292688116],["commun",-10.869091894726193],["bedrag",-10.869304162403557],["Obrador",-10.869311203872037],["Ajax",-10.869313746911548],["Martínez",-10.869333895106152],["Certain",-10.869756428407033],["promo",-10.869826783512973],["pnieuw",-10.869911689650994],["korte",-10.869974472090368],["assist",-10.87000843787434],["notice",-10.870290848456152],["cal",-10.870698289573113],["muerto",-10.87075227467254],["hoogte",-10.871129012492805],["NL",-10.871576481109665],["county",-10.871854314355307],["considere",-10.871885112133757],["Santé",-10.872625210791487],["gain",-10.873142309994156],["Bull",-10.873456927494308],["wonen",-10.873629371861654],["Elizabeth",-10.87381323407356],["Santiago",-10.87382582289542],["hundred",-10.87382660635339],["raad",-10.873847814822692],["découvrir",-10.873851499516181],["drug",-10.873899822823825],["Patrick",-10.873899940627076],["tendencia",-10.874188251593967],["IT",-10.874575583151103],["sali",-10.874836787489397],["klink",-10.87489991749852],["personaje",-10.874950291686012],["aid",-10.875016672774574],["streaming",-10.875246295323908],["trust",-10.875441753976784],["served",-10.875636924726114],["tué",-10.877340103895273],["Daarnaa",-10.877487642321734],["taine",-10.877501654102854],["retrouvé",-10.877726796859443],["Adam",-10.878290495446075],["temperature",-10.878338105907915],["página",-10.878357392660725],["examen",-10.878411927887191],["discurso",-10.878418588360503],["rendez",-10.878421010026614],["D66",-10.87879395317728],["Tribunal",-10.878929847025299],["usar",-10.878974015976265],["Ana",-10.879307954462885],["obtener",-10.879505792849818],["stem",-10.879703449607703],["september",-10.879932305233577],["ocurrido",-10.879985548887497],["département",-10.880038842163],["hoeft",-10.880532526201613],["ujourd",-10.88064605080556],["convertir",-10.880712856306607],["porter",-10.880780933687888],["aventure",-10.880841989221196],["politieke",-10.881762299620249],["parcours",-10.881992882532717],["perte",-10.88215805446213],["elektrisch",-10.882900850546374],["puissance",-10.882912990933361],["afstand",-10.882944009292064],["Sá",-10.883131321627022],["déclaration",-10.883296278298108],["tri",-10.88381374536175],["tool",-10.884510869834124],["ï",-10.885020490060224],["fines",-10.88526306788501],["rode",-10.885426887500376],["Corte",-10.885459453554668],["funding",-10.885746322095184],["exchange",-10.886070253621236],["adding",-10.886455651921407],["neer",-10.886500240837279],["legt",-10.886971109753256],["física",-10.887096891493895],["Post",-10.887114862170831],["judge",-10.887139520969725],["search",-10.887186089712579],["Perú",-10.88752923918587],["salaire",-10.888080135954645],["rose",-10.888180300231316],["BB",-10.888201413738184],["vluchtelingen",-10.888409415351115],["tráfico",-10.88842030911494],["attendr",-10.888510405685475],["agreement",-10.88880859846919],["prove",-10.889234554382012],["kop",-10.889246122700673],["positie",-10.889600158062315],["realizará",-10.890053021924647],["mari",-10.890469446091945],["règle",-10.890914795069376],["bond",-10.891163226184931],["tic",-10.891419434805861],["porté",-10.89184319426775],["Har",-10.891846928014703],["Mercedes",-10.892054236170152],["presupuesto",-10.892121914436707],["Royal",-10.892262674497584],["stemmen",-10.892371415428128],["Station",-10.892555115100198],["climate",-10.89257384293034],["médica",-10.892763114156605],["Ex",-10.892897695128106],["refuse",-10.893304100305059],["bezoek",-10.893323083901914],["ambiente",-10.89368074115584],["entretien",-10.893785125628671],["konde",-10.894416463334624],["médecin",-10.894987885366703],["actuel",-10.895456387029537],["movement",-10.895479896925487],["ullie",-10.895487700075583],["río",-10.895561036800054],["espère",-10.895908440757204],["precis",-10.896014134835562],["bu",-10.896145119461451],["chat",-10.896145479922405],["finish",-10.896279154672415],["Rock",-10.896356069764206],["screen",-10.896367471645227],["Quan",-10.896481519679694],["Two",-10.896594529913969],["section",-10.896611534556225],["britannique",-10.896645124748556],["agency",-10.896649920437113],["neuf",-10.896710654178626],["abierto",-10.896744280841137],["entrenador",-10.897202852399225],["Alleen",-10.897308784066643],["grens",-10.897422789079677],["keuze",-10.897836278259915],["omgeving",-10.897861476927421],["espacios",-10.897963431899623],["wall",-10.898360708155096],["utiliser",-10.8988040341258],["complex",-10.8989714224801],["réforme",-10.899330569379387],["environnement",-10.899929896118191],["voormalig",-10.901278652429404],["Agenc",-10.901677103171465],["disposición",-10.901726511454804],["kilo",-10.902166229750925],["verbod",-10.902294511033984],["esperar",-10.9026732325971],["plaatsen",-10.902895783012507],["audio",-10.90303226043789],["Rob",-10.903161708553954],["augmenter",-10.903405213285488],["cuest",-10.90356856543145],["Team",-10.903641343473808],["cho",-10.904858631891923],["langue",-10.905207225042515],["Juli",-10.905264540985756],["Hill",-10.905335144270861],["departamento",-10.905925997960674],["Alemania",-10.9059281380853],["espoir",-10.905931120879982],["nueve",-10.905940431702195],["obligation",-10.906010785334676],["productie",-10.906055273865519],["compter",-10.906108906852435],["assistance",-10.906289797077463],["hands",-10.907508575598651],["launche",-10.907581985499471],["Republican",-10.907853828583672],["wagen",-10.90850877814497],["conoce",-10.908558623806192],["cuidado",-10.90902454458692],["Tim",-10.90914612656702],["laboral",-10.909639519843788],["violent",-10.909992378781858],["aná",-10.91042038641132],["Pérez",-10.910610623204136],["reporter",-10.910621377344022],["ontwikkeling",-10.910781965983304],["leider",-10.910910910318048],["confirmé",-10.911462989991222],["kost",-10.911591501580475],["infecte",-10.911776758104851],["Grande",-10.91184965216835],["provid",-10.912256773252206],["belangrijke",-10.91246401820203],["rigen",-10.912666671829726],["bak",-10.912735754150521],["personnage",-10.913024380426037],["electric",-10.913414766998871],["diez",-10.913589515586274],["ministra",-10.913759129091819],["novel",-10.914079143960635],["allait",-10.914468306239588],["suele",-10.91452660716839],["abilidad",-10.91460034881383],["asking",-10.91460879539872],["omos",-10.9146202170819],["ebruar",-10.91498191085256],["bag",-10.915156876444708],["négociation",-10.915293650036912],["habitual",-10.915316066608206],["touché",-10.915352991209648],["Verstappen",-10.915353230169769],["altura",-10.915378666526276],["invite",-10.915385533541967],["favorite",-10.915488118406483],["geweld",-10.915522364947597],["cuyo",-10.915536926196655],["prévue",-10.915597464875432],["ura",-10.916204928742019],["funcione",-10.916294351945892],["progress",-10.916571922892208],["overall",-10.916578196883776],["permanente",-10.916894451865666],["antwoord",-10.917199696259566],["compara",-10.917581508493132],["versie",-10.917746490181614],["lance",-10.918126219211787],["worst",-10.918661779280338],["kieze",-10.919117586636663],["âgé",-10.919218082153131],["móvil",-10.919826576234977],["responsabilité",-10.920011354889605],["alimentaire",-10.920035235007905],["kilomètre",-10.920038149166842],["distribution",-10.920054715464797],["Comité",-10.920081425932182],["equipment",-10.92013325160255],["chiffres",-10.920362076611159],["visible",-10.920462139056127],["Avant",-10.920886177965889],["promedio",-10.920919732700924],["pourron",-10.921213172708214],["asocia",-10.921715642174007],["universit",-10.921910421467082],["voeren",-10.922374427678324],["Mayor",-10.922459675687778],["respond",-10.922542271765769],["naturale",-10.922580750522222],["NH",-10.92277592620782],["division",-10.922847016221931],["enfrentar",-10.923143974413412],["Dieg",-10.92362536226587],["estimé",-10.924002668750912],["enorm",-10.92415396295602],["ën",-10.924457935808224],["correspondiente",-10.924750302309814],["TikTok",-10.924750640986073],["comida",-10.924889897857781],["persoon",-10.925117846845687],["proposition",-10.925290485936628],["sturen",-10.92553430463735],["absolute",-10.925636640904893],["contexte",-10.926258605455505],["coin",-10.926765254046241],["relacione",-10.927092858043189],["normaal",-10.927297005625732],["Simon",-10.927443562742962],["parle",-10.92752566908181],["intérieur",-10.927599936300084],["celebrate",-10.928188228273687],["primar",-10.928296413959856],["registr",-10.928692076125458],["participer",-10.928793023490526],["studenten",-10.92888755550365],["mínimo",-10.929513370931137],["pobre",-10.929582339856932],["NFL",-10.929656066232754],["87",-10.92980541801279],["Tot",-10.930003970331182],["diseño",-10.93007917958075],["bepaalde",-10.930134554634451],["mix",-10.93054460724896],["doble",-10.93058358284058],["recibido",-10.930785105824484],["Twee",-10.930790123590747],["sufri",-10.931165320883395],["sometime",-10.931293813036772],["rechtbank",-10.931699025093092],["wist",-10.931934762573182],["Here",-10.932008659211535],["excuse",-10.932490753093965],["yond",-10.932726042280859],["tro",-10.932884747139244],["liever",-10.933553356515429],["kerk",-10.933768761696385],["scale",-10.934140756496795],["Valencia",-10.934149726558186],["tournoi",-10.934402922193765],["Londr",-10.934434949679721],["Andrew",-10.934469992628673],["attente",-10.93453103318824],["belang",-10.934857276336299],["shooting",-10.935779881438359],["ministerie",-10.935833717018504],["Liver",-10.935883724601432],["Gar",-10.936672488038772],["unité",-10.93874183223696],["régulière",-10.93906560972657],["secrétaire",-10.939104254514852],["venezolano",-10.939104280536924],["Frankrijk",-10.939115496013619],["Sergi",-10.939120854809172],["respective",-10.93919375022668],["planta",-10.939276575798122],["situé",-10.93934225144562],["stoppen",-10.939865249887777],["gesloten",-10.939997689255911],["explaine",-10.940035717301944],["titel",-10.940053913657739],["stappen",-10.940899408134275],["mening",-10.94150558057176],["gun",-10.942380356910913],["Han",-10.942964628982772],["excellent",-10.943760905600111],["técnica",-10.943840871434286],["schrijven",-10.94393519029624],["utilisé",-10.944085629202625],["guideline",-10.944167250571667],["graves",-10.944178881818456],["políticos",-10.944211858747067],["liefst",-10.944258781751582],["personen",-10.944363294756176],["revanch",-10.944547758686497],["decline",-10.94456217940116],["tradition",-10.944857478684934],["offering",-10.944878008652367],["economisch",-10.94509777411224],["panel",-10.945480332762877],["herido",-10.945547602242971],["Tal",-10.946015773735795],["charges",-10.946487646660453],["nforcement",-10.948153481488692],["supone",-10.948543627445629],["étrangère",-10.94878954166153],["Portugal",-10.948789550161145],["carretera",-10.94878961171479],["hija",-10.948836517702222],["appareil",-10.948854347532292],["géant",-10.94885798506208],["empresario",-10.948941989351944],["Oscar",-10.949024049575211],["invité",-10.949109947404661],["drama",-10.949296516679539],["cine",-10.949308211273738],["acusa",-10.949588093741486],["efectivo",-10.949620339166298],["endant",-10.949897659323488],["Well",-10.950633480964719],["sleep",-10.951708885740631],["española",-10.951739447790526],["alone",-10.95185093700451],["Miam",-10.952462876730351],["membre",-10.952677276762913],["lie",-10.953084872066452],["ultra",-10.953146429794344],["uren",-10.953358563699894],["91",-10.953396635680654],["sectore",-10.953662111924196],["cérémonie",-10.953667589908727],["asistencia",-10.953720186016596],["volonté",-10.953778147219055],["funcionario",-10.954265568427449],["fourth",-10.95441373801144],["laisser",-10.95475464712231],["ouest",-10.954948576632374],["complet",-10.955696998889994],["répondr",-10.955736490010949],["Kim",-10.956372387956128],["registrado",-10.956516767215547],["Ter",-10.95652709650458],["Defens",-10.956572501349441],["flu",-10.956681924593246],["registrar",-10.956705608682292],["vlak",-10.957006829398601],["outre",-10.95710493416416],["campe",-10.957221612562321],["Cu",-10.957402102669718],["jongeren",-10.957505845244516],["Game",-10.957840814608828],["génération",-10.95837014674791],["crowd",-10.958395727570203],["ient",-10.958552583425398],["siècle",-10.958569552779974],["numéro",-10.958569558352856],["blood",-10.958590133911262],["dispositivo",-10.958648322672243],["laag",-10.95869447191027],["hockey",-10.958835842948968],["lugare",-10.958888231830155],["accusation",-10.958889566943274],["investor",-10.95903147699335],["picture",-10.959087979899856],["contain",-10.959260937411582],["ubicado",-10.959281075418616],["anual",-10.960300110882836],["1000",-10.960617710956296],["sumar",-10.960903384857566],["pad",-10.961296765173524],["inwoners",-10.961363183186272],["echte",-10.96161439937947],["vuelve",-10.961871451473957],["talló",-10.96191433028324],["discover",-10.961961529795914],["Nic",-10.96238903909678],["Dé",-10.962401826573657],["Berg",-10.962416663690144],["Tous",-10.962784129363516],["bevolking",-10.963074834341175],["83",-10.963108043715648],["vuelo",-10.963138529946075],["draw",-10.963705496794464],["koers",-10.96387676143475],["provincie",-10.964022708414287],["reed",-10.964560206858573],["Santo",-10.964744174051152],["termijn",-10.96500514465264],["podem",-10.965258482632564],["remise",-10.965318024035394],["mont",-10.965332395467088],["vele",-10.966038432954038],["Justin",-10.966084358473593],["objeto",-10.966088319721752],["raconte",-10.967364238423443],["94",-10.967823627305634],["declara",-10.968174309575156],["council",-10.968236599972201],["izquierda",-10.968446153704193],["championnat",-10.968449476818444],["installation",-10.968475788032805],["maatschappij",-10.968481648385222],["defense",-10.968499334999404],["beginning",-10.968536926492279],["craft",-10.968678344403433],["hacía",-10.968764191116401],["geloof",-10.96878434397426],["missile",-10.968942533747853],["entraîneur",-10.969007476559273],["jouw",-10.969129517514304],["elected",-10.969292225979695],["affecte",-10.96941793602714],["utilizar",-10.969602707571529],["Rafael",-10.970032394930557],["tenue",-10.970124351219756],["Marco",-10.970306214242171],["Media",-10.97101298194196],["comprendre",-10.971037451673453],["frère",-10.971199995417873],["peligro",-10.971269662921543],["Hace",-10.971774722754802],["vaya",-10.972130091121311],["rêve",-10.972600875762623],["besluit",-10.97267362572665],["Sports",-10.972719420013473],["fraude",-10.972762838171862],["ought",-10.972999741009179],["voz",-10.97312595084935],["Nigerian",-10.973160917156987],["groei",-10.973413156392667],["church",-10.973421900601174],["ktober",-10.973426817470312],["District",-10.973459737341976],["anuncio",-10.973473437037484],["débat",-10.973572372422025],["Norte",-10.973723138276416],["défi",-10.973823729357857],["collega",-10.97387128174612],["union",-10.974092782008565],["publicado",-10.974237879970161],["fit",-10.974504196530974],["hield",-10.974742557187895],["obliga",-10.974879077451558],["nette",-10.97508863469826],["retire",-10.975655166695713],["eken",-10.976859604536902],["zi",-10.97715915982937],["dés",-10.97772983769289],["promise",-10.978185548122463],["productor",-10.97824601757899],["énergétique",-10.97842127789772],["negative",-10.978421492421141],["persoonlijk",-10.97842443941687],["comercio",-10.978427914144717],["Management",-10.978432136146882],["Christmas",-10.978443514474183],["propiedad",-10.978449120548845],["balle",-10.978510576184629],["winner",-10.978574144146235],["privado",-10.978584166273361],["dochter",-10.978662834561703],["hall",-10.978696382104625],["betref",-10.978868738001367],["activa",-10.978909587805742],["diensten",-10.978915530775453],["touch",-10.979080686405686],["bol",-10.979324563346344],["consumer",-10.979729547301021],["épreuve",-10.979794295311162],["burger",-10.9799826167881],["succes",-10.980575957772821],["sancione",-10.981210721519066],["acusado",-10.981236153149975],["iniciar",-10.981424908479653],["twintig",-10.98239120985503],["unit",-10.982839209348285],["estima",-10.983408172487252],["revenir",-10.983442821573401],["•",-10.983446403525427],["croissance",-10.983447634389496],["consommation",-10.983455603942934],["docente",-10.98357277583684],["generation",-10.983732774411028],["domicilio",-10.98400197150178],["victor",-10.984125678836879],["recuperar",-10.984219421087689],["Esa",-10.984349163760513],["ducation",-10.984461214054004],["couleur",-10.984485725447449],["tienda",-10.984544574399894],["approve",-10.984588728945715],["texto",-10.985266909901775],["2025",-10.985509180533892],["92",-10.985683514387508],["veille",-10.985883067347032],["street",-10.986149171303646],["fout",-10.986626037848033],["herida",-10.986872024550994],["sprake",-10.98700224269161],["stations",-10.98703161300676],["derecha",-10.987076296367407],["Misschie",-10.987102741928082],["potencia",-10.987368845248728],["Nee",-10.987491744591651],["wan",-10.98755311357348],["quitter",-10.987738721700401],["approche",-10.988045733648562],["futbolista",-10.988344677942699],["quatrième",-10.988496911466983],["leren",-10.988766653743722],["tacó",-10.988802315300589],["plant",-10.98891555069126],["digitale",-10.989206132051054],["erhaps",-10.989365037859052],["actualidad",-10.989379315268799],["presentado",-10.989383953516953],["remove",-10.989540301379753],["pantalla",-10.989987466261127],["marketing",-10.990441721009926],["dolor",-10.990815865406946],["parking",-10.990918280042807],["foreign",-10.990923320389964],["console",-10.99124221094205],["trás",-10.991401613084506],["Nog",-10.99163239069485],["Ku",-10.99196729877503],["courant",-10.992005669112705],["display",-10.992174541083063],["favorable",-10.992385872779442],["Xi",-10.99264715993529],["Fund",-10.992895020230302],["arrest",-10.993148077337484],["Sobre",-10.993314701102307],["shut",-10.993489871621858],["velocidad",-10.993573110683883],["museum",-10.993573152693749],["agencia",-10.993715423109101],["vitesse",-10.993779640882675],["contrario",-10.993813254784413],["named",-10.994213860853762],["poursuit",-10.994263381142673],["Jack",-10.994289452075927],["bilan",-10.994301615675177],["Algérie",-10.995318758830397],["industrial",-10.995445315262547],["ferme",-10.995527390040591],["Fire",-10.995619939121585],["contraire",-10.995661813055648],["vital",-10.995683941340403],["mill",-10.99571531450365],["Tijden",-10.99685465958393],["roman",-10.997211550005293],["proper",-10.997670816621946],["Ley",-10.998015776159054],["char",-10.998047782452225],["estilo",-10.9981755414068],["terreno",-10.998505106737179],["difference",-10.998680576408198],["College",-10.99873531191404],["pronto",-10.998973277035429],["Cristin",-10.998981013937392],["Series",-10.999041415607985],["delivery",-10.999048305492696],["entend",-10.999225891363398],["conclusion",-10.999264126848256],["900",-10.999300079795637],["condamné",-10.999923815753622],["garantizar",-11.000164552569029],["tekort",-11.000246308413274],["kzij",-11.000629853123126],["requiere",-11.001225552986206],["Hall",-11.00132299956039],["employment",-11.001991546025424],["offrir",-11.002317084808313],["célèbre",-11.003803296653935],["permett",-11.003974629464278],["gingen",-11.004206612936535],["FA",-11.004276710921737],["explosion",-11.004597723366793],["siglo",-11.004752113214579],["Ferrar",-11.005105176993464],["Staten",-11.00519988619049],["larga",-11.005371431283976],["rural",-11.00556949047558],["fondo",-11.005797370687752],["ête",-11.006298891310692],["spraak",-11.006444013946883],["ás",-11.006826132650504],["classe",-11.007195814162483],["solu",-11.007387992174067],["financière",-11.007851597076193],["noemen",-11.007865590167523],["explain",-11.00802704433468],["affect",-11.008085173566325],["kept",-11.008735753870347],["quasi",-11.009152555600771],["BTC",-11.009640559808826],["empezar",-11.009682831789089],["payer",-11.009685195265057],["droga",-11.00986654830061],["época",-11.010101213290362],["producten",-11.010426016736808],["Parti",-11.010560601116762],["subject",-11.010829921466645],["barre",-11.0110492621854],["durée",-11.011124769186843],["trend",-11.011596958424228],["Boris",-11.012075372117398],["boom",-11.012501497767856],["Pat",-11.012746846572274],["05",-11.013195556853308],["Prince",-11.013214374228],["Brussel",-11.013280440797523],["zorgt",-11.013490682350373],["menace",-11.013492966615726],["impose",-11.013726990384546],["93",-11.014002301724426],["woorden",-11.014119123689966],["Pública",-11.014139282983589],["histórico",-11.014139325240516],["domicile",-11.014139699157921],["infraestructura",-11.014142162295684],["conferencia",-11.014146058794648],["Alexander",-11.014203168059286],["promotion",-11.014237241578307],["Mat",-11.014295788610504],["2007",-11.014487131573851],["wing",-11.014636656725465],["Educación",-11.015094629395454],["bestaan",-11.015753367754943],["puisqu",-11.016121655174956],["guide",-11.016424101369802],["micron",-11.01698512724284],["pide",-11.017319864578237],["Any",-11.017361025469604],["Nederlanders",-11.017548664224854],["visitante",-11.017683219652184],["taxe",-11.017700111589829],["burn",-11.018071823721826],["ús",-11.018184599669409],["Nou",-11.018394159850304],["lokale",-11.018593158601643],["melding",-11.018832454688685],["tendance",-11.019250685726824],["rápido",-11.019346805508079],["perspective",-11.019347616351158],["stratégie",-11.019347629096407],["passenger",-11.019382899573367],["dialogue",-11.019405722868179],["impossible",-11.019885817471739],["franchise",-11.020131749314112],["Regional",-11.020653948116747],["Times",-11.02068746569596],["ating",-11.02069985514034],["Gi",-11.020717958131367],["2030",-11.020963368520508],["lien",-11.021680424703527],["liée",-11.021737506364865],["artikel",-11.021924846977964],["kijkt",-11.022240860812992],["accept",-11.02274447414548],["jug",-11.023163049064777],["dog",-11.023777693338651],["clean",-11.023820493412867],["Ou",-11.023941182605196],["dicen",-11.024156180329765],["investigador",-11.024295572150349],["kwaliteit",-11.024555943957923],["moitié",-11.024583464329128],["Global",-11.024584273865937],["Partido",-11.024758190886946],["Beau",-11.025030631400057],["slow",-11.0250425473449],["stikstof",-11.025059394267243],["salario",-11.025153980348492],["ambas",-11.025309760411474],["tafel",-11.025494522153345],["Philippe",-11.026182118489803],["darle",-11.026287497755192],["ideas",-11.026523236710073],["solicitud",-11.026977622462113],["spelers",-11.027177619431136],["rally",-11.028032472410603],["cabinet",-11.028081896254122],["crew",-11.028092283440055],["bouwen",-11.028120089831894],["cultuur",-11.02817300716853],["siège",-11.028288190591173],["dak",-11.028415179433326],["keren",-11.028746730961526],["aumentar",-11.02902072882771],["Sinds",-11.029167450891403],["reconnu",-11.029264015323623],["pone",-11.029454751880564],["bericht",-11.029707514360318],["NAVO",-11.029857812091866],["esprit",-11.029926060663808],["recuerda",-11.030118502313156],["dicha",-11.03043551213036],["stade",-11.030579220534758],["rates",-11.030638387103092],["laisse",-11.030848903046225],["ervoor",-11.031960919384614],["conduct",-11.032140503472666],["usage",-11.032166327183685],["mejora",-11.03235161665857],["subray",-11.03281920957445],["señalar",-11.03300526003294],["continent",-11.03363436902561],["loan",-11.033750216260334],["feet",-11.033770607844012],["couldn",-11.033889633470203],["index",-11.034091330960088],["introduce",-11.034374448299186],["BA",-11.035066034829981],["voertuig",-11.035139051008702],["collective",-11.03516380772596],["Vincent",-11.035190057224131],["truck",-11.035209388721075],["dejado",-11.035440745534203],["segment",-11.035441877143686],["ressource",-11.035509412054504],["born",-11.035673293572355],["lisi",-11.0358430626166],["ores",-11.035994051285995],["scenario",-11.036030400691365],["veulen",-11.036394833021049],["fell",-11.036647416654706],["aime",-11.036659650062681],["magne",-11.03701453779658],["derrota",-11.037676960407861],["november",-11.037676964676907],["Dios",-11.037776426890968],["asunto",-11.037845474109126],["protesta",-11.037857499729387],["tank",-11.038093557972028],["expertos",-11.038209157787637],["évolution",-11.038569848267528],["ofrecer",-11.03875775427721],["zeven",-11.038861678036998],["facility",-11.038999289584329],["yester",-11.03919289920122],["previa",-11.039329461873454],["stap",-11.03983319069243],["Ford",-11.04012874252194],["spoke",-11.04029936896457],["trabaj",-11.040412466466734],["búsqueda",-11.040463404882505],["horario",-11.040566906229412],["surance",-11.040585513300313],["vert",-11.040831475349314],["aard",-11.041259323080359],["poca",-11.04171708407707],["blanc",-11.041994731712865],["Boy",-11.042028808360485],["Ave",-11.042042346195004],["coraz",-11.04206202426693],["intent",-11.04216029511275],["penal",-11.042217137758236],["fiscale",-11.0423251764959],["seguirá",-11.04251263127803],["ram",-11.042879855115572],["esposa",-11.043504475941937],["Rotterdam",-11.043628229907661],["draaien",-11.04363721525819],["hou",-11.043842045919764],["directo",-11.043929677894567],["prepara",-11.044284277703003],["bloque",-11.044385763065556],["contenu",-11.044501958891981],["sister",-11.044603620211358],["ww",-11.044713549301726],["sorti",-11.045349295937049],["dividend",-11.045601796873736],["Sénégal",-11.045713562695106],["veiligheid",-11.045778993222829],["Assemblée",-11.045805882304336],["verlies",-11.045892296456177],["finding",-11.045963603937963],["afectada",-11.046104111479728],["plat",-11.04648653110683],["mando",-11.046971632482691],["constant",-11.04709140384935],["crash",-11.047098274371404],["quiero",-11.047151459033634],["Hamil",-11.047545602282106],["Island",-11.047631159690754],["hauteur",-11.047636189206408],["servir",-11.047695765342151],["consecuencia",-11.04810838923958],["198",-11.048120609474157],["informar",-11.048495334516147],["reporte",-11.04879805269558],["Mali",-11.049095268633138],["YouTube",-11.04924174094634],["insiste",-11.049256476315074],["abri",-11.049897310549614],["tough",-11.049929741652875],["CD",-11.050049850475569],["concluy",-11.050067422182096],["utiliza",-11.050303756228836],["welcome",-11.05075722268558],["Marcel",-11.050795701507303],["travailleur",-11.051004532374716],["toernooi",-11.051180497757809],["límite",-11.051181560871505],["síntoma",-11.051186879223328],["obvious",-11.051204754780226],["voorlopig",-11.051215751229103],["troupe",-11.051257359471446],["Board",-11.051328855540847],["resolu",-11.05162841538398],["gehaald",-11.051646841909374],["Marvel",-11.051751914439153],["cri",-11.051863633642457],["Top",-11.051951216601855],["Olivier",-11.05206619798593],["arriver",-11.05214671423196],["gathering",-11.052248021112842],["identifie",-11.052334765404584],["Verder",-11.052356868044221],["namen",-11.052765217828796],["export",-11.053133504172502],["majorit",-11.054056452610624],["enregistré",-11.054339506434356],["sales",-11.054389896221874],["dijer",-11.055205349209668],["pens",-11.055377178346598],["devra",-11.055486867243037],["habitantes",-11.055725563268265],["siente",-11.055774818534708],["roll",-11.056383558468692],["holiday",-11.056586766282567],["instruction",-11.056604042918185],["Parlement",-11.056621930163873],["bat",-11.056627293038215],["inició",-11.056631740936577],["détail",-11.056658456747215],["Noël",-11.05666322096336],["tennis",-11.056665826370423],["comentario",-11.05671146495903],["podcast",-11.056736737616042],["acceder",-11.057221720108636],["cay",-11.057498996533353],["modern",-11.057603874053534],["claime",-11.058153449704543],["vivo",-11.058772799222226],["champ",-11.058817630612191],["treat",-11.05913631777041],["mez",-11.059436010802298],["write",-11.059592624042143],["lejo",-11.059593386646926],["tengan",-11.059734014565853],["vacunación",-11.0598697685331],["ramp",-11.060063770144083],["insist",-11.060958557828542],["stream",-11.061535424593654],["veilig",-11.061538787441897],["purpose",-11.061811427197643],["peace",-11.061915188152096],["madrugada",-11.062020659542519],["haute",-11.062054740853622],["nomination",-11.062060966661994],["conseiller",-11.062087827118573],["morgen",-11.062101692870105],["trasladado",-11.062210271139225],["cible",-11.06245304426389],["alert",-11.062794752437153],["portavo",-11.062830500466504],["dragen",-11.062970372348996],["financement",-11.06345456623371],["zoon",-11.063653446520366],["áreas",-11.063816556972949],["pregunta",-11.063922793256644],["attendu",-11.064199979407285],["amour",-11.06444126901308],["vrienden",-11.064587006665452],["Trois",-11.064665041724737],["reopen",-11.06520163262733],["posterior",-11.0653108414156],["tomó",-11.065691425455695],["Sol",-11.065854360792194],["permanent",-11.065865035573111],["placé",-11.06622847505773],["issent",-11.066784569473139],["Président",-11.066833130539136],["beneficios",-11.067121310751292],["aquella",-11.067234169718521],["hop",-11.067262611457217],["enir",-11.067345778893785],["retraite",-11.067472086635224],["scientifique",-11.067485137092445],["catégorie",-11.067485137142997],["lichaam",-11.067485501890577],["tentative",-11.067490446704278],["dénonce",-11.067490875897143],["privada",-11.067507803520643],["évidem",-11.067509114748812],["classique",-11.067524595487052],["opvang",-11.067529701763007],["competition",-11.067533601512006],["financië",-11.067589178180878],["miedo",-11.067711358458723],["imagine",-11.067831204550018],["participante",-11.067880785910642],["nood",-11.06834022592476],["nouvel",-11.068940414654143],["geraakt",-11.068995819997092],["woon",-11.069012506831074],["reconocimiento",-11.0692743794229],["nacionales",-11.069286005704818],["geldt",-11.069338487750734],["burgemeester",-11.069612526795112],["pid",-11.07009670950275],["verwachting",-11.070208004871066],["passion",-11.07067136653205],["Why",-11.070878630983895],["vienne",-11.071250744399205],["robo",-11.071435251298244],["roepen",-11.071761701984475],["turno",-11.071791864374028],["plicación",-11.071888095798247],["geschiedenis",-11.072408416769212],["ië",-11.072546725333597],["joint",-11.072670575789797],["obtenu",-11.072702285295307],["impression",-11.072718907843367],["straf",-11.072865229875704],["réduir",-11.072987937895295],["Grupo",-11.072992746995158],["establecimiento",-11.073008271408153],["téléphone",-11.07300889909041],["sluiten",-11.073026546541376],["kozen",-11.073420370415741],["implica",-11.073523884050626],["gesteld",-11.073738593461153],["respeto",-11.073762467939005],["poi",-11.073946472901682],["verandering",-11.074089287668432],["tip",-11.074192820221342],["pair",-11.074263433313245],["clubs",-11.074558067637607],["NBA",-11.07512216109836],["hurt",-11.075438921270372],["appelle",-11.076473229059944],["engagé",-11.076914376709283],["ciclo",-11.077364951835325],["organisé",-11.077418774563078],["suelo",-11.077472417057965],["hearing",-11.07766865685269],["forcé",-11.077729569072634],["minimum",-11.078504768902578],["straight",-11.07850512807305],["speech",-11.078505859638781],["terminé",-11.079030592123322],["Like",-11.079138671120873],["putting",-11.079144179640366],["feit",-11.079258197854276],["oins",-11.079899371056527],["upon",-11.079926512917805],["revient",-11.080693889580914],["subir",-11.080825883024453],["GB",-11.081079824581924],["île",-11.081080802801285],["Nicol",-11.081502261036192],["caus",-11.081532086968709],["gener",-11.081807449335372],["Ch",-11.082251014473231],["socio",-11.082414478731437],["Long",-11.082513668167465],["owner",-11.08281932661891],["univers",-11.082838244185012],["diverso",-11.082984137236064],["migrant",-11.083514474378934],["Ber",-11.083528207649238],["Solo",-11.083717347689035],["Ru",-11.083762179353798],["sloot",-11.08380003244957],["accessible",-11.084082649013562],["compañeros",-11.084083368743073],["entender",-11.084114110620646],["grève",-11.084136267743299],["Press",-11.084203266305261],["prévenu",-11.084227369593295],["daarvan",-11.084236932593317],["ended",-11.0844913349126],["advies",-11.084879515642106],["tegenover",-11.084982590112253],["pol",-11.08511885672958],["réaction",-11.08511935969429],["Jackson",-11.085287758743233],["verkeer",-11.085300685687626],["asegurar",-11.085419810251896],["degree",-11.085523561164123],["bestuur",-11.085846832904766],["flow",-11.08644890805321],["declare",-11.086982211638123],["krege",-11.087011117820825],["producer",-11.087011189256138],["comis",-11.087432593427799],["device",-11.087442237516113],["Ti",-11.088218872506953],["terroriste",-11.088302653666108],["quiera",-11.088511121734905],["liga",-11.088616635726867],["Nov",-11.088702768056987],["précédent",-11.08875689948977],["adulto",-11.08908096628298],["hair",-11.0894716241047],["militant",-11.089614407343952],["ige",-11.089643093234999],["volunteer",-11.089646699296239],["procédure",-11.089647589791442],["WhatsApp",-11.089649694369097],["delantero",-11.089688626660514],["ium",-11.090206107575598],["oui",-11.09039506918382],["moto",-11.090916883488958],["society",-11.090970345495144],["Asocia",-11.091289112307397],["bang",-11.091652769553558],["sum",-11.09169233142526],["ok",-11.092042979147472],["chiffre",-11.092100423945718],["intentar",-11.092231259537993],["Quant",-11.092331531245653],["animale",-11.092579891087112],["audiencia",-11.092741094755517],["ndroid",-11.092825006921627],["Mil",-11.093581127696279],["scherm",-11.093847097540753],["fresh",-11.093847178019349],["1990",-11.09408564699767],["commencer",-11.095029631279445],["lumière",-11.095275939945683],["Hollywood",-11.09529492630646],["calls",-11.095410667250238],["volgend",-11.095484499276068],["Isabel",-11.095554367832918],["aanval",-11.095713514624348],["toll",-11.095784874958351],["advance",-11.096131070309431],["threaten",-11.096142146115373],["democracia",-11.09626625707714],["middle",-11.096281771388686],["destaca",-11.096621837426941],["especialista",-11.096663094410317],["classement",-11.096689543311776],["file",-11.09687320874075],["diversa",-11.097248433744223],["overigen",-11.097556292041912],["matche",-11.097771191109349],["aplica",-11.098191519909898],["amid",-11.098626432157968],["Cada",-11.098714498172829],["geschr",-11.09887035550771],["connection",-11.099234439088924],["AI",-11.099628407861669],["cerrar",-11.099656554591922],["officiel",-11.099891596262399],["Up",-11.100402779642655],["SP",-11.100887516028006],["professeur",-11.100915511591582],["Business",-11.100922825492257],["Toronto",-11.100956899054829],["dream",-11.100991660637137],["esperanza",-11.10107789570983],["vaste",-11.101108115206534],["Governor",-11.101146455261494],["ker",-11.101149177620488],["chambre",-11.10117730250786],["weight",-11.101357044905127],["costo",-11.10137003227431],["escolar",-11.101419391031417],["alumno",-11.10173056782977],["tendría",-11.101830181934677],["arrière",-11.102043223112021],["operate",-11.10208495365033],["struggle",-11.10218535996287],["weather",-11.102344755018596],["semi",-11.10254703946272],["Mensen",-11.10258269456359],["fondos",-11.102774900357584],["ément",-11.102839860530224],["tourism",-11.103037439396862],["Free",-11.103218337480158],["actif",-11.103381006108174],["schuld",-11.103489421767772],["transmis",-11.103979701452026],["incredibl",-11.104064022660204],["Hug",-11.104254885632924],["sky",-11.104531237800538],["atender",-11.104709089027004],["leiden",-11.104900285563753],["lastig",-11.1049191470252],["returne",-11.105260548481933],["norma",-11.105422238117361],["laissé",-11.106115329423556],["Committee",-11.106596165763497],["Internet",-11.106604463366015],["circulation",-11.10666120461594],["viol",-11.10672299497783],["afternoon",-11.106760940967195],["plante",-11.106903671236344],["contribution",-11.107000034872208],["Lewis",-11.107473837374496],["onderzoeker",-11.10780957024071],["entendu",-11.108416203219424],["sneller",-11.108458908065813],["hôtel",-11.108716778371335],["wave",-11.108782335974105],["migrante",-11.109053598887758],["tonne",-11.109144626929616],["Cet",-11.109361257008587],["desarrollar",-11.109583104734424],["Water",-11.109681522607616],["Castillo",-11.109741370782132],["committee",-11.10994676357203],["especie",-11.109974895365951],["sujeto",-11.110194905215309],["Direc",-11.110867951337584],["burgers",-11.110930015669613],["esión",-11.11095611933142],["justo",-11.111435724317769],["envie",-11.111491086437294],["goles",-11.111542024492923],["vait",-11.111745230390834],["cell",-11.11180299461867],["Rome",-11.112276409366753],["Desarrollo",-11.112310451812483],["exercice",-11.11231046039982],["dagelijks",-11.112354496403384],["destination",-11.112399600277858],["futur",-11.112400454624433],["april",-11.11266617721579],["climat",-11.1126714183804],["connaîtr",-11.113355834846299],["Oost",-11.113694199403],["Guardia",-11.11372919895112],["capture",-11.113730391408634],["rat",-11.113982106177684],["Cap",-11.11429614331962],["recorde",-11.11458534833002],["informado",-11.114817830864418],["leeftijd",-11.11650107012245],["Antwerpen",-11.116701630624888],["extend",-11.116767081832915],["existen",-11.11706176321169],["exception",-11.117183792478544],["relation",-11.11723314998141],["período",-11.118057596359996],["Monte",-11.118451647493359],["coalition",-11.118459020274193],["publishe",-11.118477688110364],["seguidor",-11.119127378666388],["fruit",-11.119194172482391],["kaart",-11.11953758522268],["speelde",-11.11957389837836],["rait",-11.119745149840416],["makkelijk",-11.120406747590486],["precisa",-11.120440946848017],["agression",-11.120721034303546],["wise",-11.120986180106092],["waarvan",-11.121498519337958],["lettre",-11.121812232340979],["ervaring",-11.122249273464316],["amp",-11.122953088258061],["kick",-11.123079447280091],["immers",-11.123090033710852],["elling",-11.123185604807507],["bois",-11.12319799156737],["duur",-11.123383213306965],["koop",-11.123603312681912],["reveal",-11.123631126388165],["Secretar",-11.123801565245437],["ucraniana",-11.123838982665234],["europeo",-11.123839468541702],["Derecho",-11.123841693451629],["procedure",-11.123858203549833],["samenwerking",-11.1238586893143],["Occident",-11.12388336712998],["FIFA",-11.12391835406227],["evening",-11.12392446474021],["habitude",-11.123924651359612],["praten",-11.124098722927275],["previsto",-11.12413597330623],["abrir",-11.124393543431502],["gevraagd",-11.12447805080895],["relief",-11.1245866273882],["domestic",-11.124689687156593],["profesor",-11.124869702796087],["alza",-11.125130675429451],["aproximada",-11.125276204211094],["gelukkig",-11.125748228680578],["Men",-11.125996278817572],["focuse",-11.126113511463704],["mention",-11.126525124439375],["dispose",-11.126894828237365],["negro",-11.126996481452682],["istas",-11.127053946093554],["maxima",-11.127113894599319],["dieren",-11.127582111336705],["adult",-11.12769272806409],["pain",-11.127874879082892],["publication",-11.128092976293168],["Affaire",-11.128424164619087],["feest",-11.128535607103519],["Love",-11.128720801216874],["resume",-11.129322592451093],["Está",-11.129393213937524],["eléctrica",-11.129649101308527],["ámbito",-11.129651884854617],["extranjero",-11.12965189122189],["plaisir",-11.129652545644042],["adversaire",-11.129653473859268],["procureur",-11.129724269245795],["lawyer",-11.129746847796639],["ties",-11.130098083539586],["kunst",-11.130196301456651],["Control",-11.130249339194599],["Hong",-11.130426425074093],["distancia",-11.130428696053954],["outil",-11.130506601838118],["organisme",-11.130565840361804],["activos",-11.130742869196318],["committe",-11.130839229584193],["matériel",-11.130852655226523],["corto",-11.131153241243965],["Bob",-11.131331448119084],["CBS",-11.131337477876595],["prévoi",-11.131500732379072],["citie",-11.132190817481348],["pit",-11.132371164343834],["complexe",-11.132491689832833],["traditional",-11.133020971341608],["bid",-11.133200141740936],["voisin",-11.133423665695815],["pilote",-11.133976352858888],["concierto",-11.134249812879968],["contribu",-11.13520876709269],["fu",-11.135251037270837],["definite",-11.135367799626787],["faveur",-11.135500767659334],["signature",-11.135509196739873],["Palacio",-11.135510291077926],["positif",-11.135567237174975],["canal",-11.135636403991525],["vaccination",-11.135740937966194],["mine",-11.135851729285076],["king",-11.135876042385103],["complètement",-11.136234209963494],["Mer",-11.136247501105771],["accueillir",-11.136747418653393],["ambition",-11.13713683508904],["fallecido",-11.137390773446358],["escuchar",-11.138260756649533],["Creo",-11.13887769447767],["bande",-11.139134214612287],["Plata",-11.139754641271619],["vais",-11.139910054908029],["please",-11.14018946941903],["tuin",-11.14077592331072],["rights",-11.140795945067257],["frappe",-11.140834320594081],["tramo",-11.14087404656841],["cancel",-11.140886214053069],["eros",-11.141007210163728],["blanco",-11.141098570501681],["invasi",-11.14128486485926],["olympique",-11.141382187704657],["kwartaal",-11.14141829038303],["destacar",-11.14145522519156],["maker",-11.141530784847552],["protéger",-11.14183882619956],["Afghan",-11.142104523052371],["Unie",-11.142111039962582],["créé",-11.142130179294718],["Valley",-11.14230555270747],["assurance",-11.143230655331394],["Jé",-11.143405863025894],["Jong",-11.1434103805752],["Sub",-11.143429402557123],["firmado",-11.143440204446032],["trabajos",-11.143967905232817],["lesquel",-11.144012958478067],["ibilidad",-11.14417283796783],["abuse",-11.144188760735188],["chico",-11.1445822897611],["montrer",-11.144764744353441],["presidenta",-11.144788043747575],["warne",-11.145116088862014],["afirma",-11.145226759561728],["5G",-11.145260323202226],["apertura",-11.14580260909499],["december",-11.14596866511847],["passant",-11.146343777804308],["bloed",-11.146945401993317],["helpe",-11.147292799867722],["hubiera",-11.147313037132587],["Boston",-11.147373625386685],["Local",-11.147464215701072],["rendimiento",-11.14747930913355],["Laurent",-11.147571513995704],["Hernández",-11.147648859914032],["choc",-11.147653217628363],["recorrido",-11.14766900369289],["disposition",-11.1477085449632],["Far",-11.148033385712921],["kar",-11.148289002960617],["trap",-11.14840607886479],["manche",-11.14852793205127],["rug",-11.14891707179481],["demander",-11.149034563948968],["Australian",-11.149130502789124],["consumidor",-11.149196292263218],["piloto",-11.149367535974601],["actrice",-11.149396575360107],["formal",-11.149848181961925],["leiding",-11.14998561526908],["CO",-11.15010478337193],["ador",-11.150360873708589],["intento",-11.150366920707166],["ilegal",-11.150424304996934],["poursuivi",-11.150501221097274],["crédito",-11.150770484693656],["discus",-11.150818844097374],["cia",-11.150822699646957],["Hi",-11.151132663059977],["wijzen",-11.151537435774646],["réaliser",-11.15164274769607],["emps",-11.151722463100377],["alerta",-11.151880667667536],["confirmar",-11.152098210706308],["survive",-11.152399717414232],["ideal",-11.152407034369745],["entendre",-11.152643227519686],["sick",-11.15289397914789],["French",-11.153252076704277],["température",-11.153252108126807],["lanzamiento",-11.153285092851144],["corruption",-11.153331039074557],["pieza",-11.15392450792134],["Ryan",-11.154124855538633],["cierta",-11.154209385739097],["perdido",-11.154369326177648],["eerd",-11.155440244593803],["master",-11.155579954253255],["deportivo",-11.155725940094193],["burg",-11.156161335476455],["Mexic",-11.156971064520494],["pedir",-11.157283404062973],["Utrecht",-11.157415711169858],["parquet",-11.1576419123374],["01",-11.157955659403456],["implemente",-11.158042382558564],["querido",-11.158077977958264],["fier",-11.158676300787008],["offere",-11.158703860793675],["Russe",-11.15880463180741],["Delh",-11.158836649838408],["debt",-11.158913772646713],["ependant",-11.158960763693425],["réfugié",-11.159239748701907],["característica",-11.159239748787492],["honneur",-11.159239829442978],["porcentaje",-11.159240066496817],["ciudadanía",-11.159242106820269],["Taylor",-11.159254957827166],["utilisation",-11.159282708860163],["magasin",-11.159314478395462],["gewon",-11.15947807596761],["middel",-11.159509783300777],["extérieur",-11.159886943190367],["intelligence",-11.159948348046047],["fini",-11.159954727225347],["Bovend",-11.160026490276604],["expand",-11.160035364290316],["observe",-11.160067455149324],["Javier",-11.160072233481566],["vivi",-11.16021460508531],["decide",-11.160294671962031],["gate",-11.160416404180616],["chargé",-11.160428747703293],["urió",-11.160586356079987],["Both",-11.161077550866537],["Also",-11.161611151607772],["permit",-11.161615908336955],["institucion",-11.161757407598197],["ajouter",-11.162141864288525],["listen",-11.16216002556596],["pack",-11.162517174915376],["exterior",-11.162741362512044],["directora",-11.162796375129442],["Genè",-11.163292158945003],["mener",-11.163473873820074],["estudios",-11.163664817880724],["verkoop",-11.163701322520927],["pelea",-11.163913537808671],["Actual",-11.163915875563724],["agricultur",-11.164053840540209],["Pol",-11.164369661814234],["Was",-11.165070983222508],["Unido",-11.165124437824868],["responsibilit",-11.165263845174866],["Chelsea",-11.165264412468513],["murder",-11.165347417652974],["perro",-11.165839517134142],["august",-11.165995983593946],["wish",-11.166023588099762],["sanctie",-11.166086930914384],["razon",-11.16616852356589],["pendiente",-11.166448412912029],["vacance",-11.166597227439064],["dependencia",-11.166632792226721],["solucione",-11.16712234123912],["Nick",-11.167266038660896],["verleden",-11.167356520798592],["dando",-11.167419978719337],["présenter",-11.16743411214031],["getroffen",-11.16783439214932],["stil",-11.168151748171955],["valore",-11.16839584280222],["hous",-11.168450653031972],["bras",-11.168454804460662],["turismo",-11.16858559368595],["130",-11.16862838029088],["ocupa",-11.169026502816019],["Tweede",-11.169207969268731],["chute",-11.169430521034432],["Sony",-11.170048149056516],["farm",-11.170874650508072],["jardin",-11.171242367556804],["ag",-11.171317325144818],["Público",-11.171324451149943],["doubt",-11.171326836645733],["pandemie",-11.17133371630903],["passen",-11.17137529403223],["transmission",-11.171413085039218],["ciudade",-11.171597408971534],["Other",-11.1717464767055],["dur",-11.171848273256984],["relacionado",-11.172016469072124],["shift",-11.17202512389219],["owie",-11.172757475856177],["viento",-11.172892351379836],["destacado",-11.172987662666968],["chang",-11.173233868704585],["médicos",-11.173256732563717],["belangrijkst",-11.173652665408339],["blee",-11.173831974310325],["bringing",-11.173885177882678],["gezin",-11.174113978767693],["NN",-11.174272710164544],["green",-11.174660784658307],["bier",-11.174935844970712],["ria",-11.175015779342042],["catch",-11.17511620364045],["arts",-11.17516247884501],["Asia",-11.175262386830987],["Korea",-11.175346859204542],["acerca",-11.175501722540027],["proposé",-11.175507395803418],["plekke",-11.175549916458728],["Pre",-11.175771551237478],["governor",-11.17620171356299],["journal",-11.176274035705475],["travaille",-11.176476898837322],["larges",-11.176529435018793],["référence",-11.176659598141104],["dig",-11.17672671990693],["Steve",-11.176927485314199],["actri",-11.17738136716399],["rythme",-11.177470465608325],["esperan",-11.177534730876527],["Wall",-11.177582480067526],["interese",-11.177836153437893],["relève",-11.177839108123376],["showing",-11.177962459425544],["Hu",-11.178155369917352],["volle",-11.178182619374063],["overleden",-11.178513177552528],["señalado",-11.178654343648255],["tijdelijk",-11.178812254216414],["piso",-11.179078740094411],["segura",-11.17917075428471],["Rac",-11.17918628723914],["Sept",-11.179234769233208],["provider",-11.179363048540969],["Tar",-11.179369959221996],["revel",-11.180572338838775],["deporte",-11.180611925099342],["Officer",-11.18063439725835],["experiment",-11.180751269549205],["element",-11.180844902101995],["ID",-11.180982158855091],["sprong",-11.181210926055094],["bewust",-11.18123338106796],["vino",-11.181809508804838],["Onze",-11.18257006086305],["régimen",-11.18280643833786],["gehoude",-11.183468908159021],["carta",-11.183471218526243],["parlement",-11.183519039636462],["jeugd",-11.183567163279534],["vertelle",-11.183575269241576],["traitement",-11.183839710964788],["defeat",-11.18389223794797],["06",-11.184112683721459],["amis",-11.184452622866525],["Space",-11.184514056050034],["verkopen",-11.18454032754994],["Tech",-11.184754893851466],["discuss",-11.184805568796722],["erreur",-11.184858407471403],["blessé",-11.184958459761324],["eyes",-11.185346478783014],["comparti",-11.18763197751643],["superar",-11.187687141510603],["wouldn",-11.188635403934741],["policie",-11.18877820786506],["vliegtuig",-11.188786794287427],["Bru",-11.189139036618318],["immédiate",-11.189173735751478],["FB",-11.189493249187288],["gardien",-11.189530166959198],["surveillance",-11.189729821638942],["procedimiento",-11.189746002076893],["blue",-11.189748632578839],["blessés",-11.189927583163204],["presunto",-11.190282618786682],["précédente",-11.190997890495646],["enter",-11.191918608177797],["cerr",-11.192492858211331],["Sun",-11.192664175654343],["stijgen",-11.193171527475352],["Gov",-11.194024680937435],["midden",-11.19417671122962],["joine",-11.194896977907874],["mor",-11.195108921493759],["Ham",-11.195258331738124],["faible",-11.195423496682665],["maak",-11.195785830630616],["fotografía",-11.195941033002551],["samenleving",-11.195941466124108],["exploitation",-11.196028841636553],["thème",-11.196049738472874],["colectivo",-11.196075349956537],["durable",-11.196325498814865],["torno",-11.196362862341122],["joue",-11.196373139262825],["vermogen",-11.196651744749897],["log",-11.196732400502043],["intense",-11.196733114037851],["suministro",-11.196805887638023],["Mor",-11.196922829213687],["vrije",-11.197429270893032],["yourself",-11.197446959308259],["Harris",-11.197561620186901],["calor",-11.197674800641357],["actief",-11.197895867265238],["apoyar",-11.19834222016712],["wapen",-11.198604073566045],["verlor",-11.198616495764231],["slachtoffers",-11.198741177190186],["Rica",-11.198971283701354],["indicate",-11.199088173136271],["Fed",-11.200584998982102],["luxe",-11.200928758630802],["sensible",-11.201002021822635],["rain",-11.201359764390887],["tenté",-11.201410575390895],["Ger",-11.20143507916156],["interna",-11.202031621941494],["*",-11.202147743568235],["comienza",-11.202191042178784],["beslissing",-11.202191048713084],["salarié",-11.202192953385154],["Nuevo",-11.202199572421002],["incluido",-11.20221225265507],["parlementaire",-11.202255246857511],["Coronavirus",-11.20226898736541],["inmediata",-11.202383798835207],["associate",-11.2024007397513],["household",-11.202450100644628],["frais",-11.202744736613383],["snelheid",-11.202771125017055],["VA",-11.202772346850645],["Departamento",-11.202818594914499],["tenter",-11.202886570310648],["kijk",-11.202892388374774],["uff",-11.202929180569612],["escena",-11.20312439382565],["ticket",-11.203158292419031],["beneficio",-11.203364279628003],["université",-11.203817974950333],["02",-11.204131293540833],["llevado",-11.204306466057815],["protagonista",-11.204570115885794],["installer",-11.204945318340716],["protester",-11.20527866718147],["segui",-11.205280941175499],["Best",-11.205534945516611],["celebrar",-11.206044825635047],["merken",-11.206167935383009],["Hé",-11.206219895318274],["Porque",-11.206562269572336],["expression",-11.206656283365493],["revis",-11.206781853312552],["permettra",-11.207250211854888],["Él",-11.207303708853797],["Rem",-11.20739158150949],["Za",-11.207434269081242],["asil",-11.20748433964624],["viral",-11.208334732912679],["telling",-11.208367927984526],["Constitu",-11.20838872438671],["démocratie",-11.208480309394528],["homicidio",-11.208480309770158],["floor",-11.208541125785718],["déplacement",-11.208674256094739],["sche",-11.208689739652606],["Company",-11.208691876903478],["BC",-11.209158725736943],["fui",-11.209229748910978],["gold",-11.20973708481751],["Wil",-11.209875505269693],["actuar",-11.210128385995851],["divers",-11.210471790708397],["remis",-11.21053504040093],["aquel",-11.210583916673853],["Brun",-11.210687479317333],["killing",-11.211153266129015],["conocida",-11.211308064280447],["cool",-11.211771010942757],["défaite",-11.211799958168871],["Auto",-11.212197988701696],["raakte",-11.212234748542796],["voelen",-11.212370685566613],["Albert",-11.212398066556135],["Matt",-11.212540629208554],["merk",-11.212635097505132],["accueil",-11.213426175818093],["telefoon",-11.21410303430532],["secure",-11.214404618205997],["potencial",-11.21449597952504],["akkoord",-11.21480825245788],["espectáculo",-11.21480942332079],["carburant",-11.214810113032122],["alternativa",-11.214815873436716],["suerte",-11.214829404751875],["vídeo",-11.214859290061048],["identidad",-11.214924531308782],["instancia",-11.21500843765616],["homes",-11.215019525237619],["Finland",-11.215039357522823],["north",-11.215081735197053],["eeuw",-11.215166827294519],["améliorer",-11.21522663879832],["concurrent",-11.215249009459846],["GP",-11.215268316441694],["anunciado",-11.21537808924733],["skin",-11.215605583753781],["350",-11.21576481539104],["apuesta",-11.21578109318137],["connect",-11.216107864031953],["exposition",-11.216121022534335],["surge",-11.216460689276094],["incidente",-11.216485716227266],["correct",-11.216585828010933],["drivin",-11.21677140842191],["estaría",-11.216789571184504],["corrup",-11.21680732899854],["continua",-11.217030315664163],["Kevi",-11.217447542274023],["hip",-11.217707159350052],["carbon",-11.217743029053139],["divis",-11.2182628786165],["contagios",-11.218508273694617],["sang",-11.218768514129405],["Mary",-11.21938910872142],["defender",-11.219475568426542],["suisse",-11.219555098828607],["Italia",-11.219675275287315],["clasifica",-11.219681458471815],["avenida",-11.220015936768682],["Bel",-11.22008970578041],["cycle",-11.220107606796223],["compartir",-11.22018680898594],["relevant",-11.220371467617966],["sier",-11.22100099422124],["comienzo",-11.221179030779613],["respectiva",-11.221182280100077],["Canadian",-11.22118439714728],["pétrole",-11.221184397259288],["Alguno",-11.221192753922251],["convocatoria",-11.221203066520697],["Ecuador",-11.221212314221862],["ritmo",-11.221234754506545],["Espagn",-11.221251448790309],["violation",-11.221378169929613],["begonnen",-11.221409375938132],["changé",-11.221439064482553],["broken",-11.221505804425629],["Virginia",-11.221811729767646],["apunt",-11.222030070652895],["aéroport",-11.222126403683585],["brandweer",-11.2221641557744],["aware",-11.222185100986746],["hogar",-11.222266381010982],["poging",-11.22227754203249],["stick",-11.22239974546375],["lancement",-11.222722366584387],["plastic",-11.222784305350729],["snap",-11.222942411473486],["independent",-11.222962706420269],["writing",-11.223019946352812],["kent",-11.223189722329469],["independiente",-11.223383045068214],["Art",-11.223574929099518],["contest",-11.223611453661526],["volgt",-11.224297996745296],["08",-11.22444150178356],["permitirá",-11.224550431789876],["PM",-11.224558474744166],["Mosc",-11.224706261741236],["cat",-11.225078995566374],["Jordan",-11.225120475778162],["Université",-11.225308850168359],["protocol",-11.225337997923802],["avanzar",-11.226864804843476],["invloed",-11.226936504051066],["thinking",-11.22713716712516],["légère",-11.22759331341719],["récord",-11.227624891333615],["circula",-11.227717780467827],["boost",-11.227789343163407],["rencontré",-11.227816865445032],["gezicht",-11.227836439563633],["múltiple",-11.227883536105129],["isolation",-11.227944414773889],["generatie",-11.228045275777445],["Nederlander",-11.22848285555242],["públicos",-11.228908191568365],["eurs",-11.229336862033332],["constat",-11.229578586535283],["verdacht",-11.229716386305906],["kennis",-11.229808483260037],["tegenwoordig",-11.229917270462622],["angst",-11.230169375284655],["Servicio",-11.230272551486959],["Prix",-11.230563988596124],["krant",-11.230612391621266],["CO2",-11.230641132327424],["dará",-11.230808706749126],["thank",-11.230843931605595],["regreso",-11.23090438947109],["Fin",-11.231051433584472],["arrêter",-11.23108512316055],["omzet",-11.231282693732359],["inicial",-11.231350745681784],["logrado",-11.231447657520297],["plena",-11.231499413933005],["develope",-11.231623871796735],["Guinée",-11.232024276579015],["militare",-11.232050901664959],["III",-11.23206982486551],["condi",-11.232193968166396],["aar",-11.232229641644704],["?\"",-11.23262332429188],["bewoners",-11.232829005679985],["anteriores",-11.232981692496022],["cook",-11.23300585671294],["kamp",-11.233405582353459],["puisse",-11.233655319611024],["cor",-11.233693006990325],["beschikbaar",-11.233969803509641],["Uruguay",-11.234040984726327],["language",-11.234043441202443],["ultimate",-11.234152754960036],["ONG",-11.234305905062456],["cam",-11.234598314116436],["subida",-11.234598883916352],["arbre",-11.234700209412875],["looks",-11.235019723319787],["heet",-11.235180181682232],["uch",-11.235254553248005],["souhait",-11.235681327587692],["schap",-11.235970301982288],["Morena",-11.236387790450706],["provoc",-11.236923721457195],["Mol",-11.236981507535862],["strict",-11.237064623101451],["effectué",-11.237119625104338],["extension",-11.237195640506485],["promis",-11.237517595312928],["patiënten",-11.2377838127722],["strateg",-11.238045203219935],["priorit",-11.23804970738329],["apply",-11.2380933922109],["clé",-11.238172609595086],["poursuivr",-11.238233619746843],["agres",-11.238464524730569],["souten",-11.238529542099874],["tradicional",-11.23856536411812],["Lion",-11.23898669305687],["TP",-11.239156182348289],["older",-11.239182157384946],["Tri",-11.239303667102885],["performances",-11.239688262954438],["centra",-11.23984114137501],["IA",-11.239984773543522],["Nicolas",-11.240129458423104],["phénomène",-11.240534227096205],["différence",-11.240539484068577],["réduction",-11.240548354400385],["sorpresa",-11.24054894392476],["asesinato",-11.240550766780837],["freedom",-11.240591343132596],["hommage",-11.240608336628299],["Federación",-11.240654520075319],["Kar",-11.240750802658576],["Otra",-11.240763635046088],["survey",-11.240814639305166],["Sky",-11.240816441380321],["allerle",-11.240839926138795],["Aucun",-11.240847128124564],["immense",-11.240863917557693],["Reino",-11.24089979691357],["augmenté",-11.24091277843967],["gira",-11.240977165844575],["videos",-11.241039133935969],["argue",-11.2417806277308],["berichten",-11.242236307486058],["constaté",-11.242247731351878],["CDC",-11.24233655729303],["proteger",-11.242381091952456],["entière",-11.242464847792505],["ington",-11.242501892016397],["abandon",-11.242535849057777],["Var",-11.242577771094915],["instrument",-11.242749364958701],["Ken",-11.24347054906665],["locate",-11.244294286245466],["dark",-11.244596216397955],["GM",-11.244626778308483],["row",-11.244723494871543],["aim",-11.24531711818448],["ondank",-11.24538915586481],["alerte",-11.245522444813812],["entregar",-11.245551385425475],["construir",-11.245625610159106],["setting",-11.245681507231517],["ouvrir",-11.24613558966638],["yards",-11.246169597521977],["refiri",-11.246284641282987],["Brita",-11.24650903665139],["Oct",-11.24662946820862],["vroeger",-11.246842163125034],["responsibl",-11.246874219262343],["marc",-11.247058743917094],["réalisateur",-11.24707482582416],["Georgia",-11.247107973800285],["kwijt",-11.24710896809321],["directrice",-11.247128775864986],["resolver",-11.247342858991736],["Europea",-11.247394786029544],["Eerder",-11.2474389632208],["Power",-11.2477049349983],["pleno",-11.247759639388324],["voulu",-11.247825357373546],["rot",-11.24812859995544],["approximate",-11.248279738564113],["weapon",-11.248701269672454],["firme",-11.249124512612106],["taal",-11.249488248756428],["duro",-11.249535948971754],["asielzoekers",-11.249621349883125],["Beach",-11.249775723552991],["mené",-11.249974733282766],["llama",-11.249984723109911],["intendo",-11.25007544626288],["bos",-11.250602932524451],["boot",-11.250610400685147],["eigenaar",-11.250632899470315],["delay",-11.25091315174728],["looke",-11.25105973671656],["hoogste",-11.251193792110751],["triple",-11.251199526423452],["gebouw",-11.2512180513907],["cielo",-11.251235159360148],["offert",-11.251465295572132],["Djoko",-11.251533705655334],["fuente",-11.251746068294938],["Aug",-11.251958814417604],["Pay",-11.252004135897774],["é",-11.252117459677379],["Gra",-11.252307094047605],["sentencia",-11.252449460950572],["gebeurde",-11.252808152140144],["efficace",-11.252862254085628],["Tra",-11.25298253715441],["smart",-11.25306423799222],["strike",-11.253116690144502],["severe",-11.253344205510421],["demasiado",-11.253649137736268],["Vlaanderen",-11.25365438986659],["histórica",-11.253693823777471],["inch",-11.253700461911777],["Joseph",-11.25384562944876],["prevé",-11.253863932611306],["Naast",-11.253878122958376],["Year",-11.25392285021795],["Claude",-11.25406242845839],["flood",-11.254097317283005],["trouwens",-11.254097902918414],["crois",-11.254540230153646],["gue",-11.2545604651728],["verklaring",-11.254569492259202],["rueda",-11.254576693168993],["wapens",-11.255029231638837],["financiero",-11.255102335043679],["werkelijk",-11.255598737708638],["statut",-11.255601195233933],["déficit",-11.255942451915338],["Down",-11.255983081852147],["Pan",-11.256043528243717],["pus",-11.256244665476677],["corner",-11.256270017084997],["mens",-11.256735417028816],["Institute",-11.257271313037695],["exercise",-11.257320872368243],["regione",-11.257831594608206],["fijn",-11.25819916234063],["package",-11.258259074291757],["waarde",-11.258599149742661],["pluie",-11.258869402467631],["2003",-11.259159416788382],["RS",-11.259365182928432],["mensual",-11.259988457222068],["distribu",-11.260227313604574],["spectateur",-11.260271816595708],["window",-11.260294302348797],["kritiek",-11.260298834600313],["Right",-11.260321293261375],["Vorig",-11.260393032592953],["youth",-11.260438577714853],["Plaz",-11.26045740361718],["partners",-11.260622441642386],["percentage",-11.260660896192297],["menu",-11.260861940311825],["Maria",-11.26087474096219],["producteur",-11.260997387536207],["steden",-11.261079366632048],["télé",-11.261269257871028],["sprak",-11.261343329164543],["realizada",-11.261380506518258],["autor",-11.261646081633561],["previo",-11.261821124187364],["existence",-11.261878424163768],["proposer",-11.262080733616383],["MC",-11.262209403848484],["werknemers",-11.262264223455723],["inmediato",-11.262459597626968],["steps",-11.262510740896747],["Álvar",-11.262639519459459],["groeien",-11.262726117746068],["vriend",-11.263128594365767],["disparo",-11.263376404879018],["!\"",-11.263867100361104],["majeur",-11.264443141300934],["Research",-11.264445945775414],["Vegas",-11.264563867979518],["recognize",-11.264753864992576],["apparent",-11.264989385623512],["kin",-11.265036780630776],["path",-11.265292512005264],["usine",-11.265830705980619],["basketball",-11.2661211472376],["verkocht",-11.266438230175183],["draagt",-11.266483473447039],["Char",-11.266495119036552],["trouble",-11.266593743679017],["consommateur",-11.266941609813603],["Défen",-11.266956998465595],["actuación",-11.267041727849115],["meant",-11.267041838983026],["convirtió",-11.267106873335493],["wereldwijd",-11.26713692608478],["Oranje",-11.26715036256915],["absoluta",
[...]
