{"version":"1.0","truncation":null,"padding":null,"added_tokens":[{"id":0,"special":true,"content":"<UNK>","single_word":false,"lstrip":false,"rstrip":false,"normalized":false},{"id":1,"special":true,"content":"<SEP>","single_word":false,"lstrip":false,"rstrip":false,"normalized":false},{"id":2,"special":true,"content":"<MASK>","single_word":false,"lstrip":false,"rstrip":false,"normalized":false},{"id":3,"special":true,"content":"<CLS>","single_word":false,"lstrip":false,"rstrip":false,"normalized":false}],"normalizer":null,"pre_tokenizer":{"type":"Whitespace"},"post_processor":null,"decoder":null,"model":{"type":"Unigram","unk_id":0,"vocab":[["<UNK>",0.0],["<SEP>",0.0],["<MASK>",0.0],["<CLS>",0.0],["e",-2.987324669440204],[".",-3.1686222832873163],["de",-3.4978315400725215],["en",-3.5320100051233485],["n",-3.7057903087512294],[",",-3.818434018788478],["t",-3.9199911443874402],["van",-4.053552428676458],["s",-4.177635371847673],["het",-4.181495469624409],["in",-4.320297622364647],["d",-4.5279400812661095],["een",-4.613817830668541],["is",-4.6159415520504155],["dat",-4.647413095787304],["op",-4.6815536869337375],["voor",-4.962306943781973],["zijn",-5.039319652723439],["met",-5.058334963970415],["niet",-5.119897152438771],["die",-5.167308656847339],["-",-5.174927078047359],["i",-5.289246546474498],["om",-5.293797044250484],["er",-5.314871616170082],["aan",-5.349091750830885],["a",-5.378786811087119],["je",-5.431088374352525],["te",-5.5006589047382075],["ook",-5.522717807693796],["De",-5.5312152681709055],["als",-5.615982925030126],["bij",-5.62192427199923],["maar",-5.630343628295558],["o",-5.657060103103667],["al",-5.707472372534236],["r",-5.720077891619498],["uit",-5.7459358841636625],["Het",-5.811681237516304],["’",-5.847582044743982],["nog",-5.8762788897749285],["m",-5.939460910921889],["D",-5.940777555346472],["over",-5.956743177719847],[":",-5.971334256239297],["wel",-5.972736445471524],["z",-5.972840472968478],["ik",-5.9886394024124066],["l",-5.989295221127017],["heeft",-5.993983821988772],["door",-6.010007728630047],["dan",-6.020533690015494],["ze",-6.020698183468516],["naar",-6.031728812307557],["zo",-6.034226435005069],["'",-6.048071719809002],["k",-6.048299539180967],["of",-6.062204859715031],["g",-6.073149342060459],["was",-6.090359689363224],["\"",-6.104198343000096],["(",-6.132995053841196],["meer",-6.148533046990838],["?",-6.16579653584297],["hij",-6.172616171347462],["“",-6.179400091875333],["hebben",-6.1927295911487406],["worden",-6.2469881611695595],["moet",-6.261041708635629],["jaar",-6.261398283027267],[")",-6.3466935593379485],["wat",-6.35458733785538],["‘",-6.358289450131023],["word",-6.37016168685618],["kan",-6.382057990556545],["u",-6.4072834177849245],["h",-6.420108447442042],["waar",-6.449484542411257],["Dat",-6.457997622404909],["Ik",-6.491918905832328],["we",-6.507681505835215],["j",-6.518172549098738],["zich",-6.526987955055596],["kunnen",-6.567200874269695],["ge",-6.57000960686182],["In",-6.587490008699719],["veel",-6.596445009401607],["dit",-6.602475520173043],["werd",-6.6421971110133],["geen",-6.656895500457582],["Maar",-6.661376878202933],["mensen",-6.680710072443131],["gaat",-6.683850769269954],["tot",-6.6880221083456135],["zou",-6.731975000508776],["w",-6.742085908976099],["hun",-6.7441038946933265],["onder",-6.747528936699808],["deze",-6.751896932591394],["he",-6.75520542473759],["gaan",-6.762893639690396],["weer",-6.769521227382659],["tegen",-6.781318128185774],["v",-6.78458981705893],["f",-6.840896328223122],["daar",-6.8485699077855156],["E",-6.850629009697746],["1",-6.857266239205931],["dus",-6.879054751940277],["goed",-6.881384299373806],["haar",-6.896813409350258],["b",-6.904379494882546],["Een",-6.906106147157067],["had",-6.945301176409963],["heb",-6.9637094436931095],["”",-6.986661238937625],["p",-6.9911512771745326],["af",-6.995563154759082],["2",-6.996657588165726],["an",-7.005265836090609],["En",-7.007343766739311],["me",-7.017337856291265],[".”",-7.018901853789145],["zelf",-7.027053285216538],["twee",-7.061512196596802],["I",-7.061685287631472],["andere",-7.063802117759859],["maken",-7.086478600031355],["komen",-7.091434506311662],["doen",-7.122190729422423],["kom",-7.135827543519669],["Als",-7.147851835396896],["wil",-7.148002194391658],["nieuwe",-7.152164982724182],["toch",-7.154875398167147],["weg",-7.173189774034404],["hier",-7.174049319811354],["tijd",-7.176146949885113],["zal",-7.179763341104607],["staat",-7.219631059832237],["A",-7.221573909805426],["alle",-7.222100500811666],["mijn",-7.224084765025109],["nu",-7.226940236244221],["land",-7.240434097127928],["ing",-7.246671160039623],["Ook",-7.255361490148471],["heel",-7.258545209351153],["zegt",-7.261202028019928],["aar",-7.28189282900553],["Hij",-7.281926648952501],["iets",-7.298459018094062],["Van",-7.3112175613588635],["Er",-7.342488263863829],["eerste",-7.349173744786485],["Op",-7.351926485825674],["alleen",-7.353282851917049],["Nederland",-7.360236946123625],["B",-7.360522151887034],["O",-7.361172413266972],["tussen",-7.371197405889511],["mee",-7.3859088641191635],["zien",-7.385981729640335],["volgen",-7.391330681463229],["vind",-7.3975202655063566],["grote",-7.397690359797193],["procent",-7.406407977966692],["hoe",-7.410947979491708],["ons",-7.4173757439806405],["auto",-7.42403254243654],["S",-7.430115705156113],["man",-7.431345508011935],["We",-7.454549608404274],["W",-7.458809231463718],["at",-7.467660813589704],["Zo",-7.474892298077956],["euro",-7.486652198563637],["krijg",-7.4867802140925965],["”,",-7.490034210914206],["3",-7.492155911244439],["Die",-7.504092527668317],["echt",-7.505159114290502],["even",-7.512056064500632],["altijd",-7.515110464296693],["et",-7.5336393832696515],["leven",-7.538521456738521],["gewoon",-7.544261493565948],["uur",-7.548666528753279],["kun",-7.549448769200546],["waren",-7.55569700877954],["dag",-7.561701980952808],["V",-7.566012911890481],["K",-7.5683651251565065],["hem",-7.568719956437762],["keer",-7.573336963738247],["!",-7.576796251511315],["lopen",-7.582972572502774],["eigen",-7.586755607380598],["ver",-7.601931612926354],["y",-7.607518835608766],["5",-7.616610796699182],["toe",-7.619742966121577],["laten",-7.623758504515265],["Daar",-7.6275964107442755],["zij",-7.629227318195471],["week",-7.634269558076414],["heid",-7.636308807844945],["willen",-7.638659643795952],["hele",-7.6438429993726205],["terug",-7.649325269832786],["Ze",-7.649471471851621],["kwam",-7.650690557553836],["H",-7.652353041980318],["Dit",-7.655721343139057],["mij",-7.658017525116893],["minder",-7.6588934378387945],["onze",-7.65940134073394],["mogelijk",-7.669329489652057],["el",-7.670150947064432],["binnen",-7.675489964757263],["per",-7.681169462012534],["politie",-7.683081550240033],["houden",-7.698239198017477],["geld",-7.705137245862768],["jaren",-7.7182640794464925],["Voor",-7.718917353698252],["eens",-7.727172630263784],["ooit",-7.728861786481367],["Je",-7.728863181357515],["lang",-7.734254708727028],["steed",-7.741151323975141],["werk",-7.747958819196388],["Oekraïne",-7.7491130920523],["202",-7.755424666949006],["staan",-7.755871889160495],["Met",-7.758666848831955],["M",-7.761916138278868],["want",-7.763977509606508],["één",-7.767944533174681],["G",-7.7687410936112435],["20",-7.770869170570905],["laatste",-7.771407952885465],["Wat",-7.775413176226373],["Rusland",-7.7773507234493655],["4",-7.779050933765084],["T",-7.780458264234021],["drie",-7.780831621293089],["rond",-7.7851194800160375],["plaats",-7.804496487061373],["Russisch",-7.805426664603841],["na",-7.806649519463854],["di",-7.811559297832592],["huis",-7.812827357886241],["wereld",-7.815925810468544],["achter",-7.821111866673205],["verder",-7.823580095768712],["Bij",-7.824726675914915],["be",-7.834691010778848],["Volgen",-7.83629590685732],["voorbeeld",-7.841383701881874],["N",-7.844246083735348],["/",-7.844685078464512],["weten",-7.859890772598234],["Z",-7.863517295991374],["Nederlands",-7.873287237317064],["aantal",-7.879892484677796],["onderzoek",-7.881494264948902],["blijven",-7.884704282672434],["vooral",-7.887489624208417],["mag",-7.887534227511538],["zonder",-7.890907587062343],["zit",-7.894145388806886],["beter",-7.8947087716494835],["moment",-7.90309294037019],["nodig",-7.905618943857604],["gemaakt",-7.906700755212609],["maakt",-7.914583858500846],["6",-7.923246575166887],["da",-7.931103294212269],["snel",-7.935580159417885],["ullen",-7.936440528668991],["jarige",-7.941207767345663],["ben",-7.94593477501049],["000",-7.960671058646765],["elkaar",-7.965327668520306],["den",-7.969521994287639],["nieuw",-7.97748954509512],["kinder",-7.978358163459088],["miljoen",-7.9785849305382435],["alles",-7.980207992141046],["og",-7.981678306624881],["laat",-7.981911218959042],["P",-7.985046836725945],["eerder",-7.988038243557002],["bedrijf",-7.988676356118576],["ten",-7.990376894078469],["toen",-7.990779554087441],["zeggen",-7.991794314296826],["zelfs",-7.997500738659606],["zeker",-7.999385834536434],["anders",-8.002009020966163],["bekend",-8.002965949690823],["ging",-8.005753587662866],["zitten",-8.007173121658791],["geven",-8.014705563321264],[").",-8.020775645196743],["gemeente",-8.02898164089564],["ren",-8.029791872045108],["groot",-8.030291056267636],["Na",-8.030672780870376],[".\"",-8.033638896305252],["deel",-8.044636400182965],["us",-8.045718309638936],["–",-8.04776265807763],["0",-8.049073601255023],["C",-8.049726141095732],["Zij",-8.053211977682022],["weet",-8.0568142475924],["8",-8.059700903909672],["ij",-8.059925575883511],["blijft",-8.061669752270262],["oorlog",-8.061966561904853],["on",-8.065992181240219],["afge",-8.068245048637085],["avond",-8.080519769604019],["werken",-8.083113808462151],["vaak",-8.08973489718301],["maal",-8.090645693378985],["nemen",-8.092102814161516],["wij",-8.094719612605866],["lijkt",-8.097186078826235],["samen",-8.101719251120775],["via",-8.104526936124536],["10",-8.105469856297065],["tijden",-8.136019553742297],["boven",-8.136339692845308],["natuurlijk",-8.140248544568877],["kon",-8.142984733559686],["vrij",-8.144263832447225],["Hoe",-8.14627263817625],["energie",-8.147138180799946],["vraag",-8.149184396838997],["gebruik",-8.149194991502863],["moest",-8.152783662827437],["stad",-8.15459256173939],["Deze",-8.155571464847467],["ander",-8.157700510795742],["eren",-8.159949741518979],["allemaa",-8.164179335386727],["tweede",-8.173541430694453],["Dan",-8.175398818201039],["sinds",-8.184193501881992],["va",-8.190347997936314],["vrouw",-8.192120065505307],["c",-8.194011473136092],["J",-8.194522112112018],["vier",-8.198420123694131],["eerst",-8.202214315806685],["landen",-8.202572005113069],["R",-8.203617493810734],["ie",-8.20371452962637],["to",-8.204881628196489],["doet",-8.21100175875564],["7",-8.213679940042052],["iemand",-8.216151255419113],["later",-8.217302199215851],["juist",-8.218843779987028],["vol",-8.221835072808382],["krijge",-8.221913627358465],["soort",-8.223043852871522],["kijken",-8.234791807964637],["dagen",-8.24456748917669],["genomen",-8.249852936871068],["duidelijk",-8.255537195780214],["open",-8.26116490105216],["genoeg",-8.264035423115205],["zetten",-8.268216485654609],["manier",-8.268752328498083],["st",-8.27008941585524],["bijna",-8.273767151943263],["Om",-8.278658783089064],["Amerikaans",-8.284843435011823],["gezien",-8.29084649858609],["9",-8.29147606278389],["water",-8.295355983953849],["maanden",-8.295545648503946],["vast",-8.296268290403361],["paar",-8.298639980759024],["Nu",-8.29950819373363],["wedstrijd",-8.30481840661432],["extra",-8.313754219446086],["ken",-8.319776143777926],["erg",-8.323674449909692],["licht",-8.327806449843813],["buiten",-8.329448636786656],["gedaan",-8.331945530105024],["weinig",-8.333538981432081],["U",-8.336117940595841],["minister",-8.347647869443044],["bedrijven",-8.355061091281568],["breng",-8.358302853466284],["Europe",-8.360269205469027],["beetje",-8.360770764410855],["lig",-8.363584454981691],["corona",-8.365654781525732],["vanaf",-8.366136369557688],["gelede",-8.367045316117554],["201",-8.367222398962399],["30",-8.367935058122196],["hoofd",-8.368478888426926],["zoal",-8.37610004745322],["amelijk",-8.376693417907454],["eigenlijk",-8.377609250309492],["L",-8.387043251009167],["Al",-8.389217928551364],["niets",-8.398144368352337],["partij",-8.39895857857626],["denk",-8.39971789087016],["geval",-8.404761067831235],["terwij",-8.406079937458907],["Of",-8.40661455779766],["woning",-8.408803148769852],["gas",-8.415515265031692],["straat",-8.422288413028358],["ar",-8.42295301157327],["stond",-8.42436368378715],["He",-8.424577510873007],["weken",-8.424669357322454],["Europa",-8.42590737306489],["vijf",-8.428519847472131],["best",-8.430221064844151],["pas",-8.432531598427126],["le",-8.433567609914597],["zie",-8.435053511161193],["seizoen",-8.437736332103764],["rijden",-8.447020094197718],["probleem",-8.447173397599967],["verschillend",-8.449981384328526],["vandaag",-8.450093659936893],["groep",-8.451588991333113],["halen",-8.452726037668945],["vorig",-8.453769494003406],["enkele",-8.456110700459924],["prijzen",-8.45764435644739],["media",-8.459202668847556],["F",-8.460847015892769],["kree",-8.461304984462608],["ers",-8.465251482692032],["…",-8.468111011880152],["mogen",-8.469692656950468],["19",-8.470392839533432],["EU",-8.473837555762191],["Door",-8.47420993431556],["hand",-8.474653622602343],["ste",-8.477052492354872],["Dus",-8.483196667923274],["meest",-8.48752887006957],["maakte",-8.487950992482212],["verwacht",-8.489070201647568],["vrouwen",-8.492869227521894],["ruim",-8.493188998239162],["markt",-8.49382093457102],["reden",-8.496419976986324],["maand",-8.498480252249742],["ens",-8.501139438593095],["Niet",-8.50227121203197],["blijk",-8.502795627009274],["zorgen",-8.503846636709898],["prijs",-8.50785413975214],["%",-8.510485575041326],["zaterdag",-8.511356879756402],["foto",-8.512102897003427],["middels",-8.51411331805841],["problem",-8.521923465625477],["kans",-8.523894447474348],["basis",-8.5254339472006],["zei",-8.52662124359242],["gebied",-8.527607503933737],["Poetin",-8.531296742257027],["wilde",-8.534739856553827],["hard",-8.537409480941964],["woensdag",-8.53898084706746],["15",-8.542280386943684],["president",-8.542509100562299],["volgend",-8.551094362816727],["kosten",-8.552044037702819],["denken",-8.554438896564339],["„",-8.554766774512215],["echter",-8.55928918856933],["ee",-8.570428650860123],["druk",-8.570862132158965],["begin",-8.571160286443956],["wie",-8.572911100507273],["hoger",-8.574488647173784],["mannen",-8.57507232736219],["naast",-8.575197948332262],["ter",-8.575857712675273],["Ja",-8.578541396967346],["overheid",-8.578818291019905],["regering",-8.58055567284357],["vrijdag",-8.581281069554851],["iet",-8.5820870366294],["thuis",-8.584415536439286],["kabinet",-8.585564932647879],["goede",-8.588036758511594],["stellen",-8.589886446142447],["maandag",-8.589887202964015],["grootste",-8.591627505476225],["vragen",-8.599026856609722],["graag",-8.599041761784504],["geef",-8.603002153759842],["betalen",-8.604131239555679],["werkt",-8.605025356685033],["club",-8.611230226147267],["aal",-8.611845922467374],["rol",-8.620605831264513],["ziet",-8.621655953343865],["team",-8.622686208086229],["recht",-8.628600662638824],["totaal",-8.629146951357825],["spelen",-8.633981272646315],[";",-8.635611733145218],["dinsdag",-8.636822635154385],["hoor",-8.639271432370473],["isschie",-8.645014009568243],["beste",-8.64719036919622],["Apple",-8.647248919093476],["mooi",-8.648201634057571],["acht",-8.649704588863528],["zaak",-8.65582031845585],["hoge",-8.656881362549896],["Wij",-8.660104524667242],["enige",-8.661763610986828],["ou",-8.661917069955663],["app",-8.663285521604202],["adden",-8.665562398899425],["vond",-8.668745545187893],["langer",-8.668909249799528],["gegeven",-8.670817170032581],["leden",-8.672512367185293],["zondag",-8.67484528785877],["gekomen",-8.676735314928793],["ijdens",-8.679480875045446],["Oekraïens",-8.682599677342271],["volledig",-8.68377221980376],["donderdag",-8.683825885053006],["verhaal",-8.687881389146417],["uiteindelijk",-8.691312433770143],["plan",-8.695610530128885],["kort",-8.698885186235394],["belangrijk",-8.700013598940549],["ongeveer",-8.70178119036284],["familie",-8.702455808096797],["naam",-8.703547096593564],["ma",-8.704365856836933],["ruimte",-8.705096657401329],["eind",-8.705604418193015],["stuk",-8.709780762413377],["Rutte",-8.710231652287108],["zorg",-8.71620425165602],["elke",-8.717399152033593],["waarom",-8.721957714511392],["waardoor",-8.722558061632274],["bent",-8.723035318690787],["kant",-8.726536542012113],["programma",-8.726878760271596],["meter",-8.72744241170905],["200",-8.727631774339198],["gebruikt",-8.727935674607252],["Hier",-8.728749353710148],["plek",-8.729812974250553],["miljard",-8.73068780548201],["situatie",-8.733301352913617],["gelijk",-8.734723930951734],["liggen",-8.739126400434724],["periode",-8.73998882302227],["nieuws",-8.740023699886944],["zoveel",-8.742120210537902],["oud",-8.74217001007619],["é",-8.745735303139483],["der",-8.748760184979579],["punten",-8.753688473628308],["dood",-8.760088504154746],["valt",-8.760354445081239],["ploeg",-8.763419529974875],["beleid",-8.765569190264905],["boeren",-8.769548368505381],["100",-8.7789014974379],["helpen",-8.780768055482735],["dienst",-8.781185685790817],["12",-8.78166574003348],["start",-8.782911473126482],["18",-8.783412558269593],["welke",-8.784671555495837],["it",-8.785517138138605],["hoog",-8.791249677489073],["zelfde",-8.791942005761511],["50",-8.792059882625864],["25",-8.794634527121737],["school",-8.796525640993334],["richting",-8.799242240882519],["zaken",-8.801280019350395],["zomer",-8.807308951740726],["organisatie",-8.809080752051049],["Waar",-8.810380822336658],["beteken",-8.812386318352106],["derde",-8.815685712778748],["ieder",-8.815735496803274],["&",-8.81772700033613],["moeder",-8.820462684398459],["loopt",-8.821195430494692],["niks",-8.821273909604574],["leggen",-8.821976768328126],["maatregelen",-8.824568262571258],["bezig",-8.824609157183104],["houdt",-8.827746986858836],["lijk",-8.8278473924383],["daarom",-8.82994350620876],["kopen",-8.830458466290164],["hoop",-8.830939039666646],["zeer",-8.836754053319531],["direct",-8.836850533940694],["systeem",-8.8395147766121],["huidig",-8.844336958129201],["flink",-8.845278552799215],["00",-8.846822060976272],["Amsterdam",-8.847941350239914],["gevolg",-8.848276524005037],["Mijn",-8.849944359229621],["wa",-8.850589597910767],["lekker",-8.851009826397231],["Want",-8.852226232659874],["17",-8.853044013827944],["Duitsland",-8.855814909844607],["daarna",-8.8564013455151],["kleine",-8.856814925144917],["vertelt",-8.857406693148674],["groter",-8.857557340411857],["Toen",-8.859595079954008],["re",-8.861315581302257],["ouders",-8.86440375976708],["wege",-8.864736156950773],["politiek",-8.864818867634039],["langs",-8.865804867545178],["iederee",-8.866095263111603],["helem",-8.866733099161358],["Russen",-8.86966790952961],["beeld",-8.872148072523435],["grond",-8.87262021391431],["dollar",-8.87291339978212],["net",-8.873373942722615],["vorige",-8.87479952949793],["meeste",-8.876803863017503],["leuk",-8.877862974977884],["precie",-8.88076151367238],["16",-8.885120176807021],["honderd",-8.88737903504408],["China",-8.892574505827017],["regio",-8.894752806336612],["ochtend",-8.89546391828628],["partijen",-8.895486634955846],["nooi",-8.898789607252297],["relatie",-8.899663293648008],["gek",-8.901749047270567],["regen",-8.902946338064167],["onden",-8.903298190744419],["Wie",-8.906067370854625],["actie",-8.909988794475485],["2020",-8.911956711906017],["klaar",-8.91301055588254],["cijfer",-8.913313909081966],["Wel",-8.914672209951416],["sector",-8.914854690178899],["gebracht",-8.917257734436811],["regel",-8.918811422743426],["oplossing",-8.919104865932937],["enkel",-8.919346812127081],["Aan",-8.91960828089936],["meerdere",-8.92147199217608],["soms",-8.92283597032322],["centrum",-8.923069307958608],["gevallen",-8.924190083432737],["finale",-8.924272394690123],["hulp",-8.929594614230485],["21",-8.931906629992675],["inflatie",-8.932533118807836],["pen",-8.934581192140174],["waarschijnlijk",-8.93824747868159],["rechter",-8.938483489316225],["kilometer",-8.939414509337267],["klein",-8.940158910214826],["Toch",-8.940210180713123],["middag",-8.941098913148462],["veld",-8.942006107525291],["rechts",-8.942023418593521],["sociale",-8.942113878818235],["verdachte",-8.94296834885641],["vallen",-8.94413294569165],["tien",-8.95369167774711],["zoude",-8.954364933508149],["zeg",-8.958877107129391],["wer",-8.960123239697282],["rest",-8.96057217958198],["men",-8.961276529036201],["gedrag",-8.963422794977507],["rekening",-8.96444511991113],["vader",-8.967800895865883],["blij",-8.968845191156099],["VS",-8.973185329193964],["gesloten",-8.975414414471398],["klimaat",-8.975676092335492],["dezelfde",-8.975763719502854],["iedere",-8.977307670662517],["The",-8.978100392412088],["Groningen",-8.979569574363499],["moeilijk",-8.980942048191118],["minuten",-8.982675246072347],["doel",-8.985657491649656],["gevoel",-8.986099608498826],["ziekenhuis",-8.986766104032439],["horen",-8.987327636549388],["jonge",-8.991747412756762],["strijd",-8.992072216239894],["Verenigd",-9.001219939799867],["aarmee",-9.003815228109453],["bank",-9.004558446733856],["jij",-9.005111504182228],["toekomst",-9.006582761688339],["24",-9.006592210762657],["reactie",-9.007193204104176],["trekken",-9.007599361105537],["vorm",-9.007787955994838],["beide",-9.008013876713843],["gemiddeld",-9.008243393999686],["duizend",-9.008422772997529],["ga",-9.00932603163674],["vervolgen",-9.01038408674194],["gen",-9.010582374344356],["Duitse",-9.012893989666933],["betrokken",-9.013177160802918],["voorbij",-9.015081420173516],["slag",-9.016064036115058],["dingen",-9.021124778903113],["bleek",-9.021482666656333],["slechts",-9.0220881519386],["helft",-9.022637505836071],["brand",-9.022895702903035],["buurt",-9.023871125816424],["medewerker",-9.025694691296351],["muziek",-9.026457655207317],["zag",-9.027181999547626],["elk",-9.027811014968801],["voorzitter",-9.02804474823639],["nummer",-9.029634233803826],["voel",-9.029777610761226],["€",-9.031225676798234],["vroeg",-9.035541364625121],["bijzonder",-9.035671203514681],["’,",-9.037610639724141],["Kamer",-9.038432432862853],["sommige",-9.039391071274483],["zoek",-9.039681863374572],["pakken",-9.040224033035198],["én",-9.040630040183832],["niveau",-9.041032604661748],["niemand",-9.04378240370744],["nacht",-9.048369532032813],["weekend",-9.048576502865064],["11",-9.050803843859367],["punt",-9.051488392554283],["meld",-9.052328415303656],["kind",-9.055012214486297],["stelt",-9.055836620045351],["belasting",-9.057400684794366],["wachten",-9.059660066771048],["zat",-9.061531303190765],["België",-9.062433198425893],["aanwezig",-9.062493468156642],["wind",-9.064910994688812],["neem",-9.065057237470604],["eeft",-9.065544225585317],["dicht",-9.066130291995496],["januari",-9.066430845314908],["delen",-9.0672034958561],["aandacht",-9.073822672725473],["boek",-9.074624455737013],["slecht",-9.075581354786568],["woordvoerder",-9.077745535607],["liet",-9.078958595140744],["22",-9.079268803756626],["Geen",-9.08045806503469],["half",-9.080774837721059],["gebeurt",-9.08149991416342],["sterk",-9.085557293070087],["FC",-9.086571444770577],["olie",-9.087330914478782],["begon",-9.087481289156788],["mooie",-9.087600589716228],["lezen",-9.087936116574172],["40",-9.08855520993051],["rij",-9.088571110922302],["14",-9.090439649039414],["terecht",-9.090484775429935],["functie",-9.091531304963087],["schade",-9.096163539068247],["vakantie",-9.100786055071637],["gezegd",-9.101719164993195],["gezet",-9.102778554981665],["ë",-9.10372938986227],["komend",-9.107471658555026],["eer",-9.116696455125076],["x",-9.118215254982239],["hu",-9.122720488254197],["grens",-9.128022102678575],["verkiezing",-9.129353308940939],["beelden",-9.130783861474821],["rgens",-9.133600653281968],["voldoende",-9.133639880270678],["Uit",-9.133642321648594],["mocht",-9.134591143027318],["Jan",-9.13604747013199],["beginnen",-9.136281936119154],["vinde",-9.136386587098048],["oude",-9.138016976284778],["voetbal",-9.138699734254349],["bied",-9.139026570118029],["risico",-9.140261864378886],["gesprek",-9.142139488896566],["winst",-9.142523416040131],["voorkomen",-9.144448006424353],["einde",-9.145224239430874],["denkt",-9.14581366463145],["lange",-9.145817679712838],["ven",-9.146337939848348],["Onder",-9.146741857748918],["planne",-9.14790295806866],["Noord",-9.150453100490909],["informatie",-9.15064685597239],["Veel",-9.151422605634604],["strak",-9.151510189711878],["ulli",-9.153477748440206],["slachtoffer",-9.154811069009142],["verantwoordelijk",-9.156093981104402],["speelt",-9.156596850400737],["Vlaams",-9.15830778064307],["handen",-9.15838810012599],["verschil",-9.15917723393688],["gesprok",-9.159212278732335],["juni",-9.16020561997301],["Franse",-9.160475138018867],["ari",-9.161198945275117],["stand",-9.161664269350306],["winnen",-9.16263796884775],["Britse",-9.167091689885485],["fiets",-9.168592947838125],["personeel",-9.17096760680539],["Over",-9.172967273361532],["lijst",-9.173158694284545],["sport",-9.174217389621116],["begint",-9.17437369097878],["500",-9.174658471470003],["film",-9.175410879085057],["crisis",-9.177578299243185],["geha",-9.177756971241976],["deur",-9.182391282664673],["leger",-9.18385904230729],["len",-9.184032496918082],["publiek",-9.184195080436904],["Belgisch",-9.18463648223964],["vertrouwen",-9.186820927683872],["VVD",-9.187755156491017],["gebeur",-9.188172503914492],["D66",-9.19035960299601],["zoeken",-9.193200668768277],["september",-9.193723160474793],["hoeveel",-9.196263733170126],["wonen",-9.197252547395195],["13",-9.197317376279189],["neer",-9.197682731863354],["lager",-9.198766696283743],["natuur",-9.198898674524724],["Tot",-9.19943930748631],["won",-9.1994758952528],["waarde",-9.20198903512453],["kost",-9.20332590638499],["online",-9.203332883665354],["wegen",-9.204441922466277],["Da",-9.20570836395534],["halve",-9.20695519731078],["Alleen",-9.207092642195498],["anderen",-9.207541375928585],["Is",-9.207591850163322],["liep",-9.209471710942626],["bedrag",-9.212609254362237],["gebruike",-9.213043301086453],["klanten",-9.213431304782844],["elektrisch",-9.214064093558562],["uren",-9.215464606257672],["Sinds",-9.215532364687142],["Daarnaa",-9.215747454086678],["vluchtelingen",-9.218159119508613],["international",-9.219285572674305],["personen",-9.220819798816049],["bestaa",-9.220845107199674],["voormalig",-9.220971435906357],["locatie",-9.22148139176252],["premier",-9.224573312624774],["sprake",-9.226320596610346],["hoeft",-9.228304993986255],["spel",-9.229735997076709],["23",-9.230867240711717],["militaire",-9.231785980347787],["lucht",-9.231870691650167],["links",-9.233285036250166],["gaf",-9.238805103183179],["steun",-9.240119664732877],["gewee",-9.24118467695181],["Zuid",-9.244142829783943],["lever",-9.245060068752986],["project",-9.245282175105416],["gang",-9.245328247945501],["ho",-9.245963616340834],["Haag",-9.246969127649978],["stemmen",-9.248669661759674],["ja",-9.248734366129975],["eten",-9.249374007555128],["rechtbank",-9.25115819428851],["ebru",-9.25181806005586],["enorm",-9.252396944596963],["prima",-9.253778254088814],["belang",-9.254344114049657],["video",-9.254458815116662],["stroom",-9.254636567753066],["dacht",-9.257093002778582],["macht",-9.258483750978876],["Frankrijk",-9.25870882511364],["roepen",-9.260198069632349],["normaal",-9.260562978715704],["zware",-9.260955853653488],["lijn",-9.261725780935027],["woord",-9.264011120795908],["ogen",-9.264875874913947],["contract",-9.26602865915519],["aange",-9.266843395972964],["studenten",-9.26782928363125],["volk",-9.269128263125605],["ministerie",-9.271944155620083],["economisch",-9.272256841773789],["liefst",-9.275291519246956],["omgeving",-9.27547292613076],["rust",-9.275488489028094],["inwoners",-9.276242659635226],["opge",-9.27633543331497],["stoppen",-9.27964181091372],["kamer",-9.279803649802044],["spraak",-9.282669101548876],["League",-9.283090088940083],["keuze",-9.283371188095844],["bepaalde",-9.283817795591304],["Ter",-9.283826580968114],["afstand",-9.284042099180162],["directeur",-9.285375650538617],["korte",-9.285784604390278],["Ajax",-9.28804597320784],["viel",-9.288676075090283],["persoonlijk",-9.290036291435193],["80",-9.292256092863058],["mis",-9.292528836307785],["ontwikkeling",-9.292682895934036],["Net",-9.29380887064078],["termijn",-9.293976202527823],["CO",-9.295750702882405],["contact",-9.29619189174337],["baar",-9.297250291273503],["Nederlanders",-9.297534385889438],["geweld",-9.297780189700887],["betref",-9.29813403822293],["collega",-9.298551172199126],["schrijft",-9.299342390690697],["hoogte",-9.302610419988827],["Misschie",-9.303894159436165],["zwaar",-9.303999089032327],["Twitter",-9.305744665488007],["ktober",-9.307027620908503],["noem",-9.30733017935647],["liever",-9.30742355237281],["voeren",-9.307767336547945],["aldu",-9.308246368024406],["eel",-9.308706564713411],["jouw",-9.310840696829402],["winkel",-9.313023828744107],["zes",-9.316109388100486],["jongeren",-9.317524350598632],["spelers",-9.318162464922622],["Di",-9.31915492284898],["plaatsen",-9.319351852436185],["legt",-9.319521832946736],["stappen",-9.32073820799132],["Heb",-9.320862382107695],["bevolking",-9.320873527371372],["trein",-9.321335389911594],["hart",-9.321692965848165],["juli",-9.325089252140824],["politieke",-9.325836574742421],["Ben",-9.32649942991726],[".’",-9.331774554279686],["groei",-9.332754569109678],["los",-9.33415213929656],["gratis",-9.334655207649377],["antwoord",-9.33488926390128],["bezoek",-9.335021471495857],["belangrijke",-9.336795723987862],["schrijven",-9.337338890504014],["positie",-9.337459479957651],["pnieuw",-9.337923274459706],["persoon",-9.338218895783172],["dochter",-9.33984199039806],["wist",-9.340328207353775],["camera",-9.342168623669345],["vlak",-9.342665068292495],["diensten",-9.343646554949107],["lokale",-9.343733437201923],["doe",-9.344218669757865],["melding",-9.347544907696953],["Nog",-9.348056333815567],["twintig",-9.349070435397],["productie",-9.352733902785047],["succes",-9.352799044161983],["producten",-9.352833232922894],["NAV",-9.352917078430274],["zoon",-9.353332392334224],["proces",-9.35502144149898],["politic",-9.357627216301346],["artikel",-9.358278365942315],["november",-9.358804453125577],["besluit",-9.358998309112971],["economie",-9.359387672492854],["ster",-9.360206186698681],["Staten",-9.361693891468452],["provincie",-9.362917147874718],["huizen",-9.36493584068648],["Mark",-9.366010935669951],["grade",-9.366071855700174],["kracht",-9.366383557243799],["klink",-9.367723915516448],["gingen",-9.367726798401234],["trainer",-9.370954491591576],["voorlopig",-9.371486907318976],["Tijden",-9.371978216589657],["Verder",-9.372540581069476],["maatschappij",-9.37262750852723],["spreken",-9.373629591359599],["cultuur",-9.376508025649223],["maa",-9.376833152646892],["leren",-9.377547964826572],["Twee",-9.379262501671919],["rapport",-9.379615629906393],["35",-9.37965914366513],["vele",-9.38137430349688],["morgen",-9.383518127135318],["serie",-9.383704619037717],["koers",-9.384033965899068],["ingen",-9.385659969901003],["race",-9.386196452960583],["Trump",-9.387081855473449],["uw",-9.387291845455984],["wijk",-9.387818734579225],["verlies",-9.389194665179446],["financië",-9.390178484548159],["mens",-9.390950134483749],["tje",-9.392403109483551],["ervoor",-9.393113583860899],["gehoude",-9.393857026765911],["Brussel",-9.394345318310446],["leef",-9.395401935660942],["Alle",-9.397369772694375],["voertuig",-9.39795887721997],["woorden",-9.399982914285651],["leider",-9.401825369333832],["sturen",-9.403028214036294],["baan",-9.4043936403851],["burgers",-9.404945528783063],["toernooi",-9.40617706988973],["geschiedenis",-9.407230513722322],["advies",-9.408461085443564],["slot",-9.409877312842042],["bouwen",-9.41191232136515],["kennen",-9.412978549524595],["tegenover",-9.415543931381832],["geraakt",-9.415807041618844],["vlucht",-9.417237025280048],["band",-9.417948396014939],["PS",-9.425177102994198],["begrijp",-9.42550810639747],["rs",-9.427376034788239],["lastig",-9.428689295149407],["um",-9.429155439947817],["daarvan",-9.429417111818449],["dorp",-9.43000045826443],["sneller",-9.430834794058352],["verwachting",-9.431127282102633],["zeven",-9.431642988065313],["eemt",-9.432256563531531],["Antwerpen",-9.432639985380892],["april",-9.43382804018175],["dagelijks",-9.433984031500344],["last",-9.436600335820966],["iPhone",-9.43820786643499],["mening",-9.439084284386482],["bericht",-9.440433591784986],["tekort",-9.440468988399244],["veilig",-9.442151115872576],["Mensen",-9.442678436521994],["slachtoffers",-9.443862578638207],["december",-9.444357774893561],["bouw",-9.444434516161547],["burgemeester",-9.444483310968183],["oor",-9.445196785356083],["verkeer",-9.445855630207175],["gesteld",-9.445873193345747],["aa",-9.446172836364141],["versie",-9.44644984292233],["opvang",-9.446829238804048],["hield",-9.44731908622487],["geloof",-9.447490093816539],["kijkt",-9.447524315550357],["overigen",-9.447589713977676],["jou",-9.4490548709333],["ouden",-9.449180611542335],["gehaald",-9.449208880973986],["verandering",-9.44923147376019],["noemen",-9.449349038590974],["aardoor",-9.450406938576624],["praten",-9.452166362985388],["feit",-9.453398410134128],["fout",-9.454560926197724],["platform",-9.454575487118877],["kwaliteit",-9.454996588992529],["tafel",-9.45499914976508],["wagen",-9.455654108160722],["winter",-9.456004091367486],["website",-9.458156871153466],["trokken",-9.459198958601412],["raakte",-9.459733507858154],["kozen",-9.459975548386787],["scherm",-9.460339716043716],["model",-9.461285031195601],["60",-9.461345970502862],["OS",-9.461403894330047],["Tweede",-9.461517734310352],["woon",-9.462456077701335],["vrienden",-9.463912608591151],["speelde",-9.465282307381422],["heden",-9.46637160827247],["dragen",-9.468573998826695],["ervaring",-9.470396956655307],["zorgt",-9.470671953675748],["ve",-9.47251125271469],["daarme",-9.474123437274507],["70",-9.474231366508013],["Chine",-9.47471050053317],["enorme",-9.477025380285243],["oeten",-9.477831733065095],["kwartaal",-9.478339602269976],["Verstappen",-9.478873519441748],["lichaam",-9.479654713521647],["draaien",-9.480284608597636],["schuld",-9.483945540087591],["gevraagd",-9.489723986303963],["getroffen",-9.490072514240032],["leeftijd",-9.490141427861616],["verleden",-9.491921685739047],["sprong",-9.493189782515271],["stikstof",-9.493257842695296],["Oost",-9.494327214809894],["veiligheid",-9.494464436205824],["bestaan",-9.494526185821272],["ex",-9.49499091451888],["NL",-9.495605915010245],["pandemie",-9.500090076388869],["tijdelijk",-9.502157881325362],["raad",-9.502838196842491],["sluiten",-9.503331700529944],["ugust",-9.503411306886484],["â",-9.503485571068328],["se",-9.504016570883056],["Rotterdam",-9.505671130492395],["laag",-9.506102410694858],["vierde",-9.507511616489511],["belangrijkst",-9.509131602006114],["waarvan",-9.51002805815582],["park",-9.512282766882432],["verkoop",-9.512582678434551],["27",-9.513117117044008],["90",-9.513877617438752],["samenleving",-9.515915307052431],["verkopen",-9.515952907826712],["post",-9.5173797779019],["sanctie",-9.517407057097024],["titel",-9.51813567760927],["overleden",-9.518669696820997],["stap",-9.519503651765493],["voelen",-9.520269910939522],["sche",-9.520878799021876],["beslissing",-9.521878197376445],["reed",-9.521969717438543],["wapens",-9.523915101880018],["controle",-9.526748090092026],["kieze",-9.526995938504593],["bestuur",-9.529295427737152],["zen",-9.529886603475152],["28",-9.530172498139502],["kaart",-9.530875127392111],["ondank",-9.531695601076843],["samenwerking",-9.532053353251985],["weest",-9.532065482961134],["Waaro",-9.532072582986565],["rente",-9.532302574595342],["makkelijk",-9.533151547597631],["Onze",-9.533911889078661],["gegevens",-9.534293688417561],["leiden",-9.536855414571534],["eindelijk",-9.536957775625106],["echte",-9.537158185970283],["actief",-9.538574449368816],["motor",-9.540277920419665],["tegenwoordig",-9.540736483341934],["prob",-9.541498718385228],["onderzoeker",-9.541961778254175],["26",-9.542529188942815],["begonnen",-9.542704953821275],["Max",-9.543921844559817],["overal",-9.545492754049967],["akkoord",-9.546944105678994],["allerle",-9.548112805584804],["ot",-9.54812335786076],["as",-9.549237158784152],["verbod",-9.549471200349764],["ronde",-9.550555362962818],["oog",-9.552539504009797],["beschikbaar",-9.553471363876561],["bewoners",-9.55410877142154],["aard",-9.554741986399677],["burger",-9.555035207161659],["Nou",-9.556187024972557],["tjes",-9.55656640524327],["loop",-9.558297473538145],["Utrecht",-9.559054121750208],["jes",-9.559588205958406],["leiding",-9.560329208387234],["sloot",-9.561572900485535],["immers",-9.562229169121348],["telefoon",-9.562826606911063],["Eerder",-9.56995094944001],["werknemers",-9.57073771600174],["invloed",-9.570980755669815],["vroeger",-9.571075104867433],["patiënten",-9.571191469272001],["wi",-9.571343421874598],["vliegtuig",-9.572138414799616],["Kan",-9.574028700323566],["trouwens",-9.576475353455066],["45",-9.577445710467503],["asielzoekers",-9.577525287527639],["Naast",-9.578044751721302],["eken",-9.579805820746909],["Vorig",-9.580068933776131],["omzet",-9.581378133821715],["Vlaanderen",-9.582174098020854],["ch",-9.582339931391019],["afgel",-9.585216653965212],["brief",-9.585390709566612],["ton",-9.585648305642454],["kerk",-9.585972265948243],["kijk",-9.586628918739247],["name",-9.5871835886031],["generatie",-9.587478315826583],["Daarna",-9.589159680337705],["dieren",-9.5892040769271],["vertelle",-9.58925820803319],["’.",-9.589600788122596],["wereldwijd",-9.590101550295692],["merken",-9.592779731977197],["bewust",-9.593355872519883],["geldt",-9.593360428291675],["positief",-9.595797702824557],["draagt",-9.596367179907002],["plekke",-9.596634065513728],["gebeurd",-9.5973643690714],["industrie",-9.597660344584803],["kennis",-9.598286406089327],["+",-9.598287678387424],["verklaring",-9.598436712017778],["gebeurde",-9.59871043071454],["aandeel",-9.598855610387853],["Tour",-9.59929905737221],["commissie",-9.601843675192994],["fans",-9.602072134690342],["ha",-9.603821910571064],["duurder",-9.604186015071203],["aanval",-9.604292051750585],["lag",-9.604597390500288],["probeer",-9.606214276194528],["overwinning",-9.607705696240314],["Oranje",-9.608892005070953],["vertelde",-9.609174151450489],["coach",-9.609288093723919],["Iedereen",-9.610054867567982],["duel",-9.61190511356833],["poging",-9.611919887922891],["oals",-9.61446184383646],["midden",-9.615656307133495],["straf",-9.616878413545503],["Nederlander",-9.617294091143906],["volgt",-9.618073930355603],["stil",-9.618735491510341],["nam",-9.618815903202233],["brandweer",-9.619490606744964],["kritiek",-9.61993655241172],["expert",-9.61997792650277],["merk",-9.621774636778571],["kwestie",-9.623957027437552],["sprak",-9.624047675639265],["duur",-9.624385450433994],["tekst",-9.625390244032005],["kwijt",-9.627528607627502],["gelukkig",-9.627697884546862],["Vooral",-9.628080922905088],["X",-9.628409228638006],["verkocht",-9.628470739049114],["maxima",-9.62902553761866],["La",-9.629159744674938],["drugs",-9.629539173884742],["sch",-9.630700580646725],["fijn",-9.63125149105879],["krant",-9.632344259414193],["berichten",-9.633311675477302],["West",-9.633732776257226],["simpel",-9.6338953584909],["mo",-9.634879564936558],["gewon",-9.637667974578834],["TV",-9.638159412891397],["Be",-9.638746116522352],["hoogste",-9.638754432968087],["bal",-9.63906846789806],["qua",-9.639477617281358],["zin",-9.639783379540443],["val",-9.640989379010534],["dien",-9.641498034143753],["mogelijkhe",-9.64228981572094],["virus",-9.644711806129132],["organisaties",-9.645081781281789],["omstandighe",-9.645275049592875],["vriend",-9.647105917148144],["volle",-9.647143593392268],["feest",-9.647569634128239],["gewerkt",-9.647703007371469],["middel",-9.648949711645898],["aarvoor",-9.649914833484655],["pensioen",-9.64998967961117],["bestaande",-9.65106292932008],["angst",-9.65187716615264],["Zaken",-9.652516433481075],["vergeten",-9.653004407678198],["onge",-9.655543998499548],["29",-9.656833760503567],["Vandaa",-9.657458278291724],["Biden",-9.657480589678457],["idee",-9.658701701094044],["Frans",-9.661057134976947],["est",-9.661239097890402],["inderda",-9.662004176865935],["behoorlijk",-9.66304692003785],["namen",-9.664495245959788],["Suriname",-9.6659232112554],["bewijs",-9.666352758955579],["boete",-9.668000409682087],["gisteren",-9.669389730805431],["Rond",-9.669571479151946],["vermogen",-9.669927518705926],["stem",-9.670012223212712],["keren",-9.670783702120673],["wan",-9.673376426063001],["genoemd",-9.673410040963788],["bracht",-9.673588938860224],["OM",-9.674169161139234],["wijze",-9.674280210554585],["krege",-9.674357467832115],["eigenaar",-9.676003351238858],["vrijheid",-9.67751807554437],["gezicht",-9.678028696072957],["definitie",-9.678198701717276],["Kaag",-9.678428774073712],["Nee",-9.680167997977684],["moe",-9.68214497452291],["snelheid",-9.682532899625912],["stijging",-9.683045299888406],["selectie",-9.684782300283796],["jeugd",-9.685858104405735],["edereen",-9.687587129930126],["sta",-9.687813673306852],["wijzen",-9.687838788912352],["bepaald",-9.688520368882093],["massa",-9.689764403858984],["Zelfs",-9.690002240575701],["variant",-9.690195085844882],["interview",-9.691641594409633],["plein",-9.69394894495223],["gezin",-9.694904614697013],["bezoekers",-9.695342236316128],["algemeen",-9.696457418836275],["ervan",-9.696817771381756],["veranderen",-9.696829386987332],["ijn",-9.697118477271372],["raken",-9.698785577597015],["liefde",-9.699739788958851],["hangen",-9.699853866907716],["onderwijs",-9.70133204040318],["meerderheid",-9.702241772595414],["verlo",-9.7037082585448],["moeite",-9.70459461637424],["tuin",-9.705486986361006],["Sint",-9.705595448123939],["netwerk",-9.705969631121846],["gebouw",-9.706894538805923],["erop",-9.707428240362354],["centrale",-9.709232219637002],["milieu",-9.711673971105586],["koop",-9.714191927760513],["jaarlijks",-9.714402582151632],["Ga",-9.716578894513734],["populair",-9.716859960212034],["ische",-9.717151425820726],["bang",-9.717356980640613],["code",-9.720103767207814],["ziekte",-9.720612748945648],["leek",-9.720763723222948],["witte",-9.720909077958968],["afhankelijk",-9.721043371182205],["uwelijks",-9.723002494672633],["training",-9.72492505683573],["gevaar",-9.725826867250463],["verhalen",-9.72818710229731],["Google",-9.730148920915072],["Unie",-9.730419190995367],["bestuurder",-9.730684529999378],["es",-9.731634275768208],["groen",-9.732125612163179],["gewone",-9.732170187926938],["reeks",-9.732429411876456],["speler",-9.733477520029869],["kunst",-9.733917595873908],["reis",-9.734084326237152],["verliezen",-9.73675141625656],["75",-9.736826458088368],["Pro",-9.738366309336849],["optie",-9.739233700439582],["spreekt",-9.74000779677064],["zwart",-9.740141955296995],["nou",-9.740413034521204],["nie",-9.740665977033277],["Feyenoord",-9.7429513403432],["regelmatig",-9.744955694643654],["ontvangen",-9.745085933659288],["pijn",-9.745871831991776],["tegelijk",-9.746013929489331],["deels",-9.746184651491378],["Ho",-9.751266919476175],["optreden",-9.753766728312888],["incident",-9.75398097093478],["levert",-9.756375660526936],["vraagt",-9.756391157373319],["Wanne",-9.757236794694059],["gelegd",-9.758126678747871],["gewond",-9.758845229817048],["co",-9.759992613644389],["national",-9.760137657444897],["Jong",-9.760149262342242],["Pas",-9.760406448905563],["gericht",-9.760561463007019],["zagen",-9.762565438195349],["schree",-9.7626900038901],["temperatuur",-9.762720619234395],["seconde",-9.762798205347295],["test",-9.762936024151443],["ontstaan",-9.76338393863714],["podium",-9.764005277592679],["beroep",-9.764614768023716],["gebruikers",-9.765047778608109],["ële",-9.765071159103574],["bloed",-9.766834708715047],["betaald",-9.767582382703885],["helpt",-9.769860067467679],["momente",-9.770636856473601],["kleur",-9.771548208115519],["orde",-9.772212270527309],["mond",-9.772226261560515],["show",-9.772262477224196],["aandelen",-9.77228999817731],["operatie",-9.772661241361291],["hel",-9.773190772946451],["ongeluk",-9.773486110311415],["eeuw",-9.77416043628288],["geheel",-9.776864548889574],["loos",-9.777462109600908],["cel",-9.777530699475898],["vuur",-9.7776798830437],["buitenland",-9.779344698880049],["voren",-9.781194691593459],["geloven",-9.781504812018365],["doden",-9.782023417041682],["vak",-9.782091846908408],["beurs",-9.782442442926566],["nood",-9.782868166154213],["vaccin",-9.78342542892322],["voordeel",-9.783608286135147],["Europees",-9.783904827339713],["boeken",-9.784119337989384],["bus",-9.784724069340108],["leid",-9.785494223071304],["erd",-9.787482392388231],["minste",-9.788383212502971],["taal",-9.790654383406734],["blauw",-9.790696765982217],["prachtig",-9.790957708017743],["maak",-9.792440227130875],["stel",-9.79253693785094],["advoca",-9.792906097765037],["goud",-9.792967477250187],["Schiphol",-9.79392121810763],["dergelijk",-9.794111447779912],["kamp",-9.794229679864188],["Spanj",-9.794230829074095],["Musk",-9.794880376667006],["standaard",-9.795221152068272],["omhoog",-9.79531255894932],["Ma",-9.797246296645534],["Afrika",-9.798654346932437],["Qatar",-9.799215614014438],["technologie",-9.801297356010089],["baas",-9.802870953040745],["Q",-9.802999939703065],["carrière",-9.804055089892248],["verdienen",-9.804380927073165],["Ge",-9.805195858280673],["Meer",-9.806025359041223],["elukkig",-9.80636761504627],["groeien",-9.80747499720784],["schap",-9.807658011669231],["festival",-9.808459834868595],["studie",-9.80893280252794],["hoeven",-9.810540474928988],["boom",-9.810669671618435],["verschillen",-9.81083920418701],["zette",-9.811357503205414],["Zeker",-9.81140030918981],["museum",-9.811943004927116],["diverse",-9.812845972202952],["Berg",-9.813720963963362],["type",-9.814965787019975],["waard",-9.815972345132568],["vrije",-9.81598154767098],["klachten",-9.817223255133968],["gebrek",-9.818136068517777],["geweldig",-9.819952792234766],["terrein",-9.820325802157422],["scholen",-9.820949353331867],["meisje",-9.820971004332248],["wapen",-9.821791397890346],["verbruik",-9.822073012474846],["Le",-9.822987567769134],["slagen",-9.823486902376526],["effect",-9.824282268817015],["vlees",-9.824493575058728],["vormen",-9.825565761478993],["melden",-9.82684196226035],["bedoeld",-9.827839351979655],["update",-9.827912360766003],["papier",-9.828317847865348],["serieus",-9.828619170632049],["ingezet",-9.828776322387393],["debat",-9.829038731436686],["Polen",-9.831365478284955],["hopen",-9.832437253104725],["John",-9.83304791570551],["or",-9.835298910883665],["afdeling",-9.835917967355034],["haalt",-9.83632476040579],["rode",-9.836362339911934],["geleverd",-9.836729917767643],["jongens",-9.837364378845084],["fabriek",-9.838124226943142],["hotel",-9.838371557011975],["Zou",-9.838376334291862],["ouder",-9.838979333753468],["resultaa",-9.839029630653984],["raden",-9.840737571863624],["troepen",-9.840816171374158],["autoriteit",-9.84203028020639],["steden",-9.843075191321415],["gewe",-9.843148634461144],["Open",-9.843362147300695],["discussie",-9.843706218945735],["Sommige",-9.84459603136214],["geluid",-9.844993632240637],["New",-9.846204347993494],["hoopt",-9.846728675129],["bekijk",-9.84680371603837],["onderwerp",-9.847312616818519],["geplaatst",-9.847855504069681],["stelde",-9.848470180631901],["Amerika",-9.850567316596823],["voorzien",-9.850594580835148],["ën",-9.852695168298158],["comple",-9.852871820662669],["verdacht",-9.853155278247986],["Parijs",-9.853630867574331],["twaalf",-9.853992713877926],["modellen",-9.854269419289036],["geboren",-9.855009938644228],["voedsel",-9.855118770841797],["rug",-9.855980017309498],["lijken",-9.858096875714097],["kop",-9.8581659853494],["brug",-9.858370975533362],["activiteiten",-9.858957260357535],["schieten",-9.85929480598659],["blijkbaa",-9.859861661651223],["regeling",-9.860255167692777],["passen",-9.861043398271434],["record",-9.86113677191095],["Air",-9.861563370539393],["gespeeld",-9.862187701442387],["moord",-9.862280897285725],["zwarte",-9.862505984651193],["kampioen",-9.862667374128321],["trekt",-9.86317615037177],["Boven",-9.86418155133148],["Peter",-9.866644624245003],["resultaten",-9.867186534953198],["miljoenen",-9.868145309189865],["hangt",-9.87025370026512],["Mercedes",-9.870894436778434],["bureau",-9.871057618423244],["impact",-9.872030981029011],["opdracht",-9.872035029427769],["internet",-9.874018382900545],["banken",-9.874461707963608],["apps",-9.875352052718274],["warm",-9.875537838092676],["Laat",-9.876114014164513],["kantoor",-9.876586665798094],["Tesl",-9.87701293248469],["nderdaa",-9.878819145922359],["PvdA",-9.87987286777856],["broer",-9.88024892931507],["minima",-9.880630108262672],["baby",-9.882792226707256],["aanbod",-9.883101631937727],["genieten",-9.883343566957484],["gelaten",-9.884280571891493],["gehoord",-9.885076855694212],["verband",-9.885732939674451],["uitge",-9.886520147661539],["fase",-9.886596490582582],["Sport",-9.887678733176122],["rijdt",-9.888196687209035],["minuut",-9.89003130104713],["199",-9.890212474431827],["slapen",-9.890317507219288],["hout",-9.890370513588042],["lid",-9.891713174565036],["veroorzaakt",-9.891904327066195],["deelnemers",-9.892441313022104],["Grote",-9.892632334771713],["oo",-9.892668168347857],["ding",-9.8926923817594],["jongen",-9.89285068856222],["kapot",-9.8929627995754],["jarenlang",-9.893056462527237],["opzichte",-9.893460707784003],["33",-9.893513613710656],["supermarkt",-9.894150070455733],["Som",-9.894755610558274],["verschijn",-9.89518712437394],["lees",-9.895850903454253],["invasie",-9.89600755883951],["gebouwd",-9.89721879639107],["Willem",-9.897285603787164],["Kijk",-9.897775016416436],["filmpje",-9.898238773845648],["CDA",-9.898524243840676],["2014",-9.900291498370427],["Denk",-9.901729385628283],["laas",-9.901787224015798],["goedkoper",-9.901798821835506],["wijst",-9.902134069108591],["college",-9.902296920685767],["eisen",-9.902592648242422],["product",-9.90417878172343],["dank",-9.904382638069343],["ka",-9.905501058651812],["Kom",-9.906900397110505],["total",-9.907296022557357],["consumenten",-9.908404166982004],["Wil",-9.908520083415802],["tegenstander",-9.908742738735414],["doorgaan",-9.909457759984997],["twijfel",-9.909848486521497],["top",-9.910282268908869],["digital",-9.911274086050096],["slaan",-9.9113890350563],["toegang",-9.91229079793824],["gegaa",-9.91256170733967],["wetenschapper",-9.913403569948677],["past",-9.914095147657225],["esloten",-9.914674926953623],["Red",-9.915367891741603],["haven",-9.916030415562908],["handel",-9.917651658563365],["ok",-9.918215187590974],["wacht",-9.918507782321292],["kleding",-9.91995089468538],["ertijd",-9.920007115310668],["grenzen",-9.921324845713198],["vriendin",-9.922641271237111],["rustig",-9.923061307643678],["steken",-9.923919037969458],["talië",-9.924135975947202],["vliegen",-9.924202123214762],["stukje",-9.926458765934509],["leeg",-9.927615312766179],["gooien",-9.93017866444035],["gereden",-9.931237676242844],["criminele",-9.93273438584561],["winnaar",-9.933842957685684],["praktijk",-9.934939046984505],["werkelijk",-9.935203488883257],["daadwerkelijk",-9.93554408659869],["voet",-9.936206859048175],["Ver",-9.936226982610007],["conflict",-9.93656439696165],["overleg",-9.936585830322858],["Even",-9.936757522717311],["officie",-9.936823598025335],["westers",-9.937057134530715],["stijgen",-9.93730952798909],["beperkt",-9.937322484024955],["gezondheid",-9.937910048757702],["schepen",-9.939368659280579],["Mosk",-9.940273694482237],["gesprekken",-9.940644723265269],["32",-9.94108596304104],["verzoek",-9.941601331183099],["bier",-9.941945549294104],["Putin",-9.943666120705128],["indruk",-9.943779149920946],["plezier",-9.9441699405916],["aangekondigd",-9.944194779757165],["ineens",-9.944523763277108],["groene",-9.946967034306516],["Kort",-9.947684516621385],["sluit",-9.947924043295002],["beweging",-9.948676303925374],["reizen",-9.950067863535663],["tientallen",-9.950408945824968],["bijdrage",-9.951941043419605],["Bank",-9.952930071451608],["Leiden",-9.953139818213529],["horeca",-9.954185197316981],["kansen",-9.956761918157358],["Alles",-9.958702809497986],["vereniging",-9.958767512945682],["Ro",-9.961841851715036],["ondernemers",-9.962612528319633],["campagne",-9.963471367248966],["reageren",-9.964245365498389],["concert",-9.96444736985531],["pro",-9.965158416814145],["vergelijking",-9.9655509163968],["liter",-9.965694607820659],["atie",-9.96579900635696],["opvallend",-9.965812487282593],["bereid",-9.966109115643185],["toont",-9.966464730837831],["ernstig",-9.966675142628596],["berg",-9.96803172316363],["ra",-9.968075037970959],["nlangs",-9.968205484197313],["budget",-9.968361877535017],["blessure",-9.969651085252064],["komst",-9.971079576286233],["?”",-9.97152310999451],["eerlijk",-9.971807218093321],["feiten",-9.971989885994653],["duren",-9.972850709920971],["partner",-9.97326416415888],["openbaar",-9.973677148742862],["City",-9.973810638284384],["aat",-9.975818735108607],["aker",-9.976206466546731],["trots",-9.976286807338493],["31",-9.976356856749065],["handig",-9.976474823662791],["bomen",-9.976530280471712],["sfeer",-9.977222439881547],["brandstof",-9.978278825480807],["route",-9.97944086960726],["behandeling",-9.980244471541287],["gestuurd",-9.98106810204163],["lukt",-9.98132927034846],["spits",-9.98138475667052],["la",-9.982458811570172],["historisch",-9.98329406352024],["conclusie",-9.983671896974835],["verplicht",-9.983986798254136],["gevolge",-9.984319997006729],["Spaans",-9.984897528618905],["pand",-9.98638768054602],["dertig",-9.98673723256455],["uitstoot",-9.989126148605731],["for",-9.989356337939622],["vertrekken",-9.990360766424462],["zekerheid",-9.991054049767389],["afscheid",-9.992323593498332],["vervangen",-9.992808242719743],["Instagram",-9.992823365546736],["mede",-9.992923705936828],["middelen",-9.993320664679793],["duurt",-9.99335605486879],["BMW",-9.993782331992566],["editie",-9.994353735305372],["US",-9.995582770146754],["Me",-9.998563499226435],["koning",-10.000265857254039],["uiter",-10.000332210053815],["bak",-10.000386994191675],["ag",-10.000595079521595],["westen",-10.000808942735672],["300",-10.001131793209385],["drinken",-10.001497731584898],["draait",-10.002260717073217],["aflevering",-10.004937140186623],["rekenen",-10.00603765392868],["dossier",-10.006978356209565],["acties",-10.007472937615955],["greep",-10.00748232731539],["asiel",-10.008064067176278],["zi",-10.00808695672638],["400",-10.008406996735728],["combinatie",-10.009796730617605],["spoor",-10.010549630780961],["cht",-10.010730528992275],["voorwaarde",-10.010773550231931],["sterke",-10.011117550600336],["kwart",-10.011391652187044],["Formule",-10.011869781167395],["kwame",-10.012640158103459],["eventue",-10.01301618466703],["protest",-10.013403792431381],["Facebook",-10.013980148739002],["ko",-10.014368581748784],["game",-10.01473812011719],["Haar",-10.01537865430835],["letter",-10.015463118926764],["instantie",-10.0158989118057],["Italiaanse",-10.016200895755748],["roept",-10.016255788546125],["spulle",-10.016373388619886],["erbij",-10.016792105426568],["Paul",-10.017300299558217],["veiligheids",-10.017459932137708],["speciale",-10.018280175176983],["droom",-10.018662895883072],["herstel",-10.01975046514928],["EK",-10.02024968315774],["voorstellen",-10.020869627157179],["ongeval",-10.022107699444737],["stuur",-10.02274765281528],["bescherming",-10.023392718715552],["leidde",-10.025187879317384],["broek",-10.025412316700145],["trok",-10.025442254631933],["vertrek",-10.026358069980674],["ro",-10.026595205159936],["wet",-10.026673969753407],["biede",-10.02712476826175],["no",-10.02715462597957],["landelijk",-10.02722865762186],["luchthaven",-10.029074087109532],["adat",-10.029094075865387],["voorstel",-10.029545284807819],["gedacht",-10.030160951122577],["site",-10.030241797020999],["huishouden",-10.030642073466815],["Bovend",-10.031313048321813],["geluk",-10.031572091093881],["anti",-10.032780720649132],["perfect",-10.033509077067404],["democratie",-10.033937520928134],["haalde",-10.034863543757883],["wisten",-10.034898184895173],["ring",-10.035501556852378],["pak",-10.035527679802506],["extreem",-10.035818658185946],["Watch",-10.036072988130373],["hoef",-10.036289931084177],["dikke",-10.037271009384924],["ziek",-10.037720691485049],["vechten",-10.037915980554246],["live",-10.040217531609457],["36",-10.042421551193325],["Co",-10.042567849325263],["excuse",-10.043564291170366],["koffie",-10.043628324634188],["Was",-10.043879591056733],["vuurwerk",-10.044033450844779],["wann",-10.044833124236341],["probeerde",-10.045116363169633],["veroordeeld",-10.047371102721467],["To",-10.047544492303608],["interessant",-10.049383085578574],["bereiken",-10.050162102385828],["Beide",-10.050313367529888],["geschikt",-10.050965430404958],["Zelf",-10.051074930984875],["37",-10.051586515488493],["competitie",-10.052790392225461],["buitenlands",-10.053368064389488],["Minister",-10.054988703016317],["testen",-10.05599816329751],["bedoeling",-10.056837527738374],["diep",-10.057083286579513],["schoon",-10.057122452608954],["besmetting",-10.057896439511413],["Eindhoven",-10.059984461541541],["inkomsten",-10.060666809018219],["vergunning",-10.060690477138598],["lage",-10.061097700521135],["inderen",-10.061357349064998],["beleggers",-10.062071522388276],["beurt",-10.062316297700344],["Bo",-10.063841820811032],["zak",-10.064476993961453],["Oekraïner",-10.06565740864908],["klopt",-10.066526226030163],["bondscoach",-10.06688288421467],["aangifte",-10.066953110116387],["rijk",-10.067361683420401],["noemde",-10.068036122473913],["oproep",-10.068141088595446],["investering",-10.068260746568088],["VV",-10.068362453769504],["vijftien",-10.06868879393439],["welkom",-10.069555029081418],["beslag",-10.069845298497876],["voelde",-10.070415109084001],["and",-10.073353730952256],["bodem",-10.073431708090522],["staats",-10.073998483241379],["bereikt",-10.074653580305984],["stadion",-10.075118448160152],["zorgde",-10.076106146444666],["gerekend",-10.076198691120066],["uitdaging",-10.0778661014322],["hof",-10.078839135569424],["Johan",-10.078978027516193],["Wereld",-10.078983642132048],["Naar",-10.07930296199903],["prestatie",-10.079621378376828],["negen",-10.08018752554833],["soldat",-10.08215314697557],["zichtbaar",-10.082832328529902],["afloop",-10.083514619501507],["helaa",-10.084456419100807],["militair",-10.085007060172638],["agent",-10.085286481090904],["gele",-10.085473118582875],["techniek",-10.08583469950831],["inzet",-10.088533087497929],["maatschappelijk",-10.088561761871542],["jammer",-10.088611761045456],["verloo",-10.088695211201621],["scenario",-10.08956546904587],["38",-10.089847372558449],["jong",-10.090299365933099],["Samen",-10.091416789557364],["Moet",-10.092901734793122],["ur",-10.09486400649261],["klant",-10.096148423396482],["inkomen",-10.096677367255543],["mail",-10.097849940834152],["za",-10.098015552241847],["herinner",-10.099732051730886],["beschermen",-10.100272731165656],["snap",-10.10055184477435],["vrachtwagen",-10.10142024623566],["groepen",-10.101809242909972],["banden",-10.102532393078324],["schip",-10.103309875986202],["fietsen",-10.104141976400904],["ns",-10.104224862816933],["positieve",-10.104548366130551],["pers",-10.10528931887379],["coalitie",-10.10583502698771],["logisch",-10.10594553832806],["eze",-10.106532391500078],["gevon",-10.106614485054678],["opleiding",-10.107807189003257],["Daaro",-10.10867826677435],["uitkering",-10.108785023651992],["steeg",-10.109506456847832],["Dank",-10.109817433927441],["afval",-10.109983452987596],["$",-10.110822665408541],["Koninkrijk",-10.110822676362908],["NPO",-10.110979097226693],["televisie",-10.11122201428427],["Bart",-10.111824763189908],["verlate",-10.11243199711107],["aangepast",-10.112523852077022],["achtergrond",-10.112553104772163],["bos",-10.112576523207077],["verwachte",-10.113166018282406],["rood",-10.113210946283614],["daarop",-10.113596131410276],["etc",-10.11396477058183],["Groot",-10.114878477666982],["kerst",-10.115239704123603],["stemming",-10.116854634912631],["winkels",-10.118317030349619],["nneer",-10.118420874783691],["zege",-10.119477759156041],["redelijk",-10.119882978712269],["gekocht",-10.119951977735742],["gebrok",-10.12015403201509],["loze",-10.120173788221685],["Tom",-10.120790689631392],["aanpak",-10.121050157259226],["Groen",-10.121907342809287],["koppel",-10.122348238423879],["uitgevoerd",-10.123737691977148],["CB",-10.124527402850713],["Commissie",-10.12462342104061],["destijd",-10.125341279567724],["Gent",-10.125539056924183],["meldde",-10.125582381165854],["software",-10.125664062814518],["Defensie",-10.125869629419086],["55",-10.12587220389985],["150",-10.125888368680338],["wijl",-10.127379802703217],["gev",-10.128950702279592],["amper",-10.128974760601245],["elders",-10.130542701205307],["aanslag",-10.130759290075646],["gevangenis",-10.133062413591649],["Natuurlijk",-10.134010127792246],["fabrikant",-10.134260079759642],["zolang",-10.134636031237703],["zet",-10.134926892052833],["negatieve",-10.135056381710633],["uniek",-10.13527172601776],["tevreden",-10.135674237070095],["leerlingen",-10.136608004402344],["Oekraine",-10.13748774289968],["universiteit",-10.13763630986466],["pad",-10.137828235274586],["Londen",-10.138128724454386],["Nieuw",-10.138268217787568],["pakket",-10.139251782865465],["index",-10.140019112544357],["wethouder",-10.140592912244598],["loon",-10.140831452132911],["vervoer",-10.141206027420623],["werkte",-10.141302485911929],["Club",-10.14191793682155],["hond",-10.141958518615494],["station",-10.14217130410223],["betaal",-10.143088038451967],["Raad",-10.143167190996877],["super",-10.144936376744491],["behoefte",-10.14578830426776],["él",-10.145882915938063],["principe",-10.146409744441799],["klap",-10.146730970489433],["egen",-10.147436494710457],["vakbond",-10.147558219825195],["eiland",-10.147738853129834],["opgepakt",-10.149037302572085],["schaal",-10.150432683026894],["gedragen",-10.150950906833621],["bekende",-10.1519346034808],["enig",-10.152266658555767],["privé",-10.152323019571046],["Elke",-10.153416313431363],["onduidelijk",-10.153509106370054],["breken",-10.153628441483438],["praat",-10.154035620007743],["hou",-10.154208208637638],["Kie",-10.15444815583377],["mei",-10.154898905996024],["zulk",-10.15522617920524],["boer",-10.15603062879687],["lockdown",-10.157005352046538],["gebaseerd",-10.157199169788427],["zuiden",-10.157486924254119],["leuke",-10.157934780354875],["alternatie",-10.158658254941889],["Bull",-10.161326798842712],["boel",-10.161557146684729],["Wi",-10.162070914373402],["beperking",-10.16344378453259],["Westen",-10.164122697117207],["ri",-10.164259630071744],["raakt",-10.164990277348211],["aanvallen",-10.165011539187834],["apart",-10.165610908779321],["woke",-10.166769251965388],["ehalve",-10.166798918300124],["verdwijnen",-10.16823558733541],["stijl",-10.168355036696711],["Jumbo",-10.168982986159481],["levens",-10.169004915570168],["vermoedelijk",-10.169895330795141],["ker",-10.17087707570942],["alcohol",-10.171728693860942],["oosten",-10.171902172166721],["erden",-10.172162836318712],["heen",-10.172239399504894],["hoek",-10.172275332188494],["focus",-10.172607913890205],["vrijwilligers",-10.17344541402657],["medische",-10.173811383456025],["golf",-10.175113298506462],["zetel",-10.17561390751578],["onderzoeken",-10.17594391548035],["bevestig",-10.176532411690424],["bezit",-10.176945721413315],["lachen",-10.177346158474002],["197",-10.177936467181327],["gepland",-10.17873130724462],["daling",-10.17891770686477],["Manch",-10.179192525108773],["zon",-10.179426856595263],["welk",-10.179864213779831],["ont",-10.180449472873823],["Ministerie",-10.180536012594054],["Baudet",-10.1810628329311],["coureur",-10.181120055720708],["account",-10.18128582267482],["materiaal",-10.181661150203364],["onderzocht",-10.181676928526915],["automatisch",-10.18172941443955],["spanning",-10.182295947226653],["ord",-10.182728457678909],["blijf",-10.18279885395121],["plaatsvind",-10.18504350724556],["198",-10.18559994562516],["bo",-10.185726720376625],["eenvoudig",-10.186087464118113],["café",-10.186533890073608],["dak",-10.18697593894834],["voorkeur",-10.18768260863062],["gelegenheid",-10.188896973485317],["gemeld",-10.189094192948279],["gemeenschap",-10.19023813743684],["bron",-10.190542151461406],["Antwerpse",-10.191978620823589],["€™",-10.193225671599198],["financieel",-10.19345466822855],["Holland",-10.194088440084826],["verhogen",-10.19491549617344],["LM",-10.196606094317772],["Rob",-10.197058086573476],["Euro",-10.197292209712709],["Arnhem",-10.198336228808639],["verkeerde",-10.198871009331022],["voldoen",-10.199316874362932],["vlag",-10.199688460136858],["vijftig",-10.201945655281882],["play",-10.202680183114214],["ervaren",-10.202968432965044],["Eerst",-10.203142061975733],["begrip",-10.2032946791449],["volgde",-10.203742137498793],["God",-10.203770465327622],["oren",-10.204116982278045],["waarna",-10.20550301964781],["roken",-10.205557447631955],["starten",-10.206506605629755],["ad",-10.208188055116356],["Hamil",-10.20852148324126],["écht",-10.209084677654282],["un",-10.209642413441632],["bare",-10.210880470162518],["ut",-10.210931038058229],["status",-10.211491564460342],["ester",-10.211538989918786],["34",-10.211572234564079],["thema",-10.211832230711414],["gedeeld",-10.212836798698559],["VA",-10.213681031225835],["treden",-10.214596414552126],["schoten",-10.215551225072815],["openbare",-10.216621779187049],["georganiseerd",-10.219506862131848],["gezond",-10.219539275403957],["zakken",-10.219731780243015],["bed",-10.221633227707171],["defensie",-10.221650383150916],["slechte",-10.221811046443875],["capaciteit",-10.22271763354477],["hoeveelhe",-10.223194165806404],["woont",-10.22384959307371],["cent",-10.224301029822488],["kleuren",-10.225176875597588],["respect",-10.226173301425014],["iële",-10.226232337844344],["2000",-10.226480905413144],["crypto",-10.226640460056123],["verzet",-10.22738461012881],["kilo",-10.227426462301402],["sloeg",-10.228457845344838],["schot",-10.228853439687114],["eur",-10.229212852485237],["id",-10.229227343092276],["boos",-10.22935035530272],["manager",-10.230588208348518],["coronacrisis",-10.231196661478098],["York",-10.23242291927169],["gemeenteraad",-10.232490330240392],["onmogelijk",-10.232965070594123],["duurzame",-10.232990231147902],["oorzaak",-10.233108482058839],["kanker",-10.233679020326116],["minsten",-10.234440747708351],["diesel",-10.235470097082365],["gewicht",-10.235788675305685],["Limburg",-10.23598145374456],["complex",-10.236912301061473],["ke",-10.23733672127237],["betere",-10.237459369374196],["Ander",-10.23760331540327],["absolu",-10.237626623302406],["gepakt",-10.238394153971633],["BS",-10.238556726214904],["aanleiding",-10.238688805112378],["zoda",-10.240052060714383],["fonds",-10.24020510147934],["riep",-10.240226193836456],["boodschap",-10.242077965489521],["uitgebreid",-10.242231961669969],["snelweg",-10.242288340937533],["reizigers",-10.242557309177357],["Live",-10.242686995590292],["Brugge",-10.243454347558432],["Vervolg",-10.243479311246945],["Tegen",-10.24358017413467],["zonnepanelen",-10.243755310218715],["hoorde",-10.24392508809039],["zogenaamd",-10.244060948844869],["erger",-10.244188906586604],["vloer",-10.244297317791652],["snelle",-10.244335443426415],["owie",-10.244820030444748],["benadrukt",-10.245512598911326],["geleid",-10.245786090537178],["journalist",-10.246828114099518],["linkse",-10.247120010495692],["decennia",-10.247756933371774],["belangen",-10.248012425397242],["armoede",-10.248100768355762],["overlast",-10.24836900787895],["gezellig",-10.248494516636814],["technisch",-10.248867782013171],["aak",-10.248997634945194],["elf",-10.249124699460674],["Frank",-10.249766170795041],["eindigde",-10.25133105250082],["sen",-10.253139141950788],["gevoerd",-10.25363421873734],["leeft",-10.254008475553135],["kandidaat",-10.254209404911125],["stichting",-10.254502561254954],["subsidie",-10.256007907323578],["Zelensky",-10.256543729611456],["werkzaamhe",-10.256719409404118],["speciaal",-10.256967165036759],["ontstond",-10.257348714877129],["aanzienlijk",-10.257413117959317],["Y",-10.257498376524648],["acteur",-10.257963546612153],["gemakkelijk",-10.25817831140941],["United",-10.258547627452973],["Mac",-10.261606864197264],["sprint",-10.262291521110853],["ermee",-10.262964776267056],["onderhandeling",-10.262975058233511],["fractie",-10.263673880565314],["proef",-10.265816153477974],["erste",-10.26611171553522],["legde",-10.266122085855192],["herinnering",-10.267722477608066],["ele",-10.267897450654395],["zone",-10.26805722235297],["luxe",-10.268483279030981],["communicatie",-10.268787635356716],["Heel",-10.268812317912172],["parlement",-10.268825341559598],["El",-10.268946792372198],["Champions",-10.269694277380765],["Michael",-10.269752135709824],["Johnson",-10.269841271146875],["Anders",-10.269965131126927],["coronavirus",-10.270011640045489],["kust",-10.27007571179179],["rechten",-10.270699659816684],["ontzettend",-10.271241961633649],["daalde",-10.271458610656726],["gaten",-10.271518977063879],["boot",-10.271914591724103],["Goed",-10.271963353155595],["films",-10.273003898318747],["aardig",-10.273288026716884],["factor",-10.273979448873263],["NS",-10.274077415109822],["supporters",-10.274209941423624],["66",-10.274835646241414],["kern",-10.274927769038946],["EC",-10.27494000115989],["600",-10.27495837093035],["ambitie",-10.275269461469144],["Japan",-10.275777209827673],["verbeter",-10.275780664458875],["gestart",-10.27617962918061],["buren",-10.276282980798118],["vaccinatie",-10.276483674972567],["Gelderland",-10.276559081969681],["slaap",-10.277512126925384],["teams",-10.27762986588592],["koningin",-10.277692827227058],["veranderd",-10.278489078861043],["strategie",-10.278742820350601],["seks",-10.27975797420375],["bepalen",-10.279977194138898],["ordt",-10.280273748629583],["dader",-10.280604377178403],["Hug",-10.280782989643217],["wakker",-10.28104366475992],["slim",-10.281545189335572],["geb",-10.281582990546307],["hi",-10.282338713070718],["vrede",-10.283375230952315],["ontwikkelen",-10.284434496628487],["Den",-10.28628738325123],["gevaarlijk",-10.28650919060676],["iPad",-10.286847797099714],["geschr",-10.286930150465277],["reageer",-10.289877519600932],["Huis",-10.290826083941313],["achterstand",-10.291637543056357],["65",-10.292105194948958],["werkgever",-10.294441525707537],["boord",-10.2950384352159],["Turki",-10.295489445660813],["beslist",-10.296082029649915],["analyse",-10.29634758151613],["achtste",-10.296644512908685],["Zweden",-10.296692059658286],["Mol",-10.296692454001734],["system",-10.296764765321683],["avonds",-10.296798486444327],["Vroeger",-10.297185341991621],["Jo",-10.297388217917964],["planten",-10.298044572543336],["verrassend",-10.29857102675874],["bedoel",-10.29883104702131],["laatst",-10.298872787007733],["aller",-10.299570959539157],["vrees",-10.300630286063907],["chauffeur",-10.301685563842682],["twijfeld",-10.302263709067482],["leiders",-10.30227075515172],["gevangen",-10.302330940540081],["data",-10.302604144473502],["Drie",-10.30260897479139],["verkeerd",-10.302975425130388],["procedure",-10.303096268173705],["leverde",-10.303774276692664],["F1",-10.305425664779928],["Mo",-10.305655913862264],["wereldkampioen",-10.305993323125826],["Dijk",-10.306848638648166],["redden",-10.307322332092468],["*",-10.308008343015748],["Via",-10.308089238754969],["Binnen",-10.308725408441685],["afg",-10.310116922691059],["juridisch",-10.310288264938592],["uitzending",-10.310689246709977],["Tegelijk",-10.31077491505809],["Late",-10.310965559738325],["eentje",-10.311041060789321],["stukken",-10.311041394488214],["realiteit",-10.31107876847148],["opgelost",-10.311286290716914],["richten",-10.311442303200966],["?’",-10.31252929660411],["betaalt",-10.31266322154113],["verbonden",-10.312773395178446],["beneden",-10.313230193168788],["39",-10.314042093263652],["federal",-10.314355002756589],["Spele",-10.314665997381582],["normale",-10.314673886744828],["landbouw",-10.31477525346033],["Charles",-10.314999268994077],["tank",-10.315884706224368],["wens",-10.317793318502149],["bedrijfs",-10.318381297258993],["konde",-10.318814839431397],["voetballer",-10.319618734922706],["front",-10.319785272141308],["collectie",-10.320837173935605],["strand",-10.32111275325564],["creër",-10.32165347517143],["gel",-10.321987253927032],["justitie",-10.322989368655026],["all",-10.323087882059713],["wee",-10.323187044710444],["glas",-10.323539198057116],["Vitesse",-10.324125858807028],["geregeld",-10.324634119541626],["bedacht",-10.32470389452932],["schoot",-10.324927816947753],["Team",-10.32497866666888],["initiatief",-10.325182861005526],["ijs",-10.325888339881587],["verdient",-10.32610501585889],["plastic",-10.326109076288098],["afgelo",-10.326438390162263],["clubs",-10.327130486572951],["kleiner",-10.328013998202735],["drama",-10.32808669517564],["recent",-10.328151055019683],["doelman",-10.328172785799651],["brood",-10.330074675694462],["benzine",-10.330095749542487],["agina",-10.331084828987727],["Ferra",-10.332794351997942],["Robert",-10.333045857311397],["misbruik",-10.333062362001144],["vreemd",-10.334060593697767],["verkeers",-10.33459609497541],["degelijk",-10.335313733021039],["iteindelijk",-10.335815011540632],["am",-10.336206269635179],["danks",-10.33629194001438],["Aert",-10.336366074493085],["kiest",-10.336553296420039],["bronnen",-10.336983045268731],["Thomas",-10.33846219131517],["keihard",-10.338504142978744],["Zorg",-10.338857592162727],["AZ",-10.338861342686112],["ambulance",-10.339303768658304],["Henk",-10.33943672734961],["opmerking",-10.339938851411462],["stelling",-10.340242663505126],["Belg",-10.340600747950674],["Welke",-10.340830790539183],["sociaal",-10.341300091361607],["Apel",-10.341622849755234],["apparaten",-10.342912564681264],["woninge",-10.343796492474464],["veertig",-10.344136587210002],["Premi",-10.34425963059815],["culture",-10.345222189580241],["onderhoud",-10.345273021267063],["ontdekt",-10.345642807987979],["arts",-10.34653340519473],["reclame",-10.34737056466685],["makkelijker",-10.347967483343165],["dichter",-10.34854581794804],["geboorte",-10.349031515030457],["klasse",-10.349296374939552],["99",-10.349501961380348],["keuken",-10.35098445157107],["huwelijk",-10.352335920744268],["GroenLinks",-10.352502339828323],["gezamenlijk",-10.352521629582956],["Universiteit",-10.352526553090577],["smartphone",-10.352902324969484],["nieuwd",-10.353147735261327],["recente",-10.353389478166964],["arm",-10.354969232809395],["fors",-10.355027000710407],["aanvaller",-10.355238994030326],["wijn",-10.355989438756438],["up",-10.356484029001736],["42",-10.35650585893653],["categorie",-10.356583352109553],["GS",-10.356898130185733],["produceren",-10.35695863179273],["genoot",-10.357863321856836],["stijg",-10.35805266843174],["verdediger",-10.358077718715924],["dubbel",-10.359009154602692],["sporen",-10.359605089738237],["verspreid",-10.360721023956085],["Nijmegen",-10.360776982911958],["velen",-10.361181861539697],["tellen",-10.362524055359668],["chef",-10.36310720947246],["bevind",-10.364380636977758],["reageerde",-10.364487310586867],["verbinding",-10.364735800664803],["zanger",-10.365257912156586],["rakette",-10.365743263930792],["verzekering",-10.366295210514007],["burg",-10.366909892118986],["ontwerp",-10.36936820156054],["pakt",-10.369486290417026],["uitzondering",-10.370631736568068],["ls",-10.371515391350865],["Australië",-10.371867316606378],["feestje",-10.371902345355897],["bellen",-10.371974262219817],["lossen",-10.37297641113086],["Overige",-10.37390441742102],["Rijks",-10.374398280227597],["dronken",-10.374427797502808],["ogal",-10.374652757515975],["verdrag",-10.375182614754259],["kijker",-10.375254858513156],["beschikk",-10.375642597542951],["missie",-10.375862134613373],["storm",-10.375909925145704],["weiger",-10.376445319071847],["Grand",-10.377002131826922],["Canad",-10.377413618288621],["interesse",-10.377517371038559],["250",-10.378045961889553],["Amerikan",-10.378922945472347],["sterren",-10.380180445558409],["nazi",-10.380600152265266],["speel",-10.380887923492084],["Porsche",-10.381696835481765],["maatregel",-10.382481814132287],["stevig",-10.382596458684038],["temperatu",-10.382771328512057],["Zonder",-10.383363964510337],["Doe",-10.383712037507953],["lijden",-10.383733347534331],["à",-10.38376151188854],["honden",-10.384866226908262],["behouden",-10.385120915426807],["betekenen",-10.385170903288566],["igenlijk",-10.385370204514128],["wezen",-10.386057602829727],["heet",-10.388353618907765],["werking",-10.388741015476858],["toestand",-10.389154756666652],["Go",-10.389166815782996],["toestel",-10.39037230416777],["betaling",-10.390597008446957],["verdeeld",-10.391698108489177],["richt",-10.392113664105825],["les",-10.392357351526515],["ondersteuning",-10.39319517836029],["instellingen",-10.393608381308152],["SP",-10.394105829529686],["exact",-10.39491963039609],["Martin",-10.395776666254456],["stopt",-10.395954591255533],["machine",-10.395979676345165],["vertraging",-10.395996143901172],["afspra",-10.396291967665995],["Netflix",-10.396625103388391],["fantastisch",-10.396644701630567],["Alexander",-10.396799546226429],["li",-10.397170412172596],["Gaal",-10.397899905500712],["olympisch",-10.397939770672735],["ernstige",-10.397959974413364],["ry",-10.398486887343104],["grondstoffen",-10.39927734304554],["Joe",-10.399309089242351],["ontwikkeld",-10.399861483815037],["vooruit",-10.40041006151245],["gestopt",-10.401002196731515],["plus",-10.40146614490033],["opties",-10.401522886959604],["mate",-10.4029590086747],["vi",-10.403710302727108],["gasten",-10.403798033875159],["boodschappen",-10.404730555398636],["mir",-10.404777307609578],["dankz",-10.40579290140002],["off",-10.40593890719408],["Nieuwe",-10.406915183006308],["kader",-10.406960503396736],["verwijder",-10.406991497961734],["dwong",-10.408162000423932],["Li",-10.408243272082473],["waarheid",-10.409364798609074],["knop",-10.409517804741146],["ussen",-10.40971151661758],["ley",-10.411858351531102],["verander",-10.411956371017538],["organiseren",-10.412020703563197],["harder",-10.412049423587302],["gesteg",-10.412054827793412],["fraude",-10.412071531597627],["traject",-10.412135401140823],["Morgen",-10.412272171225093],["oorlogs",-10.412418567032084],["Weet",-10.412854479595243],["pakte",-10.413188862991927],["stra",-10.413759996161543],["bewolkt",-10.413863499158236],["fietser",-10.414353879077863],["gevuld",-10.414431498059615],["etappe",-10.416221496447],["luisteren",-10.41631782434957],["bi",-10.41682999865352],["stress",-10.417820275071328],["Centra",-10.417910976847924],["stoffen",-10.417941187131087],["ramp",-10.41863183776185],["beloof",-10.418765296428818],["piek",-10.418879480998083],["verbied",-10.418929871970597],["ontslag",-10.419378122760897],["ware",-10.419413146027566],["ak",-10.419426903461018],["moslim",-10.41999423161174],["inval",-10.420112170534578],["inzicht",-10.420304885681237],["onzin",-10.420963748110804],["tip",-10.421541149124113],["National",-10.421750003027707],["bord",-10.42182438400669],["Mocht",-10.421973325020112],["fysiek",-10.422562977205665],["opvolger",-10.42270453860469],["bevestigd",-10.424094050668646],["talent",-10.424328194926876],["oe",-10.424776107548333],["Engels",-10.425030748897662],["wint",-10.426440465000152],["gezondheids",-10.426781490819593],["verbetering",-10.427132483758552],["do",-10.427568436338591],["seksueel",-10.428386880725302],["controleren",-10.428852872372175],["reken",-10.429082934271026],["treffer",-10.429201839758834],["journalisten",-10.430409794169323],["Eind",-10.430711837534801],["46",-10.430788983440458],["Kinder",-10.430813796184406],["meisjes",-10.431024457708812],["blik",-10.431093693158601],["schuldig",-10.431137720336555],["Iran",-10.431948731994936],["aanpassen",-10.43291434457146],["ier",-10.433971698943042],["France",-10.434081885714749],["netto",-10.434293709079537],["minst",-10.434707157447905],["Hun",-10.435176287975413],["overlee",-10.435607318711424],["miljarden",-10.435655232453238],["Hans",-10.435779293906986],["elijk",-10.43584781525027],["gaven",-10.435892218817212],["stof",-10.436901818338804],["On",-10.436930899303764],["onderdelen",-10.437190342755823],["overtuigd",-10.438299611486482],["voorzichtig",-10.4387298116383],["schatting",-10.43905367467752],["eruit",-10.440292828560437],["transport",-10.440833583270859],["publieke",-10.441115787397743],["Jonge",-10.441979798345406],["William",-10.44281585036298],["schakel",-10.443060872599414],["eden",-10.443343361531547],["urven",-10.443554107882926],["Energie",-10.44378938528184],["Wout",-10.445208650077264],["werkgevers",-10.445275823110691],["geopend",-10.445984762548935],["radio",-10.445987975027998],["Mogelijk",-10.446012372433405],["Cup",-10.446289370648794],["lui",-10.446291521907032],["fouten",-10.446935449127249],["jury",-10.446961377484287],["vijfde",-10.448544118561058],["NA",-10.449559626535347],["ergen",-10.450250927442251],["probeerd",-10.450325039703092],["match",-10.450821980275338],["onafhankelijk",-10.45110299839896],["sneeuw",-10.451433600912953],["stee",-10.451627045120098],["nië",-10.451749323654244],["elopen",-10.452629180733702],["uitenlands",-10.45279949566996],["Had",-10.453954306786361],["goedkoop",-10.45401218374592],["teken",-10.454189934562953],["chip",-10.454757168200857],["rijbewij",-10.455423707689826],["huur",-10.456513228254327],["bedreiging",-10.456869598261171],["gevecht",-10.457385342252088],["blad",-10.457556451358954],["oudere",-10.4578786970435],["kondigde",-10.45788846938601],["trap",-10.458010871508318],["agenda",-10.458501670338638],["»",-10.458653314257013],["bergen",-10.45885874018159],["Olympisch",-10.458865238021955],["langzaam",-10.458908163752483],["ontmoeting",-10.45917091084226],["invester",-10.45996666723255],["EV",-10.459993884250526],["Wal",-10.460637087538297],["aarde",-10.461276443011208],["kent",-10.461460645075872],["Sovjet",-10.462570610957298],["verdwe",-10.462667540021338],["43",-10.462831783783578],["dra",-10.462932905921573],["korting",-10.463057352136737],["Mag",-10.463424863097437],["Enkele",-10.464228916144183],["rijke",-10.465558439234053],["concurrentie",-10.466603686499408],["verzamel",-10.466613948847861],["ekrege",-10.467493245429615],["raak",-10.46803675687863],["onbekende",-10.469087066358608],["ontmoet",-10.469288803590285],["44",-10.469936337819101],["privacy",-10.471110426449684],["volks",-10.471921034146945],["export",-10.472030184344906],["drukken",-10.4726961697449],["iteit",-10.47271501240683],["theater",-10.472738219419725],["gedachte",-10.472929421801766],["bar",-10.4731415736407],["kaarten",-10.473149110421858],["Ten",-10.473922478136803],["verminder",-10.47472740139932],["koopkracht",-10.474935845067375],["wetenschappelijk",-10.47535759046458],["bizar",-10.476003778511107],["Louis",-10.476099932815092],["vermoord",-10.476413962462187],["schoenen",-10.476749707448924],["oppositie",-10.477151631902387],["gelegen",-10.477233002064274],["Rode",-10.47761900921199],["Poel",-10.477630846054595],["overlijden",-10.477959372472961],["slimme",-10.479400453472964],["toekomstig",-10.480011893147665],["laden",-10.480235366027213],["neus",-10.480313108413277],["Te",-10.48048870710629],["kandidaten",-10.480782781493247],["album",-10.480883504464146],["spannend",-10.48378672704829],["dreig",-10.484382912244575],["advocaten",-10.484590167031527],["Amsterdamse",-10.485013515108985],["Zie",-10.485404245661874],["vangen",-10.486022421206133],["stoel",-10.486932004198742],["Kun",-10.487957700716459],["Engelse",-10.488064041655008],["geschote",-10.488307217699072],["helder",-10.488399348184622],["breed",-10.488455517909722],["II",-10.488594010321794],["lidsta",-10.489646095808508],["VN",-10.490176803165461],["restaurant",-10.490666499491876],["interieur",-10.491019428123408],["verhouding",-10.492566519810836],["abortus",-10.4928184050618],["Noor",-10.492909954000421],["topman",-10.493205930359217],["goederen",-10.493420651581047],["tegenstelling",-10.493792467316979],["leg",-10.493976775351943],["Begin",-10.494265594783478],["Vladi",-10.4944713137075],["oefening",-10.494841150414292],["International",-10.494915241191741],["kraan",-10.496294055014104],["vooraf",-10.496303986044271],["motie",-10.496377200746325],["vergoeding",-10.496820525106365],["ziekenhui",-10.49788433064248],["design",-10.498166622182934],["erkennen",-10.49848220470875],["Ka",-10.4988177190051],["Mooi",-10.498897529273862],["ieso",-10.498965129154298],["voorbereiding",-10.499078057462379],["lagen",-10.499247557976073],["verloop",-10.49950382765005],["BB",-10.500294474425282],["agressie",-10.500907761558349],["hersen",-10.501691775908867],["link",-10.50258715647281],["gast",-10.502999606716187],["noodzakelijk",-10.503106934735776],["technische",-10.503548281581347],["accu",-10.503914081457463],["Post",-10.504112907083641],["nen",-10.504420677305028],["48",-10.504831033655385],["gevo",-10.506369723058597],["Brabant",-10.50692701861568],["Antwerp",-10.507323990540314],["matige",-10.507692866844021],["Leclerc",-10.507851193851394],["uitsprak",-10.508071932692172],["advertentie",-10.508142021812391],["opgezet",-10.50844705425293],["zwakke",-10.508508205477384],["tachtig",-10.508937323801907],["plots",-10.50945974748912],["bestuurders",-10.509892293623174],["negatief",-10.510398619057966],["bloemen",-10.511300709357586],["GP",-10.511353426921222],["lo",-10.511442099765247],["bijeenkomst",-10.51204020666444],["goal",-10.51248576700501],["57",-10.5125191156129],["ui",-10.512696419999886],["rechtszaa",-10.513515877595303],["theorie",-10.515242465208958],["ochten",-10.515273599716103],["beker",-10.516201453987993],["hooglera",-10.516469742787827],["vervolg",-10.516582906955225],["traditionele",-10.517048299752762],["ontvang",-10.517191317201299],["onderneming",-10.518087736828535],["AM",-10.518249423187262],["aankoop",-10.518417284226876],["verblijf",-10.518701979882383],["durf",-10.519593541697905],["mini",-10.521206296407456],["telt",-10.52138629421335],["gezinne",-10.521553753204984],["AD",-10.521690912547143],["kwartfinale",-10.521976911471196],["car",-10.522354972329326],["Turks",-10.522705898951415],["zoekt",-10.52272129935815],["levering",-10.523445703396568],["overname",-10.524247638528237],["presentator",-10.524724079254318],["Herman",-10.52501447477741],["detail",-10.525806939015169],["podcast",-10.525832475151764],["Wilders",-10.526317091519635],["Kerk",-10.52657370706513],["Hebben",-10.526745343928207],["geving",-10.52689029145156],["aliseren",-10.527018127069798],["wijken",-10.527297769255563],["zul",-10.527807686452041],["vaste",-10.52832651303611],["erwij",-10.528900081078506],["vrouwelijk",-10.529234007829267],["mobiele",-10.52935293512957],["behandeld",-10.529621481278314],["houding",-10.530032116175176],["kanaal",-10.530384362288107],["scoorde",-10.530624018553194],["missen",-10.530731219592],["houd",-10.530806913341412],["ambtenaren",-10.53106813268283],["toeslagen",-10.53224427336196],["opgelegd",-10.533137558280714],["lkens",-10.533607427066565],["box",-10.534493056148548],["vermoed",-10.53496473753564],["pleit",-10.535322151916688],["vinger",-10.535675554990208],["95",-10.536578955685385],["David",-10.536677772129135],["zaal",-10.537830226160683],["1000",-10.537862275586326],["ellende",-10.53834125042414],["Tim",-10.538381273141304],["Bos",-10.538381291662384],["vergadering",-10.539556414218453],["India",-10.539811018139561],["najaar",-10.53999930862393],["reven",-10.54061536362672],["succesvol",-10.541853781190056],["Ronald",-10.54208767176775],["Harry",-10.54212638834683],["haupt",-10.54259011292115],["toegevoegd",-10.542666361340395],["visie",-10.542951745744645],["Brit",-10.543140149275366],["ige",-10.544623744900907],["vic",-10.544685072210665],["beland",-10.544805685775334],["rendement",-10.544981820794426],["braak",-10.545108781473854],["stads",-10.545169345887654],["omroep",-10.545310210694321],["inch",-10.54556603212746],["belangrijker",-10.54568882807165],["vlieg",-10.546032338346578],["RS",-10.546154044492557],["staatssecretaris",-10.546878967185613],["ministers",-10.54778349336434],["besparen",-10.548279619591957],["Mar",-10.548633708452247],["nummers",-10.549037048725177],["slaat",-10.549146434324342],["scherp",-10.549623568163147],["zestien",-10.549976871584493],["droeg",-10.550091593660248],["verre",-10.550232663481369],["evenement",-10.550901360966147],["lief",-10.551799857169279],["klagen",-10.552251661453365],["regime",-10.552659433357409],["Vrijdag",-10.553154113323659],["bel",-10.553257820267032],["overeenkomst",-10.553353077166765],["gelden",-10.553420965433803],["premie",-10.553802268999295],["opslag",-10.554244180509777],["out",-10.556327071417273],["achttien",-10.556593347940638],["meedoe",-10.556631452206279],["dubbele",-10.556753978379628],["Nada",-10.556833396631486],["openings",-10.557002408160141],["aardgas",-10.557161513709662],["ruil",-10.557427067076343],["Rome",-10.557900567260718],["stevige",-10.557928742862252],["Duitser",-10.559156860799764],["kennelijk",-10.560084922871376],["Krim",-10.560181009264468],["harde",-10.56201432697776],["ontstaa",-10.562389663802179],["800",-10.563834270735379],["explosie",-10.564142986389948],["Pools",-10.564233756836272],["ic",-10.564737975491466],["straten",-10.565131638645754],["Ach",-10.565638553680547],["penbaar",-10.56585334718409],["mogelijke",-10.565989641249352],["Israël",-10.566232445487433],["transitie",-10.566442962679679],["geheim",-10.567891966335651],["verjaardag",-10.568930783415734],["verhoging",-10.568947812848187],["vogels",-10.569086122946661],["Marokk",-10.569431520922548],["anoniem",-10.569502565802328],["vermoeden",-10.569542774122416],["geschre",-10.57006170710427],["Audi",-10.570164216756595],["stop",-10.570449161620054],["Uiter",-10.570816917602848],["traditie",-10.5709104963978],["documenten",-10.571795449722018],["ind",-10.572281738224621],["vers",-10.572298795341258],["specifiek",-10.572707652550953],["Word",-10.573169023727045],["clusief",-10.573347548523977],["uitstekend",-10.573573551867248],["Justitie",-10.573757806242696],["Maak",-10.573792341672098],["Ali",-10.574317848109814],["apparaat",-10.574955631294046],["argument",-10.575089670274126],["41",-10.576241659879244],["trek",-10.576482631391407],["vel",-10.576791031648042],["Echt",-10.576883550883167],["persconferentie",-10.577466190853645],["World",-10.577476586257651],["prioriteit",-10.577519899755746],["gevolgd",-10.577688677442413],["Shell",-10.578457217600961],["propaganda",-10.579197415236608],["Boris",-10.579446492906456],["Macron",-10.580980754264042],["merkt",-10.581321026485872],["file",-10.581671913830938],["rpool",-10.582981445863131],["alternatieve",-10.583588022616471],["grappig",-10.583616281108194],["verdedigen",-10.583955214736786],["veertien",-10.585366994764023],["prik",-10.585442167906507],["uitkomst",-10.585814323307288],["graven",-10.586208780205684],["vertegenwoordig",-10.586567381996566],["ide",-10.58686816137233],["etrokken",-10.587646207344015],["serieuze",-10.587670896283376],["adres",-10.588397915467706],["lening",-10.588820498772245],["vandaa",-10.58882816104963],["Jette",-10.58913038989812],["hoogst",-10.589705232000835],["Andere",-10.58987137155155],["Michel",-10.590064911656071],["dijk",-10.59027868335442],["opeens",-10.590406274142833],["geboden",-10.590719393760915],["vieren",-10.590919738326233],["internationa",-10.59114209540241],["verwijderd",-10.59199129163871],["hybride",-10.59214562940356],["opening",-10.59239157688264],["rand",-10.593049165783185],["min",-10.593503214733088],["streep",-10.59363222828689],["uitvoeren",-10.594045604844741],["ondernemer",-10.59417302717841],["personeelstekort",-10.59569653905898],["paniek",-10.595724728487255],["persbureau",-10.59581469808404],["Jammer",-10.595828887188354],["Vier",-10.595841389588223],["vóór",-10.596046626138385],["balans",-10.596196005548965],["oet",-10.596473150051663],["bereik",-10.596667529644098],["Patric",-10.59683228310158],["demonstratie",-10.5975735921341],["nucleair",-10.597969308131917],["verwonding",-10.5979989733238],["ongen",-10.598102711114436],["zangeres",-10.598779168554824],["toenmalig",-10.599093109355398],["geslaagd",-10.599302541000002],["dames",-10.599355998056048],["pelijk",-10.59938437089513],["Rijk",-10.599515293632038],["term",-10.599539347539274],["nauw",-10.600349648478971],["volwassen",-10.601347281008946],["luchtvaart",-10.601448329683862],["estoken",-10.601894944708741],["kast",-10.602392877304062],["salaris",-10.602736494571802],["zestig",-10.603573342753077],["St",-10.604784205390654],["effectief",-10.60547092962421],["actrice",-10.605484798367273],["Lees",-10.6059471545137],["zogenoemd",-10.606640636400225],["ouderen",-10.607332767552265],["vervelend",-10.607387995529104],["geest",-10.6084636969888],["kies",-10.608794425526487],["waarschuw",-10.608803279106604],["sloten",-10.60923311458685],["kampioenschap",-10.609534852443893],["ngeland",-10.60956817443604],["schijn",-10.61007196268836],["chter",-10.610172766184004],["ba",-10.611585680388963],["elektriciteit",-10.61176256004383],["ca",-10.612010426614413],["oranje",-10.612010962480095],["Angel",-10.612760441038523],["verstandig",-10.613094948788076],["muur",-10.613229039072557],["zilver",-10.61374743538502],["afkomstig",-10.614524216655346],["Bosch",-10.614616138500494],["huid",-10.614885625820882],["Qua",-10.61542236556531],["geleerd",-10.61577546908644],["verlaging",-10.615920791191526],["Pri",-10.616073017994905],["kwalificatie",-10.616426727767267],["algemene",-10.6164342412962],["toenam",-10.616803853504685],["gestemd",-10.617185385352997],["moderne",-10.617446407764403],["leed",-10.61762294489743],["adviseur",-10.618082863074893],["medaille",-10.618170564047807],["liefhebber",-10.6191190091433],["garantie",-10.61988590519794],["wensen",-10.620266967546785],["schouder",-10.621396333641398],["Eredivisie",-10.621539990621134],["beveiliging",-10.62183324835793],["Groninger",-10.622355033674973],["kleinere",-10.622712703077854],["drijven",-10.62286981582482],["Radio",-10.623241326110982],["vergelijkba",-10.623657808034586],["plaat",-10.623966239887826],["veroorzake",-10.624316860138325],["019",-10.624396545852441],["abonnement",-10.62491885749026],["nabij",-10.624990217760045],["kloppen",-10.625623119920428],["kabel",-10.625664426821052],["inhoud",-10.62580766910828],["52",-10.625969501721721],["49",-10.626596094997076],["bond",-10.626915581166763],["sterker",-10.627171255232788],["stal",-10.627498718929665],["score",-10.629410799110707],["officier",-10.629789982852047],["Erik",-10.629919570411138],["ul",-10.630174791013012],["Fi",-10.63024263235056],["steunen",-10.63068873629792],["computer",-10.630953106257984],["fruit",-10.631273688664567],["zijde",-10.63164543275225],["gigantisch",-10.633146845991652],["Donald",-10.633181169700448],["kwaad",-10.633213844426965],["Portugal",-10.63323275894366],["hen",-10.633279667925702],["Ha",-10.633880339524193],["beperken",-10.634047807984606],["aanloop",-10.63416146199412],["Covid",-10.634239808230031],["plaatse",-10.634274369401076],["gedaald",-10.634774305107658],["circuit",-10.634848031174368],["oorspronkelijk",-10.634865225408598],["perspectie",-10.63487433809138],["Geef",-10.635022266693436],["correct",-10.635064813635577],["getoond",-10.635888845454362],["schilder",-10.63601955268364],["getekend",-10.636303200054973],["dalen",-10.636316735246723],["kampen",-10.636352092830423],["blok",-10.636513532866212],["nederla",-10.637255901619639],["85",-10.637410671720406],["verluid",-10.637430200579317],["melk",-10.637806487449534],["Albert",-10.637827947034896],["gegooid",-10.637924798434803],["specialist",-10.637954661538538],["banen",-10.638038997158146],["batterij",-10.639046275442135],["luid",-10.639213872771473],["doelen",-10.639222795808278],["nden",-10.640414117208202],["volg",-10.640448681989096],["koud",-10.641056548872916],["ol",-10.641261685107091],["getuigen",-10.64215993203161],["overwegen",-10.64242928138117],["infrastructuur",-10.642519597466844],["concern",-10.642755959070524],["tie",-10.642840476752262],["Belgen",-10.642846970862806],["Politie",-10.643934221773826],["Lijk",-10.644198225845665],["CD",-10.644264470250576],["paard",-10.645121555019175],["leert",-10.645608242226686],["warme",-10.646067940585176],["oorden",-10.647089135694074],["toevallig",-10.64812597822268],["beschermd",-10.650729128908777],["gevoelig",-10.65090919422354],["Staat",-10.652109643940047],["Kremlin",-10.652319890721389],["gearresteerd",-10.652335770670241],["recessie",-10.652456631781558],["Hoge",-10.652458630673669],["gesto",-10.652476816832355],["individuele",-10.653265042156963],["terugkeer",-10.653358651054047],["raam",-10.653630973427891],["Jeroen",-10.653646231356321],["stijgend",-10.653659041136665],["schilderij",-10.653962053964372],["RIV",-10.654007183050533],["democratisch",-10.654338275337237],["overzicht",-10.654577745072375],["schrik",-10.654826230073779],["percentage",-10.654896213201425],["keuzes",-10.65510722811478],["gebeurtenis",-10.655435987397727],["voorstelling",-10.65546948069941],["Mario",-10.655514130187834],["extreme",-10.656086509844325],["gelijkheid",-10.656526897476953],["eslagen",-10.656577919799973],["Maandag",-10.656724494589604],["ify",-10.657155662704369],["vullen",-10.657309725736187],["brak",-10.657493784694594],["rollen",-10.658028431469841],["unt",-10.65849447425765],["pauze",-10.658563035309765],["makers",-10.658849288825305],["Hongar",-10.659513207392115],["NV",-10.659540824667797],["Tussen",-10.65962754076037],["ontwikkelaar",-10.660550395530725],["oplossen",-10.660788006480566],["pa",-10.66080937121026],["Fortu",-10.66096248051128],["zoge",-10.661182010097399],["getest",-10.661620109592647],["waarschuwing",-10.6622137206253],["beur",-10.662331954647318],["zwaarder",-10.662400022933577],["comment",-10.662762464979915],["social",-10.662824486210544],["hè",-10.663134247538792],["gebouwen",-10.663173816507088],["klappen",-10.663644247903356],["overleven",-10.66488680086177],["springen",-10.665630556058558],["las",-10.66618455784413],["96",-10.667835758165214],["overheids",-10.66805601632159],["mensenrechten",-10.668104999131302],["aanwijzing",-10.668333533906045],["oplopen",-10.668661542814341],["trui",-10.669468441768867],["Tja",-10.669628813322472],["sluiting",-10.67006253511981],["kocht",-10.670210739055653],["73",-10.671489186311351],["˜",-10.671840863757378],["kwetsbare",-10.671889464397493],["Waarschijnlijk",-10.67189420079495],["Financië",-10.671901186532216],["über",-10.671956238508026],["zwembad",-10.672027104336427],["dividend",-10.6721608454385],["rechtstreeks",-10.672577380305992],["arbeidsmarkt",-10.672626438300458],["typisch",-10.67305322544425],["jongst",-10.67340915323839],["Breda",-10.673753767942328],["ingediend",-10.67398517506621],["begrijpe",-10.674141788865475],["gouden",-10.674149729138009],["diefstal",-10.674387496596053],["vrijdagavond",-10.674505645067512],["ballen",-10.674735300987688],["afgerond",-10.675296397403162],["CE",-10.675396767398759],["gerecht",-10.675728836651246],["Engel",-10.676075494446028],["54",-10.67626495006189],["medicijn",-10.676368120694748],["slavernij",-10.676668181198258],["allen",-10.676965199012775],["Achter",-10.677570301637921],["fysieke",-10.677766229681765],["wild",-10.678448591032865],["Anne",-10.678930267490509],["Hoog",-10.67909462752588],["Kuiper",-10.680709811602298],["onderweg",-10.680886859396196],["GT",-10.681151873434585],["Japans",-10.68147132001233],["dure",-10.68178241866347],["agen",-10.681879350566057],["uitgesteld",-10.682248058586945],["akken",-10.682278931007078],["toezicht",-10.683162518625123],["uiterst",-10.683349121551494],["zins",-10.683440524148308],["gee",-10.684317497370966],["58",-10.685140784031013],["kende",-10.685331877753342],["lieten",-10.685392633819077],["beheer",-10.685778097305025],["trend",-10.68609977726466],["uitslag",-10.686195370573213],["job",-10.686521062774517],["gew",-10.686606900780937],["Re",-10.686807875719705],["ond",-10.687231565076667],["doelpunt",-10.68781494651791],["verrassing",-10.687858709356354],["Maas",-10.68932145848385],["!’",-10.68964465142996],["woonde",-10.690609205356981],["aren",-10.69088652705971],["donker",-10.691175801779485],["parke",-10.691244290804677],["portemonnee",-10.691840866215175],["Elizabeth",-10.691840883764556],["Barneveld",-10.69184474189095],["lidmaatschap",-10.692005103228269],["kerncentrale",-10.692025386678838],["toepassing",-10.69243042230897],["vastgesteld",-10.692440483132946],["opbrengst",-10.692463911497738],["schietpartij",-10.692746619400358],["handelen",-10.693395378800547],["eigenaren",-10.693446301087892],["raket",-10.694260806964213],["gevestigd",-10.694282304193115],["IT",-10.69472875906451],["ck",-10.696299076566604],["oplever",-10.69634725821027],["Corona",-10.696462382937089],["stelsel",-10.696769267100926],["Ruim",-10.697039231635248],["Nieman",-10.697279028914489],["rit",-10.698450495904972],["ING",-10.69878271727469],["winning",-10.69932368271227],["degene",-10.699348493234957],["verteld",-10.700115879002542],["zingen",-10.700673851381952],["Zwitser",-10.70098108458193],["verlichting",-10.70144213384833],["racisme",-10.701475986923924],["ontslagen",-10.701960685482224],["schrijver",-10.702114592606021],["gehol",-10.702125196029538],["verwarming",-10.702616685741745],["aanvrage",-10.703249757465965],["toeristen",-10.703377639724179],["homo",-10.704425599144262],["aders",-10.705378046885816],["loog",-10.706503120551655],["favoriete",-10.706528156334619],["gedrukt",-10.706905276619485],["uitvoering",-10.706949170250304],["gerust",-10.707052605102295],["handels",-10.7075397806622],["behoud",-10.70902385597389],["matig",-10.709724376254927],["verklaarde",-10.709888468804],["afspraak",-10.710205357615699],["prins",-10.711295057796972],["raadsl",-10.711299213413096],["kritisch",-10.711481027470462],["Surinaams",-10.712249149221524],["compensatie",-10.712282044879494],["voorjaar",-10.712452325719116],["profiel",-10.71317602340079],["grijpen",-10.713971133150379],["voert",-10.714136196129852],["kwartier",-10.714178063135941],["gelukt",-10.714182936935588],["celstraf",-10.714726808267189],["IS",-10.71552585710484],["hoogtepunt",-10.715806682374282],["Weer",-10.715850714622402],["doelpunten",-10.71652052601531],["alarm",-10.717510630825995],["verstand",-10.717801379867025],["Vries",-10.71845924415955],["ek",-10.719405669193776],["ontdekk",-10.71962639260827],["brede",-10.720655357775275],["automobilist",-10.720808634235222],["lokaa",-10.721194534924162],["ig",-10.721209695823323],["Real",-10.721476517025387],["wetgeving",-10.721730256457194],["signaal",-10.72189694372333],["ruzie",-10.721918541020507],["gevaarlijke",-10.722674889181045],["No",-10.72337954325561],["droge",-10.723773647508725],["53",-10.72400744800765],["wit",-10.724107950345061],["bevatte",-10.724169128068512],["Grieken",-10.724274193680275],["doelstelling",-10.724399509868096],["wolf",-10.724601811287558],["specifieke",-10.724630114158536],["norm",-10.724908675670363],["lecht",-10.725260572272497],["dertien",-10.725313809086966],["stromen",-10.725569386716426],["noodzaak",-10.725586438363916],["complete",-10.726329866549666],["scoren",-10.726635831223032],["vrezen",-10.727359979888636],["Wit",-10.727509271525012],["uitgaven",-10.727576874536696],["FA",-10.728137083390232],["allebe",-10.728270566995032],["Witte",-10.728670425245221],["regelen",-10.729237477801371],["jacht",-10.729575679829425],["zitting",-10.73017723012759],["beïnvloed",-10.73051882736717],["gens",-10.731429302725008],["mete",-10.731924612985173],["bestand",-10.73202202286068],["Jij",-10.73210450791274],["Gold",-10.732666264142395],["Zaterdag",-10.733236554466703],["Land",-10.733273775082548],["Partij",-10.733692261962059],["generaal",-10.733859033629486],["ontving",-10.733896466893057],["Giro",-10.734482287799349],["Vraag",-10.734886183659814],["beschadigd",-10.735242992288173],["uitsluiten",-10.73550407887073],["regulier",-10.735819478612479],["topic",-10.735827224408373],["seksuele",-10.735847019384227],["spijt",-10.736397989125743],["schiet",-10.736889783044166],["Smith",-10.737084916007742],["Ju",-10.737258692001845],["lieden",-10.737557891148963],["tunnel",-10.737624431485235],["plat",-10.737768577306458],["Afge",-10.737932278814572],["schulden",-10.737962671746669],["partners",-10.738439723008803],["onbekend",-10.738554738657784],["voeten",-10.739705144306381],["tempo",-10.740578160599789],["management",-10.740677360875633],["Man",-10.74110121454762],["blanke",-10.741223685728663],["inclusie",-10.74126115414755],["mans",-10.741495163539781],["standpunt",-10.74235589346806],["%.",-10.744494628959039],["Leuk",-10.744972238541507],["Brazili",-10.746137770387953],["oudste",-10.746611962762271],["verbeterd",-10.746743083841148],["overige",-10.74714807425292],["signale",-10.747558646542737],["AC",-10.74783582408809],["puur",-10.74835854290059],["TikTok",-10.748491805543217],["verklaard",-10.749027890820333],["trainen",-10.749262337471128],["cliënt",-10.749267484350106],["gedreven",-10.749686049021173],["jarig",-10.749791174560501],["potentie",-10.750808618589781],["verhoogd",-10.751104267810836],["eerdere",-10.751144604399022],["gecontroleerd",-10.75161088667612],["effecten",-10.751790899715939],["mist",-10.752009945717617],["il",-10.752188422049809],["enthousiast",-10.752262814621139],["provincies",-10.752843837847726],["EX",-10.753055052643896],["voeg",-10.753106231622063],["Rus",-10.753111458809983],["drukte",-10.753279092811754],["stoken",-10.753850956759976],["Burgemeester",-10.75437703381705],["Precie",-10.754401844519318],["laptop",-10.7545399483109],["RTL",-10.754543189484984],["botsing",-10.75455614777388],["ranglijst",-10.754757439818619],["Normaal",-10.754795396495878],["kwetsbaar",-10.755661295175802],["keten",-10.756505594601574],["repen",-10.756839335712126],["staten",-10.757031197060389],["Media",-10.757086766131831],["hal",-10.757491996147744],["wetenschap",-10.75750212594605],["Afrikaans",-10.757905452275763],["passagiers",-10.757949863262063],["klonk",-10.7580245846327],["droog",-10.758295890176505],["inden",-10.758639993311483],["hitte",-10.75872960873008],["Vrij",-10.75901263702694],["verklar",-10.759192848197445],["gezocht",-10.759829518056076],["gaa",-10.760782784621266],["afwachten",-10.761267871212741],["Daarin",-10.762120817600504],["Wa",-10.762799517777454],["Neem",-10.762869747381306],["besteed",-10.762952664829273],["Kees",-10.763391092471732],["bezorgd",-10.763465285581178],["branche",-10.763553478740215],["haast",-10.763633644848262],["Ford",-10.763734109337173],["hypotheek",-10.76389413699889],["Vijf",-10.7641228836131],["verplichting",-10.764219632168178],["nny",-10.76517146516288],["Ba",-10.765958431622327],["lukken",-10.767320848740274],["verklaar",-10.767516686970634],["plicht",-10.767605589766715],["verbode",-10.767688172867365],["sleutel",-10.76777618796299],["onzeker",-10.76813265109119],["ney",-10.768404104356227],["way",-10.768682506411675],["Marc",-10.769161430302917],["tentoonstelling",-10.769245505052549],["herstellen",-10.76973569330279],["GL",-10.76983548161368],["borst",-10.770399766004257],["ervaringen",-10.77141391895713],["jongere",-10.772116704435701],["transfer",-10.772973727028248],["Ne",-10.773114584567113],["betaalde",-10.77411976096596],["bonus",-10.774273703817386],["Leidse",-10.774970698367135],["blee",-10.775629021394483],["bevat",-10.775994060816481],["Momente",-10.776280090927454],["Lekker",-10.776280630097382],["Jezus",-10.77630230550984],["humor",-10.776330588133066],["wekelijks",-10.776376133062342],["onmiddellijk",-10.77659954489971],["63",-10.776696157940775],["elft",-10.777012683822292],["aanpassing",-10.777073064104007],["Wim",-10.77821127441454],["middenvelder",-10.778244084739082],["ontdekte",-10.778454016331835],["ophef",-10.778556385389429],["oen",-10.778794332089488],["ipv",-10.77929336841419],["discriminatie",-10.779700226080598],["stuurde",-10.779831261096874],["erover",-10.779938470603275],["Gronings",-10.780519514309075],["wiel",-10.780602093733224],["dreiging",-10.781326997879443],["port",-10.781529081801853],["Koning",-10.78191890792542],["voorganger",-10.782571046354194],["vo",-10.78280137329541],["gegroeid",-10.783218478064356],["verenigingen",-10.783238759955404],["toevoegen",-10.784379941201024],["sow",-10.78507828938878],["finish",-10.785099323313379],["Kim",-10.785241460577424],["achteraf",-10.78526263005256],["migranten",-10.78536343750279],["gewezen",-10.785498996965687],["genodigd",-10.78564005842378],["Pieter",-10.785645273821107],["vluchte",-10.786288887944734],["meneer",-10.786372521412646],["erst",-10.787346747783266],["bruin",-10.78767652911737],["moeilijker",-10.78807677589563],["51",-10.788079445194656],["studio",-10.788260733603005],["cursus",-10.788596945577119],["aarom",-10.78870933468566],["Per",-10.788997560007447],["Let",-10.789109583128054],["ham",-10.789305644519585],["Madri",-10.789512180723278],["toilet",-10.789530924656935],["omlaag",-10.789633547959081],["Hag",-10.789835578521144],["bespro",-10.789899981146043],["branden",-10.790335851290381],["voorzieningen",-10.790518798238425],["igheid",-10.790896951191536],["kanten",-10.790925282724759],["blaze",-10.79105826758364],["vanzelf",-10.791805555464464],["noteerde",-10.79188497651436],["Gaa",-10.792579344577808],["migratie",-10.793291591207986],["munt",-10.793724274737206],["dri",-10.793834495624782],["herfst",-10.794045205337847],["gezelschap",-10.794058143834283],["ang",-10.794112716626245],["netjes",-10.794137287582792],["tarief",-10.794425768051726],["Stel",-10.79456809108677],["tal",-10.795100217009558],["douche",-10.796715047485444],["consument",-10.797039618064513],["durend",-10.797068455315397],["stak",-10.797256361445553],["uitbreiding",-10.797654556133049],["overstap",-10.797919924918308],["zoektocht",-10.798761924851302],["gedeeltelijk",-10.798831854261312],["conservatieve",-10.799451585537767],["schermen",-10.799581755507827],["pot",-10.800603697430468],["verlagen",-10.800618082636795],["import",-10.800685341538907],["vergelijken",-10.800828514196311],["schijnt",-10.80097807405434],["behulp",-10.802080766847945],["Boer",-10.802527783947973],["groeide",-10.803045954293658],["zonne",-10.803897857451688],["oordeel",-10.804865732403293],["Amazon",-10.80521973071697],["Car",-10.805381457908892],["omvang",-10.805460395329487],["Steven",-10.805945542294127],["onafhankelijke",-10.806237261268826],["zus",-10.806733871060374],["methode",-10.807194444039556],["Donderdag",-10.80741308549417],["staking",-10.807556826613183],["katten",-10.808039250878522],["toegankelijk",-10.808059088532847],["mi",-10.80822405937587],["bedreigd",-10.808658586026729],["toren",-10.808736839407915],["haal",-10.809039292396253],["Andr",-10.809144158787387],["nada",-10.80946055640554],["elijkheid",-10.809502445702538],["pomp",-10.809752423732709],["64",-10.80975435257304],["kindje",-10.809820937882057],["mentale",-10.809996578936998],["roze",-10.810455025723332],["arbeids",-10.810852583564142],["Maria",-10.81118590282143],["du",-10.811638614846048],["stapte",-10.812095418788237],["ieren",-10.812210311546567],["waterstof",-10.813274227334801],["Ons",-10.813320384761328],["inspanning",-10.813823407421744],["maker",-10.81431305840249],["schuive",-10.814578314077453],["ku",-10.814648876252752],["artiesten",-10.816203295118349],["):",-10.817036599697186],["schat",-10.817121850333617],["figure",-10.817167620618905],["institu",-10.817528733473035],["forse",-10.818507074997314],["aantrekkelijk",-10.81902570248944],["offici",-10.819208934346918],["bod",-10.819378849954198],["bussen",-10.819537129452176],["waarden",-10.819760166292255],["Spot",-10.82026798544063],["Sa",-10.821066479138267],["heren",-10.821170121527446],["content",-10.821274882694915],["mishandeling",-10.821489914998955],["gedeelte",-10.821740581390555],["normen",-10.821768091974484],["gevangenisstraf",-10.821807225773851],["relevant",-10.822037231271354],["Gemeente",-10.822192283260176],["Kamerlid",-10.82226185361337],["adem",-10.822867133503763],["Dinsdag",-10.823000381422533],["maat",-10.823034339791334],["Black",-10.823038037328999],["Marokkaans",-10.823258339008337],["67",-10.824271224270383],["voer",-10.824602709776382],["uiterlijk",-10.824604993789727],["wettelijk",-10.824843165936528],["vingers",-10.825219620560878],["drank",-10.825331599355149],["aken",-10.825506496721214],["aansluiting",-10.825920750301586],["San",-10.82610298731526],["klok",-10.826836246125133],["gezonde",-10.826966800750345],["berekening",-10.827101734924444],["aankomen",-10.82733259074905],["Markt",-10.827396832790889],["koos",-10.82771940897787],["games",-10.82788903780809],["kruis",-10.82806844576825],["appartement",-10.82820652273328],["idiote",-10.828684184265025],["Mathi",-10.829392657436387],["maximal",-10.829582152252943],["docent",-10.830332092330138],["digita",-10.830387381614017],["Jam",-10.83063969594574],["gedachten",-10.83085779878132],["Play",-10.830880409210835],["Midden",-10.831066256229843],["ideale",-10.831090805317313],["ewoon",-10.832169351957432],["lul",-10.832385016272632],["wedero",-10.832598655923533],["Twente",-10.832780063966936],["reeds",-10.832812520463765],["centra",-10.832922941255447],["unnen",-10.833454507167062],["circ",-10.834070111535372],["lie",-10.83430576470365],["!”",-10.83566124873656],["groeit",-10.83642149583377],["022",-10.837522241786289],["voetballen",-10.837612656779951],["actieve",-10.838435490861778],["Oud",-10.838821930661203],["rondje",-10.83931044453448],["Mechele",-10.840171779197343],["Ri",-10.840466289078728],["beroemd",-10.841736318415412],["air",-10.842324334742342],["cadeau",-10.842533976679821],["werde",-10.842668387535499],["innovatie",-10.84333120925599],["Group",-10.84432499969485],["Zwolle",-10.844380646605613],["breek",-10.844392062222033],["betrouwbaar",-10.84468460756719],["Vlaming",-10.84468469138724],["confronteer",-10.844756059928304],["aanrijding",-10.844765435024614],["tekenen",-10.844935771474894],["organisator",-10.845007969137749],["bewegen",-10.84563501160292],["lessen",-10.84567248000763],["Plus",-10.846085315129574],["paspoort",-10.84613660246653],["leveranciers",-10.846168311036536],["varen",-10.846188437216826],["eindig",-10.846415944250186],["vereist",-10.847122994076074],["Du",-10.847604719295],["inspectie",-10.84769863777738],["Kleine",-10.84776515218892],["grap",-10.848227390168187],["buurland",-10.848320735566595],["ni",-10.849129215996683],["eën",-10.84918312004291],["menselijke",-10.850080889486415],["Berlijn",-10.850723458634029],["Los",-10.851636770635185],["Fed",-10.851663966599641],["omd",-10.851943913629164],["samenwerken",-10.85203940168183],["Dam",-10.853875466870164],["Onderwijs",-10.854031893423242],["dienen",-10.854365407176939],["bestemming",-10.854593810671577],["terras",-10.85484885798948],["concurrent",-10.8550437322535],["ploegen",-10.85540300464827],["76",-10.85710114569759],["eigendom",-10.857302128517873],["vaart",-10.858274987643249],["preventie",-10.858688832851207],["ips",-10.85946785364025],["Men",-10.859945610257864],["Luc",-10.859957121462534],["claim",-10.860134229707107],["éé",-10.862112790992594],["domme",-10.862463848763344],["zocht",-10.862483763812923],["Mi",-10.863523789622628],["time",-10.86375530289816],["droogte",-10.863931131174425],["verkrijg",-10.864985725477139],["redactie",-10.865346566054576],["130",-10.866093065561795],["Sta",-10.866194922377918],["Pa",-10.867106474255365],["ies",-10.867524695118398],["liberale",-10.868147221217841],["goedgekeurd",-10.868180122793795],["label",-10.868322811335219],["journalistiek",-10.8683515764212],["affaire",-10.868859117896756],["deelname",-10.868945625199231],["commissaris",-10.869882099478138],["196",-10.870024839585415],["kilometers",-10.870106631943049],["appen",-10.87056150059184],["soortgelijk",-10.870746036320899],["evenementen",-10.870873604216802],["buik",-10.871906503637604],["bezwaar",-10.87194726349803],["SV",-10.872218742388762],["ringen",-10.872324894619224],["Nick",-10.872591487476356],["ly",-10.873603552180668],["Oisterwijk",-10.8737147240431],["daad",-10.873812496895807],["eraan",-10.87385224529354],["Prins",-10.874108100752812],["zeventien",-10.874298614392085],["Rij",-10.874387265130613],["lege",-10.87454496316709],["Bu",-10.875428625897216],["bezocht",-10.875486832537835],["vroege",-10.876095718865093],["trappen",-10.876636834891176],["tienduizend",-10.877151765861209],["aankomst",-10.877171094231837],["aanvraag",-10.877267536683238],["rapper",-10.877335118493143],["artsen",-10.877469041430235],["gister",-10.87790863834181],["huren",-10.878091677957372],["ny",-10.878736605571708],["treffen",-10.879121177250987],["aanleg",-10.879532496744263],["versche",-10.879551168500248],["Slecht",-10.880606014486432],["ingevoerd",-10.880813847696851],["goedkope",-10.881118518878868],["lijnen",-10.88129743224875],["zand",-10.881852971253076],["72",-10.881961858784264],["odra",-10.88239993931499],["schappen",-10.883622833558345],["hoofdst",-10.884395971115659],["?\"",-10.885412977641286],["vin",-10.885692689119644],["assistent",-10.886313036157333],["ling",-10.886635535556971],["69",-10.886726960702372],["warmte",-10.886951156801377],["120",-10.887161889720371],["gemist",-10.888755712639352],["rie",-10.889016157598672],["praktisch",-10.889482074562356],["Best",-10.889780882647877],["bocht",-10.889818402341707],["Afghan",-10.890258401582962],["figuur",-10.890650103500734],["taak",-10.89154175331948],["George",-10.891656923560088],["boerderij",-10.892534710523893],["GB",-10.892713539540434],["Korea",-10.893356420982709],["booster",-10.893373983031314],["behandelen",-10.893526807322107],["covid",-10.893530707005668],["pijnlijk",-10.893586534537786],["verdwijn",-10.893684736512746],["zelfstandig",-10.893888129268559],["Lind",-10.89424768785857],["malen",-10.894482944843338],["religie",-10.894560735432234],["moois",-10.895055187367007],["vestiging",-10.895107928200341],["beschuldiging",-10.895324962854113],["zondagavond",-10.895559950504786],["Joris",-10.89590660812155],["goeie",-10.896503961936894],["Zweeds",-10.897082202668983],["biliteit",-10.89777535173109],["tech",-10.897792229873168],["oontje",-10.89807972562549],["verbaasd",-10.89839906355109],["uitleg",-10.89910347542283],["sensor",-10.899759067722725],["heerlijk",-10.899850281404497],["elen",-10.899984415179617],["Chris",-10.902922907462917],["Leuven",-10.903635389176554],["Belasting",-10.904238085335898],["GG",-10.90427289101417],["concept",-10.906186059505561],["laagste",-10.906214323457505],["lijf",-10.906439104609948],["deug",-10.906757988311465],["gras",-10.906927138840574],["ce",-10.906995473733684],["bleke",-10.907020758040215],["long",-10.907756223344347],["criminaliteit",-10.908171619620422],["opmerkelijk",-10.908426516341116],["toeslag",-10.908718845311881],["mevrouw",-10.909038434704547],["rechters",-10.909521995982876],["geheime",-10.909829032487043],["volwassenen",-10.909838590434903],["tische",-10.909986431958647],["betaalbaar",-10.910073170898983],["ach",-10.910809196148104],["Schouten",-10.911145229414597],["allema",-10.911564644334069],["documentaire",-10.91160275816345],["vermeld",-10.912569162471849],["ne",-10.913193736026471],["klas",-10.91329732349607],["situaties",-10.913424157725455],["woede",-10.914614952587192],["armen",-10.915737617954601],["stapt",-10.91625270482666],["vervolgd",-10.916433819621146],["leverancier",-10.91682778316343],["eeuwig",-10.916910448894498],["spannen",-10.91728310557958],["wassen",-10.917629311464813],["vacature",-10.917631321123515],["biologisch",-10.917693220607248],["uitgeschakeld",-10.917757713684884],["marketing",-10.917835356063742],["verbazen",-10.917875446417469],["maandelijks",-10.9180409819317],["negentig",-10.918097763260379],["illegaal",-10.918326610521063],["dringen",-10.918397177118395],["vernieuwd",-10.918449177130476],["wandelen",-10.918455329538773],["toon",-10.91845917218398],["sportieve",-10.918659486640584],["statushouder",-10.918775941537426],["Thijs",-10.918976727271597],["achterban",-10.91905217323371],["corruptie",-10.91920742661682],["Serie",-10.919610832100826],["Bekijk",-10.920054503227389],["debuut",-10.92070681508823],["slechter",-10.921049198651344],["richtlijn",-10.921283087503062],["waarschuwd",-10.921328373854422],["istan",-10.922180672057088],["onrust",-10.922401272869152],["bek",-10.922624186530923],["olksgezondheid",-10.922904251860361],["verblijven",-10.923593680472809],["energierekening",-10.923970135325629],["hevige",-10.924332444122532],["hersteld",-10.924474523557082],["koude",-10.92490072301815],["stoelen",-10.925415729944973],["straffen",-10.926928054243598],["dreigen",-10.928158986788185],["%)",-10.929072302481176],["werkende",-10.929580628561995],["renners",-10.929976533187416],["Rotterdams",-10.93087132836575],["gemak",-10.931280172730114],["Geert",-10.931469334123673],["Jean",-10.93154380510439],["illegale",-10.931625042823988],["reserve",-10.931971975884162],["beveiligings",-10.932098100228512],["Taiwan",-10.93210479407028],["wijs",-10.932149448229207],["knoppen",-10.932232102605555],["analisten",-10.93227104523774],["zesde",-10.93256983884191],["feesten",-10.932596587578765],["eeën",-10.93272927142352],["graf",-10.933222125819606],["FI",-10.933375826642177],["gooide",-10.935385798472268],["scheel",-10.935393652062157],["Lo",-10.935522001819303],["sten",-10.935943818048738],["ewezen",-10.936033486610944],["Britt",-10.937120880309214],["tennis",-10.937706719188018],["beschikt",-10.937884192908626],["wandeling",-10.93808801974922],["Green",-10.938812975479511],["overtuigen",-10.939022509169153],["sporten",-10.939688341061471],["klassieke",-10.940596589332962],["ans",-10.940851404786525],["tegemoet",-10.940867481143327],["ger",-10.9410288613129],["smaak",-10.941117052332551],["duurzaam",-10.941202597694954],["graan",-10.941392356118472],["munitie",-10.942289298218624],["drang",-10.942329709423278],["lichte",-10.942507191662683],["zakt",-10.94258878585151],["Argenti",-10.942593200722811],["issen",-10.942710685168052],["scooter",-10.942714732600265],["….",-10.943112676946024],["cocaïne",-10.943144188848944],["verschrikkelijk",-10.943144376996209],["Museum",-10.943212313396312],["continu",-10.943235934618896],["peloton",-10.943280646668525],["verricht",-10.943345025449736],["SUV",-10.94346577960065],["prijsstijging",-10.943698896419493],["gespecialiseerd",-10.943819030864539],["Spanjaard",-10.943944817532676],["bedenke",-10.944291730152951],["begeleiding",-10.944748450481896],["ondersteunen",-10.945045504387117],["stier",-10.945234644285437],["verdriet",-10.945371959964678],["gestorven",-10.945516350663308],["besmet",-10.945563833619447],["Derksen",-10.945969948671557],["vonnis",-10.946536012258148],["beslo",-10.947047622308652],["kernwapen",-10.947196800702491],["roep",-10.947671144159525],["huisarts",-10.947788499136239],["opkomst",-10.947944143246087],["kritische",-10.948023222024407],["slaven",-10.94829758967873],["bende",-10.948753782573416],["okken",-10.949173025300679],["nul",-10.94970058075715],["getuige",-10.949869139060727],["belofte",-10.949983618154883],["organiseer",-10.950163434463457],["Zwarte",-10.950285045125364],["getraind",-10.951222707631986],["emand",-10.951605868212622],["kaartje",-10.95270491089147],["Tijd",-10.952760122736175],["vrijwillig",-10.953457379480799],["lastige",-10.953703724905255],["Wouter",-10.954139933301663],["agente",-10.9551213254352],["instelling",-10.9556149289652],["overval",-10.955731083302007],["Carlo",-10.956291187544704],["Lu",-10.95721306188695],["MI",-10.957409124326263],["achteruit",-10.957488579780515],["bestuurs",-10.957619721725646],["wisselen",-10.957923945400484],["IC",-10.957991952428733],["emotione",-10.958152951015876],["uitgebracht",-10.95826923026018],["Zondag",-10.95894065670483],["paal",-10.959020786542403],["fan",-10.959257404575308],["professionele",-10.95963816039],["reageerd",-10.959662148726137],["gezeten",-10.960265832255041],["succesvolle",-10.960504676691805],["Iedere",-10.960561892451263],["suiker",-10.960571194371864],["AS",-10.96058338596484],["Mexic",-10.960958540927228],["knal",-10.961115135745489],["aliteit",-10.961390705425497],["Gister",-10.962246213552865],["veilige",-10.962340251788113],["behoren",-10.962988846432614],["vastgoed",-10.963006094609435],["BN",-10.964166211453794],["Uni",-10.965310282194885],["vorming",-10.9654040644804],["arbeiders",-10.965775061227678],["AI",-10.966198600813712],["instroom",-10.967027370225265],["Oostenrijk",-10.967093609660434],["context",-10.968403111302898],["oordelen",-10.968970830526764],["München",-10.969459992645158],["Chelsea",-10.969460713000803],["Microsoft",-10.969461187942745],["karakter",-10.969463643234889],["plotseling",-10.969698016909165],["crash",-10.969777010524309],["betrekking",-10.969927106487873],["Voic",-10.969989889229954],["arrestatie",-10.970191656645971],["pleegd",-10.97028279757026],["Sparta",-10.970528706967857],["afbeelding",-10.97070407465602],["merkte",-10.970775171343943],["subsidies",-10.970920444925529],["material",-10.971245608356398],["ongekend",-10.971286821014468],["transactie",-10.971288533926286],["Union",-10.971476254394961],["verlengd",-10.971646809941529],["blokkeren",-10.971755151425285],["uitgang",-10.971905116839745],["toezichthouder",-10.972387354669664],["geregistreerd",-10.972400635340602],["knap",-10.972780860687699],["peil",-10.972997708011299],["nachts",-10.97347066136878],["stuurt",-10.973556325217258],["limiet",-10.97395771085775],["spoed",-10.974447482981056],["stonde",-10.975749200848911],["lippen",-10.976237864065219],["47",-10.976247358468278],["overtreding",-10.976292454465035],["tref",-10.976479316084077],["gepubliceerd",-10.976800325131467],["vergele",-10.976888633182195],["klassement",-10.976890329545682],["eft",-10.977044801174612],["ets",-10.97748945569467],["Philips",-10.978376471302166],["klacht",-10.97925865343241],["sponsor",-10.979354566041039],["promotie",-10.979643288172266],["econo",-10.97982520143323],["Parlement",-10.979895610755863],["plank",-10.980409705732873],["aanvoerder",-10.980555107887682],["trouw",-10.981106236957974],["scheidsrechter",-10.981608059968956],["graaf",-10.981654336332582],["chao",-10.981714084047391],["lieve",-10.981858464262324],["Simon",-10.982010630644304],["remmen",-10.982244962527083],["arcelo",-10.982258249294636],["Beste",-10.982343582560446],["State",-10.982359989006532],["KV",-10.983304627701164],["beveiliger",-10.983816743793932],["liedjes",-10.984052926658144],["jagen",-10.984691585081295],["drukke",-10.98575261483768],["onderzoeks",-10.985902217300227],["opgericht",-10.986060387886143],["Djoko",-10.98636864087393],["krachtig",-10.986727046453428],["bruto",-10.986967476107097],["fenome",-10.987228606640407],["Sterke",-10.987509314968753],["puntje",-10.987577909234009],["deelt",-10.987697285714303],["draai",-10.988180910774155],["enberg",-10.988494375887582],["gesch",-10.988778918233567],["lading",-10.988836287837746],["NU",-10.989000925148236],["onderhandel",-10.989213497659408],["aanbiede",-10.989778924599445],["WhatsApp",-10.989934611097485],["huisvesting",-10.990550025741605],["satelliet",-10.990685655430894],["stemt",-10.990841618402303],["activisten",-10.9909585570176],["crucia",-10.99101188461819],["aankondiging",-10.991230390743155],["BC",-10.992058987750443],["spiegel",-10.99244532591677],["begroting",-10.992496247218213],["kiez",-10.992586564830914],["hemel",-10.992636802571658],["landschap",-10.99272953746931],["gevaccineerd",-10.993527410865534],["Visma",-10.993698856769052],["eieren",-10.993748056356448],["volgers",-10.993884874839969],["Finla",-10.994108838463612],["Hu",-10.994386063432628],["eerd",-10.99447570496918],["ant",-10.995046404132047],["honger",-10.995143798787],["71",-10.995581284922608],["contacten",-10.996097999707576],["demonstrante",-10.99622916131831],["Brusselse",-10.996278589592928],["quarantaine",-10.996487005734824],["psychisch",-10.996510161582261],["uitbreid",-10.996586900118164],["onverwacht",-10.99658766714735],["portefeuille",-10.996630823711536],["koploper",-10.996707579815352],["Opvallend",-10.996799099762516],["Nieuws",-10.996901426346987],["loopbaan",-10.997170865085161],["elden",-10.997216843825885],["presentatie",-10.997254031129966],["verslaggever",-10.997499483914083],["verrast",-10.99805748098393],["geruchten",-10.998227175088763],["verdiend",-10.99825140073563],["inhoudelijk",-10.99835371789148],["rouw",-10.998428697399692],["vertrok",-10.99893217276955],["deelnemen",-10.999938533670688],["ien",-11.000639725695923],["vriendelijk",-11.00090929047565],["concrete",-11.000978598722988],["betrapt",-11.001319032467093],["lasten",-11.001337034168204],["graad",-11.001525864626604],["alen",-11.003099335763423],["gok",-11.003704061080251],["aanvankelijk",-11.003749812736379],["bedien",-11.003863553262848],["tweehonderd",-11.003904765560716],["belde",-11.004088400408854],["tranen",-11.004383345233475],["Su",-11.004672965540514],["62",-11.0050381561208],["ticket",-11.005096077991377],["kut",-11.00654523890425],["Zeeland",-11.006785936413406],["aangeven",-11.006983774112506],["bepaal",-11.00743904142263],["moeilijke",-11.00783169452431],["voorgaande",-11.00783543269656],["constructie",-11.008102854324727],["vervuil",-11.00864244077097],["rd",-11.009394264409446],["experiment",-11.009962409957971],["emotie",-11.010337031091801],["Lang",-11.01065348876279],["Emmen",-11.010859230113052],["menselijk",-11.010947833878964],["Meta",-11.011295039319666],["brons",-11.011378150839942],["toonde",-11.011619593946657],["com",-11.01162259813465],["erland",-11.011639953244229],["Kroati",-11.012184333801356],["mmers",-11.012451718693157],["ard",-11.012804168963882],["Park",-11.01319906785535],["ië",-11.013316492942685],["wijziging",-11.013446151388159],["kampt",-11.013516210473815],["ment",-11.014106886076451],["och",-11.01433404173987],["oven",-11.014339063552843],["uitkomen",-11.014421030133246],["So",-11.015004405221394],["Bar",-11.015022836089589],["egels",-11.015140830227416],["zeventig",-11.015194792899416],["fossiele",-11.015450488143408],["koste",-11.01581551546879],["column",-11.01594642315534],["factuur",-11.01594741448875],["staf",-11.016321165001244],["bevestigen",-11.016967494427071],["KN",-11.017259222843837],["aanmeld",-11.017860839405795],["atum",-11.018205358240344],["haat",-11.01851290454183],["taken",-11.018591132446677],["opname",-11.018774320625083],["ondersteun",-11.019082291544592],["orden",-11.019281082001244],["194",-11.019764413269074],["Marco",-11.019821230455621],["profit",-11.020741811029083],["cellen",-11.021627780862826],["zwak",-11.021650019337155],["uiting",-11.021820095782129],["opgesteld",-11.022040973217095],["taxi",-11.022154296615495],["voegen",-11.02294507462037],["service",-11.023132650895402],["belegging",-11.023253637637211],["Burg",-11.02383160465498],["uitgeven",-11.024188891464014],["Pogacar",-11.024264972792352],["Erdogan",-11.02426715632367],["bitcoin",-11.02426726739172],["gewelddadig",-11.02430856136128],["Volkskrant",-11.024309031592955],["ng",-11.024525342596986],["aanmerking",-11.024531201404118],["garage",-11.024544264749135],["omikron",-11.024588521397693],["assen",-11.024735484360452],["administratie",-11.024972400838953],["Economisch",-11.025748063303869],["geled",-11.025818208159839],["meermaals",-11.025870247249891],["Eric",-11.026032658798902],["toeschouwer",-11.026042153572938],["permanent",-11.026359802811964],["nnen",-11.026806791661752],["tribune",-11.02688477484713],["Rijn",-11.02693628288147],["onderling",-11.027137339834024],["raag",-11.027318373402009],["wonder",-11.027322739065287],["vuurwapen",-11.027545471284935],["Brabants",-11.027685243227761],["KNV",-11.027783372835701],["Jack",-11.028387411110511],["voortdurend",-11.029228426449505],["steek",-11.030357672371888],["go",-11.030651089685943],["kippen",-11.030750300275464],["auteur",-11.031219507418875],["krachten",-11.03175650043236],["onterecht",-11.032101722506605],["lacht",-11.032257982082603],["Visser",-11.032481586291855],["Sinterklaas",-11.032686907043516],["erin",-11.03289262038746],["Bert",-11.034130673447322],["Apeldoorn",-11.034282210688666],["verlopen",-11.034424322317788],["directe",-11.034442492351719],["Elk",-11.034953284238401],["brein",-11.036107435477124],["Ki",-11.036401074289728],["Christian",-11.036755105212599],["afsluiten",-11.036926098953105],["Vind",-11.037089312093666],["nationaal",-11.037759550321017],["Syrië",-11.038169379868663],["bestelle",-11.038506823214501],["offs",-11.03883019236806],["oekstra",-11.038848205172986],["gewenste",-11.039058500063954],["ramen",-11.039411760579997],["wereldtitel",-11.039508720902713],["tikken",-11.03957846895199],["aanhanger",-11.0396282065313],["student",-11.039971240805412],["Jos",-11.040042308884376],["overschrijdend",-11.040104325004025],["bestrijding",-11.04050179129866],["vreselijk",-11.040645329417664],["gedoe",-11.04124274747771],["adviseer",-11.042854042190253],["plafond",-11.043012720659554],["schadelijk",-11.044902045104237],["leest",-11.04516765848101],["slaagde",-11.045267703908417],["68",-11.04541195442044],["aandeelhouders",-11.045605990301674],["Va",-11.046041514860995],["aangevallen",-11.047402290622378],["Vol",-11.048624499282091],["gram",-11.048674503744747],["herken",-11.049339344809644],["Vergee",-11.050289739586503],["onnen",-11.0504089623143],["Oude",-11.050634684207424],["poel",-11.050965410986878],["BA",-11.051070237371682],["panelen",-11.051796554004286],["mooier",-11.052046369840424],["spectaculair",-11.052836211650831],["centimeter",-11.052845818028663],["Aziatisch",-11.05286318959591],["Disney",-11.052874932615255],["Volkswagen",-11.052881199813386],["hectare",-11.052884514493721],["betekenis",-11.05288866287519],["President",-11.052916645987626],["server",-11.052919479346212],["valuta",-11.052953732133112],["racistisch",-11.053283235861754],["Verschillen",-11.053394433773828],["VRT",-11.053450903882576],["'.",-11.05354020305271],["700",-11.053974635241126],["Woensdag",-11.053977065362862],["zicht",-11.054296832509038],["dringend",-11.05442757506782],["gepresenteerd",-11.054504560168317],["Mart",-11.055361651660045],["immigratie",-11.05540815189279],["ast",-11.055606230527674],["vierkante",-11.055816961735722],["ering",-11.05608450005998],["wees",-11.056171010921672],["kruising",-11.056174811853353],["que",-11.056585809187698],["tanks",-11.056999920614116],["strenge",-11.057154233586907],["peiling",-11.057218810985939],["waardering",-11.05733362927567],["verlaagd",-11.05789092561334],["planeet",-11.058231575897032],["Duits",-11.058465569872599],["negentien",-11.05869250387753],["gat",-11.058752202337285],["ong",-11.058818893227027],["investeerders",-11.058854550457353],["Croo",-11.0592208417453],["check",-11.05969686171381],["griep",-11.059975265876481],["vergeet",-11.060018540835628],["jongetje",-11.060070898393874],["shit",-11.060400626343126],["storing",-11.060609973195525],["dez",-11.060635501844256],["verleng",-11.061022437370713],["kers",-11.061572905493243],["trekkers",-11.062226383746854],["verliefd",-11.062452727673929],["q",-11.062755094709859],["prettig",-11.063252538248785],["plaatsge",-11.063834154410062],["sterkst",-11.063872942394111],["77",-11.064484918947702],["maals",-11.06474888276302],["meester",-11.06480124072813],["hebbe",-11.065223016674665],["leer",-11.065268001214895],["kiezers",-11.065547296210914],["PV",-11.065563448169625],["wissel",-11.066195275181393],["Queen",-11.066300953754212],["nder",-11.066341389322673],["patiënt",-11.06637138588026],["deal",-11.066377723182994],["eredivisie",-11.066508293559874],["Intussen",-11.066564092420165],["dwingen",-11.066580747543798],["kre",-11.066818896945213],["grijs",-11.066918543374207],["elite",-11.067038835366034],["aanhouding",-11.067070428108101],["Gelderse",-11.067502623846693],["laan",-11.068153982572554],["bakke",-11.06826288994026],["opzet",-11.068592746193492],["papa",-11.069546330206812],["hielp",-11.06967152726018],["toegangs",-11.069748454593798],["beëindig",-11.07030878099998],["duurde",-11.070491793794297],["particuliere",-11.070545778565604],["tweet",-11.070567570877982],["88",-11.070884619713768],["Dirk",-11.071104683446244],["startte",-11.071297799446832],["vijand",-11.071839721341163],["Utrechtse",-11.071959726663435],["tegel",-11.072336176719578],["maaltijd",-11.072927244253961],["ski",-11.07327985943059],["directie",-11.073550330528086],["zó",-11.074859250265746],["Ra",-11.07621243901684],["Hollandse",-11.076591642403125],["tuig",-11.077001376485331],["Zwitsers",-11.077101819338367],["teller",-11.077999981378001],["kenmerken",-11.078385650773663],["luister",-11.078516889182707],["zwemmen",-11.078522202157236],["nader",-11.078522687369935],["by",-11.078527818500897],["versch",-11.07873643985424],["district",-11.07946755312521],["verdediging",-11.079913312111074],["Haags",-11.0800853876295],["versterkt",-11.0800917492031],["winnaars",-11.080158595259405],["sterven",-11.080440516888142],["toenemen",-11.080646174204922],["Tag",-11.080654674688823],["Will",-11.081272644112529],["straling",-11.081421376422973],["Auto",-11.0816477886576],["inkomens",-11.081689450412135],["bagage",-11.082066531950922],["hobby",-11.08220484494844],["zender",-11.0822479537785],["Heerenveen",-11.082251377736808],["FIFA",-11.082269776327955],["Forum",-11.082337450404339],["schadevergoeding",-11.082394259102516],["statement",-11.082470640341686],["ultiem",-11.082488340309256],["isolatie",-11.082504221205017],["Sch",-11.08294200810209],["horloge",-11.082999770904653],["windmolen",-11.08313714841401],["ritten",-11.083167108400273],["interne",-11.083775032098854],["bescheiden",-11.083892213649676],["stiekem",-11.08420467600034],["meent",-11.08431727542974],["gekoppeld",-11.08443785648179],["Nation",-11.08445901039464],["Joods",-11.084650494141515],["langzamer",-11.085034491657273],["betreffen",-11.085504336345073],["vooruitzicht",-11.085786384963248],["nieuwkomer",-11.085917646831854],["inge",-11.085936918907455],["vermeend",-11.085970960552356],["voorgesteld",-11.085972803655913],["aangewezen",-11.086052956295134],["voorkom",-11.08670592815071],["voeding",-11.086728519181548],["gebruikte",-11.08746537976587],["Klein",-11.087623913128292],["initiatie",-11.087745248423172],["helikopter",-11.087759550409002],["195",-11.088505583764068],["ongewenst",-11.088630013105545],["lukte",-11.088878839602256],["lezing",-11.089494839502176],["koken",-11.089609097416616],["chips",-11.090355986447376],["Geld",-11.090635739679268],["voorraad",-11.091072077176213],["vlaggen",-11.091692531944842],["Ko",-11.092158709142446],["realistisch",-11.092725272536018],["Vooruit",-11.092858731494891],["ingericht",-11.093346861098464],["vervanger",-11.09340085244834],["identiteit",-11.093668682052737],["oefenen",-11.093691216530553],["razend",-11.093886551285168],["NEC",-11.094139834954111],["ubai",-11.094561666397693],["diversiteit",-11.094628247238575],["Remk",-11.095149934186363],["School",-11.095395389099492],["Alf",-11.09616110767084],["plaatste",-11.097088959523502],["Central",-11.097132731468355],["mix",-11.098160101549498],["voorbereiden",-11.098252304767326],["Zand",-11.098553628611597],["tiener",-11.098901015366717],["busje",-11.099075636234819],["gepast",-11.099093439769554],["nuttig",-11.099186446094652],["heus",-11.099237671366874],["islam",-11.100247864752493],["ingang",-11.100381769957574],["ontbre",-11.10044646577104],["dodelijk",-11.100856503818349],["planning",-11.101281536944358],["Australi",-11.101302911254281],["Inter",-11.101825225359216],["erachter",-11.102883157034212],["bevond",-11.103137427139117],["creatieve",-11.103487937008651],["opgehaald",-11.103563110586464],["mega",-11.103868445546286],["Boeren",-11.104045852590136],["Turnhout",-11.105260198868832],["staande",-11.10547769500507],["installatie",-11.10618319453653],["constant",-11.106559228163468],["fijne",-11.107346172566597],["Portuge",-11.10735618223037],["gewen",-11.107653108055791],["breuk",-11.107800119511495],["Laatst",-11.108360403754961],["Winter",-11.109101831630849],["Zal",-11.109361740676782],["aten",-11.109728995791762],["plant",-11.109914402200856],["tijdrit",-11.110481490545105],["Afgel",-11.11154667282539],["ME",-11.11175030433541],["probe",-11.111775036475972],["boze",-11.112138461030359],["penalty",-11.112488653053969],["Genk",-11.112499768295226],["Donbas",-11.112563992304262],["koninklijk",-11.112590648902039],["beseffen",-11.112610888706227],["Pe",-11.112656065748842],["intimidatie",-11.112721971175969],["Telegram",-11.112810195382183],["Arabisch",-11.11284314628191],["NIET",-11.112959067310634],["vanzelfsprekend",-11.113046180964208],["originele",-11.113277595795008],["pol",-11.11339217876494],["teleurgesteld",-11.113536037265606],["Stijl",-11.113605532037951],["Koreaans",-11.113777495511485],["hervorming",-11.114270504252504],["volume",-11.114478236158103],["verslaan",-11.114619892972183],["voorstander",-11.115193560016655],["56",-11.115880803757399],["vervolgt",-11.115945736706477],["anks",-11.116156327657777],["dode",-11.116236775748616],["druppel",-11.116424922058606],["flat",-11.116996813297094],["estemming",-11.117118457021355],["HEM",-11.117339955251932],["os",-11.117800094760078],["weigerde",-11.118112162152283],["symptom",-11.11850568357789],["infectie",-11.118523845439501],["stapel",-11.118716037694123],["ert",-11.118879084321028],["fficië",-11.119088101706883],["versoepeling",-11.119323215313708],["beperkte",-11.119411283716744],["verzekeraar",-11.119654571717495],["ceremonie",-11.119905171448629],["zondagmiddag",-11.12023809628656],["ideaal",-11.120371021129277],["gro",-11.120891316668798],["Buiten",-11.121027694811797],["ASM",-11.121202111014028],["Sain",-11.121538339645976],["aanstaand",-11.121700103083825],["vrolijk",-11.12178649423046],["rook",-11.122098953602464],["buigen",-11.122429749362592],["tanden",-11.123331634802565],["NB",-11.123507180749868],["opnames",-11.123807059660667],["hinder",-11.123974126245578],["geboekt",-11.124107112277654],["geldig",-11.124184878754187],["stekker",-11.124374303070464],["Republikein",-11.124583276823142],["erry",-11.12479968400627],["tevens",-11.124974813124677],["werknemer",-11.124996587848532],["grid",-11.125038334647614],["dokter",-11.126181611000467],["adenken",-11.126377869276293],["AB",-11.127139036890814],["Natuur",-11.127601445261057],["materie",-11.12804577322197],["agentschap",-11.12807993647106],["mondkapjes",-11.128355465427248],["element",-11.128384051272988],["koopt",-11.12843064539717],["zië",-11.128929158988369],["Sam",-11.128945350575142],["excu",-11.129114409855697],["absolute",-11.129150339660628],["logo",-11.129602986224828],["afgezet",-11.129908950578129],["schaats",-11.130148579758607],["Col",-11.130587215032682],["Sy",-11.130746389769593],["pech",-11.130929687383386],["dwars",-11.131467775778132],["gestapt",-11.131748110078075],["YouTube",-11.131944457485897],["medisch",-11.132352772780724],["Har",-11.132510566540399],["ezorgd",-11.132681576233065],["staakt",-11.132876196310463],["drinkwater",-11.132919436683757],["leraar",-11.132982127832602],["creëer",-11.13311213700652],["tocht",-11.133438235457838],["strijden",-11.13345096850416],["rabië",-11.133610086591704],["drone",-11.13372815308749],["kroon",-11.134023570745347],["lonen",-11.135752786969443],["beschouwd",-11.136002952778044],["oppervlakte",-11.136144753265178],["single",-11.13619856508917],["zevende",-11.136304922614574],["Model",-11.137436152592022],["klus",-11.137539708223619],["fles",-11.137896183883074],["wegge",-11.1379567362484],["burgemeesters",-11.138145718843603],["Werk",-11.138553807049563],["titels",-11.138662769953081],["forma",-11.139294415947873],["ban",-11.139476564081228],["object",-11.139665768878542],["grot",-11.139971429320749],["terugkeren",-11.140537934755226],["61",-11.140651200501331],["gemerkt",-11.14087919013671],["kaas",-11.140938484071942],["appartementen",-11.141226889219489],["Eerste",-11.141405265413503],["App",-11.141602613597481],["meiden",-11.14190299571338],["uurtje",-11.142288256439095],["verkoper",-11.142502182397907],["staal",-11.142942556965249],["onnodig",-11.143300063127658],["richtte",-11.143459729649743],["Saint",-11.143605434714862],["Omtzigt",-11.143820678461205],["respectievelijk",-11.143884760208346],["vliegveld",-11.14394527531403],["Window",-11.144055276094342],["sporters",-11.14410027878159],["coronabesmetting",-11.144291336401075],["cryptomunt",-11.144298362057922],["Top",-11.144375816862736],["strafbaar",-11.144408482356871],["behoor",-11.144487389558718],["Vereniging",-11.14456102457992],["Donets",-11.144582211997129],["ff",-11.145051895137215],["Wall",-11.145098850221142],["operatione",-11.145156159971119],["Zeg",-11.145266541271546],["benoemd",-11.145472576404671],["Belang",-11.146195713082362],["ingrijpen",-11.146213470565556],["zacht",-11.146744889252862],["plaatsvond",-11.147031804646977],["renner",-11.147162356440978],["brugge",-11.147520242615478],["lot",-11.147704130228565],["lon",-11.147960162089817],["geluids",-11.148094880673852],["maximum",-11.148576142511349],["lijke",-11.148605709301146],["her",-11.14926578583209],["Award",-11.149961525475797],["nemark",-11.15013676700342],["liegen",-11.150707582793693],["Bouw",-11.151051800335145],["Dieren",-11.151373070385214],["velgen",-11.151538462359461],["break",-11.151786900615487],["vergroot",-11.152179231403347],["gebruiker",-11.15240748518262],["Kruis",-11.152532984643333],["schaduw",-11.153045769680098],["lijstje",-11.153268946092208],["segment",-11.154097780170297],["afgelegd",-11.1547098352486],["vermijde",-11.155214174266536],["Stra",-11.155237510761284],["zwijgen",-11.155595457264234],["leerkracht",-11.155668804251091],["geteld",-11.155834788429239],["ooi",-11.156071577777649],["linker",-11.156812035377133],["verkoopt",-11.156945735031599],["worstel",-11.15700132296875],["pest",-11.15731350564578],["Piet",-11.158118204532068],["lelijk",-11.158767757722744],["Tilburg",-11.161255954588801],["Si",-11.161431392571851],["opgebouwd",-11.161726601290688],["afnemen",-11.161768524177365],["Vincen",-11.161795205777683],["letsel",-11.161838156016064],["kunstwerk",-11.16252805238289],["overgang",-11.162816458754886],["Milan",-11.162828083701603],["kamers",-11.162831436940605],["bevinding",-11.163012107713756],["Nord",-11.163090689886868],["bekek",-11.163122108462735],["plaatje",-11.163298123458063],["stations",-11.163445117488273],["ges",-11.16392754929042],["Bol",-11.163939249650063],["beschuldigd",-11.165218667781279],["families",-11.16555897630736],["Messi",-11.165965455103377],["toegesta",-11.166110231924778],["klassieker",-11.166129110267121],["wé",-11.166484102436117],["belandde",-11.166615392188408],["begre",-11.166687978663582],["vreemde",-11.16670328748237],["wolven",-11.166929416571534],["nota",-11.167419341216782],["Water",-11.16753395898607],["artiest",-11.167817339692423],["Super",-11.168196926560174],["OC",-11.168683982601982],["leuker",-11.16904884109323],["opbouwen",-11.169376916888014],["900",-11.169597286491474],["steekt",-11.169840918939839],["troffen",-11.170606777945718],["motoren",-11.171660241305158],["activiteit",-11.17186527734312],["bestond",-11.171942000453926],["gestaa",-11.172518767647526],["ouw",-11.172735678133858],["voorbereid",-11.174138913199696],["koeien",-11.174435573626035],["besef",-11.175102404891911],["Tien",-11.175351334968417],["torenho",-11.17581908929271],["strafschop",-11.17583599828259],["comfort",-11.176057429000316],["MacBook",-11.17606665987592],["warmtepomp",-11.176220213100985],["handeling",-11.176243000527666],["ingewikkeld",-11.176300621766028],["Klaver",-11.17632478805734],["benen",-11.176776958234097],["ontbreken",-11.176846404364689],["Canade",-11.176859125189194],["bewolk",-11.177312355351175],["achtervolging",-11.177353636449405],["omgekeerd",-11.177621127307125],["consequentie",-11.177708924608938],["Xi",-11.178076313883427],["commerc",-11.178192595419036],["trauma",-11.178509450873248],["biertje",-11.178895747010085],["dingetje",-11.178925390391395],["Lew",-11.179242660062881],["350",-11.179332478393059],["stapje",-11.17935767056177],["diens",-11.179383113606715],["verkrachting",-11.179437601415543],["1500",-11.17946215644753],["presteren",-11.180231353152674],["toneel",-11.180451298200808],["prinses",-11.180460945839847],["exemplar",-11.180500398083677],["bemoeien",-11.180531610181937],["grijze",-11.180710861984098],["auw",-11.18079933406848],["uitgedeeld",-11.180937840746799],["producent",-11.180950286026494],["kranten",-11.181237948264329],["vriendjes",-11.181249788613806],["ders",-11.181413769380804],["kou",-11.181635329664825],["Rechts",-11.181909309655037],["eilanden",-11.181921502212369],["ID",-11.18200906737112],["groepje",-11.182102960433213],["cruciaal",-11.182686236629424],["vonde",-11.183365694275848],["Zeven",-11.183651462447962],["dansen",-11.183672723800466],["Klop",-11.183926977135716],["kelder",-11.184418900821644],["verantwoord",-11.184876397039384],["verhuisd",-11.184921742338883],["duo",-11.185019981098282],["optima",-11.185154587382321],["ijden",-11.185751348925155],["Grieks",-11.185962397060443],["exempla",-11.186181954611213],["Meerder",-11.18670277574055],["plaatselijk",-11.186715192128247],["Krijg",-11.186977703246944],["extreemrechts",-11.187402598231833],["Amerikaan",-11.187502263782564],["dier",-11.187566365505166],["knuffel",-11.187609412064239],["verlenen",-11.188101428668123],["Sophie",-11.188145197254498],["stemmer",-11.188387532266681],["leugens",-11.188414574086186],["opmerkelijke",-11.188615552854035],["AN",-11.188886156519398],["Racin",-11.188937921879825],["stabiel",-11.188973790534387],["stukjes",-11.189084647132844],["doelgroep",-11.189396565444017],["voerde",-11.18958641388736],["egenwoordig",-11.18963563313189],["ay",-11.189683487749697],["indien",-11.189745372438633],["wethouders",-11.189769794869086],["gemeentelijk",-11.189845641042433],["gids",-11.189953720343727],["dodelijke",-11.1902543270062],["Binnenland",-11.1905537781148],["snapt",-11.190857970365034],["verbinden",-11.191040751355471],["make",-11.191178998661778],["ashing",-11.191210282278593],["Klimaat",-11.191365100115132],["ijk",-11.191947892650846],["tichting",-11.192008948222767],["formatie",-11.192047831868155],["verpakking",-11.192148387702725],["Thuis",-11.192190682188446],["donkere",-11.192318440664211],["ontken",-11.192444229861756],["BO",-11.19246254211102],["breder",-11.192677185950945],["óg",-11.19286095766913],["Blue",-11.192956146235172],["liedje",-11.19325711925465],["heffing",-11.193271997843647],["rock",-11.193436915852331],["bol",-11.193729050510445],["Noors",-11.19426480878363],["streng",-11.194304832296543],["elektriciteits",-11.194421491513737],["onderuit",-11.194978741366011],["cilinder",-11.19557717889418],["robot",-11.195923247289336],["lezers",-11.19605801298382],["oprichter",-11.196096596663734],["450",-11.196850863646919],["tenzij",-11.19753144184661],["isschi",-11.197901051536508],["stream",-11.198632773509386],["varkens",-11.198759690964147],["vergrote",-11.198897731991655],["aanhoudend",-11.199018432780372],["kunstenaar",-11.199530657032374],["versneld",-11.200450648411943],["kroeg",-11.200898232675168],["verkiezings",-11.200956660118328],["Prima",-11.201529512135505],["romen",-11.20184906785117],["lift",-11.202293272231378],["lichting",-11.202511058021445],["óó",-11.202529388564418],["aspect",-11.203520681036615],["Algeme",-11.203549895186242],["houder",-11.204243883867877],["Koen",-11.204624516078393],["án",-11.20464137330851],["MC",-11.204757930195672],["geel",-11.204928219994683],["Bas",-11.205049122239858],["Vrouwen",-11.205129096867207],["Gewo",-11.205611252407227],["schuil",-11.205695253513749],["78",-11.20576000904456],["jurk",-11.205852828963904],["automaa",-11.205902437216054],["wille",-11.206039813735405],["studies",-11.206906268769933],["Wester",-11.207305770821339],["Amersfoort",-11.207528539682777],["Gas",-11.207624095867985],["cha",-11.208100452882505],["Koninklijk",-11.209395685347888],["kliniek",-11.209433653578946],["Space",-11.209438712477667],["Beleggers",-11.209470197140897],["commandant",-11.209482787166595],["Cherson",-11.209489695224512],["handelaar",-11.209559929543657],["AOW",-11.209696350649965],["problematiek",-11.20972531262044],["Nationaal",-11.209825861225813],["dictator",-11.209908881499015],["renteverhoging",-11.210082292492444],["aanbieder",-11.210293059219719],["monster",-11.21044093842212],["verplaats",-11.2106765949542],["geopolitiek",-11.21074413278074],["moeders",-11.210814121632618],["voorspelling",-11.21083608411101],["Overig",-11.210840127759475],["geheugen",-11.210915880624057],["versterken",-11.21097980774448],["minderjarige",-11.211052834713884],["wou",-11.211102088811012],["restaurants",-11.21126186856456],["protesteren",-11.211434837067976],["patroon",-11.211477923680995],["kring",-11.211747809931742],["ruimtes",-11.21186686050655],["draag",-11.211957621166421],["91",-11.212077527885864],["islamitisch",-11.212216494389715],["Tay",-11.212443436658793],["ambassadeur",-11.212577545265395],["handje",-11.21270635506144],["Hof",-11.21315104662217],["regenbui",-11.213157386469536],["ingesteld",-11.213508465169143],["filter",-11.213538984755427],["bitter",-11.213615193164946],["Amsterdammer",-11.213753254853895],["ram",-11.214080915662564],["installer",-11.214096440703871],["erde",-11.214218031064107],["geestelijk",-11.21461645176037],["container",-11.214888128861269],["info",-11.215015215655004],["diende",-11.21518384711272],["verplaatst",-11.215420794473559],["ET",-11.215500389082793],["NO",-11.216260079891734],["polder",-11.216847307152102],["onderscheid",-11.21688004141383],["ergste",-11.217240983538447],["uitzonderlijk",-11.217790790007708],["welvaart",-11.217938851001431],["ontbijt",-11.218171311823077],["audio",-11.218230421538669],["Drenth",-11.219157281876377],["reaguurders",-11.219404288811088],["drager",-11.219742576080437],["vocht",-11.219783509699383],["em",-11.219806559347038],["bespreek",-11.22025105927669],["lvast",-11.221317202606153],["huurwoning",-11.221354801979695],["vaardighe",-11.22163231229555],["kunstenaars",-11.221734296337363],["gasprij",-11.223031280093398],["kopje",-11.223642380757699],["uist",-11.22389613484684],["dient",-11.224369844479408],["drijf",-11.2246986295416],["paarden",-11.224870996243727],["Goud",-11.225746082407317],["stemde",-11.226835290978878],["vertrekt",-11.22732288210987],["Oorlog",-11.22740626276235],["streeks",-11.228384991599832],["divers",-11.228691135382826],["dachten",-11.22886144316064],["enquête",-11.229232086054372],["gekend",-11.229306936797283],["red",-11.229464392363356],["scheiden",-11.23036551664119],["nieuwst",-11.230726681468871],["bevestigde",-11.231598519007816],["rijders",-11.231637062389455],["drink",-11.231871751135559],["drong",-11.232651485000877],["marge",-11.232893514355677],["180",-11.233258321926733],["igen",-11.233463265418695],["gehakt",-11.233465446441917],["ovic",-11.234162737005947],["geweten",-11.235446447049778],["dankbaar",-11.23602071540336],["brieven",-11.236467563302384],["spreek",-11.236752204607313],["kenteken",-11.236797375718261],["monument",-11.237281632296332],["stoten",-11.237660006843203],["oort",-11.23768837046854],["atten",-11.238050604121076],["strategische",-11.238246211110246],["Marie",-11.238262939984835],["ó",-11.23871860320481],["beroeps",-11.240926208344897],["pompen",-11.24108075030378],["pop",-11.241234464636516],["schikking",-11.242011059554507],["apparat",-11.242056263134632],["streek",-11.242856363145624],["nomen",-11.243067316357372],["Store",-11.243442473605155],["Anton",-11.24347423759146],["interessante",-11.243679597671687],["verbazing",-11.243880039345179],["frustratie",-11.243911057128429],["strafrechtelijk",-11.243919354025635],["logistiek",-11.243967087290143],["chemisch",-11.244071459928024],["professor",-11.244147025020027],["symbool",-11.244339781652906],["humanitair",-11.24435143783948],["stimuleren",-11.244363302530452],["avontuur",-11.24437992869789],["NFT",-11.244421505572673],["attractie",-11.2444334433822],["Ziggo",-11.244455733671764],["hardware",-11.244850383302115],["kostte",-11.244891951310795],["Excels",-11.245002049159773],["gouverneur",-11.245007346631628],["regisseur",-11.24517617778384],["verwerkt",-11.245240243062346],["structureel",-11.245318151069092],["Golf",-11.245357503052897],["versloeg",-11.245373305883515],["Vuel",-11.245609102545549],["comité",-11.245848667734617],["doelwit",-11.245984612128519],["verton",-11.246142549806603],["instrument",-11.246364841815431],["enigs",-11.246443145154748],["BV",-11.246544484700413],["plusser",-11.246548134274919],["Rabo",-11.24659503413908],["invoer",-11.246601317902705],["inlever",-11.246768726274464],["Fries",-11.246944426596752],["mbledo",-11.247012735101418],["verlenging",-11.247194721768851],["NASA",-11.247781831181005],["Luik",-11.247790624011387],["special",-11.247812104415939],["Valt",-11.248264023729648],["Mede",-11.248906013696578],["Hitler",-11.248915516561757],["kinderopvang",-11.249331113610024],["genaamd",-11.249357289582012],["glazen",-11.249364651135025],["opgemerkt",-11.24969905583946],["vreten",-11.250273350973071],["schuif",-11.250491279223953],["Egypte",-11.251776857811954],["ey",-11.251802070396797],["emotionee",-11.252030268739308],["voorspellen",-11.252041819987394],["sticker",-11.252797138038815],["favoriet",-11.25284578159426],["line",-11.252854598483022],["eindigen",-11.252981643675065],["introductie",-11.25306721161088],["leefde",-11.253081003003972],["duurzaamheid",-11.253277935504123],["nationaliteit",-11.253332486352452],["gewonde",-11.253694347992834],["sorry",-11.253984843785528],["huilen",-11.2541039874395],["Hond",-11.25410562641076],["hoefde",-11.254122204640357],["belangstell",-11.254215094663401],["verliet",-11.25426521004485],["gestelde",-11.254339044135726],["Sara",-11.254834088233736],["war",-11.254876650133331],["eg",-11.255043524174813],["centraa",-11.255211677900245],["tijdig",-11.255419322105805],["gebruikelijk",-11.255428117877434],["!\"",-11.255470579907225],["Mike",-11.255513255088768],["''",-11.25623939632191],["blind",-11.256392543618297],["waarschuwen",-11.256447849598354],["aanvoer",-11.256747769869573],["Tel",-11.256795941349601],["Beter",-11.257164381495024],["beschikba",-11.25731951765724],["triest",-11.257568865384261],["Stop",-11.25758131749124],["Cor",-11.25816599093412],["lengte",-11.258399584647162],["binnensta",-11.258463548818739],["rice",-11.258477727073325],["ontkenne",-11.258624271959535],["innen",-11.259132472992972],["Minder",-11.26004823119752],["McLa",-11.260470321789036],["rey",-11.260482516207517],["buitenspel",-11.260893134469544],["beslissen",-11.260999143460914],["nodige",-11.261192548977771],["Vos",-11.261229406218272],["Meest",-11.261919576001487],["openlijk",-11.261927356394255],["knie",-11.262341020935386],["zwaargewond",-11.262436635671591],["afwezig",-11.262720538608963],["externe",-11.262735418436158],["Filip",-11.262933379049864],["waarm",-11.263151885466831],["lat",-11.263772352879434],["éér",-11.263961865993409],["bezighoud",-11.264591889588427],["zwanger",-11.265564308863176],["toeval",-11.265903497740833],["mislukte",-11.266458251116363],["Dag",-11.267235566296518],["Hart",-11.267621139051547],["Volgend",-11.26785913246118],["scheiding",-11.268493867726544],["the",-11.269373747821067],["lobby",-11.26959898079864],["inzittende",-11.269760804795958],["Stad",-11.270027951800222],["MG",-11.270355759652402],["voetbalclub",-11.271089183086183],["Sven",-11.271342280369556],["rijtje",-11.271501518743802],["bommen",-11.271691440651827],["zorgvuldig",-11.27174923186282],["nadeel",-11.27181989940968],["daalt",-11.271833853849955],["immuun",-11.272351169627958],["79",-11.272601013657898],["erkenning",-11.273031958183815],["groeiend",-11.27351589734865],["trainings",-11.27389244509224],["ondervind",-11.274386171834621],["genoemde",-11.275196925391104],["gevierd",-11.275278716686039],["besmette",-11.275533619324655],["schandaal",-11.275654409288911],["Gra",-11.275940622157847],["Bijn",-11.275996261339934],["verdeling",-11.276298582311494],["ikke",-11.277203583686292],["twe",-11.27730412620827],["werkzaam",-11.277331574805721],["zielig",-11.277600809561704],["stijds",-11.277684619753535],["cross",-11.278551221078438],["woningbouw",-11.2786558051535],["deskundigen",-11.279569487634687],["publicatie",-11.279644986661685],["onschuldig",-11.279813924112947],["VTM",-11.279833822335013],["Ca",-11.2800317983175],["verdenking",-11.280335643638368],["badkamer",-11.280386201676937],["speech",-11.280484593982145],["feestelijk",-11.280684049268137],["geproduceerd",-11.280851511916962],["tickets",-11.280942017748302],["behaald",-11.28096557448408],["ende",-11.281084083893536],["ingeschakeld",-11.28114769213258],["Nooi",-11.281225169842445],["Janssen",-11.281276852480726],["gelanceerd",-11.281354559989001],["gezondheidszorg",-11.28147572895827],["Bal",-11.281586794573395],["volstrekt",-11.281646453660304],["puzzel",-11.281882083440518],["geliefde",-11.281897307575205],["schorsing",-11.281908474793088],["Bayer",-11.281914865066934],["Kies",-11.282497357361882],["radar",-11.282534990740945],["stunt",-11.282575894719537],["Federal",-11.283154704497765],["Maarten",-11.283239452130394],["bovenstaand",-11.283332443761253],["talkshow",-11.28355205609521],["late",-11.28412334519759],["84",-11.284189718024818],["evaluatie",-11.28455350113904],["versterking",-11.28469057288926],["rellen",-11.284988704004121],["Vl",-11.285309206370432],["For",-11.285350494417962],["strategisch",-11.285818566196951],["lied",-11.286029912637861],["paleis",-11.286067003368418],["Jans",-11.286356629216936],["iswaar",-11.28657035335211],["erder",-11.286905988577228],["Ger",-11.287162010697777],["ult",-11.28723006565988],["Pere",-11.28735844924534],["Christ",-11.287848693989254],["vergelijk",-11.288126215890905],["groenten",-11.288404072113515],["ssen",-11.288424143740897],["gevel",-11.288695214851423],["Ziekenhui",-11.288721488317588],["Rem",-11.288762872123659],["grad",-11.288985987870998],["expositie",-11.289000996234305],["grootte",-11.289543443238257],["welzijn",-11.289802369210953],["PF",-11.29026116171407],["Senegal",-11.290281352993516],["verhuize",-11.290410796200836],["geïnteresseerd",-11.290744937980781],["Ring",-11.290764511173888],["lampen",-11.29117909651211],["nagedacht",-11.291748716202846],["leken",-11.291874196018124],["uitkom",-11.29192683062393],["bereikte",-11.292345110734706],["hekel",-11.292381114973946],["koper",-11.292864011832929],["opstand",-11.29335021714039],["bewer",-11.29395972448879],["storten",-11.294049353736764],["Ryan",-11.294105426940954],["amens",-11.294184119289323],["59",-11.294339424052776],["regelgev",-11.294545817740474],["revolutie",-11.29514939685164],["Anna",-11.295511634996748],["allereerst",-11.295962495372475],["Heijn",-11.297255337932459],["Daarbi",-11.2980203156044],["Limburgs",-11.29813979793006],["vernietigen",-11.298235673317393],["Gerrit",-11.298832788868319],["grootschalige",-11.29973114567216],["held",-11.29983917139558],["gold",-11.299963552985087],["ber",-11.300445597534017],["rivier",-11.30054040622391],["shirt",-11.301361043311568],["tweedehands",-11.3014337189052],["muzika",-11.301451432149543],["camping",-11.301523565211959],["seizoenen",-11.301759290720433],["keeper",-11.30181374573818],["medium",-11.302035297953292],["bot",-11.302203701808686],["schaars",-11.30223089749138],["buien",-11.302356610702752],["snelst",-11.302605969196742],["veiling",-11.302694445401197],["opbouw",-11.30286071165825],["mama",-11.30425697012443],["Hou",-11.304358414478475],["lach",-11.304723174247712],["voorspeld",-11.30507350752434],["andgenoot",-11.30589040909955],["Staats",-11.306416363740096],["stort",-11.30679203155219],["Fin",-11.307105574668142],["groeps",-11.307492658841287],["ijzer",-11.308555516060967],["versoepel",-11.308774793610302],["beantwoord",-11.308810125280477],["trof",-11.308936315921418],["letten",-11.30895308175099],["Stads",-11.309037316939438],["Terug",-11.309276015993333],["Bel",-11.309355789809123],["schapen",-11.310279040239777],["Toy",-11.310453363910776],["lezer",-11.310756076470582],["ëren",-11.31094803795078],["bezetting",-11.31095380668371],["assist",-11.311120428820098],["miljardair",-11.31127678172463],["uitgezet",-11.311794711610155],["likken",-11.311916741498004],["opende",-11.312377289259278],["aarover",-11.31247095784585],["86",-11.313079192031314],["ondernemen",-11.313407473518907],["gered",-11.313494597796355],["lunch",-11.31364621861765],["zaamheid",-11.313893447138],["besprek",-11.313945421195667],["Alpin",-11.314003901927189],["Bakker",-11.314071484966647],["bezette",-11.314375355622154],["Allema",-11.314610054355846],["verslag",-11.314775191520809],["waari",-11.314862376511769],["verzameld",-11.314935884114647],["atlete",-11.315176848454744],["Mil",-11.315672464369326],["kassa",-11.31581616244888],["weekeinde",-11.315996272395056],["Internationa",-11.316210608275949],["Stream",-11.316410235536791],["plekje",-11.316427678974005],["—",-11.316626485874721],["Hongkong",-11.316626762427338],["Festival",-11.316628177225983],["boycot",-11.316631292823322],["vis",-11.316733301548783],["Oscar",-11.31675692947847],["geëist",-11.316764317372307],["Gerard",-11.31679491676352],["Centrum",-11.316813571119361],["bu",-11.317240627362196],["vastgelegd",-11.317257435231008],["geschrapt",-11.317271082775438],["Studio",-11.317378964860236],["lingen",-11.317800616603083],["king",-11.31792086322261],["feitelijk",-11.317957585460357],["Christen",-11.31809978960333],["Star",-11.31821436038556],["basisschool",-11.318352905279387],["overeen",-11.318719859656847],["natuurgebied",-11.318758566004291],["Rotterdammer",-11.319136613456738],["bestuurlijk",-11.319367920959694],["oordeelde",-11.320312280036177],["koppen",-11.320408039183857],["achtige",-11.320615919806269],["ARN",-11.32118484866333],["grondig",-11.321898505420778],["Dick",-11.322416504478102],["eerde",-11.322570041858402],["fel",-11.323277753450053],["hee",-11.323544476062084],["evolutie",-11.323629506811507],["streven",-11.32373894977175],["katholieke",-11.324777644964254],["bibliotheek",-11.32503005272521],["Big",-11.325062094351647],["vliegt",-11.325152067400385],["bad",-11.325386410199764],["Francisc",-11.325797780646566],["complexe",-11.32595736596593],["Meijer",-11.3259759150147],["Just",-11.326477902081374],["aannemer",-11.327109395674578],["erken",-11.327730826192996],["Moeder",-11.327852333691823],["faillissement",-11.32788642598652],["verwoest",-11.328150963542981],["tiende",-11.328510742829621],["trekker",-11.329252627994393],["aanhouden",-11.329378281031241],["mits",-11.329657726045097],["rooster",-11.329722880481148],["koffer",-11.330142350157143],["geï",-11.330564063881615],["loods",-11.33057996739906],["depressie",-11.330664110168765],["Prijs",-11.330756221274523],["massale",-11.330781638645243],["geble",-11.33099135411178],["eenmalig",-11.331802471225524],["uitstel",-11.331883403009119],["vervanging",-11.332171321497388],["Haas",-11.332383333925156],["gender",-11.332526819999218],["verdiende",-11.332695593019642],["vastge",-11.332779458759148],["continent",-11.332918086875114],["Pé",-11.333379329875948],["daarnaa",-11.333489435439068],["vogel",-11.334273654534346],["gehel",-11.33479664394038],["OV",-11.334982117017724],["gebl",-11.335284825910446],["zwangerschap",-11.33569095917923],["valse",-11.336061601802015],["eenheid",-11.336165618289943],["Time",-11.336318777265582],["Milieu",-11.336383000149663],["My",-11.33666367969375],["explosief",-11.336894910403773],["ich",-11.336902339752411],["loren",-11.33740023852936],["invoering",-11.33744154954142],["flessen",-11.33767865923684],["tests",-11.3382768405516],["stopte",-11.338524427624371],["groente",-11.338569509385147],["voortaa",-11.338978352059922],["ix",-11.340276424419432],["langdurige",-11.340518433972774],["process",-11.341294533678315],["Europ",-11.34153160740301],["racle",-11.341615566469518],["Westers",-11.341922766632406],["vernietigd",-11.342046965896667],["wappie",-11.34312066606244],["bestorm",-11.343139003762303],["geslacht",-11.343140256958447],["SC",-11.343631985928067],["vice",-11.343804406362114],["verliep",-11.344340162512658],["Maa",-11.344792464574248],["sessie",-11.3448311542134],["eeds",-11.344900058987903],["cash",-11.34536555134248],["vermist",-11.345420698770152],["divisie",-11.345459165346757],["handhave",-11.345585078795116],["son",-11.345742938909762],["rieven",-11.345987579438262],["projecte",-11.346127298382829],["Ber",-11.346380441023353],["stoer",-11.346383007780727],["intensieve",-11.346474384893595],["bril",-11.346536670463438],["getrouwd",-11.346630576103607],["Test",-11.346787101656684],["98",-11.346849169733499],["poten",-11.346913490226996],["release",-11.34698541277168],["tel",-11.34722020799508],["Oo",-11.347375513170274],["moraal",-11.347404760158248],["horst",-11.347501600608044],["MR",-11.347679728517777],["Oekraïn",-11.347709152663532],["leraren",-11.347777532961771],["stegen",-11.34852892411089],["talenten",-11.348973853251819],["kapitaal",-11.349068178965144],["rap",-11.349187146416412],["bezuinig",-11.349432549743845],["achtig",-11.34967354535156],["eld",-11.349860288181938],["schaffe",-11.350826739284692],["deeltjes",-11.351129621258362],["inspiratie",-11.351686997264437],["corrupt",-11.35247456343206],["Do",-11.352685037113197],["kleuter",-11.352805763230686],["efficiënt",-11.35325747878648],["Blind",-11.354111766525616],["po",-11.354246638555821],["owel",-11.354409073100117],["sparen",-11.354418453479157],["concentratie",-11.354636122716782],["eds",-11.35469026102394],["rare",-11.354893940878776],["minimum",-11.354983402734867],["kantoren",-11.355007405729886],["schreeuwen",-11.355054660764742],["Curaçao",-11.355088034859719],["parcours",-11.355088200281907],["Californi",-11.355088233743922],["begraafplaats",-11.355111972291413],["Tokio",-11.355167009502905],["Mon",-11.355267194759323],["renovatie",-11.355298957094025],["gemengd",-11.355352968689358],["reputatie",-11.355415375447972],["trad",-11.355523949609442],["verzette",-11.355534503450857],["structuur",-11.355538986482781],["NRC",-11.355609604621508],["bood",-11.355879897419038],["artillerie",-11.35590229790963],["importeren",-11.356054038251678],["Russell",-11.35608891599984],["display",-11.35617220179295],["dialoog",-11.356278574508215],["stilstand",-11.356390046171917],["Zelenski",-11.356421159052038],["anken",-11.356427811247428],["aanbeveling",-11.356457487725507],["Jones",-11.356579040505364],["persbericht",-11.356627683259493],["Wageningen",-11.356729650971761],["oprecht",-11.35678304816587],["verspreiding",-11.356862016575379],["weergave",-11.356875333032615],["individueel",-11.356943728160982],["Pier",-11.357000385252862],["Veiligheid",-11.357605787140313],["bedden",-11.357684327659578],["stokje",-11.357684813151376],["Walter",-11.35790309981656],["Colleg",-11.357987835458257],["benoem",-11.35805135009793],["woonwijk",-11.358257363636275],["levenslang",-11.35826186048476],["Duivels",-11.358547611352298],["potje",-11.358779079028698],["therapie",-11.358827871381521],["Nova",-11.358922295751423],["pure",-11.359058962603449],["Demir",-11.35926939993477],["grafiek",-11.359297340876656],["uitgebreide",-11.359306262502505],["expliciet",-11.359332439878614],["elektronisch",-11.359509475118719],["Blijf",-11.359647682379382],["ijdje",-11.359776416407769],["zuur",-11.360217276755137],["bonden",-11.360693767503435],["Depp",-11.360742836570683],["wetsvoorstel",-11.361146687706416],["virtue",-11.361170978464832],["simpele",-11.361392633663147],["Institu",-11.361568404835415],["voorhand",-11.361762145998831],["examen",-11.36203616470925],["RB",-11.362423492940417],["cao",-11.36258610077155],["handhaving",-11.36305215880589],["schadelijke",-11.363682115792729],["gewisseld",-11.363809234263533],["passie",-11.364358434873003],["arbeid",-11.364819528594175],["binnenlands",-11.364923702797384],["eenzijdig",-11.365209121097639],["bedank",-11.365360602879354],["Take",-11.36577125790777],["reality",-11.366241374989128],["beleving",-11.366270278530257],["mars",-11.367060683325136],["beloofd",-11.367311567899863],["tekende",-11.36765736898451],["ruime",-11.367909295583999],["doodge",-11.368613795102709],["ontdekking",-11.368859402563594],["VAR",-11.368938178958008],["zakelijke",-11.369361503118125],["Komend",-11.369522746949627],["heilig",-11.369540349558537],["langdurig",-11.369876087491868],["donatie",-11.370502311863206],["Familie",-11.371851325552417],["gaande",-11.371879749536241],["schone",-11.37245024003947],["Mari",-11.373162422123329],["beweer",-11.373921283722266],["bijstand",-11.373988227051958],["mentaliteit",-11.374098227387398],["betaalba",-11.374327618881892],["mondkapje",-11.37450813108335],["secretaris",-11.374583287240442],["schop",-11.377127008204496],["concre",-11.377376830842708],["eking",-11.377437695982906],["Lamb",-11.377535598630661],["geur",-11.37831874047077],["Mars",-11.378379463770393],["hausse",-11.378749548260526],["ance",-11.378766085003388],["onverwachte",-11.379340462876076],["Light",-11.379839733694443],["Hasselt",-11.379939938876785],["wo",-11.380012829301945],["buis",-11.380700746762507],["congres",-11.3809598568794],["Roemeni",-11.381138438791798],["Marine",-11.381410292475472],["ofzo",-11.381912012955302],["gedood",-11.381972924201598],["krediet",-11.382118632669215],["fiscal",-11.382133668096234],["Waal",-11.382232031901156],["Roy",-11.382431956978749],["woestijn",-11.382495965054499],["gekr",-11.383658448106416],["Slot",-11.383796786348686],["Las",-11.384103863670022],["Plan",-11.38430061692692],["verdw",-11.384496288252555],["gekke",-11.38493667261327],["conferentie",-11.385949093777388],["ikken",-11.386325175252411],["verplaatsing",-11.386514749557675],["Bob",-11.386622760784629],["aang",-11.387153864397735],["versnelle",-11.387564521804306],["ique",-11.387786010385666],["aanvullend",-11.38792370489047],["cher",-11.387984702273286],["vervallen",-11.388949846550531],["fietspad",-11.389229835786054],["verwerken",-11.39011182967949],["zuinig",-11.390274738628204],["Mah",-11.390977582858234],["bezorg",-11.391021705938341],["betrouwba",-11.391128855147638],["platen",-11.391237112331591],["paus",-11.391711634619904],["Koop",-11.392453793844176],["Ye",-11.392684148537432],["Sun",-11.39273754315761],["Son",-11.39290199256553],["omgaan",-11.393101136282846],["Ond",-11.393343580057891],["orry",-11.393591911021467],["criminee",-11.394374731637486],["poort",-11.395066771571287],["mmy",-11.395073716791599],["Kardashian",-11.395088024481517],["America",-11.39508862051977],["Bitcoin",-11.395089004744248],["herhaling",-11.395102805335469],["Randstad",-11.395129853846434],["binnenko",-11.395144058904195],["personage",-11.395151539797823],["motivatie",-11.39515640533069],["Leeuwarde",-11.39518012901274],["willekeurig",-11.395224445402379],["Haarlem",-11.395241609084582],["asfalt",-11.395251603870225],["handtekening",-11.395305500087126],["Lely",-11.39542102145801],["parlementair",-11.395504673699978],["brandstoffen",-11.39550664184671],["Bedrijven",-11.395561768570145],["European",-11.395581860776742],["veroordeling",-11.39560709336331],["demonstreren",-11.395666544149588],["Sky",-11.395766679219738],["kernenergie",-11.39583268492994],["tankstation",-11.39589411755154],["uro",-11.395907014583464],["geduld",-11.396465951398664],["euren",-11.396475342065342],["getuig",-11.396506087961546],["terreur",-11.396534608695958],["gaaf",-11.396610905701117],["kermis",-11.396672494000672],["technologisch",-11.396673250909469],["cannabis",-11.396678716401187],["communic",-11.396688444280262],["aftrap",-11.396891289127465],["honderdduizend",-11.397226909259244],["SE",-11.397345412346178],["kuu",-11.398501841826082],["stempel",-11.39856826079296],["bewegingen",-11.398746165324546],["wieler",-11.398765365469634],["misdrij",-11.400065300738634],["verkracht",-11.400807071372123],["imago",-11.400935669368328],["overduidelijk",-11.400986544692449],["daarbi",-11.401220684254797],["omwonende",-11.401545362496039],["lust",-11.4027309097029],["herdenking",-11.40297835873206],["bom",-11.403371187727537],["koepel",-11.40339565178622],["zwem",-11.403926161217417],["verdieping",-11.404056096539495],["haa",-11.404317341827458],["praatje",-11.40454750565636],["juichen",-11.404971001794097],["verbruikt",-11.405085786369808],["schaamte",-11.405296090791651],["rem",-11.405355339901114],["spier",-11.405531992968221],["verplichte",-11.406059204399693],["cirkel",-11.406492508144366],["verzekerd",-11.406603502760728],["jonger",-11.406682537882018],["Lil",-11.40670845499325],["Rog",-11.406924020436492],["beweeg",-11.40703553233964],["Richard",-11.40712409463557],["Toe",-11.407270544402376],["beloofde",-11.407448995369094],["ondersteund",-11.407459792491018],["star",-11.407462915473724],["Renau",-11.40774063547483],["interactie",-11.408259304628293],["tour",-11.408685701735212],["hypotheekrente",-11.408708175333825],["lichtingendienst",-11.40880897394552],["Stijn",-11.40884239047477],["zuidelijke",-11.409102672697209],["Rock",-11.409199354362734],["ation",-11.4093630642007],["suggestie",-11.409547184746263],["symbolisch",-11.40999163855729],["jongeman",-11.410238055124935],["llong",-11.411096190563727],["adviser",-11.411503933965935],["vlot",-11.412741838121004],["gewo",-11.413823370415615],["Pay",-11.413991288925784],["kondig",-11.414051555700365],["boekje",-11.414313160511226],["kogel",-11.414384536002222],["vertegenwoordige",-11.414877428888502],["tactiek",-11.415424468867108],["AP",-11.415580196396352],["mails",-11.415642534842736],["Volod",-11.415708187862387],["akpo",-11.416004535512203],["business",-11.416079306668735],["plaatjes",-11.416823465579663],["nauwkeurig",-11.417238770522047],["bewoner",-11.417265232743858],["hé",-11.417504864591647],["83",-11.417592742885992],["races",-11.417835061294266],["IV",-11.418001386142437],["financiering",-11.419536540856111],["intern",-11.419580955460047],["inzette",-11.419625572192112],["ort",-11.419727413137892],["lan",-11.419806013696991],["Th",-11.419808308777613],["vergoed",-11.419869823615379],["macro",-11.419955836074514],["waardevol",-11.421171104035182],["Flori",-11.421394956687848],["dwang",-11.42140446860486],["anse",-11.421996316811796],["sius",-11.422135534697139],["financier",-11.42237622188039],["Ab",-11.422393813622634],["vorst",-11.42261834328323],["grijp",-11.422973635865837],["kussen",-11.42308129039124],["vieze",-11.423148444931332],["meters",-11.423263052251375],["zakelijk",-11.42372560919942],["03",-11.424303334050073],["put",-11.42465371436658],["rones",-11.42471344005254],["Lat",-11.42495765358909],["Luka",-11.42563665333331],["ruimtevaart",-11.425848264265724],["verzuim",-11.425862623174384],["82",-11.427300794593968],["Bi",-11.4273368701719],["erkend",-11.428193244745131],["Zee",-11.428766595425286],["Ligt",-11.429208223925752],["warming",-11.430077311270365],["isten",-11.430702515313142],["Emma",-11.430783391826852],["staart",-11.430963236532332],["Gi",-11.43125816722958],["omring",-11.431335064519898],["groten",-11.431414547447828],["Ieder",-11.432299302623234],["voorspel",-11.432361016536031],["overstappe",-11.432464532731082],["overstroming",-11.432503458958255],["haalbaar",-11.432551593490205],["Ecuador",-11.432963045501882],["May",-11.433589919120244],["voegde",-11.433681251183602],["wisseling",-11.433706979868797],["Ham",-11.433854401874795],["deelde",-11.433890541134407],["structure",-11.433995859668604],["drempel",-11.434138985950925],["krachtige",-11.434206823206223],["full",-11.434641483245006],["illa",-11.434738396503334],["Ch",-11.435315849376614],["Zit",-11.435709737964979],["Saoedi",-11.435929631040155],["Brand",-11.435983291168771],["errari",-11.436211417401159],["pond",-11.436539851867916],["functioneren",-11.43669150647551],["presentat",-11.436711108132476],["Mohammed",-11.436757982544593],["oligarch",-11.43676036244781],["confrontatie",-11.436764294313024],["Management",-11.43676718048313],["concurreren",-11.436813511733554],["Dutch",-11.43686001633898],["Gündo",-11.436889270139933],["Rafael",-11.436891088539046],["apenpokken",-11.43693810529625],["referendum",-11.437144082759138],["Argentijn",-11.43740677989088],["Jonas",-11.437437373282982],["arrogant",-11.4375261478253],["Wever",-11.437693845339892],["steekpartij",-11.437695209545762],["Sander",-11.437775175647861],["parkeerplaats",-11.437901651165529],["ngeveer",-11.437965072706858],["Israëlisch",-11.438108714860117],["etje",-11.438119549409361],["wachtrij",-11.438131347754078],["rolstoel",-11.438361834216064],["gra",-11.438549152519759],["landgenote",-11.438769647399718],["190",-11.438993622835042],["registratie",-11.439020939680418],["intentie",-11.439179661917704],["(!)",-11.43918567314457],["afkomst",-11.439381314748683],["zonnige",-11.439408889588805],["tractor",-11.43958456572507],["onference",-11.439629652129987],["tijdstip",-11.439651397895673],["bescherm",-11.439682851724083],["ov",-11.439767160597661],["smerig",-11.440323372342597],["besparing",-11.440397594256192],["fragment",-11.440568478471118],["hernieuwba",-11.440780281475785],["exclusief",-11.44093700660085],["tablet",-11.44125659710334],["verzin",-11.441316018316389],["Ni",-11.441595438108129],["afschaff",-11.44178930247119],["twitter",-11.441812473484996],["verbaas",-11.442474879894426],["sleep",-11.442564240427338],["Braziliaans",-11.443189085240189],["verwarmen",-11.443328331043492],["machts",-11.443684092898113],["Camb",-11.443897120848167],["dom",-11.444420968598735],["huurders",-11.445387476464838],["inder",-11.445732581595703],["Hele",-11.445923677871523],["Quick",-11.445951426456471],["blokken",-11.445970239224206],["talige",-11.446257628373841],["nsoverschrijdend",-11.446351557665556],["gooit",-11.44643915844339],["arme",-11.446510809142875],["Barc",-11.44657754792797],["geschikte",-11.446591533762785],["campus",-11.44689824781164],["uurman",-11.447239222722352],["camper",-11.44733507085816],["prikke",-11.44749055857577],["rommel",-11.44766638580225],["uitbrak",-11.448014588814761],["helm",-11.44818685442008],["verschee",-11.448347095382129],["nkele",-11.448533326018632],["gewenst",-11.44857139636019],["discipline",-11.448824944235055],["zieken",-11.44898910199296],["Wees",-11.449685626082212],["dramatisch",-11.44973436938826],["menig",-11.449738328578121],["gewapend",-11.44993960256338],["bubbel",-11.450198331579951],["mannelijk",-11.450212348810298],["federatie",-11.451100117722135],["vreugde",-11.451219813361107],["kwalijk",-11.451613163328238],["enburg",-11.451691036998058],["deloos",-11.451694532846592],["wolken",-11.451870959429819],["diploma",-11.452064199423887],["uwen",-11.452078807956223],["stroming",-11.452411544439293],["woordvoer",-11.452700522555181],["Strak",-11.453608630179168],["stelen",-11.453716792888548],["Game",-11.453944456113465],["Dekker",-11.45395512323],["verslagen",-11.454503416499815],["privat",-11.45465499683771],["uitval",-11.45477241881275],["blond",-11.455055517356353],["wor",-11.455271079246138],["verhuis",-11.455447498846995],["schakeling",-11.45591079497498],["populariteit",-11.455971839773198],["neutra",-11.45625937859915],["Niels",-11.456304435608914],["kraam",-11.457102400540704],["opper",-11.457339856714661],["erkende",-11.457835692479776],["criteri",-11.458846952211738],["solidariteit",-11.460181262333814],["industri",-11.46030585157119],["koel",-11.460506955020481],["houdbaar",-11.46082408294663],["bes",-11.46088577158914],["Winterswijk",-11.46142664022983],["gehoor",-11.461499251379962],["geniet",-11.461817101390729],["analist",-11.462289530374346],["vul",-11.462795589680184],["fatsoenlijk",-11.463420027067485],["voornaam",-11.463737795498417],["mbo",-11.464316747323544],["populairst",-11.464367227674764],["leerde",-11.464399350284186],["presenteerde",-11.464790343325552],["roman",-11.465048155693081],["UMC",-11.46562355515359],["masker",-11.466052996982501],["zeik",-11.467137434795447],["schijt",-11.46730776321719],["bloot",-11.467826915528423],["ere",-11.468139025168002],["deugen",-11.468192600426981],["slechtste",-11.468291393112732],["stilte",-11.46856992516829],["Nie",-11.468987482456905],["loper",-11.469605344031727],["worst",-11.469786203690127],["onen",-11.469812028736847],["bio",-11.470150229704593],["AF",-11.470227043867395],["Gerw",-11.47039923609388],["ist",-11.47044795460741],["Ukraine",-11.470491279963879],["fusie",-11.471142144032303],["Daarop",-11.471272381341205],["aanklacht",-11.471731966166244],["!)",-11.471872815781499],["poep",-11.472012482179267],["truck",-11.47225486734444],["mondmasker",-11.472285503204843],["verdienmodel",-11.472485911350649],["Laur",-11.473867600357098],["kond",-11.474167755182236],["schijf",-11.474379818160799],["Boe",-11.47455497120215],["gelijkspe",-11.474579427128965],["feite",-11.474628171219246],["knappe",-11.47501155294674],["aansluiten",-11.475405856638808],["misdaad",-11.47616858068907],["back",-11.47636061417375],["zee",-11.476600124193261],["War",-11.477546437851444],["linkt",-11.478112051076335],["behal",-11.478159837278096],["offensie",-11.478519458575128],["AT",-11.47853509658188],["lost",-11.479407734108285],["provider",-11.480250185701154],["Autoblog",-11.480265106384213],["zuurstof",-11.480296906154983],["bombardement",-11.4802970015817],["jubileum",-11.480334896874142],["mededeling",-11.480366853489453],["absurd",-11.48039474314222],["Kortrijk",-11.480400384187222],["Probeer",-11.480442367747123],["communistisch",-11.480482060717588],["ongelooflijk",-11.480634687068113],["Suzan",-11.480713274322566],["Heuvel",-11.480756704269867],["webwinkel",-11.480791584965292],["applaus",-11.48088732748493],["kunstmatig",-11.48095632938231],["gewijzigd",-11.481075009051183],["Landelijk",-11.481197466594727],["Heist",-11.481217147219905],["merendeel",-11.481249826770217],["bijbehorend",-11.481306207406622],["IND",-11.48148960411597],["intensie",-11.481519007900857],["Bommel",-11.481546151760483],["onacceptabel",-11.48164878580152],["Surinamer",-11.481808147113089],["tijdschrift",-11.482097583127993],["benoeming",-11.482137838234639],["overweeg",-11.482304687576642],["Noordzee",-11.482353473194012],["gigant",-11.482376515745244],["lek",-11.482492603096926],["aanklager",-11.482633030020404],["voorafgaand",-11.482758059580512],["louter",-11.48306574587702],["kloof",-11.483434618094854],["loterij",-11.483613929612813],["insecten",-11.483802270985246],["licentie",-11.484279479736099],["bedenk",-11.484371099697697],["anderhal",-11.48444019026283],["argumente",-11.484689617483053],["racist",-11.484914228286506],["emissie",-11.486011089463636],["anderhalve",-11.486091339774564],["begeleiden",-11.486294036076195],["Benz",-11.486400896373407],["accepte",-11.486954116182647],["soldaat",-11.487665877861371],["aanbied",-11.487877139479393],["gun",-11.487939143397025],["piloten",-11.488212581200193],["deskundige",-11.488243126716608],["veiliger",-11.488245032478932],["billen",-11.488633833057193],["Paris",-11.488691353211223],["grappen",-11.488909144261683],["hekken",-11.488922295631227],["doos",-11.488923126614134],["You",-11.488954757192019],["helden",-11.48912160243341],["toetreding",-11.489174726866414],["essentie",-11.489281594833102],["Cel",-11.489513614501991],["schatte",-11.490169912472874],["behaalde",-11.490210132245398],["oorlogsmisdad",-11.490244365896123],["parkeer",-11.491239314753134],["benodigd",-11.491322704806663],["kolonial",-11.491396800484553],["Gelre",-11.491512623424567],["Kamp",-11.491697027515112],["tennisser",-11.49193035254586],["efficiënter",-11.492158249489364],["diagnose",-11.49240046834283],["houten",-11.492442023560967],["parlementsl",-11.492615591391665],["legende",-11.493170470889904],["besteld",-11.493188494824956],["uiterste",-11.493287526795445],["Reken",-11.494354309760737],["draaide",-11.494498379714912],["Volt",-11.495082869187184],["AA",-11.495083960111948],["pre",-11.49558706766092],["passend",-11.495715653727522],["prof",-11.495805415979973],["schoen",-11.496113936950568],["JA",-11.496184365483556],["opladen",-11.496196356603305],["briefje",-11.496721302830096],["Lucas",-11.496922993479352],["mode",-11.497047090165587],["toenemend",-11.497828390049811],["vertegenwoordigd",-11.49797519349759],["aardbeving",-11.498370590321091],["snapp",-11.49848045965462],["document",-11.498657306077849],["Lier",-11.49901588386461],["Mechelse",-11.499039303654381],["mislukt",-11.499377658172214],["rado",-11.499495177767347],["voldoe",-11.499725077066024],["schommel",-11.500427165246169],["rix",-11.50056140253699],["kens",-11.500574200014507],["cancel",-11.50063261112451],["Roos",-11.500740333328395],["my",-11.501147875445556],["hoever",-11.501216078718691],["straal",-11.501422654580715],["hervat",-11.501518797445407],["Stree",-11.501589025641303],["dealer",-11.502029964322434],["Kempen",-11.502264164401165],["voorziening",-11.502328988376963],["Delft",-11.50242316649414],["ehouden",-11.50243832496808],["musea",-11.50275021465754],["wachtwoord",-11.503500874721615],["kiezer",-11.503527043229816],["klim",-11.503740247111118],["age",-11.50394691104377],["Theo",-11.504643168131011],["HR",-11.504817961544276],["kunde",-11.504952793940738],["drankje",-11.505466531746805],["ST",-11.505532874752616],["sters",-11.505772290539284],["EN",-11.506125631403686],["89",-11.507254049943889],["inwoner",-11.507379727920897],["waanzin",-11.507450158564781],["balk",-11.507759113386582],["voornemen",-11.507776568051385],["con",-11.508079974753073],["waarschuwde",-11.508601155723788],["hype",-11.508690567852103],["verhoogde",-11.510539675381715],["Vi",-11.51055996958733],["havens",-11.511301284769061],["belast",-11.511514607197563],["verborg",-11.511799576885995],["Marcel",-11.51185820899671],["benadrukte",-11.512191565930813],["bestrijde",-11.512314183044836],["Theater",-11.512505190573329],["All",-11.512688373243495],["fraaie",-11.512691454403832],["É",-11.51272944083055],["rijken",-11.513340652277044],["CU",-11.513450900912686],["nieuwbouw",-11.513581308512002],["leugen",-11.513669024661548],["visse",-11.51432813895825],["ondiale",-11.514884067715341],["klem",-11.515725377156308],["Steen",-11.515753636035633],["bijkomend",-11.515850955122287],["fris",-11.516323171289052],["bon",-11.51679243091208],["ngen",-11.517506719636307],["rot",-11.517513956364555],["blank",-11.517904555534738],["Mel",-11.517927176304777],["draad",-11.51835391179511],["slepen",-11.51846421762841],["ta",-11.518505015741686],["Af",-11.518665031426394],["Pim",-11.518921607519903],["omgekomen",-11.519117389421629],["aardappel",-11.51952331749489],["puin",-11.51961352287099],["trainers",-11.519647643341768],["gracht",-11.519780535104903],["minderheid",-11.519801730212428],["gewaardeerd",-11.519879370715056],["Andro",-11.520169794672613],["individu",-11.52025350498726],["correspondent",-11.520570192200212],["reedt",-11.520651988317997],["Houd",-11.521263975062537],["ron",-11.521403796081987],["uitmaakt",-11.521490968708559],["oorlopig",-11.52158208661696],["wereldbeker",-11.521588499696472],["win",-11.521660044785186],["danig",-11.521782324883048],["dorpje",-11.52228510159716],["steunt",-11.522596186816674],["organiseerde",-11.522680453187096],["eeuwen",-11.522704440276746],["werven",-11.523321449304792],["Pol",-11.523695030628875],["nd",-11.523802716723583],["OP",-11.524054076807083],["Blijk",-11.524514627746658],["scanne",-11.525263894152534],["opvanglocatie",-11.525359243925369],["noodopvang",-11.525670081990029],["«",-11.525687497327038],["première",-11.525688890806967],["comeback",-11.525700609888183],["Erasmus",-11.525707497183515],["delegatie",-11.525709539988291],["prestigieu",-11.525725177732275],["gegarandeerd",-11.525725568184432],["compliment",-11.525735924131503],["kleedkamer",-11.525742949741865],["Bureau",-11.525786970075659],["uitnodiging",-11.525834033406653],["populistisch",-11.525843512276928],["Kyiv",-11.525903996169077],["gemeenteraads",-11.52593093636884],["west",-11.526072054936867],["Ridder",-11.526074492112366],["wachtlijst",-11.526077957929296],["opzettelijk",-11.526132958248397],["slogan",-11.52614219522263],["onthulling",-11.526171008521747],["Kosovo",-11.526275617677781],["Cross",-11.526552516902353],["slaapkamer",-11.526749130154997],["streamingdienst",-11.52692581760916],["onde",-11.526957167345271],["teleurstelling",-11.527033453213766],["inde",-11.527346084481785],["reikt",-11.527465239865418],["Vleute",-11.527487384760255],["integratie",-11.527640129918552],["somber",-11.52773104943755],["()",-11.528420282248439],["zelfmoord",-11.528462155892367],["volhoud",-11.528516980981278],["lle",-11.52857766890861],["dam",-11.528592223104264],["Sergi",-11.528758494248269],["passeren",-11.528887034895014],["Aston",-11.528917892452496],["speelgoed",-11.529140179891007],["FV",-11.529259921011674],["93",-11.529365554279371],["troost",-11.530093146898844],["Wopk",-11.530906057699806],["bezet",-11.530963505382967],["miste",-11.530987669983537],["Bram",-11.531080064351023],["aanvang",-11.531237159910948],["lij",-11.531473895596282],["Nik",-11.53163740851707],["beschrijf",-11.53166203506534],["speelster",-11.5316726590353],["rac",-11.532415442785352],["NC",-11.532455002071545],["pan",-11.532594656062354],["Royal",-11.533273910483981],["toerisme",-11.533297559103822],["Param",-11.533698731941177],["teleurstellend",-11.533778470843199],["vormde",-11.533869720725457],["Ar",-11.534072589271467],["llen",-11.534208892566934],["afname",-11.534343262219107],["enthousiasme",-11.534555134406869],["vasthouden",-11.53465075228997],["strikt",-11.534703851674081],["Lee",-11.535039280344833],["mroep",-11.53512989775658],["Daniel",-11.535229087016383],["waarbi",-11.535276411081021],["vlogen",-11.535281644590492],["Mont",-11.535520144154571],["Stalin",-11.535607386340994],["OK",-11.535959336897275],["Vader",-11.53606508942589],["Carolin",-11.536198697240717],["afreken",-11.536244584880132],["conditie",-11.536795061696399],["King",-11.537125009189747],["LED",-11.537240349409775],["Pi",-11.537371793226892],["ap",-11.53747691287159],["bankier",-11.538589469351672],["slaaf",-11.538956519752258],["blog",-11.538965239160936],["Joost",-11.539029655151507],["studeren",-11.53926881956209],["bestemd",-11.53958959453189],["geschat",-11.539830828232455],["hittegol",-11.539879592535968],["scène",-11.539994252773546],["Peters",-11.540310568458127],["halfjaar",-11.540434529308746],["wappies",-11.540634753792316],["01",-11.540828505990726],["compromis",-11.541470466727977],["Stefan",-11.54169426581235],["Stee",-11.5417215801064],["bewuste",-11.54236099599241],["verstopt",-11.542625264281742],["VID",-11.542731880760925],["onveilig",-11.54313100798258],["zonde",-11.543387931924588],["musical",-11.543647225576386],["middelba",-11.543974270013162],["lease",-11.545022795064952],["train",-11.545235649706983],["redene",-11.54529765080105],["Po",-11.545373131894864],["gescho",-11.545396171009385],["feestdagen",-11.545586965813202],["strook",-11.545592164160677],["erkomst",-11.545946819466069],["2G",-11.545993601558283],["gaard",-11.546258866944658],["beloning",-11.546544615816881],["Serge",-11.54679881973771],["genot",-11.54680790855737],["schijnen",-11.547130203885391],["moedig",-11.547244685281568],["platteland",-11.547369425213164],["ervaart",-11.547389333834722],["onthuld",-11.54740832928877],["Chark",-11.547698734435997],["versnelling",-11.548227453080937],["bevoegdhe",-11.548432796066892],["professional",-11.548484739666819],["korter",-11.549723761611444],["gedraaid",-11.549851331094201],["tekening",-11.550290056684618],["Von",-11.551296230800723],["indrukwekkend",-11.55140756452683],["sterkte",-11.551477083107908],["origine",-11.552016069945665],["beleggen",-11.55241484428104],["llicht",-11.552768178799083],["Belarus",-11.55281143452337],["onveilige",-11.553363866609553],["Australia",-11.55365850897834],["Nijkerk",-11.553912599939855],["bedroe",-11.554534502293137],["hack",-11.55468129748347],["Aalsmeer",-11.554808695833998],["kerel",-11.555166629630431],["voorwerp",-11.555265783505206],["presenteer",-11.555306545439665],["riskeer",-11.555385369407672],["Brun",-11.555584749398918],["Lig",-11.555852022114282],["Maz",-11.555986380315726],["marathon",-11.556192660830265],["Turk",-11.556746476300763],["Gu",-11.556906131889361],["Irak",-11.55708023822089],["present",-11.557302434600725],["thans",-11.557302465478598],["tool",-11.557416568913885],["mannetje",-11.55742102676567],["ontwor",-11.557644802624617],["Snap",-11.55775895804156],["kap",-11.55801571171543],["isch",-11.55849410725695],["oost",-11.559320049807033],["Direct",-11.559326790342038],["misbruikt",-11.559384233649586],["iezen",-11.559555660404369],["Lei",-11.560452803413417],["verdien",-11.560603912335816],["overdag",-11.561225304336169],["Maxim",-11.561260917927754],["rennen",-11.561426852071078],["uniform",-11.561445179356856],["rechtvaardig",-11.5617093719889],["87",-11.562136718370983],["visum",-11.562384051167067],["FB",-11.562506953914085],["Waals",-11.562632336864477],["pla",-11.562764122326842],["spektakel",-11.563017342351358],["Lange",-11.563163027708821],["Robin",-11.563327347754901],["omt",-11.564068164830775],["buit",-11.564186616835794],["talen",-11.564768576550891],["lijsttrekker",-11.564913702743901],["zakte",-11.565034671991043],["gedur",-11.565232984078495],["oord",-11.565264699488955],["verantwoorde",-11.565502611367037],["gooi",-11.565576133629252],["Kev",-11.566496274919896],["machtig",-11.566554957420012],["Els",-11.567011744687235],["verschijnsel",-11.567091604745317],["sterf",-11.56719464277387],["Tata",-11.56721645132742],["ritme",-11.567933796871355],["Overma",-11.56794553445505],["aanschaf",-11.568179715486767],["Vera",-11.568591028967086],["werkloosheid",-11.568681870017048],["overhe",-11.568744456652741],["nipt",-11.569268366736065],["gunstig",-11.569292661662619],["TP",-11.569747735891543],["Boom",-11.570821217462072],["kalender",-11.570883033340435],["mac",-11.571364230219944],["Islam",-11.571385884978056],["Kram",-11.571587237704641],["ezen",-11.571635407118448],["ongelukk",-11.571645737651396],["zucht",-11.572574474757719],["strepen",-11.572935208486228],[">",-11.573306544946085],["Cruijff",-11.573306553620329],["Frankfurt",-11.573306629236042],["consumptie",-11.573307140291163],["toonaangevend",-11.573311955695571],["onvermijdelijk",-11.573312758312635],["AirPod",-11.573329246607615],["failliet",-11.573332815142514],["Linux",-11.573339996531224],["Dylan",-11.57336070647063],["vracht",-11.57340188118814],["Mohamed",-11.573403175267027],["Voormalig",-11.573408668901601],["vroegtijdig",-11.573430030402857],["Rousse",-11.573470061610765],["Fox",-11.57351841071503],["interventie",-11.573530702653187],["leiderschap",-11.573626713951546],["millimeter",-11.573632521462748],["René",-11.573636600845457],["browser",-11.573649005661483],["Capitool",-11.57365523206543],["geschorst",-11.573667299320713],["monetair",-11.573877506281436],["geblokkeerd",-11.573948853977733],["prijskaartje",-11.574052566289456],["besliste",-11.574132699530175],["protocol",-11.574140083375468],["inrichting",-11.574150958251305],["Plas",-11.574195105924113],["kartel",-11.57445141456999],["spaargeld",-11.574463044556214],["centen",-11.574498421526695],["hub",-11.574608672832317],["initiatiefnemer",-11.574656722466568],["gesteund",-11.574685852337208],["doorhee",-11.574940475714117],["influencer",-11.574989706714653],["berucht",-11.575043790455464],["klik",-11.57514861194834],["alleenstaande",-11.575170975426104],["koorts",-11.575337834994269],["buurvrouw",-11.57554214030846],["falen",-11.575596371838508],["balkon",-11.575626833136969],["duik",-11.575741627792038],["gevormd",-11.575775651832497],["bedankt",-11.57581851793184],["kruispunt",-11.575834491287353],["clubje",-11.575879313308345],["hoven",-11.57591588453406],["reativiteit",-11.576067430615486],["sloop",-11.576075195070118],["knip",-11.576101401701045],["schutter",-11.576105204819807],["stoom",-11.576265296034267],["inlichtingen",-11.576323007065481],["overtuiging",-11.576463346430987],["Japanner",-11.576657823693862],["broertje",-11.576684680497141],["vogelgriep",-11.57686519995216],["geparkeerd",-11.57687388508415],["evenwicht",-11.576959275498973],["Saudi",-11.577589957270705],["Haha",-11.57768657924538],
[...]
