{"version":"1.0","truncation":null,"padding":null,"added_tokens":[{"id":0,"special":true,"content":"<UNK>","single_word":false,"lstrip":false,"rstrip":false,"normalized":false},{"id":1,"special":true,"content":"<SEP>","single_word":false,"lstrip":false,"rstrip":false,"normalized":false},{"id":2,"special":true,"content":"<MASK>","single_word":false,"lstrip":false,"rstrip":false,"normalized":false},{"id":3,"special":true,"content":"<CLS>","single_word":false,"lstrip":false,"rstrip":false,"normalized":false}],"normalizer":null,"pre_tokenizer":{"type":"Whitespace"},"post_processor":null,"decoder":null,"model":{"type":"Unigram","unk_id":0,"vocab":[["<UNK>",0.0],["<SEP>",0.0],["<MASK>",0.0],["<CLS>",0.0],["e",-2.98732466944022],[".",-3.1686222832873145],["de",-3.4978315400725215],["en",-3.5320100051233396],["n",-3.705790308751249],[",",-3.8184340187884764],["t",-3.919991144387442],["van",-4.053552428676456],["s",-4.17763537184768],["het",-4.181495469624405],["in",-4.320297622364643],["d",-4.527940081266104],["een",-4.613817830668538],["is",-4.615941552050414],["dat",-4.647413095787302],["op",-4.681553686933739],["voor",-4.962306943781973],["zijn",-5.039319652723437],["met",-5.058334963970413],["niet",-5.119897152438769],["die",-5.167308656847336],["-",-5.174927078047357],["i",-5.289246546474496],["om",-5.29379704425048],["er",-5.314871616170084],["aan",-5.349091750830883],["a",-5.378786811087112],["je",-5.431088374352523],["te",-5.500658904738199],["ook",-5.522717807693795],["De",-5.531215268170902],["als",-5.615982925030124],["bij",-5.621924271999228],["maar",-5.630343628295556],["o",-5.657060103103664],["al",-5.707472372534239],["r",-5.7200778916195265],["uit",-5.745935884163661],["Het",-5.8116812375163],["’",-5.84758204474398],["nog",-5.876278889774927],["m",-5.939460910921889],["D",-5.940777555346477],["over",-5.956743177719844],[":",-5.971334256239295],["wel",-5.972736445471522],["z",-5.972840472968478],["ik",-5.9886394024124066],["l",-5.989295221127016],["heeft",-5.99398382198877],["door",-6.010007728630047],["dan",-6.020533690015494],["ze",-6.020698183468509],["naar",-6.031728812307556],["zo",-6.034226435005067],["'",-6.048071719809],["k",-6.048299539180965],["of",-6.062204859715031],["g",-6.073149342060452],["was",-6.090359689363222],["\"",-6.104198343000094],["(",-6.132995053841194],["meer",-6.148533046990837],["?",-6.16579653584297],["hij",-6.17261617134746],["“",-6.179400091875332],["hebben",-6.192729591148739],["worden",-6.246988161169558],["moet",-6.261041708635627],["jaar",-6.261398283027265],[")",-6.346693559337947],["wat",-6.35458733785538],["‘",-6.358289450131021],["word",-6.370161686856177],["kan",-6.382057990556541],["u",-6.4072834177849245],["h",-6.420108447442042],["waar",-6.4494845424112555],["Dat",-6.457997622404907],["Ik",-6.491918905832327],["we",-6.507681505835212],["j",-6.518172549098741],["zich",-6.526987955055594],["kunnen",-6.567200874269693],["ge",-6.570009606861815],["In",-6.587490008699717],["veel",-6.596445009401605],["dit",-6.602475520173042],["werd",-6.6421971110132985],["geen",-6.6568955004575825],["Maar",-6.661376878202932],["mensen",-6.680710072443129],["gaat",-6.683850769269952],["tot",-6.688022108345613],["zou",-6.731975000508773],["w",-6.742085908976093],["hun",-6.744103894693325],["onder",-6.7475289366998075],["deze",-6.751896932591391],["he",-6.75520542473758],["gaan",-6.762893639690394],["weer",-6.769521227382657],["tegen",-6.781318128185771],["v",-6.78458981705893],["f",-6.840896328223114],["daar",-6.848569907785514],["E",-6.850629009697744],["1",-6.857266239205928],["dus",-6.879054751940275],["goed",-6.8813842993738055],["haar",-6.8968134093502576],["b",-6.9043794948825505],["Een",-6.906106147157066],["had",-6.945301176409962],["heb",-6.963709443693107],["”",-6.986661238937623],["p",-6.99115127717453],["af",-6.99556315475908],["2",-6.996657588165725],["an",-7.005265836090604],["En",-7.007343766739307],["me",-7.0173378562912605],[".”",-7.018901853789143],["zelf",-7.027053285216536],["twee",-7.061512196596801],["I",-7.0616852876314695],["andere",-7.063802117759856],["maken",-7.086478600031353],["komen",-7.091434506311661],["doen",-7.12219072942242],["kom",-7.1358275435196665],["Als",-7.147851835396894],["wil",-7.148002194391656],["nieuwe",-7.152164982724179],["toch",-7.154875398167144],["weg",-7.173189774034404],["hier",-7.174049319811353],["tijd",-7.176146949885111],["zal",-7.179763341104605],["staat",-7.219631059832235],["A",-7.221573909805422],["alle",-7.222100500811664],["mijn",-7.224084765025108],["nu",-7.226940236244212],["land",-7.2404340971279275],["ing",-7.246671160039621],["Ook",-7.255361490148469],["heel",-7.258545209351151],["zegt",-7.261202028019926],["aar",-7.281892829005523],["Hij",-7.281926648952499],["iets",-7.29845901809406],["Van",-7.311217561358861],["Er",-7.342488263863828],["eerste",-7.349173744786481],["Op",-7.351926485825673],["alleen",-7.353282851917047],["Nederland",-7.3602369461236234],["B",-7.360522151887034],["O",-7.361172413266969],["tussen",-7.371197405889508],["mee",-7.385908864119158],["zien",-7.385981729640333],["volgen",-7.391330681463226],["vind",-7.397520265506353],["grote",-7.397690359797191],["procent",-7.4064079779666905],["hoe",-7.410947979491705],["ons",-7.417375743980637],["auto",-7.424032542436538],["S",-7.430115705156112],["man",-7.431345508011936],["We",-7.45454960840427],["W",-7.458809231463719],["at",-7.4676608135896965],["Zo",-7.474892298077954],["euro",-7.486652198563635],["krijg",-7.486780214092592],["”,",-7.490034210914204],["3",-7.492155911244438],["Die",-7.504092527668314],["echt",-7.505159114290499],["even",-7.51205606450063],["altijd",-7.515110464296691],["et",-7.533639383269648],["leven",-7.538521456738518],["gewoon",-7.544261493565947],["uur",-7.548666528753275],["kun",-7.549448769200542],["waren",-7.555697008779538],["dag",-7.561701980952808],["V",-7.5660129118904775],["K",-7.568365125156505],["hem",-7.568719956437761],["keer",-7.573336963738244],["!",-7.576796251511312],["lopen",-7.582972572502773],["eigen",-7.5867556073805975],["ver",-7.601931612926354],["y",-7.607518835608764],["5",-7.61661079669918],["toe",-7.619742966121573],["laten",-7.623758504515263],["Daar",-7.627596410744273],["zij",-7.62922731819547],["week",-7.634269558076412],["heid",-7.6363088078449435],["willen",-7.63865964379595],["hele",-7.643842999372619],["terug",-7.649325269832784],["Ze",-7.649471471851618],["kwam",-7.650690557553833],["H",-7.652353041980315],["Dit",-7.655721343139056],["mij",-7.658017525116891],["minder",-7.658893437838793],["onze",-7.65940134073394],["mogelijk",-7.669329489652056],["el",-7.670150947064429],["binnen",-7.6754899647572605],["per",-7.681169462012535],["politie",-7.683081550240031],["houden",-7.698239198017476],["geld",-7.705137245862765],["jaren",-7.718264079446491],["Voor",-7.71891735369825],["eens",-7.727172630263778],["ooit",-7.728861786481367],["Je",-7.72886318135751],["lang",-7.734254708727027],["steed",-7.7411513239751395],["werk",-7.747958819196386],["Oekraïne",-7.749113092052299],["202",-7.755424666949004],["staan",-7.755871889160494],["Met",-7.758666848831952],["M",-7.761916138278864],["want",-7.763977509606506],["één",-7.7679445331746795],["G",-7.768741093611238],["20",-7.770869170570903],["laatste",-7.771407952885463],["Wat",-7.775413176226371],["Rusland",-7.777350723449364],["4",-7.779050933765083],["T",-7.780458264234021],["drie",-7.780831621293088],["rond",-7.785119480016036],["plaats",-7.804496487061371],["Russisch",-7.805426664603839],["na",-7.806649519463846],["di",-7.811559297832595],["huis",-7.812827357886239],["wereld",-7.815925810468542],["achter",-7.821111866673204],["verder",-7.82358009576871],["Bij",-7.824726675914913],["be",-7.834691010778843],["Volgen",-7.836295906857318],["voorbeeld",-7.841383701881872],["N",-7.844246083735348],["/",-7.844685078464511],["weten",-7.8598907725982325],["Z",-7.863517295991375],["Nederlands",-7.873287237317062],["aantal",-7.879892484677794],["onderzoek",-7.8814942649489],["blijven",-7.884704282672432],["vooral",-7.887489624208415],["mag",-7.887534227511537],["zonder",-7.89090758706234],["zit",-7.894145388806884],["beter",-7.894708771649482],["moment",-7.903092940370188],["nodig",-7.905618943857603],["gemaakt",-7.906700755212607],["maakt",-7.914583858500845],["6",-7.9232465751668855],["da",-7.931103294212269],["snel",-7.935580159417882],["ullen",-7.93644052866899],["jarige",-7.941207767345661],["ben",-7.945934775010492],["000",-7.960671058646763],["elkaar",-7.965327668520304],["den",-7.969521994287637],["nieuw",-7.977489545095121],["kinder",-7.978358163459086],["miljoen",-7.978584930538241],["alles",-7.980207992141044],["og",-7.981678306624882],["laat",-7.98191121895904],["P",-7.985046836725942],["eerder",-7.988038243557002],["bedrijf",-7.988676356118575],["ten",-7.99037689407847],["toen",-7.990779554087439],["zeggen",-7.991794314296824],["zelfs",-7.997500738659604],["zeker",-7.999385834536432],["anders",-8.00200902096616],["bekend",-8.002965949690822],["ging",-8.005753587662863],["zitten",-8.00717312165879],["geven",-8.014705563321263],[").",-8.020775645196743],["gemeente",-8.02898164089564],["ren",-8.029791872045102],["groot",-8.030291056267632],["Na",-8.030672780870374],[".\"",-8.033638896305249],["deel",-8.044636400182963],["us",-8.045718309638934],["–",-8.047762658077628],["0",-8.049073601255023],["C",-8.049726141095729],["Zij",-8.053211977682018],["weet",-8.056814247592397],["8",-8.05970090390967],["ij",-8.059925575883508],["blijft",-8.061669752270262],["oorlog",-8.061966561904853],["on",-8.065992181240212],["afge",-8.06824504863708],["avond",-8.080519769604017],["werken",-8.083113808462151],["vaak",-8.089734897183007],["maal",-8.090645693378983],["nemen",-8.092102814161514],["wij",-8.094719612605864],["lijkt",-8.097186078826233],["samen",-8.101719251120773],["via",-8.104526936124532],["10",-8.105469856297063],["tijden",-8.136019553742301],["boven",-8.136339692845306],["natuurlijk",-8.140248544568877],["kon",-8.142984733559683],["vrij",-8.144263832447225],["Hoe",-8.146272638176244],["energie",-8.147138180799946],["vraag",-8.149184396838995],["gebruik",-8.14919499150286],["moest",-8.152783662827435],["stad",-8.154592561739388],["Deze",-8.155571464847466],["ander",-8.157700510795742],["eren",-8.159949741518975],["allemaa",-8.164179335386727],["tweede",-8.17354143069445],["Dan",-8.175398818201037],["sinds",-8.18419350188199],["va",-8.190347997936314],["vrouw",-8.192120065505307],["c",-8.194011473136086],["J",-8.194522112112018],["vier",-8.198420123694131],["eerst",-8.202214315806682],["landen",-8.202572005113069],["R",-8.20361749381073],["ie",-8.203714529626362],["to",-8.204881628196489],["doet",-8.21100175875564],["7",-8.21367994004205],["iemand",-8.21615125541911],["later",-8.21730219921585],["juist",-8.218843779987026],["vol",-8.22183507280838],["krijge",-8.221913627358468],["soort",-8.22304385287152],["kijken",-8.234791807964633],["dagen",-8.244567489176688],["genomen",-8.249852936871067],["duidelijk",-8.255537195780214],["open",-8.26116490105216],["genoeg",-8.264035423115203],["zetten",-8.268216485654609],["manier",-8.268752328498081],["st",-8.270089415855246],["bijna",-8.273767151943261],["Om",-8.278658783089062],["Amerikaans",-8.284843435011819],["gezien",-8.290846498586088],["9",-8.291476062783888],["water",-8.295355983953847],["maanden",-8.295545648503944],["vast",-8.296268290403361],["paar",-8.29863998075902],["Nu",-8.299508193733626],["wedstrijd",-8.30481840661432],["extra",-8.313754219446084],["ken",-8.319776143777926],["erg",-8.323674449909692],["licht",-8.32780644984381],["buiten",-8.329448636786655],["gedaan",-8.33194553010502],["weinig",-8.333538981432081],["U",-8.336117940595837],["minister",-8.347647869443044],["bedrijven",-8.355061091281566],["breng",-8.358302853466284],["Europe",-8.360269205469024],["beetje",-8.360770764410855],["lig",-8.363584454981687],["corona",-8.36565478152573],["vanaf",-8.366136369557687],["gelede",-8.367045316117554],["201",-8.367222398962397],["30",-8.367935058122196],["hoofd",-8.368478888426925],["zoal",-8.376100047453225],["amelijk",-8.376693417907454],["eigenlijk",-8.37760925030949],["L",-8.387043251009164],["Al",-8.38921792855136],["niets",-8.398144368352334],["partij",-8.39895857857626],["denk",-8.399717890870157],["geval",-8.404761067831233],["terwij",-8.406079937458905],["Of",-8.406614557797658],["woning",-8.408803148769849],["gas",-8.41551526503169],["straat",-8.422288413028358],["ar",-8.42295301157326],["stond",-8.424363683787146],["He",-8.424577510873],["weken",-8.424669357322454],["Europa",-8.425907373064888],["vijf",-8.428519847472128],["best",-8.430221064844151],["pas",-8.432531598427124],["le",-8.433567609914594],["zie",-8.43505351116119],["seizoen",-8.437736332103764],["rijden",-8.447020094197715],["probleem",-8.447173397599965],["verschillend",-8.449981384328524],["vandaag",-8.450093659936893],["groep",-8.45158899133311],["halen",-8.452726037668944],["vorig",-8.453769494003405],["enkele",-8.456110700459918],["prijzen",-8.457644356447389],["media",-8.459202668847556],["F",-8.460847015892766],["kree",-8.461304984462608],["ers",-8.465251482692022],["…",-8.46811101188015],["mogen",-8.469692656950464],["19",-8.470392839533432],["EU",-8.47383755576219],["Door",-8.474209934315558],["hand",-8.47465362260234],["ste",-8.477052492354863],["Dus",-8.483196667923272],["meest",-8.487528870069568],["maakte",-8.48795099248221],["verwacht",-8.489070201647566],["vrouwen",-8.49286922752189],["ruim",-8.493188998239159],["markt",-8.493820934571016],["reden",-8.49641997698632],["maand",-8.498480252249738],["ens",-8.501139438593093],["Niet",-8.502271212031967],["blijk",-8.50279562700927],["zorgen",-8.503846636709897],["prijs",-8.507854139752139],["%",-8.510485575041326],["zaterdag",-8.511356879756402],["foto",-8.512102897003427],["middels",-8.51411331805841],["problem",-8.521923465625473],["kans",-8.523894447474344],["basis",-8.525433947200597],["zei",-8.526621243592416],["gebied",-8.527607503933737],["Poetin",-8.531296742257023],["wilde",-8.534739856553827],["hard",-8.537409480941964],["woensdag",-8.538980847067458],["15",-8.54228038694368],["president",-8.542509100562297],["volgend",-8.551094362816725],["kosten",-8.552044037702817],["denken",-8.554438896564339],["„",-8.554766774512213],["echter",-8.559289188569329],["ee",-8.570428650860123],["druk",-8.570862132158961],["begin",-8.571160286443952],["wie",-8.57291110050727],["hoger",-8.574488647173784],["mannen",-8.57507232736219],["naast",-8.575197948332258],["ter",-8.57585771267527],["Ja",-8.578541396967344],["overheid",-8.578818291019903],["regering",-8.580555672843566],["vrijdag",-8.581281069554851],["iet",-8.582087036629401],["thuis",-8.584415536439286],["kabinet",-8.585564932647877],["goede",-8.588036758511588],["stellen",-8.589886446142447],["maandag",-8.589887202964011],["grootste",-8.591627505476223],["vragen",-8.599026856609719],["graag",-8.599041761784502],["geef",-8.603002153759846],["betalen",-8.604131239555677],["werkt",-8.605025356685033],["club",-8.611230226147267],["aal",-8.61184592246737],["rol",-8.62060583126451],["ziet",-8.621655953343865],["team",-8.622686208086229],["recht",-8.628600662638824],["totaal",-8.629146951357825],["spelen",-8.633981272646315],[";",-8.635611733145218],["dinsdag",-8.636822635154385],["hoor",-8.63927143237047],["isschie",-8.645014009568241],["beste",-8.64719036919622],["Apple",-8.647248919093474],["mooi",-8.648201634057571],["acht",-8.649704588863527],["zaak",-8.655820318455849],["hoge",-8.656881362549893],["Wij",-8.66010452466724],["enige",-8.661763610986824],["ou",-8.661917069955665],["app",-8.663285521604198],["adden",-8.665562398899425],["vond",-8.668745545187889],["langer",-8.668909249799526],["gegeven",-8.670817170032581],["leden",-8.672512367185288],["zondag",-8.67484528785877],["gekomen",-8.676735314928791],["ijdens",-8.679480875045439],["Oekraïens",-8.68259967734227],["volledig",-8.683772219803759],["donderdag",-8.683825885053004],["verhaal",-8.687881389146416],["uiteindelijk",-8.69131243377014],["plan",-8.695610530128882],["kort",-8.698885186235394],["belangrijk",-8.700013598940547],["ongeveer",-8.701781190362839],["familie",-8.702455808096794],["naam",-8.70354709659356],["ma",-8.704365856836935],["ruimte",-8.705096657401327],["eind",-8.705604418193012],["stuk",-8.709780762413375],["Rutte",-8.710231652287106],["zorg",-8.716204251656016],["elke",-8.71739915203359],["waarom",-8.72195771451139],["waardoor",-8.72255806163227],["bent",-8.723035318690787],["kant",-8.726536542012113],["programma",-8.726878760271592],["meter",-8.727442411709049],["200",-8.727631774339196],["gebruikt",-8.727935674607252],["Hier",-8.728749353710146],["plek",-8.72981297425055],["miljard",-8.730687805482008],["situatie",-8.733301352913617],["gelijk",-8.734723930951734],["liggen",-8.739126400434722],["periode",-8.739988823022266],["nieuws",-8.740023699886944],["zoveel",-8.7421202105379],["oud",-8.74217001007619],["é",-8.745735303139483],["der",-8.748760184979577],["punten",-8.753688473628308],["dood",-8.760088504154744],["valt",-8.760354445081237],["ploeg",-8.763419529974874],["beleid",-8.765569190264904],["boeren",-8.76954836850538],["100",-8.778901497437896],["helpen",-8.780768055482733],["dienst",-8.781185685790813],["12",-8.781665740033478],["start",-8.78291147312648],["18",-8.783412558269589],["welke",-8.784671555495835],["it",-8.785517138138605],["hoog",-8.79124967748907],["zelfde",-8.79194200576151],["50",-8.792059882625862],["25",-8.794634527121733],["school",-8.796525640993332],["richting",-8.799242240882517],["zaken",-8.801280019350394],["zomer",-8.807308951740726],["organisatie",-8.809080752051045],["Waar",-8.810380822336654],["beteken",-8.812386318352104],["derde",-8.815685712778745],["ieder",-8.815735496803272],["&",-8.817727000336129],["moeder",-8.820462684398457],["loopt",-8.82119543049469],["niks",-8.821273909604574],["leggen",-8.821976768328124],["maatregelen",-8.824568262571258],["bezig",-8.824609157183104],["houdt",-8.827746986858834],["lijk",-8.827847392438297],["daarom",-8.829943506208759],["kopen",-8.83045846629016],["hoop",-8.830939039666642],["zeer",-8.836754053319531],["direct",-8.83685053394069],["systeem",-8.839514776612099],["huidig",-8.844336958129198],["flink",-8.845278552799211],["00",-8.84682206097627],["Amsterdam",-8.847941350239912],["gevolg",-8.848276524005033],["Mijn",-8.84994435922962],["wa",-8.850589597910764],["lekker",-8.851009826397231],["Want",-8.852226232659872],["17",-8.85304401382794],["Duitsland",-8.855814909844604],["daarna",-8.856401345515096],["kleine",-8.856814925144914],["vertelt",-8.857406693148674],["groter",-8.857557340411855],["Toen",-8.859595079954005],["re",-8.861315581302245],["ouders",-8.864403759767079],["wege",-8.864736156950766],["politiek",-8.864818867634039],["langs",-8.865804867545176],["iederee",-8.866095263111607],["helem",-8.866733099161355],["Russen",-8.86966790952961],["beeld",-8.872148072523434],["grond",-8.872620213914308],["dollar",-8.87291339978212],["net",-8.873373942722608],["vorige",-8.874799529497926],["meeste",-8.876803863017502],["leuk",-8.877862974977882],["precie",-8.880761513672379],["16",-8.885120176807018],["honderd",-8.887379035044079],["China",-8.892574505827014],["regio",-8.894752806336609],["ochtend",-8.895463918286278],["partijen",-8.895486634955844],["nooi",-8.89878960725229],["relatie",-8.899663293648008],["gek",-8.901749047270563],["regen",-8.902946338064165],["onden",-8.903298190744419],["Wie",-8.906067370854622],["actie",-8.909988794475485],["2020",-8.911956711906015],["klaar",-8.913010555882536],["cijfer",-8.913313909081964],["Wel",-8.914672209951414],["sector",-8.914854690178899],["gebracht",-8.91725773443681],["regel",-8.918811422743424],["oplossing",-8.919104865932935],["enkel",-8.919346812127081],["Aan",-8.91960828089936],["meerdere",-8.921471992176079],["soms",-8.92283597032322],["centrum",-8.923069307958606],["gevallen",-8.924190083432737],["finale",-8.92427239469012],["hulp",-8.929594614230481],["21",-8.931906629992673],["inflatie",-8.932533118807836],["pen",-8.934581192140175],["waarschijnlijk",-8.938247478681589],["rechter",-8.938483489316223],["kilometer",-8.939414509337265],["klein",-8.940158910214826],["Toch",-8.94021018071312],["middag",-8.94109891314846],["veld",-8.942006107525287],["rechts",-8.94202341859352],["sociale",-8.942113878818233],["verdachte",-8.942968348856407],["vallen",-8.944132945691647],["tien",-8.953691677747113],["zoude",-8.954364933508149],["zeg",-8.95887710712939],["wer",-8.960123239697277],["rest",-8.960572179581977],["men",-8.961276529036201],["gedrag",-8.963422794977504],["rekening",-8.964445119911128],["vader",-8.967800895865881],["blij",-8.968845191156099],["VS",-8.973185329193964],["gesloten",-8.975414414471397],["klimaat",-8.97567609233549],["dezelfde",-8.975763719502853],["iedere",-8.977307670662512],["The",-8.978100392412085],["Groningen",-8.979569574363497],["moeilijk",-8.980942048191118],["minuten",-8.982675246072347],["doel",-8.985657491649654],["gevoel",-8.986099608498822],["ziekenhuis",-8.986766104032437],["horen",-8.987327636549386],["jonge",-8.99174741275676],["strijd",-8.99207221623989],["Verenigd",-9.001219939799867],["aarmee",-9.003815228109445],["bank",-9.004558446733853],["jij",-9.005111504182224],["toekomst",-9.006582761688339],["24",-9.006592210762655],["reactie",-9.007193204104176],["trekken",-9.007599361105537],["vorm",-9.007787955994836],["beide",-9.00801387671384],["gemiddeld",-9.008243393999685],["duizend",-9.008422772997527],["ga",-9.009326031636741],["vervolgen",-9.010384086741936],["gen",-9.010582374344356],["Duitse",-9.012893989666932],["betrokken",-9.013177160802917],["voorbij",-9.015081420173516],["slag",-9.016064036115054],["dingen",-9.021124778903111],["bleek",-9.021482666656329],["slechts",-9.022088151938597],["helft",-9.02263750583607],["brand",-9.022895702903035],["buurt",-9.023871125816422],["medewerker",-9.02569469129635],["muziek",-9.026457655207313],["zag",-9.027181999547626],["elk",-9.027811014968801],["voorzitter",-9.028044748236386],["nummer",-9.029634233803824],["voel",-9.029777610761222],["€",-9.031225676798233],["vroeg",-9.035541364625121],["bijzonder",-9.035671203514678],["’,",-9.037610639724138],["Kamer",-9.038432432862852],["sommige",-9.039391071274483],["zoek",-9.039681863374568],["pakken",-9.040224033035198],["én",-9.040630040183828],["niveau",-9.041032604661744],["niemand",-9.043782403707436],["nacht",-9.04836953203281],["weekend",-9.04857650286506],["11",-9.050803843859367],["punt",-9.051488392554283],["meld",-9.052328415303652],["kind",-9.055012214486293],["stelt",-9.055836620045348],["belasting",-9.057400684794366],["wachten",-9.059660066771048],["zat",-9.061531303190765],["België",-9.062433198425891],["aanwezig",-9.062493468156642],["wind",-9.06491099468881],["neem",-9.065057237470597],["eeft",-9.065544225585313],["dicht",-9.066130291995496],["januari",-9.066430845314907],["delen",-9.067203495856099],["aandacht",-9.07382267272547],["boek",-9.074624455737013],["slecht",-9.075581354786568],["woordvoerder",-9.077745535607],["liet",-9.078958595140744],["22",-9.079268803756626],["Geen",-9.08045806503469],["half",-9.080774837721057],["gebeurt",-9.081499914163416],["sterk",-9.085557293070085],["FC",-9.086571444770575],["olie",-9.08733091447878],["begon",-9.087481289156784],["mooie",-9.087600589716224],["lezen",-9.08793611657417],["40",-9.088555209930508],["rij",-9.0885711109223],["14",-9.09043964903941],["terecht",-9.090484775429935],["functie",-9.091531304963084],["schade",-9.096163539068247],["vakantie",-9.100786055071636],["gezegd",-9.101719164993192],["gezet",-9.102778554981663],["ë",-9.10372938986227],["komend",-9.107471658555026],["eer",-9.116696455125073],["x",-9.118215254982239],["hu",-9.1227204882542],["grens",-9.128022102678573],["verkiezing",-9.129353308940939],["beelden",-9.13078386147482],["rgens",-9.133600653281967],["voldoende",-9.133639880270676],["Uit",-9.13364232164859],["mocht",-9.134591143027315],["Jan",-9.136047470131988],["beginnen",-9.136281936119154],["vinde",-9.136386587098054],["oude",-9.138016976284778],["voetbal",-9.138699734254345],["bied",-9.139026570118023],["risico",-9.140261864378882],["gesprek",-9.142139488896564],["winst",-9.142523416040127],["voorkomen",-9.144448006424351],["einde",-9.14522423943087],["denkt",-9.145813664631449],["lange",-9.145817679712835],["ven",-9.14633793984835],["Onder",-9.146741857748918],["planne",-9.14790295806866],["Noord",-9.150453100490909],["informatie",-9.150646855972386],["Veel",-9.151422605634602],["strak",-9.151510189711875],["ulli",-9.153477748440203],["slachtoffer",-9.154811069009142],["verantwoordelijk",-9.156093981104402],["speelt",-9.156596850400735],["Vlaams",-9.158307780643067],["handen",-9.158388100125986],["verschil",-9.15917723393688],["gesprok",-9.159212278732333],["juni",-9.16020561997301],["Franse",-9.160475138018864],["ari",-9.161198945275117],["stand",-9.161664269350304],["winnen",-9.162637968847747],["Britse",-9.167091689885485],["fiets",-9.168592947838123],["personeel",-9.170967606805387],["Over",-9.17296727336153],["lijst",-9.173158694284542],["sport",-9.174217389621113],["begint",-9.17437369097878],["500",-9.174658471470002],["film",-9.175410879085057],["crisis",-9.177578299243184],["geha",-9.177756971241976],["deur",-9.182391282664671],["leger",-9.183859042307288],["len",-9.184032496918082],["publiek",-9.184195080436904],["Belgisch",-9.184636482239636],["vertrouwen",-9.186820927683868],["VVD",-9.187755156491015],["gebeur",-9.18817250391449],["D66",-9.190359602996008],["zoeken",-9.193200668768277],["september",-9.193723160474793],["hoeveel",-9.196263733170124],["wonen",-9.197252547395195],["13",-9.197317376279187],["neer",-9.197682731863349],["lager",-9.19876669628374],["natuur",-9.19889867452472],["Tot",-9.199439307486308],["won",-9.199475895252796],["waarde",-9.201989035124527],["kost",-9.203325906384986],["online",-9.203332883665354],["wegen",-9.204441922466277],["Da",-9.205708363955335],["halve",-9.20695519731078],["Alleen",-9.207092642195498],["anderen",-9.207541375928582],["Is",-9.207591850163315],["liep",-9.209471710942623],["bedrag",-9.212609254362235],["gebruike",-9.213043301086458],["klanten",-9.213431304782844],["elektrisch",-9.21406409355856],["uren",-9.215464606257669],["Sinds",-9.21553236468714],["Daarnaa",-9.215747454086674],["vluchtelingen",-9.21815911950861],["international",-9.219285572674305],["personen",-9.220819798816047],["bestaa",-9.22084510719967],["voormalig",-9.220971435906353],["locatie",-9.221481391762518],["premier",-9.224573312624772],["sprake",-9.226320596610345],["hoeft",-9.228304993986253],["spel",-9.229735997076709],["23",-9.230867240711715],["militaire",-9.231785980347787],["lucht",-9.231870691650165],["links",-9.233285036250166],["gaf",-9.238805103183179],["steun",-9.240119664732873],["gewee",-9.241184676951814],["Zuid",-9.244142829783941],["lever",-9.245060068752984],["project",-9.245282175105412],["gang",-9.245328247945498],["ho",-9.245963616340836],["Haag",-9.246969127649976],["stemmen",-9.248669661759672],["ja",-9.248734366129973],["eten",-9.249374007555126],["rechtbank",-9.251158194288507],["ebru",-9.251818060055863],["enorm",-9.252396944596962],["prima",-9.253778254088813],["belang",-9.254344114049655],["video",-9.25445881511666],["stroom",-9.254636567753064],["dacht",-9.257093002778578],["macht",-9.258483750978874],["Frankrijk",-9.25870882511364],["roepen",-9.260198069632349],["normaal",-9.260562978715704],["zware",-9.260955853653487],["lijn",-9.261725780935025],["woord",-9.264011120795907],["ogen",-9.264875874913947],["contract",-9.266028659155188],["aange",-9.266843395972963],["studenten",-9.267829283631249],["volk",-9.269128263125605],["ministerie",-9.271944155620083],["economisch",-9.272256841773785],["liefst",-9.275291519246954],["omgeving",-9.27547292613076],["rust",-9.275488489028092],["inwoners",-9.276242659635223],["opge",-9.276335433314971],["stoppen",-9.279641810913718],["kamer",-9.279803649802044],["spraak",-9.282669101548873],["League",-9.283090088940082],["keuze",-9.283371188095842],["bepaalde",-9.2838177955913],["Ter",-9.28382658096811],["afstand",-9.28404209918016],["directeur",-9.285375650538615],["korte",-9.285784604390276],["Ajax",-9.288045973207838],["viel",-9.28867607509028],["persoonlijk",-9.29003629143519],["80",-9.292256092863056],["mis",-9.292528836307783],["ontwikkeling",-9.292682895934036],["Net",-9.293808870640778],["termijn",-9.293976202527821],["CO",-9.295750702882401],["contact",-9.29619189174337],["baar",-9.297250291273501],["Nederlanders",-9.297534385889437],["geweld",-9.297780189700886],["betref",-9.298134038222926],["collega",-9.298551172199124],["schrijft",-9.299342390690697],["hoogte",-9.302610419988827],["Misschie",-9.303894159436163],["zwaar",-9.303999089032327],["Twitter",-9.305744665488007],["ktober",-9.3070276209085],["noem",-9.307330179356466],["liever",-9.307423552372807],["voeren",-9.307767336547943],["aldu",-9.308246368024413],["eel",-9.308706564713404],["jouw",-9.310840696829398],["winkel",-9.313023828744106],["zes",-9.316109388100479],["jongeren",-9.317524350598632],["spelers",-9.31816246492262],["Di",-9.31915492284898],["plaatsen",-9.319351852436185],["legt",-9.319521832946734],["stappen",-9.320738207991319],["Heb",-9.320862382107693],["bevolking",-9.320873527371372],["trein",-9.321335389911592],["hart",-9.321692965848165],["juli",-9.325089252140822],["politieke",-9.325836574742418],["Ben",-9.32649942991726],[".’",-9.331774554279686],["groei",-9.332754569109678],["los",-9.334152139296556],["gratis",-9.334655207649373],["antwoord",-9.334889263901278],["bezoek",-9.335021471495857],["belangrijke",-9.336795723987862],["schrijven",-9.337338890504013],["positie",-9.337459479957651],["pnieuw",-9.337923274459701],["persoon",-9.33821889578317],["dochter",-9.339841990398059],["wist",-9.340328207353771],["camera",-9.342168623669345],["vlak",-9.342665068292494],["diensten",-9.343646554949107],["lokale",-9.343733437201923],["doe",-9.344218669757863],["melding",-9.347544907696951],["Nog",-9.348056333815565],["twintig",-9.349070435396998],["productie",-9.352733902785044],["succes",-9.352799044161982],["producten",-9.35283323292289],["NAV",-9.352917078430272],["zoon",-9.353332392334224],["proces",-9.355021441498979],["politic",-9.357627216301346],["artikel",-9.358278365942311],["november",-9.358804453125575],["besluit",-9.35899830911297],["economie",-9.359387672492854],["ster",-9.36020618669868],["Staten",-9.361693891468452],["provincie",-9.362917147874715],["huizen",-9.364935840686478],["Mark",-9.36601093566995],["grade",-9.366071855700174],["kracht",-9.366383557243797],["klink",-9.367723915516446],["gingen",-9.367726798401232],["trainer",-9.370954491591576],["voorlopig",-9.371486907318975],["Tijden",-9.371978216589653],["Verder",-9.372540581069476],["maatschappij",-9.372627508527229],["spreken",-9.373629591359595],["cultuur",-9.376508025649219],["maa",-9.376833152646892],["leren",-9.377547964826569],["Twee",-9.379262501671917],["rapport",-9.37961562990639],["35",-9.37965914366513],["vele",-9.381374303496878],["morgen",-9.383518127135318],["serie",-9.383704619037715],["koers",-9.384033965899066],["ingen",-9.385659969901003],["race",-9.386196452960583],["Trump",-9.387081855473447],["uw",-9.387291845455984],["wijk",-9.387818734579223],["verlies",-9.389194665179446],["financië",-9.390178484548155],["mens",-9.390950134483747],["tje",-9.392403109483551],["ervoor",-9.393113583860899],["gehoude",-9.393857026765913],["Brussel",-9.394345318310444],["leef",-9.395401935660942],["Alle",-9.397369772694372],["voertuig",-9.397958877219969],["woorden",-9.39998291428565],["leider",-9.40182536933383],["sturen",-9.40302821403629],["baan",-9.4043936403851],["burgers",-9.404945528783061],["toernooi",-9.406177069889726],["geschiedenis",-9.40723051372232],["advies",-9.408461085443562],["slot",-9.409877312842038],["bouwen",-9.411912321365149],["kennen",-9.412978549524592],["tegenover",-9.41554393138183],["geraakt",-9.415807041618844],["vlucht",-9.417237025280043],["band",-9.417948396014935],["PS",-9.4251771029942],["begrijp",-9.425508106397466],["rs",-9.427376034788232],["lastig",-9.428689295149406],["um",-9.42915543994781],["daarvan",-9.429417111818447],["dorp",-9.430000458264427],["sneller",-9.43083479405835],["verwachting",-9.431127282102633],["zeven",-9.43164298806531],["eemt",-9.432256563531535],["Antwerpen",-9.43263998538089],["april",-9.433828040181748],["dagelijks",-9.433984031500342],["last",-9.436600335820966],["iPhone",-9.438207866434986],["mening",-9.439084284386482],["bericht",-9.440433591784984],["tekort",-9.440468988399243],["veilig",-9.442151115872576],["Mensen",-9.442678436521994],["slachtoffers",-9.443862578638205],["december",-9.444357774893561],["bouw",-9.444434516161547],["burgemeester",-9.444483310968181],["oor",-9.445196785356078],["verkeer",-9.445855630207173],["gesteld",-9.445873193345745],["aa",-9.446172836364138],["versie",-9.44644984292233],["opvang",-9.446829238804048],["hield",-9.44731908622487],["geloof",-9.447490093816537],["kijkt",-9.447524315550353],["overigen",-9.447589713977674],["jou",-9.449054870933299],["ouden",-9.449180611542332],["gehaald",-9.449208880973984],["verandering",-9.44923147376019],["noemen",-9.449349038590974],["aardoor",-9.45040693857662],["praten",-9.452166362985386],["feit",-9.453398410134128],["fout",-9.454560926197722],["platform",-9.454575487118873],["kwaliteit",-9.454996588992525],["tafel",-9.454999149765076],["wagen",-9.455654108160719],["winter",-9.456004091367484],["website",-9.458156871153465],["trokken",-9.459198958601412],["raakte",-9.459733507858154],["kozen",-9.459975548386787],["scherm",-9.460339716043713],["model",-9.4612850311956],["60",-9.461345970502862],["OS",-9.461403894330045],["Tweede",-9.461517734310348],["woon",-9.462456077701333],["vrienden",-9.46391260859115],["speelde",-9.465282307381422],["heden",-9.466371608272468],["dragen",-9.468573998826695],["ervaring",-9.470396956655303],["zorgt",-9.470671953675748],["ve",-9.472511252714678],["daarme",-9.474123437274512],["70",-9.474231366508011],["Chine",-9.474710500533167],["enorme",-9.477025380285239],["oeten",-9.477831733065099],["kwartaal",-9.478339602269976],["Verstappen",-9.478873519441745],["lichaam",-9.479654713521647],["draaien",-9.480284608597636],["schuld",-9.48394554008759],["gevraagd",-9.48972398630396],["getroffen",-9.49007251424003],["leeftijd",-9.490141427861614],["verleden",-9.491921685739047],["sprong",-9.49318978251527],["stikstof",-9.493257842695293],["Oost",-9.494327214809893],["veiligheid",-9.494464436205824],["bestaan",-9.49452618582127],["ex",-9.494990914518878],["NL",-9.495605915010241],["pandemie",-9.500090076388869],["tijdelijk",-9.50215788132536],["raad",-9.50283819684249],["sluiten",-9.503331700529943],["ugust",-9.503411306886482],["â",-9.503485571068325],["se",-9.504016570883039],["Rotterdam",-9.505671130492393],["laag",-9.506102410694856],["vierde",-9.50751161648951],["belangrijkst",-9.509131602006113],["waarvan",-9.510028058155818],["park",-9.51228276688243],["verkoop",-9.51258267843455],["27",-9.513117117044004],["90",-9.513877617438752],["samenleving",-9.515915307052431],["verkopen",-9.51595290782671],["post",-9.517379777901898],["sanctie",-9.517407057097024],["titel",-9.518135677609266],["overleden",-9.518669696820993],["stap",-9.519503651765492],["voelen",-9.520269910939522],["sche",-9.520878799021872],["beslissing",-9.521878197376443],["reed",-9.521969717438541],["wapens",-9.523915101880014],["controle",-9.526748090092024],["kieze",-9.52699593850459],["bestuur",-9.52929542773715],["zen",-9.52988660347515],["28",-9.5301724981395],["kaart",-9.53087512739211],["ondank",-9.53169560107684],["samenwerking",-9.532053353251982],["weest",-9.532065482961125],["Waaro",-9.532072582986563],["rente",-9.532302574595342],["makkelijk",-9.53315154759763],["Onze",-9.533911889078658],["gegevens",-9.53429368841756],["leiden",-9.536855414571532],["eindelijk",-9.536957775625105],["echte",-9.537158185970279],["actief",-9.538574449368816],["motor",-9.540277920419664],["tegenwoordig",-9.540736483341933],["prob",-9.541498718385222],["onderzoeker",-9.541961778254173],["26",-9.542529188942813],["begonnen",-9.542704953821271],["Max",-9.543921844559815],["overal",-9.545492754049963],["akkoord",-9.546944105678993],["allerle",-9.5481128055848],["ot",-9.54812335786076],["as",-9.549237158784145],["verbod",-9.54947120034976],["ronde",-9.550555362962815],["oog",-9.552539504009799],["beschikbaar",-9.55347136387656],["bewoners",-9.554108771421538],["aard",-9.554741986399677],["burger",-9.555035207161655],["Nou",-9.556187024972555],["tjes",-9.556566405243267],["loop",-9.558297473538143],["Utrecht",-9.559054121750206],["jes",-9.559588205958399],["leiding",-9.560329208387232],["sloot",-9.561572900485533],["immers",-9.562229169121348],["telefoon",-9.562826606911063],["Eerder",-9.569950949440006],["werknemers",-9.570737716001737],["invloed",-9.570980755669815],["vroeger",-9.57107510486743],["patiënten",-9.571191469272001],["wi",-9.571343421874598],["vliegtuig",-9.572138414799614],["Kan",-9.574028700323566],["trouwens",-9.576475353455065],["45",-9.5774457104675],["asielzoekers",-9.577525287527639],["Naast",-9.5780447517213],["eken",-9.579805820746907],["Vorig",-9.58006893377613],["omzet",-9.581378133821715],["Vlaanderen",-9.582174098020852],["ch",-9.582339931391015],["afgel",-9.585216653965212],["brief",-9.58539070956661],["ton",-9.585648305642454],["kerk",-9.585972265948243],["kijk",-9.586628918739247],["name",-9.587183588603096],["generatie",-9.587478315826582],["Daarna",-9.589159680337701],["dieren",-9.5892040769271],["vertelle",-9.58925820803319],["’.",-9.589600788122592],["wereldwijd",-9.590101550295692],["merken",-9.592779731977195],["bewust",-9.593355872519881],["geldt",-9.593360428291675],["positief",-9.595797702824555],["draagt",-9.596367179907],["plekke",-9.596634065513728],["gebeurd",-9.5973643690714],["industrie",-9.597660344584803],["kennis",-9.598286406089326],["+",-9.598287678387422],["verklaring",-9.598436712017776],["gebeurde",-9.59871043071454],["aandeel",-9.59885561038785],["Tour",-9.59929905737221],["commissie",-9.601843675192992],["fans",-9.60207213469034],["ha",-9.603821910571057],["duurder",-9.6041860150712],["aanval",-9.604292051750583],["lag",-9.604597390500288],["probeer",-9.606214276194528],["overwinning",-9.607705696240313],["Oranje",-9.60889200507095],["vertelde",-9.609174151450485],["coach",-9.609288093723917],["Iedereen",-9.61005486756798],["duel",-9.61190511356833],["poging",-9.611919887922888],["oals",-9.614461843836459],["midden",-9.615656307133493],["straf",-9.616878413545503],["Nederlander",-9.617294091143904],["volgt",-9.618073930355603],["stil",-9.61873549151034],["nam",-9.618815903202233],["brandweer",-9.61949060674496],["kritiek",-9.619936552411719],["expert",-9.619977926502768],["merk",-9.621774636778568],["kwestie",-9.623957027437548],["sprak",-9.624047675639265],["duur",-9.624385450433994],["tekst",-9.625390244032001],["kwijt",-9.6275286076275],["gelukkig",-9.627697884546862],["Vooral",-9.628080922905086],["X",-9.628409228638002],["verkocht",-9.62847073904911],["maxima",-9.62902553761866],["La",-9.629159744674936],["drugs",-9.62953917388474],["sch",-9.630700580646728],["fijn",-9.631251491058789],["krant",-9.632344259414191],["berichten",-9.6333116754773],["West",-9.633732776257226],["simpel",-9.633895358490896],["mo",-9.634879564936561],["gewon",-9.637667974578832],["TV",-9.638159412891396],["Be",-9.638746116522348],["hoogste",-9.638754432968085],["bal",-9.63906846789806],["qua",-9.639477617281358],["zin",-9.63978337954044],["val",-9.64098937901053],["dien",-9.641498034143751],["mogelijkhe",-9.642289815720936],["virus",-9.64471180612913],["organisaties",-9.645081781281787],["omstandighe",-9.645275049592872],["vriend",-9.647105917148142],["volle",-9.647143593392265],["feest",-9.647569634128235],["gewerkt",-9.647703007371465],["middel",-9.648949711645894],["aarvoor",-9.64991483348465],["pensioen",-9.64998967961117],["bestaande",-9.651062929320075],["angst",-9.651877166152637],["Zaken",-9.652516433481074],["vergeten",-9.653004407678196],["onge",-9.65554399849955],["29",-9.656833760503563],["Vandaa",-9.657458278291724],["Biden",-9.657480589678453],["idee",-9.658701701094035],["Frans",-9.661057134976943],["est",-9.6612390978904],["inderda",-9.662004176865935],["behoorlijk",-9.663046920037848],["namen",-9.664495245959786],["Suriname",-9.6659232112554],["bewijs",-9.666352758955576],["boete",-9.668000409682083],["gisteren",-9.66938973080543],["Rond",-9.669571479151944],["vermogen",-9.669927518705926],["stem",-9.670012223212709],["keren",-9.670783702120671],["wan",-9.673376426062998],["genoemd",-9.673410040963788],["bracht",-9.67358893886022],["OM",-9.674169161139233],["wijze",-9.674280210554583],["krege",-9.674357467832117],["eigenaar",-9.676003351238855],["vrijheid",-9.677518075544366],["gezicht",-9.678028696072957],["definitie",-9.678198701717271],["Kaag",-9.67842877407371],["Nee",-9.680167997977678],["moe",-9.682144974522906],["snelheid",-9.682532899625908],["stijging",-9.683045299888406],["selectie",-9.684782300283796],["jeugd",-9.685858104405733],["edereen",-9.687587129930119],["sta",-9.687813673306849],["wijzen",-9.687838788912352],["bepaald",-9.688520368882092],["massa",-9.689764403858982],["Zelfs",-9.6900022405757],["variant",-9.69019508584488],["interview",-9.691641594409631],["plein",-9.693948944952226],["gezin",-9.69490461469701],["bezoekers",-9.695342236316126],["algemeen",-9.696457418836273],["ervan",-9.696817771381754],["veranderen",-9.696829386987329],["ijn",-9.697118477271369],["raken",-9.698785577597015],["liefde",-9.699739788958848],["hangen",-9.699853866907713],["onderwijs",-9.70133204040318],["meerderheid",-9.702241772595414],["verlo",-9.703708258544802],["moeite",-9.704594616374237],["tuin",-9.705486986361002],["Sint",-9.705595448123937],["netwerk",-9.705969631121842],["gebouw",-9.706894538805921],["erop",-9.707428240362354],["centrale",-9.709232219637002],["milieu",-9.711673971105585],["koop",-9.71419192776051],["jaarlijks",-9.71440258215163],["Ga",-9.716578894513734],["populair",-9.71685996021203],["ische",-9.717151425820724],["bang",-9.717356980640611],["code",-9.72010376720781],["ziekte",-9.720612748945646],["leek",-9.720763723222946],["witte",-9.720909077958968],["afhankelijk",-9.721043371182205],["uwelijks",-9.723002494672631],["training",-9.724925056835726],["gevaar",-9.725826867250461],["verhalen",-9.728187102297309],["Google",-9.73014892091507],["Unie",-9.730419190995363],["bestuurder",-9.730684529999376],["es",-9.731634275768194],["groen",-9.732125612163177],["gewone",-9.732170187926936],["reeks",-9.732429411876453],["speler",-9.733477520029869],["kunst",-9.733917595873908],["reis",-9.734084326237149],["verliezen",-9.73675141625656],["75",-9.736826458088366],["Pro",-9.738366309336847],["optie",-9.739233700439579],["spreekt",-9.740007796770637],["zwart",-9.740141955296995],["nou",-9.740413034521197],["nie",-9.740665977033274],["Feyenoord",-9.742951340343197],["regelmatig",-9.744955694643654],["ontvangen",-9.745085933659286],["pijn",-9.745871831991774],["tegelijk",-9.746013929489326],["deels",-9.746184651491376],["Ho",-9.751266919476173],["optreden",-9.753766728312886],["incident",-9.753980970934776],["levert",-9.756375660526935],["vraagt",-9.756391157373319],["Wanne",-9.757236794694055],["gelegd",-9.75812667874787],["gewond",-9.758845229817046],["co",-9.759992613644389],["national",-9.760137657444893],["Jong",-9.76014926234224],["Pas",-9.760406448905563],["gericht",-9.760561463007017],["zagen",-9.762565438195349],["schree",-9.762690003890096],["temperatuur",-9.762720619234393],["seconde",-9.762798205347295],["test",-9.762936024151443],["ontstaan",-9.763383938637139],["podium",-9.764005277592677],["beroep",-9.764614768023714],["gebruikers",-9.765047778608107],["ële",-9.765071159103572],["bloed",-9.766834708715045],["betaald",-9.767582382703885],["helpt",-9.769860067467679],["momente",-9.770636856473601],["kleur",-9.771548208115517],["orde",-9.772212270527303],["mond",-9.772226261560514],["show",-9.772262477224192],["aandelen",-9.772289998177309],["operatie",-9.772661241361291],["hel",-9.773190772946453],["ongeluk",-9.773486110311413],["eeuw",-9.774160436282877],["geheel",-9.776864548889572],["loos",-9.777462109600904],["cel",-9.777530699475896],["vuur",-9.777679883043698],["buitenland",-9.779344698880049],["voren",-9.781194691593456],["geloven",-9.781504812018365],["doden",-9.782023417041682],["vak",-9.782091846908404],["beurs",-9.782442442926563],["nood",-9.782868166154213],["vaccin",-9.783425428923218],["voordeel",-9.783608286135145],["Europees",-9.783904827339711],["boeken",-9.784119337989384],["bus",-9.784724069340106],["leid",-9.785494223071302],["erd",-9.787482392388231],["minste",-9.78838321250297],["taal",-9.790654383406732],["blauw",-9.790696765982215],["prachtig",-9.790957708017741],["maak",-9.792440227130871],["stel",-9.792536937850938],["advoca",-9.792906097765036],["goud",-9.792967477250187],["Schiphol",-9.793921218107627],["dergelijk",-9.794111447779912],["kamp",-9.794229679864184],["Spanj",-9.794230829074094],["Musk",-9.794880376667006],["standaard",-9.79522115206827],["omhoog",-9.795312558949316],["Ma",-9.797246296645532],["Afrika",-9.798654346932436],["Qatar",-9.799215614014436],["technologie",-9.801297356010085],["baas",-9.802870953040745],["Q",-9.802999939703064],["carrière",-9.804055089892248],["verdienen",-9.804380927073165],["Ge",-9.805195858280673],["Meer",-9.806025359041222],["elukkig",-9.806367615046266],["groeien",-9.807474997207837],["schap",-9.80765801166923],["festival",-9.808459834868593],["studie",-9.808932802527938],["hoeven",-9.810540474928985],["boom",-9.810669671618431],["verschillen",-9.810839204187007],["zette",-9.811357503205414],["Zeker",-9.811400309189807],["museum",-9.811943004927116],["diverse",-9.81284597220295],["Berg",-9.813720963963362],["type",-9.814965787019975],["waard",-9.815972345132572],["vrije",-9.815981547670974],["klachten",-9.817223255133966],["gebrek",-9.818136068517775],["geweldig",-9.819952792234764],["terrein",-9.82032580215742],["scholen",-9.820949353331866],["meisje",-9.820971004332247],["wapen",-9.821791397890344],["verbruik",-9.822073012474842],["Le",-9.82298756776913],["slagen",-9.823486902376528],["effect",-9.824282268817015],["vlees",-9.824493575058725],["vormen",-9.825565761478991],["melden",-9.826841962260346],["bedoeld",-9.827839351979653],["update",-9.827912360766003],["papier",-9.828317847865346],["serieus",-9.828619170632049],["ingezet",-9.828776322387391],["debat",-9.829038731436684],["Polen",-9.831365478284951],["hopen",-9.832437253104723],["John",-9.833047915705507],["or",-9.83529891088366],["afdeling",-9.83591796735503],["haalt",-9.836324760405788],["rode",-9.836362339911933],["geleverd",-9.836729917767641],["jongens",-9.83736437884508],["fabriek",-9.83812422694314],["hotel",-9.838371557011971],["Zou",-9.83837633429186],["ouder",-9.838979333753468],["resultaa",-9.839029630653982],["raden",-9.840737571863617],["troepen",-9.840816171374154],["autoriteit",-9.842030280206387],["steden",-9.843075191321415],["gewe",-9.843148634461148],["Open",-9.843362147300695],["discussie",-9.843706218945734],["Sommige",-9.844596031362137],["geluid",-9.844993632240634],["New",-9.846204347993492],["hoopt",-9.846728675129],["bekijk",-9.846803716038366],["onderwerp",-9.847312616818517],["geplaatst",-9.84785550406968],["stelde",-9.8484701806319],["Amerika",-9.850567316596823],["voorzien",-9.850594580835146],["ën",-9.852695168298155],["comple",-9.852871820662667],["verdacht",-9.853155278247986],["Parijs",-9.853630867574328],["twaalf",-9.853992713877924],["modellen",-9.854269419289036],["geboren",-9.855009938644226],["voedsel",-9.855118770841795],["rug",-9.855980017309495],["lijken",-9.858096875714093],["kop",-9.858165985349398],["brug",-9.858370975533358],["activiteiten",-9.858957260357531],["schieten",-9.85929480598659],["blijkbaa",-9.859861661651223],["regeling",-9.860255167692777],["passen",-9.861043398271432],["record",-9.861136771910948],["Air",-9.86156337053939],["gespeeld",-9.862187701442386],["moord",-9.862280897285723],["zwarte",-9.86250598465119],["kampioen",-9.862667374128321],["trekt",-9.863176150371768],["Boven",-9.864181551331484],["Peter",-9.866644624245001],["resultaten",-9.867186534953198],["miljoenen",-9.868145309189863],["hangt",-9.87025370026512],["Mercedes",-9.870894436778432],["bureau",-9.871057618423242],["impact",-9.87203098102901],["opdracht",-9.872035029427767],["internet",-9.874018382900541],["banken",-9.874461707963604],["apps",-9.875352052718274],["warm",-9.875537838092676],["Laat",-9.87611401416451],["kantoor",-9.876586665798092],["Tesl",-9.87701293248469],["nderdaa",-9.878819145922353],["PvdA",-9.879872867778559],["broer",-9.880248929315066],["minima",-9.880630108262674],["baby",-9.882792226707256],["aanbod",-9.883101631937725],["genieten",-9.883343566957482],["gelaten",-9.884280571891491],["gehoord",-9.88507685569421],["verband",-9.885732939674448],["uitge",-9.886520147661539],["fase",-9.88659649058258],["Sport",-9.88767873317612],["rijdt",-9.888196687209035],["minuut",-9.890031301047127],["199",-9.890212474431824],["slapen",-9.890317507219287],["hout",-9.890370513588042],["lid",-9.891713174565037],["veroorzaakt",-9.891904327066193],["deelnemers",-9.892441313022104],["Grote",-9.892632334771712],["oo",-9.892668168347857],["ding",-9.8926923817594],["jongen",-9.89285068856222],["kapot",-9.8929627995754],["jarenlang",-9.893056462527237],["opzichte",-9.893460707784],["33",-9.893513613710654],["supermarkt",-9.894150070455733],["Som",-9.894755610558274],["verschijn",-9.895187124373939],["lees",-9.895850903454251],["invasie",-9.896007558839509],["gebouwd",-9.897218796391067],["Willem",-9.897285603787164],["Kijk",-9.897775016416436],["filmpje",-9.898238773845645],["CDA",-9.898524243840674],["2014",-9.900291498370425],["Denk",-9.901729385628283],["laas",-9.901787224015791],["goedkoper",-9.901798821835504],["wijst",-9.902134069108591],["college",-9.902296920685766],["eisen",-9.902592648242418],["product",-9.90417878172343],["dank",-9.904382638069341],["ka",-9.905501058651812],["Kom",-9.906900397110501],["total",-9.907296022557356],["consumenten",-9.908404166982002],["Wil",-9.9085200834158],["tegenstander",-9.908742738735413],["doorgaan",-9.909457759984996],["twijfel",-9.909848486521497],["top",-9.91028226890887],["digital",-9.911274086050092],["slaan",-9.911389035056299],["toegang",-9.912290797938239],["gegaa",-9.912561707339671],["wetenschapper",-9.913403569948674],["past",-9.914095147657223],["esloten",-9.914674926953618],["Red",-9.915367891741603],["haven",-9.916030415562908],["handel",-9.917651658563365],["ok",-9.91821518759097],["wacht",-9.918507782321292],["kleding",-9.919950894685378],["ertijd",-9.920007115310664],["grenzen",-9.921324845713198],["vriendin",-9.922641271237108],["rustig",-9.923061307643676],["steken",-9.923919037969457],["talië",-9.9241359759472],["vliegen",-9.92420212321476],["stukje",-9.926458765934509],["leeg",-9.927615312766179],["gooien",-9.930178664440348],["gereden",-9.931237676242842],["criminele",-9.932734385845608],["winnaar",-9.933842957685682],["praktijk",-9.934939046984503],["werkelijk",-9.935203488883255],["daadwerkelijk",-9.935544086598686],["voet",-9.936206859048173],["Ver",-9.936226982610005],["conflict",-9.936564396961646],["overleg",-9.936585830322855],["Even",-9.93675752271731],["officie",-9.936823598025335],["westers",-9.937057134530711],["stijgen",-9.937309527989086],["beperkt",-9.937322484024953],["gezondheid",-9.9379100487577],["schepen",-9.939368659280575],["Mosk",-9.940273694482233],["gesprekken",-9.940644723265267],["32",-9.941085963041038],["verzoek",-9.941601331183097],["bier",-9.9419455492941],["Putin",-9.943666120705128],["indruk",-9.943779149920946],["plezier",-9.944169940591598],["aangekondigd",-9.944194779757161],["ineens",-9.944523763277108],["groene",-9.946967034306512],["Kort",-9.947684516621383],["sluit",-9.947924043295],["beweging",-9.948676303925373],["reizen",-9.950067863535661],["tientallen",-9.950408945824968],["bijdrage",-9.951941043419605],["Bank",-9.952930071451604],["Leiden",-9.953139818213527],["horeca",-9.954185197316978],["kansen",-9.956761918157358],["Alles",-9.958702809497984],["vereniging",-9.95876751294568],["Ro",-9.961841851715034],["ondernemers",-9.962612528319632],["campagne",-9.963471367248964],["reageren",-9.964245365498385],["concert",-9.964447369855309],["pro",-9.965158416814143],["vergelijking",-9.9655509163968],["liter",-9.965694607820657],["atie",-9.96579900635696],["opvallend",-9.96581248728259],["bereid",-9.966109115643182],["toont",-9.966464730837828],["ernstig",-9.966675142628596],["berg",-9.968031723163627],["ra",-9.968075037970952],["nlangs",-9.96820548419731],["budget",-9.968361877535013],["blessure",-9.969651085252062],["komst",-9.971079576286229],["?”",-9.971523109994507],["eerlijk",-9.971807218093318],["feiten",-9.97198988599465],["duren",-9.97285070992097],["partner",-9.973264164158877],["openbaar",-9.973677148742858],["City",-9.973810638284382],["aat",-9.975818735108604],["aker",-9.976206466546731],["trots",-9.97628680733849],["31",-9.976356856749064],["handig",-9.97647482366279],["bomen",-9.97653028047171],["sfeer",-9.977222439881546],["brandstof",-9.978278825480805],["route",-9.979440869607256],["behandeling",-9.980244471541283],["gestuurd",-9.981068102041629],["lukt",-9.98132927034846],["spits",-9.981384756670518],["la",-9.982458811570162],["historisch",-9.983294063520237],["conclusie",-9.983671896974833],["verplicht",-9.983986798254135],["gevolge",-9.984319997006734],["Spaans",-9.984897528618903],["pand",-9.98638768054602],["dertig",-9.98673723256455],["uitstoot",-9.98912614860573],["for",-9.989356337939618],["vertrekken",-9.990360766424462],["zekerheid",-9.991054049767385],["afscheid",-9.99232359349833],["vervangen",-9.992808242719741],["Instagram",-9.992823365546734],["mede",-9.992923705936821],["middelen",-9.99332066467979],["duurt",-9.99335605486879],["BMW",-9.993782331992564],["editie",-9.99435373530537],["US",-9.995582770146752],["Me",-9.998563499226435],["koning",-10.000265857254035],["uiter",-10.000332210053813],["bak",-10.000386994191672],["ag",-10.000595079521597],["westen",-10.00080894273567],["300",-10.001131793209384],["drinken",-10.001497731584896],["draait",-10.002260717073215],["aflevering",-10.004937140186621],["rekenen",-10.006037653928677],["dossier",-10.006978356209562],["acties",-10.007472937615955],["greep",-10.007482327315389],["asiel",-10.008064067176274],["zi",-10.008086956726377],["400",-10.008406996735726],["combinatie",-10.009796730617603],["spoor",-10.010549630780957],["cht",-10.010730528992283],["voorwaarde",-10.010773550231928],["sterke",-10.011117550600332],["kwart",-10.011391652187044],["Formule",-10.011869781167391],["kwame",-10.012640158103466],["eventue",-10.01301618466703],["protest",-10.01340379243138],["Facebook",-10.013980148738998],["ko",-10.014368581748787],["game",-10.01473812011719],["Haar",-10.015378654308346],["letter",-10.015463118926757],["instantie",-10.015898911805698],["Italiaanse",-10.016200895755746],["roept",-10.016255788546125],["spulle",-10.016373388619884],["erbij",-10.016792105426564],["Paul",-10.017300299558215],["veiligheids",-10.017459932137708],["speciale",-10.01828017517698],["droom",-10.01866289588307],["herstel",-10.019750465149276],["EK",-10.020249683157738],["voorstellen",-10.020869627157175],["ongeval",-10.022107699444735],["stuur",-10.022747652815278],["bescherming",-10.02339271871555],["leidde",-10.025187879317382],["broek",-10.025412316700143],["trok",-10.025442254631933],["vertrek",-10.02635806998067],["ro",-10.026595205159932],["wet",-10.026673969753407],["biede",-10.027124768261757],["no",-10.027154625979568],["landelijk",-10.027228657621858],["luchthaven",-10.029074087109528],["adat",-10.029094075865384],["voorstel",-10.029545284807817],["gedacht",-10.030160951122575],["site",-10.030241797020995],["huishouden",-10.030642073466812],["Bovend",-10.031313048321813],["geluk",-10.031572091093881],["anti",-10.032780720649132],["perfect",-10.033509077067402],["democratie",-10.033937520928134],["haalde",-10.034863543757883],["wisten",-10.034898184895173],["ring",-10.035501556852378],["pak",-10.035527679802506],["extreem",-10.035818658185942],["Watch",-10.036072988130371],["hoef",-10.036289931084175],["dikke",-10.037271009384924],["ziek",-10.037720691485049],["vechten",-10.037915980554242],["live",-10.040217531609455],["36",-10.042421551193325],["Co",-10.04256784932526],["excuse",-10.043564291170366],["koffie",-10.043628324634186],["Was",-10.043879591056731],["vuurwerk",-10.044033450844777],["wann",-10.044833124236337],["probeerde",-10.045116363169633],["veroordeeld",-10.047371102721465],["To",-10.047544492303604],["interessant",-10.049383085578572],["bereiken",-10.050162102385826],["Beide",-10.050313367529887],["geschikt",-10.050965430404958],["Zelf",-10.051074930984875],["37",-10.051586515488491],["competitie",-10.05279039222546],["buitenlands",-10.053368064389486],["Minister",-10.054988703016313],["testen",-10.055998163297508],["bedoeling",-10.05683752773837],["diep",-10.057083286579513],["schoon",-10.057122452608954],["besmetting",-10.05789643951141],["Eindhoven",-10.05998446154154],["inkomsten",-10.060666809018219],["vergunning",-10.060690477138596],["lage",-10.061097700521133],["inderen",-10.061357349065002],["beleggers",-10.062071522388276],["beurt",-10.062316297700342],["Bo",-10.063841820811032],["zak",-10.06447699396145],["Oekraïner",-10.06565740864908],["klopt",-10.066526226030161],["bondscoach",-10.066882884214667],["aangifte",-10.066953110116383],["rijk",-10.067361683420401],["noemde",-10.068036122473913],["oproep",-10.068141088595445],["investering",-10.068260746568086],["VV",-10.068362453769502],["vijftien",-10.068688793934388],["welkom",-10.069555029081418],["beslag",-10.069845298497874],["voelde",-10.070415109084],["and",-10.07335373095226],["bodem",-10.07343170809052],["staats",-10.073998483241379],["bereikt",-10.074653580305984],["stadion",-10.07511844816015],["zorgde",-10.076106146444666],["gerekend",-10.076198691120066],["uitdaging",-10.077866101432198],["hof",-10.078839135569423],["Johan",-10.07897802751619],["Wereld",-10.078983642132048],["Naar",-10.079302961999026],["prestatie",-10.079621378376826],["negen",-10.080187525548325],["soldat",-10.08215314697557],["zichtbaar",-10.0828323285299],["afloop",-10.083514619501507],["helaa",-10.084456419100807],["militair",-10.085007060172634],["agent",-10.0852864810909],["gele",-10.085473118582875],["techniek",-10.085834699508307],["inzet",-10.088533087497925],["maatschappelijk",-10.08856176187154],["jammer",-10.088611761045453],["verloo",-10.088695211201621],["scenario",-10.089565469045866],["38",-10.089847372558445],["jong",-10.090299365933099],["Samen",-10.091416789557362],["Moet",-10.09290173479312],["ur",-10.094864006492609],["klant",-10.096148423396478],["inkomen",-10.096677367255541],["mail",-10.097849940834148],["za",-10.098015552241844],["herinner",-10.099732051730882],["beschermen",-10.100272731165653],["snap",-10.100551844774348],["vrachtwagen",-10.101420246235659],["groepen",-10.10180924290997],["banden",-10.102532393078324],["schip",-10.1033098759862],["fietsen",-10.104141976400904],["ns",-10.104224862816928],["positieve",-10.10454836613055],["pers",-10.105289318873787],["coalitie",-10.105835026987709],["logisch",-10.105945538328058],["eze",-10.106532391500064],["gevon",-10.106614485054685],["opleiding",-10.107807189003253],["Daaro",-10.108678266774351],["uitkering",-10.10878502365199],["steeg",-10.109506456847832],["Dank",-10.10981743392744],["afval",-10.109983452987596],["$",-10.110822665408541],["Koninkrijk",-10.110822676362906],["NPO",-10.11097909722669],["televisie",-10.111222014284268],["Bart",-10.111824763189905],["verlate",-10.11243199711107],["aangepast",-10.112523852077018],["achtergrond",-10.11255310477216],["bos",-10.112576523207075],["verwachte",-10.11316601828241],["rood",-10.113210946283614],["daarop",-10.113596131410274],["etc",-10.113964770581829],["Groot",-10.11487847766698],["kerst",-10.115239704123603],["stemming",-10.11685463491263],["winkels",-10.118317030349619],["nneer",-10.118420874783684],["zege",-10.119477759156037],["redelijk",-10.119882978712269],["gekocht",-10.11995197773574],["gebrok",-10.120154032015087],["loze",-10.120173788221683],["Tom",-10.120790689631392],["aanpak",-10.121050157259223],["Groen",-10.121907342809285],["koppel",-10.122348238423875],["uitgevoerd",-10.123737691977146],["CB",-10.124527402850713],["Commissie",-10.12462342104061],["destijd",-10.125341279567724],["Gent",-10.125539056924183],["meldde",-10.125582381165852],["software",-10.125664062814517],["Defensie",-10.125869629419084],["55",-10.125872203899846],["150",-10.125888368680336],["wijl",-10.127379802703215],["gev",-10.128950702279596],["amper",-10.128974760601244],["elders",-10.130542701205304],["aanslag",-10.130759290075645],["gevangenis",-10.133062413591645],["Natuurlijk",-10.134010127792244],["fabrikant",-10.134260079759638],["zolang",-10.1346360312377],["zet",-10.134926892052835],["negatieve",-10.135056381710633],["uniek",-10.135271726017756],["tevreden",-10.135674237070095],["leerlingen",-10.13660800440234],["Oekraine",-10.13748774289968],["universiteit",-10.137636309864659],["pad",-10.137828235274586],["Londen",-10.138128724454386],["Nieuw",-10.138268217787568],["pakket",-10.139251782865461],["index",-10.140019112544355],["wethouder",-10.140592912244596],["loon",-10.140831452132907],["vervoer",-10.141206027420623],["werkte",-10.141302485911925],["Club",-10.141917936821546],["hond",-10.141958518615493],["station",-10.142171304102229],["betaal",-10.143088038451964],["Raad",-10.143167190996873],["super",-10.14493637674449],["behoefte",-10.145788304267759],["él",-10.14588291593806],["principe",-10.146409744441797],["klap",-10.146730970489429],["egen",-10.147436494710455],["vakbond",-10.147558219825193],["eiland",-10.14773885312983],["opgepakt",-10.149037302572083],["schaal",-10.150432683026892],["gedragen",-10.150950906833621],["bekende",-10.151934603480795],["enig",-10.15226665855577],["privé",-10.152323019571046],["Elke",-10.153416313431359],["onduidelijk",-10.153509106370052],["breken",-10.153628441483436],["praat",-10.15403562000774],["hou",-10.15420820863763],["Kie",-10.154448155833768],["mei",-10.15489890599602],["zulk",-10.155226179205236],["boer",-10.156030628796868],["lockdown",-10.157005352046536],["gebaseerd",-10.157199169788425],["zuiden",-10.157486924254117],["leuke",-10.157934780354871],["alternatie",-10.158658254941884],["Bull",-10.16132679884271],["boel",-10.161557146684725],["Wi",-10.162070914373402],["beperking",-10.163443784532587],["Westen",-10.164122697117206],["ri",-10.164259630071744],["raakt",-10.16499027734821],["aanvallen",-10.165011539187832],["apart",-10.16561090877932],["woke",-10.166769251965388],["ehalve",-10.166798918300119],["verdwijnen",-10.168235587335406],["stijl",-10.16835503669671],["Jumbo",-10.168982986159477],["levens",-10.169004915570167],["vermoedelijk",-10.16989533079514],["ker",-10.170877075709416],["alcohol",-10.171728693860938],["oosten",-10.171902172166718],["erden",-10.172162836318714],["heen",-10.172239399504896],["hoek",-10.172275332188491],["focus",-10.172607913890205],["vrijwilligers",-10.173445414026569],["medische",-10.173811383456023],["golf",-10.17511329850646],["zetel",-10.17561390751578],["onderzoeken",-10.175943915480348],["bevestig",-10.17653241169042],["bezit",-10.176945721413311],["lachen",-10.177346158473998],["197",-10.177936467181325],["gepland",-10.178731307244618],["daling",-10.178917706864766],["Manch",-10.179192525108771],["zon",-10.17942685659526],["welk",-10.179864213779831],["ont",-10.180449472873825],["Ministerie",-10.180536012594054],["Baudet",-10.1810628329311],["coureur",-10.181120055720704],["account",-10.181285822674816],["materiaal",-10.181661150203363],["onderzocht",-10.181676928526912],["automatisch",-10.181729414439548],["spanning",-10.182295947226653],["ord",-10.182728457678913],["blijf",-10.182798853951208],["plaatsvind",-10.18504350724556],["198",-10.185599945625157],["bo",-10.185726720376623],["eenvoudig",-10.186087464118113],["café",-10.186533890073608],["dak",-10.18697593894834],["voorkeur",-10.18768260863062],["gelegenheid",-10.188896973485315],["gemeld",-10.189094192948277],["gemeenschap",-10.19023813743684],["bron",-10.190542151461404],["Antwerpse",-10.191978620823587],["€™",-10.193225671599194],["financieel",-10.19345466822855],["Holland",-10.194088440084824],["verhogen",-10.194915496173438],["LM",-10.196606094317769],["Rob",-10.197058086573474],["Euro",-10.197292209712707],["Arnhem",-10.198336228808635],["verkeerde",-10.198871009331018],["voldoen",-10.199316874362932],["vlag",-10.199688460136857],["vijftig",-10.201945655281882],["play",-10.202680183114214],["ervaren",-10.20296843296504],["Eerst",-10.203142061975733],["begrip",-10.203294679144898],["volgde",-10.203742137498791],["God",-10.203770465327622],["oren",-10.204116982278045],["waarna",-10.205503019647807],["roken",-10.205557447631957],["starten",-10.206506605629752],["ad",-10.20818805511636],["Hamil",-10.20852148324126],["écht",-10.209084677654282],["un",-10.209642413441626],["bare",-10.210880470162511],["ut",-10.210931038058224],["status",-10.211491564460342],["ester",-10.211538989918779],["34",-10.211572234564077],["thema",-10.211832230711412],["gedeeld",-10.212836798698557],["VA",-10.213681031225832],["treden",-10.214596414552126],["schoten",-10.215551225072812],["openbare",-10.216621779187047],["georganiseerd",-10.219506862131848],["gezond",-10.219539275403957],["zakken",-10.219731780243013],["bed",-10.22163322770717],["defensie",-10.221650383150912],["slechte",-10.221811046443872],["capaciteit",-10.222717633544768],["hoeveelhe",-10.223194165806404],["woont",-10.223849593073709],["cent",-10.224301029822483],["kleuren",-10.225176875597587],["respect",-10.226173301425014],["iële",-10.22623233784434],["2000",-10.22648090541314],["crypto",-10.226640460056121],["verzet",-10.227384610128809],["kilo",-10.227426462301402],["sloeg",-10.228457845344836],["schot",-10.228853439687112],["eur",-10.22921285248523],["id",-10.229227343092283],["boos",-10.229350355302717],["manager",-10.230588208348516],["coronacrisis",-10.231196661478098],["York",-10.232422919271688],["gemeenteraad",-10.232490330240392],["onmogelijk",-10.232965070594123],["duurzame",-10.232990231147902],["oorzaak",-10.233108482058839],["kanker",-10.233679020326115],["minsten",-10.23444074770835],["diesel",-10.235470097082363],["gewicht",-10.235788675305681],["Limburg",-10.235981453744559],["complex",-10.236912301061473],["ke",-10.237336721272367],["betere",-10.23745936937419],["Ander",-10.237603315403272],["absolu",-10.237626623302404],["gepakt",-10.238394153971633],["BS",-10.238556726214904],["aanleiding",-10.238688805112375],["zoda",-10.240052060714376],["fonds",-10.240205101479338],["riep",-10.240226193836452],["boodschap",-10.242077965489521],["uitgebreid",-10.242231961669965],["snelweg",-10.242288340937531],["reizigers",-10.242557309177357],["Live",-10.24268699559029],["Brugge",-10.24345434755843],["Vervolg",-10.243479311246947],["Tegen",-10.24358017413467],["zonnepanelen",-10.243755310218713],["hoorde",-10.24392508809039],["zogenaamd",-10.244060948844867],["erger",-10.2441889065866],["vloer",-10.24429731779165],["snelle",-10.244335443426412],["owie",-10.24482003044475],["benadrukt",-10.245512598911322],["geleid",-10.245786090537177],["journalist",-10.246828114099515],["linkse",-10.247120010495689],["decennia",-10.247756933371772],["belangen",-10.248012425397242],["armoede",-10.24810076835576],["overlast",-10.24836900787895],["gezellig",-10.248494516636812],["technisch",-10.248867782013171],["aak",-10.248997634945189],["elf",-10.249124699460673],["Frank",-10.249766170795041],["eindigde",-10.251331052500817],["sen",-10.253139141950786],["gevoerd",-10.253634218737336],["leeft",-10.254008475553134],["kandidaat",-10.254209404911123],["stichting",-10.254502561254952],["subsidie",-10.256007907323578],["Zelensky",-10.256543729611455],["werkzaamhe",-10.256719409404116],["speciaal",-10.256967165036755],["ontstond",-10.257348714877127],["aanzienlijk",-10.257413117959317],["Y",-10.257498376524646],["acteur",-10.257963546612153],["gemakkelijk",-10.258178311409406],["United",-10.25854762745297],["Mac",-10.261606864197262],["sprint",-10.262291521110853],["ermee",-10.262964776267054],["onderhandeling",-10.262975058233511],["fractie",-10.263673880565314],["proef",-10.26581615347797],["erste",-10.266111715535231],["legde",-10.26612208585519],["herinnering",-10.267722477608064],["ele",-10.267897450654388],["zone",-10.268057222352965],["luxe",-10.268483279030981],["communicatie",-10.268787635356713],["Heel",-10.268812317912168],["parlement",-10.268825341559598],["El",-10.268946792372194],["Champions",-10.269694277380765],["Michael",-10.269752135709822],["Johnson",-10.269841271146873],["Anders",-10.269965131126922],["coronavirus",-10.270011640045489],["kust",-10.270075711791787],["rechten",-10.270699659816682],["ontzettend",-10.271241961633647],["daalde",-10.271458610656724],["gaten",-10.271518977063877],["boot",-10.271914591724101],["Goed",-10.271963353155591],["films",-10.273003898318745],["aardig",-10.273288026716882],["factor",-10.273979448873263],["NS",-10.274077415109822],["supporters",-10.27420994142362],["66",-10.274835646241412],["kern",-10.274927769038943],["EC",-10.274940001159889],["600",-10.274958370930346],["ambitie",-10.275269461469144],["Japan",-10.27577720982767],["verbeter",-10.275780664458873],["gestart",-10.276179629180607],["buren",-10.276282980798117],["vaccinatie",-10.276483674972564],["Gelderland",-10.27655908196968],["slaap",-10.277512126925382],["teams",-10.277629865885919],["koningin",-10.277692827227057],["veranderd",-10.27848907886104],["strategie",-10.278742820350601],["seks",-10.279757974203747],["bepalen",-10.279977194138898],["ordt",-10.280273748629584],["dader",-10.280604377178404],["Hug",-10.280782989643216],["wakker",-10.281043664759917],["slim",-10.28154518933557],["geb",-10.281582990546305],["hi",-10.282338713070718],["vrede",-10.283375230952313],["ontwikkelen",-10.284434496628485],["Den",-10.28628738325123],["gevaarlijk",-10.286509190606758],["iPad",-10.286847797099714],["geschr",-10.28693015046528],["reageer",-10.289877519600928],["Huis",-10.290826083941312],["achterstand",-10.291637543056355],["65",-10.292105194948956],["werkgever",-10.294441525707535],["boord",-10.295038435215897],["Turki",-10.295489445660811],["beslist",-10.296082029649913],["analyse",-10.296347581516127],["achtste",-10.296644512908685],["Zweden",-10.296692059658284],["Mol",-10.296692454001732],["system",-10.29676476532168],["avonds",-10.296798486444327],["Vroeger",-10.297185341991621],["Jo",-10.297388217917964],["planten",-10.298044572543334],["verrassend",-10.298571026758736],["bedoel",-10.298831047021308],["laatst",-10.298872787007735],["aller",-10.299570959539153],["vrees",-10.300630286063903],["chauffeur",-10.301685563842682],["twijfeld",-10.30226370906748],["leiders",-10.302270755151717],["gevangen",-10.302330940540077],["data",-10.302604144473497],["Drie",-10.302608974791388],["verkeerd",-10.302975425130386],["procedure",-10.303096268173704],["leverde",-10.303774276692664],["F1",-10.305425664779928],["Mo",-10.305655913862264],["wereldkampioen",-10.305993323125824],["Dijk",-10.306848638648162],["redden",-10.307322332092465],["*",-10.308008343015747],["Via",-10.308089238754967],["Binnen",-10.308725408441683],["afg",-10.310116922691059],["juridisch",-10.310288264938592],["uitzending",-10.310689246709975],["Tegelijk",-10.31077491505809],["Late",-10.310965559738328],["eentje",-10.311041060789318],["stukken",-10.311041394488214],["realiteit",-10.311078768471479],["opgelost",-10.311286290716911],["richten",-10.311442303200964],["?’",-10.312529296604108],["betaalt",-10.31266322154113],["verbonden",-10.312773395178443],["beneden",-10.313230193168785],["39",-10.31404209326365],["federal",-10.314355002756587],["Spele",-10.314665997381578],["normale",-10.314673886744824],["landbouw",-10.314775253460326],["Charles",-10.314999268994075],["tank",-10.315884706224367],["wens",-10.317793318502147],["bedrijfs",-10.318381297258991],["konde",-10.318814839431397],["voetballer",-10.319618734922704],["front",-10.319785272141306],["collectie",-10.320837173935603],["strand",-10.321112753255637],["creër",-10.321653475171427],["gel",-10.32198725392703],["justitie",-10.322989368655024],["all",-10.323087882059717],["wee",-10.323187044710437],["glas",-10.323539198057114],["Vitesse",-10.324125858807026],["geregeld",-10.324634119541624],["bedacht",-10.324703894529318],["schoot",-10.324927816947751],["Team",-10.32497866666888],["initiatief",-10.325182861005525],["ijs",-10.32588833988158],["verdient",-10.32610501585889],["plastic",-10.326109076288098],["afgelo",-10.326438390162258],["clubs",-10.327130486572951],["kleiner",-10.328013998202735],["drama",-10.328086695175639],["recent",-10.328151055019681],["doelman",-10.32817278579965],["brood",-10.33007467569446],["benzine",-10.330095749542483],["agina",-10.331084828987727],["Ferra",-10.33279435199794],["Robert",-10.333045857311397],["misbruik",-10.33306236200114],["vreemd",-10.334060593697767],["verkeers",-10.334596094975408],["degelijk",-10.335313733021037],["iteindelijk",-10.335815011540628],["am",-10.336206269635174],["danks",-10.336291940014378],["Aert",-10.336366074493085],["kiest",-10.336553296420037],["bronnen",-10.336983045268731],["Thomas",-10.338462191315168],["keihard",-10.338504142978742],["Zorg",-10.338857592162725],["AZ",-10.338861342686112],["ambulance",-10.3393037686583],["Henk",-10.339436727349607],["opmerking",-10.33993885141146],["stelling",-10.340242663505126],["Belg",-10.340600747950672],["Welke",-10.34083079053918],["sociaal",-10.341300091361607],["Apel",-10.341622849755232],["apparaten",-10.342912564681262],["woninge",-10.34379649247447],["veertig",-10.344136587210002],["Premi",-10.344259630598149],["culture",-10.345222189580241],["onderhoud",-10.345273021267062],["ontdekt",-10.345642807987979],["arts",-10.346533405194727],["reclame",-10.34737056466685],["makkelijker",-10.347967483343165],["dichter",-10.348545817948036],["geboorte",-10.349031515030457],["klasse",-10.349296374939549],["99",-10.349501961380346],["keuken",-10.350984451571069],["huwelijk",-10.352335920744267],["GroenLinks",-10.352502339828321],["gezamenlijk",-10.352521629582954],["Universiteit",-10.352526553090575],["smartphone",-10.352902324969484],["nieuwd",-10.353147735261329],["recente",-10.35338947816696],["arm",-10.354969232809395],["fors",-10.355027000710404],["aanvaller",-10.355238994030323],["wijn",-10.355989438756435],["up",-10.35648402900173],["42",-10.35650585893653],["categorie",-10.356583352109551],["GS",-10.356898130185733],["produceren",-10.356958631792729],["genoot",-10.357863321856836],["stijg",-10.358052668431739],["verdediger",-10.358077718715922],["dubbel",-10.35900915460269],["sporen",-10.359605089738235],["verspreid",-10.360721023956081],["Nijmegen",-10.360776982911956],["velen",-10.361181861539695],["tellen",-10.362524055359666],["chef",-10.36310720947246],["bevind",-10.364380636977756],["reageerde",-10.364487310586865],["verbinding",-10.364735800664802],["zanger",-10.365257912156586],["rakette",-10.36574326393079],["verzekering",-10.366295210514004],["burg",-10.366909892118985],["ontwerp",-10.369368201560539],["pakt",-10.369486290417026],["uitzondering",-10.370631736568068],["ls",-10.371515391350863],["Australië",-10.371867316606377],["feestje",-10.371902345355895],["bellen",-10.371974262219815],["lossen",-10.37297641113086],["Overige",-10.37390441742102],["Rijks",-10.374398280227597],["dronken",-10.374427797502806],["ogal",-10.374652757515978],["verdrag",-10.375182614754259],["kijker",-10.375254858513154],["beschikk",-10.37564259754295],["missie",-10.375862134613373],["storm",-10.375909925145702],["weiger",-10.376445319071845],["Grand",-10.37700213182692],["Canad",-10.37741361828862],["interesse",-10.377517371038557],["250",-10.378045961889551],["Amerikan",-10.378922945472345],["sterren",-10.380180445558407],["nazi",-10.380600152265265],["speel",-10.380887923492082],["Porsche",-10.381696835481765],["maatregel",-10.382481814132284],["stevig",-10.382596458684038],["temperatu",-10.382771328512053],["Zonder",-10.383363964510336],["Doe",-10.383712037507951],["lijden",-10.383733347534328],["à",-10.383761511888538],["honden",-10.384866226908262],["behouden",-10.385120915426805],["betekenen",-10.385170903288564],["igenlijk",-10.385370204514132],["wezen",-10.386057602829725],["heet",-10.388353618907761],["werking",-10.388741015476857],["toestand",-10.389154756666652],["Go",-10.389166815782996],["toestel",-10.39037230416777],["betaling",-10.390597008446953],["verdeeld",-10.391698108489177],["richt",-10.392113664105821],["les",-10.392357351526506],["ondersteuning",-10.39319517836029],["instellingen",-10.39360838130815],["SP",-10.394105829529686],["exact",-10.394919630396089],["Martin",-10.395776666254456],["stopt",-10.395954591255531],["machine",-10.395979676345164],["vertraging",-10.39599614390117],["afspra",-10.396291967665995],["Netflix",-10.396625103388391],["fantastisch",-10.396644701630564],["Alexander",-10.396799546226427],["li",-10.397170412172592],["Gaal",-10.397899905500708],["olympisch",-10.397939770672732],["ernstige",-10.39795997441336],["ry",-10.398486887343104],["grondstoffen",-10.399277343045538],["Joe",-10.399309089242346],["ontwikkeld",-10.399861483815036],["vooruit",-10.400410061512446],["gestopt",-10.401002196731513],["plus",-10.401466144900327],["opties",-10.4015228869596],["mate",-10.402959008674697],["vi",-10.403710302727104],["gasten",-10.403798033875155],["boodschappen",-10.404730555398634],["mir",-10.404777307609574],["dankz",-10.405792901400016],["off",-10.405938907194077],["Nieuwe",-10.406915183006305],["kader",-10.406960503396736],["verwijder",-10.40699149796173],["dwong",-10.408162000423928],["Li",-10.408243272082471],["waarheid",-10.409364798609072],["knop",-10.409517804741142],["ussen",-10.40971151661758],["ley",-10.411858351531102],["verander",-10.411956371017535],["organiseren",-10.412020703563194],["harder",-10.4120494235873],["gesteg",-10.412054827793408],["fraude",-10.412071531597626],["traject",-10.412135401140823],["Morgen",-10.41227217122509],["oorlogs",-10.41241856703208],["Weet",-10.41285447959524],["pakte",-10.413188862991923],["stra",-10.413759996161538],["bewolkt",-10.413863499158236],["fietser",-10.414353879077861],["gevuld",-10.414431498059614],["etappe",-10.416221496446997],["luisteren",-10.416317824349568],["bi",-10.416829998653519],["stress",-10.417820275071325],["Centra",-10.41791097684792],["stoffen",-10.417941187131085],["ramp",-10.418631837761849],["beloof",-10.418765296428816],["piek",-10.418879480998081],["verbied",-10.418929871970597],["ontslag",-10.419378122760897],["ware",-10.419413146027566],["ak",-10.419426903461016],["moslim",-10.419994231611739],["inval",-10.420112170534576],["inzicht",-10.420304885681233],["onzin",-10.4209637481108],["tip",-10.421541149124117],["National",-10.421750003027707],["bord",-10.421824384006687],["Mocht",-10.42197332502011],["fysiek",-10.422562977205663],["opvolger",-10.422704538604687],["bevestigd",-10.424094050668646],["talent",-10.424328194926872],["oe",-10.424776107548333],["Engels",-10.425030748897662],["wint",-10.42644046500015],["gezondheids",-10.426781490819593],["verbetering",-10.42713248375855],["do",-10.427568436338596],["seksueel",-10.4283868807253],["controleren",-10.428852872372175],["reken",-10.429082934271026],["treffer",-10.429201839758832],["journalisten",-10.430409794169321],["Eind",-10.4307118375348],["46",-10.430788983440458],["Kinder",-10.430813796184403],["meisjes",-10.431024457708812],["blik",-10.431093693158598],["schuldig",-10.431137720336553],["Iran",-10.431948731994932],["aanpassen",-10.432914344571458],["ier",-10.43397169894304],["France",-10.434081885714745],["netto",-10.434293709079533],["minst",-10.434707157447903],["Hun",-10.435176287975409],["overlee",-10.43560731871142],["miljarden",-10.435655232453236],["Hans",-10.435779293906984],["elijk",-10.435847815250266],["gaven",-10.435892218817209],["stof",-10.4369018183388],["On",-10.436930899303762],["onderdelen",-10.437190342755823],["overtuigd",-10.43829961148648],["voorzichtig",-10.438729811638296],["schatting",-10.439053674677519],["eruit",-10.440292828560437],["transport",-10.440833583270857],["publieke",-10.441115787397738],["Jonge",-10.441979798345402],["William",-10.442815850362978],["schakel",-10.44306087259941],["eden",-10.44334336153154],["urven",-10.443554107882925],["Energie",-10.443789385281839],["Wout",-10.445208650077262],["werkgevers",-10.445275823110688],["geopend",-10.445984762548932],["radio",-10.445987975027997],["Mogelijk",-10.446012372433403],["Cup",-10.446289370648792],["lui",-10.446291521907028],["fouten",-10.446935449127245],["jury",-10.446961377484286],["vijfde",-10.448544118561056],["NA",-10.449559626535343],["ergen",-10.450250927442248],["probeerd",-10.450325039703088],["match",-10.450821980275336],["onafhankelijk",-10.451102998398959],["sneeuw",-10.45143360091295],["stee",-10.451627045120091],["nië",-10.451749323654242],["elopen",-10.4526291807337],["uitenlands",-10.452799495669964],["Had",-10.453954306786361],["goedkoop",-10.454012183745917],["teken",-10.454189934562951],["chip",-10.454757168200857],["rijbewij",-10.455423707689825],["huur",-10.456513228254323],["bedreiging",-10.45686959826117],["gevecht",-10.457385342252088],["blad",-10.45755645135895],["oudere",-10.457878697043496],["kondigde",-10.457888469386008],["trap",-10.458010871508318],["agenda",-10.458501670338638],["»",-10.458653314257012],["bergen",-10.458858740181586],["Olympisch",-10.458865238021954],["langzaam",-10.45890816375248],["ontmoeting",-10.45917091084226],["invester",-10.45996666723255],["EV",-10.459993884250526],["Wal",-10.460637087538295],["aarde",-10.461276443011204],["kent",-10.461460645075874],["Sovjet",-10.462570610957297],["verdwe",-10.462667540021336],["43",-10.462831783783576],["dra",-10.462932905921573],["korting",-10.463057352136735],["Mag",-10.463424863097433],["Enkele",-10.464228916144181],["rijke",-10.465558439234051],["concurrentie",-10.466603686499404],["verzamel",-10.46661394884786],["ekrege",-10.467493245429605],["raak",-10.468036756878629],["onbekende",-10.469087066358604],["ontmoet",-10.469288803590283],["44",-10.4699363378191],["privacy",-10.47111042644968],["volks",-10.471921034146941],["export",-10.472030184344906],["drukken",-10.472696169744898],["iteit",-10.472715012406827],["theater",-10.472738219419725],["gedachte",-10.472929421801764],["bar",-10.4731415736407],["kaarten",-10.473149110421854],["Ten",-10.473922478136803],["verminder",-10.474727401399317],["koopkracht",-10.474935845067375],["wetenschappelijk",-10.475357590464576],["bizar",-10.476003778511107],["Louis",-10.476099932815092],["vermoord",-10.476413962462185],["schoenen",-10.476749707448922],["oppositie",-10.477151631902387],["gelegen",-10.47723300206427],["Rode",-10.477619009211987],["Poel",-10.477630846054591],["overlijden",-10.47795937247296],["slimme",-10.479400453472962],["toekomstig",-10.480011893147662],["laden",-10.480235366027213],["neus",-10.480313108413272],["Te",-10.480488707106286],["kandidaten",-10.480782781493243],["album",-10.480883504464146],["spannend",-10.48378672704829],["dreig",-10.484382912244573],["advocaten",-10.484590167031527],["Amsterdamse",-10.485013515108982],["Zie",-10.485404245661872],["vangen",-10.486022421206133],["stoel",-10.486932004198739],["Kun",-10.48795770071646],["Engelse",-10.488064041655006],["geschote",-10.488307217699074],["helder",-10.48839934818462],["breed",-10.48845551790972],["II",-10.48859401032179],["lidsta",-10.489646095808506],["VN",-10.490176803165461],["restaurant",-10.490666499491873],["interieur",-10.491019428123407],["verhouding",-10.492566519810836],["abortus",-10.492818405061797],["Noor",-10.492909954000417],["topman",-10.493205930359213],["goederen",-10.493420651581046],["tegenstelling",-10.493792467316979],["leg",-10.49397677535194],["Begin",-10.494265594783476],["Vladi",-10.494471313707493],["oefening",-10.494841150414292],["International",-10.494915241191741],["kraan",-10.4962940550141],["vooraf",-10.49630398604427],["motie",-10.496377200746323],["vergoeding",-10.496820525106365],["ziekenhui",-10.497884330642481],["design",-10.498166622182932],["erkennen",-10.49848220470875],["Ka",-10.4988177190051],["Mooi",-10.498897529273862],["ieso",-10.498965129154293],["voorbereiding",-10.499078057462377],["lagen",-10.499247557976073],["verloop",-10.499503827650049],["BB",-10.500294474425282],["agressie",-10.500907761558349],["hersen",-10.501691775908862],["link",-10.50258715647281],["gast",-10.502999606716187],["noodzakelijk",-10.503106934735776],["technische",-10.503548281581345],["accu",-10.503914081457463],["Post",-10.50411290708364],["nen",-10.504420677305024],["48",-10.504831033655384],["gevo",-10.506369723058604],["Brabant",-10.506927018615679],["Antwerp",-10.507323990540312],["matige",-10.507692866844021],["Leclerc",-10.50785119385139],["uitsprak",-10.508071932692168],["advertentie",-10.50814202181239],["opgezet",-10.50844705425293],["zwakke",-10.508508205477384],["tachtig",-10.508937323801906],["plots",-10.509459747489117],["bestuurders",-10.509892293623171],["negatief",-10.510398619057964],["bloemen",-10.511300709357585],["GP",-10.51135342692122],["lo",-10.511442099765251],["bijeenkomst",-10.512040206664437],["goal",-10.512485767005012],["57",-10.512519115612896],["ui",-10.51269641999988],["rechtszaa",-10.513515877595303],["theorie",-10.515242465208956],["ochten",-10.515273599716103],["beker",-10.516201453987989],["hooglera",-10.516469742787821],["vervolg",-10.516582906955222],["traditionele",-10.517048299752759],["ontvang",-10.517191317201299],["onderneming",-10.518087736828534],["AM",-10.518249423187262],["aankoop",-10.518417284226874],["verblijf",-10.51870197988238],["durf",-10.519593541697905],["mini",-10.521206296407453],["telt",-10.52138629421335],["gezinne",-10.521553753204984],["AD",-10.521690912547143],["kwartfinale",-10.521976911471196],["car",-10.522354972329325],["Turks",-10.522705898951411],["zoekt",-10.522721299358146],["levering",-10.523445703396568],["overname",-10.524247638528237],["presentator",-10.524724079254316],["Herman",-10.52501447477741],["detail",-10.525806939015169],["podcast",-10.525832475151763],["Wilders",-10.526317091519633],["Kerk",-10.526573707065129],["Hebben",-10.526745343928205],["geving",-10.526890291451558],["aliseren",-10.527018127069796],["wijken",-10.52729776925556],["zul",-10.52780768645204],["vaste",-10.528326513036102],["erwij",-10.528900081078504],["vrouwelijk",-10.529234007829263],["mobiele",-10.529352935129566],["behandeld",-10.529621481278312],["houding",-10.530032116175175],["kanaal",-10.530384362288103],["scoorde",-10.530624018553192],["missen",-10.530731219591999],["houd",-10.53080691334141],["ambtenaren",-10.531068132682828],["toeslagen",-10.532244273361957],["opgelegd",-10.53313755828071],["lkens",-10.533607427066563],["box",-10.534493056148548],["vermoed",-10.534964737535638],["pleit",-10.535322151916684],["vinger",-10.535675554990206],["95",-10.536578955685384],["David",-10.536677772129131],["zaal",-10.537830226160683],["1000",-10.537862275586324],["ellende",-10.53834125042414],["Tim",-10.538381273141303],["Bos",-10.538381291662382],["vergadering",-10.539556414218449],["India",-10.53981101813956],["najaar",-10.539999308623928],["reven",-10.540615363626717],["succesvol",-10.541853781190053],["Ronald",-10.54208767176775],["Harry",-10.542126388346826],["haupt",-10.542590112921147],["toegevoegd",-10.542666361340393],["visie",-10.542951745744643],["Brit",-10.543140149275363],["ige",-10.544623744900907],["vic",-10.544685072210664],["beland",-10.54480568577533],["rendement",-10.544981820794424],["braak",-10.54510878147385],["stads",-10.54516934588765],["omroep",-10.545310210694318],["inch",-10.545566032127459],["belangrijker",-10.545688828071649],["vlieg",-10.546032338346574],["RS",-10.546154044492555],["staatssecretaris",-10.546878967185613],["ministers",-10.547783493364337],["besparen",-10.548279619591955],["Mar",-10.548633708452243],["nummers",-10.549037048725175],["slaat",-10.54914643432434],["scherp",-10.549623568163145],["zestien",-10.54997687158449],["droeg",-10.550091593660248],["verre",-10.550232663481365],["evenement",-10.550901360966146],["lief",-10.551799857169275],["klagen",-10.552251661453361],["regime",-10.552659433357405],["Vrijdag",-10.553154113323657],["bel",-10.55325782026703],["overeenkomst",-10.553353077166763],["gelden",-10.553420965433801],["premie",-10.553802268999295],["opslag",-10.554244180509775],["out",-10.556327071417272],["achttien",-10.556593347940634],["meedoe",-10.556631452206277],["dubbele",-10.556753978379625],["Nada",-10.556833396631482],["openings",-10.557002408160141],["aardgas",-10.55716151370966],["ruil",-10.557427067076341],["Rome",-10.557900567260717],["stevige",-10.557928742862249],["Duitser",-10.55915686079976],["kennelijk",-10.560084922871376],["Krim",-10.560181009264468],["harde",-10.562014326977753],["ontstaa",-10.562389663802179],["800",-10.563834270735377],["explosie",-10.564142986389946],["Pools",-10.56423375683627],["ic",-10.564737975491465],["straten",-10.565131638645752],["Ach",-10.565638553680545],["penbaar",-10.565853347184088],["mogelijke",-10.565989641249345],["Israël",-10.566232445487433],["transitie",-10.566442962679677],["geheim",-10.567891966335651],["verjaardag",-10.56893078341573],["verhoging",-10.568947812848183],["vogels",-10.569086122946661],["Marokk",-10.569431520922546],["anoniem",-10.569502565802324],["vermoeden",-10.569542774122414],["geschre",-10.57006170710427],["Audi",-10.570164216756593],["stop",-10.570449161620052],["Uiter",-10.570816917602848],["traditie",-10.570910496397797],["documenten",-10.571795449722018],["ind",-10.572281738224625],["vers",-10.572298795341254],["specifiek",-10.572707652550953],["Word",-10.573169023727043],["clusief",-10.573347548523977],["uitstekend",-10.573573551867245],["Justitie",-10.573757806242693],["Maak",-10.573792341672096],["Ali",-10.574317848109814],["apparaat",-10.574955631294042],["argument",-10.575089670274124],["41",-10.57624165987924],["trek",-10.576482631391404],["vel",-10.576791031648044],["Echt",-10.576883550883167],["persconferentie",-10.577466190853642],["World",-10.57747658625765],["prioriteit",-10.577519899755744],["gevolgd",-10.577688677442412],["Shell",-10.57845721760096],["propaganda",-10.579197415236607],["Boris",-10.579446492906452],["Macron",-10.58098075426404],["merkt",-10.58132102648587],["file",-10.581671913830938],["rpool",-10.58298144586313],["alternatieve",-10.583588022616468],["grappig",-10.583616281108192],["verdedigen",-10.583955214736784],["veertien",-10.58536699476402],["prik",-10.585442167906505],["uitkomst",-10.585814323307286],["graven",-10.586208780205684],["vertegenwoordig",-10.586567381996563],["ide",-10.58686816137233],["etrokken",-10.587646207344012],["serieuze",-10.587670896283374],["adres",-10.588397915467702],["lening",-10.588820498772243],["vandaa",-10.588828161049634],["Jette",-10.58913038989812],["hoogst",-10.589705232000835],["Andere",-10.589871371551546],["Michel",-10.590064911656068],["dijk",-10.59027868335442],["opeens",-10.590406274142829],["geboden",-10.590719393760917],["vieren",-10.590919738326232],["internationa",-10.591142095402407],["verwijderd",-10.59199129163871],["hybride",-10.592145629403557],["opening",-10.592391576882637],["rand",-10.593049165783183],["min",-10.593503214733083],["streep",-10.593632228286886],["uitvoeren",-10.594045604844741],["ondernemer",-10.594173027178408],["personeelstekort",-10.595696539058979],["paniek",-10.595724728487255],["persbureau",-10.595814698084038],["Jammer",-10.595828887188354],["Vier",-10.595841389588223],["vóór",-10.596046626138381],["balans",-10.596196005548963],["oet",-10.59647315005166],["bereik",-10.596667529644094],["Patric",-10.59683228310158],["demonstratie",-10.597573592134099],["nucleair",-10.597969308131916],["verwonding",-10.5979989733238],["ongen",-10.598102711114437],["zangeres",-10.59877916855482],["toenmalig",-10.599093109355398],["geslaagd",-10.599302541],["dames",-10.599355998056048],["pelijk",-10.599384370895123],["Rijk",-10.599515293632036],["term",-10.59953934753927],["nauw",-10.60034964847897],["volwassen",-10.601347281008945],["luchtvaart",-10.601448329683858],["estoken",-10.60189494470874],["kast",-10.602392877304062],["salaris",-10.6027364945718],["zestig",-10.603573342753077],["St",-10.604784205390654],["effectief",-10.605470929624207],["actrice",-10.605484798367272],["Lees",-10.605947154513697],["zogenoemd",-10.606640636400224],["ouderen",-10.607332767552265],["vervelend",-10.607387995529104],["geest",-10.608463696988798],["kies",-10.608794425526483],["waarschuw",-10.608803279106603],["sloten",-10.609233114586848],["kampioenschap",-10.609534852443891],["ngeland",-10.609568174436038],["schijn",-10.610071962688359],["chter",-10.610172766184002],["ba",-10.61158568038896],["elektriciteit",-10.611762560043829],["ca",-10.612010426614411],["oranje",-10.612010962480094],["Angel",-10.612760441038521],["verstandig",-10.613094948788074],["muur",-10.613229039072555],["zilver",-10.613747435385019],["afkomstig",-10.614524216655344],["Bosch",-10.614616138500491],["huid",-10.61488562582088],["Qua",-10.615422365565308],["geleerd",-10.615775469086438],["verlaging",-10.615920791191524],["Pri",-10.616073017994903],["kwalificatie",-10.616426727767266],["algemene",-10.616434241296199],["toenam",-10.616803853504683],["gestemd",-10.617185385352995],["moderne",-10.617446407764401],["leed",-10.617622944897429],["adviseur",-10.618082863074893],["medaille",-10.618170564047805],["liefhebber",-10.6191190091433],["garantie",-10.619885905197938],["wensen",-10.620266967546783],["schouder",-10.621396333641396],["Eredivisie",-10.621539990621132],["beveiliging",-10.621833248357929],["Groninger",-10.622355033674971],["kleinere",-10.62271270307785],["drijven",-10.62286981582482],["Radio",-10.62324132611098],["vergelijkba",-10.623657808034585],["plaat",-10.623966239887825],["veroorzake",-10.624316860138324],["019",-10.624396545852434],["abonnement",-10.624918857490258],["nabij",-10.624990217760043],["kloppen",-10.625623119920427],["kabel",-10.62566442682105],["inhoud",-10.625807669108278],["52",-10.62596950172172],["49",-10.626596094997076],["bond",-10.626915581166761],["sterker",-10.627171255232788],["stal",-10.627498718929663],["score",-10.629410799110705],["officier",-10.629789982852046],["Erik",-10.629919570411136],["ul",-10.630174791013008],["Fi",-10.630242632350559],["steunen",-10.630688736297918],["computer",-10.630953106257982],["fruit",-10.631273688664566],["zijde",-10.631645432752247],["gigantisch",-10.63314684599165],["Donald",-10.633181169700446],["kwaad",-10.633213844426963],["Portugal",-10.633232758943656],["hen",-10.6332796679257],["Ha",-10.63388033952419],["beperken",-10.634047807984604],["aanloop",-10.634161461994118],["Covid",-10.63423980823003],["plaatse",-10.634274369401073],["gedaald",-10.634774305107657],["circuit",-10.634848031174364],["oorspronkelijk",-10.634865225408596],["perspectie",-10.63487433809138],["Geef",-10.635022266693435],["correct",-10.635064813635575],["getoond",-10.63588884545436],["schilder",-10.636019552683635],["getekend",-10.636303200054972],["dalen",-10.636316735246723],["kampen",-10.63635209283042],["blok",-10.63651353286621],["nederla",-10.637255901619634],["85",-10.637410671720405],["verluid",-10.637430200579313],["melk",-10.637806487449533],["Albert",-10.637827947034895],["gegooid",-10.6379247984348],["specialist",-10.637954661538537],["banen",-10.638038997158144],["batterij",-10.639046275442134],["luid",-10.639213872771471],["doelen",-10.639222795808276],["nden",-10.640414117208202],["volg",-10.640448681989092],["koud",-10.641056548872914],["ol",-10.641261685107096],["getuigen",-10.642159932031609],["overwegen",-10.642429281381169],["infrastructuur",-10.642519597466842],["concern",-10.642755959070522],["tie",-10.64284047675226],["Belgen",-10.642846970862806],["Politie",-10.643934221773824],["Lijk",-10.644198225845663],["CD",-10.644264470250576],["paard",-10.645121555019177],["leert",-10.645608242226684],["warme",-10.646067940585173],["oorden",-10.647089135694074],["toevallig",-10.648125978222676],["beschermd",-10.650729128908775],["gevoelig",-10.650909194223539],["Staat",-10.652109643940047],["Kremlin",-10.652319890721387],["gearresteerd",-10.65233577067024],["recessie",-10.652456631781554],["Hoge",-10.652458630673669],["gesto",-10.652476816832353],["individuele",-10.653265042156962],["terugkeer",-10.653358651054045],["raam",-10.65363097342789],["Jeroen",-10.65364623135632],["stijgend",-10.653659041136665],["schilderij",-10.65396205396437],["RIV",-10.654007183050535],["democratisch",-10.654338275337235],["overzicht",-10.654577745072373],["schrik",-10.654826230073777],["percentage",-10.654896213201425],["keuzes",-10.655107228114776],["gebeurtenis",-10.655435987397727],["voorstelling",-10.655469480699407],["Mario",-10.655514130187836],["extreme",-10.656086509844322],["gelijkheid",-10.656526897476951],["eslagen",-10.656577919799968],["Maandag",-10.6567244945896],["ify",-10.657155662704366],["vullen",-10.657309725736187],["brak",-10.65749378469459],["rollen",-10.65802843146984],["unt",-10.65849447425765],["pauze",-10.658563035309765],["makers",-10.658849288825303],["Hongar",-10.659513207392113],["NV",-10.659540824667795],["Tussen",-10.659627540760368],["ontwikkelaar",-10.660550395530723],["oplossen",-10.660788006480562],["pa",-10.660809371210263],["Fortu",-10.660962480511277],["zoge",-10.661182010097399],["getest",-10.661620109592645],["waarschuwing",-10.6622137206253],["beur",-10.66233195464732],["zwaarder",-10.662400022933575],["comment",-10.662762464979915],["social",-10.662824486210544],["hè",-10.66313424753879],["gebouwen",-10.663173816507086],["klappen",-10.663644247903354],["overleven",-10.664886800861769],["springen",-10.665630556058556],["las",-10.666184557844126],["96",-10.667835758165213],["overheids",-10.668056016321586],["mensenrechten",-10.6681049991313],["aanwijzing",-10.668333533906043],["oplopen",-10.668661542814341],["trui",-10.669468441768863],["Tja",-10.66962881332247],["sluiting",-10.670062535119808],["kocht",-10.670210739055651],["73",-10.671489186311348],["˜",-10.671840863757376],["kwetsbare",-10.671889464397491],["Waarschijnlijk",-10.671894200794949],["Financië",-10.671901186532214],["über",-10.671956238508027],["zwembad",-10.672027104336426],["dividend",-10.672160845438498],["rechtstreeks",-10.67257738030599],["arbeidsmarkt",-10.672626438300455],["typisch",-10.673053225444248],["jongst",-10.67340915323839],["Breda",-10.673753767942326],["ingediend",-10.673985175066209],["begrijpe",-10.67414178886548],["gouden",-10.67414972913801],["diefstal",-10.67438749659605],["vrijdagavond",-10.67450564506751],["ballen",-10.674735300987686],["afgerond",-10.675296397403159],["CE",-10.675396767398755],["gerecht",-10.675728836651242],["Engel",-10.676075494446025],["54",-10.676264950061888],["medicijn",-10.676368120694747],["slavernij",-10.676668181198256],["allen",-10.676965199012773],["Achter",-10.67757030163792],["fysieke",-10.677766229681762],["wild",-10.678448591032865],["Anne",-10.678930267490507],["Hoog",-10.679094627525878],["Kuiper",-10.680709811602297],["onderweg",-10.680886859396196],["GT",-10.681151873434583],["Japans",-10.681471320012326],["dure",-10.681782418663468],["agen",-10.681879350566051],["uitgesteld",-10.682248058586943],["akken",-10.682278931007076],["toezicht",-10.683162518625121],["uiterst",-10.683349121551494],["zins",-10.683440524148308],["gee",-10.684317497370971],["58",-10.68514078403101],["kende",-10.685331877753338],["lieten",-10.685392633819077],["beheer",-10.685778097305024],["trend",-10.68609977726466],["uitslag",-10.686195370573213],["job",-10.686521062774515],["gew",-10.686606900780939],["Re",-10.686807875719698],["ond",-10.687231565076669],["doelpunt",-10.68781494651791],["verrassing",-10.687858709356352],["Maas",-10.689321458483846],["!’",-10.689644651429958],["woonde",-10.69060920535698],["aren",-10.690886527059707],["donker",-10.691175801779483],["parke",-10.691244290804674],["portemonnee",-10.691840866215173],["Elizabeth",-10.691840883764552],["Barneveld",-10.69184474189095],["lidmaatschap",-10.692005103228265],["kerncentrale",-10.692025386678836],["toepassing",-10.692430422308968],["vastgesteld",-10.692440483132945],["opbrengst",-10.692463911497736],["schietpartij",-10.692746619400356],["handelen",-10.693395378800545],["eigenaren",-10.69344630108789],["raket",-10.694260806964209],["gevestigd",-10.694282304193113],["IT",-10.694728759064509],["ck",-10.696299076566602],["oplever",-10.69634725821027],["Corona",-10.696462382937085],["stelsel",-10.696769267100924],["Ruim",-10.697039231635246],["Nieman",-10.697279028914483],["rit",-10.698450495904973],["ING",-10.698782717274689],["winning",-10.699323682712269],["degene",-10.699348493234956],["verteld",-10.700115879002542],["zingen",-10.700673851381952],["Zwitser",-10.70098108458193],["verlichting",-10.701442133848328],["racisme",-10.701475986923924],["ontslagen",-10.70196068548222],["schrijver",-10.70211459260602],["gehol",-10.70212519602954],["verwarming",-10.702616685741745],["aanvrage",-10.703249757465965],["toeristen",-10.703377639724177],["homo",-10.704425599144262],["aders",-10.705378046885809],["loog",-10.706503120551654],["favoriete",-10.706528156334615],["gedrukt",-10.706905276619484],["uitvoering",-10.7069491702503],["gerust",-10.707052605102293],["handels",-10.707539780662199],["behoud",-10.709023855973886],["matig",-10.709724376254925],["verklaarde",-10.709888468803998],["afspraak",-10.710205357615697],["prins",-10.71129505779697],["raadsl",-10.711299213413096],["kritisch",-10.71148102747046],["Surinaams",-10.71224914922152],["compensatie",-10.712282044879494],["voorjaar",-10.712452325719116],["profiel",-10.713176023400788],["grijpen",-10.713971133150377],["voert",-10.71413619612985],["kwartier",-10.71417806313594],["gelukt",-10.714182936935586],["celstraf",-10.714726808267187],["IS",-10.71552585710484],["hoogtepunt",-10.71580668237428],["Weer",-10.715850714622398],["doelpunten",-10.716520526015309],["alarm",-10.717510630825991],["verstand",-10.717801379867023],["Vries",-10.718459244159547],["ek",-10.719405669193769],["ontdekk",-10.719626392608266],["brede",-10.720655357775273],["automobilist",-10.720808634235219],["lokaa",-10.721194534924162],["ig",-10.721209695823333],["Real",-10.721476517025385],["wetgeving",-10.721730256457192],["signaal",-10.72189694372333],["ruzie",-10.721918541020504],["gevaarlijke",-10.722674889181041],["No",-10.723379543255609],["droge",-10.723773647508722],["53",-10.724007448007649],["wit",-10.724107950345061],["bevatte",-10.72416912806851],["Grieken",-10.724274193680273],["doelstelling",-10.724399509868096],["wolf",-10.724601811287556],["specifieke",-10.724630114158533],["norm",-10.724908675670363],["lecht",-10.725260572272495],["dertien",-10.725313809086963],["stromen",-10.725569386716424],["noodzaak",-10.725586438363916],["complete",-10.726329866549664],["scoren",-10.726635831223028],["vrezen",-10.727359979888634],["Wit",-10.727509271525012],["uitgaven",-10.727576874536695],["FA",-10.72813708339023],["allebe",-10.72827056699503],["Witte",-10.72867042524522],["regelen",-10.72923747780137],["jacht",-10.729575679829425],["zitting",-10.730177230127588],["beïnvloed",-10.730518827367169],["gens",-10.731429302725],["mete",-10.731924612985164],["bestand",-10.732022022860678],["Jij",-10.73210450791274],["Gold",-10.732666264142395],["Zaterdag",-10.7332365544667],["Land",-10.733273775082544],["Partij",-10.733692261962055],["generaal",-10.733859033629482],["ontving",-10.733896466893055],["Giro",-10.734482287799349],["Vraag",-10.734886183659812],["beschadigd",-10.735242992288171],["uitsluiten",-10.735504078870727],["regulier",-10.735819478612477],["topic",-10.735827224408371],["seksuele",-10.735847019384224],["spijt",-10.736397989125742],["schiet",-10.736889783044163],["Smith",-10.73708491600774],["Ju",-10.737258692001841],["lieden",-10.737557891148963],["tunnel",-10.737624431485234],["plat",-10.737768577306456],["Afge",-10.737932278814572],["schulden",-10.737962671746667],["partners",-10.738439723008801],["onbekend",-10.738554738657783],["voeten",-10.739705144306381],["tempo",-10.740578160599789],["management",-10.740677360875631],["Man",-10.741101214547617],["blanke",-10.741223685728661],["inclusie",-10.741261154147548],["mans",-10.741495163539776],["standpunt",-10.742355893468059],["%.",-10.744494628959039],["Leuk",-10.744972238541505],["Brazili",-10.746137770387953],["oudste",-10.74661196276227],["verbeterd",-10.746743083841146],["overige",-10.74714807425292],["signale",-10.747558646542737],["AC",-10.74783582408809],["puur",-10.748358542900588],["TikTok",-10.748491805543216],["verklaard",-10.749027890820333],["trainen",-10.749262337471125],["cliënt",-10.749267484350103],["gedreven",-10.749686049021172],["jarig",-10.749791174560501],["potentie",-10.750808618589778],["verhoogd",-10.751104267810835],["eerdere",-10.751144604399016],["gecontroleerd",-10.751610886676119],["effecten",-10.751790899715939],["mist",-10.752009945717617],["il",-10.752188422049809],["enthousiast",-10.752262814621139],["provincies",-10.752843837847724],["EX",-10.753055052643894],["voeg",-10.75310623162206],["Rus",-10.753111458809983],["drukte",-10.753279092811752],["stoken",-10.753850956759974],["Burgemeester",-10.75437703381705],["Precie",-10.754401844519316],["laptop",-10.754539948310898],["RTL",-10.754543189484982],["botsing",-10.754556147773876],["ranglijst",-10.754757439818617],["Normaal",-10.754795396495876],["kwetsbaar",-10.755661295175802],["keten",-10.756505594601572],["repen",-10.756839335712122],["staten",-10.757031197060389],["Media",-10.75708676613183],["hal",-10.75749199614774],["wetenschap",-10.757502125946049],["Afrikaans",-10.757905452275761],["passagiers",-10.757949863262061],["klonk",-10.758024584632699],["droog",-10.758295890176502],["inden",-10.758639993311485],["hitte",-10.758729608730077],["Vrij",-10.759012637026938],["verklar",-10.759192848197443],["gezocht",-10.759829518056076],["gaa",-10.760782784621266],["afwachten",-10.76126787121274],["Daarin",-10.762120817600502],["Wa",-10.762799517777452],["Neem",-10.762869747381304],["besteed",-10.762952664829271],["Kees",-10.763391092471728],["bezorgd",-10.763465285581177],["branche",-10.763553478740212],["haast",-10.76363364484826],["Ford",-10.763734109337172],["hypotheek",-10.763894136998887],["Vijf",-10.764122883613098],["verplichting",-10.764219632168176],["nny",-10.765171465162876],["Ba",-10.765958431622325],["lukken",-10.767320848740273],["verklaar",-10.767516686970632],["plicht",-10.767605589766713],["verbode",-10.767688172867368],["sleutel",-10.767776187962989],["onzeker",-10.76813265109119],["ney",-10.768404104356222],["way",-10.768682506411675],["Marc",-10.769161430302916],["tentoonstelling",-10.769245505052547],["herstellen",-10.769735693302788],["GL",-10.76983548161368],["borst",-10.770399766004253],["ervaringen",-10.771413918957128],["jongere",-10.7721167044357],["transfer",-10.772973727028248],["Ne",-10.773114584567107],["betaalde",-10.77411976096596],["bonus",-10.774273703817386],["Leidse",-10.774970698367133],["blee",-10.775629021394481],["bevat",-10.77599406081648],["Momente",-10.776280090927452],["Lekker",-10.77628063009738],["Jezus",-10.77630230550984],["humor",-10.776330588133064],["wekelijks",-10.776376133062339],["onmiddellijk",-10.77659954489971],["63",-10.776696157940773],["elft",-10.777012683822296],["aanpassing",-10.777073064104005],["Wim",-10.778211274414538],["middenvelder",-10.77824408473908],["ontdekte",-10.778454016331835],["ophef",-10.778556385389427],["oen",-10.778794332089477],["ipv",-10.779293368414189],["discriminatie",-10.779700226080596],["stuurde",-10.77983126109687],["erover",-10.779938470603271],["Gronings",-10.780519514309074],["wiel",-10.78060209373322],["dreiging",-10.781326997879441],["port",-10.781529081801851],["Koning",-10.781918907925418],["voorganger",-10.782571046354192],["vo",-10.78280137329541],["gegroeid",-10.783218478064354],["verenigingen",-10.783238759955402],["toevoegen",-10.784379941201022],["sow",-10.785078289388775],["finish",-10.785099323313377],["Kim",-10.785241460577423],["achteraf",-10.78526263005256],["migranten",-10.785363437502788],["gewezen",-10.785498996965686],["genodigd",-10.785640058423779],["Pieter",-10.785645273821105],["vluchte",-10.786288887944739],["meneer",-10.786372521412645],["erst",-10.787346747783275],["bruin",-10.787676529117368],["moeilijker",-10.788076775895629],["51",-10.788079445194654],["studio",-10.788260733603003],["cursus",-10.788596945577119],["aarom",-10.788709334685661],["Per",-10.788997560007449],["Let",-10.789109583128052],["ham",-10.789305644519583],["Madri",-10.789512180723278],["toilet",-10.789530924656933],["omlaag",-10.78963354795908],["Hag",-10.789835578521142],["bespro",-10.789899981146041],["branden",-10.79033585129038],["voorzieningen",-10.790518798238423],["igheid",-10.790896951191534],["kanten",-10.790925282724757],["blaze",-10.79105826758364],["vanzelf",-10.791805555464464],["noteerde",-10.791884976514359],["Gaa",-10.792579344577804],["migratie",-10.793291591207984],["munt",-10.793724274737205],["dri",-10.79383449562479],["herfst",-10.794045205337845],["gezelschap",-10.794058143834281],["ang",-10.794112716626241],["netjes",-10.794137287582789],["tarief",-10.794425768051724],["Stel",-10.794568091086768],["tal",-10.795100217009555],["douche",-10.796715047485444],["consument",-10.797039618064511],["durend",-10.797068455315395],["stak",-10.79725636144555],["uitbreiding",-10.797654556133047],["overstap",-10.797919924918306],["zoektocht",-10.7987619248513],["gedeeltelijk",-10.79883185426131],["conservatieve",-10.799451585537765],["schermen",-10.799581755507827],["pot",-10.80060369743047],["verlagen",-10.800618082636793],["import",-10.800685341538905],["vergelijken",-10.80082851419631],["schijnt",-10.800978074054338],["behulp",-10.802080766847943],["Boer",-10.802527783947971],["groeide",-10.803045954293655],["zonne",-10.803897857451684],["oordeel",-10.80486573240329],["Amazon",-10.805219730716969],["Car",-10.80538145790889],["omvang",-10.805460395329485],["Steven",-10.805945542294126],["onafhankelijke",-10.806237261268825],["zus",-10.80673387106037],["methode",-10.807194444039556],["Donderdag",-10.807413085494169],["staking",-10.80755682661318],["katten",-10.80803925087852],["toegankelijk",-10.808059088532845],["mi",-10.80822405937587],["bedreigd",-10.808658586026727],["toren",-10.808736839407915],["haal",-10.80903929239625],["Andr",-10.809144158787383],["nada",-10.809460556405527],["elijkheid",-10.809502445702535],["pomp",-10.809752423732707],["64",-10.809754352573039],["kindje",-10.809820937882055],["mentale",-10.809996578936996],["roze",-10.810455025723332],["arbeids",-10.81085258356414],["Maria",-10.811185902821428],["du",-10.81163861484605],["stapte",-10.812095418788235],["ieren",-10.812210311546568],["waterstof",-10.813274227334798],["Ons",-10.813320384761324],["inspanning",-10.813823407421742],["maker",-10.814313058402488],["schuive",-10.814578314077453],["ku",-10.814648876252747],["artiesten",-10.816203295118349],["):",-10.817036599697184],["schat",-10.817121850333614],["figure",-10.817167620618905],["institu",-10.817528733473033],["forse",-10.81850707499731],["aantrekkelijk",-10.819025702489439],["offici",-10.819208934346912],["bod",-10.8193788499542],["bussen",-10.819537129452174],["waarden",-10.819760166292252],["Spot",-10.82026798544063],["Sa",-10.821066479138267],["heren",-10.821170121527445],["content",-10.821274882694913],["mishandeling",-10.821489914998953],["gedeelte",-10.821740581390554],["normen",-10.821768091974482],["gevangenisstraf",-10.82180722577385],["relevant",-10.822037231271352],["Gemeente",-10.822192283260174],["Kamerlid",-10.82226185361337],["adem",-10.82286713350376],["Dinsdag",-10.823000381422533],["maat",-10.823034339791336],["Black",-10.823038037328997],["Marokkaans",-10.823258339008335],["67",-10.824271224270381],["voer",-10.82460270977638],["uiterlijk",-10.824604993789725],["wettelijk",-10.824843165936526],["vingers",-10.825219620560874],["drank",-10.825331599355145],["aken",-10.82550649672121],["aansluiting",-10.825920750301584],["San",-10.826102987315256],["klok",-10.826836246125131],["gezonde",-10.826966800750343],["berekening",-10.827101734924444],["aankomen",-10.827332590749048],["Markt",-10.827396832790889],["koos",-10.827719408977869],["games",-10.827889037808088],["kruis",-10.828068445768249],["appartement",-10.828206522733279],["idiote",-10.828684184265024],["Mathi",-10.829392657436387],["maximal",-10.829582152252943],["docent",-10.830332092330137],["digita",-10.830387381614019],["Jam",-10.830639695945735],["gedachten",-10.830857798781318],["Play",-10.830880409210835],["Midden",-10.831066256229843],["ideale",-10.83109080531731],["ewoon",-10.832169351957427],["lul",-10.83238501627263],["wedero",-10.832598655923533],["Twente",-10.832780063966934],["reeds",-10.832812520463762],["centra",-10.832922941255445],["unnen",-10.833454507167064],["circ",-10.83407011153537],["lie",-10.834305764703641],["!”",-10.835661248736558],["groeit",-10.836421495833768],["022",-10.837522241786285],["voetballen",-10.83761265677995],["actieve",-10.838435490861777],["Oud",-10.8388219306612],["rondje",-10.839310444534476],["Mechele",-10.840171779197343],["Ri",-10.840466289078726],["beroemd",-10.84173631841541],["air",-10.84232433474234],["cadeau",-10.84253397667982],["werde",-10.842668387535507],["innovatie",-10.843331209255988],["Group",-10.844324999694848],["Zwolle",-10.844380646605611],["breek",-10.84439206222203],["betrouwbaar",-10.844684607567189],["Vlaming",-10.84468469138724],["confronteer",-10.8447560599283],["aanrijding",-10.844765435024613],["tekenen",-10.844935771474892],["organisator",-10.845007969137747],["bewegen",-10.845635011602917],["lessen",-10.845672480007629],["Plus",-10.846085315129573],["paspoort",-10.846136602466528],["leveranciers",-10.846168311036534],["varen",-10.846188437216824],["eindig",-10.846415944250182],["vereist",-10.847122994076072],["Du",-10.847604719294996],["inspectie",-10.847698637777379],["Kleine",-10.84776515218892],["grap",-10.848227390168185],["buurland",-10.848320735566592],["ni",-10.84912921599668],["eën",-10.849183120042914],["menselijke",-10.850080889486412],["Berlijn",-10.850723458634029],["Los",-10.851636770635182],["Fed",-10.851663966599638],["omd",-10.851943913629164],["samenwerken",-10.852039401681829],["Dam",-10.853875466870164],["Onderwijs",-10.85403189342324],["dienen",-10.854365407176939],["bestemming",-10.854593810671576],["terras",-10.854848857989479],["concurrent",-10.855043732253497],["ploegen",-10.85540300464827],["76",-10.857101145697587],["eigendom",-10.857302128517873],["vaart",-10.858274987643249],["preventie",-10.858688832851206],["ips",-10.859467853640243],["Men",-10.859945610257867],["Luc",-10.859957121462532],["claim",-10.860134229707105],["éé",-10.862112790992592],["domme",-10.862463848763342],["zocht",-10.862483763812921],["Mi",-10.863523789622626],["time",-10.86375530289816],["droogte",-10.863931131174423],["verkrijg",-10.864985725477137],["redactie",-10.865346566054574],["130",-10.866093065561792],["Sta",-10.866194922377916],["Pa",-10.867106474255362],["ies",-10.867524695118387],["liberale",-10.86814722121784],["goedgekeurd",-10.868180122793792],["label",-10.868322811335217],["journalistiek",-10.868351576421198],["affaire",-10.868859117896754],["deelname",-10.868945625199231],["commissaris",-10.869882099478136],["196",-10.870024839585415],["kilometers",-10.870106631943047],["appen",-10.87056150059184],["soortgelijk",-10.870746036320897],["evenementen",-10.870873604216799],["buik",-10.871906503637604],["bezwaar",-10.871947263498027],["SV",-10.87221874238876],["ringen",-10.872324894619222],["Nick",-10.872591487476354],["ly",-10.873603552180668],["Oisterwijk",-10.873714724043099],["daad",-10.873812496895809],["eraan",-10.87385224529354],["Prins",-10.874108100752812],["zeventien",-10.874298614392083],["Rij",-10.874387265130611],["lege",-10.87454496316709],["Bu",-10.875428625897214],["bezocht",-10.875486832537831],["vroege",-10.876095718865091],["trappen",-10.876636834891173],["tienduizend",-10.877151765861207],["aankomst",-10.877171094231837],["aanvraag",-10.877267536683238],["rapper",-10.87733511849314],["artsen",-10.877469041430231],["gister",-10.877908638341806],["huren",-10.87809167795737],["ny",-10.878736605571707],["treffen",-10.879121177250985],["aanleg",-10.879532496744261],["versche",-10.879551168500244],["Slecht",-10.880606014486428],["ingevoerd",-10.88081384769685],["goedkope",-10.881118518878866],["lijnen",-10.881297432248747],["zand",-10.881852971253075],["72",-10.881961858784262],["odra",-10.882399939314986],["schappen",-10.883622833558345],["hoofdst",-10.884395971115655],["?\"",-10.885412977641284],["vin",-10.885692689119638],["assistent",-10.88631303615733],["ling",-10.88663553555697],["69",-10.886726960702369],["warmte",-10.886951156801375],["120",-10.887161889720367],["gemist",-10.888755712639348],["rie",-10.889016157598663],["praktisch",-10.889482074562356],["Best",-10.889780882647877],["bocht",-10.889818402341703],["Afghan",-10.890258401582967],["figuur",-10.890650103500732],["taak",-10.891541753319482],["George",-10.891656923560085],["boerderij",-10.892534710523892],["GB",-10.892713539540432],["Korea",-10.893356420982707],["booster",-10.893373983031312],["behandelen",-10.893526807322104],["covid",-10.893530707005667],["pijnlijk",-10.893586534537784],["verdwijn",-10.893684736512744],["zelfstandig",-10.893888129268557],["Lind",-10.89424768785857],["malen",-10.894482944843338],["religie",-10.894560735432233],["moois",-10.895055187367007],["vestiging",-10.89510792820034],["beschuldiging",-10.895324962854112],["zondagavond",-10.895559950504785],["Joris",-10.895906608121546],["goeie",-10.896503961936892],["Zweeds",-10.897082202668981],["biliteit",-10.897775351731088],["tech",-10.897792229873165],["oontje",-10.898079725625488],["verbaasd",-10.89839906355109],["uitleg",-10.899103475422827],["sensor",-10.899759067722723],["heerlijk",-10.899850281404493],["elen",-10.899984415179613],["Chris",-10.902922907462914],["Leuven",-10.903635389176552],["Belasting",-10.904238085335898],["GG",-10.904272891014173],["concept",-10.906186059505561],["laagste",-10.906214323457503],["lijf",-10.906439104609946],["deug",-10.906757988311464],["gras",-10.906927138840572],["ce",-10.906995473733678],["bleke",-10.907020758040215],["long",-10.907756223344343],["criminaliteit",-10.908171619620418],["opmerkelijk",-10.908426516341114],["toeslag",-10.90871884531188],["mevrouw",-10.909038434704545],["rechters",-10.909521995982875],["geheime",-10.90982903248704],["volwassenen",-10.909838590434902],["tische",-10.909986431958643],["betaalbaar",-10.91007317089898],["ach",-10.910809196148103],["Schouten",-10.911145229414593],["allema",-10.911564644334067],["documentaire",-10.91160275816345],["vermeld",-10.912569162471847],["ne",-10.913193736026468],["klas",-10.913297323496067],["situaties",-10.913424157725451],["woede",-10.91461495258719],["armen",-10.915737617954598],["stapt",-10.91625270482666],["vervolgd",-10.916433819621146],["leverancier",-10.916827783163429],["eeuwig",-10.916910448894496],["spannen",-10.917283105579578],["wassen",-10.917629311464811],["vacature",-10.917631321123514],["biologisch",-10.917693220607246],["uitgeschakeld",-10.917757713684882],["marketing",-10.91783535606374],["verbazen",-10.917875446417465],["maandelijks",-10.918040981931696],["negentig",-10.918097763260377],["illegaal",-10.91832661052106],["dringen",-10.918397177118393],["vernieuwd",-10.918449177130476],["wandelen",-10.918455329538775],["toon",-10.918459172183976],["sportieve",-10.918659486640582],["statushouder",-10.918775941537424],["Thijs",-10.918976727271595],["achterban",-10.919052173233707],["corruptie",-10.919207426616818],["Serie",-10.919610832100823],["Bekijk",-10.920054503227387],["debuut",-10.920706815088227],["slechter",-10.921049198651342],["richtlijn",-10.92128308750306],["waarschuwd",-10.921328373854422],["istan",-10.922180672057088],["onrust",-10.922401272869152],["bek",-10.922624186530921],["olksgezondheid",-10.92290425186036],["verblijven",-10.923593680472807],["energierekening",-10.923970135325625],["hevige",-10.92433244412253],["hersteld",-10.924474523557084],["koude",-10.924900723018146],["stoelen",-10.925415729944973],["straffen",-10.926928054243596],["dreigen",-10.92815898678818],["%)",-10.929072302481174],["werkende",-10.929580628561993],["renners",-10.929976533187414],["Rotterdams",-10.930871328365747],["gemak",-10.931280172730112],["Geert",-10.93146933412367],["Jean",-10.931543805104388],["illegale",-10.931625042823987],["reserve",-10.93197197588416],["beveiligings",-10.932098100228508],["Taiwan",-10.93210479407028],["wijs",-10.932149448229204],["knoppen",-10.932232102605553],["analisten",-10.932271045237739],["zesde",-10.932569838841907],["feesten",-10.932596587578765],["eeën",-10.932729271423511],["graf",-10.933222125819604],["FI",-10.933375826642177],["gooide",-10.935385798472266],["scheel",-10.935393652062155],["Lo",-10.935522001819301],["sten",-10.935943818048738],["ewezen",-10.936033486610938],["Britt",-10.93712088030921],["tennis",-10.937706719188016],["beschikt",-10.937884192908625],["wandeling",-10.938088019749218],["Green",-10.93881297547951],["overtuigen",-10.939022509169149],["sporten",-10.939688341061471],["klassieke",-10.940596589332959],["ans",-10.94085140478652],["tegemoet",-10.940867481143325],["ger",-10.941028861312901],["smaak",-10.94111705233255],["duurzaam",-10.941202597694952],["graan",-10.941392356118472],["munitie",-10.942289298218622],["drang",-10.942329709423277],["lichte",-10.942507191662678],["zakt",-10.942588785851509],["Argenti",-10.94259320072281],["issen",-10.942710685168048],["scooter",-10.942714732600265],["….",-10.943112676946022],["cocaïne",-10.943144188848942],["verschrikkelijk",-10.943144376996209],["Museum",-10.943212313396309],["continu",-10.943235934618894],["peloton",-10.943280646668523],["verricht",-10.943345025449734],["SUV",-10.943465779600649],["prijsstijging",-10.943698896419491],["gespecialiseerd",-10.943819030864537],["Spanjaard",-10.943944817532675],["bedenke",-10.944291730152953],["begeleiding",-10.944748450481894],["ondersteunen",-10.945045504387114],["stier",-10.945234644285435],["verdriet",-10.945371959964675],["gestorven",-10.945516350663304],["besmet",-10.945563833619445],["Derksen",-10.945969948671557],["vonnis",-10.946536012258147],["beslo",-10.947047622308638],["kernwapen",-10.94719680070249],["roep",-10.947671144159523],["huisarts",-10.947788499136237],["opkomst",-10.947944143246083],["kritische",-10.948023222024407],["slaven",-10.948297589678727],["bende",-10.948753782573414],["okken",-10.949173025300677],["nul",-10.949700580757145],["getuige",-10.949869139060723],["belofte",-10.949983618154882],["organiseer",-10.950163434463455],["Zwarte",-10.95028504512536],["getraind",-10.951222707631985],["emand",-10.95160586821262],["kaartje",-10.95270491089147],["Tijd",-10.952760122736173],["vrijwillig",-10.953457379480799],["lastige",-10.953703724905253],["Wouter",-10.954139933301661],["agente",-10.955121325435204],["instelling",-10.9556149289652],["overval",-10.955731083302005],["Carlo",-10.956291187544702],["Lu",-10.957213061886947],["MI",-10.957409124326261],["achteruit",-10.957488579780513],["bestuurs",-10.957619721725642],["wisselen",-10.957923945400484],["IC",-10.957991952428731],["emotione",-10.958152951015872],["uitgebracht",-10.958269230260179],["Zondag",-10.95894065670483],["paal",-10.959020786542402],["fan",-10.959257404575306],["professionele",-10.959638160389998],["reageerd",-10.959662148726135],["gezeten",-10.96026583225504],["succesvolle",-10.960504676691802],["Iedere",-10.960561892451262],["suiker",-10.960571194371862],["AS",-10.960583385964838],["Mexic",-10.960958540927226],["knal",-10.961115135745487],["aliteit",-10.961390705425496],["Gister",-10.962246213552863],["veilige",-10.96234025178811],["behoren",-10.962988846432612],["vastgoed",-10.963006094609433],["BN",-10.964166211453792],["Uni",-10.965310282194887],["vorming",-10.965404064480396],["arbeiders",-10.965775061227676],["AI",-10.966198600813712],["instroom",-10.967027370225264],["Oostenrijk",-10.96709360966043],["context",-10.968403111302896],["oordelen",-10.968970830526763],["München",-10.969459992645156],["Chelsea",-10.969460713000801],["Microsoft",-10.969461187942743],["karakter",-10.969463643234887],["plotseling",-10.969698016909163],["crash",-10.969777010524307],["betrekking",-10.969927106487871],["Voic",-10.969989889229954],["arrestatie",-10.97019165664597],["pleegd",-10.970282797570258],["Sparta",-10.970528706967855],["afbeelding",-10.970704074656018],["merkte",-10.970775171343941],["subsidies",-10.970920444925525],["material",-10.971245608356398],["ongekend",-10.971286821014466],["transactie",-10.971288533926284],["Union",-10.97147625439496],["verlengd",-10.971646809941527],["blokkeren",-10.971755151425283],["uitgang",-10.971905116839743],["toezichthouder",-10.972387354669662],["geregistreerd",-10.972400635340602],["knap",-10.972780860687697],["peil",-10.972997708011297],["nachts",-10.973470661368776],["stuurt",-10.973556325217258],["limiet",-10.973957710857748],["spoed",-10.974447482981054],["stonde",-10.975749200848922],["lippen",-10.976237864065217],["47",-10.976247358468274],["overtreding",-10.976292454465034],["tref",-10.976479316084074],["gepubliceerd",-10.976800325131466],["vergele",-10.976888633182197],["klassement",-10.97689032954568],["eft",-10.97704480117461],["ets",-10.977489455694663],["Philips",-10.978376471302164],["klacht",-10.979258653432408],["sponsor",-10.979354566041039],["promotie",-10.979643288172262],["econo",-10.979825201433226],["Parlement",-10.979895610755861],["plank",-10.980409705732871],["aanvoerder",-10.980555107887678],["trouw",-10.981106236957974],["scheidsrechter",-10.981608059968952],["graaf",-10.98165433633258],["chao",-10.981714084047393],["lieve",-10.981858464262324],["Simon",-10.982010630644302],["remmen",-10.982244962527082],["arcelo",-10.982258249294631],["Beste",-10.982343582560445],["State",-10.982359989006532],["KV",-10.983304627701163],["beveiliger",-10.98381674379393],["liedjes",-10.984052926658144],["jagen",-10.984691585081293],["drukke",-10.98575261483768],["onderzoeks",-10.985902217300223],["opgericht",-10.986060387886141],["Djoko",-10.986368640873925],["krachtig",-10.986727046453428],["bruto",-10.986967476107095],["fenome",-10.987228606640404],["Sterke",-10.987509314968754],["puntje",-10.987577909234009],["deelt",-10.987697285714303],["draai",-10.988180910774153],["enberg",-10.98849437588758],["gesch",-10.988778918233564],["lading",-10.988836287837742],["NU",-10.989000925148234],["onderhandel",-10.989213497659406],["aanbiede",-10.989778924599445],["WhatsApp",-10.989934611097482],["huisvesting",-10.990550025741603],["satelliet",-10.990685655430894],["stemt",-10.990841618402301],["activisten",-10.990958557017597],["crucia",-10.991011884618189],["aankondiging",-10.991230390743151],["BC",-10.992058987750442],["spiegel",-10.992445325916767],["begroting",-10.992496247218213],["kiez",-10.992586564830901],["hemel",-10.992636802571656],["landschap",-10.992729537469309],["gevaccineerd",-10.993527410865532],["Visma",-10.99369885676905],["eieren",-10.993748056356445],["volgers",-10.993884874839967],["Finla",-10.99410883846361],["Hu",-10.994386063432628],["eerd",-10.994475704969176],["ant",-10.995046404132042],["honger",-10.995143798786998],["71",-10.995581284922608],["contacten",-10.996097999707573],["demonstrante",-10.99622916131831],["Brusselse",-10.996278589592926],["quarantaine",-10.996487005734824],["psychisch",-10.99651016158226],["uitbreid",-10.99658690011816],["onverwacht",-10.996587667147349],["portefeuille",-10.996630823711534],["koploper",-10.99670757981535],["Opvallend",-10.996799099762514],["Nieuws",-10.996901426346984],["loopbaan",-10.99717086508516],["elden",-10.997216843825885],["presentatie",-10.997254031129964],["verslaggever",-10.997499483914082],["verrast",-10.998057480983928],["geruchten",-10.998227175088761],["verdiend",-10.998251400735628],["inhoudelijk",-10.998353717891478],["rouw",-10.998428697399687],["vertrok",-10.998932172769548],["deelnemen",-10.999938533670687],["ien",-11.000639725695923],["vriendelijk",-11.000909290475649],["concrete",-11.000978598722988],["betrapt",-11.00131903246709],["lasten",-11.001337034168204],["graad",-11.001525864626602],["alen",-11.003099335763421],["gok",-11.003704061080251],["aanvankelijk",-11.003749812736377],["bedien",-11.003863553262846],["tweehonderd",-11.003904765560716],["belde",-11.004088400408854],["tranen",-11.004383345233473],["Su",-11.004672965540514],["62",-11.005038156120799],["ticket",-11.005096077991375],["kut",-11.006545238904248],["Zeeland",-11.006785936413404],["aangeven",-11.006983774112504],["bepaal",-11.007439041422629],["moeilijke",-11.007831694524306],["voorgaande",-11.007835432696558],["constructie",-11.008102854324726],["vervuil",-11.008642440770966],["rd",-11.009394264409448],["experiment",-11.00996240995797],["emotie",-11.010337031091794],["Lang",-11.010653488762788],["Emmen",-11.010859230113052],["menselijk",-11.010947833878962],["Meta",-11.011295039319664],["brons",-11.011378150839938],["toonde",-11.011619593946655],["com",-11.011622598134647],["erland",-11.011639953244227],["Kroati",-11.012184333801347],["mmers",-11.012451718693155],["ard",-11.012804168963884],["Park",-11.01319906785535],["ië",-11.013316492942687],["wijziging",-11.013446151388155],["kampt",-11.013516210473814],["ment",-11.014106886076451],["och",-11.014334041739867],["oven",-11.01433906355284],["uitkomen",-11.01442103013324],["So",-11.015004405221397],["Bar",-11.015022836089585],["egels",-11.01514083022741],["zeventig",-11.015194792899415],["fossiele",-11.015450488143406],["koste",-11.015815515468786],["column",-11.015946423155338],["factuur",-11.015947414488748],["staf",-11.01632116500124],["bevestigen",-11.01696749442707],["KN",-11.017259222843833],["aanmeld",-11.017860839405792],["atum",-11.018205358240339],["haat",-11.018512904541828],["taken",-11.018591132446678],["opname",-11.01877432062508],["ondersteun",-11.01908229154459],["orden",-11.019281082001243],["194",-11.019764413269074],["Marco",-11.01982123045562],["profit",-11.020741811029083],["cellen",-11.021627780862822],["zwak",-11.021650019337152],["uiting",-11.021820095782125],["opgesteld",-11.022040973217095],["taxi",-11.022154296615494],["voegen",-11.02294507462037],["service",-11.0231326508954],["belegging",-11.02325363763721],["Burg",-11.02383160465498],["uitgeven",-11.024188891464014],["Pogacar",-11.02426497279235],["Erdogan",-11.024267156323667],["bitcoin",-11.024267267391718],["gewelddadig",-11.024308561361279],["Volkskrant",-11.024309031592953],["ng",-11.024525342596991],["aanmerking",-11.024531201404116],["garage",-11.024544264749132],["omikron",-11.02458852139769],["assen",-11.024735484360448],["administratie",-11.024972400838951],["Economisch",-11.025748063303867],["geled",-11.02581820815983],["meermaals",-11.02587024724989],["Eric",-11.0260326587989],["toeschouwer",-11.026042153572936],["permanent",-11.02635980281196],["nnen",-11.026806791661752],["tribune",-11.026884774847128],["Rijn",-11.026936282881467],["onderling",-11.027137339834024],["raag",-11.027318373402005],["wonder",-11.027322739065285],["vuurwapen",-11.027545471284933],["Brabants",-11.027685243227761],["KNV",-11.0277833728357],["Jack",-11.02838741111051],["voortdurend",-11.029228426449503],["steek",-11.030357672371888],["go",-11.03065108968595],["kippen",-11.030750300275464],["auteur",-11.031219507418873],["krachten",-11.031756500432358],["onterecht",-11.032101722506603],["lacht",-11.032257982082603],["Visser",-11.032481586291853],["Sinterklaas",-11.032686907043514],["erin",-11.032892620387463],["Bert",-11.03413067344732],["Apeldoorn",-11.034282210688664],["verlopen",-11.034424322317786],["directe",-11.034442492351712],["Elk",-11.034953284238401],["brein",-11.036107435477122],["Ki",-11.03640107428973],["Christian",-11.036755105212595],["afsluiten",-11.036926098953103],["Vind",-11.037089312093663],["nationaal",-11.037759550321017],["Syrië",-11.03816937986866],["bestelle",-11.0385068232145],["offs",-11.038830192368058],["oekstra",-11.03884820517298],["gewenste",-11.039058500063952],["ramen",-11.039411760579995],["wereldtitel",-11.039508720902713],["tikken",-11.039578468951989],["aanhanger",-11.039628206531297],["student",-11.03997124080541],["Jos",-11.040042308884372],["overschrijdend",-11.04010432500403],["bestrijding",-11.04050179129866],["vreselijk",-11.040645329417663],["gedoe",-11.041242747477709],["adviseer",-11.042854042190251],["plafond",-11.043012720659553],["schadelijk",-11.044902045104235],["leest",-11.045167658481008],["slaagde",-11.045267703908415],["68",-11.045411954420437],["aandeelhouders",-11.045605990301672],["Va",-11.046041514860995],["aangevallen",-11.047402290622376],["Vol",-11.048624499282088],["gram",-11.048674503744746],["herken",-11.049339344809642],["Vergee",-11.0502897395865],["onnen",-11.050408962314297],["Oude",-11.050634684207422],["poel",-11.050965410986878],["BA",-11.05107023737168],["panelen",-11.051796554004286],["mooier",-11.052046369840422],["spectaculair",-11.05283621165083],["centimeter",-11.052845818028661],["Aziatisch",-11.052863189595907],["Disney",-11.052874932615254],["Volkswagen",-11.052881199813385],["hectare",-11.05288451449372],["betekenis",-11.052888662875189],["President",-11.052916645987624],["server",-11.052919479346208],["valuta",-11.05295373213311],["racistisch",-11.053283235861752],["Verschillen",-11.053394433773825],["VRT",-11.053450903882574],["'.",-11.053540203052709],["700",-11.053974635241124],["Woensdag",-11.05397706536286],["zicht",-11.054296832509038],["dringend",-11.05442757506782],["gepresenteerd",-11.054504560168315],["Mart",-11.055361651660041],["immigratie",-11.055408151892788],["ast",-11.055606230527669],["vierkante",-11.055816961735719],["ering",-11.05608450005998],["wees",-11.056171010921666],["kruising",-11.056174811853351],["que",-11.056585809187697],["tanks",-11.056999920614114],["strenge",-11.057154233586907],["peiling",-11.057218810985939],["waardering",-11.057333629275668],["verlaagd",-11.057890925613338],["planeet",-11.05823157589703],["Duits",-11.058465569872599],["negentien",-11.058692503877529],["gat",-11.058752202337288],["ong",-11.05881889322703],["investeerders",-11.058854550457351],["Croo",-11.059220841745299],["check",-11.059696861713807],["griep",-11.059975265876481],["vergeet",-11.060018540835625],["jongetje",-11.060070898393871],["shit",-11.060400626343123],["storing",-11.060609973195524],["dez",-11.060635501844263],["verleng",-11.061022437370712],["kers",-11.06157290549324],["trekkers",-11.062226383746852],["verliefd",-11.062452727673925],["q",-11.062755094709857],["prettig",-11.063252538248783],["plaatsge",-11.063834154410067],["sterkst",-11.06387294239411],["77",-11.064484918947699],["maals",-11.064748882763016],["meester",-11.06480124072813],["hebbe",-11.065223016674668],["leer",-11.06526800121489],["kiezers",-11.065547296210912],["PV",-11.065563448169623],["wissel",-11.066195275181391],["Queen",-11.066300953754212],["nder",-11.06634138932267],["patiënt",-11.066371385880258],["deal",-11.066377723182988],["eredivisie",-11.06650829355987],["Intussen",-11.066564092420165],["dwingen",-11.066580747543796],["kre",-11.066818896945218],["grijs",-11.066918543374205],["elite",-11.06703883536603],["aanhouding",-11.0670704281081],["Gelderse",-11.06750262384669],["laan",-11.068153982572552],["bakke",-11.06826288994026],["opzet",-11.068592746193492],["papa",-11.069546330206808],["hielp",-11.06967152726018],["toegangs",-11.069748454593796],["beëindig",-11.070308780999978],["duurde",-11.070491793794295],["particuliere",-11.070545778565602],["tweet",-11.070567570877982],["88",-11.070884619713764],["Dirk",-11.07110468344624],["startte",-11.07129779944683],["vijand",-11.07183972134116],["Utrechtse",-11.071959726663433],["tegel",-11.072336176719578],["maaltijd",-11.07292724425396],["ski",-11.073279859430588],["directie",-11.073550330528082],["zó",-11.074859250265746],["Ra",-11.076212439016839],["Hollandse",-11.076591642403121],["tuig",-11.07700137648533],["Zwitsers",-11.077101819338365],["teller",-11.077999981378],["kenmerken",-11.078385650773662],["luister",-11.078516889182705],["zwemmen",-11.078522202157234],["nader",-11.078522687369933],["by",-11.078527818500895],["versch",-11.078736439854234],["district",-11.079467553125209],["verdediging",-11.079913312111072],["Haags",-11.080085387629497],["versterkt",-11.0800917492031],["winnaars",-11.080158595259402],["sterven",-11.080440516888142],["toenemen",-11.08064617420492],["Tag",-11.08065467468882],["Will",-11.081272644112527],["straling",-11.08142137642297],["Auto",-11.081647788657598],["inkomens",-11.081689450412135],["bagage",-11.082066531950918],["hobby",-11.082204844948436],["zender",-11.082247953778499],["Heerenveen",-11.082251377736807],["FIFA",-11.082269776327951],["Forum",-11.082337450404337],["schadevergoeding",-11.082394259102514],["statement",-11.082470640341684],["ultiem",-11.082488340309254],["isolatie",-11.082504221205017],["Sch",-11.082942008102089],["horloge",-11.08299977090465],["windmolen",-11.083137148414009],["ritten",-11.083167108400271],["interne",-11.08377503209885],["bescheiden",-11.083892213649673],["stiekem",-11.084204676000336],["meent",-11.084317275429738],["gekoppeld",-11.084437856481788],["Nation",-11.08445901039464],["Joods",-11.084650494141513],["langzamer",-11.085034491657272],["betreffen",-11.085504336345071],["vooruitzicht",-11.085786384963246],["nieuwkomer",-11.085917646831852],["inge",-11.08593691890745],["vermeend",-11.085970960552354],["voorgesteld",-11.085972803655912],["aangewezen",-11.086052956295132],["voorkom",-11.086705928150707],["voeding",-11.086728519181548],["gebruikte",-11.087465379765868],["Klein",-11.087623913128292],["initiatie",-11.087745248423168],["helikopter",-11.087759550409],["195",-11.088505583764068],["ongewenst",-11.088630013105544],["lukte",-11.08887883960225],["lezing",-11.089494839502175],["koken",-11.089609097416615],["chips",-11.090355986447374],["Geld",-11.090635739679264],["voorraad",-11.09107207717621],["vlaggen",-11.09169253194484],["Ko",-11.092158709142447],["realistisch",-11.092725272536017],["Vooruit",-11.09285873149489],["ingericht",-11.093346861098464],["vervanger",-11.093400852448337],["identiteit",-11.093668682052735],["oefenen",-11.093691216530551],["razend",-11.093886551285166],["NEC",-11.09413983495411],["ubai",-11.094561666397691],["diversiteit",-11.094628247238573],["Remk",-11.095149934186361],["School",-11.09539538909949],["Alf",-11.096161107670838],["plaatste",-11.0970889595235],["Central",-11.097132731468353],["mix",-11.098160101549496],["voorbereiden",-11.098252304767325],["Zand",-11.098553628611597],["tiener",-11.098901015366716],["busje",-11.099075636234817],["gepast",-11.099093439769552],["nuttig",-11.099186446094652],["heus",-11.099237671366872],["islam",-11.100247864752493],["ingang",-11.100381769957572],["ontbre",-11.100446465771038],["dodelijk",-11.100856503818349],["planning",-11.101281536944356],["Australi",-11.101302911254283],["Inter",-11.101825225359214],["erachter",-11.102883157034212],["bevond",-11.103137427139117],["creatieve",-11.103487937008651],["opgehaald",-11.103563110586462],["mega",-11.103868445546285],["Boeren",-11.104045852590135],["Turnhout",-11.10526019886883],["staande",-11.105477695005067],["installatie",-11.106183194536529],["constant",-11.106559228163466],["fijne",-11.107346172566592],["Portuge",-11.107356182230372],["gewen",-11.10765310805579],["breuk",-11.107800119511491],["Laatst",-11.10836040375496],["Winter",-11.109101831630843],["Zal",-11.10936174067678],["aten",-11.109728995791762],["plant",-11.109914402200856],["tijdrit",-11.110481490545101],["Afgel",-11.111546672825389],["ME",-11.111750304335407],["probe",-11.11177503647597],["boze",-11.112138461030357],["penalty",-11.112488653053967],["Genk",-11.112499768295223],["Donbas",-11.11256399230426],["koninklijk",-11.112590648902037],["beseffen",-11.112610888706225],["Pe",-11.11265606574884],["intimidatie",-11.112721971175965],["Telegram",-11.112810195382181],["Arabisch",-11.112843146281909],["NIET",-11.112959067310632],["vanzelfsprekend",-11.113046180964208],["originele",-11.113277595795005],["pol",-11.11339217876494],["teleurgesteld",-11.113536037265604],["Stijl",-11.11360553203795],["Koreaans",-11.113777495511483],["hervorming",-11.114270504252502],["volume",-11.114478236158101],["verslaan",-11.114619892972181],["voorstander",-11.115193560016653],["56",-11.115880803757396],["vervolgt",-11.115945736706477],["anks",-11.11615632765777],["dode",-11.116236775748622],["druppel",-11.116424922058604],["flat",-11.116996813297092],["estemming",-11.11711845702135],["HEM",-11.11733995525193],["os",-11.117800094760073],["weigerde",-11.118112162152281],["symptom",-11.11850568357789],["infectie",-11.1185238454395],["stapel",-11.11871603769412],["ert",-11.11887908432103],["fficië",-11.119088101706874],["versoepeling",-11.119323215313706],["beperkte",-11.11941128371674],["verzekeraar",-11.119654571717493],["ceremonie",-11.119905171448627],["zondagmiddag",-11.120238096286556],["ideaal",-11.120371021129277],["gro",-11.1208913166688],["Buiten",-11.121027694811795],["ASM",-11.121202111014027],["Sain",-11.121538339645973],["aanstaand",-11.121700103083825],["vrolijk",-11.12178649423046],["rook",-11.12209895360246],["buigen",-11.12242974936259],["tanden",-11.123331634802561],["NB",-11.123507180749867],["opnames",-11.123807059660665],["hinder",-11.123974126245576],["geboekt",-11.124107112277652],["geldig",-11.124184878754185],["stekker",-11.124374303070464],["Republikein",-11.124583276823138],["erry",-11.12479968400627],["tevens",-11.124974813124677],["werknemer",-11.124996587848532],["grid",-11.125038334647613],["dokter",-11.126181611000465],["adenken",-11.126377869276293],["AB",-11.127139036890812],["Natuur",-11.127601445261057],["materie",-11.128045773221968],["agentschap",-11.128079936471059],["mondkapjes",-11.128355465427244],["element",-11.128384051272981],["koopt",-11.12843064539717],["zië",-11.128929158988367],["Sam",-11.12894535057514],["excu",-11.129114409855692],["absolute",-11.129150339660626],["logo",-11.129602986224828],["afgezet",-11.129908950578127],["schaats",-11.130148579758602],["Col",-11.130587215032682],["Sy",-11.130746389769591],["pech",-11.130929687383384],["dwars",-11.13146777577813],["gestapt",-11.131748110078071],["YouTube",-11.131944457485893],["medisch",-11.132352772780724],["Har",-11.132510566540397],["ezorgd",-11.132681576233066],["staakt",-11.132876196310459],["drinkwater",-11.132919436683753],["leraar",-11.132982127832602],["creëer",-11.133112137006519],["tocht",-11.13343823545784],["strijden",-11.13345096850416],["rabië",-11.133610086591702],["drone",-11.133728153087494],["kroon",-11.134023570745345],["lonen",-11.135752786969443],["beschouwd",-11.136002952778043],["oppervlakte",-11.136144753265176],["single",-11.136198565089169],["zevende",-11.136304922614574],["Model",-11.13743615259202],["klus",-11.137539708223617],["fles",-11.137896183883072],["wegge",-11.137956736248398],["burgemeesters",-11.138145718843601],["Werk",-11.138553807049561],["titels",-11.13866276995308],["forma",-11.139294415947871],["ban",-11.139476564081225],["object",-11.139665768878539],["grot",-11.139971429320754],["terugkeren",-11.140537934755223],["61",-11.14065120050133],["gemerkt",-11.140879190136708],["kaas",-11.14093848407194],["appartementen",-11.141226889219487],["Eerste",-11.1414052654135],["App",-11.141602613597478],["meiden",-11.14190299571338],["uurtje",-11.142288256439093],["verkoper",-11.142502182397905],["staal",-11.142942556965249],["onnodig",-11.143300063127658],["richtte",-11.143459729649742],["Saint",-11.14360543471486],["Omtzigt",-11.143820678461203],["respectievelijk",-11.143884760208344],["vliegveld",-11.143945275314028],["Window",-11.144055276094338],["sporters",-11.144100278781586],["coronabesmetting",-11.144291336401075],["cryptomunt",-11.14429836205792],["Top",-11.144375816862734],["strafbaar",-11.14440848235687],["behoor",-11.144487389558716],["Vereniging",-11.144561024579918],["Donets",-11.144582211997127],["ff",-11.145051895137215],["Wall",-11.14509885022114],["operatione",-11.145156159971116],["Zeg",-11.145266541271546],["benoemd",-11.14547257640467],["Belang",-11.14619571308236],["ingrijpen",-11.146213470565554],["zacht",-11.14674488925286],["plaatsvond",-11.147031804646975],["renner",-11.147162356440976],["brugge",-11.147520242615478],["lot",-11.147704130228567],["lon",-11.147960162089817],["geluids",-11.148094880673849],["maximum",-11.148576142511347],["lijke",-11.148605709301144],["her",-11.149265785832085],["Award",-11.149961525475796],["nemark",-11.150136767003413],["liegen",-11.150707582793693],["Bouw",-11.151051800335143],["Dieren",-11.151373070385212],["velgen",-11.151538462359458],["break",-11.151786900615486],["vergroot",-11.152179231403345],["gebruiker",-11.152407485182618],["Kruis",-11.15253298464333],["schaduw",-11.153045769680096],["lijstje",-11.153268946092208],["segment",-11.154097780170293],["afgelegd",-11.154709835248598],["vermijde",-11.155214174266536],["Stra",-11.15523751076128],["zwijgen",-11.155595457264232],["leerkracht",-11.15566880425109],["geteld",-11.155834788429235],["ooi",-11.156071577777645],["linker",-11.156812035377133],["verkoopt",-11.156945735031597],["worstel",-11.15700132296875],["pest",-11.157313505645778],["Piet",-11.158118204532066],["lelijk",-11.15876775772274],["Tilburg",-11.1612559545888],["Si",-11.16143139257185],["opgebouwd",-11.161726601290686],["afnemen",-11.161768524177361],["Vincen",-11.161795205777679],["letsel",-11.161838156016062],["kunstwerk",-11.162528052382887],["overgang",-11.162816458754884],["Milan",-11.162828083701601],["kamers",-11.162831436940603],["bevinding",-11.163012107713755],["Nord",-11.163090689886866],["bekek",-11.16312210846273],["plaatje",-11.16329812345806],["stations",-11.16344511748827],["ges",-11.16392754929042],["Bol",-11.163939249650062],["beschuldigd",-11.165218667781277],["families",-11.165558976307356],["Messi",-11.165965455103375],["toegesta",-11.16611023192478],["klassieker",-11.166129110267118],["wé",-11.166484102436119],["belandde",-11.166615392188406],["begre",-11.16668797866358],["vreemde",-11.166703287482367],["wolven",-11.166929416571532],["nota",-11.167419341216782],["Water",-11.167533958986066],["artiest",-11.167817339692421],["Super",-11.168196926560173],["OC",-11.16868398260198],["leuker",-11.169048841093229],["opbouwen",-11.169376916888012],["900",-11.16959728649147],["steekt",-11.169840918939837],["troffen",-11.170606777945716],["motoren",-11.171660241305158],["activiteit",-11.171865277343116],["bestond",-11.171942000453924],["gestaa",-11.172518767647528],["ouw",-11.172735678133856],["voorbereid",-11.174138913199695],["koeien",-11.174435573626033],["besef",-11.17510240489191],["Tien",-11.175351334968415],["torenho",-11.175819089292702],["strafschop",-11.17583599828259],["comfort",-11.176057429000315],["MacBook",-11.176066659875918],["warmtepomp",-11.176220213100983],["handeling",-11.176243000527665],["ingewikkeld",-11.176300621766028],["Klaver",-11.176324788057338],["benen",-11.1767769582341],["ontbreken",-11.176846404364685],["Canade",-11.176859125189191],["bewolk",-11.17731235535117],["achtervolging",-11.177353636449403],["omgekeerd",-11.177621127307123],["consequentie",-11.177708924608936],["Xi",-11.178076313883425],["commerc",-11.178192595419036],["trauma",-11.178509450873246],["biertje",-11.178895747010083],["dingetje",-11.178925390391392],["Lew",-11.179242660062883],["350",-11.179332478393057],["stapje",-11.179357670561767],["diens",-11.179383113606711],["verkrachting",-11.179437601415541],["1500",-11.179462156447528],["presteren",-11.18023135315267],["toneel",-11.180451298200806],["prinses",-11.180460945839844],["exemplar",-11.180500398083677],["bemoeien",-11.180531610181937],["grijze",-11.180710861984096],["auw",-11.180799334068476],["uitgedeeld",-11.180937840746797],["producent",-11.180950286026492],["kranten",-11.181237948264329],["vriendjes",-11.181249788613805],["ders",-11.1814137693808],["kou",-11.18163532966482],["Rechts",-11.181909309655037],["eilanden",-11.181921502212367],["ID",-11.18200906737112],["groepje",-11.18210296043321],["cruciaal",-11.182686236629422],["vonde",-11.183365694275855],["Zeven",-11.18365146244796],["dansen",-11.183672723800463],["Klop",-11.183926977135714],["kelder",-11.184418900821642],["verantwoord",-11.18487639703938],["verhuisd",-11.184921742338881],["duo",-11.185019981098284],["optima",-11.18515458738232],["ijden",-11.185751348925155],["Grieks",-11.185962397060443],["exempla",-11.186181954611207],["Meerder",-11.186702775740548],["plaatselijk",-11.186715192128245],["Krijg",-11.186977703246942],["extreemrechts",-11.18740259823183],["Amerikaan",-11.187502263782562],["dier",-11.187566365505166],["knuffel",-11.187609412064237],["verlenen",-11.188101428668121],["Sophie",-11.188145197254496],["stemmer",-11.188387532266681],["leugens",-11.188414574086185],["opmerkelijke",-11.188615552854031],["AN",-11.188886156519397],["Racin",-11.18893792187982],["stabiel",-11.188973790534387],["stukjes",-11.189084647132843],["doelgroep",-11.189396565444014],["voerde",-11.189586413887358],["egenwoordig",-11.18963563313189],["ay",-11.189683487749697],["indien",-11.18974537243863],["wethouders",-11.189769794869086],["gemeentelijk",-11.189845641042432],["gids",-11.189953720343727],["dodelijke",-11.190254327006198],["Binnenland",-11.190553778114797],["snapt",-11.190857970365032],["verbinden",-11.19104075135547],["make",-11.191178998661778],["ashing",-11.191210282278593],["Klimaat",-11.19136510011513],["ijk",-11.191947892650841],["tichting",-11.192008948222764],["formatie",-11.192047831868152],["verpakking",-11.192148387702723],["Thuis",-11.192190682188444],["donkere",-11.192318440664208],["ontken",-11.192444229861755],["BO",-11.192462542111016],["breder",-11.192677185950945],["óg",-11.192860957669126],["Blue",-11.192956146235169],["liedje",-11.193257119254648],["heffing",-11.193271997843645],["rock",-11.19343691585233],["bol",-11.193729050510445],["Noors",-11.194264808783629],["streng",-11.194304832296543],["elektriciteits",-11.194421491513733],["onderuit",-11.19497874136601],["cilinder",-11.195577178894176],["robot",-11.195923247289336],["lezers",-11.196058012983816],["oprichter",-11.196096596663732],["450",-11.196850863646915],["tenzij",-11.197531441846607],["isschi",-11.197901051536494],["stream",-11.198632773509384],["varkens",-11.198759690964145],["vergrote",-11.198897731991654],["aanhoudend",-11.19901843278037],["kunstenaar",-11.199530657032373],["versneld",-11.200450648411941],["kroeg",-11.200898232675165],["verkiezings",-11.200956660118326],["Prima",-11.201529512135503],["romen",-11.201849067851164],["lift",-11.202293272231376],["lichting",-11.202511058021443],["óó",-11.202529388564416],["aspect",-11.203520681036611],["Algeme",-11.203549895186239],["houder",-11.204243883867875],["Koen",-11.204624516078393],["án",-11.204641373308506],["MC",-11.20475793019567],["geel",-11.204928219994684],["Bas",-11.205049122239856],["Vrouwen",-11.205129096867207],["Gewo",-11.205611252407225],["schuil",-11.205695253513747],["78",-11.205760009044559],["jurk",-11.205852828963902],["automaa",-11.205902437216052],["wille",-11.206039813735403],["studies",-11.20690626876993],["Wester",-11.207305770821335],["Amersfoort",-11.207528539682775],["Gas",-11.207624095867981],["cha",-11.208100452882505],["Koninklijk",-11.209395685347886],["kliniek",-11.209433653578945],["Space",-11.209438712477663],["Beleggers",-11.209470197140895],["commandant",-11.209482787166593],["Cherson",-11.20948969522451],["handelaar",-11.209559929543655],["AOW",-11.209696350649963],["problematiek",-11.209725312620439],["Nationaal",-11.209825861225811],["dictator",-11.209908881499013],["renteverhoging",-11.210082292492443],["aanbieder",-11.210293059219719],["monster",-11.210440938422119],["verplaats",-11.2106765949542],["geopolitiek",-11.21074413278074],["moeders",-11.210814121632616],["voorspelling",-11.210836084111008],["Overig",-11.210840127759466],["geheugen",-11.210915880624055],["versterken",-11.210979807744476],["minderjarige",-11.211052834713884],["wou",-11.21110208881101],["restaurants",-11.211261868564558],["protesteren",-11.211434837067975],["patroon",-11.211477923680993],["kring",-11.211747809931738],["ruimtes",-11.211866860506545],["draag",-11.21195762116642],["91",-11.212077527885864],["islamitisch",-11.212216494389713],["Tay",-11.212443436658788],["ambassadeur",-11.212577545265393],["handje",-11.212706355061439],["Hof",-11.213151046622169],["regenbui",-11.213157386469536],["ingesteld",-11.213508465169141],["filter",-11.213538984755425],["bitter",-11.213615193164944],["Amsterdammer",-11.213753254853893],["ram",-11.214080915662562],["installer",-11.21409644070387],["erde",-11.214218031064103],["geestelijk",-11.214616451760367],["container",-11.214888128861269],["info",-11.215015215655002],["diende",-11.215183847112716],["verplaatst",-11.215420794473557],["ET",-11.21550038908279],["NO",-11.21626007989173],["polder",-11.216847307152102],["onderscheid",-11.216880041413829],["ergste",-11.217240983538446],["uitzonderlijk",-11.217790790007706],["welvaart",-11.21793885100143],["ontbijt",-11.218171311823076],["audio",-11.218230421538667],["Drenth",-11.219157281876376],["reaguurders",-11.219404288811084],["drager",-11.219742576080435],["vocht",-11.21978350969938],["em",-11.219806559347026],["bespreek",-11.220251059276684],["lvast",-11.221317202606151],["huurwoning",-11.221354801979693],["vaardighe",-11.221632312295553],["kunstenaars",-11.221734296337361],["gasprij",-11.223031280093394],["kopje",-11.223642380757697],["uist",-11.223896134846836],["dient",-11.224369844479408],["drijf",-11.224698629541596],["paarden",-11.224870996243727],["Goud",-11.225746082407314],["stemde",-11.226835290978878],["vertrekt",-11.22732288210987],["Oorlog",-11.227406262762349],["streeks",-11.22838499159983],["divers",-11.228691135382828],["dachten",-11.228861443160639],["enquête",-11.22923208605437],["gekend",-11.229306936797283],["red",-11.229464392363354],["scheiden",-11.230365516641186],["nieuwst",-11.230726681468875],["bevestigde",-11.231598519007813],["rijders",-11.231637062389453],["drink",-11.231871751135557],["drong",-11.232651485000876],["marge",-11.232893514355673],["180",-11.233258321926732],["igen",-11.233463265418703],["gehakt",-11.233465446441915],["ovic",-11.234162737005946],["geweten",-11.235446447049776],["dankbaar",-11.236020715403358],["brieven",-11.236467563302382],["spreek",-11.236752204607312],["kenteken",-11.236797375718261],["monument",-11.23728163229633],["stoten",-11.237660006843202],["oort",-11.237688370468545],["atten",-11.238050604121076],["strategische",-11.238246211110244],["Marie",-11.238262939984832],["ó",-11.238718603204807],["beroeps",-11.240926208344895],["pompen",-11.241080750303778],["pop",-11.241234464636516],["schikking",-11.242011059554507],["apparat",-11.242056263134632],["streek",-11.242856363145622],["nomen",-11.24306731635737],["Store",-11.243442473605151],["Anton",-11.243474237591458],["interessante",-11.243679597671683],["verbazing",-11.243880039345179],["frustratie",-11.243911057128425],["strafrechtelijk",-11.243919354025634],["logistiek",-11.243967087290141],["chemisch",-11.244071459928023],["professor",-11.244147025020025],["symbool",-11.244339781652904],["humanitair",-11.24435143783948],["stimuleren",-11.244363302530449],["avontuur",-11.244379928697889],["NFT",-11.24442150557267],["attractie",-11.244433443382198],["Ziggo",-11.24445573367176],["hardware",-11.244850383302113],["kostte",-11.244891951310793],["Excels",-11.245002049159766],["gouverneur",-11.245007346631626],["regisseur",-11.245176177783836],["verwerkt",-11.245240243062344],["structureel",-11.245318151069089],["Golf",-11.245357503052896],["versloeg",-11.245373305883511],["Vuel",-11.245609102545544],["comité",-11.245848667734615],["doelwit",-11.245984612128517],["verton",-11.246142549806601],["instrument",-11.24636484181543],["enigs",-11.246443145154746],["BV",-11.246544484700411],["plusser",-11.246548134274917],["Rabo",-11.24659503413908],["invoer",-11.246601317902703],["inlever",-11.246768726274464],["Fries",-11.246944426596748],["mbledo",-11.247012735101414],["verlenging",-11.24719472176885],["NASA",-11.247781831181003],["Luik",-11.247790624011385],["special",-11.247812104415942],["Valt",-11.248264023729648],["Mede",-11.248906013696574],["Hitler",-11.248915516561755],["kinderopvang",-11.249331113610022],["genaamd",-11.24935728958201],["glazen",-11.249364651135023],["opgemerkt",-11.249699055839459],["vreten",-11.250273350973071],["schuif",-11.25049127922395],["Egypte",-11.25177685781195],["ey",-11.251802070396794],["emotionee",-11.252030268739302],["voorspellen",-11.252041819987392],["sticker",-11.252797138038815],["favoriet",-11.25284578159426],["line",-11.252854598483015],["eindigen",-11.252981643675065],["introductie",-11.253067211610876],["leefde",-11.25308100300397],["duurzaamheid",-11.253277935504123],["nationaliteit",-11.253332486352448],["gewonde",-11.253694347992834],["sorry",-11.253984843785526],["huilen",-11.254103987439496],["Hond",-11.254105626410759],["hoefde",-11.254122204640353],["belangstell",-11.2542150946634],["verliet",-11.254265210044847],["gestelde",-11.25433904413572],["Sara",-11.254834088233734],["war",-11.25487665013333],["eg",-11.255043524174818],["centraa",-11.255211677900242],["tijdig",-11.255419322105803],["gebruikelijk",-11.255428117877432],["!\"",-11.255470579907225],["Mike",-11.255513255088768],["''",-11.256239396321906],["blind",-11.256392543618297],["waarschuwen",-11.256447849598352],["aanvoer",-11.25674776986957],["Tel",-11.256795941349598],["Beter",-11.257164381495022],["beschikba",-11.257319517657239],["triest",-11.25756886538426],["Stop",-11.257581317491239],["Cor",-11.25816599093412],["lengte",-11.258399584647162],["binnensta",-11.258463548818735],["rice",-11.258477727073322],["ontkenne",-11.258624271959535],["innen",-11.25913247299297],["Minder",-11.260048231197516],["McLa",-11.260470321789036],["rey",-11.260482516207516],["buitenspel",-11.260893134469542],["beslissen",-11.26099914346091],["nodige",-11.261192548977764],["Vos",-11.26122940621827],["Meest",-11.261919576001487],["openlijk",-11.261927356394253],["knie",-11.262341020935384],["zwaargewond",-11.262436635671587],["afwezig",-11.262720538608963],["externe",-11.262735418436156],["Filip",-11.262933379049862],["waarm",-11.263151885466847],["lat",-11.26377235287943],["éér",-11.263961865993405],["bezighoud",-11.264591889588425],["zwanger",-11.265564308863175],["toeval",-11.265903497740831],["mislukte",-11.26645825111636],["Dag",-11.26723556629652],["Hart",-11.267621139051545],["Volgend",-11.267859132461181],["scheiding",-11.26849386772654],["the",-11.269373747821069],["lobby",-11.269598980798639],["inzittende",-11.269760804795958],["Stad",-11.27002795180022],["MG",-11.2703557596524],["voetbalclub",-11.27108918308618],["Sven",-11.271342280369554],["rijtje",-11.2715015187438],["bommen",-11.271691440651825],["zorgvuldig",-11.271749231862819],["nadeel",-11.271819899409676],["daalt",-11.271833853849953],["immuun",-11.272351169627957],["79",-11.272601013657896],["erkenning",-11.273031958183811],["groeiend",-11.273515897348648],["trainings",-11.27389244509224],["ondervind",-11.274386171834621],["genoemde",-11.275196925391098],["gevierd",-11.275278716686037],["besmette",-11.275533619324655],["schandaal",-11.275654409288908],["Gra",-11.275940622157847],["Bijn",-11.275996261339932],["verdeling",-11.276298582311492],["ikke",-11.277203583686289],["twe",-11.277304126208277],["werkzaam",-11.277331574805718],["zielig",-11.277600809561704],["stijds",-11.277684619753531],["cross",-11.278551221078436],["woningbouw",-11.278655805153498],["deskundigen",-11.279569487634685],["publicatie",-11.279644986661683],["onschuldig",-11.279813924112947],["VTM",-11.27983382233501],["Ca",-11.280031798317498],["verdenking",-11.280335643638367],["badkamer",-11.280386201676933],["speech",-11.280484593982141],["feestelijk",-11.280684049268135],["geproduceerd",-11.28085151191696],["tickets",-11.280942017748298],["behaald",-11.280965574484078],["ende",-11.281084083893528],["ingeschakeld",-11.281147692132578],["Nooi",-11.281225169842443],["Janssen",-11.281276852480726],["gelanceerd",-11.281354559989],["gezondheidszorg",-11.281475728958268],["Bal",-11.281586794573393],["volstrekt",-11.281646453660302],["puzzel",-11.281882083440514],["geliefde",-11.281897307575203],["schorsing",-11.281908474793086],["Bayer",-11.281914865066932],["Kies",-11.28249735736188],["radar",-11.282534990740942],["stunt",-11.282575894719535],["Federal",-11.283154704497761],["Maarten",-11.283239452130395],["bovenstaand",-11.283332443761251],["talkshow",-11.283552056095207],["late",-11.284123345197589],["84",-11.284189718024816],["evaluatie",-11.28455350113904],["versterking",-11.284690572889257],["rellen",-11.28498870400412],["Vl",-11.285309206370432],["For",-11.285350494417962],["strategisch",-11.28581856619695],["lied",-11.286029912637861],["paleis",-11.286067003368416],["Jans",-11.286356629216932],["iswaar",-11.286570353352108],["erder",-11.286905988577235],["Ger",-11.287162010697775],["ult",-11.287230065659884],["Pere",-11.287358449245335],["Christ",-11.28784869398925],["vergelijk",-11.288126215890903],["groenten",-11.288404072113511],["ssen",-11.288424143740896],["gevel",-11.28869521485142],["Ziekenhui",-11.288721488317586],["Rem",-11.288762872123652],["grad",-11.28898598787099],["expositie",-11.289000996234304],["grootte",-11.289543443238255],["welzijn",-11.289802369210951],["PF",-11.290261161714069],["Senegal",-11.290281352993514],["verhuize",-11.290410796200836],["geïnteresseerd",-11.29074493798078],["Ring",-11.290764511173887],["lampen",-11.291179096512108],["nagedacht",-11.291748716202845],["leken",-11.291874196018123],["uitkom",-11.291926830623929],["bereikte",-11.292345110734704],["hekel",-11.292381114973944],["koper",-11.292864011832927],["opstand",-11.293350217140388],["bewer",-11.293959724488788],["storten",-11.294049353736764],["Ryan",-11.294105426940956],["amens",-11.29418411928932],["59",-11.294339424052772],["regelgev",-11.294545817740474],["revolutie",-11.295149396851638],["Anna",-11.295511634996746],["allereerst",-11.295962495372471],["Heijn",-11.297255337932457],["Daarbi",-11.298020315604397],["Limburgs",-11.298139797930059],["vernietigen",-11.298235673317391],["Gerrit",-11.298832788868317],["grootschalige",-11.299731145672158],["held",-11.299839171395583],["gold",-11.299963552985083],["ber",-11.300445597534013],["rivier",-11.300540406223908],["shirt",-11.301361043311566],["tweedehands",-11.301433718905198],["muzika",-11.301451432149541],["camping",-11.301523565211959],["seizoenen",-11.301759290720433],["keeper",-11.301813745738178],["medium",-11.302035297953289],["bot",-11.302203701808688],["schaars",-11.302230897491377],["buien",-11.302356610702752],["snelst",-11.30260596919674],["veiling",-11.302694445401194],["opbouw",-11.302860711658248],["mama",-11.304256970124428],["Hou",-11.304358414478472],["lach",-11.304723174247709],["voorspeld",-11.305073507524337],["andgenoot",-11.305890409099552],["Staats",-11.306416363740095],["stort",-11.30679203155219],["Fin",-11.30710557466814],["groeps",-11.307492658841284],["ijzer",-11.308555516060963],["versoepel",-11.3087747936103],["beantwoord",-11.308810125280473],["trof",-11.308936315921418],["letten",-11.308953081750989],["Stads",-11.309037316939438],["Terug",-11.30927601599333],["Bel",-11.309355789809121],["schapen",-11.310279040239774],["Toy",-11.31045336391077],["lezer",-11.31075607647058],["ëren",-11.310948037950778],["bezetting",-11.310953806683706],["assist",-11.311120428820097],["miljardair",-11.311276781724628],["uitgezet",-11.311794711610151],["likken",-11.311916741498003],["opende",-11.312377289259272],["aarover",-11.312470957845843],["86",-11.313079192031312],["ondernemen",-11.313407473518907],["gered",-11.313494597796353],["lunch",-11.313646218617649],["zaamheid",-11.313893447137998],["besprek",-11.313945421195665],["Alpin",-11.314003901927187],["Bakker",-11.314071484966643],["bezette",-11.314375355622152],["Allema",-11.314610054355844],["verslag",-11.314775191520807],["waari",-11.314862376511774],["verzameld",-11.314935884114645],["atlete",-11.315176848454744],["Mil",-11.315672464369321],["kassa",-11.315816162448877],["weekeinde",-11.315996272395054],["Internationa",-11.316210608275949],["Stream",-11.31641023553679],["plekje",-11.316427678974001],["—",-11.31662648587472],["Hongkong",-11.316626762427337],["Festival",-11.316628177225981],["boycot",-11.316631292823319],["vis",-11.316733301548782],["Oscar",-11.31675692947847],["geëist",-11.316764317372304],["Gerard",-11.31679491676352],["Centrum",-11.316813571119358],["bu",-11.31724062736219],["vastgelegd",-11.317257435231006],["geschrapt",-11.317271082775434],["Studio",-11.317378964860234],["lingen",-11.317800616603083],["king",-11.317920863222609],["feitelijk",-11.317957585460356],["Christen",-11.318099789603329],["Star",-11.318214360385557],["basisschool",-11.318352905279383],["overeen",-11.318719859656845],["natuurgebied",-11.318758566004291],["Rotterdammer",-11.319136613456738],["bestuurlijk",-11.319367920959692],["oordeelde",-11.320312280036175],["koppen",-11.320408039183855],["achtige",-11.320615919806265],["ARN",-11.321184848663327],["grondig",-11.321898505420776],["Dick",-11.3224165044781],["eerde",-11.322570041858395],["fel",-11.323277753450052],["hee",-11.323544476062084],["evolutie",-11.323629506811503],["streven",-11.323738949771748],["katholieke",-11.324777644964254],["bibliotheek",-11.325030052725207],["Big",-11.325062094351647],["vliegt",-11.325152067400383],["bad",-11.325386410199762],["Francisc",-11.325797780646566],["complexe",-11.325957365965927],["Meijer",-11.325975915014698],["Just",-11.326477902081372],["aannemer",-11.327109395674576],["erken",-11.327730826192994],["Moeder",-11.32785233369182],["faillissement",-11.327886425986518],["verwoest",-11.32815096354298],["tiende",-11.328510742829621],["trekker",-11.329252627994393],["aanhouden",-11.329378281031238],["mits",-11.329657726045095],["rooster",-11.329722880481148],["koffer",-11.330142350157143],["geï",-11.330564063881615],["loods",-11.330579967399059],["depressie",-11.330664110168765],["Prijs",-11.330756221274523],["massale",-11.33078163864524],["geble",-11.330991354111777],["eenmalig",-11.331802471225522],["uitstel",-11.331883403009117],["vervanging",-11.332171321497388],["Haas",-11.332383333925154],["gender",-11.33252681999922],["verdiende",-11.332695593019638],["vastge",-11.332779458759148],["continent",-11.332918086875113],["Pé",-11.33337932987595],["daarnaa",-11.333489435439066],["vogel",-11.334273654534343],["gehel",-11.334796643940383],["OV",-11.334982117017722],["gebl",-11.335284825910449],["zwangerschap",-11.335690959179228],["valse",-11.336061601802012],["eenheid",-11.336165618289941],["Time",-11.336318777265578],["Milieu",-11.336383000149661],["My",-11.336663679693748],["explosief",-11.336894910403771],["ich",-11.33690233975241],["loren",-11.337400238529362],["invoering",-11.337441549541419],["flessen",-11.337678659236838],["tests",-11.338276840551599],["stopte",-11.338524427624368],["groente",-11.338569509385145],["voortaa",-11.338978352059927],["ix",-11.34027642441943],["langdurige",-11.340518433972772],["process",-11.341294533678312],["Europ",-11.34153160740301],["racle",-11.341615566469518],["Westers",-11.341922766632404],["vernietigd",-11.342046965896666],["wappie",-11.34312066606244],["bestorm",-11.343139003762301],["geslacht",-11.343140256958446],["SC",-11.343631985928065],["vice",-11.343804406362112],["verliep",-11.344340162512658],["Maa",-11.344792464574248],["sessie",-11.344831154213399],["eeds",-11.344900058987893],["cash",-11.345365551342478],["vermist",-11.34542069877015],["divisie",-11.345459165346757],["handhave",-11.345585078795116],["son",-11.345742938909758],["rieven",-11.34598757943826],["projecte",-11.346127298382836],["Ber",-11.34638044102335],["stoer",-11.346383007780725],["intensieve",-11.346474384893593],["bril",-11.346536670463436],["getrouwd",-11.346630576103603],["Test",-11.346787101656682],["98",-11.346849169733495],["poten",-11.346913490226994],["release",-11.346985412771678],["tel",-11.347220207995079],["Oo",-11.347375513170274],["moraal",-11.347404760158248],["horst",-11.347501600608043],["MR",-11.347679728517775],["Oekraïn",-11.347709152663533],["leraren",-11.34777753296177],["stegen",-11.348528924110886],["talenten",-11.348973853251819],["kapitaal",-11.34906817896514],["rap",-11.349187146416408],["bezuinig",-11.349432549743845],["achtig",-11.34967354535156],["eld",-11.34986028818194],["schaffe",-11.35082673928469],["deeltjes",-11.351129621258359],["inspiratie",-11.351686997264434],["corrupt",-11.352474563432057],["Do",-11.3526850371132],["kleuter",-11.352805763230684],["efficiënt",-11.353257478786478],["Blind",-11.354111766525614],["po",-11.354246638555821],["owel",-11.354409073100115],["sparen",-11.354418453479155],["concentratie",-11.35463612271678],["eds",-11.354690261023928],["rare",-11.354893940878773],["minimum",-11.354983402734865],["kantoren",-11.355007405729886],["schreeuwen",-11.35505466076474],["Curaçao",-11.355088034859717],["parcours",-11.355088200281905],["Californi",-11.35508823374392],["begraafplaats",-11.355111972291411],["Tokio",-11.355167009502903],["Mon",-11.355267194759321],["renovatie",-11.355298957094021],["gemengd",-11.355352968689356],["reputatie",-11.35541537544797],["trad",-11.355523949609442],["verzette",-11.355534503450858],["structuur",-11.35553898648278],["NRC",-11.355609604621506],["bood",-11.355879897419037],["artillerie",-11.355902297909626],["importeren",-11.356054038251678],["Russell",-11.356088915999837],["display",-11.356172201792948],["dialoog",-11.356278574508213],["stilstand",-11.356390046171914],["Zelenski",-11.356421159052037],["anken",-11.356427811247425],["aanbeveling",-11.356457487725505],["Jones",-11.356579040505363],["persbericht",-11.356627683259491],["Wageningen",-11.356729650971761],["oprecht",-11.35678304816587],["verspreiding",-11.356862016575377],["weergave",-11.356875333032614],["individueel",-11.35694372816098],["Pier",-11.357000385252864],["Veiligheid",-11.357605787140312],["bedden",-11.357684327659577],["stokje",-11.357684813151376],["Walter",-11.357903099816559],["Colleg",-11.357987835458255],["benoem",-11.358051350097929],["woonwijk",-11.358257363636273],["levenslang",-11.358261860484756],["Duivels",-11.358547611352297],["potje",-11.358779079028697],["therapie",-11.35882787138152],["Nova",-11.358922295751423],["pure",-11.359058962603447],["Demir",-11.359269399934767],["grafiek",-11.359297340876655],["uitgebreide",-11.359306262502503],["expliciet",-11.359332439878612],["elektronisch",-11.359509475118717],["Blijf",-11.35964768237938],["ijdje",-11.359776416407765],["zuur",-11.360217276755135],["bonden",-11.360693767503431],["Depp",-11.36074283657068],["wetsvoorstel",-11.361146687706414],["virtue",-11.36117097846483],["simpele",-11.361392633663142],["Institu",-11.36156840483541],["voorhand",-11.361762145998828],["examen",-11.362036164709249],["RB",-11.362423492940415],["cao",-11.362586100771548],["handhaving",-11.363052158805889],["schadelijke",-11.363682115792725],["gewisseld",-11.363809234263531],["passie",-11.364358434873001],["arbeid",-11.364819528594172],["binnenlands",-11.36492370279738],["eenzijdig",-11.365209121097639],["bedank",-11.365360602879353],["Take",-11.365771257907769],["reality",-11.366241374989126],["beleving",-11.366270278530255],["mars",-11.36706068332513],["beloofd",-11.367311567899861],["tekende",-11.367657368984508],["ruime",-11.367909295583996],["doodge",-11.368613795102705],["ontdekking",-11.368859402563592],["VAR",-11.368938178958004],["zakelijke",-11.369361503118121],["Komend",-11.369522746949626],["heilig",-11.369540349558536],["langdurig",-11.369876087491866],["donatie",-11.370502311863206],["Familie",-11.371851325552417],["gaande",-11.371879749536236],["schone",-11.372450240039466],["Mari",-11.37316242212333],["beweer",-11.373921283722263],["bijstand",-11.373988227051957],["mentaliteit",-11.374098227387396],["betaalba",-11.37432761888189],["mondkapje",-11.374508131083347],["secretaris",-11.37458328724044],["schop",-11.377127008204495],["concre",-11.377376830842703],["eking",-11.377437695982906],["Lamb",-11.37753559863066],["geur",-11.37831874047077],["Mars",-11.378379463770392],["hausse",-11.378749548260526],["ance",-11.378766085003386],["onverwachte",-11.379340462876073],["Light",-11.379839733694439],["Hasselt",-11.379939938876785],["wo",-11.38001282930195],["buis",-11.380700746762505],["congres",-11.380959856879398],["Roemeni",-11.3811384387918],["Marine",-11.381410292475472],["ofzo",-11.3819120129553],["gedood",-11.381972924201596],["krediet",-11.382118632669213],["fiscal",-11.38213366809623],["Waal",-11.382232031901152],["Roy",-11.382431956978746],["woestijn",-11.382495965054497],["gekr",-11.383658448106422],["Slot",-11.383796786348682],["Las",-11.38410386367002],["Plan",-11.384300616926918],["verdw",-11.384496288252548],["gekke",-11.384936672613268],["conferentie",-11.385949093777388],["ikken",-11.386325175252406],["verplaatsing",-11.386514749557673],["Bob",-11.386622760784627],["aang",-11.38715386439774],["versnelle",-11.387564521804304],["ique",-11.387786010385662],["aanvullend",-11.387923704890468],["cher",-11.387984702273286],["vervallen",-11.388949846550528],["fietspad",-11.389229835786052],["verwerken",-11.390111829679489],["zuinig",-11.3902747386282],["Mah",-11.39097758285823],["bezorg",-11.391021705938337],["betrouwba",-11.39112885514764],["platen",-11.391237112331591],["paus",-11.391711634619902],["Koop",-11.392453793844174],["Ye",-11.39268414853743],["Sun",-11.39273754315761],["Son",-11.392901992565529],["omgaan",-11.393101136282844],["Ond",-11.393343580057888],["orry",-11.393591911021465],["criminee",-11.394374731637484],["poort",-11.395066771571287],["mmy",-11.395073716791597],["Kardashian",-11.395088024481517],["America",-11.395088620519768],["Bitcoin",-11.395089004744246],["herhaling",-11.395102805335467],["Randstad",-11.395129853846433],["binnenko",-11.395144058904197],["personage",-11.395151539797821],["motivatie",-11.395156405330688],["Leeuwarde",-11.395180129012738],["willekeurig",-11.395224445402377],["Haarlem",-11.395241609084582],["asfalt",-11.395251603870221],["handtekening",-11.395305500087122],["Lely",-11.395421021458006],["parlementair",-11.395504673699975],["brandstoffen",-11.395506641846708],["Bedrijven",-11.395561768570143],["European",-11.39558186077674],["veroordeling",-11.395607093363306],["demonstreren",-11.395666544149588],["Sky",-11.395766679219737],["kernenergie",-11.395832684929939],["tankstation",-11.395894117551538],["uro",-11.395907014583472],["geduld",-11.396465951398662],["euren",-11.396475342065337],["getuig",-11.396506087961546],["terreur",-11.396534608695957],["gaaf",-11.396610905701115],["kermis",-11.39667249400067],["technologisch",-11.396673250909465],["cannabis",-11.396678716401187],["communic",-11.396688444280262],["aftrap",-11.396891289127463],["honderdduizend",-11.397226909259242],["SE",-11.397345412346176],["kuu",-11.398501841826077],["stempel",-11.398568260792958],["bewegingen",-11.398746165324546],["wieler",-11.398765365469632],["misdrij",-11.400065300738632],["verkracht",-11.400807071372121],["imago",-11.400935669368327],["overduidelijk",-11.400986544692447],["daarbi",-11.401220684254797],["omwonende",-11.401545362496037],["lust",-11.402730909702898],["herdenking",-11.40297835873206],["bom",-11.403371187727535],["koepel",-11.40339565178622],["zwem",-11.403926161217413],["verdieping",-11.404056096539493],["haa",-11.404317341827454],["praatje",-11.40454750565636],["juichen",-11.404971001794095],["verbruikt",-11.40508578636981],["schaamte",-11.405296090791648],["rem",-11.405355339901105],["spier",-11.405531992968218],["verplichte",-11.406059204399687],["cirkel",-11.406492508144364],["verzekerd",-11.406603502760728],["jonger",-11.406682537882016],["Lil",-11.40670845499325],["Rog",-11.406924020436488],["beweeg",-11.407035532339638],["Richard",-11.407124094635567],["Toe",-11.407270544402373],["beloofde",-11.40744899536909],["ondersteund",-11.407459792491016],["star",-11.407462915473722],["Renau",-11.407740635474829],["interactie",-11.408259304628292],["tour",-11.40868570173521],["hypotheekrente",-11.408708175333823],["lichtingendienst",-11.408808973945519],["Stijn",-11.408842390474769],["zuidelijke",-11.409102672697207],["Rock",-11.409199354362732],["ation",-11.4093630642007],["suggestie",-11.40954718474626],["symbolisch",-11.409991638557289],["jongeman",-11.410238055124935],["llong",-11.411096190563729],["adviser",-11.411503933965935],["vlot",-11.412741838121002],["gewo",-11.413823370415615],["Pay",-11.413991288925784],["kondig",-11.414051555700365],["boekje",-11.414313160511224],["kogel",-11.41438453600222],["vertegenwoordige",-11.414877428888506],["tactiek",-11.415424468867105],["AP",-11.41558019639635],["mails",-11.415642534842734],["Volod",-11.415708187862379],["akpo",-11.4160045355122],["business",-11.416079306668735],["plaatjes",-11.416823465579661],["nauwkeurig",-11.417238770522044],["bewoner",-11.417265232743857],["hé",-11.417504864591642],["83",-11.41759274288599],["races",-11.417835061294262],["IV",-11.418001386142436],["financiering",-11.41953654085611],["intern",-11.419580955460043],["inzette",-11.419625572192114],["ort",-11.419727413137892],["lan",-11.419806013696988],["Th",-11.419808308777611],["vergoed",-11.419869823615377],["macro",-11.41995583607451],["waardevol",-11.421171104035182],["Flori",-11.421394956687843],["dwang",-11.421404468604859],["anse",-11.421996316811786],["sius",-11.422135534697137],["financier",-11.422376221880388],["Ab",-11.422393813622634],["vorst",-11.422618343283226],["grijp",-11.422973635865837],["kussen",-11.423081290391238],["vieze",-11.42314844493133],["meters",-11.423263052251372],["zakelijk",-11.42372560919942],["03",-11.424303334050071],["put",-11.424653714366578],["rones",-11.42471344005253],["Lat",-11.42495765358908],["Luka",-11.425636653333312],["ruimtevaart",-11.42584826426572],["verzuim",-11.425862623174382],["82",-11.427300794593966],["Bi",-11.427336870171898],["erkend",-11.428193244745131],["Zee",-11.428766595425275],["Ligt",-11.429208223925752],["warming",-11.430077311270363],["isten",-11.43070251531314],["Emma",-11.43078339182685],["staart",-11.430963236532332],["Gi",-11.43125816722958],["omring",-11.431335064519896],["groten",-11.431414547447822],["Ieder",-11.432299302623232],["voorspel",-11.43236101653603],["overstappe",-11.43246453273108],["overstroming",-11.432503458958253],["haalbaar",-11.432551593490203],["Ecuador",-11.43296304550188],["May",-11.433589919120244],["voegde",-11.433681251183598],["wisseling",-11.433706979868795],["Ham",-11.433854401874793],["deelde",-11.433890541134403],["structure",-11.433995859668608],["drempel",-11.434138985950923],["krachtige",-11.43420682320622],["full",-11.434641483245006],["illa",-11.434738396503333],["Ch",-11.435315849376614],["Zit",-11.435709737964977],["Saoedi",-11.435929631040153],["Brand",-11.435983291168771],["errari",-11.43621141740115],["pond",-11.436539851867915],["functioneren",-11.436691506475508],["presentat",-11.43671110813247],["Mohammed",-11.436757982544592],["oligarch",-11.43676036244781],["confrontatie",-11.436764294313022],["Management",-11.436767180483129],["concurreren",-11.436813511733552],["Dutch",-11.436860016338978],["Gündo",-11.43688927013993],["Rafael",-11.436891088539044],["apenpokken",-11.436938105296246],["referendum",-11.437144082759136],["Argentijn",-11.437406779890878],["Jonas",-11.437437373282979],["arrogant",-11.437526147825299],["Wever",-11.43769384533989],["steekpartij",-11.43769520954576],["Sander",-11.43777517564786],["parkeerplaats",-11.437901651165529],["ngeveer",-11.437965072706852],["Israëlisch",-11.438108714860116],["etje",-11.438119549409361],["wachtrij",-11.438131347754075],["rolstoel",-11.438361834216062],["gra",-11.438549152519759],["landgenote",-11.438769647399717],["190",-11.438993622835039],["registratie",-11.439020939680415],["intentie",-11.439179661917702],["(!)",-11.439185673144568],["afkomst",-11.439381314748681],["zonnige",-11.439408889588803],["tractor",-11.439584565725069],["onference",-11.439629652129986],["tijdstip",-11.439651397895672],["bescherm",-11.43968285172408],["ov",-11.439767160597668],["smerig",-11.440323372342597],["besparing",-11.44039759425619],["fragment",-11.440568478471114],["hernieuwba",-11.440780281475785],["exclusief",-11.440937006600848],["tablet",-11.441256597103337],["verzin",-11.441316018316387],["Ni",-11.441595438108127],["afschaff",-11.441789302471186],["twitter",-11.441812473484994],["verbaas",-11.442474879894425],["sleep",-11.442564240427336],["Braziliaans",-11.443189085240187],["verwarmen",-11.443328331043492],["machts",-11.44368409289811],["Camb",-11.443897120848165],["dom",-11.444420968598742],["huurders",-11.445387476464836],["inder",-11.445732581595706],["Hele",-11.44592367787152],["Quick",-11.44595142645647],["blokken",-11.445970239224206],["talige",-11.446257628373838],["nsoverschrijdend",-11.446351557665558],["gooit",-11.44643915844339],["arme",-11.446510809142874],["Barc",-11.446577547927973],["geschikte",-11.446591533762781],["campus",-11.446898247811639],["uurman",-11.44723922272235],["camper",-11.447335070858157],["prikke",-11.447490558575769],["rommel",-11.447666385802247],["uitbrak",-11.448014588814758],["helm",-11.448186854420078],["verschee",-11.44834709538213],["nkele",-11.44853332601864],["gewenst",-11.44857139636019],["discipline",-11.448824944235053],["zieken",-11.44898910199296],["Wees",-11.449685626082209],["dramatisch",-11.44973436938826],["menig",-11.449738328578121],["gewapend",-11.449939602563378],["bubbel",-11.45019833157995],["mannelijk",-11.450212348810297],["federatie",-11.451100117722133],["vreugde",-11.451219813361105],["kwalijk",-11.451613163328236],["enburg",-11.451691036998056],["deloos",-11.451694532846592],["wolken",-11.451870959429819],["diploma",-11.452064199423884],["uwen",-11.452078807956221],["stroming",-11.452411544439292],["woordvoer",-11.452700522555183],["Strak",-11.453608630179167],["stelen",-11.453716792888548],["Game",-11.453944456113463],["Dekker",-11.453955123229997],["verslagen",-11.454503416499815],["privat",-11.454654996837709],["uitval",-11.454772418812748],["blond",-11.455055517356353],["wor",-11.455271079246131],["verhuis",-11.455447498846993],["schakeling",-11.455910794974976],["populariteit",-11.455971839773197],["neutra",-11.456259378599151],["Niels",-11.456304435608914],["kraam",-11.457102400540702],["opper",-11.457339856714661],["erkende",-11.457835692479774],["criteri",-11.458846952211736],["solidariteit",-11.460181262333812],["industri",-11.460305851571192],["koel",-11.46050695502048],["houdbaar",-11.460824082946628],["bes",-11.460885771589133],["Winterswijk",-11.461426640229828],["gehoor",-11.461499251379959],["geniet",-11.461817101390729],["analist",-11.462289530374342],["vul",-11.46279558968018],["fatsoenlijk",-11.463420027067485],["voornaam",-11.463737795498412],["mbo",-11.464316747323542],["populairst",-11.464367227674762],["leerde",-11.464399350284182],["presenteerde",-11.464790343325548],["roman",-11.46504815569308],["UMC",-11.465623555153588],["masker",-11.4660529969825],["zeik",-11.467137434795443],["schijt",-11.467307763217187],["bloot",-11.467826915528423],["ere",-11.468139025167996],["deugen",-11.468192600426981],["slechtste",-11.46829139311273],["stilte",-11.468569925168289],["Nie",-11.468987482456905],["loper",-11.469605344031727],["worst",-11.469786203690123],["onen",-11.469812028736849],["bio",-11.470150229704593],["AF",-11.470227043867393],["Gerw",-11.470399236093877],["ist",-11.470447954607408],["Ukraine",-11.470491279963877],["fusie",-11.4711421440323],["Daarop",-11.471272381341205],["aanklacht",-11.471731966166242],["!)",-11.471872815781497],["poep",-11.472012482179265],["truck",-11.47225486734444],["mondmasker",-11.47228550320484],["verdienmodel",-11.472485911350647],["Laur",-11.473867600357098],["kond",-11.474167755182226],["schijf",-11.474379818160795],["Boe",-11.474554971202148],["gelijkspe",-11.474579427128967],["feite",-11.474628171219242],["knappe",-11.475011552946738],["aansluiten",-11.475405856638806],["misdaad",-11.476168580689068],["back",-11.476360614173748],["zee",-11.476600124193247],["War",-11.477546437851442],["linkt",-11.478112051076337],["behal",-11.47815983727809],["offensie",-11.478519458575127],["AT",-11.478535096581878],["lost",-11.479407734108284],["provider",-11.480250185701152],["Autoblog",-11.480265106384211],["zuurstof",-11.480296906154981],["bombardement",-11.480297001581699],["jubileum",-11.48033489687414],["mededeling",-11.48036685348945],["absurd",-11.480394743142218],["Kortrijk",-11.48040038418722],["Probeer",-11.48044236774712],["communistisch",-11.480482060717586],["ongelooflijk",-11.480634687068111],["Suzan",-11.480713274322563],["Heuvel",-11.480756704269865],["webwinkel",-11.48079158496529],["applaus",-11.480887327484929],["kunstmatig",-11.480956329382309],["gewijzigd",-11.481075009051182],["Landelijk",-11.481197466594725],["Heist",-11.481217147219903],["merendeel",-11.481249826770215],["bijbehorend",-11.481306207406618],["IND",-11.48148960411597],["intensie",-11.48151900790086],["Bommel",-11.481546151760481],["onacceptabel",-11.481648785801518],["Surinamer",-11.481808147113087],["tijdschrift",-11.482097583127992],["benoeming",-11.482137838234639],["overweeg",-11.48230468757664],["Noordzee",-11.48235347319401],["gigant",-11.482376515745242],["lek",-11.48249260309692],["aanklager",-11.482633030020402],["voorafgaand",-11.482758059580508],["louter",-11.483065745877019],["kloof",-11.483434618094853],["loterij",-11.483613929612812],["insecten",-11.483802270985244],["licentie",-11.484279479736099],["bedenk",-11.48437109969769],["anderhal",-11.484440190262825],["argumente",-11.484689617483058],["racist",-11.484914228286502],["emissie",-11.48601108946363],["anderhalve",-11.48609133977456],["begeleiden",-11.486294036076197],["Benz",-11.486400896373407],["accepte",-11.486954116182648],["soldaat",-11.48766587786137],["aanbied",-11.487877139479387],["gun",-11.487939143397023],["piloten",-11.488212581200191],["deskundige",-11.488243126716604],["veiliger",-11.48824503247893],["billen",-11.48863383305719],["Paris",-11.48869135321122],["grappen",-11.488909144261681],["hekken",-11.488922295631225],["doos",-11.488923126614132],["You",-11.488954757192017],["helden",-11.489121602433409],["toetreding",-11.489174726866413],["essentie",-11.489281594833098],["Cel",-11.489513614501988],["schatte",-11.490169912472872],["behaalde",-11.490210132245398],["oorlogsmisdad",-11.490244365896121],["parkeer",-11.491239314753134],["benodigd",-11.491322704806661],["kolonial",-11.491396800484551],["Gelre",-11.491512623424565],["Kamp",-11.491697027515109],["tennisser",-11.491930352545857],["efficiënter",-11.492158249489362],["diagnose",-11.492400468342828],["houten",-11.492442023560967],["parlementsl",-11.492615591391662],["legende",-11.493170470889902],["besteld",-11.493188494824956],["uiterste",-11.493287526795443],["Reken",-11.494354309760736],["draaide",-11.494498379714909],["Volt",-11.495082869187183],["AA",-11.495083960111947],["pre",-11.495587067660917],["passend",-11.495715653727522],["prof",-11.495805415979971],["schoen",-11.496113936950568],["JA",-11.496184365483554],["opladen",-11.496196356603303],["briefje",-11.496721302830094],["Lucas",-11.496922993479352],["mode",-11.497047090165585],["toenemend",-11.49782839004981],["vertegenwoordigd",-11.497975193497588],["aardbeving",-11.498370590321091],["snapp",-11.498480459654616],["document",-11.498657306077847],["Lier",-11.499015883864608],["Mechelse",-11.499039303654378],["mislukt",-11.499377658172214],["rado",-11.499495177767347],["voldoe",-11.499725077066023],["schommel",-11.500427165246167],["rix",-11.500561402536992],["kens",-11.500574200014501],["cancel",-11.500632611124509],["Roos",-11.500740333328393],["my",-11.501147875445554],["hoever",-11.501216078718691],["straal",-11.501422654580713],["hervat",-11.501518797445405],["Stree",-11.5015890256413],["dealer",-11.502029964322432],["Kempen",-11.502264164401163],["voorziening",-11.502328988376961],["Delft",-11.50242316649414],["ehouden",-11.502438324968065],["musea",-11.502750214657539],["wachtwoord",-11.503500874721613],["kiezer",-11.503527043229814],["klim",-11.503740247111116],["age",-11.503946911043764],["Theo",-11.50464316813101],["HR",-11.504817961544274],["kunde",-11.504952793940737],["drankje",-11.505466531746803],["ST",-11.505532874752612],["sters",-11.50577229053928],["EN",-11.506125631403684],["89",-11.507254049943885],["inwoner",-11.507379727920895],["waanzin",-11.50745015856478],["balk",-11.50775911338658],["voornemen",-11.507776568051383],["con",-11.508079974753073],["waarschuwde",-11.508601155723788],["hype",-11.508690567852103],["verhoogde",-11.510539675381713],["Vi",-11.510559969587332],["havens",-11.51130128476906],["belast",-11.511514607197562],["verborg",-11.511799576885988],["Marcel",-11.511858208996708],["benadrukte",-11.51219156593081],["bestrijde",-11.512314183044836],["Theater",-11.512505190573327],["All",-11.512688373243495],["fraaie",-11.51269145440383],["É",-11.51272944083055],["rijken",-11.513340652277044],["CU",-11.513450900912684],["nieuwbouw",-11.513581308512],["leugen",-11.513669024661546],["visse",-11.514328138958248],["ondiale",-11.51488406771534],["klem",-11.515725377156304],["Steen",-11.515753636035631],["bijkomend",-11.515850955122286],["fris",-11.516323171289052],["bon",-11.516792430912078],["ngen",-11.517506719636305],["rot",-11.517513956364557],["blank",-11.517904555534736],["Mel",-11.517927176304777],["draad",-11.51835391179511],["slepen",-11.518464217628406],["ta",-11.518505015741683],["Af",-11.518665031426394],["Pim",-11.518921607519902],["omgekomen",-11.519117389421627],["aardappel",-11.519523317494889],["puin",-11.519613522870989],["trainers",-11.519647643341765],["gracht",-11.519780535104902],["minderheid",-11.519801730212428],["gewaardeerd",-11.519879370715055],["Andro",-11.520169794672615],["individu",-11.520253504987256],["correspondent",-11.52057019220021],["reedt",-11.520651988317997],["Houd",-11.521263975062535],["ron",-11.521403796081982],["uitmaakt",-11.521490968708557],["oorlopig",-11.521582086616958],["wereldbeker",-11.52158849969647],["win",-11.521660044785182],["danig",-11.521782324883047],["dorpje",-11.522285101597157],["steunt",-11.522596186816674],["organiseerde",-11.522680453187096],["eeuwen",-11.522704440276742],["werven",-11.52332144930479],["Pol",-11.523695030628872],["nd",-11.523802716723587],["OP",-11.524054076807083],["Blijk",-11.524514627746655],["scanne",-11.52526389415253],["opvanglocatie",-11.525359243925365],["noodopvang",-11.525670081990027],["«",-11.525687497327036],["première",-11.525688890806965],["comeback",-11.525700609888181],["Erasmus",-11.525707497183511],["delegatie",-11.52570953998829],["prestigieu",-11.525725177732276],["gegarandeerd",-11.52572556818443],["compliment",-11.525735924131501],["kleedkamer",-11.525742949741863],["Bureau",-11.525786970075657],["uitnodiging",-11.525834033406653],["populistisch",-11.525843512276927],["Kyiv",-11.525903996169076],["gemeenteraads",-11.525930936368834],["west",-11.526072054936863],["Ridder",-11.526074492112365],["wachtlijst",-11.526077957929296],["opzettelijk",-11.526132958248395],["slogan",-11.526142195222628],["onthulling",-11.526171008521743],["Kosovo",-11.52627561767778],["Cross",-11.52655251690235],["slaapkamer",-11.526749130154995],["streamingdienst",-11.526925817609158],["onde",-11.52695716734527],["teleurstelling",-11.527033453213765],["inde",-11.527346084481788],["reikt",-11.527465239865416],["Vleute",-11.527487384760253],["integratie",-11.52764012991855],["somber",-11.527731049437548],["()",-11.528420282248437],["zelfmoord",-11.528462155892365],["volhoud",-11.528516980981273],["lle",-11.528577668908609],["dam",-11.528592223104264],["Sergi",-11.528758494248265],["passeren",-11.528887034895012],["Aston",-11.528917892452494],["speelgoed",-11.529140179891005],["FV",-11.529259921011672],["93",-11.52936555427937],["troost",-11.530093146898844],["Wopk",-11.530906057699806],["bezet",-11.530963505382966],["miste",-11.530987669983533],["Bram",-11.53108006435102],["aanvang",-11.531237159910946],["lij",-11.53147389559628],["Nik",-11.531637408517069],["beschrijf",-11.531662035065336],["speelster",-11.531672659035298],["rac",-11.532415442785354],["NC",-11.532455002071544],["pan",-11.53259465606235],["Royal",-11.533273910483977],["toerisme",-11.53329755910382],["Param",-11.533698731941175],["teleurstellend",-11.533778470843197],["vormde",-11.533869720725457],["Ar",-11.534072589271464],["llen",-11.534208892566934],["afname",-11.534343262219103],["enthousiasme",-11.534555134406867],["vasthouden",-11.534650752289966],["strikt",-11.534703851674077],["Lee",-11.535039280344824],["mroep",-11.535129897756578],["Daniel",-11.535229087016383],["waarbi",-11.535276411081018],["vlogen",-11.53528164459049],["Mont",-11.53552014415457],["Stalin",-11.535607386340992],["OK",-11.535959336897271],["Vader",-11.536065089425888],["Carolin",-11.536198697240716],["afreken",-11.536244584880128],["conditie",-11.536795061696397],["King",-11.537125009189745],["LED",-11.537240349409773],["Pi",-11.53737179322689],["ap",-11.537476912871586],["bankier",-11.53858946935167],["slaaf",-11.538956519752258],["blog",-11.538965239160934],["Joost",-11.539029655151506],["studeren",-11.539268819562087],["bestemd",-11.539589594531888],["geschat",-11.539830828232454],["hittegol",-11.539879592535968],["scène",-11.539994252773543],["Peters",-11.540310568458125],["halfjaar",-11.540434529308744],["wappies",-11.540634753792315],["01",-11.540828505990724],["compromis",-11.541470466727974],["Stefan",-11.541694265812346],["Stee",-11.541721580106397],["bewuste",-11.542360995992404],["verstopt",-11.54262526428174],["VID",-11.542731880760922],["onveilig",-11.543131007982579],["zonde",-11.543387931924585],["musical",-11.543647225576384],["middelba",-11.543974270013168],["lease",-11.54502279506495],["train",-11.545235649706981],["redene",-11.545297650801057],["Po",-11.545373131894864],["gescho",-11.545396171009381],["feestdagen",-11.5455869658132],["strook",-11.545592164160675],["erkomst",-11.545946819466067],["2G",-11.54599360155828],["gaard",-11.546258866944664],["beloning",-11.54654461581688],["Serge",-11.54679881973771],["genot",-11.546807908557366],["schijnen",-11.54713020388539],["moedig",-11.547244685281568],["platteland",-11.547369425213162],["ervaart",-11.54738933383472],["onthuld",-11.547408329288768],["Chark",-11.547698734435992],["versnelling",-11.548227453080935],["bevoegdhe",-11.54843279606689],["professional",-11.548484739666817],["korter",-11.549723761611443],["gedraaid",-11.5498513310942],["tekening",-11.550290056684617],["Von",-11.551296230800721],["indrukwekkend",-11.55140756452683],["sterkte",-11.551477083107907],["origine",-11.552016069945664],["beleggen",-11.552414844281039],["llicht",-11.552768178799084],["Belarus",-11.552811434523369],["onveilige",-11.553363866609551],["Australia",-11.55365850897834],["Nijkerk",-11.553912599939853],["bedroe",-11.554534502293132],["hack",-11.554681297483468],["Aalsmeer",-11.554808695833996],["kerel",-11.55516662963043],["voorwerp",-11.555265783505206],["presenteer",-11.555306545439663],["riskeer",-11.55538536940767],["Brun",-11.555584749398916],["Lig",-11.555852022114282],["Maz",-11.555986380315725],["marathon",-11.556192660830263],["Turk",-11.556746476300763],["Gu",-11.55690613188936],["Irak",-11.557080238220887],["present",-11.557302434600716],["thans",-11.557302465478593],["tool",-11.557416568913885],["mannetje",-11.55742102676567],["ontwor",-11.557644802624623],["Snap",-11.557758958041559],["kap",-11.558015711715427],["isch",-11.558494107256951],["oost",-11.559320049807031],["Direct",-11.559326790342038],["misbruikt",-11.559384233649585],["iezen",-11.559555660404364],["Lei",-11.560452803413417],["verdien",-11.560603912335813],["overdag",-11.561225304336165],["Maxim",-11.56126091792775],["rennen",-11.561426852071076],["uniform",-11.561445179356852],["rechtvaardig",-11.561709371988895],["87",-11.562136718370981],["visum",-11.562384051167065],["FB",-11.562506953914088],["Waals",-11.562632336864475],["pla",-11.562764122326843],["spektakel",-11.563017342351355],["Lange",-11.563163027708818],["Robin",-11.5633273477549],["omt",-11.564068164830779],["buit",-11.564186616835794],["talen",-11.56476857655089],["lijsttrekker",-11.5649137027439],["zakte",-11.565034671991043],["gedur",-11.565232984078499],["oord",-11.565264699488953],["verantwoorde",-11.56550261136704],["gooi",-11.56557613362925],["Kev",-11.566496274919892],["machtig",-11.56655495742001],["Els",-11.567011744687232],["verschijnsel",-11.567091604745317],["sterf",-11.56719464277387],["Tata",-11.567216451327418],["ritme",-11.567933796871353],["Overma",-11.567945534455056],["aanschaf",-11.568179715486764],["Vera",-11.568591028967084],["werkloosheid",-11.568681870017048],["overhe",-11.568744456652738],["nipt",-11.569268366736065],["gunstig",-11.569292661662619],["TP",-11.569747735891543],["Boom",-11.57082121746207],["kalender",-11.570883033340433],["mac",-11.571364230219942],["Islam",-11.571385884978056],["Kram",-11.571587237704637],["ezen",-11.571635407118443],["ongelukk",-11.571645737651393],["zucht",-11.572574474757717],["strepen",-11.572935208486228],[">",-11.573306544946083],["Cruijff",-11.573306553620327],["Frankfurt",-11.57330662923604],["consumptie",-11.573307140291162],["toonaangevend",-11.57331195569557],["onvermijdelijk",-11.573312758312634],["AirPod",-11.573329246607614],["failliet",-11.57333281514251],["Linux",-11.573339996531221],["Dylan",-11.57336070647063],["vracht",-11.573401881188138],["Mohamed",-11.573403175267025],["Voormalig",-11.5734086689016],["vroegtijdig",-11.573430030402855],["Rousse",-11.57347006161077],["Fox",-11.573518410715028],["interventie",-11.573530702653185],["leiderschap",-11.573626713951544],["millimeter",-11.573632521462745],["René",-11.573636600845456],["browser",-11.573649005661483],["Capitool",-11.573655232065429],["geschorst",-11.57366729932071],["monetair",-11.573877506281434],["geblokkeerd",-11.57394885397773],["prijskaartje",-11.574052566289453],["besliste",-11.57413269953017],["protocol",-11.574140083375465],["inrichting",-11.574150958251304],["Plas",-11.574195105924112],["kartel",-11.574451414569989],["spaargeld",-11.574463044556213],["centen",-11.574498421526691],["hub",-11.574608672832316],["initiatiefnemer",-11.574656722466568],["gesteund",-11.574685852337206],["doorhee",-11.57494047571412],["influencer",-11.574989706714653],["berucht",-11.57504379045546],["klik",-11.575148611948338],["alleenstaande",-11.575170975426103],["koorts",-11.575337834994267],["buurvrouw",-11.575542140308457],["falen",-11.575596371838508],["balkon",-11.575626833136969],["duik",-11.575741627792034],["gevormd",-11.575775651832497],["bedankt",-11.57581851793184],["kruispunt",-11.57583449128735],["clubje",-11.575879313308345],["hoven",-11.575915884534059],["reativiteit",-11.576067430615485],["sloop",-11.57607519507011],["knip",-11.576101401701044],["schutter",-11.576105204819806],["stoom",-11.576265296034265],["inlichtingen",-11.57632300706548],["overtuiging",-11.576463346430986],["Japanner",-11.57665782369386],["broertje",-11.57668468049714],["vogelgriep",-11.57686519995216],["geparkeerd",-11.57687388508415],["evenwicht",-11.576959275498972],["Saudi",-11.577589957270703],["Haha",-11.57768657924538],["termen",
[...]
