{"version":"1.0","truncation":null,"padding":null,"added_tokens":[{"id":0,"special":true,"content":"<UNK>","single_word":false,"lstrip":false,"rstrip":false,"normalized":false},{"id":1,"special":true,"content":"<SEP>","single_word":false,"lstrip":false,"rstrip":false,"normalized":false},{"id":2,"special":true,"content":"<MASK>","single_word":false,"lstrip":false,"rstrip":false,"normalized":false},{"id":3,"special":true,"content":"<CLS>","single_word":false,"lstrip":false,"rstrip":false,"normalized":false}],"normalizer":null,"pre_tokenizer":{"type":"Whitespace"},"post_processor":null,"decoder":null,"model":{"type":"BPE","dropout":null,"unk_token":"<UNK>","continuing_subword_prefix":null,"end_of_word_suffix":null,"fuse_unk":false,"vocab":{"<UNK>":0,"<SEP>":1,"<MASK>":2,"<CLS>":3,"!":4,"\"":5,"$":6,"%":7,"&":8,"'":9,"(":10,")":11,"*":12,"+":13,",":14,"-":15,".":16,"/":17,"0":18,"1":19,"2":20,"3":21,"4":22,"5":23,"6":24,"7":25,"8":26,"9":27,":":28,";":29,"<":30,">":31,"?":32,"A":33,"B":34,"C":35,"D":36,"E":37,"F":38,"G":39,"H":40,"I":41,"J":42,"K":43,"L":44,"M":45,"N":46,"O":47,"P":48,"Q":49,"R":50,"S":51,"T":52,"U":53,"V":54,"W":55,"X":56,"Y":57,"Z":58,"`":59,"a":60,"b":61,"c":62,"d":63,"e":64,"f":65,"g":66,"h":67,"i":68,"j":69,"k":70,"l":71,"m":72,"n":73,"o":74,"p":75,"q":76,"r":77,"s":78,"t":79,"u":80,"v":81,"w":82,"x":83,"y":84,"z":85,"~":86,"¡":87,"¢":88,"£":89,"¤":90,"¥":91,"¦":92,"§":93,"¨":94,"ª":95,"«":96,"¬":97,"®":98,"¯":99,"°":100,"±":101,"²":102,"³":103,"´":104,"·":105,"¹":106,"º":107,"»":108,"¼":109,"½":110,"¾":111,"¿":112,"À":113,"Á":114,"Ä":115,"Å":116,"Ç":117,"È":118,"É":119,"Ê":120,"Í":121,"Î":122,"Ï":123,"Ñ":124,"Ò":125,"Ó":126,"Ô":127,"Ö":128,"×":129,"Ø":130,"Ú":131,"Û":132,"Ü":133,"Þ":134,"ß":135,"à":136,"á":137,"â":138,"ã":139,"ä":140,"å":141,"æ":142,"ç":143,"è":144,"é":145,"ê":146,"ë":147,"ì":148,"í":149,"î":150,"ï":151,"ð":152,"ñ":153,"ò":154,"ó":155,"ô":156,"õ":157,"ö":158,"ø":159,"ù":160,"ú":161,"û":162,"ü":163,"ý":164,"Ā":165,"ā":166,"ă":167,"ć":168,"Č":169,"č":170,"ē":171,"ę":172,"ě":173,"ğ":174,"Ġ":175,"ġ":176,"ħ":177,"İ":178,"ı":179,"ĳ":180,"ķ":181,"ļ":182,"Ľ":183,"ł":184,"ń":185,"ņ":186,"Ō":187,"ō":188,"Œ":189,"œ":190,"ř":191,"ś":192,"ş":193,"Š":194,"š":195,"ţ":196,"ū":197,"Ÿ":198,"Ż":199,"ż":200,"Ž":201,"ž":202,"ƅ":203,"ș":204,"ț":205,"ȼ":206,"ɑ":207,"ʏ":208,"ʻ":209,"ʼ":210,"˚":211,"˜":212,"˝":213,"̀":214,"́":215,"̂":216,"̃":217,"̈":218,"̧":219,"̶":220,"α":221,"β":222,"γ":223,"μ":224,"ν":225,"ο":226,"ς":227,"υ":228,"Ё":229,"Ђ":230,"Ѓ":231,"І":232,"Ј":233,"Њ":234,"Ў":235,"А":236,"Г":237,"П":238,"Р":239,"Т":240,"У":241,"Ш":242,"Щ":243,"Ъ":244,"Ь":245,"Э":246,"Ю":247,"Я":248,"а":249,"б":250,"г":251,"д":252,"е":253,"ж":254,"н":255,"о":256,"с":257,"т":258,"у":259,"ю":260,"я":261,"ђ":262,"ѓ":263,"ѕ":264,"і":265,"њ":266,"ќ":267,"ў":268,"џ":269,"қ":270,"һ":271,"օ":272,"א":273,"ב":274,"ד":275,"ה":276,"ו":277,"י":278,"ל":279,"ם":280,"מ":281,"נ":282,"ע":283,"צ":284,"ק":285,"ש":286,"ת":287,"ن":288,"ߋ":289,"ं":290,"अ":291,"क":292,"घ":293,"च":294,"ट":295,"ड":296,"त":297,"न":298,"ब":299,"म":300,"य":301,"र":302,"ल":303,"श":304,"स":305,"ा":306,"ि":307,"ी":308,"ु":309,"े":310,"्":311,"က":312,"င":313,"ည":314,"တ":315,"န":316,"ပ":317,"ဖ":318,"မ":319,"ရ":320,"လ":321,"သ":322,"အ":323,"ါ":324,"ာ":325,"ိ":326,"ု":327,"ေ":328,"်":329,"ြ":330,"ွ":331,"ှ":332,"ᥙ":333,"ᴠ":334,"ᵃ":335,"ᵉ":336,"ḥ":337,"ễ":338,"ỗ":339,"‎":340,"‐":341,"‑":342,"‒":343,"–":344,"—":345,"―":346,"‘":347,"’":348,"‚":349,"“":350,"”":351,"„":352,"†":353,"‡":354,"•":355,"․":356,"…":357,"‪":358,"‰":359,"′":360,"″":361,"‹":362,"›":363,"‼":364,"⁠":365,"⁣":366,"₁":367,"₂":368,"₡":369,"₦":370,"€":371,"₵":372,"₹":373,"℃":374,"™":375,"ⅼ":376,"⇧":377,"−":378,"≈":379,"⌘":380,"⏩":381,"⏰":382,"⏱":383,"─":384,"├":385,"┬":386,"╕":387,"╖":388,"▌":389,"▪":390,"▶":391,"◆":392,"☀":393,"★":394,"☆":395,"☕":396,"☝":397,"☹":398,"☺":399,"♦":400,"⚠":401,"⚽":402,"⛓":403,"✅":404,"✊":405,"✍":406,"✓":407,"✔":408,"✨":409,"❉":410,"❌":411,"❗":412,"❣":413,"❤":414,"➡":415,"➢":416,"➤":417,"⬇":418,"⭐":419,"【":420,"】":421,"ー":422,"化":423,"地":424,"帽":425,"暖":426,"期":427,"温":428,"煤":429,"球":430,"脕":431,"茅":432,"谩":433,"贸":434,"铆":435,"静":436,"默":437,"":438,"":439,"":440,"ﬁ":441,"ﬂ":442,"️":443,"﻿":444,"＊":445,"－":446,"ｅ":447,"en":448,"de":449,"er":450,"es":451,"an":452,"on":453,"in":454,"ar":455,"or":456,"al":457,"re":458,"la":459,"is":460,"he":461,"ti":462,"te":463,"le":464,"os":465,"as":466,"ou":467,"el":468,"qu":469,"it":470,"un":471,"ent":472,"at":473,"ci":474,"et":475,"om":476,"ad":477,"to":478,"pr":479,"the":480,"se":481,"ch":482,"ur":483,"que":484,"tr":485,"di":486,"ing":487,"li":488,"con":489,"and":490,"il":491,"am":492,"us":493,"ta":494,"ce":495,"id":496,"ver":497,"th":498,"of":499,"par":500,"ge":501,"ma":502,"op":503,"tion":504,"ij":505,"me":506,"ve":507,"ol":508,"au":509,"ter":510,"ac":511,"ir":512,"des":513,"est":514,"ic":515,"no":516,"be":517,"ra":518,"com":519,"ne":520,"lo":521,"ie":522,"our":523,"les":524,"vo":525,"ment":526,"der":527,"van":528,"do":529,"si":530,"su":531,"ab":532,"por":533,"for":534,"per":535,"du":536,"ón":537,"ant":538,"st":539,"pe":540,"los":541,"pro":542,"een":543,"mo":544,"da":545,"cu":546,"gen":547,"ed":548,"ten":549,"gr":550,"ha":551,"im":552,"ans":553,"het":554,"del":555,"ni":556,"we":557,"po":558,"ri":559,"vi":560,"sa":561,"son":562,"ción":563,"ex":564,"res":565,"pu":566,"je":567,"so":568,"den":569,"las":570,"pa":571,"go":572,"ro":573,"na":574,"20":575,"ca":576,"qui":577,"ado":578,"dé":579,"ue":580,"ven":581,"em":582,"ig":583,"ers":584,"dat":585,"ho":586,"man":587,"és":588,"va":589,"ly":590,"co":591,"une":592,"ut":593,"tra":594,"ct":595,"bi":596,"pas":597,"pl":598,"ke":599,"ga":600,"para":601,"pour":602,"tre":603,"ente":604,"aar":605,"fr":606,"that":607,"ul":608,"ser":609,"voor":610,"té":611,"De":612,"una":613,"met":614,"ces":615,"mi":616,"out":617,"ken":618,"ze":619,"ré":620,"ont":621,"ía":622,"00":623,"lu":624,"ap":625,"fa":626,"ari":627,"ill":628,"ijn":629,"tu":630,"sur":631,"pre":632,"hi":633,"ous":634,"was":635,"wit":636,"La":637,"oo":638,"af":639,"min":640,"cion":641,"ere":642,"ire":643,"pos":644,"The":645,"pres":646,"are":647,"ted":648,"ef":649,"ine":650,"ag":651,"ts":652,"all":653,"che":654,"cor":655,"bre":656,"dans":657,"En":658,"ru":659,"with":660,"dis":661,"wor":662,"aan":663,"ons":664,"ble":665,"fe":666,"ation":667,"pla":668,"ale":669,"mar":670,"end":671,"ás":672,"men":673,"El":674,"In":675,"die":676,"zijn":677,"uit":678,"fi":679,"zo":680,"ali":681,"cia":682,"cas":683,"niet":684,"ée":685,"Le":686,"over":687,"era":688,"sen":689,"ada":690,"ins":691,"ist":692,"bli":693,"urs":694,"tie":695,"car":696,"mis":697,"fin":698,"mu":699,"ay":700,"has":701,"oun":702,"ber":703,"can":704,"gi":705,"cial":706,"én":707,"más":708,"cer":709,"sta":710,"gu":711,"ld":712,"bo":713,"cht":714,"tions":715,"ux":716,"wer":717,"mer":718,"one":719,"ante":720,"ek":721,"ak":722,"ste":723,"ik":724,"als":725,"gh":726,"port":727,"pen":728,"br":729,"inter":730,"plus":731,"cal":732,"her":733,"jo":734,"cre":735,"vol":736,"ple":737,"cr":738,"ér":739,"sch":740,"lar":741,"19":742,"cent":743,"ard":744,"vis":745,"elle":746,"ien":747,"mes":748,"nu":749,"ando":750,"esta":751,"ook":752,"dr":753,"za":754,"his":755,"Al":756,"mon":757,"dos":758,"este":759,"have":760,"ès":761,"said":762,"gel":763,"parti":764,"án":765,"person":766,"aux":767,"ses":768,"bij":769,"mp":770,"ck":771,"ion":772,"don":773,"ient":774,"ica":775,"tor":776,"ang":777,"wel":778,"vec":779,"ba":780,"ity":781,"ciones":782,"entre":783,"mil":784,"ère":785,"cam":786,"by":787,"wh":788,"fer":789,"ves":790,"will":791,"ité":792,"ales":793,"ye":794,"lij":795,"ia":796,"ud":797,"ance":798,"hu":799,"ados":800,"land":801,"tro":802,"como":803,"mor":804,"sus":805,"cou":806,"vid":807,"ille":808,"from":809,"été":810,"not":811,"vel":812,"io":813,"ure":814,"day":815,"gan":816,"gar":817,"ben":818,"ina":819,"avec":820,"ind":821,"ques":822,"An":823,"mos":824,"ges":825,"ond":826,"but":827,"202":828,"ors":829,"maar":830,"poli":831,"dan":832,"Ch":833,"ijk":834,"idad":835,"mun":836,"its":837,"tes":838,"onder":839,"ob":840,"ger":841,"had":842,"añ":843,"bu":844,"ome":845,"fic":846,"col":847,"cho":848,"cha":849,"tien":850,"ann":851,"tri":852,"ande":853,"hab":854,"ise":855,"tin":856,"val":857,"ette":858,"Mar":859,"ido":860,"vir":861,"this":862,"eg":863,"ju":864,"ll":865,"ite":866,"able":867,"ction":868,"wo":869,"sion":870,"vers":871,"ach":872,"hor":873,"up":874,"cur":875,"fir":876,"ores":877,"vent":878,"pli":879,"Het":880,"nen":881,"ther":882,"nog":883,"ici":884,"ust":885,"wn":886,"sti":887,"door":888,"han":889,"heb":890,"cti":891,"medi":892,"str":893,".”":894,"posi":895,"waar":896,"”,":897,"ok":898,"you":899,"nes":900,"mé":901,"jour":902,"eft":903,"ong":904,"alle":905,"Fr":906,"mat":907,"tur":908,"Ne":909,"sont":910,"tar":911,"lijk":912,"ya":913,"uer":914,"part":915,"dur":916,"dit":917,"ens":918,"whi":919,"ding":920,"int":921,"pri":922,"produ":923,"aba":924,"bas":925,"mas":926,"og":927,"ys":928,"ero":929,"ide":930,"wat":931,"art":932,"ren":933,"get":934,"ambi":935,"rou":936,"iden":937,"their":938,"éta":939,"contr":940,"ep":941,"fo":942,"lle":943,"Il":944,"publi":945,"Les":946,"clu":947,"ais":948,"sin":949,"kom":950,"ele":951,"rij":952,"forma":953,"they":954,"hou":955,"ord":956,"ili":957,"dire":958,"minis":959,"pel":960,"ines":961,"tot":962,"Un":963,"hij":964,"naar":965,"Con":966,"ento":967,"ées":968,"»,":969,"sol":970,"prop":971,"ded":972,"No":973,"ents":974,"dad":975,"ame":976,"who":977,"voir":978,"ack":979,"ingen":980,"lan":981,"pré":982,"ión":983,"ita":984,"We":985,"cos":986,"He":987,"zi":988,"Th":989,"000":990,"elf":991,"if":992,"heeft":993,"igh":994,"ico":995,"fam":996,"ants":997,"cl":998,"been":999,"tij":1000,"year":1001,"ese":1002,"meer":1003,"eld":1004,"10":1005,"ence":1006,"od":1007,"Re":1008,"acti":1009,"ario":1010,"mais":1011,"Es":1012,"aut":1013,"aron":1014,"Par":1015,"gra":1016,"entes":1017,"antes":1018,"tres":1019,"mente":1020,"gro":1021,"bet":1022,").":1023,"prés":1024,"ally":1025,"ava":1026,"pon":1027,"eur":1028,"It":1029,"cen":1030,"près":1031,"fue":1032,"bar":1033,"um":1034,"nos":1035,"king":1036,"sé":1037,"ople":1038,"ona":1039,"pi":1040,"ida":1041,"ner":1042,"ting":1043,"\",":1044,"ún":1045,"open":1046,"ks":1047,"Com":1048,"dig":1049,"Se":1050,"ast":1051,",”":1052,"cé":1053,"prim":1054,"ctor":1055,"sit":1056,"ght":1057,"ambién":1058,"tout":1059,"ker":1060,"time":1061,"ación":1062,"ments":1063,"sou":1064,"ders":1065,"more":1066,"now":1067,"kun":1068,"bel":1069,"puis":1070,"cette":1071,"ps":1072,"ana":1073,"reg":1074,"jaar":1075,"201":1076,"were":1077,"ano":1078,"ires":1079,"tel":1080,"mom":1081,"ets":1082,"dt":1083,"cis":1084,"sal":1085,"ats":1086,"moet":1087,"On":1088,"nie":1089,"cour":1090,"comp":1091,"arr":1092,"iste":1093,"kan":1094,"deux":1095,"nation":1096,"fait":1097,"ties":1098,"vie":1099,"Je":1100,"seg":1101,"ones":1102,"any":1103,"bien":1104,"pit":1105,"hebben":1106,"inst":1107,"how":1108,"dif":1109,"ies":1110,"premi":1111,"Rus":1112,"ident":1113,"tan":1114,"indi":1115,"also":1116,"ban":1117,"ador":1118,"pero":1119,"tos":1120,"sig":1121,"ede":1122,"Ar":1123,"iz":1124,"teur":1125,"trans":1126,"amos":1127,"about":1128,"people":1129,"ving":1130,"ég":1131,"may":1132,"vic":1133,"worden":1134,"bes":1135,"dag":1136,"eren":1137,"”.":1138,"organ":1139,"cto":1140,"mand":1141,"ras":1142,"aliz":1143,"inci":1144,"ty":1145,"),":1146,"años":1147,"age":1148,"tive":1149,"rap":1150,"adas":1151,"mb":1152,"new":1153,"ose":1154,"very":1155,"ris":1156,"way":1157,"As":1158,"ton":1159,"fun":1160,"low":1161,"daar":1162,"use":1163,"leur":1164,"mal":1165,"amente":1166,"ja":1167,"ning":1168,"tras":1169,"hel":1170,"ura":1171,"né":1172,"vier":1173,"spe":1174,"tou":1175,"sel":1176,"gram":1177,"ussi":1178,"vra":1179,"cri":1180,"être":1181,"30":1182,"kt":1183,"ort":1184,"bor":1185,"lie":1186,"kel":1187,"gens":1188,"Qu":1189,"which":1190,"jor":1191,"ême":1192,"prof":1193,"vant":1194,"hom":1195,"nous":1196,"qué":1197,"pé":1198,"cau":1199,"bus":1200,"lis":1201,"también":1202,"contin":1203,"có":1204,"cio":1205,"ph":1206,"tem":1207,"cla":1208,"ound":1209,"ier":1210,"ould":1211,"she":1212,"fil":1213,"coun":1214,"nom":1215,"ai":1216,"import":1217,"gt":1218,"sy":1219,"uur":1220,"plan":1221,"off":1222,"Ro":1223,"veel":1224,"would":1225,"jus":1226,"vin":1227,"Dat":1228,"rela":1229,"encia":1230,"cel":1231,"nue":1232,"está":1233,"erg":1234,"nou":1235,"vé":1236,"sobre":1237,"wordt":1238,"ate":1239,"Los":1240,"cional":1241,"cin":1242,"tir":1243,"jou":1244,"heid":1245,"15":1246,"pris":1247,"pañ":1248,"present":1249,"geen":1250,"Est":1251,"Co":1252,"Ik":1253,"situ":1254,"commun":1255,"week":1256,"some":1257,"traba":1258,"ils":1259,"zelf":1260,"milli":1261,"ings":1262,"ures":1263,"virus":1264,"udi":1265,"desde":1266,"2022":1267,"zich":1268,"red":1269,"derni":1270,"vor":1271,"pal":1272,"cep":1273,"soci":1274,"oor":1275,"tijd":1276,"rit":1277,"tique":1278,"led":1279,"faire":1280,"war":1281,"som":1282,"cuent":1283,"my":1284,"quel":1285,"mit":1286,"sup":1287,"ko":1288,"after":1289,"uel":1290,"était":1291,"dra":1292,"wij":1293,"ros":1294,"ende":1295,"sh":1296,"avait":1297,"comme":1298,"char":1299,"tic":1300,"nor":1301,"cul":1302,"ima":1303,"parte":1304,"sie":1305,"there":1306,"bal":1307,"ouver":1308,"actu":1309,"vous":1310,"place":1311,"Uni":1312,"av":1313,"ft":1314,"clar":1315,"sor":1316,"ree":1317,"conom":1318,"sto":1319,"nieu":1320,"hun":1321,"Eur":1322,"lé":1323,"when":1324,"alement":1325,"Por":1326,"oc":1327,"than":1328,"ait":1329,"tal":1330,"cir":1331,"pol":1332,"aussi":1333,"nel":1334,"tros":1335,"leg":1336,"ms":1337,"plo":1338,"tig":1339,"même":1340,"vac":1341,"tegen":1342,"ug":1343,"pes":1344,"even":1345,"vas":1346,"cción":1347,"try":1348,"ías":1349,"12":1350,"test":1351,"Po":1352,"play":1353,"work":1354,"pun":1355,"dom":1356,"ary":1357,"ff":1358,"twe":1359,"ran":1360,"\".":1361,"tour":1362,"cher":1363,"Des":1364,"tiene":1365,"ations":1366,"alis":1367,"vos":1368,"arios":1369,"To":1370,"jar":1371,"CO":1372,"anti":1373,"geb":1374,".\"":1375,"social":1376,"gres":1377,"Ce":1378,"zou":1379,"ved":1380,"Su":1381,"kunnen":1382,"50":1383,"ème":1384,"len":1385,"mic":1386,"ters":1387,"uni":1388,"bier":1389,"back":1390,"iento":1391,"endo":1392,"».":1393,"net":1394,"cy":1395,"bles":1396,"nat":1397,"amen":1398,"Ma":1399,"Ho":1400,"fuer":1401,"just":1402,"ische":1403,"dar":1404,"igen":1405,"nement":1406,"them":1407,"ual":1408,"ron":1409,"ino":1410,"après":1411,"tas":1412,"vit":1413,"anci":1414,"bil":1415,"tom":1416,"2020":1417,"ense":1418,"cause":1419,"acer":1420,"like":1421,"dre":1422,"Me":1423,"das":1424,"last":1425,"kra":1426,"much":1427,"Europ":1428,"main":1429,"inclu":1430,"ase":1431,"zen":1432,"rus":1433,"dus":1434,"tivo":1435,"muy":1436,"todo":1437,"resp":1438,"form":1439,"other":1440,"ds":1441,"jet":1442,"ick":1443,"weer":1444,"gun":1445,"tru":1446,"ade":1447,"gaan":1448,"jer":1449,"cono":1450,"program":1451,"Jo":1452,"paí":1453,"contre":1454,"esti":1455,"what":1456,"deze":1457,"Maar":1458,"act":1459,"sub":1460,"bat":1461,"down":1462,"mber":1463,"prom":1464,"mensen":1465,"Car":1466,"temp":1467,"úl":1468,"Na":1469,"tat":1470,"public":1471,"dere":1472,"famili":1473,"into":1474,"hay":1475,"18":1476,"gran":1477,"lin":1478,"gaat":1479,"wa":1480,"ará":1481,"alth":1482,"pare":1483,"inf":1484,"gas":1485,"win":1486,"ito":1487,"won":1488,"hal":1489,"jes":1490,"hasta":1491,"mid":1492,"esto":1493,"Mon":1494,"via":1495,"blij":1496,"state":1497,"últi":1498,"dent":1499,"Si":1500,"So":1501,"informa":1502,"first":1503,"año":1504,"cat":1505,"cli":1506,"cap":1507,"tif":1508,"core":1509,"erd":1510,"bon":1511,"two":1512,"wil":1513,"exper":1514,"jours":1515,"VI":1516,"tiem":1517,"fois":1518,"ini":1519,"lig":1520,"goed":1521,"dro":1522,"ear":1523,"depuis":1524,"ath":1525,"proble":1526,"espe":1527,"fici":1528,"contra":1529,"Neder":1530,"vre":1531,"autor":1532,"11":1533,"2021":1534,"avoir":1535,"blo":1536,"pop":1537,"mee":1538,"cle":1539,"cus":1540,"kken":1541,"vez":1542,"come":1543,"komen":1544,"trou":1545,"personas":1546,"aga":1547,"equi":1548,"14":1549,"Be":1550,"him":1551,"cias":1552,"expli":1553,"vil":1554,"200":1555,"ori":1556,"resul":1557,"olog":1558,"peu":1559,"fore":1560,"reci":1561,"lui":1562,"ior":1563,"long":1564,"Fran":1565,"your":1566,"servi":1567,"dam":1568,"comple":1569,"stand":1570,"hora":1571,"donde":1572,"ign":1573,"titu":1574,"porte":1575,"san":1576,"werd":1577,"partici":1578,"uti":1579,"side":1580,"termin":1581,"vide":1582,"eron":1583,"local":1584,"cuando":1585,"moment":1586,"Ju":1587,"bur":1588,"gelijk":1589,"could":1590,"zien":1591,"conf":1592,"Bo":1593,"stru":1594,"ister":1595,"udad":1596,"Een":1597,"sp":1598,"zar":1599,"adi":1600,"pital":1601,"ily":1602,"San":1603,"ced":1604,"corona":1605,"gener":1606,"chan":1607,"lit":1608,"maak":1609,"arri":1610,"tain":1611,"tric":1612,"hist":1613,"ned":1614,"ler":1615,"pays":1616,"proces":1617,"old":1618,"organis":1619,"rent":1620,"eten":1621,"veau":1622,"ied":1623,"princi":1624,"atten":1625,"most":1626,"cted":1627,"16":1628,"Lo":1629,"This":1630,"très":1631,"For":1632,"But":1633,"ight":1634,"ging":1635,"trat":1636,"put":1637,"Pour":1638,"Min":1639,"ían":1640,"Go":1641,"ista":1642,"jun":1643,"grou":1644,"haar":1645,"hand":1646,"ful":1647,"dio":1648,"Sa":1649,"ches":1650,"hos":1651,"ares":1652,"Tru":1653,"bra":1654,"idente":1655,"isse":1656,"pag":1657,"bierno":1658,"inves":1659,"oot":1660,"25":1661,"Wh":1662,"Is":1663,"ères":1664,"under":1665,"inte":1666,"porque":1667,"fran":1668,"recor":1669,"bou":1670,"lation":1671,"13":1672,"pren":1673,"Mais":1674,"Mo":1675,"show":1676,"fu":1677,"Nederland":1678,"Pro":1679,"rough":1680,"mill":1681,"pande":1682,"íti":1683,"uno":1684,"VID":1685,"úbli":1686,"neces":1687,"non":1688,"med":1689,"team":1690,"24":1691,"teurs":1692,"tent":1693,"dien":1694,"want":1695,"Er":1696,"inde":1697,"gion":1698,"17":1699,"mie":1700,"quien":1701,"tant":1702,"Lu":1703,"dijo":1704,"amiento":1705,"ry":1706,"COVID":1707,"lang":1708,"auto":1709,"idades":1710,"zit":1711,"lors":1712,"nues":1713,"super":1714,"ass":1715,"nombre":1716,"aria":1717,"peti":1718,"Amer":1719,"otros":1720,"cada":1721,"hacer":1722,"prend":1723,"var":1724,"zoek":1725,"clus":1726,"adores":1727,"let":1728,"New":1729,"iss":1730,"gent":1731,"día":1732,"conse":1733,"Las":1734,"scho":1735,"gover":1736,"todos":1737,"Au":1738,"ues":1739,"kw":1740,"idos":1741,"werk":1742,"line":1743,"Et":1744,"vida":1745,"Li":1746,"Gu":1747,"pat":1748,"país":1749,"peut":1750,"bla":1751,"fon":1752,"hier":1753,"inten":1754,"ison":1755,"lic":1756,"quer":1757,"allen":1758,"gre":1759,"pan":1760,"ink":1761,"bro":1762,"mbre":1763,"pou":1764,"sing":1765,"ena":1766,"fri":1767,"sera":1768,"velop":1769,"prob":1770,"being":1771,"aten":1772,"national":1773,"encore":1774,"autres":1775,"temps":1776,"mismo":1777,"fac":1778,"ged":1779,"real":1780,"zon":1781,"total":1782,"fut":1783,"hing":1784,"Bel":1785,"best":1786,"through":1787,"top":1788,"ert":1789,"puede":1790,"gin":1791,"lot":1792,"cios":1793,"ín":1794,"zet":1795,"imp":1796,"maal":1797,"sans":1798,"twee":1799,"dol":1800,"comun":1801,"only":1802,"well":1803,"chten":1804,"Trump":1805,"nment":1806,"enti":1807,"tech":1808,"need":1809,"durante":1810,"ture":1811,"face":1812,"lec":1813,"realiz":1814,"while":1815,"primer":1816,"where":1817,"amp":1818,"leurs":1819,"ato":1820,"trois":1821,"profes":1822,"ño":1823,"mejor":1824,"ander":1825,"many":1826,"andere":1827,"estos":1828,"doen":1829,"coup":1830,"cré":1831,"labor":1832,"did":1833,"til":1834,"police":1835,"stra":1836,"ular":1837,"Pr":1838,"ala":1839,"trava":1840,"également":1841,"respe":1842,"mayor":1843,"jue":1844,"moeten":1845,"during":1846,"possi":1847,"Une":1848,"fé":1849,"mag":1850,"yo":1851,"ête":1852,"years":1853,"cro":1854,"uk":1855,"And":1856,"every":1857,"solo":1858,"miento":1859,"ene":1860,"nam":1861,"Can":1862,"sla":1863,"ore":1864,"Van":1865,"lun":1866,"pués":1867,"avant":1868,"consu":1869,"senti":1870,"conta":1871,"secon":1872,"mijn":1873,"où":1874,"coronavirus":1875,"ciudad":1876,"look":1877,"deel":1878,"millones":1879,"cation":1880,"maken":1881,"Di":1882,"Daar":1883,"eigen":1884,"están":1885,"weg":1886,"premier":1887,"club":1888,"ppen":1889,"make":1890,"gé":1891,"heel":1892,"final":1893,"krij":1894,"thing":1895,"bin":1896,"see":1897,"wen":1898,"chos":1899,"dia":1900,"quar":1901,"econom":1902,"identi":1903,"same":1904,"équi":1905,"zal":1906,"ason":1907,"hoe":1908,"monde":1909,"incre":1910,"istas":1911,"az":1912,"ling":1913,"insi":1914,"because":1915,"lea":1916,"nieuwe":1917,"cra":1918,"ood":1919,"concer":1920,"confir":1921,"él":1922,"say":1923,"Ser":1924,"pend":1925,"sed":1926,"cons":1927,"moins":1928,"going":1929,"emos":1930,"gén":1931,"eu":1932,"2019":1933,"ça":1934,"ward":1935,"xi":1936,"know":1937,"vari":1938,"ating":1939,"har":1940,"enne":1941,"tribu":1942,"event":1943,"ley":1944,"anda":1945,"eer":1946,"fect":1947,"ern":1948,"laat":1949,"mission":1950,"ket":1951,"set":1952,"tiva":1953,"dou":1954,"40":1955,"tus":1956,"lement":1957,"kend":1958,"100":1959,"Cor":1960,"ités":1961,"dont":1962,"toe":1963,"tiempo":1964,"cado":1965,"cours":1966,"ieurs":1967,"Pres":1968,"señ":1969,"erste":1970,"presidente":1971,"condi":1972,"before":1973,"ory":1974,"lugar":1975,"aire":1976,"euros":1977,"ables":1978,"Die":1979,"vrij":1980,"Col":1981,"sido":1982,"ough":1983,"ijf":1984,"ration":1985,"shou":1986,"cil":1987,"Als":1988,"clos":1989,"those":1990,"ace":1991,"home":1992,"omen":1993,"komt":1994,"sure":1995,"iso":1996,"cta":1997,"22":1998,"Man":1999,"mul":2000,"fen":2001,"clas":2002,"sep":2003,"tous":2004,"offi":2005,"tener":2006,"cambi":2007,"huis":2008,"point":2009,"eens":2010,"stat":2011,"ustr":2012,"présent":2013,"empres":2014,"site":2015,"grand":2016,"podr":2017,"star":2018,"four":2019,"seman":2020,"demás":2021,"toch":2022,"France":2023,"atta":2024,"government":2025,"hip":2026,"annon":2027,"esa":2028,"school":2029,"Mi":2030,"zor":2031,"health":2032,"iones":2033,"help":2034,"venir":2035,"fort":2036,"own":2037,"momento":2038,"mois":2039,"mus":2040,"ministra":2041,"Or":2042,"bili":2043,"She":2044,"estar":2045,"illa":2046,"hace":2047,"repor":2048,"ique":2049,"energ":2050,"read":2051,"opé":2052,"Ze":2053,"fem":2054,"Ex":2055,"ief":2056,"candi":2057,"should":2058,"made":2059,"constru":2060,"against":2061,"ish":2062,"esper":2063,"jà":2064,"stud":2065,"perio":2066,"month":2067,"21":2068,"inv":2069,"ció":2070,"políti":2071,"avan":2072,"viol":2073,"obje":2074,"respon":2075,"Dans":2076,"dy":2077,"keer":2078,"continu":2079,"take":2080,"ws":2081,"zación":2082,"année":2083,"ball":2084,"tó":2085,"accor":2086,"solu":2087,"cteur":2088,"ché":2089,"Vol":2090,"tle":2091,"US":2092,"así":2093,"mient":2094,"colle":2095,"high":2096,"tér":2097,"embar":2098,"ani":2099,"arm":2100,"ville":2101,"emplo":2102,"respons":2103,"lado":2104,"Nous":2105,"rele":2106,"action":2107,"dó":2108,"arse":2109,"tran":2110,"bol":2111,"guer":2112,"cual":2113,"staat":2114,"fal":2115,"pra":2116,"Op":2117,"eden":2118,"ige":2119,"hele":2120,"prote":2121,"fel":2122,"Te":2123,"días":2124,"ix":2125,"nal":2126,"después":2127,"zegt":2128,"anten":2129,"Cent":2130,"care":2131,"lla":2132,"déjà":2133,"Sta":2134,"Sin":2135,"kes":2136,"later":2137,"then":2138,"pati":2139,"lí":2140,"zie":2141,"président":2142,"personnes":2143,"Oek":2144,"jan":2145,"vés":2146,"maakt":2147,"gouver":2148,"oper":2149,"regis":2150,"suc":2151,"Fe":2152,"Ook":2153,"Oekra":2154,"eerste":2155,"fol":2156,"beau":2157,"centr":2158,"kon":2159,"Hij":2160,"ícu":2161,"gele":2162,"woon":2163,"rece":2164,"isten":2165,"Bar":2166,"públi":2167,"politie":2168,"60":2169,"log":2170,"ños":2171,"médi":2172,"film":2173,"dió":2174,"still":2175,"Ver":2176,"ref":2177,"Br":2178,"Seg":2179,"sent":2180,"dernier":2181,"Wat":2182,"encuent":2183,"pasado":2184,"eso":2185,"algun":2186,"Ha":2187,"hem":2188,"bru":2189,"geven":2190,"Inter":2191,"houden":2192,"había":2193,"these":2194,"Gr":2195,"decis":2196,"position":2197,"mir":2198,"istes":2199,"iets":2200,"chter":2201,"nacional":2202,"media":2203,"sous":2204,"primera":2205,"kin":2206,"Cu":2207,"three":2208,"crim":2209,"gebru":2210,"isch":2211,"certa":2212,"segu":2213,"condu":2214,"They":2215,"abr":2216,"volu":2217,"érie":2218,"habit":2219,"baar":2220,"dial":2221,"première":2222,"table":2223,"tura":2224,"Zo":2225,"ara":2226,"aura":2227,"mó":2228,"hui":2229,"lieu":2230,"áti":2231,"echt":2232,"mento":2233,"ped":2234,"donc":2235,"Ge":2236,"alleen":2237,"ked":2238,"23":2239,"Da":2240,"ald":2241,"Ukra":2242,"appro":2243,"Además":2244,"rest":2245,"change":2246,"tiga":2247,"issu":2248,"ama":2249,"ctions":2250,"sema":2251,"Met":2252,"tell":2253,"segur":2254,"geme":2255,"tiques":2256,"munici":2257,"ministre":2258,"mble":2259,"atre":2260,"bedr":2261,"eter":2262,"prise":2263,"rio":2264,"right":2265,"oi":2266,"plusieurs":2267,"alors":2268,"eff":2269,"cuenta":2270,"fér":2271,"lijke":2272,"toujours":2273,"hed":2274,"mujer":2275,"estas":2276,"ka":2277,"diri":2278,"stre":2279,"extra":2280,"Oekraï":2281,"especial":2282,"caso":2283,"wi":2284,"pay":2285,"stitu":2286,"euro":2287,"Don":2288,"air":2289,"hn":2290,"cue":2291,"tex":2292,"maand":2293,",\"":2294,"ui":2295,"ints":2296,"cases":2297,"segun":2298,"autre":2299,"trabaj":2300,"wan":2301,"jam":2302,"human":2303,"elles":2304,"ainsi":2305,"dido":2306,"favor":2307,"menos":2308,"ather":2309,"president":2310,"Mé":2311,"particu":2312,"Nor":2313,"onge":2314,"ical":2315,"aller":2316,"country":2317,"Tr":2318,"ctos":2319,"achter":2320,"says":2321,"Pre":2322,"good":2323,"vices":2324,"Europe":2325,"proye":2326,"suite":2327,"schap":2328,"horas":2329,"terug":2330,"At":2331,"tienen":2332,"cier":2333,"memb":2334,"sive":2335,"Pero":2336,"rec":2337,"times":2338,"Per":2339,"chil":2340,"match":2341,"Of":2342,"deci":2343,"partir":2344,"tussen":2345,"uego":2346,"tanto":2347,"demand":2348,"leven":2349,"forme":2350,"érica":2351,"permet":2352,"paña":2353,"million":2354,"Cas":2355,"xim":2356,"dition":2357,"agu":2358,"lt":2359,"selon":2360,"sex":2361,"eds":2362,"gente":2363,"illi":2364,"Ap":2365,"pandemic":2366,"unque":2367,"expe":2368,"pue":2369,"possible":2370,"ican":2371,"Ben":2372,"adre":2373,"27":2374,"80":2375,"ost":2376,"ot":2377,"chi":2378,"estado":2379,"There":2380,"control":2381,"chez":2382,"Ri":2383,"aug":2384,"popu":2385,"Ale":2386,"Sal":2387,"notre":2388,"deren":2389,"ahora":2390,"amer":2391,"procent":2392,"date":2393,"volgens":2394,"trabajo":2395,"dru":2396,"gue":2397,"amb":2398,"game":2399,"hecho":2400,"busines":2401,"equipo":2402,"gol":2403,"sho":2404,"laten":2405,"stem":2406,"Fin":2407,"cris":2408,"hard":2409,"view":2410,"due":2411,"start":2412,"dens":2413,"propos":2414,"oria":2415,"sector":2416,"arrol":2417,"Este":2418,"nex":2419,"around":2420,"orig":2421,"provin":2422,"Covid":2423,"candidat":2424,"atie":2425,"hon":2426,"pró":2427,"Af":2428,"dades":2429,"viron":2430,"zó":2431,"aseg":2432,"Qué":2433,"rien":2434,"minut":2435,"grote":2436,"less":2437,"rol":2438,"prix":2439,"enf":2440,"head":2441,"does":2442,"otro":2443,"cele":2444,"acuer":2445,"ater":2446,"omdat":2447,"Elle":2448,"zij":2449,"China":2450,"kle":2451,"nada":2452,"déclar":2453,"trop":2454,"water":2455,"26":2456,"Voor":2457,"bert":2458,"justi":2459,"situation":2460,"conoci":2461,"You":2462,"toda":2463,"ham":2464,"sea":2465,"Ukraine":2466,"fueron":2467,"gru":2468,"zeg":2469,"illeurs":2470,"amment":2471,"ôt":2472,"ième":2473,"ible":2474,"If":2475,"rem":2476,"els":2477,"ctive":2478,"enten":2479,"world":2480,"tempor":2481,"hol":2482,"vient":2483,"train":2484,"anger":2485,"28":2486,"sour":2487,"kil":2488,"cès":2489,"ata":2490,"poten":2491,"John":2492,"ls":2493,"such":2494,"run":2495,"vision":2496,"Cette":2497,"uso":2498,"según":2499,"eri":2500,"eta":2501,"bit":2502,"partido":2503,"Pe":2504,"velle":2505,"soit":2506,"dri":2507,"quier":2508,"toute":2509,"importante":2510,"ismo":2511,"toire":2512,"sui":2513,"ject":2514,"gouvernement":2515,"result":2516,"Gen":2517,"mel":2518,"erde":2519,"life":2520,"olo":2521,"mundo":2522,"onze":2523,"ijke":2524,"lor":2525,"difer":2526,"think":2527,"sant":2528,"docu":2529,"début":2530,"dollar":2531,"hy":2532,"encontr":2533,"fron":2534,"vrou":2535,"mucho":2536,"expres":2537,"waren":2538,"gon":2539,"rés":2540,"sche":2541,"represent":2542,"manera":2543,"jug":2544,"nationale":2545,"tage":2546,"acces":2547,"book":2548,"atur":2549,"Minister":2550,"70":2551,"minu":2552,"experien":2553,"prendre":2554,"embargo":2555,"second":2556,"caus":2557,"spo":2558,"ope":2559,"follow":2560,"opera":2561,"service":2562,"PS":2563,"bé":2564,"sc":2565,"snel":2566,"versch":2567,"wereld":2568,"financi":2569,"company":2570,"Hu":2571,"née":2572,"ello":2573,"Ni":2574,"pt":2575,"pie":2576,"report":2577,"question":2578,"since":2579,"señal":2580,"porta":2581,"lleg":2582,"ames":2583,"pourra":2584,"nuevo":2585,"mple":2586,"regi":2587,"administra":2588,"That":2589,"elen":2590,"itaire":2591,"agen":2592,"poco":2593,"season":2594,"Para":2595,"500":2596,"cn":2597,"consi":2598,"institu":2599,"tement":2600,"lè":2601,"redu":2602,"isla":2603,"crit":2604,"NA":2605,"jur":2606,"Gobierno":2607,"altijd":2608,"Univers":2609,"gest":2610,"veh":2611,"binnen":2612,"tical":2613,"Bu":2614,"puesto":2615,"será":2616,"semana":2617,"Dit":2618,"minder":2619,"support":2620,"investiga":2621,"witter":2622,"cab":2623,"Sur":2624,"sión":2625,"millions":2626,"Mor":2627,"Du":2628,"poder":2629,"vu":2630,"beeld":2631,"important":2632,"video":2633,"geno":2634,"Val":2635,"prij":2636,"signi":2637,"Sou":2638,"family":2639,"faut":2640,"années":2641,"kelijk":2642,"Ste":2643,"spel":2644,"jusqu":2645,"vice":2646,"hoog":2647,"autom":2648,"Am":2649,"mogelijk":2650,"cran":2651,"direct":2652,"din":2653,"tivos":2654,"eno":2655,"gement":2656,"hoy":2657,"ways":2658,"ester":2659,"recu":2660,"ards":2661,"Whi":2662,"May":2663,"mpre":2664,"algo":2665,"came":2666,"cía":2667,"fis":2668,"samen":2669,"Mun":2670,"eje":2671,"kaar":2672,"cela":2673,"nivel":2674,"90":2675,"vou":2676,"toen":2677,"paci":2678,"fica":2679,"ances":2680,"Ci":2681,"mij":2682,"cación":2683,"emple":2684,"differ":2685,"zonder":2686,"éli":2687,"resta":2688,"acuerdo":2689,"including":2690,"big":2691,"personal":2692,"junto":2693,"base":2694,"Dan":2695,"ween":2696,"tuvo":2697,"ki":2698,"kla":2699,"inici":2700,"visit":2701,"apo":2702,"got":2703,"nouveau":2704,"atro":2705,"gewoon":2706,"environ":2707,"appel":2708,"Mad":2709,"Coun":2710,"far":2711,"plaats":2712,"tier":2713,"grande":2714,"zoals":2715,"Twitter":2716,"génér":2717,"weten":2718,"allow":2719,"middel":2720,"Son":2721,"declar":2722,"espa":2723,"2023":2724,"minister":2725,"next":2726,"pir":2727,"pur":2728,"jeu":2729,"équipe":2730,"29":2731,"turn":2732,"official":2733,"moe":2734,"glo":2735,"alité":2736,"conver":2737,"services":2738,"mientras":2739,"Ra":2740,"tele":2741,"teit":2742,"manif":2743,"app":2744,"techn":2745,"ated":2746,"rá":2747,"aciones":2748,"desarrol":2749,"rad":2750,"orden":2751,"reven":2752,"notamment":2753,"ciales":2754,"desta":2755,"chef":2756,"call":2757,"sac":2758,"anal":2759,"crisis":2760,"days":2761,"vind":2762,"lier":2763,"six":2764,"ster":2765,"ork":2766,"oud":2767,"chte":2768,"major":2769,"ports":2770,"ready":2771,"death":2772,"terior":2773,"staan":2774,"circu":2775,"35":2776,"urt":2777,"wever":2778,"ased":2779,"told":2780,"afe":2781,"Pla":2782,"law":2783,"2018":2784,"entr":2785,"gebruik":2786,"St":2787,"quelques":2788,"fig":2789,"vuel":2790,"sions":2791,"antal":2792,"brand":2793,"geld":2794,"Mr":2795,"Mac":2796,"seu":2797,"jaren":2798,"sle":2799,"front":2800,"milit":2801,"vri":2802,"procha":2803,"icos":2804,"current":2805,"cet":2806,"là":2807,"really":2808,"ví":2809,"unes":2810,"ates":2811,"general":2812,"Ad":2813,"medio":2814,"spre":2815,"gobierno":2816,"points":2817,"individ":2818,"lio":2819,"begin":2820,"iller":2821,"tt":2822,"ars":2823,"través":2824,"dez":2825,"osten":2826,"ellement":2827,"ña":2828,"pers":2829,"appe":2830,"between":2831,"vraag":2832,"nouvelle":2833,"obli":2834,"number":2835,"Nacional":2836,"oog":2837,"beaucoup":2838,"estudi":2839,"director":2840,"rond":2841,"cole":2842,"both":2843,"asegur":2844,"credi":2845,"benef":2846,"ming":2847,"territ":2848,"Sel":2849,"willen":2850,"enga":2851,"Ban":2852,"Biden":2853,"band":2854,"break":2855,"cing":2856,"anim":2857,"edad":2858,"edu":2859,"anos":2860,"ator":2861,"ries":2862,"buil":2863,"used":2864,"gers":2865,"lación":2866,"además":2867,"ror":2868,"soir":2869,"drie":2870,"lock":2871,"recent":2872,"onderzoek":2873,"gez":2874,"steeds":2875,"ral":2876,"pueden":2877,"initi":2878,"princip":2879,"Una":2880,"gos":2881,"indus":2882,"cru":2883,"ney":2884,"elec":2885,"inform":2886,"unt":2887,"inds":2888,"actual":2889,"zas":2890,"lack":2891,"pic":2892,"tradi":2893,"conna":2894,"oit":2895,"partie":2896,"siempre":2897,"tives":2898,"ids":2899,"post":2900,"teg":2901,"cies":2902,"volgen":2903,"bir":2904,"cit":2905,"krijgen":2906,"ór":2907,"gelopen":2908,"Jus":2909,"travail":2910,"ène":2911,"debe":2912,"rez":2913,"tera":2914,"cover":2915,"case":2916,"niveau":2917,"ross":2918,"También":2919,"Do":2920,"anun":2921,"prises":2922,"Jan":2923,"fra":2924,"gir":2925,"xico":2926,"uses":2927,"Jos":2928,"mers":2929,"éle":2930,"isme":2931,"projet":2932,"nieuw":2933,"élec":2934,"secre":2935,"tió":2936,"situación":2937,"çais":2938,"inien":2939,"ellos":2940,"estre":2941,"cô":2942,"partij":2943,"strij":2944,"tido":2945,"nent":2946,"ús":2947,"haber":2948,"cómo":2949,"registr":2950,"seguridad":2951,"logr":2952,"zeker":2953,"truct":2954,"devra":2955,"stad":2956,"recei":2957,"soli":2958,"continue":2959,"ah":2960,"uren":2961,"another":2962,"inclus":2963,"nove":2964,"mise":2965,"pens":2966,"Dur":2967,"aires":2968,"keep":2969,"Ber":2970,"deli":2971,"opt":2972,"aange":2973,"mocra":2974,"atr":2975,"destin":2976,"mettre":2977,"bres":2978,"Dis":2979,"kre":2980,"funcion":2981,"mode":2982,"Char":2983,"Según":2984,"zona":2985,"persona":2986,"manche":2987,"eel":2988,"fla":2989,"luego":2990,"vendre":2991,"groupe":2992,"México":2993,"aunque":2994,"sage":2995,"President":2996,"lus":2997,"ío":2998,"asse":2999,"otras":3000,"zul":3001,"force":3002,"invest":3003,"pp":3004,"ences":3005,"Europa":3006,"iday":3007,"31":3008,"jó":3009,"contact":3010,"commen":3011,"région":3012,"llegar":3013,"information":3014,"meses":3015,"defin":3016,"Friday":3017,"uiten":3018,"gui":3019,"jourd":3020,"avons":3021,"deb":3022,"too":3023,"todas":3024,"offer":3025,"ith":3026,"gique":3027,"nueva":3028,"Ac":3029,"Em":3030,"ess":3031,"conó":3032,"multi":3033,"économ":3034,"tely":3035,"coming":3036,"web":3037,"York":3038,"doit":3039,"Bij":3040,"vr":3041,"dige":3042,"meet":3043,"utilis":3044,"chts":3045,"ami":3046,"bour":3047,"hen":3048,"otra":3049,"inos":3050,"SA":3051,"ware":3052,"lever":3053,"voit":3054,"deral":3055,"bie":3056,"infe":3057,"déclaré":3058,"pho":3059,"différ":3060,"ancia":3061,"abil":3062,"Esta":3063,"deman":3064,"gs":3065,"Vi":3066,"yer":3067,"wed":3068,"sab":3069,"develop":3070,"former":3071,"Tur":3072,"vast":3073,"casa":3074,"Selon":3075,"few":3076,"étaient":3077,"Ils":3078,"consider":3079,"comen":3080,"España":3081,"CA":3082,"unos":3083,"Oekraïne":3084,"Den":3085,"here":3086,"lon":3087,"idas":3088,"Sun":3089,"algunos":3090,"Net":3091,"Nation":3092,"ella":3093,"ety":3094,"ams":3095,"sociales":3096,"orde":3097,"jamais":3098,"eral":3099,"community":3100,"blis":3101,"tipo":3102,"dente":3103,"tijdens":3104,"TV":3105,"laire":3106,"aban":3107,"salud":3108,"américa":3109,"mpli":3110,"obser":3111,"laatste":3112,"45":3113,"clear":3114,"cun":3115,"ocu":3116,"erta":3117,"elijk":3118,"univers":3119,"estaba":3120,"alter":3121,"mentos":3122,"simple":3123,"ague":3124,"night":3125,"rup":3126,"politique":3127,"ailleurs":3128,"Mc":3129,"fre":3130,"ez":3131,"natuur":3132,"ximo":3133,"added":3134,"bec":3135,"Rusland":3136,"ajou":3137,"bajo":3138,"ural":3139,"tenido":3140,"Après":3141,"aal":3142,"pouvoir":3143,"dado":3144,"saison":3145,"faci":3146,"compli":3147,"vio":3148,"werken":3149,"Estados":3150,"different":3151,"étu":3152,"blijven":3153,"kwam":3154,"Mer":3155,"ofi":3156,"porté":3157,"tendr":3158,"ctu":3159,"llen":3160,"Russ":3161,"één":3162,"atri":3163,"jeudi":3164,"serie":3165,"friend":3166,"near":3167,"sten":3168,"llev":3169,"sever":3170,"efe":3171,"êt":3172,"heure":3173,"leid":3174,"business":3175,"Sch":3176,"online":3177,"succes":3178,"Dr":3179,"dor":3180,"bras":3181,"half":3182,"ON":3183,"ions":3184,"rea":3185,"vidad":3186,"permi":3187,"agr":3188,"past":3189,"centre":3190,"ísti":3191,"esp":3192,"fans":3193,"semaine":3194,"voer":3195,"bun":3196,"nis":3197,"ctif":3198,"quand":3199,"mercredi":3200,"199":3201,"rapport":3202,"dernière":3203,"Cam":3204,"liz":3205,"belan":3206,"bedrijf":3207,"aver":3208,"joen":3209,"valu":3210,"iment":3211,"emer":3212,"%.":3213,"Ter":3214,"réalis":3215,"market":3216,"city":3217,"hit":3218,"rid":3219,"grandes":3220,"Her":3221,"edi":3222,"ocur":3223,"rom":3224,"casos":3225,"econó":3226,"vul":3227,"uro":3228,"crimin":3229,"compañ":3230,"cuatro":3231,"homme":3232,"ases":3233,"chang":3234,"dimanche":3235,"oft":3236,"announ":3237,"Unidos":3238,"nú":3239,"sí":3240,"fense":3241,"commer":3242,"mardi":3243,"power":3244,"dévelop":3245,"Asi":3246,"hizo":3247,"lundi":3248,"self":3249,"acci":3250,"weet":3251,"Poli":3252,"Premi":3253,"nad":3254,"happen":3255,"vée":3256,"suis":3257,"exten":3258,"mani":3259,"key":3260,"move":3261,"muchos":3262,"vendredi":3263,"siste":3264,"feel":3265,"defen":3266,"lead":3267,"compag":3268,"great":3269,"Mos":3270,"luit":3271,"mostr":3272,"impact":3273,"Mal":3274,"lais":3275,"enter":3276,"Argent":3277,"Sen":3278,"exp":3279,"concern":3280,"State":3281,"II":3282,"appli":3283,"ruim":3284,"compte":3285,"Vla":3286,"communi":3287,"Face":3288,"alles":3289,"constitu":3290,"miljoen":3291,"reported":3292,"ago":3293,"each":3294,"gros":3295,"ub":3296,"across":3297,"job":3298,"quis":3299,"illes":3300,"CE":3301,"jari":3302,"Pas":3303,"prove":3304,"restaur":3305,"wee":3306,"fur":3307,"uw":3308,"Estado":3309,"oport":3310,"muer":3311,"participa":3312,"gebe":3313,"afir":3314,"carr":3315,"level":3316,"dispon":3317,"aanse":3318,"Ab":3319,"vía":3320,"crania":3321,"West":3322,"cine":3323,"Russie":3324,"Ucrania":3325,"pron":3326,"working":3327,"seguir":3328,"EU":3329,"unidad":3330,"mia":3331,"bank":3332,"stock":3333,"bilidad":3334,"reste":3335,"cts":3336,"sécur":3337,"Pri":3338,"pose":3339,"alg":3340,"refer":3341,"tenir":3342,"promo":3343,"último":3344,"When":3345,"vallen":3346,"óg":3347,"ought":3348,"maat":3349,"comment":3350,"lares":3351,"ness":3352,"Gar":3353,"inté":3354,"cimiento":3355,"usu":3356,"actor":3357,"foto":3358,"proyecto":3359,"Ja":3360,"éti":3361,"Volgens":3362,"Austr":3363,"eux":3364,"’,":3365,"estad":3366,"principal":3367,"effet":3368,"Hou":3369,"requi":3370,"things":3371,"offici":3372,"vooral":3373,"autoridades":3374,"’.":3375,"uits":3376,"Saint":3377,"record":3378,"fli":3379,"onden":3380,"nemen":3381,"Chris":3382,"toutes":3383,"soon":3384,"rée":3385,"buiten":3386,"delen":3387,"quarter":3388,"argent":3389,"familia":3390,"côté":3391,"má":3392,"seront":3393,"organiz":3394,"hospital":3395,"Del":3396,"ila":3397,"quatre":3398,"nego":3399,"forman":3400,"oney":3401,"coles":3402,"foot":3403,"vien":3404,"jarige":3405,"decir":3406,"gesch":3407,"beter":3408,"sil":3409,"anders":3410,"porter":3411,"jeunes":3412,"eria":3413,"cido":3414,"dren":3415,"Conse":3416,"abri":3417,"late":3418,"nodig":3419,"samedi":3420,"Mu":3421,"Ré":3422,"bom":3423,"capital":3424,"voorbeeld":3425,"posible":3426,"spr":3427,"atis":3428,"ingo":3429,"nooit":3430,"alen":3431,"lag":3432,"though":3433,"effect":3434,"abili":3435,"without":3436,"estable":3437,"belie":3438,"ky":3439,"frente":3440,"ficul":3441,"eurs":3442,"manten":3443,"áb":3444,"lear":3445,"occas":3446,"xima":3447,"afin":3448,"sino":3449,"interven":3450,"news":3451,"númer":3452,"confi":3453,"body":3454,"interes":3455,"offic":3456,"ôle":3457,"verder":3458,"pendant":3459,"hour":3460,"assur":3461,"Ros":3462,"ously":3463,"atte":3464,"never":3465,"Apple":3466,"kers":3467,"elo":3468,"endre":3469,"called":3470,"deal":3471,"zitten":3472,"Sy":3473,"pus":3474,"zig":3475,"rière":3476,"geda":3477,"jos":3478,"kte":3479,"left":3480,"dir":3481,"idé":3482,"gré":3483,"members":3484,"ital":3485,"cont":3486,"chting":3487,"Jean":3488,"profession":3489,"alla":3490,"redes":3491,"ething":3492,"project":3493,"affir":3494,"distin":3495,"2017":3496,"gemaakt":3497,"mate":3498,"according":3499,"Bor":3500,"rac":3501,"tivas":3502,"dieron":3503,"Esto":3504,".’":3505,"City":3506,"Pau":3507,"retour":3508,"capac":3509,"Russische":3510,"Pu":3511,"recht":3512,"iser":3513,"quit":3514,"grad":3515,"partment":3516,"United":3517,"russe":3518,"quienes":3519,"grupo":3520,"FC":3521,"Was":3522,"gal":3523,"série":3524,"cionales":3525,"avaient":3526,"belangr":3527,"emp":3528,"bió":3529,"court":3530,"noti":3531,"septem":3532,"found":3533,"conser":3534,"vinden":3535,"stop":3536,"months":3537,"groot":3538,"estival":3539,"información":3540,"kind":3541,"yen":3542,"publique":3543,"enfants":3544,"One":3545,"kno":3546,"ijken":3547,"ined":3548,"afgelopen":3549,"dise":3550,"Mus":3551,"arán":3552,"ordin":3553,"zorg":3554,"AN":3555,"ilo":3556,"agua":3557,"Ke":3558,"aantal":3559,"eng":3560,"isation":3561,"atar":3562,"iedere":3563,"judi":3564,"thers":3565,"haal":3566,"course":3567,"shor":3568,"incen":3569,"contribu":3570,"votre":3571,"doel":3572,"casi":3573,"onds":3574,"blan":3575,"anza":3576,"tit":3577,"paro":3578,"valor":3579,"group":3580,"licit":3581,"Pa":3582,"devant":3583,"area":3584,"March":3585,"ën":3586,"trouver":3587,"neer":3588,"icación":3589,"house":3590,"something":3591,"arch":3592,"already":3593,"ingres":3594,"oles":3595,"semb":3596,"verk":3597,"Isra":3598,"guerre":3599,"ût":3600,"mental":3601,"ctie":3602,"coach":3603,"vista":3604,"ligne":3605,"proceso":3606,"Québec":3607,"away":3608,"sos":3609,"alcan":3610,"raz":3611,"comes":3612,"zelfs":3613,"Monday":3614,"75":3615,"Alle":3616,"annoncé":3617,"Amerik":3618,"ár":3619,"elkaar":3620,"oma":3621,"bekend":3622,"students":3623,".»":3624,"Tra":3625,"order":3626,"Mic":3627,"tief":3628,"veili":3629,"ny":3630,"wing":3631,"tenu":3632,"deuxième":3633,"oso":3634,"ciendo":3635,"conven":3636,"verse":3637,"data":3638,"zeggen":3639,"comer":3640,"provo":3641,"better":3642,"seen":3643,"accep":3644,"perman":3645,"certains":3646,"reli":3647,"historia":3648,"occu":3649,"pagne":3650,"analy":3651,"ners":3652,"until":3653,"Así":3654,"política":3655,"South":3656,"geste":3657,"spé":3658,"estra":3659,"extre":3660,"heures":3661,"cuer":3662,"frica":3663,"lunes":3664,"beste":3665,"dres":3666,"sum":3667,"zetten":3668,"region":3669,"adres":3670,"However":3671,"Gre":3672,"Ten":3673,"Vo":3674,"ying":3675,"zullen":3676,"crip":3677,"PC":3678,"ora":3679,"entra":3680,"jeune":3681,"nuestro":3682,"Bru":3683,"cito":3684,"divers":3685,"igual":3686,"hacia":3687,"woord":3688,"países":3689,"Alex":3690,"name":3691,"ólo":3692,"tation":3693,"actie":3694,"plaat":3695,"ientos":3696,"èrement":3697,"didn":3698,"FA":3699,"must":3700,"inet":3701,"genera":3702,"impu":3703,"Rusia":3704,"Brit":3705,"vijf":3706,"ane":3707,"mañ":3708,"acto":3709,"viernes":3710,"illet":3711,"puntos":3712,"With":3713,"vond":3714,"determin":3715,"dice":3716,"estu":3717,"pass":3718,"production":3719,"children":3720,"strijd":3721,"reun":3722,"progres":3723,"restric":3724,"certain":3725,"fire":3726,"hé":3727,"ists":3728,"déci":3729,"vehícu":3730,"Stat":3731,"Wel":3732,"went":3733,"eros":3734,"intér":3735,"adora":3736,"últimos":3737,"itos":3738,"ofd":3739,"Air":3740,"Om":3741,"Tor":3742,"arti":3743,"stor":3744,"datos":3745,"podría":3746,"conocer":3747,"vue":3748,"décis":3749,"boven":3750,"histoire":3751,"cinco":3752,"origin":3753,"puesta":3754,"hospit":3755,"took":3756,"aujourd":3757,"jas":3758,"potenti":3759,"version":3760,"neu":3761,"arias":3762,"nature":3763,"integr":3764,"enqu":3765,"mocr":3766,"phone":3767,"Dire":3768,"five":3769,"visión":3770,"idelijk":3771,"mujeres":3772,"minutes":3773,"Bro":3774,"gere":3775,"conclu":3776,"nuestra":3777,"resid":3778,"oorlog":3779,"helemaal":3780,"municip":3781,"kans":3782,"always":3783,"werden":3784,"County":3785,"Ces":3786,"Ger":3787,"ffer":3788,"rist":3789,"reco":3790,"frent":3791,"finale":3792,"Canada":3793,"kinderen":3794,"aurait":3795,"36":3796,"ative":3797,"adap":3798,"chas":3799,"gencia":3800,"rése":3801,"europé":3802,"Ph":3803,"celle":3804,"allemaal":3805,"materi":3806,"prior":3807,"cant":3808,"tí":3809,"trata":3810,"might":3811,"wal":3812,"français":3813,"mica":3814,"Cour":3815,"pace":3816,"metros":3817,"posición":3818,"occasion":3819,"Plus":3820,"Wor":3821,"bere":3822,"tard":3823,"bed":3824,"What":3825,"icas":3826,"voel":3827,"blijft":3828,"iter":3829,"making":3830,"acter":3831,"vait":3832,"series":3833,"augment":3834,"fiscal":3835,"34":3836,"bud":3837,"sci":3838,"lim":3839,"sáb":3840,"heden":3841,"imiento":3842,"addition":3843,"niets":3844,"eerder":3845,"energie":3846,"emo":3847,"live":3848,"pourrait":3849,"Black":3850,"Lig":3851,"taal":3852,"terdam":3853,"Mat":3854,"positive":3855,"activ":3856,"Hoe":3857,"raison":3858,"moi":3859,"Health":3860,"cualquier":3861,"Ca":3862,"utte":3863,"2016":3864,"cambio":3865,"mano":3866,"directeur":3867,"avi":3868,"sm":3869,"doet":3870,"fier":3871,"mañana":3872,"66":3873,"uda":3874,"cumpli":3875,"zaak":3876,"Thurs":3877,"programa":3878,"David":3879,"hop":3880,"opport":3881,"imos":3882,"pobla":3883,"based":3884,"celui":3885,"charge":3886,"General":3887,"vrouw":3888,"Bur":3889,"cop":3890,"lent":3891,"light":3892,"distribu":3893,"ministro":3894,"fonction":3895,"Hay":3896,"agres":3897,"nar":3898,"migr":3899,"While":3900,"agit":3901,"Entre":3902,"staff":3903,"model":3904,"Thursday":3905,"tek":3906,"vícti":3907,"aún":3908,"asi":3909,"veces":3910,"pression":3911,"éné":3912,"temper":3913,"afect":3914,"etje":3915,"Dé":3916,"Satur":3917,"quant":3918,"gence":3919,"toria":3920,"Cons":3921,"likel":3922,"denun":3923,"coura":3924,"curity":3925,"ukra":3926,"rum":3927,"précis":3928,"weeks":3929,"33":3930,"Pal":3931,"poner":3932,"número":3933,"My":3934,"varios":3935,"ray":3936,"tries":3937,"besch":3938,"Res":3939,"free":3940,"kijken":3941,"dagen":3942,"sécurité":3943,"sábado":3944,"ukrainien":3945,"Cha":3946,"Lou":3947,"nee":3948,"box":3949,"dentro":3950,"empresa":3951,"National":3952,"Cap":3953,"enor":3954,"tré":3955,"actions":3956,"suit":3957,"kele":3958,"election":3959,"famille":3960,"Nederlandse":3961,"hic":3962,"ice":3963,"sait":3964,"vaak":3965,"chaque":3966,"pril":3967,"meille":3968,"bia":3969,"hô":3970,"encias":3971,"centro":3972,"groe":3973,"comunic":3974,"Tues":3975,"audi":3976,"mars":3977,"All":3978,"villa":3979,"público":3980,"Madrid":3981,"aring":3982,"sement":3983,"rain":3984,"handel":3985,"particip":3986,"mado":3987,"ental":3988,"neur":3989,"tweede":3990,"ancien":3991,"sentido":3992,"employ":3993,"Avec":3994,"kop":3995,"rue":3996,"semble":3997,"ira":3998,"matin":3999,"cosas":4000,"money":4001,"parents":4002,"previ":4003,"alia":4004,"shares":4005,"early":4006,"Argentina":4007,"mont":4008,"lijkt":4009,"zes":4010,"duidelijk":4011,"Desde":4012,"Chi":4013,"jets":4014,"dese":4015,"oni":4016,"auth":4017,"acción":4018,"voy":4019,"vieron":4020,"Sunday":4021,"ril":4022,"cerca":4023,"prijs":4024,"likely":4025,"deber":4026,"oman":4027,"field":4028,"curso":4029,"pandemia":4030,"dólares":4031,"Tuesday":4032,"Fern":4033,"ever":4034,"limit":4035,"paar":4036,"naast":4037,"statement":4038,"janvier":4039,"compr":4040,"buen":4041,"basis":4042,"Saturday":4043,"coment":4044,"ager":4045,"Paris":4046,"izen":4047,"segundo":4048,"acom":4049,"percent":4050,"capaci":4051,"women":4052,"conne":4053,"ieur":4054,"proce":4055,"tenemos":4056,"beso":4057,"domingo":4058,"lopen":4059,"dem":4060,"télé":4061,"misma":4062,"Nu":4063,"vote":4064,"journal":4065,"population":4066,"DA":4067,"food":4068,"remain":4069,"challen":4070,"accus":4071,"Ru":4072,"enci":4073,"feu":4074,"Congres":4075,"normal":4076,"quent":4077,"why":4078,"Wil":4079,"regel":4080,"déce":4081,"corpor":4082,"plat":4083,"hombre":4084,"temporada":4085,"tje":4086,"compar":4087,"voet":4088,"discus":4089,"berg":4090,"ghts":4091,"Pen":4092,"fas":4093,"det":4094,"conside":4095,"Over":4096,"çon":4097,"quí":4098,"unca":4099,"terror":4100,"finan":4101,"zelfde":4102,"kr":4103,"tiz":4104,"rique":4105,"iendo":4106,"nouvel":4107,"future":4108,"IN":4109,"Tu":4110,"pand":4111,"retrou":4112,"noche":4113,"having":4114,"excep":4115,"gag":4116,"aliment":4117,"fus":4118,"along":4119,"quoi":4120,"toget":4121,"tax":4122,"opge":4123,"little":4124,"performan":4125,"moest":4126,"room":4127,"mandat":4128,"cherche":4129,"wacht":4130,"particular":4131,"technolog":4132,"Hol":4133,"fais":4134,"prepar":4135,"syst":4136,"influ":4137,"large":4138,"santé":4139,"together":4140,"Wed":4141,"ecu":4142,"leden":4143,"ched":4144,"halen":4145,"sistema":4146,"32":4147,"apare":4148,"pez":4149,"tenía":4150,"capit":4151,"passe":4152,"patients":4153,"Nig":4154,"mou":4155,"unas":4156,"prue":4157,"loc":4158,"give":4159,"bate":4160,"again":4161,"iken":4162,"mur":4163,"ël":4164,"impli":4165,"resol":4166,"tarde":4167,"tics":4168,"cs":4169,"vro":4170,"ceux":4171,"ird":4172,"hoofd":4173,"Deze":4174,"martes":4175,"ayud":4176,"cinq":4177,"empresas":4178,"eas":4179,"eken":4180,"ió":4181,"orge":4182,"today":4183,"competi":4184,"corre":4185,"ending":4186,"landen":4187,"300":4188,"Mas":4189,"argu":4190,"wijl":4191,"oficial":4192,"ony":4193,"acciones":4194,"protest":4195,"League":4196,"instru":4197,"sigue":4198,"%,":4199,"using":4200,"idea":4201,"ao":4202,"mad":4203,"doing":4204,"effe":4205,"endant":4206,"ís":4207,"enfrent":4208,"tige":4209,"solicit":4210,"mart":4211,"intent":4212,"full":4213,"diferentes":4214,"recuper":4215,"informó":4216,"bl":4217,"taken":4218,"99":4219,"fle":4220,"sau":4221,"associ":4222,"tée":4223,"Afri":4224,"return":4225,"atal":4226,"ércoles":4227,"oung":4228,"bijvoorbeeld":4229,"cks":4230,"aren":4231,"forces":4232,"198":4233,"Justi":4234,"international":4235,"servicio":4236,"andon":4237,"conditions":4238,"const":4239,"muchas":4240,"jueves":4241,"photo":4242,"demande":4243,"uis":4244,"Wednes":4245,"BC":4246,"nées":4247,"mail":4248,"décou":4249,"38":4250,"ric":4251,"abord":4252,"peque":4253,"provi":4254,"werkt":4255,"55":4256,"Cali":4257,"gio":4258,"Ali":4259,"dose":4260,"ureau":4261,"system":4262,"culture":4263,"iedereen":4264,"ature":4265,"licht":4266,"marché":4267,"mercado":4268,"kunt":4269,"prison":4270,"Jap":4271,"kker":4272,"asked":4273,"ijven":4274,"cade":4275,"miércoles":4276,"mark":4277,"juin":4278,"ensemble":4279,"leaders":4280,"dollars":4281,"Wednesday":4282,"ram":4283,"sinds":4284,"enfer":4285,"member":4286,"vement":4287,"cations":4288,"schien":4289,"suspen":4290,"relations":4291,"Che":4292,"hac":4293,"tación":4294,"serait":4295,"difficul":4296,"spread":4297,"bos":4298,"jon":4299,"km":4300,"tenant":4301,"bren":4302,"koop":4303,"celebra":4304,"document":4305,"once":4306,"iemand":4307,"volle":4308,"bouw":4309,"kilom":4310,"37":4311,"champ":4312,"haus":4313,"venue":4314,"punto":4315,"peuvent":4316,"respecto":4317,"consul":4318,"officials":4319,"Facebook":4320,"kl":4321,"nant":4322,"vamente":4323,"yp":4324,"État":4325,"españ":4326,"hether":4327,"objetivo":4328,"done":4329,"ition":4330,"estamos":4331,"mogen":4332,"Juan":4333,"American":4334,"décembre":4335,"ping":4336,"représent":4337,"legal":4338,"bilité":4339,"several":4340,"AM":4341,"Gro":4342,"Ou":4343,"find":4344,"groep":4345,"bri":4346,"ición":4347,"mains":4348,"global":4349,"DC":4350,"Pol":4351,"cabe":4352,"given":4353,"hadden":4354,"getting":4355,"domin":4356,"indelijk":4357,"taking":4358,"nea":4359,"résu":4360,"Unis":4361,"drag":4362,"celebr":4363,"kant":4364,"enton":4365,"vaccin":4366,"Joe":4367,"devrait":4368,"SE":4369,"inig":4370,"tron":4371,"niños":4372,"vig":4373,"ctores":4374,"mplo":4375,"justice":4376,"scen":4377,"œu":4378,"recom":4379,"bonne":4380,"geleden":4381,"announced":4382,"def":4383,"love":4384,"apli":4385,"uitge":4386,"droit":4387,"lockdown":4388,"Vic":4389,"quali":4390,"duur":4391,"venu":4392,"indre":4393,"gemeente":4394,"segunda":4395,".,":4396,"avo":4397,"pet":4398,"anto":4399,"verda":4400,"goede":4401,"plu":4402,"énerg":4403,"virtu":4404,"close":4405,"natuurlijk":4406,"cham":4407,"motor":4408,"presente":4409,"ages":4410,"néces":4411,"confer":4412,"exam":4413,"vely":4414,"Cham":4415,"próximo":4416,"Tour":4417,"evit":4418,"tats":4419,"vale":4420,"zin":4421,"reas":4422,"tici":4423,"nega":4424,"mod":4425,"nombreux":4426,"femmes":4427,"veer":4428,"manage":4429,"bern":4430,"fuera":4431,"Cre":4432,"ios":4433,"ocas":4434,"dedi":4435,"tient":4436,"least":4437,"ciento":4438,"dipl":4439,"markt":4440,"pério":4441,"explique":4442,"zone":4443,"vert":4444,"rais":4445,"AR":4446,"liber":4447,"zei":4448,"Union":4449,"wards":4450,"benefici":4451,"alterna":4452,"Police":4453,"writ":4454,"nia":4455,"passer":4456,"party":4457,"andaag":4458,"fall":4459,"ile":4460,"sujet":4461,"price":4462,"Secre":4463,"Super":4464,"krijgt":4465,"After":4466,"inas":4467,"contex":4468,"propu":4469,"minutos":4470,"dies":4471,"tional":4472,"vangen":4473,"cut":4474,"federal":4475,"gues":4476,"joven":4477,"verschill":4478,"Red":4479,"aide":4480,"tière":4481,"resear":4482,"indiqué":4483,"syste":4484,"membres":4485,"adel":4486,"reve":4487,"fras":4488,"appar":4489,"trodu":4490,"players":4491,"hington":4492,"sport":4493,"aquel":4494,"mí":4495,"lations":4496,"invol":4497,"travel":4498,"mensa":4499,"zouden":4500,"anderen":4501,"bunal":4502,"Washington":4503,"known":4504,"hau":4505,"simil":4506,"sais":4507,"India":4508,"femme":4509,"responsable":4510,"izo":4511,"jard":4512,"isión":4513,"gewe":4514,"meas":4515,"passé":4516,"Cela":4517,"doesn":4518,"OS":4519,"gado":4520,"games":4521,"ota":4522,"wie":4523,"enero":4524,"siendo":4525,"road":4526,"popular":4527,"AF":4528,"béné":4529,"sk":4530,"tête":4531,"savoir":4532,"personne":4533,"señaló":4534,"général":4535,"400":4536,"zado":4537,"venta":4538,"office":4539,"65":4540,"bare":4541,"cali":4542,"fan":4543,"eth":4544,"ológ":4545,"dencia":4546,"pions":4547,"novembre":4548,"Tom":4549,"âce":4550,"éc":4551,"teen":4552,"become":4553,"bring":4554,"bijna":4555,"campa":4556,"entraî":4557,"invas":4558,"accue":4559,"couple":4560,"availa":4561,"secret":4562,"combat":4563,"speci":4564,"claim":4565,"maanden":4566,"développe":4567,".'":4568,"Har":4569,"sort":4570,"èle":4571,"denk":4572,"uela":4573,"meter":4574,"cargo":4575,"looking":4576,"Macron":4577,"vrier":4578,"House":4579,"Ba":4580,"essenti":4581,"comprom":4582,"Waar":4583,"dès":4584,"inno":4585,"ared":4586,"mai":4587,"genomen":4588,"grond":4589,"entreprise":4590,"stij":4591,"formation":4592,"issue":4593,"ización":4594,"omer":4595,"chose":4596,"libre":4597,"compl":4598,"moder":4599,"Donald":4600,"vindt":4601,"stu":4602,"paso":4603,"gaz":4604,"ursos":4605,"cerr":4606,"industr":4607,"sign":4608,"población":4609,"Iran":4610,"PP":4611,"Tri":4612,"ow":4613,"wach":4614,"Ministerio":4615,"Bre":4616,"Dom":4617,"Sep":4618,"list":4619,"veut":4620,"utin":4621,"Depuis":4622,"mort":4623,"2014":4624,"belangrijk":4625,"septembre":4626,"48":4627,"cadre":4628,"técn":4629,"oots":4630,"political":4631,"José":4632,"ois":4633,"pin":4634,"États":4635,"esse":4636,"terre":4637,"explo":4638,"désor":4639,"respect":4640,"research":4641,"zu":4642,"err":4643,"among":4644,"icul":4645,"dispu":4646,"érer":4647,"última":4648,"ément":4649,"pues":4650,"Como":4651,"individu":4652,"Premier":4653,"budget":4654,"AS":4655,"Gover":4656,"wet":4657,"enough":4658,"cast":4659,"stay":4660,"crise":4661,"manifest":4662,"nunca":4663,"vlu":4664,"infor":4665,"itan":4666,"rép":4667,"souha":4668,"Tout":4669,"invit":4670,"isé":4671,"opa":4672,"race":4673,"soort":4674,"started":4675,"désormais":4676,"Ay":4677,"Sam":4678,"cée":4679,"eau":4680,"adop":4681,"seis":4682,"sele":4683,"connu":4684,"Insta":4685,"aso":4686,"practi":4687,"amor":4688,"veaux":4689,"forts":4690,"rug":4691,"juillet":4692,"itaires":4693,"incident":4694,"eerst":4695,"demos":4696,"ely":4697,"absolu":4698,"surtout":4699,"speel":4700,"atención":4701,"factor":4702,"weekend":4703,"further":4704,"yet":4705,"pect":4706,"compan":4707,"joueurs":4708,"debido":4709,"RE":4710,"enkele":4711,"acus":4712,"Asimismo":4713,"Stre":4714,"others":4715,"éri":4716,"reç":4717,"stel":4718,"small":4719,"Bou":4720,"cad":4721,"octo":4722,"introdu":4723,"quo":4724,"emt":4725,"presse":4726,"véhic":4727,"problemas":4728,"juego":4729,"encuentro":4730,"municipal":4731,"expected":4732,"Paul":4733,"Hos":4734,"adien":4735,"mach":4736,"categ":4737,"fice":4738,"partidos":4739,"period":4740,"Aug":4741,"reden":4742,"interest":4743,"osa":4744,"ford":4745,"gestion":4746,"offen":4747,"Ama":4748,"ian":4749,"versión":4750,"2015":4751,"workers":4752,"ología":4753,"Ed":4754,"hold":4755,"ias":4756,"lion":4757,"permis":4758,"precios":4759,"fication":4760,"pesos":4761,"confli":4762,"fau":4763,"mico":4764,"wik":4765,"held":4766,"lei":4767,"sible":4768,"kende":4769,"relación":4770,"link":4771,"falta":4772,"Instagram":4773,"evid":4774,"tio":4775,"irs":4776,"imple":4777,"direc":4778,"février":4779,"ampli":4780,"punt":4781,"Star":4782,"ism":4783,"dici":4784,"wege":4785,"rédu":4786,"distan":4787,"largo":4788,"aría":4789,"convo":4790,"areas":4791,"volver":4792,"Carlos":4793,"servicios":4794,"veilig":4795,"ive":4796,"whether":4797,"thuis":4798,"saire":4799,"vaar":4800,"count":4801,"tiembre":4802,"mayoría":4803,"administration":4804,"opportun":4805,"available":4806,"ép":4807,"commit":4808,"precio":4809,"board":4810,"ández":4811,"sommes":4812,"football":4813,"gia":4814,"Luis":4815,"Ko":4816,"tam":4817,"escen":4818,"abo":4819,"process":4820,"assist":4821,"decisión":4822,"véhicu":4823,"lég":4824,"aco":4825,"neo":4826,"plann":4827,"bros":4828,"entreprises":4829,"refle":4830,"sólo":4831,"émie":4832,"security":4833,"chance":4834,"ache":4835,"questions":4836,"bility":4837,"probable":4838,"objectif":4839,"besta":4840,"depen":4841,"annu":4842,"civil":4843,"rijden":4844,"souvent":4845,"trict":4846,"mieux":4847,"guerra":4848,"entonces":4849,"Men":4850,"pite":4851,"dict":4852,"campagne":4853,"ctubre":4854,"explos":4855,"campaign":4856,"Cal":4857,"story":4858,"pasa":4859,"',":4860,"yó":4861,"sug":4862,"fecha":4863,"special":4864,"genoeg":4865,"apoyo":4866,"incluso":4867,"période":4868,"octobre":4869,"ître":4870,"deur":4871,"lait":4872,"embre":4873,"autant":4874,"hours":4875,"World":4876,"ámar":4877,"alo":4878,"titre":4879,"term":4880,"nage":4881,"hebt":4882,"grave":4883,"nuevos":4884,"société":4885,"décision":4886,"Cou":4887,"Mari":4888,"Ram":4889,"gang":4890,"mment":4891,"wap":4892,"étr":4893,"quet":4894,"socia":4895,"Indi":4896,"pier":4897,"líder":4898,"seul":4899,"chau":4900,"abon":4901,"proper":4902,"syn":4903,"programme":4904,"profesion":4905,"semaines":4906,"North":4907,"inge":4908,"third":4909,"péri":4910,"following":4911,"University":4912,"flu":4913,"aldus":4914,"amar":4915,"stuk":4916,"Dus":4917,"Phi":4918,"pom":4919,"épo":4920,"escu":4921,"aument":4922,"rate":4923,"route":4924,"dernières":4925,"llegó":4926,"War":4927,"kab":4928,"adul":4929,"mede":4930,"junio":4931,"consecu":4932,"bedrijven":4933,"signific":4934,"seulement":4935,"gau":4936,"spor":4937,"lief":4938,"gies":4939,"class":4940,"región":4941,"Amerikaanse":4942,"enquête":4943,"almente":4944,"nique":4945,"pregun":4946,"journée":4947,"row":4948,"Institu":4949,"alización":4950,"visto":4951,"juste":4952,"espera":4953,"Califor":4954,"évé":4955,"vanaf":4956,"vraiment":4957,"44":4958,"geval":4959,"mean":4960,"cues":4961,"vió":4962,"pul":4963,"plans":4964,"gation":4965,"rapide":4966,"maakte":4967,"algunas":4968,"short":4969,"Some":4970,"Willi":4971,"font":4972,"memor":4973,"investig":4974,"decision":4975,"source":4976,"FI":4977,"Sh":4978,"issement":4979,"fédé":4980,"zos":4981,"tico":4982,"itor":4983,"interview":4984,"ejemplo":4985,"Sant":4986,"fres":4987,"vies":4988,"cture":4989,"autorités":4990,"Flor":4991,"Ga":4992,"fabr":4993,"vidé":4994,"meld":4995,"octubre":4996,"eras":4997,"abandon":4998,"buena":4999,"llevar":5000,"direction":5001,"rappel":5002,"realizar":5003,"within":5004,"pense":5005,"schijn":5006,"fico":5007,"economic":5008,"annonce":5009,"dinero":5010,"acompañ":5011,"Que":5012,"wis":5013,"insu":5014,"omas":5015,"seem":5016,"sociale":5017,"July":5018,"Accor":5019,"woman":5020,"ète":5021,"gency":5022,"cated":5023,"hoor":5024,"watch":5025,"qual":5026,"illed":5027,"avril":5028,"problema":5029,"vidades":5030,"carrera":5031,"bad":5032,"fou":5033,"ip":5034,"kor":5035,"tés":5036,"ground":5037,"bot":5038,"volg":5039,"zicht":5040,"psy":5041,"regó":5042,"locales":5043,"confirmed":5044,"Ham":5045,"Kar":5046,"Scho":5047,"yens":5048,"seizo":5049,"dida":5050,"lip":5051,"opin":5052,"beetje":5053,"provide":5054,"ooit":5055,"attend":5056,"music":5057,"BA":5058,"mig":5059,"ètres":5060,"plate":5061,"medidas":5062,"arrê":5063,"Ara":5064,"Bos":5065,"CI":5066,"iet":5067,"nés":5068,"dej":5069,"iez":5070,"sier":5071,"studi":5072,"marzo":5073,"reno":5074,"Roy":5075,"namelijk":5076,"varias":5077,"espacio":5078,"diciembre":5079,"Qatar":5080,"dejar":5081,"exemple":5082,"dispar":5083,"personnel":5084,"accord":5085,"gedaan":5086,"ibles":5087,"nelle":5088,"lives":5089,"terwijl":5090,"risk":5091,"Polic":5092,"Europese":5093,"Grand":5094,"abilidad":5095,"Edu":5096,"cise":5097,"lée":5098,"alto":5099,"beh":5100,"calle":5101,"Cla":5102,"uite":5103,"thre":5104,"mex":5105,"weken":5106,"weinig":5107,"grow":5108,"diffici":5109,"eigenlijk":5110,"druk":5111,"aseguró":5112,"Vene":5113,"ament":5114,"ardo":5115,"aming":5116,"amento":5117,"dure":5118,"gobern":5119,"emen":5120,"militaire":5121,"investigación":5122,"39":5123,"April":5124,"anterior":5125,"faires":5126,"vragen":5127,"provincia":5128,"Ciudad":5129,"ER":5130,"tecn":5131,"parce":5132,"manier":5133,"derniers":5134,"Francis":5135,"Mag":5136,"cust":5137,"sir":5138,"septiembre":5139,"employe":5140,"kreeg":5141,"état":5142,"encoura":5143,"ics":5144,"rég":5145,"milliards":5146,"burg":5147,"ability":5148,"rim":5149,"vont":5150,"estruct":5151,"diente":5152,"concre":5153,"haya":5154,"vais":5155,"worth":5156,"197":5157,"indicó":5158,"communic":5159,"desarrollo":5160,"June":5161,"tema":5162,"tail":5163,"geeft":5164,"note":5165,"existen":5166,"plant":5167,"precis":5168,"présente":5169,"regular":5170,"communiqué":5171,"ève":5172,"cember":5173,"aces":5174,"vation":5175,"geweest":5176,"Door":5177,"bent":5178,"requ":5179,"hemos":5180,"cidad":5181,"gezien":5182,"zorgen":5183,"champion":5184,"Aut":5185,"flo":5186,"wind":5187,"lib":5188,"plante":5189,"sens":5190,"encuentra":5191,"Som":5192,"ola":5193,"loin":5194,"iek":5195,"plata":5196,"viembre":5197,"concep":5198,"schrij":5199,"ziet":5200,"share":5201,"industri":5202,"Policía":5203,"Has":5204,"milieu":5205,"internet":5206,"transport":5207,"central":5208,"deaths":5209,"changes":5210,"capacidad":5211,"verschillende":5212,"companies":5213,"died":5214,"Real":5215,"troisième":5216,"building":5217,"According":5218,"seizoen":5219,"Tras":5220,"commis":5221,"agos":5222,"touch":5223,"cten":5224,"fs":5225,"anima":5226,"town":5227,"dood":5228,"agre":5229,"station":5230,"actividad":5231,"ública":5232,"issues":5233,"vrouwen":5234,"Mil":5235,"alcal":5236,"reger":5237,"jeux":5238,"denken":5239,"Commission":5240,"cuerpo":5241,"SS":5242,"xe":5243,"vertel":5244,"manos":5245,"mientos":5246,"His":5247,"lance":5248,"young":5249,"istère":5250,"gelo":5251,"experience":5252,"Fun":5253,"regu":5254,"donner":5255,"donné":5256,"color":5257,"hommes":5258,"Cuando":5259,"dirig":5260,"UE":5261,"secteur":5262,"teri":5263,"noviembre":5264,"excel":5265,"brero":5266,"medios":5267,"opération":5268,"atures":5269,"loten":5270,"saf":5271,"outside":5272,"medida":5273,"prijzen":5274,"residents":5275,"Ken":5276,"Yo":5277,"tim":5278,"dingen":5279,"understand":5280,"realidad":5281,"Mundial":5282,"conversa":5283,"Day":5284,"Goog":5285,"festival":5286,"dete":5287,"Trans":5288,"nouvelles":5289,"Tim":5290,"falle":5291,"oire":5292,"iné":5293,"ligt":5294,"comb":5295,"groots":5296,"exclus":5297,"trying":5298,"système":5299,"49":5300,"bab":5301,"forward":5302,"Eng":5303,"baj":5304,"specta":5305,"phy":5306,"domici":5307,"sources":5308,"Clu":5309,"cune":5310,"ácti":5311,"loi":5312,"iev":5313,"offre":5314,"shows":5315,"evitar":5316,"Harr":5317,"Os":5318,"kijk":5319,"alco":5320,"lam":5321,"unta":5322,"producción":5323,"ateurs":5324,"cabo":5325,"friends":5326,"Bay":5327,"orio":5328,"sud":5329,"grâce":5330,"akt":5331,"produits":5332,"dienst":5333,"comunidad":5334,"transi":5335,"LE":5336,"fact":5337,"ît":5338,"alta":5339,"uras":5340,"icana":5341,"lost":5342,"défense":5343,"internationale":5344,"needs":5345,"saying":5346,"Colom":5347,"Google":5348,"stan":5349,"vite":5350,"petit":5351,"ático":5352,"août":5353,"Even":5354,"Sim":5355,"Tou":5356,"kosten":5357,"esos":5358,"laun":5359,"aard":5360,"symp":5361,"ráp":5362,"ubic":5363,"besoin":5364,"vandaag":5365,"ensuite":5366,"reken":5367,"loop":5368,"grij":5369,"efforts":5370,"autour":5371,"trasla":5372,"histori":5373,"parole":5374,"Venez":5375,"Gra":5376,"Spe":5377,"TA":5378,"mune":5379,"makes":5380,"icano":5381,"Santa":5382,"issance":5383,"states":5384,"quiere":5385,"hotel":5386,"strong":5387,"priva":5388,"actividades":5389,"speak":5390,"punten":5391,"probleem":5392,"comunicado":5393,"Fis":5394,"zan":5395,"thé":5396,"plein":5397,"julio":5398,"dedor":5399,"leader":5400,"46":5401,"conten":5402,"priv":5403,"idence":5404,"received":5405,"meeting":5406,"wedstrijd":5407,"average":5408,"believe":5409,"ash":5410,"posed":5411,"mond":5412,"ieron":5413,"Rob":5414,"Sco":5415,"aient":5416,"smart":5417,"ouw":5418,"existe":5419,"tomar":5420,"explicó":5421,"riesgo":5422,"Ahora":5423,"bureau":5424,"mant":5425,"zer":5426,"ración":5427,"disfr":5428,"overheid":5429,"message":5430,"tested":5431,"instal":5432,"Johnson":5433,"développement":5434,"clo":5435,"mús":5436,"dios":5437,"faite":5438,"ouniden":5439,"komende":5440,"maison":5441,"trabajar":5442,"msterdam":5443,"prensa":5444,"oportunidad":5445,"Blan":5446,"SP":5447,"Ti":5448,"fond":5449,"meest":5450,"aucun":5451,"daad":5452,"extr":5453,"taron":5454,"Comme":5455,"similar":5456,"wood":5457,"Ant":5458,"difí":5459,"tifs":5460,"agosto":5461,"'.":5462,"Nue":5463,"bul":5464,"quick":5465,"queda":5466,"lid":5467,"norm":5468,"categor":5469,"Our":5470,"sein":5471,"dicho":5472,"taux":5473,"means":5474,"nez":5475,"execu":5476,"nosotros":5477,"woning":5478,"47":5479,"tbol":5480,"chen":5481,"ambas":5482,"gegeven":5483,"mej":5484,"tero":5485,"ills":5486,"drop":5487,"estadouniden":5488,"Club":5489,"42":5490,"AP":5491,"Kiev":5492,"Mel":5493,"consé":5494,"mak":5495,"dation":5496,"exist":5497,"empe":5498,"agra":5499,"colo":5500,"jugar":5501,"closed":5502,"Niet":5503,"Gran":5504,"apar":5505,"vonden":5506,"útbol":5507,"collabor":5508,"type":5509,"unique":5510,"utili":5511,"God":5512,"Pan":5513,"vinci":5514,"manuel":5515,"ulp":5516,"aliteit":5517,"soutien":5518,"billion":5519,"condiciones":5520,"particuli":5521,"performance":5522,"Hen":5523,"Open":5524,"œur":5525,"regres":5526,"diag":5527,"simp":5528,"calidad":5529,"construction":5530,"resultado":5531,"hausse":5532,"Amsterdam":5533,"MI":5534,"cés":5535,"eind":5536,"tado":5537,"recla":5538,"content":5539,"abier":5540,"ministère":5541,"objet":5542,"parece":5543,"wachten":5544,"Cru":5545,"amientos":5546,"legisla":5547,"release":5548,"kamp":5549,"quelle":5550,"cieron":5551,"consom":5552,"acy":5553,"mesure":5554,"morning":5555,"futuro":5556,"middels":5557,"financial":5558,"Ag":5559,"EC":5560,"Ta":5561,"ude":5562,"cient":5563,"stond":5564,"cuar":5565,"exer":5566,"turned":5567,"respond":5568,"organisation":5569,"everyone":5570,"manière":5571,"muerte":5572,"Afrique":5573,"utôt":5574,"ontwik":5575,"vehic":5576,"père":5577,"vér":5578,"wide":5579,"entren":5580,"limi":5581,"verwacht":5582,"often":5583,"vain":5584,"medical":5585,"jouer":5586,"tests":5587,"behind":5588,"Bas":5589,"yes":5590,"laag":5591,"trá":5592,"iding":5593,"accu":5594,"posé":5595,"poser":5596,"productos":5597,"These":5598,"jornada":5599,"image":5600,"problemen":5601,"success":5602,"Sud":5603,"inspir":5604,"finales":5605,"stellen":5606,"alizar":5607,"countries":5608,"Micha":5609,"significa":5610,"vrir":5611,"Amazon":5612,"nau":5613,"zater":5614,"chto":5615,"grat":5616,"palab":5617,"slag":5618,"avance":5619,"currently":5620,"Etat":5621,"Ló":5622,"Ya":5623,"cados":5624,"pack":5625,"sco":5626,"uve":5627,"arma":5628,"reconoci":5629,"mation":5630,"travers":5631,"tieve":5632,"camp":5633,"experts":5634,"America":5635,"armée":5636,"Munici":5637,"López":5638,"Centre":5639,"Ka":5640,"Rep":5641,"epen":5642,"hers":5643,"êtes":5644,"ñas":5645,"addres":5646,"moo":5647,"focus":5648,"blijkt":5649,"States":5650,"pandémie":5651,"Nos":5652,"cera":5653,"corrup":5654,"vités":5655,"ática":5656,"Conseil":5657,"California":5658,"Grou":5659,"Pier":5660,"echter":5661,"kort":5662,"unidades":5663,"sería":5664,"Department":5665,"juist":5666,"rencontre":5667,"mayo":5668,"quelque":5669,"Poet":5670,"fit":5671,"pilo":5672,"enige":5673,"lament":5674,"nemers":5675,"cate":5676,"carrière":5677,"Alors":5678,"restrictions":5679,"Fue":5680,"OT":5681,"Vous":5682,"vaux":5683,"track":5684,"rote":5685,"minim":5686,"buy":5687,"choix":5688,"cultur":5689,"línea":5690,"Salud":5691,"Secretar":5692,"OM":5693,"icht":5694,"maire":5695,"steun":5696,"opening":5697,"entire":5698,"released":5699,"lou":5700,"vest":5701,"vanwege":5702,"pot":5703,"page":5704,"trait":5705,"campe":5706,"inese":5707,"played":5708,"News":5709,"abril":5710,"ambos":5711,"ajouté":5712,"Tok":5713,"nuit":5714,"ële":5715,"iner":5716,"constat":5717,"iro":5718,"sabe":5719,"role":5720,"aliza":5721,"zaken":5722,"woens":5723,"nuevas":5724,"remo":5725,"lagen":5726,"ung":5727,"viene":5728,"agregó":5729,"crani":5730,"nouveaux":5731,"wijs":5732,"pueblo":5733,"businesses":5734,"todavía":5735,"apro":5736,"fant":5737,"lay":5738,"thought":5739,"treat":5740,"centa":5741,"equipos":5742,"ji":5743,"aumento":5744,"réun":5745,"Now":5746,"dirige":5747,"scène":5748,"tendrá":5749,"BT":5750,"scre":5751,"yn":5752,"remar":5753,"tian":5754,"quin":5755,"taire":5756,"descu":5757,"sole":5758,"gave":5759,"poursui":5760,"numé":5761,"industry":5762,"Bra":5763,"Jack":5764,"aans":5765,"cure":5766,"plek":5767,"natural":5768,"history":5769,"Mis":5770,"Ren":5771,"lop":5772,"pis":5773,"yle":5774,"inder":5775,"diendo":5776,"contar":5777,"nements":5778,"parties":5779,"obra":5780,"contrat":5781,"claro":5782,"wanted":5783,"Emmanuel":5784,"mantener":5785,"CN":5786,"pér":5787,"ucrani":5788,"escal":5789,"tica":5790,"teach":5791,"bew":5792,"vanuit":5793,"ayant":5794,"visite":5795,"chois":5796,"curren":5797,"vorig":5798,"suppor":5799,"everything":5800,"especially":5801,"iled":5802,"maxim":5803,"design":5804,"tend":5805,"reser":5806,"mannen":5807,"febrero":5808,"garanti":5809,"films":5810,"décidé":5811,"Dani":5812,"hig":5813,"diver":5814,"sigu":5815,"plutôt":5816,"preocu":5817,"profit":5818,"langs":5819,"ziek":5820,"trabajadores":5821,"43":5822,"Bal":5823,"ayuda":5824,"risque":5825,"pesar":5826,"woners":5827,"Bol":5828,"bak":5829,"chap":5830,"chif":5831,"caron":5832,"canti":5833,"icio":5834,"succès":5835,"étudi":5836,"Hospital":5837,"aur":5838,"space":5839,"heen":5840,"matique":5841,"descri":5842,"persoon":5843,"provinci":5844,"Chinese":5845,"antici":5846,"nuestros":5847,"semanas":5848,"additional":5849,"Zel":5850,"nas":5851,"vres":5852,"auté":5853,"expl":5854,"disposi":5855,"misschien":5856,"précé":5857,"families":5858,"Lors":5859,"enta":5860,"parten":5861,"ayer":5862,"Mark":5863,"fundam":5864,"derecho":5865,"violence":5866,"James":5867,"Tam":5868,"lines":5869,"deten":5870,"derde":5871,"endra":5872,"episo":5873,"economy":5874,"prochain":5875,"avis":5876,"elim":5877,"terrain":5878,"accompag":5879,"vantage":5880,"goal":5881,"ordina":5882,"regard":5883,"violencia":5884,"enferme":5885,"Venezuela":5886,"AC":5887,"Ob":5888,"cter":5889,"kli":5890,"mari":5891,"rang":5892,"esas":5893,"lection":5894,"suce":5895,"resto":5896,"régi":5897,"rencontr":5898,"digital":5899,"Bank":5900,"Tex":5901,"gus":5902,"ring":5903,"yan":5904,"zz":5905,"rokken":5906,"bile":5907,"propor":5908,"arrivée":5909,"América":5910,"ège":5911,"alre":5912,"pak":5913,"itación":5914,"results":5915,"Durante":5916,"safety":5917,"Cos":5918,"DE":5919,"Día":5920,"dû":5921,"opnieuw":5922,"nacionales":5923,"venes":5924,"coin":5925,"seri":5926,"mencion":5927,"berto":5928,"include":5929,"winning":5930,"attention":5931,"pública":5932,"ejecu":5933,"brengen":5934,"œuvre":5935,"mejores":5936,"Part":5937,"cán":5938,"zak":5939,"advis":5940,"waarde":5941,"ciné":5942,"150":5943,"response":5944,"recursos":5945,"training":5946,"41":5947,"cina":5948,"zwaar":5949,"press":5950,"Anton":5951,"partis":5952,"gets":5953,"necesario":5954,"inicio":5955,"600":5956,"UK":5957,"sluit":5958,"elden":5959,"cij":5960,"ices":5961,"logo":5962,"vación":5963,"zoeken":5964,"valt":5965,"salir":5966,"importantes":5967,"issent":5968,"attack":5969,"grootste":5970,"Michael":5971,"Nou":5972,"RT":5973,"pick":5974,"cident":5975,"tails":5976,"outine":5977,"trole":5978,"ctivo":5979,"Nord":5980,"Ve":5981,"rer":5982,"rido":5983,"wait":5984,"emi":5985,"tiek":5986,"geles":5987,"ficar":5988,"transfer":5989,"assez":5990,"School":5991,"//":5992,"Fo":5993,"ffe":5994,"vamos":5995,"deben":5996,"hoge":5997,"check":5998,"works":5999,"victoire":6000,"testing":6001,"pareja":6002,"infla":6003,"shot":6004,"White":6005,"usuarios":6006,"Ron":6007,"belle":6008,"iza":6009,"spra":6010,"joint":6011,"mesures":6012,"active":6013,"bestuur":6014,"recently":6015,"tradition":6016,"compañía":6017,"iPh":6018,"satis":6019,"ands":6020,"began":6021,"begon":6022,"ably":6023,"menor":6024,"bum":6025,"waarin":6026,"elek":6027,"graag":6028,"betalen":6029,"single":6030,"resultados":6031,"frastruct":6032,"Street":6033,"Cul":6034,"Putin":6035,"ises":6036,"hechos":6037,"diput":6038,"saw":6039,"expla":6040,"mondi":6041,"energía":6042,"cierto":6043,"Poetin":6044,"://":6045,"Fi":6046,"RI":6047,"sw":6048,"tiers":6049,"trad":6050,"correspon":6051,"camino":6052,"habr":6053,"gracias":6054,"ctoral":6055,"Max":6056,"gebruiken":6057,"radio":6058,"bâ":6059,"fá":6060,"sû":6061,"almost":6062,"ither":6063,"iles":6064,"frau":6065,"geluk":6066,"sociedad":6067,"mith":6068,"derechos":6069,"fully":6070,"needed":6071,"Mont":6072,"htt":6073,"org":6074,"elke":6075,"veren":6076,"faits":6077,"formación":6078,"shop":6079,"vrijdag":6080,"child":6081,"AFP":6082,"85":6083,"selec":6084,"colabor":6085,"donder":6086,"veld":6087,"Andre":6088,"habían":6089,"partement":6090,"inicia":6091,"recibir":6092,"Center":6093,"Centro":6094,"afirmó":6095,"Gi":6096,"Mex":6097,"quir":6098,"conjunto":6099,"cuid":6100,"pasar":6101,"agree":6102,"maron":6103,"garde":6104,"selves":6105,"inflación":6106,"grands":6107,"atregel":6108,"experiencia":6109,"Louis":6110,"Hier":6111,"ivent":6112,"vera":6113,"gew":6114,"passen":6115,"num":6116,"mayores":6117,"Carol":6118,"slachto":6119,"province":6120,"oblig":6121,"accident":6122,"zw":6123,"propri":6124,"hoop":6125,"fix":6126,"playing":6127,"kregen":6128,"implement":6129,"kabinet":6130,"Oli":6131,"Stu":6132,"amig":6133,"quite":6134,"bio":6135,"midi":6136,"usement":6137,"próxim":6138,"spécial":6139,"répond":6140,"significant":6141,"scor":6142,"área":6143,"arts":6144,"ret":6145,"respuesta":6146,"mane":6147,"miles":6148,"idee":6149,"dragen":6150,"problem":6151,"teams":6152,"Organ":6153,"toutefois":6154,"volgende":6155,"énergie":6156,"aquí":6157,"ejer":6158,"ellas":6159,"outbreak":6160,"coron":6161,"brief":6162,"joy":6163,"Mart":6164,"Martin":6165,"mediate":6166,"égal":6167,"liggen":6168,"participar":6169,"consegu":6170,"Central":6171,"measures":6172,"AT":6173,"pau":6174,"winter":6175,"école":6176,"informe":6177,"tagon":6178,"doivent":6179,"loss":6180,"nap":6181,"ends":6182,"matter":6183,"clé":6184,"actually":6185,"fuerte":6186,"russes":6187,"familias":6188,"Zu":6189,"pous":6190,"artic":6191,"adver":6192,"mother":6193,"safe":6194,"inement":6195,"evento":6196,"periodis":6197,"Cel":6198,"bord":6199,"iques":6200,"uary":6201,"aucune":6202,"haciendo":6203,"façon":6204,"zondag":6205,"primeros":6206,"responsables":6207,"sexual":6208,"flix":6209,"Nat":6210,"dins":6211,"sali":6212,"dead":6213,"alli":6214,"telle":6215,"marca":6216,"orities":6217,"increase":6218,"seule":6219,"jóvenes":6220,"Gron":6221,"Zij":6222,"rating":6223,"vons":6224,"escri":6225,"arte":6226,"gewel":6227,"paz":6228,"campaña":6229,"vaccine":6230,"choses":6231,"zieken":6232,"principales":6233,"Netflix":6234,"recog":6235,"difícil":6236,"Act":6237,"Vir":6238,"rôle":6239,"eto":6240,"augh":6241,"boek":6242,"ikt":6243,"cros":6244,"pelícu":6245,"sociaux":6246,"avond":6247,"winkel":6248,"clients":6249,"langer":6250,"custom":6251,"Aunque":6252,"Bus":6253,"hope":6254,"shi":6255,"ál":6256,"lap":6257,"cie":6258,"zeer":6259,"erait":6260,"primero":6261,"ningún":6262,"volution":6263,"moei":6264,"website":6265,"municipio":6266,"mensaje":6267,"57":6268,"800":6269,"leef":6270,"pros":6271,"prácti":6272,"trekken":6273,"internacional":6274,"durant":6275,"ámara":6276,"tari":6277,"écrit":6278,"totaal":6279,"prome":6280,"voya":6281,"cuanto":6282,"répon":6283,"gesti":6284,"telli":6285,"nieuws":6286,"range":6287,"gebied":6288,"spir":6289,"https":6290,"AI":6291,"leu":6292,"tag":6293,"acu":6294,"mix":6295,"sence":6296,"2024":6297,"soulig":6298,"heids":6299,"maintenant":6300,"black":6301,"jugadores":6302,"spelen":6303,"alrededor":6304,"Mur":6305,"Ped":6306,"èg":6307,"eran":6308,"aspe":6309,"seven":6310,"illo":6311,"taine":6312,"expéri":6313,"plazo":6314,"utiliz":6315,"double":6316,"reçu":6317,"arme":6318,"etc":6319,"verd":6320,"beg":6321,"cula":6322,"hubo":6323,"hablar":6324,"indique":6325,"Minis":6326,"intéres":6327,"vehículos":6328,"Constitu":6329,"Lin":6330,"úa":6331,"Christ":6332,"Barcel":6333,"anunci":6334,"Nad":6335,"eléc":6336,"iten":6337,"coali":6338,"réussi":6339,"presencia":6340,"corps":6341,"inste":6342,"trice":6343,"premiers":6344,"disponible":6345,"gesteld":6346,"Econom":6347,"Mig":6348,"bs":6349,"onia":6350,"isn":6351,"loopt":6352,"dossier":6353,"houdt":6354,"hijos":6355,"lange":6356,"January":6357,"estuvo":6358,"regering":6359,"higher":6360,"Wij":6361,"haut":6362,"pén":6363,"sue":6364,"vive":6365,"naam":6366,"ount":6367,"único":6368,"ploeg":6369,"Suisse":6370,"schools":6371,"madre":6372,"oli":6373,"west":6374,"enos":6375,"lez":6376,"diza":6377,"bepa":6378,"voz":6379,"Park":6380,"someone":6381,"ahí":6382,"Francisco":6383,"ader":6384,"honder":6385,"reason":6386,"mobil":6387,"rió":6388,"Democr":6389,"Israel":6390,"Liga":6391,"Mes":6392,"dle":6393,"abor":6394,"places":6395,"mucha":6396,"lleva":6397,"hombres":6398,"Social":6399,"factur":6400,"consci":6401,"nadie":6402,"zaterdag":6403,"68":6404,"Pat":6405,"bout":6406,"uze":6407,"départ":6408,"fair":6409,"tribunal":6410,"Antwer":6411,"Duits":6412,"gingen":6413,"juni":6414,"rat":6415,"round":6416,"tick":6417,"vili":6418,"gespre":6419,"disfrut":6420,"woensdag":6421,"iPhone":6422,"Africa":6423,"BI":6424,"Im":6425,"Pé":6426,"Pet":6427,"règ":6428,"íamos":6429,"tee":6430,"teren":6431,"vois":6432,"pret":6433,"affaire":6434,"ctiva":6435,"contract":6436,"grap":6437,"últimas":6438,"running":6439,"destacó":6440,"education":6441,"difficile":6442,"52":6443,"High":6444,"chief":6445,"voie":6446,"perspe":6447,"mov":6448,"surve":6449,"policía":6450,"komst":6451,"lasting":6452,"strateg":6453,"reports":6454,"klaar":6455,"--":6456,"Smith":6457,"ww":6458,"encar":6459,"oude":6460,"mention":6461,"equip":6462,"ruimte":6463,"Japan":6464,"Sol":6465,"enen":6466,"ange":6467,"meteen":6468,"estará":6469,"passion":6470,"portes":6471,"anything":6472,"nombreuses":6473,"straat":6474,"pueda":6475,"guez":6476,"access":6477,"Fernández":6478,"Pierre":6479,"?”":6480,"Jer":6481,"Villa":6482,"frap":6483,"indé":6484,"infrastruct":6485,"teken":6486,"adio":6487,"ijs":6488,"hase":6489,"guard":6490,"activi":6491,"officers":6492,"reveal":6493,"vidéo":6494,"lés":6495,"rendre":6496,"reti":6497,"condam":6498,"conclus":6499,"verhaal":6500,"camente":6501,"cost":6502,"auton":6503,"sites":6504,"Onder":6505,"partijen":6506,"Sán":6507,"Vers":6508,"gla":6509,"jij":6510,"mans":6511,"detal":6512,"lak":6513,"adoles":6514,"ault":6515,"entemente":6516,"endas":6517,"zaam":6518,"identif":6519,"sell":6520,"related":6521,"allowed":6522,"covered":6523,"Fiscal":6524,"Sánchez":6525,"aler":6526,"tof":6527,"opti":6528,"fique":6529,"lancé":6530,"cédé":6531,"expresó":6532,"participación":6533,"acht":6534,"fers":6535,"édition":6536,"retir":6537,"idée":6538,"rations":6539,"edan":6540,"gua":6541,"boeren":6542,"cryp":6543,"ganar":6544,"María":6545,"waarom":6546,"Itali":6547,"lieux":6548,"programma":6549,"momentos":6550,"ongeveer":6551,"67":6552,"Gon":6553,"Hor":6554,"dents":6555,"danger":6556,"hang":6557,"iv":6558,"plas":6559,"uales":6560,"recherche":6561,"dimiento":6562,"nood":6563,"pod":6564,"montr":6565,"hijo":6566,"propio":6567,"protection":6568,"anunció":6569,"development":6570,"algún":6571,"réseau":6572,"propuesta":6573,"Septem":6574,"quedó":6575,"divis":6576,"dientes":6577,"opposition":6578,"meur":6579,"terme":6580,"vang":6581,"perfect":6582,"proto":6583,"caí":6584,"waardoor":6585,"Federal":6586,"acceso":6587,"enorme":6588,"schijnlijk":6589,"private":6590,"Sha":6591,"Tele":6592,"inqui":6593,"toek":6594,"racht":6595,"covid":6596,"luz":6597,"step":6598,"penal":6599,"welke":6600,"strat":6601,"produit":6602,"Nove":6603,"pios":6604,"sortie":6605,"droits":6606,"reunión":6607,"Plan":6608,"fútbol":6609,"omo":6610,"trim":6611,"tercer":6612,"sons":6613,"serán":6614,"tarjet":6615,"petite":6616,"Belgique":6617,"modelo":6618,"alguna":6619,"95":6620,"Mient":6621,"Wal":6622,"einde":6623,"mol":6624,"gekomen":6625,"baja":6626,"uerto":6627,"2013":6628,"letter":6629,"BS":6630,"Pi":6631,"debate":6632,"ofre":6633,"geving":6634,"protagon":6635,"immediate":6636,"sola":6637,"Después":6638,"How":6639,"defini":6640,"víctimas":6641,"étrang":6642,"Rutte":6643,"bly":6644,"nord":6645,"erop":6646,"arlo":6647,"quée":6648,"itario":6649,"verander":6650,"parts":6651,"pudo":6652,"cara":6653,"données":6654,"leggen":6655,"Medi":6656,"adió":6657,"events":6658,"gebeur":6659,"potential":6660,"Bul":6661,"Octo":6662,"deed":6663,"aster":6664,"adamente":6665,"comien":6666,"genes":6667,"témo":6668,"boy":6669,"politiques":6670,"ficado":6671,"issant":6672,"agricul":6673,"gauche":6674,"uiteindelijk":6675,"gestión":6676,"MP":6677,"soft":6678,"enas":6679,"dimir":6680,"park":6681,"neemt":6682,"menten":6683,"mula":6684,"activités":6685,"actuellement":6686,"earlier":6687,"maandag":6688,"comenzó":6689,"réseaux":6690,"platform":6691,"Mientras":6692,"VV":6693,"tante":6694,"rechter":6695,"ators":6696,"iler":6697,"nothing":6698,"pagar":6699,"illé":6700,"posibilidad":6701,"centrale":6702,"Play":6703,"Court":6704,"September":6705,"58":6706,"Bien":6707,"Dra":6708,"MA":6709,"mê":6710,"rie":6711,"wrote":6712,"élé":6713,"democra":6714,"estime":6715,"lots":6716,"antwo":6717,"haven":6718,"vivi":6719,"nacht":6720,"traite":6721,"zodat":6722,"vecinos":6723,"clair":6724,"jeros":6725,"informations":6726,"wilde":6727,"Nederlan":6728,"conseil":6729,"Oekraïense":6730,"bertad":6731,"gebruikt":6732,"figure":6733,"vehículo":6734,"voetbal":6735,"Aan":6736,"bido":6737,"évo":6738,"rechts":6739,"bezig":6740,"podemos":6741,"zoveel":6742,"sensi":6743,"guar":6744,"bran":6745,"histor":6746,"honor":6747,"américain":6748,"August":6749,"cantidad":6750,"cente":6751,"éx":6752,"loos":6753,"2000":6754,"coû":6755,"session":6756,"liter":6757,"zoekers":6758,"géné":6759,"kleine":6760,"ataque":6761,"Zelens":6762,"Ah":6763,"Lat":6764,"dera":6765,"liet":6766,"probe":6767,"projets":6768,"crecimiento":6769,"prima":6770,"situatie":6771,"ffen":6772,"block":6773,"Manuel":6774,"jugador":6775,"NF":6776,"gó":6777,"parfois":6778,"commune":6779,"poste":6780,"presiden":6781,"scher":6782,"estima":6783,"territoire":6784,"Colombia":6785,"Group":6786,"Pedro":6787,"rijk":6788,"ervar":6789,"laquelle":6790,"seek":6791,"veroor":6792,"icans":6793,"2010":6794,"Chief":6795,"victimes":6796,"siete":6797,"solution":6798,"économique":6799,"Nigeria":6800,"opportunity":6801,"Texas":6802,"Bri":6803,"Gol":6804,"ront":6805,"anden":6806,"opos":6807,"sique":6808,"rester":6809,"paración":6810,"mala":6811,"vacu":6812,"worked":6813,"çaise":6814,"causa":6815,"Want":6816,"hér":6817,"hulp":6818,"miljard":6819,"campo":6820,"histór":6821,"cambios":6822,"People":6823,"nearly":6824,"permite":6825,"Congreso":6826,"considera":6827,"teriores":6828,"Jon":6829,"aus":6830,"ahead":6831,"cœur":6832,"father":6833,"gevoel":6834,"dénon":6835,"march":6836,"salari":6837,"busca":6838,"vorige":6839,"elecciones":6840,"Charles":6841,"maatschap":6842,"zomer":6843,"anas":6844,"reac":6845,"latest":6846,"quences":6847,"jefe":6848,"senior":6849,"muestra":6850,"zonas":6851,"economía":6852,"idential":6853,"certaines":6854,"proyectos":6855,"meilleur":6856,"cuestion":6857,"música":6858,"toekom":6859,"Za":6860,"aper":6861,"cando":6862,"cciones":6863,"étant":6864,"onto":6865,"isra":6866,"became":6867,"niks":6868,"however":6869,"masks":6870,"kracht":6871,"Tech":6872,"moeder":6873,"económica":6874,"République":6875,"quoti":6876,"bond":6877,"reach":6878,"ask":6879,"lower":6880,"camera":6881,"lijst":6882,"obst":6883,"waarbij":6884,"partamento":6885,"propose":6886,"victoria":6887,"images":6888,"necess":6889,"Australia":6890,"Bon":6891,"Rou":6892,"ati":6893,"fie":6894,"zat":6895,"ensure":6896,"ouders":6897,"dix":6898,"maatregel":6899,"sigui":6900,"chaî":6901,"2012":6902,"Robert":6903,"warm":6904,"estudio":6905,"transition":6906,"República":6907,"Barcelona":6908,"November":6909,"Hon":6910,"UN":6911,"aim":6912,"wijk":6913,"qualité":6914,"améli":6915,"lok":6916,"tuig":6917,"preven":6918,"volon":6919,"schade":6920,"vorm":6921,"talent":6922,"Hoy":6923,"halve":6924,"attaque":6925,"Rich":6926,"asesin":6927,"RS":6928,"Sil":6929,"Ur":6930,"evalu":6931,"lème":6932,"ples":6933,"alde":6934,"quedar":6935,"geworden":6936,"raad":6937,"commission":6938,"iedad":6939,"dero":6940,"ctors":6941,"frir":6942,"helpen":6943,"vacuna":6944,"problème":6945,"Municipal":6946,"Eso":6947,"Sus":6948,"estr":6949,"beleid":6950,"voire":6951,"mooi":6952,"daily":6953,"code":6954,"interior":6955,"droite":6956,"istencia":6957,"presidenta":6958,"encontrar":6959,"Universidad":6960,"événement":6961,"rapidement":6962,"October":6963,"IS":6964,"Nico":6965,"fís":6966,"mère":6967,"pij":6968,"esfuer":6969,"inaug":6970,"orient":6971,"lia":6972,"pool":6973,"produce":6974,"Thomas":6975,"sito":6976,"joueur":6977,"Segur":6978,"expect":6979,"vriend":6980,"bourg":6981,"original":6982,"tréal":6983,"syndi":6984,"Dar":6985,"Mid":6986,"avent":6987,"else":6988,"attemp":6989,"takes":6990,"suff":6991,"roy":6992,"coordin":6993,"presu":6994,"tory":6995,"lands":6996,"player":6997,"condition":6998,"llam":6999,"manifesta":7000,"gezond":7001,"officer":7002,"involved":7003,"Luego":7004,"ship":7005,"travaux":7006,"lucht":7007,"cercan":7008,"centes":7009,"whole":7010,"présence":7011,"tels":7012,"malgré":7013,"Quand":7014,"habitants":7015,"nadat":7016,"Coupe":7017,"Jac":7018,"Tes":7019,"jud":7020,"nalis":7021,"ply":7022,"inmiddels":7023,"tram":7024,"affaires":7025,"Chine":7026,"betre":7027,"gebracht":7028,"Israël":7029,"village":7030,"growth":7031,"250":7032,"King":7033,"pied":7034,"incorpor":7035,"verde":7036,"loy":7037,"fini":7038,"finalement":7039,"Civil":7040,"différents":7041,"européenne":7042,"víctima":7043,"hacen":7044,"Champions":7045,"ontwikkel":7046,"Cer":7047,"Peter":7048,"RC":7049,"Wie":7050,"aling":7051,"aste":7052,"conce":7053,"gezet":7054,"modo":7055,"cuales":7056,"interés":7057,"gelijke":7058,"donne":7059,"ordre":7060,"piers":7061,"conoce":7062,"arrive":7063,"refus":7064,"kiló":7065,"tekent":7066,"Gel":7067,"unto":7068,"accès":7069,"racon":7070,"formas":7071,"bero":7072,"politici":7073,"impac":7074,"quarant":7075,"quality":7076,"62":7077,"Bras":7078,"Jor":7079,"aprove":7080,"cteurs":7081,"cien":7082,"compen":7083,"combin":7084,"puer":7085,"établis":7086,"Not":7087,"clin":7088,"relacion":7089,"Toen":7090,"micro":7091,"saber":7092,"longer":7093,"technology":7094,"compromiso":7095,"makkelijk":7096,"64":7097,"Valle":7098,"padre":7099,"alu":7100,"advo":7101,"gek":7102,"destru":7103,"manque":7104,"vak":7105,"istan":7106,"gios":7107,"troom":7108,"Commun":7109,"longtemps":7110,"organisatie":7111,"periode":7112,"schedu":7113,"Vladimir":7114,"Ala":7115,"Cô":7116,"VS":7117,"fos":7118,"fight":7119,"licen":7120,"daga":7121,"effort":7122,"marque":7123,"certi":7124,"stage":7125,"estaban":7126,"publican":7127,"nings":7128,"ruso":7129,"atoire":7130,"career":7131,"títu":7132,"fase":7133,"llu":7134,"mbros":7135,"inside":7136,"auprès":7137,"gene":7138,"Associ":7139,"daarom":7140,"wagen":7141,"continued":7142,"wanneer":7143,"golpe":7144,"Green":7145,"aven":7146,"kie":7147,"kopen":7148,"pá":7149,"ench":7150,"escue":7151,"chat":7152,"genre":7153,"centrum":7154,"visible":7155,"lijn":7156,"mundial":7157,"indica":7158,"buscar":7159,"International":7160,"cabeza":7161,"époque":7162,"Rom":7163,"Zijn":7164,"édi":7165,"inted":7166,"arro":7167,"cipl":7168,"tait":7169,"vivir":7170,"exact":7171,"puedan":7172,"paid":7173,"familiar":7174,"hands":7175,"demons":7176,"Many":7177,"rement":7178,"heart":7179,"modi":7180,"régu":7181,"mind":7182,"polici":7183,"ctivos":7184,"contrôle":7185,"explica":7186,"trabajando":7187,"klein":7188,"drive":7189,"recuer":7190,"Ari":7191,"Han":7192,"Ville":7193,"cadas":7194,"depor":7195,"erie":7196,"conci":7197,"desig":7198,"puestos":7199,"pación":7200,"mige":7201,"Maroc":7202,"partner":7203,"graph":7204,"groter":7205,"inflation":7206,"expert":7207,"zitter":7208,"Belgi":7209,"mejorar":7210,"emergency":7211,"viennent":7212,"Consejo":7213,"titular":7214,"association":7215,"hus":7216,"sang":7217,"assu":7218,"lieg":7219,"gevaar":7220,"meeste":7221,"bele":7222,"moving":7223,"feest":7224,"habil":7225,"Febru":7226,"grupos":7227,"klimaat":7228,"Ainsi":7229,"Mijn":7230,"Win":7231,"acep":7232,"vlo":7233,"ites":7234,"prol":7235,"irá":7236,"perfe":7237,"cuad":7238,"Democra":7239,"habrá":7240,"woor":7241,"white":7242,"himself":7243,"miembros":7244,"deliver":7245,"amélior":7246,"cité":7247,"mam":7248,"oly":7249,"ieden":7250,"culo":7251,"happ":7252,"richting":7253,"vivre":7254,"nages":7255,"December":7256,"peli":7257,"criti":7258,"fuerza":7259,"apoy":7260,"defensa":7261,"Musk":7262,"executive":7263,"Nie":7264,"avez":7265,"figh":7266,"fast":7267,"deep":7268,"living":7269,"peine":7270,"proche":7271,"district":7272,"calles":7273,"Montréal":7274,"Prim":7275,"vulner":7276,"management":7277,"February":7278,"Poutine":7279,"Tro":7280,"ateur":7281,"ady":7282,"ustra":7283,"wegen":7284,"sorte":7285,"trouve":7286,"permettre":7287,"professionnel":7288,"estrate":7289,"employees":7290,"AD":7291,"Guer":7292,"mée":7293,"obras":7294,"ually":7295,"ering":7296,"retrouver":7297,"atori":7298,"parlement":7299,"sia":7300,"cionar":7301,"stell":7302,"críti":7303,"masi":7304,"anyone":7305,"recibió":7306,"confér":7307,"indepen":7308,"Prof":7309,"moeilijk":7310,"By":7311,"ES":7312,"puso":7313,"envi":7314,"ería":7315,"urch":7316,"mage":7317,"icamente":7318,"abeth":7319,"proken":7320,"dación":7321,"voorbij":7322,"mini":7323,"geren":7324,"propia":7325,"ninguna":7326,"político":7327,"approach":7328,"wife":7329,"voerder":7330,"69":7331,"ocho":7332,"score":7333,"tance":7334,"éche":7335,"iling":7336,"guien":7337,"horen":7338,"négo":7339,"familie":7340,"ciudadanos":7341,"leave":7342,"sept":7343,"candidate":7344,"origine":7345,"agenda":7346,"voiture":7347,"capitale":7348,"Cro":7349,"Let":7350,"Vis":7351,"hes":7352,"mour":7353,"Ça":7354,"seur":7355,"conden":7356,"gevonden":7357,"descar":7358,"movie":7359,"tengo":7360,"marco":7361,"firm":7362,"compet":7363,"organización":7364,"aider":7365,"imagin":7366,"clubs":7367,"issued":7368,"application":7369,"virtual":7370,"psych":7371,"vertelt":7372,"Fon":7373,"PI":7374,"esca":7375,"atura":7376,"parmi":7377,"impres":7378,"dérou":7379,"trade":7380,"precies":7381,"policy":7382,"majorité":7383,"disease":7384,"diplom":7385,"adelante":7386,"industrie":7387,"diagnos":7388,"Kon":7389,"Kamer":7390,"Mol":7391,"dejó":7392,"inmedi":7393,"emd":7394,"shut":7395,"chester":7396,"française":7397,"euw":7398,"abilité":7399,"Florida":7400,"donderdag":7401,"customers":7402,"gather":7403,"tamente":7404,"rival":7405,"nación":7406,"lying":7407,"create":7408,"cties":7409,"digit":7410,"permitir":7411,"Brux":7412,"dinsdag":7413,"Duitsland":7414,"Rod":7415,"VO":7416,"cte":7417,"daugh":7418,"kamer":7419,"pire":7420,"sha":7421,"teau":7422,"asing":7423,"ury":7424,"lies":7425,"option":7426,"gren":7427,"venez":7428,"céré":7429,"compéti":7430,"natur":7431,"straf":7432,"dagavond":7433,"Bi":7434,"tand":7435,"zag":7436,"áreas":7437,"ources":7438,"voeren":7439,"vakan":7440,"schul":7441,"inación":7442,"Russen":7443,"gebouw":7444,"study":7445,"blished":7446,"happened":7447,"CEO":7448,"Government":7449,"mondiale":7450,"77":7451,"Có":7452,"GT":7453,"Lon":7454,"farm":7455,"vall":7456,"temas":7457,"leuk":7458,"concent":7459,"permit":7460,"vile":7461,"kennen":7462,"finance":7463,"homes":7464,"Todos":7465,"doub":7466,"representa":7467,"solidar":7468,"affirmé":7469,"activité":7470,"59":7471,"gy":7472,"nab":7473,"sports":7474,"wens":7475,"çois":7476,"itaria":7477,"contain":7478,"parle":7479,"parler":7480,"zeven":7481,"stap":7482,"visi":7483,"drama":7484,"sold":7485,"profun":7486,"doma":7487,"complex":7488,"sanctions":7489,"impacto":7490,"encuentran":7491,"huidige":7492,"Moscou":7493,"regional":7494,"exception":7495,"quotidien":7496,"54":7497,"Ms":7498,"Veren":7499,"aprob":7500,"rente":7501,"rend":7502,"xy":7503,"yendo":7504,"hear":7505,"cular":7506,"vader":7507,"Comisión":7508,"daarna":7509,"fourn":7510,"operation":7511,"Disney":7512,"hôpital":7513,"Vin":7514,"WK":7515,"kig":7516,"lant":7517,"vuur":7518,"indig":7519,"ilar":7520,"perdu":7521,"papel":7522,"dés":7523,"affi":7524,"virtió":7525,"kwamen":7526,"políticas":7527,"enfant":7528,"purch":7529,"vuelta":7530,"Publi":7531,"Verenig":7532,"ME":7533,"tjes":7534,"terecht":7535,"cum":7536,"démar":7537,"discipl":7538,"fié":7539,"victime":7540,"zichzelf":7541,"subsi":7542,"créer":7543,"protect":7544,"jury":7545,"More":7546,"slow":7547,"decre":7548,"reconna":7549,"lien":7550,"démocra":7551,"hood":7552,"wasn":7553,"install":7554,"ugg":7555,"franch":7556,"hoeveel":7557,"college":7558,"George":7559,"demanda":7560,"réser":7561,"resolu":7562,"estructura":7563,"Just":7564,"Même":7565,"kids":7566,"leer":7567,"dicht":7568,"matière":7569,"beelden":7570,"derro":7571,"hate":7572,"misión":7573,"gels":7574,"felt":7575,"minute":7576,"commercial":7577,"habría":7578,"Association":7579,"hors":7580,"vlieg":7581,"recha":7582,"unis":7583,"vermo":7584,"mez":7585,"ieux":7586,"quiera":7587,"gations":7588,"pourtant":7589,"presque":7590,"précise":7591,"meerdere":7592,"soms":7593,"longue":7594,"chtend":7595,"crow":7596,"podrán":7597,"construcción":7598,"ambul":7599,"beschik":7600,"difficult":7601,"distancing":7602,"quickly":7603,"palabras":7604,"article":7605,"bill":7606,"fera":7607,"fonds":7608,"vali":7609,"acteur":7610,"betekent":7611,"thern":7612,"elección":7613,"middag":7614,"drugs":7615,"investigation":7616,"material":7617,"estadounidense":7618,"tarjeta":7619,"Bat":7620,"Duit":7621,"aid":7622,"oil":7623,"tôt":7624,"écri":7625,"acteurs":7626,"desc":7627,"despite":7628,"manager":7629,"discu":7630,"fiets":7631,"canadien":7632,"guay":7633,"materia":7634,"clave":7635,"expliqué":7636,"prueba":7637,"Cruz":7638,"Seguridad":7639,"63":7640,"Copa":7641,"cí":7642,"killed":7643,"mons":7644,"armes":7645,"ell":7646,"confron":7647,"mau":7648,"neigh":7649,"facil":7650,"huizen":7651,"betaal":7652,"imagen":7653,"tellen":7654,"verkiez":7655,"inflatie":7656,"expérience":7657,"Cy":7658,"Clar":7659,"DP":7660,"MC":7661,"TO":7662,"ial":7663,"klin":7664,"mys":7665,"wish":7666,"évit":7667,"aro":7668,"tima":7669,"elk":7670,"libertad":7671,"vertrou":7672,"dacht":7673,"déten":7674,"graf":7675,"Americans":7676,"comunicación":7677,"considé":7678,"environnement":7679,"prochaine":7680,"territorio":7681,"facili":7682,"conserva":7683,"summer":7684,"scene":7685,"Bern":7686,"Cl":7687,"Ear":7688,"Tij":7689,"jonge":7690,"lande":7691,"remains":7692,"semi":7693,"beper":7694,"voix":7695,"cannot":7696,"numb":7697,"soldat":7698,"crime":7699,"titude":7700,"necesidad":7701,"entidad":7702,"telling":7703,"demandé":7704,"leading":7705,"Australi":7706,"tizens":7707,"Justice":7708,"screen":7709,"Brus":7710,"cles":7711,"wants":7712,"arra":7713,"entrée":7714,"toer":7715,"prin":7716,"idge":7717,"bod":7718,"montre":7719,"waarschijnlijk":7720,"2011":7721,"lorsque":7722,"futbol":7723,"gemeen":7724,"Prime":7725,"alcohol":7726,"sûr":7727,"Miguel":7728,"53":7729,"Glo":7730,"Kan":7731,"Sén":7732,"bers":7733,"either":7734,"idi":7735,"lekker":7736,"cidos":7737,"réalité":7738,"gelu":7739,"gesloten":7740,"présidenti":7741,"bloque":7742,"Moham":7743,"fugi":7744,"doute":7745,"justicia":7746,"précisé":7747,"gobernador":7748,"plataforma":7749,"ziekenhuis":7750,"51":7751,"stri":7752,"winst":7753,"éna":7754,"dele":7755,"alie":7756,"terms":7757,"tuvieron":7758,"irement":7759,"word":7760,"brind":7761,"numer":7762,"ogue":7763,"fuego":7764,"ancias":7765,"appear":7766,"volledig":7767,"extrême":7768,"Daniel":7769,"amigos":7770,"Ori":7771,"Reg":7772,"mali":7773,"sale":7774,"€™":7775,"ically":7776,"dépu":7777,"gain":7778,"ekt":7779,"dings":7780,"alizado":7781,"suppl":7782,"character":7783,"During":7784,"Michel":7785,"explor":7786,"LA":7787,"liste":7788,"yenne":7789,"delijk":7790,"inversión":7791,"armas":7792,"thin":7793,"gehad":7794,"acab":7795,"doctor":7796,"tors":7797,"Assemb":7798,"Guar":7799,"decided":7800,"operación":7801,"military":7802,"untamiento":7803,"économie":7804,"mandatario":7805,"effective":7806,"voyage":7807,"Patr":7808,"till":7809,"cone":7810,"surpris":7811,"allá":7812,"Ley":7813,"insis":7814,"ghan":7815,"interro":7816,"triun":7817,"matéri":7818,"talk":7819,"Todo":7820,"individual":7821,"García":7822,"particulièrement":7823,"enfermedad":7824,"Adam":7825,"Jim":7826,"bás":7827,"Án":7828,"voorzitter":7829,"Deux":7830,"lucha":7831,"ándose":7832,"habla":7833,"strugg":7834,"alleged":7835,"europe":7836,"batter":7837,"máximo":7838,"Philip":7839,"fácil":7840,"700":7841,"East":7842,"Más":7843,"baan":7844,"gés":7845,"kleur":7846,"sosten":7847,"zá":7848,"ïn":7849,"osos":7850,"store":7851,"rode":7852,"affe":7853,"Energ":7854,"sense":7855,"brought":7856,"lista":7857,"Rock":7858,"leiding":7859,"español":7860,"Victoria":7861,"above":7862,"baby":7863,"numbers":7864,"Afr":7865,"Every":7866,"Tal":7867,"aien":7868,"alum":7869,"ising":7870,"assure":7871,"thous":7872,"gedrag":7873,"abog":7874,"ston":7875,"preuve":7876,"giving":7877,"value":7878,"prime":7879,"prévu":7880,"sélection":7881,"Tot":7882,"themselves":7883,"Français":7884,"slechts":7885,"bieden":7886,"vienda":7887,"spéci":7888,"exploit":7889,"alcalde":7890,"kilómetros":7891,"Hab":7892,"Lan":7893,"lat":7894,"amount":7895,"forms":7896,"moved":7897,"mobili":7898,"appu":7899,"witch":7900,"afhan":7901,"cerem":7902,"Rodr":7903,"balance":7904,"legd":7905,"bless":7906,"clean":7907,"Belg":7908,"regio":7909,"vroeg":7910,"provided":7911,"fabric":7912,"Eje":7913,"Fir":7914,"iba":7915,"kill":7916,"âge":7917,"democr":7918,"aly":7919,"limp":7920,"doors":7921,"vention":7922,"cash":7923,"iens":7924,"target":7925,"partners":7926,"izquier":7927,"importance":7928,"kocht":7929,"Toch":7930,"fuerzas":7931,"groups":7932,"revenue":7933,"communities":7934,"cumplir":7935,"pruebas":7936,"kilometer":7937,"vakantie":7938,"Kir":7939,"MS":7940,"aties":7941,"cita":7942,"fille":7943,"lutte":7944,"rust":7945,"erden":7946,"alguien":7947,"untos":7948,"sede":7949,"andro":7950,"ests":7951,"igne":7952,"keur":7953,"inspe":7954,"missions":7955,"stelt":7956,"suspect":7957,"puiss":7958,"arrêt":7959,"tegenwoor":7960,"realizó":7961,"student":7962,"spokes":7963,"Buenos":7964,"intérêt":7965,"authorities":7966,"venezol":7967,"61":7968,"Med":7969,"klas":7970,"pad":7971,"dezelfde":7972,"chu":7973,"dier":7974,"derrière":7975,"ablo":7976,"tenue":7977,"impression":7978,"hicieron":7979,"agent":7980,"sentir":7981,"habl":7982,"stit":7983,"mediante":7984,"positie":7985,"niemand":7986,"structure":7987,"générale":7988,"author":7989,"example":7990,"systeem":7991,"rekening":7992,"pelle":7993,"account":7994,"voters":7995,"juge":7996,"product":7997,"lanz":7998,"Rot":7999,"showed":8000,"throughout":8001,"travailler":8002,"politiek":8003,"ísticas":8004,"Instituto":8005,"address":8006,"Antonio":8007,"cijfers":8008,"Brussel":8009,"ró":8010,"rop":8011,"album":8012,"acun":8013,"compos":8014,"traded":8015,"opened":8016,"bescher":8017,"Estamos":8018,"ouvert":8019,"inois":8020,"especialmente":8021,"económico":8022,"vérit":8023,"Ir":8024,"LC":8025,"gam":8026,"wonder":8027,"êts":8028,"erder":8029,"dosis":8030,"vesti":8031,"mitad":8032,"ouverture":8033,"orial":8034,"médias":8035,"distintos":8036,"Chile":8037,"secretario":8038,"Fiscalía":8039,"obstante":8040,"Aires":8041,"Pay":8042,"aé":8043,"eight":8044,"foun":8045,"álogo":8046,"enregistr":8047,"arres":8048,"aspir":8049,"gemiddel":8050,"proje":8051,"rich":8052,"hiver":8053,"Laur":8054,"caracter":8055,"visita":8056,"Angeles":8057,"digd":8058,"celles":8059,"shared":8060,"patron":8061,"Prin":8062,"magne":8063,"Daarnaast":8064,"équipes":8065,"receive":8066,"différentes":8067,"impuls":8068,"selección":8069,"éxito":8070,"Bruxelles":8071,"supplément":8072,"aj":8073,"oubli":8074,"ettes":8075,"parta":8076,"raak":8077,"compla":8078,"exig":8079,"surprise":8080,"carte":8081,"pidió":8082,"below":8083,"Colle":8084,"espace":8085,"photos":8086,"edición":8087,"restaurant":8088,"citoyens":8089,"técnico":8090,"plannen":8091,"72":8092,"Hy":8093,"Nic":8094,"gée":8095,"huit":8096,"ué":8097,"review":8098,"attr":8099,"lif":8100,"verantwo":8101,"proté":8102,"vente":8103,"allí":8104,"distance":8105,"personeel":8106,"landse":8107,"buts":8108,"products":8109,"hija":8110,"instant":8111,"clasi":8112,"ploy":8113,"estoy":8114,"patri":8115,"Office":8116,"jobs":8117,"plaatsen":8118,"résult":8119,"communication":8120,"toekomst":8121,"Democratic":8122,"Bl":8123,"Dou":8124,"Festival":8125,"Sport":8126,"rê":8127,"écu":8128,"bey":8129,"importa":8130,"poor":8131,"pago":8132,"ignor":8133,"serve":8134,"werking":8135,"entrega":8136,"Manchester":8137,"ajoute":8138,"accidente":8139,"previous":8140,"symptom":8141,"mooie":8142,"Groningen":8143,"instead":8144,"78":8145,"Big":8146,"Cris":8147,"Pala":8148,"igens":8149,"zed":8150,"íguez":8151,"itar":8152,"aanwe":8153,"Heb":8154,"souligne":8155,"concert":8156,"minuten":8157,"commencé":8158,"ística":8159,"Rodríguez":8160,"ET":8161,"Ig":8162,"Lim":8163,"apren":8164,"lour":8165,"demi":8166,"gevallen":8167,"belasting":8168,"manu":8169,"kens":8170,"elementos":8171,"arran":8172,"transpar":8173,"capable":8174,"popul":8175,"consumo":8176,"zegd":8177,"militar":8178,"concerns":8179,"analyst":8180,"limited":8181,"elimin":8182,"Ky":8183,"glas":8184,"hous":8185,"espos":8186,"oro":8187,"sey":8188,"muse":8189,"iness":8190,"signed":8191,"Qui":8192,"placement":8193,"various":8194,"podrá":8195,"spot":8196,"sterk":8197,"build":8198,"initiative":8199,"lograr":8200,"asiel":8201,"escenario":8202,"conférence":8203,"equ":8204,"hur":8205,"olie":8206,"phase":8207,"oplos":8208,"format":8209,"rock":8210,"transporte":8211,"continues":8212,"fils":8213,"charges":8214,"ronde":8215,"crédit":8216,"recru":8217,"animal":8218,"atteint":8219,"Director":8220,"technologie":8221,"argument":8222,"véhicule":8223,"Hasta":8224,"Ejecu":8225,"vado":8226,"wall":8227,"decen":8228,"verkeer":8229,"acce":8230,"esté":8231,"emde":8232,"marcha":8233,"ioen":8234,"juicio":8235,"salida":8236,"signal":8237,"daarmee":8238,"communauté":8239,"avy":8240,"handen":8241,"Diego":8242,"provincial":8243,"biggest":8244,"électri":8245,"ayudar":8246,"tampoco":8247,"seems":8248,"Pue":8249,"ech":8250,"wr":8251,"changer":8252,"true":8253,"noted":8254,"ieder":8255,"forced":8256,"peur":8257,"Marc":8258,"premières":8259,"familiares":8260,"Geor":8261,"hypo":8262,"logró":8263,"ocurrió":8264,"bâti":8265,"trimestre":8266,"israéli":8267,"Duitse":8268,"résultats":8269,"CC":8270,"Der":8271,"PR":8272,"apart":8273,"bag":8274,"wijn":8275,"cifra":8276,"verte":8277,"rage":8278,"luch":8279,"apun":8280,"prefer":8281,"menores":8282,"cará":8283,"Ander":8284,"añadió":8285,"importancia":8286,"presentó":8287,"Portu":8288,"Council":8289,"fundamental":8290,"pretty":8291,"maatregelen":8292,"happy":8293,"AL":8294,"rare":8295,"details":8296,"atra":8297,"begrij":8298,"doende":8299,"peace":8300,"haald":8301,"sages":8302,"hogar":8303,"pasó":8304,"presión":8305,"brut":8306,"contrac":8307,"malad":8308,"François":8309,"hacerlo":8310,"status":8311,"responsabilidad":8312,"áticos":8313,"European":8314,"llevó":8315,"disponibles":8316,"mouvement":8317,"éviter":8318,"Gor":8319,"Hun":8320,"Jes":8321,"bande":8322,"chet":8323,"demostr":8324,"ised":8325,"qua":8326,"pedir":8327,"pakken":8328,"révé":8329,"boos":8330,"creo":8331,"méde":8332,"betrokken":8333,"viaje":8334,"quartier":8335,"conocido":8336,"levels":8337,"required":8338,"véhicules":8339,"maximum":8340,"1er":8341,"Certa":8342,"Fel":8343,"Pos":8344,"Sing":8345,"egen":8346,"wers":8347,"alem":8348,"suffer":8349,"abus":8350,"davantage":8351,"paper":8352,"entrevista":8353,"mates":8354,"lancer":8355,"keren":8356,"signé":8357,"energy":8358,"Congress":8359,"easy":8360,"56":8361,"Far":8362,"Fam":8363,"Geen":8364,"Mir":8365,"NS":8366,"Sé":8367,"dón":8368,"fied":8369,"allo":8370,"partes":8371,"matig":8372,"compris":8373,"moto":8374,"huge":8375,"trial":8376,"nomin":8377,"complete":8378,"llegada":8379,"tecnología":8380,"%)":8381,"Cup":8382,"bb":8383,"gera":8384,"ski":8385,"ume":8386,"anne":8387,"repe":8388,"gevolg":8389,"perten":8390,"song":8391,"passage":8392,"chemin":8393,"muziek":8394,"curr":8395,"célé":8396,"dreig":8397,"probably":8398,"trabajos":8399,"niveles":8400,"élection":8401,"restaurants":8402,"bombar":8403,"plupart":8404,"Secretaría":8405,"88":8406,"Pel":8407,"cussi":8408,"lise":8409,"urgence":8410,"makers":8411,"options":8412,"tures":8413,"eleg":8414,"phys":8415,"wonen":8416,"Since":8417,"béco":8418,"reducir":8419,"secretar":8420,"Christian":8421,"affirme":8422,"nummer":8423,"honderd":8424,"mêmes":8425,"daughter":8426,"Jen":8427,"Jam":8428,"Kore":8429,"ei":8430,"mètres":8431,"íos":8432,"reur":8433,"tible":8434,"verdad":8435,"terri":8436,"formar":8437,"gend":8438,"mite":8439,"affron":8440,"rules":8441,"bleek":8442,"carre":8443,"Anne":8444,"artícu":8445,"rendu":8446,"helft":8447,"continuer":8448,"Supre":8449,"Servi":8450,"seguro":8451,"educación":8452,"scienti":8453,"compared":8454,"Williams":8455,"inaugur":8456,"quarantine":8457,"arrested":8458,"Fre":8459,"Ly":8460,"dentes":8461,"fij":8462,"hin":8463,"pone":8464,"wol":8465,"zing":8466,"aris":8467,"lees":8468,"quen":8469,"qués":8470,"atac":8471,"tercera":8472,"acing":8473,"rite":8474,"rights":8475,"excus":8476,"mique":8477,"obtenir":8478,"privé":8479,"piè":8480,"Mean":8481,"dynam":8482,"intégr":8483,"learning":8484,"profesional":8485,"Ferr":8486,"avenir":8487,"rise":8488,"laires":8489,"ently":8490,"sean":8491,"livre":8492,"accoun":8493,"formes":8494,"lymp":8495,"preten":8496,"agents":8497,"gesproken":8498,"Consu":8499,"telé":8500,"fund":8501,"isteren":8502,"élections":8503,"Scott":8504,"supporters":8505,"120":8506,"dred":8507,"ried":8508,"rather":8509,"sad":8510,"écran":8511,"enkel":8512,"department":8513,"onie":8514,"oren":8515,"gende":8516,"goo":8517,"quieren":8518,"afge":8519,"mule":8520,"eks":8521,"internation":8522,"join":8523,"garder":8524,"buurt":8525,"From":8526,"diffus":8527,"llamado":8528,"konden":8529,"App":8530,"actualmente":8531,"atrás":8532,"económic":8533,"comentó":8534,"specific":8535,"evidence":8536,"serious":8537,"geweld":8538,"Bour":8539,"CH":8540,"scr":8541,"vat":8542,"combus":8543,"voed":8544,"suma":8545,"sufici":8546,"procé":8547,"denkt":8548,"hoger":8549,"ficial":8550,"coups":8551,"Chica":8552,"tiende":8553,"artis":8554,"étaire":8555,"publica":8556,"stof":8557,"maintain":8558,"Soci":8559,"increased":8560,"Casa":8561,"expecta":8562,"américaine":8563,"Malgré":8564,"distintas":8565,"conference":8566,"ocasiones":8567,"vehicle":8568,"gratuit":8569,"Bla":8570,"Out":8571,"mbo":8572,"tieron":8573,"acudi":8574,"décès":8575,"traf":8576,"servir":8577,"stig":8578,"producto":8579,"propre":8580,"Provin":8581,"govern":8582,"werkers":8583,"tillo":8584,"educa":8585,"atorio":8586,"soirée":8587,"augmentation":8588,"Justicia":8589,"industria":8590,"London":8591,"IT":8592,"Jorge":8593,"NH":8594,"Santi":8595,"ieten":8596,"uari":8597,"óli":8598,"laas":8599,"citizens":8600,"dium":8601,"common":8602,"siè":8603,"proven":8604,"torneo":8605,"huur":8606,"familles":8607,"experiment":8608,"resulta":8609,"gebeurt":8610,"Cabe":8611,"cinéma":8612,"ejerci":8613,"conseguir":8614,"película":8615,"souligné":8616,"Tik":8617,"cale":8618,"kent":8619,"vet":8620,"ágenes":8621,"lada":8622,"oppos":8623,"perder":8624,"imágenes":8625,"viven":8626,"exporta":8627,"venus":8628,"ciación":8629,"created":8630,"norte":8631,"localidad":8632,"fuentes":8633,"reality":8634,"création":8635,"looks":8636,"Presidente":8637,"cambiar":8638,"shoo":8639,"pacientes":8640,"espacios":8641,"learn":8642,"retrouve":8643,"Cat":8644,"Port":8645,"kap":8646,"asis":8647,"ciar":8648,"vervolgens":8649,"sufri":8650,"absence":8651,"rob":8652,"hot":8653,"holi":8654,"mask":8655,"única":8656,"Road":8657,"tweet":8658,"damage":8659,"Mike":8660,"étude":8661,"ONU":8662,"ramient":8663,"Harry":8664,"iniciativa":8665,"gesprek":8666,"België":8667,"EE":8668,"PO":8669,"iva":8670,"padres":8671,"zada":8672,"encu":8673,"revis":8674,"itali":8675,"cement":8676,"gezegd":8677,"auteur":8678,"comparti":8679,"gratis":8680,"pain":8681,"rées":8682,"prevent":8683,"affect":8684,"words":8685,"mens":8686,"crear":8687,"baisse":8688,"itself":8689,"Contr":8690,"alizó":8691,"Daarom":8692,"solutions":8693,"matchs":8694,"asegura":8695,"audience":8696,"Ayuntamiento":8697,"treatment":8698,"husband":8699,"tandis":8700,"Cámara":8701,"Lam":8702,"Last":8703,"africa":8704,"gast":8705,"ogen":8706,"éten":8707,"archi":8708,"orie":8709,"lets":8710,"quence":8711,"ofrece":8712,"ónica":8713,"décl":8714,"distr":8715,"interpre":8716,"hero":8717,"herramient":8718,"stress":8719,"spent":8720,"élè":8721,"januari":8722,"hoogte":8723,"empê":8724,"enorm":8725,"valeur":8726,"standig":8727,"siguen":8728,"Carolina":8729,"siguiente":8730,"Bet":8731,"Blo":8732,"bis":8733,"balle":8734,"gone":8735,"gust":8736,"pantal":8737,"sales":8738,"ède":8739,"insur":8740,"tié":8741,"entor":8742,"opción":8743,"duda":8744,"deling":8745,"mantiene":8746,"trek":8747,"référ":8748,"card":8749,"carry":8750,"mues":8751,"Noord":8752,"occident":8753,"superior":8754,"Etats":8755,"classes":8756,"instituciones":8757,"convertir":8758,"assurer":8759,"épiso":8760,"chauffe":8761,"Brasil":8762,"Meanwhile":8763,"Chicago":8764,"CS":8765,"Crist":8766,"Ray":8767,"vó":8768,"anía":8769,"bevol":8770,"load":8771,"forte":8772,"motivo":8773,"vivienda":8774,"pakt":8775,"pasada":8776,"Marie":8777,"contrato":8778,"prépar":8779,"risico":8780,"estión":8781,"winnen":8782,"2008":8783,"andacht":8784,"protección":8785,"engagement":8786,"gradu":8787,"bénéfici":8788,"Costa":8789,"Ty":8790,"aandacht":8791,"tis":8792,"maker":8793,"compren":8794,"feature":8795,"monie":8796,"Ante":8797,"Region":8798,"links":8799,"changed":8800,"Corona":8801,"lugares":8802,"podrían":8803,"streaming":8804,"compagnie":8805,"européen":8806,"Ligue":8807,"challenge":8808,"recogni":8809,"revealed":8810,"olymp":8811,"Ejecutivo":8812,"Fer":8813,"Olymp":8814,"Pablo":8815,"Tan":8816,"echte":8817,"èmes":8818,"comité":8819,"vante":8820,"stal":8821,"improve":8822,"robo":8823,"vaient":8824,"cionado":8825,"sensa":8826,"torno":8827,"beta":8828,"imag":8829,"amenaz":8830,"Beau":8831,"infections":8832,"comenz":8833,"atrice":8834,"graden":8835,"Micros":8836,"woordvoerder":8837,"relationship":8838,"míni":8839,"invasion":8840,"Waarom":8841,"meldt":8842,"ofrecer":8843,"véritable":8844,"Hern":8845,"jero":8846,"kost":8847,"twin":8848,"inner":8849,"unda":8850,"qued":8851,"ofic":8852,"veille":8853,"dessus":8854,"voil":8855,"exter":8856,"goes":8857,"gaf":8858,"gación":8859,"apenas":8860,"cancer":8861,"welijk":8862,"vestig":8863,"electoral":8864,"Notre":8865,"jeron":8866,"peuple":8867,"necesit":8868,"techni":8869,"Haag":8870,"etapa":8871,"occup":8872,"faisant":8873,"machine":8874,"faudra":8875,"necessary":8876,"Dam":8877,"Stor":8878,"send":8879,"decl":8880,"chant":8881,"maje":8882,"audio":8883,"acte":8884,"wearing":8885,"paix":8886,"agentes":8887,"ienne":8888,"monitor":8889,"sommet":8890,"sortir":8891,"Frank":8892,"krijg":8893,"Service":8894,"starting":8895,"verschil":8896,"funcionarios":8897,"claims":8898,"manifestó":8899,"vluch":8900,"bestaat":8901,"detalles":8902,"software":8903,"Microsoft":8904,"Tre":8905,"vité":8906,"ètement":8907,"devenir":8908,"advan":8909,"urban":8910,"olu":8911,"aca":8912,"irse":8913,"nota":8914,"impro":8915,"resources":8916,"pair":8917,"mania":8918,"endro":8919,"Andr":8920,"acties":8921,"mented":8922,"views":8923,"fortuna":8924,"diferencia":8925,"simplement":8926,"sostuvo":8927,"pompiers":8928,"inderdaad":8929,"begint":8930,"disfrutar":8931,"Public":8932,"Rotterdam":8933,"GP":8934,"IA":8935,"Mario":8936,"Tay":8937,"Will":8938,"enjoy":8939,"moyenne":8940,"dates":8941,"enteel":8942,"dank":8943,"waarop":8944,"graves":8945,"informatie":8946,"client":8947,"bouwen":8948,"términ":8949,"Watch":8950,"humanos":8951,"appelé":8952,"declaraciones":8953,"contam":8954,"leadership":8955,"liberté":8956,"property":8957,"William":8958,"African":8959,"CD":8960,"Pop":8961,"Wer":8962,"cats":8963,"ns":8964,"wist":8965,"zones":8966,"isa":8967,"isés":8968,"heard":8969,"sectores":8970,"trau":8971,"consen":8972,"ussen":8973,"loca":8974,"prohi":8975,"belang":8976,"puisque":8977,"Unión":8978,"cycl":8979,"ologie":8980,"technique":8981,"pendent":8982,"River":8983,"environment":8984,"calls":8985,"Allemagne":8986,"arrêté":8987,"studio":8988,"Zelensky":8989,"Gir":8990,"Krem":8991,"Nations":8992,"Span":8993,"écou":8994,"ols":8995,"duel":8996,"moyen":8997,"rier":8998,"ullie":8999,"tuigen":9000,"zowel":9001,"obvi":9002,"ficó":9003,"Martí":9004,"homici":9005,"ualmente":9006,"ology":9007,"videos":9008,"Prote":9009,"diensten":9010,"Prés":9011,"capacity":9012,"planning":9013,"detect":9014,"Nueva":9015,"elektr":9016,"Cómo":9017,"IV":9018,"Sar":9019,"Sams":9020,"kar":9021,"mut":9022,"sée":9023,"incu":9024,"controle":9025,"sitio":9026,"grados":9027,"militaires":9028,"massive":9029,"phones":9030,"supply":9031,"sorti":9032,"incremento":9033,"fortale":9034,"Person":9035,"nécessaire":9036,"Fort":9037,"Lab":9038,"Obr":9039,"Uno":9040,"jér":9041,"alidad":9042,"verano":9043,"voerd":9044,"passed":9045,"illon":9046,"cord":9047,"uiter":9048,"gif":9049,"yeux":9050,"velo":9051,"bastante":9052,"houd":9053,"growing":9054,"telingen":9055,"charged":9056,"included":9057,"clientes":9058,"burger":9059,"seconde":9060,"populaire":9061,"beginnen":9062,"stelling":9063,"négoci":9064,"verantwoorde":9065,"BO":9066,"Radio":9067,"TE":9068,"pm":9069,"slo":9070,"adé":9071,"desapare":9072,"hetzelfde":9073,"wear":9074,"trage":9075,"mine":9076,"mises":9077,"bron":9078,"achie":9079,"positions":9080,"ideas":9081,"llega":9082,"funding":9083,"plane":9084,"toma":9085,"respir":9086,"Eric":9087,"señala":9088,"Finalmente":9089,"ficación":9090,"wetenschap":9091,"facilit":9092,"cantante":9093,"Fu":9094,"Ric":9095,"imed":9096,"ladas":9097,"outre":9098,"ombi":9099,"beide":9100,"perform":9101,"pase":9102,"centros":9103,"streng":9104,"publiek":9105,"milliers":9106,"koers":9107,"sanitaire":9108,"nuestras":9109,"petits":9110,"realizado":9111,"térieur":9112,"entrada":9113,"pensar":9114,"modèle":9115,"profesionales":9116,"fédéral":9117,"Côte":9118,"cussions":9119,"Kremlin":9120,"Here":9121,"Ot":9122,"bús":9123,"mue":9124,"sis":9125,"essa":9126,"idents":9127,"tho":9128,"oferta":9129,"déli":9130,"beren":9131,"voldoende":9132,"camion":9133,"tricité":9134,"dolor":9135,"seeing":9136,"musique":9137,"Rafa":9138,"tendrán":9139,"historique":9140,"wrong":9141,"Hel":9142,"Kim":9143,"Pho":9144,"Sau":9145,"fro":9146,"hid":9147,"tone":9148,"devenu":9149,"income":9150,"sements":9151,"verho":9152,"opvang":9153,"pointed":9154,"roe":9155,"appr":9156,"minor":9157,"whose":9158,"somos":9159,"integra":9160,"necesita":9161,"Aujourd":9162,"crétaire":9163,"musical":9164,"Senate":9165,"ingresos":9166,"raised":9167,"contexto":9168,"accueilli":9169,"GO":9170,"Ira":9171,"rul":9172,"vador":9173,"elig":9174,"contó":9175,"nies":9176,"maart":9177,"achat":9178,"artista":9179,"publié":9180,"cosa":9181,"profon":9182,"includes":9183,"adecu":9184,"followed":9185,"girl":9186,"judicial":9187,"influence":9188,"essential":9189,"Fede":9190,"Mul":9191,"Zelf":9192,"hart":9193,"otor":9194,"slot":9195,"veter":9196,"enfin":9197,"lados":9198,"gehouden":9199,"command":9200,"compra":9201,"pedido":9202,"importe":9203,"delito":9204,"débat":9205,"pourquoi":9206,"voorkomen":9207,"survi":9208,"alimentos":9209,"chair":9210,"kelijke":9211,"counter":9212,"joué":9213,"placed":9214,"univer":9215,"contacto":9216,"variant":9217,"periodo":9218,"razón":9219,"conflicto":9220,"leider":9221,"plateforme":9222,"próximos":9223,"autonom":9224,"Agr":9225,"Aja":9226,"Gru":9227,"Pad":9228,"vlak":9229,"cemment":9230,"empla":9231,"disminu":9232,"mées":9233,"avais":9234,"vrai":9235,"aime":9236,"Internacional":9237,"volución":9238,"decidió":9239,"icanos":9240,"Alej":9241,"lèmes":9242,"confianza":9243,"permane":9244,"champions":9245,"individuals":9246,"suggest":9247,"kampioen":9248,"Richard":9249,"Samsung":9250,"89":9251,"RA":9252,"SU":9253,"Sw":9254,"Tar":9255,"Veel":9256,"bid":9257,"dal":9258,"antie":9259,"ished":9260,"cite":9261,"suici":9262,"daire":9263,"poursuit":9264,"standing":9265,"juez":9266,"confirmó":9267,"intervención":9268,"capacité":9269,"judicia":9270,"walk":9271,"cultural":9272,"Party":9273,"Martín":9274,"cross":9275,"immediately":9276,"réguli":9277,"policiers":9278,"76":9279,"BM":9280,"PD":9281,"elabor":9282,"kwar":9283,"sound":9284,"vals":9285,"pocos":9286,"extran":9287,"hoef":9288,"trein":9289,"posted":9290,"Inc":9291,"bois":9292,"center":9293,"campus":9294,"gesto":9295,"tiendo":9296,"belo":9297,"alized":9298,"claimed":9299,"midden":9300,"wild":9301,"tiempos":9302,"2009":9303,"index":9304,"lorsqu":9305,"políticos":9306,"collection":9307,"médico":9308,"électricité":9309,"require":9310,"Britse":9311,"challenges":9312,"souhaite":9313,"periodista":9314,"aanwezig":9315,"teléfon":9316,"Dem":9317,"cins":9318,"gig":9319,"ergens":9320,"incon":9321,"omp":9322,"quez":9323,"diario":9324,"tappen":9325,"macht":9326,"tuur":9327,"presidential":9328,"diez":9329,"zocht":9330,"bericht":9331,"werkelijk":9332,"nuclé":9333,"personen":9334,"journalis":9335,"barrio":9336,"daarvoor":9337,"problèmes":9338,"patient":9339,"drug":9340,"pourraient":9341,"administración":9342,"estudiantes":9343,"commerce":9344,"argentino":9345,"noticia":9346,"korte":9347,"VVD":9348,"título":9349,"bevolking":9350,"jército":9351,"GE":9352,"Jour":9353,"Wall":9354,"gou":9355,"pil":9356,"ervoor":9357,"innen":9358,"revel":9359,"lequel":9360,"chron":9361,"tried":9362,"ratio":9363,"podium":9364,"expan":9365,"exécu":9366,"café":9367,"détermin":9368,"cars":9369,"cker":9370,"hua":9371,"moments":9372,"organiza":9373,"woningen":9374,"generar":9375,"attendre":9376,"intensi":9377,"respecti":9378,"bruik":9379,"changement":9380,"reduce":9381,"desarrollar":9382,"slecht":9383,"Banco":9384,"built":9385,"negocio":9386,"previously":9387,"ocasión":9388,"launch":9389,"thousands":9390,"Uit":9391,"fat":9392,"gie":9393,"sín":9394,"didos":9395,"mann":9396,"ruk":9397,"critical":9398,"ception":9399,"problems":9400,"Francia":9401,"conflit":9402,"Minnes":9403,"realmente":9404,"présenté":9405,"levens":9406,"Administra":9407,"engage":9408,"sospe":9409,"British":9410,"gagner":9411,"Gonzá":9412,"First":9413,"NC":9414,"Oc":9415,"Rem":9416,"dang":9417,"dores":9418,"jong":9419,"mere":9420,"nit":9421,"encial":9422,"cida":9423,"uri":9424,"contest":9425,"verz":9426,"soient":9427,"hoc":9428,"giques":9429,"instala":9430,"función":9431,"county":9432,"Estos":9433,"politieke":9434,"denuncia":9435,"Domin":9436,"England":9437,"fantas":9438,"réunion":9439,"slachtoffer":9440,"eléctr":9441,"Messi":9442,"NL":9443,"Sto":9444,"Wol":9445,"knew":9446,"salle":9447,"dement":9448,"aná":9449,"aclar":9450,"comman":9451,"neas":9452,"loir":9453,"quién":9454,"stations":9455,"internacionales":9456,"volunt":9457,"Alberto":9458,"turning":9459,"dirección":9460,"planes":9461,"mitted":9462,"ugd":9463,"increasing":9464,"studenten":9465,"ologies":9466,"Alleen":9467,"klanten":9468,"Fox":9469,"oposición":9470,"Sénégal":9471,"79":9472,"Ano":9473,"Eliz":9474,"Jones":9475,"Puerto":9476,"pijn":9477,"édu":9478,"leger":9479,"veur":9480,"compon":9481,"común":9482,"votes":9483,"grens":9484,"fré":9485,"voort":9486,"Defen":9487,"volun":9488,"kov":9489,"espect":9490,"futur":9491,"primeras":9492,"participation":9493,"alcanzar":9494,"stories":9495,"regels":9496,"speelt":9497,"chiffres":9498,"activities":9499,"Tesla":9500,"González":9501,"Miss":9502,"festi":9503,"hout":9504,"ltat":9505,"ísi":9506,"ended":9507,"teor":9508,"parcours":9509,"imen":9510,"saires":9511,"zee":9512,"file":9513,"ganó":9514,"fiche":9515,"média":9516,"Republic":9517,"Franse":9518,"videmment":9519,"putés":9520,"remporté":9521,"belangrijke":9522,"incendie":9523,"neutr":9524,"Brown":9525,"encima":9526,"defens":9527,"aquellos":9528,"Santé":9529,"présidentielle":9530,"tegenwoordig":9531,"élèves":9532,"Martínez":9533,"Obrador":9534,"Ajax":9535,"73":9536,"Dere":9537,"Kam":9538,"Mme":9539,"hat":9540,"sop":9541,"requis":9542,"heer":9543,"ouder":9544,"atos":9545,"didas":9546,"liep":9547,"gehe":9548,"voeg":9549,"tenga":9550,"fines":9551,"speed":9552,"planta":9553,"presenta":9554,"hundred":9555,"peso":9556,"tasa":9557,"burgers":9558,"groupes":9559,"possibilité":9560,"réponse":9561,"estrategia":9562,"Patrick":9563,"Santiago":9564,"Rap":9565,"TI":9566,"zy":9567,"hect":9568,"divid":9569,"rik":9570,"igu":9571,"hoeft":9572,"lywood":9573,"preci":9574,"afstand":9575,"agt":9576,"inscrit":9577,"ientes":9578,"obtener":9579,"stil":9580,"renfor":9581,"rendez":9582,"beslis":9583,"funds":9584,"género":9585,"institución":9586,"concernant":9587,"spring":9588,"september":9589,"indépend":9590,"vertrouwen":9591,"Elizabeth":9592,"Camp":9593,"D66":9594,"Ku":9595,"Wester":9596,"flink":9597,"jal":9598,"alf":9599,"legt":9600,"trust":9601,"sio":9602,"mot":9603,"roep":9604,"cook":9605,"outes":9606,"afi":9607,"firma":9608,"iff":9609,"ody":9610,"rappelle":9611,"cultura":9612,"alisation":9613,"particulier":9614,"golf":9615,"multipli":9616,"Merce":9617,"estadio":9618,"analyse":9619,"certainly":9620,"amarilla":9621,"verkiezingen":9622,"oplossing":9623,"Gabri":9624,"Home":9625,"Mem":9626,"Sports":9627,"rar":9628,"rates":9629,"anes":9630,"intelli":9631,"ciel":9632,"diálogo":9633,"vele":9634,"estados":9635,"raf":9636,"procès":9637,"immédi":9638,"pation":9639,"istische":9640,"añad":9641,"étape":9642,"tivement":9643,"caused":9644,"trouvé":9645,"Perú":9646,"glob":9647,"forcement":9648,"multiple":9649,"emergencia":9650,"flexi":9651,"découvrir":9652,"Indian":9653,"Sinds":9654,"Than":9655,"ax":9656,"digo":9657,"gevolgen":9658,"movili":9659,"récemment":9660,"overall":9661,"finally":9662,"boom":9663,"aker":9664,"volvió":9665,"stric":9666,"renou":9667,"totale":9668,"kunst":9669,"register":9670,"joue":9671,"Force":9672,"intention":9673,"broad":9674,"tilla":9675,"consist":9676,"calling":9677,"criminal":9678,"Omdat":9679,"tráfico":9680,"Mercedes":9681,"LG":9682,"Sara":9683,"Two":9684,"anni":9685,"arbe":9686,"regen":9687,"isée":9688,"ouest":9689,"entos":9690,"dite":9691,"ilton":9692,"gegaan":9693,"veux":9694,"negen":9695,"dog":9696,"stuur":9697,"déf":9698,"gate":9699,"paration":9700,"britan":9701,"mondial":9702,"morts":9703,"helped":9704,"prisión":9705,"especi":9706,"Program":9707,"cierre":9708,"agency":9709,"infection":9710,"hospitals":9711,"municipales":9712,"particularly":9713,"symptoms":9714,"Minnesota":9715,"1000":9716,"Bit":9717,"Fuer":9718,"ahor":9719,"pese":9720,"zware":9721,"escol":9722,"essay":9723,"arily":9724,"adding":9725,"dieren":9726,"noon":9727,"dul":9728,"peau":9729,"gencias":9730,"delines":9731,"ulent":9732,"alló":9733,"discours":9734,"disposición":9735,"Indus":9736,"stated":9737,"stiks":9738,"Republican":9739,"barre":9740,"besluit":9741,"osecu":9742,"daarbij":9743,"terminó":9744,"azón":9745,"continuar":9746,"principio":9747,"máxima":9748,"connect":9749,"afhankelijk":9750,"Bill":9751,"Lé":9752,"Mana":9753,"Sie":9754,"stroom":9755,"lage":9756,"verwij":9757,"verlen":9758,"meu":9759,"dest":9760,"comis":9761,"moyens":9762,"delà":9763,"vaart":9764,"served":9765,"corri":9766,"Mary":9767,"waarmee":9768,"ambiente":9769,"subray":9770,"climate":9771,"host":9772,"gemeester":9773,"Alemania":9774,"destino":9775,"études":9776,"atteindre":9777,"versiones":9778,"Andrés":9779,"Públi":9780,"uil":9781,"ener":9782,"titel":9783,"tières":9784,"towards":9785,"conqu":9786,"acquis":9787,"dub":9788,"style":9789,"emis":9790,"collè":9791,"rouge":9792,"Then":9793,"conoció":9794,"foreign":9795,"Boven":9796,"áticas":9797,"driver":9798,"radic":9799,"considered":9800,"verdachte":9801,"ológico":9802,"assistance":9803,"Pérez":9804,"crypto":9805,"Sans":9806,"revan":9807,"section":9808,"idores":9809,"exhi":9810,"febru":9811,"suspe":9812,"positivo":9813,"ograp":9814,"participer":9815,"juegos":9816,"candidats":9817,"infected":9818,"gebeuren":9819,"correct":9820,"vigil":9821,"ambassa":9822,"explained":9823,"bepaalde":9824,"Verstappen":9825,"Another":9826,"februari":9827,"HD":9828,"IM":9829,"Up":9830,"kru":9831,"mm":9832,"nó":9833,"pê":9834,"vimos":9835,"verzeker":9836,"doe":9837,"provid":9838,"proches":9839,"answer":9840,"exces":9841,"presta":9842,"Alg":9843,"colog":9844,"controver":9845,"Those":9846,"completo":9847,"feeling":9848,"instalaciones":9849,"Ven":9850,"cées":9851,"fill":9852,"jullie":9853,"nul":9854,"remember":9855,"représente":9856,"unit":9857,"ops":9858,"prot":9859,"grá":9860,"dence":9861,"correspond":9862,"plais":9863,"Invest":9864,"obil":9865,"ierra":9866,"relaciones":9867,"ffers":9868,"tourno":9869,"panel":9870,"móvil":9871,"confiance":9872,"meilleure":9873,"krijk":9874,"pequeño":9875,"OTAN":9876,"salió":9877,"beyond":9878,"Lond":9879,"Muse":9880,"Var":9881,"flow":9882,"wester":9883,"árez":9884,"arbit":9885,"leo":9886,"chtig":9887,"comprend":9888,"procure":9889,"frac":9890,"voorzien":9891,"staats":9892,"creación":9893,"largest":9894,"mesa":9895,"basket":9896,"itaciones":9897,"Comité":9898,"nueve":9899,"clima":9900,"energéti":9901,"crimes":9902,"suivre":9903,"Turk":9904,"afirma":9905,"intervention":9906,"cription":9907,"Plusieurs":9908,"Tribunal":9909,"equipment":9910,"caída":9911,"NFL":9912,"kiezen":9913,"Profes":9914,"facilities":9915,"TikTok":9916,"vluchtelingen":9917,"debut":9918,"devait":9919,"concurren":9920,"illas":9921,"olen":9922,"votos":9923,"abel":9924,"sures":9925,"León":9926,"énor":9927,"merk":9928,"aking":9929,"Algun":9930,"inaire":9931,"villes":9932,"pratique":9933,"Station":9934,"texte":9935,"automa":9936,"Kevin":9937,"categoría":9938,"simply":9939,"movimiento":9940,"esfuerzo":9941,"verantwoordelijk":9942,"AE":9943,"cere":9944,"mpe":9945,"mando":9946,"defe":9947,"deeld":9948,"debat":9949,"incar":9950,"invent":9951,"arre":9952,"lated":9953,"asking":9954,"novel":9955,"peor":9956,"cuán":9957,"edom":9958,"delan":9959,"save":9960,"expos":9961,"coinci":9962,"voordat":9963,"apps":9964,"cionados":9965,"pressure":9966,"fiesta":9967,"carga":9968,"calend":9969,"cents":9970,"entrepren":9971,"Any":9972,"upon":9973,"préci":9974,"cependant":9975,"normaal":9976,"infra":9977,"Frankrijk":9978,"couldn":9979,"processus":9980,"recordar":9981,"dienen":9982,"Liver":9983,"named":9984,"looked":9985,"Miami":9986,"esterday":9987,"declaró":9988,"solid":9989,"temperatur":9990,"Capital":9991,"reached":9992,"shooting":9993,"Cur":9994,"Gal":9995,"MT":9996,"Mali":9997,"Nog":9998,"Vill":9999,"cable":10000,"gl":10001,"rey":10002,"retail":10003,"tober":10004,"convic":10005,"amis":10006,"gewon":10007,"gekregen":10008,"mei":10009,"descen":10010,"bezoek":10011,"compu":10012,"gena":10013,"gras":10014,"naire":10015,"stade":10016,"couver":10017,"Marine":10018,"update":10019,"sommige":10020,"norma":10021,"polé":10022,"respet":10023,"centrales":10024,"kinder":10025,"conductor":10026,"suivi":10027,"encontraba":10028,"institutions":10029,"tierra":10030,"investisse":10031,"utiliser":10032,"oficiales":10033,"Nigeri":10034,"wapens":10035,"kijkt":10036,"répondre":10037,"promedio":10038,"Mit":10039,"Tous":10040,"fabri":10041,"étique":10042,"ervan":10043,"infr":10044,"league":10045,"desa":10046,"motiva":10047,"mobile":10048,"daños":10049,"cades":10050,"appare":10051,"appoint":10052,"worst":10053,"plaza":10054,"mismos":10055,"cero":10056,"alsnog":10057,"vise":10058,"drin":10059,"monu":10060,"humor":10061,"trip":10062,"itely":10063,"Parti":10064,"Comp":10065,"kern":10066,"adoras":10067,"function":10068,"talking":10069,"straks":10070,"Cuba":10071,"extraordin":10072,"próxima":10073,"llegado":10074,"circuit":10075,"generación":10076,"distribution":10077,"employés":10078,"contexte":10079,"offensive":10080,"wissel":10081,"migration":10082,"geloof":10083,"providing":10084,"Ker":10085,"Rol":10086,"pó":10087,"uwe":10088,"udades":10089,"espo":10090,"inwoners":10091,"sem":10092,"chir":10093,"gevangen":10094,"motion":10095,"soy":10096,"bueno":10097,"waarsch":10098,"établi":10099,"activos":10100,"struct":10101,"tainment":10102,"fourth":10103,"públicos":10104,"payer":10105,"stemmen":10106,"documents":10107,"initia":10108,"strijden":10109,"jongeren":10110,"régions":10111,"député":10112,"Londres":10113,"Avant":10114,"NI":10115,"Né":10116,"tario":10117,"inal":10118,"reforma":10119,"isen":10120,"issait":10121,"omgeving":10122,"diverse":10123,"délé":10124,"Lake":10125,"stappen":10126,"colon":10127,"lisis":10128,"battle":10129,"sanciones":10130,"laboral":10131,"operations":10132,"sacar":10133,"réalisé":10134,"religi":10135,"participants":10136,"recuperación":10137,"avoid":10138,"medewerkers":10139,"verenig":10140,"escribió":10141,"Portugal":10142,"physical":10143,"Acade":10144,"Rs":10145,"Tien":10146,"toes":10147,"location":10148,"doble":10149,"sufr":10150,"abat":10151,"antwoord":10152,"haps":10153,"utter":10154,"passa":10155,"ontde":10156,"surface":10157,"volk":10158,"choice":10159,"siones":10160,"étais":10161,"compter":10162,"alizada":10163,"Estas":10164,"quels":10165,"cyber":10166,"derecha":10167,"recorded":10168,"setting":10169,"esperan":10170,"roll":10171,"Valencia":10172,"automo":10173,"telefo":10174,"iniens":10175,"observa":10176,"siles":10177,"Staten":10178,"cientí":10179,"Nederlanders":10180,"chaîne":10181,"FE":10182,"Utre":10183,"fes":10184,"von":10185,"wl":10186,"add":10187,"secrétaire":10188,"beat":10189,"comprendre":10190,"dering":10191,"députés":10192,"metro":10193,"agers":10194,"placer":10195,"Elles":10196,"énom":10197,"cking":10198,"tribut":10199,"hore":10200,"organise":10201,"born":10202,"liever":10203,"Quel":10204,"offs":10205,"chances":10206,"Series":10207,"Nice":10208,"devraient":10209,"investment":10210,"atrième":10211,"ënten":10212,"locaux":10213,"conflict":10214,"annual":10215,"threat":10216,"gusta":10217,"Zuid":10218,"infrastructure":10219,"Ford":10220,"Most":10221,"cú":10222,"squ":10223,"detenido":10224,"reed":10225,"laciones":10226,"oui":10227,"atuur":10228,"cited":10229,"andra":10230,"aume":10231,"dows":10232,"hair":10233,"soins":10234,"keuze":10235,"tées":10236,"ariat":10237,"Law":10238,"aging":10239,"Engel":10240,"Lee":10241,"juli":10242,"woorden":10243,"Parmi":10244,"puedes":10245,"populations":10246,"rienden":10247,"kilo":10248,"pping":10249,"leveren":10250,"usually":10251,"rechtbank":10252,"debería":10253,"written":10254,"adelant":10255,"liefst":10256,"described":10257,"maatschappij":10258,"Pak":10259,"Top":10260,"email":10261,"devient":10262,"recommen":10263,"chacun":10264,"amid":10265,"usta":10266,"usión":10267,"tennis":10268,"Enfin":10269,"marqué":10270,"Leon":10271,"geldt":10272,"sustain":10273,"2025":10274,"colombi":10275,"triz":10276,"cler":10277,"grade":10278,"council":10279,"stoppen":10280,"incluye":10281,"principe":10282,"increment":10283,"collega":10284,"teriormente":10285,"benefits":10286,"heureusement":10287,"neuf":10288,"accusé":10289,"smartphone":10290,"Ministry":10291,"Christmas":10292,"volonté":10293,"betreft":10294,"domaine":10295,"Bil":10296,"vada":10297,"ciudades":10298,"dimen":10299,"dicen":10300,"parking":10301,"termijn":10302,"vaker":10303,"ficio":10304,"cancel":10305,"stead":10306,"personnage":10307,"moral":10308,"producten":10309,"Maur":10310,"spann":10311,"concerne":10312,"zorgt":10313,"Team":10314,"conduct":10315,"diferente":10316,"directly":10317,"appeared":10318,"journaliste":10319,"Times":10320,"accused":10321,"Virgin":10322,"protocol":10323,"Management":10324,"Liverpool":10325,"Hop":10326,"Wi":10327,"gada":10328,"ize":10329,"kam":10330,"nine":10331,"sun":10332,"revenir":10333,"title":10334,"dik":10335,"vere":10336,"sumar":10337,"vias":10338,"uele":10339,"récu":10340,"fail":10341,"aries":10342,"agir":10343,"inscri":10344,"credit":10345,"items":10346,"ctives":10347,"oktober":10348,"contrô":10349,"célè":10350,"primary":10351,"phen":10352,"quería":10353,"highest":10354,"spelers":10355,"televisión":10356,"delivery":10357,"guidelines":10358,"referencia":10359,"migrantes":10360,"Palest":10361,"Misschien":10362,"auront":10363,"régime":10364,"montrer":10365,"puissance":10366,"Certains":10367,"96":10368,"Cab":10369,"Fire":10370,"Sab":10371,"Wan":10372,"aport":10373,"kick":10374,"erve":10375,"rejo":10376,"meis":10377,"grim":10378,"grès":10379,"impos":10380,"mière":10381,"marche":10382,"mensu":10383,"testi":10384,"funciones":10385,"juntos":10386,"magis":10387,"croissance":10388,"finalmente":10389,"statis":10390,"siteit":10391,"YouTu":10392,"actualidad":10393,"engine":10394,"verklar":10395,"augmenter":10396,"schrijft":10397,"collaboration":10398,"aproxim":10399,"waiting":10400,"compétition":10401,"maladie":10402,"dónde":10403,"!”":10404,"Cont":10405,"vées":10406,"zom":10407,"éch":10408,"origen":10409,"alone":10410,"libr":10411,"ije":10412,"puerta":10413,"département":10414,"décédé":10415,"pourront":10416,"visage":10417,"continúa":10418,"jouw":10419,"Sobre":10420,"earnings":10421,"trainer":10422,"vraagd":10423,"ístico":10424,"science":10425,"montant":10426,"agreed":10427,"minimum":10428,"dirigeants":10429,"iedenis":10430,"Tijdens":10431,"hockey":10432,"stikstof":10433,"71":10434,"Gala":10435,"Ol":10436,"aded":10437,"fine":10438,"enfo":10439,"reis":10440,"quatrième":10441,"search":10442,"chent":10443,"libro":10444,"membre":10445,"estat":10446,"estatal":10447,"voting":10448,"supuesto":10449,"cuestión":10450,"cola":10451,"Def":10452,"illance":10453,"hips":10454,"discussions":10455,"trib":10456,"horiz":10457,"presentación":10458,"uels":10459,"publics":10460,"catég":10461,"clim":10462,"candidato":10463,"beginning":10464,"pronto":10465,"Fernando":10466,"veiligheid":10467,"législa":10468,"launched":10469,"garantizar":10470,"étudiants":10471,"episode":10472,"cuidado":10473,"agreement":10474,"leeftijd":10475,"Democrats":10476,"triunfo":10477,"museum":10478,"Cristina":10479,"Algérie":10480,"Utrecht":10481,"Post":10482,"aér":10483,"fout":10484,"gor":10485,"oca":10486,"py":10487,"vs":10488,"çant":10489,"espr":10490,"antaine":10491,"intes":10492,"recher":10493,"cimientos":10494,"separ":10495,"offrir":10496,"parc":10497,"compara":10498,"proberen":10499,"kept":10500,"appara":10501,"discrimin":10502,"carbur":10503,"volgt":10504,"gescho":10505,"catas":10506,"expertos":10507,"adium":10508,"emploi":10509,"Grande":10510,"ministerie":10511,"marketing":10512,"compañeros":10513,"presented":10514,"diploma":10515,"practice":10516,"empezó":10517,"Trois":10518,"Belgische":10519,"Dak":10520,"Hace":10521,"IC":10522,"UR":10523,"itions":10524,"kn":10525,"detr":10526,"onio":10527,"leiden":10528,"dij":10529,"liament":10530,"verpli":10531,"bekende":10532,"loved":10533,"dago":10534,"edas":10535,"delitos":10536,"pate":10537,"2030":10538,"failed":10539,"hique":10540,"hield":10541,"placé":10542,"plainte":10543,"zoon":10544,"Leg":10545,"entretien":10546,"hubi":10547,"productie":10548,"contrario":10549,"présidente":10550,"Euro":10551,"2007":10552,"intens":10553,"praak":10554,"Mayor":10555,"Alexander":10556,"kilomètres":10557,"directement":10558,"Educación":10559,"BTC":10560,"éléments":10561,"scheduled":10562,"College":10563,"Defensa":10564,"CR":10565,"Hill":10566,"blos":10567,"ongoing":10568,"laar":10569,"isant":10570,"tia":10571,"amo":10572,"oph":10573,"niño":10574,"viendo":10575,"residen":10576,"effici":10577,"bleef":10578,"beros":10579,"centres":10580,"itair":10581,"wouldn":10582,"alista":10583,"spending":10584,"Sergio":10585,"Corte":10586,"decisiones":10587,"élimin":10588,"benefit":10589,"District":10590,"intérieur":10591,"groei":10592,"mexicano":10593,"concept":10594,"consommation":10595,"sluiten":10596,"klinkt":10597,"entorno":10598,"Nues":10599,"Patri":10600,"phan":10601,"èrent":10602,"deja":10603,"intr":10604,"returned":10605,"advies":10606,"toeg":10607,"digen":10608,"diction":10609,"contem":10610,"contenido":10611,"vergelijk":10612,"sif":10613,"dait":10614,"trap":10615,"kee":10616,"fiet":10617,"durée":10618,"momenteel":10619,"égie":10620,"entrar":10621,"funcionario":10622,"laisser":10623,"geschiedenis":10624,"assuré":10625,"employment":10626,"Royal":10627,"encourage":10628,"facility":10629,"Philippe":10630,"Bom":10631,"Kel":10632,"Long":10633,"aant":10634,"bau":10635,"bano":10636,"delijke":10637,"reactie":10638,"ascen":10639,"prêt":10640,"usion":10641,"olvid":10642,"noir":10643,"navi":10644,"ultra":10645,"récla":10646,"discurso":10647,"features":10648,"icaciones":10649,"kerk":10650,"sometimes":10651,"domes":10652,"Despite":10653,"tomas":10654,"estimé":10655,"recordó":10656,"lotte":10657,"leaving":10658,"piece":10659,"agence":10660,"NAVO":10661,"november":10662,"mostró":10663,"quitter":10664,"moitié":10665,"constante":10666,"aplicación":10667,"Verenigde":10668,"affected":10669,"Rafael":10670,"81":10671,"Ana":10672,"Bob":10673,"F1":10674,"Fab":10675,"Game":10676,"OE":10677,"PA":10678,"Twe":10679,"Us":10680,"yesterday":10681,"ènes":10682,"escrit":10683,"laisse":10684,"dico":10685,"amble":10686,"usar":10687,"bewe":10688,"bewijs":10689,"rait":10690,"protes":10691,"viel":10692,"empren":10693,"gage":10694,"tuin":10695,"aandeel":10696,"fili":10697,"stake":10698,"merken":10699,"Arn":10700,"daarvan":10701,"climatique":10702,"ologue":10703,"investi":10704,"fondos":10705,"sentiment":10706,"violent":10707,"candidates":10708,"Boris":10709,"comprar":10710,"physique":10711,"domicile":10712,"campeón":10713,"Díaz":10714,"traffic":10715,"900":10716,"Lux":10717,"PN":10718,"Str":10719,"banda":10720,"hof":10721,"nd":10722,"pien":10723,"rally":10724,"sna":10725,"ancy":10726,"onger":10727,"orado":10728,"reces":10729,"itarios":10730,"dificul":10731,"amse":10732,"tages":10733,"teras":10734,"lois":10735,"havi":10736,"nuclear":10737,"sesión":10738,"egas":10739,"Partido":10740,"belge":10741,"edere":10742,"victi":10743,"vierte":10744,"suppli":10745,"bieron":10746,"catal":10747,"Luc":10748,"ryth":10749,"atender":10750,"Dios":10751,"confirmé":10752,"gelegen":10753,"Norte":10754,"estudios":10755,"impul":10756,"request":10757,"provincie":10758,"cérémonie":10759,"Blu":10760,"Barr":10761,"Dri":10762,"Gas":10763,"Iedere":10764,"Oper":10765,"Twee":10766,"cers":10767,"nour":10768,"repli":10769,"lezen":10770,"eler":10771,"eless":10772,"chés":10773,"veulent":10774,"comporte":10775,"tengan":10776,"voorlop":10777,"boden":10778,"mercados":10779,"besmet":10780,"tough":10781,"draaien":10782,"micron":10783,"recibido":10784,"queremos":10785,"facing":10786,"comunidades":10787,"conocimiento":10788,"ologique":10789,"keeping":10790,"migrants":10791,"denunci":10792,"krant":10793,"performances":10794,"ventaja":10795,"dejado":10796,"fraude":10797,"colaboración":10798,"optimis":10799,"seeking":10800,"lokale":10801,"Vincent":10802,"conect":10803,"manufactur":10804,"Dal":10805,"Ul":10806,"bap":10807,"pide":10808,"vrienden":10809,"deau":10810,"reprises":10811,"seas":10812,"desper":10813,"comfor":10814,"comments":10815,"suele":10816,"duiz":10817,"gendar":10818,"pudi":10819,"pull":10820,"quiero":10821,"insta":10822,"gives":10823,"baas":10824,"garon":10825,"Marvel":10826,"matches":10827,"préf":10828,"listen":10829,"continent":10830,"vaste":10831,"Produ":10832,"owns":10833,"owners":10834,"esperar":10835,"públicas":10836,"abrir":10837,"habitantes":10838,"tically":10839,"espère":10840,"movement":10841,"archite":10842,"madrug":10843,"utilizar":10844,"izquierda":10845,"Ferrari":10846,"ejercicio":10847,"twintig":10848,"Elec":10849,"Fé":10850,"GB":10851,"Té":10852,"bac":10853,"bound":10854,"defense":10855,"inver":10856,"altura":10857,"remon":10858,"tivamente":10859,"entend":10860,"ligencia":10861,"users":10862,"ofreci":10863,"duo":10864,"dak":10865,"impossible":10866,"fear":10867,"finish":10868,"propag":10869,"tijden":10870,"border":10871,"Quant":10872,"justo":10873,"ledge":10874,"somme":10875,"quelles":10876,"supone":10877,"ancienne":10878,"tomó":10879,"vrije":10880,"Volks":10881,"lève":10882,"inició":10883,"majority":10884,"afecta":10885,"electr":10886,"projects":10887,"moesten":10888,"raisons":10889,"sugges":10890,"excellent":10891,"vacunación":10892,"Assemblée":10893,"acceder":10894,"Regional":10895,"YouTube":10896,"PL":10897,"bonds":10898,"cías":10899,"élu":10900,"orders":10901,"lejos":10902,"elt":10903,"itán":10904,"tren":10905,"opciones":10906,"mocht":10907,"dated":10908,"imientos":10909,"caciones":10910,"ruta":10911,"Elon":10912,"guy":10913,"scha":10914,"torney":10915,"ficit":10916,"waarvan":10917,"profiter":10918,"offers":10919,"kovic":10920,"cultuur":10921,"sorpres":10922,"bilan":10923,"especí":10924,"organismo":10925,"pouvez":10926,"opérations":10927,"street":10928,"goles":10929,"organization":10930,"Tenemos":10931,"artikel":10932,"conséquences":10933,"cuarto":10934,"sprake":10935,"diputado":10936,"raconte":10937,"84":10938,"Az":10939,"Asocia":10940,"Hom":10941,"Hist":10942,"curs":10943,"fl":10944,"nette":10945,"path":10946,"vity":10947,"envie":10948,"deo":10949,"demasi":10950,"loze":10951,"ours":10952,"perdió":10953,"richt":10954,"keken":10955,"corazón":10956,"feet":10957,"interpel":10958,"crash":10959,"largement":10960,"bación":10961,"producer":10962,"souff":10963,"victory":10964,"risques":10965,"presentar":10966,"subst":10967,"droom":10968,"fondo":10969,"llama":10970,"Atlan":10971,"holding":10972,"vroe":10973,"résultat":10974,"libér":10975,"Olivier":10976,"Antwerpen":10977,"www":10978,"Bull":10979,"presupuesto":10980,"%).":10981,"(.":10982,"Aus":10983,"Agu":10984,"BBC":10985,"Carr":10986,"Catal":10987,"Gold":10988,"NE":10989,"Sher":10990,"Sala":10991,"kou":10992,"kins":10993,"més":10994,"rural":10995,"scar":10996,"âtre":10997,"leving":10998,"outil":10999,"eling":11000,"prices":11001,"chante":11002,"licha":11003,"consoli":11004,"dochter":11005,"messages":11006,"rouw":11007,"regret":11008,"tirer":11009,"culp":11010,"sorpren":11011,"tegenover":11012,"Desarrol":11013,"rusos":11014,"Board":11015,"Why":11016,"travaille":11017,"owner":11018,"objetivos":11019,"solución":11020,"Verder":11021,"frontera":11022,"declaración":11023,"spreken":11024,"directora":11025,"Justin":11026,"ocurrido":11027,"ukrainienne":11028,"Groen":11029,"Hamilton":11030,"numérique":11031,"Gabriel":11032,"BB":11033,"PE":11034,"Tai":11035,"XX":11036,"cines":11037,"tun":11038,"decades":11039,"relig":11040,"refu":11041,"associa":11042,"atoria":11043,"secu":11044,"taille":11045,"idamente":11046,"verke":11047,"compe":11048,"voice":11049,"export":11050,"igan":11051,"vooruit":11052,"affiche":11053,"disco":11054,"menu":11055,"gió":11056,"ferme":11057,"collec":11058,"bases":11059,"Commit":11060,"attendu":11061,"putting":11062,"Like":11063,"municipios":11064,"entender":11065,"operaciones":11066,"birth":11067,"efectos":11068,"vlucht":11069,"Andrew":11070,"competencia":11071,"esposa":11072,"organizaciones":11073,"madrugada":11074,"Nav":11075,"Pl":11076,"Wo":11077,"hall":11078,"leren":11079,"md":11080,"tte":11081,"évidemment":11082,"infect":11083,"revient":11084,"lab":11085,"union":11086,"adminis":11087,"pru":11088,"geïn":11089,"dum":11090,"décadas":11091,"ignement":11092,"prece":11093,"feit":11094,"cree":11095,"Anti":11096,"houder":11097,"Noël":11098,"costs":11099,"ift":11100,"Parlement":11101,"kozen":11102,"respeto":11103,"blood":11104,"reciente":11105,"Whats":11106,"records":11107,"Guin":11108,"responsi":11109,"electric":11110,"Josep":11111,"dorp":11112,"avions":11113,"spectacle":11114,"domicilio":11115,"numéro":11116,"74":11117,"82":11118,"Cep":11119,"Emer":11120,"Mou":11121,"PM":11122,"VA":11123,"bood":11124,"onato":11125,"usual":11126,"acre":11127,"culos":11128,"nier":11129,"exigen":11130,"papier":11131,"nations":11132,"hion":11133,"feder":11134,"mening":11135,"pena":11136,"1990":11137,"inatie":11138,"gero":11139,"ctief":11140,"artiste":11141,"getr":11142,"pelen":11143,"society":11144,"supérie":11145,"north":11146,"enseign":11147,"tratamiento":11148,"incredi":11149,"eventually":11150,"operativo":11151,"sleep":11152,"commence":11153,"efecto":11154,"comercial":11155,"integrantes":11156,"faute":11157,"schrijven":11158,"Jackson":11159,"Antwerp":11160,"viviendas":11161,"lluvias":11162,"demonstra":11163,"Blue":11164,"búsqueda":11165,"Alejandro":11166,"volunte":11167,"duizend":11168,"WhatsApp":11169,"Bir":11170,"GA":11171,"Had":11172,"Non":11173,"NBA":11174,"Sem":11175,"gle":11176,"lers":11177,"vd":11178,"wai":11179,"èse":11180,"tively":11181,"adquir":11182,"ample":11183,"noemen":11184,"bewoners":11185,"goals":11186,"Enton":11187,"Although":11188,"gespe":11189,"valores":11190,"turno":11191,"epide":11192,"activa":11193,"blessure":11194,"middle":11195,"arriver":11196,"kwaliteit":11197,"consid":11198,"stars":11199,"Europea":11200,"driving":11201,"mely":11202,"offering":11203,"oportunidades":11204,"ingreso":11205,"narra":11206,"izenden":11207,"negative":11208,"bringing":11209,"fresh":11210,"opinión":11211,"entrenador":11212,"partenaires":11213,"compensa":11214,"britannique":11215,"detrás":11216,"Entonces":11217,"Abu":11218,"Eind":11219,"Land":11220,"Nik":11221,"Rese":11222,"Solo":11223,"cár":11224,"fijn":11225,"ivo":11226,"kri":11227,"çons":11228,"orte":11229,"prosecu":11230,"verkoop":11231,"beleg":11232,"behandel":11233,"exclu":11234,"sert":11235,"outs":11236,"réfugi":11237,"brir":11238,"ánsito":11239,"cky":11240,"tará":11241,"Art":11242,"symbo":11243,"vitesse":11244,"tempér":11245,"completely":11246,"tratar":11247,"miedo":11248,"approche":11249,"favorite":11250,"figur":11251,"Toronto":11252,"comprome":11253,"managed":11254,"systems":11255,"owned":11256,"Mensen":11257,"exerci":11258,"spirit":11259,"vulnerable":11260,"mauvais":11261,"velocidad":11262,"Bovendien":11263,"tournoi":11264,"Cet":11265,"Cada":11266,"Dig":11267,"anen":11268,"entales":11269,"proxim":11270,"weather":11271,"plen":11272,"overigens":11273,"Also":11274,"cked":11275,"ficos":11276,"waters":11277,"types":11278,"mites":11279,"Porque":11280,"procesos":11281,"Nederlands":11282,"Guy":11283,"intención":11284,"classe":11285,"brug":11286,"Internet":11287,"ataques":11288,"institution":11289,"Steven":11290,"appelle":11291,"figura":11292,"Simon":11293,"elektrische":11294,"revanche":11295,"waarschuw":11296,"Oran":11297,"Pra":11298,"foo":11299,"kas":11300,"vand":11301,"alert":11302,"refor":11303,"itas":11304,"division":11305,"size":11306,"dagelijk":11307,"cumple":11308,"lyn":11309,"apon":11310,"arez":11311,"fee":11312,"sencil":11313,"beri":11314,"calor":11315,"pleine":11316,"ured":11317,"Andro":11318,"versie":11319,"méda":11320,"partout":11321,"piel":11322,"Cole":11323,"warned":11324,"evening":11325,"Today":11326,"subir":11327,"although":11328,"straight":11329,"healthy":11330,"Castillo":11331,"minuto":11332,"Hollywood":11333,"souhait":11334,"corrupción":11335,"escuela":11336,"exactly":11337,"toerno":11338,"malige":11339,"bécois":11340,"teléfono":11341,"Cir":11342,"Chel":11343,"Rome":11344,"Ses":11345,"Sky":11346,"Tel":11347,"april":11348,"dando":11349,"kit":11350,"snap":11351,"tv":11352,"yers":11353,"évent":11354,"inti":11355,"atas":11356,"cities":11357,"chon":11358,"tafel":11359,"perío":11360,"tenían":11361,"nait":11362,"défi":11363,"venti":11364,"Environ":11365,"boe":11366,"drá":11367,"colum":11368,"Nee":11369,"courant":11370,"relation":11371,"cuentas":11372,"puntu":11373,"fuertes":11374,"climat":11375,"organisations":11376,"travailleurs":11377,"croy":11378,"Canadien":11379,"economie":11380,"classement":11381,"attaques":11382,"texto":11383,"puedo":11384,"circulation":11385,"figures":11386,"offered":11387,"Vice":11388,"III":11389,"abilities":11390,"faisait":11391,"constant":11392,"consecuencia":11393,"Toute":11394,"centaines":11395,"étrangères":11396,"Jordan":11397,"Guardia":11398,"pertene":11399,"artículo":11400,"siècle":11401,"muestran":11402,"Desarrollo":11403,"-,":11404,"Ghan":11405,"Pit":11406,"Río":11407,"Spr":11408,"Sir":11409,"cador":11410,"jado":11411,"zette":11412,"deporte":11413,"december":11414,"inch":11415,"alma":11416,"rel":11417,"remise":11418,"chner":11419,"acos":11420,"accé":11421,"compati":11422,"jeugd":11423,"hoek":11424,"eful":11425,"carbon":11426,"herinner":11427,"Marcel":11428,"rene":11429,"elections":11430,"vierde":11431,"planned":11432,"vino":11433,"subject":11434,"faces":11435,"consumid":11436,"concerned":11437,"scén":11438,"portavoz":11439,"Surin":11440,"diseñ":11441,"diseño":11442,"relief":11443,"pequeños":11444,"réduire":11445,"FIFA":11446,"industrial":11447,"regula":11448,"hatever":11449,"blessés":11450,"Grupo":11451,"09":11452,"5G":11453,"87":11454,"Braz":11455,"Cin":11456,"Fil":11457,"Gil":11458,"LO":11459,"gâ":11460,"h30":11461,"slim":11462,"ámb":11463,"envoy":11464,"anmoins":11465,"asses":11466,"assin":11467,"cill":11468,"amon":11469,"destro":11470,"comisión":11471,"gender":11472,"expen":11473,"published":11474,"hoort":11475,"metho":11476,"predi":11477,"Lewis":11478,"plekken":11479,"bai":11480,"policial":11481,"buur":11482,"chain":11483,"stige":11484,"sindi":11485,"pharma":11486,"afternoon":11487,"tiful":11488,"arrière":11489,"Pourtant":11490,"élus":11491,"opéra":11492,"koning":11493,"volume":11494,"Hugo":11495,"kaart":11496,"sacri":11497,"promotion":11498,"participantes":11499,"beneficios":11500,"época":11501,"rápido":11502,"Tweede":11503,"Android":11504,"Fol":11505,"alt":11506,"admir":11507,"praten":11508,"formed":11509,"examen":11510,"puestas":11511,"dée":11512,"vague":11513,"cool":11514,"mili":11515,"canal":11516,"éndose":11517,"morgen":11518,"tural":11519,"geten":11520,"Sebas":11521,"actuelle":11522,"talks":11523,"darle":11524,"burgemeester":11525,"principios":11526,"francs":11527,"brother":11528,"pouvait":11529,"Plata":11530,"élector":11531,"diversos":11532,"probablement":11533,"líderes":11534,"successful":11535,"choisi":11536,"slachtoffers":11537,"Global":11538,"Prince":11539,"análisis":11540,"130":11541,"Bron":11542,"Eg":11543,"Lit":11544,"Oost":11545,"Tunis":11546,"Wit":11547,"Xbox":11548,"male":11549,"pista":11550,"yard":11551,"yards":11552,"écoles":11553,"devoir":11554,"deuda":11555,"tida":11556,"mega":11557,"actriz":11558,"bedrag":11559,"loot":11560,"sturen":11561,"grie":11562,"grado":11563,"frustra":11564,"ounded":11565,"Alp":11566,"mascul":11567,"actief":11568,"ouverte":11569,"completed":11570,"necesidades":11571,"green":11572,"helping":11573,"seguidores":11574,"representantes":11575,"spoke":11576,"empleo":11577,"investors":11578,"llegaron":11579,"temperatura":11580,"besoins":11581,"Creo":11582,"complètement":11583,"événements":11584,"ubicado":11585,"témoig":11586,"Valley":11587,"peligro":11588,"Président":11589,"accueillir":11590,"kwartaal":11591,"síntomas":11592,"Research":11593,"Dès":11594,"bby":11595,"evacu":11596,"hará":11597,"oef":11598,"rose":11599,"erte":11600,"involu":11601,"lamento":11602,"quina":11603,"quart":11604,"entendre":11605,"ads":11606,"church":11607,"iland":11608,"idt":11609,"maxima":11610,"lose":11611,"respal":11612,"ressources":11613,"coche":11614,"coût":11615,"surge":11616,"guide":11617,"drones":11618,"bijzonder":11619,"tores":11620,"dures":11621,"pelo":11622,"costo":11623,"digde":11624,"siglo":11625,"standard":11626,"Juli":11627,"médicos":11628,"decisions":11629,"auraient":11630,"chip":11631,"samenwerking":11632,"teiten":11633,"militares":11634,"animales":11635,"girls":11636,"applications":11637,"deberá":11638,"conferencia":11639,"entraîneur":11640,"Boston":11641,"abierto":11642,"geraakt":11643,"Hernández":11644,"nucléaire":11645,"lichaam":11646,"Committee":11647,"Bau":11648,"Best":11649,"Pendant":11650,"Sor":11651,"oise":11652,"vard":11653,"vils":11654,"écr":11655,"depend":11656,"orten":11657,"att":11658,"trend":11659,"triste":11660,"inger":11661,"congres":11662,"usage":11663,"thro":11664,"comida":11665,"podía":11666,"hire":11667,"bleven":11668,"joined":11669,"visie":11670,"French":11671,"master":11672,"tress":11673,"ized":11674,"presentado":11675,"Sub":11676,"network":11677,"Media":11678,"autoridad":11679,"spend":11680,"putados":11681,"realizará":11682,"invlo":11683,"documento":11684,"empleados":11685,"prochaines":11686,"voelt":11687,"Massa":11688,"modern":11689,"conversation":11690,"aprovech":11691,"suficiente":11692,"judiciaire":11693,"Asociación":11694,"86":11695,"Dor":11696,"Ese":11697,"HO":11698,"Va":11699,"zando":11700,"anks":11701,"laan":11702,"toll":11703,"chale":11704,"dijeron":11705,"liv":11706,"magas":11707,"bedoel":11708,"behavi":11709,"comport":11710,"porcenta":11711,"teniendo":11712,"exprim":11713,"trafic":11714,"récol":11715,"feels":11716,"margin":11717,"diep":11718,"overal":11719,"penser":11720,"camin":11721,"tienes":11722,"iteit":11723,"Señ":11724,"phénom":11725,"koord":11726,"wijzen":11727,"vital":11728,"programas":11729,"config":11730,"Both":11731,"eventos":11732,"approxima":11733,"scale":11734,"cabinet":11735,"vront":11736,"constitution":11737,"vienen":11738,"geschreven":11739,"influen":11740,"murió":11741,"española":11742,"LED":11743,"corruption":11744,"puertas":11745,"fighting":11746,"franchise":11747,"beschikbaar":11748,"Nicol":11749,"négociations":11750,"delantero":11751,"Bry":11752,"Ecu":11753,"Esa":11754,"Jay":11755,"ML":11756,"WE":11757,"côt":11758,"ipe":11759,"mbr":11760,"vy":11761,"écar":11762,"error":11763,"attribu":11764,"lied":11765,"voelen":11766,"duizenden":11767,"dations":11768,"kennis":11769,"wassen":11770,"weren":11771,"montré":11772,"artistes":11773,"clut":11774,"Italia":11775,"Once":11776,"fémin":11777,"ciudadanía":11778,"construir":11779,"Water":11780,"Offic":11781,"entrer":11782,"comenzar":11783,"edificio":11784,"principalmente":11785,"permanente":11786,"plaatst":11787,"markets":11788,"accueil":11789,"committed":11790,"bestaan":11791,"Secretary":11792,"scherm":11793,"recuerda":11794,"purchase":11795,"excuses":11796,"getroffen":11797,"côtés":11798,"Spo":11799,"Uru":11800,"fête":11801,"gina":11802,"mend":11803,"udes":11804,"yed":11805,"zca":11806,"ôme":11807,"envo":11808,"realiza":11809,"lager":11810,"verleden":11811,"parquet":11812,"meant":11813,"ieu":11814,"stores":11815,"gobier":11816,"traye":11817,"passing":11818,"efici":11819,"menace":11820,"overleden":11821,"missing":11822,"gué":11823,"eker":11824,"bridge":11825,"willing":11826,"obtenu":11827,"ustus":11828,"arrest":11829,"arrivé":11830,"identific":11831,"knows":11832,"clases":11833,"Brun":11834,"augustus":11835,"Genève":11836,"chefs":11837,"appeal":11838,"wedstrijden":11839,"celebración":11840,"hauteur":11841,"cadena":11842,"threaten":11843,"aventure":11844,"loyd":11845,"mínimo":11846,"intelligence":11847,"Cependant":11848,"Chelsea":11849,"Nas":11850,"Ry":11851,"eyes":11852,"Ál":11853,"çu":11854,"departamento":11855,"anual":11856,"ticos":11857,"cifras":11858,"lider":11859,"limin":11860,"uste":11861,"verb":11862,"terres":11863,"doctors":11864,"formal":11865,"stonden":11866,"podido":11867,"viendra":11868,"istance":11869,"steps":11870,"dron":11871,"juiste":11872,"artistas":11873,"Onze":11874,"occur":11875,"vacances":11876,"estilo":11877,"publicado":11878,"custo":11879,"terminé":11880,"crimen":11881,"directamente":11882,"revenus":11883,"definitely":11884,"utilisation":11885,"biedt":11886,"réaliser":11887,"Javier":11888,"professional":11889,"blanco":11890,"storm":11891,"retrouvé":11892,"locale":11893,"escuch":11894,"pregunta":11895,"democracia":11896,"Techn":11897,"housing":11898,"techniques":11899,"Taylor":11900,"espoir":11901,"victims":11902,"voorlopig":11903,",’":11904,"Cho":11905,"Crim":11906,"Ill":11907,"Ye":11908,"ole":11909,"rale":11910,"uelle":11911,"ètre":11912,"quanti":11913,"atory":11914,"etas":11915,"separa":11916,"vertellen":11917,"parfaite":11918,"compartir":11919,"loge":11920,"iement":11921,"cused":11922,"socio":11923,"denom":11924,"empat":11925,"missed":11926,"waard":11927,"ministres":11928,"itain":11929,"zier":11930,"victim":11931,"daardoor":11932,"situé":11933,"bloed":11934,"totalmente":11935,"holds":11936,"regiones":11937,"Sony":11938,"flat":11939,"économiques":11940,"developed":11941,"changé":11942,"Asia":11943,"manipu":11944,"defender":11945,"fotograf":11946,"verkopen":11947,"propuestas":11948,"wapen":11949,"opinion":11950,"gegevens":11951,"scolaire":11952,"sabemos":11953,"bewust":11954,"solamente":11955,"gebeurde":11956,"crowd":11957,"descans":11958,"protéger":11959,"CBS":11960,"Ini":11961,"RD":11962,"Stra":11963,"boot":11964,"eeuw":11965,"lingen":11966,"routes":11967,"wise":11968,"toires":11969,"libé":11970,"voter":11971,"genoot":11972,"tensions":11973,"tendencia":11974,"grève":11975,"immers":11976,"passant":11977,"treden":11978,"cesse":11979,"plays":11980,"eración":11981,"carse":11982,"cargos":11983,"inated":11984,"ondanks":11985,"policies":11986,"stico":11987,"langu":11988,"barri":11989,"pies":11990,"south":11991,"caught":11992,"clairement":11993,"warte":11994,"circun":11995,"showing":11996,"kwart":11997,"Press":11998,"présenter":11999,"dialogue":12000,"humano":12001,"entendu":12002,"loren":12003,"picture":12004,"volgend":12005,"ocup":12006,"allait":12007,"Dirección":12008,"invasión":12009,"straté":12010,"gezondheid":12011,"plaisir":12012,"domestic":12013,"Dos":12014,"Jong":12015,"Kom":12016,"OC":12017,"gesta":12018,"ku":12019,"piste":12020,"èles":12021,"realis":12022,"dient":12023,"concentr":12024,"verlo":12025,"acade":12026,"despla":12027,"forcé":12028,"grip":12029,"nik":12030,"trades":12031,"réus":12032,"lux":12033,"faveur":12034,"fiques":12035,"istisch":12036,"centra":12037,"dram":12038,"bajar":12039,"Confer":12040,"propios":12041,"instance":12042,"parecer":12043,"yourself":12044,"stands":12045,"crois":12046,"names":12047,"Services":12048,"Finan":12049,"reporting":12050,"amigo":12051,"ajouter":12052,"push":12053,"comerci":12054,"avion":12055,"scenario":12056,"ológica":12057,"belangrijkste":12058,"Governor":12059,"normale":12060,"consomma":12061,"orgul":12062,"propriétaire":12063,"identified":12064,"stratégie":12065,"soldats":12066,"Laurent":12067,"Luxem":12068,"toernooi":12069,"Bart":12070,"Vik":12071,"tons":12072,"arnos":12073,"reconnu":12074,"dicha":12075,"liqu":12076,"gela":12077,"older":12078,"formé":12079,"provis":12080,"hogere":12081,"ciaciones":12082,"miss":12083,"gely":12084,"huma":12085,"Market":12086,"transmission":12087,"amena":12088,"responder":12089,"arrived":12090,"estarán":12091,"Afghan":12092,"Steve":12093,"connaître":12094,"élevé":12095,"diversas":12096,"Well":12097,"desempe":12098,"easily":12099,"committee":12100,"civiles":12101,"meaning":12102,"Harris":12103,"pérdida":12104,"Business":12105,"coalition":12106,"beroep":12107,"professionnels":12108,"myself":12109,"thinking":12110,"Korea":12111,"Control":12112,"Coronavirus":12113,"célèbre":12114,"período":12115,"Hall":12116,"ID":12117,"Jeff":12118,"Ryan":12119,"lende":12120,"rand":12121,"wies":12122,"xion":12123,"escr":12124,"inse":12125,"reef":12126,"heur":12127,"osas":12128,"adic":12129,"user":12130,"despe":12131,"beurs":12132,"immen":12133,"weight":12134,"vage":12135,"portant":12136,"annes":12137,"publicó":12138,"Nov":12139,"puisqu":12140,"etsk":12141,"bonnes":12142,"cedentes":12143,"Local":12144,"vrijwil":12145,"fell":12146,"runs":12147,"Human":12148,"heureux":12149,"detalló":12150,"escuchar":12151,"consecuencias":12152,"reconocimiento":12153,"gelukkig":12154,"condamné":12155,"génération":12156,"stitut":12157,"Jesús":12158,"sufrió":12159,"aproximadamente":12160,"berichten":12161,"wieso":12162,"?\"":12163,"Dy":12164,"Fa":12165,"Jud":12166,"tch":12167,"íz":12168,"ñez":12169,"inj":12170,"reag":12171,"asistencia":12172,"verloren":12173,"geop":12174,"tern":12175,"acting":12176,"rable":12177,"procur":12178,"moord":12179,"cuyo":12180,"edit":12181,"immun":12182,"dédi":12183,"hoven":12184,"Departamento":12185,"lumière":12186,"effic":12187,"Inclus":12188,"crea":12189,"gericht":12190,"viral":12191,"firme":12192,"posibles":12193,"renun":12194,"totalement":12195,"Under":12196,"izar":12197,"transform":12198,"communes":12199,"tijds":12200,"cuentan":12201,"Meer":12202,"lateral":12203,"permettra":12204,"Affaires":12205,"frontière":12206,"samenleving":12207,"territori":12208,"Campe":12209,"roman":12210,"noticias":12211,"competition":12212,"brengt":12213,"writing":12214,"championnat":12215,"excell":12216,"schuld":12217,"resolución":12218,"espectá":12219,"350":12220,"Hong":12221,"Rica":12222,"Sci":12223,"Space":12224,"gées":12225,"hir":12226,"múlti":12227,"shel":12228,"vist":12229,"épou":12230,"dee":12231,"anse":12232,"lau":12233,"mots":12234,"pobre":12235,"hia":12236,"agi":12237,"aanval":12238,"feed":12239,"bais":12240,"politics":12241,"fotos":12242,"focused":12243,"prévue":12244,"Espagne":12245,"pié":12246,"soutenir":12247,"banque":12248,"athle":12249,"spons":12250,"Love":12251,"independent":12252,"Liber":12253,"Canadi":12254,"craft":12255,"tranqu":12256,"approved":12257,"allerlei":12258,"gezel":12259,"commerci":12260,"Christop":12261,"concluyó":12262,"journalistes":12263,"alternative":12264,"convocat":12265,"animaux":12266,"teachers":12267,"ervaring":12268,"judge":12269,"habilit":12270,"habló":12271,"Ecuador":12272,"Aren":12273,"Berg":12274,"Cór":12275,"Dol":12276,"Djo":12277,"Lar":12278,"Nación":12279,"Wille":12280,"Xi":12281,"bang":12282,"bille":12283,"cursos":12284,"fy":12285,"ennes":12286,"erland":12287,"anteriores":12288,"heavy":12289,"lidad":12290,"conces":12291,"amaz":12292,"acord":12293,"iran":12294,"défini":12295,"fruit":12296,"afford":12297,"corner":12298,"Albert":12299,"lijken":12300,"waarden":12301,"turismo":12302,"publicación":12303,"housi":12304,"prévoit":12305,"indicat":12306,"Ass":12307,"malig":12308,"pétrole":12309,"stoffen":12310,"winnaar":12311,"wilt":12312,"organisaties":12313,"isolation":12314,"soluciones":12315,"relevant":12316,"permettant":12317,"financiële":12318,"señalado":12319,"middelen":12320,"vraagt":12321,"initial":12322,"frag":12323,"Prix":12324,"razones":12325,"cripción":12326,"Hoewel":12327,"Chaque":12328,"vaccination":12329,"begonnen":12330,"Mexico":12331,"règles":12332,"Nicolas":12333,"financement":12334,"analysts":12335,"pantalla":12336,"Algunos":12337,"FM":12338,"Fed":12339,"Vegas":12340,"bons":12341,"gados":12342,"zwe":12343,"envers":12344,"ining":12345,"tez":12346,"toon":12347,"toward":12348,"uru":12349,"illos":12350,"olang":12351,"aud":12352,"actos":12353,"suerte":12354,"peux":12355,"resal":12356,"aars":12357,"voorspel":12358,"mile":12359,"previsto":12360,"Laat":12361,"poses":12362,"menes":12363,"pensio":12364,"britán":12365,"heridos":12366,"valent":12367,"Unido":12368,"activis":12369,"puisse":12370,"functie":12371,"situaciones":12372,"winner":12373,"tify":12374,"completamente":12375,"Mich":12376,"violences":12377,"patiënten":12378,"ciertos":12379,"sneller":12380,"Université":12381,"brandweer":12382,"ONG":12383,"pronon":12384,"believed":12385,"learned":12386,"intereses":12387,"impuestos":12388,"estadounidenses":12389,"chiffre":12390,"sueño":12391,"neighbor":12392,"róleo":12393,"insurance":12394,"Company":12395,"esprit":12396,"catastrop":12397,"Uruguay":12398,"EL":12399,"Mons":12400,"Other":12401,"UU":12402,"cof":12403,"gold":12404,"hs":12405,"kid":12406,"kwij":12407,"sick":12408,"uves":12409,"depart":12410,"lect":12411,"ouvrir":12412,"enthousi":12413,"terreno":12414,"esten":12415,"noemt":12416,"becoming":12417,"exige":12418,"exterior":12419,"lass":12420,"lastig":12421,"Develop":12422,"faced":12423,"corto":12424,"schil":12425,"getu":12426,"houders":12427,"belles":12428,"lish":12429,"actuar":12430,"CO2":12431,"programs":12432,"catch":12433,"responsible":12434,"proteger":12435,"gemeenten":12436,"Morena":12437,"appears":12438,"informado":12439,"tradicional":12440,"demander":12441,"freedom":12442,"consulta":12443,"régimen":12444,"Oscar":12445,"Robin":12446,"regreso":12447,"ucraniano":12448,"llamada":12449,"asielzoekers":12450,"bâtiment":12451,"standigheden":12452,"Federación":12453,"immédiate":12454,"Gusta":12455,"Thi":12456,"Year":12457,"cand":12458,"nic":12459,"yi":12460,"….":12461,"indis":12462,"remis":12463,"laars":12464,"omzet":12465,"tol":12466,"veget":12467,"lesiones":12468,"hai":12469,"défen":12470,"empez":12471,"aandelen":12472,"Anth":12473,"annul":12474,"ights":12475,"Reino":12476,"Russia":12477,"draagt":12478,"actuel":12479,"stoot":12480,"vacun":12481,"viajar":12482,"Beach":12483,"recientemente":12484,"terminar":12485,"langue":12486,"governor":12487,"werknemers":12488,"economische":12489,"Britain":12490,"difference":12491,"technologies":12492,"commencer":12493,"extended":12494,"audiencia":12495,"haute":12496,"tellement":12497,"eléctric":12498,"dangere":12499,"Amb":12500,"Cri":12501,"Fl":12502,"LR":12503,"Ninten":12504,"Schi":12505,"gala":12506,"lons":12507,"smo":12508,"ule":12509,"algé":12510,"refir":12511,"hearing":12512,"teerd":12513,"und":12514,"ligh":12515,"tack":12516,"verre":12517,"verras":12518,"audit":12519,"estén":12520,"nemer":12521,"absol":12522,"perfil":12523,"sty":12524,"naires":12525,"pasos":12526,"agon":12527,"dispos":12528,"banc":12529,"trabaja":12530,"captur":12531,"trouwens":12532,"2003":12533,"operating":12534,"approvision":12535,"effets":12536,"dirigente":12537,"agencia":12538,"valued":12539,"actores":12540,"resolver":12541,"studies":12542,"existing":12543,"tendance":12544,"établissement":12545,"améliorer":12546,"imagine":12547,"contamin":12548,"telefoon":12549,"Córdo":12550,"Nintendo":12551,"Bé":12552,"Haar":12553,"nera":12554,"rd":12555,"radi":12556,"évalu":12557,"repres":12558,"recep":12559,"retraite":12560,"heet":12561,"usted":12562,"verlies":12563,"meilleurs":12564,"acán":12565,"acters":12566,"ónico":12567,"impe":12568,"lash":12569,"coti":12570,"allé":12571,"aleza":12572,"filed":12573,"positief":12574,"youth":12575,"propiedad":12576,"psic":12577,"speech":12578,"uelles":12579,"Because":12580,"2006":12581,"bought":12582,"assis":12583,"André":12584,"construire":12585,"responsabilité":12586,"stream":12587,"schappen":12588,"honneur":12589,"wereldwij":12590,"vouloir":12591,"destaca":12592,"traditional":12593,"frais":12594,"registró":12595,"sistemas":12596,"comercio":12597,"progress":12598,"discussion":12599,"rimonio":12600,"Rodri":12601,"supplémentaires":12602,"gewonnen":12603,"Virginia":12604,"rythme":12605,"Joseph":12606,"83":12607,"CF":12608,"Dij":12609,"Ele":12610,"Fit":12611,"Kun":12612,"LM":12613,"Pere":12614,"Quer":12615,"Your":12616,"áles":12617,"delay":12618,"inda":12619,"repar":12620,"reage":12621,"ciclo":12622,"ingly":12623,"convirtió":12624,"ilos":12625,"usa":12626,"tades":12627,"verkocht":12628,"ofen":12629,"olis":12630,"termes":12631,"derheid":12632,"suel":12633,"delincu":12634,"puty":12635,"faible":12636,"Laura":12637,"cialmente":12638,"stein":12639,"intern":12640,"elegir":12641,"Está":12642,"actuación":12643,"rusa":12644,"wachting":12645,"travaill":12646,"collective":12647,"vuelve":12648,"debt":12649,"laissé":12650,"blanc":12651,"recovery":12652,"ukrainiens":12653,"groeien":12654,"recuperar":12655,"recomend":12656,"énergétique":12657,"Sept":12658,"adultos":12659,"dizaines":12660,"timately":12661,"Palacio":12662,"carretera":12663,"endroit":12664,"dividend":12665,"protesta":12666,"AA":12667,"Bad":12668,"Cari":12669,"Hé":12670,"Otro":12671,"Sum":12672,"pped":12673,"slight":12674,"ency":12675,"indu":12676,"ories":12677,"tire":12678,"ofer":12679,"gehaald":12680,"gevraagd":12681,"acqui":12682,"desaf":12683,"suces":12684,"suelo":12685,"imper":12686,"disting":12687,"personnages":12688,"mécan":12689,"ideal":12690,"tijn":12691,"Rey":12692,"istema":12693,"tank":12694,"lowing":12695,"touché":12696,"characters":12697,"leng":12698,"unities":12699,"dark":12700,"Naast":12701,"generation":12702,"Gov":12703,"recorrido":12704,"seraient":12705,"Daarmee":12706,"attacks":12707,"favorable":12708,"expressed":12709,"PSV":12710,"pieza":12711,"hoogste":12712,"voulu":12713,"vuelto":12714,"citing":12715,"voitures":12716,"portée":12717,"Vlaanderen":12718,"Delhi":12719,"negocios":12720,"establecer":12721,"opportunities":12722,"dette":12723,"reasons":12724,"beneficio":12725,"acusado":12726,"Institute":12727,"arrêter":12728,"existence":12729,"lancement":12730,"Nuevo":12731,"empezar":12732,"preocupación":12733,"zwak":12734,"pénur":12735,"ticket":12736,"Nederlander":12737,"física":12738,"basketball":12739,"invloed":12740,"approximately":12741,"Nicolás":12742,"?’":12743,"Ever":12744,"Eerder":12745,"Judi":12746,"eye":12747,"ibilidad":12748,"kro":12749,"swe":12750,"éclair":12751,"invier":12752,"reiter":12753,"maî":12754,"located":12755,"subi":12756,"cuis":12757,"poids":12758,"dépl":12759,"passes":12760,"zege":12761,"minst":12762,"chement":12763,"Alli":12764,"Alber":12765,"gardien":12766,"obs":12767,"buying":12768,"turb":12769,"komsten":12770,"costa":12771,"actitu":12772,"difun":12773,"clase":12774,"wijze":12775,"grew":12776,"identidad":12777,"collectif":12778,"pueblos":12779,"assemb":12780,"investissement":12781,"Turismo":12782,"university":12783,"facile":12784,"incendio":12785,"protests":12786,"stijging":12787,"watching":12788,"Fund":12789,"physi":12790,"scored":12791,"escuelas":12792,"combustible":12793,"Iedereen":12794,"Guinée":12795,"Djokovic":12796,"92":12797,"Bureau":12798,"DI":12799,"Four":12800,"Greg":12801,"Hur":12802,"Nick":12803,"Stan":12804,"Thou":12805,"aware":12806,"cón":12807,"île":12808,"injur":12809,"reux":12810,"tipos":12811,"quie":12812,"quía":12813,"advice":12814,"toi":12815,"tocht":12816,"tables":12817,"gever":12818,"vot":12819,"vants":12820,"sian":12821,"siège":12822,"perdido":12823,"caat":12824,"trekt":12825,"preuves":12826,"allons":12827,"mené":12828,"Instead":12829,"hermano":12830,"indruk":12831,"Chan":12832,"produjo":12833,"rendimiento":12834,"activo":12835,"souvenir":12836,"thank":12837,"blessé":12838,"acerca":12839,"Maison":12840,"deels":12841,"highly":12842,"shown":12843,"melden":12844,"causas":12845,"verschijn":12846,"Plaza":12847,"logrado":12848,"développer":12849,"happens":12850,"Défense":12851,"courage":12852,"téléphone":12853,"journalist":12854,"petróleo":12855,"asoci":12856,"speelde":12857,"surveillance":12858,"strategy":12859,"marchés":12860,"derrota":12861,"futbolista":12862,"Mohamed":12863,"exploitation":12864,"hundreds":12865,"Anthony":12866,"(…":12867,"Audi":12868,"Core":12869,"DH":12870,"Gali":12871,"Good":12872,"pont":12873,"zame":12874,"ër":12875,"encabe":12876,"retrait":12877,"lah":12878,"asy":12879,"quées":12880,"toeste":12881,"secours":12882,"opdra":12883,"dois":12884,"igers":12885,"treated":12886,"frères":12887,"Enter":12888,"dispose":12889,"anglais":12890,"policías":12891,"stimul":12892,"présents":12893,"souf":12894,"premio":12895,"Arm":12896,"draw":12897,"pollu":12898,"organisé":12899,"Island":12900,"tenter":12901,"statut":12902,"beautiful":12903,"scheid":12904,"declared":12905,"semblent":12906,"Brook":12907,"hopes":12908,"mensajes":12909,"skills":12910,"vehicles":12911,"regarding":12912,"tagne":12913,"Nadal":12914,"gebouwd":12915,"démocratie":12916,"lanzamiento":12917,"herramientas":12918,"réfugiés":12919,"Gó":12920,"Paz":12921,"Rijk":12922,"Wa":12923,"llas":12924,"twij":12925,"vistas":12926,"debajo":12927,"onna":12928,"alerta":12929,"reprise":12930,"lair":12931,"etes":12932,"prou":12933,"pria":12934,"chino":12935,"connue":12936,"verso":12937,"acadé":12938,"ieke":12939,"sides":12940,"pleno":12941,"Inde":12942,"missie":12943,"werp":12944,"nutri":12945,"militair":12946,"chaus":12947,"Sever":12948,"tirs":12949,"antil":12950,"tomb":12951,"prennent":12952,"hacerse":12953,"schoon":12954,"kwes":12955,"USA":12956,"proposed":12957,"books":12958,"automobil":12959,"activity":12960,"buenas":12961,"Penn":12962,"taxes":12963,"prepared":12964,"recommand":12965,"aumentar":12966,"agrade":12967,"aparición":12968,"poursuivre":12969,"tradu":12970,"gewone":12971,"Constitución":12972,"podcast":12973,"Servicio":12974,"05":12975,"Care":12976,"Get":12977,"Games":12978,"Mam":12979,"Math":12980,"Pic":12981,"Pública":12982,"Way":12983,"caba":12984,"fum":12985,"lá":12986,"nurs":12987,"namen":12988,"oeste":12989,"taller":12990,"tareas":12991,"vales":12992,"vues":12993,"reporte":12994,"aspect":12995,"prik":12996,"thi":12997,"parent":12998,"actes":12999,"rated":13000,"sim":13001,"suisse":13002,"gría":13003,"dévoil":13004,"réforme":13005,"Their":13006,"Inves":13007,"fif":13008,"boeken":13009,"entregar":13010,"bass":13011,"Ontario":13012,"plani":13013,"socios":13014,"enseñ":13015,"Isla":13016,"healthcare":13017,"avanzar":13018,"feliz":13019,"Maduro":13020,"analys":13021,"ocurre":13022,"igualdad":13023,"comentarios":13024,"murder":13025,"Education":13026,"anunciado":13027,"ontwikkeling":13028,"farmers":13029,"matériel":13030,"abogado":13031,"Georgia":13032,"voedsel":13033,"épisode":13034,"oficina":13035,"porcentaje":13036,"98":13037,"GS":13038,"Oct":13039,"cari":13040,"ecos":13041,"tad":13042,"âgé":13043,"leek":13044,"entro":13045,"cicle":13046,"secues":13047,"lived":13048,"vermogen":13049,"thor":13050,"parque":13051,"partage":13052,"gelegd":13053,"comba":13054,"lesion":13055,"dole":13056,"perte":13057,"modif":13058,"wealth":13059,"vivo":13060,"extérieur":13061,"pages":13062,"traat":13063,"ousse":13064,"rule":13065,"rupt":13066,"casas":13067,"cartes":13068,"aya":13069,"ounding":13070,"tino":13071,"tarse":13072,"directo":13073,"grab":13074,"Jeux":13075,"installa":13076,"boren":13077,"caution":13078,"filles":13079,"Poder":13080,"rusas":13081,"subs":13082,"burn":13083,"greater":13084,"contagios":13085,"Colorado":13086,"dólar":13087,"certaine":13088,"habitual":13089,"restent":13090,"reduced":13091,"registrado":13092,"utilisé":13093,"ordered":13094,"llevado":13095,"changing":13096,"notice":13097,"cuerpos":13098,"afectados":13099,"provides":13100,"Ouest":13101,"explosion":13102,"ámaras":13103,"liefde":13104,"commissie":13105,"trasladado":13106,"dizaine":13107,"dangerous":13108,"inmediato":13109,"Australian":13110,"éducation":13111,"zomaar":13112,"demasiado":13113,"cárcel":13114,"Gómez":13115,"911":13116,"Cé":13117,"Dre":13118,"Lion":13119,"Vie":13120,"flé":13121,"hurt":13122,"kk":13123,"lando":13124,"étés":13125,"dela":13126,"alar":13127,"refuer":13128,"rejet":13129,"tibles":13130,"atmos":13131,"chans":13132,"ingre":13133,"lide":13134,"tacti":13135,"verlie":13136,"accro":13137,"behoor":13138,"raket":13139,"comed":13140,"niñas":13141,"sowieso":13142,"cayó":13143,"cess":13144,"apre":13145,"hio":13146,"Enrique":13147,"finir":13148,"stable":13149,"garant":13150,"Antes":13151,"fications":13152,"hangen":13153,"Frans":13154,"publiques":13155,"publication":13156,"Italie":13157,"faites":13158,"Russes":13159,"francés":13160,"fuente":13161,"entidades":13162,"condición":13163,"responded":13164,"registro":13165,"cuela":13166,"juris":13167,"pronun":13168,"requiere":13169,"officielle":13170,"sprong":13171,"scient":13172,"remained":13173,"innova":13174,"Claude":13175,"mantu":13176,"cáncer":13177,"peligros":13178,"alumnos":13179,"gemiddelde":13180,"ajout":13181,"électrique":13182,"terrible":13183,"welijks":13184,"régulièrement":13185,"Oranje":13186,"Easter":13187,"Fal":13188,"IP":13189,"Io":13190,"Igu":13191,"Ivoire":13192,"Rio":13193,"bic":13194,"blé":13195,"gree":13196,"hí":13197,"varez":13198,"yeron":13199,"éto":13200,"decade":13201,"recal":13202,"tidos":13203,"leeg":13204,"civils":13205,"toor":13206,"uré":13207,"verwachten":13208,"tha":13209,"vey":13210,"haga":13211,"dération":13212,"bient":13213,"keu":13214,"lumin":13215,"appartement":13216,"alities":13217,"mismas":13218,"cannab":13219,"privile":13220,"productor":13221,"propiet":13222,"Week":13223,"sitting":13224,"nels":13225,"truth":13226,"blijf":13227,"2002":13228,"enaje":13229,"zonne":13230,"Daarbij":13231,"géant":13232,"proposition":13233,"NASA":13234,"anuncio":13235,"receiving":13236,"cund":13237,"extremely":13238,"stuff":13239,"Actualmente":13240,"Economía":13241,"Zaken":13242,"établissements":13243,"Community":13244,"dankzij":13245,"locatie":13246,"toegang":13247,"Córdoba":13248,"Hid":13249,"Jue":13250,"Light":13251,"LLC":13252,"Spa":13253,"cens":13254,"nut":13255,"évolution":13256,"évacu":13257,"repu":13258,"istique":13259,"tile":13260,"asum":13261,"omstandigheden":13262,"trof":13263,"tawa":13264,"vergeten":13265,"geho":13266,"gewerkt":13267,"acas":13268,"achel":13269,"bedo":13270,"saga":13271,"pure":13272,"década":13273,"utas":13274,"blio":13275,"herman":13276,"heridas":13277,"creating":13278,"Chil":13279,"signe":13280,"ritmo":13281,"shir":13282,"poll":13283,"tourner":13284,"hayan":13285,"gasto":13286,"attente":13287,"superar":13288,"facul":13289,"Daarna":13290,"azul":13291,"Feder":13292,"Zoom":13293,"acuerdos":13294,"conocida":13295,"hydro":13296,"investigaciones":13297,"voulait":13298,"destacar":13299,"estrella":13300,"registraron":13301,"Vlaamse":13302,"quitté":13303,"naturel":13304,"hacía":13305,"difficultés":13306,"cerrar":13307,"escena":13308,"acheter":13309,"floor":13310,"vertelde":13311,"apertura":13312,"designed":13313,"Windows":13314,"consensus":13315,"Republicans":13316,"temperaturas":13317,"comfortable":13318,"Suriname":13319,"01":13320,"97":13321,"EV":13322,"Young":13323,"Zou":13324,"gn":13325,"moun":13326,"sne":13327,"spu":13328,"tue":13329,"tingen":13330,"zaron":13331,"enda":13332,"deploy":13333,"aldo":13334,"rep":13335,"rechten":13336,"advirtió":13337,"theek":13338,"chasse":13339,"lié":13340,"vergun":13341,"auli":13342,"beach":13343,"tens":13344,"viera":13345,"cionó":13346,"corte":13347,"maroca":13348,"guid":13349,"guys":13350,"pension":13351,"schak":13352,"mortal":13353,"ventas":13354,"Espe":13355,"Security":13356,"mbro":13357,"risks":13358,"Queen":13359,"hommage":13360,"bonden":13361,"confes":13362,"assassin":13363,"conseiller":13364,"atoires":13365,"croire":13366,"knowledge":13367,"bilidades":13368,"registra":13369,"appropria":13370,"holders":13371,"résolu":13372,"mogelijkheid":13373,"allows":13374,"revenu":13375,"augmenté":13376,"hôtel":13377,"Victor":13378,"avocat":13379,"réduction":13380,"distancia":13381,"investigadores":13382,"proportion":13383,"verandering":13384,"Bitcoin":13385,"infraestructura":13386,"kwijt":13387,"Bes":13388,"Fri":13389,"Kat":13390,"Mack":13391,"Sup":13392,"Ton":13393,"Vrij":13394,"blin":13395,"ots":13396,"whatever":13397,"zus":13398,"óvil":13399,"enca":13400,"enig":13401,"retro":13402,"rell":13403,"recul":13404,"lating":13405,"issan":13406,"heim":13407,"legi":13408,"osi":13409,"livra":13410,"actrice":13411,"dudas":13412,"débu":13413,"igner":13414,"ulares":13415,"récord":13416,"Inte":13417,"casting":13418,"inspire":13419,"aye":13420,"lijden":13421,"notes":13422,"ondersteun":13423,"obten":13424,"coloni":13425,"allemand":13426,"Unie":13427,"betere":13428,"jaarlijk":13429,"alizados":13430,"rapid":13431,"vormen":13432,"vacunas":13433,"alisme":13434,"clip":13435,"2004":13436,"petites":13437,"créé":13438,"confirm":13439,"conducted":13440,"gueur":13441,"Vooral":13442,"encontró":13443,"juridi":13444,"debemos":13445,"happening":13446,"extension":13447,"negoti":13448,"pequeña":13449,"communications":13450,"palabra":13451,"répondu":13452,"aspectos":13453,"gebeurd":13454,"página":13455,"Ángel":13456,"raakte":13457,"apuntó":13458,"Bloom":13459,"référence":13460,"Protección":13461,"Ottawa":13462,"Siempre":13463,"Nigerian":13464,"Galaxy":13465,"hubiera":13466,"amblea":13467,"vroeger":13468,"responsibility":13469,"ámbito":13470,"Bah":13471,"Down":13472,"EN":13473,"factu":13474,"hack":13475,"nus":13476,"río":13477,"vour":13478,"úan":13479,"devons":13480,"arresta":13481,"remer":13482,"laws":13483,"lecht":13484,"eland":13485,"civile":13486,"prak":13487,"seat":13488,"chor":13489,"liers":13490,"constate":13491,"thy":13492,"décen":13493,"défaite":13494,"boys":13495,"1970":13496,"angst":13497,"Church":13498,"choose":13499,"anded":13500,"valid":13501,"autos":13502,"banken":13503,"rassemble":13504,"supposed":13505,"ballots":13506,"dará":13507,"necesitan":13508,"musici":13509,"tranqui":13510,"Brad":13511,"proposer":13512,"convertido":13513,"obligation":13514,"gezin":13515,"aangehouden":13516,"Puis":13517,"permanent":13518,"Germany":13519,"fiscales":13520,"groepen":13521,"Royaume":13522,"Kaag":13523,"sensibil":13524,"suffis":13525,"críticas":13526,"allegedly":13527,"Ricardo":13528,"Zelfs":13529,"clerc":13530,"amonestado":13531,"bientôt":13532,"110":13533,"Ak":13534,"Avi":13535,"Avenue":13536,"BN":13537,"Chu":13538,"NV":13539,"Ohio":13540,"UC":13541,"Wim":13542,"Yes":13543,"cámaras":13544,"hopen":13545,"icon":13546,"mán":13547,"enem":13548,"alza":13549,"reurs":13550,"reprendre":13551,"elijke":13552,"uns":13553,"athan":13554,"adru":13555,"trom":13556,"divor":13557,"inglés":13558,"paris":13559,"simi":13560,"losing":13561,"mogelijke":13562,"caer":13563,"dépen":13564,"embaj":13565,"voorbere":13566,"tué":13567,"senal":13568,"alsof":13569,"estación":13570,"dras":13571,"bajas":13572,"durable":13573,"elector":13574,"clás":13575,"maisons":13576,"liegen":13577,"ballot":13578,"vacaciones":13579,"chercher":13580,"cycle":13581,"gasol":13582,"Julio":13583,"tenté":13584,"slaan":13585,"secondes":13586,"vrijheid":13587,"femen":13588,"líneas":13589,"Fey":13590,"moeite":13591,"electri":13592,"américains":13593,"clearly":13594,"expand":13595,"haalt":13596,"européens":13597,"accusations":13598,"chambre":13599,"insul":13600,"herself":13601,"características":13602,"nomination":13603,"Supreme":13604,"holiday":13605,"préparer":13606,"Agricul":13607,"reveló":13608,"procureur":13609,"múltiples":13610,"Investiga":13611,"91":13612,"Dim":13613,"EA":13614,"Foun":13615,"Lau":13616,"MO":13617,"Mak":13618,"Ple":13619,"Sint":13620,"Tony":13621,"Vit":13622,"Zara":13623,"dits":13624,"ides":13625,"kni":13626,"kina":13627,"évid":13628,"deme":13629,"ongeluk":13630,"algemeen":13631,"heat":13632,"elde":13633,"aména":13634,"usine":13635,"bezoekers":13636,"comé":13637,"voted":13638,"probar":13639,"pointe":13640,"sonda":13641,"excited":13642,"goza":13643,"roken":13644,"minima":13645,"presentes":13646,"display":13647,"interrup":13648,"crew":13649,"1980":13650,"vidas":13651,"handi":13652,"mémo":13653,"journey":13654,"directa":13655,"meerderheid":13656,"critique":13657,"nombr":13658,"importants":13659,"Roberto":13660,"communica":13661,"Power":13662,"halla":13663,"cliente":13664,"wilden":13665,"trouble":13666,"confidence":13667,"superfici":13668,"Lions":13669,"broken":13670,"broek":13671,"mejora":13672,"consac":13673,"starts":13674,"esperanza":13675,"déclaration":13676,"reducción":13677,"circum":13678,"asegurado":13679,"principale":13680,"blish":13681,"jeunesse":13682,"Estoy":13683,"alimentaire":13684,"rappelé":13685,"poursuivi":13686,"héros":13687,"Arizona":13688,"Bernard":13689,"printemps":13690,"enregistré":13691,"gemiddeld":13692,"bombarde":13693,"accounts":13694,"governments":13695,"Legisla":13696,"kritiek":13697,"amazing":13698,"93":13699,"Book":13700,"Camer":13701,"DS":13702,"Free":13703,"Lor":13704,"Ret":13705,"ramp":13706,"ropa":13707,"sister":13708,"chanti":13709,"gebre":13710,"oppen":13711,"cule":13712,"rice":13713,"exis":13714,"iger":13715,"mina":13716,"feer":13717,"staande":13718,"schat":13719,"schreef":13720,"bail":13721,"fermet":13722,"humains":13723,"trok":13724,"onderwijs":13725,"handelen":13726,"mass":13727,"maybe":13728,"helps":13729,"touche":13730,"explicado":13731,"ignent":13732,"participé":13733,"Guad":13734,"médica":13735,"changements":13736,"causes":13737,"gebruikers":13738,"connaît":13739,"ocurr":13740,"extreem":13741,"bovendien":13742,"tekort":13743,"feuille":13744,"associations":13745,"Scot":13746,"dropped":13747,"cuarta":13748,"perspective":13749,"plastic":13750,"estimated":13751,"salariés":13752,"cuestiones":13753,"apoyar":13754,"gamme":13755,"sospechos":13756,"involucr":13757,"gobiernos":13758,"convocatoria":13759,"02":13760,"Bang":13761,"Jér":13762,"Kong":13763,"Oh":13764,"Show":13765,"TR":13766,"Tod":13767,"bant":13768,"frecu":13769,"ov":13770,"write":13771,"youn":13772,"évolu":13773,"enforcement":13774,"arle":13775,"recours":13776,"recovered":13777,"admi":13778,"advantage":13779,"proud":13780,"châ":13781,"tránsito":13782,"conex":13783,"opper":13784,"comparación":13785,"negro":13786,"modes":13787,"immeu":13788,"déficit":13789,"appris":13790,"ciaal":13791,"guil":13792,"intercep":13793,"visant":13794,"mption":13795,"sustitu":13796,"versario":13797,"upcoming":13798,"selling":13799,"relatie":13800,"bata":13801,"waalf":13802,"Monte":13803,"goedk":13804,"troupes":13805,"recib":13806,"160":13807,"querido":13808,"toege":13809,"candidatos":13810,"expression":13811,"scand":13812,"enoord":13813,"allowing":13814,"flight":13815,"duurder":13816,"nécess":13817,"valeurs":13818,"writer":13819,"measure":13820,"manifestants":13821,"directrice":13822,"Henry":13823,"simpel":13824,"gewond":13825,"prácticamente":13826,"Constitution":13827,"agriculture":13828,"deportivo":13829,"concili":13830,"sangre":13831,"Famili":13832,"términos":13833,"Popular":13834,"exercice":13835,"language":13836,"(+":13837,"Jason":13838,"Sche":13839,"Wis":13840,"aval":13841,"piso":13842,"émission":13843,"degr":13844,"anxi":13845,"rein":13846,"tegelijk":13847,"levan":13848,"unable":13849,"unanim":13850,"cielo":13851,"divi":13852,"maes":13853,"olí":13854,"accur":13855,"siers":13856,"moti":13857,"tension":13858,"riches":13859,"bios":13860,"plit":13861,"paravant":13862,"apporter":13863,"witte":13864,"Ing":13865,"istentes":13866,"cance":13867,"zagen":13868,"personnal":13869,"obsta":13870,"inty":13871,"llevan":13872,"houding":13873,"Comunidad":13874,"besloten":13875,"Town":13876,"micas":13877,"180":13878,"classique":13879,"representante":13880,"prochains":13881,"simplemente":13882,"Moscú":13883,"usuario":13884,"actors":13885,"Mujer":13886,"believes":13887,"canton":13888,"connection":13889,"gagné":13890,"intentar":13891,"nécessaires":13892,"exclusi":13893,"traslad":13894,"speaking":13895,"satisfac":13896,"películas":13897,"práctica":13898,"aspecto":13899,"Petro":13900,"histórico":13901,"manifestation":13902,"Geluk":13903,"chute":13904,"pièces":13905,"fortunately":13906,"Público":13907,"configur":13908,"lendemain":13909,"invierno":13910,"Bun":13911,"CDC":13912,"Eu":13913,"Jr":13914,"Maria":13915,"NY":13916,"Sig":13917,"gne":13918,"ider":13919,"decor":13920,"aland":13921,"alarm":13922,"relève":13923,"tiger":13924,"leed":13925,"eters":13926,"sek":13927,"urged":13928,"optie":13929,"oppon":13930,"ijden":13931,"teros":13932,"bedreig":13933,"locations":13934,"voto":13935,"fortement":13936,"perdre":13937,"rook":13938,"breken":13939,"rues":13940,"hasn":13941,"brill":13942,"largely":13943,"onderdeel":13944,"Frente":13945,"elected":13946,"séries":13947,"courses":13948,"transaction":13949,"nuevamente":13950,"shall":13951,"vacy":13952,"Mah":13953,"viajes":13954,"2001":13955,"2005":13956,"trato":13957,"professor":13958,"continuing":13959,"payment":13960,"proposé":13961,"PSOE":13962,"supporting":13963,"genoemd":13964,"crucial":13965,"órgan":13966,"Charl":13967,"percentage":13968,"abierta":13969,"bestuurder":13970,"verdwijn":13971,"comienzo":13972,"refusé":13973,"lluvia":13974,"détention":13975,"BMW":13976,"pêche":13977,"rejoindre":13978,"maximaal":13979,"phénomène":13980,"kwestie":13981,"!\"":13982,"CP":13983,"Dun":13984,"Eli":13985,"Fla":13986,"Fré":13987,"Foot":13988,"VM":13989,"azo":13990,"bats":13991,"ctr":13992,"ilegal":13993,"rera":13994,"sat":13995,"snow":13996,"tâ":13997,"vlag":13998,"vlees":13999,"échange":14000,"ïne":14001,"arca":14002,"lai":14003,"heli":14004,"diens":14005,"liga":14006,"vergoed":14007,"verdedi":14008,"geois":14009,"tering":14010,"ratie":14011,"siva":14012,"movies":14013,"immer":14014,"capaz":14015,"hoeven":14016,"arian":14017,"rumor":14018,"carta":14019,"akkoord":14020,"creation":14021,"larga":14022,"torment":14023,"angers":14024,"triple":14025,"curi":14026,"stick":14027,"costu":14028,"autés":14029,"bars":14030,"souvera":14031,"transmi":14032,"critiques":14033,"antigu":14034,"recién":14035,"Juvent":14036,"miembro":14037,"Life":14038,"blad":14039,"respecter":14040,"identité":14041,"invité":14042,"collect":14043,"ziekte":14044,"Stand":14045,"breaking":14046,"principalement":14047,"covering":14048,"mostrar":14049,"seguirá":14050,"assurance":14051,"Paci":14052,"solicitud":14053,"interesting":14054,"privado":14055,"CNN":14056,"précédent":14057,"detención":14058,"periodistas":14059,"tickets":14060,"movimientos":14061,"traitement":14062,"permitirá":14063,"naturaleza":14064,"extrêmement":14065,"betaald":14066,"renforcer":14067,"arbeids":14068,"proximité":14069,"Gustavo":14070,"Though":14071,"cannabis":14072,"Feyenoord":14073,",'":14074,"Cher":14075,"Hans":14076,"Pese":14077,"Sti":14078,"aerop":14079,"eindelijk":14080,"fid":14081,"gadas":14082,"gisteren":14083,"hue":14084,"kg":14085,"kbaar":14086,"umi":14087,"év":14088,"deleg":14089,"teles":14090,"cidas":14091,"omi":14092,"urba":14093,"conjun":14094,"verbet":14095,"verhalen":14096,"irie":14097,"loon":14098,"cuál":14099,"delante":14100,"pudieron":14101,"roi":14102,"voordeel":14103,"réal":14104,"ontvangen":14105,"luxe":14106,"appre":14107,"witnes":14108,"discrim":14109,"mener":14110,"Leclerc":14111,"carb":14112,"established":14113,"persons":14114,"vido":14115,"tienda":14116,"horario":14117,"ministers":14118,"itaine":14119,"Escuela":14120,"groen":14121,"segment":14122,"victor":14123,"palest":14124,"lético":14125,"anciens":14126,"athlè":14127,"Before":14128,"sancties":14129,"tained":14130,"boule":14131,"realizaron":14132,"nament":14133,"eigenaar":14134,"avantage":14135,"Bruno":14136,"brux":14137,"restre":14138,"decide":14139,"Benjam":14140,"accessible":14141,"PSG":14142,"financier":14143,"funcionamiento":14144,"modelos":14145,"tendría":14146,"Terwijl":14147,"stopped":14148,"Torres":14149,"enquê":14150,"étranger":14151,"Milan":14152,"aprobación":14153,"próximas":14154,"Golden":14155,"avenida":14156,"prolon":14157,"quedaron":14158,"Photo":14159,"aéroport":14160,"Fédération":14161,"Development":14162,"refirió":14163,"injuries":14164,"nécessité":14165,"Cli":14166,"Evan":14167,"FO":14168,"Gent":14169,"Kin":14170,"Kent":14171,"Má":14172,"NO":14173,"Pin":14174,"SD":14175,"Sté":14176,"Tierra":14177,"Wood":14178,"ement":14179,"iPad":14180,"skin":14181,"zel":14182,"deals":14183,"arla":14184,"label":14185,"tiré":14186,"tième":14187,"itarias":14188,"entje":14189,"omhoog":14190,"aden":14191,"adou":14192,"veranderen":14193,"auteurs":14194,"beur":14195,"raise":14196,"logement":14197,"perhaps":14198,"motivos":14199,"vender":14200,"venida":14201,"hole":14202,"cot":14203,"aarde":14204,"apunta":14205,"fati":14206,"ooi":14207,"afspra":14208,"poss":14209,"possession":14210,"alls":14211,"worse":14212,"Institut":14213,"certif":14214,"interpr":14215,"creë":14216,"couleurs":14217,"turas":14218,"Unidad":14219,"lancée":14220,"Three":14221,"Recor":14222,"ponen":14223,"Comer":14224,"bienes":14225,"rising":14226,"zichte":14227,"werkte":14228,"consult":14229,"potencia":14230,"financière":14231,"Mundo":14232,"revendi":14233,"destacado":14234,"levert":14235,"effects":14236,"haalde":14237,"potentially":14238,"regelmatig":14239,"diesel":14240,"innovation":14241,"factores":14242,"objectifs":14243,"dependencia":14244,"pasajeros":14245,"Fundación":14246,"rápida":14247,"visiteurs":14248,"Obama":14249,"Cultura":14250,"westen":14251,"PlayStation":14252,"doubt":14253,"profundi":14254,"clasificación":14255,"equity":14256,"scrutin":14257,"convertirse":14258,"Occident":14259,"eléctrica":14260,"Wanneer":14261,"protesters":14262,"suggested":14263,"forcément":14264,"verliezen":14265,"circumst":14266,"Adri":14267,"Bud":14268,"LP":14269,"Ts":14270,"bble":14271,"eo":14272,"faux":14273,"lins":14274,"lits":14275,"écla":14276,"ône":14277,"deden":14278,"esque":14279,"onver":14280,"altas":14281,"reopen":14282,"print":14283,"lire":14284,"liés":14285,"lights":14286,"thr":14287,"ijing":14288,"acité":14289,"lesia":14290,"doden":14291,"exposition":14292,"resident":14293,"décor":14294,"vaya":14295,"voorstel":14296,"ontstaan":14297,"appointed":14298,"marcó":14299,"married":14300,"missiles":14301,"guen":14302,"cales":14303,"monter":14304,"horri":14305,"massa":14306,"lanzó":14307,"Comment":14308,"transmisión":14309,"buscan":14310,"cell":14311,"truck":14312,"Boe":14313,"Sanders":14314,"attended":14315,"Trudeau":14316,"professeur":14317,"respective":14318,"señor":14319,"helpt":14320,"reading":14321,"geleid":14322,"médicam":14323,"Meta":14324,"Donetsk":14325,"segundos":14326,"potencial":14327,"Johnny":14328,"militants":14329,"números":14330,"Syri":14331,"représentants":14332,"absolutely":14333,"attendant":14334,"Gracias":14335,"agradeci":14336,"objeto":14337,"nauwelijks":14338,"tekenen":14339,"attempt":14340,"tramo":14341,"advocaat":14342,"Alain":14343,"grotere":14344,"Pakistan":14345,"bruxello":14346,"Back":14347,"Cr":14348,"Jet":14349,"Morgan":14350,"Pok":14351,"Ref":14352,"bure":14353,"fys":14354,"guit":14355,"gaming":14356,"hits":14357,"lvan":14358,"mist":14359,"ojos":14360,"zados":14361,"estrat":14362,"infer":14363,"inversiones":14364,"prach":14365,"chée":14366,"dian":14367,"lige":14368,"taires":14369,"gekozen":14370,"ijen":14371,"neige":14372,"vantes":14373,"weig":14374,"rescat":14375,"détr":14376,"dépend":14377,"voormalige":14378,"ooth":14379,"cancha":14380,"steken":14381,"interdit":14382,"érant":14383,"welcome":14384,"camos":14385,"anny":14386,"annel":14387,"nogal":14388,"waaronder":14389,"intento":14390,"privil":14391,"rense":14392,"Secon":14393,"mandato":14394,"phol":14395,"octa":14396,"vaccina":14397,"lignes":14398,"Beijing":14399,"Davis":14400,"Donc":14401,"speler":14402,"purpose":14403,"différence":14404,"consideró":14405,"Senado":14406,"Houston":14407,"organizations":14408,"materiales":14409,"avión":14410,"rooms":14411,"instruction":14412,"jongen":14413,"técnica":14414,"asociación":14415,"combats":14416,"herstel":14417,"presidencial":14418,"amenazas":14419,"registered":14420,"assess":14421,"amenaza":14422,"Incluso":14423,"Galicia":14424,"08":14425,"Are":14426,"Fau":14427,"Fut":14428,"Kle":14429,"RO":14430,"Racing":14431,"Women":14432,"cámara":14433,"gón":14434,"glis":14435,"twaalf":14436,"ét":14437,"€.":14438,"eres":14439,"ango":14440,"invite":14441,"altos":14442,"reprodu":14443,"recurso":14444,"returning":14445,"lace":14446,"teca":14447,"entera":14448,"cible":14449,"lido":14450,"taxi":14451,"parlament":14452,"loan":14453,"dañ":14454,"nice":14455,"vención":14456,"mande":14457,"frère":14458,"réjou":14459,"oods":14460,"overwinning":14461,"ika":14462,"brou":14463,"monta":14464,"Anna":14465,"ambitie":14466,"étaires":14467,"ministros":14468,"prévenu":14469,"clín":14470,"vieux":14471,"biendo":14472,"homenaje":14473,"talento":14474,"netto":14475,"tomber":14476,"icket":14477,"contraire":14478,"expliquer":14479,"bracht":14480,"seemed":14481,"confirme":14482,"fenó":14483,"attaquant":14484,"respondió":14485,"fellow":14486,"kleding":14487,"vicepresidenta":14488,"onderzoekers":14489,"entered":14490,"miljoenen":14491,"muertes":14492,"silence":14493,"abrió":14494,"pushed":14495,"progressive":14496,"blue":14497,"compromis":14498,"terrein":14499,"informaron":14500,"concreto":14501,"limite":14502,"OMS":14503,"Tokyo":14504,"preocup":14505,"coûts":14506,"Jacques":14507,"Ángeles":14508,"carácter":14509,"económicos":14510,"strength":14511,"verzam":14512,"horizon":14513,"dagochtend":14514,"behoorlijk":14515,"Gelukkig":14516,"Gau":14517,"Hau":14518,"Kal":14519,"Switch":14520,"Vandaag":14521,"ave":14522,"clan":14523,"dance":14524,"nance":14525,"pio":14526,"ramen":14527,"tarea":14528,"épreuve":14529,"deterior":14530,"geheel":14531,"beek":14532,"ieven":14533,"sula":14534,"pein":14535,"imposible":14536,"nig":14537,"ueel":14538,"pasando":14539,"serving":14540,"rési":14541,"0000":14542,"menac":14543,"canción":14544,"bole":14545,"doses":14546,"ablemente":14547,"curité":14548,"Esper":14549,"sépar":14550,"diging":14551,"kantoor":14552,"faith":14553,"izado":14554,"transit":14555,"tonnes":14556,"situations":14557,"legales":14558,"micos":14559,"blessures":14560,"conocen":14561,"Boli":14562,"pagn":14563,"Auto":14564,"female":14565,"Exper":14566,"klachten":14567,"iniciar":14568,"spreekt":14569,"powerful":14570,"flights":14571,"sprint":14572,"effectué":14573,"mantenimiento":14574,"Alexand":14575,"estuvieron":14576,"buenos":14577,"discusión":14578,"amplia":14579,"geloven":14580,"rápidamente":14581,"Natuur":14582,"penalty":14583,"veroorzaak":14584,"Brian":14585,"Jonathan":14586,"Gelder":14587,"solidarité":14588,"spokesperson":14589,"populares":14590,"Provincial":14591,"LGBT":14592,"energi":14593,"genaam":14594,"magistr":14595,"Afghanistan":14596,"espectáculo":14597,"Schiphol":14598,"()":14599,"FF":14600,"Pod":14601,"Selección":14602,"fom":14603,"mér":14604,"ochtend":14605,"demo":14606,"decía":14607,"injury":14608,"ordon":14609,"remettre":14610,"reopening":14611,"islation":14612,"unité":14613,"atisch":14614,"amour":14615,"verli":14616,"verwachting":14617,"estan":14618,"raken":14619,"abuse":14620,"wekken":14621,"exposición":14622,"soi":14623,"déploy":14624,"coopération":14625,"presence":14626,"fechas":14627,"insiste":14628,"blik":14629,"finished":14630,"giant":14631,"merkt":14632,"steden":14633,"crore":14634,"centen":14635,"ctividad":14636,"inton":14637,"Seat":14638,"kerst":14639,"Ash":14640,"planeta":14641,"warming":14642,"wijst":14643,"chargé":14644,"culmin":14645,"clara":14646,"Johan":14647,"ologne":14648,"sanitaires":14649,"terminal":14650,"rentrée":14651,"indem":14652,"recevoir":14653,"certainty":14654,"wice":14655,"Europees":14656,"Atlético":14657,"permettent":14658,"documentos":14659,"agencies":14660,"apply":14661,"destination":14662,"réalisateur":14663,"Music":14664,"árbol":14665,"occupation":14666,"generatie":14667,"intérêts":14668,"décisions":14669,"integral":14670,"cumplimiento":14671,"meilleures":14672,"koppel":14673,"moderne":14674,"studie":14675,"understanding":14676,"installation":14677,"detenidos":14678,"enfermedades":14679,"mencionó":14680,"bepaald":14681,"survey":14682,"étrangers":14683,"Latina":14684,"royal":14685,"strike":14686,"killing":14687,"ropol":14688,"Anderlecht":14689,"strict":14690,"défendre":14691,"suspects":14692,"Defens":14693,"circunst":14694,"Luxembourg":14695,"twijfel":14696,"94":14697,"Ath":14698,"Agencia":14699,"Bak":14700,"Cra":14701,"Floyd":14702,"Squ":14703,"Sand":14704,"Tch":14705,"ape":14706,"award":14707,"dí":14708,"ited":14709,"èque":14710,"éra":14711,"devront":14712,"repos":14713,"lem":14714,"unemployment":14715,"atische":14716,"urer":14717,"diam":14718,"conte":14719,"contempor":14720,"verdienen":14721,"becomes":14722,"deriv":14723,"suministro":14724,"immobili":14725,"wezen":14726,"expul":14727,"dato":14728,"gaven":14729,"menée":14730,"Ella":14731,"estabilidad":14732,"monto":14733,"geslagen":14734,"tienne":14735,"Marok":14736,"positif":14737,"allegations":14738,"rijdt":14739,"Reu":14740,"salaires":14741,"signature":14742,"Army":14743,"symb":14744,"relatief":14745,"cinqui":14746,"voren":14747,"alisé":14748,"Maine":14749,"maintenir":14750,"Juárez":14751,"pagos":14752,"Project":14753,"tantos":14754,"Lula":14755,"Daily":14756,"payments":14757,"genoten":14758,"offert":14759,"bourne":14760,"announcement":14761,"officiel":14762,"residentes":14763,"narco":14764,"celebrate":14765,"junior":14766,"Energy":14767,"Sarah":14768,"catégorie":14769,"ophie":14770,"Toutefois":14771,"Ghana":14772,"Conference":14773,"%),":14774,"2e":14775,"FMI":14776,"FBI":14777,"Later":14778,"Otan":14779,"Zem":14780,"aer":14781,"aje":14782,"ev":14783,"eindig":14784,"fame":14785,"goud":14786,"iores":14787,"lâ":14788,"nan":14789,"uana":14790,"vaut":14791,"wak":14792,"xit":14793,"Éric":14794,"œil":14795,"anya":14796,"anony":14797,"helaas":14798,"timate":14799,"elder":14800,"enty":14801,"tox":14802,"tap":14803,"geve":14804,"mecan":14805,"vola":14806,"pocas":14807,"jezelf":14808,"goe":14809,"venues":14810,"coordina":14811,"prevé":14812,"endor":14813,"menti":14814,"finding":14815,"bodies":14816,"vols":14817,"cron":14818,"nucle":14819,"strik":14820,"posiciones":14821,"posibilidades":14822,"privacy":14823,"directed":14824,"pelijk":14825,"propó":14826,"préhen":14827,"Only":14828,"installer":14829,"uurd":14830,"vaccins":14831,"wave":14832,"lettre":14833,"sentence":14834,"Zoals":14835,"Ukrainiens":14836,"honest":14837,"encontraron":14838,"voudig":14839,"visitantes":14840,"brasile":14841,"ísticos":14842,"sprak":14843,"Rosario":14844,"extreme":14845,"passée":14846,"agression":14847,"Capit":14848,"rueda":14849,"discuss":14850,"mouth":14851,"jongens":14852,"Samuel":14853,"package":14854,"advocat":14855,
[...]
