{"version":"1.0","truncation":null,"padding":null,"added_tokens":[{"id":0,"special":true,"content":"<UNK>","single_word":false,"lstrip":false,"rstrip":false,"normalized":false},{"id":1,"special":true,"content":"<SEP>","single_word":false,"lstrip":false,"rstrip":false,"normalized":false},{"id":2,"special":true,"content":"<MASK>","single_word":false,"lstrip":false,"rstrip":false,"normalized":false},{"id":3,"special":true,"content":"<CLS>","single_word":false,"lstrip":false,"rstrip":false,"normalized":false}],"normalizer":null,"pre_tokenizer":{"type":"Whitespace"},"post_processor":null,"decoder":null,"model":{"type":"BPE","dropout":null,"unk_token":"<UNK>","continuing_subword_prefix":null,"end_of_word_suffix":null,"fuse_unk":false,"vocab":{"<UNK>":0,"<SEP>":1,"<MASK>":2,"<CLS>":3,"!":4,"\"":5,"$":6,"%":7,"&":8,"'":9,"(":10,")":11,"*":12,"+":13,",":14,"-":15,".":16,"/":17,"0":18,"1":19,"2":20,"3":21,"4":22,"5":23,"6":24,"7":25,"8":26,"9":27,":":28,";":29,"<":30,"?":31,"A":32,"B":33,"C":34,"D":35,"E":36,"F":37,"G":38,"H":39,"I":40,"J":41,"K":42,"L":43,"M":44,"N":45,"O":46,"P":47,"Q":48,"R":49,"S":50,"T":51,"U":52,"V":53,"W":54,"X":55,"Y":56,"Z":57,"`":58,"a":59,"b":60,"c":61,"d":62,"e":63,"f":64,"g":65,"h":66,"i":67,"j":68,"k":69,"l":70,"m":71,"n":72,"o":73,"p":74,"q":75,"r":76,"s":77,"t":78,"u":79,"v":80,"w":81,"x":82,"y":83,"z":84,"~":85,"¡":86,"¢":87,"£":88,"¦":89,"§":90,"¨":91,"ª":92,"«":93,"®":94,"¯":95,"°":96,"²":97,"³":98,"´":99,"·":100,"º":101,"»":102,"¼":103,"½":104,"¾":105,"¿":106,"À":107,"Á":108,"Ä":109,"Å":110,"Ç":111,"É":112,"Í":113,"Î":114,"Ñ":115,"Ò":116,"Ó":117,"Ö":118,"×":119,"Ú":120,"Ü":121,"ß":122,"à":123,"á":124,"â":125,"ã":126,"ä":127,"å":128,"ç":129,"è":130,"é":131,"ê":132,"ë":133,"ì":134,"í":135,"î":136,"ï":137,"ð":138,"ñ":139,"ò":140,"ó":141,"ô":142,"õ":143,"ö":144,"ø":145,"ú":146,"û":147,"ü":148,"ā":149,"ă":150,"ć":151,"ē":152,"ę":153,"ğ":154,"İ":155,"ı":156,"ł":157,"ń":158,"ō":159,"ś":160,"ş":161,"Š":162,"Ÿ":163,"˜":164,"˝":165,"̀":166,"́":167,"̃":168,"μ":169,"н":170,"у":171,"ᵃ":172,"ễ":173,"ỗ":174,"‎":175,"–":176,"—":177,"―":178,"‘":179,"’":180,"“":181,"”":182,"†":183,"‡":184,"•":185,"…":186,"′":187,"″":188,"₂":189,"₡":190,"€":191,"℃":192,"™":193,"−":194,"⏩":195,"⏰":196,"⏱":197,"─":198,"▌":199,"▶":200,"◆":201,"☀":202,"★":203,"☕":204,"☝":205,"⚠":206,"⚽":207,"✅":208,"✊":209,"✓":210,"✔":211,"✨":212,"❉":213,"❗":214,"❣":215,"❤":216,"➡":217,"➤":218,"⬇":219,"⭐":220,"【":221,"】":222,"帽":223,"煤":224,"脕":225,"茅":226,"谩":227,"贸":228,"铆":229,"":230,"ﬁ":231,"️":232,"＊":233,"de":234,"en":235,"es":236,"os":237,"la":238,"er":239,"ar":240,"on":241,"ci":242,"ue":243,"an":244,"or":245,"al":246,"as":247,"ad":248,"el":249,"que":250,"un":251,"in":252,"re":253,"ent":254,"ti":255,"con":256,"se":257,"ta":258,"tr":259,"di":260,"co":261,"te":262,"ón":263,"do":264,"pr":265,"to":266,"los":267,"par":268,"mi":269,"ca":270,"cu":271,"su":272,"ción":273,"por":274,"si":275,"vi":276,"le":277,"del":278,"lo":279,"ha":280,"li":281,"ado":282,"mo":283,"las":284,"da":285,"no":286,"bi":287,"per":288,"ma":289,"ri":290,"ra":291,"para":292,"des":293,"tu":294,"una":295,"ía":296,"mp":297,"ment":298,"ec":299,"pro":300,"dad":301,"cion":302,"so":303,"ui":304,"est":305,"tra":306,"po":307,"ter":308,"me":309,"is":310,"má":311,"ro":312,"ac":313,"go":314,"res":315,"ba":316,"ten":317,"fi":318,"pa":319,"mos":320,"cia":321,"ari":322,"ada":323,"más":324,"vo":325,"El":326,"den":327,"ali":328,"ch":329,"tor":330,"man":331,"dos":332,"pu":333,"mu":334,"ran":335,"pres":336,"gu":337,"ex":338,"Es":339,"ni":340,"qui":341,"du":342,"La":343,"tos":344,"esta":345,"tar":346,"ales":347,"añ":348,"ciones":349,"pi":350,"án":351,"tan":352,"era":353,"mente":354,"va":355,"mb":356,"cas":357,"como":358,"ce":359,"lu":360,"im":361,"car":362,"ados":363,"tes":364,"son":365,"ver":366,"ab":367,"min":368,"ser":369,"En":370,"mbi":371,"ando":372,"za":373,"for":374,"tro":375,"jo":376,"20":377,"ente":378,"mient":379,"uni":380,"com":381,"ve":382,"este":383,"us":384,"cer":385,"gi":386,"les":387,"pe":388,"mar":389,"na":390,"can":391,"pre":392,"én":393,"ero":394,"sus":395,"lan":396,"ga":397,"tas":398,"lar":399,"ador":400,"der":401,"cos":402,"je":403,"dis":404,"gar":405,"pos":406,"fu":407,"ru":408,"ia":409,"ho":410,"ene":411,"ones":412,"men":413,"sa":414,"gen":415,"tal":416,"ble":417,"au":418,"pas":419,"ya":420,"bre":421,"eron":422,"ras":423,"emp":424,"és":425,"fue":426,"00":427,"lle":428,"das":429,"miento":430,"mbién":431,"rec":432,"hab":433,"parti":434,"pue":435,"mas":436,"cio":437,"cial":438,"entre":439,"medi":440,"qu":441,"”,":442,"ol":443,"zar":444,"hor":445,"ob":446,"seg":447,"cre":448,"ven":449,"hi":450,"person":451,"gra":452,"ación":453,"ario":454,"tin":455,"pero":456,"gan":457,"có":458,"entes":459,"fin":460,"comp":461,"ún":462,"io":463,"años":464,"ís":465,"xi":466,"sión":467,"pon":468,"mis":469,"ces":470,"cal":471,"adas":472,"tras":473,"encia":474,"iden":475,"lí":476,"dades":477,"sin":478,"endo":479,"Se":480,"tros":481,"inter":482,"ne":483,"dr":484,"nos":485,"prim":486,"fer":487,"también":488,"dar":489,"está":490,"fa":491,"han":492,"traba":493,"tri":494,"enta":495,"mento":496,"Co":497,"ores":498,"zo":499,"tado":500,"cor":501,"esti":502,"emb":503,"sobre":504,"tó":505,"Con":506,"ll":507,"forma":508,"desde":509,"ur":510,"cono":511,"nue":512,"cional":513,"ja":514,"tivo":515,"bli":516,"”.":517,"ina":518,"lla":519,"Los":520,"ante":521,"posi":522,"ju":523,"bo":524,"don":525,"ele":526,"cho":527,"ag":528,"asta":529,"ías":530,"cado":531,"fec":532,"gran":533,"De":534,"aron":535,"bier":536,"ul":537,"tiene":538,"ber":539,"sta":540,"lti":541,"pen":542,"ay":543,"In":544,"cen":545,"202":546,"Al":547,"cias":548,"Por":549,"todo":550,"arios":551,"contra":552,"muy":553,"ña":554,"nu":555,"mer":556,"país":557,"tiv":558,"cur":559,"be":560,"imp":561,"cri":562,"ctor":563,"parte":564,"reali":565,"antes":566,"ir":567,"Re":568,"may":569,"demás":570,"esto":571,"hasta":572,"hay":573,"tica":574,"mes":575,"últi":576,"ing":577,"cios":578,"ana":579,"fun":580,"eces":581,"gr":582,"bu":583,"jor":584,"deci":585,"reg":586,"ido":587,"rante":588,"mó":589,"fr":590,"alg":591,"año":592,"pec":593,"acu":594,"personas":595,"jer":596,"tura":597,"cada":598,"19":599,"ara":600,"ban":601,"donde":602,"ño":603,"reci":604,"presiden":605,"tiva":606,"clu":607,"día":608,"cuando":609,"entr":610,"No":611,"mili":612,"tran":613,"udad":614,"em":615,"hora":616,"tados":617,"titu":618,"cip":619,"cla":620,"emos":621,"lación":622,"sig":623,"produ":624,"pla":625,"bili":626,"ona":627,"ese":628,"hu":629,"pli":630,"teri":631,"alu":632,"equi":633,"fir":634,"ían":635,"bierno":636,"porque":637,"ini":638,"cha":639,"úbli":640,"br":641,"ase":642,"cción":643,"quien":644,"\",":645,"dijo":646,"tante":647,"otros":648,"hacer":649,"tori":650,"pun":651,"uno":652,"cación":653,"quier":654,"present":655,"tener":656,"sis":657,"dio":658,"adores":659,"todos":660,"undo":661,"Uni":662,"nues":663,"mill":664,"Mar":665,"mismo":666,"ano":667,"uel":668,"ará":669,"rá":670,"puede":671,"San":672,"adi":673,"van":674,"unos":675,"durante":676,"aria":677,"tiemp":678,"elec":679,"mejor":680,"Las":681,"estos":682,"cuent":683,"almente":684,"impor":685,"sos":686,"jue":687,"fe":688,"alidad":689,"val":690,"dó":691,"hec":692,"il":693,"ciales":694,"trabaj":695,"pués":696,"zó":697,"tien":698,"ciudad":699,"millones":700,"tico":701,"están":702,"pera":703,"neces":704,"An":705,"minis":706,"públi":707,"sí":708,"primer":709,"\".":710,"lado":711,"mayor":712,"gas":713,"solo":714,"comuni":715,"am":716,"eso":717,"ern":718,"Ar":719,"estado":720,"segui":721,"vez":722,"sab":723,"ión":724,"fal":725,"tur":726,"che":727,"plan":728,"Na":729,"tiempo":730,"ins":731,"fuer":732,"estu":733,"lugar":734,"indi":735,"presidente":736,"lab":737,"sido":738,"actu":739,"cons":740,"ció":741,"ento":742,"vel":743,"cambi":744,"Si":745,"ás":746,"tres":747,"cía":748,"famili":749,"ér":750,"Mi":751,"podr":752,"ena":753,"polí":754,"seman":755,"esa":756,"empres":757,"yec":758,"var":759,"hace":760,"gos":761,"momento":762,"estar":763,"ori":764,"ino":765,"Di":766,"cul":767,"vir":768,"infor":769,"vida":770,"bien":771,"segu":772,"gener":773,"pan":774,"tí":775,"tivos":776,"respon":777,"direc":778,"tir":779,"zación":780,"así":781,"jun":782,"dió":783,"pren":784,"much":785,"días":786,"yo":787,"arro":788,"llo":789,"después":790,"eli":791,"tru":792,"Ca":793,"10":794,"había":795,"Go":796,"cual":797,"via":798,"fo":799,"ridad":800,"embre":801,"espe":802,"cin":803,"estas":804,"Le":805,"ños":806,"inv":807,"tem":808,"Ta":809,"mentos":810,"pasado":811,"her":812,"zado":813,"sent":814,"camp":815,"primera":816,"ton":817,"Su":818,"trans":819,"dor":820,").":821,"dido":822,"caso":823,"mon":824,"Además":825,"espa":826,"it":827,"muni":828,"Cu":829,"cuenta":830,"),":831,"ista":832,"vin":833,"mujer":834,"vis":835,"eno":836,"compañ":837,"nacional":838,"mbre":839,"Ju":840,"edad":841,"dado":842,"Des":843,"menos":844,"dej":845,"proyec":846,"horas":847,"tienen":848,"Pero":849,"pes":850,"tanto":851,"lares":852,"uego":853,"tema":854,"propi":855,"his":856,"bilidad":857,"2022":858,"vol":859,"encuent":860,"unque":861,"prin":862,"To":863,"bar":864,"Po":865,"situ":866,"Ro":867,"fen":868,"uro":869,"tación":870,"Car":871,"medio":872,"ahora":873,"ge":874,"trabajo":875,"hos":876,"hí":877,"Lo":878,"000":879,"hecho":880,"Vi":881,"equipo":882,"pri":883,"termin":884,"tre":885,"erdo":886,"peri":887,"din":888,"mpli":889,"ceso":890,"resul":891,"Me":892,"pró":893,"toria":894,"ale":895,"bas":896,"asegu":897,"Esta":898,"éxi":899,"ris":900,"cran":901,"otro":902,"nada":903,"señ":904,"anti":905,"tivi":906,"bus":907,"conoci":908,"gua":909,"toda":910,"servi":911,"fueron":912,"visi":913,"inf":914,"ves":915,"Este":916,"embar":917,"ion":918,"So":919,"abri":920,"según":921,"Para":922,"san":923,"tuvo":924,"partido":925,"éc":926,"unas":927,"mado":928,"mundo":929,"mil":930,"tel":931,"difer":932,"organ":933,"30":934,"mucho":935,"expli":936,"autori":937,"qué":938,"alud":939,"manera":940,"permi":941,"gente":942,"contin":943,"lleg":944,"mé":945,"he":946,"ticas":947,"arias":948,"dan":949,"gía":950,"nuevo":951,"ener":952,"cier":953,"Ci":954,"leg":955,"Gobierno":956,"gru":957,"jos":958,"será":959,"embargo":960,"semana":961,"gent":962,"arse":963,"inclu":964,"formación":965,"labor":966,"15":967,"Gu":968,"investi":969,"Sin":970,"cent":971,"contr":972,"ofi":973,"sali":974,"idad":975,"zas":976,"bles":977,"tad":978,"ómi":979,"Seg":980,"ie":981,"»,":982,"mientos":983,"Pro":984,"cipi":985,"comi":986,"col":987,"18":988,"empre":989,"ví":990,"int":991,"hoy":992,"vas":993,"versi":994,"eje":995,"Pa":996,"puesta":997,"acuerdo":998,"ros":999,"12":1000,"junto":1001,"atro":1002,"paci":1003,"recibi":1004,"nivel":1005,"algo":1006,"pare":1007,"comen":1008,"fes":1009,"cir":1010,"poder":1011,"vos":1012,"vés":1013,"recu":1014,"mientras":1015,"tifi":1016,"pel":1017,"desarro":1018,"terior":1019,"comple":1020,"sal":1021,"ayu":1022,"ata":1023,"regi":1024,"dera":1025,"parec":1026,"op":1027,"of":1028,"proble":1029,"jug":1030,"progra":1031,"nor":1032,"nueva":1033,"teni":1034,"Un":1035,"erra":1036,"desta":1037,"gobierno":1038,"pital":1039,"apro":1040,"próxi":1041,"tario":1042,"través":1043,"Li":1044,"poli":1045,"puesto":1046,"casi":1047,"Nacional":1048,"consi":1049,"trata":1050,"apo":1051,"sea":1052,"cr":1053,"Espa":1054,"ade":1055,"mor":1056,"publi":1057,"obje":1058,"regis":1059,"además":1060,"ello":1061,"Ru":1062,"tención":1063,"soli":1064,"ella":1065,"pueden":1066,"domin":1067,"bri":1068,"tenido":1069,"sector":1070,"siempre":1071,"Una":1072,"recor":1073,"dro":1074,"También":1075,"consu":1076,"fí":1077,"debe":1078,"anun":1079,"fica":1080,"funcion":1081,"tió":1082,"situación":1083,"ellos":1084,"importante":1085,"activi":1086,"fici":1087,"tendr":1088,"port":1089,"haber":1090,"cómo":1091,"esper":1092,"seguridad":1093,"bajo":1094,"final":1095,"bra":1096,"mal":1097,"éxico":1098,"Según":1099,"afec":1100,"México":1101,"luego":1102,"aunque":1103,"cto":1104,"otras":1105,"vent":1106,"seguir":1107,"llegar":1108,"jus":1109,"meses":1110,"cel":1111,"dida":1112,"persona":1113,"ticos":1114,"todas":1115,"reso":1116,"bol":1117,"casa":1118,"eros":1119,"loc":1120,"tá":1121,"conómi":1122,"Par":1123,"estra":1124,"tivas":1125,"otra":1126,"».":1127,"sia":1128,"él":1129,"organi":1130,"evi":1131,"tido":1132,"ocu":1133,"edi":1134,"conta":1135,"nico":1136,"et":1137,"ez":1138,"minu":1139,"algunos":1140,"España":1141,"tipo":1142,"tec":1143,"logr":1144,"bado":1145,"Cas":1146,"ló":1147,"lio":1148,"undi":1149,"princip":1150,"ín":1151,"estaba":1152,"taron":1153,"rió":1154,"dente":1155,"gencia":1156,"unda":1157,"realizar":1158,"tempor":1159,"quer":1160,"dere":1161,"rela":1162,"total":1163,"14":1164,"sen":1165,"porte":1166,"muer":1167,"Estados":1168,"só":1169,"2021":1170,"bido":1171,"ley":1172,"tili":1173,"uros":1174,"unes":1175,"casos":1176,"cli":1177,"ace":1178,"Pe":1179,"dores":1180,"mero":1181,"11":1182,"ocur":1183,"culo":1184,"económi":1185,"cuatro":1186,"hizo":1187,"posición":1188,"ró":1189,"unta":1190,"dieron":1191,"Unidos":1192,"50":1193,"ctu":1194,"ismo":1195,"nú":1196,"diri":1197,"muchos":1198,"mia":1199,"partici":1200,"zona":1201,"tera":1202,"at":1203,"anos":1204,"sor":1205,"demos":1206,"uela":1207,"encontr":1208,"poco":1209,"istas":1210,"Estado":1211,"super":1212,"gación":1213,"pecto":1214,"vuel":1215,"tis":1216,"vía":1217,"Ucran":1218,"avi":1219,"ning":1220,"inte":1221,"tantes":1222,"especial":1223,"Min":1224,"blo":1225,"encias":1226,"17":1227,"afir":1228,"ide":1229,"auto":1230,"Ucrania":1231,"16":1232,"centr":1233,"Ri":1234,"sociales":1235,"último":1236,"necesi":1237,"proyecto":1238,"gado":1239,"cele":1240,"manda":1241,"autoridades":1242,"amb":1243,"mad":1244,"cimiento":1245,"familia":1246,"ren":1247,"mano":1248,"defen":1249,"movi":1250,"decir":1251,"ío":1252,"desa":1253,"tando":1254,"undial":1255,"provin":1256,"cido":1257,"cti":1258,"efec":1259,"tamente":1260,"vivi":1261,"baj":1262,"euros":1263,"mani":1264,"frente":1265,"13":1266,"partir":1267,"áre":1268,"Ch":1269,"contro":1270,"pública":1271,"salud":1272,"seña":1273,"tada":1274,"Cor":1275,"torio":1276,"estable":1277,"caus":1278,"nica":1279,"profes":1280,"ticia":1281,"tencia":1282,"expres":1283,"dia":1284,"Esto":1285,"sino":1286,"Ser":1287,"eta":1288,"vac":1289,"política":1290,"Val":1291,"quienes":1292,"grupo":1293,"cionales":1294,"iscal":1295,"cl":1296,"bal":1297,"información":1298,"fra":1299,"zada":1300,"alcan":1301,"llev":1302,"demia":1303,"gol":1304,"cil":1305,"Mu":1306,"conse":1307,"exis":1308,"dez":1309,"utili":1310,"ora":1311,"podría":1312,"proceso":1313,"Fe":1314,"depen":1315,"siones":1316,"agua":1317,"ernes":1318,"unidad":1319,"pob":1320,"programa":1321,"sá":1322,"reuni":1323,"rica":1324,"chi":1325,"aban":1326,"Per":1327,"uso":1328,"ciendo":1329,"redes":1330,"fon":1331,"historia":1332,"gentina":1333,"Así":1334,"Euro":1335,"Bar":1336,"comer":1337,"Man":1338,"Pu":1339,"lunes":1340,"nuestro":1341,"Bo":1342,"distin":1343,"ican":1344,"hacia":1345,"mañ":1346,"acto":1347,"tores":1348,"países":1349,"Qu":1350,"Rusia":1351,"viernes":1352,"puntos":1353,"manos":1354,"Mad":1355,"condi":1356,"avan":1357,"vehí":1358,"sica":1359,"últimos":1360,"ses":1361,"conver":1362,"datos":1363,"adora":1364,"conocer":1365,"200":1366,"cinco":1367,"igu":1368,"terio":1369,"cados":1370,"dentro":1371,"cep":1372,"ministra":1373,"chos":1374,"mujeres":1375,"nuestra":1376,"visión":1377,"compro":1378,"escri":1379,"cuer":1380,"tenía":1381,"mí":1382,"rar":1383,"az":1384,"capaci":1385,"social":1386,"usu":1387,"anza":1388,"dice":1389,"Mon":1390,"vista":1391,"perio":1392,"ger":1393,"confir":1394,"compr":1395,"general":1396,"ev":1397,"cualquier":1398,"rera":1399,"cumpli":1400,"dencia":1401,"cambio":1402,"centro":1403,"mañana":1404,"ben":1405,"jes":1406,"continu":1407,"metros":1408,"porta":1409,"posible":1410,"ministro":1411,"vil":1412,"Minis":1413,"oport":1414,"registr":1415,"ck":1416,"vícti":1417,"aún":1418,"veces":1419,"espera":1420,"apli":1421,"condu":1422,"cipio":1423,"pación":1424,"Du":1425,"denun":1426,"nego":1427,"señal":1428,"gue":1429,"dese":1430,"residen":1431,"número":1432,"varios":1433,"experi":1434,"tancia":1435,"aca":1436,"sábado":1437,"empresa":1438,"deli":1439,"tenemos":1440,"jó":1441,"misión":1442,"ár":1443,"dir":1444,"solu":1445,"público":1446,"habi":1447,"puer":1448,"ración":1449,"cosas":1450,"produc":1451,"recur":1452,"sentido":1453,"Fran":1454,"represent":1455,"dios":1456,"Desde":1457,"cerca":1458,"fuera":1459,"estr":1460,"dólares":1461,"pandemia":1462,"deber":1463,"coment":1464,"buen":1465,"Ho":1466,"óni":1467,"segundo":1468,"Ti":1469,"yó":1470,"poner":1471,"domingo":1472,"aque":1473,"redu":1474,"misma":1475,"asis":1476,"mía":1477,"cole":1478,"sigui":1479,"Argentina":1480,"solici":1481,"hombre":1482,"temporada":1483,"institu":1484,"deo":1485,"ine":1486,"noche":1487,"quí":1488,"Ma":1489,"culos":1490,"24":1491,"enfr":1492,"volu":1493,"sistema":1494,"detal":1495,"camin":1496,"ubi":1497,"unca":1498,"isla":1499,"fav":1500,"enda":1501,"Ale":1502,"líne":1503,"director":1504,"martes":1505,"empresas":1506,"prue":1507,"prote":1508,"uir":1509,"personal":1510,"sigue":1511,"pti":1512,"zan":1513,"oficial":1514,"ciar":1515,"coles":1516,"informó":1517,"diferentes":1518,"25":1519,"fru":1520,"cula":1521,"pad":1522,"tarde":1523,"ércoles":1524,"ami":1525,"vieron":1526,"oni":1527,"servicio":1528,"muchas":1529,"jueves":1530,"Bu":1531,"Ex":1532,"tales":1533,"orden":1534,"peque":1535,"Jos":1536,"ries":1537,"mercado":1538,"miércoles":1539,"valor":1540,"colo":1541,"viol":1542,"vio":1543,"punto":1544,"pl":1545,"respecto":1546,"objetivo":1547,"lante":1548,"oper":1549,"médi":1550,"estamos":1551,"quiere":1552,"ejemp":1553,"inten":1554,"alizar":1555,"niños":1556,"estión":1557,"segunda":1558,"fac":1559,"sue":1560,"jar":1561,"all":1562,"incre":1563,"próximo":1564,"tomar":1565,"media":1566,"pasa":1567,"ciento":1568,"cabe":1569,"ida":1570,"ingres":1571,"recuper":1572,"mir":1573,"sac":1574,"grandes":1575,"bro":1576,"dici":1577,"bene":1578,"alo":1579,"invi":1580,"minutos":1581,"joven":1582,"opera":1583,"lari":1584,"arán":1585,"sur":1586,"mostr":1587,"mensa":1588,"caciones":1589,"zos":1590,"defin":1591,"suf":1592,"insta":1593,"enero":1594,"siendo":1595,"destin":1596,"emple":1597,"edu":1598,"elección":1599,"señaló":1600,"cidad":1601,"finan":1602,"gro":1603,"onces":1604,"sex":1605,"última":1606,"Asi":1607,"onal":1608,"acciones":1609,"Chi":1610,"stitu":1611,"ases":1612,"gober":1613,"Como":1614,"gin":1615,"téc":1616,"sar":1617,"22":1618,"población":1619,"paso":1620,"Ministerio":1621,"Fern":1622,"jas":1623,"ea":1624,"Ha":1625,"venta":1626,"zon":1627,"máxi":1628,"Juan":1629,"ús":1630,"rid":1631,"parece":1632,"ye":1633,"debido":1634,"enfer":1635,"Can":1636,"Ni":1637,"nunca":1638,"acer":1639,"presenta":1640,"largo":1641,"40":1642,"terri":1643,"mental":1644,"Poli":1645,"sub":1646,"Lu":1647,"Mo":1648,"versión":1649,"igual":1650,"tbol":1651,"Asimismo":1652,"cuar":1653,"Hay":1654,"ác":1655,"mple":1656,"pues":1657,"compe":1658,"juego":1659,"encuentro":1660,"problemas":1661,"acompañ":1662,"atención":1663,"logía":1664,"dus":1665,"partidos":1666,"falta":1667,"volver":1668,"exi":1669,"empe":1670,"tex":1671,"cular":1672,"precios":1673,"relación":1674,"extra":1675,"mbres":1676,"precio":1677,"pesos":1678,"err":1679,"caron":1680,"osa":1681,"oso":1682,"secre":1683,"servicios":1684,"decisión":1685,"clar":1686,"mayoría":1687,"Hu":1688,"Or":1689,"recha":1690,"tribu":1691,"curso":1692,"seis":1693,"rido":1694,"able":1695,"llos":1696,"anto":1697,"alto":1698,"guerra":1699,"unio":1700,"fron":1701,"sólo":1702,"eran":1703,"entonces":1704,"ández":1705,"Sa":1706,"cali":1707,"ctubre":1708,"zando":1709,"refer":1710,"Do":1711,"rus":1712,"preg":1713,"fecha":1714,"incluso":1715,"apoyo":1716,"gobern":1717,"ámar":1718,"escen":1719,"nuevos":1720,"versidad":1721,"Mor":1722,"elo":1723,"profesion":1724,"Jo":1725,"ordin":1726,"cargo":1727,"gio":1728,"capital":1729,"té":1730,"queda":1731,"llegó":1732,"junio":1733,"inci":1734,"aument":1735,"región":1736,"manif":1737,"José":1738,"dé":1739,"tidad":1740,"funda":1741,"candida":1742,"gada":1743,"algunas":1744,"visto":1745,"dinero":1746,"ofre":1747,"tina":1748,"pone":1749,"lleva":1750,"ejemplo":1751,"ani":1752,"fico":1753,"2020":1754,"club":1755,"Madrid":1756,"favor":1757,"octubre":1758,"escu":1759,"pron":1760,"buena":1761,"Yo":1762,"local":1763,"ptiembre":1764,"ampli":1765,"uis":1766,"ambi":1767,"carrera":1768,"veci":1769,"regó":1770,"alta":1771,"char":1772,"medidas":1773,"turo":1774,"espacio":1775,"gor":1776,"varias":1777,"marzo":1778,"diciembre":1779,"CO":1780,"ellas":1781,"ciación":1782,"preci":1783,"temas":1784,"intent":1785,"gó":1786,"docu":1787,"tará":1788,"serie":1789,"calle":1790,"aseguró":1791,"estru":1792,"liber":1793,"tero":1794,"enci":1795,"investigación":1796,"cate":1797,"21":1798,"septiembre":1799,"signi":1800,"sas":1801,"interes":1802,"impu":1803,"espec":1804,"confi":1805,"mena":1806,"indicó":1807,"desarrollo":1808,"guar":1809,"obli":1810,"Ciudad":1811,"provincia":1812,"hemos":1813,"novi":1814,"amiento":1815,"ki":1816,"ual":1817,"vid":1818,"haya":1819,"tendrá":1820,"rado":1821,"soci":1822,"encuentra":1823,"tecno":1824,"diente":1825,"Inter":1826,"plata":1827,"constru":1828,"Policía":1829,"ór":1830,"decla":1831,"taciones":1832,"llevar":1833,"capacidad":1834,"Ra":1835,"mada":1836,"evitar":1837,"ares":1838,"dose":1839,"medios":1840,"conomía":1841,"actividad":1842,"cuerpo":1843,"60":1844,"iones":1845,"tural":1846,"Pla":1847,"Tras":1848,"esca":1849,"ejecu":1850,"esos":1851,"anterior":1852,"Entre":1853,"Cuando":1854,"tele":1855,"alcal":1856,"medida":1857,"municip":1858,"noviembre":1859,"depor":1860,"100":1861,"Gar":1862,"Mundial":1863,"dedor":1864,"realidad":1865,"gui":1866,"lor":1867,"aso":1868,"ech":1869,"parta":1870,"mici":1871,"taría":1872,"falle":1873,"estudi":1874,"entro":1875,"cabo":1876,"agos":1877,"producción":1878,"comunidad":1879,"consecu":1880,"bió":1881,"rápi":1882,"uniden":1883,"ques":1884,"laciones":1885,"quedar":1886,"lista":1887,"trasla":1888,"línea":1889,"atra":1890,"fle":1891,"gica":1892,"marca":1893,"vención":1894,"mexi":1895,"comunicado":1896,"actividades":1897,"aciones":1898,"obra":1899,"julio":1900,"campañ":1901,"esc":1902,"viene":1903,"apun":1904,"explicó":1905,"riesgo":1906,"Ahora":1907,"calidad":1908,"len":1909,"gus":1910,"prensa":1911,"oportunidad":1912,"Fu":1913,"determin":1914,"Gener":1915,"rez":1916,"mej":1917,"problema":1918,"agosto":1919,"vari":1920,"difí":1921,"consider":1922,"cieron":1923,"lando":1924,"nosotros":1925,"2023":1926,"Nue":1927,"tali":1928,"Martí":1929,"estadouniden":1930,"Europa":1931,"Gran":1932,"pal":1933,"dicho":1934,"jugar":1935,"Tu":1936,"cando":1937,"útbol":1938,"pez":1939,"Ne":1940,"Pi":1941,"greso":1942,"mú":1943,"wit":1944,"comb":1945,"miemb":1946,"perman":1947,"disfru":1948,"condiciones":1949,"ai":1950,"ima":1951,"trás":1952,"terr":1953,"acción":1954,"puso":1955,"Carlos":1956,"resultado":1957,"genera":1958,"tán":1959,"tria":1960,"diver":1961,"futuro":1962,"Luis":1963,"abier":1964,"diendo":1965,"video":1966,"correspon":1967,"brero":1968,"poni":1969,"ctoria":1970,"especi":1971,"muerte":1972,"23":1973,"ría":1974,"ense":1975,"trá":1976,"pasar":1977,"Sec":1978,"VI":1979,"jornada":1980,"productos":1981,"Ay":1982,"Fin":1983,"ñas":1984,"palab":1985,"identifi":1986,"mexican":1987,"reconoci":1988,"ura":1989,"indus":1990,"mpe":1991,"mayo":1992,"abril":1993,"pp":1994,"pie":1995,"sería":1996,"ig":1997,"entos":1998,"Ban":1999,"cru":2000,"ler":2001,"pción":2002,"enten":2003,"adie":2004,"Fue":2005,"gri":2006,"Ló":2007,"zados":2008,"hon":2009,"declar":2010,"cap":2011,"nombre":2012,"nuevas":2013,"agra":2014,"pueblo":2015,"agregó":2016,"todavía":2017,"control":2018,"equipos":2019,"Vene":2020,"ucran":2021,"lis":2022,"respe":2023,"aumento":2024,"particip":2025,"ayuda":2026,"principal":2027,"Salud":2028,"adio":2029,"gel":2030,"suce":2031,"busca":2032,"Qui":2033,"Te":2034,"dra":2035,"tadas":2036,"cui":2037,"logo":2038,"mantener":2039,"claro":2040,"ambos":2041,"López":2042,"fá":2043,"ts":2044,"provo":2045,"unidades":2046,"judi":2047,"militar":2048,"amor":2049,"ucrani":2050,"febrero":2051,"trabajar":2052,"pesar":2053,"preocu":2054,"trabajadores":2055,"actual":2056,"cierto":2057,"lin":2058,"enti":2059,"campe":2060,"fiscal":2061,"merican":2062,"crisis":2063,"nuestros":2064,"semanas":2065,"nacionales":2066,"derecho":2067,"mando":2068,"lament":2069,"conven":2070,"vió":2071,"violencia":2072,"ctura":2073,"turas":2074,"sol":2075,"dirigi":2076,"27":2077,"bor":2078,"encu":2079,"cis":2080,"celebr":2081,"ete":2082,"ron":2083,"alre":2084,"dipu":2085,"cionar":2086,"Durante":2087,"enfrent":2088,"enferme":2089,"Tor":2090,"eras":2091,"éctri":2092,"Qué":2093,"mejores":2094,"raz":2095,"Segu":2096,"trib":2097,"pareja":2098,"recursos":2099,"maron":2100,"venes":2101,"inicio":2102,"necesario":2103,"real":2104,"trim":2105,"cara":2106,"deral":2107,"dejar":2108,"Día":2109,"Twit":2110,"cle":2111,"inos":2112,"fli":2113,"taria":2114,"texto":2115,"ré":2116,"deben":2117,"enos":2118,"lada":2119,"regu":2120,"mpi":2121,"vamos":2122,"inicia":2123,"usuarios":2124,"ciado":2125,"elecciones":2126,"compañía":2127,"salir":2128,"materi":2129,"rio":2130,"resultados":2131,"vado":2132,"red":2133,"estre":2134,"hechos":2135,"energía":2136,"28":2137,"Cab":2138,"ior":2139,"convo":2140,"resto":2141,"gracias":2142,"camino":2143,"Muni":2144,"gico":2145,"derechos":2146,"sociedad":2147,"aten":2148,"encar":2149,"ficación":2150,"zaron":2151,"corpor":2152,"colabor":2153,"habían":2154,"afirmó":2155,"conjunto":2156,"cau":2157,"inflación":2158,"experiencia":2159,"menor":2160,"mayores":2161,"ejer":2162,"mpo":2163,"impul":2164,"Twitter":2165,"Centro":2166,"respuesta":2167,"guen":2168,"virus":2169,"aquí":2170,"zuela":2171,"moc":2172,"popu":2173,"ayudar":2174,"mán":2175,"fuerte":2176,"participar":2177,"tista":2178,"familias":2179,"periodis":2180,"evento":2181,"sito":2182,"haciendo":2183,"primeros":2184,"pó":2185,"área":2186,"jóvenes":2187,"Ya":2188,"gre":2189,"jan":2190,"pá":2191,"osi":2192,"proce":2193,"pelí":2194,"campaña":2195,"difícil":2196,"esas":2197,"elim":2198,"dic":2199,"dispu":2200,"mensaje":2201,"Aunque":2202,"2019":2203,"primero":2204,"municipio":2205,"ningún":2206,"emi":2207,"prác":2208,"rico":2209,"baja":2210,"internacional":2211,"Santa":2212,"ámara":2213,"Tra":2214,"cuanto":2215,"dentes":2216,"garanti":2217,"neo":2218,"grantes":2219,"responsab":2220,"26":2221,"bir":2222,"jugadores":2223,"alrededor":2224,"Cris":2225,"estará":2226,"locales":2227,"vehículos":2228,"benefi":2229,"fran":2230,"úa":2231,"ería":2232,"cina":2233,"tag":2234,"eléctri":2235,"presencia":2236,"hubo":2237,"ahí":2238,"tón":2239,"hijos":2240,"estuvo":2241,"consul":2242,"único":2243,"administra":2244,"chas":2245,"policía":2246,"crí":2247,"brin":2248,"Au":2249,"incl":2250,"madre":2251,"iz":2252,"ner":2253,"nadie":2254,"proba":2255,"mucha":2256,"hombres":2257,"hablar":2258,"comien":2259,"económica":2260,"anim":2261,"repor":2262,"ece":2263,"paz":2264,"voz":2265,"gia":2266,"obs":2267,"significa":2268,"emo":2269,"rea":2270,"acci":2271,"tivamente":2272,"erte":2273,"delo":2274,"cionado":2275,"Colo":2276,"últimas":2277,"destacó":2278,"Venezuela":2279,"%.":2280,"AN":2281,"Ba":2282,"Presiden":2283,"erto":2284,"Pri":2285,"pueda":2286,"ganar":2287,"plante":2288,"euro":2289,"llas":2290,"tradi":2291,"obser":2292,"Fernández":2293,"xim":2294,"concre":2295,"caí":2296,"chez":2297,"foto":2298,"eb":2299,"cili":2300,"proces":2301,"prepar":2302,"participación":2303,"expresó":2304,"Secre":2305,"idos":2306,"onia":2307,"momentos":2308,"ayer":2309,"General":2310,"80":2311,"cami":2312,"propuesta":2313,"bate":2314,"fil":2315,"alización":2316,"hijo":2317,"algún":2318,"propio":2319,"anunció":2320,"necesita":2321,"cito":2322,"quedó":2323,"acceso":2324,"fútbol":2325,"ál":2326,"dientes":2327,"vación":2328,"María":2329,"reunión":2330,"Pre":2331,"modelo":2332,"tercer":2333,"tarje":2334,"serán":2335,"premi":2336,"obras":2337,"alguna":2338,"cipios":2339,"zonas":2340,"Públi":2341,"cera":2342,"pagar":2343,"luz":2344,"líder":2345,"adió":2346,"inas":2347,"entras":2348,"conclu":2349,"plazo":2350,"Después":2351,"considera":2352,"víctimas":2353,"base":2354,"siete":2355,"pudo":2356,"informe":2357,"dí":2358,"gestión":2359,"tio":2360,"Conse":2361,"dimiento":2362,"estó":2363,"Mientras":2364,"comenzó":2365,"Fiscal":2366,"dispar":2367,"29":2368,"Sán":2369,"fan":2370,"th":2371,"miso":2372,"vehículo":2373,"pregun":2374,"vecinos":2375,"Sánchez":2376,"Que":2377,"dando":2378,"podemos":2379,"abo":2380,"zaciones":2381,"cantidad":2382,"jeros":2383,"ofer":2384,"PS":2385,"nar":2386,"crecimiento":2387,"entren":2388,"jugador":2389,"Nor":2390,"Res":2391,"plo":2392,"arma":2393,"constitu":2394,"ago":2395,"zadas":2396,"promo":2397,"apoy":2398,"vacuna":2399,"mpoco":2400,"Jus":2401,"argent":2402,"paración":2403,"recla":2404,"causa":2405,"Congreso":2406,"ctores":2407,"teriores":2408,"cambios":2409,"campo":2410,"histó":2411,"permite":2412,"ataque":2413,"dón":2414,"tual":2415,"conoce":2416,"celebra":2417,"míni":2418,"amena":2419,"economía":2420,"mundial":2421,"única":2422,"cuesti":2423,"pul":2424,"muestra":2425,"jefe":2426,"disponi":2427,"genes":2428,"proyectos":2429,"música":2430,"Nos":2431,"emer":2432,"uido":2433,"mática":2434,"adamente":2435,"70":2436,"due":2437,"gres":2438,"ruz":2439,"partamento":2440,"tud":2441,"entemente":2442,"República":2443,"Liga":2444,"Edu":2445,"cubri":2446,"victoria":2447,"recibir":2448,"idea":2449,"acep":2450,"Eso":2451,"refle":2452,"puestas":2453,"presidenta":2454,"responsa":2455,"Ros":2456,"esfuer":2457,"Universidad":2458,"iló":2459,"Hoy":2460,"blan":2461,"ko":2462,"ono":2463,"sico":2464,"mbia":2465,"posibilidad":2466,"estudio":2467,"encontrar":2468,"Luego":2469,"cciones":2470,"hacen":2471,"cercan":2472,"Amé":2473,"peli":2474,"contar":2475,"tuvieron":2476,"Institu":2477,"vice":2478,"formas":2479,"interés":2480,"víctima":2481,"500":2482,"Ja":2483,"cán":2484,"kiló":2485,"exten":2486,"cabeza":2487,"dero":2488,"incen":2489,"cuales":2490,"tenga":2491,"grave":2492,"quieren":2493,"aler":2494,"digi":2495,"político":2496,"compromiso":2497,"difi":2498,"modo":2499,"masi":2500,"saber":2501,"títu":2502,"amos":2503,"dedi":2504,"cionados":2505,"rando":2506,"estaban":2507,"ruso":2508,"elegi":2509,"aprov":2510,"principales":2511,"padre":2512,"elimin":2513,"90":2514,"nas":2515,"unal":2516,"mejorar":2517,"golpe":2518,"Bi":2519,"presente":2520,"españo":2521,"buscar":2522,"guez":2523,"mana":2524,"habrá":2525,"puedan":2526,"apar":2527,"llu":2528,"sado":2529,"reo":2530,"puestos":2531,"trabajando":2532,"Consejo":2533,"As":2534,"jui":2535,"ocas":2536,"sé":2537,"grupos":2538,"eo":2539,"tengo":2540,"quiera":2541,"cultura":2542,"miembros":2543,"Colombia":2544,"alla":2545,"presu":2546,"fuerza":2547,"tistas":2548,"defensa":2549,"gados":2550,"descar":2551,"mentación":2552,"tarse":2553,"estructura":2554,"democ":2555,"mica":2556,"raciones":2557,"calles":2558,"tempera":2559,"explica":2560,"Ver":2561,"agu":2562,"zá":2563,"cont":2564,"positivo":2565,"penas":2566,"recibió":2567,"estrate":2568,"feli":2569,"rismo":2570,"ninguna":2571,"%,":2572,"For":2573,"Jor":2574,"Sal":2575,"yendo":2576,"resta":2577,"ciudadanos":2578,"arte":2579,"compli":2580,"organización":2581,"Tri":2582,"ocho":2583,"esco":2584,"sufici":2585,"siva":2586,"marco":2587,"graf":2588,"adelante":2589,"gal":2590,"come":2591,"dejó":2592,"afi":2593,"vivir":2594,"protag":2595,"exper":2596,"sación":2597,"políticas":2598,"norte":2599,"aría":2600,"confli":2601,"dena":2602,"nación":2603,"Manuel":2604,"Ad":2605,"apren":2606,"ñol":2607,"unto":2608,"cuad":2609,"suma":2610,"sola":2611,"35":2612,"gé":2613,"impacto":2614,"encuentran":2615,"Todos":2616,"integr":2617,"Có":2618,"II":2619,"cun":2620,"áli":2621,"libre":2622,"rir":2623,"tus":2624,"mediante":2625,"Comisión":2626,"propia":2627,"defini":2628,"pin":2629,"tró":2630,"virtió":2631,"vuelta":2632,"demanda":2633,"papel":2634,"pea":2635,"importantes":2636,"Ai":2637,"PP":2638,"llega":2639,"lograr":2640,"rei":2641,"esté":2642,"derro":2643,"habría":2644,"desarrol":2645,"Fi":2646,"envi":2647,"gios":2648,"audi":2649,"ferencia":2650,"regres":2651,"podrán":2652,"color":2653,"construcción":2654,"palabras":2655,"alter":2656,"toma":2657,"dados":2658,"finales":2659,"estadounidense":2660,"tarjeta":2661,"ela":2662,"mados":2663,"perfec":2664,"presión":2665,"quisi":2666,"prueba":2667,"Seguridad":2668,"bá":2669,"vene":2670,"habili":2671,"laron":2672,"imagen":2673,"31":2674,"mag":2675,"ecer":2676,"comunicación":2677,"legisla":2678,"territorio":2679,"bó":2680,"cadas":2681,"entidad":2682,"habla":2683,"ística":2684,"necesidad":2685,"señala":2686,"allá":2687,"libertad":2688,"EE":2689,"fuego":2690,"amari":2691,"categor":2692,"glo":2693,"gencias":2694,"justicia":2695,"Pedro":2696,"colec":2697,"gobernador":2698,"plataforma":2699,"Son":2700,"gentes":2701,"lé":2702,"mue":2703,"cidos":2704,"anas":2705,"sion":2706,"elector":2707,"asegura":2708,"China":2709,"amigos":2710,"Municip":2711,"ell":2712,"agres":2713,"inversión":2714,"reco":2715,"lucha":2716,"Copa":2717,"untamiento":2718,"mandatario":2719,"operación":2720,"has":2721,"tino":2722,"triun":2723,"meros":2724,"Todo":2725,"enfermedad":2726,"ende":2727,"máximo":2728,"fácil":2729,"Más":2730,"ego":2731,"ke":2732,"grande":2733,"español":2734,"édi":2735,"carac":2736,"Comuni":2737,"Ley":2738,"visita":2739,"alcalde":2740,"kilómetros":2741,"Gon":2742,"guay":2743,"discu":2744,"interior":2745,"García":2746,"Pue":2747,"Án":2748,"talla":2749,"fuerzas":2750,"pruebas":2751,"izquier":2752,"atar":2753,"oc":2754,"vesti":2755,"uien":2756,"figu":2757,"salari":2758,"entrega":2759,"ísticas":2760,"realizó":2761,"alguien":2762,"cumplir":2763,"venezo":2764,"Eje":2765,"tér":2766,"abor":2767,"hicieron":2768,"legal":2769,"mático":2770,"Direc":2771,"Villa":2772,"Instituto":2773,"iba":2774,"asi":2775,"titular":2776,"Estamos":2777,"económico":2778,"especialmente":2779,"bloque":2780,"Is":2781,"lados":2782,"mitad":2783,"lez":2784,"extre":2785,"clasi":2786,"distintos":2787,"técnico":2788,"secretario":2789,"VID":2790,"obstante":2791,"Fiscalía":2792,"AM":2793,"madas":2794,"selección":2795,"web":2796,"indepen":2797,"éxito":2798,"edición":2799,"allí":2800,"sede":2801,"hija":2802,"IN":2803,"pac":2804,"estro":2805,"untos":2806,"mbo":2807,"estoy":2808,"45":2809,"Del":2810,"alidades":2811,"elementos":2812,"Mig":2813,"origin":2814,"probable":2815,"asu":2816,"suspen":2817,"elev":2818,"consumo":2819,"espos":2820,"artí":2821,"marcha":2822,"gaciones":2823,"podrá":2824,"movili":2825,"escenario":2826,"Cha":2827,"Hasta":2828,"aba":2829,"incorpor":2830,"familiares":2831,"Buenos":2832,"Ejecu":2833,"arri":2834,"tampoco":2835,"lica":2836,"mater":2837,"mágenes":2838,"hogar":2839,"bomb":2840,"clave":2841,"Rodr":2842,"salida":2843,"juicio":2844,"uda":2845,"íguez":2846,"indica":2847,"logró":2848,"ocurrió":2849,"Rodríguez":2850,"cente":2851,"armas":2852,"cifra":2853,"superi":2854,"mez":2855,"acor":2856,"añadió":2857,"menores":2858,"presentó":2859,"tividad":2860,"diá":2861,"limi":2862,"acce":2863,"piso":2864,"pasó":2865,"hacerlo":2866,"importancia":2867,"sabe":2868,"hospital":2869,"llevó":2870,"Bras":2871,"apor":2872,"reno":2873,"triz":2874,"viaje":2875,"conocido":2876,"municipal":2877,"ejerci":2878,"práctica":2879,"Aires":2880,"Miguel":2881,"Cos":2882,"fras":2883,"representa":2884,"convi":2885,"partes":2886,"pago":2887,"entrevista":2888,"facili":2889,"Alber":2890,"Be":2891,"cro":2892,"pele":2893,"conte":2894,"poten":2895,"oló":2896,"constr":2897,"llegada":2898,"profesional":2899,"tecnología":2900,"América":2901,"simi":2902,"cionó":2903,"mane":2904,"duda":2905,"venida":2906,"trabajos":2907,"sanit":2908,"niveles":2909,"siguiente":2910,"Secretaría":2911,"Cruz":2912,"tía":2913,"dosis":2914,"hospi":2915,"infra":2916,"ónica":2917,"accidente":2918,"ocasi":2919,"memor":2920,"verdad":2921,"formar":2922,"seguro":2923,"investig":2924,"educación":2925,"responsabilidad":2926,"centes":2927,"tercera":2928,"imple":2929,"Civil":2930,"yen":2931,"conec":2932,"coordin":2933,"pidió":2934,"torias":2935,"cambiar":2936,"priv":2937,"tendrán":2938,"Chile":2939,"COVID":2940,"Nueva":2941,"atrás":2942,"ple":2943,"ral":2944,"quin":2945,"creo":2946,"llamado":2947,"Real":2948,"actualmente":2949,"comentó":2950,"disfrutar":2951,"Ángel":2952,"Ara":2953,"fuentes":2954,"venir":2955,"abandon":2956,"distintas":2957,"aprovech":2958,"ocasiones":2959,"UU":2960,"bras":2961,"cales":2962,"ándo":2963,"producto":2964,"existe":2965,"Francis":2966,"industria":2967,"Justicia":2968,"Vo":2969,"gén":2970,"ilu":2971,"rue":2972,"deja":2973,"cita":2974,"torneo":2975,"natur":2976,"edifi":2977,"central":2978,"película":2979,"cari":2980,"imágenes":2981,"remos":2982,"sean":2983,"secu":2984,"perder":2985,"rique":2986,"mentar":2987,"alizado":2988,"mesa":2989,"espacios":2990,"localidad":2991,"Presidente":2992,"tieron":2993,"conseguir":2994,"mite":2995,"rieron":2996,"comenzar":2997,"Putin":2998,"iniciativa":2999,"pér":3000,"reducir":3001,"rápida":3002,"Ayuntamiento":3003,"Cámara":3004,"Nu":3005,"subra":3006,"siguen":3007,"ramient":3008,"comparti":3009,"acumu":3010,"herramient":3011,"pacientes":3012,"padres":3013,"educa":3014,"ofrece":3015,"endas":3016,"mantiene":3017,"plaza":3018,"instituciones":3019,"Brasil":3020,"At":3021,"SA":3022,"jeron":3023,"motivo":3024,"ficar":3025,"pasada":3026,"ller":3027,"contrato":3028,"Anton":3029,"transporte":3030,"opción":3031,"tenidos":3032,"vivienda":3033,"protección":3034,"detec":3035,"table":3036,"multi":3037,"crear":3038,"lugares":3039,"podrían":3040,"cepción":3041,"Ejecutivo":3042,"Pen":3043,"pis":3044,"conce":3045,"mues":3046,"crimin":3047,"recuer":3048,"ofrecer":3049,"Cla":3050,"Dis":3051,"american":3052,"apenas":3053,"tt":3054,"inver":3055,"perten":3056,"torno":3057,"2018":3058,"lanza":3059,"alcanzar":3060,"Hab":3061,"nto":3062,"refi":3063,"retir":3064,"domici":3065,"parecer":3066,"funcionarios":3067,"Barcel":3068,"detalles":3069,"manifestó":3070,"Cabe":3071,"34":3072,"Pab":3073,"sostuvo":3074,"diferencia":3075,"Hos":3076,"entí":3077,"alizó":3078,"humanos":3079,"Ante":3080,"etapa":3081,"declaraciones":3082,"términ":3083,"dal":3084,"jero":3085,"testi":3086,"agre":3087,"agentes":3088,"Unión":3089,"sectores":3090,"centros":3091,"tarios":3092,"recomen":3093,"entor":3094,"subi":3095,"preten":3096,"adelan":3097,"Servi":3098,"incremento":3099,"Cómo":3100,"CE":3101,"bús":3102,"ka":3103,"nó":3104,"vul":3105,"deres":3106,"later":3107,"sitio":3108,"poca":3109,"fortal":3110,"grados":3111,"’,":3112,"vidu":3113,"respec":3114,"ándose":3115,"verano":3116,"gram":3117,"Defen":3118,"bastante":3119,"Francisco":3120,"Ali":3121,"jér":3122,"alma":3123,"vias":3124,"cantante":3125,"próxima":3126,"Casti":3127,"sorpren":3128,"compra":3129,"Finalmente":3130,"Col":3131,"Ram":3132,"propor":3133,"mania":3134,"realizado":3135,"entrada":3136,"nuestras":3137,"Andr":3138,"volun":3139,"denuncia":3140,"profesionales":3141,"Barcelona":3142,"Fa":3143,"Uno":3144,"edo":3145,"event":3146,"gim":3147,"adu":3148,"taba":3149,"tamos":3150,"Constitu":3151,"Casa":3152,"oferta":3153,"rada":3154,"vue":3155,"contexto":3156,"dolor":3157,"somos":3158,"cosa":3159,"saciones":3160,"velo":3161,"ingresos":3162,"PR":3163,"Rob":3164,"ps":3165,"tbo":3166,"artista":3167,"contó":3168,"individu":3169,"adecu":3170,"Domin":3171,"razón":3172,"36":3173,"Hi":3174,"Mari":3175,"bel":3176,"iva":3177,"mera":3178,"anía":3179,"miles":3180,"sir":3181,"alimentos":3182,"usti":3183,"bilidades":3184,"políticos":3185,"Social":3186,"próximos":3187,"contacto":3188,"periodo":3189,"delito":3190,"conflicto":3191,"Cul":3192,"Centr":3193,"insis":3194,"viles":3195,"levan":3196,"prot":3197,"reser":3198,"decidió":3199,"telé":3200,"evalu":3201,"volución":3202,"confianza":3203,"Jorge":3204,"Mac":3205,"arlo":3206,"cida":3207,"adul":3208,"mul":3209,"pide":3210,"geni":3211,"intervención":3212,"móvil":3213,"And":3214,"confirmó":3215,"Mer":3216,"Qatar":3217,"pocos":3218,"extran":3219,"alum":3220,"Santi":3221,"tiempos":3222,"juez":3223,"Internacional":3224,"Martín":3225,"periodista":3226,"teléfon":3227,"aco":3228,"idas":3229,"enor":3230,"didos":3231,"diario":3232,"noticia":3233,"uste":3234,"sospec":3235,"clientes":3236,"convertir":3237,"estudiantes":3238,"responsable":3239,"administración":3240,"argentino":3241,"título":3242,"Pablo":3243,"jército":3244,"The":3245,"ok":3246,"ens":3247,"simple":3248,"pedir":3249,"sosteni":3250,"generar":3251,"recordar":3252,"negocio":3253,"ocasión":3254,"bes":3255,"tente":3256,"realmente":3257,"nomin":3258,"barrio":3259,"Francia":3260,"Biden":3261,"Obr":3262,"bio":3263,"profun":3264,"Estos":3265,"ables":3266,"correc":3267,"función":3268,"torios":3269,"opini":3270,"Gonzá":3271,"Tran":3272,"mec":3273,"ardo":3274,"ental":3275,"conser":3276,"diez":3277,"quién":3278,"carse":3279,"particular":3280,"internacionales":3281,"dirección":3282,"demostr":3283,"competi":3284,"aus":3285,"fas":3286,"oposición":3287,"suje":3288,"tui":3289,"común":3290,"adoras":3291,"nega":3292,"199":3293,"primeras":3294,"aire":3295,"Ga":3296,"tería":3297,"pedido":3298,"ganó":3299,"debería":3300,"aquellos":3301,"médico":3302,"encima":3303,"Banco":3304,"González":3305,"radi":3306,"carre":3307,"tasa":3308,"drá":3309,"Covid":3310,"Alg":3311,"Guar":3312,"puerto":3313,"estrategia":3314,"género":3315,"Cal":3316,"pese":3317,"teo":3318,"mación":3319,"estados":3320,"carga":3321,"obtener":3322,"institución":3323,"combusti":3324,"Her":3325,"peso":3326,"’.":3327,"estadio":3328,"futbo":3329,"enfrenta":3330,"Em":3331,"Ten":3332,"uales":3333,"absolu":3334,"llama":3335,"pensar":3336,"Perú":3337,"emergencia":3338,"materia":3339,"diálogo":3340,"FA":3341,"Gra":3342,"delan":3343,"enen":3344,"dise":3345,"digo":3346,"moto":3347,"resol":3348,"exclu":3349,"augu":3350,"tranqui":3351,"volvió":3352,"versiones":3353,"tráfico":3354,"amarilla":3355,"confor":3356,"covid":3357,"nove":3358,"adap":3359,"mone":3360,"prisión":3361,"cierre":3362,"75":3363,"ahor":3364,"bur":3365,"encon":3366,"ard":3367,"inmedia":3368,"tengan":3369,"aliza":3370,"disposición":3371,"rupción":3372,"Rey":3373,"human":3374,"principio":3375,"terminó":3376,"desarrolla":3377,"teniendo":3378,"máxima":3379,"Ben":3380,"Der":3381,"cé":3382,"suel":3383,"encial":3384,"informa":3385,"reve":3386,"cero":3387,"empa":3388,"net":3389,"priori":3390,"continuar":3391,"Alemania":3392,"destino":3393,"financi":3394,"europe":3395,"US":3396,"jur":3397,"otor":3398,"deos":3399,"moder":3400,"actor":3401,"conoció":3402,"juegos":3403,"Alejan":3404,"ambiente":3405,"Alberto":3406,"Hern":3407,"Sur":3408,"fase":3409,"selec":3410,"nueve":3411,"completo":3412,"comprome":3413,"Ve":3414,"ere":3415,"tiro":3416,"tirá":3417,"trabaja":3418,"Regi":3419,"firma":3420,"energé":3421,"quería":3422,"áreas":3423,"instalaciones":3424,"Hospital":3425,"Obrador":3426,"bé":3427,"inscri":3428,"salió":3429,"pelo":3430,"relaciones":3431,"pequeño":3432,"médicos":3433,"Fer":3434,"fabri":3435,"conden":3436,"dica":3437,"didas":3438,"fiesta":3439,"natural":3440,"deración":3441,"caída":3442,"Andrés":3443,"Ber":3444,"ON":3445,"Pol":3446,"argu":3447,"admi":3448,"vive":3449,"votos":3450,"interpre":3451,"nez":3452,"onato":3453,"Provin":3454,"Pala":3455,"movimiento":3456,"esfuerzo":3457,"categoría":3458,"33":3459,"Sen":3460,"rí":3461,"tentes":3462,"cine":3463,"tancias":3464,"peor":3465,"marcó":3466,"federal":3467,"consumi":3468,"declaró":3469,"lon":3470,"rán":3471,"tari":3472,"vera":3473,"tierra":3474,"log":3475,"menta":3476,"promedio":3477,"mismos":3478,"Insta":3479,"grá":3480,"laboral":3481,"azón":3482,"encontraba":3483,"ciu":3484,"daños":3485,"gusta":3486,"hotel":3487,"inici":3488,"llegado":3489,"sacar":3490,"Martínez":3491,"generación":3492,"Mas":3493,"agen":3494,"gesti":3495,"oro":3496,"capi":3497,"descubri":3498,"positivos":3499,"bueno":3500,"públicos":3501,"influ":3502,"oficiales":3503,"Antonio":3504,"cador":3505,"jado":3506,"derecha":3507,"reforma":3508,"cola":3509,"adoles":3510,"usar":3511,"León":3512,"sanciones":3513,"escribió":3514,"recuperación":3515,"Jes":3516,"Ter":3517,"cientí":3518,"til":3519,"tenían":3520,"Estas":3521,"clara":3522,"seguido":3523,"esperan":3524,"árez":3525,"fundamental":3526,"garantizar":3527,"elabor":3528,"doble":3529,"sicos":3530,"leo":3531,"tratar":3532,"acerca":3533,"agradeci":3534,"desarrollar":3535,"App":3536,"clo":3537,"detenido":3538,"ciencia":3539,"reac":3540,"tiendo":3541,"racia":3542,"podía":3543,"gió":3544,"pase":3545,"puedes":3546,"corona":3547,"198":3548,"álisis":3549,"Municipal":3550,"superior":3551,"Santiago":3552,"38":3553,"cés":3554,"fis":3555,"ensa":3556,"ches":3557,"Com":3558,"empren":3559,"incluye":3560,"teriormente":3561,"Puerto":3562,"colombi":3563,"Norte":3564,"ctos":3565,"ciente":3566,"uelas":3567,"infec":3568,"rey":3569,"ticias":3570,"dicen":3571,"diferente":3572,"norma":3573,"Federal":3574,"electoral":3575,"ciudades":3576,"aero":3577,"ajus":3578,"debate":3579,"sumar":3580,"voy":3581,"estatal":3582,"realiza":3583,"origen":3584,"referencia":3585,"televisión":3586,"Cer":3587,"bos":3588,"centa":3589,"ira":3590,"incu":3591,"inaugu":3592,"finalmente":3593,"ístico":3594,"dará":3595,"daron":3596,"impac":3597,"funciones":3598,"actualidad":3599,"juntos":3600,"cinas":3601,"judicial":3602,"campeón":3603,"dónde":3604,"Central":3605,"Blan":3606,"Ger":3607,"Mos":3608,"cú":3609,"gina":3610,"uli":3611,"ork":3612,"nicos":3613,"Sobre":3614,"continúa":3615,"utilizar":3616,"puerta":3617,"benefici":3618,"cuidado":3619,"65":3620,"He":3621,"Sus":3622,"fri":3623,"vali":3624,"enfo":3625,"cuestión":3626,"supuesto":3627,"libro":3628,"pertura":3629,"teras":3630,"resis":3631,"pilo":3632,"olina":3633,"presentación":3634,"solución":3635,"candidato":3636,"pronto":3637,"suficiente":3638,"triunfo":3639,"Instagram":3640,"AR":3641,"mari":3642,"cimientos":3643,"diag":3644,"metro":3645,"peti":3646,"compañeros":3647,"empezó":3648,"mexicano":3649,"beneficios":3650,"protagon":3651,"expertos":3652,"OT":3653,"eas":3654,"psi":3655,"adá":3656,"rios":3657,"vers":3658,"ruta":3659,"olvi":3660,"darle":3661,"urban":3662,"penal":3663,"imposi":3664,"hubi":3665,"instru":3666,"aproxim":3667,"icana":3668,"conductor":3669,"delitos":3670,"Educación":3671,"Defensa":3672,"Pé":3673,"hin":3674,"quez":3675,"coti":3676,"tora":3677,"niño":3678,"estación":3679,"decisiones":3680,"estudios":3681,"existen":3682,"grafía":3683,"entorno":3684,"48":3685,"Cali":3686,"aspi":3687,"contenido":3688,"dada":3689,"alizada":3690,"familiar":3691,"funcionario":3692,"mostró":3693,"300":3694,"Ele":3695,"deri":3696,"refor":3697,"consis":3698,"migrantes":3699,"estan":3700,"discurso":3701,"rump":3702,"ruguay":3703,"entrar":3704,"ieza":3705,"recordó":3706,"física":3707,"afirma":3708,"fondos":3709,"',":3710,"Clu":3711,"Gru":3712,"cías":3713,"dri":3714,"robo":3715,"creación":3716,"famos":3717,"sentir":3718,"inteli":3719,"comprar":3720,"aplicación":3721,"sexual":3722,"Aso":3723,"Da":3724,"onio":3725,"lejos":3726,"gración":3727,"estival":3728,"públicas":3729,"contrario":3730,"Partido":3731,"sesión":3732,"atender":3733,"Cristina":3734,"inclui":3735,"digital":3736,"dificul":3737,"Pérez":3738,"ES":3739,"FI":3740,"asión":3741,"contribu":3742,"tección":3743,"tomó":3744,"pier":3745,"mercados":3746,"banda":3747,"comunidades":3748,"planes":3749,"Dios":3750,"dejado":3751,"conocimiento":3752,"recibido":3753,"norm":3754,"queremos":3755,"ventaja":3756,"trimonio":3757,"colaboración":3758,"restau":3759,"deman":3760,"rit":3761,"nia":3762,"quiero":3763,"comba":3764,"compren":3765,"garon":3766,"tenimiento":3767,"madru":3768,"popular":3769,"izquierda":3770,"ejercicio":3771,"PC":3772,"Tene":3773,"vador":3774,"altura":3775,"supone":3776,"ciona":3777,"samente":3778,"inició":3779,"ofreci":3780,"esperar":3781,"justo":3782,"Díaz":3783,"vacunación":3784,"acceder":3785,"400":3786,"um":3787,"descri":3788,"goles":3789,"compar":3790,"presentar":3791,"abrir":3792,"organismo":3793,"opciones":3794,"sorpres":3795,"habitantes":3796,"asesin":3797,"cuarto":3798,"especí":3799,"diputado":3800,"Tenemos":3801,"UE":3802,"pto":3803,"demasi":3804,"arran":3805,"perdió":3806,"fines":3807,"compu":3808,"trito":3809,"corazón":3810,"fondo":3811,"industri":3812,"tóno":3813,"presupuesto":3814,"32":3815,"Amb":3816,"bla":3817,"ash":3818,"viven":3819,"prome":3820,"bación":3821,"nie":3822,"lución":3823,"gratui":3824,"Desarro":3825,"objetivos":3826,"ocurrido":3827,"ambas":3828,"frontera":3829,"rusos":3830,"declaración":3831,"ws":3832,"zca":3833,"one":3834,"mico":3835,"dura":3836,"verda":3837,"torial":3838,"turno":3839,"Diego":3840,"municipios":3841,"écadas":3842,"organizaciones":3843,"desapare":3844,"efectos":3845,"directora":3846,"operaciones":3847,"competencia":3848,"entender":3849,"alterna":3850,"esposa":3851,"madrugada":3852,"Plan":3853,"Ur":3854,"décadas":3855,"jal":3856,"rados":3857,"semi":3858,"pudi":3859,"reciente":3860,"permitir":3861,"regional":3862,"municipales":3863,"respeto":3864,"domicilio":3865,"Ig":3866,"gadas":3867,"ry":3868,"coinci":3869,"cump":3870,"lea":3871,"destaca":3872,"tratamiento":3873,"integrantes":3874,"efecto":3875,"viviendas":3876,"operativo":3877,"lluvias":3878,"caracter":3879,"Costa":3880,"búsqueda":3881,"decre":3882,"detrás":3883,"adqui":3884,"culas":3885,"libr":3886,"Enton":3887,"homici":3888,"hibi":3889,"ingreso":3890,"valores":3891,"Europea":3892,"comercial":3893,"oportunidades":3894,"entrenador":3895,"opinión":3896,"Club":3897,"Entonces":3898,"blos":3899,"clas":3900,"ud":3901,"miedo":3902,"cree":3903,"vistas":3904,"velocidad":3905,"cár":3906,"hará":3907,"ola":3908,"intención":3909,"ficos":3910,"Porque":3911,"transi":3912,"califi":3913,"escuch":3914,"convoca":3915,"procesos":3916,"Trib":3917,"Derec":3918,"Bel":3919,"Cada":3920,"OE":3921,"Rec":3922,"ile":3923,"tades":3924,"cumple":3925,"iste":3926,"máticas":3927,"corrupción":3928,"fuertes":3929,"minuto":3930,"Valencia":3931,"líneas":3932,"escuela":3933,"listas":3934,"teléfono":3935,"coronavirus":3936,"Fl":3937,"fé":3938,"rer":3939,"lano":3940,"mode":3941,"perío":3942,"soy":3943,"aclar":3944,"activos":3945,"puedo":3946,"censo":3947,"cuentas":3948,"coló":3949,"portavoz":3950,"consecuencia":3951,"disponible":3952,"artículo":3953,"muestran":3954,"Desarrollo":3955,"MI":3956,"Río":3957,"edades":3958,"hue":3959,"damos":3960,"musi":3961,"cante":3962,"pena":3963,"pequeños":3964,"rápido":3965,"diseño":3966,"Don":3967,"Fo":3968,"May":3969,"ámbi":3970,"época":3971,"diseñ":3972,"éndose":3973,"comisión":3974,"policial":3975,"militares":3976,"construir":3977,"Grupo":3978,"CI":3979,"Hace":3980,"gón":3981,"ias":3982,"ición":3983,"ty":3984,"deuda":3985,"análisis":3986,"impres":3987,"ponen":3988,"líderes":3989,"cord":3990,"Depor":3991,"principios":3992,"diversos":3993,"Ese":3994,"tú":3995,"vino":3996,"zgo":3997,"alco":3998,"actriz":3999,"ciaciones":4000,"cere":4001,"land":4002,"hua":4003,"sínto":4004,"seguidores":4005,"ataques":4006,"llegaron":4007,"necesidades":4008,"representantes":4009,"empleo":4010,"pregunta":4011,"talia":4012,"cuestion":4013,"peligro":4014,"temperatura":4015,"síntomas":4016,"Creo":4017,"Pos":4018,"Pas":4019,"dario":4020,"deporte":4021,"lamento":4022,"conferencia":4023,"culación":4024,"limp":4025,"cionada":4026,"ismos":4027,"respal":4028,"costo":4029,"empla":4030,"siglo":4031,"Camp":4032,"moni":4033,"crédi":4034,"deberá":4035,"ubicado":4036,"empleados":4037,"global":4038,"gimen":4039,"Alejandro":4040,"Ce":4041,"FC":4042,"erno":4043,"involu":4044,"tida":4045,"dijeron":4046,"eración":4047,"quina":4048,"impli":4049,"presentado":4050,"planta":4051,"autoridad":4052,"comida":4053,"realizará":4054,"documento":4055,"abierto":4056,"Asociación":4057,"flu":4058,"lá":4059,"ers":4060,"tren":4061,"cadena":4062,"porcenta":4063,"murió":4064,"tienes":4065,"Cuba":4066,"programas":4067,"Plata":4068,"española":4069,"edificio":4070,"eventos":4071,"enorme":4072,"Trans":4073,"Guardia":4074,"delantero":4075,"44":4076,"anal":4077,"bia":4078,"resal":4079,"criti":4080,"irch":4081,"ciudadanía":4082,"Dipu":4083,"principalmente":4084,"intensi":4085,"Fernando":4086,"material":4087,"recuerda":4088,"Hernández":4089,"Javi":4090,"Mes":4091,"York":4092,"apre":4093,"encontra":4094,"concep":4095,"descan":4096,"trayec":4097,"gobier":4098,"2017":4099,"gicos":4100,"tono":4101,"clá":4102,"aquel":4103,"celebración":4104,"mínimo":4105,"clases":4106,"37":4107,"NA":4108,"departamento":4109,"artistas":4110,"cifras":4111,"anual":4112,"difun":4113,"bis":4114,"podido":4115,"tana":4116,"mediata":4117,"corto":4118,"estilo":4119,"crimen":4120,"publicado":4121,"avance":4122,"puertas":4123,"terror":4124,"participantes":4125,"democracia":4126,"resolver":4127,"CA":4128,"ER":4129,"Sil":4130,"apare":4131,"ísi":4132,"mio":4133,"vimos":4134,"vienen":4135,"mentales":4136,"propuestas":4137,"satis":4138,"amon":4139,"sabemos":4140,"Solo":4141,"regiones":4142,"totalmente":4143,"senci":4144,"Corte":4145,"Organ":4146,"solamente":4147,"figura":4148,"Davi":4149,"ji":4150,"ples":4151,"meta":4152,"tendencia":4153,"aliment":4154,"Esa":4155,"estarán":4156,"invasión":4157,"senti":4158,"transmi":4159,"anunci":4160,"comerci":4161,"empezar":4162,"amplia":4163,"Dirección":4164,"Tribunal":4165,"irchner":4166,"Dani":4167,"lvar":4168,"orgu":4169,"trán":4170,"riendo":4171,"gicas":4172,"tín":4173,"propios":4174,"suelo":4175,"55":4176,"Bor":4177,"Je":4178,"Pres":4179,"sho":4180,"aro":4181,"insu":4182,"dicha":4183,"coche":4184,"turismo":4185,"añad":4186,"cargos":4187,"compartir":4188,"darse":4189,"desempe":4190,"siguió":4191,"amigo":4192,"diversas":4193,"animales":4194,"pérdida":4195,"período":4196,"Bol":4197,"viendo":4198,"dación":4199,"expec":4200,"universi":4201,"veló":4202,"directamente":4203,"dora":4204,"circun":4205,"publicó":4206,"asistencia":4207,"detalló":4208,"sufrió":4209,"tecnoló":4210,"consecuencias":4211,"reconocimiento":4212,"aproximadamente":4213,"Az":4214,"dy":4215,"múlti":4216,"íz":4217,"esión":4218,"undos":4219,"dol":4220,"cuyo":4221,"noticias":4222,"restri":4223,"nicas":4224,"cará":4225,"distribu":4226,"Departamento":4227,"puntu":4228,"cuentan":4229,"resolución":4230,"espectá":4231,"blanco":4232,"contemp":4233,"Jesús":4234,"Gal":4235,"Os":4236,"Álvar":4237,"revis":4238,"bamos":4239,"verde":4240,"habló":4241,"Inclu":4242,"acuer":4243,"pantalla":4244,"ciertos":4245,"renun":4246,"provincial":4247,"soluciones":4248,"concluyó":4249,"Castillo":4250,"Actu":4251,"Cór":4252,"Nación":4253,"cra":4254,"salu":4255,"yos":4256,"anteriores":4257,"vie":4258,"estad":4259,"Está":4260,"autor":4261,"Comi":4262,"cursos":4263,"publicación":4264,"señalado":4265,"asesina":4266,"razones":4267,"récord":4268,"pósito":4269,"ximas":4270,"tróleo":4271,"Algunos":4272,"OTAN":4273,"39":4274,"BA":4275,"lés":4276,"rin":4277,"reras":4278,"cubier":4279,"suerte":4280,"mol":4281,"mala":4282,"chil":4283,"previa":4284,"distancia":4285,"menes":4286,"calor":4287,"Unido":4288,"heridos":4289,"situaciones":4290,"completamente":4291,"britá":4292,"sueño":4293,"intereses":4294,"impuestos":4295,"Rafa":4296,"estadounidenses":4297,"responsables":4298,"agenda":4299,"Hon":4300,"Mag":4301,"Pau":4302,"gando":4303,"rente":4304,"encan":4305,"are":4306,"art":4307,"tama":4308,"nota":4309,"acel":4310,"mensu":4311,"cialmente":4312,"llamada":4313,"regreso":4314,"titud":4315,"humano":4316,"informado":4317,"terminar":4318,"Federación":4319,"proteger":4320,"terreno":4321,"ucraniano":4322,"régimen":4323,"tradicional":4324,"similar":4325,"David":4326,"DE":4327,"Mal":4328,"stico":4329,"yas":4330,"ciclo":4331,"refu":4332,"mites":4333,"despe":4334,"lesiones":4335,"cance":4336,"lancia":4337,"Reino":4338,"recientemente":4339,"actuar":4340,"avanzar":4341,"audiencia":4342,"agencia":4343,"hn":4344,"ly":4345,"vó":4346,"ñez":4347,"denomin":4348,"eres":4349,"paro":4350,"lib":4351,"estén":4352,"fort":4353,"prev":4354,"pasos":4355,"nucle":4356,"dirigente":4357,"recuperar":4358,"Córdo":4359,"efici":4360,"tti":4361,"cano":4362,"previsto":4363,"sistemas":4364,"culpa":4365,"propiedad":4366,"tendría":4367,"comercio":4368,"registró":4369,"ónico":4370,"obliga":4371,"Fuer":4372,"combin":4373,"Aus":4374,"ati":4375,"cencia":4376,"áles":4377,"ladas":4378,"and":4379,"reto":4380,"convirtió":4381,"tavo":4382,"delincu":4383,"rival":4384,"dencias":4385,"duras":4386,"usa":4387,"actuación":4388,"cultural":4389,"ristas":4390,"ocup":4391,"vuelve":4392,"Morena":4393,"adultos":4394,"carretera":4395,"Palacio":4396,"Javier":4397,"46":4398,"Otro":4399,"SS":4400,"decen":4401,"inmediata":4402,"sivo":4403,"hacía":4404,"pers":4405,"acces":4406,"resi":4407,"cerrar":4408,"disminu":4409,"pensa":4410,"grado":4411,"fren":4412,"acusado":4413,"recorrido":4414,"vuelto":4415,"establecer":4416,"negocios":4417,"preocupación":4418,"beneficio":4419,"gü":4420,"ización":4421,"inno":4422,"divi":4423,"visu":4424,"pol":4425,"mina":4426,"gido":4427,"pueblos":4428,"identidad":4429,"clase":4430,"electr":4431,"segura":4432,"aleza":4433,"colás":4434,"escuelas":4435,"trimestre":4436,"incendio":4437,"Ama":4438,"Feli":4439,"MA":4440,"Tele":4441,"cón":4442,"yeron":4443,"osos":4444,"tipos":4445,"consoli":4446,"lidad":4447,"perdido":4448,"resca":4449,"verso":4450,"petróleo":4451,"quía":4452,"197":4453,"produjo":4454,"constante":4455,"hermano":4456,"logrado":4457,"rendimiento":4458,"causas":4459,"Nicolás":4460,"Nuevo":4461,"premio":4462,"peligr":4463,"derrota":4464,"futbolista":4465,"km":4466,"tilla":4467,"haga":4468,"pia":4469,"certifi":4470,"gana":4471,"necesaria":4472,"policías":4473,"Sergio":4474,"mensajes":4475,"herramientas":4476,"lanzamiento":4477,"85":4478,"reli":4479,"río":4480,"debajo":4481,"lidera":4482,"istema":4483,"posibles":4484,"iniciar":4485,"hacerse":4486,"Gua":4487,"buenas":4488,"pleno":4489,"rusa":4490,"John":4491,"aumentar":4492,"escuchar":4493,"Pública":4494,"Servicio":4495,"Constitución":4496,"expecta":4497,"Fon":4498,"episo":4499,"gh":4500,"yan":4501,"tidos":4502,"tareas":4503,"piel":4504,"mini":4505,"fornia":4506,"rup":4507,"entregar":4508,"bole":4509,"gría":4510,"oficina":4511,"anunciado":4512,"ocurre":4513,"comentarios":4514,"abogado":4515,"feliz":4516,"California":4517,"porcentaje":4518,"42":4519,"Ana":4520,"ofen":4521,"cidas":4522,"cicle":4523,"reporte":4524,"vigi":4525,"some":4526,"socios":4527,"pocas":4528,"pobre":4529,"ach":4530,"acre":4531,"bala":4532,"casas":4533,"ington":4534,"pectos":4535,"dólar":4536,"afectados":4537,"llevado":4538,"cuerpos":4539,"registrado":4540,"plena":4541,"técnica":4542,"rusas":4543,"ámaras":4544,"trasladado":4545,"inmediato":4546,"demasiado":4547,"cárcel":4548,"Gó":4549,"Lor":4550,"cuela":4551,"dían":4552,"sando":4553,"arre":4554,"refuer":4555,"requiere":4556,"reempla":4557,"cayó":4558,"vivo":4559,"mentó":4560,"teros":4561,"niñas":4562,"lanos":4563,"fuente":4564,"hayan":4565,"Antes":4566,"antil":4567,"registro":4568,"condición":4569,"pronun":4570,"entidades":4571,"regular":4572,"francés":4573,"cáncer":4574,"alumnos":4575,"circuns":4576,"Economía":4577,"concent":4578,"dico":4579,"diplo":4580,"teor":4581,"culares":4582,"villa":4583,"patr":4584,"rantes":4585,"lesion":4586,"mismas":4587,"cuento":4588,"anuncio":4589,"tismo":4590,"vacun":4591,"azul":4592,"estrella":4593,"palabra":4594,"Actualmente":4595,"Córdoba":4596,"Ab":4597,"Gi":4598,"Gui":4599,"Gali":4600,"Jue":4601,"apertura":4602,"seo":4603,"parque":4604,"nomb":4605,"ricos":4606,"acos":4607,"exterior":4608,"explo":4609,"2016":4610,"Señ":4611,"productor":4612,"fotos":4613,"heridas":4614,"conocida":4615,"investigaciones":4616,"destacar":4617,"superar":4618,"registraron":4619,"habitual":4620,"escena":4621,"década":4622,"temperaturas":4623,"ritmo":4624,"acuerdos":4625,"Gómez":4626,"Funda":4627,"talidad":4628,"encabe":4629,"advirtió":4630,"goza":4631,"abas":4632,"sustitu":4633,"gasto":4634,"Poder":4635,"ventas":4636,"Sala":4637,"infraestructura":4638,"investigadores":4639,"hubiera":4640,"//":4641,"Gob":4642,"Italia":4643,"id":4644,"line":4645,"rele":4646,"sel":4647,"aspectos":4648,"subir":4649,"vidad":4650,"proto":4651,"ropa":4652,"dudas":4653,"recen":4654,"quen":4655,"seguirá":4656,"Navar":4657,"Siempre":4658,"Protección":4659,"debemos":4660,"encontró":4661,"bajar":4662,"pequeña":4663,"apuntó":4664,"página":4665,"alerta":4666,"reiter":4667,"combustible":4668,"ámbito":4669,"'.":4670,"99":4671,"pí":4672,"enseñ":4673,"reas":4674,"cuán":4675,"hol":4676,"crea":4677,"mejora":4678,"conside":4679,"clima":4680,"necesitan":4681,"desafí":4682,"convertido":4683,"mostrar":4684,"críticas":4685,"amonestado":4686,"múltiples":4687,"aé":4688,"bara":4689,"cámaras":4690,"halla":4691,"pista":4692,"arti":4693,"alza":4694,"adver":4695,"reveló":4696,"caer":4697,"ecen":4698,"echa":4699,"bai":4700,"exp":4701,"pira":4702,"vaya":4703,"vacaciones":4704,"veri":4705,"canal":4706,"taller":4707,"llen":4708,"inglés":4709,"embaj":4710,"femen":4711,"monta":4712,"iev":4713,"Paz":4714,"justifi":4715,"contagios":4716,"bajas":4717,"reflexi":4718,"características":4719,"Messi":4720,"Gus":4721,"Wil":4722,"íos":4723,"lana":4724,"onar":4725,"civil":4726,"anu":4727,"activa":4728,"Estu":4729,"comporta":4730,"interna":4731,"corri":4732,"posiciones":4733,"produce":4734,"asegurado":4735,"esperanza":4736,"afecta":4737,"Estoy":4738,"reducción":4739,"médica":4740,"apoyar":4741,"histórica":4742,"eliminar":4743,"vuln":4744,"profundi":4745,"://":4746,"PA":4747,"Tal":4748,"Uruguay":4749,"Wash":4750,"apos":4751,"ff":4752,"frecu":4753,"har":4754,"htt":4755,"nadas":4756,"ancia":4757,"tat":4758,"trado":4759,"actos":4760,"presentes":4761,"estima":4762,"Campe":4763,"explicado":4764,"cuarta":4765,"cuestiones":4766,"elegir":4767,"sospechos":4768,"convocatoria":4769,"gobiernos":4770,".,":4771,"Dos":4772,"PI":4773,"amis":4774,"ctivo":4775,"gni":4776,"enso":4777,"separ":4778,"tral":4779,"máticos":4780,"rol":4781,"chu":4782,"expan":4783,"2015":4784,"2014":4785,"comparación":4786,"larga":4787,"pose":4788,"homena":4789,"turales":4790,"Catal":4791,"sangre":4792,"normal":4793,"celu":4794,"querido":4795,"candidatos":4796,"intentar":4797,"deportivo":4798,"prácticamente":4799,"términos":4800,"versario":4801,"tránsito":4802,"Washington":4803,"600":4804,"Kiev":4805,"Pana":4806,"Sab":4807,"Trump":4808,"cámara":4809,"nado":4810,"tent":4811,"debu":4812,"decía":4813,"cielo":4814,"altas":4815,"aspecto":4816,"ingeni":4817,"trali":4818,"doctor":4819,"logra":4820,"perci":4821,"mate":4822,"mentado":4823,"tarán":4824,"minación":4825,"llevan":4826,"negro":4827,"numeros":4828,"viajar":4829,"resulta":4830,"cturas":4831,"defender":4832,"Mujer":4833,"usuario":4834,"representante":4835,"factores":4836,"invierno":4837,"apunta":4838,"películas":4839,"Público":4840,"histórico":4841,"Comunidad":4842,"simplemente":4843,"Moscú":4844,"Cre":4845,"Frente":4846,"Jal":4847,"apa":4848,"archi":4849,"cuador":4850,"lido":4851,"trato":4852,"voto":4853,"gir":4854,"viajes":4855,"nuevamente":4856,"vacunas":4857,"suele":4858,"órgan":4859,"Turismo":4860,"abierta":4861,"comienzo":4862,"amenaza":4863,"lluvia":4864,"democrá":4865,"BC":4866,"Gabri":4867,"dina":4868,"detención":4869,"tion":4870,"capaz":4871,"progres":4872,"polé":4873,"dul":4874,"lesia":4875,"éndo":4876,"recién":4877,"Julio":4878,"privado":4879,"permitirá":4880,"movimientos":4881,"solicitud":4882,"error":4883,"miembro":4884,"periodistas":4885,"naturaleza":4886,"modelos":4887,"SE":4888,"Tur":4889,"bon":4890,"clí":4891,"deb":4892,"delante":4893,"enca":4894,"repar":4895,"teca":4896,"cuál":4897,"acti":4898,"pudieron":4899,"Escuela":4900,"casti":4901,"carta":4902,"lanzó":4903,"horario":4904,"compon":4905,"neu":4906,"corte":4907,"2024":4908,"bienes":4909,"directo":4910,"próximas":4911,"aprobación":4912,"Liber":4913,"funcionamiento":4914,"realizaron":4915,"Valle":4916,"quedaron":4917,"honor":4918,"eléctrica":4919,"disponibles":4920,"refirió":4921,"DI":4922,"Pese":4923,"TV":4924,"avenida":4925,"hal":4926,"cientes":4927,"analizar":4928,"adé":4929,"cuo":4930,"sui":4931,"motivos":4932,"rael":4933,"Unidad":4934,"antigu":4935,"destacado":4936,"objeto":4937,"solid":4938,"dependencia":4939,"Maduro":4940,"pasajeros":4941,"PSOE":4942,"convertirse":4943,"involucr":4944,"Ac":4945,"Igu":4946,"ojos":4947,"cobr":4948,"cab":4949,"motor":4950,"potencia":4951,"isco":4952,"estaciones":4953,"Enrique":4954,"segundos":4955,"graves":4956,"orient":4957,"Supre":4958,"transmisión":4959,"buscan":4960,"150":4961,"números":4962,"definir":4963,"clasificación":4964,"Cultura":4965,"piloto":4966,"Fundación":4967,"49":4968,"Bri":4969,"Mundo":4970,"TE":4971,"Zara":4972,"ape":4973,"by":4974,"tadores":4975,"inversiones":4976,"enter":4977,"pusi":4978,"pular":4979,"usk":4980,"cancha":4981,"book":4982,"presidencial":4983,"junta":4984,"itali":4985,"intento":4986,"Petro":4987,"avión":4988,"mandato":4989,"Tierra":4990,"Alex":4991,"asociación":4992,"consideró":4993,"materiales":4994,"Gracias":4995,"Senado":4996,"Incluso":4997,"CN":4998,"alar":4999,"od":5000,"entas":5001,"concl":5002,"comis":5003,"parlament":5004,"dañ":5005,"tramo":5006,"tarea":5007,"carác":5008,"fusión":5009,"sala":5010,"talento":5011,"Consu":5012,"jubi":5013,"plani":5014,"ministros":5015,"planeta":5016,"informaron":5017,"respondió":5018,"fenó":5019,"abrió":5020,"muertes":5021,"económicos":5022,"profesor":5023,"recurso":5024,"favori":5025,"Plaza":5026,"amenazas":5027,"vicepresidenta":5028,"vulnera":5029,"https":5030,"homenaje":5031,"carácter":5032,"Ag":5033,"hen":5034,"oneta":5035,"lia":5036,"dato":5037,"prove":5038,"mantenimiento":5039,"quis":5040,"canción":5041,"pasando":5042,"conocen":5043,"electri":5044,"estuvieron":5045,"legales":5046,"ideas":5047,"Ricar":5048,"buenos":5049,"extraordin":5050,"populares":5051,"concreto":5052,"discusión":5053,"rápidamente":5054,"imposible":5055,"espectáculo":5056,"perspec":5057,"41":5058,"47":5059,"Selección":5060,"XX":5061,"detenidos":5062,"alqui":5063,"exposición":5064,"mencionó":5065,"fechas":5066,"Ing":5067,"cumplimiento":5068,"documentos":5069,"enfrentar":5070,"enfermedades":5071,"Ángeles":5072,"Rafael":5073,"Galicia":5074,"66":5075,"Ecuador":5076,"bono":5077,"fl":5078,"suministro":5079,"cionadas":5080,"estabilidad":5081,"tantos":5082,"luch":5083,"derá":5084,"fati":5085,"corre":5086,"directa":5087,"parecen":5088,"Rica":5089,"residentes":5090,"43":5091,"Isab":5092,"Net":5093,"gle":5094,"ído":5095,"arr":5096,"onales":5097,"legio":5098,"íamos":5099,"activ":5100,"Latina":5101,"garan":5102,"grama":5103,"ísticos":5104,"Comer":5105,"posibilidades":5106,"entros":5107,"tienda":5108,"señor":5109,"visitantes":5110,"encontraron":5111,"independiente":5112,"asumi":5113,"potencial":5114,"brasile":5115,"rueda":5116,"prevé":5117,"68":5118,"Agencia":5119,"boni":5120,"sk":5121,"sores":5122,"úl":5123,"osas":5124,"micro":5125,"siquiera":5126,"adop":5127,"mamá":5128,"isa":5129,"fiel":5130,"carreras":5131,"autóno":5132,"gante":5133,"Super":5134,"Juárez":5135,"estraté":5136,"leyes":5137,"denunci":5138,"precisó":5139,"Trabajo":5140,"esfuerzos":5141,"jurí":5142,"Daniel":5143,"Face":5144,"Kar":5145,"Ste":5146,"TA":5147,"bana":5148,"dremos":5149,"mba":5150,"pón":5151,"tador":5152,"cientos":5153,"altos":5154,"retro":5155,"tron":5156,"midad":5157,"tensión":5158,"presunta":5159,"duro":5160,"tara":5161,"vemos":5162,"prepara":5163,"finalizar":5164,"llamar":5165,"productores":5166,"empresarios":5167,"cron":5168,"reuniones":5169,"increí":5170,"instalación":5171,"precisamente":5172,"impuesto":5173,"celebrar":5174,"diputados":5175,"brindar":5176,"comienza":5177,"Administra":5178,"subrayó":5179,"empate":5180,"800":5181,"Ejército":5182,"His":5183,"Lon":5184,"Mat":5185,"OS":5186,"Ori":5187,"feste":5188,"acas":5189,"presi":5190,"form":5191,"cerró":5192,"deros":5193,"costos":5194,"distrito":5195,"vender":5196,"llamó":5197,"entrena":5198,"Cambi":5199,"incluyendo":5200,"permanente":5201,"arriba":5202,"hospitali":5203,"memoria":5204,"Ricardo":5205,"Isabel":5206,"Bra":5207,"Eli":5208,"Les":5209,"Sí":5210,"evolución":5211,"anda":5212,"quedado":5213,"ramos":5214,"tuales":5215,"tumb":5216,"acadé":5217,"ficado":5218,"pagos":5219,"aridad":5220,"geno":5221,"personales":5222,"ganado":5223,"estás":5224,"Allí":5225,"controlar":5226,"Quer":5227,"ubicada":5228,"duelo":5229,"vuelo":5230,"fiscales":5231,"Zaragoza":5232,"Facebook":5233,"52":5234,"57":5235,"FE":5236,"Hemos":5237,"rse":5238,"desig":5239,"espi":5240,"estros":5241,"docentes":5242,"cura":5243,"cuidad":5244,"tencias":5245,"expresidente":5246,"cedentes":5247,"vale":5248,"ministr":5249,"monto":5250,"Judi":5251,"diferencias":5252,"personaje":5253,"dirigentes":5254,"aplicar":5255,"deseo":5256,"conveni":5257,"encuentros":5258,"EEUU":5259,"probablemente":5260,"respectivamente":5261,"mecan":5262,"Regional":5263,"distribución":5264,"asesinato":5265,"Gustavo":5266,"58":5267,"Ol":5268,"Otra":5269,"Vil":5270,"oeste":5271,"Él":5272,"civiles":5273,"secun":5274,"siente":5275,"rode":5276,"actores":5277,"añade":5278,"trodu":5279,"meno":5280,"Investi":5281,"acus":5282,"resultó":5283,"celo":5284,"muerto":5285,"Será":5286,"alcance":5287,"portaciones":5288,"financier":5289,"plataformas":5290,"lengua":5291,"preocup":5292,"campeonato":5293,"Torres":5294,"tribunal":5295,"hogares":5296,"tamaño":5297,"Aquí":5298,"Cri":5299,"Che":5300,"Junta":5301,"Lle":5302,"Zel":5303,"radio":5304,"vales":5305,"íti":5306,"erras":5307,"reconoció":5308,"concierto":5309,"cua":5310,"dable":5311,"turistas":5312,"exión":5313,"Espe":5314,"cerem":5315,"costa":5316,"recal":5317,"ting":5318,"instancia":5319,"tempr":5320,"tonela":5321,"alegría":5322,"buscando":5323,"alcanzó":5324,"acaba":5325,"Joe":5326,"ronda":5327,"subida":5328,"fortale":5329,"consumidores":5330,"Álvarez":5331,"Asa":5332,"Kirchner":5333,"Sol":5334,"UN":5335,"cí":5336,"relev":5337,"áticos":5338,"arca":5339,"anzas":5340,"asunto":5341,"dom":5342,"bil":5343,"perfil":5344,"excel":5345,"Estad":5346,"usos":5347,"marcado":5348,"hablando":5349,"banco":5350,"millón":5351,"asegurar":5352,"visitar":5353,"complejo":5354,"ambu":5355,"provincias":5356,"señalar":5357,"factura":5358,"aguas":5359,"ológico":5360,"privada":5361,"Dominicana":5362,"usted":5363,"logías":5364,"musical":5365,"restricciones":5366,"Ge":5367,"MS":5368,"apuesta":5369,"lán":5370,"my":5371,"sto":5372,"quedan":5373,"rem":5374,"recau":5375,"división":5376,"supuesta":5377,"vidas":5378,"liga":5379,"despla":5380,"traer":5381,"margen":5382,"cantes":5383,"prevent":5384,"ganas":5385,"jornadas":5386,"trabajan":5387,"empresari":5388,"vín":5389,"sensi":5390,"establece":5391,"chicos":5392,"comerciales":5393,"acompañado":5394,"Rosario":5395,"complicado":5396,"escolar":5397,"aprender":5398,"voluntad":5399,"satisfac":5400,"toneladas":5401,"Bal":5402,"Pon":5403,"Vamos":5404,"ejército":5405,"ft":5406,"fre":5407,"ilegal":5408,"raron":5409,"ética":5410,"und":5411,"cuya":5412,"silen":5413,"lider":5414,"cionalidad":5415,"actitud":5416,"expe":5417,"gira":5418,"discip":5419,"veni":5420,"cripto":5421,"realizando":5422,"bancos":5423,"presidencia":5424,"plazas":5425,"inicial":5426,"historias":5427,"continú":5428,"aprob":5429,"funciona":5430,"llegará":5431,"organizado":5432,"Chris":5433,"asistentes":5434,"Canadá":5435,"escala":5436,"procedimiento":5437,"promoción":5438,"incendios":5439,"españoles":5440,"cuadro":5441,"compartió":5442,"Comité":5443,"Má":5444,"Mau":5445,"ato":5446,"afron":5447,"ww":5448,"dele":5449,"enla":5450,"cienda":5451,"limpi":5452,"rida":5453,"propósito":5454,"niña":5455,"internet":5456,"producir":5457,"plantas":5458,"sentencia":5459,"basti":5460,"lograron":5461,"solicitar":5462,"falleció":5463,"correspondiente":5464,"término":5465,"Organización":5466,"Zelens":5467,"Ob":5468,"Sam":5469,"Vol":5470,"amen":5471,"edores":5472,"enses":5473,"introdu":5474,"tamen":5475,"viera":5476,"mod":5477,"daño":5478,"exter":5479,"canciones":5480,"blemente":5481,"venido":5482,"decidido":5483,"responder":5484,"transpor":5485,"drogas":5486,"Exteriores":5487,"ejecución":5488,"asoci":5489,"imagin":5490,"mexicanos":5491,"colectivo":5492,"pretende":5493,"lateral":5494,"vuelos":5495,"adolescentes":5496,"Blanca":5497,"diagnó":5498,"inteligencia":5499,"sorpresa":5500,"Diputados":5501,"Asamb":5502,"Ambi":5503,"Gol":5504,"Pac":5505,"Sistema":5506,"apla":5507,"bru":5508,"desi":5509,"triste":5510,"diciendo":5511,"videos":5512,"ham":5513,"mati":5514,"socio":5515,"realizan":5516,"irse":5517,"mesas":5518,"gastos":5519,"transpar":5520,"Popular":5521,"vídeo":5522,"completa":5523,"muertos":5524,"cliente":5525,"efectivo":5526,"Bomb":5527,"escrito":5528,"esperaba":5529,"ingresar":5530,"incidente":5531,"promover":5532,"venezolanos":5533,"sostenible":5534,"homicidio":5535,"pobreza":5536,"Ari":5537,"cci":5538,"cta":5539,"cían":5540,"esque":5541,"tios":5542,"concur":5543,"ria":5544,"presunto":5545,"seri":5546,"gamos":5547,"disco":5548,"hici":5549,"embara":5550,"inspi":5551,"Tama":5552,"Tok":5553,"colores":5554,"personajes":5555,"Parque":5556,"balón":5557,"Person":5558,"denuncias":5559,"riesgos":5560,"provocó":5561,"preguntas":5562,"narco":5563,"lético":5564,"reforzar":5565,"Judicial":5566,"Asamblea":5567,"Er":5568,"RE":5569,"Var":5570,"sale":5571,"zás":5572,"deleg":5573,"adquisi":5574,"requer":5575,"reconocer":5576,"tiles":5577,"dimientos":5578,"ted":5579,"migo":5580,"sumó":5581,"estal":5582,"fiestas":5583,"paque":5584,"mula":5585,"trol":5586,"empu":5587,"agri":5588,"impon":5589,"móviles":5590,"firme":5591,"Universi":5592,"jueces":5593,"saben":5594,"especiales":5595,"dejando":5596,"Victoria":5597,"Guerra":5598,"superfici":5599,"Tiene":5600,"igualdad":5601,"secretaria":5602,"aniversario":5603,"participaron":5604,"tradición":5605,"observa":5606,"aficionados":5607,"agresión":5608,"Han":5609,"Wi":5610,"bac":5611,"ito":5612,"ivo":5613,"ny":5614,"renta":5615,"inmue":5616,"diversidad":5617,"cober":5618,"suman":5619,"notifi":5620,"nombres":5621,"destru":5622,"tudes":5623,"ester":5624,"gole":5625,"ficas":5626,"Ella":5627,"tano":5628,"auxi":5629,"zarse":5630,"crecer":5631,"Leg":5632,"diná":5633,"Guti":5634,"integran":5635,"Muchos":5636,"Boli":5637,"ambiental":5638,"estructuras":5639,"convenio":5640,"Primera":5641,"Nosotros":5642,"protagoni":5643,"herramienta":5644,"pelota":5645,"concepto":5646,"trayectoria":5647,"circunstancias":5648,"ceremonia":5649,"PE":5650,"deba":5651,"enfati":5652,"artes":5653,"ane":5654,"inda":5655,"conciencia":5656,"cuban":5657,"sil":5658,"cionamiento":5659,"abra":5660,"tropas":5661,"combate":5662,"nave":5663,"prefer":5664,"dispositivo":5665,"audio":5666,"Red":5667,"indicado":5668,"actuaciones":5669,"generales":5670,"compañero":5671,"intendente":5672,"dígen":5673,"perfecto":5674,"americano":5675,"Andalu":5676,"sujeto":5677,"Ambos":5678,"Recor":5679,"crédito":5680,"explos":5681,"69":5682,"DA":5683,"Jim":5684,"ocul":5685,"plu":5686,"tz":5687,"érica":5688,"tomado":5689,"cuesta":5690,"habido":5691,"modi":5692,"uida":5693,"estantes":5694,"zaba":5695,"marcador":5696,"nació":5697,"pondrá":5698,"estaría":5699,"País":5700,"ofrecen":5701,"policiales":5702,"ventud":5703,"ideal":5704,"expresión":5705,"llevará":5706,"considerado":5707,"mexicana":5708,"reconocido":5709,"impulsar":5710,"salario":5711,"original":5712,"almacen":5713,"exclusiva":5714,"Provincial":5715,"sencillo":5716,"expectativas":5717,"Jalisco":5718,"78":5719,"700":5720,"há":5721,"ítu":5722,"alber":5723,"asig":5724,"requisi":5725,"conexión":5726,"mira":5727,"dadas":5728,"Ener":5729,"frío":5730,"entradas":5731,"fallo":5732,"virtual":5733,"generó":5734,"paciente":5735,"parecía":5736,"llevaron":5737,"conversación":5738,"deberán":5739,"Hacienda":5740,"Moreno":5741,"gravedad":5742,"Salvador":5743,"integral":5744,"pelea":5745,"Ramón":5746,"monedas":5747,"aceler":5748,"Navarra":5749,"Gabriel":5750,"electricidad":5751,"Administración":5752,"BI":5753,"aparece":5754,"eva":5755,"iro":5756,"túa":5757,"ware":5758,"ólo":5759,"enes":5760,"erta":5761,"ascen":5762,"retras":5763,"consta":5764,"siles":5765,"uidad":5766,"votación":5767,"verse":5768,"prevenir":5769,"composi":5770,"implica":5771,"onaer":5772,"hectá":5773,"muchísi":5774,"dejan":5775,"temala":5776,"Toda":5777,"comenzaron":5778,"aprobó":5779,"relacionados":5780,"económicas":5781,"ejecutivo":5782,"correspondientes":5783,"soldados":5784,"Respecto":5785,"constitucional":5786,"Atlético":5787,"ustedes":5788,"europeos":5789,"ONU":5790,"Guatemala":5791,"Ed":5792,"Mel":5793,"Musk":5794,"elos":5795,"entu":5796,"pros":5797,"prevención":5798,"dispositivos":5799,"medica":5800,"Sebasti":5801,"érrez":5802,"oficinas":5803,"Produ":5804,"denunció":5805,"acabar":5806,"Eduardo":5807,"venezolano":5808,"bomberos":5809,"protesta":5810,"alcohol":5811,"descanso":5812,"Felipe":5813,"fenómeno":5814,"%)":5815,"Cari":5816,"Har":5817,"Mex":5818,"Tex":5819,"avent":5820,"aisla":5821,"jada":5822,"ky":5823,"ogle":5824,"laridad":5825,"cien":5826,"cidio":5827,"cocina":5828,"prés":5829,"micas":5830,"caba":5831,"ril":5832,"desper":5833,"acá":5834,"activo":5835,"baño":5836,"alianza":5837,"puente":5838,"pic":5839,"certi":5840,"deras":5841,"nutri":5842,"Unidas":5843,"Podemos":5844,"opti":5845,"afectado":5846,"climático":5847,"aquellas":5848,"subsi":5849,"vecino":5850,"preocupa":5851,"caracteri":5852,"occi":5853,"similares":5854,"sirve":5855,"Reyes":5856,"Provincia":5857,"Derechos":5858,"resaltó":5859,"comportamiento":5860,"Gutiérrez":5861,"Bos":5862,"CD":5863,"RA":5864,"fres":5865,"tén":5866,"uña":5867,"vías":5868,"ça":5869,"enzo":5870,"enciales":5871,"ciles":5872,"reconoce":5873,"vios":5874,"vigente":5875,"modifi":5876,"mpa":5877,"ecos":5878,"alición":5879,"gida":5880,"naciones":5881,"llegan":5882,"américa":5883,"Google":5884,"itaria":5885,"aseguran":5886,"afectadas":5887,"encontrado":5888,"efectivos":5889,"conversaciones":5890,"conductores":5891,"estren":5892,"estrellas":5893,"diputada":5894,"eléctrico":5895,"títulos":5896,"elegido":5897,"básicos":5898,"fortalecer":5899,"ulipas":5900,"decreto":5901,"añadido":5902,"refuerzo":5903,"Tamaulipas":5904,"certidu":5905,"67":5906,"Bus":5907,"Bur":5908,"Era":5909,"efica":5910,"flo":5911,"zgado":5912,"argentina":5913,"reina":5914,"revisión":5915,"reacción":5916,"condena":5917,"denas":5918,"alizados":5919,"autos":5920,"partida":5921,"cesa":5922,"trascen":5923,"Indus":5924,"entró":5925,"informes":5926,"Profes":5927,"Patri":5928,"físico":5929,"especialistas":5930,"efectu":5931,"Monte":5932,"negociación":5933,"errores":5934,"intentó":5935,"determinar":5936,"sucedido":5937,"dirigido":5938,"dificultades":5939,"limpieza":5940,"requisitos":5941,"Mia":5942,"On":5943,"rían":5944,"espal":5945,"rece":5946,"confes":5947,"viento":5948,"daba":5949,"ricas":5950,"mantuvo":5951,"cartera":5952,"coste":5953,"fuga":5954,"obtuvo":5955,"formato":5956,"asever":5957,"juega":5958,"resultaron":5959,"aprobado":5960,"guardia":5961,"gusto":5962,"naturales":5963,"testigos":5964,"show":5965,"Guiller":5966,"pusieron":5967,"domés":5968,"hectáreas":5969,"Bro":5970,"Mario":5971,"Nad":5972,"Vla":5973,"ey":5974,"eda":5975,"mni":5976,"írez":5977,"advi":5978,"infer":5979,"indígen":5980,"conseguido":5981,"cuáles":5982,"vic":5983,"rito":5984,"excep":5985,"duración":5986,"misos":5987,"ney":5988,"presentaron":5989,"hermanos":5990,"negociaciones":5991,"siguientes":5992,"inete":5993,"quedarse":5994,"New":5995,"ucranianos":5996,"premios":5997,"argentinos":5998,"extremo":5999,"aeropuerto":6000,"refugi":6001,"250":6002,"Br":6003,"Dr":6004,"Ir":6005,"Luna":6006,"Us":6007,"Ví":6008,"Wha":6009,"cadores":6010,"stru":6011,"dedores":6012,"laj":6013,"arras":6014,"conmemor":6015,"dimos":6016,"micos":6017,"leer":6018,"excepción":6019,"lesión":6020,"lantes":6021,"distrib":6022,"límite":6023,"ague":6024,"terios":6025,"bienestar":6026,"mono":6027,"geo":6028,"circulación":6029,"sesiones":6030,"representación":6031,"ponerse":6032,"exitos":6033,"ablemente":6034,"identificado":6035,"piezas":6036,"Japón":6037,"Ramírez":6038,"Apple":6039,"residu":6040,"solidaridad":6041,"61":6042,"Cel":6043,"Vir":6044,"arqui":6045,"tia":6046,"teatro":6047,"cabal":6048,"hagan":6049,"mobili":6050,"prohibi":6051,"resu":6052,"seres":6053,"2010":6054,"rumbo":6055,"breve":6056,"drán":6057,"millon":6058,"Dijo":6059,"Leon":6060,"compañías":6061,"Medi":6062,"colonia":6063,"frau":6064,"Boca":6065,"experiencias":6066,"sufrido":6067,"sufrir":6068,"animal":6069,"grafías":6070,"octa":6071,"bombar":6072,"Domingo":6073,"protagonista":6074,"Flori":6075,"Posteriormente":6076,"nuclear":6077,"superficie":6078,"CC":6079,"FMI":6080,"Lan":6081,"once":6082,"ciru":6083,"into":6084,"republi":6085,"sección":6086,"tradu":6087,"siga":6088,"ridos":6089,"raíz":6090,"abinete":6091,"zaje":6092,"marcas":6093,"previo":6094,"preparación":6095,"dería":6096,"mascul":6097,"creado":6098,"compen":6099,"límites":6100,"sindica":6101,"lleno":6102,"gasolina":6103,"infantil":6104,"permitió":6105,"intenta":6106,"confirmar":6107,"mirada":6108,"especies":6109,"identificar":6110,"ucraniana":6111,"dueño":6112,"cubrir":6113,"ocasion":6114,"aprovechar":6115,"protestas":6116,"ausencia":6117,"encontramos":6118,"fortun":6119,"Sebastián":6120,"Aca":6121,"Bru":6122,"Gas":6123,"PN":6124,"Pal":6125,"Ríos":6126,"huel":6127,"tás":6128,"udo":6129,"eng":6130,"incertidu":6131,"requi":6132,"recomi":6133,"lici":6134,"perros":6135,"rojo":6136,"rescate":6137,"alimentación":6138,"chan":6139,"mante":6140,"exac":6141,"exportaciones":6142,"pies":6143,"tesis":6144,"zamos":6145,"pendiente":6146,"irá":6147,"inspec":6148,"Sub":6149,"transformación":6150,"perió":6151,"Medio":6152,"bases":6153,"anticip":6154,"rostro":6155,"River":6156,"árbi":6157,"pequeñas":6158,"mostrado":6159,"Humanos":6160,"permanecer":6161,"encargado":6162,"reportó":6163,"mínima":6164,"digitales":6165,"magis":6166,"científicos":6167,"resistencia":6168,"Juegos":6169,"cobertura":6170,"Legisla":6171,"Andalucía":6172,"Guillermo":6173,"FP":6174,"Fútbol":6175,"Gre":6176,"LA":6177,"Mc":6178,"Men":6179,"Pel":6180,"econo":6181,"fui":6182,"oposi":6183,"restos":6184,"enví":6185,"tiz":6186,"bida":6187,"balan":6188,"mantienen":6189,"lum":6190,"cartel":6191,"gias":6192,"prefi":6193,"rum":6194,"lló":6195,"recibe":6196,"necesarios":6197,"cualquiera":6198,"Estatal":6199,"permiten":6200,"completar":6201,"icano":6202,"factor":6203,"variante":6204,"Cristi":6205,"eléctricos":6206,"únicamente":6207,"Aragón":6208,"energética":6209,"específica":6210,"celular":6211,"diagnóstico":6212,"95":6213,"Hor":6214,"LO":6215,"Oli":6216,"Tan":6217,"Tec":6218,"Tanto":6219,"ax":6220,"bonaer":6221,"ds":6222,"fla":6223,"hé":6224,"jera":6225,"detener":6226,"deterior":6227,"cable":6228,"subió":6229,"peron":6230,"ritu":6231,"prolon":6232,"meter":6233,"forman":6234,"posteriormente":6235,"quero":6236,"ganador":6237,"sini":6238,"Interior":6239,"cena":6240,"firmó":6241,"actuales":6242,"hacemos":6243,"ficaciones":6244,"afectada":6245,"París":6246,"evidencia":6247,"lógica":6248,"establecimiento":6249,"avances":6250,"confirmado":6251,"sexo":6252,"Granada":6253,"tsApp":6254,"prácticas":6255,"camise":6256,"subray":6257,"extranjeros":6258,"industrial":6259,"libros":6260,"decenas":6261,"Fondo":6262,"WhatsApp":6263,"Cá":6264,"Dra":6265,"Nú":6266,"bran":6267,"baron":6268,"cá":6269,"dante":6270,"nes":6271,"áni":6272,"online":6273,"sula":6274,"luchar":6275,"carne":6276,"mascari":6277,"creen":6278,"hipo":6279,"Santo":6280,"importa":6281,"plane":6282,"consciente":6283,"panel":6284,"vincula":6285,"dejaron":6286,"Todas":6287,"Carmen":6288,"ions":6289,"continuidad":6290,"laborales":6291,"regionales":6292,"registros":6293,"localidades":6294,"evidente":6295,"consejo":6296,"continuación":6297,"aquella":6298,"plás":6299,"défici":6300,"clubes":6301,"interesante":6302,"considerar":6303,"capítu":6304,"consulta":6305,"crítica":6306,"camioneta":6307,"cercano":6308,"salarios":6309,"independencia":6310,"INE":6311,"secuestr":6312,"Roberto":6313,"acostumb":6314,"consideran":6315,"Panamá":6316,"perspectiva":6317,"silencio":6318,"87":6319,"Festival":6320,"GB":6321,"Pan":6322,"ite":6323,"wn":6324,"contará":6325,"culado":6326,"sugi":6327,"bios":6328,"mpions":6329,"batalla":6330,"votar":6331,"aliados":6332,"Esco":6333,"Latino":6334,"tasas":6335,"discapacidad":6336,"llena":6337,"boles":6338,"agente":6339,"cris":6340,"realizada":6341,"Reg":6342,"empresario":6343,"culmin":6344,"Rodri":6345,"prima":6346,"organismos":6347,"orama":6348,"deberían":6349,"destinos":6350,"escenarios":6351,"alcaldesa":6352,"aceptar":6353,"kov":6354,"habilitación":6355,"asumir":6356,"artículos":6357,"comenzará":6358,"PRI":6359,"suelen":6360,"financiero":6361,"colombiano":6362,"petición":6363,"urbano":6364,"FIFA":6365,"adquirir":6366,"accesi":6367,"Bomberos":6368,"Miami":6369,"64":6370,"Bern":6371,"IA":6372,"Rosa":6373,"Radio":6374,"ave":6375,"aconte":6376,"frica":6377,"lina":6378,"ms":6379,"ván":6380,"envió":6381,"ansi":6382,"entra":6383,"dición":6384,"vial":6385,"peru":6386,"trató":6387,"expor":6388,"expl":6389,"estatales":6390,"comunes":6391,"precipi":6392,"box":6393,"Debido":6394,"Indi":6395,"bebé":6396,"banc":6397,"claves":6398,"presentan":6399,"seguimiento":6400,"viamente":6401,"hermana":6402,"incluyen":6403,"tenida":6404,"ocupa":6405,"Castro":6406,"temporal":6407,"sensación":6408,"golpes":6409,"Barça":6410,"asistir":6411,"volumen":6412,"asesor":6413,"candidatura":6414,"fallecido":6415,"especie":6416,"hone":6417,"mericana":6418,"reiv":6419,"incluidos":6420,"combatir":6421,"apareció":6422,"orgullos":6423,"episodio":6424,"cicleta":6425,"concentración":6426,"Comercio":6427,"Florida":6428,"54":6429,"62":6430,"Juntos":6431,"Sch":6432,"festival":6433,"ita":6434,"zantes":6435,"ciller":6436,"inqui":6437,"tidas":6438,"toque":6439,"suces":6440,"lig":6441,"libri":6442,"moción":6443,"bille":6444,"mato":6445,"descen":6446,"descenso":6447,"sober":6448,"ficó":6449,"foro":6450,"2013":6451,"gala":6452,"discrimin":6453,"postura":6454,"creciendo":6455,"elemento":6456,"Navidad":6457,"viaj":6458,"esperando":6459,"Parlamento":6460,"etaria":6461,"Castel":6462,"senador":6463,"defensor":6464,"Fei":6465,"árboles":6466,"déci":6467,"You":6468,"fallecidos":6469,"corresponde":6470,"trámite":6471,"Torre":6472,"flix":6473,"categorías":6474,"movilidad":6475,"convierte":6476,"Vox":6477,"Servicios":6478,"financiera":6479,"Polonia":6480,"Netflix":6481,"secund":6482,"modalidad":6483,"hábi":6484,"incertidumbre":6485,"51":6486,"89":6487,"IM":6488,"Ka":6489,"Mis":6490,"Occi":6491,"Tres":6492,"amente":6493,"aje":6494,"etario":6495,"farma":6496,"ker":6497,"mín":6498,"nal":6499,"ys":6500,"ífico":6501,"esquina":6502,"repi":6503,"revista":6504,"lico":6505,"moda":6506,"traje":6507,"preser":6508,"abe":6509,"énez":6510,"agro":6511,"agru":6512,"mería":6513,"firmar":6514,"Marcelo":6515,"tiendas":6516,"plantel":6517,"indicaron":6518,"informar":6519,"termina":6520,"Metro":6521,"Soci":6522,"llegue":6523,"participa":6524,"Rico":6525,"Quin":6526,"continuará":6527,"ónicos":6528,"sexuales":6529,"ginas":6530,"captur":6531,"Municipio":6532,"ofertas":6533,"edificios":6534,"educativo":6535,"laterra":6536,"tranquilidad":6537,"moneda":6538,"verdadera":6539,"aclaró":6540,"respaldo":6541,"79":6542,"DN":6543,"LE":6544,"Ren":6545,"gras":6546,"ze":6547,"enas":6548,"une":6549,"inti":6550,"entado":6551,"contras":6552,"contrib":6553,"contenidos":6554,"dimen":6555,"diaria":6556,"toca":6557,"despac":6558,"turi":6559,"uidos":6560,"rango":6561,"guas":6562,"expul":6563,"maravi":6564,"lanzar":6565,"galar":6566,"dismin":6567,"Comp":6568,"Colegio":6569,"correr":6570,"acudir":6571,"recientes":6572,"ciudadano":6573,"sabía":6574,"cambió":6575,"ity":6576,"Caracas":6577,"Programa":6578,"aviso":6579,"afirmado":6580,"automóvil":6581,"conducir":6582,"residencia":6583,"colegio":6584,"institucional":6585,"detalle":6586,"oficialmente":6587,"llevaba":6588,"flexi":6589,"sucede":6590,"cuidar":6591,"páginas":6592,"Presidencia":6593,"fanáticos":6594,"abogados":6595,"Champions":6596,"Clau":6597,"extranjero":6598,"demostrado":6599,"normativa":6600,"alternativa":6601,"Australi":6602,"Gobern":6603,"órgano":6604,"Inglaterra":6605,"increíble":6606,"Texas":6607,"Emili":6608,"Fal":6609,"Otros":6610,"cadá":6611,"harán":6612,"test":6613,"vada":6614,"zcan":6615,"consiguió":6616,"parición":6617,"med":6618,"pau":6619,"abre":6620,"cerrado":6621,"landa":6622,"mediados":6623,"mista":6624,"interno":6625,"Alcal":6626,"realización":6627,"fundad":6628,"playa":6629,"humor":6630,"humana":6631,"quieres":6632,"feder":6633,"illo":6634,"necesarias":6635,"panorama":6636,"League":6637,"propias":6638,"Romero":6639,"compras":6640,"representan":6641,"Movi":6642,"errero":6643,"interesados":6644,"camión":6645,"cercana":6646,"contun":6647,"triunf":6648,"reservas":6649,"claramente":6650,"gratuita":6651,"cerebro":6652,"acredi":6653,"Willi":6654,"recomienda":6655,"balance":6656,"Australia":6657,"cadáver":6658,"Desta":6659,"VA":6660,"aun":6661,"abajo":6662,"app":6663,"ilí":6664,"jados":6665,"món":6666,"pé":6667,"pado":6668,"we":6669,"eren":6670,"arnos":6671,"arreg":6672,"concurso":6673,"set":6674,"dichos":6675,"practi":6676,"migra":6677,"culti":6678,"simo":6679,"matrimonio":6680,"ratifi":6681,"voces":6682,"denes":6683,"murieron":6684,"presencial":6685,"abuso":6686,"compara":6687,"empieza":6688,"gantes":6689,"negó":6690,"adicional":6691,"estándar":6692,"cambiado":6693,"mediodía":6694,"visible":6695,"infla":6696,"permita":6697,"recibieron":6698,"circui":6699,"recuerdo":6700,"bril":6701,"especialista":6702,"centrales":6703,"existencia":6704,"utiliza":6705,"depende":6706,"confirmaron":6707,"sacó":6708,"rechazo":6709,"ampliar":6710,"configu":6711,"sucedió":6712,"ucranianas":6713,"accidentes":6714,"fotografía":6715,"Premio":6716,"renovación":6717,"sanitaria":6718,"pérdidas":6719,"prioridad":6720,"británico":6721,"vigilancia":6722,"occiden":6723,"77":6724,"Sport":6725,"Yu":6726,"ama":6727,"avis":6728,"dres":6729,"festi":6730,"hs":6731,"ático":6732,"escla":6733,"aran":6734,"arag":6735,"adjudi":6736,"sicas":6737,"descuento":6738,"tuvimos":6739,"uiz":6740,"ciamiento":6741,"mus":6742,"pico":6743,"2012":6744,"pecu":6745,"entregó":6746,"vencia":6747,"venciones":6748,"Portu":6749,"contratos":6750,"acusaciones":6751,"culturales":6752,"barrios":6753,"Guz":6754,"esperado":6755,"etc":6756,"viviendo":6757,"Corea":6758,"establecido":6759,"establecimientos":6760,"escribir":6761,"solicitó":6762,"declarado":6763,"encuesta":6764,"emocional":6765,"Baja":6766,"fotografías":6767,"galle":6768,"Israel":6769,"mecá":6770,"Polí":6771,"Fuerzas":6772,"talleres":6773,"alquiler":6774,"aseveró":6775,"déficit":6776,"Den":6777,"GT":6778,"Mur":6779,"Oro":6780,"Pad":6781,"Sha":6782,"idio":6783,"king":6784,"the":6785,"vini":6786,"defi":6787,"dece":6788,"debió":6789,"enza":6790,"citado":6791,"ancias":6792,"administr":6793,"reper":6794,"repe":6795,"tamiento":6796,"tecas":6797,"profunda":6798,"trami":6799,"luces":6800,"veter":6801,"pasan":6802,"Sevilla":6803,"juris":6804,"berna":6805,"Reci":6806,"firmado":6807,"conocidos":6808,"señalaron":6809,"técnicos":6810,"participó":6811,"Bien":6812,"definitiva":6813,"Municipalidad":6814,"Puede":6815,"facilitar":6816,"Famili":6817,"Iglesia":6818,"intensidad":6819,"Amazon":6820,"desafío":6821,"Feijó":6822,"-,":6823,"63":6824,"Bori":6825,"Dan":6826,"Lar":6827,"Nunca":6828,"Ven":6829,"amin":6830,"gon":6831,"cicli":6832,"ung":6833,"inseguridad":6834,"dije":6835,"coalición":6836,"portal":6837,"victor":6838,"racán":6839,"descubier":6840,"ficha":6841,"tormenta":6842,"gama":6843,"posterior":6844,"mencionar":6845,"feria":6846,"equivo":6847,"Santos":6848,"Argent":6849,"seguros":6850,"hermos":6851,"Juli":6852,"antici":6853,"cierta":6854,"Guada":6855,"alcanza":6856,"ordenó":6857,"financiación":6858,"cuartos":6859,"documentación":6860,"guarda":6861,"Premi":6862,"vicepresidente":6863,"extensión":6864,"absolutamente":6865,"novedades":6866,"psicoló":6867,"restaurante":6868,"clásico":6869,"renuncia":6870,"abaste":6871,"antiguo":6872,"Cambio":6873,"William":6874,"Feijóo":6875,"Bre":6876,"Gen":6877,"Hé":6878,"ME":6879,"Mil":6880,"Médi":6881,"Oax":6882,"Punta":6883,"atribu":6884,"ivos":6885,"ood":6886,"ívar":6887,"esencial":6888,"armado":6889,"elen":6890,"reporta":6891,"remarcó":6892,"conces":6893,"conquis":6894,"vide":6895,"legi":6896,"desconoce":6897,"aces":6898,"acruz":6899,"rutas":6900,"gros":6901,"decidir":6902,"trabajador":6903,"plantilla":6904,"Tampoco":6905,"trataba":6906,"haberse":6907,"Tik":6908,"sacado":6909,"operativos":6910,"mostraron":6911,"fronteri":6912,"fallecimiento":6913,"Fuentes":6914,"disparo":6915,"fans":6916,"experto":6917,"enviar":6918,"Cultural":6919,"ahorro":6920,"agradeció":6921,"marido":6922,"libres":6923,"innovación":6924,"religi":6925,"Lorenzo":6926,"embajador":6927,"debía":6928,"continúan":6929,"esquema":6930,"Bolivia":6931,"medicamentos":6932,"librio":6933,"Guzmán":6934,"120":6935,"Cés":6936,"Económi":6937,"ala":6938,"ed":6939,"ica":6940,"rales":6941,"ut":6942,"“¿":6943,"departa":6944,"encen":6945,"ladores":6946,"asuntos":6947,"reún":6948,"teos":6949,"siento":6950,"tración":6951,"piden":6952,"pasará":6953,"habrían":6954,"ferencias":6955,"tripu":6956,"pensando":6957,"anaju":6958,"equipa":6959,"tiende":6960,"Naciones":6961,"responde":6962,"privi":6963,"explicar":6964,"salido":6965,"salvar":6966,"normas":6967,"moral":6968,"índice":6969,"vivió":6970,"Museo":6971,"utilizando":6972,"aplicaciones":6973,"sueños":6974,"invitados":6975,"aumenta":6976,"órdenes":6977,"gustaría":6978,"generaciones":6979,"poniendo":6980,"listo":6981,"judiciales":6982,"legisladores":6983,"quinto":6984,"gráfico":6985,"infección":6986,"cotidi":6987,"cumplen":6988,"contempla":6989,"Suprema":6990,"brasileño":6991,"Londres":6992,"53":6993,"59":6994,"Aún":6995,"Dec":6996,"Gor":6997,"Ini":6998,"Ki":6999,"Krem":7000,"mestre":7001,"tías":7002,"vor":7003,"áz":7004,"entar":7005,"cooperación":7006,"totalidad":7007,"noc":7008,"destr":7009,"cionan":7010,"rese":7011,"resuel":7012,"bajos":7013,"quiso":7014,"serio":7015,"veo":7016,"mart":7017,"canos":7018,"jamás":7019,"boca":7020,"bandera":7021,"tivación":7022,"producido":7023,"plie":7024,"plicó":7025,"quieran":7026,"temor":7027,"Suárez":7028,"tadura":7029,"objetos":7030,"droga":7031,"afectar":7032,"ocupación":7033,"atle":7034,"integración":7035,"gerente":7036,"mpleo":7037,"volverá":7038,"fundamentales":7039,"pronó":7040,"guardar":7041,"estudiar":7042,"campañas":7043,"bordo":7044,"impulso":7045,"observar":7046,"sépti":7047,"regresar":7048,"esposo":7049,"Nuestro":7050,"Penal":7051,"Región":7052,"energético":7053,"orgullo":7054,"mensual":7055,"liderazgo":7056,"reiteró":7057,"polémica":7058,"advierte":7059,"lajara":7060,"bonaerense":7061,"Guadalajara":7062,"Kremlin":7063,"Acu":7064,"Bá":7065,"Eu":7066,"Glo":7067,"Mendo":7068,"Van":7069,"agi":7070,"oto":7071,"decer":7072,"eri":7073,"convir":7074,"taje":7075,"dirá":7076,"misiles":7077,"cubre":7078,"custo":7079,"vientos":7080,"biendo":7081,"propa":7082,"trage":7083,"ack":7084,"respuestas":7085,"respira":7086,"batería":7087,"chel":7088,"quilla":7089,"estabili":7090,"abs":7091,"cerr":7092,"marcar":7093,"lanes":7094,"dispuesto":7095,"futbol":7096,"rural":7097,"pasión":7098,"código":7099,"traslado":7100,"choque":7101,"acudieron":7102,"recinto":7103,"anoche":7104,"importar":7105,"trabajado":7106,"Anti":7107,"actualización":7108,"viral":7109,"tonómi":7110,"Roja":7111,"llegando":7112,"jugó":7113,"señalan":7114,"Lula":7115,"aumentó":7116,"especta":7117,"obligación":7118,"Raúl":7119,"emisiones":7120,"reportes":7121,"plantea":7122,"disparos":7123,"aprendi":7124,"evaluación":7125,"demostrar":7126,"sujetos":7127,"revela":7128,"Massa":7129,"Derecho":7130,"sospechoso":7131,"excelente":7132,"Zelenski":7133,"desigu":7134,"enfatizó":7135,"Caribe":7136,"residuos":7137,"Boric":7138,"César":7139,"Mendoza":7140,"Bla":7141,"EL":7142,"GP":7143,"Stre":7144,"TI":7145,"UC":7146,"apu":7147,"gías":7148,"iban":7149,"jido":7150,"mper":7151,"pleg":7152,"rón":7153,"yentes":7154,"zi":7155,"éli":7156,"ñar":7157,"escas":7158,"escal":7159,"rebo":7160,"tapa":7161,"trono":7162,"dimir":7163,"café":7164,"sivas":7165,"matar":7166,"tratando":7167,"quia":7168,"tantas":7169,"lujo":7170,"formu":7171,"unifor":7172,"suscri":7173,"éste":7174,"llor":7175,"impuso":7176,"pantal":7177,"ciertas":7178,"centen":7179,"salva":7180,"recorrer":7181,"undiales":7182,"terapia":7183,"ninguno":7184,"desaparición":7185,"bajada":7186,"instalar":7187,"competir":7188,"Audi":7189,"incluido":7190,"contento":7191,"estrategias":7192,"básica":7193,"suspensión":7194,"movilización":7195,"implementación":7196,"diagnos":7197,"alternativas":7198,"calificó":7199,"Cataluña":7200,"clínica":7201,"entrenamiento":7202,"Estadio":7203,"Geor":7204,"preventiva":7205,"Rodrigo":7206,"explor":7207,"%).":7208,"AP":7209,"Ko":7210,"Pin":7211,"Va":7212,"Win":7213,"apara":7214,"aves":7215,"latino":7216,"artifi":7217,"aldad":7218,"requieren":7219,"entales":7220,"dialo":7221,"docente":7222,"simp":7223,"bidas":7224,"mex":7225,"mega":7226,"acla":7227,"Ellos":7228,"presti":7229,"quizás":7230,"abue":7231,"canciller":7232,"postu":7233,"autono":7234,"Coordin":7235,"corta":7236,"nub":7237,"Relaciones":7238,"mócra":7239,"comunicó":7240,"seguida":7241,"sable":7242,"Vicente":7243,"visitante":7244,"coloni":7245,"opin":7246,"recordado":7247,"anuncia":7248,"ocupar":7249,"contagi":7250,"contactos":7251,"madri":7252,"capacidades":7253,"lario":7254,"escucha":7255,"escán":7256,"respetar":7257,"impuls":7258,"necesitamos":7259,"abordar":7260,"mezcla":7261,"muestras":7262,"adelantó":7263,"correcto":7264,"futbolistas":7265,"europeo":7266,"inscripción":7267,"capitán":7268,"impresion":7269,"encontraban":7270,"píritu":7271,"debut":7272,"cuota":7273,"empresarial":7274,"Ambiente":7275,"ázquez":7276,"72":7277,"Agui":7278,"City":7279,"Fun":7280,"Sue":7281,"Sta":7282,"aporte":7283,"afuera":7284,"gna":7285,"uras":7286,"tidades":7287,"tomando":7288,"cuándo":7289,"sivos":7290,"sitios":7291,"leza":7292,"daciones":7293,"probar":7294,"rompi":7295,"tore":7296,"dure":7297,"lín":7298,"llamadas":7299,"positiva":7300,"botel":7301,"Algo":7302,"reglas":7303,"plano":7304,"sostiene":7305,"valenci":7306,"ciudadana":7307,"visitas":7308,"millas":7309,"inclusión":7310,"salieron":7311,"etarios":7312,"sorteo":7313,"jugará":7314,"captura":7315,"participan":7316,"Teatro":7317,"incluir":7318,"europea":7319,"tradicionales":7320,"refleja":7321,"blanca":7322,"James":7323,"suficientes":7324,"III":7325,"figuras":7326,"aportar":7327,"ológica":7328,"Nuestra":7329,"Castilla":7330,"adolescente":7331,"demandas":7332,"semifinales":7333,"Oscar":7334,"cuánto":7335,"Agregó":7336,"Víctor":7337,"héro":7338,"Núñez":7339,"Sociedad":7340,"Ala":7341,"Ahí":7342,"Avenida":7343,"Dar":7344,"Dentro":7345,"Hol":7346,"Tar":7347,"aman":7348,"gá":7349,"odio":7350,"plas":7351,"use":7352,"arco":7353,"unales":7354,"concentr":7355,"coman":7356,"cuan":7357,"novia":7358,"desfi":7359,"prohi":7360,"patrimonio":7361,"presion":7362,"gues":7363,"Laura":7364,"piensa":7365,"formó":7366,"nacimiento":7367,"autonómi":7368,"finalizó":7369,"dría":7370,"agrí":7371,"Alon":7372,"adicionales":7373,"labores":7374,"alemán":7375,"visiones":7376,"investigar":7377,"destacan":7378,"Lima":7379,"esperada":7380,"empleos":7381,"Canarias":7382,"amplio":7383,"estruc":7384,"pieza":7385,"cruce":7386,"celebró":7387,"álbu":7388,"emergencias":7389,"aparición":7390,"Adri":7391,"mueve":7392,"Isla":7393,"privados":7394,"invertir":7395,"admitió":7396,"ajuste":7397,"restaurantes":7398,"verdadero":7399,"Deportivo":7400,"PIB":7401,"numerosos":7402,"vulnerables":7403,"Queremos":7404,"disciplin":7405,"criptomonedas":7406,"Mauri":7407,"inmueble":7408,"Energía":7409,"indígenas":7410,"arquitec":7411,"árbitro":7412,"Occidente":7413,"federales":7414,"Oaxaca":7415,"Air":7416,"Bay":7417,"Star":7418,"Tes":7419,"bando":7420,"ph":7421,"ético":7422,"demuestra":7423,"endario":7424,"inmuni":7425,"tique":7426,"conf":7427,"semestre":7428,"tabla":7429,"diera":7430,"tea":7431,"mila":7432,"migración":7433,"cama":7434,"perjudi":7435,"mentan":7436,"sob":7437,"ters":7438,"roja":7439,"papá":7440,"extin":7441,"serían":7442,"canales":7443,"gaba":7444,"Debe":7445,"pendientes":7446,"conocimientos":7447,"Guanaju":7448,"bajó":7449,"referente":7450,"deportiva":7451,"terrán":7452,"Quiero":7453,"entiende":7454,"regulari":7455,"tercero":7456,"afili":7457,"perfecta":7458,"salarial":7459,"hospita":7460,"coordinación":7461,"criminal":7462,"adecuada":7463,"radical":7464,"Empres":7465,"gráfica":7466,"normalidad":7467,"pudiera":7468,"Flores":7469,"delincuentes":7470,"ofensiva":7471,"Villar":7472,"auxili":7473,"octavos":7474,"Portugal":7475,"TikTok":7476,"Guanajuato":7477,"82":7478,"Ani":7479,"Aero":7480,"Cár":7481,"Ken":7482,"Nº":7483,"Sar":7484,"ic":7485,"ks":7486,"py":7487,"decor":7488,"estri":7489,"laga":7490,"timos":7491,"tierras":7492,"conge":7493,"teó":7494,"perpe":7495,"persis":7496,"chó":7497,"guía":7498,"exhibi":7499,"pido":7500,"versal":7501,"vela":7502,"quín":7503,"creer":7504,"grano":7505,"ultra":7506,"equilibrio":7507,"presentará":7508,"Marrue":7509,"sín":7510,"División":7511,"Tai":7512,"ional":7513,"Somos":7514,"pareció":7515,"circular":7516,"aprobar":7517,"contac":7518,"vuelva":7519,"defendido":7520,"Valenci":7521,"cumplió":7522,"colección":7523,"ubica":7524,"técnicas":7525,"territorios":7526,"acompañar":7527,"exigi":7528,"Hugo":7529,"estudiante":7530,"variedad":7531,"difíciles":7532,"Grande":7533,"fábri":7534,"iniciativas":7535,"preguntó":7536,"Veracruz":7537,"magni":7538,"frase":7539,"hospitales":7540,"privadas":7541,"ilusión":7542,"agrega":7543,"individual":7544,"levantar":7545,"conserv":7546,"negativa":7547,"descubrir":7548,"influencia":7549,"alimentaria":7550,"Fuerza":7551,"bonos":7552,"afrontar":7553,"circuito":7554,"Marruecos":7555,"56":7556,"Lí":7557,"Preci":7558,"She":7559,"iten":7560,"ld":7561,"citas":7562,"anuales":7563,"reales":7564,"tillas":7565,"dob":7566,"doce":7567,"top":7568,"parcial":7569,"mizar":7570,"cata":7571,"supo":7572,"supera":7573,"vital":7574,"perro":7575,"perdieron":7576,"tuber":7577,"alizadas":7578,"mantenido":7579,"aña":7580,"2011":7581,"certamen":7582,"nacido":7583,"autores":7584,"particulares":7585,"Semana":7586,"urgente":7587,"antecedentes":7588,"merece":7589,"frus":7590,"anotó":7591,"illas":7592,"turístico":7593,"podrás":7594,"Digi":7595,"Carolina":7596,"permiso":7597,"ayudas":7598,"jugando":7599,"publicidad":7600,"contaminación":7601,"relacionadas":7602,"Fede":7603,"Bogo":7604,"cumplido":7605,"producciones":7606,"solicitado":7607,"operar":7608,"Joa":7609,"Ayer":7610,"celebrará":7611,"dictadura":7612,"Primero":7613,"Puebla":7614,"sanitario":7615,"competición":7616,"absoluta":7617,"célu":7618,"protagonistas":7619,"Elector":7620,"dolfo":7621,"protocolo":7622,"hallazgo":7623,"femenino":7624,"Igualmente":7625,"enlace":7626,"camiseta":7627,"Gobernador":7628,"(…":7629,"Agus":7630,"Emer":7631,"Ofici":7632,"Rur":7633,"útil":7634,"erri":7635,"aline":7636,"reparación":7637,"reformas":7638,"tic":7639,"cocin":7640,"catal":7641,"caja":7642,"supon":7643,"let":7644,"soft":7645,"acán":7646,"patro":7647,"vencer":7648,"compati":7649,"Conce":7650,"Contin":7651,"llería":7652,"urgencia":7653,"presidentes":7654,"Superi":7655,"terminaron":7656,"autorización":7657,"organizar":7658,"alcanzado":7659,"llevando":7660,"Muchas":7661,"dependiente":7662,"Europe":7663,"Bull":7664,"violación":7665,"rechazó":7666,"Morales":7667,"fundación":7668,"candidata":7669,"cismo":7670,"extrema":7671,"AMLO":7672,"sanitarios":7673,"Constitucional":7674,"adecuado":7675,"Merce":7676,"Feria":7677,"gestionar":7678,"ofreció":7679,"cumpleaños":7680,"Deportes":7681,"revisar":7682,"eficiencia":7683,"financieros":7684,"supuestamente":7685,"Jiménez":7686,"aprendizaje":7687,"diagnosti":7688,"Alonso":7689,"Oficina":7690,"900":7691,"Bale":7692,"Eri":7693,"Ferr":7694,"Lin":7695,"Ofi":7696,"OMS":7697,"aj":7698,"stre":7699,"up":7700,"zón":7701,"íes":7702,"ímpi":7703,"ñado":7704,"escon":7705,"aló":7706,"ady":7707,"retomar":7708,"contado":7709,"trin":7710,"trada":7711,"diarios":7712,"dibu":7713,"coches":7714,"parar":7715,"cala":7716,"cumbre":7717,"lectura":7718,"licen":7719,"moles":7720,"risa":7721,"somb":7722,"solar":7723,"sobr":7724,"manas":7725,"guberna":7726,"jefa":7727,"rumb":7728,"masco":7729,"entrevis":7730,"personalidad":7731,"calendario":7732,"agreg":7733,"berg":7734,"Alta":7735,"acusación":7736,"Armadas":7737,"seguimos":7738,"sabor":7739,"Capital":7740,"here":7741,"Juzgado":7742,"salvo":7743,"Casi":7744,"Peña":7745,"estrés":7746,"detalla":7747,"colocar":7748,"sufri":7749,"onald":7750,"telef":7751,"Tucu":7752,"abiertas":7753,"corresponden":7754,"capaces":7755,"afición":7756,"electorales":7757,"renova":7758,"Distrito":7759,"domicili":7760,"gimnas":7761,"insistió":7762,"profundo":7763,"enfoque":7764,"créditos":7765,"analistas":7766,"aprehen":7767,"desempeño":7768,"visual":7769,"archivo":7770,"concluir":7771,"Málaga":7772,"paquete":7773,"Universitario":7774,"Academia":7775,"elenco":7776,"Bogotá":7777,".”":7778,"Lion":7779,"MW":7780,"Neces":7781,"Our":7782,"Ruiz":7783,"TC":7784,"Tener":7785,"af":7786,"ah":7787,"fera":7788,"ling":7789,"pones":7790,"tarias":7791,"vs":7792,"debes":7793,"oscu":7794,"anci":7795,"inal":7796,"incent":7797,"remi":7798,"curi":7799,"suceso":7800,"logran":7801,"licencia":7802,"persecu":7803,"propone":7804,"soporte":7805,"terna":7806,"roga":7807,"romper":7808,"pato":7809,"expuso":7810,"pien":7811,"tanta":7812,"posesión":7813,"hablado":7814,"hidro":7815,"intercep":7816,"intercambio":7817,"Cono":7818,"penales":7819,"realizadas":7820,"decidieron":7821,"equival":7822,"cuentos":7823,"generando":7824,"señales":7825,"labora":7826,"recibiendo":7827,"circula":7828,"relacionado":7829,"utilizan":7830,"distinto":7831,"siguieron":7832,"volucion":7833,"ventajas":7834,"acompañamiento":7835,"incidencia":7836,"manifestado":7837,"kilos":7838,"escapar":7839,"Quién":7840,"eliminación":7841,"hablamos":7842,"incorporación":7843,"negativo":7844,"humanidad":7845,"hinchas":7846,"famoso":7847,"comprender":7848,"compuesto":7849,"previamente":7850,"frecuencia":7851,"expansión":7852,"mecanismo":7853,"imponer":7854,"espalda":7855,"Nadal":7856,"repetir":7857,"tragedia":7858,"Mauricio":7859,"Lionel":7860,"Gil":7861,"Irán":7862,"dín":7863,"epi":7864,"edor":7865,"males":7866,"pso":7867,"tte":7868,"vados":7869,"yente":7870,"demor":7871,"espíritu":7872,"lam":7873,"orado":7874,"quede":7875,"inunda":7876,"reda":7877,"colum":7878,"techo":7879,"pru":7880,"tocar":7881,"parado":7882,"mover":7883,"trau":7884,"tendremos":7885,"vocación":7886,"pidieron":7887,"servir":7888,"trofe":7889,"2000":7890,"usado":7891,"dista":7892,"gará":7893,"masa":7894,"agrada":7895,"Inf":7896,"Inte":7897,"mercan":7898,"ministerio":7899,"cultores":7900,"generado":7901,"Capi":7902,"herido":7903,"tremen":7904,"jugado":7905,"anunciar":7906,"bolsa":7907,"vuelven":7908,"reunió":7909,"capacitación":7910,"aplica":7911,"denunciar":7912,"habitación":7913,"exige":7914,"Negro":7915,"materias":7916,"gremi":7917,"preparado":7918,"tengamos":7919,"habilidades":7920,"izquierdo":7921,"manejo":7922,"belleza":7923,"evaluar":7924,"combustibles":7925,"tiroteo":7926,"condenado":7927,"olvidar":7928,"consiste":7929,"Mayor":7930,"inmediatamente":7931,"narcotráfico":7932,"específicamente":7933,"capítulo":7934,"Tucumán":7935,"88":7936,"AFP":7937,"Chu":7938,"Ke":7939,"Phone":7940,"Sara":7941,"amar":7942,"fó":7943,"ico":7944,"palo":7945,"rent":7946,"demócra":7947,"lador":7948,"ciber":7949,"ines":7950,"inmobili":7951,"rehabilitación":7952,"conjunta":7953,"coli":7954,"colas":7955,"litros":7956,"rivales":7957,"estando":7958,"terías":7959,"istán":7960,"chino":7961,"taro":7962,"caras":7963,"verdes":7964,"unión":7965,"universo":7966,"blio":7967,"gradu":7968,"signos":7969,"plato":7970,"comunicaciones":7971,"priva":7972,"sanción":7973,"explican":7974,"jugada":7975,"dominio":7976,"anuncios":7977,"aceite":7978,"superó":7979,"Rivera":7980,"escritor":7981,"destinado":7982,"territorial":7983,"charla":7984,"trasladar":7985,"provocar":7986,"eléctricas":7987,"Autóno":7988,"preparar":7989,"enviado":7990,"recoge":7991,"aborto":7992,"americana":7993,"correcta":7994,"tarifas":7995,"comerciantes":7996,"Honduras":7997,"Paul":7998,"ruptura":7999,"vínculo":8000,"fredo":8001,"aventura":8002,"inferior":8003,"exactamente":8004,"Tecno":8005,"subrayado":8006,"maravillos":8007,"espectacular":8008,"Mercedes":8009,"AC":8010,"Atención":8011,"Asia":8012,"DC":8013,"Deli":8014,"Gim":8015,"Rio":8016,"Sim":8017,"cén":8018,"jando":8019,"selecciones":8020,"tenta":8021,"zco":8022,"úr":8023,"deu":8024,"deje":8025,"arquero":8026,"conten":8027,"contiene":8028,"dili":8029,"tol":8030,"portu":8031,"leche":8032,"motiv":8033,"sole":8034,"rano":8035,"minal":8036,"formal":8037,"universidad":8038,"landia":8039,"mencionado":8040,"sindi":8041,"primaria":8042,"triple":8043,"core":8044,"juz":8045,"juventud":8046,"boli":8047,"elevado":8048,"impedi":8049,"alguno":8050,"mejoras":8051,"feminis":8052,"Camin":8053,"campos":8054,"espacial":8055,"permitido":8056,"continente":8057,"funcionaria":8058,"malo":8059,"relato":8060,"relató":8061,"dirige":8062,"superado":8063,"vivido":8064,"controles":8065,"causar":8066,"pobres":8067,"programación":8068,"chica":8069,"continuó":8070,"acabó":8071,"solicitudes":8072,"fronteras":8073,"Internet":8074,"participado":8075,"dirigida":8076,"garantiza":8077,"emoción":8078,"históricos":8079,"magn":8080,"venezolana":8081,"convivencia":8082,"abandonar":8083,"aprovechó":8084,"refiere":8085,"Tengo":8086,"transición":8087,"disminución":8088,"electrónico":8089,"corriente":8090,"numerosas":8091,"comisaría":8092,"delegación":8093,"Vargas":8094,"periódico":8095,"madrile":8096,"Superior":8097,"09":8098,"Bas":8099,"ML":8100,"MX":8101,"Mú":8102,"Olí":8103,"RS":8104,"SI":8105,"Sólo":8106,"aterri":8107,"lón":8108,"zador":8109,"zaban":8110,"incau":8111,"rema":8112,"retiro":8113,"consig":8114,"concili":8115,"congres":8116,"camos":8117,"suba":8118,"sitúa":8119,"logos":8120,"desplie":8121,"estaron":8122,"pola":8123,"excu":8124,"pica":8125,"vege":8126,"hijas":8127,"juy":8128,"Democ":8129,"cioso":8130,"regalo":8131,"presentada":8132,"Marina":8133,"indican":8134,"generan":8135,"foco":8136,"senten":8137,"dormir":8138,"propietario":8139,"Carta":8140,"Medina":8141,"Ciencias":8142,"parejas":8143,"desarrolló":8144,"tendrás":8145,"ínsula":8146,"madres":8147,"consejero":8148,"puertos":8149,"competencias":8150,"Orte":8151,"manifestantes":8152,"documental":8153,"quedará":8154,"atravi":8155,"ignor":8156,"fiscalía":8157,"Torneo":8158,"Trabaj":8159,"dedicado":8160,"regresó":8161,"glob":8162,"cariño":8163,"educativa":8164,"americanos":8165,"pertene":8166,"tranquilo":8167,"famosa":8168,"mensuales":8169,"andalu":8170,"profundidad":8171,"proveedores":8172,"Investigación":8173,"ambulancia":8174,"transparencia":8175,"integrante":8176,"evacu":8177,"fundador":8178,"Héctor":8179,"escasez":8180,"autonomía":8181,"Valenciana":8182,"Ourense":8183,"Olímpi":8184,"76":8185,"86":8186,"Ada":8187,"Bil":8188,"Jai":8189,"Mesa":8190,"Nadie":8191,"Zona":8192,"cuel":8193,"ctivos":8194,"gridad":8195,"iores":8196,"iPhone":8197,"ken":8198,"teli":8199,"ualmente":8200,"ína":8201,"cista":8202,"temp":8203,"sienten":8204,"desplaza":8205,"procur":8206,"respi":8207,"ficados":8208,"alizando":8209,"carb":8210,"carbono":8211,"peda":8212,"previos":8213,"costado":8214,"post":8215,"menudo":8216,"olímpi":8217,"horarios":8218,"drones":8219,"cortes":8220,"Cons":8221,"Control":8222,"jaba":8223,"llamas":8224,"bebidas":8225,"criterios":8226,"iniciado":8227,"Marcos":8228,"importaciones":8229,"jueza":8230,"indig":8231,"indicar":8232,"cambia":8233,"viajeros":8234,"visas":8235,"Jujuy":8236,"Roma":8237,"Vivi":8238,"terminado":8239,"Mejor":8240,"basura":8241,"visitó":8242,"Guerrero":8243,"saldo":8244,"tratamientos":8245,"dependiendo":8246,"confirma":8247,"registrados":8248,"esperamos":8249,"comenta":8250,"caminos":8251,"referentes":8252,"anteriormente":8253,"asociaciones":8254,"provocado":8255,"consultas":8256,"probabilidad":8257,"tarjetas":8258,"cometer":8259,"definición":8260,"Pueblo":8261,"quinta":8262,"detectar":8263,"Herrera":8264,"flujo":8265,"Azul":8266,"amistos":8267,"Mujeres":8268,"Consul":8269,"tronómi":8270,"cuidados":8271,"recalcó":8272,"refugiados":8273,"fraude":8274,"victorias":8275,"Electoral":8276,"74":8277,"911":8278,"AT":8279,"Cui":8280,"Gro":8281,"Iván":8282,"Jer":8283,"Junto":8284,"PAN":8285,"Ray":8286,"WW":8287,"atre":8288,"bados":8289,"cros":8290,"ecoló":8291,"ix":8292,"mel":8293,"rad":8294,"detuvo":8295,"arbi":8296,"cipe":8297,"ciende":8298,"conciertos":8299,"sever":8300,"dible":8301,"dicción":8302,"copa":8303,"mirar":8304,"liqui":8305,"maestro":8306,"despleg":8307,"tuve":8308,"podían":8309,"chester":8310,"Espera":8311,"quitar":8312,"carro":8313,"sonido":8314,"nacionalidad":8315,"dispone":8316,"garse":8317,"autén":8318,"pasaron":8319,"empo":8320,"quinas":8321,"creció":8322,"gratis":8323,"facul":8324,"coron":8325,"correo":8326,"emble":8327,"donado":8328,"India":8329,"Alfredo":8330,"signo":8331,"punta":8332,"United":8333,"Mark":8334,"Martin":8335,"sostener":8336,"trabajó":8337,"Arte":8338,"Segunda":8339,"morir":8340,"contamos":8341,"querer":8342,"núcle":8343,"Chá":8344,"utilizado":8345,"avanzado":8346,"2008":8347,"comprobar":8348,"compromisos":8349,"estreno":8350,"ónicas":8351,"Nicar":8352,"aumentado":8353,"tecnologías":8354,"órmula":8355,"deportes":8356,"emitió":8357,"disparó":8358,"cercanos":8359,"legislador":8360,"conectar":8361,"concejal":8362,"Macri":8363,"sostenibilidad":8364,"particularmente":8365,"conforme":8366,"Blanco":8367,"insul":8368,"viejo":8369,"episodios":8370,"explotación":8371,"Señor":8372,"desafíos":8373,"garantía":8374,"Matías":8375,"series":8376,"entusi":8377,"equipamiento":8378,"Ortega":8379,"71":8380,"81":8381,"GE":8382,"Hen":8383,"Ky":8384,"Sho":8385,"TO":8386,"Tro":8387,"Wor":8388,"XI":8389,"ecido":8390,"heli":8391,"jaron":8392,"vadas":8393,"zadores":8394,"erten":8395,"onés":8396,"anfi":8397,"tela":8398,"lima":8399,"motores":8400,"madera":8401,"mentas":8402,"mentando":8403,"cionista":8404,"podamos":8405,"patria":8406,"vayan":8407,"formado":8408,"2030":8409,"derrumb":8410,"jefes":8411,"reclu":8412,"creciente":8413,"Consi":8414,"llera":8415,"Alto":8416,"contratación":8417,"reciben":8418,"huracán":8419,"érpre":8420,"trulla":8421,"campista":8422,"barra":8423,"primi":8424,"infancia":8425,"permitan":8426,"intérpre":8427,"localizar":8428,"organizada":8429,"causó":8430,"2009":8431,"Monter":8432,"denunciado":8433,"Jose":8434,"financiamiento":8435,"textos":8436,"secreto":8437,"incidentes":8438,"declarar":8439,"mantenerse":8440,"ayudará":8441,"brinda":8442,"reclamo":8443,"reclama":8444,"responsabilidades":8445,"aparentemente":8446,"vestido":8447,"superiores":8448,"ejercicios":8449,"implementar":8450,"pertenece":8451,"recomendaciones":8452,"sueldo":8453,"otorga":8454,"seleccionado":8455,"científica":8456,"desaparecido":8457,"jalá":8458,"Mayo":8459,"estadísticas":8460,"bailar":8461,"Estudi":8462,"Campeonato":8463,"posee":8464,"presuntamente":8465,"temprano":8466,"hicimos":8467,"adquisición":8468,"composición":8469,"Vladimir":8470,"fortunadamente":8471,"tronomía":8472,"nublado":8473,"células":8474,"Nicaragua":8475,"%),":8476,"Añ":8477,"Imp":8478,"Jun":8479,"Opera":8480,"Sos":8481,"Sor":8482,"UR":8483,"Vázquez":8484,"amp":8485,"aparecer":8486,"gli":8487,"iras":8488,"rador":8489,"tían":8490,"uruguay":8491,"ática":8492,"desea":8493,"inde":8494,"rep":8495,"sequía":8496,"trados":8497,"mix":8498,"mith":8499,"vigor":8500,"leve":8501,"notable":8502,"maíz":8503,"mantendrá":8504,"nik":8505,"comodi":8506,"ceder":8507,"ford":8508,"entregado":8509,"creó":8510,"venció":8511,"ganancias":8512,"Alvar":8513,"acudió":8514,"platos":8515,"adilla":8516,"fueran":8517,"viruela":8518,"transformar":8519,"Local":8520,"visibilidad":8521,"método":8522,"Segui":8523,"salto":8524,"atacar":8525,"Ruta":8526,"malos":8527,"sóli":8528,"integridad":8529,"defendió":8530,"chicas":8531,"azu":8532,"solucionar":8533,"Fueron":8534,"Generali":8535,"encuestas":8536,"celebrado":8537,"consultar":8538,"emociones":8539,"camiones":8540,"naran":8541,"reclamos":8542,"felici":8543,"felicidad":8544,"conflictos":8545,"criminales":8546,"reserva":8547,"carreteras":8548,"colombianos":8549,"Silva":8550,"insumos":8551,"garantías":8552,"embarazo":8553,"Profesional":8554,"cirugía":8555,"deterioro":8556,"Regis":8557,"descubierto":8558,"custodia":8559,"Rural":8560,"Europeo":8561,"Af":8562,"Agua":8563,"Agri":8564,"Cir":8565,"DT":8566,"Donald":8567,"Equi":8568,"Zu":8569,"ava":8570,"aparecen":8571,"bec":8572,"etique":8573,"tto":8574,"rever":8575,"tillo":8576,"taban":8577,"diga":8578,"cuyos":8579,"lip":8580,"bieron":8581,"perdiendo":8582,"rillo":8583,"racha":8584,"procla":8585,"trai":8586,"tratado":8587,"volante":8588,"presuntos":8589,"verti":8590,"abusos":8591,"veía":8592,"usando":8593,"prevista":8594,"lanzado":8595,"larse":8596,"dispuso":8597,"zará":8598,"ponga":8599,"fertili":8600,"electro":8601,"Andro":8602,"consenso":8603,"conscientes":8604,"Michel":8605,"herida":8606,"Cuál":8607,"Cuáles":8608,"explicación":8609,"investiga":8610,"registra":8611,"justa":8612,"lógico":8613,"leyenda":8614,"efectiva":8615,"Char":8616,"expresado":8617,"chico":8618,"cumpliendo":8619,"Hotel":8620,"reducido":8621,"siguiendo":8622,"sufre":8623,"máximos":8624,"acercarse":8625,"gobernadora":8626,"pronos":8627,"echar":8628,"piedra":8629,"borde":8630,"francesa":8631,"crítico":8632,"reportaron":8633,"extender":8634,"escolares":8635,"cometido":8636,"renovar":8637,"Había":8638,"multa":8639,"Gala":8640,"enfrentamiento":8641,"jurado":8642,"fabricación":8643,"consumidor":8644,"tarifa":8645,"gestiones":8646,"inauguración":8647,"dificultad":8648,"prometió":8649,"Press":8650,"Bolson":8651,"polvo":8652,"protoco":8653,"gnidad":8654,"Libertad":8655,"extraordinaria":8656,"lenguaje":8657,"relevante":8658,"satisfacción":8659,"www":8660,"explosión":8661,"secundaria":8662,"despacho":8663,"pronóstico":8664,"Black":8665,"álbum":8666,"Villarreal":8667,"Agustín":8668,"persecución":8669,"inundaciones":8670,"Android":8671,"96":8672,"?”,":8673,"AS":8674,"Año":8675,"Aguas":8676,"Cine":8677,"Evi":8678,"Palma":8679,"emisión":8680,"oli":8681,"tones":8682,"wood":8683,"yn":8684,"deposi":8685,"encer":8686,"ong":8687,"ans":8688,"asamb":8689,"inta":8690,"paral":8691,"noven":8692,"maquin":8693,"propuesto":8694,"pala":8695,"mann":8696,"exceso":8697,"cartas":8698,"absor":8699,"comun":8700,"compartido":8701,"usan":8702,"certe":8703,"peores":8704,"nacio":8705,"precau":8706,"discre":8707,"aumentos":8708,"venía":8709,"mistas":8710,"Alfon":8711,"grad":8712,"acusó":8713,"ñoz":8714,"playas":8715,"plica":8716,"inicios":8717,"gaso":8718,"volvieron":8719,"barco":8720,"basado":8721,"Soy":8722,"comisiones":8723,"comenzado":8724,"Rub":8725,"realizarán":8726,"Muñoz":8727,"Manchester":8728,"2006":8729,"usura":8730,"Ministros":8731,"conducción":8732,"ónimo":8733,"colegas":8734,"caminar":8735,"amiga":8736,"ingresó":8737,"sexta":8738,"Chica":8739,"Hubo":8740,"llevarse":8741,"Play":8742,"regulación":8743,"disputa":8744,"Reser":8745,"Verde":8746,"restable":8747,"cuadrados":8748,"Código":8749,"pintura":8750,"acumula":8751,"Alianza":8752,"Mariano":8753,"teléfonos":8754,"novela":8755,"desarrollado":8756,"hoteles":8757,"iniciaron":8758,"asesinado":8759,"gratuito":8760,"musicales":8761,"landés":8762,"Transporte":8763,"Presu":8764,"puntualizó":8765,"ght":8766,"cicletas":8767,"Gober":8768,"italiano":8769,"Oriente":8770,"expediente":8771,"Países":8772,"Mexicana":8773,"masculino":8774,"exportación":8775,"YouTu":8776,"contribuir":8777,"disminuir":8778,"magnitud":8779,"software":8780,"Chávez":8781,"Bolsonaro":8782,"Gestión":8783,"Lara":8784,"MT":8785,"Mañ":8786,"Obras":8787,"Smith":8788,"Wal":8789,"Xunta":8790,"dones":8791,"dalgo":8792,"dalo":8793,"gris":8794,"iran":8795,"ivas":8796,"jarse":8797,"nados":8798,"om":8799,"pana":8800,"vestu":8801,"África":8802,"èn":8803,"ñe":8804,"dela":8805,"arque":8806,"repeti":8807,"remate":8808,"confin":8809,"conmigo":8810,"die":8811,"dilla":8812,"parques":8813,"cai":8814,"vila":8815,"viva":8816,"terra":8817,"metió":8818,"tendencias":8819,"paisa":8820,"alizaciones":8821,"Lau":8822,"pio":8823,"carpe":8824,"carril":8825,"comparte":8826,"ceros":8827,"mara":8828,"cantidades":8829,"costes":8830,"costas":8831,"aulas":8832,"venil":8833,"gracia":8834,"cóp":8835,"interrump":8836,"tólica":8837,"llamados":8838,"pensiones":8839,"jería":8840,"arás":8841,"turos":8842,"monu":8843,"Cumbre":8844,"propietarios":8845,"situado":8846,"antigua":8847,"ómicron":8848,"Proyec":8849,"recibirá":8850,"publicar":8851,"funcionar":8852,"cómodo":8853,"brazo":8854,"seguirán":8855,"bolsi":8856,"atentado":8857,"públicamente":8858,"violento":8859,"intenciones":8860,"laria":8861,"empezaron":8862,"ambientales":8863,"vecina":8864,"televis":8865,"deportivos":8866,"deportivas":8867,"tánea":8868,"abiertos":8869,"trámites":8870,"Ayuso":8871,"lamentó":8872,"elimina":8873,"Autori":8874,"planteó":8875,"caído":8876,"bloqueo":8877,"infraestructuras":8878,"Arabia":8879,"riqueza":8880,"sorprendió":8881,"incluida":8882,"Ignacio":8883,"huahua":8884,"cuestionó":8885,"liberación":8886,"frenar":8887,"cuotas":8888,"involucrados":8889,"flores":8890,"Patricia":8891,"contundente":8892,"Digital":8893,"Federico":8894,"sentenció":8895,"helicóp":8896,"Cho":8897,"Dor":8898,"Flor":8899,"Fron":8900,"Nie":8901,"Ron":8902,"SO":8903,"aeron":8904,"gla":8905,"mundiales":8906,"wi":8907,"yu":8908,"éramos":8909,"óli":8910,"úcar":8911,"arena":8912,"ciera":8913,"ancho":8914,"asalto":8915,"elli":8916,"repu":8917,"retos":8918,"tira":8919,"consa":8920,"contener":8921,"consigue":8922,"cadenas":8923,"sic":8924,"visa":8925,"hacían":8926,"malas":8927,"riles":8928,"rama":8929,"prov":8930,"trae":8931,"potable":8932,"islas":8933,"acoso":8934,"pata":8935,"patri":8936,"exces":8937,"quizá":8938,"abu":8939,"ped":8940,"cana":8941,"sustent":8942,"costar":8943,"entretenimiento":8944,"olla":8945,"obtenido":8946,"cale":8947,"feri":8948,"botón":8949,"ulti":8950,"2025":8951,"Represent":8952,"ingre":8953,"humil":8954,"Artes":8955,"Micha":8956,"bienvenida":8957,"directivos":8958,"dejará":8959,"terminal":8960,"parecido":8961,"brazos":8962,"automovi":8963,"vacío":8964,"avanzando":8965,"oficialismo":8966,"exigir":8967,"reconocida":8968,"campeona":8969,"Seguro":8970,"dispuestos":8971,"franqui":8972,"crímenes":8973,"concluye":8974,"dímir":8975,"kovic":8976,"Asuntos":8977,"colectivos":8978,"fácilmente":8979,"pelear":8980,"coordinador":8981,"PRO":8982,"individuales":8983,"pidemi":8984,"Algunas":8985,"comprometido":8986,"Elec":8987,"aclarar":8988,"Foto":8989,"limpia":8990,"eficiente":8991,"obligatorio":8992,"peligroso":8993,"nombra":8994,"democrático":8995,"mecanismos":8996,"rumores":8997,"precipitaciones":8998,"ligera":8999,"repercu":9000,"sindical":9001,"entusias":9002,"Generalitat":9003,"-.":9004,"92":9005,"AI":9006,"Acción":9007,"CU":9008,"Dia":9009,"Facu":9010,"Gabinete":9011,"Spu":9012,"Th":9013,"Vé":9014,"War":9015,"aporta":9016,"bera":9017,"ctiva":9018,"ejo":9019,"pada":9020,"sung":9021,"dev":9022,"oría":9023,"inyec":9024,"difusión":9025,"temática":9026,"sumaron":9027,"portes":9028,"trate":9029,"pool":9030,"máquina":9031,"resguar":9032,"cher":9033,"tormentas":9034,"presiones":9035,"nidad":9036,"pidiendo":9037,"vecin":9038,"gidos":9039,"gieron":9040,"navide":9041,"discul":9042,"brecha":9043,"recesión":9044,"crece":9045,"líqui":9046,"drás":9047,"ferro":9048,"trico":9049,"entamiento":9050,"Inten":9051,"módu":9052,"producen":9053,"Marco":9054,"femini":9055,"tienden":9056,"directiva":9057,"directores":9058,"Rock":9059,"híbri":9060,"éxitos":9061,"risas":9062,"legis":9063,"centí":9064,"activista":9065,"bolsas":9066,"automática":9067,"etapas":9068,"consejos":9069,"Barrio":9070,"recurrir":9071,"Franco":9072,"Max":9073,"ubicación":9074,"ingresa":9075,"brote":9076,"aloja":9077,"empleado":9078,"presentaba":9079,"gobernadores":9080,"músico":9081,"videojuegos":9082,"dirigir":9083,"dirigió":9084,"dirigidos":9085,"enfrentará":9086,"tribunales":9087,"encargada":9088,"procedimientos":9089,"disputar":9090,"preparados":9091,"pulgadas":9092,"recibirán":9093,"desarrollando":9094,"educativos":9095,"Atlán":9096,"inversores":9097,"proporcionar":9098,"Mercado":9099,"adaptación":9100,"Gerardo":9101,"psicó":9102,"inteligente":9103,"homicidios":9104,"cerebr":9105,"criticó":9106,"Magal":9107,"democrática":9108,"parlamentario":9109,"Samsung":9110,"confesó":9111,"Latinoamérica":9112,"Movimiento":9113,"defiende":9114,"departamentos":9115,"(…)":9116,"patrocin":9117,"Oficial":9118,"Autónoma":9119,"Gobernación":9120,"YouTube":9121,"ència":9122,"Facul":9123,"110":9124,"73":9125,"AL":9126,"Av":9127,"Cin":9128,"Mara":9129,"Nada":9130,"Pes":9131,"Té":9132,"Tho":9133,"Téc":9134,"lona":9135,"omi":9136,"psia":9137,"pacto":9138,"wa":9139,"ífica":9140,"incur":9141,"reos":9142,"reza":9143,"retorno":9144,"condado":9145,"catá":9146,"vigencia":9147,"lid":9148,"perfi":9149,"pertin":9150,"desas":9151,"eche":9152,"metas":9153,"actú":9154,"tense":9155,"gué":9156,"quita":9157,"caro":9158,"verá":9159,"vergü":9160,"vehi":9161,"gigante":9162,"predio":9163,"futuros":9164,"empie":9165,"ésta":9166,"finalidad":9167,"estimó":9168,"impunidad":9169,"recicla":9170,"Marta":9171,"Santan":9172,"turísticos":9173,"chef":9174,"Micho":9175,"fomentar":9176,"cing":9177,"transferencia":9178,"Cual":9179,"basa":9180,"asegur":9181,"antiles":9182,"Guad":9183,"vídeos":9184,"rosa":9185,"apoya":9186,"edil":9187,"provinciales":9188,"manifi":9189,"2007":9190,"negociar":9191,"colegios":9192,"cología":9193,"intenso":9194,"incrementar":9195,"financiar":9196,"Chihuahua":9197,"Luci":9198,"claras":9199,"manifestaciones":9200,"precisa":9201,"intentando":9202,"Ciudadana":9203,"escalada":9204,"televisi":9205,"consecutivo":9206,"atraves":9207,"variantes":9208,"identificación":9209,"respetu":9210,"Quienes":9211,"conclusión":9212,"recoger":9213,"manejar":9214,"investigador":9215,"Claro":9216,"Disney":9217,"testigo":9218,"conservación":9219,"humanit":9220,"gestion":9221,"pierde":9222,"bispo":9223,"sencilla":9224,"sentimientos":9225,"transmitir":9226,"añadir":9227,"saludable":9228,"seguramente":9229,"Johnson":9230,"reemplazado":9231,"lesionados":9232,"field":9233,"jurídica":9234,"destrucción":9235,"cubano":9236,"almacenamiento":9237,"muchísimo":9238,"sindicato":9239,"huelga":9240,"envío":9241,"siniestro":9242,"Metropoli":9243,"occidentales":9244,"artificial":9245,"escándalo":9246,"comodidad":9247,"Facultad":9248,"08":9249,"DH":9250,"DO":9251,"Fra":9252,"Jen":9253,"Mba":9254,"Mall":9255,"PF":9256,"Xi":9257,"Ze":9258,"azo":9259,"ctas":9260,"kirchner":9261,"llan":9262,"pistas":9263,"relo":9264,"tadora":9265,"detenida":9266,"enamor":9267,"lago":9268,"aná":9269,"ascenso":9270,"retor":9271,"revolución":9272,"tian":9273,"confron":9274,"separación":9275,"disi":9276,"dices":9277,"tez":9278,"parcialmente":9279,"suyo":9280,"vieran":9281,"terren":9282,"papa":9283,"dental":9284,"alias":9285,"chado":9286,"extor":9287,"expon":9288,"Esper":9289,"añadi":9290,"cardio":9291,"abon":9292,"minas":9293,"zapa":9294,"naval":9295,"fur":9296,"rurales":9297,"quera":9298,"vengan":9299,"ganadores":9300,"interesa":9301,"interanual":9302,"pensado":9303,"regla":9304,"sabes":9305,"directos":9306,"Leo":9307,"propiedades":9308,"señora":9309,"santa":9310,"comité":9311,"dominicano":9312,"Park":9313,"evita":9314,"ocurrieron":9315,"manipu":9316,"estableció":9317,"València":9318,"Muy":9319,"comercios":9320,"avanza":9321,"socialista":9322,"continuarán":9323,"comentado":9324,"frutas":9325,"sacri":9326,"invita":9327,"imputado":9328,"Ramos":9329,"loria":9330,"Pilar":9331,"igh":9332,"cruzar":9333,"provoca":9334,"enfrentarse":9335,"ejercer":9336,"Bajo":9337,"Secretario":9338,"constituye":9339,"dueños":9340,"Américas":9341,"complicaciones":9342,"recopi":9343,"sanitarias":9344,"Volo":9345,"ilus":9346,"individuos":9347,"Hidalgo":9348,"inmediaciones":9349,"Vega":9350,"capié":9351,"elaborado":9352,"arranque":9353,"cumpla":9354,"imprescin":9355,"trenes":9356,"anunciaron":9357,"considerando":9358,"Supremo":9359,"financieras":9360,"dinámica":9361,"Todavía":9362,"préstamos":9363,"ansiedad":9364,"Claudia":9365,"otoño":9366,"Taiw":9367,"Joaquín":9368,"agregado":9369,"Monterrey":9370,"Estudiantes":9371,"!”,":9372,"130":9373,"?,":9374,"AE":9375,"Chan":9376,"Iber":9377,"Ku":9378,"Már":9379,"Prin":9380,"SU":9381,"Tru":9382,"West":9383,"Zo":9384,"apel":9385,"cy":9386,"cáli":9387,"dés":9388,"evolu":9389,"flor":9390,"mías":9391,"pciones":9392,"pesa":9393,"ruido":9394,"vina":9395,"vían":9396,"ábamos":9397,"devolver":9398,"detección":9399,"ert":9400,"onas":9401,"adur":9402,"ineros":9403,"repro":9404,"contando":9405,"trio":9406,"tocó":9407,"sumado":9408,"lee":9409,"levar":9410,"logro":9411,"litro":9412,"damente":9413,"bita":9414,"maestros":9415,"tua":9416,"meteor":9417,"rock":9418,"tengas":9419,"filas":9420,"votantes":9421,"gular":9422,"serva":9423,"maríti":9424,"sustra":9425,"hablan":9426,"vence":9427,"hidra":9428,"fini":9429,"llones":9430,"donos":9431,"nube":9432,"realice":9433,"bano":9434,"titulares":9435,"siglas":9436,"play":9437,"humo":9438,"terial":9439,"firmas":9440,"presentarse":9441,"generalmente":9442,"tone":9443,"monio":9444,"Tomás":9445,"conocidas":9446,"salón":9447,"publicada":9448,"registran":9449,"afectan":9450,"temporadas":9451,"queridos":9452,"teratura":9453,"aviones":9454,"integra":9455,"habituales":9456,"invitado":9457,"calientes":9458,"ampliación":9459,"obligado":9460,"apuntado":9461,"determinado":9462,"variación":9463,"iglesia":9464,"Públicas":9465,"PSG":9466,"aprovecha":9467,"discutir":9468,"elevada":9469,"incorporar":9470,"acumulado":9471,"recuerdos":9472,"Colón":9473,"multas":9474,"opiniones":9475,"enfrentamientos":9476,"céu":9477,"colombiana":9478,"infecciones":9479,"nieve":9480,"tecnológica":9481,"británica":9482,"culpable":9483,"Abina":9484,"amistad":9485,"órganos":9486,"componente":9487,"asumió":9488,"Especial":9489,"goleador":9490,"Industria":9491,"Leonardo":9492,"Williams":9493,"Aguilar":9494,"Precisamente":9495,"itenci":9496,"Jaime":9497,"Esperamos":9498,"protocolos":9499,"Chicago":9500,"Reserva":9501,"Michael":9502,"Taiwán":9503,"84":9504,"NF":9505,"Tim":9506,"aconse":9507,"guna":9508,"lue":9509,"male":9510,"pino":9511,"sú":9512,"vro":9513,"vando":9514,"cidades":9515,"ueva":9516,"orca":9517,"inconveni":9518,"sec":9519,"divisas":9520,"dows":9521,"pari":9522,"leves":9523,"hai":9524,"lizar":9525,"desgas":9526,"tuit":9527,"israel":9528,"román":9529,"achi":9530,"ficada":9531,"alia":9532,"alizan":9533,"prestaciones":9534,"tropi":9535,"vea":9536,"cerrada":9537,"petrol":9538,"canadi":9539,"derri":9540,"dispen":9541,"ganando":9542,"primas":9543,"bocas":9544,"implan":9545,"regal":9546,"bancada":9547,"titudes":9548,"Sanidad":9549,"importe":9550,"símbo":9551,"gastronomía":9552,"amparo":9553,"falla":9554,"falsas":9555,"Mili":9556,"seguía":9557,"transacciones":9558,"monetaria":9559,"vistos":9560,"Rojas":9561,"buses":9562,"visional":9563,"legado":9564,"problemática":9565,"programado":9566,"organiza":9567,"contamin":9568,"contabili":9569,"clip":9570,"supervis":9571,"necesitas":9572,"profesores":9573,"violenta":9574,"jardín":9575,"tomaron":9576,"recuperado":9577,"acompañada":9578,"osamente":9579,"Ortiz":9580,"aumentaron":9581,"alcaldes":9582,"determinación":9583,"colaboradores":9584,"nervi":9585,"Bajos":9586,"Prim":9587,"caína":9588,"cercanas":9589,"masiva":9590,"españolas":9591,"aguan":9592,"Gonz":9593,"ándole":9594,"pisto":9595,"piscina":9596,"Habana":9597,"Habrá":9598,"absoluto":9599,"novedad":9600,"humanitaria":9601,"argumentó":9602,"pilotos":9603,"hincapié":9604,"promete":9605,"Bolívar":9606,"tecnológico":9607,"pensamiento":9608,"aérea":9609,"Criminal":9610,"cuatori":9611,"relevantes":9612,"amenaz":9613,"exclusivamente":9614,"aislamiento":9615,"republicanos":9616,"equivalente":9617,"Vélez":9618,"Abinader":9619,"Cur":9620,"EN":9621,"GA":9622,"Im":9623,"Open":9624,"Pl":9625,"Sh":9626,"TS":9627,"agar":9628,"afri":9629,"cál":9630,"dras":9631,"ebre":9632,"eira":9633,"igua":9634,"sales":9635,"saron":9636,"tle":9637,"vu":9638,"win":9639,"debili":9640,"esen":9641,"esencia":9642,"orqu":9643,"quel":9644,"unción":9645,"inser":9646,"reca":9647,"remon":9648,"recep":9649,"selas":9650,"diar":9651,"dignidad":9652,"cocaína":9653,"sima":9654,"hago":9655,"despren":9656,"cionaron":9657,"poderes":9658,"medal":9659,"fia":9660,"Elon":9661,"toral":9662,"randa":9663,"quir":9664,"picos":9665,"forme":9666,"unior":9667,"lesias":9668,"precedentes":9669,"lardo":9670,"venidas":9671,"ager":9672,"bandas":9673,"placa":9674,"vancia":9675,"hecha":9676,"gastronómi":9677,"falso":9678,"constantes":9679,"tío":9680,"Suda":9681,"transcur":9682,"Poco":9683,"basada":9684,"legíti":9685,"Patria":9686,"complement":9687,"temporán":9688,"afirman":9689,"vivimos":9690,"causado":9691,"existir":9692,"igualmente":9693,"conducta":9694,"habitaciones":9695,"operativa":9696,"sufrieron":9697,"destinados":9698,"espectadores":9699,"Racing":9700,"deportistas":9701,"talización":9702,"ppé":9703,"entimiento":9704,"campeones":9705,"disputará":9706,"fantas":9707,"alertó":9708,"sionado":9709,"agresor":9710,"keting":9711,"Belar":9712,"ológicos":9713,"compartida":9714,"testimoni":9715,"sirvió":9716,"argumento":9717,"descubrió":9718,"beneficiarios":9719,"industriales":9720,"escuchado":9721,"analista":9722,"NASA":9723,"certificado":9724,"sospechosos":9725,"logramos":9726,"acusados":9727,"facturación":9728,"aprobada":9729,"agricultores":9730,"modificación":9731,"Industri":9732,"ciclis":9733,"Argentino":9734,"Eugen":9735,"Windows":9736,"desfile":9737,"Debemos":9738,"renovables":9739,"Rioja":9740,"Añadió":9741,"catálogo":9742,"Michoacán":9743,"Mbappé":9744,"01":9745,"05":9746,"Agra":9747,"All":9748,"Bun":9749,"Bau":9750,"Bron":9751,"Dol":9752,"Gan":9753,"Gir":9754,"Jur":9755,"Jack":9756,"Mol":9757,"Mir":9758,"Oeste":9759,"St":9760,"Tre":9761,"Zaca":9762,"Zapa":9763,"aparte":9764,"agencias":9765,"far":9766,"gador":9767,"jón":9768,"vís":9769,"Área":9770,"det":9771,"demo":9772,"elor":9773,"dicos":9774,"dieta":9775,"tejido":9776,"migos":9777,"camas":9778,"culan":9779,"suda":9780,"subido":9781,"portar":9782,"vivía":9783,"lei":9784,"liter":9785,"noches":9786,"macro":9787,"desesper":9788,"promovi":9789,"tratan":9790,"mete":9791,"istemas":9792,"robar":9793,"chista":9794,"mular":9795,"Lament":9796,"mbrado":9797,"cerrados":9798,"giro":9799,"canta":9800,"sustan":9801,"largas":9802,"hori":9803,"crecido":9804,"grafo":9805,"internas":9806,"neos":9807,"trigo":9808,"grana":9809,"plazos":9810,"Arro":9811,"ásquez":9812,"Misiones":9813,"juntas":9814,"Catar":9815,"Cuer":9816,"Estaba":9817,"Soto":9818,"Paraguay":9819,"atropel":9820,"Liver":9821,"publica":9822,"eth":9823,"porteño":9824,"rendir":9825,"expresaron":9826,"existentes":9827,"Monu":9828,"productiva":9829,"representar":9830,"Explicó":9831,"valoración":9832,"increment":9833,"sacerdo":9834,"invitó":9835,"definido":9836,"asesora":9837,"presentaciones":9838,"Ciudadanos":9839,"ejecutar":9840,"atractivo":9841,"apuntan":9842,"determinó":9843,"especializado":9844,"especializada":9845,"suceder":9846,"enfrentan":9847,"trimoni":9848,"Auto":9849,"narra":9850,"mínimos":9851,"básico":9852,"colectiva":9853,"Director":9854,"secuestro":9855,"multipli":9856,"retirar":9857,"CEO":9858,"ahorrar":9859,"informaciones":9860,"instrumento":9861,"comparten":9862,"sorpresas":9863,"diseñado":9864,"universidades":9865,"encanta":9866,"electrónicos":9867,"Señaló":9868,"enseñanza":9869,"Campeones":9870,"suicidio":9871,"alarma":9872,"Histó":9873,"recaudación":9874,"Personas":9875,"delegado":9876,"mascarilla":9877,"inquie":9878,"farmacéu":9879,"triunfos":9880,"Política":9881,"Murcia":9882,"Global":9883,"fábrica":9884,"Necesi":9885,"cuello":9886,"intérprete":9887,"Representantes":9888,"ingredientes":9889,"Santander":9890,"aduría":9891,".\"":9892,"83":9893,"Bene":9894,"BBC":9895,"Djo":9896,"Hora":9897,"MP":9898,"Mora":9899,"Ning":9900,"Sui":9901,"Salta":9902,"Trán":9903,"aver":9904,"dán":9905,"epidemi":9906,"gest":9907,"rest":9908,"tnik":9909,"enio":9910,"escan":9911,"esenciales":9912,"eral":9913,"erro":9914,"arresto":9915,"analiza":9916,"adir":9917,"inado":9918,"tización":9919,"taña":9920,"tría":9921,"tear":9922,"dole":9923,"prestar":9924,"toman":9925,"mido":9926,"lema":9927,"letra":9928,"loga":9929,"motos":9930,"daje":9931,"bicicleta":9932,"rato":9933,"progreso":9934,"cionistas":9935,"potente":9936,"tenciones":9937,"padeci":9938,"vocero":9939,"aliado":9940,"manteniendo":9941,"presos":9942,"guero":9943,"Esos":9944,"Están":9945,"quito":9946,"quista":9947,"cela":9948,"lus":9949,"comuna":9950,"veinte":9951,"gidas":9952,"marcada":9953,"enemigo":9954,"rector":9955,"creemos":9956,"darán":9957,"formaciones":9958,"conocía":9959,"Independiente":9960,"Inteli":9961,"ciosa":9962,"placas":9963,"instancias":9964,"indicaciones":9965,"Caja":9966,"Cuar":9967,"Tour":9968,"Roc":9969,"aseguraron":9970,"energías":9971,"saliendo":9972,"intelec":9973,"regir":9974,"Españo":9975,"venti":9976,"Pare":9977,"relativamente":9978,"bajado":9979,"profesión":9980,"utilización":9981,"confirmados":9982,"continua":9983,"registrada":9984,"cks":9985,"asistió":9986,"fruto":9987,"plen":9988,"intensa":9989,"mostrando":9990,"subsecretario":9991,"referido":9992,"intentos":9993,"obligaciones":9994,"Bank":9995,"dicciones":9996,"Cristo":9997,"reportado":9998,"kilómetro":9999},"merges":["d e","e n","e s","o s","l a","e r","a r","o n","c i","u e","a n","o r","a l","a s","a d","e l","q ue","u n","i n","r e","en t","t i","c on","s e","t a","t r","d i","c o","t e","ó n","d o","p r","t o","l os","p ar","m i","c a","c u","s u","ci ón","p or","s i","v i","l e","de l","l o","h a","l i","ad o","m o","la s","d a","n o","b i","p er","m a","r i","r a","par a","de s","t u","un a","í a","m p","m ent","e c","pr o","d ad","ci on","s o","u i","es t","tr a","p o","t er","m e","i s","m á","r o","a c","g o","r es","b a","t en","f i","p a","m os","ci a","ar i","ad a","má s","v o","E l","de n","al i","c h","t or","m an","d os","p u","m u","r an","pr es","g u","e x","E s","n i","q ui","d u","L a","t os","es ta","t ar","al es","a ñ","cion es","p i","á n","t an","er a","ment e","v a","m b","c as","co mo","c e","l u","i m","c ar","ad os","t es","s on","v er","a b","m in","s er","E n","m bi","an do","z a","f or","tr o","j o","2 0","ent e","mi ent","un i","co m","v e","es te","u s","c er","g i","l es","p e","m ar","n a","c an","p re","é n","er o","su s","la n","g a","t as","la r","ad or","de r","c os","j e","di s","g ar","p os","f u","r u","i a","h o","en e","on es","m en","s a","g en","t al","b le","a u","p as","y a","b re","er on","r as","e mp","é s","f ue","0 0","l le","d as","mient o","mbi én","re c","ha b","par ti","p ue","m as","ci o","ci al","ent re","me di","q u","” ,","o l","z ar","h or","o b","se g","c re","v en","h i","per son","g ra","a ción","ari o","t in","per o","g an","c ó","ent es","f in","co mp","ú n","i o","añ os","í s","x i","si ón","p on","mi s","c es","c al","ad as","tr as","en cia","i den","l í","da des","s in","en do","S e","tr os","in ter","n e","d r","n os","pr im","f er","ta mbién","d ar","est á","f a","h an","tra ba","tr i","ent a","ment o","C o","or es","z o","t ado","c or","es ti","e mb","so bre","t ó","C on","l l","for ma","des de","u r","con o","n ue","cion al","j a","ti vo","b li","” .","in a","l la","L os","an te","pos i","j u","b o","d on","el e","ch o","a g","as ta","í as","c ado","f ec","g ran","D e","ar on","bi er","u l","ti ene","b er","s ta","l ti","p en","a y","I n","c en","20 2","A l","ci as","P or","to do","ari os","con tra","mu y","ñ a","n u","m er","pa ís","ti v","cu r","b e","i mp","c ri","c tor","par te","re ali","an tes","i r","R e","ma y","de más","es to","h asta","ha y","ti ca","m es","ú lti","in g","ci os","an a","f un","ec es","g r","b u","j or","de ci","re g","i do","ran te","m ó","f r","al g","añ o","p ec","a cu","person as","j er","tu ra","c ada","1 9","ar a","b an","don de","ñ o","re ci","pres iden","ti va","c lu","d ía","cu ando","ent r","N o","mi li","tr an","u dad","e m","hor a","t ados","ti tu","ci p","c la","e mos","la ción","si g","pro du","p la","bi li","on a","es e","h u","p li","ter i","al u","e qui","fi r","í an","bier no","por que","in i","c ha","ú bli","b r","as e","c ción","qui en","\" ,","di jo","tan te","o tros","ha cer","tor i","p un","un o","ca ción","qui er","pres ent","ten er","si s","di o","ador es","to dos","un do","U ni","nu es","mi ll","M ar","mis mo","an o","ue l","ar á","r á","pue de","S an","ad i","v an","un os","du rante","ari a","ti emp","el ec","me jor","L as","est os","cu ent","al mente","im por","s os","j ue","f e","ali dad","v al","d ó","h ec","i l","ci ales","traba j","pu és","z ó","ti en","ci udad","mill ones","ti co","est án","per a","n eces","A n","min is","p úbli","s í","prim er","\" .","la do","may or","g as","so lo","com uni","a m","es o","er n","A r","est ado","seg ui","ve z","s ab","i ón","f al","tu r","ch e","p lan","N a","tiemp o","in s","fu er","es tu","lu gar","in di","presiden te","la b","si do","ac tu","con s","ci ó","ent o","v el","ca mbi","S i","á s","tr es","c ía","fa mili","é r","M i","po dr","en a","po lí","se man","es a","em pres","y ec","v ar","ha ce","g os","mo mento","est ar","or i","in o","D i","cu l","vi r","in for","vi da","bi en","se gu","gen er","p an","t í","tiv os","res pon","di rec","ti r","za ción","as í","j un","di ó","pr en","mu ch","d ías","y o","ar ro","l lo","des pués","el i","tr u","C a","1 0","hab ía","G o","cu al","vi a","f o","ri dad","emb re","es pe","ci n","est as","L e","ñ os","in v","te m","T a","ment os","pas ado","h er","z ado","s ent","ca mp","prim era","t on","S u","tran s","d or",") .","di do","cas o","m on","A demás","es pa","i t","m uni","C u","cu enta",") ,","is ta","v in","mu jer","vi s","en o","comp añ","na cional","mb re","J u","e dad","d ado","D es","men os","de j","pro yec","hor as","tien en","P ero","p es","tan to","la res","ue go","te ma","pro pi","h is","bili dad","202 2","vo l","en cuent","un que","pr in","T o","b ar","P o","si tu","R o","f en","u ro","ta ción","C ar","medi o","a hora","g e","traba jo","h os","h í","L o","00 0","hec ho","V i","equi po","pr i","ter min","t re","er do","per i","d in","mp li","ces o","res ul","M e","pr ó","tor ia","al e","b as","ase gu","Es ta","é xi","ri s","c ran","o tro","n ada","se ñ","an ti","ti vi","b us","cono ci","gu a","to da","ser vi","fu eron","vi si","in f","v es","Es te","emb ar","i on","S o","ab ri","seg ún","P ara","s an","tu vo","parti do","é c","un as","m ado","m undo","mi l","t el","di fer","or gan","3 0","mu cho","ex pli","au tori","qu é","alu d","man era","per mi","g ente","con tin","lle g","m é","h e","ti cas","ari as","d an","g ía","nue vo","en er","ci er","C i","le g","Go bierno","g ru","j os","ser á","embar go","seman a","g ent","ar se","in clu","forma ción","lab or","1 5","G u","inv esti","S in","c ent","con tr","o fi","s ali","i dad","z as","b les","t ad","ó mi","Se g","i e","» ,","mient os","P ro","ci pi","co mi","co l","1 8","emp re","v í","in t","ho y","v as","ver si","e je","P a","pu esta","acu erdo","r os","1 2","jun to","a tro","pa ci","reci bi","ni vel","al go","par e","com en","f es","ci r","po der","v os","v és","re cu","mient ras","ti fi","p el","des arro","teri or","comp le","s al","ay u","a ta","re gi","de ra","par ec","o p","o f","pro ble","ju g","pro gra","n or","nue va","ten i","U n","er ra","des ta","go bierno","pi tal","a pro","pró xi","t ario","tra vés","L i","po li","pu esto","cas i","Na cional","con si","tra ta","a po","se a","c r","Es pa","a de","m or","pu bli","ob je","reg is","a demás","el lo","R u","ten ción","so li","el la","pue den","do min","b ri","ten ido","se ctor","si empre","U na","rec or","d ro","Ta mbién","con su","f í","de be","an un","fi ca","fun cion","ti ó","situ ación","el los","impor tante","ac tivi","fi ci","ten dr","por t","hab er","có mo","es per","segu ridad","ba jo","fin al","b ra","m al","éxi co","Seg ún","a fec","M éxico","l uego","a unque","c to","o tras","v ent","segui r","lle gar","j us","mes es","c el","di da","person a","ti cos","to das","res o","b ol","cas a","er os","lo c","t á","con ómi","P ar","es tra","tiv as","o tra","» .","si a","é l","organ i","e vi","ti do","o cu","e di","con ta","ni co","e t","e z","min u","alg unos","Espa ña","ti po","te c","lo gr","b ado","C as","l ó","li o","un di","prin cip","í n","esta ba","tar on","ri ó","den te","gen cia","un da","reali zar","tem por","qu er","de re","re la","to tal","1 4","s en","por te","mu er","Es tados","s ó","202 1","bi do","le y","ti li","ur os","un es","cas os","c li","ac e","P e","d ores","m ero","1 1","o cur","cu lo","e conómi","cu atro","hi zo","posi ción","r ó","un ta","di eron","Uni dos","5 0","c tu","is mo","n ú","di ri","much os","mi a","parti ci","z ona","ter a","a t","an os","s or","de mos","ue la","en contr","po co","is tas","Es tado","su per","ga ción","pec to","v uel","ti s","v ía","U cran","a vi","n ing","in te","tan tes","espe cial","M in","b lo","en cias","1 7","a fir","i de","au to","Ucran ia","1 6","c entr","R i","so ciales","últi mo","neces i","proyec to","g ado","c ele","man da","autori dades","a mb","m ad","ci miento","famili a","r en","man o","de fen","mo vi","deci r","í o","des a","tan do","undi al","pro vin","ci do","c ti","e fec","ta mente","vi vi","ba j","e uros","man i","fr ente","1 3","parti r","á re","C h","con tro","públi ca","s alud","se ña","t ada","C or","tor io","esta ble","ca us","ni ca","pro fes","ti cia","ten cia","ex pres","di a","Es to","sin o","S er","e ta","v ac","polí tica","V al","quien es","gru po","cion ales","is cal","c l","b al","in formación","f ra","z ada","al can","lle v","de mia","go l","ci l","M u","con se","ex is","de z","u tili","or a","podr ía","pro ceso","F e","de pen","si ones","a gua","ern es","uni dad","po b","progra ma","s á","re uni","ri ca","ch i","ab an","P er","u so","ci endo","re des","f on","his toria","gent ina","A sí","E uro","B ar","com er","M an","P u","l unes","nues tro","B o","dis tin","i can","ha cia","ma ñ","ac to","tor es","país es","Q u","Ru sia","vi ernes","pun tos","man os","M ad","con di","a van","ve hí","si ca","últi mos","s es","con ver","da tos","ador a","cono cer","20 0","cin co","i gu","ter io","c ados","den tro","ce p","minis tra","ch os","mujer es","nues tra","vi sión","com pro","es cri","cu er","ten ía","m í","r ar","a z","ca paci","so cial","u su","an za","di ce","M on","vi sta","per io","g er","con fir","com pr","gener al","e v","cual quier","r era","cu mpli","den cia","cambi o","cent ro","mañ ana","b en","j es","contin u","me tros","por ta","posi ble","minis tro","vi l","Min is","o port","regis tr","c k","ví cti","a ún","v eces","es pera","a pli","con du","cipi o","pa ción","D u","den un","ne go","señ al","g ue","de se","res iden","nú mero","v arios","ex peri","tan cia","a ca","sá bado","empres a","del i","ten emos","j ó","mi sión","á r","di r","so lu","públi co","ha bi","pu er","ra ción","cos as","produ c","re cur","sent ido","F ran","re present","di os","Des de","cer ca","fu era","es tr","dó lares","pan demia","de ber","co ment","bu en","H o","ón i","seg undo","T i","y ó","pon er","domin go","a que","re du","mis ma","as is","m ía","co le","sig ui","Ar gentina","soli ci","ho mbre","tempor ada","ins titu","de o","in e","no che","qu í","M a","cu los","2 4","en fr","vo lu","sis tema","de tal","ca min","u bi","un ca","is la","fa v","en da","A le","lí ne","direc tor","mar tes","empres as","pr ue","pro te","ui r","person al","sig ue","p ti","z an","ofi cial","ci ar","co les","infor mó","difer entes","2 5","f ru","cu la","p ad","tar de","ér coles","a mi","vi eron","on i","servi cio","much as","jue ves","B u","E x","t ales","or den","pe que","J os","ri es","mer cado","mi ércoles","val or","co lo","vi ol","vi o","pun to","p l","res pecto","obje tivo","lan te","o per","mé di","esta mos","quier e","eje mp","in ten","ali zar","ni ños","esti ón","seg unda","f ac","s ue","j ar","al l","in cre","próxi mo","to mar","medi a","pas a","ci ento","ca be","i da","ing res","recu per","mi r","s ac","gran des","b ro","di ci","b ene","al o","in vi","minu tos","jo ven","o pera","la ri","ar án","su r","mos tr","men sa","ca ciones","z os","de fin","su f","in sta","en ero","si endo","des tin","emp le","e du","elec ción","señal ó","ci dad","fin an","g ro","on ces","se x","últi ma","A si","on al","ac ciones","C hi","s titu","as es","go ber","Co mo","g in","t éc","s ar","2 2","pob lación","pas o","Minis terio","F ern","j as","e a","H a","v enta","z on","má xi","Ju an","ú s","ri d","parec e","y e","de bido","en fer","C an","N i","n unca","ac er","pres enta","lar go","4 0","ter ri","ment al","Po li","su b","L u","M o","ver sión","igu al","t bol","Asi mismo","cu ar","H ay","á c","mp le","pu es","comp e","jue go","encuent ro","proble mas","a compañ","a tención","lo gía","du s","parti dos","fal ta","vol ver","ex i","emp e","te x","cu lar","pre cios","re lación","ex tra","mb res","pre cio","pes os","er r","car on","os a","os o","se cre","servi cios","deci sión","c lar","mayor ía","H u","O r","rec ha","tri bu","cur so","se is","ri do","ab le","l los","an to","al to","gu erra","uni o","fr on","só lo","er an","ent onces","án dez","S a","c ali","ctu bre","z ando","re fer","D o","r us","pre g","fec ha","inclu so","apo yo","gober n","á mar","es cen","nue vos","versi dad","M or","el o","profes ion","J o","or din","car go","gi o","ca pital","t é","que da","lleg ó","j unio","in ci","au ment","regi ón","mani f","Jos é","d é","ti dad","fun da","can dida","g ada","alg unas","vis to","din ero","of re","tin a","pon e","lle va","ejemp lo","an i","fi co","20 20","clu b","Mad rid","fav or","o ctubre","es cu","pr on","bu ena","Y o","lo cal","pti embre","a mpli","ui s","a mbi","car rera","ve ci","reg ó","al ta","ch ar","medi das","tu ro","espa cio","g or","v arias","mar zo","dici embre","C O","el las","cia ción","pre ci","te mas","int ent","g ó","do cu","tar á","ser ie","cal le","asegu ró","es tru","li ber","ter o","en ci","investi gación","ca te","2 1","se ptiembre","sig ni","s as","inter es","imp u","es pec","con fi","men a","indi có","desarro llo","gu ar","ob li","Ci udad","provin cia","h emos","no vi","a miento","k i","u al","vi d","ha ya","tendr á","r ado","so ci","encuent ra","tec no","di ente","In ter","pla ta","cons tru","Poli cía","ó r","de cla","ta ciones","lle var","capaci dad","R a","m ada","evi tar","ar es","dos e","medi os","cono mía","activi dad","cuer po","6 0","i ones","tur al","P la","T ras","es ca","eje cu","es os","an terior","En tre","Cu ando","t ele","al cal","medi da","muni cip","novi embre","de por","1 00","G ar","M undial","de dor","reali dad","g ui","l or","as o","ec h","par ta","mi ci","tar ía","fal le","estu di","ent ro","ca bo","ag os","produ cción","comuni dad","conse cu","bi ó","rá pi","uni den","qu es","la ciones","que dar","li sta","tras la","líne a","a tra","f le","gi ca","mar ca","ven ción","me xi","comuni cado","activi dades","a ciones","ob ra","ju lio","camp añ","es c","vi ene","a pun","expli có","ries go","A hora","c alidad","l en","gu s","pren sa","oport unidad","F u","de termin","G ener","re z","me j","proble ma","agos to","v ari","di fí","consi der","ci eron","lan do","nos otros","202 3","N ue","t ali","Mar tí","estado uniden","Euro pa","G ran","p al","di cho","ju gar","T u","c ando","ú tbol","pe z","N e","P i","g reso","m ú","w it","co mb","mi emb","per man","dis fru","condi ciones","a i","i ma","tr ás","ter r","ac ción","pu so","Car los","resul tado","gen era","t án","tr ia","di ver","fu turo","L uis","a bier","di endo","vi deo","cor respon","br ero","pon i","ctor ia","espe ci","muer te","2 3","r ía","en se","tr á","pas ar","S ec","V I","jor nada","produc tos","A y","F in","ñ as","pa lab","iden tifi","mexi can","re conoci","u ra","in dus","mp e","may o","abri l","p p","pi e","ser ía","i g","ent os","B an","c ru","l er","p ción","ent en","adi e","F ue","g ri","L ó","z ados","h on","de clar","ca p","no mbre","nue vas","a gra","pue blo","ag regó","toda vía","contro l","equi pos","V ene","u cran","li s","res pe","au mento","parti cip","ayu da","princip al","S alud","ad io","g el","su ce","bus ca","Q ui","T e","d ra","t adas","cu i","lo go","man tener","cla ro","amb os","Ló pez","f á","t s","pro vo","uni dades","ju di","mili tar","am or","ucran i","fe brero","trabaj ar","pes ar","pre ocu","trabaj adores","actu al","cier to","l in","ent i","camp e","f iscal","mer ican","cri sis","nues tros","seman as","na cionales","dere cho","man do","la ment","con ven","vi ó","viol encia","c tura","tu ras","so l","diri gi","2 7","b or","en cu","ci s","cele br","e te","r on","al re","di pu","cion ar","Du rante","enfr ent","enfer me","T or","er as","éc tri","Qu é","mej ores","ra z","Se gu","tri b","pare ja","recur sos","mar on","ven es","ini cio","neces ario","re al","tr im","car a","der al","dej ar","D ía","T wit","c le","in os","f li","t aria","tex to","r é","de ben","en os","la da","re gu","mp i","va mos","ini cia","usu arios","ci ado","elec ciones","compañ ía","sali r","ma teri","ri o","resul tados","v ado","re d","est re","hec hos","ener gía","2 8","C ab","i or","con vo","res to","gra cias","camin o","M uni","gi co","dere chos","soci edad","a ten","en car","fi cación","zar on","cor por","co labor","hab ían","afir mó","con junto","ca u","inf lación","experi encia","men or","may ores","e jer","mp o","imp ul","Twit ter","C entro","res puesta","gu en","vir us","a quí","z uela","mo c","po pu","ayu dar","má n","fuer te","partici par","ti sta","famili as","perio dis","ev ento","si to","ha ciendo","primer os","p ó","áre a","jó venes","Y a","g re","j an","p á","os i","pro ce","pel í","campañ a","difí cil","es as","el im","di c","dis pu","mensa je","A unque","20 19","prim ero","muni cipio","ning ún","e mi","pr ác","ri co","ba ja","inter nacional","San ta","ámar a","T ra","cu anto","den tes","gar anti","ne o","gran tes","respon sab","2 6","bi r","jug adores","alre dedor","C ris","est ará","loc ales","vehí culos","bene fi","f ran","ú a","er ía","ci na","ta g","el éctri","pres encia","hu bo","a hí","t ón","hi jos","estu vo","consu l","ú nico","ad ministra","ch as","poli cía","cr í","br in","A u","in cl","mad re","i z","n er","n adie","pro ba","mu cha","ho mbres","hab lar","comi en","económi ca","an im","re por","ec e","pa z","vo z","gi a","ob s","signi fica","e mo","re a","ac ci","tiva mente","er te","del o","cion ado","Co lo","últi mas","desta có","Vene zuela","% .","A N","B a","P residen","er to","P ri","pue da","gan ar","plan te","e uro","l las","tr adi","ob ser","Fern ández","x im","con cre","ca í","che z","fo to","e b","ci li","pro ces","pre par","partici pación","expres ó","Sec re","i dos","on ia","mo mentos","ay er","Gener al","8 0","ca mi","pro puesta","ba te","fi l","ali zación","hi jo","alg ún","propi o","anun ció","necesi ta","ci to","que dó","ac ceso","f útbol","á l","di entes","va ción","Mar ía","reuni ón","P re","mo delo","ter cer","tar je","ser án","pre mi","ob ras","alg una","cipi os","zon as","P úbli","c era","pa gar","lu z","lí der","adi ó","in as","ent ras","con clu","pla zo","Des pués","consi dera","vícti mas","b ase","si ete","pu do","infor me","d í","g estión","ti o","Con se","di miento","est ó","Mi entras","comen zó","F iscal","dis par","2 9","S án","f an","t h","mi so","vehí culo","preg un","veci nos","Sán chez","Q ue","d ando","po demos","ab o","za ciones","can tidad","jer os","o fer","P S","n ar","cre cimiento","entr en","jug ador","N or","R es","p lo","ar ma","cons titu","a go","z adas","pro mo","apo y","vac una","mpo co","J us","ar gent","para ción","rec la","caus a","Con greso","ctor es","teri ores","cambi os","camp o","his tó","permi te","ata que","d ón","tu al","cono ce","cele bra","mí ni","a mena","e conomía","m undial","ú nica","cu esti","pu l","mu estra","je fe","dis poni","gen es","proyec tos","mú sica","N os","e mer","ui do","má tica","ada mente","7 0","d ue","g res","ru z","parta mento","tu d","ente mente","Re pública","Li ga","E du","cu bri","vi ctoria","recibi r","ide a","ace p","E so","re fle","pu estas","presiden ta","respon sa","R os","es fuer","Uni versidad","il ó","Ho y","b lan","k o","on o","si co","mbi a","posi bilidad","estu dio","encontr ar","L uego","c ciones","ha cen","cer can","A mé","p eli","con tar","tu vieron","In stitu","vi ce","for mas","inter és","vícti ma","5 00","J a","c án","k iló","ex ten","cabe za","de ro","in cen","cu ales","ten ga","gra ve","quier en","al er","di gi","polí tico","compro miso","di fi","mo do","mas i","sab er","tí tu","a mos","de di","cion ados","ran do","esta ban","ru so","ele gi","apro v","princip ales","pad re","elim in","9 0","n as","un al","mejor ar","gol pe","B i","pres ente","espa ño","bus car","gue z","man a","hab rá","pue dan","a par","l lu","s ado","re o","pu estos","trabaj ando","Conse jo","A s","j ui","o cas","s é","gru pos","e o","ten go","qui era","cul tura","miemb ros","Colo mbia","al la","pres u","fuer za","tis tas","defen sa","g ados","des car","ment ación","tar se","estru ctura","de moc","mi ca","ra ciones","cal les","tem pera","expli ca","V er","a gu","z á","con t","posi tivo","pen as","recibi ó","estra te","f eli","ris mo","ning una","% ,","F or","J or","S al","y endo","res ta","ciudad anos","ar te","comp li","organi zación","T ri","o cho","es co","su fici","si va","mar co","gra f","ade lante","g al","co me","dej ó","a fi","vi vir","pro tag","ex per","sa ción","polí ticas","nor te","ar ía","con fli","den a","na ción","Man uel","A d","a pren","ñ ol","un to","cu ad","su ma","so la","3 5","g é","imp acto","encuent ran","To dos","inte gr","C ó","I I","c un","á li","li bre","ri r","tu s","medi ante","Co misión","propi a","defin i","p in","tr ó","vir tió","vuel ta","de manda","pa pel","pe a","impor tantes","A i","P P","lle ga","logr ar","re i","est é","der ro","hab ría","desarro l","F i","en vi","gi os","au di","fer encia","reg res","podr án","col or","constru cción","palab ras","al ter","to ma","dad os","fin ales","estadouniden se","tarje ta","e la","m ados","per fec","pres ión","qui si","prue ba","Segu ridad","b á","v ene","ha bili","lar on","ima gen","3 1","ma g","ec er","comuni cación","leg isla","terri torio","b ó","c adas","ent idad","hab la","ís tica","neces idad","seña la","all á","liber tad","E E","fue go","am ari","cate gor","g lo","gen cias","jus ticia","Pe dro","cole c","gobern ador","plata forma","S on","g entes","l é","m ue","ci dos","an as","si on","elec tor","asegu ra","Ch ina","ami gos","Muni cip","el l","ag res","in versión","re co","lu cha","Co pa","unta miento","manda tario","oper ación","h as","tin o","tri un","mer os","To do","enferme dad","en de","máxi mo","fá cil","M ás","e go","k e","gran de","espa ñol","é di","car ac","Co muni","Le y","visi ta","alcal de","kiló metros","G on","gu ay","dis cu","inter ior","Gar cía","P ue","Á n","tal la","fuer zas","prue bas","iz quier","a tar","o c","v esti","ui en","fi gu","sa lari","entre ga","ís ticas","reali zó","alg uien","cumpli r","vene zo","E je","t ér","ab or","hi cieron","leg al","má tico","Di rec","Vi lla","Institu to","i ba","as i","titu lar","Esta mos","económi co","especial mente","blo que","I s","la dos","mi tad","le z","ex tre","cla si","distin tos","téc nico","secre tario","VI D","obs tante","Fiscal ía","A M","m adas","s elección","w eb","in depen","éxi to","edi ción","al lí","se de","hi ja","I N","p ac","es tro","un tos","mb o","esto y","4 5","D el","ali dades","ele mentos","Mi g","ori gin","proba ble","as u","sus pen","ele v","consu mo","es pos","ar tí","mar cha","ga ciones","podr á","movi li","escen ario","C ha","H asta","a ba","in corpor","famili ares","Bu enos","Eje cu","ar ri","ta mpoco","li ca","ma ter","má genes","ho gar","bo mb","cla ve","Ro dr","sali da","jui cio","u da","í guez","indi ca","logr ó","ocur rió","Rodr íguez","c ente","ar mas","ci fra","su peri","me z","ac or","añ adió","men ores","present ó","tivi dad","di á","li mi","ac ce","pi so","pas ó","hacer lo","impor tancia","sab e","hos pital","llev ó","B ras","a por","r eno","tri z","via je","conoci do","municip al","ejer ci","prác tica","Ai res","Mig uel","C os","f ras","re presenta","con vi","par tes","pa go","entre vista","fa cili","Al ber","B e","c ro","p ele","con te","po ten","ol ó","cons tr","lleg ada","profesion al","tecno logía","Amé rica","si mi","cion ó","man e","du da","ven ida","trabaj os","san it","nivel es","sigui ente","Secre taría","C ruz","t ía","dos is","hos pi","inf ra","óni ca","acci dente","o casi","me mor","ver dad","for mar","segu ro","investi g","edu cación","responsa bilidad","c entes","ter cera","imp le","Ci vil","y en","con ec","co ordin","pi dió","tori as","cambi ar","pri v","tendr án","Chi le","CO VID","Nue va","a trás","p le","r al","qu in","cre o","lla mado","Re al","actu almente","coment ó","disfru tar","Án gel","A ra","fu entes","ven ir","aban don","distin tas","aprov ech","ocasi ones","U U","b ras","c ales","án do","produ cto","exis te","Fran cis","indus tria","Jus ticia","V o","g én","i lu","r ue","de ja","ci ta","tor neo","na tur","edi fi","centr al","pelí cula","c ari","i mágenes","re mos","se an","se cu","per der","ri que","ment ar","ali zado","mes a","espa cios","loc alidad","Presiden te","ti eron","con seguir","mi te","ri eron","comen zar","Pu tin","inicia tiva","p ér","redu cir","rápi da","Ay untamiento","C ámara","N u","su bra","si guen","ra mient","com parti","acu mu","her ramient","paci entes","pad res","edu ca","ofre ce","en das","man tiene","pla za","institu ciones","Bras il","A t","S A","j eron","mo tivo","fi car","pas ada","ll er","contra to","An ton","trans porte","op ción","teni dos","vivi enda","prote cción","de tec","ta ble","mu lti","cre ar","lugar es","podr ían","cep ción","Ejecu tivo","P en","p is","con ce","mu es","cri min","recu er","ofre cer","C la","D is","a merican","a penas","t t","in ver","per ten","tor no","20 18","lan za","alcan zar","H ab","n to","re fi","re tir","do mici","parec er","funcion arios","Bar cel","detal les","manif estó","Cab e","3 4","P ab","sos tuvo","difer encia","H os","ent í","ali zó","hu manos","An te","eta pa","decla raciones","tér min","d al","j ero","tes ti","ag re","ag entes","Uni ón","sector es","centr os","t arios","re comen","ent or","su bi","pre ten","ade lan","Ser vi","incre mento","Có mo","C E","b ús","k a","n ó","v ul","de res","la ter","si tio","po ca","for tal","gr ados","’ ,","vi du","res pec","án dose","ver ano","gra m","De fen","bas tante","Francis co","A li","j ér","al ma","vi as","can tante","próxi ma","Cas ti","sor pren","compr a","Fin almente","C ol","R am","pro por","man ia","reali zado","entr ada","nues tras","An dr","vol un","denun cia","profesion ales","Barcel ona","F a","U no","e do","e vent","g im","ad u","ta ba","ta mos","Con stitu","Cas a","ofer ta","r ada","v ue","con texto","do lor","so mos","cos a","sa ciones","vel o","ingres os","P R","R ob","p s","t bo","ar tista","con tó","indi vidu","ade cu","Do min","raz ón","3 6","H i","M ari","b el","i va","m era","an ía","mi les","si r","ali mentos","us ti","bili dades","polí ticos","So cial","próxi mos","conta cto","perio do","deli to","confli cto","C ul","C entr","in sis","vi les","le van","pro t","res er","deci dió","tel é","ev alu","volu ción","confi anza","Jor ge","M ac","ar lo","ci da","ad ul","mu l","pi de","gen i","inter vención","mó vil","An d","confir mó","M er","Q atar","po cos","ex tran","alu m","San ti","tiemp os","jue z","Inter nacional","Martí n","periodis ta","telé fon","a co","i das","en or","di dos","di ario","no ticia","us te","sos pec","cli entes","conver tir","estudi antes","responsab le","administra ción","argent ino","títu lo","Pab lo","jér cito","T he","o k","en s","si mple","pe dir","sos teni","gener ar","recor dar","nego cio","ocas ión","b es","t ente","re almente","no min","bar rio","Fran cia","B iden","O br","bi o","pro fun","Es tos","ab les","cor rec","fun ción","tori os","op ini","Gon zá","T ran","m ec","ar do","ent al","con ser","di ez","qui én","car se","parti cular","inter nacionales","direc ción","demos tr","compe ti","a us","f as","o posición","su je","tu i","com ún","ador as","ne ga","19 9","primer as","ai re","G a","ter ía","pe dido","gan ó","deber ía","aque llos","médi co","enci ma","Ban co","Gonzá lez","r adi","car re","tas a","dr á","Co vid","Al g","Gu ar","puer to","estrate gia","gén ero","C al","p ese","te o","ma ción","est ados","car ga","ob tener","institu ción","comb usti","H er","p eso","’ .","est adio","fu tbo","enfr enta","E m","T en","u ales","ab solu","lla ma","pen sar","Per ú","emer gencia","mater ia","diá logo","F A","G ra","de lan","en en","di se","di go","mo to","res ol","ex clu","au gu","tran qui","vol vió","versi ones","trá fico","amari lla","con for","co vid","no ve","ada p","mon e","pri sión","cier re","7 5","a hor","b ur","en con","ar d","in media","ten gan","ali za","dis posición","ru pción","Re y","hu man","prin cipio","termin ó","desarro lla","teni endo","máxi ma","B en","D er","c é","s uel","en cial","in forma","re ve","cer o","emp a","ne t","pri ori","continu ar","Ale mania","destin o","finan ci","euro pe","U S","j ur","o tor","de os","mo der","ac tor","cono ció","jue gos","Ale jan","ambi ente","Alber to","H ern","S ur","f ase","s elec","nue ve","comple to","compro me","V e","er e","ti ro","ti rá","traba ja","Re gi","fir ma","ener gé","quer ía","áre as","insta laciones","Hos pital","Obr ador","b é","ins cri","sali ó","pel o","rela ciones","peque ño","médi cos","F er","f abri","con den","di ca","di das","fi esta","na tural","dera ción","caí da","Andr és","B er","O N","P ol","ar gu","ad mi","vi ve","vo tos","inter pre","ne z","ona to","Pro vin","Pa la","movi miento","esfuer zo","categor ía","3 3","S en","r í","t entes","ci ne","tan cias","pe or","mar có","fe deral","consu mi","declar ó","l on","r án","t ari","v era","ti erra","lo g","ment a","pro medio","mis mos","In sta","gr á","labor al","az ón","encon traba","ci u","da ños","gu sta","ho tel","ini ci","lleg ado","sac ar","Martí nez","genera ción","M as","a gen","g esti","or o","ca pi","des cubri","posi tivos","bu eno","públi cos","inf lu","ofi ciales","Anton io","c ador","j ado","de recha","re forma","co la","ado les","us ar","Le ón","san ciones","escri bió","recuper ación","J es","T er","ci entí","ti l","ten ían","Es tas","cla ra","segui do","esper an","áre z","funda mental","garanti zar","e labor","do ble","si cos","le o","tra tar","acer ca","agra deci","desarrol lar","A pp","c lo","de tenido","ci encia","re ac","ti endo","ra cia","po día","gi ó","pas e","pue des","cor ona","19 8","áli sis","Municip al","superi or","Santi ago","3 8","c és","f is","en sa","ch es","Co m","em pren","inclu ye","terior mente","Pu erto","colo mbi","Nor te","c tos","ci ente","ue las","in fec","re y","ti cias","di cen","difer ente","nor ma","Fe deral","elector al","ciu dades","a ero","a jus","de bate","su mar","vo y","esta tal","reali za","ori gen","refer encia","tele visión","C er","b os","c enta","i ra","in cu","in augu","fin almente","ís tico","dar á","dar on","imp ac","fun ciones","actu alidad","jun tos","cin as","judi cial","campe ón","dón de","Centr al","B lan","G er","M os","c ú","g ina","u li","or k","ni cos","So bre","contin úa","utili zar","puer ta","bene fici","cui dado","6 5","H e","S us","f ri","v ali","en fo","cu estión","su puesto","li bro","per tura","ter as","res is","pi lo","ol ina","present ación","solu ción","candida to","pron to","sufici ente","triun fo","Insta gram","A R","m ari","ci mientos","di ag","me tro","pe ti","compañ eros","empe zó","mexican o","benefi cios","protag on","exper tos","O T","e as","p si","ad á","ri os","ver s","ru ta","ol vi","dar le","ur ban","pen al","imp osi","hu bi","ins tru","apro xim","ican a","condu ctor","deli tos","Edu cación","Defen sa","P é","h in","que z","co ti","tor a","ni ño","esta ción","deci siones","estu dios","exis ten","graf ía","entor no","4 8","C ali","as pi","con tenido","dad a","ali zada","famili ar","funcion ario","mostr ó","3 00","E le","de ri","re for","con sis","mi grantes","est an","dis curso","ru mp","ru guay","entr ar","ie za","recor dó","fí sica","afir ma","fon dos","' ,","C lu","G ru","c ías","d ri","ro bo","cre ación","fa mos","sent ir","int eli","compr ar","apli cación","sex ual","A so","D a","on io","le jos","gra ción","esti val","públi cas","contr ario","Par tido","ses ión","aten der","Cris tina","incl ui","digi tal","difi cul","Pé rez","E S","F I","as ión","con tribu","te cción","to mó","pi er","mer cados","ban da","comuni dades","plan es","Di os","dej ado","conoci miento","recibi do","nor m","quer emos","venta ja","trim onio","colabor ación","resta u","de man","ri t","ni a","qui ero","com ba","com pren","gar on","teni miento","mad ru","popu lar","izquier da","ejerci cio","P C","T ene","v ador","al tura","su pone","cion a","sa mente","ini ció","of reci","esper ar","jus to","Día z","vacuna ción","acce der","4 00","u m","des cri","go les","com par","present ar","abri r","organ ismo","op ciones","sor pres","habi tantes","ases in","cuar to","espec í","dipu tado","Tene mos","U E","p to","de masi","ar ran","per dió","fin es","comp u","tri to","cor azón","fon do","indus tri","tón o","presu puesto","3 2","A mb","b la","as h","vi ven","pro me","ba ción","ni e","lu ción","gra tui","Des arro","obje tivos","ocur rido","amb as","fron tera","rus os","decla ración","w s","z ca","on e","mi co","du ra","ver da","tori al","tur no","Di ego","muni cipios","éc adas","organi zaciones","desa pare","efec tos","director a","opera ciones","compe tencia","enten der","alter na","espos a","madru gada","P lan","U r","d écadas","j al","r ados","se mi","pu di","reci ente","permi tir","regi onal","municip ales","respe to","domici lio","I g","g adas","r y","co inci","cu mp","le a","desta ca","trata miento","inte grantes","efec to","vivi endas","opera tivo","llu vias","carac ter","Cos ta","bús queda","de cre","de trás","ad qui","cu las","li br","En ton","ho mici","hi bi","ing reso","val ores","Euro pea","comer cial","oport unidades","entren ador","opini ón","Clu b","Enton ces","b los","c las","u d","mi edo","cre e","vis tas","velo cidad","c ár","h ará","o la","in tención","fi cos","Por que","tran si","cali fi","escu ch","convo ca","proces os","Tri b","Der ec","B el","C ada","O E","R ec","i le","ta des","cu mple","is te","má ticas","cor rupción","fuer tes","minu to","Val encia","líne as","esc uela","lis tas","teléfon o","corona virus","F l","f é","r er","la no","mo de","per ío","so y","ac lar","ac tivos","pue do","cen so","cuent as","col ó","porta voz","consecu encia","disponi ble","artí culo","mues tran","Desarro llo","M I","R ío","e dades","h ue","da mos","mu si","can te","pen a","peque ños","rápi do","dise ño","D on","F o","M ay","á mbi","é poca","di señ","én dose","comi sión","poli cial","militar es","constr uir","Gru po","C I","H ace","g ón","i as","i ción","t y","de uda","an álisis","im pres","pon en","lí deres","cor d","De por","prin cipios","diver sos","E se","t ú","v ino","z go","al co","ac triz","cia ciones","cer e","lan d","hu a","sí nto","segui dores","ata ques","llegar on","necesi dades","represent antes","emple o","preg unta","tali a","cuesti on","peli gro","tempera tura","sínto mas","C reo","P os","P as","d ario","de porte","la mento","con ferencia","cu lación","li mp","cion ada","is mos","res pal","cos to","emp la","sig lo","Ca mp","mon i","cr édi","deber á","ubi cado","emple ados","glo bal","gim en","Alejan dro","C e","F C","er no","in volu","ti da","di jeron","era ción","qu ina","imp li","present ado","plan ta","autori dad","comi da","realizar á","docu mento","abier to","Aso ciación","f lu","l á","er s","tr en","ca dena","por centa","mu rió","tien es","Cu ba","progra mas","Pla ta","españo la","edifi cio","event os","enor me","Tran s","Guar dia","delan tero","4 4","an al","bi a","res al","cri ti","ir ch","ciudad anía","Di pu","princip almente","inten si","Fern ando","materi al","recuer da","Hern ández","J avi","M es","Y ork","a pre","en contra","con cep","des can","tra yec","go bier","20 17","gi cos","ton o","cl á","aque l","celebra ción","míni mo","clas es","3 7","N A","de partamento","ar tistas","ci fras","an ual","di fun","bi s","po dido","tan a","medi ata","cor to","esti lo","cri men","publi cado","avan ce","puer tas","terr or","particip antes","democ racia","resol ver","C A","E R","S il","a pare","í si","mi o","vi mos","vi enen","ment ales","pro puestas","sa tis","am on","sab emos","So lo","regi ones","total mente","sen ci","Cor te","Or gan","sola mente","figu ra","D avi","j i","p les","me ta","ten dencia","ali ment","Es a","estar án","inv asión","sent i","trans mi","anun ci","comer ci","empe zar","ampli a","Direc ción","Trib unal","irch ner","D ani","l var","or gu","tr án","ri endo","gi cas","tí n","propi os","sue lo","5 5","B or","J e","P res","s ho","ar o","in su","di cha","co che","tu rismo","añ ad","car gos","com partir","dar se","dese mpe","sigui ó","ami go","diver sas","anim ales","pér dida","perío do","B ol","vi endo","da ción","ex pec","uni versi","vel ó","direc tamente","dor a","cir cun","publi có","asis tencia","detal ló","suf rió","tecno ló","consecu encias","reconoci miento","aproxim adamente","A z","d y","m últi","í z","es ión","un dos","do l","cu yo","no ticias","res tri","ni cas","car á","dis tribu","De partamento","pun tu","cuent an","reso lución","espec tá","blan co","conte mp","Jes ús","G al","O s","Á lvar","re vis","ba mos","ver de","hab ló","In clu","acu er","pan talla","cier tos","ren un","provin cial","solu ciones","conclu yó","Casti llo","A ctu","C ór","N ación","c ra","s alu","y os","an teriores","vi e","est ad","Es tá","au tor","Co mi","cur sos","publi cación","seña lado","ases ina","raz ones","ré cord","pó sito","xim as","tró leo","Alg unos","OT AN","3 9","B A","l és","r in","r eras","cu bier","su erte","mo l","ma la","ch il","pre via","dis tancia","men es","cal or","Uni do","her idos","situ aciones","comple tamente","bri tá","sue ño","interes es","impu estos","Ra fa","estadouniden ses","responsab les","agen da","H on","M ag","P au","g ando","r ente","en can","ar e","ar t","ta ma","no ta","ac el","men su","cial mente","lla mada","reg reso","titu d","hu mano","infor mado","termin ar","Fe deración","prote ger","terr eno","ucrani ano","ré gimen","tradi cional","simi lar","Davi d","D E","M al","s tico","y as","ci clo","re fu","mi tes","des pe","les iones","can ce","lan cia","Re ino","reci entemente","actu ar","avan zar","audi encia","a gencia","h n","l y","v ó","ñ ez","de nomin","er es","par o","li b","est én","for t","pre v","pas os","nu cle","diri gente","recuper ar","Cór do","e fici","t ti","can o","pre visto","sis temas","cul pa","propi edad","tendr ía","comer cio","registr ó","óni co","obli ga","Fu er","comb in","A us","a ti","c encia","á les","la das","an d","re to","con virtió","ta vo","del incu","ri val","den cias","du ras","us a","actu ación","cul tural","ris tas","ocu p","vuel ve","Mor ena","adul tos","carre tera","Pala cio","Javi er","4 6","O tro","S S","de cen","in mediata","si vo","ha cía","per s","ac ces","res i","cer rar","dis minu","pen sa","gr ado","fr en","acu sado","recor rido","vuel to","estable cer","nego cios","preocu pación","benefi cio","g ü","i zación","in no","di vi","vi su","po l","min a","gi do","pue blos","iden tidad","cla se","elec tr","segu ra","ale za","col ás","esc uelas","trim estre","incen dio","A ma","F eli","M A","T ele","c ón","y eron","os os","ti pos","con soli","li dad","per dido","res ca","ver so","pe tróleo","qu ía","19 7","produ jo","cons tante","her mano","logr ado","ren dimiento","caus as","Ni colás","Nue vo","premi o","peli gr","derro ta","futbo lista","k m","ti lla","ha ga","pi a","cer tifi","gan a","neces aria","poli cías","Ser gio","mensa jes","herramient as","lanza miento","8 5","r eli","r ío","de bajo","li dera","is tema","posi bles","ini ciar","hacer se","Gu a","buen as","pl eno","rus a","Jo hn","aument ar","escu char","Públi ca","Servi cio","Constitu ción","expec ta","F on","e piso","g h","y an","ti dos","tar eas","pi el","min i","for nia","ru p","entre gar","bo le","gr ía","ofi cina","anun ciado","ocur re","coment arios","abo gado","feli z","Cali fornia","porcenta je","4 2","A na","o fen","ci das","ci cle","re porte","vi gi","so me","so cios","po cas","po bre","ac h","ac re","ba la","cas as","ing ton","pec tos","dó lar","afec tados","llev ado","cuer pos","registr ado","pl ena","téc nica","rus as","ámar as","trasla dado","inmedia to","demasi ado","cár cel","G ó","L or","c uela","d ían","s ando","ar re","re fuer","re quiere","re empla","ca yó","vi vo","ment ó","ter os","ni ñas","lan os","fu ente","hay an","An tes","anti l","regis tro","condi ción","pron un","enti dades","regu lar","fran cés","cán cer","alum nos","circun s","E conomía","con cent","di co","di plo","te or","cu lares","vi lla","pa tr","ran tes","les ion","mis mas","cuent o","anun cio","tis mo","vac un","az ul","estr ella","palab ra","Actu almente","Córdo ba","A b","G i","G ui","G ali","J ue","a pertura","se o","par que","no mb","ri cos","ac os","ex terior","ex plo","20 16","Se ñ","produ ctor","fo tos","her idas","conoci da","investi gaciones","desta car","super ar","registr aron","habi tual","escen a","dé cada","tempera turas","rit mo","acuer dos","Gó mez","F unda","t alidad","en cabe","ad virtió","go za","ab as","sus titu","gas to","Po der","vent as","Sa la","infra estructura","investig adores","hubi era","/ /","G ob","I talia","i d","l ine","r ele","s el","as pectos","su bir","vi dad","pro to","ro pa","du das","rec en","qu en","segui rá","Na var","Si empre","Pro tección","debe mos","encontr ó","baj ar","peque ña","apun tó","pá gina","aler ta","rei ter","combusti ble","ámbi to","' .","9 9","p í","en señ","re as","cu án","ho l","cre a","mejor a","consi de","cli ma","necesi tan","desa fí","conver tido","mostr ar","crí ticas","amon estado","múlti ples","a é","b ara","c ámaras","h alla","p ista","ar ti","al za","ad ver","re veló","ca er","ec en","ec ha","ba i","ex p","pi ra","va ya","va caciones","ver i","can al","tal ler","ll en","ing lés","em baj","fe men","mon ta","ie v","Pa z","jus tifi","conta gios","baj as","refle xi","caracter ísticas","Mes si","G us","W il","í os","la na","on ar","ci vil","an u","ac tiva","Es tu","com porta","inter na","cor ri","posi ciones","produ ce","asegu rado","esper anza","afec ta","Esto y","redu cción","médi ca","apoy ar","histó rica","elimin ar","vul n","profun di",": //","P A","T al","U ruguay","W ash","a pos","f f","f recu","h ar","h tt","n adas","an cia","ta t","tr ado","ac tos","pres entes","esti ma","Ca mpe","expli cado","cuar ta","cuesti ones","elegi r","sospec hos","convoca toria","gobier nos",". ,","D os","P I","a mis","c tivo","g ni","en so","se par","tr al","má ticos","ro l","ch u","ex pan","20 15","20 14","com paración","lar ga","pos e","ho mena","tur ales","Ca tal","san gre","nor mal","cel u","quer ido","candida tos","intent ar","depor tivo","práctica mente","términ os","vers ario","trán sito","Wash ington","6 00","K iev","P ana","S ab","T rump","c ámara","n ado","t ent","de bu","de cía","ci elo","al tas","as pecto","in geni","tr ali","do ctor","lo gra","per ci","ma te","ment ado","tar án","min ación","lle van","ne gro","nu meros","via jar","resul ta","ctu ras","defen der","Mu jer","usu ario","represent ante","fac tores","invi erno","apun ta","pelí culas","Públi co","histó rico","Comuni dad","simple mente","Mos cú","C re","F rente","J al","a pa","ar chi","cu ador","li do","tra to","vo to","gi r","via jes","nueva mente","vac unas","sue le","ór gan","Tu rismo","abier ta","comien zo","amena za","llu via","democ rá","B C","G abri","d ina","de tención","ti on","ca paz","pro gres","po lé","du l","les ia","én do","reci én","Ju lio","pri vado","permi tirá","movi mientos","solici tud","err or","miemb ro","periodis tas","natur aleza","mode los","S E","T ur","b on","c lí","de b","de lante","en ca","re par","te ca","cu ál","ac ti","pu dieron","Es cuela","cas ti","car ta","lan zó","hor ario","comp on","ne u","cor te","202 4","bien es","direc to","pró ximas","apro bación","Li ber","funcion amiento","realizar on","Val le","quedar on","hon or","eléctri ca","disponi bles","refi rió","D I","P ese","T V","a venida","h al","ci entes","an alizar","ad é","cu o","su i","mo tivos","ra el","Uni dad","anti gu","desta cado","obje to","soli d","depen dencia","Mad uro","pasa jeros","PS OE","convertir se","involu cr","A c","I gu","o jos","co br","ca b","mo tor","po tencia","is co","esta ciones","En rique","seg undos","gra ves","ori ent","Su pre","trans misión","bus can","15 0","nú meros","defin ir","clasi ficación","Cul tura","pilo to","Funda ción","4 9","B ri","M undo","T E","Z ara","a pe","b y","t adores","in versiones","ent er","pu si","pu lar","us k","can cha","bo ok","presiden cial","jun ta","it ali","int ento","Pe tro","avi ón","manda to","Ti erra","Ale x","aso ciación","consider ó","materi ales","Gra cias","Sen ado","Inclu so","C N","a lar","o d","ent as","con cl","co mis","par lament","da ñ","tra mo","tar ea","car ác","fu sión","sa la","tal ento","Con su","ju bi","pla ni","minis tros","plan eta","infor maron","respon dió","fen ó","abri ó","muer tes","económi cos","profes or","recur so","fav ori","Pla za","amena zas","vice presidenta","vuln era","htt ps","homena je","carác ter","A g","h en","on eta","li a","da to","pro ve","man tenimiento","qui s","can ción","pas ando","cono cen","elec tri","estu vieron","leg ales","ide as","Ri car","buen os","extra ordin","popu lares","concre to","discu sión","rápida mente","imposi ble","espectá culo","pers pec","4 1","4 7","S elección","X X","de tenidos","al qui","ex posición","men cionó","fec has","In g","cumpli miento","docu mentos","enfrent ar","enferme dades","Ángel es","Rafa el","Gali cia","6 6","E cuador","b ono","f l","su ministro","cion adas","esta bilidad","tan tos","lu ch","der á","fa ti","cor re","direc ta","parec en","Ri ca","residen tes","4 3","I sab","N et","g le","í do","ar r","on ales","le gio","ía mos","ac tiv","La tina","gar an","gra ma","ís ticos","Co mer","posi bilidades","entr os","tien da","señ or","visi tantes","encontr aron","indepen diente","asu mi","poten cial","bras ile","rue da","prev é","6 8","A gencia","b oni","s k","s ores","ú l","os as","mi cro","si quiera","ado p","ma má","is a","fi el","car reras","au tóno","gan te","Su per","Ju árez","estra té","ley es","denun ci","preci só","Tra bajo","esfuer zos","jur í","Dani el","F ace","K ar","S te","T A","b ana","d remos","m ba","p ón","t ador","ci entos","al tos","re tro","tr on","mi dad","ten sión","pres unta","du ro","tar a","ve mos","pre para","fin alizar","lla mar","produ ctores","empres arios","cr on","reuni ones","incre í","insta lación","preci samente","impu esto","celebr ar","dipu tados","brin dar","comien za","Ad ministra","subra yó","empa te","8 00","E jército","H is","L on","M at","O S","O ri","f este","ac as","pres i","for m","cer ró","der os","cos tos","dis trito","ven der","lla mó","entr ena","Ca mbi","inclu yendo","perman ente","arri ba","hospi tali","memor ia","Ricar do","Isab el","B ra","E li","L es","S í","e volución","an da","que dado","ra mos","tu ales","tu mb","ac adé","fi cado","pa gos","ari dad","gen o","person ales","gan ado","está s","Al lí","contro lar","Qu er","ubi cada","due lo","vue lo","fis cales","Zara goza","Face book","5 2","5 7","F E","H emos","r se","de sig","es pi","es tros","do centes","cu ra","cu idad","ten cias","ex presidente","ce dentes","val e","minis tr","mon to","Ju di","difer encias","persona je","diri gentes","apli car","dese o","conven i","encu entros","EE UU","probable mente","respec tivamente","mec an","Regi onal","distribu ción","asesina to","Gus tavo","5 8","O l","O tra","V il","o este","É l","ci viles","se cun","si ente","ro de","ac tores","añ ade","tro du","men o","In vesti","acu s","resul tó","cel o","muer to","Ser á","alcan ce","porta ciones","finan cier","plata formas","len gua","preocu p","campe onato","Tor res","trib unal","hogar es","tama ño","A quí","C ri","C he","J unta","L le","Z el","r adio","v ales","í ti","er ras","re conoció","con cierto","cu a","da ble","tu ristas","ex ión","Es pe","cer em","cos ta","rec al","tin g","ins tancia","tem pr","ton ela","ale gría","bus cando","alcan zó","aca ba","Jo e","ron da","subi da","fortal e","consumi dores","Álvar ez","A sa","K irchner","S ol","U N","c í","r elev","á ticos","ar ca","an zas","as unto","do m","bi l","per fil","ex cel","Es tad","us os","mar cado","hab lando","ban co","mill ón","asegu rar","visi tar","comple jo","amb u","provin cias","seña lar","fac tura","agu as","oló gico","priv ada","Domin icana","uste d","log ías","musi cal","restri cciones","G e","M S","a puesta","l án","m y","s to","que dan","re m","re cau","di visión","su puesta","vi das","li ga","des pla","tra er","mar gen","can tes","pre vent","gan as","jor nadas","trabaj an","empres ari","ví n","sen si","estable ce","chi cos","comer ciales","acompañ ado","Ros ario","compli cado","esco lar","apren der","volun tad","satis fac","tonela das","B al","P on","V amos","e jército","f t","f re","i legal","r aron","é tica","un d","cu ya","si len","li der","cion alidad","ac titud","ex pe","gi ra","dis cip","ven i","cri pto","reali zando","ban cos","presiden cia","pla zas","ini cial","his torias","contin ú","apro b","funcion a","llegar á","organi zado","Ch ris","asis tentes","Can adá","esca la","proce dimiento","promo ción","incen dios","españo les","cuad ro","comparti ó","Comi té","M á","M au","a to","a fron","w w","de le","en la","ci enda","li mpi","ri da","pro pósito","ni ña","inter net","produ cir","plan tas","sent encia","bas ti","logr aron","solici tar","falle ció","correspon diente","términ o","Organ ización","Zel ens","O b","S am","V ol","a men","e dores","en ses","in trodu","ta men","vi era","mo d","da ño","ex ter","can ciones","ble mente","ven ido","deci dido","respon der","trans por","dro gas","Ex teriores","ejecu ción","aso ci","ima gin","mexican os","colec tivo","preten de","later al","vue los","adoles centes","Blan ca","diag nó","inteli gencia","sorpres a","Dipu tados","Asa mb","A mbi","G ol","P ac","S istema","a pla","b ru","de si","tr iste","di ciendo","vi deos","ha m","ma ti","so cio","reali zan","ir se","mes as","gas tos","trans par","Po pular","ví deo","comple ta","muer tos","cli ente","efec tivo","Bo mb","escri to","espera ba","ingres ar","inci dente","promo ver","venezo lanos","sosteni ble","homici dio","pobre za","A ri","c ci","c ta","c ían","es que","ti os","con cur","ri a","pres unto","ser i","ga mos","dis co","hi ci","emb ara","ins pi","Ta ma","To k","col ores","persona jes","Par que","bal ón","Per son","denun cias","ries gos","provo có","pregun tas","nar co","lé tico","refor zar","Judi cial","Asamb lea","E r","R E","V ar","s ale","z ás","de leg","ad quisi","re quer","re conocer","ti les","di mientos","te d","mi go","su mó","est al","fi estas","pa que","mu la","tro l","emp u","ag ri","imp on","mó viles","fir me","Uni versi","jue ces","sab en","espe ciales","dej ando","Vi ctoria","Gu erra","super fici","Ti ene","igual dad","secre taria","ani versario","participar on","tradi ción","obser va","afi cionados","agres ión","H an","W i","b ac","i to","i vo","n y","r enta","in mue","di versidad","co ber","su man","no tifi","no mbres","des tru","tu des","est er","go le","fi cas","El la","tan o","au xi","zar se","cre cer","Le g","din á","Gu ti","inte gran","Mu chos","Bo li","ambi ental","estru cturas","conven io","Pri mera","Nos otros","protag oni","herramient a","pelo ta","concep to","trayec toria","circuns tancias","cerem onia","P E","de ba","en fati","ar tes","an e","in da","con ciencia","cu ban","si l","cion amiento","ab ra","tro pas","com bate","na ve","pre fer","dis positivo","au dio","Re d","indi cado","actu aciones","gener ales","compañ ero","inten dente","dí gen","perfec to","american o","And alu","suje to","Amb os","Rec or","crédi to","exp los","6 9","D A","J im","o cul","p lu","t z","é rica","to mado","cu esta","ha bido","mo di","ui da","est antes","za ba","mar cador","na ció","pon drá","estar ía","Pa ís","of recen","poli ciales","vent ud","ide al","expres ión","llev ará","consider ado","mexican a","reconoci do","impul sar","salari o","origin al","alma cen","exclu siva","Provin cial","senci llo","expecta tivas","Jal isco","7 8","7 00","h á","í tu","al ber","as ig","re quisi","con exión","mi ra","dad as","En er","fr ío","entr adas","fal lo","vir tual","gener ó","paci ente","parec ía","llev aron","conver sación","deber án","Ha cienda","Mor eno","grave dad","Sal vador","integr al","pele a","Ram ón","mone das","acel er","Navar ra","Gabri el","electri cidad","Administra ción","B I","a parece","e va","i ro","t úa","w are","ó lo","en es","er ta","as cen","re tras","con sta","si les","ui dad","vo tación","ver se","pre venir","comp osi","imp lica","ona er","hec tá","much ísi","dej an","tema la","To da","comen zaron","apro bó","rela cionados","económi cas","ejecu tivo","correspon dientes","sol dados","Res pecto","constitu cional","At lético","uste des","europe os","ON U","Gua temala","E d","M el","M usk","el os","ent u","pr os","pre vención","dis positivos","medi ca","Se basti","ér rez","ofi cinas","Pro du","denun ció","aca bar","Edu ardo","venezo lano","bomb eros","prot esta","alco hol","descan so","Feli pe","fenó meno","% )","C ari","H ar","M ex","T ex","a vent","a isla","j ada","k y","o gle","la ridad","ci en","ci dio","co cina","pr és","mi cas","ca ba","ri l","des per","ac á","ac tivo","ba ño","ali anza","pu ente","pi c","cer ti","der as","nu tri","Uni das","Po demos","op ti","afec tado","cli mático","aque llas","sub si","veci no","preocu pa","carac teri","oc ci","simi lares","sir ve","Rey es","Provin cia","Derec hos","resal tó","comporta miento","Guti érrez","B os","C D","R A","f res","t én","u ña","v ías","ç a","en zo","en ciales","ci les","re conoce","vi os","vi gente","mo difi","mp a","ec os","ali ción","gi da","na ciones","lle gan","am érica","Go ogle","it aria","asegu ran","afec tadas","encontr ado","efec tivos","conver saciones","condu ctores","estr en","estr ellas","dipu tada","eléctri co","títu los","elegi do","bá sicos","fortal ecer","uli pas","decre to","añad ido","refuer zo","Tama ulipas","certi du","6 7","B us","B ur","E ra","e fica","f lo","z gado","ar gentina","re ina","re visión","re acción","con dena","den as","ali zados","au tos","parti da","ces a","tras cen","In dus","entr ó","infor mes","Pro fes","Pa tri","fí sico","especial istas","efec tu","Mon te","nego ciación","err ores","intent ó","determin ar","suce dido","dirigi do","dificul tades","limp ieza","requisi tos","M ia","O n","r ían","es pal","re ce","con fes","vi ento","da ba","ri cas","man tuvo","car tera","cos te","fu ga","ob tuvo","forma to","ase ver","jue ga","resul taron","apro bado","guar dia","gus to","natur ales","testi gos","sho w","Gui ller","pusi eron","dom és","hectá reas","B ro","M ario","N ad","V la","e y","e da","m ni","í rez","ad vi","in fer","in dígen","con seguido","cu áles","vi c","ri to","ex cep","du ración","mis os","ne y","present aron","her manos","nego ciaciones","sigui entes","ine te","quedar se","Ne w","ucrani anos","premi os","argent inos","extre mo","aero puerto","refu gi","2 50","B r","D r","I r","L una","U s","V í","W ha","c adores","s tru","de dores","la j","ar ras","con memor","di mos","mi cos","le er","ex cepción","les ión","lan tes","dis trib","lí mite","ag ue","teri os","bien estar","mon o","ge o","cir culación","ses iones","represent ación","poner se","exi tos","able mente","identifi cado","pie zas","Ja pón","Ram írez","App le","resi du","solid aridad","6 1","C el","V ir","ar qui","ti a","te atro","ca bal","ha gan","mo bili","pro hibi","res u","ser es","20 10","ru mbo","bre ve","dr án","mill on","Di jo","Le on","compañ ías","Me di","col onia","fra u","Bo ca","experi encias","suf rido","suf rir","anim al","graf ías","oc ta","bomb ar","Domin go","protagon ista","Fl ori","Pos teriormente","nucle ar","superfici e","C C","F MI","L an","on ce","ci ru","in to","re publi","se cción","tr adu","si ga","ri dos","ra íz","ab inete","za je","mar cas","pre vio","pre paración","der ía","mas cul","cre ado","comp en","lí mites","sin dica","ll eno","gas olina","inf antil","permi tió","int enta","confir mar","mir ada","especi es","identifi car","ucrani ana","due ño","cubri r","ocas ion","aprovech ar","prot estas","aus encia","encontra mos","fort un","Sebasti án","A ca","B ru","G as","P N","P al","R íos","h uel","t ás","u do","en g","in certidu","re qui","re comi","li ci","per ros","ro jo","res cate","ali mentación","ch an","man te","ex ac","ex portaciones","pi es","tes is","za mos","pen diente","ir á","ins pec","Su b","trans formación","peri ó","Me dio","bas es","anti cip","ros tro","Ri ver","ár bi","peque ñas","mostr ado","Hu manos","perman ecer","encar gado","repor tó","míni ma","digi tales","mag is","cientí ficos","resis tencia","Jue gos","cober tura","Leg isla","Andalu cía","Guiller mo","F P","F útbol","G re","L A","M c","M en","P el","e cono","f ui","o posi","r estos","en ví","ti z","bi da","ba lan","man tienen","lu m","car tel","gi as","pre fi","ru m","ll ó","reci be","neces arios","cual quiera","Esta tal","permi ten","comple tar","ican o","fac tor","vari ante","Cris ti","eléctri cos","única mente","Ara gón","energé tica","especí fica","celu lar","diagnó stico","9 5","H or","L O","O li","T an","T ec","T anto","a x","b onaer","d s","f la","h é","j era","de tener","de terior","ca ble","su bió","per on","ri tu","pro lon","me ter","for man","pos teriormente","qu ero","gan ador","sin i","In terior","cen a","fir mó","actu ales","hace mos","fica ciones","afec tada","Par ís","evi dencia","ló gica","estable cimiento","avan ces","confir mado","sex o","Gran ada","ts App","prác ticas","cami se","subra y","extran jeros","industri al","libr os","decen as","Fon do","Wha tsApp","C á","D ra","N ú","b ran","b aron","c á","d ante","n es","á ni","on line","su la","lu char","car ne","mas cari","cre en","hi po","San to","impor ta","plan e","cons ciente","pan el","vin cula","dej aron","To das","Car men","ion s","contin uidad","labor ales","regi onales","regis tros","loc alidades","evi dente","conse jo","continu ación","aque lla","pl ás","dé fici","club es","interes ante","consider ar","cap ítu","consul ta","crí tica","cami oneta","cercan o","salari os","indepen dencia","IN E","secu estr","Rob erto","acos tumb","conside ran","Pana má","perspec tiva","silen cio","8 7","F estival","G B","P an","i te","w n","con tará","cu lado","su gi","bi os","mp ions","ba talla","vo tar","ali ados","Es co","La tino","tas as","dis capacidad","ll ena","bo les","ag ente","cri s","reali zada","Re g","empres ario","cul min","Ro dri","pri ma","organ ismos","ora ma","deber ían","destin os","escen arios","alcal desa","acep tar","ko v","habili tación","asu mir","artí culos","comenzar á","PR I","suel en","financi ero","colombi ano","peti ción","urban o","FI FA","adqui rir","acces i","Bomb eros","Mia mi","6 4","B ern","I A","R osa","R adio","a ve","a conte","f rica","l ina","m s","v án","en vió","an si","ent ra","di ción","vi al","per u","tra tó","ex por","ex pl","esta tales","com unes","pre cipi","bo x","De bido","In di","be bé","ban c","cla ves","present an","segui miento","via mente","her mana","inclu yen","teni da","ocu pa","Cas tro","tempor al","sen sación","gol pes","Bar ça","asis tir","volu men","ases or","candida tura","falle cido","especi e","hon e","merican a","rei v","inclui dos","comba tir","apare ció","orgu llos","episo dio","cicle ta","concent ración","Comer cio","Flori da","5 4","6 2","J untos","S ch","f estival","i ta","z antes","ci ller","in qui","ti das","to que","su ces","li g","li bri","mo ción","bi lle","ma to","des cen","des censo","so ber","fi có","for o","20 13","ga la","dis crimin","pos tura","cre ciendo","ele mento","Na vidad","via j","esper ando","Par lamento","et aria","Cas tel","sen ador","defen sor","Fe i","ár boles","dé ci","Yo u","falle cidos","correspon de","trá mite","Tor re","fli x","categor ías","movili dad","convi erte","Vo x","Servi cios","financi era","Pol onia","Net flix","secun d","mod alidad","há bi","incertidu mbre","5 1","8 9","I M","K a","M is","O cci","T res","a mente","a je","e tario","f arma","k er","m ín","n al","y s","í fico","es quina","re pi","re vista","li co","mo da","tra je","pres er","ab e","én ez","ag ro","ag ru","mer ía","fir mar","Mar celo","tien das","plan tel","indi caron","infor mar","termin a","Me tro","So ci","lleg ue","partici pa","Ri co","Qu in","continu ará","óni cos","sex uales","gin as","cap tur","Muni cipio","ofer tas","edifi cios","educa tivo","later ra","tranqui lidad","mone da","verda dera","aclar ó","respal do","7 9","D N","L E","R en","g ras","z e","en as","un e","in ti","ent ado","con tras","con trib","con tenidos","di men","di aria","to ca","des pac","tu ri","ui dos","ran go","gu as","ex pul","mar avi","lan zar","ga lar","dis min","Co mp","Co legio","cor rer","acu dir","reci entes","ciudad ano","sab ía","cambi ó","it y","Car acas","Pro grama","avi so","afir mado","auto móvil","condu cir","residen cia","cole gio","institu cional","detal le","oficial mente","lleva ba","fle xi","suce de","cui dar","pá ginas","Presiden cia","fan áticos","abo gados","Cha mpions","Cla u","extran jero","demostr ado","norma tiva","alterna tiva","Aus trali","Gob ern","órgan o","Ing laterra","increí ble","Tex as","E mili","F al","O tros","c adá","h arán","t est","v ada","z can","con siguió","par ición","me d","pa u","ab re","cer rado","lan da","medi ados","mis ta","inter no","Al cal","reali zación","fun dad","pla ya","hu mor","hu mana","quier es","fe der","il lo","neces arias","pan orama","Le ague","propi as","Ro mero","compr as","represent an","Mo vi","err ero","interes ados","cami ón","cercan a","cont un","triun f","reser vas","clara mente","gratui ta","cere bro","acre di","Wil li","recomi enda","balan ce","Australi a","cadá ver","D esta","V A","a un","a bajo","a pp","i lí","j ados","m ón","p é","p ado","w e","er en","ar nos","ar reg","con curso","se t","di chos","pr acti","mi gra","cu lti","si mo","ma trimonio","ra tifi","vo ces","den es","mu rieron","pres encial","ab uso","com para","emp ieza","gan tes","ne gó","adi cional","están dar","cambi ado","medio día","visi ble","inf la","permi ta","recibi eron","cir cui","recu erdo","bri l","especial ista","centr ales","exis tencia","utili za","depen de","confir maron","sac ó","recha zo","ampli ar","confi gu","suce dió","ucrani anas","acci dentes","foto grafía","Pre mio","reno vación","sanit aria","pér didas","priori dad","britá nico","vigi lancia","occi den","7 7","S port","Y u","a ma","a vis","d res","f esti","h s","á tico","es cla","ar an","ar ag","ad judi","si cas","des cuento","tu vimos","ui z","cia miento","mu s","pi co","20 12","pe cu","entre gó","ven cia","ven ciones","Por tu","contra tos","acu saciones","cul turales","bar rios","Gu z","esper ado","et c","vivi endo","Cor ea","estable cido","estable cimientos","escri bir","solici tó","declar ado","encu esta","emo cional","Ba ja","foto grafías","gal le","Is rael","mec á","Pol í","Fuer zas","taller es","alqui ler","asever ó","défici t","D en","G T","M ur","O ro","P ad","S ha","i dio","k ing","t he","v ini","de fi","de ce","de bió","en za","ci tado","an cias","ad ministr","re per","re pe","ta miento","te cas","pro funda","tra mi","lu ces","ve ter","pas an","Se villa","ju ris","ber na","Re ci","fir mado","conoci dos","seña laron","téc nicos","particip ó","Bi en","defini tiva","Municip alidad","Pue de","facili tar","Fa mili","Ig lesia","intensi dad","Ama zon","desafí o","Fei jó","- ,","6 3","B ori","D an","L ar","N unca","V en","a min","g on","ci cli","un g","in seguridad","di je","co alición","por tal","vi ctor","ra cán","des cubier","fi cha","tor menta","ga ma","pos terior","men cionar","fer ia","equi vo","San tos","Ar gent","segu ros","her mos","Ju li","anti ci","cier ta","Gu ada","alcan za","orden ó","finan ciación","cuar tos","docu mentación","guar da","Pre mi","vice presidente","exten sión","absolu tamente","nove dades","psi coló","restau rante","clá sico","renun cia","abas te","antigu o","Cambi o","Willi am","Feijó o","B re","G en","H é","M E","M il","M édi","O ax","P unta","a tribu","i vos","o od","í var","es encial","ar mado","el en","re porta","re marcó","con ces","con quis","vi de","le gi","des conoce","ac es","ac ruz","ru tas","gr os","deci dir","trabaj ador","plan tilla","Ta mpoco","trata ba","haber se","Ti k","sac ado","opera tivos","mostr aron","fron teri","falle cimiento","Fu entes","dispar o","fan s","exper to","envi ar","Cul tural","ahor ro","agradeci ó","mari do","lib res","inno vación","reli gi","Lor enzo","embaj ador","deb ía","continú an","esque ma","Boli via","medica mentos","libri o","Guz mán","1 20","C és","E conómi","a la","e d","i ca","r ales","u t","“ ¿","de parta","en cen","la dores","as untos","re ún","te os","si ento","tra ción","pi den","pas ará","hab rían","fer encias","tri pu","pen sando","ana ju","equi pa","tien de","Na ciones","respon de","pri vi","expli car","sali do","sal var","nor mas","mor al","ín dice","vivi ó","Mu seo","utili zando","apli caciones","sue ños","invi tados","aument a","ór denes","gus taría","genera ciones","poni endo","lis to","judi ciales","legisla dores","quin to","grá fico","infec ción","coti di","cump len","contemp la","Supre ma","brasile ño","Lon dres","5 3","5 9","A ún","D ec","G or","I ni","K i","K rem","m estre","t ías","v or","á z","ent ar","co operación","to talidad","no c","des tr","cion an","res e","res uel","ba jos","qui so","ser io","ve o","mar t","can os","ja más","bo ca","ban dera","tiva ción","produ cido",
[...]
