{"version":"1.0","truncation":null,"padding":null,"added_tokens":[{"id":0,"special":true,"content":"<UNK>","single_word":false,"lstrip":false,"rstrip":false,"normalized":false},{"id":1,"special":true,"content":"<SEP>","single_word":false,"lstrip":false,"rstrip":false,"normalized":false},{"id":2,"special":true,"content":"<MASK>","single_word":false,"lstrip":false,"rstrip":false,"normalized":false},{"id":3,"special":true,"content":"<CLS>","single_word":false,"lstrip":false,"rstrip":false,"normalized":false}],"normalizer":null,"pre_tokenizer":{"type":"Whitespace"},"post_processor":null,"decoder":null,"model":{"type":"Unigram","unk_id":0,"vocab":[["<UNK>",0.0],["<SEP>",0.0],["<MASK>",0.0],["<CLS>",0.0],["s",-2.7934452218522168],["the",-3.379903960265846],[".",-3.4149786805363647],[",",-3.4886726518231477],["a",-3.669767207885652],["to",-3.915311765480702],["and",-4.094597233750996],["of",-4.1328995765715],["in",-4.187199410845478],["ed",-4.264849097586774],["t",-4.394391987686065],["d",-4.408437202509161],["ing",-4.411267311340497],["e",-4.450387469264207],["y",-4.539299133048996],["on",-4.726948303550866],["’",-4.852178060386386],["-",-4.882715103179683],["is",-4.888056476336178],["ly",-4.939457231982894],["o",-4.988531414730085],["that",-4.993318974910094],["for",-5.020589101203518],["I",-5.127937957475929],["n",-5.186774708230059],["The",-5.191655728192737],["be",-5.244842649077114],["it",-5.262353975017316],["with",-5.284870247651725],["“",-5.443790098418189],["at",-5.472357030740595],["was",-5.497225243785072],["are",-5.536156554557092],["an",-5.594617040248439],["'",-5.595200109717922],["i",-5.622291468098732],["aid",-5.671983321295777],["have",-5.717710570807521],["r",-5.75172682237371],["has",-5.817966279794826],["he",-5.839634424694596],["from",-5.877920556772574],["or",-5.883970431729248],["by",-5.890102664311911],["m",-5.90990835657424],["will",-5.943624542443375],["\"",-5.96469510544682],["er",-6.007937529408505],["not",-6.0171275225385],["A",-6.042864171496294],["S",-6.07921112014828],["this",-6.085008988543139],["l",-6.095319571820106],["his",-6.1400022716840255],["we",-6.14645306712395],["re",-6.160108193535198],["you",-6.186473666336372],["out",-6.201724472196462],["b",-6.221421651658405],["p",-6.225464556919498],["their",-6.239473206785252],["one",-6.270004528759424],["who",-6.345582587779244],["up",-6.363357285339827],["but",-6.363887568736516],["her",-6.374232395448827],["been",-6.376879721417728],["can",-6.3923156337188605],["all",-6.411858318651298],["ies",-6.414493929360617],["h",-6.419380317866915],["(",-6.47187183502739],["had",-6.476323822787251],["were",-6.477865756918799],["they",-6.483537334496376],["more",-6.484355019227252],["al",-6.491304982184932],[",”",-6.501448429368089],["c",-6.547652656646141],["also",-6.573032342154441],["other",-6.57501291625432],["people",-6.576505190982269],["about",-6.5832933545156],["19",-6.59383476672269],["f",-6.609587161083924],[":",-6.6107768231141595],["C",-6.628219159260137],["time",-6.631027390497611],[".”",-6.637633639892446],["which",-6.673358348193766],["like",-6.745149072174685],["In",-6.7466878316789565],["over",-6.748604035006181],["year",-6.754030657937207],["our",-6.761806223273382],["”",-6.766200579190706],["would",-6.774451504420732],["M",-6.779629631955528],["new",-6.792803368349157],["20",-6.800532731523216],[")",-6.801468546049792],["We",-6.8189221972984075],["He",-6.833612006028929],["day",-6.8431035319425355],["g",-6.845498345296546],["us",-6.862752203865998],["when",-6.864562195088457],["she",-6.8838057008667075],["after",-6.88609109055032],["if",-6.918889448925368],["T",-6.9219374214760325],["1",-6.924606219391718],["there",-6.92484424891359],["than",-6.957481570405468],["what",-6.962414005676102],["$",-6.966343636786663],["some",-6.967936907403305],["u",-6.9683866334315665],["get",-6.981228298119429],["able",-6.984643407580687],["?",-6.986842337140651],["un",-6.996671986885633],["now",-6.997452151111137],["w",-7.008840832573972],["its",-7.010175697190613],["k",-7.011211979238056],["just",-7.0155718807128995],["first",-7.063239684668155],["B",-7.065768529803737],["two",-7.072298833425349],["back",-7.090030304598399],["my",-7.093182179170345],["work",-7.093583433357621],["—",-7.09955864540052],["how",-7.111436152178966],["them",-7.119315095213918],["cause",-7.120082304961882],["any",-7.131071659976605],["2",-7.136557210649414],["him",-7.158367811441119],["F",-7.159286565040779],["need",-7.166154765839134],["most",-7.184449207862779],["ve",-7.20117097481786],["man",-7.205094777775866],["This",-7.205340437583726],["R",-7.209290972053284],["your",-7.227316529221046],["D",-7.231184419645806],["state",-7.233729825602101],["But",-7.23449301855746],["could",-7.238666357374484],["W",-7.239252499514383],["P",-7.241415644769135],["last",-7.262399940822888],["ever",-7.2636497049333055],["E",-7.26605568253379],["N",-7.272088867291864],["U",-7.273158541130106],["me",-7.290993602124899],["le",-7.310728097815746],["way",-7.31527780163671],["end",-7.320112776247157],["L",-7.3209317876612605],["take",-7.324594168281789],["th",-7.326920251550376],["hose",-7.32906696508771],["through",-7.330707339060396],["3",-7.337143351362616],["whil",-7.337154678573204],["per",-7.362016541639175],["want",-7.365187844480616],["during",-7.3664448542059615],["go",-7.376662560196804],["make",-7.380265836742342],["well",-7.394730343236115],["being",-7.402849646911864],["home",-7.411509121908915],["where",-7.41297019497732],["see",-7.414266165242193],["H",-7.427585279165775],["O",-7.429676751197423],["every",-7.431345266155502],["4",-7.433717529394486],["high",-7.438246838813289],["help",-7.438705612214747],["many",-7.441998871507538],["down",-7.442865265857682],["government",-7.446580544622562],["going",-7.448311513187998],["000",-7.44994635693042],["look",-7.45467038280803],["even",-7.455155354122081],["play",-7.455205687361761],["call",-7.4584480459799565],["come",-7.461069632219999],["5",-7.469425327208608],["COVID",-7.475580242083376],["long",-7.475903989191576],["before",-7.478676979181413],["G",-7.49572207466847],["K",-7.49932305141174],["game",-7.502592725184872],["years",-7.503540444792394],["start",-7.503994674348659],["ers",-7.508971188828779],["under",-7.530423789473618],["health",-7.531560988262469],["–",-7.533355929569506],["should",-7.541699724096463],["off",-7.541759381259434],["into",-7.550818741580321],["know",-7.556579649478425],["week",-7.560727708619499],["real",-7.565594479412837],["%",-7.572999095873821],["agains",-7.575530160879942],["Trump",-7.580720624286107],["part",-7.581705658697047],["test",-7.592937290894629],["ment",-7.593366449749681],["And",-7.602878197468894],["made",-7.6047879425514635],["thing",-7.613077812333603],["coronavirus",-7.61403036885819],["still",-7.614764534226364],["use",-7.618955437393906],["old",-7.619175038180886],["‘",-7.624499371220549],["three",-7.637783465906243],["2020",-7.643653319394844],["10",-7.643803005744708],["very",-7.664442935551974],["place",-7.664809270222532],["ce",-7.6654691998029945],["6",-7.685895082064193],["may",-7.6861821404216455],["She",-7.688970351263437],["these",-7.6898698090171385],["ity",-7.691387363389873],["show",-7.697859325451258],["right",-7.703069619226517],["million",-7.708936055428244],["good",-7.716216027684473],["point",-7.718308968260205],["support",-7.719873604023687],["country",-7.7269871893534345],["pandemic",-7.734293703482928],["am",-7.736982614782396],["ion",-7.738539091704356],["less",-7.739752575809457],["number",-7.746116353097078],["much",-7.746358309794952],["team",-7.75016486100736],["think",-7.756387295394584],["New",-7.7564714749306],["cases",-7.75708561445619],["/",-7.758830212815445],["says",-7.762017519910406],["There",-7.76217894247091],["school",-7.764870372163739],["v",-7.765280166803431],["0",-7.768899936402731],["ll",-7.771912157835227],["around",-7.774611940563274],["season",-7.774787219064654],["add",-7.775580381583176],["public",-7.776412130101244],["business",-7.797197724517622],["continue",-7.804776500373338],["ic",-7.80810055118702],["such",-7.814890501292398],["world",-7.819339279800087],["8",-7.819989997082026],["um",-7.820106849628376],["If",-7.821398257718361],["7",-7.82412885734353],["since",-7.827714154504975],["close",-7.831553047425595],["self",-7.836362883541648],["own",-7.836496388471825],["life",-7.837030112493964],["did",-7.83931498708856],["police",-7.844057644477399],["change",-7.851421181358536],["head",-7.855811710081067],["don",-7.862100919499634],["communit",-7.863486207107311],["est",-7.864458186943755],["company",-7.868470858241584],["service",-7.871073443771142],["lot",-7.8745480168081174],["That",-7.880398252522204],["As",-7.883817747955557],["family",-7.886305159902693],["For",-7.886937842831237],["issue",-7.893563731431645],["person",-7.898153988430296],["came",-7.8998535308913995],["including",-7.907039663866238],["say",-7.908208159167977],["How",-7.9136331465696905],["ary",-7.919430257033295],["ation",-7.9202381706261855],["next",-7.936631330322678],["co",-7.936695301876384],["9",-7.940969546440991],["ember",-7.941853646286543],["ready",-7.9564672537459025],["etween",-7.959952069303978],["So",-7.965757597393311],["second",-7.967315869779364],["ear",-7.968815424221109],["put",-7.983052029415087],["told",-7.984631077546666],["both",-7.989621718692591],["allow",-7.9930511426593895],["ance",-7.995408285176731],["same",-7.995806163529795],["Mr",-7.9973013306930145],["ive",-8.002797238778365],["side",-8.006204589919376],["care",-8.013252208074872],["30",-8.018028020612986],["ar",-8.01853844546644],["open",-8.018541369710748],["group",-8.023682511355396],["z",-8.02654054384847],["social",-8.030460272359464],["great",-8.032818789012437],["student",-8.034416611210203],["low",-8.037299046854363],["keep",-8.037457444522518],["ask",-8.038470919903283],["base",-8.038845141314297],["You",-8.040613473577498],["line",-8.046716531273928],["plan",-8.047457709431015],["De",-8.054309621064846],["order",-8.05498548763898],["current",-8.056485359572743],["got",-8.064552008265583],["each",-8.066281544393107],["On",-8.067691802083758],["few",-8.07079186382824],["night",-8.085466771844306],["President",-8.085757872616623],["remain",-8.092636604951709],["V",-8.093382821450975],["recent",-8.099441736236974],["land",-8.100782264992064],["result",-8.101040951215918],["return",-8.10409620106838],["virus",-8.109549058442845],["face",-8.110129936180298],["love",-8.11351179939275],["ch",-8.114391982369915],["15",-8.1161698623156],["coming",-8.11659036861726],[";",-8.124633175445824],["different",-8.124640463985465],["though",-8.127542058214441],["case",-8.12769165207406],["election",-8.127983251394772],["J",-8.13235894521756],["report",-8.132497797926689],["Friday",-8.133353155042972],["US",-8.134977625880111],["best",-8.13650426639023],["try",-8.141936224735176],["president",-8.148020363218464],["four",-8.150028191087955],["month",-8.1512736844217],["near",-8.15319950521271],["To",-8.15789821192574],["here",-8.159557149797621],["found",-8.160421704966698],["!",-8.161068502436535],["release",-8.163180188172689],["include",-8.166752205781847],["turn",-8.166935619391936],["Al",-8.17477871742534],["market",-8.17810990397949],["city",-8.179294035698366],["11",-8.179373223330897],["An",-8.180051303862703],["16",-8.182419049421721],["local",-8.183872680481574],["Re",-8.192897143059263],["across",-8.194749608174627],["American",-8.198086264734599],["age",-8.198372452402193],["provide",-8.20208215906737],["reported",-8.20832991539772],["far",-8.20970851934165],["post",-8.210096556609141],["12",-8.212797082187523],["When",-8.214132520633648],["special",-8.215254301078282],["give",-8.216375081290646],["system",-8.216687180234143],["event",-8.220489350752803],["State",-8.22122985813376],["win",-8.228451436840874],["due",-8.228529028218418],["car",-8.231394337577902],["mean",-8.240626385344633],["14",-8.242371433603399],["ten",-8.24377410082049],["air",-8.244879387850657],["ish",-8.245489915636995],["large",-8.247332266307584],["live",-8.252200543001244],["left",-8.256741848471664],["share",-8.25849002268388],["gan",-8.266282298885365],["final",-8.266337618294674],["price",-8.271988945922228],["according",-8.273520879861316],["17",-8.277722224288356],["term",-8.277939905678068],["hour",-8.27798137156853],["working",-8.28353012957773],["full",-8.284007363672131],["move",-8.287882710330443],["level",-8.289462110235633],["…",-8.293266941599814],["never",-8.295017956401782],["something",-8.301637337447145],["ook",-8.306515158994547],["power",-8.311228237714086],["big",-8.311520685424354],["feel",-8.314671064422601],["Monday",-8.316858867555236],["What",-8.316906600138143],["hard",-8.317731958844853],["past",-8.318451236161668],["quarter",-8.320703173842528],["better",-8.323314712316868],["believe",-8.327207897488744],["until",-8.327394414823974],["21",-8.332634201637955],["ul",-8.335047435655332],["ness",-8.336012959679387],["50",-8.336658423963065],["statement",-8.340787146665123],["record",-8.343373587968326],["talk",-8.343559230178364],["No",-8.344968287881601],["children",-8.347375650199382],["Be",-8.348586311752685],["must",-8.349520570837202],["things",-8.349582961865213],["een",-8.349615330646122],["con",-8.351379358936706],["didn",-8.352589407817291],["might",-8.354176845146627],["months",-8.356761962432042],["media",-8.357836068623538],["run",-8.35808681751938],["claim",-8.359621247677454],["With",-8.363804194619444],["film",-8.364532271227436],["men",-8.366450315977826],["does",-8.368165993850724],["away",-8.368855563723919],["increase",-8.370690653838132],["ber",-8.371550479650463],["five",-8.372649678737258],["hit",-8.379066985436605],["total",-8.380365497823176],["China",-8.380641911208933],["top",-8.38138476998164],["law",-8.38199401266841],["County",-8.383901754081487],["force",-8.384014789999698],["question",-8.386118978970533],["wh",-8.386988900210437],["hospital",-8.38728057728037],["vi",-8.388144909898411],["alway",-8.388757818906129],["body",-8.390587507690107],["March",-8.390867307733549],["South",-8.392623320886146],["information",-8.396081579879848],["ial",-8.396843969729233],["im",-8.397343953104246],["Whil",-8.39888207929732],["members",-8.399039870136248],["deal",-8.400054742591099],["went",-8.401717822932717],["project",-8.404579818005647],["stay",-8.405484150483087],["Thursday",-8.407443771733544],["13",-8.409041461850508],["important",-8.410341822197777],["officer",-8.411604045674652],["find",-8.418105680965441],["positive",-8.418164397423848],["become",-8.41836317358199],["decision",-8.419029691283349],["pay",-8.42258377255685],["risk",-8.422789287232586],["&",-8.423409256270602],["making",-8.424920712136423],["spread",-8.426706915425811],["ex",-8.43092872285743],["cent",-8.431097453248697],["ally",-8.433823769510216],["leas",-8.43408381565258],["house",-8.437852869396039],["Tuesday",-8.43814806529491],["again",-8.43971038336436],[").",-8.440155809894417],["Health",-8.441127213407034],["water",-8.441397266224847],["Sunday",-8.445833051084504],["won",-8.448155917727266],["hi",-8.448533141713188],["Saturday",-8.448595779014964],["food",-8.451606409092452],["hav",-8.452564685640986],["vote",-8.453025651198912],["ship",-8.454193983881215],["women",-8.457897686234285],["money",-8.460948522730614],["later",-8.460975318088197],["resident",-8.461022457760901],["ent",-8.464145283282916],["former",-8.464712852808217],["court",-8.465351044021634],["process",-8.467136902500165],["stock",-8.46774459737458],["experience",-8.472287115849737],["light",-8.47253802310822],["little",-8.472896865512897],["small",-8.474302668073184],["Co",-8.475780810640757],["fund",-8.477179833923763],["ur",-8.477202408654668],["staff",-8.47752955989661],["together",-8.479895423574629],["free",-8.479980748922504],["future",-8.480611025234541],["One",-8.486008335354537],["24",-8.486339037294137],["concern",-8.48682676985516],["death",-8.487335971268134],["sure",-8.4887163387661],["clear",-8.490699611400782],["25",-8.491817769506108],["wide",-8.491942152695097],["action",-8.494404718855087],["national",-8.494892672151675],["St",-8.496195427195435],["Dr",-8.49639155345727],["late",-8.502680896348334],["led",-8.506120481429615],["six",-8.508673333529456],["Wednesday",-8.515287129819963],["happen",-8.517349986051471],["shares",-8.518601228428821],["United",-8.520082825348835],["sign",-8.523652032921285],["let",-8.524495180918883],["mask",-8.524606945286301],["program",-8.525006335412895],["All",-8.526625618151844],["fire",-8.527327711417131],["position",-8.528795710906364],["18",-8.530110358248056],["X",-8.535180182459984],["young",-8.542376529163644],["several",-8.542479128894843],["taking",-8.543584702111199],["worker",-8.544114246680156],["rate",-8.544314323666839],["consider",-8.547541074085236],["video",-8.547722247739475],["along",-8.551195212313056],["announced",-8.552508296413787],["data",-8.560155936227517],["Y",-8.56320597408158],["May",-8.564090127572028],["office",-8.568438627447506],["given",-8.57022665319053],["field",-8.571366673655199],["reach",-8.571973521385678],["series",-8.572329498143812],["ter",-8.58075805815654],["officials",-8.583549816864739],["political",-8.584416771826145],["weeks",-8.586839993913518],["),",-8.588027423982135],["After",-8.588473820210734],["National",-8.588961537141305],["receive",-8.59093145672001],["using",-8.593257577293876],["online",-8.593778546555184],["board",-8.595261193912403],["doesn",-8.595395574985385],["taken",-8.601138577900674],["nough",-8.601159022152997],["today",-8.602041150601213],["list",-8.602645829434646],["seem",-8.604696827547333],["campaign",-8.607634559698518],["lead",-8.60770626271053],["possible",-8.607824410263511],["half",-8.609634114615218],["hope",-8.6140707352206],["avail",-8.614630783508183],["period",-8.614696536017547],["watch",-8.61473739012041],["pass",-8.614804925170763],["Police",-8.616484355940944],["among",-8.618513177125655],["players",-8.620245918518567],["Le",-8.620436630362757],["Z",-8.62132954754033],["short",-8.62514315060372],["whe",-8.625567451074401],["third",-8.627192383872128],["attack",-8.628969479004791],["problem",-8.630767429615311],["further",-8.63080005055087],["ball",-8.635060622753631],["die",-8.635896478277813],["party",-8.63973091939605],["Ro",-8.640015235628468],["app",-8.640760940079865],["York",-8.645278163096311],["kind",-8.64571405080493],["measure",-8.6458942227951],["strong",-8.647103530341015],["effort",-8.648940263278094],["job",-8.650734427937966],["Covid",-8.65077131620739],["cost",-8.651664539438485],["yet",-8.651816141950102],["complete",-8.658226005639799],["100",-8.66056083749301],["impact",-8.666014570259108],["fact",-8.666120886502037],["Biden",-8.667467040947258],["hold",-8.667768404840919],["kill",-8.66789029995969],["travel",-8.667907154981306],["fall",-8.670370469121497],["deliver",-8.671178590432474],["City",-8.673231955219524],["war",-8.673696389218644],["House",-8.674605633850625],["Nov",-8.676117893840514],["act",-8.676356677528306],["200",-8.67863907558008],["buy",-8.679310040026031],["trade",-8.679779844123571],["fight",-8.682268427388205],["interest",-8.683722280521216],["bit",-8.687085875681603],["tell",-8.688993630976626],["following",-8.689727763329437],["leader",-8.689747946057864],["ize",-8.693011305584072],["offer",-8.69468877793921],["nation",-8.6954816273009],["create",-8.695868214711975],["space",-8.696566559088541],["grow",-8.697812482953683],["lockdown",-8.701904110650386],["Black",-8.704069180936079],["ago",-8.706408064710196],["situation",-8.70744095013453],["40",-8.708167109994712],["economic",-8.710090666388538],["percent",-8.71378661085502],["ha",-8.714210631080483],["appear",-8.71914285858678],["course",-8.719194933109495],["rating",-8.720400826832826],["meeting",-8.722048465456961],["direct",-8.722257188351787],["done",-8.72256500093736],["My",-8.722673906823022],["visit",-8.723182236638882],["bring",-8.723220937752036],["confirmed",-8.723658336025675],["security",-8.72514857867637],["room",-8.725162415416428],["actual",-8.725897381050078],["focus",-8.72706867009499],["spite",-8.727556134088038],["held",-8.730434938254664],["previous",-8.731040255022172],["industr",-8.732836710289796],["major",-8.733156521450752],["West",-8.734220320774739],["shot",-8.734455122566883],["wear",-8.734553878576708],["Universit",-8.735267611394807],["expected",-8.735498702848876],["front",-8.738383076722577],["North",-8.740180924868405],["role",-8.740263388951256],["thought",-8.741997417470996],["known",-8.742272202442088],["protect",-8.744608731986965],["opportunit",-8.745068479047951],["woman",-8.747297786146977],["bar",-8.74888102926812],["official",-8.750854263874887],["Apri",-8.751845131768816],["human",-8.75185391609472],["limit",-8.752789721668039],["mov",-8.753204379734832],["challenge",-8.757998178436695],["Minister",-8.7592983532789],["ley",-8.760764393636194],["Some",-8.762870651152447],["potential",-8.76339893884494],["matter",-8.763417094865233],["June",-8.763457671259854],["story",-8.764263606772058],["According",-8.765456541842333],["once",-8.765490268805124],["safe",-8.769027201065946],["forward",-8.769112906418524],["companies",-8.769542790256533],["present",-8.770884661378162],["name",-8.77163808220693],["outside",-8.77195053949782],["contact",-8.773732992958793],["billion",-8.774010027570487],["certain",-8.77487733672211],["moment",-8.775925378023992],["India",-8.780681151706538],["wa",-8.781877944754171],["main",-8.787267076508858],["Dec",-8.787427044288469],["control",-8.788866204647457],["econom",-8.789632334700938],["patients",-8.790407675405785],["quick",-8.79053112022874],["worth",-8.790621945192072],["Do",-8.793736546490113],["building",-8.79434334558048],["La",-8.794358291987335],["form",-8.795634534979861],["fans",-8.797024021898284],["star",-8.797302298154086],["average",-8.803254907214683],["store",-8.80379765641083],["parent",-8.80706014150003],["ful",-8.809128593905442],["product",-8.809795348626455],["22",-8.813111452675887],["book",-8.813488404903765],["access",-8.814797381387411],["tri",-8.815838255201703],["cut",-8.816629639202434],["walk",-8.821023982390273],["count",-8.824082724551175],["00",-8.825221838234679],["saying",-8.826159097468228],["research",-8.8267660698932],["abilit",-8.827566879666012],["launch",-8.831438132587701],["value",-8.833461878694063],["require",-8.834017168007684],["etting",-8.834584833705376],["reason",-8.835114989768577],["dollar",-8.835848133645975],["response",-8.836462076133344],["news",-8.838289101298013],["stop",-8.84296654474152],["Ra",-8.845612170334924],["condition",-8.846959348657567],["deaths",-8.84758290428211],["financial",-8.849196392533624],["ves",-8.849439020558846],["medical",-8.849551372807946],["bank",-8.853244304081198],["director",-8.853369526632106],["individual",-8.853685735785746],["morning",-8.85368932821941],["learn",-8.85379848313029],["behind",-8.855949747230337],["2018",-8.857446788005788],["drive",-8.85986327437443],["target",-8.860490685750676],["demand",-8.860511620275608],["countries",-8.860515215693342],["ill",-8.861963960865396],["Sept",-8.862730141156629],["ge",-8.863814142599741],["crisis",-8.867277926329102],["address",-8.867550736738844],["join",-8.868179498652617],["race",-8.869937823754084],["Ma",-8.872861836047992],["Department",-8.874141582981029],["wait",-8.87821486810163],["entire",-8.878770256044938],["couple",-8.88105979115596],["Ha",-8.882407728033538],["movie",-8.882991938131003],["stead",-8.883635452759592],["develop",-8.885301365016563],["development",-8.885702992807378],["key",-8.886843152417894],["park",-8.889388961066363],["phone",-8.890272681708197],["town",-8.892769548451296],["additional",-8.896246491191238],["pro",-8.896839963582755],["date",-8.898857251888536],["Man",-8.89910551672891],["lost",-8.90041779352724],["lives",-8.901257337840278],["global",-8.902093462012797],["history",-8.902766542341382],["round",-8.904018593601489],["arrest",-8.90482846921801],["comment",-8.905231672543756],["Bo",-8.906500539945498],["pick",-8.909113582808057],["account",-8.909567886743705],["character",-8.911547410761074],["bad",-8.911886809760933],["general",-8.913982078970182],["employee",-8.913998726011673],["x",-8.915584828134651],["oil",-8.916039070417106],["check",-8.916411372153132],["ling",-8.917420591006072],["art",-8.917631994590192],["leave",-8.918484436380066],["John",-8.920135591226598],["times",-8.922192964607166],["TV",-8.922735172642575],["kid",-8.924022788612087],["recover",-8.924618331200097],["personal",-8.928294746432318],["Democrat",-8.929405334181672],["cover",-8.93204610768359],["often",-8.936094279413544],["ut",-8.937796742339327],["host",-8.93919481804144],["break",-8.941011109041781],["customer",-8.941940493923088],["relat",-8.943454086593334],["pre",-8.943630633903144],["saw",-8.944427268622826],["America",-8.944871801305307],["benefit",-8.945516671345613],["design",-8.945813827651707],["ous",-8.94792429741927],["com",-8.948507575181095],["vaccine",-8.950459258025814],["ier",-8.951604005452975],["site",-8.952662178734307],["vehicle",-8.955428262904617],["expect",-8.955792740917026],["explain",-8.957956696476309],["option",-8.957973598921349],["Now",-8.958142208200222],["ground",-8.95831841210975],["heart",-8.959510417879601],["feature",-8.961011141596302],["road",-8.964596632049968],["region",-8.968255957247651],["federal",-8.970486113631654],["read",-8.97088581403083],["liv",-8.971544488159577],["friends",-8.97255428697366],["follow",-8.973554786532635],["single",-8.976918762843923],["charge",-8.977836595368949],["safet",-8.978013982288108],["Jul",-8.980033233674384],["press",-8.980221812263675],["mid",-8.981898117676803],["outbreak",-8.98276331850133],["candidate",-8.983208210620424],["tic",-8.983899632122839],["source",-8.98628189599059],["member",-8.988915107730119],["Pro",-8.992723591127252],["Ka",-8.99345555057991],["Pa",-8.995641984531138],["States",-8.996617033726936],["view",-8.99737908529694],["ver",-8.99773387335959],["Mc",-9.000884538015274],["significant",-9.00206190066525],["ther",-9.003708046261165],["Ar",-9.00512589667538],["ensure",-9.007955308195498],["black",-9.00812635486951],["famili",-9.008230830965498],["Q",-9.008717249102874],["Janu",-9.014329206660529],["ither",-9.017544664459486],["Center",-9.01832910297938],["ang",-9.020116596989798],["spend",-9.022310657748903],["Our",-9.023500732825624],["earlie",-9.025608405507676],["60",-9.025826010537777],["authorit",-9.026930179795666],["particular",-9.027718002860185],["unning",-9.028838152284601],["affect",-9.030398685339506],["ham",-9.03043675553581],["rest",-9.0306860876657],["ence",-9.030852375587806],["track",-9.032137990039566],["stage",-9.033193233728603],["miss",-9.035501283533137],["serious",-9.035898629380661],["UK",-9.036398701376426],["23",-9.036952804265075],["someone",-9.038121269613637],["plann",-9.038322671663416],["difficult",-9.038484956053534],["activit",-9.038487120935727],["eight",-9.039331708819748],["His",-9.039989267616493],["mind",-9.041668919847819],["emergenc",-9.042054883892135],["26",-9.043089935797932],["disease",-9.043955178926197],["push",-9.044206899526175],["rote",-9.045149607008755],["toward",-9.047621959250847],["meet",-9.048983999716853],["international",-9.049504211853183],["club",-9.049908061818297],["arm",-9.05000963422996],["normal",-9.053283933058523],["mother",-9.05333735007418],["rise",-9.053339547323596],["contract",-9.054790810289354],["World",-9.054856855062502],["soon",-9.057841570772673],["gav",-9.059570508607814],["child",-9.060336923062925],["infection",-9.060653531691667],["San",-9.060927818174408],["ak",-9.061445903291158],["suggest",-9.062682211023857],["private",-9.063172442233764],["senior",-9.065921846023446],["chief",-9.065938740660613],["whole",-9.068047668338593],["ja",-9.069115334327142],["executive",-9.071500314597206],["enter",-9.071561696928],["28",-9.071952201321107],["Go",-9.072545353340253],["deep",-9.072811691498526],["Day",-9.074721368865962],["protest",-9.075443805015038],["operation",-9.075981749155943],["understand",-9.076893342941666],["immediate",-9.077110507217242],["August",-9.077120949974336],["assist",-9.07715556201381],["ach",-9.077645427679883],["Court",-9.08010373137591],["ran",-9.081088981147634],["model",-9.081140037389138],["Her",-9.082498679167047],["respond",-9.082549852199023],["Even",-9.082644460347362],["career",-9.083936792631878],["speak",-9.084197295167812],["interview",-9.085814409937996],["fee",-9.086078406030522],["nothing",-9.086184845454754],["figure",-9.087315890107293],["bigge",-9.09029950375292],["White",-9.09033428443184],["goal",-9.091923370190191],["Har",-9.09402517967279],["approach",-9.094132439195658],["treat",-9.09541359086209],["voter",-9.097990684612682],["cap",-9.09916127695216],["effect",-9.099531166381833],["chance",-9.100771624068251],["music",-9.103523883533857],["ied",-9.104643191481188],["Ho",-9.10813003496406],["match",-9.108498487693334],["study",-9.108542384995754],["performance",-9.108745396904625],["firm",-9.111163909452397],["restriction",-9.1115578835918],["27",-9.112900975697332],["amount",-9.115521049228647],["ke",-9.116540190989772],["girl",-9.11710003007113],["review",-9.11714810744732],["friend",-9.117164031078893],["Sh",-9.11758654863946],["ban",-9.118431269081661],["player",-9.118666865163656],["School",-9.120220596109055],["mis",-9.12065723105257],["sector",-9.12147826182105],["seek",-9.121911141882034],["lower",-9.124577858987593],["schedule",-9.129070649768273],["Octo",-9.129226175639655],["incident",-9.13213902997342],["Dur",-9.132186403335758],["People",-9.135013675747855],["states",-9.135776939238177],["mark",-9.137802141573482],["exist",-9.138009404026949],["attempt",-9.138011522240166],["gun",-9.13809250227698],["receiv",-9.138281058011795],["message",-9.139182268724927],["Part",-9.139193861140434],["Con",-9.140243068124661],["Ex",-9.14183320825109],["agree",-9.142743467260262],["attend",-9.143197092944211],["district",-9.144013764186333],["investigation",-9.144216263427326],["fast",-9.145527108621083],["white",-9.147234318138945],["Lo",-9.149312607370298],["coach",-9.15110576396567],["Me",-9.152186202867135],["aily",-9.153962550454409],["makes",-9.15485114177125],["prevent",-9.15616512388282],["else",-9.156317563363245],["growth",-9.15716461755779],["father",-9.160488483094639],["echnology",-9.161223258824553],["Chief",-9.162213030488463],["expert",-9.162222206913542],["detail",-9.16224316539817],["shows",-9.16346388258997],["lates",-9.16357175761161],["ler",-9.164435770961045],["minister",-9.16807556357125],["victim",-9.168350083359508],["decade",-9.168350182971094],["31",-9.169302800259914],["Park",-9.169709030048509],["range",-9.171636985583742],["Di",-9.17226762018418],["tax",-9.173568615374093],["Government",-9.174532491769536],["essential",-9.174532756564256],["propert",-9.175907449579626],["ism",-9.176758218943023],["practice",-9.177507686405988],["department",-9.17763877863229],["70",-9.177866225931968],["relationship",-9.180796614365285],["production",-9.18145430067641],["begin",-9.181611441185074],["leaders",-9.18361474477228],["similar",-9.18387833433021],["scene",-9.185314209836154],["distanc",-9.185762869379518],["ending",-9.186044655700954],["Donald",-9.186899068066705],["tra",-9.188410628502726],["500",-9.188507926566352],["29",-9.18938749172164],["wife",-9.190352967468055],["reduce",-9.190945189723038],["que",-9.191235786089056],["Febr",-9.195909154675281],["song",-9.196043716451442],["example",-9.19649541896256],["Many",-9.198079248116226],["j",-9.199787727356698],["quarantine",-9.201602788813144],["anti",-9.202630176820948],["conduct",-9.202835481943712],["Mar",-9.202951836581303],["serve",-9.204221558849362],["block",-9.204387256410559],["guy",-9.205005147960154],["Or",-9.205443233245607],["qualit",-9.205601247713139],["build",-9.20922905010287],["capital",-9.20925463169198],["weekend",-9.209473215122665],["dead",-9.210818142939598],["unit",-9.210877670663272],["den",-9.21186745686957],["extend",-9.211910746897772],["popular",-9.212462706972742],["cast",-9.213106634506076],["training",-9.214326003877108],["card",-9.214762799426207],["organization",-9.21578761391654],["lack",-9.21676447872353],["education",-9.216876051404197],["legal",-9.217402082544297],["ca",-9.217552412673758],["active",-9.218520035142118],["idea",-9.21865370379107],["inside",-9.218911331066693],["effective",-9.219296644063864],["Not",-9.21996847468507],["80",-9.220553230017241],["Ne",-9.221658994765235],["daughter",-9.222203150006969],["driver",-9.22270743358727],["loss",-9.22411670387923],["reports",-9.225219992607439],["Na",-9.226422471858584],["suspect",-9.228686247057178],["policy",-9.22882355080786],["update",-9.231437686076653],["Li",-9.231541341316682],["militar",-9.23199332336318],["platform",-9.232024037281203],["football",-9.232346810034212],["Ju",-9.233867047763287],["California",-9.24186553211421],["request",-9.242313172264335],["class",-9.242724823058975],["administration",-9.242864684610591],["Per",-9.243435451929159],["stream",-9.245050789295636],["gain",-9.245051598221924],["enjoy",-9.245206330048433],["raise",-9.245360083633026],["Bank",-9.246019629288927],["ather",-9.25058336867805],["Ba",-9.25086758886711],["stand",-9.252296888656232],["35",-9.253215953301584],["War",-9.253779096380178],["score",-9.256133043306441],["ide",-9.257056444327127],["title",-9.257589049761387],["Ch",-9.25774749229426],["resource",-9.25801336119221],["roll",-9.258510219430189],["summer",-9.258611830723797],["letter",-9.259092331771619],["minutes",-9.260616609113807],["bill",-9.261861910309186],["fear",-9.263555512368804],["doctor",-9.265359052048254],["treatment",-9.26595412456508],["revenue",-9.26610929984405],["ck",-9.266339520850657],["others",-9.26858736775452],["plant",-9.271510416596275],["vice",-9.271711368792928],["sense",-9.272000481786172],["leading",-9.272244048686032],["seven",-9.273387907736662],["cross",-9.275153876829464],["provid",-9.275181445926215],["represent",-9.275275954496472],["crime",-9.275595755232604],["estimate",-9.27559871865075],["Service",-9.275601260087855],["Street",-9.275611132822974],["mar",-9.279684187242665],["population",-9.282490631064375],["Hu",-9.28266799390073],["energ",-9.283375673182583],["easi",-9.283531622507454],["station",-9.283568156124176],["brand",-9.28370497969501],["brough",-9.283724148187602],["step",-9.284337574912824],["decided",-9.28875539284099],["alleged",-9.289437855252558],["screen",-9.291062996085696],["met",-9.292549663768195],["above",-9.29639625717357],["David",-9.29640351181811],["finish",-9.296483070593924],["themsel",-9.29659175865422],["Chine",-9.29667604096112],["Joe",-9.29708454936107],["Nigeria",-9.297826236375862],["actor",-9.298102188361],["felt",-9.299906989010093],["street",-9.300313707023214],["quite",-9.300644645441523],["link",-9.301419021853981],["ger",-9.302007786430416],["via",-9.303240479540172],["fair",-9.304428976267609],["sent",-9.304945928149591],["ious",-9.304966233589763],["hands",-9.306865346085013],["Congress",-9.306957404943482],["probabl",-9.307048457184223],["ell",-9.309164262369165],["usual",-9.310296068702485],["thousand",-9.310643008496449],["original",-9.312086771291142],["Of",-9.312915581378633],["aught",-9.317078347924005],["gre",-9.317438892286834],["maintain",-9.31766362393086],["answer",-9.318249711694403],["huge",-9.318346600720751],["trip",-9.319084050845383],["Africa",-9.319220112113673],["necessar",-9.320281743160288],["fail",-9.320793312583724],["leg",-9.321037707414927],["regard",-9.321147457610603],["piece",-9.321217857349104],["uar",-9.323541457656953],["location",-9.324768087888032],["save",-9.325187818165414],["manage",-9.32755528644714],["More",-9.327586030786769],["El",-9.328400050401505],["Col",-9.328930656002427],["ard",-9.329128940604228],["ways",-9.33139404238009],["Washington",-9.332047843872328],["Act",-9.33204997901499],["happ",-9.332186341181684],["trial",-9.332616833253944],["Every",-9.3353836814498],["regular",-9.335673082771283],["â",-9.335684187702189],["purchase",-9.337507681926905],["Jo",-9.338820117902385],["ster",-9.338829030910667],["various",-9.339357801403827],["90",-9.341580423347398],["ner",-9.341982070722946],["ballot",-9.343335840264327],["user",-9.343632970557586],["conference",-9.343666614315989],["pent",-9.345465533069358],["restaurant",-9.346673300244072],["trust",-9.347479135192579],["God",-9.348517915182228],["success",-9.350124226128406],["General",-9.350368313667705],["Star",-9.351022046161495],["center",-9.352092734016235],["prett",-9.354326721438962],["accept",-9.3577126257571],["website",-9.357828314732666],["ong",-9.358650478244336],["ward",-9.359468828831165],["involv",-9.360228649929818],["gen",-9.361304830550452],["Council",-9.361515865164593],["teacher",-9.36186082624069],["Mu",-9.366193056091543],["Sinc",-9.367050246990885],["fill",-9.367543011940356],["tion",-9.367834184141735],["avoid",-9.368358320985173],["episode",-9.369020571854772],["mer",-9.369550812829104],["damage",-9.370772307471086],["ki",-9.37145941911325],["Facebook",-9.372819319636282],["continu",-9.373946129550818],["han",-9.375389069403122],["dog",-9.375886332023413],["pull",-9.376643251988686],["NA",-9.377930835561362],["fine",-9.378147584543566],["annual",-9.3803952434933],["crowd",-9.380398474150436],["gar",-9.381834590919157],["News",-9.382159870660939],["Po",-9.383582868880435],["By",-9.383664767736441],["feeling",-9.385565058065474],["Mean",-9.386054066391488],["Brit",-9.387444990708403],["easy",-9.389169720188317],["virtual",-9.39187868500511],["East",-9.393542499732686],["gas",-9.394378054495437],["evidence",-9.395739730548549],["contain",-9.396467763171739],["ble",-9.397413047666118],["boy",-9.397852230069624],["gu",-9.398371095033337],["box",-9.398839852318172],["hear",-9.399128582834349],["Ga",-9.399940479027979],["specific",-9.401162391284135],["Ben",-9.401651715262723],["Australia",-9.401810955286809],["respect",-9.403190445218357],["fan",-9.403220607736323],["material",-9.403509744397102],["capacit",-9.404365116802893],["produce",-9.406423455327763],["Bu",-9.406896833328037],["tru",-9.407382892983652],["investment",-9.407744239596628],["ice",-9.40883178049145],["injur",-9.411209525072024],["physical",-9.411359140696447],["log",-9.413062397239178],["common",-9.413237566260857],["factor",-9.413435326496668],["Bar",-9.414473693891022],["accus",-9.414613433473228],["border",-9.415083384479926],["£",-9.41527153020938],["drop",-9.41657715241849],["African",-9.41747044420628],["sell",-9.417592305001014],["High",-9.418318594313508],["husband",-9.41922487729012],["bus",-9.419768343226176],["port",-9.420468465508417],["Com",-9.421387093410107],["page",-9.421517398097325],["table",-9.422882071013799],["payment",-9.424566853509134],["sound",-9.42520792724222],["Green",-9.42522383701252],["vo",-9.425488890409039],["Am",-9.425590888753295],["learning",-9.426908762306283],["imply",-9.428151750948034],["true",-9.430585300731256],["Jan",-9.43114382966121],["choice",-9.431232423311283],["carry",-9.431289820717767],["addition",-9.433111823192563],["flight",-9.434654390354277],["Group",-9.435192743923606],["perfect",-9.435193179514208],["League",-9.435194656153936],["threat",-9.435208746802006],["professional",-9.435463818287772],["lift",-9.43557088542805],["environment",-9.44104969276368],["solution",-9.441134431937744],["version",-9.441223477418912],["har",-9.441567127629447],["Twitter",-9.443273334779313],["ji",-9.443432145164277],["natural",-9.44736513463552],["revealed",-9.449161485117587],["rules",-9.45018930068947],["express",-9.451308392723712],["Johnson",-9.452347442104234],["Canad",-9.45405658079515],["Public",-9.455518358912851],["credit",-9.455635596899253],["standard",-9.455648114358752],["lock",-9.457093322158572],["ville",-9.457320654855252],["Gu",-9.459915273196689],["seat",-9.460692338726808],["cash",-9.463936676263797],["German",-9.46526161427074],["gone",-9.4689825235949],["league",-9.472089596092061],["rule",-9.47211365920609],["pressure",-9.47219523861449],["initial",-9.472381644649808],["Inc",-9.473724929674837],["shop",-9.474052205184258],["Car",-9.474620827935885],["heard",-9.476066706415079],["Air",-9.476067367824099],["Japan",-9.47632717024303],["giving",-9.476560147129833],["creat",-9.476589229441004],["grant",-9.476625855610179],["justice",-9.477306592122726],["Iran",-9.477704011048166],["document",-9.47857573448529],["words",-9.47868842399759],["Ab",-9.479847220674884],["discuss",-9.480018668326306],["wrong",-9.48047123277934],["citizens",-9.482224059433655],["supply",-9.484706770527218],["throw",-9.48570741010115],["aware",-9.485741496523143],["shut",-9.48601310652564],["rank",-9.487290592264511],["award",-9.488060395237802],["slow",-9.488359515670094],["file",-9.48845934885098],["appeal",-9.488970153754963],["winning",-9.48952496244036],["remember",-9.49084451176978],["wood",-9.4909943697417],["Del",-9.491714087152783],["content",-9.492044905955773],["speed",-9.493444164727041],["Senat",-9.494083686023046],["45",-9.494485751493153],["centre",-9.496148803969525],["foot",-9.496985048210092],["judge",-9.497466922964783],["email",-9.499621132268725],["Bill",-9.499854061783388],["hat",-9.500647659186654],["Can",-9.501581449251098],["network",-9.501769142155482],["born",-9.50215852835301],["earning",-9.502452544000317],["ail",-9.502523859198819],["note",-9.50268111230705],["involve",-9.50271203346523],["touch",-9.503148673256279],["inter",-9.503588665216583],["red",-9.504455244780075],["European",-9.505018429310955],["notice",-9.505364505030293],["Just",-9.505435301524898],["Ja",-9.505984196846633],["analyst",-9.506063161621192],["voice",-9.50619876821543],["From",-9.506360270833435],["buil",-9.507043595490167],["fac",-9.507308017338897],["ru",-9.507321603465769],["jobs",-9.507615751521556],["draw",-9.50859076215427],["za",-9.50927189279776],["budget",-9.51039634815628],["che",-9.511640399998043],["door",-9.512566795235118],["holding",-9.51297491715896],["mention",-9.513814998418683],["Bay",-9.514214374287002],["tweet",-9.514783808263449],["ought",-9.51595903483734],["vot",-9.516677628435346],["pur",-9.517843867889965],["fun",-9.518230907827745],["infect",-9.518458738623032],["Hospital",-9.519098994804649],["battle",-9.520818604888294],["followed",-9.521781739614806],["agreement",-9.522366428274081],["standing",-9.523531179682863],["camera",-9.523974881092432],["artist",-9.52417296376366],["warn",-9.524236827623312],["item",-9.524322676519493],["super",-9.524709788909377],["facilit",-9.524813163203337],["farm",-9.525404900308654],["improve",-9.5266408960686],["rain",-9.526769898688542],["Last",-9.528772770134019],["trad",-9.529000499439494],["loan",-9.529677186742937],["encourage",-9.531948513203979],["symptom",-9.532270055464629],["sports",-9.533139813498146],["gra",-9.533359312175449],["critical",-9.534022265480193],["SA",-9.534084274182451],["Over",-9.536455200136167],["poor",-9.536729693171871],["increasing",-9.536759497586411],["surprise",-9.536759698290162],["application",-9.536759850140353],["digital",-9.537331426151699],["suit",-9.53920184959546],["Michael",-9.541223755012087],["college",-9.541223770237792],["brother",-9.541438215104279],["successful",-9.54151322181593],["stress",-9.541587823356712],["Union",-9.541615635384048],["Road",-9.542000586952184],["ility",-9.542605731363595],["Ru",-9.543303038373924],["manager",-9.543356288097224],["publish",-9.54426059140674],["rent",-9.544617634941357],["goe",-9.544859726019574],["broad",-9.545252712678165],["teams",-9.545619613703245],["size",-9.54639541708235],["sales",-9.549340570570983],["hundred",-9.5502126008549],["London",-9.550257733203207],["Sam",-9.550965629499343],["partner",-9.552657927943915],["county",-9.554181350033812],["Indian",-9.554524109765314],["delay",-9.554849615614042],["International",-9.554863191660107],["paper",-9.554981494415141],["kick",-9.555600408146619],["climate",-9.559282959757677],["extra",-9.560245923815023],["income",-9.560822259012255],["Texa",-9.564113017402125],["Paul",-9.564425000415607],["ical",-9.56811177450766],["iv",-9.568119552531794],["foreign",-9.568438196198358],["Scott",-9.569055019511811],["image",-9.57013911270889],["storie",-9.572113032834519],["George",-9.573046601697232],["http",-9.573051597328934],["James",-9.57325881397874],["Director",-9.573844280352631],["movement",-9.574889829533884],["east",-9.577090409486452],["universit",-9.577674258453053],["Smith",-9.577675218248359],["opening",-9.577891474015951],["exchange",-9.578923711731996],["served",-9.579079136470517],["primar",-9.580240811266318],["AP",-9.580471637709064],["van",-9.581494245222316],["mail",-9.582162128160956],["register",-9.582325949902284],["ze",-9.583686590344957],["agency",-9.584000445481438],["ik",-9.585424008630536],["strateg",-9.585957277378448],["collect",-9.586196299295683],["multiple",-9.58699930003197],["shift",-9.587023918992735],["Prime",-9.5874137494723],["pair",-9.588499188557364],["violen",-9.588697691870015],["search",-9.589781042083729],["England",-9.591693637080208],["drug",-9.592900612709611],["Sch",-9.593098258192764],["clean",-9.593135346980699],["victor",-9.596426436407283],["CO",-9.596911227433345],["pack",-9.598986220469406],["spot",-9.599205773969341],["equipment",-9.60114978088837],["yond",-9.603768207184295],["anagement",-9.604400101428402],["Ri",-9.605441342826243],["rates",-9.605763043774468],["pic",-9.609131787110162],["mental",-9.610575509101025],["lose",-9.610617432733624],["extreme",-9.6106960634081],["sexual",-9.61074747849768],["hot",-9.610928189921548],["overall",-9.610959715987425],["writ",-9.611353962510174],["perform",-9.61177101189213],["attenti",-9.613581764743929],["establish",-9.614995685739368],["train",-9.616010691358266],["haps",-9.616124212598688],["ez",-9.616360837234842],["remove",-9.61704490338155],["describe",-9.61761628068084],["transport",-9.620379612560448],["guideline",-9.620788742399144],["exact",-9.620900040582637],["uk",-9.62121169164605],["governor",-9.621931791989134],["Republican",-9.623543725096749],["32",-9.623720183595271],["province",-9.624133556104212],["lie",-9.624985935667851],["First",-9.625191030239067],["culture",-9.625206825992263],["expand",-9.625300332799856],["import",-9.625454475548713],["Don",-9.62564254593019],["word",-9.626356359367358],["shooting",-9.627451426983399],["hair",-9.627643616101441],["definite",-9.630067032481147],["Ministr",-9.630121913404425],["spec",-9.631595426533755],["adding",-9.632969650085961],["fourth",-9.633049347581311],["bid",-9.636208845642525],["Most",-9.636452334256072],["ratio",-9.639172958037353],["asking",-9.639428745324285],["Tom",-9.639844537810024],["Florida",-9.639895099184756],["monitor",-9.639900641907609],["Two",-9.639987581324533],["arrive",-9.640021226407987],["investor",-9.642234469280947],["sometime",-9.64298436690265],["lam",-9.643290892602163],["load",-9.644335734114538],["defense",-9.644845594159804],["blood",-9.644872353739782],["talent",-9.64492441330814],["beginning",-9.644956273315955],["eventual",-9.645124836271073],["basi",-9.645641140377723],["discover",-9.6456564702229],["wall",-9.64735646810032],["picture",-9.648039566803961],["council",-9.64981440175505],["conversation",-9.649820729459215],["Gar",-9.651922188454487],["spokes",-9.6519957851533],["uff",-9.652393244072456],["photo",-9.653207568674288],["nine",-9.65382241958049],["introduc",-9.654726995528508],["negative",-9.655381997790524],["prove",-9.65636004459764],["ker",-9.656797610292486],["novel",-9.657190496495168],["pen",-9.657669727770472],["Here",-9.657677299226858],["path",-9.658039480987526],["named",-9.658553338851926],["EU",-9.659334509449359],["leav",-9.659777288633526],["murder",-9.659854410091576],["approve",-9.659918781956602],["poll",-9.66115544763062],["Red",-9.661238703822502],["Hill",-9.661474137943191],["Ko",-9.662451976735998],["double",-9.664837268669963],["Minnesota",-9.664896453061157],["proper",-9.664987162790862],["generation",-9.66538122443874],["sub",-9.665492246733162],["Du",-9.667570959578576],["offering",-9.667787780307542],["king",-9.667843472088203],["Nigerian",-9.667894448277163],["Vi",-9.66794580476705],["mission",-9.669802940871634],["criminal",-9.669972491821174],["Europe",-9.671201388980977],["Office",-9.6719083466593],["Su",-9.671968148671565],["hop",-9.674363675509356],["Super",-9.676434439641115],["elected",-9.676541439618344],["patient",-9.677141793405749],["couldn",-9.677357528598908],["36",-9.67887854507487],["Well",-9.679353377196254],["debate",-9.680204404615687],["difference",-9.680223096629696],["Robert",-9.680571223302776],["par",-9.682858803373469],["kept",-9.684009337371725],["camp",-9.68418707842315],["acquir",-9.68535876268647],["animal",-9.685388021422533],["Justice",-9.6854639685725],["ax",-9.685788940663134],["Lake",-9.688119004220823],["rais",-9.688760100844815],["church",-9.690540138049816],["District",-9.690607880762082],["purpose",-9.690639741682757],["mix",-9.691663342416426],["Commission",-9.691818970536954],["divers",-9.693825134280633],["alone",-9.694157684462269],["Ke",-9.694568356124025],["King",-9.695192574505278],["é",-9.695746972218664],["subject",-9.695747083315066],["advance",-9.69574874608174],["passenger",-9.695755175376338],["Sen",-9.695939468807357],["yester",-9.696119443946515],["ization",-9.696227398742263],["owner",-9.696274724853271],["celebrate",-9.696405368092169],["relative",-9.696499278619974],["sort",-9.696528554904404],["winner",-9.69657199654624],["weight",-9.697023298364282],["75",-9.697283809806986],["PS",-9.69757436379582],["polic",-9.698244057249688],["34",-9.700597273632312],["earn",-9.70132759704897],["cu",-9.702322263817596],["ney",-9.70278327685002],["fresh",-9.704191783295247],["committ",-9.704228885206224],["implement",-9.705876448562709],["hotel",-9.706446734446391],["tool",-9.706549912377291],["maker",-9.70685926346598],["Israel",-9.706946092004333],["ug",-9.70719588485717],["Los",-9.711098857939064],["device",-9.71177396624152],["listen",-9.712451073203699],["facility",-9.713920695970225],["Let",-9.713994056515283],["Other",-9.714100489736962],["scale",-9.716184859711689],["color",-9.717090546931693],["37",-9.7173956184538],["pet",-9.717958473433745],["bag",-9.718335574619218],["burn",-9.719202631039575],["Home",-9.719537352939994],["decline",-9.719585832698215],["surance",-9.72069204943133],["55",-9.72122017167616],["favorite",-9.72223545773312],["Mark",-9.722291763004847],["fer",-9.723292092251182],["MP",-9.723995812590665],["ng",-9.724229142335268],["locat",-9.724300828652645],["suffer",-9.726344620521726],["wave",-9.727236570149996],["Pre",-9.727455938809335],["profit",-9.727567778879228],["€",-9.727579097144094],["tough",-9.729806351808218],["consumer",-9.730041804301685],["Force",-9.730892424474657],["bu",-9.731847104827024],["reopen",-9.732455992846985],["dress",-9.73251638314502],["Central",-9.732985336702225],["holiday",-9.732986585965598],["Christmas",-9.732987337742273],["spring",-9.733066611737437],["commercial",-9.733144009300636],["spoke",-9.7331602548626],["BTC",-9.7333929362717],["En",-9.734100051884711],["obvious",-9.73427053703293],["Any",-9.737311119629519],["employment",-9.739203850159193],["gathering",-9.741431739932327],["Pi",-9.742422252834029],["write",-9.743037187982232],["38",-9.743066231922345],["Prince",-9.743886733625525],["chang",-9.74396990770327],["Board",-9.744106820581592],["article",-9.74418568359377],["afford",-9.746104359552044],["Port",-9.746790557008376],["crew",-9.749429962616375],["threaten",-9.74946811426394],["charges",-9.749538320645808],["statu",-9.74985677106849],["craft",-9.749900083568331],["driv",-9.750148568771351],["lic",-9.750558948908644],["compar",-9.752675297918653],["Arm",-9.753512371411208],["99",-9.753624000869719],["Association",-9.754903944981734],["competition",-9.754959147227943],["33",-9.755561756217475],["warm",-9.756790029402477],["rich",-9.757109264265829],["finding",-9.757136179793658],["eyes",-9.757696367276404],["Sea",-9.757739914601045],["lum",-9.757764279624983],["Un",-9.757897511361037],["nel",-9.760237414007857],["style",-9.760322749458282],["straight",-9.76045991496492],["tagram",-9.760569716459138],["Carolina",-9.760601048915504],["committee",-9.76060319597418],["homes",-9.760790963096737],["unique",-9.760814317769245],["strike",-9.76087427906884],["pop",-9.7637398034404],["balance",-9.763915929172576],["progress",-9.765703843279827],["volunteer",-9.766046092701572],["degree",-9.766048746719633],["River",-9.766210349830061],["Why",-9.766263835058151],["rush",-9.766515437435945],["300",-9.76703173925878],["48",-9.767074526541467],["lan",-9.768784517206717],["absolute",-9.771664070227974],["welcome",-9.771864934804256],["cat",-9.772471860174779],["incredibl",-9.77274338757056],["Sal",-9.772744753807675],["central",-9.773008895340594],["hearing",-9.773015497761577],["society",-9.77315905048263],["amid",-9.773838058125037],["ick",-9.773874087227448],["berg",-9.773908566716939],["ette",-9.77503110106328],["LA",-9.775168188604933],["bra",-9.776887091130423],["Governor",-9.777314005786554],["Apple",-9.777922497674664],["Cha",-9.778250836914818],["intend",-9.779852340358094],["qui",-9.780777812780798],["fell",-9.781124283870025],["wors",-9.782145821212726],["electric",-9.783025639132017],["hurt",-9.783115754783996],["afternoon",-9.783250483385473],["Like",-9.783408781446758],["39",-9.78404230784071],["mate",-9.784450507379423],["author",-9.78448881833848],["catch",-9.784720404399401],["Will",-9.784995311456248],["rights",-9.785413483709593],["trend",-9.786610445655704],["65",-9.786954816631605],["simple",-9.788857710104082],["Angeles",-9.7890593452219],["connection",-9.789092734860732],["Mike",-9.789196368593387],["prison",-9.790611079246332],["cur",-9.790730649899398],["Ed",-9.791287241965517],["equit",-9.793298551586048],["abuse",-9.793387394073587],["Lu",-9.794944349324602],["flow",-9.795664107365118],["bio",-9.79575130098008],["amp",-9.796453720765609],["minute",-9.796761836793934],["Ram",-9.797074153522573],["wish",-9.797231262453282],["propose",-9.798208803907155],["lay",-9.798608610028129],["jo",-9.799282912545646],["middle",-9.800256259647677],["dream",-9.80051511933384],["Mal",-9.800858836817456],["bringing",-9.80133417826038],["zing",-9.802157072230202],["Gra",-9.803304779296235],["reveal",-9.803494577381837],["wise",-9.803792098945863],["cook",-9.804251332177547],["wouldn",-9.804683724030753],["Committee",-9.80605131841706],["boost",-9.806053808556063],["lawyer",-9.806322825781887],["NFL",-9.806336943540874],["construction",-9.806406385062523],["display",-9.807046894612554],["Br",-9.809680252972008],["tz",-9.809711414791492],["weather",-9.81039511032413],["audience",-9.811899858523283],["cell",-9.812009064440801],["sleep",-9.81201318670593],["grand",-9.81279658135613],["mass",-9.814564023867813],["traditional",-9.815161311492067],["Big",-9.815242561948994],["identifie",-9.817781629714212],["Chicago",-9.817782045617665],["client",-9.817782357077437],["CEO",-9.817791621402979],["jump",-9.817821514227774],["green",-9.81792739839025],["operat",-9.819091135689636],["politic",-9.819555173931747],["Dan",-9.82330281915816],["debt",-9.823765129454838],["discussion",-9.824349204219097],["ction",-9.82497891019221],["distance",-9.826130792424237],["zi",-9.826438308638743],["itch",-9.826614420996982],["sister",-9.826644734957156],["invest",-9.827042534316789],["predict",-9.828578779690076],["guard",-9.829429764987854],["harm",-9.829681451568842],["ku",-9.830138802773284],["baby",-9.830704225085682],["ride",-9.831307442773385],["hang",-9.832269205033128],["row",-9.832695588691106],["imp",-9.833602999678309],["type",-9.834244207656173],["engage",-9.835156462859274],["Compan",-9.835893225705387],["north",-9.837502565436715],["putt",-9.837528025811482],["crash",-9.837708716450488],["Secretar",-9.838693602112576],["Rob",-9.83870851250974],["Fi",-9.839363899516899],["sex",-9.839926198317013],["ural",-9.841232490834049],["responsibilit",-9.841663291712898],["Mac",-9.84199535838156],["massive",-9.842014810720922],["DA",-9.84316679024578],["male",-9.845051243457256],["ible",-9.846420172542516],["ease",-9.847187395890803],["setting",-9.847537936659451],["doubt",-9.847710872472497],["France",-9.847998918437614],["inform",-9.848194858235875],["responsibl",-9.848350154970465],["domestic",-9.848660864910705],["Both",-9.848904115921902],["union",-9.849655838105297],["ski",-9.849728101923054],["producer",-9.850711385949076],["hous",-9.85227229931403],["defeat",-9.853853037899976],["retire",-9.854965904396478],["ative",-9.854989166408377],["winter",-9.856237833893793],["BC",-9.857146158815194],["trac",-9.857895552860743],["please",-9.858639265824294],["peace",-9.859683913099037],["€™",-9.859957348380675],["urg",-9.86021970010493],["dark",-9.86118657508034],["reporter",-9.862349529024868],["chi",-9.863222217689419],["steps",-9.864365775189597],["Williams",-9.864780489216361],["majorit",-9.865744125499681],["civil",-9.865921875177564],["depend",-9.866125153109966],["refuse",-9.866216914395832],["surge",-9.868553020724656],["writing",-9.869507318019718],["DC",-9.86954688787537],["scor",-9.872359831172808],["pool",-9.872702035474614],["worse",-9.873172139694214],["campus",-9.87384499210762],["ju",-9.87468076251631],["zone",-9.875382550549919],["priorit",-9.877219848081785],["promise",-9.8774280986781],["yourself",-9.878117511744536],["evening",-9.878223786064554],["+",-9.878590441585452],["associate",-9.87859044514908],["College",-9.878592408479843],["separate",-9.878592752442959],["adult",-9.878610120414688],["print",-9.879084420512912],["rising",-9.879108382620927],["ium",-9.879701259878317],["household",-9.879779725591554],["sides",-9.880384992358156],["thank",-9.881908884781296],["floor",-9.88488086702776],["weapon",-9.884898667325636],["session",-9.88543402209055],["sick",-9.885816702721204],["Mari",-9.88641291619198],["classe",-9.886588444602928],["observ",-9.886993468957389],["Ver",-9.887891118495594],["CC",-9.88792496163525],["writer",-9.88818780809818],["pan",-9.888671657493354],["multi",-9.89098008719122],["basket",-9.89121075517524],["qua",-9.891937111044072],["upon",-9.893058150555216],["operate",-9.893508437089633],["Hol",-9.893539557322502],["rock",-9.893845480841044],["Fire",-9.894355614937982],["ries",-9.894440473838754],["MA",-9.89496332103575],["reflect",-9.897109292075305],["vision",-9.897423065670413],["older",-9.89804910055111],["cho",-9.899088273540798],["Management",-9.899116774256717],["UN",-9.899172576347883],["Wi",-9.899266093099651],["cancel",-9.90005966045563],["chair",-9.900277855921274],["stick",-9.901268158547948],["Officer",-9.90157665182186],["Ken",-9.902599173291314],["nforcement",-9.902839486742877],["Law",-9.90309450642166],["Final",-9.903924566298137],["vulnerabl",-9.903988563784992],["categor",-9.903988885210026],["Adam",-9.904328414606255],["49",-9.904849610353555],["Che",-9.906573299468388],["oul",-9.90991583657219],["IT",-9.910050189244785],["sale",-9.91021742284838],["chain",-9.910244136024746],["Brown",-9.910999020879068],["Gov",-9.91129579035082],["meant",-9.911778220245228],["realit",-9.911915576764525],["survive",-9.913133779904623],["lip",-9.91343737055205],["hip",-9.914702966888317],["equal",-9.916091455384183],["tree",-9.916171927628454],["yards",-9.916174856743542],["Canadian",-9.917180814794424],["influence",-9.917185058492448],["honor",-9.917768052141199],["rap",-9.918332512834594],["47",-9.918555254187748],["Up",-9.919411290577223],["Peter",-9.919628917938057],["tech",-9.919836539657178],["95",-9.91999651478771],["urge",-9.921389653597538],["approximate",-9.923469613960451],["temperature",-9.923469615788871],["ultimate",-9.923469626782108],["language",-9.923469653655236],["science",-9.923470368629442],["freedom",-9.923470576261579],["survey",-9.923471713938593],["wonder",-9.923536720665592],["agent",-9.923580057328309],["Work",-9.92360080010694],["suspend",-9.923614720338627],["gift",-9.923731401456301],["Earl",-9.924544186783198],["Game",-9.925475861571716],["EC",-9.925667560326572],["Island",-9.926424111519072],["killing",-9.9267612126513],["wan",-9.928985836862488],["46",-9.929194359295604],["nature",-9.929699614144013],["apply",-9.929728518108897],["flood",-9.930048595770039],["mobile",-9.930049353122685],["Amazon",-9.930049452600313],["Securit",-9.930049739232334],["upreme",-9.930153964733357],["Th",-9.930159066882052],["ture",-9.93039023802423],["storm",-9.930451022738392],["severe",-9.930630956785228],["Qu",-9.931136459866064],["rie",-9.931268755600176],["Victoria",-9.931877914118328],["flag",-9.933978895694676],["hole",-9.934694176036121],["exercise",-9.934933325229322],["meter",-9.935669080654632],["solid",-9.936671096670512],["speech",-9.936671445255712],["heavy",-9.936678123899437],["recognize",-9.936815423690547],["struggle",-9.936990832041154],["relief",-9.937038768020816],["ix",-9.939464977589616],["flu",-9.939734870730444],["edge",-9.940428821026668],["44",-9.94048908206609],["rac",-9.940799963138229],["closure",-9.943241835137115],["43",-9.943253491792259],["Premier",-9.94333822934768],["machine",-9.943352939183075],["Chi",-9.943385194463879],["CA",-9.94342682246535],["collection",-9.943997207849076],["partie",-9.94673880336713],["PC",-9.946834555261947],["fix",-9.947263435561823],["independent",-9.947899937897045],["wild",-9.949850563063869],["Centre",-9.950060947494276],["Under",-9.950088705630066],["ticket",-9.950126972292669],["phase",-9.95057775355377],["Fund",-9.950585521500997],["showing",-9.950760532306345],["az",-9.952242119682072],["ox",-9.952302441341619],["uck",-9.953158685450637],["sport",-9.95377589686609],["Democrati",-9.953998511876808],["FA",-9.954428700666444],["truck",-9.956523065914572],["miles",-9.956528521239772],["typical",-9.95681029962428],["FC",-9.957427697441851],["Russia",-9.958004480939211],["rel",-9.958266982065302],["ili",-9.960348416576087],["corner",-9.96052743561228],["guid",-9.960821039956883],["youth",-9.960878661209817],["package",-9.962276782680059],["window",-9.963615187464226],["studie",-9.963662019130645],["shock",-9.963686047831203],["Oct",-9.963907351243893],["rose",-9.965363780000406],["communication",-9.96544416778226],["grade",-9.965646628661418],["Da",-9.966720614701433],["journey",-9.970458751481223],["album",-9.970490183012775],["Harris",-9.970568219903516],["ID",-9.97078226989813],["Chris",-9.971133098638706],["section",-9.97118621380176],["Brita",-9.97263044192635],["burg",-9.9737950900223],["Tok",-9.973889081836443],["draft",-9.97404199354917],["asset",-9.974617981059346],["connect",-9.974881478409298],["allegation",-9.977355775668254],["dangerous",-9.977449036205853],["beautiful",-9.97756774510758],["south",-9.978378972305322],["traffic",-9.978707273118061],["breath",-9.979243759853297],["Art",-9.980119675697704],["Bi",-9.980905174104992],["wind",-9.981033506398632],["carrie",-9.981812101939862],["ola",-9.98237135296025],["ou",-9.982819492815079],["memor",-9.983869152200032],["structure",-9.984298926628599],["remote",-9.984299078243666],["scientist",-9.984300767896947],["alternative",-9.984318644851516],["val",-9.984635112574823],["isolation",-9.985012021251919],["farmers",-9.985433330750343],["Alex",-9.985628544116384],["rally",-9.986638168023699],["choose",-9.987056463673461],["Australian",-9.987337193389823],["Gen",-9.989395115005731],["Tri",-9.989762597117732],["cancer",-9.991548603822979],["Cup",-9.991685077271935],["cool",-9.992365491789478],["thinking",-9.993271058088153],["graduate",-9.993339951928935],["comfortabl",-9.993360754740516],["meal",-9.994718392991764],["prepared",-9.994954754293374],["cra",-9.9964450995322],["French",-9.998334919141783],["Googl",-9.998380684304227],["infrastructure",-9.998601292668518],["Jones",-9.999132005897138],["sitting",-9.999393845866097],["stuff",-9.999404189895301],["Sp",-9.999483508468805],["highlight",-10.001042468027173],["42",-10.001807411375246],["secure",-10.001971948583488],["pain",-10.003423114777803],["gate",-10.00522436396722],["assault",-10.005426563483002],["village",-10.005428088096872],["Federal",-10.005428411004779],["female",-10.005444884348117],["drink",-10.005468088119098],["Coronavirus",-10.00547264817013],["skills",-10.005485170220133],["scheme",-10.005547583961704],["Year",-10.005939054305852],["requirement",-10.00705478642853],["Nor",-10.007424090491982],["ND",-10.008501115390434],["kar",-10.009272298261447],["HO",-10.011116371440249],["supporter",-10.011148261770803],["advantage",-10.012473110721409],["conflict",-10.012569264602169],["caus",-10.01289186565678],["protection",-10.014210144282163],["soft",-10.014229717308044],["truth",-10.014953562704669],["institution",-10.015004059771769],["prior",-10.016118791880338],["toll",-10.018811059634174],["inspir",-10.019386696989969],["Cor",-10.019439822280786],["attorney",-10.019764121314683],["opinion",-10.019765618351615],["entertain",-10.019775987743694],["Though",-10.020194224461413],["distribut",-10.020669250249775],["complaint",-10.020813700255527],["defend",-10.020967944380466],["Blue",-10.022112188974914],["provider",-10.022991681715148],["ake",-10.025642859407176],["programme",-10.026834180970049],["complex",-10.027009887335872],["announcement",-10.027330387513798],["airport",-10.02749235460221],["opt",-10.0277426850025],["Sun",-10.02899216628489],["ttle",-10.029106022393519],["Communit",-10.030248332730604],["pot",-10.031110461458237],["resume",-10.031203893335746],["pped",-10.03121310322264],["recall",-10.03314971945397],["knowledge",-10.034274218667893],["modern",-10.034321575496598],["amazing",-10.034333235446534],["supposed",-10.03436091533965],["fuel",-10.034435819011508],["LLC",-10.034915079519568],["Kar",-10.036122060922235],["beat",-10.037461914007771],["outdoor",-10.038057680110057],["owners",-10.03842462900787],["struggl",-10.041307085127938],["appropriate",-10.041603876306183],["ceremon",-10.04166269452691],["dozen",-10.041662869575326],["recommend",-10.041791633915544],["capture",-10.041792913033918],["mile",-10.04313166235428],["bear",-10.044176336243579],["pitch",-10.044434358582068],["offers",-10.044627057210331],["41",-10.045042595273172],["Par",-10.04513111832426],["Ali",-10.04532082795357],["supplie",-10.045857883111445],["advise",-10.045965974661563],["serving",-10.046066440324704],["trick",-10.046249715034625],["bond",-10.046584870572442],["Ber",-10.047604991866006],["warning",-10.047719313588598],["dropp",-10.0478921344834],["Tra",-10.048289749856144],["Martin",-10.048813689115637],["corporate",-10.049070854837712],["proud",-10.04910504569678],["root",-10.049113669812876],["element",-10.049220294736173],["Hi",-10.049317818075018],["Andrew",-10.049554649179985],["Inter",-10.051645272681291],["excited",-10.052528085174517],["investigat",-10.05344758650062],["lab",-10.054299379029228],["lim",-10.055556985267168],["regional",-10.055677743520137],["MC",-10.05612540429249],["giant",-10.056541936779986],["elling",-10.05655530877523],["opposition",-10.05659713108303],["losing",-10.056611775550056],["Who",-10.056961433209677],["Fox",-10.057400551197524],["Max",-10.058682077679327],["Vic",-10.058932563133112],["confiden",-10.059160429956597],["hall",-10.059743332023007],["indicate",-10.06107687071726],["400",-10.061102533498396],["gold",-10.061410017759586],["AR",-10.062793984661528],["Den",-10.063384054735817],["ER",-10.063781318953218],["skin",-10.063949395897847],["smart",-10.063969625817158],["initiative",-10.064051345496997],["Business",-10.064054026654095],["Right",-10.064057543048085],["Research",-10.064507276826685],["journalist",-10.065107174440794],["Frank",-10.065543887138485],["worrie",-10.065953746958721],["ON",-10.067697347123309],["reading",-10.067942494705402],["Ni",-10.068137385907459],["route",-10.068189424329084],["ory",-10.068587786354264],["handle",-10.069608213275803],["ES",-10.070147155322601],["protester",-10.070165730075416],["valu",-10.070946279267986],["nice",-10.071090049347916],["possibilit",-10.0716267419821],["appli",-10.071646733439428],["transition",-10.072131780424641],["shape",-10.072191546367412],["TA",-10.072679096463645],["crore",-10.072798139967308],["RE",-10.072818374603205],["AT",-10.073838254421185],["combat",-10.073873931032788],["NC",-10.073980236608838],["ST",-10.074379933518916],["happening",-10.076242741082678],["Russian",-10.0779085879402],["plane",-10.078929525692363],["Capital",-10.079263492101505],["retail",-10.079771551006024],["guest",-10.0806569639639],["remind",-10.081041374236102],["insist",-10.081401600113399],["Cal",-10.081939654944723],["Bl",-10.083057508687423],["outhern",-10.083255538973102],["ure",-10.085069841348352],["Thank",-10.086954239512767],["Disney",-10.08700990661383],["consistent",-10.087037243908178],["Market",-10.087163437367774],["politician",-10.087367645224706],["aim",-10.087398224144689],["prime",-10.088058214736463],["trades",-10.090434364005702],["Mayor",-10.092290175544111],["Hall",-10.093132076676014],["onic",-10.094573620713154],["coast",-10.095598313617154],["yard",-10.095674585587446],["creative",-10.097412535570946],["ram",-10.097416234442587],["TO",-10.097649316697051],["injuries",-10.097994651653655],["wage",-10.0983082490005],["Georgia",-10.10200485219816],["circumstance",-10.102517075490702],["constant",-10.102517293124777],["Thomas",-10.102517843559411],["Church",-10.102522807047475],["Region",-10.102576587506569],["married",-10.102603388627957],["Valley",-10.102682171376149],["GO",-10.102742486551072],["Good",-10.102989440821688],["heat",-10.103317029992176],["telling",-10.103388543285753],["function",-10.10349586369766],["Ku",-10.10600286885292],["Tre",-10.106786770719237],["Republicans",-10.107630638314191],["strict",-10.108358302329556],["tip",-10.108441292147539],["gather",-10.109214278268839],["destroy",-10.110391116755613],["proposal",-10.110391599162234],["Plan",-10.111342773454123],["powerful",-10.111354109185168],["Wal",-10.111798389295975],["Shar",-10.112826806077251],["Bre",-10.112990505464818],["direction",-10.113543996885866],["56",-10.113908154628884],["Serie",-10.114205809256383],["appearance",-10.114810255164436],["Pri",-10.11504861205092],["Tu",-10.115413441819335],["85",-10.116992728837385],["illness",-10.117557990179378],["je",-10.117645713918641],["task",-10.117810696132477],["Jack",-10.11799346344948],["mph",-10.118249936723142],["spirit",-10.118288538214532],["atic",-10.118349565757692],["Wood",-10.118375572228722],["master",-10.118503601906475],["commitment",-10.118536922081484],["66",-10.119625728626431],["erry",-10.119697128288356],["dance",-10.120436741911448],["correct",-10.120617944725678],["Corp",-10.120778582949951],["interesting",-10.121867257295818],["donate",-10.12240759493347],["donation",-10.123204912164663],["reopening",-10.124283022275225],["Grand",-10.124614619069789],["Val",-10.12497125516725],["manag",-10.12507877651604],["Your",-10.125478631136374],["tournament",-10.126327635800912],["famous",-10.126329976838626],["fellow",-10.126336599245011],["Christian",-10.126387840693633],["Virginia",-10.126884847525083],["respective",-10.127029693578422],["replace",-10.127113687908299],["cul",-10.12803204000336],["nurse",-10.128952314754109],["secretar",-10.129780301228703],["ich",-10.129783486739495],["Post",-10.130989819470294],["researcher",-10.131016046989386],["Mad",-10.131180520559823],["challeng",-10.131437781516611],["rough",-10.13168667593568],["agenc",-10.131898690237641],["reform",-10.132454299376889],["Als",-10.13404818812928],["employ",-10.134279372113637],["Daniel",-10.134393639522372],["internet",-10.134393668559785],["apparent",-10.134592040003016],["!”",-10.134628109741074],["chose",-10.134675817319806],["bridge",-10.135238998537165],["ncy",-10.135600882559661],["Fr",-10.135641054908834],["App",-10.135719472800869],["68",-10.13610649702171],["contest",-10.13730614183028],["Nation",-10.138773812263505],["occurr",-10.139089177853187],["Han",-10.141483505202904],["breaking",-10.142214195960118],["veteran",-10.142538126403736],["surface",-10.142627865888475],["jail",-10.142769672509086],["text",-10.143027057553713],["joint",-10.144378931656437],["engineer",-10.145204930142928],["cop",-10.146328395570205],["disappoint",-10.147310702941626],["Lee",-10.1477433236502],["stoppe",-10.14809177284955],["radio",-10.148182936389489],["ping",-10.148754495033389],["wealth",-10.150777769588634],["Follow",-10.150805662376943],["Korea",-10.15345718485825],["pound",-10.15436483579936],["wake",-10.154520095289058],["Cas",-10.154943403859466],["egg",-10.156495785493107],["books",-10.156866799994903],["cle",-10.157432435839276],["strength",-10.158918230650631],["method",-10.158984737548504],["margin",-10.158990050425059],["failure",-10.159092972633989],["Team",-10.159132904122607],["ual",-10.159269162152185],["ruling",-10.159521246634784],["Sanders",-10.159740131872836],["lines",-10.159872361207963],["ollywood",-10.159878252953192],["invite",-10.160540607587306],["Play",-10.16060224701371],["twic",-10.160644966315305],["uch",-10.160759559296753],["sentence",-10.161212946984143],["Chair",-10.161873342743075],["Nav",-10.162187337558034],["understanding",-10.16284949210096],["broke",-10.162894331245429],["shoot",-10.163441289194662],["bann",-10.16500221795572],["cold",-10.165324587192618],["trail",-10.16584891535961],["tuck",-10.16625241839232],["cor",-10.166493842793411],["professor",-10.167316713398872],["approval",-10.167316787986316],["stretch",-10.167318991134135],["Institute",-10.167435565892982],["admitted",-10.167451368231815],["transaction",-10.167507400277373],["protocol",-10.167540807881648],["batter",-10.168334078880925],["witness",-10.168459363138215],["division",-10.168840744014187],["imagine",-10.16974108489487],["blow",-10.17029144488681],["aka",-10.170659723683457],["%.",-10.170688502648218],["Real",-10.170762018705965],["panel",-10.171109475312978],["Commissioner",-10.173777230984488],["sky",-10.174509364921555],["vent",-10.175234217415724],["transmission",-10.175778858479262],["Harry",-10.17581937595966],["plus",-10.175835412906139],["representative",-10.17585440719321],["RA",-10.176253664058075],["mouth",-10.176328353161658],["AC",-10.176375689420496],["presen",-10.177785894328332],["citi",-10.1789752091467],["Times",-10.179170263778978],["Feb",-10.179714771364857],["participate",-10.181236779951504],["para",-10.181673527062939],["code",-10.182170715135946],["haring",-10.183325432932413],["core",-10.183778673904335],["scenario",-10.184194650164553],["regulator",-10.184194651416963],["opponent",-10.18419465146531],["religious",-10.18419474747829],["Club",-10.18419479344428],["regulation",-10.18419568559474],["rapid",-10.184250461589556],["internal",-10.18426862185075],["Development",-10.184301926206878],["hood",-10.184353812039577],["saving",-10.184412028053035],["apartment",-10.184696496833356],["Jackson",-10.184778571013345],["SE",-10.185736614810004],["honest",-10.185912214582851],["mom",-10.186463806397306],["waste",-10.186526902203507],["Out",-10.186566535887103],["emerg",-10.18665027391182],["familiar",-10.18727210050548],["76",-10.187839855588969],["fence",-10.19012935101555],["Love",-10.190159474520181],["achieve",-10.192474370012143],["adopt",-10.192643122214363],["English",-10.192741663053626],["channel",-10.192752322033265],["Royal",-10.19282459436316],["forecast",-10.192947875857755],["oppos",-10.193228833947444],["distribution",-10.193306464802014],["Bal",-10.193549321677821],["holder",-10.193572178563464],["Ki",-10.194177389242556],["ministr",-10.194266865672382],["boat",-10.194373940000094],["Avenue",-10.194867052977234],["53",-10.197494186030397],["promote",-10.198361697278898],["800",-10.199185597063924],["Ge",-10.199782444755348],["owns",-10.200008400176923],["sight",-10.200190207747793],["PD",-10.200202347664817],["impose",-10.200856608186378],["tackle",-10.20115161647362],["Pakistan",-10.20136252076134],["dividend",-10.201408576516847],["ried",-10.201546931078195],["Mor",-10.203271544793996],["Luc",-10.203336579945429],["bough",-10.20398511103813],["produc",-10.204155565111424],["PM",-10.205606918968204],["accident",-10.206132436461555],["rang",-10.206205346633526],["closing",-10.206675743664245],["outcome",-10.207091787137223],["NB",-10.20718699817931],["entry",-10.208410655084961],["52",-10.209382762095082],["enable",-10.209489418969044],["raw",-10.20950533739664],["dry",-10.209841104404104],["studio",-10.210059888796618],["rescue",-10.210140743501317],["recommendation",-10.210493643785387],["54",-10.210963086861934],["600",-10.212160320919487],["NH",-10.213556537218833],["goals",-10.21411343252429],["island",-10.214485590373485],["64",-10.215168823745048],["orrow",-10.215171897383202],["88",-10.21556210234346],["onna",-10.215654027805517],["ung",-10.216568627387396],["84",-10.218463806046056],["tend",-10.218661073034465],["blue",-10.218832008101518],["Election",-10.218903837095208],["glass",-10.218923827337807],["relevan",-10.218929085965016],["length",-10.218995144981704],["mayor",-10.219048381761922],["auto",-10.21918574232942],["aspect",-10.219396490577553],["sustain",-10.219724257724899],["pri",-10.220667803877088],["ock",-10.220746230091663],["Mon",-10.22078807824968],["runs",-10.220925974112433],["plent",-10.220973855973359],["century",-10.222285289361754],["Aug",-10.222822372714926],["Mil",-10.22311983155431],["viewers",-10.223650846593348],["MS",-10.22406457976524],["pray",-10.224133537499121],["CDC",-10.224841433390774],["tel",-10.22517500915773],["ramp",-10.225318699921894],["78",-10.225853359557707],["Ya",-10.22601088012954],["slight",-10.226444078171564],["BA",-10.22666346475335],["deploy",-10.227193179736023],["rival",-10.22731453688979],["guilt",-10.227679707716952],["obtain",-10.227681266708172],["illegal",-10.227703415238334],["Western",-10.227761353636875],["broadcast",-10.227880919341569],["Iowa",-10.228591258847953],["meaning",-10.228770065403275],["teen",-10.228968534452475],["ington",-10.229560993352147],["Human",-10.22963128999811],["chester",-10.230071903780157],["basic",-10.234503056727004],["controll",-10.234562542857255],["vin",-10.234831352682736],["expose",-10.23550570700885],["polis",-10.236356361644527],["trouble",-10.236449491389777],["transfer",-10.236576990459557],["franchise",-10.236608386042034],["provision",-10.236797910113939],["mal",-10.236923580541543],["mond",-10.237252671642898],["59",-10.238318607170575],["ignor",-10.238435502732981],["photos",-10.238631242663642],["television",-10.23932398483267],["variet",-10.23943480012578],["mic",-10.240866449757519],["combine",-10.240880694860838],["uncertaint",-10.241509965216604],["environmental",-10.241541569036919],["determined",-10.242679592095238],["Ten",-10.243195759250515],["hell",-10.243698142981735],["minim",-10.243978122366483],["instance",-10.24438788446102],["denie",-10.244426558671574],["Rock",-10.24488664239147],["singer",-10.24509577199785],["tag",-10.245229415464419],["identify",-10.245617074141114],["permanent",-10.245619856402776],["desire",-10.245620662503836],["shelter",-10.245634648574306],["Micro",-10.245756757814444],["Richard",-10.245831611175323],["steal",-10.246032880676633],["deput",-10.246996195036836],["Gold",-10.247778246120484],["57",-10.249318907830418],["bal",-10.24943729895563],["visitor",-10.24949267248913],["commission",-10.249884524615242],["77",-10.250199993699987],["passe",-10.251102710090095],["Long",-10.251448248356763],["67",-10.252037690319622],["bright",-10.25258247777335],["Dar",-10.252692443259107],["immun",-10.252742141630076],["shire",-10.253415086838256],["determine",-10.254132450694197],["trans",-10.254479369553184],["champion",-10.25458211567873],["volume",-10.254709640224316],["Ohio",-10.254733250830263],["Three",-10.254743414901021],["false",-10.254750546198661],["finance",-10.254903497037752],["Maine",-10.25548332987581],["coverage",-10.25582156596855],["Yes",-10.25621554615597],["blame",-10.256282665339102],["hopeful",-10.256624299372747],["Net",-10.257638530661382],["62",-10.25784596727074],["unlike",-10.258193989658317],["72",-10.258723528219985],["unny",-10.260424089850748],["map",-10.261141856543343],["gue",-10.261602313150796],["ray",-10.261907377166697],["LE",-10.262808881079525],["advertis",-10.263882394882524],["troop",-10.263883342822862],["Week",-10.26435634814065],["worry",-10.264473089447922],["BO",-10.264491545124955],["cal",-10.264719734257952],["happens",-10.26505839583705],["EP",-10.26541769869645],["manufactur",-10.265500573813284],["rail",-10.266620746788302],["Authorit",-10.267401240909564],["prepare",-10.267468812118615],["flat",-10.267714038567483],["covering",-10.268070849431536],["secret",-10.26899806882309],["Mexic",-10.269229371064899],["govern",-10.269338564905047],["pal",-10.270823028353192],["declare",-10.271023066693934],["96",-10.27144597443938],["Kan",-10.271474905005583],["featur",-10.271524907318362],["fish",-10.272725195667228],["Onc",-10.272761730753066],["Education",-10.273141549613271],["Floyd",-10.273141592553348],["prospect",-10.273144798767785],["recruit",-10.273149288623667],["appoint",-10.273211143846172],["consequence",-10.273212614188056],["numero",-10.273217655079858],["gender",-10.273352911495017],["organisation",-10.273450690880424],["festival",-10.27354607485173],["Medical",-10.273840191664435],["rick",-10.274160873103918],["decide",-10.274247455298209],["ric",-10.274347662000638],["creation",-10.275074258070022],["Bell",-10.275143412798107],["softw",-10.27552230841048],["doors",-10.276023838912305],["Great",-10.276735469556256],["reaction",-10.276838027921329],["appointment",-10.277595949278915],["recogni",-10.277755654301522],["partners",-10.278516663598612],["handl",-10.27905234965113],["Ak",-10.279306974156881],["Mer",-10.279853992642863],["possibl",-10.280232978579551],["mine",-10.280431874077642],["graph",-10.28070969382161],["ika",-10.280765642616878],["lies",-10.281514453497948],["busy",-10.281658246876802],["Care",-10.282059423602362],["Student",-10.282488767810316],["segment",-10.282498268386682],["58",-10.285294973863978],["guess",-10.286493215634236],["98",-10.286722756012566],["drugs",-10.288937264383058],["reduc",-10.289469180783728],["gam",-10.289529124768482],["everal",-10.289545604498578],["airline",-10.289625222350487],["Gi",-10.289855803363306],["rage",-10.290011241420387],["detect",-10.291603686446434],["neighbor",-10.291883352811595],["Parliament",-10.291921305348922],["sudden",-10.291923369038836],["license",-10.291924393219157],["Social",-10.291972458048146],["vital",-10.292286042793705],["reject",-10.29232896362333],["Bel",-10.292447536056468],["postpon",-10.292490336247056],["boss",-10.293409678235296],["Mont",-10.294319251035322],["counter",-10.295520239791884],["omen",-10.296167603802559],["improv",-10.29718018552896],["Yet",-10.298543689895812],["whom",-10.298758963092752],["Kim",-10.298882908743224],["urism",-10.298963615096078],["expens",-10.299348855584197],["Tru",-10.299495875931498],["tension",-10.30143526408073],["alcohol",-10.30144545514884],["colleague",-10.301446984772596],["identit",-10.301491486553465],["Spring",-10.301504156343064],["dismiss",-10.301824133181942],["97",-10.30221039007529],["Young",-10.302230491073903],["encourag",-10.302275263852966],["Singh",-10.302797713703622],["clu",-10.303121591787278],["resolve",-10.303607222432916],["cars",-10.30434006270044],["background",-10.30466221083023],["venue",-10.306253516679702],["Beach",-10.306392860586872],["debut",-10.308751230604969],["arriv",-10.309258951042324],["adapt",-10.310695592735664],["object",-10.310718005049472],["•",-10.311060499353857],["Earth",-10.311070809002494],["bomb",-10.311077035047052],["Iranian",-10.311196641394208],["Life",-10.31133587105821],["evil",-10.311494972176074],["lawsuit",-10.311570892013464],["intelligence",-10.312126066065662],["charit",-10.312834725842913],["Mi",-10.313392373023403],["Bur",-10.31346676390811],["Still",-10.314185694249893],["Ye",-10.314209424955887],["Press",-10.314391129894297],["Ag",-10.31482763983075],["mistake",-10.315051389574226],["Bra",-10.317852041411353],["tire",-10.318231041197436],["brief",-10.318280010813996],["faith",-10.320551135876201],["Netflix",-10.320769237370978],["Investment",-10.320769284008682],["appreciate",-10.32076934164075],["technical",-10.320770181050692],["Assembly",-10.320771194588243],["consensu",-10.320776486061813],["neighborhood",-10.32080830223904],["Watch",-10.320821521606842],["wedding",-10.320944537535347],["agricultur",-10.32098590144096],["feed",-10.321000778999796],["boot",-10.32106317124233],["export",-10.32130624395619],["pol",-10.323396434542367],["ification",-10.324195157787909],["stands",-10.324805383189933],["bri",-10.325118130937865],["taxe",-10.325447320957213],["dig",-10.326264791560526],["pace",-10.326618859689095],["wal",-10.327280925824056],["broken",-10.327307432487569],["Carl",-10.32745036974518],["laugh",-10.328131251101944],["Barr",-10.328132982513747],["employer",-10.329120568758805],["Executive",-10.330573160726132],["participant",-10.33057316251216],["Obama",-10.33057363207936],["racial",-10.330931560713532],["Water",-10.331014533629169],["escape",-10.331212921607126],["chairman",-10.331742205142866],["oursel",-10.331880105695081],["expectation",-10.332029600475202],["Gri",-10.332323221607108],["NN",-10.333307030132117],["zero",-10.33360261337876],["crop",-10.33398385173522],["anger",-10.334125859542404],["error",-10.334562329931115],["Pl",-10.334657958210848],["pel",-10.334757425147295],["mandate",-10.335455058904522],["Look",-10.33565585326987],["emotional",-10.335692102660058],["resolution",-10.335786702247326],["describ",-10.336149529589992],["zz",-10.336527953350664],["Ital",-10.336653506366929],["Wil",-10.338839010025225],["iscal",-10.33995455491096],["activist",-10.340474186734927],["Additional",-10.340474312382497],["prompt",-10.340474748296991],["CBS",-10.340678213136606],["celebration",-10.340842074672235],["llino",-10.341863120834487],["argu",-10.342738559935096],["sharp",-10.342994926607775],["compete",-10.343680041310817],["neck",-10.343818948945177],["classic",-10.344641655581455],["realize",-10.345095030661048],["Van",-10.346268033619879],["resist",-10.346396181186602],["Far",-10.348219260533707],["69",-10.348699129619927],["olar",-10.350382107987238],["concert",-10.350475210000035],["analysis",-10.350485648780543],["Middle",-10.350487699851893],["Bryan",-10.350544699949221],["switch",-10.350570874768138],["tight",-10.350636277466638],["garden",-10.350739902669709],["partnership",-10.351010463181291],["briefing",-10.35306685757402],["Station",-10.353180067457503],["bail",-10.355089112657922],["luck",-10.355174879769105],["AL",-10.35564869662754],["losse",-10.356450458639888],["larger",-10.35647468337661],["sample",-10.356749487552516],["Best",-10.358719896597464],["Sur",-10.35935608198859],["stepp",-10.359385118871963],["rack",-10.359530272952231],["ages",-10.36046650753507],["fraud",-10.36057514838406],["Taylor",-10.36057521175166],["Iraq",-10.360584086661383],["spike",-10.360683917254425],["Queen",-10.360925778054582],["lawmaker",-10.361032606392548],["Trust",-10.361384294390435],["Where",-10.36336542411279],["Down",-10.363982752500199],["curb",-10.364175436538625],["hill",-10.364459449544288],["alter",-10.364788454953251],["guide",-10.364990611226062],["tradition",-10.36517982263815],["operator",-10.365442249482866],["contribute",-10.366065736696372],["51",-10.366760444424681],["stars",-10.367842055098366],["isolate",-10.368439977068306],["igh",-10.369520472635102],["cloth",-10.370111390253022],["athlete",-10.370781108523413],["bottom",-10.370819069413173],["theater",-10.370834936928127],["Jewish",-10.370999072651315],["nuclear",-10.371019448199846],["Bob",-10.371022615401865],["Coast",-10.371058057788622],["ration",-10.37110204516509],["assure",-10.37122781116522],["prosecutor",-10.371751718743818],["assign",-10.37214938049541],["Only",-10.372188516863066],["wheel",-10.372536193733932],["elect",-10.372792205875228],["beach",-10.37325955188566],["alert",-10.37341903212786],["favor",-10.37342841729162],["shortage",-10.37348667387911],["suffering",-10.373593063972368],["elder",-10.373961028562611],["86",-10.374739996724138],["requir",-10.37701084018591],["Asian",-10.377145299738073],["Boy",-10.377146830552231],["Francisc",-10.377476095882733],["Bowl",-10.377682989125958],["Asia",-10.377721810306548],["weak",-10.377801474041776],["Tar",-10.378377771534858],["repeated",-10.378458066677258],["comfort",-10.378574002801198],["Four",-10.378783226928995],["NE",-10.378965142393428],["oundation",-10.38008884647162],["Pol",-10.380776624908048],["accurate",-10.381088536289475],["actress",-10.38113267029603],["Turkey",-10.381178576568965],["horse",-10.381240968971966],["soldier",-10.381249344529467],["Local",-10.381284614022952],["Agenc",-10.381323472613786],["newspaper",-10.381580477048203],["quiet",-10.38171644162077],["industrial",-10.382321354758284],["Drive",-10.382946833946097],["formal",-10.383778904120932],["rian",-10.383804843156296],["Jim",-10.383922982218174],["mini",-10.384949933491301],["purchas",-10.386330845749093],["danger",-10.388599299510831],["aged",-10.389612438855114],["deserve",-10.39013860231769],["peak",-10.390910448882094],["thanks",-10.390974191889747],["fashion",-10.391505368063541],["bottle",-10.3915418663241],["Food",-10.391571060934712],["medicine",-10.39158757847343],["birthday",-10.392492288171065],["Former",-10.392620184404624],["touchdown",-10.392976606345272],["brain",-10.393425048699115],["upgrade",-10.39418813233892],["HS",-10.394520851596287],["Za",-10.396046463017637],["chat",-10.39638326806617],["mode",-10.39664939684074],["bound",-10.397035094071587],["Mary",-10.397397227380218],["Free",-10.398987772019726],["bodie",-10.399211532609495],["dinner",-10.400270786127326],["pose",-10.40031367416924],["sweet",-10.40089101628175],["Are",-10.401125355269924],["Jeff",-10.401991419444307],["marriage",-10.402031512375089],["Global",-10.402031517668428],["Olympic",-10.402031527362684],["surprising",-10.402031555711844],["democrac",-10.402031586032884],["Academ",-10.402031669834457],["behavior",-10.40203189962508],["conclude",-10.402034440274203],["Scotl",-10.402040719162551],["Muslim",-10.402040817055223],["Zoom",-10.402044461539251],["Michi",-10.402112453418352],["laws",-10.40226594395957],["drama",-10.402394595739857],["contribution",-10.402450003814872],["heavi",-10.402592826200426],["cloud",-10.40294017597858],["uhan",-10.403130708787454],["William",-10.40434417289711],["OS",-10.404440880340783],["passion",-10.404756720664448],["Spa",-10.405841993478198],["till",-10.406766464941555],["ound",-10.407159833742238],["Men",-10.408734908530606],["gal",-10.4088759742547],["Bost",-10.409025545409296],["pil",-10.409110778781374],["RO",-10.410203010221213],["lash",-10.410368052849494],["ideas",-10.410419016515567],["cease",-10.41094187172957],["Town",-10.411554204779572],["til",-10.411649339788365],["94",-10.411811458922964],["Plu",-10.412034367196895],["Project",-10.412670013413251],["Control",-10.412674318880423],["disaster",-10.412678027638897],["Charles",-10.412718431459304],["remark",-10.412741602849795],["cream",-10.412741726590827],["championship",-10.412923721943674],["Among",-10.412949406930645],["eligib",-10.413173203321819],["Bloom",-10.413210598328126],["Hav",-10.41346588293353],["Report",-10.413468203276322],["Ryan",-10.413699547062652],["inning",-10.414027249914925],["regime",-10.414287402505291],["Tor",-10.414683398855352],["Khan",-10.41505601638666],["manner",-10.41531428848068],["shopp",-10.415398317578992],["founder",-10.4159858049936],["stone",-10.416288416715444],["dealing",-10.418848642236021],["cia",-10.419355383583175],["quarterback",-10.41948209340168],["lap",-10.419483655125617],["08",-10.41951999236629],["dish",-10.41995676387997],["tune",-10.419959397631395],["Jay",-10.42046609425114],["complain",-10.42194020317119],["vast",-10.422936557246818],["Char",-10.423131050544724],["defensive",-10.423422487478835],["maxim",-10.423423869419306],["royal",-10.423438417786734],["Power",-10.423539019560208],["SC",-10.423574916030322],["dispute",-10.42373353815295],["Morgan",-10.423782858168364],["argument",-10.42396889033959],["instruction",-10.424165694774757],["racis",-10.424185048591955],["fifth",-10.424204492229263],["urgent",-10.42440796135136],["habit",-10.424755769012254],["decrease",-10.424756548490743],["organiz",-10.425100475396782],["percentage",-10.425230588638463],["Base",-10.42614979661482],["Op",-10.426261028685392],["istan",-10.427275521632744],["rig",-10.429321285947761],["mount",-10.42960564786954],["61",-10.430407997218332],["Bir",-10.431401887482899],["Financi",-10.432548783332912],["nstead",-10.433127253655616],["2012",-10.433723690493341],["gap",-10.434194855950022],["Jordan",-10.434293813574701],["sponsor",-10.434298383383197],["routine",-10.43433095692668],["affair",-10.434398295993878],["admit",-10.434412112393463],["urban",-10.434468654736406],["Toronto",-10.434501986869577],["matche",-10.434611753750563],["Back",-10.434678819931637],["square",-10.434752521841286],["Head",-10.434835097196462],["assume",-10.434840465302994],["settle",-10.43489407142117],["Card",-10.435759411535926],["bol",-10.43586922752378],["eating",-10.435927606488288],["Kong",-10.436236674378147],["enem",-10.436368359921362],["explore",-10.43675826820926],["Maybe",-10.43690683946971],["Yo",-10.43748948726926],["scar",-10.4377556369671],["uty",-10.439035100006443],["Mat",-10.440026303159174],["Sports",-10.440078554464344],["halt",-10.44038891000854],["PO",-10.440543731924464],["cycle",-10.44099442368962],["temporar",-10.441499391500532],["hal",-10.442365999578712],["corrupti",-10.442425601657199],["Paris",-10.44323445186945],["adjust",-10.443319514945646],["micro",-10.444326726477783],["Speak",-10.444705138592782],["efore",-10.4447758861684],["procedure",-10.44528106941452],["guarantee",-10.44528107453177],["offensive",-10.44528108940669],["territor",-10.44528190450144],["iPhone",-10.445288016484632],["dedicate",-10.445295639153954],["System",-10.445299293736614],["custod",-10.445324623461016],["golf",-10.4454080209695],["Judge",-10.445447571071316],["Abu",-10.445506157827467],["ura",-10.445604536844385],["profile",-10.445655612968723],["87",-10.445893531070315],["connected",-10.446039183834523],["74",-10.44640568156688],["Open",-10.446637032083697],["ology",-10.447339299761122],["emi",-10.44756456906681],["GA",-10.447570993877914],["PP",-10.447780352717448],["Daily",-10.448004698169642],["SP",-10.449577976696585],["Rose",-10.45012752982451],["Pat",-10.45054842725957],["polls",-10.451190575846923],["Whe",-10.451896689932642],["81",-10.452220449028284],["uru",-10.452702137775276],["2010",-10.452718397627091],["photograph",-10.453039741633773],["compet",-10.45305826142349],["confirm",-10.453891707998196],["63",-10.455996133313043],["argue",-10.456099464407039],["organis",-10.45635942987262],["Pennsylvania",-10.456392174788006],["Alberta",-10.456394136588491],["inch",-10.456551908442728],["capabilit",-10.456965806279104],["jur",-10.457266752830241],["teaching",-10.458049130949142],["gle",-10.458425071820571],["Wild",-10.458613051345816],["expense",-10.45887465107695],["aging",-10.462391644936009],["western",-10.4641291277255],["Bro",-10.464140044238011],["thus",-10.46425707704159],["bury",-10.464506935965066],["coin",-10.465883445231881],["enforce",-10.466423307713637],["Add",-10.46671917185574],["bird",-10.467135202037909],["Economic",-10.467628131389986],["excellent",-10.46762833023087],["yield",-10.467628553647447],["embrace",-10.467628559073756],["Jersey",-10.467629029550247],["nomination",-10.467630724875011],["Second",-10.467630963695932],["knock",-10.467634651202806],["Vegas",-10.467638717501597],["crucia",-10.467754817904648],["assessment",-10.46810540439255],["playoff",-10.468355681591808],["iami",-10.469738403311778],["declar",-10.469841819231485],["strategic",-10.470151229816029],["possession",-10.470681792372783],["Ray",-10.47153863435052],["unclear",-10.474499038893782],["RT",-10.474926582669088],["Senator",-10.475155242185473],["Pay",-10.475175611181516],["WE",-10.475214920231346],["reference",-10.477059575904676],["cable",-10.477826670853926],["BB",-10.47822653538032],["native",-10.478292536101746],["concept",-10.478379222670839],["Houst",-10.478402340106499],["frame",-10.478652368082772],["IN",-10.478735812482602],["wor",-10.47893458615195],["birth",-10.47893568176873],["neighbour",-10.4789917663673],["diagnose",-10.478991767132957],["frequent",-10.478991767430768],["collapse",-10.478991792668706],["exposure",-10.47899179646143],["grocer",-10.478998591282044],["rom",-10.479393411165384],["PR",-10.479687598115671],["wound",-10.479927924028381],["ians",-10.480221613177168],["Clark",-10.481386789848216],["fake",-10.48146327031979],["acre",-10.481477535130631],["Dam",-10.482120646229118],["els",-10.48239609417942],["sole",-10.483858208275166],["residenc",-10.484170341471987],["arch",-10.484453110576666],["250",-10.485014395207237],["hunt",-10.485527901679127],["Lago",-10.486751764513645],["announce",-10.487492403454866],["explor",-10.487884215515482],["Pet",-10.488511050758028],["filing",-10.489125816239632],["Bei",-10.48913453539543],["attract",-10.48978233831972],["79",-10.489989351876705],["motion",-10.49040086490905],["motor",-10.490424253855977],["Championship",-10.490486019099963],["Arizona",-10.490486020692284],["Family",-10.490492093781368],["computer",-10.490493290772626],["Energ",-10.49049438978373],["charg",-10.49072945576324],["Labour",-10.491089944243717],["footage",-10.49128373572458],["collective",-10.491329039706674],["150",-10.49216306970765],["roads",-10.493000029648748],["nurs",-10.493289187725907],["Dun",-10.49368103998218],["paint",-10.493861745461205],["xciting",-10.494176326138213],["northern",-10.49434544675401],["submitt",-10.496377676769036],["isation",-10.497639796841387],["ami",-10.49855725354077],["92",-10.499029179652549],["rid",-10.499234834481216],["cheap",-10.499383288476977],["homeless",-10.500095668987083],["700",-10.500498747644956],["Angel",-10.501730576791783],["cultural",-10.501895752100957],["qualifie",-10.502114040767173],["kitchen",-10.502114513007719],["offense",-10.502114858841836],["competitive",-10.502115773583672],["unprecedented",-10.50211738662081],["precaution",-10.502235590766936],["unfortunate",-10.502433720774189],["install",-10.502442177056121],["objective",-10.502529062900852],["tourist",-10.502629858446024],["ux",-10.502790344016038],["define",-10.502830563701156],["improvement",-10.50346010961748],["lakh",-10.503677720485502],["AI",-10.504174808386427],["legend",-10.504319449174096],["west",-10.505681622737423],["CH",-10.505684898207496],["Tim",-10.50589363626586],["occasion",-10.507909828587465],["Emm",-10.508001831746018],["ken",-10.508016509617203],["DO",-10.508752192850025],["command",-10.508794517945136],["Steve",-10.50906107094244],["rant",-10.509110867336421],["stein",-10.509336982219153],["RC",-10.509441589486862],["Sir",-10.509977334717],["mir",-10.51086016704863],["praise",-10.510912937687031],["PA",-10.51193598881055],["ET",-10.511955176379658],["bul",-10.513827421702366],["Wisconsin",-10.513878706324103],["Advisor",-10.513878709223217],["Foreign",-10.51388146252269],["penalt",-10.513923571099035],["Lewis",-10.513945996019865],["reduction",-10.51399660113909],["legac",-10.513999935321825],["pilot",-10.514073141603365],["collaboration",-10.514166110637078],["advocate",-10.514633755357847],["struck",-10.514750732651503],["AM",-10.515057277558483],["prepar",-10.515122787251626],["tory",-10.515512685334338],["Cross",-10.51599405542556],["topic",-10.516339088640137],["Davis",-10.516924287405661],["ensur",-10.518814575207681],["umble",-10.51923752734422],["Bol",-10.519584336675702],["Cat",-10.5197407535243],["ME",-10.521768962327958],["Ever",-10.521920996430818],["Wall",-10.522071353861598],["tail",-10.522306953998502],["Henr",-10.522410340763113],["Ph",-10.523540714693063],["historical",-10.523807874652547],["joy",-10.524662088690647],["Brand",-10.525379984375823],["assess",-10.525432792089177],["Elizabeth",-10.525783396055797],["Sheriff",-10.525783674967741],["Unfortunate",-10.525805129975268],["acknowledge",-10.525843329263491],["librar",-10.525847734685502],["counsel",-10.525857340632374],["Disease",-10.525860196926782],["Network",-10.526906871839286],["indeed",-10.528238319347865],["JP",-10.528386165706637],["Eastern",-10.528982524443688],["itz",-10.529487847261036],["Deput",-10.530012770809751],["indoor",-10.530596740510148],["NY",-10.53124542294094],["quote",-10.531331179997501],["91",-10.531361411102045],["fired",-10.531563778736228],["Was",-10.533983214911176],["ourne",-10.535110786200873],["Show",-10.535391052800247],["headline",-10.536252123140581],["Ontario",-10.537831588066602],["Attorney",-10.53783159332227],["Afghan",-10.537831598090856],["Special",-10.537898579478426],["residence",-10.538041462699265],["Ban",-10.53822942107952],["peaceful",-10.538379454660852],["disclose",-10.539291456422667],["Em",-10.539599810349838],["crack",-10.539741900314809],["Time",-10.54074211912618],["downtown",-10.541033235001642],["lop",-10.54131169436836],["split",-10.541622389217684],["ants",-10.54187472331401],["rob",-10.543269114702412],["gear",-10.543803570085663],["Sara",-10.544839058001447],["engine",-10.546013246772052],["Va",-10.54661557027263],["planet",-10.547199260947902],["flower",-10.548468660770897],["Zimbabwe",-10.550026708713858],["empty",-10.550027020491685],["junior",-10.55002705176335],["Senior",-10.550050601391895],["extraordinar",-10.550071548425121],["relax",-10.55015849150081],["Please",-10.550252215046637],["rop",-10.550792024144288],["index",-10.551579346890428],["bell",-10.55169112387797],["nic",-10.55196024319807],["restrict",-10.55290701399624],["SD",-10.552990382274388],["spin",-10.553081853148097],["careful",-10.554210418847457],["knee",-10.554717991562999],["contribut",-10.555442158019034],["anywhere",-10.557333432067695],["Award",-10.55746537645797],["surrounding",-10.557742773927135],["confident",-10.557786584648351],["tender",-10.557854891147663],["ological",-10.558057170035688],["ABC",-10.559446413755726],["Raj",-10.560011729228364],["manufacturer",-10.560195379864586],["enhance",-10.561185724449755],["73",-10.56124298189193],["cancell",-10.56139188006851],["Catholic",-10.562372399593631],["narrative",-10.562372402539093],["Colorado",-10.562372407786231],["academic",-10.562525002093686],["shore",-10.56280199612084],["Walk",-10.564004204154955],["cry",-10.564242239940548],["clinical",-10.564581234232357],["Test",-10.565018609450672],["qu",-10.5650336421635],["promis",-10.56519344567825],["Ford",-10.56556222987767],["breach",-10.565780504294196],["outlet",-10.566442286056295],["speaker",-10.566658408748342],["clock",-10.566720373126198],["followers",-10.566978383950438],["Republic",-10.567379905134413],["tele",-10.568045112397066],["fil",-10.56878954999106],["82",-10.569494334842824],["snap",-10.569646545467668],["signal",-10.570894274181946],["folks",-10.571035326626259],["Phil",-10.572623640908901],["celebrat",-10.572824529821656],["itness",-10.573690658759503],["cryptocurrenc",-10.57487238853081],["delphi",-10.574872393080849],["desperate",-10.57487240071405],["Conference",-10.57487242367306],["Area",-10.574876064021268],["climb",-10.574884238331155],["fruit",-10.574911709877114],["viral",-10.574936415550368],["Through",-10.574951179523921],["verse",-10.575098953130013],["violation",-10.57527093238389],["shoe",-10.575275216717554],["assembl",-10.57557308866577],["Lord",-10.575910802059873],["gym",-10.57605148645845],["Jason",-10.576627757381118],["historic",-10.577014874208732],["arrival",-10.57753018777847],["Beat",-10.57785046166649],["fishing",-10.579086769965073],["Hal",-10.579125665589055],["arvel",-10.579206910580359],["Tony",-10.579213602153871],["Pen",-10.58027370643131],["89",-10.580713542546537],["Justin",-10.581774780289292],["arren",-10.58282317814081],["eller",-10.583261169456229],["laid",-10.58360731267492],["Phila",-10.585234178787648],["Ste",-10.585679189958217],["chart",-10.58568548830333],["Israeli",-10.585842209130899],["except",-10.587043388416216],["divide",-10.587470148968912],["adequate",-10.587530616720453],["perspective",-10.587530622495997],["Professor",-10.587530688356244],["condemn",-10.587530812042985],["YouTube",-10.587537274230641],["Leader",-10.587539748155287],["conservative",-10.587542763392754],["Patriot",-10.587561605245924],["colour",-10.587569202467503],["plastic",-10.587569387112431],["burden",-10.58761764272561],["encounter",-10.587619552869151],["dramatic",-10.587705337507781],["Santa",-10.589258042063054],["exit",-10.58928990452283],["baseball",-10.58988649682148],["Live",-10.590143787362116],["portion",-10.59023138548886],["newly",-10.590661538104861],["Dis",-10.590999575094813],["hari",-10.59133383743347],["Ok",-10.59178173768361],["transform",-10.59179686015501],["legislation",-10.591853986036448],["experienc",-10.592578836712992],["ED",-10.593562418398227],["trailer",-10.593992950670662],["angle",-10.594548571867087],["kins",-10.594553489327666],["surger",-10.594752532131505],["violent",-10.59571655349026],["clip",-10.596337060384784],["tank",-10.597282360905314],["Zealand",-10.600353986519409],["absence",-10.60036575111377],["wonderful",-10.600666879650028],["sanction",-10.600856117476907],["classroom",-10.600985795122707],["joke",-10.601093649256624],["solve",-10.601297715947528],["recording",-10.601378725638885],["Season",-10.60164140141843],["shoulder",-10.602544313664556],["bull",-10.602564900325472],["DP",-10.604554788757273],["generate",-10.605191527286141],["5G",-10.605590057757839],["ahu",-10.6063248965383],["Ham",-10.607269332514612],["Ren",-10.607395499897766],["93",-10.608044785177993],["Kev",-10.608340471567878],["09",-10.608783672189293],["grass",-10.610922038525057],["witnesse",-10.612539698582857],["caution",-10.61320296952699],["Science",-10.613338197447344],["Administrati",-10.613340187822015],["senator",-10.613340459101913],["combination",-10.613341161994025],["temp",-10.613706088559011],["shirt",-10.614021103093904],["craz",-10.614479532645053],["Eric",-10.615593789360773],["circulat",-10.615662130179992],["moral",-10.616123437499969],["bike",-10.616164643382675],["equi",-10.616505884938459],["Matt",-10.616579077175723],["Read",-10.616922418148427],["Old",-10.617006267330328],["alarm",-10.617165385529503],["Mid",-10.617291272828727],["petition",-10.618072093764958],["minorit",-10.619930072366916],["chest",-10.621509577632313],["bowl",-10.622232128389307],["prayer",-10.622782560065023],["reserve",-10.622819090418309],["relations",-10.624599098956224],["cutt",-10.625170408329609],["exam",-10.625429408338569],["stimul",-10.625662945771545],["Shi",-10.625833887942248],["reader",-10.62599076420831],["knowing",-10.626216459229337],["anxiet",-10.626496047143961],["component",-10.626496055940251],["scientific",-10.6264960592556],["Joseph",-10.626497553079114],["depth",-10.62650379971927],["Night",-10.626506838948231],["fundamental",-10.626511956722215],["belief",-10.626515553906085],["Saudi",-10.626521957888455],["instrument",-10.626533604408683],["Program",-10.626574846135401],["strengthen",-10.626600026509486],["extension",-10.626841373272844],["abandon",-10.626912739246702],["lesson",-10.627360784668411],["label",-10.627948959339726],["apart",-10.628181266318197],["impossible",-10.62825522746855],["overse",-10.629057067296186],["dale",-10.6292811491193],["cuts",-10.62952299990627],["hak",-10.629857142845317],["See",-10.629858686432716],["shall",-10.63069791442359],["Kelly",-10.630896549001509],["Kenya",-10.63104475641306],["trained",-10.631763537544474],["failing",-10.632084991024062],["reasonable",-10.63212295705631],["lated",-10.633523231409747],["Brady",-10.634697640888064],["aches",-10.63585160740116],["RS",-10.636235951978303],["anticipate",-10.637137311624297],["rug",-10.637219902251788],["cro",-10.637762009690356],["literal",-10.638421771120932],["TON",-10.639301712804292],["leak",-10.639420454942687],["Official",-10.639829435167936],["nominee",-10.639831985480845],["Media",-10.639900786710642],["AE",-10.640185835164937],["Saint",-10.640286225969298],["Keep",-10.640799872178198],["valid",-10.64114879869793],["string",-10.64120817962149],["edition",-10.641451227546945],["permit",-10.641694442201853],["Have",-10.642244463303456],["format",-10.643455674142189],["Pac",-10.64557735790098],["Stan",-10.646140157277184],["unknown",-10.646145566168961],["cooperati",-10.647322198352342],["TE",-10.649452077252192],["dose",-10.650306498204095],["coordinat",-10.650498755343188],["tick",-10.650727143895857],["cheer",-10.652738457340035],["mill",-10.652774335931475],["Call",-10.653082939542138],["venture",-10.653137626020571],["currenc",-10.653251733771567],["Sydney",-10.653343661717656],["horror",-10.653344618899721],["Nicol",-10.653378563455504],["criticism",-10.653451758329727],["Guard",-10.653477492262772],["Mel",-10.653596436915684],["web",-10.654052623427178],["Top",-10.654219215624376],["Tik",-10.656385066443649],["gent",-10.657005681350702],["finger",-10.657272835881233],["weigh",-10.657324395598916],["automatic",-10.657524761681124],["comic",-10.658992126923504],["upper",-10.659819877630966],["boxe",-10.660118366771515],["Dem",-10.660270365233073],["Bull",-10.660323684192921],["strange",-10.660458742932704],["Mos",-10.660731543870412],["lands",-10.661115598704757],["Anth",-10.661331433895825],["inmate",-10.662412490639042],["oko",-10.663714115531008],["proof",-10.663895851975642],["prop",-10.664463650061766],["GM",-10.664490878896512],["minor",-10.66508522541815],["demonstrate",-10.665505122876901],["01",-10.666952201420127],["accomplish",-10.667041512956283],["signature",-10.667054435956427],["thrill",-10.667063581631094],["museum",-10.667065343465492],["optimis",-10.667087205953186],["aggressive",-10.667203038635684],["carbon",-10.667243067576607],["context",-10.667465791505691],["tap",-10.667760724902433],["Josh",-10.66780123157137],["Grant",-10.667889035902402],["understo",-10.6679018409572],["Sky",-10.667996169141926],["cruise",-10.668264480809162],["hub",-10.668381676016146],["istic",-10.668924179734388],["developer",-10.669256812267342],["racist",-10.669462010628829],["eastern",-10.669968668754567],["Golden",-10.670175565145051],["cinema",-10.670649547993037],["lake",-10.670810341050071],["ockey",-10.670909629400368],["practical",-10.672801433280764],["plead",-10.673673666328568],["march",-10.67387607624411],["Mag",-10.674135069936153],["cleaning",-10.67580775977262],["wine",-10.678530642644184],["hum",-10.680217076487299],["negotiat",-10.680467263789083],["technologi",-10.680799105672332],["migrant",-10.68084727963909],["genuine",-10.680931021439186],["Stephen",-10.680939001591588],["script",-10.680946010819056],["medium",-10.681037670106065],["Guyan",-10.681071802307027],["pocket",-10.681485312113466],["Cook",-10.68169332166765],["Trans",-10.681776267391896],["runner",-10.682222682275013],["var",-10.682722206419548],["storage",-10.682725393977577],["oka",-10.68437136230073],["cope",-10.686394099673416],["marked",-10.686520239305217],["Marc",-10.686545832606509],["gri",-10.686708689300113],["chip",-10.688595152924265],["km",-10.689466613570021],["corn",-10.689592955270244],["pos",-10.68984127265829],["audit",-10.692722267208708],["mere",-10.694451122945264],["Hope",-10.694609438663491],["priva",-10.69494918845219],["exclusive",-10.695014915367508],["behaviour",-10.695015133442283],["Bitcoin",-10.695022661614],["dominat",-10.695030497929189],["convert",-10.695032088571438],["Bengal",-10.695136982060962],["Further",-10.695155601348823],["smartphone",-10.695276410430697],["assistant",-10.69558995515378],["SU",-10.695707056834415],["Safe",-10.695805444508423],["cute",-10.695905243639622],["Music",-10.696035984969328],["spokesm",-10.696423294221493],["Nick",-10.697012237108876],["shutdown",-10.697012561838982],["Pra",-10.698124192062604],["riot",-10.698233764000872],["handed",-10.698670541516933],["bot",-10.699202173939032],["buck",-10.69949127454949],["kit",-10.700240078959053],["MD",-10.700903171354117],["tolen",-10.701188669094643],["repair",-10.701567837937873],["musical",-10.704146416040842],["plate",-10.704574572933744],["confus",-10.705060675159471],["Ger",-10.706958249411095],["visibl",-10.707367080418178],["83",-10.708187635720709],["permitt",-10.708191377401418],["aga",-10.708368612577273],["investigate",-10.708719694878098],["Louis",-10.70873780120062],["lane",-10.709226428279202],["epidemic",-10.709300626767686],["celebrit",-10.709300655281307],["intervention",-10.709300686413467],["Stadium",-10.709300795340766],["convince",-10.70930134892119],["favourite",-10.709349500256085],["Check",-10.709543980712414],["Airport",-10.709579128624323],["negotiation",-10.709777329328645],["ional",-10.709805981918272],["fulfill",-10.709881956454538],["MO",-10.709940575691961],["Wilson",-10.710076854378542],["Bridge",-10.710083092318122],["Get",-10.711307215601787],["proceed",-10.71147307379136],["Space",-10.713452683840702],["Shan",-10.714003407929138],["Spani",-10.715001786729488],["fur",-10.715112626473497],["lung",-10.715927901894773],["foundation",-10.71594030281406],["aimed",-10.716680328696963],["OC",-10.718641909328985],["basicall",-10.718714366384784],["Cooper",-10.719218353802347],["lib",-10.71929782856054],["CU",-10.719533441213796],["Crow",-10.71967560354512],["bab",-10.719805665463262],["Ade",-10.723453596696086],["Turk",-10.723683218632848],["respirator",-10.723793377135856],["Investor",-10.723794439177768],["comply",-10.72387619424607],["coffee",-10.723920444438757],["Modi",-10.724084971853003],["violat",-10.724756780984979],["igg",-10.725102929698831],["Late",-10.725457364297103],["Syria",-10.725910531166928],["OT",-10.72718508548005],["Pan",-10.727875563016555],["sung",-10.72846061927152],["ique",-10.728981413568114],["drag",-10.729128724955746],["smoke",-10.729244555093175],["adviser",-10.730109317026848],["calm",-10.730133458277942],["forest",-10.730273399207434],["Pal",-10.73058517789675],["Unit",-10.73097488847569],["Brian",-10.731500357185036],["nobod",-10.731639793461209],["PL",-10.732225310435943],["panic",-10.732503958643406],["signing",-10.732526938758376],["FB",-10.732666153486111],["Book",-10.73367546869839],["latter",-10.734457189004926],["metre",-10.734457303455626],["Cam",-10.735517266907866],["tier",-10.736759723649314],["OK",-10.737167343790825],["desk",-10.738484577188254],["subsequent",-10.738499259174255],["efficient",-10.738499259198385],["Associate",-10.738499262502778],["experiment",-10.738499477454802],["Pacific",-10.738499695767178],["podcast",-10.738500016216108],["intensive",-10.738503124356932],["Bernie",-10.738507234880533],["vessel",-10.738585770949957],["Megha",-10.738593582166665],["defence",-10.738745006319178],["Division",-10.738752128559275],["summar",-10.738872583687083],["escalat",-10.738960575088774],["retain",-10.738970514561593],["funeral",-10.739081195683164],["bur",-10.739480103465548],["Lady",-10.739518306451608],["Minne",-10.739540631834547],["graphic",-10.739924156594952],["squad",-10.74004708688936],["glo",-10.740142120114793],["Sab",-10.740149966694823],["wick",-10.74027017381296],["clash",-10.740585112749784],["stem",-10.740940098596852],["indicat",-10.741078930010737],["meat",-10.74147548313677],["fundrais",-10.741680959585938],["provinc",-10.741719887196776],["substantial",-10.741904879096008],["Lind",-10.742273003880142],["IV",-10.742454724546763],["orry",-10.742894451077895],["Anti",-10.742960133815824],["stabili",-10.743415952866036],["Ash",-10.743565681019195],["lew",-10.743739829656416],["gging",-10.744640642439482],["GB",-10.744821137529541],["lade",-10.745277078205064],["Bru",-10.7457778680395],["performing",-10.746618182730165],["reward",-10.747030707101587],["Never",-10.74704102162726],["Rich",-10.74809723010818],["Ric",-10.748270219593994],["earth",-10.748782794094378],["integr",-10.749561765943142],["Oak",-10.749649763640576],["wore",-10.749798286531696],["sumption",-10.750475685626345],["iron",-10.750684604721883],["hir",-10.75099816495348],["gro",-10.751335786681075],["terrorist",-10.751379003585605],["Five",-10.752544045264047],["utter",-10.752818461898514],["Ghana",-10.753320292483377],["association",-10.753424632424853],["Mumbai",-10.753424638150097],["Societ",-10.75342464490767],["qualify",-10.753424708919653],["prohibit",-10.753424889365473],["brutal",-10.753425168603],["sensitiv",-10.753425959563259],["gradual",-10.7534270502277],["registration",-10.753499800639212],["lunch",-10.753529775843624],["absent",-10.753675056203342],["civilian",-10.753948567728797],["drew",-10.754226889841476],["Master",-10.754251628618844],["Rep",-10.75494547328346],["PT",-10.755301617099086],["beaut",-10.756045233903002],["Mir",-10.756157820607328],["curve",-10.756350982851865],["anniversar",-10.756403944686724],["unusual",-10.757360922429575],["institutional",-10.757722064177194],["hrew",-10.758194062161541],["Eagles",-10.758639278250547],["120",-10.7588676719546],["Take",-10.759593302022354],["occur",-10.760147304420045],["eager",-10.76125609371849],["labor",-10.761439889855636],["Jet",-10.762606881519705],["rub",-10.76350503779496],["Indiana",-10.764302464836588],["iga",-10.766562500284508],["Defense",-10.768576148391048],["destination",-10.768577551009733],["trillion",-10.768577700555596],["pattern",-10.768577976575415],["nominate",-10.76858022989551],["trigger",-10.768597198582878],["travell",-10.768641530730825],["Brexit",-10.76864650365609],["Clint",-10.768665554739513],["Financ",-10.769309299754688],["ML",-10.769773014435838],["iving",-10.770961154662317],["Nu",-10.771221308633802],["Carol",-10.77158488468612],["cake",-10.772645188422803],["Liver",-10.773046609038124],["river",-10.773216348318567],["Atlant",-10.773872550723034],["restor",-10.77479409601225],["resort",-10.775092908429064],["gang",-10.775305977500317],["UC",-10.775500526661748],["exten",-10.776525847715288],["posed",-10.777402025268525],["transparen",-10.77758661348529],["prefer",-10.77786098030931],["USA",-10.778695433536493],["examine",-10.779828092785003],["Sony",-10.77997543099389],["Trade",-10.78025511215242],["pursue",-10.781681039601803],["uomo",-10.78281688218091],["clinic",-10.783380513372348],["convict",-10.78349653959279],["jing",-10.783528700588572],["citing",-10.783585216149879],["Photo",-10.783849680245591],["Thompson",-10.78396076387149],["Dakota",-10.783960777623484],["accelerat",-10.78396078166925],["symbol",-10.783963250782167],["barrier",-10.783965909066273],["detain",-10.783993511817275],["Palestinian",-10.784009334702128],["Italian",-10.78405217187169],["Common",-10.784054286187585],["critic",-10.784202441088867],["NSW",-10.784330100886962],["bias",-10.784493985657788],["mountain",-10.784515759341712],["GDP",-10.784715078392637],["Gre",-10.784718887823896],["teammate",-10.785138975764578],["hospitaliz",-10.785162107609272],["musician",-10.785460006927346],["attach",-10.785864405412095],["constitutional",-10.786250667985403],["smooth",-10.786433186656456],["swing",-10.786728168703018],["anticipat",-10.787079281714421],["laud",-10.78813663784766],["FO",-10.788149849582346],["q",-10.789558621149645],["taste",-10.789787901280201],["uperior",-10.790064712406132],["tention",-10.790945840342127],["primari",-10.791253230111128],["Kid",-10.79235653207111],["Bad",-10.793037206488226],["peer",-10.7931716449133],["Bear",-10.793727508142426],["deposit",-10.795404127319696],["complet",-10.797066158288578],["pregnan",-10.798137203540708],["elve",-10.798237160133088],["subsid",-10.799158198013743],["plain",-10.799322125273406],["neutral",-10.799585765739984],["expansion",-10.79958578017485],["satellite",-10.79958662883644],["Which",-10.799590303917597],["Arab",-10.79966225209743],["passionate",-10.799664750837213],["cyber",-10.799776947089239],["mandator",-10.799831249166015],["instant",-10.799858651265826],["71",-10.800139111123254],["Tech",-10.800486724935062],["cru",-10.800536124275881],["admission",-10.800551705826742],["Ross",-10.801030304419987],["lick",-10.801165503719867],["labour",-10.80206718556122],["arc",-10.80209772198446],["rebound",-10.802808013431369],["Mak",-10.803004711453216],["drone",-10.803399977045865],["independenc",-10.803437530470564],["Matter",-10.804018805002144],["topping",-10.804313954445218],["Hamil",-10.806277480568994],["shame",-10.807301536570348],["innovation",-10.807342159194995],["consum",-10.807922689031878],["lady",-10.808244254731456],["quest",-10.809131817095405],["mild",-10.809312347725518],["buyer",-10.810163594400578],["UP",-10.810764398355609],["Stone",-10.81137097235157],["Fla",-10.81177277522802],["nose",-10.81207170387448],["Pur",-10.812116018754356],["Ven",-10.812231442601554],["Bri",-10.813934886457368],["dynamic",-10.815458823142684],["divorce",-10.815458903823613],["disturb",-10.815459497123179],["Oregon",-10.81546033528061],["Utah",-10.815476573728454],["Moore",-10.815476666083363],["captain",-10.81548664045409],["cabinet",-10.815501356408491],["Constitution",-10.815539191601033],["portray",-10.815603974754715],["cluster",-10.815627337841468],["impressive",-10.815658727529808],["agenda",-10.815688716626763],["portfolio",-10.815697893516521],["warrant",-10.815708953357763],["Irish",-10.815716982491743],["Mountain",-10.815805412135628],["bedroom",-10.81621076282623],["achievement",-10.816406806868205],["progressive",-10.816439202049782],["infectious",-10.81674679653944],["engagement",-10.816809845579487],["delight",-10.816935434203158],["confront",-10.817089110497076],["courage",-10.81789289828047],["Ep",-10.818107939613082],["Marsh",-10.818285250326952],["Highway",-10.818369168365201],["Clar",-10.818786419972731],["Zo",-10.819417160518878],["gross",-10.81953275343849],["Does",-10.821059092157174],["cited",-10.821104747549636],["interact",-10.822048796515373],["Sub",-10.822763823939667],["hitting",-10.823436722325003],["plac",-10.824209441074464],["Jew",-10.824631057425183],["sheet",-10.824634905303025],["mad",-10.82531205841888],["Fair",-10.82569301501783],["referred",-10.826589768995083],["uz",-10.828064404179475],["beating",-10.828080341325894],["hom",-10.828169985303223],["Mill",-10.828178935849264],["hung",-10.828703223586977],["iness",-10.829914608244547],["Gun",-10.830222990348663],["evolv",-10.8303355249793],["abb",-10.830440976735012],["idden",-10.830875510613254],["emission",-10.83106677736224],["*",-10.831587810950506],["principal",-10.831587810953486],["helicopter",-10.83158781276215],["fantastic",-10.831587823814328],["brilliant",-10.831587841984657],["harvest",-10.8316002954073],["extensive",-10.83160998802839],["Current",-10.831653060099473],["Mitchel",-10.831732270039963],["Little",-10.831815632738277],["wipe",-10.831849064910848],["arrangement",-10.831879047688853],["utilit",-10.83197720912402],["vocal",-10.832293514721641],["valuation",-10.832364408196263],["sugar",-10.832735329420144],["branch",-10.833001207893787],["proven",-10.833579879458796],["NO",-10.833620771125599],["premier",-10.833999780719697],["layer",-10.834713633906112],["Low",-10.83499427621166],["integrate",-10.835433327109673],["immer",-10.835624390464801],["sustainabl",-10.836322994944133],["headquarter",-10.836422039866283],["Six",-10.837020866742028],["Melb",-10.837431447504898],["NBC",-10.838771644833049],["anne",-10.840259276914631],["commissioner",-10.840648072892117],["intention",-10.841429881561762],["educational",-10.841872576325192],["LL",-10.84281660927384],["Again",-10.843972016448644],["Gate",-10.844587996796717],["hol",-10.845825374073481],["aunt",-10.846356905812746],["á",-10.847981253573456],["entrepreneur",-10.847981253573499],["conclusion",-10.847981265235294],["Prevention",-10.847981331073296],["electronic",-10.847981496809851],["eliminate",-10.847982228969943],["Radio",-10.847983726325548],["villain",-10.847986014262057],["Civil",-10.847994735323233],["Gulf",-10.8480023861843],["replie",-10.848023364818438],["SARS",-10.84809731464904],["demonstration",-10.84813150023805],["align",-10.848132093417693],["transferr",-10.848158987064728],["console",-10.84834763327602],["compromise",-10.848387359566836],["salar",-10.848533546620333],["Farm",-10.848572879970234],["titude",-10.84897344353271],["Kh",-10.849321782630643],["retailer",-10.84993770216515],["deadline",-10.850188691594571],["Dub",-10.850333457597829],["tries",-10.850336465647274],["demo",-10.850863991372313],["borrow",-10.851746469219698],["Latin",-10.851810032308087],["05",-10.85199835859451],["rice",-10.85240254464685],["VI",-10.852853509939596],["GP",-10.853753791530995],["ugh",-10.853754413214752],["HD",-10.854794834823576],["Boris",-10.855906528293374],["custom",-10.85673338453369],["citizen",-10.857668916403716],["Arch",-10.857686331383249],["secur",-10.858214884694723],["Class",-10.859267077343116],["occ",-10.86117916478884],["Mass",-10.861844220204146],["Nar",-10.86195125243161],["loud",-10.862143986665359],["USD",-10.862448504083073],["roof",-10.863630955246919],["sufficient",-10.864647930895657],["suicide",-10.864648037789383],["continent",-10.864648413528993],["Should",-10.864651452026605],["navigat",-10.86465768937212],["Tiger",-10.864665946639612],["visual",-10.864683893304178],["liberal",-10.864685340614692],["Organization",-10.864744289184012],["intense",-10.864798250995547],["frai",-10.865139265699682],["milk",-10.865516719688781],["impeach",-10.865545125384791],["Childre",-10.865968846210077],["fighter",-10.86639628709231],["uous",-10.867189424790894],["promotion",-10.867742000246478],["mess",-10.868009898902883],["EX",-10.869700060584456],["Lock",-10.870136274942578],["laz",-10.87023538197883],["renew",-10.870498611521501],["Dieg",-10.87057461367661],["Broad",-10.870876268312683],["rib",-10.870876500945988],["math",-10.8709626394067],["honour",-10.870976015427615],["chant",-10.87101265931747],["gel",-10.871148332690844],["akh",-10.872355656909697],["Var",-10.873249022290992],["tribute",-10.873697893056544],["cott",-10.873918074178206],["editor",-10.874649379165405],["Make",-10.87506425969978],["Cre",-10.876272790824427],["MB",-10.876989600571836],["VP",-10.877012933552864],["orthern",-10.879277389193444],["Kate",-10.879519975869165],["Steven",-10.87993240779236],["Tele",-10.880555952923094],["achiev",-10.881444301156586],["explosion",-10.881597072792342],["complicate",-10.881597076523615],["privilege",-10.881597090644949],["Emergenc",-10.881598859414456],["silver",-10.881600298895513],["Affair",-10.881612585255898],["missile",-10.881613800152419],["Agricultur",-10.881620430102792],["exceed",-10.881679294122275],["obligation",-10.88168037809804],["Steel",-10.881861610518083],["moderate",-10.882010874114712],["fatalit",-10.882371454920508],["toilet",-10.882457085944889],["spoken",-10.882532485596254],["mega",-10.882622403332567],["Fu",-10.88266656368392],["pub",-10.88293499275012],["loom",-10.882991776911993],["narrow",-10.885180489698644],["Nel",-10.885241270667573],["quo",-10.886060667059812],["ootball",-10.88640902641434],["blast",-10.886897205485681],["washing",-10.886933564812907],["chel",-10.888406897754287],["ulu",-10.889196844187996],["rip",-10.88946775021634],["Mun",-10.889985490392544],["compos",-10.890236872344286],["generat",-10.89113738030509],["Mart",-10.891964616592464],["lian",-10.892057873360969],["easing",-10.893719586198934],["bread",-10.895181360833611],["mac",-10.89729607669642],["ava",-10.897864281519116],["Did",-10.89814643189046],["quin",-10.898445806097367],["Light",-10.898783823654943],["Murphy",-10.8988384530419],["technique",-10.898838784475533],["unveil",-10.89884038227164],["grateful",-10.898841689034938],["devastating",-10.898851208815028],["Jacob",-10.898861739755503],["pledge",-10.898874329129196],["Transport",-10.898940416644624],["luxur",-10.8989581566343],["punch",-10.898970806383872],["noise",-10.899025373810362],["trauma",-10.899079433986937],["barrel",-10.899312251874012],["Anna",-10.899509927937737],["ocean",-10.899547039870598],["Stock",-10.899547359920286],["Brook",-10.899563649280584],["assert",-10.899592344706598],["ideal",-10.899745353304594],["rumor",-10.899768318262701],["Montreal",-10.899834575688727],["boyfriend",-10.899979790796696],["rape",-10.900062664154529],["interaction",-10.900212101163351],["overnight",-10.901172211358608],["hack",-10.901871324705702],["tenanc",-10.902361161906969],["coache",-10.90259855743895],["workplace",-10.902671209202722],["Jona",-10.903184944495969],["ular",-10.903945004242438],["copy",-10.90439323896797],["heel",-10.904396731784338],["temporari",-10.904535383820406],["Such",-10.905639954265537],["Ev",-10.907521084431725],["screening",-10.90803114042142],["Tro",-10.908528369706776],["Whit",-10.908611789953842],["Vol",-10.908632282178043],["ector",-10.909672212269982],["disappear",-10.910320458510336],["Eli",-10.911003466700647],["duti",-10.91314827034942],["referr",-10.913391437651274],["spell",-10.914140732281387],["GH",-10.914163973498372],["hide",-10.91458580594684],["lig",-10.914743477458508],["coal",-10.915263082449826],["2000",-10.9156013389368],["disrupt",-10.91591849452652],["Rac",-10.916225601803449],["surveill",-10.916382388252902],["pharmac",-10.91638269321438],["chapter",-10.9163833854873],["Crime",-10.916384499514933],["Alabam",-10.91638567540309],["weird",-10.916398801997694],["legitimate",-10.916415749518379],["premise",-10.916453025551206],["sentiment",-10.916487989289012],["Edward",-10.916687237813058],["persist",-10.91669274407856],["Garden",-10.916745800465748],["ventilator",-10.91705992928199],["disabilit",-10.917150787211497],["Forest",-10.917527895929382],["Anderson",-10.917831074658853],["attendance",-10.918392505419813],["criticiz",-10.918505001075403],["ancing",-10.918627074046228],["PPE",-10.918703187858284],["Yu",-10.918787759544626],["fatal",-10.919022568058992],["viation",-10.919169069809296],["Miller",-10.919595740715684],["reliabl",-10.919853240547562],["Creat",-10.91989740256217],["Ott",-10.920164728106101],["inches",-10.920940623196152],["odds",-10.921489955391117],["helpful",-10.921501876791405],["magn",-10.921516621530156],["02",-10.922934157348159],["uri",-10.923194798159368],["rapper",-10.923391149438459],["Wale",-10.92412442304662],["cular",-10.9246497969702],["Swi",-10.924737669195176],["Brad",-10.925435983666038],["emotion",-10.92545253588749],["suburb",-10.926219380672434],["UT",-10.927435390116976],["participat",-10.928787259543073],["Fall",-10.929163997698677],["Gal",-10.929376960889028],["Cape",-10.930114158081484],["proceeding",-10.931578880600087],["resign",-10.932401383777322],["stance",-10.932607719065146],["instruct",-10.933002370232295],["End",-10.933132454172533],["Mount",-10.933854334927254],["favour",-10.934179247153345],["Brazil",-10.934204076750177],["frustration",-10.934239454839002],["Hawaii",-10.934239473276184],["deficit",-10.934239488449467],["physician",-10.934239643417818],["statistics",-10.934239740059917],["shield",-10.934239804829934],["fabric",-10.934239813769963],["chicken",-10.93423985364984],["Channel",-10.934242798183412],["Vietnam",-10.934243302669294],["column",-10.93424635122864],["Austin",-10.93426735506133],["sensor",-10.934282858034244],["Galax",-10.93431014006224],["Alexander",-10.934348666475309],["terribl",-10.934425364201868],["Zack",-10.934433353457546],["liquid",-10.934557255495193],["brown",-10.934579701382335],["Kyle",-10.93466982459431],["discharge",-10.93524209024513],["clothes",-10.935508575796257],["Oscar",-10.936017394702654],["directive",-10.937404355956811],["equipp",-10.938425865129865],["Speaker",-10.939141813085186],["overwhelm",-10.94005046247863],["Massac",-10.940319734242369],["carrier",-10.942596911947268],["1960",-10.943635336538946],["innovati",-10.944783727729778],["Jenn",-10.946546540689031],["Korean",-10.946614099094306],["vow",-10.946733419006238],["Sim",-10.94816036263567],["chill",-10.948165922238328],["personalit",-10.948882792986826],["entitle",-10.950234826332707],["sack",-10.950279720765717],["ridge",-10.950416301364278],["chao",-10.950461840772657],["NG",-10.950852184772707],["operational",-10.95087035016853],["Collin",-10.951043206379115],["ndigenous",-10.952421331426883],["chemical",-10.952422435380173],["advisor",-10.952422635713999],["Corporation",-10.952424158237303],["loose",-10.952435743784052],["Film",-10.952441063826821],["Given",-10.952489633412771],["loyal",-10.952501943864242],["stakeholder",-10.952510104108343],["wrestl",-10.952574626594505],["firefighter",-10.952658547566966],["Hotel",-10.95266178929785],["immigrant",-10.95272779424183],["Next",-10.952776669375282],["robber",-10.952786416602244],["drill",-10.952828411614409],["Evans",-10.95284463081342],["Turn",-10.952849849219456],["consist",-10.952881653775588],["laptop",-10.952886277555875],["tenni",-10.952968979769004],["preparation",-10.952993739674989],["discount",-10.953221460486002],["implementation",-10.95370768233713],["plot",-10.953709583230237],["Burn",-10.95374640056119],["Manager",-10.95410528309627],["bench",-10.954256004743323],["usage",-10.954317189256773],["Due",-10.954403450400145],["timing",-10.954423553608905],["publication",-10.954918277981822],["haul",-10.955326593795348],["Cost",-10.955372129524115],["Greg",-10.957018579711852],["myster",-10.957366920681542],["bil",-10.958197301860263],["Cur",-10.958237377927674],["scam",-10.958859090669048],["tape",-10.96006344997507],["ethic",-10.960647164873203],["izer",-10.961177798724034],["Charli",-10.961541719463675],["acult",-10.96181158394586],["Put",-10.962620252443548],["tale",-10.963309626811075],["poster",-10.96333541925615],["Ask",-10.963561887490272],["creator",-10.964961985031815],["fled",-10.964983496027937],["dispos",-10.967729479697882],["deny",-10.968214346552509],["ounce",-10.96986602819414],["anyway",-10.970090690428803],["consult",-10.970416392139914],["prox",-10.970635315913807],["principle",-10.970939791299617],["supplement",-10.970939861870145],["Charlotte",-10.97093988678081],["Resident",-10.970940191088426],["Bureau",-10.970940631754706],["contrast",-10.970940931001703],["Information",-10.970945440760314],["taxpayer",-10.970949961423022],["Mohamm",-10.970953008003338],["Museum",-10.970954688111036],["reputation",-10.970955456824765],["Wolf",-10.970968320768625],["motive",-10.970976813226368],["Dallas",-10.971050727342325],["metric",-10.97119903275847],["NASA",-10.971323092548522],["magazine",-10.97157706101163],["bubble",-10.971725616360473],["Small",-10.971822644619643],["ASDA",-10.972189015334955],["Leban",-10.97221536996075],["expression",-10.973063086493957],["cord",-10.973064103610737],["Kris",-10.973227474718218],["Gree",-10.973661111207306],["immunit",-10.975012678672414],["enne",-10.975024171662104],["Tam",-10.975034914831006],["Pelo",-10.975237724556518],["Morrison",-10.975769642937923],["parliament",-10.975833179274577],["Balti",-10.976176462424487],["Dead",-10.976863230580609],["norm",-10.977654645505407],["isolat",-10.978278538731091],["Miss",-10.978450402495431],["2003",-10.978552943778917],["reek",-10.979706873183579],["lore",-10.980828758486378],["horn",-10.9814354482312],["metal",-10.981859614508274],["Sometime",-10.983116277321205],["Corn",-10.983919173611117],["insight",-10.98557309435248],["seal",-10.987103381586623],["journal",-10.987147278752545],["jet",-10.987219076081288],["comm",-10.987750869363179],["collaborat",-10.989079318792403],["construct",-10.989346513160827],["Ethiopia",-10.989807715834171],["consecutive",-10.989807716362918],["Nevada",-10.989807759069391],["recession",-10.989807823901167],["drastic",-10.989808235112228],["stadium",-10.989808448969532],["interrupt",-10.989808624939995],["Journal",-10.989809109853086],["conspirac",-10.989820682081707],["boast",-10.989823125067897],["fiction",-10.98982742425741],["casual",-10.989827915640701],["vegetable",-10.989847437541462],["Building",-10.9898546911123],["roster",-10.989939224343814],["compliance",-10.98994567331783],["regret",-10.989953042563096],["controversial",-10.98995553193808],["designer",-10.989963390455696],["Barrett",-10.989991926573804],["harass",-10.990262270062871],["disruption",-10.990307544310944],["slide",-10.990794464821542],["inspiration",-10.990823339321757],["sanitizer",-10.99088396110524],["Glen",-10.990926154073463],["girlfriend",-10.991037240645099],["Major",-10.991153321121761],["Rev",-10.991220114540035],["iza",-10.991275920322405],["teenager",-10.99137611555345],["click",-10.991577632978025],["revolution",-10.99162118309132],["statue",-10.991797622549342],["interior",-10.99253315681236],["Vot",-10.99315274313786],["ulation",-10.993200614704131],["realise",-10.993241553164854],["cheat",-10.993839466674677],["repeat",-10.994766118386057],["hook",-10.994859729268699],["PE",-10.995091709452527],["attitude",-10.995101447950171],["Auto",-10.995492819604864],["Technology",-10.995977388290392],["Sean",-10.996179711802753],["Bio",-10.996645048823336],["investigator",-10.997064214905551],["obust",-10.997541471126304],["Simon",-10.99775761363075],["exception",-10.99939027994444],["moon",-10.999629972877743],["react",-11.00018829568138],["Patric",-11.000981987899664],["Camp",-11.001108245698836],["overwhelming",-11.002813830707606],["bow",-11.003171906216421],["commit",-11.003686761715056],["Sad",-11.004502280150493],["communicate",-11.004733535915937],["lev",-11.006325569080154],["Fans",-11.00633209581204],["Thu",-11.008869034469873],["Festival",-11.009038490081364],["Muhammad",-11.009038498454968],["succeed",-11.009038519974848],["prominent",-11.009038582474156],["enterprise",-11.009040301393274],["Video",-11.009053983132642],["Support",-11.009058413472928],["breast",-11.00906887165294],["Cabin",-11.009099806936613],["landscape",-11.009109485695976],["Solei",-11.009109600480352],["Credit",-11.00922503106873],["audio",-11.009438174697678],["Baker",-11.00953150259468],["conviction",-11.009620460778033],["Chelse",-11.009633173584753],["everyday",-11.009799980561619],["theatre",-11.009844107783366],["enroll",-11.009919267219766],["ordinar",-11.010002783289094],["shine",-11.010164293411592],["Columbia",-11.01020262176713],["replacement",-11.01029869884859],["Horn",-11.010917396722808],["tactic",-11.010996358360924],["refugee",-11.01122988163151],["overcome",-11.011521765243998],["productive",-11.012140236346102],["promot",-11.012445278299866],["hired",-11.012720849688234],["Orange",-11.012838324321288],["electoral",-11.014219210543594],["lippe",-11.014290476757559],["THE",-11.014409368865458],["surround",-11.016425283295082],["1990",-11.016426473171865],["announc",-11.017532957750884],["NR",-11.019634184515338],["Dave",-11.019912687401277],["genre",-11.020199999578152],["participati",-11.021769226028532],["cab",-11.02194586969286],["belt",-11.022078442154584],["bro",-11.022456087573678],["angr",-11.023377227676246],["premiere",-11.025720087391896],["Hunt",-11.025739063234179],["ucker",-11.026220107396227],["motivat",-11.026585982071026],["hike",-11.027097547311673],["Terr",-11.028285197534824],["Case",-11.028491904040095],["universal",-11.028646365702235],["conscious",-11.028646450900546],["Halloween",-11.02864947086742],["silence",-11.028649931356014],["Tennesse",-11.028656008091716],["Mobil",-11.028668280926631],["Connell",-11.028681716662348],["Brooklyn",-11.028692381277837],["Jesus",-11.028753265476366],["opposite",-11.028787854518331],["Emil",-11.028825184717826],["contractor",-11.02921667495662],["Bruce",-11.029317245838294],["FF",-11.029402629135621],["coalition",-11.029466820685766],["eath",-11.029948769140653],["outfit",-11.02996767525902],["specialist",-11.030261543921144],["Phase",-11.03027351522568],["Euro",-11.030768975101314],["Jean",-11.031621271138231],["Hunter",-11.03240498569877],["button",-11.032546702917335],["useful",-11.033357186457732],["attribute",-11.034065389073465],["BE",-11.036297396333847],["2023",-11.03696112394081],["eem",-11.037035766029861],["1970",-11.037504459573507],["disagree",-11.037543926598708],["corp",-11.037954922155713],["crush",-11.038764000858391],["mash",-11.039054354192178],["exceptional",-11.039347954934653],["Luk",-11.039717053959087],["entit",-11.04114915292414],["Kam",-11.041441461428427],["pickup",-11.043263051198206],["hiring",-11.045517315495053],["magic",-11.045935898757113],["HR",-11.045989910499573],["nov",-11.046439714001178],["shower",-11.047164133874894],["0000",-11.047722802130913],["mortgage",-11.048646330303239],["departure",-11.048646572036132],["religion",-11.0486475106343],["Captain",-11.04865119655381],["Philippine",-11.048658040569256],["entrance",-11.048660759937277],["utiliz",-11.048698349659553],["vendor",-11.048705669145084],["Ocean",-11.048721221574219],["toxic",-11.048799669020703],["Order",-11.048954641152616],["Merc",-11.049062106171707],["sweep",-11.049094438516295],["empower",-11.049134793416828],["Aaron",-11.049183671729038],["Warner",-11.049282009764838],["03",-11.050212425063455],["Resource",-11.050894523643423],["bitter",-11.05111225334674],["thick",-11.051492978413316],["Studio",-11.051820817666357],["unemploy",-11.051860682580891],["deck",-11.052629650997176],["ike",-11.053387019783399],["Sav",-11.054420500962902],["probe",-11.054965686356807],["Off",-11.054983963218202],["Cap",-11.055007559803048],["blend",-11.056048361819816],["seize",-11.056233439650443],["Xi",-11.057154520432684],["Find",-11.057934911543661],["erial",-11.05817450178944],["receiver",-11.058486835214385],["transit",-11.059685386217122],["Way",-11.060993482587506],["mil",-11.061273487817616],["Mul",-11.062269190375915],["logic",-11.063004124808028],["Patt",-11.063014180109441],["urgh",-11.063033924171442],["oven",-11.063190343046923],["defender",-11.065018942561846],["LP",-11.065299842129324],["NCA",-11.066696024689607],["discriminati",-11.067730819714765],["₹",-11.069054491461074],["í",-11.069054491461074],["Representative",-11.069054646001044],["judicia",-11.06905597863128],["muscle",-11.069062169213952],["reiterate",-11.069064664296336],["sequel",-11.069065067085706],["laborator",-11.069072277068805],["recipe",-11.069074412216265],["educate",-11.069089210293374],["Matthew",-11.06913044777537],["Village",-11.069159769757817],["comprehensive",-11.069218968457731],["Panther",-11.069497595605979],["adventure",-11.069528372178478],["jack",-11.069647490858463],["Storm",-11.069762517061214],["continuous",-11.069819516608511],["Roger",-11.070183520574071],["curfew",-11.070192528032713],["lifestyle",-11.070532712387145],["Philip",-11.07087053089403],["Reserve",-11.070902030278335],["permission",-11.071692645757453],["sacrifice",-11.071721521549996],["strand",-11.071746095934763],["Pick",-11.072818361585728],["izz",-11.073041093214574],["Line",-11.073635773134951],["ensu",-11.073992638039758],["grave",-11.074076274278731],["nife",-11.074227239178043],["deeme",-11.074227283960443],["stunning",-11.074923906970344],["rity",-11.075172767602297],["fleet",-11.079898567089456],["antibod",-11.080736257347704],["Vanc",-11.083734699407188],["Moh",-11.084406902581927],["Staff",-11.084511280017786],["PG",-11.085347287157871],["Roman",-11.085823738420109],["showcase",-11.087628721474804],["midst",-11.089556712383725],["Near",-11.089628956038812],["jurisdiction",-11.089887824835955],["phrase",-11.08988793914335],["Aberdeen",-11.089887977526391],["mitigate",-11.089888016456154],["cricket",-11.089888641759764],["Kingdom",-11.089888841968419],["premium",-11.0898890959837],["tragic",-11.089893364849306],["float",-11.089893928864006],["silent",-11.08989492391673],["Armenia",-11.089898410620275],["Fauci",-11.08990134338625],["ndroid",-11.089901581376546],["Reuter",-11.089919989421466],["patron",-11.089948453612976],["Future",-11.08995279904188],["substance",-11.089964421477125],["drove",-11.089983995444793],["mpire",-11.089989181020465],["hawk",-11.09007906409391],["liabilit",-11.090149720164758],["Command",-11.090175208756419],["pipeline",-11.090189258815318],["Arabia",-11.090211800237213],["Viking",-11.090212319130618],["Pitt",-11.090785670497645],["settlement",-11.09086720080155],["counterpart",-11.0910453212943],["Pho",-11.091275704046545],["101",-11.09163944372585],["render",-11.09176824677421],["chew",-11.091892413769495],["Short",-11.092322673874357],["pause",-11.092897057565738],["glad",-11.093259185055073],["refer",-11.09413106217302],["consideration",-11.094599677431788],["Airline",-11.094728165219939],["gust",-11.095084379622827],["Jam",-11.095736998531418],["arring",-11.096532094698194],["recognise",-11.09689364437553],["Francis",-11.097267161314317],["Rick",-11.098002759105228],["Islami",-11.098847019192915],["Bush",-11.099109042833788],["versu",-11.099267798148974],["documentar",-11.099401240236489],["Penn",-11.099704440268464],["Allen",-11.099707981643382],["fro",-11.099758002452322],["bay",-11.103344546782091],["hug",-11.10371346856995],["roit",-11.104699074356866],["recycl",-11.104922084011065],["Independen",-11.10529626895217],["CMP",-11.106248657759922],["Cro",-11.10752504809328],["convention",-11.108587823430048],["Gil",-11.108638574890415],["nick",-11.109776000645187],["Lau",-11.110222346175625],["gram",-11.11055188602893],["exhibit",-11.11070013467788],["enthusias",-11.11116442139021],["Lincoln",-11.111164423760886],["Memorial",-11.111164434992574],["hybrid",-11.111164960365905],["sibling",-11.111169128608392],["Summer",-11.111171316527681],["treasure",-11.111174089473376],["Country",-11.111199859622896],["occupie",-11.111200997627876],["pivot",-11.111210014158235],["costume",-11.111227842948171],["Gordon",-11.111228876472483],["Phillip",-11.111251113075642],["apitol",-11.111428490408002],["Graham",-11.111610262676878],["transformation",-11.111797086334022],["Hell",-11.112422610889666],["presentation",-11.112859523905694],["survivor",-11.113079217228744],["establishment",-11.113434408379257],["revise",-11.113462731376604],["download",-11.113755002431805],["flash",-11.113920871743487],["bump",-11.114814599008755],["frontline",-11.11556820907741],["elite",-11.116076645342211],["radi",-11.11614621862316],["happi",-11.117055374300161],["nail",-11.117529303827876],["relation",-11.11922127739618],["rallie",-11.11936668695821],["Easter",-11.119676150609944],["hail",-11.121110889376451],["unexpected",-11.121334539290611],["Heart",-11.121712047619909],["LG",-11.122543767407395],["gli",-11.124001034473629],["Death",-11.124305232253136],["Prof",-11.12466448439417],["menu",-11.124770729376468],["Thai",-11.125191957222437],["Islam",-11.125284518977022],["shake",-11.12698702627113],["organizer",-11.128887146515112],["Ferr",-11.13206228847324],["furlough",-11.132903551426843],["voluntar",-11.13290355433681],["democratic",-11.132903559293311],["mechanism",-11.132903559904342],["caucus",-11.13290374069565],["corporation",-11.132904939695832],["ialogue",-11.132907973623634],["congress",-11.13290959567163],["cannabi",-11.132916889990394],["felon",-11.132924561982225],["distinct",-11.132940322417994],["boom",-11.1329506494619],["anuel",-11.132979076286906],["random",-11.132995992202513],["spiritual",-11.13301278562675],["scrutin",-11.133038375304048],["prize",-11.133208414070568],["Asset",-11.13322204672312],["Cleveland",-11.13328587352022],["exhibition",-11.133378879885598],["economist",-11.133913587280222],["partisan",-11.13395710698838],["Point",-11.134055476699121],["AFC",-11.134093731674202],["worship",-11.1341404954387],["soap",-11.134347787721703],["framework",-11.13451755790842],["shipp",-11.134626629930876],["membership",-11.135570800794868],["vary",-11.135849399936285],["reign",-11.13738727449045],["kov",-11.137820132632326],["rotat",-11.138067476224265],["beef",-11.138601204842287],["depressi",-11.138722885841032],["inquiry",-11.139011807946474],["cow",-11.139034549923663],["endorse",-11.139194052123479],["tooth",-11.139250236947618],["Kath",-11.139404330416086],["Data",-11.139664329308449],["medic",-11.13984353190355],["commander",-11.14055380641262],["Medic",-11.141777691807702],["traged",-11.142147878367268],["ING",-11.143154194739752],["fate",-11.144307049241934],["plea",-11.146689952981712],["ipping",-11.146705605778722],["Iron",-11.148212127078741],["endra",-11.149375539459482],["cater",-11.149950679155593],["upset",-11.150852278924402],["Palm",-11.151359578976827],["Direct",-11.151524370924495],["%)",-11.152937904367029],["Lim",-11.154053588702258],["Barne",-11.154554836749607],["fault",-11.154988742180553],["lender",-11.155006263978859],["Conservative",-11.155125773226558],["obstacle",-11.155125773916948],["tremendous",-11.155125774410717],["Similar",-11.155125781061678],["Singapore",-11.155125781179184],["flavor",-11.155125781326214],["Treasury",-11.155125783840651],["judgment",-11.155125839527445],["ingredient",-11.155125888665232],["stroke",-11.15512596095583],["Quebec",-11.155126819841843],["generous",-11.155128050123448],["Douglas",-11.155129142460298],["innocent",-11.155134670446724],["guitar",-11.155137768556468],["ethnic",-11.155143365181717],["cient",-11.155320901172036],["Smart",-11.155372384548302],["prosecution",-11.155476916021701],["introduction",-11.155546037756102],["consultation",-11.155571406812946],["welfar",-11.1556566835007],["admir",-11.155732689268678],["Face",-11.155914824489493],["Pass",-11.156377470532753],["Lev",-11.156413395354178],["exploit",-11.156652768953741],["Blake",-11.156717654144753],["respondent",-11.156736385470348],["Sign",-11.156892632460698],["parade",-11.157165813492828],["pink",-11.15748696396914],["battl",-11.157560290056278],["digit",-11.158453150165142],["Pier",-11.158668280198162],["Buck",-11.158966270207692],["merge",-11.1593597746951],["Gib",-11.161248753442287],["butter",-11.161912251610403],["globe",-11.16278451943409],["900",-11.162890959610461],["McK",-11.163607223372367],["Brother",-11.163836897414779],["Kel",-11.164118415318597],["cycl",-11.164564171808255],["ICU",-11.164851767906566],["Happ",-11.164877470691064],["partial",-11.165343580633756],["poke",-11.168111814974424],["height",-11.168897185801619],["Bow",-11.16969524600514],["cub",-11.170407581031192],["freeze",-11.171291062989381],["keen",-11.171416453850869],["pursu",-11.172566689240195],["ril",-11.172801226592124],["reservation",-11.173419560754025],["broker",-11.174924725343772],["Tak",-11.175066076260764],["uncertain",-11.1756148260721],["2004",-11.17673576765829],["destructi",-11.17708774043034],["efficienc",-11.177853045923452],["ambassador",-11.177853045929346],["Bangladesh",-11.177853046085167],["Ultimate",-11.177853046216384],["reception",-11.177853059811977],["criteri",-11.177853071953209],["athletic",-11.17785334621896],["Broncos",-11.17785409030649],["Field",-11.177854328288154],["lecture",-11.17785664045124],["Chamber",-11.177859763650819],["yellow",-11.177864428648865],["exclud",-11.177865368240344],["Thanksgiving",-11.177867168321313],["councillor",-11.177882160174047],["Motor",-11.177906962085162],["blind",-11.177911738847609],["suspension",-11.177912312016382],["Wayne",-11.177927629369105],["flame",-11.177931254552966],["initiate",-11.177937247393215],["commence",-11.178011801234634],["nonprofit",-11.178066749762815],["itarian",-11.178073011819205],["Sudan",-11.178077215000064],["proportion",-11.178100844035889],["commute",-11.178101069396662],["ouver",-11.178297390133821],["Christophe",-11.178360788309828],["Duke",-11.1784415901508],["indication",-11.178580845018677],["Nazi",-11.178669511841568],["insider",-11.17883517585207],["blaze",-11.178904880967977],["stabb",-11.178942075044503],["burst",-11.17903725626043],["Meet",-11.179115502187146],["Place",-11.179142810331486],["medication",-11.179428382694642],["NEW",-11.179492939869574],["crude",-11.179525901369328],["imagin",-11.179742947935013],["immigrati",-11.179845868497148],["pregnanc",-11.179971557801753],["friendship",-11.18003210582847],["Lab",-11.18028844236337],["glove",-11.181278043591506],["preserve",-11.181544255311884],["suggestion",-11.18171375105074],["terroris",-11.182302080761282],["Tax",-11.182459175457868],["Stay",-11.182479695735092],["foul",-11.182617875280563],["Camero",-11.183657867686733],["reverse",-11.185635268305447],["Cub",-11.186785960171237],["refresh",-11.187282989528093],["Vir",-11.18775639141318],["declin",-11.18916928531036],["Mau",-11.190034466508497],["arcelo",-11.190090123666284],["Mol",-11.191734535732461],["Knight",-11.192083101645885],["tube",-11.192248690328402],["Count",-11.192482152490724],["prisoner",-11.19377606908487],["buri",-11.195011092691981],["elf",-11.195454041810375],["unfair",-11.196447248456046],["traffick",-11.196523316499556],["zoo",-11.19716020508067],["dependent",-11.197499446053175],["Coach",-11.1983600884048],["migration",-11.199073472910946],["reci",-11.199751767087779],["lens",-11.200707723687957],["ó",-11.201108859876854],["atmosphere",-11.201108860108778],["subscription",-11.201108909682466],["phenomen",-11.201108944234804],["Picture",-11.201110261201402],["enormous",-11.201110926124933],["volatil",-11.2011136992631],["interpret",-11.201123403641152],["mirror",-11.201126981301918],["Girl",-11.201127349986784],["compell",-11.201154556225553],["View",-11.201171356208508],["incentive",-11.201193457502221],["Titans",-11.201198499068887],["loot",-11.201245648925585],["orient",-11.201259293125176],["apologize",-11.201273972145485],["Assistan",-11.201299115668576],["FT",-11.20139990452966],["noon",-11.201435861143771],["Talk",-11.201478544429605],["compound",-11.20147857447957],["Rome",-11.201504483953647],["accompanie",-11.20158444646573],["cancellation",-11.201818364736255],["confirmation",-11.201892388701424],["Link",-11.201923612096142],["Hawk",-11.201956346960015],["ouisiana",-11.20197410576693],["Hopeful",-11.20197626283823],["zel",-11.202016630565957],["Histor",-11.202049691308321],["adjustment",-11.202251541384372],["Saskat",-11.202679049956792],["hospitalization",-11.202710436442398],["endanger",-11.202900512592066],["feedback",-11.203203609901193],["fift",-11.203415765995585],["Kamal",-11.203452787058753],["administer",-11.203502339809464],["Labor",-11.204022730875144],["Dark",-11.204476030524727],["limitation",-11.205491303369538],["Unlike",-11.206446444356569],["tenant",-11.207195180216111],["mont",-11.207452934566371],["00000",-11.20845602125192],["flaw",-11.20872460816096],["beneficiar",-11.210892992223894],["origin",-11.210927732753316],["supplier",-11.211350048512235],["flee",-11.213186758315084],["sideline",-11.214503394137783],["Nag",-11.216607498719195],["solv",-11.218234369316072],["valent",-11.218887182526332],["dip",-11.21956441075077],["constitution",-11.22161797703106],["Gill",-11.22195617520644],["Sri",-11.222681012761148],["Harb",-11.223023933382596],["recount",-11.22443725369428],["trappe",-11.224693375559735],["commerc",-11.224855713338272],["pump",-11.224890795396107],["complication",-11.224918384093424],["administrator",-11.22491839624595],["Pompe",-11.224918799802788],["Edmonton",-11.224918995350926],["semester",-11.224922476397868],["Librar",-11.224922513565453],["Entertain",-11.224923097567316],["inflation",-11.224938089038572],["inevitabl",-11.224938976960669],["Square",-11.224954420881717],["accommodation",-11.224999437557685],["activat",-11.225001968931196],["Snap",-11.22501393856429],["Could",-11.225024408385558],["Berlin",-11.225033091077567],["mood",-11.225033404344149],["milestone",-11.225115901339212],["dirt",-11.22512484574506],["Morning",-11.225128687477763],["crete",-11.225176942580205],["Kumar",-11.225236340642692],["designate",-11.225308415735471],["Calgar",-11.225311715810365],["Operation",-11.22543334532533],["anime",-11.225609467314905],["bullet",-11.2256273468312],["chase",-11.22586957613124],["robot",-11.22589885521575],["Fargo",-11.22649155312083],["Players",-11.227002208308205],["possess",-11.227005270549922],["rocket",-11.227017885702987],["Jen",-11.227640026480133],["apolog",-11.228749229500423],["hou",-11.229641395725753],["Kansa",-11.231924474510734],["lining",-11.231955800251473],["Zi",-11.232538638506291],["Bond",-11.232578977809435],["stitution",-11.233636706053037],["bath",-11.23420291751112],["intentional",-11.234327610930684],["raft",-11.234381808924182],["Nik",-11.234490695342185],["chef",-11.234697211342944],["Mom",-11.236179755136307],["disc",-11.23644399449803],["submit",-11.236909617711154],["alien",-11.244400647803216],["gay",-11.24688219494197],["VE",-11.247417166401513],["solo",-11.248132441604936],["ranch",-11.248755045670203],["diploma",-11.249174285626296],["hygien",-11.249308628278866],["nutrition",-11.249308638047758],["external",-11.249308706245476],["calendar",-11.24930941318876],["Spider",-11.249310300897669],["certificate",-11.24931220444524],["universe",-11.249315213949362],["Consider",-11.249326720734794],["mineral",-11.249334731996768],["removal",-11.24934953737275],["bunch",-11.249384966828128],["Liberia",-11.249402157620196],["Section",-11.249417511978674],["grab",-11.249486948361305],["Palace",-11.249585049746297],["scandal",-11.249640042142195],["Antoni",-11.249658389006411],["nav",-11.249705340538265],["Jerem",-11.249713552528334],["Pittsb",-11.249798790026537],["Alaska",-11.249844684314903],["Record",-11.24991627141584],["Maryland",-11.250158879369131],["Enter",-11.250363200309826],["dump",-11.250375424131354],["breakfast",-11.250395761825814],["Giant",-11.2503976446522],["mobili",-11.250488746165802],["ownership",-11.250529513024082],["shaw",-11.25054234063507],["decent",-11.250716215995894],["circle",-11.251342310542096],["completi",-11.252140816948366],["involvement",-11.252271838924305],["Libya",-11.252316346811536],["relie",-11.252371170352708],["patch",-11.252644681003831],["Visit",-11.253430351589719],["Recent",-11.25411755868713],["communicat",-11.254347768605259],["Stu",-11.254528064279388],["Hamp",-11.255623248820159],["Mail",-11.255896554440842],["Madri",-11.256408921769053],["Dom",-11.258056033958908],["Nam",-11.258319182099205],["Change",-11.258463885327675],["1980",-11.25992272071344],["Clo",-11.260735857066111],["dust",-11.261073712502881],["rode",-11.262356408473085],["shout",-11.26255166070055],["bug",-11.264798537489876],["thread",-11.268288356815452],["matur",-11.27360820500875],["calculat",-11.273843846717245],["punish",-11.273864363725007],["lowes",-11.274198623884118],["deliberate",-11.274308628289592],["horizon",-11.274308631401325],["Modern",-11.27430873054318],["exhaust",-11.274308810148185],["Commerce",-11.27430891237223],["sovereign",-11.274308991414763],["embass",-11.27430909644012],["Communication",-11.274309143016978],["emphasis",-11.274309198623811],["evident",-11.274309387576345],["Federation",-11.27430974545236],["nervous",-11.274309867678294],["fantasy",-11.274310068804422],["romantic",-11.274310585993096],["Internet",-11.27431138708938],["commodit",-11.274311928511407],["diamond",-11.27431197886543],["civic",-11.274311989448915],["anxious",-11.274312421446494],["Receive",-11.274312607271192],["intimate",-11.274312711795694],["genetic",-11.274319247509204],["Electric",-11.274328498822845],["fool",-11.274332601016834],["borough",-11.274351323481522],["ecosystem",-11.274399968605886],["decorat",-11.274462616592649],["convey",-11.274467697838379],["symptomatic",-11.274565382819532],["affirm",-11.27461641707257],["comparison",-11.274625087693263],["meaningful",-11.274867212632678],["Laura",-11.274869921208566],["Update",-11.274946610371215],["safeguard",-11.274976847643005],["wildfire",-11.275062431086878],["shadow",-11.275277655712419],["Lane",-11.276096772755011],["Greek",-11.276329854838153],["disorder",-11.276707127533006],["devote",-11.277547427935415],["swimm",-11.277822020418133],["Calif",-11.277829839448314],["APC",-11.278437507271809],["haunt",-11.278750679386533],["preference",-11.278943957151998],["breed",-11.27906865595876],["Shop",-11.27942203008792],["liqu",-11.279434874061774],["intent",-11.280759533139038],["lag",-11.281055319037323],["fusion",-11.2821134223146],["pig",-11.283340940920127],["brush",-11.283512759048548],["Mexican",-11.285054455088634],["accord",-11.287749357121196],["reminder",-11.288529229156643],["Olive",-11.2902590560855],["Neil",-11.291008543106917],["Atlanti",-11.29101810815332],["rak",-11.291843663070539],["municipalit",-11.29202378977926],["emphasize",-11.294956253854533],["Victor",-11.295588953787556],["agne",-11.296102907247873],["Page",-11.296395899248083],["Daw",-11.29687735038801],["advoca",-11.298299366437378],["pric",-11.298758918170783],["agged",-11.298771045240247],["Mississippi",-11.299949653229877],["constituenc",-11.299949653232034],["earthquake",-11.299949665903348],["Taiwan",-11.299950032475472],["Citizen",-11.299950176818248],["mutual",-11.299951010847018],["Doctor",-11.299951451457675],["Temple",-11.299951518854359],["ESPN",-11.299952617205294],["manipulat",-11.299954142948224],["autonom",-11.299955293747201],["Critic",-11.299959005677861],["Ahmed",-11.29996437570147],["thorough",-11.29996458494783],["Dodger",-11.299965320254955],["excuse",-11.299971570144322],["execute",-11.299973103781529],["uniform",-11.29999589707809],["NYSE",-11.300036770871152],["dispatch",-11.300050437062504],["Malawi",-11.300052220818849],["Think",-11.300126786323306],["determination",-11.300177954360294],["Metro",-11.30024045690337],["hotspot",-11.300337757159106],["animate",-11.300370517411187],["cough",-11.300525924068344],["weakness",-11.300568446443155],["Doug",-11.300630412429967],["arbitra",-11.300722986984677],["declaration",-11.300788747292057],["caption",-11.30080116990987],["greet",-11.301035019195483],["observation",-11.301495124957668],["discriminat",-11.301619599324317],["supermarket",-11.301637842113305],["Jenni",-11.301841898069393],["rophy",-11.302417737850725],["allen",-11.30264832388318],["notifie",-11.302690891070634],["preferred",-11.303455287575012],["ambition",-11.304806906343096],["unlock",-11.30583607300609],["stating",-11.306430892270688],["REN",-11.306784696179406],["relieve",-11.30777894497734],["folk",-11.308164367691475],["rental",-11.308661024099848],["socio",-11.310623397276476],["Kra",-11.310866151284813],["grabb",-11.311325549982582],["pride",-11.31138833399629],["Thor",-11.312764418009403],["urgenc",-11.314012448444537],["Foot",-11.31689404670134],["legislati",-11.31728996220665],["asty",-11.318600384480785],["Prade",-11.318774185483615],["slave",-11.319424625872308],["griev",-11.320859510476652],["performer",-11.324411832596663],["enabl",-11.325287990604881],["influen",-11.325590660685476],["Venezuela",-11.326265442708724],["Municipal",-11.326265442826909],["pharmaceutical",-11.326265442882594],["incumbent",-11.326265443419297],["diagnosi",-11.326265445896851],["unanimous",-11.326265452401325],["Craig",-11.326265476020577],["concession",-11.326265534199276],["Agreement",-11.326265585918623],["suspicion",-11.326265621793304],["Oxford",-11.326265988370777],["Indonesia",-11.326268777025989],["Strateg",-11.32626946037552],["Window",-11.326271166981684],["loving",-11.326272127317171],["Superintenden",-11.326272472720698],["chamber",-11.326274466779356],["Provinc",-11.326274663178781],["psychological",-11.326308271657961],["steel",-11.326322440927807],["applicant",-11.326341254407877],["pension",-11.32634498859178],["preced",-11.326357854253057],["livelihood",-11.326389481365164],["Uganda",-11.326443165485749],["rookie",-11.326454212173994],["detention",-11.326507297027549],["twist",-11.326529482465933],["radical",-11.326573898112038],["Maha",-11.326584931315026],["Clear",-11.326592889897555],["submission",-11.326603569730993],["disinfect",-11.326719481145036],["Montana",-11.327141768694146],["memorial",-11.327171144353299],["Teh",-11.327297358529227],["pretend",-11.327855022433754],["ultra",-11.328341161382438],["hardwa",-11.328935276517752],["Price",-11.32911826984152],["honey",-11.32924961150211],["discipline",-11.329427550371282],["Tali",-11.330409911145619],["Serg",-11.33074363956832],["Remember",-11.33138953730433],["coordinator",-11.331867469061857],["Kil",-11.331923193143163],["inspect",-11.3321999096039],["Kol",-11.332628959888496],["Carr",-11.333080829652442],["Much",-11.333314642321366],["arrow",-11.333395644955585],["Step",-11.333999214190603],["loop",-11.33416418469702],["mock",-11.334534699227717],["charm",-11.335840800497675],["reinforce",-11.336598994986216],["spice",-11.337882613037104],["polluti",-11.338269981078566],["ntil",-11.33844668021127],["nerve",-11.339401770943578],["occasional",-11.339847975064703],["alia",-11.340125886773553],["excite",-11.341024496311404],["Fur",-11.341971655681768],["minimal",-11.34268504199957],["salarie",-11.342996229802077],["Hous",-11.343427982516307],["Clem",-11.343777209015503],["logg",-11.346784067658717],["sentenc",-11.347030487303352],["resilienc",-11.348488107829393],["Jerr",-11.348488911582908],["Kir",-11.348922388183617],["euro",-11.349984986945588],["plug",-11.350605038247723],["Child",-11.351261628494093],["Michell",-11.352636103178028],["aspir",-11.353023576478225],["expenditure",-11.35329246974693],["structural",-11.353292470150087],["condolence",-11.353292470200886],["bankruptc",-11.353292470956223],["Caribbean",-11.353292471817403],["authentic",-11.35329252378166],["ambulance",-11.353292877857683],["inclusion",-11.353293655251193],["engaging",-11.353294412330534],["Kennedy",-11.353296228699737],["Friends",-11.353297096398176],["Missouri",-11.353299060703012],["Diamond",-11.353301225762221],["Nichol",-11.353301365708745],["firing",-11.353308400362131],["Policy",-11.353309336807232],["Natural",-11.353314080951641],["Digita",-11.353326420896401],["Campbell",-11.353334456410346],["depict",-11.35333889587952],["cheese",-11.35334986520471],["striking",-11.353349869409895],["libert",-11.353354552240392],["pizza",-11.353361248095423],["casino",-11.353364626920252],["constitute",-11.353373452953651],["Tyler",-11.353394550817196],["mysterious",-11.35342936562129],["buzz",-11.353468112784416],["Protection",-11.353478151570382],["Medicine",-11.35351395273018],["enix",-11.353599396025421],["HING",-11.354255466757177],["avage",-11.354391725025337],["impress",-11.355049461132218],["fame",-11.355338446442271],["assumption",-11.356159528208671],["FDA",-11.356952058270924],["hydro",-11.357680540866907],["awesome",-11.357763011340275],["centur",-11.35822459418566],["batt",-11.358502977069122],["Dick",-11.358977432068361],["thru",-11.359178305411717],["castle",-11.359201780168819],["Olu",-11.359454893685523],["facilitate",-11.360612791329597],["Front",-11.360986203622648],["Mack",-11.361046975053052],["Beyon",-11.362498493608522],["venge",-11.363766736268007],["Kur",-11.365740202699158],["Newsom",-11.367279388679279],["Jessi",-11.36742530934071],["Communi",-11.368643366382308],["auke",-11.370520079047136],["Shah",-11.371437386755922],["Marine",-11.372475244493343],["affi",-11.376884520740003],["Cav",-11.377798139878015],["sembl",-11.38017387905972],["Log",-11.3804294335275],["philosoph",-11.381070247508356],["evacuate",-11.381070249696982],["kilometre",-11.381070250101672],["compensation",-11.381070263429002],["Veteran",-11.381070508214682],["Convention",-11.381070615412874],["abortion",-11.381071408137508],["itigation",-11.381071847813278],["Globe",-11.381074269838695],["stupid",-11.381075269619457],["eviction",-11.381082449898143],["Animal",-11.381083128318338],["examination",-11.38108372939803],["financing",-11.38110271893277],["Russell",-11.381109753341677],["Weinstein",-11.38111115113811],["Queensland",-11.381128701155959],["swift",-11.381130334096314],["covid",-11.381158177671967],["Murra",-11.381217470696036],["isdom",-11.381231389520206],["Technologi",-11.381259247092459],["bathroom",-11.381262916338011],["Vision",-11.381324743349527],["offender",-11.381341320353098],["contrar",-11.381385776011614],["prosper",-11.38154192509421],["impression",-11.381550289396301],["Spence",-11.381621394393836],["punishment",-11.381637791282671],["wire",-11.381870022972373],["painful",-11.381891149227547],["defendant",-11.38195242231916],["filmmaker",-11.382373610026583],["geograph",-11.382486206807444],["demonstrator",-11.382642794802042],["melt",-11.382818984810974],["alliance",-11.38282173137118],["mpact",-11.382983531249794],["decid",-11.383051983015921],["steer",-11.383599062403283],["Perry",-11.383823586380093],["motivation",-11.38400929333704],["induc",-11.384018727266165],["damn",-11.384122959301004],["ogether",-11.384339232012866],["fertil",-11.384555930140209],["wrap",-11.384692388411144],["gomer",-11.38617977128218],["ETF",-11.38620477691346],["Jak",-11.38641853813716],["ragged",-11.386518751017444],["Rating",-11.386633290829002],["representation",-11.386983797960056],["connectiv",-11.387387504310295],["stranger",-11.38775680568435],["Finn",-11.388407622456079],["skeptic",-11.38870013574687],["arrange",-11.389747482554142],["Store",-11.390664473123689],["dev",-11.390800905187032],["endure",-11.391955170834331],["liance",-11.393716465224866],["feat",-11.39590519611927],["Farmer",-11.396270455610999],["notabl",-11.397061397102982],["positiv",-11.397955529336167],["bonus",-11.400460986127257],["patrol",-11.401476073073615],["memo",-11.40216795046663],["bvious",-11.40280936966216],["poiler",-11.40553422781764],["vaccination",-11.409641676092333],["definition",-11.409641676818149],["frustrating",-11.409641677998394],["Punjab",-11.409641689911318],["affiliate",-11.409641707218984],["ophomore",-11.409641782890677],["preliminar",-11.409641946662315],["prevail",-11.40964207146426],["vacation",-11.40964223236833],["Malaysia",-11.409642439740367],["rhetoric",-11.409642824139507],["deteriorat",-11.409643305439214],["mechanic",-11.409643376521071],["plague",-11.409643466496211],["oxygen",-11.409645810100729],["Custom",-11.409663355514242],["streak",-11.409663492791147],["Would",-11.409680859044279],["desert",-11.409687447173948],["cruel",-11.409725735231696],["foster",-11.409726383025554],["Belgi",-11.409924590937955],["wicket",-11.409926207163661],["Tampa",-11.40993530988704],["Alliance",-11.409959555651163],["believ",-11.410247030020255],["confrontation",-11.410322335619544],["Michel",-11.410440295303147],["Writ",-11.410740834212248],["realistic",-11.410808373770127],["terminal",-11.410845139872624],["suppress",-11.410863503458582],["Living",-11.410998187271755],["Engineer",-11.411117164216211],["deployment",-11.411306216433793],["drown",-11.411370528935773],["vacan",-11.411381365683283],["wig",-11.411692290140202],["Jamie",-11.411832183106513],["Helen",-11.411895060206216],["inject",-11.412098316792706],["Drug",-11.412413786730198],["McCa",-11.412415396274532],["awful",-11.412769040429263],["bulk",-11.41355792815196],["Margar",-11.413637956032922],["specialize",-11.413795158230894],["descen",-11.414249202252805],["Theatre",-11.41456119910329],["Winter",-11.414712219036018],["Intel",-11.416248196143567],["welcom",-11.417012328635884],["corrupt",-11.417171099829748],["Grace",-11.41927812488411],["pipe",-11.419321347031095],["riders",-11.419729062569262],["RAM",-11.42068511230963],["boundar",-11.422728961382985],["Lega",-11.428502940926073],["rude",-11.429210278126872],["choos",-11.429262105131048],["raj",-11.42995432783032],["administrati",-11.430184054170786],["Code",-11.43182201556044],["pants",-11.432574165642059],["Macro",-11.43369382262982],["prosecut",-11.435776685330517],["remarkabl",-11.43692744946106],["differ",-11.438866856331828],["scholar",-11.438889791510714],["Belarus",-11.438991063797642],["ridiculous",-11.43905344087599],["legislature",-11.439053440998013],["Nebraska",-11.439053443184129],["LGBTQ",-11.439053443697757],["implication",-11.439053548998336],["supervisor",-11.439053782292444],["cliff",-11.439053839806164],["Samuel",-11.43905411995549],["embark",-11.439054612879653],["variant",-11.439055071868296],["Lawrence",-11.439055238528338],["parallel",-11.439055500859048],["pepper",-11.439056187947989],["concise",-11.439056479367268],["lobby",-11.439061301055116],["sheriff",-11.439067024214859],["surrender",-11.439071865721145],["stagger",-11.439072704347597],["monument",-11.439075947566748],["Celebr",-11.439080611320907],["Legend",-11.439083954427744],["Arsena",-11.439086372963317],["elevate",-11.439106807588018],["Budget",-11.439152651187424],["Limited",-11.439158296273158],["cafe",-11.439246357015888],["logistic",-11.439249859888463],["crown",-11.439281703551238],["Madison",-11.439321787693386],["distress",-11.439348329245675],["exemption",-11.439394904069541],["surpass",-11.43940075372048],["Bishop",-11.439474304616233],["tcher",-11.439482158783257],["laughter",-11.439769295126357],["Oil",-11.439891852270936],["attractive",-11.439944990234904],["contestant",-11.44016118870557],["thankful",-11.440275313553961],["brows",-11.440364866835019],["Left",-11.440522900624156],["Full",-11.440640217938979],["facial",-11.440689875116496],["consent",-11.441540298390553],["availabilit",-11.44156211722795],["garage",-11.441710992071602],["survival",-11.441856369443451],["accusation",-11.441871688012842],["Shu",-11.44344926681409],["Environmental",-11.443516693034294],["Sid",-11.44392759310106],["credib",-11.444031293882002],["resumpti",-11.444357391916586],["Box",-11.444633870220935],["Jose",-11.444990352089981],["brave",-11.44515323203853],["Learn",-11.446630019782138],["stabiliz",-11.446717905043673],["WAS",-11.44837490383221],["Tel",-11.452008998056936],["criticise",-11.45324184640929],["rigg",-11.453970078023504],["damag",-11.456653846705052],["ladi",-11.45913205660794],["flexib",-11.459633810655763],["uncle",-11.460339044310883],["parliamentar",-11.46135338600591],["udi",-11.461994224592075],["servant",-11.462607559420642],["Kadu",-11.46455192264888],["ambitio",-11.4651637411294],["Secret",-11.466493846726355],["peg",-11.4671630450467],["controvers",-11.469117818751073],["certifi",-11.46935150928067],["Restaurant",-11.469356471179088],["embarrass",-11.469356471235505],["evacuation",-11.4693564713584],["collision",-11.469356525789612],["Organisation",-11.469356551215053],["extremis",-11.469356560556035],["cautious",-11.469356633998075],["awkward",-11.469356645731049],["supremac",-11.469356899919537],["pronounce",-11.469357820419917],["Consumer",-11.469358037049838],["Liberal",-11.469360348920542],["Bailey",-11.469363910346004],["sandwich",-11.469364493708897],["chronic",-11.469365050841503],["Hopkin",-11.469365333293757],["purple",-11.469366132480896],["Peace",-11.469366621503909],["Grammy",-11.469370610990666],["Fraser",-11.469376152581141],["devastate",-11.469378859302354],["Bennet",-11.469379847057343],["competitor",-11.469397679332198],["organic",-11.469400124554449],["withdrawal",-11.469414347742525],["Dublin",-11.469420524888307],["Keith",-11.46942647665314],["Eight",-11.469434131933959],["testimon",-11.469458336163813],["froze",-11.469464644759071],["tighten",-11.469567180228054],["graduation",-11.469571152550712],["benchmark",-11.4696226033177],["excessive",-11.469658648800207],["inventor",-11.469696838258256],["Larr",-11.469716742323083],["protein",-11.469728935556448],["weaken",-11.469753774515272],["childhood",-11.469783060080076],["disclosure",-11.469798179144254],["filter",-11.46989881705065],["galler",-11.470151233850466],["Mission",-11.470153602335436],["stir",-11.470187853811264],["installation",-11.470335629662593],["Astro",-11.470429121867234],["Villa",-11.470502996857768],["Silver",-11.470969353263536],["Fisher",-11.471057979122236],["nightmare",-11.47142989313171],["Beck",-11.471809805826563],["belonging",-11.472919107941406],["Ghos",-11.47303319685652],["uci",-11.473085164123551],["Connecti",-11.474758113302366],["Nanc",-11.474814338468002],["Portug",-11.475132414906883],["void",-11.475280556543897],["enact",-11.475649614265606],["elective",-11.476510875101251],["Dav",-11.476582653792029],["Mosco",-11.476609990846104],["Cel",-11.47773680543051],["opez",-11.4786467867412],["wrappe",-11.485035336795121],["satisfie",-11.493984582872285],["lude",-11.494705295184799],["medal",-11.499488985455331],["Fol",-11.499702887556861],["Moon",-11.499888649124792],["commend",-11.500117842706105],["mud",-11.50026933347026],["Azerbaijan",-11.500606471088673],["Jerusalem",-11.500606471131444],["convenient",-11.500606471163396],["explicit",-11.500606484240123],["accurac",-11.500606489242433],["glimpse",-11.500606492061745],["description",-11.5006066208111],["tariff",-11.500607131331606],["Soviet",-11.500607643104026],["scrambl",-11.500608582057872],["explanation",-11.500609042473851],["landlord",-11.500609057305764],["immense",-11.500610397166932],["pupil",-11.500614830834868],["precise",-11.500617204009608],["intervene",-11.500622014122795],["Wonder",-11.500632253139198],["wrist",-11.500633985179505],["Standard",-11.50064583067326],["gesture",-11.500654604445849],["Fight",-11.500674457665397],["Golf",-11.500681975327929],["fitting",-11.500689024578396],["anonymous",-11.500708204976405],["blanket",-11.50071504528422],["linebacker",-11.50071713462019],["bishop",-11.500759739537493],["oppress",-11.50077668883266],["doom",-11.500777037642697],["jacket",-11.500830483697085],["Metropolitan",-11.500841498986102],["monster",-11.50085508031091],["consultant",-11.500870731258118],["intersection",-11.500968242843696],["doubl",-11.500990247021415],["anchor",-11.501024492824476],["AFP",-11.501032433059013],["grandfather",-11.501186010239875],["grandmother",-11.501273734639335],["licence",-11.501294043123583],["rifle",-11.501308408261032],["prioritize",-11.501470451834141],["cousin",-11.5015146262268],["flatten",-11.501528174520713],["Nash",-11.501732678865904],["ierra",-11.501743873017578],["adaptation",-11.501830042474843],["mainstream",-11.502097342660804],["Pep",-11.502250795076518],["Rug",-11.50258426704163],["utum",-11.502812820427659],["Raider",-11.503158325883382],["plunge",-11.503362183832643],["bounce",-11.504012825926305],["conventional",-11.504422489927089],["stamp",-11.50444719179879],["Grow",-11.504817269931266],["leap",-11.505033967040962],["Industr",-11.505967133245003],["Zen",-11.50857391519348],["glu",-11.510088429292837],["municipal",-11.510379453105847],["triple",-11.51254305623444],["surviv",-11.513439677766957],["Bachelor",-11.517064279526231],["CARE",-11.518029476057439],["allocate",-11.518305950748683],["jewel",-11.519907429308077],["practic",-11.520678005479397],["luc",-11.52268383718388],["stack",-11.522684373845621],["physi",-11.530212671765746],["sequence",-11.532614358427942],["Ukrain",-11.532779737374975],["predecessor",-11.532864535616559],["convenience",-11.532864535650235],["Hurricane",-11.53286453568334],["recipient",-11.532864537567939],["cultivat",-11.532864916724137],["chocolate",-11.532865026051347],["intimidat",-11.532866454209568],["Bernard",-11.532866936314688],["Arthur",-11.532868036134307],["Tesla",-11.53286862214184],["Ronald",-11.532879612073055],["invitation",-11.532884267050916],["Qatar",-11.532887592472965],["Abdul",-11.53288854559175],["clerk",-11.53289131938264],["Duches",-11.53289984562069],["Holdings",-11.532933793382984],["Appeal",-11.532939921324703],["inclusiv",-11.532946137473761],["lodg",-11.53295295439592],["superhero",-11.53295357744691],["poison",-11.5329641279217],["Ridge",-11.53296760228553],["Travel",-11.53297160797322],["Celtic",-11.533008447453067],["scholarship",-11.533105276332224],["CBD",-11.533177524515429],["Tower",-11.533186671006142],["Stefan",-11.533187699202719],["Gandhi",-11.5332125147839],["procure",-11.533217016624256],["flour",-11.533221580933926],["telephone",-11.533241707583347],["Rabbi",-11.533257861911737],["Speed",-11.533734310216591],["tonne",-11.534345686140904],["passport",-11.53460086658057],["inaugura",-11.53485533386765],["Jeffers",-11.5350273226444],["Lauren",-11.535036542022265],["firearm",-11.535322561056269],["potato",-11.5353817003111],["ovic",-11.536557051191796],["translate",-11.53718202805891],["ndeed",-11.5386052584655],["memorabl",-11.538909690337626],["operative",-11.539089573455458],["nderson",-11.540051334815841],["bir",-11.542754093183675],["ampton",-11.543186141724386],["flexibl",-11.54333008708165],["nko",-11.545143957188582],["Jimm",-11.545412232304436],["kka",-11.548096706034606],["espi",-11.548338172076887],["patien",-11.559572753204149],["leaning",-11.560281609692609],["Guil",-11.560926376848444],["disciplin",-11.562192770099601],["evolution",-11.56221576670207],["fortunate",-11.56521062504119],["distract",-11.565736720043525],["speculat",-11.565783979833352],["Ashle",-11.566013641642591],["artificial",-11.566197870419238],["cigarette",-11.56619787218668],["frustrate",-11.566197873276936],["perception",-11.566197875164686],["Buttigi",-11.566197881651373],["Kashmir",-11.566197909245496],["Namibia",-11.566197923191227],["plasma",-11.566197934325134],["delicious",-11.566197948521726],["fascinat",-11.566198033034153],["Hundred",-11.566198073175691],["smuggl",-11.56619808306911],["horrifi",-11.566198233734857],["Embass",-11.566198436295764],["verdict",-11.566198696923104],["absurd",-11.566198708075902],["Freedom",-11.56619914263064],["modifie",-11.566199325811407],["tuition",-11.566201215641298],["consolidate",-11.566202448525944],["deferr",-11.566204445635341],["sensation",-11.566207778271524],["bipartisan",-11.566208926377668],["fierce",-11.56620998300938],["analyze",-11.566220654168848],["vasive",-11.56622206722245],["diabet",-11.566243546808439],["Sussex",-11.566244546302057],["stomach",-11.566244575412615],["billionaire",-11.566251915145068],["notorious",-11.566264158019973],["Derek",-11.566267358403454],["contagio",-11.566276691280326],["interfere",-11.566282969179655],["Expert",-11.56628903785693],["bacteria",-11.566313600996265],["sneak",-11.566322587286802],["manifest",-11.566327480368297],["Cambridge",-11.566328077709489],["Connor",-11.566401859890364],["interception",-11.566475399849748],["insult",-11.566491417313308],["Dominic",-11.566492333068563],["golden",-11.566513684501855],["disadvantage",-11.566652633425736],["Guardian",-11.566702424213421],["tribal",-11.566842350871587],["Hanna",-11.566852295950472],["endorsement",-11.566982049149857],["authorize",-11.567207660410244],["tropic",-11.567511535172976],["queen",-11.567552483629123],["Eddi",-11.567800471043997],["payroll",-11.56845764250861],["Universal",-11.56876438703345],["Stewar",-11.568814435883779],["undermine",-11.569040214319418],["candle",-11.569447472898801],["Trail",-11.569935817923897],["smell",-11.574164569871103],["corona",-11.577074991751559],["Crew",-11.578820257350044],["UCL",-11.578933762023134],["gig",-11.579953528303458],["propaga",-11.58304777931328],["pollut",-11.586179762024246],["rabbi",-11.587521876118796],["smok",-11.588420839171569],["obsess",-11.589008763118152],["Morris",-11.593279436410592],["oalition",-11.5993128448429],["proving",-11.599744443498933],["uneral",-11.600204592464443],["excess",-11.60038098805095],["algorithm",-11.600680627583918],["Tanzania",-11.600680627798056],["reluctant",-11.60068062894865],["Progressive",-11.60068062919689],["legislator",-11.600680630031174],["Chancellor",-11.60068064525683],["pedestrian",-11.600680666526108],["Manhattan",-11.600680690910707],["Magistrate",-11.600680739625272],["companion",-11.600681000486817],["reconcil",-11.600681124758246],["Switzer",-11.60068128709894],["hazard",-11.600682194994029],["Disaster",-11.600691683437391],["prince",-11.60069633538317],["ordinance",-11.600700028745468],["ssenger",-11.600710062311077],["Zambia",-11.600710122726637],["drift",-11.600733223015377],["motorcycle",-11.60077135350825],["burglar",-11.600876438246733],["skirt",-11.600936103418118],["Multi",-11.600998017914842],["hirty",-11.601012623111632],["Rangers",-11.601028378479132],["distraction",-11.601165338444925],["bacc",-11.60116559590369],["Quinn",-11.601190167411906],["Arena",-11.601274360779499],["Battle",-11.601282213758548],["resignation",-11.601427113424135],["Owen",-11.60147129629823],["Retail",-11.601554610636565],["tolerate",-11.601694524075517],["Rocket",-11.601779140375637],["attraction",-11.60211129542901],["Express",-11.602187058558712],["attendee",-11.602288427814585],["spotlight",-11.602316016853255],["temple",-11.602547405462687],["tenure",-11.60256176355415],["hypo",-11.602893143950253],["snake",-11.602921073934855],["cooperate",-11.603104653884788],["colon",-11.603129379600386],["mourn",-11.603776276811884],["deter",-11.603920752496458],["swab",-11.606875123947066],["Delta",-11.607911912557308],["enberg",-11.60922276886102],["Penta",-11.613347356229962],["ENT",-11.614025507436608],["VER",-11.61711142687266],["formula",-11.619806524893727],["Fift",-11.620194541804347],["Parad",-11.621897064306216],["simulat",-11.62391047895903],["McCo",-11.62649913612328],["uana",-11.626669157685182],["ntelligence",-11.632800143724747],["rapping",-11.63300437266951],["swim",-11.634333786863154],["festiv",-11.635879057558677],["academ",-11.635962379786037],["Egypt",-11.636316868962997],["‚",-11.636394913273111],["Criminal",-11.636394915938212],["Kardashian",-11.636394925972136],["Athletic",-11.636394945051501],["homicide",-11.636395006265598],["Private",-11.63639501682118],["referendum",-11.636395388376554],["Reynold",-11.63639586590458],["Abdullah",-11.63639597280923],["alternate",-11.636395987730728],["transmitt",-11.636396239854246],["delegate",-11.63639631209833],["Coordinat",-11.636397028667059],["pixel",-11.636397080055481],["contaminat",-11.636397948775851],["terrifi",-11.636404261203227],["perceive",-11.636409500297976],["irmingham",-11.636410575030961],["ceiling",-11.63642790889013],["Climat",-11.636430297253796],["Libert",-11.636430933281472],["Regard",-11.63643110289111],["architecture",-11.636435989672206],["demographic",-11.636442639750545],["Inspector",-11.636468689942783],["summon",-11.636468729784148],["sauce",-11.636484090698136],["Clair",-11.63648771669239],["beverage",-11.636513386808016],["steep",-11.636524421518272],["classifie",-11.636549249473843],["cyclist",-11.636553829295154],["subscribers",-11.636563913518945],["rumour",-11.636591629482933],["Alpha",-11.636658918155897],["abundan",-11.636679403097638],["Dream",-11.636680942390921],["pleasure",-11.636749874311146],["Room",-11.636774871585645],["Ghanaian",-11.636795051781588],["Cyber",-11.63680509250743],["RBI",-11.63682694275628],["Ellis",-11.636842072933094],["compil",-11.636846852878126],["Chuck",-11.636891885879551],["Spirit",-11.636939589772272],["wireless",-11.636970369040807],["SUV",-11.63724596361823],["Draft",-11.637509275124769],["Deep",-11.637594533593],["Token",-11.637706637097242],["domain",-11.637860045130529],["McDonald",-11.637876974794821],["Barbar",-11.637956780001868],["setup",-11.63813710251852],["gentle",-11.638340272317942],["Susan",-11.639262150234618],["inequalit",-11.641141608497847],["Hyde",-11.641453519974228],["litre",-11.642973026431324],["Mega",-11.643090779184162],["prolif",-11.643177501335543],["Tem",-11.643815984707299],["poet",-11.644575862088928],["prevalen",-11.646749312543857],["ndrom",-11.647332797739665],["furni",-11.64896202931559],["mendment",-11.648982273522806],["Benja",-11.649966008887993],["luth",-11.652732370515785],["CIA",-11.654846885926219],["sustainab",-11.658869457301241],["cappe",-11.65935069043778],["Charge",-11.661435055775828],["circ",-11.663655594542751],["drunk",-11.664717995526864],["extract",-11.670643995752812],["mortalit",-11.670879401315299],["rystal",-11.671975315865602],["Pharmaceutical",-11.673431950310148],["Legislature",-11.67343195031073],["Oklahoma",-11.673431950588261],["Elliot",-11.673431968201271],["execution",-11.673431972696651],["Warrior",-11.673432316274694],["Scientist",-11.673432323931776],["militia",-11.673432885242285],["Cricket",-11.673432896777477],["Rapid",-11.673433603139948],["threshold",-11.673433771566243],["Advance",-11.673433934887129],["absorb",-11.673434673797994],["Relief",-11.673434949834078],["interference",-11.673435139260546],["Chrome",-11.673435713818026],["grappl",-11.673435846273836],["pleasant",-11.673439519382857],["midfielder",-11.673440927962915],["dubb",-11.67344752281366],["Leonard",-11.67345044461415],["Switch",-11.673453517933162],["Voice",-11.673453789983247],["summit",-11.673478150136114],["undoubted",-11.673514613814712],["Tamil",-11.673533114667393],["commemorat",-11.673551140798011],["Thousand",-11.673551213752313],["tunnel",-11.673586897022874],["diplomatic",-11.673637387639175],["brook",-11.673638422174292],["Dennis",-11.673664065372687],["referee",-11.673679932745904],["Bradley",-11.67379545209349],["Semiti",-11.673803261248825],["creature",-11.6738672977348],["Blanc",-11.674029909730127],["curious",-11.674039328536685],["woke",-11.674444354976753],["intensit",-11.674745376390549],["Julie",-11.674821884552044],["detective",-11.674826472415536],["Kati",-11.675143929735157],["McCart",-11.675363339276581],["Karen",-11.675410645240405],["demoli",-11.675442997303017],["Level",-11.676187412997727],["ICE",-11.67648443580778],["northeast",-11.679000395624678],["ideolog",-11.684701598659634],["udge",-11.685526907685045],["Glas",-11.686056345816132],["presum",-11.689546166704028],["accessori",-11.697358348677163],["interi",-11.700618686566663],["Industrie",-11.705083762911627],["Environment",-11.70606042365831],["inquir",-11.707582105159553],["harsh",-11.710119440716124],["Batm",-11.710341357565623],["onstruction",-11.710464081063586],["avoc",-11.71083070883274],["psycho",-11.71181808137759],["¦",-11.711893488771686],["„",-11.711893488771686],["intellectual",-11.711893488774328],["pneumonia",-11.711893488776894],["explosive",-11.711893488788661],["neglect",-11.71189349305524],["powder",-11.711893540772184],["decisive",-11.711893555111608],["onsequent",-11.711893640643295],["Lloyd",-11.711893649335654],["frequenc",-11.711893649374389],["fragil",-11.71189371990009],["Original",-11.711894102222853],["occupation",-11.711895132396606],["submarine",-11.711895433460098],["Cowboy",-11.711895527743948],["emoji",-11.711895654803214],["scratch",-11.711895995991458],["precious",-11.71189612468295],["Abbott",-11.711896364429018],["federation",-11.711896510829387],["abduct",-11.711896621593137],["frighten",-11.711898335044967],["electorate",-11.711900288822404],["Emirate",-11.711908236700907],["Relations",-11.711909111706678],["wreck",-11.71191724205027],["surgical",-11.711922536283666],["Dutch",-11.711926712920496],["Third",-11.71192708900944],["vasion",-11.711931499979922],["warehouse",-11.712053167966753],["verify",-11.712056824790153],["occupan",-11.712092278107896],["disperse",-11.712110268419185],["fluid",-11.71215547240434],["Jazz",-11.712222793691971],["comedian",-11.712457207323599],["Operat",-11.712482788244575],["kansa",-11.712573382746506],["speculation",-11.712573451394016],["cattle",-11.712687008845194],["Township",-11.712712555576637],["dignit",-11.712810687462486],["contemporar",-11.712817667679206],["Break",-11.712915770742699],["whale",-11.712944237800627],["disregard",-11.71294681117509],["drought",-11.712985627700945],["budd",-11.71307608788618],["Melani",-11.713200065788428],["clari",-11.713582221317123],["satisfact",-11.71358514269752],["Few",-11.713592402600122],["slamme",-11.714301192625074],["enzie",-11.718206819244854],["Mahara",-11.71835866669302],["varie",-11.720314649596274],["SHA",-11.722152058015382],["skipp",-11.722299847873497],["reassur",-11.725121976841688],["otify",-11.725409462705105],["Messi",-11.726541093609782],["Gamb",-11.728111827639593],["lugg",-11.730447533629835],["societ",-11.74113023803638],["litter",-11.741293000801907],["messag",-11.74346151079471],["Range",-11.745468381218913],["agwa",-11.746111211833247],["Politic",-11.748017853650111],["exploitati",-11.749126190735751],["Manag",-11.749825690685679],["Kla",-11.75107442735672],["ritual",-11.751367733343502],["exempt",-11.751426830401178],["diagnostic",-11.751893488771731],["Investigation",-11.751893488773014],["compliment",-11.751893489185534],["definitive",-11.751893489430437],["Employee",-11.751893491227012],["pocalyp",-11.75189349340187],["Prosecutor",-11.751893495441013],["Baghdad",-11.751893496241575],["disproportionate",-11.751893497914377],["complement",-11.75189349997928],["receipt",-11.75189350059053],["gorgeous",-11.751893502469303],["educator",-11.751893814534737],["Pandemic",-11.751894246688542],["prestig",-11.751894347966578],["gambling",-11.75189491507279],["Fergus",-11.751894996913519],["concentrate",-11.751895565240858],["separation",-11.751896135835011],["chloro",-11.751896186247015],["variation",-11.75189743657777],["Estonia",-11.751898681222686],["Rescue",-11.751907485924951],["webinar",-11.751915878887187],["analytic",-11.751919637045711],["radar",-11.751946396224657],["Pixe",-11.751955709649271],["censor",-11.751957716399243],["solicit",-11.751961617126552],["unfold",-11.75197177638115],["Lanka",-11.751978207816704],["Ukrainian",-11.752005064281592],["Adrian",-11.7520064398282],["Rwanda",-11.752093568631665],["annoy",-11.752096030607387],["dough",-11.752100231943885],["commentator",-11.752144958479239],["default",-11.752155250531734],["colonial",-11.752168703740473],["Industrial",-11.752196686483185],["Large",-11.752244534206707],["Production",-11.752305418940525],["marry",-11.752308893991362],["aspiration",-11.752472058742846],["ehabilitati",-11.752653228481773],["faithful",-11.75285344932213],["prescrib",-11.753517895622114],["smith",-11.753825628120794],["queue",-11.75540976666892],["delete",-11.755480238881358],["FIR",-11.75572026525505],["rctic",-11.75620636356071],["ugge",-11.756439207976316],["Wade",-11.75877674922421],["emphasiz",-11.759790461232082],["Trini",-11.76152772810867],["Clean",-11.761918033879251],["ambi",-11.767673997593796],["accountab",-11.769432915565066],["respons",-11.77750849117815],["aples",-11.778229385638301],["rash",-11.77866950781228],["elevision",-11.780789519731531],["itude",-11.781055326438976],["significan",-11.781154502871626],["Glad",-11.782650175466094],["packag",-11.78384420164555],["Univers",-11.785341954095184],["determin",-11.785466584042727],["architect",-11.791509269467603],["subscribe",-11.793407926931529],["blank",-11.793433994291394],[">",-11.793560155438353],["simultaneous",-11.793560155438389],["philanthrop",-11.79356015543842],["Circuit",-11.793560156146878],["spectacular",-11.79356020476119],["dimension",-11.793560616055252],["Access",-11.79356100215279],["stigma",-11.793561009551194],["Technical",-11.79356211614905],["volley",-11.793564885635027],["Scotia",-11.793565212662855],["circuit",-11.7935671889555],["Centur",-11.793568686105385],["horribl",-11.793569448040927],["reckless",-11.793572336130296],["Strong",-11.793575187620908],["niece",-11.793575589553761],["sketch",-11.793576820845137],["Austria",-11.793581319536447],["elaborate",-11.793583953992355],["Soldier",-11.793584408905822],["Jamaica",-11.793588114299851],["Falcon",-11.793600949135012],["molecul",-11.793603771309856],["therapist",-11.79360937239348],["Popular",-11.793616710203791],["Clinic",-11.793618441114017],["hesitate",-11.793677168481674],["Harvey",-11.79368035683002],["Olivi",-11.793689078600618],["irregular",-11.793695487823944],["Franco",-11.79369978027771],["mindset",-11.79370096437574],["Vincent",-11.793706558600284],["transgender",-11.793724953183467],["tornado",-11.793764582931948],["subsidiar",-11.793774047568592],["indict",-11.793787333928934],["Louisville",-11.793796373987702],["Burrow",-11.79380636215108],["conservation",-11.793838759603315],["Crisi",-11.794096594675246],["baker",-11.794210037115636],["Brett",-11.794487480523138],["Help",-11.794491509783164],["testifie",-11.794558478681974],["batch",-11.794913246630822],["jector",-11.79667729667532],["enhanc",-11.797655415125925],["arij",-11.800546016984928],["resilien",-11.801087330398756],["nzo",-11.801284730315809],["illian",-11.802576792942267],["sympath",-11.805543860840412],["Curti",-11.806467155965475],["Suga",-11.806685059390212],["ensibl",-11.80730239548501],["toleran",-11.8085021629637],["Compar",-11.808722617231826],["preserv",-11.812353433358439],["quant",-11.816705855037796],["llivan",-11.817533429406271],["hostil",-11.821928782601953],["southeast",-11.822292456820872],["Studi",-11.822321310196589],["measur",-11.822792579155575],["creativ",-11.826047369556],["substanti",-11.826892824060035],["empath",-11.826899869618014],["acious",-11.829572621055364],["lectoral",-11.830807579677902],["Bhu",-11.835663935561168],["intelligen",-11.836544811606522],["anonym",-11.837035637126563],["vaccinate",-11.837038416506502],["astronaut",-11.837038416581748],["envelope",-11.837038436543342],["Chennai",-11.837038438500649],["Buffalo",-11.83703849893599],["fatigue",-11.83703856460017],["Leicester",-11.837038664196074],["imminent",-11.837038762497434],["obstruct",-11.837038990299348],["Previous",-11.837039014753053],["qualification",-11.837039125103963],["Morocco",-11.837039201016594],["bilateral",-11.837039253808381],["spectator",-11.83704005081424],["Typical",-11.837041465088006],["Dynami",-11.837041848159693],["bushfire",-11.83704239901357],["Article",-11.837042809847576],["diminish",-11.837043132397422],["Argentin",-11.83704524475042],["portrait",-11.837049440819372],["Vijay",-11.837049726312413],["Avenger",-11.83705105309094],["mosque",-11.837054618418605],["Tribun",-11.83705481047936],["Sophi",-11.83706075156232],["substitute",-11.837072233728955],["turkey",-11.837089416826448],["Counsel",-11.837115633993044],["jeopard",-11.837115962078636],["adjacen",-11.837124940346937],["helmet",-11.837132126890154],["unbelievabl",-11.837139272091678],["Vermont",-11.837140880042437],["leisure",-11.837144918605343],["Giann",-11.837145872089568],["snack",-11.837157770102875],["specifie",-11.837183986222865],["Model",-11.837192685922513],["Stephan",-11.8371944825011],["gravit",-11.83719617918016],["Source",-11.837227734313025],["resonate",-11.83723290964296],["Windsor",-11.837307797454905],["intrigu",-11.837323373028115],["galax",-11.837333117993895],["grind",-11.837335467926593],["monetar",-11.83734380981576],["disinfectant",-11.83736645739215],["precedent",-11.837366559386352],["salmon",-11.837368316423818],["Twenty",-11.837370852119129],["Wrestl",-11.837419294240183],["Totten",-11.83744213834278],["Index",-11.837492394316921],["sadden",-11.837542141684311],["hepherd",-11.837904594646993],["replicate",-11.839230765240888],["metro",-11.840308662643784],["Fresh",-11.84715860788885],["erect",-11.85137919497511],["poise",-11.852090887153176],["Robbi",-11.855544254004199],["reunite",-11.859626151077977],["Cypr",-11.859666263795125],["terminate",-11.864489487312182],["uddle",-11.866162230716215],["Eagle",-11.866616126087619],["dominant",-11.87196777887507],["solation",-11.878992020972825],["profession",-11.87936270201788],["petrol",-11.881328544387733],["Product",-11.882023793794913],["restructuring",-11.882492961763798],["constituent",-11.882492961789628],["hurricane",-11.882492961854643],["Regulator",-11.88249296297743],["credential",-11.882492963349268],["hilarious",-11.882492964385523],["vacuum",-11.882493000926702],["fossil",-11.88249300175491],["nephew",-11.882493011588519],["identification",-11.88249305638063],["mushroom",-11.882493079095587],["wield",-11.882493111521168],["concentration",-11.882493224021093],["Screen",-11.88249341363157],["contradict",-11.882493632969421],["Rhode",-11.882494131203599],["jersey",-11.882494407659625],["fibre",-11.882495934838474],["Registr",-11.882496556528896],["Statistic",-11.882496768080511],["Hughes",-11.88249766438823],["Fortunat",-11.882498057697747],["idiot",-11.882499173934576],["Manitoba",-11.882499460798794],["retaliati",-11.882499741368493],["sanitiser",-11.882501595026163],["throat",-11.882502689505047],["parcel",-11.882507703380632],["goalkeeper",-11.882510894136793],["Gabriel",-11.88251096363234],["psycholog",-11.882517361061192],["freelance",-11.882519351355922],["populate",-11.882520281758548],["ongratulati",-11.882521262817999],["Physic",-11.882532167163003],["depriv",-11.882540670054633],["animation",-11.882541449587684],["Ultra",-11.88254262688104],["Judicia",-11.882548322641219],["Kohl",-11.882561505771179],["Brazilian",-11.882584934539654],["sleeve",-11.882607757626843],["scatter",-11.882617337226016],["Natali",-11.882625496486936],["Wealth",-11.882665596529225],["Lightning",-11.882678574362922],["Depp",-11.882680278608333],["Rodger",-11.882793764392899],["insect",-11.882887023052973],["Honest",-11.882961801430014],["ivir",-11.883186187364682],["unacceptabl",-11.883391073580398],["Militar",-11.883403694456161],["shelve",-11.8839555845279],["feasib",-11.884241879594914],["Raven",-11.884355163963745],["pillar",-11.884420149659551],["llusion",-11.884719347710885],["ucci",-11.885019198560224],["eninsula",
[...]
