{"version":"1.0","truncation":null,"padding":null,"added_tokens":[{"id":0,"special":true,"content":"<UNK>","single_word":false,"lstrip":false,"rstrip":false,"normalized":false},{"id":1,"special":true,"content":"<SEP>","single_word":false,"lstrip":false,"rstrip":false,"normalized":false},{"id":2,"special":true,"content":"<MASK>","single_word":false,"lstrip":false,"rstrip":false,"normalized":false},{"id":3,"special":true,"content":"<CLS>","single_word":false,"lstrip":false,"rstrip":false,"normalized":false}],"normalizer":null,"pre_tokenizer":{"type":"Whitespace"},"post_processor":null,"decoder":null,"model":{"type":"BPE","dropout":null,"unk_token":"<UNK>","continuing_subword_prefix":null,"end_of_word_suffix":null,"fuse_unk":false,"vocab":{"<UNK>":0,"<SEP>":1,"<MASK>":2,"<CLS>":3,"!":4,"\"":5,"$":6,"%":7,"&":8,"'":9,"(":10,")":11,"*":12,"+":13,",":14,"-":15,".":16,"/":17,"0":18,"1":19,"2":20,"3":21,"4":22,"5":23,"6":24,"7":25,"8":26,"9":27,":":28,";":29,"<":30,">":31,"?":32,"A":33,"B":34,"C":35,"D":36,"E":37,"F":38,"G":39,"H":40,"I":41,"J":42,"K":43,"L":44,"M":45,"N":46,"O":47,"P":48,"Q":49,"R":50,"S":51,"T":52,"U":53,"V":54,"W":55,"X":56,"Y":57,"Z":58,"`":59,"a":60,"b":61,"c":62,"d":63,"e":64,"f":65,"g":66,"h":67,"i":68,"j":69,"k":70,"l":71,"m":72,"n":73,"o":74,"p":75,"q":76,"r":77,"s":78,"t":79,"u":80,"v":81,"w":82,"x":83,"y":84,"z":85,"~":86,"¢":87,"£":88,"¤":89,"¥":90,"¦":91,"§":92,"«":93,"®":94,"¯":95,"°":96,"±":97,"²":98,"³":99,"´":100,"·":101,"¹":102,"»":103,"¼":104,"½":105,"¾":106,"À":107,"Ä":108,"Å":109,"É":110,"Í":111,"Î":112,"Ó":113,"Ö":114,"×":115,"Þ":116,"ß":117,"à":118,"á":119,"â":120,"ã":121,"ä":122,"å":123,"æ":124,"ç":125,"è":126,"é":127,"ê":128,"ë":129,"í":130,"î":131,"ï":132,"ð":133,"ñ":134,"ó":135,"ô":136,"õ":137,"ö":138,"ø":139,"ú":140,"ü":141,"Ā":142,"ā":143,"ă":144,"ć":145,"Č":146,"č":147,"ē":148,"ğ":149,"Ġ":150,"ġ":151,"ħ":152,"İ":153,"ı":154,"Ľ":155,"ł":156,"ń":157,"ņ":158,"ō":159,"œ":160,"ş":161,"š":162,"ţ":163,"ū":164,"Ÿ":165,"Ż":166,"ż":167,"Ž":168,"ž":169,"ƅ":170,"ț":171,"ȼ":172,"ɑ":173,"ʏ":174,"ʻ":175,"ʼ":176,"˚":177,"˜":178,"́":179,"β":180,"γ":181,"Ё":182,"Ђ":183,"Ѓ":184,"І":185,"Ј":186,"Њ":187,"Ў":188,"А":189,"Г":190,"П":191,"Р":192,"Т":193,"У":194,"Ш":195,"Щ":196,"Ъ":197,"Ь":198,"Э":199,"Ю":200,"Я":201,"а":202,"б":203,"г":204,"д":205,"е":206,"ж":207,"о":208,"с":209,"т":210,"у":211,"ю":212,"я":213,"ђ":214,"ѓ":215,"ѕ":216,"і":217,"њ":218,"ќ":219,"ў":220,"џ":221,"қ":222,"һ":223,"օ":224,"א":225,"ב":226,"ד":227,"ה":228,"ו":229,"י":230,"ל":231,"ם":232,"מ":233,"נ":234,"ע":235,"צ":236,"ק":237,"ש":238,"ת":239,"ن":240,"ߋ":241,"ं":242,"अ":243,"क":244,"घ":245,"च":246,"ट":247,"ड":248,"त":249,"न":250,"ब":251,"म":252,"य":253,"र":254,"ल":255,"श":256,"स":257,"ा":258,"ि":259,"ी":260,"ु":261,"े":262,"्":263,"က":264,"င":265,"ည":266,"တ":267,"န":268,"ပ":269,"ဖ":270,"မ":271,"ရ":272,"လ":273,"သ":274,"အ":275,"ါ":276,"ာ":277,"ိ":278,"ု":279,"ေ":280,"်":281,"ြ":282,"ွ":283,"ှ":284,"ᥙ":285,"ᴠ":286,"ḥ":287,"‎":288,"‐":289,"‑":290,"–":291,"—":292,"‘":293,"’":294,"‚":295,"“":296,"”":297,"„":298,"‡":299,"•":300,"․":301,"…":302,"‪":303,"‰":304,"′":305,"″":306,"›":307,"‼":308,"⁠":309,"⁣":310,"₁":311,"₦":312,"€":313,"₵":314,"₹":315,"™":316,"ⅼ":317,"−":318,"─":319,"├":320,"┬":321,"╕":322,"╖":323,"▪":324,"◆":325,"☺":326,"⚽":327,"⛓":328,"✨":329,"❌":330,"❤":331,"➡":332,"ー":333,"化":334,"地":335,"暖":336,"温":337,"球":338,"ﬁ":339,"️":340,"﻿":341,"－":342,"ｅ":343,"th":344,"in":345,"er":346,"an":347,"the":348,"on":349,"re":350,"at":351,"en":352,"or":353,"st":354,"ed":355,"al":356,"ing":357,"to":358,"ou":359,"ar":360,"is":361,"and":362,"es":363,"as":364,"it":365,"of":366,"ic":367,"le":368,"he":369,"om":370,"ion":371,"ent":372,"il":373,"id":374,"be":375,"ve":376,"ac":377,"se":378,"ad":379,"for":380,"ay":381,"ow":382,"ly":383,"ro":384,"ch":385,"am":386,"ol":387,"wh":388,"that":389,"ver":390,"ir":391,"im":392,"ur":393,"ot":394,"ig":395,"un":396,"are":397,"ith":398,"ut":399,"The":400,"ers":401,"et":402,"ill":403,"ce":404,"with":405,"ct":406,"ation":407,"us":408,"de":409,"con":410,"ag":411,"op":412,"we":413,"ha":414,"ab":415,"ne":416,"ere":417,"res":418,"com":419,"li":420,"em":421,"ter":422,"lo":423,"was":424,"pe":425,"sa":426,"all":427,"ld":428,"tr":429,"our":430,"ate":431,"out":432,"fr":433,"ke":434,"mo":435,"pro":436,"oun":437,"su":438,"ul":439,"sh":440,"te":441,"so":442,"ment":443,"have":444,"pl":445,"said":446,"ain":447,"has":448,"igh":449,"ex":450,"ist":451,"ap":452,"ity":453,"fe":454,"his":455,"art":456,"one":457,"ess":458,"by":459,"from":460,"ies":461,"ther":462,"ant":463,"ive":464,"po":465,"ort":466,"will":467,"not":468,"day":469,"ould":470,"go":471,"20":472,"ll":473,"if":474,"qu":475,"um":476,"ear":477,"ust":478,"ast":479,"end":480,"per":481,"ial":482,"wor":483,"this":484,"ge":485,"act":486,"iv":487,"ome":488,"up":489,"pr":490,"od":491,"ight":492,"port":493,"ak":494,"ack":495,"gh":496,"you":497,"any":498,"do":499,"ard":500,"but":501,"ice":502,"In":503,"their":504,"cl":505,"00":506,"ie":507,"gr":508,"af":509,"they":510,"own":511,"who":512,"over":513,"ud":514,"can":515,"her":516,"me":517,"el":518,"year":519,"av":520,"off":521,"been":522,"tim":523,"ough":524,"ans":525,"Th":526,"ally":527,"ine":528,"ong":529,"cr":530,"der":531,"ore":532,"cor":533,"ide":534,"its":535,"au":536,",”":537,"now":538,"had":539,"ind":540,"ok":541,"more":542,"ia":543,"ip":544,"were":545,"ich":546,"ber":547,"ck":548,"ople":549,"ions":550,"sp":551,"ire":552,"It":553,"ev":554,"19":555,"ated":556,"ep":557,"work":558,"ake":559,"ous":560,"also":561,"ame":562,"people":563,"ound":564,"about":565,"We":566,"no":567,"ue":568,".”":569,"new":570,"bo":571,"age":572,"bl":573,"comp":574,"He":575,"man":576,"ure":577,"ts":578,"able":579,"get":580,"some":581,"cre":582,"aw":583,"str":584,"ach":585,"which":586,"ass":587,"part":588,"br":589,"ever":590,"ace":591,"other":592,"she":593,"ile":594,"fir":595,"would":596,"Ch":597,"time":598,"co":599,"ary":600,"ident":601,"coun":602,"like":603,"pos":604,"pre":605,"iz":606,"ence":607,"thing":608,"cont":609,"ail":610,"ser":611,"pres":612,"An":613,"dis":614,"after":615,"St":616,"cent":617,"there":618,"int":619,"wo":620,"old":621,"comm":622,"ren":623,"ek":624,"than":625,"ign":626,"when":627,"Wh":628,"form":629,"just":630,"ib":631,"way":632,"ase":633,"ance":634,"low":635,"pol":636,"them":637,"ite":638,"cial":639,"ark":640,"ations":641,"ors":642,"my":643,"du":644,"ick":645,"ction":646,"ty":647,"play":648,"say":649,"dr":650,"ning":651,"ree":652,"med":653,"back":654,"mon":655,"vel":656,"ens":657,"ents":658,"ish":659,"att":660,"what":661,"ef":662,"ition":663,"ical":664,"fer":665,"uring":666,"ding":667,"ho":668,"alth":669,"first":670,"two":671,"ade":672,"down":673,"irus":674,"cur":675,"est":676,"into":677,"ian":678,"ting":679,"ates":680,"Tr":681,"fore":682,"enc":683,"week":684,"thr":685,"ang":686,"ose":687,"your":688,"cau":689,"add":690,"how":691,"ating":692,"min":693,"ict":694,"could":695,"hel":696,"need":697,"arr":698,"read":699,"him":700,"cess":701,"mer":702,"most":703,"pp":704,"prov":705,"ubl":706,"cho":707,"test":708,"This":709,"ious":710,"ities":711,"But":712,"try":713,"sc":714,"again":715,"pect":716,"ask":717,"ful":718,"As":719,"ink":720,"cause":721,"ob":722,"amp":723,"come":724,"fin":725,"ory":726,"under":727,"ied":728,"report":729,"last":730,"ult":731,"reg":732,"ath":733,"nment":734,"gover":735,"incl":736,"ater":737,"being":738,"ss":739,"ump":740,"vers":741,"air":742,"only":743,"bu":744,"ew":745,"through":746,"ason":747,"ational":748,"don":749,"rem":750,"CO":751,"sel":752,"cer":753,"ublic":754,"fo":755,"while":756,"bet":757,"urn":758,"ted":759,"many":760,"show":761,"inter":762,"iss":763,"ced":764,"cas":765,"want":766,"Un":767,"where":768,"during":769,"ID":770,"serv":771,"years":772,"every":773,"ily":774,"call":775,"did":776,"pers":777,"very":778,"emp":779,"land":780,"ret":781,"spe":782,"well":783,"ild":784,"even":785,"offic":786,"ress":787,"ital":788,"uch":789,"Fr":790,"help":791,"ann":792,"fect":793,"clo":794,"ince":795,"ise":796,"because":797,"col":798,"going":799,"istr":800,"And":801,"Br":802,"fam":803,"know":804,"government":805,"home":806,"ele":807,"illion":808,"000":809,"look":810,"reat":811,"ins":812,"ased":813,"make":814,"VID":815,"lead":816,"ph":817,"state":818,"aking":819,"arch":820,"COVID":821,"ual":822,"gu":823,"before":824,"des":825,"high":826,"those":827,"fl":828,"tal":829,"should":830,"long":831,"ven":832,"oup":833,"ving":834,"201":835,"start":836,"see":837,"sup":838,"og":839,"onav":840,"set":841,"cond":842,"onavirus":843,"bus":844,"health":845,"sy":846,"chool":847,"ug":848,"ra":849,"ank":850,"contin":851,"used":852,"against":853,"io":854,"person":855,"month":856,"stud":857,"New":858,"leg":859,"ited":860,"includ":861,"resident":862,"vis":863,"line":864,"team":865,"ement":866,"vie":867,"Trump":868,"pon":869,"pand":870,"vest":871,"emic":872,"dif":873,"Co":874,"anc":875,"10":876,"sur":877,"may":878,"coronavirus":879,"lear":880,"tain":881,"dec":882,"iness":883,"rel":884,"made":885,"take":886,"still":887,"unity":888,"atch":889,"ect":890,"then":891,"lar":892,"ings":893,"sure":894,"ative":895,"right":896,"2020":897,"these":898,"open":899,"three":900,"support":901,"They":902,"cal":903,"care":904,"num":905,"led":906,"think":907,"imp":908,"ves":909,"gan":910,"ved":911,"put":912,"ner":913,"ener":914,"She":915,"mem":916,"fol":917,"use":918,"share":919,"eng":920,"less":921,"xt":922,"For":923,"ward":924,"ments":925,"ms":926,"cut":927,"les":928,"ible":929,"cases":930,"stand":931,"says":932,",\"":933,"good":934,"self":935,"peri":936,"son":937,"char":938,"produ":939,"cording":940,"country":941,"bre":942,"ues":943,"ash":944,"Com":945,"pandemic":946,"public":947,"ton":948,"ange":949,"ility":950,"ry":951,"head":952,"ma":953,"Re":954,"much":955,"There":956,"fun":957,"Al":958,"ci":959,"mark":960,"ject":961,"miss":962,"ures":963,"around":964,"ices":965,"side":966,"ouse":967,"season":968,"school":969,"does":970,"loy":971,"ds":972,"cap":973,"ross":974,"irect":975,"vot":976,"rest":977,"Jo":978,"cover":979,"ix":980,"business":981,"Ar":982,"Amer":983,".\"":984,"If":985,"life":986,"such":987,"Americ":988,"als":989,"On":990,"ines":991,"hand":992,"world":993,"cour":994,"view":995,"though":996,"la":997,"De":998,"ball":999,"million":1000,"ivers":1001,"follow":1002,"So":1003,"sign":1004,"ina":1005,"invest":1006,"company":1007,"bers":1008,"since":1009,"trans":1010,"respon":1011,"rent":1012,"ave":1013,"police":1014,"point":1015,"ific":1016,"issu":1017,"let":1018,"run":1019,"che":1020,"lot":1021,"pt":1022,"happ":1023,"No":1024,"law":1025,"ular":1026,"quar":1027,"cons":1028,"ister":1029,"ble":1030,"game":1031,"ship":1032,"family":1033,"wom":1034,"That":1035,"nor":1036,"ten":1037,"Ro":1038,"sing":1039,"ris":1040,"place":1041,"national":1042,"came":1043,"How":1044,"Mon":1045,"win":1046,"including":1047,"far":1048,"ub":1049,"incre":1050,"conom":1051,"fil":1052,"differ":1053,"lock":1054,"sm":1055,"child":1056,"Le":1057,"got":1058,"iday":1059,"big":1060,"requ":1061,"ways":1062,"ars":1063,"oper":1064,"next":1065,"allow":1066,"four":1067,"ics":1068,"jo":1069,"You":1070,"ween":1071,"ready":1072,"real":1073,"app":1074,"Coun":1075,"stat":1076,"ys":1077,"death":1078,"tra":1079,"wr":1080,"Min":1081,"Se":1082,"told":1083,"ior":1084,"vol":1085,"second":1086,"giv":1087,"really":1088,"official":1089,"pass":1090,"red":1091,"sub":1092,"Con":1093,"hold":1094,"ff":1095,"ually":1096,"between":1097,"number":1098,"velop":1099,"aff":1100,"Mr":1101,"fac":1102,"rece":1103,"aren":1104,"both":1105,"sto":1106,"expect":1107,"US":1108,"fact":1109,"30":1110,"spital":1111,"same":1112,"days":1113,"ather":1114,"rele":1115,"gest":1116,"econom":1117,"Pr":1118,"os":1119,"feel":1120,"post":1121,"ces":1122,"order":1123,"unt":1124,"Be":1125,"pay":1126,"poss":1127,"cus":1128,"few":1129,"ah":1130,"social":1131,"ency":1132,"plan":1133,"group":1134,"stem":1135,"direct":1136,"ower":1137,"ax":1138,"outh":1139,"nes":1140,"another":1141,"atur":1142,"50":1143,"pat":1144,"ared":1145,"keep":1146,"here":1147,"sit":1148,"current":1149,"ft":1150,"ames":1151,"night":1152,"akes":1153,"aim":1154,"found":1155,"vent":1156,"ime":1157,"ody":1158,"ider":1159,"ants":1160,"ale":1161,"President":1162,"olog":1163,"Ind":1164,"coming":1165,"remain":1166,"det":1167,"sen":1168,"too":1169,"light":1170,"recent":1171,"tle":1172,"appe":1173,"ief":1174,"ness":1175,"iend":1176,"war":1177,"sed":1178,"ste":1179,"Gr":1180,"lit":1181,"ik":1182,"virus":1183,"ier":1184,"best":1185,"12":1186,"lect":1187,"Bl":1188,"won":1189,"ential":1190,"ged":1191,"ists":1192,"ended":1193,"community":1194,"different":1195,"added":1196,"Friday":1197,"market":1198,"camp":1199,"top":1200,"ately":1201,"az":1202,"president":1203,"polit":1204,"urs":1205,"develop":1206,"trad":1207,"At":1208,"import":1209,"Bo":1210,"inform":1211,"itive":1212,"beli":1213,"friend":1214,"gram":1215,"each":1216,"ral":1217,"case":1218,"enter":1219,"11":1220,"stru":1221,"late":1222,"acc":1223,"near":1224,"ush":1225,"announ":1226,"road":1227,"hop":1228,"meet":1229,"ling":1230,"ster":1231,"ired":1232,"employ":1233,"city":1234,"ional":1235,"ety":1236,"find":1237,"val":1238,"ised":1239,"kill":1240,"reported":1241,"pur":1242,"across":1243,"ext":1244,"system":1245,"aring":1246,"ned":1247,"ield":1248,"ord":1249,"move":1250,"book":1251,"ca":1252,"When":1253,"ism":1254,"change":1255,"break":1256,"things":1257,"Ad":1258,"Sun":1259,"oc":1260,"local":1261,"mit":1262,"pop":1263,"working":1264,"Is":1265,"present":1266,"May":1267,"gener":1268,"quarter":1269,"En":1270,"level":1271,"hospital":1272,"without":1273,"sol":1274,"Dr":1275,"ives":1276,"return":1277,"sever":1278,"contr":1279,"ages":1280,"vir":1281,"15":1282,"ision":1283,"called":1284,"left":1285,"list":1286,"hour":1287,"Sh":1288,"power":1289,"according":1290,"search":1291,"bal":1292,"organ":1293,"due":1294,"Pol":1295,").":1296,"clear":1297,"car":1298,"iting":1299,"ized":1300,"never":1301,"months":1302,"def":1303,"ending":1304,"hard":1305,"ived":1306,"ger":1307,"oney":1308,"away":1309,"main":1310,"lim":1311,"chang":1312,"ls":1313,"something":1314,"already":1315,"face":1316,"quest":1317,"dep":1318,"State":1319,"members":1320,"job":1321,"tell":1322,"comes":1323,"gy":1324,"ided":1325,"prof":1326,"students":1327,"past":1328,"great":1329,"21":1330,"To":1331,"gre":1332,"vious":1333,"program":1334,"comple":1335,"better":1336,"turn":1337,"thor":1338,"ically":1339,"Monday":1340,"ork":1341,"claim":1342,"Mo":1343,"grow":1344,"until":1345,"fort":1346,"However":1347,"vi":1348,"Pro":1349,"using":1350,"gin":1351,"concer":1352,"2019":1353,"stit":1354,"didn":1355,"thers":1356,"continue":1357,"children":1358,"Ac":1359,"must":1360,"action":1361,"ient":1362,"par":1363,"tech":1364,"body":1365,"might":1366,"experi":1367,"ike":1368,"recor":1369,"partic":1370,"close":1371,"net":1372,"iversity":1373,"hal":1374,"seen":1375,"sum":1376,"With":1377,"uary":1378,"talk":1379,"What":1380,"Af":1381,"prom":1382,"ley":1383,"manag":1384,"went":1385,"ata":1386,"elect":1387,"jor":1388,"Nor":1389,"mand":1390,"five":1391,"Joh":1392,"happen":1393,"house":1394,"200":1395,"atter":1396,"ago":1397,"County":1398,"always":1399,"process":1400,"buil":1401,"plain":1402,"ying":1403,"early":1404,"ots":1405,"took":1406,"China":1407,"South":1408,"ese":1409,"March":1410,"ney":1411,"erest":1412,"14":1413,"dist":1414,"une":1415,"Mar":1416,"ude":1417,"ched":1418,"ize":1419,"information":1420,"room":1421,"Me":1422,"eral":1423,"ature":1424,"soci":1425,"stay":1426,"appro":1427,"offer":1428,"aid":1429,"iver":1430,"ird":1431,"Thurs":1432,"event":1433,"important":1434,"based":1435,"men":1436,"While":1437,"mor":1438,"),":1439,"Thursday":1440,"project":1441,"hit":1442,"24":1443,"mission":1444,"und":1445,"Car":1446,"ians":1447,"fut":1448,"tar":1449,"gether":1450,"weeks":1451,"making":1452,"ibut":1453,"ps":1454,"former":1455,"John":1456,"free":1457,"bit":1458,"vide":1459,"contro":1460,"Tues":1461,"adv":1462,"prote":1463,"exp":1464,"fur":1465,"mber":1466,"Health":1467,"shares":1468,"risk":1469,"ator":1470,"count":1471,"Col":1472,"Ju":1473,"wit":1474,"deal":1475,"positive":1476,"Satur":1477,"equ":1478,"class":1479,"press":1480,"stop":1481,"likely":1482,"Tuesday":1483,"ded":1484,"Saturday":1485,"eas":1486,"ute":1487,"ought":1488,"inc":1489,"ont":1490,"later":1491,"money":1492,"women":1493,"All":1494,"ric":1495,"kn":1496,"Sunday":1497,"whe":1498,"election":1499,"25":1500,"ones":1501,"news":1502,"addition":1503,"asked":1504,"major":1505,"alk":1506,"distr":1507,"why":1508,"times":1509,"interest":1510,"One":1511,"fire":1512,"wa":1513,"ats":1514,"food":1515,"aken":1516,"media":1517,"stock":1518,"along":1519,"ution":1520,"little":1521,"possible":1522,"uck":1523,"together":1524,"Dem":1525,"cast":1526,"uc":1527,"position":1528,"give":1529,"lay":1530,"confir":1531,"effect":1532,"today":1533,"key":1534,"18":1535,"statement":1536,"total":1537,"certain":1538,"small":1539,"Wed":1540,"six":1541,"stre":1542,"seem":1543,"met":1544,"staff":1545,"ards":1546,"ability":1547,"doing":1548,"Go":1549,"Can":1550,"ember":1551,"hist":1552,"pot":1553,"13":1554,"Jan":1555,"area":1556,"curity":1557,"ran":1558,"consider":1559,"Wednes":1560,"short":1561,"plac":1562,"United":1563,"vid":1564,"having":1565,"Wednesday":1566,"ben":1567,"chall":1568,"love":1569,"foot":1570,"hum":1571,"augh":1572,"officials":1573,"ets":1574,"16":1575,"den":1576,"atic":1577,"several":1578,"youn":1579,"ished":1580,"Man":1581,"fight":1582,"ined":1583,"ivid":1584,"getting":1585,"loc":1586,"percent":1587,"posed":1588,"given":1589,"spread":1590,"future":1591,"sho":1592,"announced":1593,"uation":1594,"mom":1595,"indust":1596,"bor":1597,"water":1598,"fall":1599,"har":1600,"avail":1601,"cle":1602,"mask":1603,"ides":1604,"aster":1605,"large":1606,"aign":1607,"taking":1608,"field":1609,"full":1610,"service":1611,"techn":1612,"least":1613,"cost":1614,"Dep":1615,"series":1616,"investig":1617,"Mc":1618,"sus":1619,"live":1620,"deli":1621,"price":1622,"ministr":1623,"spo":1624,"done":1625,"bur":1626,"commun":1627,"Don":1628,"online":1629,"players":1630,"taken":1631,"film":1632,"bab":1633,"cy":1634,"research":1635,"known":1636,"meas":1637,"doesn":1638,"Fe":1639,"ons":1640,"services":1641,"After":1642,"Or":1643,"ocr":1644,"ped":1645,"ene":1646,"iger":1647,"Cor":1648,"reach":1649,"become":1650,"emer":1651,"suc":1652,"National":1653,"front":1654,"mid":1655,"train":1656,"Democr":1657,"sent":1658,"bring":1659,"ality":1660,"looking":1661,"campaign":1662,"bro":1663,"data":1664,"ients":1665,"tion":1666,"half":1667,"uro":1668,"author":1669,"period":1670,"watch":1671,"American":1672,"dro":1673,"mil":1674,"among":1675,"party":1676,"acy":1677,"Police":1678,"aud":1679,"iden":1680,"cust":1681,"enough":1682,"plic":1683,"started":1684,"mus":1685,"compan":1686,"video":1687,"aver":1688,"attack":1689,"proble":1690,"ref":1691,"further":1692,"17":1693,"mp":1694,"others":1695,"que":1696,"cept":1697,"Sen":1698,"ai":1699,"expected":1700,"Ser":1701,"ancial":1702,"tow":1703,"step":1704,"court":1705,"available":1706,"York":1707,"hip":1708,"non":1709,"ued":1710,"glo":1711,"invol":1712,"force":1713,"Covid":1714,"My":1715,"yet":1716,"infect":1717,"workers":1718,"Rep":1719,"commit":1720,"Afr":1721,"Cl":1722,"whether":1723,"bas":1724,"product":1725,"ecut":1726,"impact":1727,"Ex":1728,"ified":1729,"leaders":1730,"City":1731,"ators":1732,"rist":1733,"ints":1734,"Afric":1735,"Biden":1736,"gl":1737,"kind":1738,"ground":1739,"100":1740,"sal":1741,"ults":1742,"Ph":1743,"reason":1744,"hours":1745,"var":1746,"travel":1747,"ederal":1748,"ams":1749,"following":1750,"ond":1751,"ising":1752,"activ":1753,"ology":1754,"House":1755,"third":1756,"artment":1757,"Lo":1758,"Pe":1759,"stead":1760,"paren":1761,"sk":1762,"ague":1763,"Cal":1764,"proper":1765,"story":1766,"eve":1767,"political":1768,"games":1769,"board":1770,"strict":1771,"decision":1772,"lockdown":1773,"fic":1774,"crit":1775,"Black":1776,"ife":1777,"ories":1778,"tries":1779,"Gover":1780,"ense":1781,"protect":1782,"lt":1783,"itions":1784,"within":1785,"polic":1786,"July":1787,"redu":1788,"aly":1789,"pecial":1790,"confirmed":1791,"provide":1792,"Just":1793,"imes":1794,"strong":1795,"opport":1796,"security":1797,"previous":1798,"special":1799,"Niger":1800,"wide":1801,"Ste":1802,"cil":1803,"design":1804,"Apr":1805,"priv":1806,"site":1807,"supp":1808,"West":1809,"hoto":1810,"famil":1811,"held":1812,"band":1813,"ham":1814,"rating":1815,"iving":1816,"ences":1817,"woman":1818,"success":1819,"town":1820,"lier":1821,"office":1822,"University":1823,"40":1824,"cand":1825,"dol":1826,"hic":1827,"ensive":1828,"fans":1829,"gency":1830,"April":1831,"Aust":1832,"compet":1833,"pite":1834,"access":1835,"protest":1836,"por":1837,"22":1838,"date":1839,"deaths":1840,"North":1841,"potential":1842,"companies":1843,"nation":1844,"forward":1845,"According":1846,"patients":1847,"idence":1848,"young":1849,"Sp":1850,"aged":1851,"mean":1852,"final":1853,"ances":1854,"contact":1855,"points":1856,"ports":1857,"cris":1858,"ctor":1859,"experience":1860,"billion":1861,"bank":1862,"tax":1863,"walk":1864,"outside":1865,"residents":1866,"Some":1867,"inal":1868,"understand":1869,"Euro":1870,"bed":1871,"round":1872,"building":1873,"fail":1874,"unch":1875,"trying":1876,"ler":1877,"alleg":1878,"Minister":1879,"economic":1880,"India":1881,"June":1882,"safe":1883,"worth":1884,"pick":1885,"died":1886,"quick":1887,"benef":1888,"Aug":1889,"rul":1890,"once":1891,"lives":1892,"saying":1893,"needs":1894,"sug":1895,"Ge":1896,"Sep":1897,"carr":1898,"hind":1899,"mar":1900,"states":1901,"decl":1902,"medi":1903,"custom":1904,"Off":1905,"ners":1906,"ilities":1907,"gn":1908,"agre":1909,"result":1910,"ana":1911,"term":1912,"received":1913,"believe":1914,"vacc":1915,"educ":1916,"cele":1917,"ured":1918,"ization":1919,"makes":1920,"ru":1921,"kes":1922,"course":1923,"issues":1924,"ividual":1925,"cu":1926,"viol":1927,"60":1928,"mode":1929,"pract":1930,"means":1931,"ony":1932,"enn":1933,"hom":1934,"dollar":1935,"Res":1936,"spec":1937,"Christ":1938,"situation":1939,"dam":1940,"ources":1941,"Will":1942,"ids":1943,"tested":1944,"ban":1945,"conne":1946,"lab":1947,"financial":1948,"ns":1949,"ury":1950,"everyone":1951,"2018":1952,"morning":1953,"mal":1954,"behind":1955,"ference":1956,"question":1957,"These":1958,"closed":1959,"celebr":1960,"demand":1961,"countries":1962,"23":1963,"name":1964,"inj":1965,"ald":1966,"lling":1967,"Sept":1968,"target":1969,"ey":1970,"address":1971,"currently":1972,"average":1973,"crisis":1974,"hol":1975,"ison":1976,"States":1977,"begin":1978,"execut":1979,"individual":1980,"buy":1981,"mess":1982,"Mic":1983,"entire":1984,"Department":1985,"Sc":1986,"photo":1987,"vo":1988,"played":1989,"medical":1990,"Cent":1991,"init":1992,"threat":1993,"reve":1994,"sex":1995,"businesses":1996,"Te":1997,"cell":1998,"released":1999,"treat":2000,"thought":2001,"human":2002,"Europe":2003,"fav":2004,"colle":2005,"di":2006,"nal":2007,"industry":2008,"space":2009,"wanted":2010,"ancing":2011,"pecially":2012,"Su":2013,"match":2014,"especially":2015,"aily":2016,"everything":2017,"imple":2018,"wards":2019,"tee":2020,"history":2021,"gress":2022,"rac":2023,"arrest":2024,"phone":2025,"Wor":2026,"lor":2027,"lost":2028,"release":2029,"friends":2030,"shows":2031,"hy":2032,"shot":2033,"writ":2034,"additional":2035,"vote":2036,"employe":2037,"viron":2038,"depend":2039,"TV":2040,"ges":2041,"often":2042,"check":2043,"candid":2044,"recover":2045,"iding":2046,"grad":2047,"economy":2048,"Ho":2049,"Republic":2050,"aur":2051,"meeting":2052,"control":2053,"nam":2054,"restrict":2055,"role":2056,"results":2057,"hot":2058,"host":2059,"include":2060,"SA":2061,"fully":2062,"music":2063,"ither":2064,"discus":2065,"response":2066,"heart":2067,"plans":2068,"venue":2069,"His":2070,"loss":2071,"star":2072,"itiz":2073,"saf":2074,"cret":2075,"Dav":2076,"sim":2077,"anger":2078,"recently":2079,"suggest":2080,"Now":2081,"saw":2082,"Fo":2083,"coup":2084,"ging":2085,"ming":2086,"vehic":2087,"testing":2088,"signific":2089,"ilar":2090,"seven":2091,"deb":2092,"contract":2093,"Austral":2094,"dou":2095,"rate":2096,"ination":2097,"almost":2098,"began":2099,"lies":2100,"explain":2101,"needed":2102,"ease":2103,"vic":2104,"Brit":2105,"Do":2106,"respons":2107,"Canad":2108,"Gu":2109,"gir":2110,"depart":2111,"selves":2112,"safety":2113,"ands":2114,"profess":2115,"record":2116,"vironment":2117,"Bar":2118,"NA":2119,"scre":2120,"vice":2121,"exper":2122,"playing":2123,"asing":2124,"ention":2125,"areas":2126,"challeng":2127,"ott":2128,"America":2129,"measures":2130,"outbreak":2131,"fig":2132,"actually":2133,"aut":2134,"ford":2135,"director":2136,"soon":2137,"coach":2138,"increase":2139,"grap":2140,"issue":2141,"mot":2142,"matter":2143,".,":2144,"federal":2145,"wer":2146,"mother":2147,"hope":2148,"Her":2149,"mind":2150,"struct":2151,"Cr":2152,"ival":2153,"pack":2154,"ri":2155,"aker":2156,"assist":2157,"complete":2158,"respect":2159,"70":2160,"bar":2161,"ama":2162,"web":2163,"Inter":2164,"black":2165,"ple":2166,"rup":2167,"significant":2168,"Fin":2169,"ulation":2170,"duct":2171,"flu":2172,"development":2173,"families":2174,"Cour":2175,"administr":2176,"ural":2177,"moved":2178,"ails":2179,"higher":2180,"26":2181,"28":2182,"January":2183,"global":2184,"couple":2185,"shop":2186,"someone":2187,"moment":2188,"parents":2189,"ping":2190,"isn":2191,"particular":2192,"Ne":2193,"dead":2194,"schools":2195,"Our":2196,"UK":2197,"sl":2198,"ount":2199,"changes":2200,"mult":2201,"track":2202,"feat":2203,"serious":2204,"visit":2205,"purch":2206,"lower":2207,"diffic":2208,"Gre":2209,"Part":2210,"ored":2211,"push":2212,"”.":2213,"ane":2214,"anything":2215,"News":2216,"ience":2217,"ks":2218,"na":2219,"ugg":2220,"member":2221,"ensure":2222,"forman":2223,"conf":2224,"door":2225,"club":2226,"personal":2227,"uge":2228,"relation":2229,"related":2230,"allowed":2231,"reveal":2232,"CA":2233,"bad":2234,"officers":2235,"World":2236,"Par":2237,"terr":2238,"reports":2239,"gen":2240,"ium":2241,"wind":2242,"represent":2243,"ibility":2244,"Oc":2245,"gave":2246,"mis":2247,"legal":2248,"Geor":2249,"Day":2250,"Sm":2251,"chief":2252,"immedi":2253,"single":2254,"ost":2255,"roll":2256,"dig":2257,"lood":2258,"affect":2259,"27":2260,"BC":2261,"Pl":2262,"jud":2263,"rote":2264,"goal":2265,"August":2266,"orig":2267,"tom":2268,"utes":2269,"earlier":2270,"jour":2271,"running":2272,"Med":2273,"wrote":2274,"moving":2275,"super":2276,"events":2277,"nothing":2278,"interview":2279,"inst":2280,"reme":2281,"ament":2282,"imate":2283,"ote":2284,"ends":2285,"works":2286,"Air":2287,"San":2288,"sw":2289,"omet":2290,"necess":2291,"comb":2292,"prove":2293,"gun":2294,"rew":2295,"focus":2296,"deter":2297,"80":2298,"ron":2299,"seek":2300,"crib":2301,"opportunity":2302,"September":2303,"abo":2304,"worked":2305,"ample":2306,"Donald":2307,"ahead":2308,"hor":2309,"ino":2310,"atory":2311,"arm":2312,"ades":2313,"performan":2314,"active":2315,"prep":2316,"nearly":2317,"Iran":2318,"batt":2319,"han":2320,"pret":2321,"international":2322,"approach":2323,"oft":2324,"ateg":2325,"opening":2326,"latest":2327,"29":2328,"became":2329,"spir":2330,"however":2331,"High":2332,"School":2333,"itary":2334,"wood":2335,"White":2336,"Court":2337,"bi":2338,"urch":2339,"phys":2340,"difficult":2341,"father":2342,"vember":2343,"park":2344,"tober":2345,"November":2346,"environment":2347,"itch":2348,"incident":2349,"private":2350,"cogn":2351,"believ":2352,"masks":2353,"October":2354,"Rus":2355,"lines":2356,"attemp":2357,"involved":2358,"block":2359,"tt":2360,"whole":2361,"daily":2362,"ery":2363,"wel":2364,"prior":2365,"box":2366,"encour":2367,"ashing":2368,"90":2369,"Center":2370,"fill":2371,"song":2372,"touch":2373,"defin":2374,"Ber":2375,"aging":2376,"officer":2377,"quarant":2378,"general":2379,"growth":2380,"bill":2381,"cult":2382,"sched":2383,"tit":2384,"sty":2385,"acter":2386,"imm":2387,"aper":2388,"particip":2389,"problem":2390,"restrictions":2391,"War":2392,"Chief":2393,"longer":2394,"career":2395,"vict":2396,"reli":2397,"opt":2398,"appoint":2399,"bert":2400,"continued":2401,"killed":2402,"People":2403,"Park":2404,"fair":2405,"pan":2406,"oud":2407,"itor":2408,"amer":2409,"plat":2410,"player":2411,"joy":2412,"victim":2413,"gain":2414,"inside":2415,"Many":2416,"gas":2417,"uel":2418,"review":2419,"essential":2420,"collect":2421,"Government":2422,"Sy":2423,"dest":2424,"ift":2425,"draw":2426,"emergency":2427,"vaccine":2428,"row":2429,"exist":2430,"guid":2431,"technology":2432,"relationship":2433,"35":2434,"sts":2435,"lex":2436,"aving":2437,"surpr":2438,"atives":2439,"prevent":2440,"drug":2441,"deliver":2442,"similar":2443,"paid":2444,"else":2445,"bruary":2446,"Dece":2447,"February":2448,"Am":2449,"cing":2450,"Stre":2451,"himself":2452,"December":2453,"Ed":2454,"ston":2455,"lying":2456,"executive":2457,"employees":2458,"Mark":2459,"hair":2460,"ify":2461,"prim":2462,"anyone":2463,"tre":2464,"wife":2465,"leave":2466,"white":2467,"teach":2468,"Char":2469,"ota":2470,"utions":2471,"issued":2472,"Not":2473,"cir":2474,"mass":2475,"sem":2476,"living":2477,"gets":2478,"disease":2479,"connect":2480,"31":2481,"tro":2482,"aft":2483,"region":2484,"capital":2485,"customers":2486,"fast":2487,"ening":2488,"create":2489,"drive":2490,"leader":2491,"popular":2492,"education":2493,"500":2494,"Ab":2495,"daugh":2496,"gather":2497,"deep":2498,"conduct":2499},"merges":["t h","i n","e r","a n","th e","o n","r e","a t","e n","o r","s t","e d","a l","in g","t o","o u","a r","i s","an d","e s","a s","i t","o f","i c","l e","h e","o m","i on","en t","i l","i d","b e","v e","a c","s e","a d","f or","a y","o w","l y","r o","c h","a m","o l","w h","th at","v er","i r","i m","u r","o t","i g","u n","a re","i th","u t","T he","er s","e t","il l","c e","w ith","c t","at ion","u s","d e","c on","a g","o p","w e","h a","a b","n e","er e","re s","c om","l i","e m","t er","l o","w as","p e","s a","al l","l d","t r","ou r","at e","ou t","f r","k e","m o","p ro","ou n","s u","u l","s h","t e","s o","m ent","ha ve","p l","sa id","a in","h as","ig h","e x","i st","a p","it y","f e","h is","ar t","on e","es s","b y","fr om","i es","th er","an t","i ve","p o","or t","w ill","n ot","d ay","ou ld","g o","2 0","l l","i f","q u","u m","e ar","u st","a st","en d","p er","i al","w or","th is","g e","ac t","i v","om e","u p","p r","o d","igh t","p ort","a k","ac k","g h","y ou","an y","d o","ar d","b ut","ic e","I n","the ir","c l","0 0","i e","g r","a f","the y","ow n","wh o","o ver","u d","c an","h er","m e","e l","y ear","a v","of f","be en","t im","ou gh","an s","T h","al ly","in e","on g","c r","d er","o re","c or","id e","it s","a u",", ”","n ow","h ad","in d","o k","mo re","i a","i p","w ere","ic h","b er","c k","op le","ion s","s p","i re","I t","e v","1 9","at ed","e p","wor k","a ke","ou s","al so","am e","pe ople","oun d","ab out","W e","n o","u e",". ”","ne w","b o","ag e","b l","com p","H e","m an","u re","t s","ab le","g et","s ome","c re","a w","st r","ac h","wh ich","as s","p art","b r","e ver","ac e","o ther","s he","i le","f ir","w ould","C h","tim e","c o","ar y","id ent","c oun","li ke","po s","p re","i z","en ce","th ing","con t","a il","s er","p res","A n","d is","af ter","S t","c ent","th ere","in t","w o","ol d","com m","re n","e k","th an","ig n","wh en","W h","for m","j ust","i b","w ay","as e","an ce","l ow","p ol","the m","it e","c ial","ar k","ation s","or s","m y","d u","ic k","ct ion","t y","pl ay","s ay","d r","n ing","re e","m ed","b ack","m on","ve l","en s","ent s","is h","at t","wh at","e f","it ion","ic al","f er","ur ing","d ing","h o","al th","fir st","t wo","ad e","d own","ir us","c ur","e st","in to","i an","t ing","at es","T r","f ore","en c","we ek","th r","an g","o se","y our","c au","ad d","h ow","at ing","m in","ic t","c ould","he l","ne ed","ar r","re ad","h im","c ess","m er","mo st","p p","pro v","u bl","ch o","te st","T his","i ous","it ies","B ut","tr y","s c","ag ain","pe ct","as k","f ul","A s","in k","cau se","o b","am p","com e","f in","or y","un der","i ed","re port","l ast","ul t","re g","a th","n ment","go ver","in cl","at er","be ing","s s","um p","ver s","a ir","on ly","b u","e w","thr ough","as on","ation al","d on","re m","C O","se l","c er","ubl ic","f o","wh ile","be t","ur n","t ed","m any","sh ow","in ter","is s","c ed","c as","w ant","U n","wh ere","d uring","I D","ser v","year s","ever y","il y","c all","d id","p ers","ver y","em p","l and","re t","s pe","we ll","il d","ev en","off ic","res s","it al","u ch","F r","hel p","an n","fe ct","c lo","in ce","is e","be cause","c ol","go ing","ist r","An d","B r","f am","k now","gover nment","h ome","e le","ill ion","00 0","lo ok","re at","in s","as ed","m ake","V ID","le ad","p h","st ate","ak ing","ar ch","CO VID","u al","g u","be fore","d es","h igh","th ose","f l","t al","sh ould","l ong","v en","ou p","v ing","20 1","st art","se e","su p","o g","on av","se t","con d","onav irus","b us","he alth","s y","cho ol","u g","r a","an k","cont in","us ed","again st","i o","pers on","mon th","st ud","N ew","le g","it ed","incl ud","res ident","v is","l ine","te am","em ent","v ie","Tr ump","p on","p and","ve st","em ic","d if","C o","an c","1 0","s ur","m ay","cor onavirus","le ar","t ain","de c","in ess","re l","m ade","t ake","st ill","un ity","at ch","e ct","the n","l ar","ing s","su re","at ive","r ight","20 20","the se","op en","th ree","sup port","The y","c al","c are","n um","l ed","th ink","im p","v es","g an","v ed","p ut","n er","en er","S he","m em","f ol","u se","sh are","en g","l ess","x t","F or","w ard","ment s","m s","c ut","l es","ib le","cas es","st and","say s",", \"","go od","sel f","per i","s on","ch ar","pro du","cor ding","coun try","b re","u es","as h","C om","pand emic","p ublic","t on","an ge","il ity","r y","he ad","m a","R e","m uch","Th ere","f un","A l","c i","m ark","j ect","m iss","u res","ar ound","ic es","s ide","ou se","se ason","s chool","do es","lo y","d s","c ap","ro ss","ire ct","v ot","re st","J o","c over","i x","bus iness","A r","A mer",". \"","I f","li fe","su ch","Amer ic","al s","O n","in es","h and","wor ld","c our","vie w","th ough","l a","D e","b all","m illion","i vers","fol low","S o","s ign","in a","in vest","comp any","b ers","s ince","tr ans","res pon","ren t","a ve","pol ice","po int","if ic","is su","le t","r un","c he","l ot","p t","ha pp","N o","l aw","ul ar","qu ar","con s","ist er","b le","g ame","sh ip","fam ily","w om","Th at","n or","t en","R o","s ing","r is","pl ace","n ational","c ame","H ow","M on","w in","includ ing","f ar","u b","in cre","con om","f il","dif fer","lo ck","s m","ch ild","L e","g ot","id ay","b ig","re qu","way s","ar s","op er","ne xt","all ow","f our","ic s","j o","Y ou","we en","read y","re al","ap p","C oun","st at","y s","de ath","tr a","w r","M in","S e","to ld","i or","v ol","se cond","g iv","re ally","offic ial","p ass","re d","su b","C on","h old","f f","u ally","bet ween","num ber","vel op","af f","M r","f ac","re ce","are n","bo th","st o","ex pect","U S","f act","3 0","sp ital","s ame","day s","a ther","re le","ge st","e conom","P r","o s","fe el","po st","c es","or der","un t","B e","p ay","pos s","c us","fe w","a h","so cial","enc y","pl an","gr oup","st em","d irect","ow er","a x","ou th","n es","an other","at ur","5 0","p at","are d","ke ep","h ere","s it","cur rent","f t","am es","n ight","ak es","a im","f ound","v ent","im e","od y","id er","ant s","al e","P resident","ol og","In d","com ing","rem ain","d et","s en","to o","l ight","re cent","t le","ap pe","ie f","n ess","i end","w ar","s ed","st e","G r","l it","i k","v irus","i er","be st","1 2","le ct","B l","w on","ent ial","g ed","ist s","end ed","comm unity","differ ent","add ed","Fr iday","mark et","c amp","to p","ate ly","a z","pres ident","pol it","ur s","de velop","tr ad","A t","im port","B o","in form","it ive","be li","fr iend","gr am","e ach","r al","c ase","ent er","1 1","str u","l ate","ac c","ne ar","us h","ann oun","ro ad","h op","me et","l ing","st er","ire d","emp loy","c ity","ion al","et y","f ind","v al","is ed","k ill","report ed","p ur","ac ross","ex t","sy stem","ar ing","n ed","ie ld","or d","mo ve","bo ok","c a","Wh en","is m","ch ange","bre ak","thing s","A d","S un","o c","lo cal","m it","p op","work ing","I s","pres ent","M ay","g ener","quar ter","E n","le vel","ho spital","with out","s ol","D r","iv es","ret urn","se ver","con tr","ag es","v ir","1 5","is ion","call ed","le ft","li st","h our","S h","p ower","ac cording","se arch","b al","or gan","d ue","P ol",") .","c lear","c ar","it ing","iz ed","ne ver","month s","de f","end ing","h ard","iv ed","g er","one y","aw ay","m ain","l im","ch ang","l s","some thing","al ready","f ace","qu est","de p","St ate","mem bers","j ob","te ll","com es","g y","id ed","pr of","stud ents","p ast","g reat","2 1","T o","g re","v ious","pro gram","comp le","bet ter","t urn","th or","ic ally","Mon day","or k","cl aim","M o","gr ow","unt il","for t","How ever","v i","P ro","us ing","g in","con cer","20 19","st it","did n","th ers","contin ue","child ren","A c","m ust","act ion","i ent","p ar","te ch","b ody","m ight","ex peri","i ke","re cor","part ic","clo se","n et","ivers ity","h al","se en","su m","W ith","u ary","tal k","Wh at","A f","pr om","le y","man ag","w ent","at a","ele ct","j or","N or","m and","f ive","Jo h","happ en","h ouse","20 0","at ter","ag o","Coun ty","al ways","pro cess","bu il","pl ain","y ing","ear ly","ot s","to ok","Ch ina","S outh","es e","M arch","ne y","ere st","1 4","d ist","un e","M ar","u de","ch ed","iz e","inform ation","ro om","M e","er al","at ure","so ci","st ay","ap pro","off er","a id","i ver","ir d","Th urs","ev ent","import ant","b ased","m en","Wh ile","m or",") ,","Thurs day","pro ject","h it","2 4","miss ion","un d","C ar","i ans","f ut","t ar","ge ther","week s","m aking","i but","p s","form er","Joh n","f ree","b it","v ide","cont ro","T ues","ad v","pro te","ex p","f ur","m ber","He alth","share s","ris k","at or","coun t","C ol","J u","w it","de al","pos itive","S atur","e qu","cl ass","pres s","st op","like ly","Tues day","d ed","Satur day","e as","ut e","ough t","in c","on t","l ater","m oney","wom en","A ll","r ic","k n","Sun day","w he","ele ction","2 5","on es","new s","add ition","ask ed","ma jor","al k","d istr","wh y","tim es","int erest","O ne","f ire","w a","at s","fo od","ak en","med ia","sto ck","al ong","ut ion","lit tle","poss ible","u ck","to gether","D em","c ast","u c","pos ition","g ive","l ay","con fir","ef fect","to day","ke y","1 8","stat ement","to tal","cer tain","sm all","W ed","s ix","st re","se em","m et","st aff","ard s","ab ility","do ing","G o","C an","em ber","h ist","p ot","1 3","J an","are a","cur ity","r an","cons ider","Wed nes","sh ort","pl ac","Un ited","v id","ha ving","Wednes day","b en","ch all","lo ve","fo ot","h um","au gh","official s","et s","1 6","d en","at ic","sever al","y oun","ish ed","M an","f ight","in ed","iv id","get ting","lo c","per cent","pos ed","giv en","sp read","fut ure","sh o","announ ced","u ation","m om","ind ust","b or","w ater","f all","h ar","av ail","c le","m ask","id es","ast er","lar ge","a ign","t aking","f ield","ful l","serv ice","tech n","le ast","co st","D ep","ser ies","invest ig","M c","s us","li ve","de li","pr ice","min istr","s po","d one","b ur","comm un","D on","on line","play ers","t aken","fil m","b ab","c y","re search","kn own","me as","does n","F e","on s","serv ices","Af ter","O r","o cr","p ed","en e","ig er","C or","re ach","be come","em er","su c","N ational","fr ont","m id","tr ain","Dem ocr","s ent","br ing","al ity","look ing","camp aign","b ro","d ata","i ents","t ion","hal f","u ro","au thor","peri od","w atch","Americ an","d ro","m il","am ong","part y","ac y","Pol ice","a ud","id en","c ust","en ough","pl ic","start ed","m us","comp an","vide o","a ver","att ack","pro ble","re f","fur ther","1 7","m p","o thers","qu e","ce pt","S en","a i","expect ed","S er","an cial","to w","st ep","cour t","avail able","Y ork","h ip","n on","u ed","g lo","in vol","for ce","Co vid","M y","y et","in fect","work ers","R ep","comm it","A fr","C l","whe ther","b as","produ ct","e cut","imp act","E x","if ied","lead ers","C ity","at ors","r ist","in ts","Afr ic","B iden","g l","k ind","gr ound","1 00","s al","ul ts","P h","re ason","hour s","v ar","tra vel","ed eral","am s","follow ing","on d","is ing","act iv","olog y","H ouse","th ird","art ment","L o","P e","ste ad","p aren","s k","ag ue","C al","pro per","st ory","e ve","polit ical","g ames","bo ard","str ict","dec ision","lock down","f ic","cr it","Bl ack","i fe","or ies","tr ies","G over","en se","prote ct","l t","it ions","with in","pol ic","Ju ly","re du","al y","pe cial","confir med","prov ide","J ust","im es","str ong","op port","se curity","pre vious","spe cial","N iger","w ide","S te","c il","des ign","A pr","pr iv","s ite","su pp","We st","ho to","fam il","he ld","b and","h am","r ating","iv ing","enc es","wom an","suc cess","tow n","li er","off ice","Un iversity","4 0","c and","d ol","h ic","ens ive","f ans","g ency","Apr il","A ust","comp et","p ite","ac cess","pro test","p or","2 2","d ate","death s","Nor th","pot ential","compan ies","n ation","for ward","Ac cording","pat ients","id ence","youn g","S p","ag ed","me an","fin al","anc es","cont act","po ints","port s","cr is","ct or","experi ence","b illion","b ank","t ax","w alk","out side","resident s","S ome","in al","under stand","E uro","b ed","r ound","buil ding","f ail","un ch","try ing","l er","al leg","Min ister","econom ic","Ind ia","J une","sa fe","wor th","p ick","d ied","qu ick","ben ef","A ug","r ul","on ce","li ves","say ing","need s","su g","G e","S ep","c arr","h ind","m ar","st ates","de cl","med i","cust om","O ff","n ers","il ities","g n","ag re","res ult","an a","ter m","rece ived","beli eve","v acc","ed uc","ce le","ure d","iz ation","m akes","r u","k es","cour se","issu es","ivid ual","c u","vi ol","6 0","mo de","pr act","me ans","on y","en n","h om","dol lar","R es","spe c","Ch rist","sit uation","d am","our ces","W ill","id s","test ed","b an","con ne","l ab","fin ancial","n s","ur y","every one","201 8","mor ning","m al","be hind","fer ence","quest ion","Th ese","clo sed","cele br","de mand","coun tries","2 3","n ame","in j","al d","ll ing","Sep t","tar get","e y","add ress","current ly","aver age","cris is","h ol","is on","St ates","be gin","ex ecut","ind ividual","bu y","m ess","M ic","ent ire","Dep artment","S c","p hoto","v o","play ed","med ical","C ent","in it","th reat","re ve","se x","business es","T e","ce ll","rele ased","t reat","though t","hum an","Euro pe","f av","col le","d i","n al","indust ry","sp ace","want ed","anc ing","pecial ly","S u","m atch","es pecially","ail y","every thing","imp le","ward s","te e","hist ory","g ress","r ac","ar rest","ph one","W or","l or","lo st","rele ase","friend s","show s","h y","sh ot","wr it","addition al","vot e","employ e","vir on","dep end","T V","g es","of ten","che ck","cand id","re cover","id ing","gr ad","econom y","H o","Rep ublic","a ur","meet ing","contro l","n am","re strict","ro le","res ults","h ot","ho st","incl ude","S A","ful ly","mus ic","ith er","dis cus","respon se","he art","pl ans","ven ue","H is","lo ss","st ar","it iz","sa f","cre t","D av","s im","ang er","recent ly","sug gest","N ow","sa w","F o","c oup","g ing","m ing","ve hic","test ing","sign ific","il ar","se ven","de b","contr act","Aust ral","d ou","r ate","in ation","al most","be gan","li es","ex plain","need ed","e ase","v ic","Br it","D o","respon s","Can ad","G u","g ir","de part","sel ves","saf ety","and s","prof ess","recor d","viron ment","B ar","N A","s cre","v ice","ex per","play ing","as ing","ent ion","are as","chall eng","ot t","Americ a","meas ures","out break","f ig","act ually","a ut","for d","direct or","so on","co ach","incre ase","gr ap","issu e","m ot","m atter",". ,","f ederal","w er","mo ther","hop e","H er","m ind","stru ct","C r","iv al","p ack","r i","ak er","ass ist","comple te","res pect","7 0","b ar","am a","we b","In ter","bl ack","p le","r up","signific ant","F in","ul ation","du ct","fl u","develop ment","famil ies","C our","ad ministr","ur al","mo ved","ail s","high er","2 6","2 8","Jan uary","glo bal","coup le","sh op","some one","mom ent","paren ts","p ing","is n","partic ular","N e","de ad","school s","O ur","U K","s l","oun t","chang es","m ult","tr ack","fe at","ser ious","vis it","pur ch","low er","dif fic","G re","P art","ore d","p ush","” .","an e","any thing","New s","i ence","k s","n a","ug g","mem ber","en sure","for man","con f","do or","cl ub","person al","u ge","rel ation","rel ated","allow ed","reve al","C A","b ad","offic ers","Wor ld","P ar","ter r","report s","g en","i um","w ind","re present","ib ility","O c","g ave","m is","leg al","Ge or","D ay","S m","ch ief","im medi","sing le","o st","ro ll","d ig","lo od","af fect","2 7","B C","P l","j ud","ro te","go al","Aug ust","or ig","to m","ut es","ear lier","j our","run ning","M ed","w rote","mo ving","su per","ev ents","no thing","inter view","in st","re me","am ent","im ate","ot e","end s","work s","A ir","S an","s w","om et","ne cess","com b","pro ve","g un","re w","fo cus","det er","8 0","r on","se ek","cr ib","opport unity","Sept ember","ab o","work ed","amp le","Don ald","a head","h or","in o","at ory","ar m","ad es","per forman","act ive","pre p","near ly","I ran","b att","h an","pre t","inter national","appro ach","of t","ate g","open ing","late st","2 9","be came","sp ir","how ever","H igh","S chool","it ary","wo od","Wh ite","Cour t","b i","ur ch","ph ys","diffic ult","f ather","ve mber","p ark","to ber","No vember","en vironment","it ch","inc ident","priv ate","co gn","beli ev","mask s","Oc tober","R us","l ines","att emp","invol ved","b lock","t t","who le","d aily","er y","we l","pr ior","bo x","enc our","ash ing","9 0","C enter","f ill","s ong","to uch","de fin","B er","ag ing","offic er","quar ant","gener al","grow th","b ill","c ult","s ched","t it","st y","ac ter","im m","ap er","partic ip","proble m","restrict ions","W ar","Ch ief","long er","care er","v ict","re li","op t","ap point","ber t","contin ued","kill ed","Pe ople","P ark","f air","p an","ou d","it or","am er","pl at","play er","jo y","vic tim","g ain","ins ide","M any","g as","u el","re view","ess ential","col lect","Gover nment","S y","de st","if t","dr aw","emer gency","vacc ine","r ow","ex ist","gu id","techn ology","relation ship","3 5","st s","le x","av ing","sur pr","at ives","pre vent","dr ug","deli ver","sim ilar","p aid","el se","br uary","De ce","Fe bruary","A m","c ing","St re","him self","Dece mber","E d","st on","ly ing","execut ive","employe es","M ark","ha ir","if y","pr im","any one","t re","w ife","le ave","wh ite","te ach","Ch ar","ot a","ut ions","issu ed","N ot","c ir","m ass","se m","li ving","get s","dis ease","conne ct","3 1","t ro","af t","reg ion","cap ital","custom ers","f ast","en ing","cre ate","dr ive","lead er","pop ular","educ ation","5 00","A b","d augh","g ather","de ep","con duct"]}}