{"version":"1.0","truncation":null,"padding":null,"added_tokens":[{"id":0,"special":true,"content":"<UNK>","single_word":false,"lstrip":false,"rstrip":false,"normalized":false},{"id":1,"special":true,"content":"<SEP>","single_word":false,"lstrip":false,"rstrip":false,"normalized":false},{"id":2,"special":true,"content":"<MASK>","single_word":false,"lstrip":false,"rstrip":false,"normalized":false},{"id":3,"special":true,"content":"<CLS>","single_word":false,"lstrip":false,"rstrip":false,"normalized":false}],"normalizer":null,"pre_tokenizer":{"type":"Whitespace"},"post_processor":null,"decoder":null,"model":{"type":"Unigram","unk_id":0,"vocab":[["<UNK>",0.0],["<SEP>",0.0],["<MASK>",0.0],["<CLS>",0.0],["s",-2.7348550220370473],["a",-3.4945134692443602],["the",-3.5287747448397475],[".",-3.5748858686733165],[",",-3.649750297792478],["e",-3.893731177265982],["t",-3.9918611205957895],["to",-4.037006374499011],["in",-4.1291806512375295],["d",-4.1470246085790965],["and",-4.227149010372418],["of",-4.284535950636382],["ed",-4.345022353766689],["ing",-4.360395796968204],["o",-4.527735218062276],["y",-4.5786745732313765],["on",-4.711115852182525],["n",-4.742822719808167],["i",-4.751171307838598],["is",-4.825639210825225],["r",-4.9105441484882775],["’",-5.0128539347753325],["l",-5.041830562557202],["-",-5.043390977568629],["ly",-5.094027051259577],["it",-5.1094076792975684],["p",-5.115122577770425],["for",-5.152446281238069],["that",-5.1546995259742765],["m",-5.198618209690737],["I",-5.2063715639161305],["at",-5.251122425906361],["be",-5.322140449254798],["an",-5.330520322293006],["The",-5.348446450634706],["b",-5.369599584079669],["or",-5.37288608739054],["c",-5.376224833351923],["re",-5.404209192737602],["with",-5.4434679124744445],["A",-5.565814130324041],["er",-5.594377354011996],["S",-5.60080527131551],["“",-5.6044659728071355],["al",-5.639271665943376],["was",-5.646661059268023],["are",-5.695220413000239],["g",-5.69820912658235],["C",-5.718729290481891],["f",-5.739203439241683],["'",-5.7558759841068685],["h",-5.772065777735078],["aid",-5.818955619057165],["have",-5.8790060210241],["he",-5.884388315704765],["has",-5.944864115029249],["u",-5.950314131368774],["by",-6.032076819096254],["from",-6.038651766316253],["M",-6.062217418179301],["P",-6.072744542832417],["will",-6.1047341707232],["\"",-6.117946618687199],["we",-6.122775071797243],["T",-6.12598684951482],["not",-6.130504305308266],["w",-6.157702065567184],["k",-6.210476855324714],["out",-6.240118179673438],["this",-6.254830307317562],["one",-6.291299307520157],["his",-6.308115211979668],["un",-6.31560050824077],["you",-6.319971237682109],["all",-6.323774087518389],["B",-6.327464278305973],["up",-6.350664460545122],["E",-6.360331371058139],["their",-6.401059601847033],["F",-6.407833370379706],["ion",-6.451978558728079],["but",-6.461241587831493],["D",-6.471591751023325],["her",-6.481491861205585],["who",-6.489603199776592],["ies",-6.498959842269013],["le",-6.502150968024118],["ation",-6.50848035450514],["G",-6.516136631034174],["N",-6.519116284864124],["can",-6.536916376593471],["been",-6.5387722176931256],["ch",-6.583143317449535],["ur",-6.585434535417631],["v",-6.6108585814080865],["O",-6.617321419092928],["had",-6.626632526688152],["(",-6.632547709416336],["more",-6.636401012737048],["they",-6.639359382955616],["were",-6.6429178284529495],["our",-6.646977927867008],["R",-6.648395423778579],["other",-6.65402948336715],[",”",-6.659217930986314],["In",-6.663720694699011],["ers",-6.698957776732938],["19",-6.708134485849268],["th",-6.7146786078658725],["us",-6.728042679310864],["ic",-6.731877468152492],["over",-6.734635607024099],["also",-6.735416722494479],["people",-6.737181075993144],["about",-6.744128194276456],["if",-6.753179711674489],["time",-6.756187554549287],[":",-6.771452697503106],["K",-6.7853758181668],["L",-6.786286514662903],[".”",-6.794724336589532],["W",-6.805270514230845],["H",-6.809129892750445],["4",-6.814623383320109],["ar",-6.821216647481407],["3",-6.83244949151303],["which",-6.8340315281873725],["ve",-6.85275286627232],["able",-6.864578130986926],["like",-6.865067841446516],["5",-6.871214345900608],["He",-6.8817716300545335],["would",-6.887821840326014],["20",-6.89253098064064],["con",-6.896565999568816],["new",-6.89977958935884],["We",-6.900074659653386],["”",-6.90052088861254],["1",-6.909038686510494],["year",-6.912704330059061],["ce",-6.916060751163975],["day",-6.958713085685284],["U",-6.961126558152353],[")",-6.963813135906628],["ent",-6.96902240626445],["ment",-6.978611574201658],["am",-7.008889867154872],["im",-7.0161710000173105],["she",-7.016445079413268],["2",-7.016727495620255],["6",-7.020542800680568],["when",-7.0260402846612315],["um",-7.0309217888514155],["me",-7.03371932885636],["after",-7.036329227111857],["co",-7.043936642044725],["8",-7.049424112823644],["some",-7.050119431612215],["7",-7.054626351002751],["end",-7.068844765585535],["ive",-7.072933946934047],["z",-7.074434202145147],["9",-7.083892933490949],["man",-7.0955870473217715],["just",-7.12290453210443],["what",-7.123454708531309],["ter",-7.124474073436796],["$",-7.127019511175609],["?",-7.127019511175609],["than",-7.127509913680817],["back",-7.141173863162486],["my",-7.14137883378155],["now",-7.144269287859649],["age",-7.150244815688386],["get",-7.1613855586380595],["work",-7.1715995240830415],["there",-7.173223779549746],["per",-7.196805688037362],["its",-7.219688605304757],["ex",-7.2233389539618384],["first",-7.2239158948445175],["two",-7.233095001711262],["how",-7.2347561687272925],["ever",-7.23491876069259],["any",-7.246324980334507],["V",-7.246745641987536],["state",-7.252777622819823],["make",-7.253296078032417],["—",-7.260234519789466],["vi",-7.261560950345724],["go",-7.2732924088974595],["cause",-7.275079834272653],["way",-7.284292612271557],["could",-7.315482193450051],["Re",-7.316236416068911],["him",-7.317959192846517],["even",-7.324569694156629],["need",-7.328940170445884],["your",-7.334817831442585],["ll",-7.343531560050579],["most",-7.345215483223116],["old",-7.3540654994317585],["last",-7.362004919047295],["This",-7.371600306342289],["ary",-7.384245926306178],["But",-7.385824003696975],["ance",-7.390816890693045],["them",-7.401888734764081],["ity",-7.408830697528714],["come",-7.416433593919678],["take",-7.417297512905484],["hi",-7.420901436162012],["hose",-7.425215106074309],["J",-7.438750868983348],["home",-7.439143983113062],["ul",-7.455303171280855],["est",-7.457619828324525],["down",-7.4598558716144785],["through",-7.491531350520546],["whil",-7.498182079043477],["show",-7.524745185237885],["high",-7.5256008898961655],["during",-7.525603230859056],["want",-7.526111021786797],["call",-7.526802024485988],["part",-7.528749134514403],["where",-7.530932142829737],["000",-7.547113991089859],["ten",-7.548427157475444],["well",-7.555271779483908],["own",-7.559441486700564],["pro",-7.561259637991405],["ell",-7.561529337793751],["play",-7.566814468307383],["help",-7.56904697582153],["ill",-7.57057943138404],["every",-7.573132521841615],["being",-7.581094440998549],["0",-7.581264228210831],["test",-7.590416144354947],["long",-7.595453217421539],["see",-7.597407552582873],["use",-7.600418499143761],["Ma",-7.60180732411004],["government",-7.607195762851524],["many",-7.6117645273425065],["going",-7.614691581398862],["under",-7.618311336447258],["com",-7.619045016938704],["look",-7.619510612505938],["ut",-7.631082895442794],["off",-7.632119715826371],["%",-7.635689219514531],["COVID",-7.636256112993396],["before",-7.63974565762067],["St",-7.6475937383933],["should",-7.656303223758268],["line",-7.659039018872147],["place",-7.6603927839014485],["game",-7.661133308458283],["ally",-7.6624429560007945],["right",-7.663546855897434],["start",-7.669106070695658],["know",-7.671219033978269],["years",-7.672326983742069],["And",-7.680087667014929],["ear",-7.681673258629474],["real",-7.689488422010293],["health",-7.692260731591444],["–",-7.6940318039584525],["put",-7.705456374346792],["ck",-7.706552371035227],["10",-7.706811136442963],["New",-7.715288182717466],["team",-7.7168503872450085],["week",-7.717553248461141],["low",-7.730461193121729],["point",-7.737396614956625],["agains",-7.737817636176652],["Trump",-7.741396388886817],["For",-7.74157738667416],["into",-7.7431190662832154],["less",-7.743504992542555],["tic",-7.744062119340624],["ence",-7.750861243647468],["Y",-7.753943006288532],["De",-7.760390231632923],["made",-7.765112186505911],["still",-7.771171033148898],["may",-7.77243200494939],["plan",-7.773171031378931],["add",-7.773785863685276],["An",-7.7745916786476545],["coronavirus",-7.7747005232165725],["thing",-7.78172404672697],["support",-7.783959268136992],["ial",-7.784847025025249],["‘",-7.785175245609495],["three",-7.7987128454360635],["2020",-7.802283786842906],["very",-7.813891844366099],["think",-7.8154085451335655],["To",-7.822088552898824],["She",-7.827443453309123],["public",-7.838562784609841],["ask",-7.842362498361885],["ook",-7.850969327085909],["rate",-7.855194109175459],["Br",-7.855240616331354],["Be",-7.859371375452764],["million",-7.869605621089621],["ize",-7.8706858938036435],["self",-7.872424886560519],["ish",-7.872499502123156],["ful",-7.872773571815031],["ge",-7.873874156259403],["good",-7.877104236927995],["report",-7.878627368343218],["side",-7.8837910136566025],["don",-7.884958772743966],["country",-7.887710322671027],["Ro",-7.88896749414785],["pandemic",-7.8949696717919755],["these",-7.896994473251823],["lot",-7.899968129205145],["head",-7.904225208677892],["late",-7.905474980340544],["number",-7.906800089341961],["much",-7.906842949142734],["ru",-7.912717848354248],["cases",-7.914502468896067],["Le",-7.91469676151431],["land",-7.917027372314917],["life",-7.918555964381718],["/",-7.919506087204391],["ber",-7.922876389395009],["ak",-7.924128951303327],["school",-7.9255463152171375],["says",-7.926271210627368],["close",-7.927833771225067],["port",-7.929338922178797],["La",-7.934169424170329],["season",-7.935505155366389],["around",-7.940826053534272],["each",-7.944519969031123],["ail",-7.953474172580778],["There",-7.956871677671758],["business",-7.957870507838998],["continue",-7.961391464391199],["che",-7.962091595207574],["Co",-7.966774098127213],["gan",-7.969848266565049],["such",-7.970329002033814],["een",-7.971079217600455],["air",-7.977612070122897],["world",-7.980016133680013],["Ch",-7.980769501633627],["ship",-7.981347488641546],["change",-7.98151876753648],["car",-7.985992376290732],["You",-7.988194218788747],["since",-7.990607280682302],["open",-7.990729097712216],["did",-8.002930067064987],["tri",-8.004777738584867],["police",-8.006073406273487],["company",-8.008407825658416],["If",-8.013588889306646],["ster",-8.017559139276067],["communit",-8.02419946037617],["ous",-8.030529709681725],["service",-8.031778902953246],["har",-8.032328658646918],["pre",-8.036624367943034],["Mar",-8.043055693948983],["That",-8.043510079398121],["Al",-8.045481447239162],["family",-8.046981530686047],["person",-8.05024282384146],["On",-8.053102766534106],["issue",-8.054976562265082],["Bo",-8.055424690422235],["came",-8.061565000168336],["ha",-8.064671293133916],["including",-8.067716396696728],["ver",-8.069489995144222],["So",-8.075434552430968],["form",-8.077550329062383],["say",-8.082999912652962],["How",-8.083722694386633],["mean",-8.09090043088364],["law",-8.09296603431378],["next",-8.095292607582365],["ember",-8.099650493653916],["allow",-8.106341159851079],["ick",-8.108765925181453],["win",-8.111912192391733],["night",-8.115189750213695],["care",-8.116345600507522],["tra",-8.117540713522288],["ready",-8.119946763138739],["etween",-8.12066815873077],["ke",-8.124425900161679],["Ar",-8.125225055229794],["second",-8.1280594075637],["found",-8.128747736237543],["Lo",-8.132511416047898],["base",-8.133414382098413],["ction",-8.13528471794816],["ness",-8.136322372876617],["Ba",-8.136560709460536],["As",-8.140824843609971],["men",-8.142604509482474],["vo",-8.143783852822365],["face",-8.151334069813025],["ide",-8.151632522930827],["both",-8.152050249938156],["sign",-8.153338725270567],["try",-8.156690033179604],["count",-8.160114552724334],["ling",-8.162131535925338],["same",-8.162713451143187],["US",-8.169385656460005],["30",-8.171647532202432],["order",-8.171722437425164],["told",-8.173163333351837],["cent",-8.176444825900553],["keep",-8.176815901210595],["few",-8.182850813469127],["group",-8.184245898810769],["feel",-8.185878100033609],["tru",-8.187981570072626],["den",-8.18915531754786],["!",-8.191134036387709],["social",-8.191139710929512],["light",-8.191308691449663],["student",-8.195092694613004],["great",-8.19666787997943],["gen",-8.199652172197911],["Ja",-8.206720560635006],["Mr",-8.208307612730213],["current",-8.217209125859744],["15",-8.219474500996009],["tion",-8.220322836233313],["move",-8.227075149309304],["iv",-8.227689422956342],["Z",-8.228361037228268],["love",-8.231263915442169],["provide",-8.233306126812865],["act",-8.237366039462316],["12",-8.240609250797153],["hold",-8.24288883663434],["case",-8.244216257394347],["here",-8.246375434797637],["President",-8.247522245790796],["got",-8.250687367564728],["remain",-8.25484970533413],["amp",-8.25581394027628],["Me",-8.258034785682707],["result",-8.261728590022255],["recent",-8.263743755066507],["power",-8.263867224745375],["pass",-8.26542346121406],["return",-8.26712900808008],["ound",-8.268750708852076],["coming",-8.269201576450882],["virus",-8.270339549483484],["action",-8.273993277695286],["app",-8.274043841887458],["00",-8.278595722183194],["special",-8.279266715174284],["though",-8.282052563572115],["run",-8.282982233349607],[";",-8.28530904983477],["different",-8.285309066936243],["50",-8.289310052136802],["election",-8.289564133978269],["ical",-8.29178783794826],["large",-8.293081034630514],["Friday",-8.294033029438621],["Ju",-8.294345340793676],["quarter",-8.295127846492466],["market",-8.295366524841189],["Ra",-8.296542081910701],["16",-8.29860954237655],["post",-8.302382425896226],["month",-8.3082187492621],["president",-8.311640767209717],["term",-8.31170262358151],["ather",-8.311962286251408],["11",-8.313495702438592],["best",-8.313928025510958],["four",-8.321750483265788],["near",-8.321841855988371],["inter",-8.323512305000143],["release",-8.32455864551315],["urg",-8.325652788259362],["turn",-8.326028413885673],["include",-8.327446316905942],["system",-8.330822295776803],["gra",-8.33198587473109],["rac",-8.333989846689104],["city",-8.334977012687233],["ner",-8.336741073859791],["ward",-8.33949229636076],["let",-8.341245958781009],["ug",-8.343340340801825],["local",-8.344566462454484],["serve",-8.3452529090816],["event",-8.346669150147504],["find",-8.347962251259581],["kill",-8.350731486799724],["cap",-8.350791501430693],["live",-8.351028393312472],["happen",-8.351544440241842],["led",-8.35192615596665],["across",-8.357179545708263],["American",-8.360264314756613],["war",-8.36037135023616],["far",-8.363985034275968],["give",-8.36688617209919],["fire",-8.36861882840234],["Do",-8.369463181952527],["Po",-8.370270383630343],["14",-8.37190049171835],["When",-8.373912494543394],["reported",-8.375572615742108],["offer",-8.376799633138788],["Ho",-8.377006336814244],["State",-8.378366125409286],["leader",-8.379762998853046],["ture",-8.382031664227743],["fund",-8.386881199867098],["ca",-8.387144665464382],["sure",-8.39167900777915],["full",-8.391978335194112],["level",-8.392970618413699],["due",-8.39330002582686],["Ha",-8.39411405032839],["clear",-8.39543868075728],["mar",-8.401820900912004],["record",-8.403891321079817],["deal",-8.40599767267117],["han",-8.4101396727069],["rop",-8.415588550230893],["left",-8.41782533427902],["Dr",-8.418211962976063],["17",-8.418333268930336],["hard",-8.420441127158806],["abilit",-8.425135535329066],["Li",-8.425136817542864],["force",-8.425889272821985],["ger",-8.42635588763231],["etting",-8.426723786401755],["May",-8.427605219150156],["mer",-8.429532132994206],["price",-8.431162654356697],["final",-8.432039646260687],["according",-8.433598827728796],["cut",-8.433782011325363],["body",-8.438683326163652],["share",-8.439322147128141],["ake",-8.440622515238474],["hour",-8.449878270874702],["mil",-8.45008146201689],["working",-8.450087329516144],["Con",-8.45151095881465],["…",-8.45394281598876],["job",-8.458936488395986],["using",-8.461394193789111],["something",-8.462187872157642],["ious",-8.46366012806959],["big",-8.464206795964168],["ied",-8.464701966715984],["tell",-8.468779852953247],["name",-8.469625484878513],["trade",-8.470278573328816],["never",-8.470413064394545],["pay",-8.47457309256908],["hit",-8.474650245550748],["film",-8.476028588374428],["believe",-8.476035900524533],["Monday",-8.477432836914746],["What",-8.477461555085835],["21",-8.479773725147869],["past",-8.483645653643219],["program",-8.483935390958509],["better",-8.484325866195872],["claim",-8.4879150231329],["until",-8.487920890296662],["ric",-8.488410958225545],["Ka",-8.489396654684729],["Di",-8.491834917983478],["media",-8.495426729228495],["ative",-8.501831011891817],["wh",-8.502440688153234],["statement",-8.503249570044552],["j",-8.504892311958088],["vote",-8.506091883324405],["talk",-8.506102836346694],["leas",-8.506145183792905],["qui",-8.506890178949282],["children",-8.50806725736532],["must",-8.510268937892707],["bit",-8.510964473305762],["might",-8.514926121323136],["does",-8.515520163426242],["ism",-8.51634977488941],["South",-8.516753615776128],["x",-8.51693297236885],["No",-8.517836837188373],["didn",-8.518573114591202],["13",-8.519252367559773],["things",-8.52007670651065],["months",-8.522191445022633],["bar",-8.523454544037229],["With",-8.523530284591388],["lie",-8.523811014265],["hospital",-8.531214515033772],["Sh",-8.53124256918614],["X",-8.53136638030906],["increase",-8.53136770272941],["200",-8.536373261427586],["went",-8.540057036101935],["ves",-8.541231835038737],["China",-8.542007469351912],["County",-8.543937058321369],["writ",-8.544462294857846],["free",-8.545218005795194],["five",-8.545317258902726],["process",-8.545355017679846],["question",-8.54676862652213],["alway",-8.547303897811997],["ham",-8.549393890391084],["follow",-8.549454409279186],["hop",-8.550048609065257],["house",-8.552498873018445],["ang",-8.553313664984145],["total",-8.55334812232589],["March",-8.553397869158726],["room",-8.553936418826341],["information",-8.556709788995025],["read",-8.559021464318018],["Whil",-8.559801485077767],[").",-8.562463626618358],["away",-8.56252254852709],["members",-8.56440614974431],["project",-8.565245643403845],["sub",-8.56606036661102],["stay",-8.567199249783236],["Thursday",-8.568119710714956],["fer",-8.5683595797242],["All",-8.569744766153141],["important",-8.571031392859943],["later",-8.57105743117502],["appear",-8.57171544522522],["pen",-8.57222938930352],["direct",-8.573236928551495],["officer",-8.57591808605697],["positive",-8.578250076442604],["trans",-8.578556863851542],["hav",-8.579351622097347],["decision",-8.579705674062607],["become",-8.581518360458016],["25",-8.583152824442587],["&",-8.584085130659549],["ran",-8.584498106006347],["risk",-8.585140216968995],["making",-8.585848561493377],["spread",-8.587473449688863],["Sp",-8.58968738500488],["Pro",-8.590273065410463],["press",-8.590799188405486],["bring",-8.592304250134127],["receive",-8.595025651707221],["Tuesday",-8.598823826590019],["ja",-8.59884103606355],["video",-8.59885955832792],["again",-8.600225018608299],["charge",-8.600341424548246],["met",-8.600825626772481],["Health",-8.601824881927314],["ball",-8.602588095544268],["stock",-8.602618092628795],["water",-8.603494660147332],["Sunday",-8.606317589406487],["reach",-8.607059069902075],["Saturday",-8.60927179874746],["class",-8.609292544428122],["mid",-8.611887276274807],["food",-8.612311242039551],["major",-8.613784527394994],["24",-8.615735285070395],["resident",-8.61610685108613],["former",-8.61807919523925],["women",-8.61844534603564],["hear",-8.619857365625005],["money",-8.621984672826517],["Ne",-8.62444820049559],["Th",-8.62457842263293],["short",-8.624973341519329],["hope",-8.625094170649698],["red",-8.626155922785902],["court",-8.626692552002662],["experience",-8.627681682399594],["interest",-8.631368426038367],["consider",-8.632149401080225],["little",-8.633619314229161],["Car",-8.635782918024747],["require",-8.636713108848305],["small",-8.63729262219087],["staff",-8.63819585678629],["cast",-8.638720201837383],["learn",-8.638869046152235],["together",-8.639873336179868],["future",-8.641297549069687],["creat",-8.643002171958472],["ik",-8.643280929842565],["death",-8.643329657973226],["front",-8.644412019328794],["possible",-8.644656523637572],["pri",-8.645247968863828],["fight",-8.6460409077642],["ard",-8.646425197551146],["concern",-8.647504141572416],["whe",-8.648069200214469],["cu",-8.654093287663537],["lead",-8.654714560769108],["qu",-8.654784688518607],["wide",-8.655834252219421],["protect",-8.657103037136164],["cover",-8.659582163127173],["national",-8.659647538575127],["travel",-8.663250942809974],["One",-8.666991210520422],["18",-8.667885008659473],["list",-8.668014858196681],["Pa",-8.668219757219795],["top",-8.669498911655037],["ier",-8.670290102728444],["ncy",-8.67139654656069],["seem",-8.674475806602391],["ice",-8.674702764602177],["Wednesday",-8.675963005670148],["won",-8.676704029606084],["United",-8.679227862602577],["row",-8.682943154295554],["shares",-8.683273707906878],["position",-8.685568646651177],["field",-8.68725434792293],["visit",-8.68832041952091],["star",-8.690121961186517],["parent",-8.691673206233046],["mask",-8.69216870384156],["several",-8.693320131279744],["rating",-8.694270068888041],["lic",-8.696911464893994],["date",-8.700080369985098],["key",-8.70111850678324],["young",-8.703294758557465],["taking",-8.705405969473246],["six",-8.706140952471255],["cur",-8.706438319995325],["),",-8.707185216683115],["percent",-8.7081510083467],["board",-8.708625003084421],["ley",-8.708628227979926],["times",-8.709510794778398],["ago",-8.711296009632616],["stand",-8.711675632280738],["art",-8.712437350134302],["announced",-8.71329007338294],["uck",-8.716661592146524],["industr",-8.716986276607264],["avail",-8.717077134215963],["Na",-8.720363339800574],["office",-8.725328735673614],["series",-8.728573901894201],["along",-8.730459853733473],["data",-8.730587518195062],["bu",-8.734151056596668],["given",-8.734605848564783],["cost",-8.734633789264564],["buy",-8.734709301734556],["control",-8.737261075849613],["leg",-8.74148638510964],["ban",-8.744040964148327],["political",-8.746608033176816],["officials",-8.747510657270722],["research",-8.74845604280561],["present",-8.748553904960762],["National",-8.749215936907383],["After",-8.749217738724564],["book",-8.750168364909445],["que",-8.752951987210867],["fall",-8.753886640465515],["par",-8.754405223861658],["today",-8.75529457469571],["range",-8.755333558235073],["worker",-8.756395992012479],["view",-8.758211063768911],["weeks",-8.75823473658472],["doesn",-8.760110042582086],["taken",-8.760277935729814],["nough",-8.76199882058068],["ler",-8.762570513061762],["break",-8.762911908898815],["online",-8.766845700809437],["ach",-8.767132193388623],["king",-8.767937932970582],["campaign",-8.768310433961343],["Vi",-8.768650856249547],["igh",-8.769857865369271],["Su",-8.769901449145312],["Bar",-8.770187782353469],["half",-8.770349008925315],["mark",-8.770951286504438],["known",-8.773452476376816],["gar",-8.773533577545816],["Bu",-8.773964765725163],["mis",-8.774450246041066],["period",-8.775378632022523],["watch",-8.7755952550265],["Police",-8.777152385848161],["among",-8.779127242473677],["complete",-8.780701357993358],["mind",-8.785281430172027],["players",-8.785724239814513],["third",-8.787865630115748],["join",-8.788853504369815],["fact",-8.789087019686562],["attack",-8.789654838072742],["kind",-8.791218198327888],["door",-8.791307932297748],["problem",-8.791445584733125],["further",-8.791450468662834],["40",-8.794807884858425],["rest",-8.796909981905513],["phone",-8.797116246169304],["round",-8.798119813679246],["Mc",-8.79952384825078],["Man",-8.803475335750099],["measure",-8.804172992906974],["mov",-8.805599861694988],["York",-8.80598113030068],["party",-8.806490748138437],["strong",-8.80778401783185],["comm",-8.808302690065283],["expected",-8.809102349049166],["effort",-8.809654936632427],["road",-8.809694202536553],["Covid",-8.81147307867396],["involv",-8.81697520201666],["Some",-8.820792574123107],["100",-8.822814075064091],["gu",-8.825113987697799],["impact",-8.826605736930809],["Biden",-8.828170500078492],["limit",-8.828433482224346],["yet",-8.82916638666255],["step",-8.829241227884857],["arm",-8.829844204373508],["deliver",-8.831863996057685],["House",-8.83471562274715],["Nov",-8.835652804217528],["role",-8.837313015281332],["elect",-8.837544452860616],["region",-8.837665786382447],["spec",-8.837702255809834],["main",-8.838376898690033],["ground",-8.839330430586239],["gre",-8.841821284425675],["reason",-8.84184162960631],["mission",-8.842395376301038],["City",-8.84515092979853],["certain",-8.848834109650554],["Gu",-8.84896039040076],["stead",-8.850855352709662],["fee",-8.851168122128596],["news",-8.853399718825399],["lay",-8.853518401076391],["safe",-8.855187442305287],["econom",-8.856804589589876],["shot",-8.857747958348689],["following",-8.858610440485453],["relat",-8.859395508818466],["mate",-8.859896735861845],["spoke",-8.862342498853177],["lockdown",-8.86272157769844],["grow",-8.86293519902545],["North",-8.864575193749538],["raise",-8.864864704781324],["Black",-8.865305064064357],["firm",-8.866168571788005],["product",-8.866556860637068],["space",-8.867828778261046],["situation",-8.868127291217947],["economic",-8.871836675677624],["operat",-8.872222057775552],["Com",-8.874194053007873],["billion",-8.874936322136582],["ze",-8.877009877459386],["log",-8.877818327949134],["ax",-8.878152838002315],["lan",-8.879867475791446],["course",-8.879920742914614],["confirmed",-8.881829344072006],["meeting",-8.883204624838804],["security",-8.8857647902114],["ix",-8.885969742898627],["actual",-8.887493853976624],["focus",-8.88775274962466],["spite",-8.888094758885561],["expect",-8.888291966848989],["miss",-8.88866680839482],["develop",-8.889740912696652],["previous",-8.891717424876987],["cat",-8.89179039930126],["nation",-8.892367547748439],["held",-8.893162981332953],["friend",-8.893437025318065],["rid",-8.893555373775293],["Universit",-8.893708152483683],["design",-8.896434821396792],["vision",-8.897232702872683],["story",-8.898558213852095],["famili",-8.899848545912976],["West",-8.902588195947933],["done",-8.90471697969149],["wait",-8.904867189368874],["rap",-8.90568416187299],["opportunit",-8.905744367324672],["official",-8.90766319746599],["human",-8.90866067502898],["woman",-8.909397451541036],["town",-8.911264461494724],["die",-8.913642328475966],["60",-8.914059285583637],["challenge",-8.91412804295269],["Qu",-8.91435836361763],["thought",-8.91454718841192],["Apri",-8.916877001051109],["ttle",-8.919740226334632],["Minister",-8.919975118660414],["access",-8.919977018634219],["wear",-8.922011131517152],["protest",-8.922050277975092],["distanc",-8.922218375680611],["fans",-8.923420061948235],["potential",-8.924074806331202],["matter",-8.92429643727716],["June",-8.924567266623814],["According",-8.926132412270684],["race",-8.9272640156215],["companies",-8.93011100606298],["lam",-8.930631114950542],["Nigeria",-8.932331053584342],["outside",-8.934074622931416],["contact",-8.934445061789841],["music",-8.934990725057776],["forward",-8.936804668775572],["moment",-8.936908472010943],["goal",-8.9371774128668],["once",-8.937727990919324],["bank",-8.938077350235794],["India",-8.938228403807159],["Hu",-8.93845250859026],["oil",-8.938514704306687],["store",-8.941978779720904],["walk",-8.943139911562595],["understand",-8.94550645283729],["member",-8.946367465495037],["22",-8.94719396000821],["rule",-8.948013642190011],["Or",-8.948334638912495],["gue",-8.948948620581255],["fair",-8.949054764003206],["worth",-8.951261759240783],["quick",-8.952331386922115],["patients",-8.952689695646768],["Q",-8.9527451655039],["tax",-8.953792453968731],["building",-8.955479342712254],["Ex",-8.955966462462651],["pped",-8.957499932147869],["stop",-8.958877533464364],["minute",-8.959650847073275],["average",-8.961836245702152],["lab",-8.963011406329471],["Dec",-8.966164647070801],["create",-8.970051207784003],["pick",-8.97261118872471],["comment",-8.973073597370464],["Jo",-8.973308971488606],["operation",-8.974434888814542],["bra",-8.978860855746941],["personal",-8.978925757715919],["My",-8.986602442108016],["saying",-8.988693826899041],["launch",-8.992120768629867],["cra",-8.992943883118974],["response",-8.99652408128589],["dollar",-8.996525162489775],["account",-8.996848793967189],["ox",-8.997877591303878],["facilit",-8.998557695383674],["roll",-8.999194636625841],["ual",-9.00068259197479],["collect",-9.000964219035831],["condition",-9.007636843792822],["financial",-9.009872271709012],["medical",-9.010172861097589],["Du",-9.011065481565858],["word",-9.013534161837784],["liv",-9.013656587313099],["represent",-9.013688245962877],["deaths",-9.013790777418997],["Her",-9.013849090046968],["individual",-9.014361610212916],["morning",-9.014385332334292],["2018",-9.01581099414452],["behind",-9.016649681467893],["director",-9.017920763036201],["23",-9.018496062931696],["drive",-9.020672189300358],["target",-9.021290432810822],["demand",-9.021379904962174],["countries",-9.021424820300853],["host",-9.022767553804801],["Sept",-9.023472016050889],["source",-9.024240474316056],["ble",-9.024268296623966],["character",-9.02567410404062],["speak",-9.02571794646467],["value",-9.026270695389663],["War",-9.027070060898108],["crisis",-9.027972889365799],["address",-9.028345968010122],["San",-9.029578825996662],["match",-9.033933465313854],["His",-9.034181951621658],["Fr",-9.034285504568217],["Department",-9.034818841014049],["rote",-9.03653465404302],["entire",-9.0397220483717],["kid",-9.04011023540256],["John",-9.041168978600146],["couple",-9.04176229718043],["movie",-9.04385791119082],["option",-9.044207997324172],["development",-9.046349229078807],["Ke",-9.047296671493221],["partner",-9.052502376778508],["assist",-9.055872845961808],["park",-9.055918905298235],["feature",-9.05805163322789],["additional",-9.058590405210412],["lost",-9.061147963271077],["unning",-9.061368279876799],["anti",-9.061907531373734],["ugh",-9.062498190184154],["global",-9.06275830924594],["east",-9.064887700303641],["loss",-9.064951604153265],["history",-9.065119003388777],["arrest",-9.066945370908797],["lower",-9.06782295558353],["attend",-9.074311698206014],["general",-9.07483575681099],["employee",-9.074888783345248],["rian",-9.076768244461896],["stitution",-9.077027237614377],["tel",-9.077579908807557],["check",-9.07880840252342],["Mu",-9.079645070677673],["eight",-9.080854198166616],["imp",-9.082489934867791],["leave",-9.083350337825836],["contract",-9.084296275650292],["val",-9.084309833688405],["enter",-9.086299471744374],["bus",-9.08728745963191],["recover",-9.087405777967193],["bad",-9.087439197404422],["TV",-9.093166121604488],["pose",-9.097573598182557],["customer",-9.101271614765027],["America",-9.102385821130067],["rise",-9.103769006896353],["aily",-9.10546732121788],["70",-9.106040242155473],["benefit",-9.106191047882817],["suggest",-9.108660313248443],["uff",-9.10930124919668],["Har",-9.11026043269476],["vaccine",-9.111135134930795],["ju",-9.112543405110934],["site",-9.113041798649045],["super",-9.114950009357905],["vehicle",-9.116104191462401],["Australia",-9.118597888524018],["explain",-9.118597976188427],["Now",-9.121214518481386],["Brit",-9.121984291153135],["respond",-9.123606563778589],["jo",-9.127612084661077],["saw",-9.130662732501943],["idea",-9.131000716271576],["federal",-9.131224738416755],["often",-9.13142687448261],["child",-9.13366568733925],["girl",-9.133713426764778],["80",-9.136099359238235],["Democrat",-9.136203506969046],["pic",-9.138310173683047],["authorit",-9.138861600210735],["ili",-9.140056639631105],["ries",-9.142179431379567],["candidate",-9.143885407097386],["outbreak",-9.144191271297448],["lig",-9.144816265915214],["prepar",-9.145424814122114],["single",-9.147525159801766],["safet",-9.148005170600522],["26",-9.150284811129474],["compar",-9.151126738575243],["coach",-9.151547754054668],["heart",-9.153246436157797],["ung",-9.154225940567132],["scene",-9.154856702699632],["ensure",-9.155740407681048],["injur",-9.160086938203793],["Ben",-9.160927097727768],["significant",-9.161971973033651],["East",-9.162618798310277],["mother",-9.163792643774686],["else",-9.16678049804534],["respect",-9.167319378024747],["black",-9.170961193200048],["ants",-9.172317928876799],["echnology",-9.1724570828905],["Janu",-9.172597798792456],["cul",-9.175215525755448],["anagement",-9.175258452604288],["basi",-9.175398436713962],["Col",-9.17681589125081],["deep",-9.180801578944799],["Center",-9.181590160895873],["28",-9.183681667722635],["earlie",-9.187562957111968],["particular",-9.188393584445986],["track",-9.190045614195022],["affect",-9.191075004650767],["celebrat",-9.19107568528625],["produce",-9.19111149918663],["dead",-9.192919733178012],["education",-9.196460602158758],["spend",-9.19680854962629],["serious",-9.196991427758242],["agree",-9.197945412266897],["Tra",-9.199082013857813],["difficult",-9.199160830459927],["activit",-9.199182736546522],["clu",-9.200114859920497],["Wil",-9.20025197415597],["someone",-9.200479472851725],["Our",-9.20151975651735],["stage",-9.201678209708456],["emergenc",-9.202654748302939],["UK",-9.204151927015232],["disease",-9.20470482853159],["minister",-9.204908989726544],["fast",-9.205348015078052],["push",-9.20571252617789],["score",-9.206335110966046],["soon",-9.206614172200855],["nel",-9.206661046061887],["fine",-9.2076562867158],["rain",-9.209280789687245],["ither",-9.209529591064243],["file",-9.210283234554863],["international",-9.21049603519096],["meet",-9.211864224233032],["normal",-9.212828640162835],["infection",-9.214377621183857],["27",-9.214429106073183],["club",-9.214715110880334],["NA",-9.214719862528128],["World",-9.215537590962143],["lock",-9.21688160981275],["rank",-9.220511176787877],["plann",-9.221610956033384],["exist",-9.222292832849396],["gain",-9.223532980215516],["pain",-9.223607959059368],["private",-9.22381989468395],["Part",-9.225003907902558],["rick",-9.226047425251355],["senior",-9.226602043377694],["chief",-9.226607303737827],["chance",-9.226890378919547],["environment",-9.229382892411776],["reduce",-9.229406911691585],["Un",-9.230048243031675],["warn",-9.231175132392568],["executive",-9.232176217091196],["ker",-9.233045050669363],["Day",-9.234294965336968],["father",-9.235102807761933],["toward",-9.237444508852818],["August",-9.237786694302049],["immediate",-9.237787286167604],["Air",-9.238598976234446],["tory",-9.239883773013883],["Court",-9.241890099107213],["Gra",-9.24268755804183],["figure",-9.243428399087579],["owner",-9.243832196947324],["model",-9.245458405444023],["poll",-9.24571303556747],["whole",-9.246171398387766],["Office",-9.246264061642226],["interview",-9.24668148308632],["nothing",-9.247588829806892],["train",-9.247645554749571],["90",-9.249001138822976],["White",-9.249160558349104],["fail",-9.252132808961491],["Even",-9.252193235997181],["career",-9.253036811907307],["infect",-9.2531538009575],["approach",-9.254808288802973],["bigge",-9.254977778587012],["gav",-9.256621837053837],["solution",-9.25767337758289],["effect",-9.259684672068968],["treat",-9.260844016602922],["usual",-9.261258790702968],["search",-9.262389414506465],["Donald",-9.263438677234376],["wors",-9.2651124483624],["voter",-9.265495083621353],["study",-9.269222732280507],["screen",-9.269228094261923],["performance",-9.269775257158253],["review",-9.27142306681247],["restriction",-9.272129502283377],["sector",-9.272138993781724],["rig",-9.27234082662959],["Lu",-9.275076659683329],["improve",-9.27577278055714],["High",-9.276885249791464],["amount",-9.280326976595752],["boy",-9.28049347222034],["harm",-9.280810198871189],["School",-9.280896984181748],["player",-9.283436524231465],["29",-9.284067966069262],["Octo",-9.287995858201462],["zz",-9.289477346549836],["Dur",-9.28961568690633],["schedule",-9.289751700187287],["incident",-9.292713531856599],["People",-9.29568960267706],["qualit",-9.298683638179874],["message",-9.298711310499504],["attempt",-9.298719271013297],["fill",-9.301598579176957],["Republican",-9.301683965188372],["gun",-9.30457166790331],["lip",-9.304625763059384],["district",-9.304761977122071],["stream",-9.304772761812885],["investigation",-9.305950525685626],["block",-9.306814086349544],["white",-9.308195968729564],["Not",-9.308979247589182],["seek",-9.310799064754278],["touch",-9.311942411853384],["manage",-9.313463094017923],["depend",-9.313783686600603],["box",-9.314122469757734],["31",-9.315941982538],["prevent",-9.317303225051708],["growth",-9.318784992770976],["extra",-9.320072448448837],["song",-9.320169256950033],["Ken",-9.321727939412456],["Chief",-9.322885017640587],["detail",-9.32290435906493],["expert",-9.322999051838735],["35",-9.325662974609976],["conduct",-9.325949328313328],["shoot",-9.325956575406778],["suit",-9.326302326432524],["victim",-9.329026912277277],["decade",-9.329027849436654],["practice",-9.332112901079917],["Park",-9.332347027422038],["Government",-9.335208522786825],["essential",-9.335209033455465],["ible",-9.336798107836636],["Senat",-9.337217466729989],["department",-9.338316363749435],["draw",-9.338405895856617],["rail",-9.339205839167445],["propert",-9.34041740100004],["foot",-9.341331468729518],["relationship",-9.341430296811653],["Of",-9.34242773408588],["emi",-9.342436322417182],["mental",-9.343724205890137],["production",-9.344249023614982],["begin",-9.344373932916389],["similar",-9.344556008859675],["drug",-9.345101625762709],["happ",-9.345201710134337],["training",-9.347501265277664],["Febr",-9.347951520185571],["wife",-9.351668293194342],["yard",-9.352448246033223],["paper",-9.35250965633767],["500",-9.353030443985269],["quarantine",-9.353988232180518],["fac",-9.357060432599223],["example",-9.35715649578821],["active",-9.359372977932214],["location",-9.36471828990535],["provid",-9.36738151868479],["oul",-9.367683580961595],["capital",-9.369999524551414],["photo",-9.370004800599355],["Commission",-9.370153896501517],["extend",-9.370252695049542],["weekend",-9.3711746175384],["build",-9.371913686015464],["popular",-9.37312812562465],["Just",-9.37419313730678],["Many",-9.374311434988279],["trip",-9.374890960223674],["ease",-9.375204105135193],["lack",-9.375801754516095],["necessar",-9.376353812022373],["guy",-9.37635866187041],["hood",-9.37646813434844],["compet",-9.376878849042729],["organization",-9.377033292521926],["shut",-9.378632270764694],["title",-9.378795372483278],["effective",-9.380561680823835],["continu",-9.381237953118994],["lib",-9.382324575263295],["daughter",-9.382934550946494],["sense",-9.383200389921408],["perform",-9.385253226289384],["reopen",-9.385329780025218],["purchase",-9.386099045136607],["easi",-9.389239702222161],["policy",-9.389299393527878],["suspect",-9.389367022203269],["aging",-9.389634517951055],["driver",-9.389676466892489],["platform",-9.392642155840981],["regard",-9.392814191661554],["football",-9.39284416492162],["update",-9.393417551517096],["militar",-9.39360210457422],["rough",-9.394911116865227],["legal",-9.395470143596043],["motion",-9.39556860425186],["strateg",-9.399250780976299],["California",-9.402541401509227],["administration",-9.402541904126963],["request",-9.402557828356716],["enjoy",-9.405866099772435],["Bank",-9.406410211576175],["bul",-9.407301117037672],["hot",-9.41160234708823],["regular",-9.41254169188872],["express",-9.414227525201294],["citizen",-9.415898359318447],["earning",-9.41678986290118],["summer",-9.419445150268567],["letter",-9.422323846332045],["resource",-9.422773114498657],["mini",-9.424305529820838],["doctor",-9.426038470441123],["treatment",-9.42716030824235],["cross",-9.429777577165776],["revenue",-9.429934411581874],["contain",-9.432966674104021],["actor",-9.433551006959021],["crime",-9.436282814642656],["Street",-9.436283223925429],["Service",-9.436285904599046],["estimate",-9.436296850491418],["violen",-9.436460492746495],["Act",-9.436987964450267],["vice",-9.437002541898798],["Sea",-9.43812372166363],["fear",-9.43902298454142],["accept",-9.439708016646614],["bill",-9.44066385502186],["decided",-9.443156200567264],["population",-9.443156779198906],["energ",-9.44372315968695],["pol",-9.444395531967292],["hair",-9.445892278130879],["accus",-9.44667593463753],["brough",-9.449672198776247],["brand",-9.449867526937643],["alleged",-9.450216912255907],["themsel",-9.450778803319249],["struggl",-9.453574161971163],["ization",-9.455289004150789],["receiv",-9.455613556065224],["document",-9.45706972224998],["David",-9.457076174133228],["above",-9.457090480548738],["thank",-9.457232201312749],["finish",-9.457402426299662],["clean",-9.45758278685863],["Indian",-9.457719889546624],["Chine",-9.458696211706133],["quite",-9.459947872083381],["street",-9.460604484594837],["felt",-9.460679964718253],["link",-9.462340873778512],["aught",-9.464450463793554],["suffer",-9.464588954947033],["station",-9.467555533405008],["Congress",-9.467634972113842],["giving",-9.467786207927608],["probabl",-9.467824742652859],["original",-9.471184923769716],["thousand",-9.471261088922143],["gate",-9.471847426537572],["describe",-9.474737667029832],["huge",-9.475476111929787],["Africa",-9.476730627598599],["maintain",-9.478341447942821],["cancel",-9.478379823790394],["primar",-9.479420696001625],["answer",-9.479602182052961],["ken",-9.480951919146902],["Russia",-9.481907643466123],["piece",-9.48190788036505],["Chris",-9.48219640886487],["dog",-9.484781947997476],["More",-9.487131545059462],["argu",-9.488036803098609],["indicat",-9.489749544986388],["hang",-9.490220552336893],["Washington",-9.492723698822152],["occ",-9.493780588338666],["â",-9.496360062091135],["Every",-9.49843640837187],["Super",-9.498704216883958],["various",-9.500199301519617],["conference",-9.503673950776566],["damage",-9.503853826747585],["ballot",-9.50427226252894],["connect",-9.505691972166684],["restaurant",-9.507349267523924],["success",-9.510566324937269],["General",-9.51103990381618],["Star",-9.511466750126566],["save",-9.512772600037227],["trust",-9.512997184851775],["prett",-9.51637760634366],["Sen",-9.51713351370925],["Israel",-9.518460524603377],["website",-9.51847721896286],["tradition",-9.518486963193862],["Council",-9.522191928075053],["ville",-9.522940858725125],["teacher",-9.523543507488858],["Mil",-9.523750126170235],["avoid",-9.525957910213119],["broke",-9.525967905478982],["picture",-9.526309261270645],["Pri",-9.52907782779177],["symptom",-9.529696473491445],["episode",-9.529696493141046],["rush",-9.529947974251819],["center",-9.532006827233559],["Facebook",-9.533470149481882],["ought",-9.535791200478844],["arrive",-9.537390120186693],["pull",-9.538246134501268],["annual",-9.541161426595375],["crowd",-9.541234049141952],["factor",-9.543032617290852],["cycl",-9.546523897519311],["employ",-9.547349339399402],["Phil",-9.547994704696295],["easy",-9.551774669752211],["virtual",-9.552554800649807],["battle",-9.552839803900817],["Sinc",-9.554240600270239],["evidence",-9.556417015246506],["prove",-9.558006870990841],["session",-9.560420688191204],["content",-9.560778921829375],["type",-9.561262207007346],["stress",-9.561589409352282],["specific",-9.561980424136017],["investigat",-9.56253268184925],["publish",-9.564182583095594],["William",-9.564182735843005],["material",-9.564191364322362],["artist",-9.566171997351908],["capacit",-9.566471653480857],["chair",-9.568344890004123],["investment",-9.568715569786983],["distribut",-9.569358318317525],["ensu",-9.569682288013343],["establish",-9.572010400163292],["physical",-9.57201044559897],["ility",-9.575427748966092],["£",-9.575947404598326],["flu",-9.576506403021199],["husband",-9.579904302552372],["Green",-9.584001917974167],["promise",-9.584427575477395],["payment",-9.586781629234316],["recommend",-9.587863395042518],["addition",-9.59100470116216],["choice",-9.591897413423457],["carry",-9.592244073327347],["losing",-9.592698676767743],["graph",-9.593022526949984],["memor",-9.593741681041537],["professional",-9.595868355773085],["Group",-9.595871406091769],["perfect",-9.59587469814516],["League",-9.595891483980353],["threat",-9.59619314776063],["load",-9.59635707601148],["lift",-9.598288051995866],["venue",-9.599415428611056],["cash",-9.601590300391184],["version",-9.60319610176093],["Twitter",-9.603949560697295],["grade",-9.606570231411633],["natural",-9.608032696203681],["peace",-9.60807320163116],["introduc",-9.612095872839744],["council",-9.612097547658816],["implement",-9.612098689688242],["Canad",-9.612320381562142],["Johnson",-9.613142208254708],["path",-9.615460912779625],["Public",-9.616194305403358],["credit",-9.616372393943863],["standard",-9.616714609537713],["prison",-9.618017798606973],["German",-9.618607141479023],["guid",-9.620460967449958],["progress",-9.624447059481216],["gri",-9.628087384979429],["secret",-9.628599495354784],["league",-9.632854010203562],["pressure",-9.633063294106044],["initial",-9.633948711779038],["attenti",-9.634608481701392],["grant",-9.63539995880048],["Japan",-9.637077645183311],["agreement",-9.638417837017785],["justice",-9.639450975502324],["discuss",-9.639488258862643],["wrong",-9.64115067035467],["rob",-9.64191827926524],["confiden",-9.645364879465685],["supply",-9.645428747099963],["item",-9.645935247376453],["poor",-9.646619009420608],["appeal",-9.64992282233732],["winning",-9.650187195768645],["lian",-9.650721646189307],["tribute",-9.650993011770163],["throw",-9.651010201267322],["wood",-9.65367251500869],["aware",-9.653740330591614],["speed",-9.655479361128975],["statu",-9.655919841964469],["judge",-9.658146087755368],["fresh",-9.658445951523756],["pack",-9.658705392533642],["grand",-9.66011097796014],["network",-9.662518397808794],["buil",-9.664791858148373],["truck",-9.664867622899497],["born",-9.66541224140602],["mir",-9.666028840951721],["critic",-9.666168678510747],["analyst",-9.666752857946243],["voice",-9.668065192162935],["From",-9.668476600209907],["budget",-9.67109462089519],["wonder",-9.67132919491335],["intend",-9.67413405732908],["lash",-9.67466505577988],["engage",-9.67541577749189],["tweet",-9.675653099253353],["profit",-9.675710365315702],["notice",-9.676203475659415],["kept",-9.676910532788897],["Hospital",-9.67977490117075],["civil",-9.680170343277226],["style",-9.68049537986345],["camera",-9.68549945067696],["Last",-9.691655630385986],["participat",-9.692991034188857],["Lake",-9.69392278459239],["loan",-9.696540214479693],["ette",-9.697392610384131],["increasing",-9.69743548462143],["application",-9.697441996331037],["surprise",-9.697442726873252],["digital",-9.697472918668435],["guard",-9.697963047377925],["reci",-9.699745470064222],["Over",-9.700012841451397],["Michael",-9.701899632058144],["college",-9.701900103641997],["defend",-9.701936959155855],["successful",-9.702472310913741],["brother",-9.702616455894777],["Union",-9.704799525449605],["Road",-9.705012896956653],["rom",-9.707271623517297],["hundred",-9.710888953230906],["determine",-9.710897917219503],["London",-9.710999558482992],["knowledge",-9.715416492738244],["International",-9.715416621664094],["text",-9.715456792975896],["delay",-9.716170737302967],["Port",-9.717632219987076],["pop",-9.717751701139342],["climate",-9.719959432146592],["surance",-9.725468392923606],["Texa",-9.726683300742254],["Paul",-9.727507551554186],["foreign",-9.729112754679932],["Scott",-9.729131564623774],["locat",-9.729957940283189],["erry",-9.73047885306967],["north",-9.732445212812248],["Director",-9.73372065643553],["George",-9.73372306514872],["http",-9.73382625030167],["James",-9.734055141297475],["movement",-9.738000369802322],["universit",-9.738351497239771],["Smith",-9.738360594717307],["error",-9.738659525743989],["register",-9.743003944987729],["multiple",-9.7476826864135],["Communi",-9.747729370686745],["lose",-9.747778360963473],["shift",-9.74779419822951],["Prime",-9.74896466829167],["storie",-9.751479380186593],["England",-9.752372248974837],["bol",-9.754044066360278],["rib",-9.755089962768556],["ratio",-9.75742906872475],["victor",-9.75781030952084],["equipment",-9.761825690408603],["ministr",-9.768157937717916],["Mont",-9.770906807223561],["neighbor",-9.77137188671375],["extreme",-9.77137297984289],["sexual",-9.771566864745978],["strict",-9.77268227916807],["demo",-9.774032905459713],["ification",-9.774567348268974],["haps",-9.77930207520443],["author",-9.780858318265917],["leav",-9.7809871752853],["governor",-9.781013752425944],["guideline",-9.78102214201995],["transport",-9.78221803410826],["exact",-9.784490921854623],["First",-9.78586705315385],["decline",-9.785878251315204],["culture",-9.7863899851936],["expand",-9.787010949233448],["Elect",-9.789298659872909],["definite",-9.790742941329047],["engine",-9.79074629942772],["Ministr",-9.790902059251582],["Most",-9.7916833289399],["double",-9.79564607656275],["champion",-9.795655762788126],["advise",-9.79601812624129],["é",-9.80057097336508],["Florida",-9.800570985683546],["monitor",-9.80059885725121],["brief",-9.800658996431014],["Two",-9.801463028823486],["defense",-9.805521472644557],["blood",-9.805522459562514],["achieve",-9.805587303387748],["beginning",-9.805699785759238],["discover",-9.806013389912453],["talent",-9.806659498570951],["eventual",-9.806944571319569],["carrie",-9.808984474079221],["conversation",-9.810497250393162],["negative",-9.815498805734578],["novel",-9.815548529118288],["murder",-9.820533186913371],["approve",-9.820763345296093],["employment",-9.821771756555194],["Minnesota",-9.825572223563064],["generation",-9.825606210883691],["observ",-9.827312775859621],["mode",-9.829456447049822],["Europe",-9.83063896350609],["criminal",-9.830648420672755],["strength",-9.830650035651805],["witness",-9.830719608517132],["priorit",-9.831281696265137],["patient",-9.832061713960858],["bri",-9.833133768662258],["mph",-9.839950010664717],["emerg",-9.840158597430948],["difference",-9.840878642922736],["debate",-9.840890197451868],["expens",-9.84105131086138],["Robert",-9.841142190981092],["acquir",-9.846066214928097],["Justice",-9.846362754622984],["animal",-9.846374093929658],["church",-9.85137839374175],["purpose",-9.851419207952215],["District",-9.851453756773346],["rival",-9.851538417863871],["divers",-9.853200068104158],["passenger",-9.856423171586961],["subject",-9.856423277009704],["doubt",-9.856423641919637],["advance",-9.856432792487215],["inspir",-9.856479208503817],["retail",-9.856989571421831],["yester",-9.858377199226993],["winner",-9.858443360307207],["committ",-9.86158496376311],["manufactur",-9.866921704200212],["object",-9.86692312362371],["hotel",-9.867204044203401],["pray",-9.867243558655732],["Asia",-9.868130866028203],["wild",-9.87224804251425],["device",-9.872713827550832],["listen",-9.873527320776061],["scale",-9.875861256128474],["traffic",-9.877532389481612],["color",-9.878094282566346],["burn",-9.878941631701501],["favorite",-9.882954455882988],["welcome",-9.883083285091736],["€",-9.888255091757205],["consumer",-9.888273853699914],["predict",-9.888287928220528],["commercial",-9.893661219601679],["holiday",-9.893661223170138],["Christmas",-9.89366148832925],["obvious",-9.893661705251453],["Central",-9.893662840168094],["BTC",-9.893915651540146],["spring",-9.894392683862472],["driv",-9.89686290666673],["birth",-9.899108460977512],["loud",-9.899185343988925],["closure",-9.904561936203706],["Prince",-9.904580400949756],["article",-9.905221735828972],["Board",-9.905878019307377],["afford",-9.905899491322591],["except",-9.910065593814352],["reflect",-9.910066887922131],["balance",-9.910273095862447],["threaten",-9.910298218165353],["craft",-9.9103466093358],["crew",-9.911005206584772],["Association",-9.915579819822252],["competition",-9.915601407714822],["solid",-9.915657364859694],["Carolina",-9.921135500962151],["straight",-9.921141782978712],["tagram",-9.921160185444435],["unique",-9.921187439313275],["committee",-9.921568869220106],["strike",-9.922087769105364],["volunteer",-9.926721967474634],["declare",-9.926722881784048],["explor",-9.926725332560771],["degree",-9.926743329866657],["River",-9.927008189663013],["Why",-9.92744012323196],["absolute",-9.932339944760926],["society",-9.932339946784246],["incredibl",-9.93234108297578],["supplie",-9.932345281701458],["central",-9.932653959027766],["Governor",-9.937991215053493],["script",-9.937992335782528],["prosecut",-9.937994214472106],["Korea",-9.938668230592379],["flat",-9.940378774210746],["afternoon",-9.943687113847583],["retire",-9.943849097802168],["electric",-9.94451481454323],["hurt",-9.945679548954747],["equit",-9.94614162988448],["Secretar",-9.949385801689537],["temporar",-9.949540144091973],["Mike",-9.949742030880323],["simple",-9.949894260539313],["Thank",-9.955195508367407],["drama",-9.955249135735214],["middle",-9.96101450427867],["transfer",-9.961761385807025],["dream",-9.962718304143623],["reveal",-9.965435558820607],["Committee",-9.966727193543617],["spirit",-9.966732355992422],["boost",-9.96676112995679],["NFL",-9.966785793147903],["lawyer",-9.967511478169158],["audience",-9.972575245157294],["sleep",-9.97319656385562],["politic",-9.975332063609407],["residenc",-9.975700193902224],["advantage",-9.978457520808828],["identifie",-9.978457614655301],["Chicago",-9.978459265025549],["client",-9.97846594975726],["CEO",-9.978621796323672],["jump",-9.97867953656007],["appli",-9.978843314338896],["green",-9.979381184480449],["debt",-9.98498372027657],["Tri",-9.98623367167531],["oppos",-9.991805136156053],["Democrati",-9.996378961525163],["Compan",-9.997388699489328],["responsibilit",-10.002339159987795],["survive",-10.002343914890332],["crash",-10.003734472920598],["storm",-10.004212767782295],["produc",-10.007713632027091],["responsibl",-10.008399863007309],["domestic",-10.008399895517508],["nforcement",-10.008868030890053],["equal",-10.012350880844593],["defeat",-10.01449998533104],["multi",-10.014596220787016],["immun",-10.014709387965127],["historic",-10.014899411181435],["please",-10.017370874152743],["€™",-10.020633085528997],["caution",-10.020645550298283],["dark",-10.022115139843198],["refuse",-10.027270717621949],["pool",-10.033161886289548],["handle",-10.034101487264078],["+",-10.039266315974398],["associate",-10.039266319767695],["separate",-10.039273091205718],["College",-10.039276030002847],["function",-10.03930530373345],["adult",-10.03941018853683],["collaborat",-10.045555673632933],["floor",-10.045579728349981],["weapon",-10.04564105151115],["print",-10.04610723309797],["mount",-10.047621051055152],["basket",-10.051901752039196],["secure",-10.053367016959228],["recogni",-10.057853366805759],["vulnerabl",-10.064664685215368],["categor",-10.064668213752284],["structure",-10.071116506554556],["influence",-10.07762108504204],["bridge",-10.07762612301962],["Canadian",-10.077678863364444],["integr",-10.077961013161008],["cloth",-10.083938225356773],["approximate",-10.084145488353776],["temperature",-10.084145514044216],["ultimate",-10.084145836913969],["language",-10.084146080096408],["freedom",-10.084150099435089],["survey",-10.08416990184724],["science",-10.084171894109227],["corner",-10.08435145268545],["suspend",-10.08457620542244],["Work",-10.084824730063504],["serving",-10.09055402289118],["mobile",-10.090724527959079],["exercise",-10.090724550525959],["Amazon",-10.090725041407453],["flood",-10.09072534040592],["Victoria",-10.09072642406548],["Securit",-10.090740278415918],["correct",-10.09082397729859],["resume",-10.090889229609694],["upreme",-10.091263696237187],["Earl",-10.093473013227324],["flag",-10.0948240189098],["speech",-10.097360653611528],["heavy",-10.097375648095074],["relief",-10.097419325626031],["recognize",-10.097764116073503],["orthern",-10.101253735901471],["Premier",-10.104014068422503],["independent",-10.104046142668912],["machine",-10.104056862085882],["comfortabl",-10.104076304553255],["repeat",-10.10409292036801],["attract",-10.106538201148513],["ticket",-10.110847307267278],["Under",-10.110891858831442],["Centre",-10.111066772346938],["violat",-10.11197561599761],["deploy",-10.117481825630934],["typical",-10.117516611916358],["Mexic",-10.117606255104123],["graduate",-10.124284838644702],["window",-10.124287538371906],["studie",-10.124322736929441],["journey",-10.131133840197002],["Harris",-10.131321610079043],["clinic",-10.131593959951402],["album",-10.131608398275649],["partie",-10.131740421766851],["beautiful",-10.138030382228497],["dangerous",-10.138041173830825],["allegation",-10.138058672225501],["scientist",-10.144974826852856],["alternative",-10.144974965450857],["remote",-10.144977796045033],["choose",-10.144980073271551],["isolation",-10.145004815483048],["breath",-10.145337424849307],["accident",-10.151967827964333],["infrastructure",-10.159010090491538],["French",-10.159013160097775],["negotiat",-10.159014928949578],["Googl",-10.159174873701671],["Coronavirus",-10.16610230993131],["female",-10.166103387170235],["assault",-10.166103390264201],["Federal",-10.166113160346946],["village",-10.16613061896955],["drink",-10.16645247170561],["conflict",-10.173245424084044],["anticipat",-10.173245615501052],["temp",-10.174653150879587],["organiz",-10.17903818126108],["appropriate",-10.180439378528888],["attorney",-10.18043943841415],["Blue",-10.18045786899458],["entertain",-10.18046767512525],["opinion",-10.180484728103291],["announc",-10.18154488641021],["Though",-10.181645305212967],["complex",-10.187686150035216],["announcement",-10.187705083267794],["supposed",-10.194990645638713],["amazing",-10.19503327013375],["modern",-10.195078392388021],["LLC",-10.195098230869537],["fuel",-10.19542421254678],["motor",-10.195481146135949],["sembl",-10.195632032076851],["sustain",-10.198110636385163],["dozen",-10.20234438588283],["ceremon",-10.202345158992346],["adapt",-10.202388167414679],["corporate",-10.209745407809727],["excited",-10.209753018251652],["Andrew",-10.209869549263075],["frame",-10.217319189134095],["giant",-10.217444834633593],["journalist",-10.224726857922857],["Business",-10.224728183813212],["initiative",-10.224731764233479],["detect",-10.224818484157437],["Right",-10.224827198628125],["ological",-10.224860953916709],["worrie",-10.224875818078747],["possibilit",-10.232302616851214],["transition",-10.232368543292004],["crore",-10.232438544203461],["shape",-10.234472226951308],["Capital",-10.239936590471281],["promote",-10.239948085829832],["consult",-10.239957474599045],["consistent",-10.24762895559387],["Disney",-10.247629875548924],["politician",-10.247685664995917],["Georgia",-10.255380456176479],["circumstance",-10.263192949297634],["Thomas",-10.263193557889352],["constant",-10.263196357034285],["Valley",-10.263214621556305],["married",-10.263217386506545],["Church",-10.263225432421628],["reference",-10.263247930772565],["Region",-10.263302378631026],["faith",-10.263302408609123],["destroy",-10.27106718566092],["proposal",-10.27106729277496],["migrant",-10.27122084354422],["corrupt",-10.279005217424142],["commitment",-10.279029676778645],["Jeff",-10.279049302308032],["Wood",-10.279131933794087],["Virginia",-10.287003473000457],["disappoint",-10.287003791710834],["tournament",-10.287003891184554],["Christian",-10.287005266896358],["fellow",-10.287009901047778],["famous",-10.287037093082716],["Daniel",-10.29506964740577],["sumption",-10.29507111223781],["internet",-10.295092739079802],["occurr",-10.295299013942195],["occasion",-10.303205503266756],["venture",-10.303498970631125],["challeng",-10.310269947909129],["Follow",-10.311396318901718],["method",-10.319668814920956],["ollywood",-10.319677065196313],["Institute",-10.327992590157994],["professor",-10.32799261466266],["admitted",-10.327992797390799],["approval",-10.327993006726182],["protocol",-10.327994284743948],["stretch",-10.328007269167909],["innovati",-10.336409406447116],["Mount",-10.336421957464363],["folk",-10.33654920958431],["Development",-10.344870524517276],["scenario",-10.344870526771102],["regulator",-10.344870599434536],["opponent",-10.344870626917297],["regulation",-10.344871186091872],["religious",-10.344873839821064],["Club",-10.344878419028127],["tackle",-10.344900314317485],["English",-10.35341756721606],["channel",-10.353446290824973],["legislati",-10.35347964610655],["convict",-10.355305490723595],["Pakistan",-10.362038257180021],["dividend",-10.36203830359559],["glass",-10.36223065197633],["fraud",-10.370734798383971],["studio",-10.370736133828633],["rescue",-10.371266609221873],["trouble",-10.37950582177126],["relevan",-10.379555861371802],["blue",-10.379577315819493],["length",-10.37960574835843],["guilt",-10.38836063322285],["obtain",-10.388369984387488],["premier",-10.388370731878306],["favor",-10.397186881024892],["franchise",-10.39728396871039],["coordinat",-10.397291003375258],["variet",-10.397292757653709],["television",-10.39729715246218],["combine",-10.398020933573436],["ignor",-10.40099553866527],["identify",-10.406293029724392],["Richard",-10.406304857070504],["permanent",-10.406313338739448],["desire",-10.40634033640065],["Micro",-10.406508488138869],["volume",-10.415385225869327],["disrupt",-10.415390696470006],["Authorit",-10.42455827902587],["advertis",-10.424558991171967],["troop",-10.424568257948192],["worry",-10.424583434412778],["q",-10.42987896348593],["possibl",-10.432225050638383],["consequence",-10.433817426420518],["Education",-10.433817440439645],["festival",-10.433817553818663],["overwhelm",-10.433817713738001],["Floyd",-10.433818055613575],["recruit",-10.433819373714408],["pregnan",-10.433832405142407],["numero",-10.434417689048374],["micro",-10.435188802442156],["evolution",-10.443163265427412],["Student",-10.443164166580793],["Parliament",-10.452597184072618],["license",-10.452621449046314],["reject",-10.452849682371259],["alcohol",-10.462121078477935],["resolve",-10.46212229205594],["Atlant",-10.462215628971796],["identit",-10.462543556988368],["apolog",-10.468224526915485],["•",-10.471736373742804],["Netflix",-10.481445111994665],["technical",-10.481445155550622],["Investment",-10.481445364053501],["appreciate",-10.481445896882875],["agricultur",-10.481799760641067],["participant",-10.491249035169027],["Executive",-10.491249051362946],["Obama",-10.491256188970851],["Additional",-10.501150047152825],["activist",-10.501150525968473],["prompt",-10.501167237875546],["Middle",-10.511150435414383],["concert",-10.511171259360001],["decrease",-10.521251227561077],["Taylor",-10.521251807267976],["Iraq",-10.521252379590784],["stabili",-10.524678428254525],["bottom",-10.531458483766148],["athlete",-10.53146627415832],["encourag",-10.533691449763595],["accurate",-10.541764885308499],["medicine",-10.552182402796294],["fashion",-10.552183599206959],["Olympic",-10.562707582857236],["Global",-10.562707610427768],["marriage",-10.562707825358553],["surprising",-10.562707913307342],["Academ",-10.56270904797056],["behavior",-10.56270911727361],["Muslim",-10.562709888175057],["democrac",-10.56271109785608],["Zoom",-10.562713930042586],["conclude",-10.562749061670285],["Project",-10.573347024377732],["Control",-10.573364176557249],["eligib",-10.577345852895395],["communicat",-10.582440413497773],["defensive",-10.584098362253389],["technologi",-10.59503492246864],["guarantee",-10.60595694726955],["procedure",-10.605957002635176],["System",-10.605957147093552],["offensive",-10.605957150294167],["dedicate",-10.606016743860891],["certifi",-10.610705838117362],["Pennsylvania",-10.617068049176737],["Economic",-10.628304009721415],["nomination",-10.628317140623619],["crucia",-10.628327407111335],["discriminat",-10.639667642278646],["diagnose",-10.6396676430505],["neighbour",-10.639667647523915],["collapse",-10.639667731522366],["frequent",-10.63966775058659],["exposure",-10.639668095458184],["grocer",-10.639668137266138],["bough",-10.642497876888813],["Championship",-10.651161895743265],["parliament",-10.651161905053518],["Arizona",-10.651161926282487],["motivat",-10.651169402222976],["cultural",-10.662450623002329],["unprecedented",-10.662789800474947],["unfortunate",-10.662789802289087],["qualifie",-10.66279137042816],["Foreign",-10.6745546104646],["Wisconsin",-10.674554964629735],["Advisor",-10.674555212617514],["Elizabeth",-10.686459268250358],["Unfortunate",-10.686459268346933],["counsel",-10.686495422839451],["Attorney",-10.698507462226946],["Ontario",-10.698507493126737],["Special",-10.698507869656233],["Afghan",-10.698507899102218],["Industr",-10.698586700148287],["Zimbabwe",-10.710702582972864],["academic",-10.723048266542254],["Catholic",-10.723048277723404],["Colorado",-10.723048379841657],["narrative",-10.723049044762744],["cryptocurrenc",-10.73554826200333],["demonstrate",-10.735548275975344],["desperate",-10.735548395067088],["delphi",-10.735548613812234],["Professor",-10.748206505280834],["adequate",-10.74820651731794],["perspective",-10.748206574068988],["Brazil",-10.761044774320137],["Administrati",-10.774042117734208],["scientific",-10.787171910575822],["anxiet",-10.78717206860744],["Joseph",-10.787172076781754],["experienc",-10.798386342548458],["Official",-10.800505252114824],["automatic",-10.814018770736972],["accomplish",-10.827717387407494],["aggressive",-10.827717390333042],["Stephen",-10.841606360959236],["municipal",-10.855690783397746],["epidemic",-10.869976510492906],["respirator",-10.884469252682381],["efficient",-10.899175133644242],["diploma",-10.89917513573823],["subsequent",-10.899175135970225],["Associate",-10.899175136512467],["disciplin",-10.899175153704341],["substantial",-10.899175168895574],["destructi",-10.899185398408235],["registration",-10.914100508890723],["association",-10.914100511200477],["anniversar",-10.914100932044942],["reliabl",-10.914776696367852],["Defense",-10.929252040709866],["Palestinian",-10.944636637459313],["Thompson",-10.944636639371666],["accelerat",-10.94463696154104],["portfolio",-10.976134653511547],["*",-10.992263685339452],["principal",-10.992263685536962],["helicopter",-10.992263687232164],["á",-11.008657127962405],["entrepreneur",-11.00865712798459],["demonstration",-11.008657128578601],["beneficia",-11.008657136013262],["sufficient",-11.025323798863635],["Environment",-11.025323799578892],["explosion",-11.042272949217978],["Agricultur",-11.042330254497033],["physician",-11.094915329031654],["frustration",-11.094915331152768],["principle",-11.131615665763006],["Ethiopia",-11.150483590469506],["₹",-11.22973036585002],["í",-11.229730365850022],["comprehensive",-11.229730365868498],["jurisdiction",-11.250563699215935],["Bangladesh",-11.33852892031313],["efficienc",-11.338528920367276],["ó",-11.361784734265802],["Venezuela",-11.48694131709255],["‚",-11.797070787662058],["„",-11.872569363160633],["¦",-11.872569363160633],[">",-11.9542360298273],["ñ",-12.140787883770457],["т",-12.193419462717824],["А",-12.193419462717825],["ü",-12.193419462717827],["¢",-12.307798547685152],["½",-12.307798547685152],["·",-12.307798547685152],["ð",-12.370298547685156],["°",-12.436965214351831],["ä",-12.436965214351833],["è",-12.50839378578042],["ç",-12.58531686270354],["˜",-12.585316862703541],["~",-12.668650196036978],["<",-12.668650196036978],["ђ",-12.75955928694634],["Э",-12.85955928694711],["ʻ",-12.970670398060696],["ë",-12.970670398060697],["ā",-12.970670398060697],["ö",-12.970670398060701],["®",-13.095670398069801],["»",-13.095670398069801],["⁣",-13.095670398069801],["×",-13.095670398069801],["`",-13.095670398069801],["č",-13.095670398069801],["ú",-13.238527540926945],["а",-13.238527540926945],["œ",-13.238527540926945],["ă",-13.238527540926945],["с",-13.238527540966896],["¥",-13.238527540966905],["်",-13.405194207593615],["Ў",-13.40519420759362],["š",-13.40519420763357],["ğ",-13.40519420763357],["ã",-13.40519420763357],["É",-13.605194207633568],["å",-13.605194207633572],["┬",-13.605194207633572],["₦",-13.605194207633572],["″",-13.605194207633572],["г",-13.855194207593613],["ş",-13.855194207593613],["ê",-13.85519420763357],["′",-13.855194207633572],["ı",-13.855194207633572],["о",-13.855194207633572],["е",-13.855194207633572],["ѓ",-13.855194207633572],["‑",-13.855194207633572],["ū",-13.855194207633572],["à",-13.855194207633572],["ל",-13.855194207633572],["﻿",-13.855194207633572],["´",-13.855194207633572],["›",-13.855194207633572],["™",-14.188476894737905],["Ž",-14.188527540926945],["і",-14.188527540926946],["ł",-14.188527540926946],["क",-14.18852754092695],["Ä",-14.188527540926952],["İ",-14.188527540966904],["ɑ",-14.188527540966904],["म",-14.188527540966904],["️",-14.188527540966904],["Ó",-14.188527540966904],["У",-14.188527540966904],["מ",-14.188527540966904],["ה",-14.188527540966904],["‡",-14.188527540966904],["ߋ",-14.188527540966904],["ု",-14.188527540966904],["Ю",-14.188527540966904],["ѕ",-14.188527540966904],["−",-14.188527540966904],["ा",-14.188527540966904],["ț",-14.688527540926948],["ø",-14.688527540926948],["ﬁ",-14.688527540926948],["ō",-14.688527540926948],["ô",-14.688527540926952],["्",-14.688527540926954],["န",-14.688527540926962],["မ",-14.68852754092698],["Ġ",-14.6885275409669],["«",-14.688527540966906],["र",-14.688527540966906],["ी",-14.688527540966906],["े",-14.688527540966906],["₵",-14.688527540966906],["ו",-14.688527540966906],["ם",-14.688527540966906],["ȼ",-14.688527540966906],["‎",-14.688527540966906],["ड",-14.688527540966906],["‐",-14.688527540966906],["स",-14.688527540966906],["တ",-14.688527540966906],["ć",-14.688527540966906],["¯",-14.688527540966906],["˚",-14.688527540966906],["Ъ",-14.688527540966906],["ि",-14.688527540966906],["Ľ",-14.688527540966906],["ं",-14.688527540966906],["±",-14.688527540966906],["́",-14.688527540966906],["һ",-14.688527540966906],["‰",-14.688527540966906],["ာ",-14.688527540966906],["ु",-14.688527540966906],["ţ",-14.688527540966906],["¾",-14.688527540966906],["§",-14.688527540966906],["י",-14.688527540966906],["⁠",-14.688527540966906],["²",-14.688527540966906],["င",-15.687427540966905],["Ÿ",-15.687527540966904],["ю",-15.687627540966904],["Щ",-15.687727540966904],["Ђ",-15.687827540966904],["ိ",-15.687927540966903],["Р",-15.688027540966903],["Ь",-15.688127540966903],["î",-15.688227540966905],["õ",-15.688327540966904],["ï",-15.688427540966904],["қ",-15.68852754092695],["ー",-15.688527540926955],["श",-15.688527540926968],["ြ",-15.68852754092699],["Т",-15.688527540927037],["Њ",-15.688527540966811],["ќ",-15.688527540966811],["њ",-15.688527540966811],["Þ",-15.688527540966893],["ⅼ",-15.688527540966898],["╖",-15.688527540966904],["က",-15.688527540966904],["І",-15.688527540966904],["Ё",-15.688527540966904],["ल",-15.688527540966904],["◆",-15.688527540966904],["ʏ",-15.688527540966904],["╕",-15.688527540966904],["γ",-15.688527540966904],["ည",-15.688527540966904],["б",-15.688527540966904],["‪",-15.688527540966904],["Î",-15.688527540966904],["ў",-15.688527540966904],["➡",-15.688527540966904],["Ż",-15.688527540966904],["球",-15.688527540966904],["ת",-15.688527540966904],["च",-15.688527540966904],["ब",-15.688527540966904],["❤",-15.688527540966904],["घ",-15.688527540966904],["æ",-15.688527540966904],["ʼ",-15.688527540966904],["נ",-15.688527540966904],["化",-15.688527540966904],["－",-15.688527540966904],["À",-15.688527540966904],["ż",-15.688527540966904],["अ",-15.688527540966904],["ḥ",-15.688527540966904],["ħ",-15.688527540966904],["․",-15.688527540966904],["ġ",-15.688527540966904],["လ",-15.688527540966904],["д",-15.688527540966904],["သ",-15.688527540966904],["Ö",-15.688527540966904],["օ",-15.688527540966904],["ע",-15.688527540966904],["‼",-15.688527540966904],["Č",-15.688527540966904],["ᥙ",-15.688527540966904],["ד",-15.688527540966904],["त",-15.688527540966904],["暖",-15.688527540966904],["ट",-15.688527540966904],["温",-15.688527540966904],["я",-15.688527540966904],["β",-15.688527540966904],["ņ",-15.688527540966904],["¹",-15.688527540966904],["ရ",-15.688527540966904],["အ",-15.688527540966904],["₁",-15.688527540966904],["Г",-15.688527540966904],["─",-15.688527540966904],["ж",-15.688527540966904],["ပ",-15.688527540966904],["ž",-15.688527540966904],["ē",-15.688527540966904],["ƅ",-15.688527540966904],["├",-15.688527540966904],["џ",-15.688527540966904],["Ā",-15.688527540966904],["Å",-15.688527540966904],["地",-15.688527540966904],["ß",-15.688527540966904],["ن",-15.688527540966904],["⚽",-15.688527540966904],["⛓",-15.688527540966904],["צ",-15.688527540966904],["❌",-15.688527540966904],["ש",-15.688527540966904],["ק",-15.688527540966904],["न",-15.688527540966904],["Ѓ",-15.688527540966904],["Я",-15.688527540966904],["ｅ",-15.688527540966904],["¼",-15.688527540966904],["▪",-15.688527540966904],["☺",-15.688527540966904],["П",-15.688527540966904],["ေ",-15.688527540966904],["ှ",-15.688527540966904],["ᴠ",-15.688527540966904],["ב",-15.688527540966904],["א",-15.688527540966904],["य",-15.688527540966904],["³",-15.688527540966904],["ါ",-15.688527540966904],["¤",-15.688527540966904],["Ј",-15.688527540966904],["✨",-15.688527540966904],["у",-15.688527540966904],["Ш",-15.688527540966904],["ဖ",-15.688527540966904],["ń",-15.688527540966904],["ွ",-15.688527540966904],["Í",-15.688527540966904]]}}