{"version":"1.0","truncation":null,"padding":null,"added_tokens":[{"id":0,"special":true,"content":"<UNK>","single_word":false,"lstrip":false,"rstrip":false,"normalized":false},{"id":1,"special":true,"content":"<SEP>","single_word":false,"lstrip":false,"rstrip":false,"normalized":false},{"id":2,"special":true,"content":"<MASK>","single_word":false,"lstrip":false,"rstrip":false,"normalized":false},{"id":3,"special":true,"content":"<CLS>","single_word":false,"lstrip":false,"rstrip":false,"normalized":false}],"normalizer":null,"pre_tokenizer":{"type":"Whitespace"},"post_processor":null,"decoder":null,"model":{"type":"BPE","dropout":null,"unk_token":"<UNK>","continuing_subword_prefix":null,"end_of_word_suffix":null,"fuse_unk":false,"vocab":{"<UNK>":0,"<SEP>":1,"<MASK>":2,"<CLS>":3,"!":4,"\"":5,"$":6,"%":7,"&":8,"'":9,"(":10,")":11,"*":12,"+":13,",":14,"-":15,".":16,"/":17,"0":18,"1":19,"2":20,"3":21,"4":22,"5":23,"6":24,"7":25,"8":26,"9":27,":":28,";":29,"<":30,">":31,"?":32,"A":33,"B":34,"C":35,"D":36,"E":37,"F":38,"G":39,"H":40,"I":41,"J":42,"K":43,"L":44,"M":45,"N":46,"O":47,"P":48,"Q":49,"R":50,"S":51,"T":52,"U":53,"V":54,"W":55,"X":56,"Y":57,"Z":58,"`":59,"a":60,"b":61,"c":62,"d":63,"e":64,"f":65,"g":66,"h":67,"i":68,"j":69,"k":70,"l":71,"m":72,"n":73,"o":74,"p":75,"q":76,"r":77,"s":78,"t":79,"u":80,"v":81,"w":82,"x":83,"y":84,"z":85,"~":86,"¢":87,"£":88,"¤":89,"¥":90,"¦":91,"§":92,"«":93,"®":94,"¯":95,"°":96,"±":97,"²":98,"³":99,"´":100,"·":101,"¹":102,"»":103,"¼":104,"½":105,"¾":106,"À":107,"Ä":108,"Å":109,"É":110,"Í":111,"Î":112,"Ó":113,"Ö":114,"×":115,"Þ":116,"ß":117,"à":118,"á":119,"â":120,"ã":121,"ä":122,"å":123,"æ":124,"ç":125,"è":126,"é":127,"ê":128,"ë":129,"í":130,"î":131,"ï":132,"ð":133,"ñ":134,"ó":135,"ô":136,"õ":137,"ö":138,"ø":139,"ú":140,"ü":141,"Ā":142,"ā":143,"ă":144,"ć":145,"Č":146,"č":147,"ē":148,"ğ":149,"Ġ":150,"ġ":151,"ħ":152,"İ":153,"ı":154,"Ľ":155,"ł":156,"ń":157,"ņ":158,"ō":159,"œ":160,"ş":161,"š":162,"ţ":163,"ū":164,"Ÿ":165,"Ż":166,"ż":167,"Ž":168,"ž":169,"ƅ":170,"ț":171,"ȼ":172,"ɑ":173,"ʏ":174,"ʻ":175,"ʼ":176,"˚":177,"˜":178,"́":179,"β":180,"γ":181,"Ё":182,"Ђ":183,"Ѓ":184,"І":185,"Ј":186,"Њ":187,"Ў":188,"А":189,"Г":190,"П":191,"Р":192,"Т":193,"У":194,"Ш":195,"Щ":196,"Ъ":197,"Ь":198,"Э":199,"Ю":200,"Я":201,"а":202,"б":203,"г":204,"д":205,"е":206,"ж":207,"о":208,"с":209,"т":210,"у":211,"ю":212,"я":213,"ђ":214,"ѓ":215,"ѕ":216,"і":217,"њ":218,"ќ":219,"ў":220,"џ":221,"қ":222,"һ":223,"օ":224,"א":225,"ב":226,"ד":227,"ה":228,"ו":229,"י":230,"ל":231,"ם":232,"מ":233,"נ":234,"ע":235,"צ":236,"ק":237,"ש":238,"ת":239,"ن":240,"ߋ":241,"ं":242,"अ":243,"क":244,"घ":245,"च":246,"ट":247,"ड":248,"त":249,"न":250,"ब":251,"म":252,"य":253,"र":254,"ल":255,"श":256,"स":257,"ा":258,"ि":259,"ी":260,"ु":261,"े":262,"्":263,"က":264,"င":265,"ည":266,"တ":267,"န":268,"ပ":269,"ဖ":270,"မ":271,"ရ":272,"လ":273,"သ":274,"အ":275,"ါ":276,"ာ":277,"ိ":278,"ု":279,"ေ":280,"်":281,"ြ":282,"ွ":283,"ှ":284,"ᥙ":285,"ᴠ":286,"ḥ":287,"‎":288,"‐":289,"‑":290,"–":291,"—":292,"‘":293,"’":294,"‚":295,"“":296,"”":297,"„":298,"‡":299,"•":300,"․":301,"…":302,"‪":303,"‰":304,"′":305,"″":306,"›":307,"‼":308,"⁠":309,"⁣":310,"₁":311,"₦":312,"€":313,"₵":314,"₹":315,"™":316,"ⅼ":317,"−":318,"─":319,"├":320,"┬":321,"╕":322,"╖":323,"▪":324,"◆":325,"☺":326,"⚽":327,"⛓":328,"✨":329,"❌":330,"❤":331,"➡":332,"ー":333,"化":334,"地":335,"暖":336,"温":337,"球":338,"ﬁ":339,"️":340,"﻿":341,"－":342,"ｅ":343,"th":344,"in":345,"er":346,"an":347,"the":348,"on":349,"re":350,"at":351,"en":352,"or":353,"st":354,"ed":355,"al":356,"ing":357,"to":358,"ou":359,"ar":360,"is":361,"and":362,"es":363,"as":364,"it":365,"of":366,"ic":367,"le":368,"he":369,"om":370,"ion":371,"ent":372,"il":373,"id":374,"be":375,"ve":376,"ac":377,"se":378,"ad":379,"for":380,"ay":381,"ow":382,"ly":383,"ro":384,"ch":385,"am":386,"ol":387,"wh":388,"that":389,"ver":390,"ir":391,"im":392,"ur":393,"ot":394,"ig":395,"un":396,"are":397,"ith":398,"ut":399,"The":400,"ers":401,"et":402,"ill":403,"ce":404,"with":405,"ct":406,"ation":407,"us":408,"de":409,"con":410,"ag":411,"op":412,"we":413,"ha":414,"ab":415,"ne":416,"ere":417,"res":418,"com":419,"li":420,"em":421,"ter":422,"lo":423,"was":424,"pe":425,"sa":426,"all":427,"ld":428,"tr":429,"our":430,"ate":431,"out":432,"fr":433,"ke":434,"mo":435,"pro":436,"oun":437,"su":438,"ul":439,"sh":440,"te":441,"so":442,"ment":443,"have":444,"pl":445,"said":446,"ain":447,"has":448,"igh":449,"ex":450,"ist":451,"ap":452,"ity":453,"fe":454,"his":455,"art":456,"one":457,"ess":458,"by":459,"from":460,"ies":461,"ther":462,"ant":463,"ive":464,"po":465,"ort":466,"will":467,"not":468,"day":469,"ould":470,"go":471,"20":472,"ll":473,"if":474,"qu":475,"um":476,"ear":477,"ust":478,"ast":479,"end":480,"per":481,"ial":482,"wor":483,"this":484,"ge":485,"act":486,"iv":487,"ome":488,"up":489,"pr":490,"od":491,"ight":492,"port":493,"ak":494,"ack":495,"gh":496,"you":497,"any":498,"do":499,"ard":500,"but":501,"ice":502,"In":503,"their":504,"cl":505,"00":506,"ie":507,"gr":508,"af":509,"they":510,"own":511,"who":512,"over":513,"ud":514,"can":515,"her":516,"me":517,"el":518,"year":519,"av":520,"off":521,"been":522,"tim":523,"ough":524,"ans":525,"Th":526,"ally":527,"ine":528,"ong":529,"cr":530,"der":531,"ore":532,"cor":533,"ide":534,"its":535,"au":536,",”":537,"now":538,"had":539,"ind":540,"ok":541,"more":542,"ia":543,"ip":544,"were":545,"ich":546,"ber":547,"ck":548,"ople":549,"ions":550,"sp":551,"ire":552,"It":553,"ev":554,"19":555,"ated":556,"ep":557,"work":558,"ake":559,"ous":560,"also":561,"ame":562,"people":563,"ound":564,"about":565,"We":566,"no":567,"ue":568,".”":569,"new":570,"bo":571,"age":572,"bl":573,"comp":574,"He":575,"man":576,"ure":577,"ts":578,"able":579,"get":580,"some":581,"cre":582,"aw":583,"str":584,"ach":585,"which":586,"ass":587,"part":588,"br":589,"ever":590,"ace":591,"other":592,"she":593,"ile":594,"fir":595,"would":596,"Ch":597,"time":598,"co":599,"ary":600,"ident":601,"coun":602,"like":603,"pos":604,"pre":605,"iz":606,"ence":607,"thing":608,"cont":609,"ail":610,"ser":611,"pres":612,"An":613,"dis":614,"after":615,"St":616,"cent":617,"there":618,"int":619,"wo":620,"old":621,"comm":622,"ren":623,"ek":624,"than":625,"ign":626,"when":627,"Wh":628,"form":629,"just":630,"ib":631,"way":632,"ase":633,"ance":634,"low":635,"pol":636,"them":637,"ite":638,"cial":639,"ark":640,"ations":641,"ors":642,"my":643,"du":644,"ick":645,"ction":646,"ty":647,"play":648,"say":649,"dr":650,"ning":651,"ree":652,"med":653,"back":654,"mon":655,"vel":656,"ens":657,"ents":658,"ish":659,"att":660,"what":661,"ef":662,"ition":663,"ical":664,"fer":665,"uring":666,"ding":667,"ho":668,"alth":669,"first":670,"two":671,"ade":672,"down":673,"irus":674,"cur":675,"est":676,"into":677,"ian":678,"ting":679,"ates":680,"Tr":681,"fore":682,"enc":683,"week":684,"thr":685,"ang":686,"ose":687,"your":688,"cau":689,"add":690,"how":691,"ating":692,"min":693,"ict":694,"could":695,"hel":696,"need":697,"arr":698,"read":699,"him":700,"cess":701,"mer":702,"most":703,"pp":704,"prov":705,"ubl":706,"cho":707,"test":708,"This":709,"ious":710,"ities":711,"But":712,"try":713,"sc":714,"again":715,"pect":716,"ask":717,"ful":718,"As":719,"ink":720,"cause":721,"ob":722,"amp":723,"come":724,"fin":725,"ory":726,"under":727,"ied":728,"report":729,"last":730,"ult":731,"reg":732,"ath":733,"nment":734,"gover":735,"incl":736,"ater":737,"being":738,"ss":739,"ump":740,"vers":741,"air":742,"only":743,"bu":744,"ew":745,"through":746,"ason":747,"ational":748,"don":749,"rem":750,"CO":751,"sel":752,"cer":753,"ublic":754,"fo":755,"while":756,"bet":757,"urn":758,"ted":759,"many":760,"show":761,"inter":762,"iss":763,"ced":764,"cas":765,"want":766,"Un":767,"where":768,"during":769,"ID":770,"serv":771,"years":772,"every":773,"ily":774,"call":775,"did":776,"pers":777,"very":778,"emp":779,"land":780,"ret":781,"spe":782,"well":783,"ild":784,"even":785,"offic":786,"ress":787,"ital":788,"uch":789,"Fr":790,"help":791,"ann":792,"fect":793,"clo":794,"ince":795,"ise":796,"because":797,"col":798,"going":799,"istr":800,"And":801,"Br":802,"fam":803,"know":804,"government":805,"home":806,"ele":807,"illion":808,"000":809,"look":810,"reat":811,"ins":812,"ased":813,"make":814,"VID":815,"lead":816,"ph":817,"state":818,"aking":819,"arch":820,"COVID":821,"ual":822,"gu":823,"before":824,"des":825,"high":826,"those":827,"fl":828,"tal":829,"should":830,"long":831,"ven":832,"oup":833,"ving":834,"201":835,"start":836,"see":837,"sup":838,"og":839,"onav":840,"set":841,"cond":842,"onavirus":843,"bus":844,"health":845,"sy":846,"chool":847,"ug":848,"ra":849,"ank":850,"contin":851,"used":852,"against":853,"io":854,"person":855,"month":856,"stud":857,"New":858,"leg":859,"ited":860,"includ":861,"resident":862,"vis":863,"line":864,"team":865,"ement":866,"vie":867,"Trump":868,"pon":869,"pand":870,"vest":871,"emic":872,"dif":873,"Co":874,"anc":875,"10":876,"sur":877,"may":878,"coronavirus":879,"lear":880,"tain":881,"dec":882,"iness":883,"rel":884,"made":885,"take":886,"still":887,"unity":888,"atch":889,"ect":890,"then":891,"lar":892,"ings":893,"sure":894,"ative":895,"right":896,"2020":897,"these":898,"open":899,"three":900,"support":901,"They":902,"cal":903,"care":904,"num":905,"led":906,"think":907,"imp":908,"ves":909,"gan":910,"ved":911,"put":912,"ner":913,"ener":914,"She":915,"mem":916,"fol":917,"use":918,"share":919,"eng":920,"less":921,"xt":922,"For":923,"ward":924,"ments":925,"ms":926,"cut":927,"les":928,"ible":929,"cases":930,"stand":931,"says":932,",\"":933,"good":934,"self":935,"peri":936,"son":937,"char":938,"produ":939,"cording":940,"country":941,"bre":942,"ues":943,"ash":944,"Com":945,"pandemic":946,"public":947,"ton":948,"ange":949,"ility":950,"ry":951,"head":952,"ma":953,"Re":954,"much":955,"There":956,"fun":957,"Al":958,"ci":959,"mark":960,"ject":961,"miss":962,"ures":963,"around":964,"ices":965,"side":966,"ouse":967,"season":968,"school":969,"does":970,"loy":971,"ds":972,"cap":973,"ross":974,"irect":975,"vot":976,"rest":977,"Jo":978,"cover":979,"ix":980,"business":981,"Ar":982,"Amer":983,".\"":984,"If":985,"life":986,"such":987,"Americ":988,"als":989,"On":990,"ines":991,"hand":992,"world":993,"cour":994,"view":995,"though":996,"la":997,"De":998,"ball":999,"million":1000,"ivers":1001,"follow":1002,"So":1003,"sign":1004,"ina":1005,"invest":1006,"company":1007,"bers":1008,"since":1009,"trans":1010,"respon":1011,"rent":1012,"ave":1013,"police":1014,"point":1015,"ific":1016,"issu":1017,"let":1018,"run":1019,"che":1020,"lot":1021,"pt":1022,"happ":1023,"No":1024,"law":1025,"ular":1026,"quar":1027,"cons":1028,"ister":1029,"ble":1030,"game":1031,"ship":1032,"family":1033,"wom":1034,"That":1035,"nor":1036,"ten":1037,"Ro":1038,"sing":1039,"ris":1040,"place":1041,"national":1042,"came":1043,"How":1044,"Mon":1045,"win":1046,"including":1047,"far":1048,"ub":1049,"incre":1050,"conom":1051,"fil":1052,"differ":1053,"lock":1054,"sm":1055,"child":1056,"Le":1057,"got":1058,"iday":1059,"big":1060,"requ":1061,"ways":1062,"ars":1063,"oper":1064,"next":1065,"allow":1066,"four":1067,"ics":1068,"jo":1069,"You":1070,"ween":1071,"ready":1072,"real":1073,"app":1074,"Coun":1075,"stat":1076,"ys":1077,"death":1078,"tra":1079,"wr":1080,"Min":1081,"Se":1082,"told":1083,"ior":1084,"vol":1085,"second":1086,"giv":1087,"really":1088,"official":1089,"pass":1090,"red":1091,"sub":1092,"Con":1093,"hold":1094,"ff":1095,"ually":1096,"between":1097,"number":1098,"velop":1099,"aff":1100,"Mr":1101,"fac":1102,"rece":1103,"aren":1104,"both":1105,"sto":1106,"expect":1107,"US":1108,"fact":1109,"30":1110,"spital":1111,"same":1112,"days":1113,"ather":1114,"rele":1115,"gest":1116,"econom":1117,"Pr":1118,"os":1119,"feel":1120,"post":1121,"ces":1122,"order":1123,"unt":1124,"Be":1125,"pay":1126,"poss":1127,"cus":1128,"few":1129,"ah":1130,"social":1131,"ency":1132,"plan":1133,"group":1134,"stem":1135,"direct":1136,"ower":1137,"ax":1138,"outh":1139,"nes":1140,"another":1141,"atur":1142,"50":1143,"pat":1144,"ared":1145,"keep":1146,"here":1147,"sit":1148,"current":1149,"ft":1150,"ames":1151,"night":1152,"akes":1153,"aim":1154,"found":1155,"vent":1156,"ime":1157,"ody":1158,"ider":1159,"ants":1160,"ale":1161,"President":1162,"olog":1163,"Ind":1164,"coming":1165,"remain":1166,"det":1167,"sen":1168,"too":1169,"light":1170,"recent":1171,"tle":1172,"appe":1173,"ief":1174,"ness":1175,"iend":1176,"war":1177,"sed":1178,"ste":1179,"Gr":1180,"lit":1181,"ik":1182,"virus":1183,"ier":1184,"best":1185,"12":1186,"lect":1187,"Bl":1188,"won":1189,"ential":1190,"ged":1191,"ists":1192,"ended":1193,"community":1194,"different":1195,"added":1196,"Friday":1197,"market":1198,"camp":1199,"top":1200,"ately":1201,"az":1202,"president":1203,"polit":1204,"urs":1205,"develop":1206,"trad":1207,"At":1208,"import":1209,"Bo":1210,"inform":1211,"itive":1212,"beli":1213,"friend":1214,"gram":1215,"each":1216,"ral":1217,"case":1218,"enter":1219,"11":1220,"stru":1221,"late":1222,"acc":1223,"near":1224,"ush":1225,"announ":1226,"road":1227,"hop":1228,"meet":1229,"ling":1230,"ster":1231,"ired":1232,"employ":1233,"city":1234,"ional":1235,"ety":1236,"find":1237,"val":1238,"ised":1239,"kill":1240,"reported":1241,"pur":1242,"across":1243,"ext":1244,"system":1245,"aring":1246,"ned":1247,"ield":1248,"ord":1249,"move":1250,"book":1251,"ca":1252,"When":1253,"ism":1254,"change":1255,"break":1256,"things":1257,"Ad":1258,"Sun":1259,"oc":1260,"local":1261,"mit":1262,"pop":1263,"working":1264,"Is":1265,"present":1266,"May":1267,"gener":1268,"quarter":1269,"En":1270,"level":1271,"hospital":1272,"without":1273,"sol":1274,"Dr":1275,"ives":1276,"return":1277,"sever":1278,"contr":1279,"ages":1280,"vir":1281,"15":1282,"ision":1283,"called":1284,"left":1285,"list":1286,"hour":1287,"Sh":1288,"power":1289,"according":1290,"search":1291,"bal":1292,"organ":1293,"due":1294,"Pol":1295,").":1296,"clear":1297,"car":1298,"iting":1299,"ized":1300,"never":1301,"months":1302,"def":1303,"ending":1304,"hard":1305,"ived":1306,"ger":1307,"oney":1308,"away":1309,"main":1310,"lim":1311,"chang":1312,"ls":1313,"something":1314,"already":1315,"face":1316,"quest":1317,"dep":1318,"State":1319,"members":1320,"job":1321,"tell":1322,"comes":1323,"gy":1324,"ided":1325,"prof":1326,"students":1327,"past":1328,"great":1329,"21":1330,"To":1331,"gre":1332,"vious":1333,"program":1334,"comple":1335,"better":1336,"turn":1337,"thor":1338,"ically":1339,"Monday":1340,"ork":1341,"claim":1342,"Mo":1343,"grow":1344,"until":1345,"fort":1346,"However":1347,"vi":1348,"Pro":1349,"using":1350,"gin":1351,"concer":1352,"2019":1353,"stit":1354,"didn":1355,"thers":1356,"continue":1357,"children":1358,"Ac":1359,"must":1360,"action":1361,"ient":1362,"par":1363,"tech":1364,"body":1365,"might":1366,"experi":1367,"ike":1368,"recor":1369,"partic":1370,"close":1371,"net":1372,"iversity":1373,"hal":1374,"seen":1375,"sum":1376,"With":1377,"uary":1378,"talk":1379,"What":1380,"Af":1381,"prom":1382,"ley":1383,"manag":1384,"went":1385,"ata":1386,"elect":1387,"jor":1388,"Nor":1389,"mand":1390,"five":1391,"Joh":1392,"happen":1393,"house":1394,"200":1395,"atter":1396,"ago":1397,"County":1398,"always":1399,"process":1400,"buil":1401,"plain":1402,"ying":1403,"early":1404,"ots":1405,"took":1406,"China":1407,"South":1408,"ese":1409,"March":1410,"ney":1411,"erest":1412,"14":1413,"dist":1414,"une":1415,"Mar":1416,"ude":1417,"ched":1418,"ize":1419,"information":1420,"room":1421,"Me":1422,"eral":1423,"ature":1424,"soci":1425,"stay":1426,"appro":1427,"offer":1428,"aid":1429,"iver":1430,"ird":1431,"Thurs":1432,"event":1433,"important":1434,"based":1435,"men":1436,"While":1437,"mor":1438,"),":1439,"Thursday":1440,"project":1441,"hit":1442,"24":1443,"mission":1444,"und":1445,"Car":1446,"ians":1447,"fut":1448,"tar":1449,"gether":1450,"weeks":1451,"making":1452,"ibut":1453,"ps":1454,"former":1455,"John":1456,"free":1457,"bit":1458,"vide":1459,"contro":1460,"Tues":1461,"adv":1462,"prote":1463,"exp":1464,"fur":1465,"mber":1466,"Health":1467,"shares":1468,"risk":1469,"ator":1470,"count":1471,"Col":1472,"Ju":1473,"wit":1474,"deal":1475,"positive":1476,"Satur":1477,"equ":1478,"class":1479,"press":1480,"stop":1481,"likely":1482,"Tuesday":1483,"ded":1484,"Saturday":1485,"eas":1486,"ute":1487,"ought":1488,"inc":1489,"ont":1490,"later":1491,"money":1492,"women":1493,"All":1494,"ric":1495,"kn":1496,"Sunday":1497,"whe":1498,"election":1499,"25":1500,"ones":1501,"news":1502,"addition":1503,"asked":1504,"major":1505,"alk":1506,"distr":1507,"why":1508,"times":1509,"interest":1510,"One":1511,"fire":1512,"wa":1513,"ats":1514,"food":1515,"aken":1516,"media":1517,"stock":1518,"along":1519,"ution":1520,"little":1521,"possible":1522,"uck":1523,"together":1524,"Dem":1525,"cast":1526,"uc":1527,"position":1528,"give":1529,"lay":1530,"confir":1531,"effect":1532,"today":1533,"key":1534,"18":1535,"statement":1536,"total":1537,"certain":1538,"small":1539,"Wed":1540,"six":1541,"stre":1542,"seem":1543,"met":1544,"staff":1545,"ards":1546,"ability":1547,"doing":1548,"Go":1549,"Can":1550,"ember":1551,"hist":1552,"pot":1553,"13":1554,"Jan":1555,"area":1556,"curity":1557,"ran":1558,"consider":1559,"Wednes":1560,"short":1561,"plac":1562,"United":1563,"vid":1564,"having":1565,"Wednesday":1566,"ben":1567,"chall":1568,"love":1569,"foot":1570,"hum":1571,"augh":1572,"officials":1573,"ets":1574,"16":1575,"den":1576,"atic":1577,"several":1578,"youn":1579,"ished":1580,"Man":1581,"fight":1582,"ined":1583,"ivid":1584,"getting":1585,"loc":1586,"percent":1587,"posed":1588,"given":1589,"spread":1590,"future":1591,"sho":1592,"announced":1593,"uation":1594,"mom":1595,"indust":1596,"bor":1597,"water":1598,"fall":1599,"har":1600,"avail":1601,"cle":1602,"mask":1603,"ides":1604,"aster":1605,"large":1606,"aign":1607,"taking":1608,"field":1609,"full":1610,"service":1611,"techn":1612,"least":1613,"cost":1614,"Dep":1615,"series":1616,"investig":1617,"Mc":1618,"sus":1619,"live":1620,"deli":1621,"price":1622,"ministr":1623,"spo":1624,"done":1625,"bur":1626,"commun":1627,"Don":1628,"online":1629,"players":1630,"taken":1631,"film":1632,"bab":1633,"cy":1634,"research":1635,"known":1636,"meas":1637,"doesn":1638,"Fe":1639,"ons":1640,"services":1641,"After":1642,"Or":1643,"ocr":1644,"ped":1645,"ene":1646,"iger":1647,"Cor":1648,"reach":1649,"become":1650,"emer":1651,"suc":1652,"National":1653,"front":1654,"mid":1655,"train":1656,"Democr":1657,"sent":1658,"bring":1659,"ality":1660,"looking":1661,"campaign":1662,"bro":1663,"data":1664,"ients":1665,"tion":1666,"half":1667,"uro":1668,"author":1669,"period":1670,"watch":1671,"American":1672,"dro":1673,"mil":1674,"among":1675,"party":1676,"acy":1677,"Police":1678,"aud":1679,"iden":1680,"cust":1681,"enough":1682,"plic":1683,"started":1684,"mus":1685,"compan":1686,"video":1687,"aver":1688,"attack":1689,"proble":1690,"ref":1691,"further":1692,"17":1693,"mp":1694,"others":1695,"que":1696,"cept":1697,"Sen":1698,"ai":1699,"expected":1700,"Ser":1701,"ancial":1702,"tow":1703,"step":1704,"court":1705,"available":1706,"York":1707,"hip":1708,"non":1709,"ued":1710,"glo":1711,"invol":1712,"force":1713,"Covid":1714,"My":1715,"yet":1716,"infect":1717,"workers":1718,"Rep":1719,"commit":1720,"Afr":1721,"Cl":1722,"whether":1723,"bas":1724,"product":1725,"ecut":1726,"impact":1727,"Ex":1728,"ified":1729,"leaders":1730,"City":1731,"ators":1732,"rist":1733,"ints":1734,"Afric":1735,"Biden":1736,"gl":1737,"kind":1738,"ground":1739,"100":1740,"sal":1741,"ults":1742,"Ph":1743,"reason":1744,"hours":1745,"var":1746,"travel":1747,"ederal":1748,"ams":1749,"following":1750,"ond":1751,"ising":1752,"activ":1753,"ology":1754,"House":1755,"third":1756,"artment":1757,"Lo":1758,"Pe":1759,"stead":1760,"paren":1761,"sk":1762,"ague":1763,"Cal":1764,"proper":1765,"story":1766,"eve":1767,"political":1768,"games":1769,"board":1770,"strict":1771,"decision":1772,"lockdown":1773,"fic":1774,"crit":1775,"Black":1776,"ife":1777,"ories":1778,"tries":1779,"Gover":1780,"ense":1781,"protect":1782,"lt":1783,"itions":1784,"within":1785,"polic":1786,"July":1787,"redu":1788,"aly":1789,"pecial":1790,"confirmed":1791,"provide":1792,"Just":1793,"imes":1794,"strong":1795,"opport":1796,"security":1797,"previous":1798,"special":1799,"Niger":1800,"wide":1801,"Ste":1802,"cil":1803,"design":1804,"Apr":1805,"priv":1806,"site":1807,"supp":1808,"West":1809,"hoto":1810,"famil":1811,"held":1812,"band":1813,"ham":1814,"rating":1815,"iving":1816,"ences":1817,"woman":1818,"success":1819,"town":1820,"lier":1821,"office":1822,"University":1823,"40":1824,"cand":1825,"dol":1826,"hic":1827,"ensive":1828,"fans":1829,"gency":1830,"April":1831,"Aust":1832,"compet":1833,"pite":1834,"access":1835,"protest":1836,"por":1837,"22":1838,"date":1839,"deaths":1840,"North":1841,"potential":1842,"companies":1843,"nation":1844,"forward":1845,"According":1846,"patients":1847,"idence":1848,"young":1849,"Sp":1850,"aged":1851,"mean":1852,"final":1853,"ances":1854,"contact":1855,"points":1856,"ports":1857,"cris":1858,"ctor":1859,"experience":1860,"billion":1861,"bank":1862,"tax":1863,"walk":1864,"outside":1865,"residents":1866,"Some":1867,"inal":1868,"understand":1869,"Euro":1870,"bed":1871,"round":1872,"building":1873,"fail":1874,"unch":1875,"trying":1876,"ler":1877,"alleg":1878,"Minister":1879,"economic":1880,"India":1881,"June":1882,"safe":1883,"worth":1884,"pick":1885,"died":1886,"quick":1887,"benef":1888,"Aug":1889,"rul":1890,"once":1891,"lives":1892,"saying":1893,"needs":1894,"sug":1895,"Ge":1896,"Sep":1897,"carr":1898,"hind":1899,"mar":1900,"states":1901,"decl":1902,"medi":1903,"custom":1904,"Off":1905,"ners":1906,"ilities":1907,"gn":1908,"agre":1909,"result":1910,"ana":1911,"term":1912,"received":1913,"believe":1914,"vacc":1915,"educ":1916,"cele":1917,"ured":1918,"ization":1919,"makes":1920,"ru":1921,"kes":1922,"course":1923,"issues":1924,"ividual":1925,"cu":1926,"viol":1927,"60":1928,"mode":1929,"pract":1930,"means":1931,"ony":1932,"enn":1933,"hom":1934,"dollar":1935,"Res":1936,"spec":1937,"Christ":1938,"situation":1939,"dam":1940,"ources":1941,"Will":1942,"ids":1943,"tested":1944,"ban":1945,"conne":1946,"lab":1947,"financial":1948,"ns":1949,"ury":1950,"everyone":1951,"2018":1952,"morning":1953,"mal":1954,"behind":1955,"ference":1956,"question":1957,"These":1958,"closed":1959,"celebr":1960,"demand":1961,"countries":1962,"23":1963,"name":1964,"inj":1965,"ald":1966,"lling":1967,"Sept":1968,"target":1969,"ey":1970,"address":1971,"currently":1972,"average":1973,"crisis":1974,"hol":1975,"ison":1976,"States":1977,"begin":1978,"execut":1979,"individual":1980,"buy":1981,"mess":1982,"Mic":1983,"entire":1984,"Department":1985,"Sc":1986,"photo":1987,"vo":1988,"played":1989,"medical":1990,"Cent":1991,"init":1992,"threat":1993,"reve":1994,"sex":1995,"businesses":1996,"Te":1997,"cell":1998,"released":1999,"treat":2000,"thought":2001,"human":2002,"Europe":2003,"fav":2004,"colle":2005,"di":2006,"nal":2007,"industry":2008,"space":2009,"wanted":2010,"ancing":2011,"pecially":2012,"Su":2013,"match":2014,"especially":2015,"aily":2016,"everything":2017,"imple":2018,"wards":2019,"tee":2020,"history":2021,"gress":2022,"rac":2023,"arrest":2024,"phone":2025,"Wor":2026,"lor":2027,"lost":2028,"release":2029,"friends":2030,"shows":2031,"hy":2032,"shot":2033,"writ":2034,"additional":2035,"vote":2036,"employe":2037,"viron":2038,"depend":2039,"TV":2040,"ges":2041,"often":2042,"check":2043,"candid":2044,"recover":2045,"iding":2046,"grad":2047,"economy":2048,"Ho":2049,"Republic":2050,"aur":2051,"meeting":2052,"control":2053,"nam":2054,"restrict":2055,"role":2056,"results":2057,"hot":2058,"host":2059,"include":2060,"SA":2061,"fully":2062,"music":2063,"ither":2064,"discus":2065,"response":2066,"heart":2067,"plans":2068,"venue":2069,"His":2070,"loss":2071,"star":2072,"itiz":2073,"saf":2074,"cret":2075,"Dav":2076,"sim":2077,"anger":2078,"recently":2079,"suggest":2080,"Now":2081,"saw":2082,"Fo":2083,"coup":2084,"ging":2085,"ming":2086,"vehic":2087,"testing":2088,"signific":2089,"ilar":2090,"seven":2091,"deb":2092,"contract":2093,"Austral":2094,"dou":2095,"rate":2096,"ination":2097,"almost":2098,"began":2099,"lies":2100,"explain":2101,"needed":2102,"ease":2103,"vic":2104,"Brit":2105,"Do":2106,"respons":2107,"Canad":2108,"Gu":2109,"gir":2110,"depart":2111,"selves":2112,"safety":2113,"ands":2114,"profess":2115,"record":2116,"vironment":2117,"Bar":2118,"NA":2119,"scre":2120,"vice":2121,"exper":2122,"playing":2123,"asing":2124,"ention":2125,"areas":2126,"challeng":2127,"ott":2128,"America":2129,"measures":2130,"outbreak":2131,"fig":2132,"actually":2133,"aut":2134,"ford":2135,"director":2136,"soon":2137,"coach":2138,"increase":2139,"grap":2140,"issue":2141,"mot":2142,"matter":2143,".,":2144,"federal":2145,"wer":2146,"mother":2147,"hope":2148,"Her":2149,"mind":2150,"struct":2151,"Cr":2152,"ival":2153,"pack":2154,"ri":2155,"aker":2156,"assist":2157,"complete":2158,"respect":2159,"70":2160,"bar":2161,"ama":2162,"web":2163,"Inter":2164,"black":2165,"ple":2166,"rup":2167,"significant":2168,"Fin":2169,"ulation":2170,"duct":2171,"flu":2172,"development":2173,"families":2174,"Cour":2175,"administr":2176,"ural":2177,"moved":2178,"ails":2179,"higher":2180,"26":2181,"28":2182,"January":2183,"global":2184,"couple":2185,"shop":2186,"someone":2187,"moment":2188,"parents":2189,"ping":2190,"isn":2191,"particular":2192,"Ne":2193,"dead":2194,"schools":2195,"Our":2196,"UK":2197,"sl":2198,"ount":2199,"changes":2200,"mult":2201,"track":2202,"feat":2203,"serious":2204,"visit":2205,"purch":2206,"lower":2207,"diffic":2208,"Gre":2209,"Part":2210,"ored":2211,"push":2212,"”.":2213,"ane":2214,"anything":2215,"News":2216,"ience":2217,"ks":2218,"na":2219,"ugg":2220,"member":2221,"ensure":2222,"forman":2223,"conf":2224,"door":2225,"club":2226,"personal":2227,"uge":2228,"relation":2229,"related":2230,"allowed":2231,"reveal":2232,"CA":2233,"bad":2234,"officers":2235,"World":2236,"Par":2237,"terr":2238,"reports":2239,"gen":2240,"ium":2241,"wind":2242,"represent":2243,"ibility":2244,"Oc":2245,"gave":2246,"mis":2247,"legal":2248,"Geor":2249,"Day":2250,"Sm":2251,"chief":2252,"immedi":2253,"single":2254,"ost":2255,"roll":2256,"dig":2257,"lood":2258,"affect":2259,"27":2260,"BC":2261,"Pl":2262,"jud":2263,"rote":2264,"goal":2265,"August":2266,"orig":2267,"tom":2268,"utes":2269,"earlier":2270,"jour":2271,"running":2272,"Med":2273,"wrote":2274,"moving":2275,"super":2276,"events":2277,"nothing":2278,"interview":2279,"inst":2280,"reme":2281,"ament":2282,"imate":2283,"ote":2284,"ends":2285,"works":2286,"Air":2287,"San":2288,"sw":2289,"omet":2290,"necess":2291,"comb":2292,"prove":2293,"gun":2294,"rew":2295,"focus":2296,"deter":2297,"80":2298,"ron":2299,"seek":2300,"crib":2301,"opportunity":2302,"September":2303,"abo":2304,"worked":2305,"ample":2306,"Donald":2307,"ahead":2308,"hor":2309,"ino":2310,"atory":2311,"arm":2312,"ades":2313,"performan":2314,"active":2315,"prep":2316,"nearly":2317,"Iran":2318,"batt":2319,"han":2320,"pret":2321,"international":2322,"approach":2323,"oft":2324,"ateg":2325,"opening":2326,"latest":2327,"29":2328,"became":2329,"spir":2330,"however":2331,"High":2332,"School":2333,"itary":2334,"wood":2335,"White":2336,"Court":2337,"bi":2338,"urch":2339,"phys":2340,"difficult":2341,"father":2342,"vember":2343,"park":2344,"tober":2345,"November":2346,"environment":2347,"itch":2348,"incident":2349,"private":2350,"cogn":2351,"believ":2352,"masks":2353,"October":2354,"Rus":2355,"lines":2356,"attemp":2357,"involved":2358,"block":2359,"tt":2360,"whole":2361,"daily":2362,"ery":2363,"wel":2364,"prior":2365,"box":2366,"encour":2367,"ashing":2368,"90":2369,"Center":2370,"fill":2371,"song":2372,"touch":2373,"defin":2374,"Ber":2375,"aging":2376,"officer":2377,"quarant":2378,"general":2379,"growth":2380,"bill":2381,"cult":2382,"sched":2383,"tit":2384,"sty":2385,"acter":2386,"imm":2387,"aper":2388,"particip":2389,"problem":2390,"restrictions":2391,"War":2392,"Chief":2393,"longer":2394,"career":2395,"vict":2396,"reli":2397,"opt":2398,"appoint":2399,"bert":2400,"continued":2401,"killed":2402,"People":2403,"Park":2404,"fair":2405,"pan":2406,"oud":2407,"itor":2408,"amer":2409,"plat":2410,"player":2411,"joy":2412,"victim":2413,"gain":2414,"inside":2415,"Many":2416,"gas":2417,"uel":2418,"review":2419,"essential":2420,"collect":2421,"Government":2422,"Sy":2423,"dest":2424,"ift":2425,"draw":2426,"emergency":2427,"vaccine":2428,"row":2429,"exist":2430,"guid":2431,"technology":2432,"relationship":2433,"35":2434,"sts":2435,"lex":2436,"aving":2437,"surpr":2438,"atives":2439,"prevent":2440,"drug":2441,"deliver":2442,"similar":2443,"paid":2444,"else":2445,"bruary":2446,"Dece":2447,"February":2448,"Am":2449,"cing":2450,"Stre":2451,"himself":2452,"December":2453,"Ed":2454,"ston":2455,"lying":2456,"executive":2457,"employees":2458,"Mark":2459,"hair":2460,"ify":2461,"prim":2462,"anyone":2463,"tre":2464,"wife":2465,"leave":2466,"white":2467,"teach":2468,"Char":2469,"ota":2470,"utions":2471,"issued":2472,"Not":2473,"cir":2474,"mass":2475,"sem":2476,"living":2477,"gets":2478,"disease":2479,"connect":2480,"31":2481,"tro":2482,"aft":2483,"region":2484,"capital":2485,"customers":2486,"fast":2487,"ening":2488,"create":2489,"drive":2490,"leader":2491,"popular":2492,"education":2493,"500":2494,"Ab":2495,"daugh":2496,"gather":2497,"deep":2498,"conduct":2499,"proved":2500,"leading":2501,"Even":2502,"Ger":2503,"recogn":2504,"forts":2505,"pose":2506,"quality":2507,"happened":2508,"policy":2509,"analy":2510,"minutes":2511,"2016":2512,"study":2513,"Commission":2514,"shoot":2515,"training":2516,"dle":2517,"ille":2518,"minister":2519,"suspect":2520,"anim":2521,"lif":2522,"movie":2523,"teams":2524,"football":2525,"ffer":2526,"ifor":2527,"build":2528,"struction":2529,"scr":2530,"isol":2531,"shut":2532,"cred":2533,"platform":2534,"iforn":2535,"Face":2536,"div":2537,"sell":2538,"wasn":2539,"fell":2540,"hood":2541,"request":2542,"Californ":2543,"Bank":2544,"sequ":2545,"sold":2546,"weet":2547,"distancing":2548,"quickly":2549,"Ms":2550,"Per":2551,"hi":2552,"efforts":2553,"regular":2554,"production":2555,"--":2556,"DC":2557,"citiz":2558,"despite":2559,"discuss":2560,"lack":2561,"account":2562,"neigh":2563,"perform":2564,"pul":2565,"ender":2566,"idea":2567,".'":2568,"DA":2569,"slow":2570,"ently":2571,"nings":2572,"Americans":2573,"remains":2574,"sense":2575,"summer":2576,"Har":2577,"race":2578,"tour":2579,"exc":2580,"cannot":2581,"vision":2582,"senior":2583,"Cong":2584,"either":2585,"pain":2586,"contain":2587,"wants":2588,"administration":2589,"ires":2590,"kids":2591,"pie":2592,"takes":2593,"crim":2594,"appear":2595,"AP":2596,"Des":2597,"tests":2598,"scene":2599,"character":2600,"California":2601,"During":2602,"bud":2603,"comment":2604,"weekend":2605,"decided":2606,"By":2607,"Gener":2608,"cro":2609,"pet":2610,"via":2611,"ials":2612,"ordin":2613,"military":2614,"homes":2615,"App":2616,"chance":2617,"mitted":2618,"alleged":2619,"dom":2620,"docu":2621,"strugg":2622,"brought":2623,"served":2624,"numbers":2625,"inese":2626,"require":2627,"za":2628,"ining":2629,"acqu":2630,"forced":2631,"themselves":2632,"above":2633,"Em":2634,"thern":2635,"quite":2636,"ivil":2637,"akers":2638,"iple":2639,"Chinese":2640,"provided":2641,"virt":2642,"cretary":2643,"thous":2644,"trade":2645,"felt":2646,"ights":2647,"Reg":2648,"groups":2649,"Nigeria":2650,"performance":2651,"Russ":2652,"CE":2653,"Cap":2654,"eight":2655,"fit":2656,"secut":2657,"spokes":2658,"authorities":2659,"David":2660,"Congress":2661,"Bu":2662,"spr":2663,"ource":2664,"applic":2665,"cru":2666,"communities":2667,"ona":2668,"example":2669,"avo":2670,"throughout":2671,"showed":2672,"voters":2673,"giving":2674,"Street":2675,"oil":2676,"soft":2677,"abl":2678,"regard":2679,"opened":2680,"normal":2681,"traded":2682,"investigation":2683,"Harr":2684,"More":2685,"dict":2686,"huge":2687,"van":2688,"restaur":2689,"hands":2690,"maintain":2691,"God":2692,"Washing":2693,"ung":2694,"tru":2695,"extra":2696,"shared":2697,"receive":2698,"labor":2699,"Every":2700,"iam":2701,"stage":2702,"below":2703,"terms":2704,"indic":2705,"equip":2706,"Africa":2707,"favor":2708,"Act":2709,"bul":2710,"hous":2711,"xim":2712,"aming":2713,"nel":2714,"firm":2715,"Washington":2716,"Of":2717,"mater":2718,"store":2719,"iff":2720,"contribut":2721,"products":2722,"pen":2723,"instead":2724,"amount":2725,"crow":2726,"Eng":2727,"various":2728,"Pat":2729,"cli":2730,"heav":2731,"BT":2732,"Dis":2733,"El":2734,"hur":2735,"2021":2736,"anned":2737,"explo":2738,"clean":2739,"Democratic":2740,"Net":2741,"icip":2742,"actions":2743,"limited":2744,"bably":2745,"Ear":2746,"igr":2747,"epis":2748,"ampion":2749,"describ":2750,"continues":2751,"biggest":2752,"seems":2753,"ique":2754,"alter":2755,"noted":2756,"calls":2757,"farm":2758,"Isra":2759,"uses":2760,"conditions":2761,"symp":2762,"pretty":2763,"pict":2764,"sector":2765,"surv":2766,"effective":2767,"Ke":2768,"idge":2769,"required":2770,"questions":2771,"concerns":2772,"susp":2773,"suffer":2774,"jobs":2775,"Facebook":2776,"aj":2777,"broad":2778,"ny":2779,"consu":2780,"probably":2781,"Mor":2782,"Since":2783,"ctors":2784,"Ange":2785,"daughter":2786,"link":2787,"ring":2788,"compared":2789,"arrested":2790,"quarantine":2791,"intro":2792,"energy":2793,"orders":2794,"levels":2795,"rules":2796,"East":2797,"hus":2798,"publ":2799,"hear":2800,"rights":2801,"capac":2802,"Ben":2803,"Twit":2804,"aul":2805,"base":2806,"suit":2807,"rather":2808,"management":2809,"district":2810,"communic":2811,"specific":2812,"General":2813,"iers":2814,"neg":2815,"increased":2816,"easy":2817,"Phil":2818,"department":2819,"Direct":2820,"hon":2821,"inv":2822,"serve":2823,"ishing":2824,"2017":2825,"happy":2826,"Indian":2827,"Mean":2828,"vehicle":2829,"Australia":2830,"recomm":2831,"resh":2832,"turned":2833,"ON":2834,"PS":2835,"ram":2836,"sha":2837,"ya":2838,"stor":2839,"evidence":2840,"created":2841,"learning":2842,"Joe":2843,"launch":2844,"spect":2845,"conference":2846,"starting":2847,"letter":2848,"Council":2849,"tradition":2850,"husband":2851,"Pet":2852,"rap":2853,"isions":2854,"itself":2855,"chair":2856,"erson":2857,"true":2858,"establ":2859,"revenue":2860,"words":2861,"spent":2862,"spot":2863,"distribut":2864,"sound":2865,"199":2866,"treatment":2867,"Meanwhile":2868,"Red":2869,"fre":2870,"ville":2871,"instit":2872,"load":2873,"ibly":2874,"Associ":2875,"marr":2876,"pair":2877,"sn":2878,"anch":2879,"ened":2880,"ements":2881,"cash":2882,"changed":2883,"revealed":2884,"Mal":2885,"ani":2886,"improve":2887,"urning":2888,"Group":2889,"value":2890,"Pal":2891,"RE":2892,"rain":2893,"advis":2894,"loved":2895,"goes":2896,"effort":2897,"League":2898,"Super":2899,"necessary":2900,"Twitter":2901,"FL":2902,"gone":2903,"natur":2904,"ises":2905,"wearing":2906,"mob":2907,"student":2908,"Johnson":2909,"Del":2910,"Jap":2911,"Jack":2912,"Ken":2913,"Sch":2914,"ties":2915,"resources":2916,"trust":2917,"tele":2918,"learn":2919,"imply":2920,"MP":2921,"Public":2922,"ken":2923,"san":2924,"enge":2925,"enjoy":2926,"bey":2927,"feature":2928,"ume":2929,"els":2930,"regul":2931,"property":2932,"mill":2933,"rad":2934,"stain":2935,"heard":2936,"ceed":2937,"peace":2938,"progress":2939,"dog":2940,"rat":2941,"rise":2942,"arily":2943,"achie":2944,"ometimes":2945,"capacity":2946,"AN":2947,"Bel":2948,"Val":2949,"bir":2950,"lin":2951,"argu":2952,"roy":2953,"places":2954,"LL":2955,"ape":2956,"cross":2957,"zer":2958,"log":2959,"charged":2960,"growing":2961,"message":2962,"Canada":2963,"Japan":2964,"fan":2965,"stant":2966,"ases":2967,"ady":2968,"ension":2969,"looks":2970,"included":2971,"wrong":2972,"website":2973,"45":2974,"CB":2975,"lic":2976,"mag":2977,"beat":2978,"west":2979,"ably":2980,"passed":2981,"initial":2982,"introdu":2983,"Lon":2984,"SE":2985,"iant":2986,"ode":2987,"perfect":2988,"attention":2989,"claims":2990,"implement":2991,"ida":2992,"grand":2993,"owns":2994,"whose":2995,"speed":2996,"seeing":2997,"raised":2998,"winning":2999,"population":3000,"claimed":3001,"Senate":3002,"Bay":3003,"Li":3004,"iet":3005,"range":3006,"income":3007,"istry":3008,"includes":3009,"followed":3010,"King":3011,"nom":3012,"vey":3013,"boy":3014,"placed":3015,"Offic":3016,"sle":3017,"ware":3018,"hest":3019,"dev":3020,"hael":3021,"complain":3022,"qual":3023,"From":3024,"covered":3025,"individuals":3026,"item":3027,"parts":3028,"African":3029,"immediately":3030,"Bro":3031,"toms":3032,"wear":3033,"lied":3034,"kept":3035,"prem":3036,"posted":3037,"Carol":3038,"sales":3039,"European":3040,"Sup":3041,"err":3042,"isl":3043,"comfort":3044,"ples":3045,"presidential":3046,"Hospital":3047,"Dan":3048,"Last":3049,"camer":3050,"sports":3051,"lie":3052,"tried":3053,"built":3054,"previously":3055,"citizens":3056,"thousands":3057,"Mus":3058,"cop":3059,"associ":3060,"umb":3061,"commer":3062,"ester":3063,"problems":3064,"circ":3065,"Hol":3066,"mas":3067,"tor":3068,"ugh":3069,"trip":3070,"calling":3071,"girl":3072,"IN":3073,"knew":3074,"uff":3075,"Invest":3076,"county":3077,"typ":3078,"increasing":3079,"challenges":3080,"Tex":3081,"civil":3082,"agement":3083,"content":3084,"Road":3085,"activities":3086,"mur":3087,"rates":3088,"Inc":3089,"stra":3090,"pressed":3091,"common":3092,"enced":3093,"pped":3094,"annual":3095,"standing":3096,"hund":3097,"stic":3098,"convers":3099,"resol":3100,"elines":3101,"counter":3102,"scient":3103,"funding":3104,"London":3105,".’":3106,"?”":3107,"Over":3108,"kick":3109,"sil":3110,"adding":3111,"chan":3112,"delay":3113,"anti":3114,"prison":3115,"partners":3116,"brand":3117,"speak":3118,"supply":3119,"model":3120,"squ":3121,"demon":3122,"justice":3123,"estim":3124,"Comm":3125,"certainly":3126,"challenge":3127,"bon":3128,"danger":3129,"rout":3130,"stag":3131,"stress":3132,"ico":3133,"uled":3134,"aves":3135,"caused":3136,"Fir":3137,"Que":3138,"uk":3139,"option":3140,"mention":3141,"foreign":3142,"finally":3143,"//":3144,"://":3145,"htt":3146,"ye":3147,"onto":3148,"note":3149,"asking":3150,"helped":3151,"charge":3152,"funds":3153,"hospitals":3154,"Michael":3155,"candidate":3156,"International":3157,"particularly":3158,"symptoms":3159,"Qu":3160,"Sal":3161,"vill":3162,"ze":3163,"stated":3164,"stories":3165,"agency":3166,"moder":3167,"ession":3168,"pressure":3169,"center":3170,"details":3171,"drop":3172,"screen":3173,"Smith":3174,"digital":3175,"Ano":3176,"Spe":3177,"source":3178,"unched":3179,"iven":3180,"overall":3181,"ously":3182,"noon":3183,"36":3184,"Alex":3185,"independ":3186,"towards":3187,"Then":3188,"Union":3189,"Prime":3190,"wonder":3191,"considered":3192,"George":3193,"budget":3194,"Flor":3195,"James":3196,"Ob":3197,"beaut":3198,"climate":3199,"infected":3200,"leadership":3201,"England":3202,"refer":3203,"attr":3204,"Thom":3205,"Those":3206,"explained":3207,"34":3208,"native":3209,"ufact":3210,"ows":3211,"remember":3212,"violence":3213,"Green":3214,"Another":3215,"table":3216,"influ":3217,"answer":3218,"scen":3219,"largest":3220,"charges":3221,"multiple":3222,"beyond":3223,"https":3224,"simply":3225,"yn":3226,"fection":3227,"owned":3228,"itely":3229,"driver":3230,"facilities":3231,"stern":3232,"equipment":3233,"37":3234,"Che":3235,"Here":3236,"Tom":3237,"tick":3238,"partner":3239,"couldn":3240,"looked":3241,"insur":3242,"operation":3243,"reached":3244,"Party":3245,"avoid":3246,"temp":3247,"aries":3248,"vert":3249,"constit":3250,"exact":3251,"nov":3252,"esterday":3253,"erc":3254,"expand":3255,"providing":3256,"fortun":3257,"named":3258,"natural":3259,"First":3260,"Distr":3261,"Rs":3262,"gar":3263,"lection":3264,"sec":3265,"amb":3266,"register":3267,"ission":3268,"fourth":3269,"feeling":3270,"extreme":3271,"Scott":3272,"British":3273,"physical":3274,"55":3275,"II":3276,"bour":3277,"card":3278,"ij":3279,"mental":3280,"transport":3281,"appeal":3282,"talking":3283,"wait":3284,"tem":3285,"rob":3286,"haps":3287,"sustain":3288,"text":3289,"brief":3290,"continu":3291,"recorded":3292,"Florida":3293,"AC":3294,"ER":3295,"Paul":3296,"Two":3297,"stren":3298,"poor":3299,"encies":3300,"signed":3301,"operations":3302,"reality":3303,"announce":3304,"Most":3305,"experts":3306,"virtual":3307,"rid":3308,"league":3309,"usually":3310,"council":3311,"attend":3312,"investment":3313,"written":3314,"described":3315,"ratio":3316,"Lab":3317,"separ":3318,"ighest":3319,"izing":3320,"benefits":3321,"Israel":3322,"EU":3323,"FC":3324,"inde":3325,"unte":3326,"choice":3327,"Ministry":3328,"appeared":3329,"accused":3330,"Texas":3331,"38":3332,"Hill":3333,"Rob":3334,"highest":3335,"lap":3336,"meant":3337,"Minnes":3338,"planning":3339,"battle":3340,"options":3341,"guidelines":3342,"mine":3343,"amid":3344,"respond":3345,"title":3346,"primary":3347,"negative":3348,"streng":3349,"32":3350,"Mid":3351,"Tur":3352,"flow":3353,"gue":3354,"alone":3355,"trial":3356,"crime":3357,"counts":3358,"fund":3359,"vention":3360,"basis":3361,"agreed":3362,"DP":3363,"Sand":3364,"hib":3365,"iate":3366,"page":3367,"yer":3368,"ering":3369,"iring":3370,"usion":3371,"save":3372,"earnings":3373,"Stud":3374,"launched":3375,"critical":3376,"reduce":3377,"Office":3378,"agreement":3379,"beginning":3380,"college":3381,"\".":3382,"75":3383,"IS":3384,"pm":3385,"ses":3386,"sun":3387,"yan":3388,"acce":3389,"Democrats":3390,"infections":3391,"practice":3392,"damage":3393,"Republican":3394,"affected":3395,"definitely":3396,"Au":3397,"BA":3398,"Port":3399,"Vict":3400,"dy":3401,"skill":3402,"inated":3403,"actor":3404,"corpor":3405,"figure":3406,"scheduled":3407,"episode":3408,"Are":3409,"Law":3410,"ky":3411,"inte":3412,"ongoing":3413,"cture":3414,"demo":3415,"liament":3416,"email":3417,"doors":3418,"spending":3419,"novel":3420,"wouldn":3421,"cook":3422,"Any":3423,"smart":3424,"passeng":3425,"born":3426,"Bill":3427,"Sing":3428,"Sam":3429,"bing":3430,"nine":3431,"ters":3432,"ert":3433,"imag":3434,"users":3435,"plant":3436,"berg":3437,"voting":3438,"subject":3439,"facility":3440,"employment":3441,"returned":3442,"delivery":3443,"failed":3444,"demonstr":3445,"Lu":3446,"Let":3447,"Mac":3448,"sens":3449,"sometimes":3450,"wall":3451,"leaving":3452,"ope":3453,"owners":3454,"manufact":3455,"parties":3456,"version":3457,"setting":3458,"directly":3459,"solute":3460,"Despite":3461,"document":3462,"Director":3463,"yesterday":3464,"traff":3465,"istic":3466,"appre":3467,"upon":3468,"iel":3469,"occur":3470,"original":3471,"rough":3472,"church":3473,"ively":3474,"retail":3475,"Justice":3476,"Minnesota":3477,"39":3478,"IT":3479,"tw":3480,"ara":3481,"lled":3482,"hero":3483,"thank":3484,"keeping":3485,"witness":3486,"critic":3487,"seeking":3488,"District":3489,"Jer":3490,"Ko":3491,"Str":3492,"bound":3493,"flo":3494,"vul":3495,"wish":3496,"isation":3497,"systems":3498,"murder":3499,"48":3500,"Cha":3501,"Gold":3502,"Vir":3503,"obvious":3504,"engine":3505,"facing":3506,"movement":3507,"defense":3508,"majority":3509,"holiday":3510,"Central":3511,"shooting":3512,"BTC":3513,"commercial":3514,"fa":3515,"ito":3516,"ta":3517,"zon":3518,"edom":3519,"consum":3520,"owner":3521,"votes":3522,"Nov":3523,"gives":3524,"graph":3525,"style":3526,"AR":3527,"blood":3528,"rank":3529,"tren":3530,"stake":3531,"rock":3532,"hase":3533,"word":3534,"upd":3535,"legisl":3536,"projects":3537,"location":3538,"features":3539,"determin":3540,"credit":3541,"items":3542,"Los":3543,"bot":3544,"bum":3545,"fat":3546,"ries":3547,"except":3548,"fear":3549,"feet":3550,"incred":3551,"Christmas":3552,"victory":3553,"Mart":3554,"ST":3555,"tool":3556,"ado":3557,"forces":3558,"grant":3559,"Well":3560,"angu":3561,"object":3562,"decades":3563,"patient":3564,"organiz":3565,"manager":3566,"histor":3567,"benefit":3568,"journal":3569,"spring":3570,"ampionship":3571,"33":3572,"LA":3573,"PP":3574,"UN":3575,"bag":3576,"enforce":3577,"aine":3578,"astic":3579,"talent":3580,"condition":3581,"offering":3582,"Victor":3583,"die":3584,"mix":3585,"station":3586,"sets":3587,"worst":3588,"volunte":3589,"Board":3590,"organization":3591,"eventually":3592,"costs":3593,"straight":3594,"65":3595,"Kore":3596,"fresh":3597,"iety":3598,"mail":3599,"reds":3600,"sey":3601,"ctions":3602,"prices":3603,"aware":3604,"Why":3605,"driving":3606,"guy":3607,"ledge":3608,"Although":3609,"consist":3610,"north":3611,"society":3612,"bringing":3613,"birth":3614,"Wal":3615,"tweet":3616,"erve":3617,"absolute":3618,"prosecut":3619,"Commit":3620,"managed":3621,"steps":3622,"initi":3623,"Tech":3624,"completely":3625,"Like":3626,"catch":3627,"dome":3628,"wed":3629,"tough":3630,"comments":3631,"Instag":3632,"Association":3633,"Instagram":3634,"Tok":3635,"cup":3636,"narr":3637,"sat":3638,"ww":3639,"although":3640,"province":3641,"evening":3642,"guard":3643,"ification":3644,"warned":3645,"profit":3646,"offered":3647,"Apple":3648,"Angeles":3649,"Carolina":3650,"exactly":3651,"vulner":3652,"300":3653,"Bre":3654,"Ma":3655,"Mike":3656,"Rich":3657,"uries":3658,"unique":3659,"weight":3660,"exam":3661,"artic":3662,"iful":3663,"Thank":3664,"award":3665,"Chic":3666,"healthy":3667,"putting":3668,"candidates":3669,"temper":3670,"Big":3671,"Fore":3672,"dre":3673,"repe":3674,"beha":3675,"assess":3676,"Also":3677,"capt":3678,"concerned":3679,"elections":3680,"located":3681,"middle":3682,"%.":3683,"Mad":3684,"NFL":3685,"Oh":3686,"Prem":3687,"border":3688,"send":3689,"olf":3690,"construction":3691,"planned":3692,"afternoon":3693,"published":3694,"La":3695,"ech":3696,"fine":3697,"smo":3698,"size":3699,"infection":3700,"lege":3701,"weather":3702,"exerc":3703,"afford":3704,"concern":3705,"successful":3706,"dollars":3707,"cities":3708,"nur":3709,"path":3710,"rush":3711,"infr":3712,"uty":3713,"concl":3714,"ager":3715,"abilities":3716,"atever":3717,"aste":3718,"ips":3719,"awa":3720,"central":3721,"governor":3722,"helping":3723,"investors":3724,"completed":3725,"advant":3726,"spoke":3727,"brother":3728,"CEO":3729,"Lake":3730,"Wil":3731,"rated":3732,"wise":3733,"itation":3734,"teen":3735,"boost":3736,"predict":3737,"decisions":3738,"relig":3739,"joined":3740,"fighting":3741,"culture":3742,"AM":3743,"Sha":3744,"Wo":3745,"paper":3746,"aters":3747,"assa":3748,"ola":3749,"offers":3750,"cry":3751,"spend":3752,"asket":3753,"lands":3754,"ancy":3755,"Chicago":3756,"sort":3757,"yards":3758,"accept":3759,"haven":3760,"comed":3761,"feels":3762,"committed":3763,"girls":3764,"professional":3765,"Ama":3766,"Bor":3767,"dress":3768,"je":3769,"makers":3770,"sick":3771,"wild":3772,"thod":3773,"accom":3774,"ops":3775,"istan":3776,"Star":3777,"centre":3778,"commission":3779,"poll":3780,"type":3781,"eful":3782,"apped":3783,"markets":3784,"network":3785,"street":3786,"doub":3787,"purchase":3788,"piece":3789,"Play":3790,"simple":3791,"amed":3792,"willing":3793,"Secretary":3794,"holding":3795,"Both":3796,"Committee":3797,"47":3798,"Bus":3799,"IC":3800,"Tor":3801,"jump":3802,"wing":3803,"select":3804,"iment":3805,"trail":3806,"crew":3807,"foc":3808,"knows":3809,"eyes":3810,"voice":3811,"victims":3812,"Home":3813,"tack":3814,"€™":3815,"ena":3816,"ivity":3817,"rench":3818,"missed":3819,"join":3820,"holds":3821,"developed":3822,"waiting":3823,"baby":3824,"Governor":3825,"49":3826,"ba":3827,"inch":3828,"stick":3829,"ander":3830,"ultim":3831,"acting":3832,"doctors":3833,"minute":3834,"showing":3835,"stood":3836,"Today":3837,"Service":3838,"housing":3839,"domestic":3840,"Bur":3841,"Lou":3842,"Met":3843,"Po":3844,"Up":3845,"bly":3846,"mach":3847,"south":3848,"ule":3849,"winter":3850,"anda":3851,"emot":3852,"ategy":3853,"ght":3854,"cance":3855,"identified":3856,"yourself":3857,"caught":3858,"reporting":3859,"Mont":3860,"stores":3861,"trades":3862,"reflect":3863,"policies":3864,"picture":3865,"camera":3866,"HS":3867,"gold":3868,"myself":3869,"curren":3870,"arrived":3871,"missing":3872,"Roy":3873,"classes":3874,"easily":3875,"committee":3876,"meaning":3877,"gradu":3878,"recommend":3879,"46":3880,"langu":3881,"ato":3882,"weap":3883,"approved":3884,"plays":3885,"collabor":3886,"thinking":3887,"restaurants":3888,"favorite":3889,"millions":3890,"AT":3891,"sad":3892,"toward":3893,"iced":3894,"igence":3895,"agree":3896,"pool":3897,"scale":3898,"debate":3899,"ximately":3900,"Mil":3901,"ala":3902,"ays":3903,"airs":3904,"writing":3905,"sites":3906,"politics":3907,"College":3908,"teachers":3909,"massive":3910,"focused":3911,"Pre":3912,"categ":3913,"fem":3914,"ga":3915,"toll":3916,"chain":3917,"unities":3918,"uncertain":3919,"ables":3920,"astru":3921,"crash":3922,"strateg":3923,"monitor":3924,"2014":3925,"Management":3926,"competition":3927,"sexual":3928,"analysts":3929,"Mag":3930,"ites":3931,"sea":3932,"agno":3933,"abs":3934,"propos":3935,"sche":3936,"2015":3937,"learned":3938,"astern":3939,"believed":3940,"neighbor":3941,"insurance":3942,"Far":3943,"Mur":3944,"Mel":3945,"SP":3946,"king":3947,"becoming":3948,"fee":3949,"fest":3950,"standard":3951,"Comp":3952,"faced":3953,"appears":3954,"programs":3955,"electric":3956,"appropr":3957,"responsible":3958,"integr":3959,"Mill":3960,"Ty":3961,"Work":3962,"bid":3963,"fli":3964,"yo":3965,"inn":3966,"lose":3967,"runs":3968,"judge":3969,"criminal":3970,"freedom":3971,"vulnerable":3972,"44":3973,"Jud":3974,"Jew":3975,"Mex":3976,"Other":3977,"cere":3978,"dark":3979,"flood":3980,"nature":3981,"rally":3982,"tic":3983,"dem":3984,"corre":3985,"Franc":3986,"produce":3987,"operating":3988,"valued":3989,"distance":3990,"debt":3991,"existing":3992,"appreci":3993,"99":3994,"Def":3995,"Sim":3996,"inner":3997,"hearing":3998,"amaz":3999,"feed":4000,"acters":4001,"youth":4002,"medic":4003,"speech":4004,"transfer":4005,"difference":4006,"Because":4007,"extended":4008,"severe":4009,"relief":4010,"heavy":4011,"tempor":4012,"astructure":4013,"Fire":4014,"bought":4015,"nd":4016,"sou":4017,"sources":4018,"score":4019,"limit":4020,"promot":4021,"carry":4022,"recovery":4023,"Britain":4024,"Amazon":4025,"Cup":4026,"Fol":4027,"cat":4028,"hun":4029,"expressed":4030,"earch":4031,"minim":4032,"Under":4033,"characters":4034,"filed":4035,"green":4036,"approximately":4037,"attacks":4038,"reasons":4039,"opportunities":4040,"diagno":4041,"traditional":4042,"cars":4043,"ipe":4044,"ja":4045,"bel":4046,"university":4047,"usual":4048,"ghan":4049,"clin":4050,"198":4051,"scored":4052,"buying":4053,"France":4054,"Once":4055,"deploy":4056,"grew":4057,"Gov":4058,"watching":4059,"protests":4060,"material":4061,"NE":4062,"Sto":4063,"basket":4064,"iams":4065,"slight":4066,"acher":4067,"shown":4068,"Instead":4069,"strategy":4070,"preced":4071,"highly":4072,"Force":4073,"happens":4074,"winner":4075,"advice":4076,"designed":4077,"Williams":4078,"Russia":4079,"mobile":4080,"hundreds":4081,"Glo":4082,"Oct":4083,"ked":4084,"nie":4085,"sport":4086,"album":4087,"omen":4088,"opin":4089,"wash":4090,"flag":4091,"balance":4092,"shock":4093,"declared":4094,"vehicles":4095,"double":4096,"rupt":4097,"regarding":4098,"PC":4099,"cin":4100,"ka":4101,"rum":4102,"rich":4103,"ube":4104,"section":4105,"proposed":4106,"akh":4107,"ios":4108,"Prof":4109,"hopes":4110,"solid":4111,"iverse":4112,"activity":4113,"prepared":4114,"beautiful":4115,"democr":4116,"Bow":4117,"ko":4118,"lam":4119,"mir":4120,"sides":4121,"Their":4122,"agon":4123,"emy":4124,"Instit":4125,"ensus":4126,"throw":4127,"remote":4128,"ogle":4129,"status":4130,"harm":4131,"assistance":4132,"isolation":4133,"crowd":4134,"farmers":4135,"traffic":4136,",’":4137,"NC":4138,"gro":4139,"mad":4140,"mates":4141,"pil":4142,"sid":4143,"yard":4144,"iny":4145,"omb":4146,"utional":4147,"negot":4148,"lived":4149,"craft":4150,"provides":4151,"healthcare":4152,"ption":4153,"ordered":4154,"accident":4155,"books":4156,"changing":4157,"greater":4158,"talks":4159,"reduced":4160,"Centre":4161,"sembly":4162,"sleep":4163,"dangerous":4164,"Francis":4165,"French":4166,"Jones":4167,"Kar":4168,"Year":4169,"bol":4170,"fix":4171,"gent":4172,"atures":4173,"abin":4174,"notice":4175,"forms":4176,"remained":4177,"Add":4178,"Scot":4179,"ruption":4180,"achieve":4181,"Virgin":4182,"Mary":4183,"TA":4184,"gers":4185,"”,":4186,"anced":4187,"stuff":4188,"pray":4189,"serving":4190,"highlight":4191,"survey":4192,"decade":4193,"responded":4194,"receiving":4195,"campus":4196,"Coronavirus":4197,"terror":4198,"Georg":4199,"extremely":4200,"FA":4201,"Federal":4202,"Mer":4203,"TO":4204,"confl":4205,"anticip":4206,"creating":4207,"drink":4208,"encing":4209,"minor":4210,"Google":4211,"Republicans":4212,"figures":4213,"hurt":4214,"comfortable":4215,"infrastructure":4216,"66":4217,"bow":4218,"barr":4219,"maker":4220,"tally":4221,"ali":4222,"los":4223,"loom":4224,"truck":4225,"proto":4226,"ountain":4227,"apart":4228,"attor":4229,"remind":4230,"arent":4231,"sitting":4232,"politic":4233,"entertain":4234,"risks":4235,"skills":4236,"Cur":4237,"HO":4238,"RS":4239,"Zo":4240,"swe":4241,"zz":4242,"thus":4243,"union":4244,"coin":4245,"igned":4246,"science":4247,"guys":4248,"relative":4249,"allows":4250,"complex":4251,"miles":4252,"responsibility":4253,"horr":4254,"conducted":4255,"truth":4256,"Ak":4257,"Gar":4258,"Ham":4259,"IA":4260,"PM":4261,"Ram":4262,"Ve":4263,"oth":4264,"adap":4265,"older":4266,"mov":4267,"goals":4268,"doz":4269,"shel":4270,"attle":4271,"knowledge":4272,"supposed":4273,"ballot":4274,"purpose":4275,"rooms":4276,"allegedly":4277,"LLC":4278,"modern":4279,"amazing":4280,"LE":4281,"fif":4282,"hone":4283,"kid":4284,"lu":4285,"oring":4286,"lyn":4287,"approv":4288,"herself":4289,"surge":4290,"ballots":4291,"Rock":4292,"clearly":4293,"pression":4294,"stream":4295,"Nigerian":4296,"Germany":4297,"ceremon":4298,"41":4299,"43":4300,"Im":4301,"Sou":4302,"eth":4303,"fle":4304,"vices":4305,"aces":4306,"whatever":4307,"bridge":4308,"cool":4309,"choose":4310,"Andrew":4311,"governments":4312,"laws":4313,"telling":4314,"journey":4315,"excited":4316,"42":4317,"Miss":4318,"Max":4319,"hall":4320,"anal":4321,"adjust":4322,"losing":4323,"excl":4324,"anche":4325,"maybe":4326,"holders":4327,"faces":4328,"happening":4329,"dropped":4330,"Supreme":4331,"circum":4332,"Premier":4333,"68":4334,"95":4335,"Bal":4336,"Eli":4337,"GO":4338,"Nav":4339,"innov":4340,"iled":4341,"beach":4342,"opposition":4343,"liance":4344,"ull":4345,"aps":4346,"anta":4347,"upcoming":4348,"proud":4349,"corner":4350,"izes":4351,"surround":4352,"Develop":4353,"allowing":4354,"measure":4355,"Research":4356,"recovered":4357,"Fox":4358,"floor":4359,"enforcement":4360,"Business":4361,"River":4362,"iar":4363,"sister":4364,"seat":4365,"selling":4366,"owers":4367,"unable":4368,"trou":4369,"update":4370,"cancer":4371,"Who":4372,"speaking":4373,"write":4374,"interesting":4375,"confidence":4376,"believes":4377,"Delhi":4378,"Community":4379,"fortunately":4380,"advantage":4381,"Penn":4382,"Ver":4383,"jun":4384,"pted":4385,"stars":4386,"veter":4387,"urged":4388,"hasn":4389,"isters":4390,"Though":4391,"strain":4392,"Trans":4393,"regional":4394,"helps":4395,"raise":4396,"supporting":4397,"function":4398,"loyd":4399,"liter":4400,"Island":4401,"telligence":4402,"elected":4403,"largely":4404,"rule":4405,"connection":4406,"eye":4407,"treated":4408,"Capital":4409,"mentioned":4410,"independent":4411,"continuing":4412,"language":4413,"400":4414,"Du":4415,"Ill":4416,"fis":4417,"fant":4418,"gins":4419,"mist":4420,"nice":4421,"icts":4422,"acing":4423,"seg":4424,"outs":4425,"plus":4426,"acted":4427,"presents":4428,"remark":4429,"Frank":4430,"films":4431,"payment":4432,"solution":4433,"Services":4434,"Disney":4435,"movies":4436,"Hum":4437,"MA":4438,"Your":4439,"eder":4440,"accur":4441,"image":4442,"unit":4443,"doctor":4444,"autom":4445,"Chris":4446,"reading":4447,"voted":4448,"rising":4449,"stopped":4450,"locations":4451,"injuries":4452,",'":4453,"RC":4454,"reopen":4455,"stances":4456,"ares":4457,"constant":4458,"perhaps":4459,"worse":4460,"grade":4461,"bling":4462,"Church":4463,"starts":4464,"breaking":4465,"Mayor":4466,"generation":4467,"effects":4468,"protesters":4469,"potentially":4470,"collection":4471,"suggested":4472,"married":4473,"doubt":4474,"Hall":4475,"Haw":4476,"Ky":4477,"Mem":4478,"Mah":4479,"burn":4480,"da":4481,"hang":4482,"va":4483,"adium":4484,"ulated":4485,"attended":4486,"flight":4487,"persons":4488,"useum":4489,"audi":4490,"hotel":4491,"attempt":4492,"appointed":4493,"established":4494,"Valley":4495,"Thomas":4496,"faith":4497,"Fund":4498,"Jim":4499,"Jef":4500,"Mu":4501,"Tay":4502,"pun":4503,"ered":4504,"ano":4505,"ica":4506,"lywood":4507,"illness":4508,"proceed":4509,"ifying":4510,"odes":4511,"transition":4512,"Leg":4513,"ological":4514,"Grand":4515,"records":4516,"origin":4517,"welcome":4518,"application":4519,"organizations":4520,"absolutely":4521,"Company":4522,"basketball":4523,"Bef":4524,"cation":4525,"migr":4526,"rare":4527,"sale":4528,"session":4529,"tourn":4530,"resc":4531,"creative":4532,"finish":4533,"returning":4534,"Dec":4535,"entered":4536,"witch":4537,"seemed":4538,"expert":4539,"immediate":4540,"spirit":4541,"conversation":4542,"registered":4543,"negoti":4544,"Before":4545,"Er":4546,"Gl":4547,"Pak":4548,"era":4549,"oral":4550,"edge":4551,"ari":4552,"user":4553,"consequ":4554,"sures":4555,"bled":4556,"internet":4557,"color":4558,"lots":4559,"apparent":4560,"presented":4561,"powerful":4562,"advoc":4563,"motor":4564,"spokesperson":4565,"female":4566,"correct":4567,"78":4568,"NS":4569,"Post":4570,"Times":4571,"divid":4572,"gree":4573,"wan":4574,"erous":4575,"rev":4576,"ada":4577,"agencies":4578,"loan":4579,"arden":4580,"uded":4581,"presence":4582,"finished":4583,"flights":4584,"stands":4585,"joint":4586,"apply":4587,"passion":4588,"Prince":4589,"killing":4590,"occas":4591,"equity":4592,"understanding":4593,"injury":4594,"photos":4595,"writer":4596,"pushed":4597,"encourage":4598,"fellow":4599,"Wood":4600,"EC":4601,"Sol":4602,"mic":4603,"psy":4604,"rial":4605,"tight":4606,"reopening":4607,"itar":4608,"becomes":4609,"unemployment":4610,"wealth":4611,"artist":4612,"odies":4613,"Brown":4614,"supporters":4615,"transform":4616,"payments":4617,"protection":4618,"Good":4619,"allegations":4620,"celebrate":4621,"favour":4622,"crore":4623,"estimated":4624,"announcement":4625,"Follow":4626,"!”":4627,"BI":4628,"Care":4629,"Chair":4630,"Den":4631,"MC":4632,"Mod":4633,"Sci":4634,"fuel":4635,"mate":4636,"male":4637,"zone":4638,"ingly":4639,"asy":4640,"icated":4641,"enty":4642,"igan":4643,"frust":4644,"method":4645,"strike":4646,"stein":4647,"finding":4648,"Organ":4649,"delivered":4650,"strength":4651,"Ten":4652,"bs":4653,"nu":4654,"pir":4655,"vin":4656,"stret":4657,"iter":4658,"lets":4659,"iles":4660,"secretary":4661,"univers":4662,"abuse":4663,"shall":4664,"shots":4665,"cancell":4666,"produced":4667,"Robert":4668,"Blue":4669,"Finally":4670,"initially":4671,"Author":4672,"twice":4673,"Georgia":4674,"protocol":4675,"56":4676,"Cy":4677,"RA":4678,"Sher":4679,"dad":4680,"ibe":4681,"vant":4682,"admitted":4683,"portion":4684,"cohol":4685,"ulture":4686,"signs":4687,"ologies":4688,"Atl":4689,"occup":4690,"Engl":4691,"easier":4692,"streets":4693,"install":4694,"drugs":4695,"Harry":4696,"introduced":4697,"Victoria":4698,"Korea":4699,"Techn":4700,"article":4701,"Louis":4702,"Edu":4703,"Ir":4704,"Pan":4705,"Sever":4706,"dance":4707,"gender":4708,"pa":4709,"pitch":4710,"anx":4711,"aran":4712,"advert":4713,"rose":4714,"whom":4715,"degree":4716,"oppon":4717,"atest":4718,"sharing":4719,"sole":4720,"print":4721,"effic":4722,"mostly":4723,"guil":4724,"streaming":4725,"Club":4726,"familiar":4727,"margin":4728,"injured":4729,"truly":4730,"rapid":4731,"Jackson":4732,"scenar":4733,"separate":4734,"exercise":4735,"religious":4736,"Virginia":4737,"Found":4738,"fal":4739,"iage":4740,"kins":4741,"laugh":4742,"pic":4743,"isted":4744,"evol":4745,"coast":4746,"ailed":4747,"enses":4748,"forecast":4749,"pursu":4750,"broke":4751,"audience":4752,"Australian":4753,"lifted":4754,"radio":4755,"Sanders":4756,"English":4757,"AS":4758,"Avenue":4759,"Hy":4760,"OS":4761,"Out":4762,"Spr":4763,"mes":4764,"ried":4765,"scor":4766,"task":4767,"ua":4768,"bell":4769,"decre":4770,"agues":4771,"complic":4772,"prime":4773,"acks":4774,"athlet":4775,"supported":4776,"directed":4777,"remaining":4778,"Feb":4779,"ordinary":4780,"assault":4781,"Development":4782,"ET":4783,"Fre":4784,"Fam":4785,"MS":4786,"Mass":4787,"Sa":4788,"Wall":4789,"cold":4790,"hate":4791,"iors":4792,"ration":4793,"snow":4794,"zo":4795,"stone":4796,"aling":4797,"ita":4798,"itt":4799,"entry":4800,"owa":4801,"urban":4802,"igation":4803,"usive":4804,"embr":4805,"fraud":4806,"mod":4807,"excell":4808,"istics":4809,"0000":4810,"closing":4811,"ashion":4812,"transmission":4813,"Lee":4814,"reportedly":4815,"tells":4816,"skin":4817,"supplies":4818,"filled":4819,"analys":4820,"circumstances":4821,"Elect":4822,"Sar":4823,"eper":4824,"armed":4825,"aspect":4826,"weak":4827,"saving":4828,"prefer":4829,"century":4830,"studies":4831,"Army":4832,"Security":4833,"hoping":4834,"practices":4835,"priority":4836,"guidance":4837,"Market":4838,"Russian":4839,"suspended":4840,"Peter":4841,"scientists":4842,"passengers":4843,"obviously":4844,"appropriate":4845,"Institute":4846,"77":4847,"NY":4848,"dire":4849,"eat":4850,"giant":4851,"whel":4852,"wave":4853,"heat":4854,"franch":4855,"ounder":4856,"plants":4857,"perman":4858,"ideas":4859,"obtain":4860,"detect":4861,"cycl":4862,"refused":4863,"seriously":4864,"animals":4865,"restaurant":4866,"broadcast":4867,"determined":4868,"efully":4869,"Barr":4870,"IP":4871,"Je":4872,"Kel":4873,"Vice":4874,"batter":4875,"frequ":4876,"leng":4877,"names":4878,"spl":4879,"vac":4880,"inary":4881,"stations":4882,"andon":4883,"iders":4884,"deals":4885,"ulations":4886,"display":4887,"atters":4888,"cert":4889,"closure":4890,"personnel":4891,"operate":4892,"experienced":4893,"alongside":4894,"considering":4895,"researchers":4896,"Series":4897,"banks":4898,"carried":4899,"surprise":4900,"spokesman":4901,"corporate":4902,"Ire":4903,"east":4904,"pto":4905,"pound":4906,"eter":4907,"deput":4908,"conserv":4909,"teacher":4910,"earned":4911,"Western":4912,"pregn":4913,"estate":4914,"reporters":4915,"viewers":4916,"possibility":4917,"burg":4918,"glass":4919,"ruling":4920,"alternative":4921,"Hor":4922,"Jose":4923,"Mat":4924,"Sur":4925,"dden":4926,"ker":4927,"mort":4928,"tur":4929,"stab":4930,"acad":4931,"convict":4932,"plenty":4933,"boys":4934,"discovered":4935,"intend":4936,"developing":4937,"roads":4938,"extend":4939,"interested":4940,"William":4941,"schedule":4942,"pull":4943,"distribution":4944,"television":4945,"Ohio":4946,"scheme":4947,"attorney":4948,"false":4949,"58":4950,"76":4951,"800":4952,"BO":4953,"Maine":4954,"Oly":4955,"Ra":4956,"Tim":4957,"Wis":4958,"bass":4959,"gg":4960,"master":4961,"nut":4962,"insp":4963,"rep":4964,"eds":4965,"itz":4966,"unicip":4967,"worry":4968,"Week":4969,"brings":4970,"coal":4971,"positions":4972,"therefore":4973,"busy":4974,"Art":4975,"norm":4976,"passing":4977,"solutions":4978,"listed":4979,"greatest":4980,"Love":4981,"challenging":4982,"package":4983,"combat":4984,"Harris":4985,"Hen":4986,"Town":4987,"Ut":4988,"recru":4989,"lease":4990,"accounts":4991,"prospect":4992,"antic":4993,"worried":4994,"overwhel":4995,"Three":4996,"everybody":4997,"coverage":4998,"Arab":4999,"pointed":5000,"paying":5001,"trading":5002,"importance":5003,"causing":5004,"Medical":5005,"destroy":5006,"struggling":5007,"software":5008,"suffered":5009,"influence":5010,"secure":5011,"ultimately":5012,"slightly":5013,"approval":5014,"Following":5015,"59":5016,"AI":5017,"Ah":5018,"Cre":5019,"Camp":5020,"Econom":5021,"Floyd":5022,"Gh":5023,"Mich":5024,"Sw":5025,"Tour":5026,"Yet":5027,"Youn":5028,"itude":5029,"icon":5030,"frame":5031,"airport":5032,"guess":5033,"postpon":5034,"informed":5035,"closely":5036,"videos":5037,"Canadian":5038,"clients":5039,"Mexico":5040,"tournament":5041,"length":5042,"Ap":5043,"Bit":5044,"Kim":5045,"core":5046,"fare":5047,"fish":5048,"mile":5049,"atically":5050,"island":5051,"aced":5052,"contest":5053,"sudden":5054,"apol":5055,"nock":5056,"boss":5057,"thanks":5058,"phen":5059,"phones":5060,"numerous":5061,"Albert":5062,"Social":5063,"statements":5064,"possibly":5065,"advance":5066,"ministry":5067,"Christian":5068,"Micro":5069,"Parliament":5070,"materials":5071,"Olymp":5072,"52":5073,"600":5074,"Ali":5075,"Fort":5076,"Gal":5077,"Iowa":5078,"Long":5079,"Tre":5080,"Van":5081,"Ze":5082,"fires":5083,"ji":5084,"orm":5085,"stim":5086,"alcohol":5087,"ented":5088,"del":5089,"debut":5090,"exchange":5091,"artists":5092,"aked":5093,"elig":5094,"ipt":5095,"comput":5096,"driven":5097,"background":5098,"iction":5099,"famous":5100,"goods":5101,"Only":5102,"defend":5103,"protective":5104,"taxes":5105,"entirely":5106,"weren":5107,"purchased":5108,"confident":5109,"songs":5110,"Singh":5111,"abinet":5112,"honest":5113,"%,":5114,"HE":5115,"Rem":5116,"Yes":5117,"gon":5118,"phase":5119,"rang":5120,"tend":5121,"removed":5122,"assure":5123,"cher":5124,"agric":5125,"optim":5126,"opted":5127,"trave":5128,"shar":5129,"arts":5130,"ipp":5131,"newly":5132,"Still":5133,"icket":5134,"emphas":5135,"rett":5136,"deser":5137,"cuts":5138,"Beach":5139,"expensive":5140,"decline":5141,"please":5142,"Commissioner":5143,"Earth":5144,"trend":5145,"dream":5146,"Royal":5147,"Human":5148,"72":5149,"Det":5150,"Watch":5151,"Zim":5152,"ti":5153,"intelligence":5154,"ental":5155,"ador":5156,"loans":5157,"actual":5158,"iest":5159,"Italy":5160,"mond":5161,"Assembly":5162,"retire":5163,"closer":5164,"Lead":5165,"aught":5166,"younger":5167,"broken":5168,"employee":5169,"pieces":5170,"Netfli":5171,"linked":5172,"Daniel":5173,"wedding":5174,"neighborhood":5175,"Several":5176,"Ireland":5177,"Netflix":5178,"Ash":5179,"Bol":5180,"Get":5181,"NBA":5182,"Women":5183,"tied":5184,"liber":5185,"trick":5186,"ains":5187,"poses":5188,"drivers":5189,"leads":5190,"mayor":5191,"larger":5192,"memor":5193,"producer":5194,"warm":5195,"warning":5196,"Advis":5197,"promise":5198,"moments":5199,"commitment":5200,"Execut":5201,"Look":5202,"models":5203,"racial":5204,"losses":5205,"professor":5206,"Financial":5207,"clubs":5208,"inois":5209,"storm":5210,"chairman":5211,"devast":5212,"Addition":5213,"Education":5214,"Ag":5215,"Bir":5216,"Bet":5217,"Hel":5218,"Pac":5219,"iation":5220,"ki":5221,"lan":5222,"mouth":5223,"sor":5224,"yers":5225,"inations":5226,"icing":5227,"leaves":5228,"iling":5229,"lder":5230,"ourselves":5231,"shift":5232,"ups":5233,"offs":5234,"bles":5235,"counted":5236,"govern":5237,"2013":5238,"lawyer":5239,"singer":5240,"plane":5241,"promised":5242,"staying":5243,"denied":5244,"determine":5245,"immigr":5246,"Earlier":5247,"survive":5248,"featured":5249,"Liber":5250,"consumers":5251,"Illinois":5252,"4th":5253,"Best":5254,"Four":5255,"Hot":5256,"Ira":5257,"Put":5258,"turning":5259,"yes":5260,"earth":5261,"clim":5262,"creation":5263,"bright":5264,"internal":5265,"views":5266,"Acad":5267,"confirm":5268,"smaller":5269,"carrying":5270,"environmental":5271,"establish":5272,"zero":5273,"partnership":5274,"uncertainty":5275,"analysis":5276,"CN":5277,"Dou":5278,"Fer":5279,"Jord":5280,"Kat":5281,"Press":5282,"cards":5283,"gift":5284,"unless":5285,"blue":5286,"Where":5287,"polls":5288,"downs":5289,"Trust":5290,"provin":5291,"Ass":5292,"seasons":5293,"Adam":5294,"programme":5295,"Spain":5296,"profession":5297,"visitors":5298,"trol":5299,"applications":5300,"Brook":5301,"ceremony":5302,"direction":5303,"Young":5304,"Executive":5305,"Iraq":5306,"Bob":5307,"CDC":5308,"Gen":5309,"Hou":5310,"Lt":5311,"Life":5312,"nav":5313,"units":5314,"proced":5315,"shire":5316,"quart":5317,"pra":5318,"acknow":5319,"newsp":5320,"manage":5321,"Station":5322,"draft":5323,"backed":5324,"ships":5325,"Conne":5326,"relevant":5327,"meetings":5328,"employed":5329,"counties":5330,"basic":5331,"acquired":5332,"penal":5333,"suffering":5334,"consult":5335,"institutions":5336,"associated":5337,"imagine":5338,"Martin":5339,"repeated":5340,"Jewish":5341,"Francisco":5342,"stretch":5343,"62":5344,"67":5345,"GA":5346,"ME":5347,"ell":5348,"lad":5349,"matters":5350,"sight":5351,"tag":5352,"ici":5353,"oted":5354,"ette":5355,"device":5356,"resume":5357,"outdoor":5358,"actors":5359,"actress":5360,"strik":5361,"Child":5362,"dry":5363,"phy":5364,"capable":5365,"Enter":5366,"listen":5367,"customer":5368,"racism":5369,"Guard":5370,"structure":5371,"village":5372,"Obama":5373,"Middle":5374,"fiscal":5375,"Foundation":5376,"53":5377,"CC":5378,"IV":5379,"Rod":5380,"bes":5381,"bail":5382,"ox":5383,"powers":5384,"rick":5385,"wake":5386,"wins":5387,"reject":5388,"shif":5389,"quiet":5390,"crimes":5391,"offices":5392,"Coast":5393,"Former":5394,"covering":5395,"requires":5396,"caution":5397,"ucky":5398,"industrial":5399,"Food":5400,"parking":5401,"platforms":5402,"documents":5403,"houses":5404,"Officer":5405,"tools":5406,"Taylor":5407,"guilty":5408,"franchise":5409,"Microsoft":5410,"'.":5411,"69":5412,"Abu":5413,"Cam":5414,"Each":5415,"OT":5416,"Ok":5417,"Ron":5418,"UR":5419,"Whe":5420,"fashion":5421,"uce":5422,"ini":5423,"renew":5424,"stance":5425,"icide":5426,"ros":5427,"oles":5428,"irt":5429,"exchanges":5430,"dra":5431,"dram":5432,"pping":5433,"inson":5434,"Ariz":5435,"Color":5436,"Democrat":5437,"Local":5438,"picked":5439,"messages":5440,"participate":5441,"surprising":5442,"German":5443,"Turkey":5444,"volunteers":5445,"Zoom":5446,"nuclear":5447,"88":5448,"Bloom":5449,"bars":5450,"hes":5451,"lvan":5452,"vior":5453,"waste":5454,"remove":5455,"championship":5456,"cean":5457,"neck":5458,"tray":5459,"quir":5460,"disput":5461,"scar":5462,"collap":5463,"venues":5464,"syn":5465,"Real":5466,"laid":5467,"Boston":5468,"struck":5469,"values":5470,"Administr":5471,"Islam":5472,"Maybe":5473,"quarterback":5474,"talked":5475,"interests":5476,"variety":5477,"failure":5478,"Iranian":5479,"appointment":5480,"surprised":5481,"Among":5482,"gatherings":5483,"pulled":5484,"Muslim":5485,"incredibly":5486,"Richard":5487,"opinion":5488,"Scotland":5489,"conflict":5490,"Jeff":5491,"Pakistan":5492,"Ghana":5493,"sharp":5494,"57":5495,"Election":5496,"Game":5497,"Lag":5498,"Lew":5499,"Rad":5500,"Ryan":5501,"Sports":5502,"Wind":5503,"nations":5504,"obl":5505,"rural":5506,"iti":5507,"lean":5508,"hab":5509,"liqu":5510,"ulate":5511,"ained":5512,"exhib":5513,"acts":5514,"corruption":5515,"ipped":5516,"manner":5517,"ureau":5518,"Asia":5519,"ultural":5520,"2012":5521,"settle":5522,"visited":5523,"maxim":5524,"consensus":5525,"defensive":5526,"Project":5527,"cycle":5528,"walking":5529,"Team":5530,"deadly":5531,"prepare":5532,"connected":5533,"discussion":5534,"advised":5535,"CBS":5536,"occurred":5537,"birthday":5538,"Thanks":5539,"currency":5540,"Profess":5541,"fifth":5542,"dividend":5543,"Michigan":5544,"54":5545,"64":5546,"Back":5547,"Kong":5548,"Pay":5549,"UC":5550,"WE":5551,"kne":5552,"none":5553,"sought":5554,"arms":5555,"lement":5556,"bear":5557,"seats":5558,"cha":5559,"trig":5560,"moves":5561,"grown":5562,"auto":5563,"brary":5564,"myster":5565,"arrang":5566,"knowing":5567,"2010":5568,"2011":5569,"Ford":5570,"dealing":5571,"spreading":5572,"authority":5573,"Foot":5574,"honor":5575,"devices":5576,"Toronto":5577,"monitoring":5578,"quarters":5579,"Daily":5580,"Ha":5581,"Rom":5582,"Sil":5583,"Vill":5584,"fired":5585,"iPh":5586,"rd":5587,"rig":5588,"ramp":5589,"tens":5590,"infl":5591,"iser":5592,"secret":5593,"ads":5594,"improv":5595,"aggress":5596,"expo":5597,"express":5598,"umn":5599,"iana":5600,"Bron":5601,"guaran":5602,"sylvan":5603,"substant":5604,"factors":5605,"shopping":5606,"window":5607,"gathering":5608,"appearance":5609,"temporary":5610,"entertainment":5611,"Eliza":5612,"consequences":5613,"Jordan":5614,"Div":5615,"Ev":5616,"Eag":5617,"Ka":5618,"SU":5619,"Water":5620,"jail":5621,"pal":5622,"sees":5623,"rop":5624,"unk":5625,"suff":5626,"pled":5627,"apartment":5628,"offensive":5629,"coordin":5630,"identity":5631,"hole":5632,"adds":5633,"Asian":5634,"studio":5635,"standards":5636,"household":5637,"investigating":5638,"ski":5639,"riots":5640,"Plan":5641,"System":5642,"tourism":5643,"marriage":5644,"updated":5645,"crypto":5646,"shelter":5647,"Pennsylvan":5648,"psych":5649,"protocols":5650,"51":5651,"Cath":5652,"Fl":5653,"Son":5654,"Show":5655,"Way":5656,"cers":5657,"file":5658,"knock":5659,"nic":5660,"rom":5661,"yield":5662,"’.":5663,"thes":5664,"tomor":5665,"assu":5666,"aside":5667,"assets":5668,"beth":5669,"conven":5670,"western":5671,"ulty":5672,"uma":5673,"Head":5674,"otherwise":5675,"regions":5676,"puts":5677,"tonight":5678,"gotten":5679,"Second":5680,"officially":5681,"returns":5682,"struggle":5683,"Jersey":5684,"canceled":5685,"Global":5686,"Vegas":5687,"tomorrow":5688,"150":5689,"Jay":5690,"golf":5691,"vast":5692,"wound":5693,"aland":5694,"isan":5695,"illegal":5696,"unclear":5697,"tel":5698,"notes":5699,"boat":5700,"blow":5701,"Ann":5702,"intended":5703,"adequ":5704,"handle":5705,"Control":5706,"venture":5707,"lights":5708,"ronic":5709,"panel":5710,"troops":5711,"neighbour":5712,"implemented":5713,"resolution":5714,"Speaking":5715,"relatively":5716,"apolis":5717,"Houston":5718,"250":5719,"61":5720,"Bat":5721,"BBC":5722,"Ener":5723,"Fil":5724,"Hop":5725,"Hong":5726,"Jr":5727,"Jam":5728,"Khan":5729,"Ter":5730,"Wu":5731,"gate":5732,"hits":5733,"kitch":5734,"tail":5735,"instruct":5736,"recording":5737,"orter":5738,"idency":5739,"begins":5740,"olic":5741,"reser":5742,"resist":5743,"brain":5744,"Championship":5745,"posit":5746,"homeless":5747,"desper":5748,"bigger":5749,"bench":5750,"targeted":5751,"matches":5752,"motiv":5753,"shops":5754,"multi":5755,"participants":5756,"teaching":5757,"division":5758,"exciting":5759,"crucial":5760,"typically":5761,"scenes":5762,"Labour":5763,"bottom":5764,"www":5765,"proposal":5766,"precedented":5767,"trouble":5768,"Family":5769,"Card":5770,"PA":5771,"fi":5772,"fing":5773,"gap":5774,"lakh":5775,"sch":5776,"vital":5777,"wers":5778,"ero":5779,"theast":5780,"represents":5781,"itors":5782,"unprecedented":5783,"defeat":5784,"ears":5785,"elim":5786,"eval":5787,"epid":5788,"code":5789,"provider":5790,"decide":5791,"transaction":5792,"parliament":5793,"controvers":5794,"emerged":5795,"walked":5796,"resulted":5797,"suggests":5798,"iami":5799,"square":5800,"briefing":5801,"granted":5802,"tweeted":5803,"behavior":5804,"grocer":5805,"excellent":5806,"Arizona":5807,"Pennsylvania":5808,"85":5809,"Agency":5810,"Greg":5811,"Las":5812,"Miami":5813,"bodies":5814,"gi":5815,"mut":5816,"tree":5817,"uth":5818,"uations":5819,"instru":5820,"icy":5821,"images":5822,"una":5823,"apers":5824,"spots":5825,"identify":5826,"missions":5827,"worldwide":5828,"northern":5829,"dedicated":5830,"footage":5831,"percentage":5832,"reaching":5833,"watched":5834,"Class":5835,"sky":5836,"declined":5837,"significantly":5838,"Paris":5839,"encouraged":5840,"explos":5841,"consumer":5842,"increasingly":5843,"route":5844,"Foreign":5845,"machine":5846,"festival":5847,"Judge":5848,"democracy":5849,"politicians":5850,"permanent":5851,"Wiscons":5852,"Alberta":5853,"Di":5854,"Dise":5855,"Having":5856,"Kam":5857,"Mot":5858,"Sum":5859,"Sky":5860,"borders":5861,"dinner":5862,"fly":5863,"pin":5864,"vit":5865,"revol":5866,"cel":5867,"ulus":5868,"ighter":5869,"princ":5870,"spaces":5871,"iley":5872,"Chan":5873,"pread":5874,"Brad":5875,"pharm":5876,"legit":5877,"engaged":5878,"brea":5879,"Ontar":5880,"volume":5881,"entering":5882,"generally":5883,"falling":5884,"bury":5885,"custody":5886,"stronger":5887,"Steve":5888,"Davis":5889,"collected":5890,"requirements":5891,"communication":5892,"indeed":5893,"updates":5894,"incredible":5895,"satis":5896,"weapons":5897,"adapt":5898,"Sheriff":5899,"scoring":5900,"Academy":5901,"Energy":5902,"Wisconsin":5903,"Call":5904,"Eastern":5905,"Fur":5906,"Manche":5907,"lon":5908,"rif":5909,"tact":5910,"warr":5911,"inspir":5912,"stable":5913,"adel":5914,"defe":5915,"ours":5916,"lla":5917,"Its":5918,"bra":5919,"discrim":5920,"downtown":5921,"ogue":5922,"follows":5923,"fewer":5924,"nights":5925,"Indust":5926,"Attor":5927,"cape":5928,"Shar":5929,"fighters":5930,"species":5931,"Plus":5932,"attempts":5933,"Palest":5934,"Hollywood":5935,"ING":5936,"Investment":5937,"fatal":5938,"nursing":5939,"micro":5940,"Elizabeth":5941,"Ontario":5942,"Manchester":5943,"($":5944,"700":5945,"Cu":5946,"Dar":5947,"Fun":5948,"LG":5949,"Mit":5950,"Special":5951,"Walk":5952,"bond":5953,"cou":5954,"duty":5955,"map":5956,"ila":5957,"roles":5958,"outcome":5959,"exposed":5960,"anywhere":5961,"grat":5962,"cks":5963,"evin":5964,"worker":5965,"bless":5966,"counting":5967,"disaster":5968,"drama":5969,"ampions":5970,"aircraft":5971,"Unfortunately":5972,"empty":5973,"legacy":5974,"relax":5975,"seconds":5976,"nearby":5977,"turns":5978,"babwe":5979,"properties":5980,"vaccines":5981,"demands":5982,"photograph":5983,"featuring":5984,"territ":5985,"immune":5986,"invited":5987,"delayed":5988,"estimates":5989,"index":5990,"manufactur":5991,"cinem":5992,"eligible":5993,"Zimbabwe":5994,"exposure":5995,"Bud":5996,"DO":5997,"Emer":5998,"FI":5999,"Gul":6000,"Please":6001,"RO":6002,"Ray":6003,"Tam":6004,"bare":6005,"fake":6006,"fishing":6007,"founder":6008,"ius":6009,"pace":6010,"ria":6011,"intim":6012,"omo":6013,"belong":6014,"rol":6015,"imposed":6016,"igate":6017,"expl":6018,"fees":6019,"antly":6020,"uster":6021,"mechan":6022,"brid":6023,"Bry":6024,"surface":6025,"folks":6026,"breach":6027,"followers":6028,"buildings":6029,"colleagues":6030,"rolled":6031,"instance":6032,"animal":6033,"Queen":6034,"initiative":6035,"strategic":6036,"rescue":6037,"academic":6038,"Colorado":6039,"Lagos":6040,"Lewis":6041,"AE":6042,"Bul":6043,"Emp":6044,"Jason":6045,"Morgan":6046,"NHS":6047,"Oper":6048,"Raj":6049,"Tele":6050,"Tony":6051,"Tube":6052,"Ul":6053,"cul":6054,"eing":6055,"flying":6056,"patch":6057,"switch":6058,"vs":6059,"vy":6060,"inate":6061,"incent":6062,"theme":6063,"ati":6064,"stal":6065,"ilton":6066,"improved":6067,"oph":6068,"termin":6069,"fru":6070,"proof":6071,"ulting":6072,"gry":6073,"meal":6074,"ansion":6075,"Through":6076,"evac":6077,"discover":6078,"iously":6079,"phia":6080,"surger":6081,"thinks":6082,"thoughts":6083,"azil":6084,"equal":6085,"classic":6086,"pressive":6087,"technical":6088,"parent":6089,"properly":6090,"Justin":6091,"compete":6092,"pushing":6093,"combined":6094,"adesh":6095,"recognize":6096,"suspected":6097,"behavi":6098,"accompl":6099,"recommendations":6100,"category":6101,"scenario":6102,"unicipal":6103,"iPhone":6104,"ABC":6105,"Dun":6106,"Down":6107,"Gor":6108,"Hun":6109,"Power":6110,"Sir":6111,"Test":6112,"banned":6113,"rail":6114,"taught":6115,"rec":6116,"reaction":6117,"ales":6118,"alle":6119,"offee":6120,"condem":6121,"ivals":6122,"clar":6123,"eline":6124,"prec":6125,"perspect":6126,"sym":6127,"relations":6128,"courts":6129,"ubs":6130,"locked":6131,"submitted":6132,"Conference":6133,"Mrs":6134,"expectations":6135,"Afghan":6136,"Senator":6137,"nationwide":6138,"NAS":6139,"Medic":6140,"baseball":6141,"Philadel":6142,"enjoyed":6143,"regulations":6144,"routine":6145,"guests":6146,"Anyone":6147,"historic":6148,"graduate":6149,"Wuhan":6150,"Philadelphia":6151,"5G":6152,"Ba":6153,"Men":6154,"OR":6155,"Ret":6156,"Rose":6157,"Sain":6158,"Sud":6159,"een":6160,"ride":6161,"sco":6162,"sweet":6163,"stuck":6164,"oul":6165,"adults":6166,"rot":6167,"oting":6168,"unning":6169,"agents":6170,"enders":6171,"odd":6172,"aka":6173,"formation":6174,"aska":6175,"Brazil":6176,"memory":6177,"lawmakers":6178,"joining":6179,"Season":6180,"subsid":6181,"urses":6182,"promote":6183,"safely":6184,"attempted":6185,"regularly":6186,"Network":6187,"pictures":6188,"communications":6189,"shape":6190,"Students":6191,"passenger":6192,"temperatures":6193,"emotional":6194,"clinical":6195,"Bowl":6196,"accurate":6197,"Chairman":6198,"Award":6199,"Cross":6200,"Great":6201,"Lin":6202,"Lat":6203,"Lim":6204,"dates":6205,"fold":6206,"jack":6207,"lined":6208,"mere":6209,"inals":6210,"ittle":6211,"ils":6212,"adult":6213,"illing":6214,"resent":6215,"likes":6216,"pod":6217,"craz":6218,"spark":6219,"command":6220,"render":6221,"ensuring":6222,"curb":6223,"observed":6224,"flat":6225,"visits":6226,"visiting":6227,"chem":6228,"applied":6229,"Seattle":6230,"factor":6231,"posts":6232,"planet":6233,"Drive":6234,"organis":6235,"claiming":6236,"involve":6237,"preparing":6238,"soldiers":6239,"heavily":6240,"specifically":6241,"sounds":6242,"royal":6243,"stressed":6244,"Area":6245,"legislation":6246,"tackle":6247,"dozens":6248,"junior":6249,"originally":6250,"cancelled":6251,"split":6252,"deputy":6253,"Zealand":6254,"Professor":6255,"2nd":6256,"63":6257,"Die":6258,"Lyn":6259,"Squ":6260,"Time":6261,"bott":6262,"eating":6263,"flex":6264,"til":6265,"theat":6266,"reform":6267,"veget":6268,"sectors":6269,"forth":6270,"forget":6271,"impossible":6272,"uties":6273,"concept":6274,"agent":6275,"abandon":6276,"peak":6277,"fears":6278,"grass":6279,"aug":6280,"bery":6281,"compon":6282,"firms":6283,"descr":6284,"shouldn":6285,"sett":6286,"fundam":6287,"Rober":6288,"passes":6289,"possession":6290,"marketing":6291,"belief":6292,"friendly":6293,"valu":6294,"depth":6295,"profile":6296,"Program":6297,"idespread":6298,"impacted":6299,"competitive":6300,"targets":6301,"threatened":6302,"fairly":6303,"Syd":6304,"deeply":6305,"recognition":6306,"analyst":6307,"discussions":6308,"Morris":6309,"complaints":6310,"types":6311,"conversations":6312,"scientific":6313,"wonderful":6314,"tickets":6315,"consistent":6316,"affordable":6317,"Kelly":6318,"Economic":6319,"postponed":6320,"79":6321,"AF":6322,"Ever":6323,"Free":6324,"Open":6325,"Top":6326,"Vol":6327,"dial":6328,"eli":6329,"kin":6330,"zy":6331,"alive":6332,"bec":6333,"achel":6334,"seas":6335,"unlikely":6336,"unknown":6337,"noticed":6338,"cloud":6339,"oked":6340,"cket":6341,"somebody":6342,"inton":6343,"understood":6344,"Brady":6345,"desire":6346,"raising":6347,"engage":6348,"marked":6349,"lawsuit":6350,"increases":6351,"axy":6352,"azz":6353,"valid":6354,"industries":6355,"involving":6356,"Charles":6357,"About":6358,"indicated":6359,"hundred":6360,"temperature":6361,"weapon":6362,"Southern":6363,"veteran":6364,"Joseph":6365,"retirement":6366,"maximum":6367,"Bab":6368,"Bang":6369,"Beng":6370,"IM":6371,"Jes":6372,"Kevin":6373,"Santa":6374,"Tik":6375,"ee":6376,"elder":6377,"gam":6378,"kil":6379,"sand":6380,"till":6381,"tank":6382,"icient":6383,"begun":6384,"uted":6385,"residence":6386,"lip":6387,"fron":6388,"offense":6389,"spin":6390,"Anth":6391,"weekly":6392,"regime":6393,"elements":6394,"supports":6395,"charity":6396,"iversary":6397,"founded":6398,"experiences":6399,"2008":6400,"Senior":6401,"failing":6402,"violent":6403,"onym":6404,"cells":6405,"genu":6406,"encouraging":6407,"relationships":6408,"manufacturing":6409,"surrounding":6410,"battery":6411,"inspired":6412,"kitchen":6413,"Attorney":6414,"Sydney":6415,"1st":6416,"74":6417,"Eric":6418,"Gi":6419,"Kent":6420,"Right":6421,"SS":6422,"Tit":6423,"Vo":6424,"gall":6425,"km":6426,"march":6427,"museum":6428,"tun":6429,"widespread":6430,"incess":6431,"theless":6432,"enable":6433,"entre":6434,"rolling":6435,"chances":6436,"verse":6437,"weigh":6438,"enda":6439,"upper":6440,"icken":6441,"angers":6442,"cession":6443,"registr":6444,"donated":6445,"clock":6446,"legend":6447,"publicly":6448,"heads":6449,"heading":6450,"marks":6451,"Josh":6452,"handling":6453,"Beat":6454,"2009":6455,"advanced":6456,"Deputy":6457,"burgh":6458,"Corp":6459,"reasonable":6460,"widely":6461,"explains":6462,"Media":6463,"boxes":6464,"performed":6465,"cleaning":6466,"episodes":6467,"Japanese":6468,"Commun":6469,"journalist":6470,"absence":6471,"normally":6472,"assured":6473,"newspaper":6474,"Anthony":6475,"120":6476,"Dom":6477,"Hal":6478,"JP":6479,"Ly":6480,"Land":6481,"Lord":6482,"Op":6483,"Old":6484,"PD":6485,"Sus":6486,"Tal":6487,"bat":6488,"cies":6489,"jur":6490,"pipe":6491,"’,":6492,"ania":6493,"enh":6494,"outr":6495,"escape":6496,"aser":6497,"amoun":6498,"igen":6499,"oppos":6500,"tribut":6501,"trials":6502,"plom":6503,"crack":6504,"spike":6505,"achment":6506,"intent":6507,"donations":6508,"Cooper":6509,"voter":6510,"YouTube":6511,"holdings":6512,"aimed":6513,"extension":6514,"viral":6515,"stitution":6516,"shortly":6517,"medium":6518,"threatening":6519,"respectively":6520,"Warren":6521,"petition":6522,"effectively":6523,"argued":6524,"ticket":6525,"comedy":6526,"diagnosed":6527,"deployed":6528,"anxiety":6529,"athletes":6530,"Henry":6531,"gonna":6532,"acknowled":6533,"Catholic":6534,"valuable":6535,"genuine":6536,"Agr":6537,"Dak":6538,"Ow":6539,"Sn":6540,"Saudi":6541,"Tha":6542,"Vik":6543,"Wat":6544,"pit":6545,"replace":6546,"stages":6547,"accus":6548,"amber":6549,"util":6550,"plate":6551,"apolog":6552,"endors":6553,"grab":6554,"polling":6555,"retired":6556,"ashed":6557,"headed":6558,"cipl":6559,"handed":6560,"signing":6561,"lawyers":6562,"ventil":6563,"limits":6564,"gym":6565,"Corpor":6566,"stepped":6567,"basically":6568,"hammad":6569,"ratings":6570,"beds":6571,"enny":6572,"addressed":6573,"packed":6574,"winds":6575,"storage":6576,"Golden":6577,"concluded":6578,"appreciate":6579,"Bitcoin":6580,"CNN":6581,"Whether":6582,"Further":6583,"GM":6584,"Hold":6585,"Hope":6586,"Pit":6587,"Wild":6588,"sac":6589,"invent":6590,"rely":6591,"replac":6592,"totally":6593,"escal":6594,"asc":6595,"ician":6596,"illy":6597,"chose":6598,"withdraw":6599,"context":6600,"haw":6601,"neut":6602,"respir":6603,"atell":6604,"earn":6605,"meat":6606,"answers":6607,"nobody":6608,"string":6609,"assigned":6610,"Stadium":6611,"intention":6612,"icking":6613,"estimate":6614,"arrive":6615,"coll":6616,"surve":6617,"tenance":6618,"ika":6619,"graphic":6620,"parks":6621,"cultural":6622,"panic":6623,"suspects":6624,"Perhaps":6625,"citizen":6626,"performing":6627,"nomine":6628,"acceler":6629,"accepted":6630,"dynam":6631,"objective":6632,"Wilson":6633,"minimum":6634,"Spring":6635,"professionals":6636,"epidemic":6637,"81":6638,"Bad":6639,"Ep":6640,"Jon":6641,"Live":6642,"Never":6643,"Sk":6644,"Sab":6645,"diverse":6646,"fought":6647,"hat":6648,"lins":6649,"ole":6650,"si":6651,"xit":6652,"reck":6653,"ende":6654,"icit":6655,"seed":6656,"champion":6657,"olar":6658,"brut":6659,"brands":6660,"Stan":6661,"lowest":6662,"arrival":6663,"finance":6664,"issions":6665,"guide":6666,"fled":6667,"cutting":6668,"producing":6669,"Soci":6670,"filing":6671,"apping":6672,"Book":6673,"Northern":6674,"grounds":6675,"motion":6676,"collective":6677,"Regional":6678,"Everyone":6679,"Israeli":6680,"premier":6681,"Check":6682,"narrative":6683,"selected":6684,"Navy":6685,"literally":6686,"segment":6687,"Football":6688,"DE":6689,"Five":6690,"Jac":6691,"Lady":6692,"Matt":6693,"Mumb":6694,"Na":6695,"WHO":6696,"coffee":6697,"garden":6698,"mits":6699,"mph":6700,"ray":6701,"rival":6702,"wage":6703,"thir":6704,"reh":6705,"andal":6706,"itate":6707,"entr":6708,"impe":6709,"etc":6710,"abroad":6711,"tracing":6712,"Ital":6713,"evil":6714,"somewhat":6715,"brill":6716,"intensive":6717,"forever":6718,"vessel":6719,"fundra":6720,"subsequ":6721,"keeps":6722,"findings":6723,"households":6724,"districts":6725,"technologies":6726,"sentence":6727,"salary":6728,"celebration":6729,"diplom":6730,"racist":6731,"discussed":6732,"Guy":6733,"CAA":6734,"represented":6735,"fortunate":6736,"bourne":6737,"sustainable":6738,"Tokyo":6739,"anticipated":6740,"constantly":6741,"universities":6742,"stimulus":6743,"Additionally":6744,"Pacific":6745,"substantial":6746,"Eagles":6747,"Disease":6748,"Bryant":6749,"podcast":6750,"crazy":6751,"73":6752,"?\"":6753,"AL":6754,"Bas":6755,"Es":6756,"Night":6757,"Nations":6758,"PT":6759,"Us":6760,"Vi":6761,"bomb":6762,"drew":6763,"gor":6764,"gear":6765,"pting":6766,"sending":6767,"wart":6768,"insu":6769,"recalled":6770,"orate":6771,"allies":6772,"ami":6773,"amm":6774,"amin":6775,"conspir":6776,"absent":6777,"lift":6778,"prohib":6779,"ula":6780,"plastic":6781,"asts":6782,"cord":6783,"oko":6784,"iption":6785,"backs":6786,"Brian":6787,"Minne":6788,"areness":6789,"cautions":6790,"causes":6791,"controlled":6792,"trained":6793,"Bernie":6794,"Keep":6795,"dogs":6796,"squad":6797,"captured":6798,"Metro":6799,"horror":6800,"Hawai":6801,"occasion":6802,"Denver":6803,"provincial":6804,"Roberts":6805,"TikTok":6806,"89":6807,"Aff":6808,"BS":6809,"Farm":6810,"Han":6811,"Hur":6812,"Lives":6813,"Liver":6814,"Mir":6815,"Sub":6816,"bin":6817,"diversity":6818,"gal":6819,"hill":6820,"pson":6821,"encounter":6822,"oration":6823,"stol":6824,"otic":6825,"opposed":6826,"resort":6827,"resulting":6828,"prop":6829,"ulating":6830,"sover":6831,"export":6832,"exemp":6833,"pover":6834,"2022":6835,"endor":6836,"meals":6837,"ipal":6838,"strange":6839,"achu":6840,"counsel":6841,"discipl":6842,"icks":6843,"vised":6844,"USA":6845,"feelings":6846,"Beij":6847,"patter":6848,"seniors":6849,"Boy":6850,"defence":6851,"mandate":6852,"Meghan":6853,"Juli":6854,"Span":6855,"Space":6856,"races":6857,"contracts":6858,"Airport":6859,"combination":6860,"extraordinary":6861,"Patriots":6862,"altern":6863,"recommended":6864,"institutional":6865,"expanded":6866,"roughly":6867,"volunteer":6868,"collaboration":6869,"computer":6870,"improving":6871,"adequate":6872,"behaviour":6873,"Mumbai":6874,"Minneapolis":6875,"stolen":6876,"Beijing":6877,"Awards":6878,"Bi":6879,"Eth":6880,"Fest":6881,"GB":6882,"GDP":6883,"Hist":6884,"IO":6885,"Nev":6886,"Oak":6887,"Photo":6888,"Sony":6889,"afr":6890,"dining":6891,"faster":6892,"gs":6893,"greg":6894,"iat":6895,"rics":6896,"sam":6897,"inent":6898,"repair":6899,"hell":6900,"beating":6901,"utical":6902,"deem":6903,"essions":6904,"blame":6905,"awards":6906,"aceutical":6907,"prene":6908,"disclosed":6909,"formed":6910,"drag":6911,"mining":6912,"asks":6913,"anniversary":6914,"insisted":6915,"visible":6916,"folio":6917,"Common":6918,"chell":6919,"factory":6920,"Grant":6921,"finds":6922,"extent":6923,"Marvel":6924,"stayed":6925,"wheel":6926,"hari":6927,"burden":6928,"reducing":6929,"dependent":6930,"departments":6931,"outbreaks":6932,"pleas":6933,"representing":6934,"horse":6935,"bills":6936,"slowly":6937,"domin":6938,"explore":6939,"beauty":6940,"Thompson":6941,"Portland":6942,"mixed":6943,"Brexit":6944,"rushed":6945,"Defense":6946,"lux":6947,"itarian":6948,"opponent":6949,"repeatedly":6950,"Bloomberg":6951,"Palestin":6952,"Cuomo":6953,"perspective":6954,"symbol":6955,"Society":6956,"CS":6957,"HD":6958,"Main":6959,"Nation":6960,"Rev":6961,"Rest":6962,"TE":6963,"Win":6964,"bath":6965,"fab":6966,"ju":6967,"mountain":6968,"rug":6969,"satell":6970,"tu":6971,"voc":6972,"sters":6973,"edition":6974,"oured":6975,"chart":6976,"uru":6977,"urge":6978,"eman":6979,"exter":6980,"permitted":6981,"overseas":6982,"cos":6983,"presidency":6984,"regon":6985,"bub":6986,"clothing":6987,"phil":6988,"Cook":6989,"producers":6990,"Sea":6991,"situations":6992,"hopefully":6993,"hospitalized":6994,"carbon":6995,"grees":6996,"experiencing":6997,"McC":6998,"musical":6999,"Clark":7000,"protected":7001,"reduction":7002,"strongly":7003,"banking":7004,"threats":7005,"hosted":7006,"purchasing":7007,"necessarily":7008,"Abd":7009,"divor":7010,"complaint":7011,"qualified":7012,"cameras":7013,"Music":7014,"assessment":7015,"remarks":7016,"conservative":7017,"pregnant":7018,"suddenly":7019,"Administration":7020,"grocery":7021,"surgery":7022,"Dakota":7023,"Ay":7024,"Hay":7025,"Have":7026,"Kay":7027,"Lind":7028,"ML":7029,"Mountain":7030,"Oregon":7031,"Ted":7032,"cill":7033,"cure":7034,"gang":7035,"gaming":7036,"lum":7037,"mart":7038,"mary":7039,"pup":7040,"plead":7041,"wal":7042,"rebound":7043,"ican":7044,"acle":7045,"uters":7046,"dece":7047,"habit":7048,"exit":7049,"therap":7050,"anybody":7051,"ansas":7052,"rence":7053,"thrown":7054,"closures":7055,"captain":7056,"Ross":7057,"subscr":7058,"expects":7059,"mainly":7060,"maintenance":7061,"mandatory":7062,"distur":7063,"fields":7064,"infectious":7065,"Nigerians":7066,"porter":7067,"60s":7068,"labour":7069,"hotels":7070,"Does":7071,"tracking":7072,"Schools":7073,"primarily":7074,"trees":7075,"maintained":7076,"client":7077,"suspic":7078,"nomination":7079,"Investors":7080,"independence":7081,"referred":7082,"Labor":7083,"criticism":7084,"trailer":7085,"apparently":7086,"Modi":7087,"Irish":7088,"Utah":7089,"Ltd":7090,"rejected":7091,"trigger":7092,"territory":7093,"Again":7094,"Dor":7095,"Did":7096,"GH":7097,"Kum":7098,"Little":7099,"PR":7100,"Rap":7101,"Ur":7102,"Vis":7103,"duties":7104,"lunch":7105,"mild":7106,"ov":7107,"rit":7108,"threw":7109,"inquir":7110,"reput":7111,"arus":7112,"army":7113,"icial":7114,"leim":7115,"impressive":7116,"delight":7117,"abled":7118,"trillion":7119,"ulous":7120,"soc":7121,"excess":7122,"llow":7123,"umes":7124,"compreh":7125,"branch":7126,"ministers":7127,"helic":7128,"proven":7129,"underlying":7130,"archite":7131,"tons":7132,"Alab":7133,"apps":7134,"extensive":7135,"listening":7136,"organized":7137,"Moore":7138,"concert":7139,"processes":7140,"harvest":7141,"cyber":7142,"ruled":7143,"graphy":7144,"rupted":7145,"swim":7146,"reliable":7147,"isolated":7148,"snap":7149,"kicked":7150,"channel":7151,"Turk":7152,"Current":7153,"Members":7154,"Authority":7155,"brilliant":7156,"84":7157,"Bag":7158,"Ball":7159,"CH":7160,"Dy":7161,"ES":7162,"Fair":7163,"Kir":7164,"Light":7165,"Nel":7166,"Nick":7167,"OK":7168,"Pen":7169,"Pop":7170,"Rog":7171,"Six":7172,"VP":7173,"Viet":7174,"Ye":7175,"iqu":7176,"lady":7177,"oo":7178,"rand":7179,"sis":7180,"tip":7181,"aled":7182,"arc":7183,"aya":7184,"owed":7185,"owing":7186,"roof":7187,"roots":7188,"verage":7189,"degrees":7190,"resil":7191,"outing":7192,"grate":7193,"cooperation":7194,"centres":7195,"formal":7196,"thrill":7197,"landed":7198,"facts":7199,"Without":7200,"shortage":7201,"falls":7202,"refuge":7203,"nationally":7204,"educational":7205,"SARS":7206,"representative":7207,"performances":7208,"Highway":7209,"blocks":7210,"90s":7211,"Buil":7212,"Buhari":7213,"MPs":7214,"argument":7215,"Officers":7216,"resolved":7217,"constitu":7218,"constitutional":7219,"cooking":7220,"historical":7221,"Boris":7222,"jumped":7223,"categories":7224,"medicine":7225,"fixed":7226,"Hamilton":7227,"NSW":7228,"agricultural":7229,"Gulf":7230,"entreprene":7231,"poverty":7232,"Spanish":7233,"3rd":7234,"96":7235,"Av":7236,"Broad":7237,"Civil":7238,"Fall":7239,"Gra":7240,"Ku":7241,"Later":7242,"RT":7243,"Ren":7244,"Sams":7245,"bors":7246,"dim":7247,"dying":7248,"egg":7249,"gross":7250,"nis":7251,"nurses":7252,"rub":7253,"tum":7254,"wore":7255,"isher":7256,"assum":7257,"behalf":7258,"admit":7259,"utter":7260,"conver":7261,"emissions":7262,"noting":7263,"2000":7264,"upgrad":7265,"awareness":7266,"prepar":7267,"intense":7268,"Which":7269,"scape":7270,"element":7271,"personally":7272,"perior":7273,"capabilities":7274,"ahu":7275,"Environment":7276,"Should":7277,"processing":7278,"expansion":7279,"borrow":7280,"spoken":7281,"portray":7282,"Michel":7283,"hosting":7284,"coaches":7285,"assistant":7286,"judg":7287,"swing":7288,"incidents":7289,"reviewed":7290,"delivering":7291,"gathered":7292,"isolate":7293,"cruise":7294,"Indiana":7295,"sanctions":7296,"awarded":7297,"Prevention":7298,"ederation":7299,"negotiations":7300,"Science":7301,"efficient":7302,"Treas":7303,"Radio":7304,"sufficient":7305,"Mitchell":7306,"elderly":7307,"Agric":7308,"neutral":7309,"leimani":7310,"Samsung":7311,"Dev":7312,"Luc":7313,"ND":7314,"Nic":7315,"Os":7316,"Oli":7317,"Rights":7318,"Set":7319,"Tar":7320,"Uk":7321,"bn":7322,"bally":7323,"bread":7324,"cited":7325,"dated":7326,"dating":7327,"eager":7328,"fro":7329,"fits":7330,"latter":7331,"tent":7332,"wrest":7333,"reporter":7334,"editor":7335,"toile":7336,"illance":7337,"usal":7338,"nels":7339,"liked":7340,"proportion":7341,"exceed":7342,"anymore":7343,"spons":7344,"blast":7345,"compar":7346,"disappointed":7347,"Stat":7348,"format":7349,"mini":7350,"airline":7351,"Cost":7352,"Report":7353,"funeral":7354,"Bell":7355,"foundation":7356,"managing":7357,"sixth":7358,"seemingly":7359,"emerging":7360,"privile":7361,"contacted":7362,"celebrated":7363,"70s":7364,"interviews":7365,"drawn":7366,"fitness":7367,"contribute":7368,"contributed":7369,"crowds":7370,"regulatory":7371,"attribut":7372,"Scottish":7373,"bags":7374,"smooth":7375,"Melbourne":7376,"washing":7377,"dozen":7378,"fantastic":7379,"bassy":7380,"destroyed":7381,"Children":7382,"Division":7383,"Italian":7384,"Liverpool":7385,"afraid":7386,"Abdul":7387,"Ban":7388,"Ell":7389,"Gun":7390,"Games":7391,"Jour":7392,"Matter":7393,"Such":7394,"Tai":7395,"UT":7396,"mat":7397,"nab":7398,"uf":7399,"uct":7400,"uated":7401,"anne":7402,"rein":7403,"enjo":7404,"adopted":7405,"chap":7406,"unve":7407,"ett":7408,"confront":7409,"tears":7410,"extr":7411,"prise":7412,"overnight":7413,"boards":7414,"cream":7415,"precautions":7416,"ishment":7417,"flav":7418,"legally":7419,"Constitution":7420,"economies":7421,"detail":7422,"lists":7423,"harder":7424,"hitting":7425,"stocks":7426,"humans":7427,"campaigns":7428,"protecting":7429,"Stephen":7430,"privacy":7431,"coaching":7432,"barrel":7433,"pleased":7434,"representatives":7435,"immunity":7436,"Chiefs":7437,"gained":7438,"requested":7439,"contained":7440,"acquiring":7441,"virtually":7442,"survived":7443,"distributed":7444,"cancel":7445,"Montreal":7446,"Murphy":7447,"temporarily":7448,"pilot":7449,"pounds":7450,"recruit":7451,"devastating":7452,"Diego":7453,"Chel":7454,"Gir":7455,"Gard":7456,"HL":7457,"Lau":7458,"PO":7459,"ders":7460,"ias":7461,"pump":7462,"rice":7463,"tall":7464,"wine":7465,"wich":7466,"inno":7467,"theaters":7468,"reward":7469,"ication":7470,"entit":7471,"aco":7472,"chat":7473,"amend":7474,"urgent":7475,"utch":7476,"etic":7477,"opens":7478,"shore":7479,"antib":7480,"ller":7481,"odds":7482,"portfolio":7483,"ause":7484,"compens":7485,"ached":7486,"dish":7487,"centers":7488,"curities":7489,"providers":7490,"chosen":7491,"observ":7492,"beta":7493,"setts":7494,"breath":7495,"Read":7496,"handful":7497,"realized":7498,"Conserv":7499},"merges":["t h","i n","e r","a n","th e","o n","r e","a t","e n","o r","s t","e d","a l","in g","t o","o u","a r","i s","an d","e s","a s","i t","o f","i c","l e","h e","o m","i on","en t","i l","i d","b e","v e","a c","s e","a d","f or","a y","o w","l y","r o","c h","a m","o l","w h","th at","v er","i r","i m","u r","o t","i g","u n","a re","i th","u t","T he","er s","e t","il l","c e","w ith","c t","at ion","u s","d e","c on","a g","o p","w e","h a","a b","n e","er e","re s","c om","l i","e m","t er","l o","w as","p e","s a","al l","l d","t r","ou r","at e","ou t","f r","k e","m o","p ro","ou n","s u","u l","s h","t e","s o","m ent","ha ve","p l","sa id","a in","h as","ig h","e x","i st","a p","it y","f e","h is","ar t","on e","es s","b y","fr om","i es","th er","an t","i ve","p o","or t","w ill","n ot","d ay","ou ld","g o","2 0","l l","i f","q u","u m","e ar","u st","a st","en d","p er","i al","w or","th is","g e","ac t","i v","om e","u p","p r","o d","igh t","p ort","a k","ac k","g h","y ou","an y","d o","ar d","b ut","ic e","I n","the ir","c l","0 0","i e","g r","a f","the y","ow n","wh o","o ver","u d","c an","h er","m e","e l","y ear","a v","of f","be en","t im","ou gh","an s","T h","al ly","in e","on g","c r","d er","o re","c or","id e","it s","a u",", ”","n ow","h ad","in d","o k","mo re","i a","i p","w ere","ic h","b er","c k","op le","ion s","s p","i re","I t","e v","1 9","at ed","e p","wor k","a ke","ou s","al so","am e","pe ople","oun d","ab out","W e","n o","u e",". ”","ne w","b o","ag e","b l","com p","H e","m an","u re","t s","ab le","g et","s ome","c re","a w","st r","ac h","wh ich","as s","p art","b r","e ver","ac e","o ther","s he","i le","f ir","w ould","C h","tim e","c o","ar y","id ent","c oun","li ke","po s","p re","i z","en ce","th ing","con t","a il","s er","p res","A n","d is","af ter","S t","c ent","th ere","in t","w o","ol d","com m","re n","e k","th an","ig n","wh en","W h","for m","j ust","i b","w ay","as e","an ce","l ow","p ol","the m","it e","c ial","ar k","ation s","or s","m y","d u","ic k","ct ion","t y","pl ay","s ay","d r","n ing","re e","m ed","b ack","m on","ve l","en s","ent s","is h","at t","wh at","e f","it ion","ic al","f er","ur ing","d ing","h o","al th","fir st","t wo","ad e","d own","ir us","c ur","e st","in to","i an","t ing","at es","T r","f ore","en c","we ek","th r","an g","o se","y our","c au","ad d","h ow","at ing","m in","ic t","c ould","he l","ne ed","ar r","re ad","h im","c ess","m er","mo st","p p","pro v","u bl","ch o","te st","T his","i ous","it ies","B ut","tr y","s c","ag ain","pe ct","as k","f ul","A s","in k","cau se","o b","am p","com e","f in","or y","un der","i ed","re port","l ast","ul t","re g","a th","n ment","go ver","in cl","at er","be ing","s s","um p","ver s","a ir","on ly","b u","e w","thr ough","as on","ation al","d on","re m","C O","se l","c er","ubl ic","f o","wh ile","be t","ur n","t ed","m any","sh ow","in ter","is s","c ed","c as","w ant","U n","wh ere","d uring","I D","ser v","year s","ever y","il y","c all","d id","p ers","ver y","em p","l and","re t","s pe","we ll","il d","ev en","off ic","res s","it al","u ch","F r","hel p","an n","fe ct","c lo","in ce","is e","be cause","c ol","go ing","ist r","An d","B r","f am","k now","gover nment","h ome","e le","ill ion","00 0","lo ok","re at","in s","as ed","m ake","V ID","le ad","p h","st ate","ak ing","ar ch","CO VID","u al","g u","be fore","d es","h igh","th ose","f l","t al","sh ould","l ong","v en","ou p","v ing","20 1","st art","se e","su p","o g","on av","se t","con d","onav irus","b us","he alth","s y","cho ol","u g","r a","an k","cont in","us ed","again st","i o","pers on","mon th","st ud","N ew","le g","it ed","incl ud","res ident","v is","l ine","te am","em ent","v ie","Tr ump","p on","p and","ve st","em ic","d if","C o","an c","1 0","s ur","m ay","cor onavirus","le ar","t ain","de c","in ess","re l","m ade","t ake","st ill","un ity","at ch","e ct","the n","l ar","ing s","su re","at ive","r ight","20 20","the se","op en","th ree","sup port","The y","c al","c are","n um","l ed","th ink","im p","v es","g an","v ed","p ut","n er","en er","S he","m em","f ol","u se","sh are","en g","l ess","x t","F or","w ard","ment s","m s","c ut","l es","ib le","cas es","st and","say s",", \"","go od","sel f","per i","s on","ch ar","pro du","cor ding","coun try","b re","u es","as h","C om","pand emic","p ublic","t on","an ge","il ity","r y","he ad","m a","R e","m uch","Th ere","f un","A l","c i","m ark","j ect","m iss","u res","ar ound","ic es","s ide","ou se","se ason","s chool","do es","lo y","d s","c ap","ro ss","ire ct","v ot","re st","J o","c over","i x","bus iness","A r","A mer",". \"","I f","li fe","su ch","Amer ic","al s","O n","in es","h and","wor ld","c our","vie w","th ough","l a","D e","b all","m illion","i vers","fol low","S o","s ign","in a","in vest","comp any","b ers","s ince","tr ans","res pon","ren t","a ve","pol ice","po int","if ic","is su","le t","r un","c he","l ot","p t","ha pp","N o","l aw","ul ar","qu ar","con s","ist er","b le","g ame","sh ip","fam ily","w om","Th at","n or","t en","R o","s ing","r is","pl ace","n ational","c ame","H ow","M on","w in","includ ing","f ar","u b","in cre","con om","f il","dif fer","lo ck","s m","ch ild","L e","g ot","id ay","b ig","re qu","way s","ar s","op er","ne xt","all ow","f our","ic s","j o","Y ou","we en","read y","re al","ap p","C oun","st at","y s","de ath","tr a","w r","M in","S e","to ld","i or","v ol","se cond","g iv","re ally","offic ial","p ass","re d","su b","C on","h old","f f","u ally","bet ween","num ber","vel op","af f","M r","f ac","re ce","are n","bo th","st o","ex pect","U S","f act","3 0","sp ital","s ame","day s","a ther","re le","ge st","e conom","P r","o s","fe el","po st","c es","or der","un t","B e","p ay","pos s","c us","fe w","a h","so cial","enc y","pl an","gr oup","st em","d irect","ow er","a x","ou th","n es","an other","at ur","5 0","p at","are d","ke ep","h ere","s it","cur rent","f t","am es","n ight","ak es","a im","f ound","v ent","im e","od y","id er","ant s","al e","P resident","ol og","In d","com ing","rem ain","d et","s en","to o","l ight","re cent","t le","ap pe","ie f","n ess","i end","w ar","s ed","st e","G r","l it","i k","v irus","i er","be st","1 2","le ct","B l","w on","ent ial","g ed","ist s","end ed","comm unity","differ ent","add ed","Fr iday","mark et","c amp","to p","ate ly","a z","pres ident","pol it","ur s","de velop","tr ad","A t","im port","B o","in form","it ive","be li","fr iend","gr am","e ach","r al","c ase","ent er","1 1","str u","l ate","ac c","ne ar","us h","ann oun","ro ad","h op","me et","l ing","st er","ire d","emp loy","c ity","ion al","et y","f ind","v al","is ed","k ill","report ed","p ur","ac ross","ex t","sy stem","ar ing","n ed","ie ld","or d","mo ve","bo ok","c a","Wh en","is m","ch ange","bre ak","thing s","A d","S un","o c","lo cal","m it","p op","work ing","I s","pres ent","M ay","g ener","quar ter","E n","le vel","ho spital","with out","s ol","D r","iv es","ret urn","se ver","con tr","ag es","v ir","1 5","is ion","call ed","le ft","li st","h our","S h","p ower","ac cording","se arch","b al","or gan","d ue","P ol",") .","c lear","c ar","it ing","iz ed","ne ver","month s","de f","end ing","h ard","iv ed","g er","one y","aw ay","m ain","l im","ch ang","l s","some thing","al ready","f ace","qu est","de p","St ate","mem bers","j ob","te ll","com es","g y","id ed","pr of","stud ents","p ast","g reat","2 1","T o","g re","v ious","pro gram","comp le","bet ter","t urn","th or","ic ally","Mon day","or k","cl aim","M o","gr ow","unt il","for t","How ever","v i","P ro","us ing","g in","con cer","20 19","st it","did n","th ers","contin ue","child ren","A c","m ust","act ion","i ent","p ar","te ch","b ody","m ight","ex peri","i ke","re cor","part ic","clo se","n et","ivers ity","h al","se en","su m","W ith","u ary","tal k","Wh at","A f","pr om","le y","man ag","w ent","at a","ele ct","j or","N or","m and","f ive","Jo h","happ en","h ouse","20 0","at ter","ag o","Coun ty","al ways","pro cess","bu il","pl ain","y ing","ear ly","ot s","to ok","Ch ina","S outh","es e","M arch","ne y","ere st","1 4","d ist","un e","M ar","u de","ch ed","iz e","inform ation","ro om","M e","er al","at ure","so ci","st ay","ap pro","off er","a id","i ver","ir d","Th urs","ev ent","import ant","b ased","m en","Wh ile","m or",") ,","Thurs day","pro ject","h it","2 4","miss ion","un d","C ar","i ans","f ut","t ar","ge ther","week s","m aking","i but","p s","form er","Joh n","f ree","b it","v ide","cont ro","T ues","ad v","pro te","ex p","f ur","m ber","He alth","share s","ris k","at or","coun t","C ol","J u","w it","de al","pos itive","S atur","e qu","cl ass","pres s","st op","like ly","Tues day","d ed","Satur day","e as","ut e","ough t","in c","on t","l ater","m oney","wom en","A ll","r ic","k n","Sun day","w he","ele ction","2 5","on es","new s","add ition","ask ed","ma jor","al k","d istr","wh y","tim es","int erest","O ne","f ire","w a","at s","fo od","ak en","med ia","sto ck","al ong","ut ion","lit tle","poss ible","u ck","to gether","D em","c ast","u c","pos ition","g ive","l ay","con fir","ef fect","to day","ke y","1 8","stat ement","to tal","cer tain","sm all","W ed","s ix","st re","se em","m et","st aff","ard s","ab ility","do ing","G o","C an","em ber","h ist","p ot","1 3","J an","are a","cur ity","r an","cons ider","Wed nes","sh ort","pl ac","Un ited","v id","ha ving","Wednes day","b en","ch all","lo ve","fo ot","h um","au gh","official s","et s","1 6","d en","at ic","sever al","y oun","ish ed","M an","f ight","in ed","iv id","get ting","lo c","per cent","pos ed","giv en","sp read","fut ure","sh o","announ ced","u ation","m om","ind ust","b or","w ater","f all","h ar","av ail","c le","m ask","id es","ast er","lar ge","a ign","t aking","f ield","ful l","serv ice","tech n","le ast","co st","D ep","ser ies","invest ig","M c","s us","li ve","de li","pr ice","min istr","s po","d one","b ur","comm un","D on","on line","play ers","t aken","fil m","b ab","c y","re search","kn own","me as","does n","F e","on s","serv ices","Af ter","O r","o cr","p ed","en e","ig er","C or","re ach","be come","em er","su c","N ational","fr ont","m id","tr ain","Dem ocr","s ent","br ing","al ity","look ing","camp aign","b ro","d ata","i ents","t ion","hal f","u ro","au thor","peri od","w atch","Americ an","d ro","m il","am ong","part y","ac y","Pol ice","a ud","id en","c ust","en ough","pl ic","start ed","m us","comp an","vide o","a ver","att ack","pro ble","re f","fur ther","1 7","m p","o thers","qu e","ce pt","S en","a i","expect ed","S er","an cial","to w","st ep","cour t","avail able","Y ork","h ip","n on","u ed","g lo","in vol","for ce","Co vid","M y","y et","in fect","work ers","R ep","comm it","A fr","C l","whe ther","b as","produ ct","e cut","imp act","E x","if ied","lead ers","C ity","at ors","r ist","in ts","Afr ic","B iden","g l","k ind","gr ound","1 00","s al","ul ts","P h","re ason","hour s","v ar","tra vel","ed eral","am s","follow ing","on d","is ing","act iv","olog y","H ouse","th ird","art ment","L o","P e","ste ad","p aren","s k","ag ue","C al","pro per","st ory","e ve","polit ical","g ames","bo ard","str ict","dec ision","lock down","f ic","cr it","Bl ack","i fe","or ies","tr ies","G over","en se","prote ct","l t","it ions","with in","pol ic","Ju ly","re du","al y","pe cial","confir med","prov ide","J ust","im es","str ong","op port","se curity","pre vious","spe cial","N iger","w ide","S te","c il","des ign","A pr","pr iv","s ite","su pp","We st","ho to","fam il","he ld","b and","h am","r ating","iv ing","enc es","wom an","suc cess","tow n","li er","off ice","Un iversity","4 0","c and","d ol","h ic","ens ive","f ans","g ency","Apr il","A ust","comp et","p ite","ac cess","pro test","p or","2 2","d ate","death s","Nor th","pot ential","compan ies","n ation","for ward","Ac cording","pat ients","id ence","youn g","S p","ag ed","me an","fin al","anc es","cont act","po ints","port s","cr is","ct or","experi ence","b illion","b ank","t ax","w alk","out side","resident s","S ome","in al","under stand","E uro","b ed","r ound","buil ding","f ail","un ch","try ing","l er","al leg","Min ister","econom ic","Ind ia","J une","sa fe","wor th","p ick","d ied","qu ick","ben ef","A ug","r ul","on ce","li ves","say ing","need s","su g","G e","S ep","c arr","h ind","m ar","st ates","de cl","med i","cust om","O ff","n ers","il ities","g n","ag re","res ult","an a","ter m","rece ived","beli eve","v acc","ed uc","ce le","ure d","iz ation","m akes","r u","k es","cour se","issu es","ivid ual","c u","vi ol","6 0","mo de","pr act","me ans","on y","en n","h om","dol lar","R es","spe c","Ch rist","sit uation","d am","our ces","W ill","id s","test ed","b an","con ne","l ab","fin ancial","n s","ur y","every one","201 8","mor ning","m al","be hind","fer ence","quest ion","Th ese","clo sed","cele br","de mand","coun tries","2 3","n ame","in j","al d","ll ing","Sep t","tar get","e y","add ress","current ly","aver age","cris is","h ol","is on","St ates","be gin","ex ecut","ind ividual","bu y","m ess","M ic","ent ire","Dep artment","S c","p hoto","v o","play ed","med ical","C ent","in it","th reat","re ve","se x","business es","T e","ce ll","rele ased","t reat","though t","hum an","Euro pe","f av","col le","d i","n al","indust ry","sp ace","want ed","anc ing","pecial ly","S u","m atch","es pecially","ail y","every thing","imp le","ward s","te e","hist ory","g ress","r ac","ar rest","ph one","W or","l or","lo st","rele ase","friend s","show s","h y","sh ot","wr it","addition al","vot e","employ e","vir on","dep end","T V","g es","of ten","che ck","cand id","re cover","id ing","gr ad","econom y","H o","Rep ublic","a ur","meet ing","contro l","n am","re strict","ro le","res ults","h ot","ho st","incl ude","S A","ful ly","mus ic","ith er","dis cus","respon se","he art","pl ans","ven ue","H is","lo ss","st ar","it iz","sa f","cre t","D av","s im","ang er","recent ly","sug gest","N ow","sa w","F o","c oup","g ing","m ing","ve hic","test ing","sign ific","il ar","se ven","de b","contr act","Aust ral","d ou","r ate","in ation","al most","be gan","li es","ex plain","need ed","e ase","v ic","Br it","D o","respon s","Can ad","G u","g ir","de part","sel ves","saf ety","and s","prof ess","recor d","viron ment","B ar","N A","s cre","v ice","ex per","play ing","as ing","ent ion","are as","chall eng","ot t","Americ a","meas ures","out break","f ig","act ually","a ut","for d","direct or","so on","co ach","incre ase","gr ap","issu e","m ot","m atter",". ,","f ederal","w er","mo ther","hop e","H er","m ind","stru ct","C r","iv al","p ack","r i","ak er","ass ist","comple te","res pect","7 0","b ar","am a","we b","In ter","bl ack","p le","r up","signific ant","F in","ul ation","du ct","fl u","develop ment","famil ies","C our","ad ministr","ur al","mo ved","ail s","high er","2 6","2 8","Jan uary","glo bal","coup le","sh op","some one","mom ent","paren ts","p ing","is n","partic ular","N e","de ad","school s","O ur","U K","s l","oun t","chang es","m ult","tr ack","fe at","ser ious","vis it","pur ch","low er","dif fic","G re","P art","ore d","p ush","” .","an e","any thing","New s","i ence","k s","n a","ug g","mem ber","en sure","for man","con f","do or","cl ub","person al","u ge","rel ation","rel ated","allow ed","reve al","C A","b ad","offic ers","Wor ld","P ar","ter r","report s","g en","i um","w ind","re present","ib ility","O c","g ave","m is","leg al","Ge or","D ay","S m","ch ief","im medi","sing le","o st","ro ll","d ig","lo od","af fect","2 7","B C","P l","j ud","ro te","go al","Aug ust","or ig","to m","ut es","ear lier","j our","run ning","M ed","w rote","mo ving","su per","ev ents","no thing","inter view","in st","re me","am ent","im ate","ot e","end s","work s","A ir","S an","s w","om et","ne cess","com b","pro ve","g un","re w","fo cus","det er","8 0","r on","se ek","cr ib","opport unity","Sept ember","ab o","work ed","amp le","Don ald","a head","h or","in o","at ory","ar m","ad es","per forman","act ive","pre p","near ly","I ran","b att","h an","pre t","inter national","appro ach","of t","ate g","open ing","late st","2 9","be came","sp ir","how ever","H igh","S chool","it ary","wo od","Wh ite","Cour t","b i","ur ch","ph ys","diffic ult","f ather","ve mber","p ark","to ber","No vember","en vironment","it ch","inc ident","priv ate","co gn","beli ev","mask s","Oc tober","R us","l ines","att emp","invol ved","b lock","t t","who le","d aily","er y","we l","pr ior","bo x","enc our","ash ing","9 0","C enter","f ill","s ong","to uch","de fin","B er","ag ing","offic er","quar ant","gener al","grow th","b ill","c ult","s ched","t it","st y","ac ter","im m","ap er","partic ip","proble m","restrict ions","W ar","Ch ief","long er","care er","v ict","re li","op t","ap point","ber t","contin ued","kill ed","Pe ople","P ark","f air","p an","ou d","it or","am er","pl at","play er","jo y","vic tim","g ain","ins ide","M any","g as","u el","re view","ess ential","col lect","Gover nment","S y","de st","if t","dr aw","emer gency","vacc ine","r ow","ex ist","gu id","techn ology","relation ship","3 5","st s","le x","av ing","sur pr","at ives","pre vent","dr ug","deli ver","sim ilar","p aid","el se","br uary","De ce","Fe bruary","A m","c ing","St re","him self","Dece mber","E d","st on","ly ing","execut ive","employe es","M ark","ha ir","if y","pr im","any one","t re","w ife","le ave","wh ite","te ach","Ch ar","ot a","ut ions","issu ed","N ot","c ir","m ass","se m","li ving","get s","dis ease","conne ct","3 1","t ro","af t","reg ion","cap ital","custom ers","f ast","en ing","cre ate","dr ive","lead er","pop ular","educ ation","5 00","A b","d augh","g ather","de ep","con duct","prov ed","lead ing","E ven","G er","re cogn","for ts","po se","qu ality","happen ed","polic y","an aly","min utes","201 6","stud y","Com mission","sho ot","train ing","d le","il le","min ister","sus pect","an im","li f","mo vie","team s","foot ball","f fer","i for","bu ild","stru ction","s cr","is ol","sh ut","cre d","plat form","ifor n","F ace","d iv","se ll","was n","fe ll","ho od","requ est","Cal iforn","B ank","se qu","s old","we et","dist ancing","quick ly","M s","P er","h i","ef forts","reg ular","produ ction","- -","D C","c itiz","des pite","discus s","l ack","ac count","ne igh","per form","p ul","end er","ide a",". '","D A","s low","ent ly","ning s","Americ ans","remain s","sen se","sum mer","H ar","r ace","to ur","ex c","can not","vis ion","sen ior","C ong","e ither","p ain","cont ain","want s","administr ation","i res","k ids","p ie","t akes","cr im","appe ar","A P","D es","test s","sc ene","char acter","Californ ia","D uring","b ud","com ment","week end","dec ided","B y","G ener","c ro","p et","v ia","ial s","ord in","mil itary","hom es","A pp","ch ance","mit ted","alleg ed","d om","do cu","str ugg","br ought","serv ed","num bers","ines e","requ ire","z a","in ing","ac qu","for ced","them selves","abo ve","E m","ther n","qu ite","iv il","ak ers","ip le","Ch inese","prov ided","vir t","cret ary","th ous","tr ade","fe lt","ight s","Re g","group s","Niger ia","performan ce","Rus s","C E","C ap","e ight","f it","se cut","spo kes","author ities","Dav id","Cong ress","B u","s pr","our ce","ap plic","cr u","commun ities","on a","ex ample","av o","through out","show ed","vot ers","giv ing","Stre et","o il","s oft","ab l","reg ard","open ed","nor mal","trad ed","investig ation","H arr","M ore","d ict","h uge","v an","rest aur","hand s","main tain","G od","W ashing","un g","tr u","ex tra","share d","rece ive","lab or","E very","i am","st age","be low","ter ms","ind ic","equ ip","Afric a","fav or","A ct","b ul","h ous","x im","am ing","ne l","fir m","Washing ton","O f","m ater","st ore","if f","contr ibut","product s","p en","in stead","am ount","cr ow","En g","var ious","P at","c li","he av","B T","D is","E l","h ur","20 21","ann ed","exp lo","cle an","Democr atic","N et","ic ip","act ions","lim ited","bab ly","E ar","ig r","ep is","amp ion","des crib","contin ues","big gest","seem s","i que","al ter","not ed","call s","far m","Is ra","us es","cond itions","sy mp","pret ty","p ict","se ctor","sur v","effect ive","K e","id ge","requ ired","quest ions","concer ns","sus p","su ffer","job s","Face book","a j","b road","n y","con su","pro bably","M or","S ince","ct ors","An ge","daugh ter","l ink","r ing","comp ared","arrest ed","quarant ine","int ro","ener gy","ord ers","level s","rul es","E ast","h us","p ubl","he ar","right s","cap ac","B en","T wit","a ul","b ase","su it","ra ther","manag ement","distr ict","commun ic","spec ific","Gener al","i ers","ne g","incre ased","eas y","Ph il","depart ment","D irect","h on","in v","ser ve","ish ing","201 7","happ y","Ind ian","Me an","vehic le","Austral ia","re comm","res h","turn ed","O N","P S","r am","s ha","y a","st or","ev idence","cre ated","lear ning","Jo e","la unch","s pect","con ference","start ing","let ter","Coun cil","trad ition","hus band","P et","r ap","is ions","it self","ch air","ers on","tr ue","est abl","re venue","wor ds","sp ent","sp ot","distr ibut","s ound","19 9","treat ment","Mean while","R ed","f re","v ille","in stit","lo ad","ib ly","As soci","m arr","p air","s n","an ch","en ed","em ents","cas h","chang ed","reveal ed","M al","an i","im prove","ur ning","Gr oup","val ue","P al","R E","r ain","ad vis","lo ved","go es","ef fort","Le ague","Su per","necess ary","Twit ter","F L","g one","n atur","is es","we aring","mo b","stud ent","John son","D el","J ap","J ack","K en","S ch","t ies","res ources","tr ust","te le","lear n","imp ly","M P","P ublic","k en","s an","en ge","en joy","be y","fe ature","um e","el s","reg ul","proper ty","m ill","r ad","st ain","he ard","ce ed","pe ace","pro gress","do g","r at","r ise","ar ily","ach ie","omet imes","capac ity","A N","B el","V al","b ir","l in","ar gu","ro y","plac es","L L","a pe","c ross","z er","lo g","char ged","grow ing","mess age","Canad a","Jap an","f an","st ant","as es","ad y","ens ion","look s","includ ed","wr ong","web site","4 5","C B","l ic","m ag","be at","we st","ab ly","pass ed","init ial","intro du","L on","S E","i ant","o de","per fect","att ention","claim s","imple ment","id a","gr and","own s","who se","spe ed","see ing","ra ised","win ning","pop ulation","claim ed","Sen ate","B ay","L i","i et","r ange","in come","istr y","includ es","follow ed","K ing","n om","ve y","bo y","plac ed","Off ic","s le","w are","he st","de v","ha el","com plain","qu al","Fr om","cover ed","individual s","it em","part s","Afric an","immedi ately","B ro","to ms","we ar","li ed","ke pt","pre m","post ed","Car ol","sal es","Europe an","S up","er r","is l","com fort","pl es","president ial","Ho spital","D an","L ast","c amer","s ports","li e","tr ied","buil t","previous ly","citiz ens","thous ands","M us","c op","as soci","um b","comm er","est er","proble ms","cir c","H ol","m as","t or","u gh","tr ip","call ing","gir l","I N","k new","u ff","In vest","coun ty","ty p","incre asing","challeng es","T ex","c ivil","ag ement","cont ent","Ro ad","activ ities","m ur","r ates","In c","str a","pres sed","comm on","enc ed","pp ed","ann ual","stand ing","h und","st ic","con vers","res ol","el ines","coun ter","sc ient","fun ding","Lon don",". ’","? ”","O ver","k ick","s il","ad ding","ch an","de lay","ant i","pr ison","part ners","br and","spe ak","supp ly","mode l","s qu","de mon","just ice","est im","Com m","certain ly","chall enge","b on","d anger","r out","st ag","st ress","ic o","ul ed","av es","ca used","F ir","Q ue","u k","op tion","ment ion","fore ign","fin ally","/ /",": //","h tt","y e","on to","not e","ask ing","help ed","char ge","fun ds","hospital s","Mic hael","candid ate","Inter national","particular ly","symp toms","Q u","S al","v ill","z e","st ated","st ories","ag ency","mo der","ess ion","pres sure","cent er","det ails","dro p","scre en","Sm ith","dig ital","A no","S pe","s ource","un ched","iv en","over all","ous ly","no on","3 6","A lex","in depend","to wards","Th en","Un ion","Pr ime","won der","consider ed","Geor ge","bud get","F lor","J ames","O b","be aut","cl imate","infect ed","leaders hip","Eng land","re fer","at tr","Th om","Th ose","explain ed","3 4","n ative","u fact","ow s","rem ember","viol ence","Gre en","Ano ther","t able","in flu","ans wer","sc en","lar gest","char ges","mult iple","bey ond","htt ps","s imply","y n","fe ction","own ed","ite ly","dr iver","fac ilities","ster n","equip ment","3 7","C he","H ere","T om","t ick","part ner","could n","look ed","ins ur","oper ation","reach ed","Part y","avo id","t emp","ar ies","ver t","con stit","ex act","no v","ester day","er c","ex pand","prov iding","fort un","nam ed","natur al","Fir st","D istr","R s","g ar","le ction","se c","am b","reg ister","iss ion","four th","feel ing","ext reme","Sc ott","Brit ish","phys ical","5 5","I I","b our","c ard","i j","ment al","trans port","appe al","talk ing","wa it","t em","ro b","ha ps","su stain","te xt","br ief","contin u","recor ded","Flor ida","A C","E R","P aul","T wo","st ren","po or","enc ies","sign ed","oper ations","real ity","announ ce","Mo st","exper ts","virt ual","r id","le ague","us ually","coun cil","att end","invest ment","writ ten","describ ed","rat io","L ab","se par","ig hest","iz ing","benef its","Isra el","E U","F C","in de","un te","cho ice","Min istry","appe ared","acc used","Tex as","3 8","H ill","R ob","h ighest","l ap","me ant","Min nes","plan ning","batt le","opt ions","guid elines","m ine","am id","respon d","tit le","prim ary","neg ative","stren g","3 2","M id","T ur","f low","g ue","al one","tr ial","cr ime","coun ts","fun d","vent ion","bas is","agre ed","D P","S and","h ib","i ate","p age","y er","er ing","ir ing","us ion","sa ve","ear nings","St ud","la unched","crit ical","redu ce","Off ice","agre ement","begin ning","colle ge","\" .","7 5","I S","p m","s es","s un","y an","ac ce","Democr ats","infect ions","pract ice","dam age","Republic an","affect ed","defin itely","A u","B A","P ort","V ict","d y","s kill","in ated","act or","cor por","fig ure","sched uled","epis ode","A re","L aw","k y","in te","on going","ct ure","de mo","li ament","em ail","do ors","sp ending","no vel","would n","co ok","An y","sm art","pass eng","bor n","B ill","S ing","S am","b ing","n ine","t ers","er t","im ag","us ers","pl ant","ber g","vot ing","sub ject","fac ility","employ ment","return ed","deli very","fail ed","demon str","L u","L et","M ac","s ens","s ometimes","w all","le aving","op e","own ers","man ufact","part ies","vers ion","set ting","direct ly","sol ute","Des pite","docu ment","Direct or","y esterday","tr aff","ist ic","ap pre","up on","ie l","oc cur","orig inal","r ough","ch urch","ive ly","ret ail","Just ice","Minnes ota","3 9","I T","t w","ar a","ll ed","her o","than k","keep ing","wit ness","crit ic","seek ing","Distr ict","J er","K o","S tr","b ound","f lo","v ul","w ish","is ation","system s","mur der","4 8","C ha","G old","V ir","ob vious","eng ine","fac ing","move ment","def ense","major ity","hol iday","Cent ral","shoot ing","BT C","commer cial","f a","i to","t a","z on","ed om","con sum","own er","vot es","No v","giv es","grap h","sty le","A R","b lood","r ank","t ren","st ake","ro ck","has e","wor d","up d","leg isl","project s","loc ation","feat ures","deter min","cred it","item s","L os","b ot","b um","f at","r ies","ex cept","fe ar","fe et","incre d","Christ mas","vict ory","M art","S T","to ol","ad o","for ces","gr ant","We ll","ang u","ob ject","dec ades","pat ient","organ iz","manag er","hist or","benef it","jour nal","spr ing","ampion ship","3 3","L A","P P","U N","b ag","en force","ain e","ast ic","tal ent","cond ition","offer ing","Vict or","d ie","m ix","st ation","se ts","wor st","vol unte","Bo ard","organ ization","event ually","cost s","stra ight","6 5","K ore","f resh","i ety","m ail","re ds","se y","ct ions","pr ices","aw are","Wh y","dr iving","gu y","led ge","Al though","cons ist","nor th","soci ety","bring ing","bir th","W al","t weet","er ve","ab solute","pro secut","Com mit","manag ed","step s","init i","Te ch","complete ly","L ike","c atch","d ome","w ed","to ugh","com ments","In stag","Associ ation","Instag ram","T ok","c up","n arr","s at","w w","alth ough","prov ince","even ing","gu ard","ific ation","war ned","prof it","offer ed","App le","Ange les","Carol ina","exact ly","vul ner","3 00","B re","M a","M ike","R ich","ur ies","un ique","we ight","ex am","art ic","if ul","Th ank","aw ard","Ch ic","health y","put ting","candid ates","tem per","B ig","F ore","d re","re pe","be ha","ass ess","Al so","cap t","concer ned","elect ions","loc ated","mid dle","% .","M ad","N FL","O h","P rem","b order","s end","ol f","con struction","pl anned","after noon","publ ished","L a","e ch","f ine","s mo","s ize","in fection","le ge","we ather","ex erc","af ford","concer n","success ful","dollar s","c ities","n ur","p ath","r ush","in fr","ut y","con cl","ag er","ab ilities","ate ver","ast e","ip s","aw a","cent ral","gover nor","help ing","invest ors","comple ted","adv ant","spo ke","bro ther","CE O","L ake","W il","r ated","w ise","it ation","te en","bo ost","pre dict","dec isions","rel ig","jo ined","fight ing","cult ure","A M","S ha","W o","p aper","at ers","as sa","ol a","off ers","cr y","sp end","ask et","land s","anc y","Chic ago","s ort","y ards","ac cept","ha ven","com ed","feel s","commit ted","gir ls","profess ional","A ma","B or","d ress","j e","m akers","s ick","w ild","th od","ac com","op s","ist an","St ar","cent re","comm ission","pol l","ty pe","ef ul","app ed","market s","net work","stre et","dou b","purch ase","pie ce","P lay","s imple","am ed","will ing","Se cretary","hold ing","Bo th","Commit tee","4 7","B us","I C","T or","j ump","w ing","se lect","im ent","tr ail","cre w","fo c","know s","ey es","vo ice","victim s","H ome","t ack","€ ™","en a","iv ity","ren ch","miss ed","jo in","hold s","develop ed","wa iting","bab y","Gover nor","4 9","b a","in ch","st ick","and er","ul tim","act ing","do ctors","min ute","show ing","sto od","To day","Ser vice","hous ing","dome stic","B ur","L ou","M et","P o","U p","b ly","m ach","s outh","u le","w inter","and a","em ot","ate gy","gh t","can ce","ident ified","your self","cau ght","report ing","Mon t","sto res","trad es","ref lect","polic ies","pict ure","camer a","H S","g old","my self","cur ren","arr ived","miss ing","Ro y","class es","eas ily","commit tee","mean ing","grad u","recomm end","4 6","l angu","at o","we ap","ap proved","play s","col labor","think ing","restaur ants","favor ite","mill ions","A T","s ad","to ward","ic ed","ig ence","ag ree","po ol","sc ale","deb ate","xim ately","M il","al a","ay s","air s","wr iting","sit es","polit ics","Col lege","teach ers","mass ive","foc used","P re","c ateg","f em","g a","to ll","ch ain","un ities","un certain","ab les","ast ru","cr ash","str ateg","mon itor","201 4","Man agement","compet ition","sex ual","analy sts","M ag","it es","se a","ag no","ab s","pro pos","sc he","201 5","lear ned","aster n","believ ed","neigh bor","insur ance","F ar","M ur","M el","S P","k ing","be coming","fe e","fe st","stand ard","Com p","fac ed","appe ars","program s","elect ric","appro pr","respons ible","inte gr","M ill","T y","W ork","b id","f li","y o","in n","lo se","run s","jud ge","crim inal","fre edom","vulner able","4 4","J ud","J ew","M ex","O ther","c ere","d ark","f lood","n ature","r ally","t ic","de m","cor re","Fr anc","produ ce","oper ating","val ued","dist ance","deb t","exist ing","appre ci","9 9","D ef","S im","in ner","he aring","am az","fe ed","act ers","you th","med ic","spe ech","trans fer","differ ence","Be cause","ext ended","sever e","reli ef","heav y","temp or","astru cture","F ire","b ought","n d","s ou","s ources","sc ore","lim it","prom ot","carr y","recover y","Brit ain","Ama zon","C up","F ol","c at","h un","ex pressed","ear ch","min im","Un der","char acters","fil ed","gre en","appro ximately","attack s","reason s","opport unities","di agno","tradition al","c ars","i pe","j a","be l","un iversity","us ual","gh an","cl in","19 8","sc ored","bu ying","Fr ance","On ce","dep loy","gre w","Go v","watch ing","protest s","mater ial","N E","S to","b asket","i ams","s light","ac her","sh own","In stead","str ategy","pre ced","high ly","For ce","happ ens","win ner","adv ice","design ed","Will iams","Russ ia","mob ile","hund reds","G lo","O ct","k ed","n ie","s port","al bum","om en","op in","was h","fl ag","bal ance","sho ck","decl ared","vehic les","dou ble","rup t","regard ing","P C","c in","k a","r um","r ich","u be","se ction","pro posed","ak h","io s","Pr of","hop es","sol id","iver se","activ ity","prep ared","beaut iful","demo cr","B ow","k o","l am","m ir","s ides","The ir","ag on","em y","In stit","ens us","thr ow","rem ote","og le","stat us","har m","assist ance","isol ation","crow d","farm ers","traff ic",", ’","N C","g ro","m ad","m ates","p il","s id","y ard","in y","om b","ut ional","ne got","li ved","cr aft","prov ides","health care","pt ion","order ed","acc ident","book s","chang ing","gre ater","talk s","redu ced","Cent re","sem bly","sle ep","danger ous","Franc is","F rench","J ones","K ar","Y ear","b ol","f ix","g ent","at ures","ab in","not ice","form s","remain ed","Ad d","Sc ot","rup tion","achie ve","Vir gin","M ary","T A","g ers","” ,","an ced","st uff","pr ay","serv ing","high light","sur vey","dec ade","respon ded","rece iving","camp us","Cor onavirus","terr or","Geor g","extreme ly","F A","F ederal","M er","T O","con fl","ant icip","cre ating","dr ink","enc ing","min or","Go ogle","Republic ans","fig ures","hur t","comfort able","infr astructure","6 6","b ow","b arr","m aker","t ally","al i","lo s","lo om","tr uck","pro to","oun tain","ap art","att or","rem ind","aren t","sit ting","polit ic","enter tain","risk s","skill s","C ur","H O","R S","Z o","s we","z z","th us","un ion","co in","ign ed","sc ience","gu ys","rel ative","allow s","comple x","mil es","respons ibility","hor r","conduct ed","tru th","A k","G ar","H am","I A","P M","R am","V e","o th","ad ap","ol der","mo v","go als","do z","she l","att le","know ledge","sup posed","ball ot","pur pose","room s","alleged ly","LL C","moder n","amaz ing","L E","f if","h one","k id","l u","or ing","ly n","ap prov","her self","sur ge","ball ots","Ro ck","clear ly","press ion","stre am","Niger ian","Ger many","cere mon","4 1","4 3","I m","S ou","e th","f le","v ices","ac es","wh atever","br idge","co ol","cho ose","And rew","government s","law s","tell ing","jour ney","exc ited","4 2","M iss","M ax","h all","an al","ad just","lo sing","ex cl","anc he","may be","hold ers","fac es","happen ing","dro pped","Sup reme","circ um","Prem ier","6 8","9 5","B al","E li","G O","N av","in nov","il ed","be ach","op position","li ance","ul l","ap s","ant a","up coming","pr oud","cor ner","iz es","sur round","De velop","allow ing","meas ure","Res earch","recover ed","Fo x","flo or","enforce ment","Bus iness","R iver","i ar","s ister","se at","se lling","ow ers","un able","tr ou","up date","can cer","Wh o","spe aking","wr ite","interest ing","conf idence","believ es","Del hi","Comm unity","fortun ately","advant age","P enn","V er","j un","p ted","st ars","ve ter","ur ged","has n","ist ers","Th ough","str ain","Tr ans","reg ional","help s","ra ise","support ing","fun ction","loy d","lit er","Is land","tell igence","elect ed","large ly","ru le","conne ction","ey e","tre ated","Cap ital","mention ed","independ ent","continu ing","langu age","4 00","D u","I ll","f is","f ant","g ins","m ist","n ice","ic ts","ac ing","se g","out s","pl us","act ed","pres ents","rem ark","Fr ank","fil ms","pay ment","sol ution","Ser vices","Dis ney","mov ies","H um","M A","Y our","ed er","ac cur","im age","un it","do ctor","au tom","Ch ris","read ing","vot ed","ris ing","stop ped","loc ations","inj uries",", '","R C","re open","st ances","are s","con stant","per haps","wor se","gr ade","bl ing","Ch urch","start s","bre aking","May or","gener ation","effect s","protest ers","potential ly","colle ction","suggest ed","marr ied","doub t","H all","H aw","K y","M em","M ah","b urn","d a","h ang","v a","ad ium","ul ated","att ended","fl ight","person s","use um","aud i","hot el","attemp t","appoint ed","establ ished","Val ley","Thom as","fa ith","F und","J im","J ef","M u","T ay","p un","er ed","an o","ic a","ly wood","ill ness","pro ceed","if ying","od es","trans ition","Le g","olog ical","Gr and","recor ds","orig in","wel come","applic ation","organiz ations","absolute ly","Comp any","basket ball","B ef","c ation","m igr","r are","s ale","s ession","to urn","res c","cre ative","fin ish","ret urning","De c","enter ed","wit ch","seem ed","exper t","immedi ate","spir it","convers ation","register ed","negot i","Bef ore","E r","G l","P ak","er a","or al","ed ge","ar i","us er","con sequ","su res","bl ed","inter net","col or","lot s","app arent","present ed","power ful","adv oc","mot or","spokes person","fem ale","corre ct","7 8","N S","P ost","T imes","d ivid","g ree","w an","er ous","re v","ad a","ag encies","lo an","ard en","ud ed","pres ence","fin ished","fl ights","stand s","jo int","app ly","pass ion","Pr ince","kill ing","oc cas","equ ity","understand ing","inj ury","photo s","writ er","push ed","encour age","fell ow","Wo od","E C","S ol","m ic","p sy","r ial","t ight","re opening","it ar","be comes","un employment","we alth","art ist","od ies","Br own","support ers","trans form","pay ments","prote ction","Go od","alleg ations","celebr ate","fav our","cro re","estim ated","announce ment","Fol low","! ”","B I","C are","C hair","D en","M C","M od","S ci","f uel","m ate","m ale","z one","ing ly","as y","ic ated","ent y","ig an","fr ust","me thod","str ike","ste in","find ing","Or gan","deliver ed","streng th","T en","b s","n u","p ir","v in","st ret","it er","le ts","il es","se cretary","un ivers","ab use","sh all","sh ots","can cell","produ ced","Ro bert","Bl ue","Fin ally","initial ly","Au thor","tw ice","Georg ia","proto col","5 6","C y","R A","S her","d ad","i be","v ant","ad mitted","port ion","co hol","ult ure","sign s","olog ies","At l","oc cup","En gl","eas ier","stre ets","inst all","drug s","Harr y","introdu ced","Victor ia","Kore a","Tech n","artic le","Lou is","E du","I r","P an","S ever","d ance","g ender","p a","p itch","an x","ar an","ad vert","ro se","wh om","de gree","op pon","ate st","sh aring","so le","pr int","ef fic","most ly","gu il","stre aming","Cl ub","famil iar","mar gin","inj ured","tru ly","rap id","Jack son","scen ar","separ ate","exerc ise","relig ious","Virgin ia","F ound","f al","i age","k ins","l augh","p ic","ist ed","ev ol","co ast","ail ed","ens es","fore cast","pur su","bro ke","aud ience","Austral ian","lif ted","rad io","Sand ers","Engl ish","A S","A venue","H y","O S","O ut","S pr","m es","r ied","s cor","t ask","u a","be ll","de cre","ag ues","com plic","pr ime","ack s","ath let","support ed","direct ed","remain ing","Fe b","ordin ary","assa ult","Develop ment","E T","F re","F am","M S","M ass","S a","W all","c old","h ate","i ors","r ation","s now","z o","st one","al ing","it a","it t","ent ry","ow a","ur ban","ig ation","us ive","em br","fr aud","mo d","ex cell","ist ics","00 00","clo sing","ash ion","trans mission","Le e","reported ly","tell s","sk in","supp lies","fill ed","anal ys","circum stances","E lect","S ar","e per","ar med","as pect","we ak","sa ving","pre fer","cent ury","stud ies","Ar my","Se curity","hop ing","pract ices","prior ity","guid ance","Mark et","Russ ian","susp ended","Pet er","scient ists","passeng ers","obvious ly","appropr iate","Instit ute","7 7","N Y","d ire","e at","g iant","w hel","w ave","he at","fr anch","oun der","pl ants","per man","ide as","ob tain","det ect","cy cl","ref used","serious ly","anim als","restaur ant","broad cast","determin ed","eful ly","B arr","I P","J e","K el","V ice","b atter","f requ","l eng","n ames","s pl","v ac","in ary","st ations","and on","id ers","de als","ul ations","dis play","att ers","cer t","clo sure","person nel","oper ate","experi enced","along side","consider ing","research ers","Ser ies","bank s","carr ied","surpr ise","spokes man","corpor ate","I re","e ast","p to","p ound","et er","de put","con serv","te acher","ear ned","We stern","pre gn","est ate","report ers","view ers","poss ibility","bur g","gl ass","rul ing","alter native","H or","J ose","M at","S ur","d den","k er","m ort","t ur","st ab","ac ad","con vict","pl enty","bo ys","dis covered","int end","develop ing","road s","ext end","interest ed","Will iam","sched ule","pul l","distribut ion","tele vision","Oh io","sche me","attor ney","fal se","5 8","7 6","8 00","B O","M aine","O ly","R a","T im","W is","b ass","g g","m aster","n ut","in sp","re p","ed s","it z","un icip","wor ry","We ek","br ings","co al","pos itions","there fore","bus y","Ar t","nor m","pass ing","sol utions","list ed","gre atest","Lo ve","challeng ing","pack age","comb at","Harr is","H en","T own","U t","re cru","le ase","ac counts","pro spect","ant ic","wor ried","over whel","Th ree","every body","cover age","Ar ab","point ed","pay ing","trad ing","import ance","ca using","Med ical","dest roy","strugg ling","soft ware","suffer ed","influ ence","sec ure","ultim ately","slight ly","approv al","Follow ing","5 9","A I","A h","C re","C amp","E conom","F loyd","G h","M ich","S w","T our","Y et","Y oun","it ude","ic on","fr ame","air port","gu ess","post pon","inform ed","close ly","vide os","Canad ian","cli ents","Mex ico","tourn ament","leng th","A p","B it","K im","c ore","f are","f ish","m ile","at ically","is land","ac ed","con test","su dden","ap ol","no ck","bo ss","than ks","ph en","ph ones","num erous","Al bert","So cial","stat ements","poss ibly","adv ance","ministr y","Christ ian","Mic ro","Par liament","mater ials","Oly mp","5 2","6 00","A li","F ort","G al","I owa","L ong","T re","V an","Z e","f ires","j i","or m","st im","al cohol","ent ed","de l","de but","ex change","art ists","ak ed","el ig","ip t","comp ut","dr iven","back ground","ict ion","fam ous","good s","On ly","def end","protect ive","tax es","entire ly","wer en","purch ased","conf ident","song s","Sing h","abin et","hone st","% ,","H E","R em","Y es","g on","p hase","r ang","t end","re moved","as sure","ch er","ag ric","op tim","op ted","tr ave","sh ar","art s","ip p","new ly","St ill","ick et","emp has","ret t","des er","cut s","Be ach","exp ensive","decl ine","ple ase","Commission er","Ear th","tren d","dre am","Roy al","Hum an","7 2","D et","W atch","Z im","t i","in telligence","ent al","ad or","lo ans","act ual","ie st","It aly","mon d","As sembly","ret ire","clo ser","Le ad","augh t","youn ger","bro ken","employe e","pie ces","Net fli","link ed","Dan iel","wed ding","neighbor hood","Sever al","Ire land","Netfli x","A sh","B ol","G et","N BA","W omen","t ied","li ber","tr ick","ain s","pos es","dr ivers","lead s","may or","lar ger","mem or","produ cer","war m","war ning","Ad vis","prom ise","mom ents","commit ment","Ex ecut","Lo ok","mode ls","rac ial","loss es","profess or","Fin ancial","club s","ino is","stor m","chair man","dev ast","Add ition","Edu cation","A g","B ir","B et","H el","P ac","i ation","k i","l an","m outh","s or","y ers","in ations","ic ing","le aves","il ing","ld er","our selves","sh ift","up s","off s","bl es","coun ted","gover n","201 3","law yer","sing er","plan e","prom ised","stay ing","den ied","deter mine","imm igr","Ear lier","surv ive","feature d","Li ber","consum ers","Ill inois","4 th","B est","F our","H ot","I ra","P ut","t urning","y es","ear th","cl im","cre ation","br ight","inter nal","view s","Ac ad","confir m","small er","carr ying","environment al","establ ish","zer o","partners hip","uncertain ty","analys is","C N","D ou","F er","J ord","K at","P ress","c ards","g ift","un less","bl ue","Wh ere","pol ls","down s","Tr ust","prov in","As s","season s","Ad am","program me","Sp ain","profess ion","visit ors","tro l","applic ations","Bro ok","ceremon y","dire ction","Youn g","Execut ive","Ira q","B ob","C DC","G en","H ou","L t","L ife","n av","un its","pro ced","sh ire","qu art","pr a","ack now","new sp","man age","St ation","dr aft","back ed","ship s","Con ne","rele vant","meet ings","employ ed","count ies","bas ic","acqu ired","pen al","suffer ing","consu lt","instit utions","associ ated","imag ine","Mart in","repe ated","Jew ish","Francis co","stret ch","6 2","6 7","G A","M E","e ll","l ad","m atters","s ight","t ag","ic i","ot ed","et te","de vice","res ume","out door","act ors","act ress","str ik","Ch ild","dr y","ph y","cap able","En ter","list en","custom er","rac ism","Gu ard","struct ure","vill age","Ob ama","Mid dle","fis cal","Found ation","5 3","C C","I V","R od","b es","b ail","o x","p owers","r ick","w ake","w ins","re ject","sh if","qu iet","cr imes","offic es","Co ast","For mer","cover ing","requ ires","ca ution","uck y","indust rial","Fo od","park ing","platform s","docu ments","hous es","Offic er","tool s","Tay lor","guil ty","franch ise","Micro soft","' .","6 9","A bu","C am","E ach","O T","O k","R on","U R","W he","f ashion","u ce","in i","re new","st ance","ic ide","ro s","ol es","ir t","ex changes","dr a","dr am","pp ing","ins on","Ar iz","Col or","Democr at","Lo cal","pick ed","mess ages","particip ate","surpr ising","Ger man","Tur key","volunte ers","Zo om","nu clear","8 8","B loom","b ars","h es","l van","v ior","w aste","re move","ch ampionship","ce an","ne ck","tr ay","qu ir","dis put","sc ar","col lap","ven ues","sy n","Re al","la id","Bo ston","stru ck","val ues","Ad ministr","Is lam","May be","quarter back","talk ed","interest s","var iety","fail ure","Iran ian","appoint ment","surpr ised","Am ong","gather ings","pul led","Mus lim","incred ibly","Rich ard","opin ion","Scot land","confl ict","Jef f","Pak istan","Gh ana","shar p","5 7","E lection","G ame","L ag","L ew","R ad","R yan","S ports","W ind","n ations","o bl","r ural","it i","le an","ha b","li qu","ul ate","ain ed","ex hib","act s","cor ruption","ip ped","man ner","ure au","As ia","ult ural","201 2","set tle","vis ited","ma xim","cons ensus","def ensive","Pro ject","cy cle","walk ing","Te am","dead ly","prep are","connect ed","discuss ion","advis ed","CB S","occur red","birth day","Thank s","curren cy","Prof ess","fif th","divid end","Mich igan","5 4","6 4","B ack","K ong","P ay","U C","W E","k ne","n one","s ought","ar ms","le ment","be ar","se ats","ch a","tr ig","mo ves","gr own","au to","br ary","my ster","arr ang","know ing","201 0","201 1","For d","deal ing","spread ing","author ity","Fo ot","hon or","dev ices","Tor onto","monitor ing","quart ers","D aily","H a","R om","S il","V ill","f ired","i Ph","r d","r ig","r amp","t ens","in fl","is er","se cret","ad s","im prov","ag gress","ex po","ex press","um n","ian a","Br on","gu aran","sy lvan","sub stant","fact ors","shop ping","wind ow","gather ing","appear ance","tempor ary","entertain ment","Eli za","consequ ences","Jord an","D iv","E v","E ag","K a","S U","W ater","j ail","p al","se es","ro p","un k","su ff","pl ed","ap artment","off ensive","co ordin","ident ity","ho le","add s","As ian","stud io","stand ards","house hold","investig ating","sk i","ri ots","Pl an","Sy stem","tour ism","marr iage","upd ated","cry pto","shel ter","Penn sylvan","psy ch","protocol s","5 1","C ath","F l","S on","S how","W ay","c ers","f ile","k nock","n ic","r om","y ield","’ .","the s","to mor","as su","as ide","as sets","be th","con ven","we stern","ul ty","um a","He ad","other wise","reg ions","put s","ton ight","got ten","Se cond","official ly","return s","strugg le","Jer sey","cance led","Glo bal","Ve gas","tomor row","1 50","J ay","g olf","v ast","w ound","al and","is an","il legal","un clear","te l","not es","bo at","bl ow","An n","int ended","ade qu","hand le","Con trol","vent ure","light s","ron ic","pan el","tro ops","neigh bour","implement ed","resol ution","Spe aking","relative ly","apol is","Hou ston","2 50","6 1","B at","B BC","E ner","F il","H op","H ong","J r","J am","K han","T er","W u","g ate","h its","k itch","t ail","in struct","re cording","or ter","id ency","be gins","ol ic","res er","res ist","br ain","Ch ampionship","pos it","home less","des per","big ger","ben ch","target ed","match es","mot iv","shop s","mult i","particip ants","teach ing","div ision","exc iting","cru cial","typ ically","scen es","Lab our","bot tom","ww w","propos al","preced ented","trou ble","Fam ily","C ard","P A","f i","f ing","g ap","l akh","s ch","v ital","w ers","er o","the ast","re presents","it ors","un precedented","de feat","ear s","el im","ev al","ep id","co de","prov ider","dec ide","trans action","par liament","contro vers","emer ged","walk ed","result ed","suggest s","iam i","squ are","brief ing","grant ed","tweet ed","beha vior","gro cer","excell ent","Ariz ona","Pennsylvan ia","8 5","A gency","G reg","L as","M iami","b odies","g i","m ut","t ree","u th","u ations","in stru","ic y","im ages","un a","ap ers","sp ots","ident ify","miss ions","world wide","nor thern","ded icated","foot age","percent age","reach ing","watch ed","Cl ass","sk y","decl ined","significant ly","Par is","encour aged","explo s","consu mer","increasing ly","rout e","Fore ign","mach ine","fest ival","Jud ge","democr acy","politic ians","perman ent","Wis cons","Albert a","D i","D ise","H aving","K am","M ot","S um","S ky","b orders","d inner","f ly","p in","v it","re vol","ce l","ul us","igh ter","pr inc","sp aces","ile y","Ch an","pre ad","Br ad","ph arm","leg it","eng aged","bre a","On tar","vol ume","enter ing","gener ally","fall ing","bur y","cust ody","strong er","Ste ve","Dav is","collect ed","require ments","communic ation","inde ed","upd ates","incred ible","sat is","weap ons","adap t","Sher iff","scor ing","Acad emy","Ener gy","Wiscons in","C all","E astern","F ur","M anche","l on","r if","t act","w arr","in spir","st able","ad el","de fe","our s","ll a","It s","br a","dis crim","down town","og ue","follow s","few er","night s","Ind ust","At tor","ca pe","Sh ar","fight ers","spec ies","Pl us","attemp ts","Pal est","Hol lywood","IN G","Invest ment","fat al","nur sing","mic ro","Eliza beth","Ontar io","Manche ster","( $","7 00","C u","D ar","F un","L G","M it","S pecial","W alk","b ond","c ou","d uty","m ap","il a","ro les","out come","ex posed","any where","gr at","ck s","ev in","work er","bl ess","coun ting","dis aster","dr ama","amp ions","air craft","Un fortunately","emp ty","leg acy","rel ax","second s","near by","turn s","bab we","proper ties","vacc ines","demand s","photo graph","feat uring","terr it","imm une","inv ited","delay ed","estim ates","inde x","manufact ur","cin em","elig ible","Zim babwe","expo sure","B ud","D O","E mer","F I","G ul","P lease","R O","R ay","T am","b are","f ake","f ishing","f ounder","i us","p ace","r ia","in tim","om o","be long","ro l","im posed","ig ate","ex pl","fe es","ant ly","ust er","me chan","br id","Br y","sur face","fol ks","bre ach","follow ers","building s","colle agues","roll ed","inst ance","anim al","Que en","initi ative","strateg ic","resc ue","acad emic","Color ado","Lag os","Lew is","A E","B ul","E mp","J ason","M organ","N HS","O per","R aj","T ele","T ony","T ube","U l","c ul","e ing","f lying","p atch","s witch","v s","v y","in ate","in cent","the me","at i","st al","il ton","im proved","op h","ter min","fr u","pro of","ul ting","gr y","me al","ans ion","Th rough","ev ac","dis cover","ious ly","ph ia","sur ger","think s","though ts","az il","equ al","class ic","press ive","techn ical","paren t","proper ly","Just in","compet e","push ing","comb ined","ades h","recogn ize","suspect ed","beha vi","accom pl","recommend ations","categ ory","scenar io","unicip al","iPh one","A BC","D un","D own","G or","H un","P ower","S ir","T est","b anned","r ail","t aught","re c","re action","al es","al le","of fee","con dem","iv als","cl ar","el ine","pre c","pers pect","sy m","rel ations","cour ts","ub s","lock ed","sub mitted","Con ference","Mr s","expect ations","Af ghan","Sen ator","nation wide","NA S","Med ic","base ball","Phil adel","enjoy ed","regul ations","rout ine","gue sts","Any one","histor ic","gradu ate","Wu han","Philadel phia","5 G","B a","M en","O R","R et","R ose","S ain","S ud","e en","r ide","s co","s weet","st uck","ou l","ad ults","ro t","ot ing","un ning","ag ents","end ers","od d","ak a","form ation","ask a","Br azil","mem ory","law makers","jo ining","Se ason","sub sid","urs es","prom ote","safe ly","attemp ted","regular ly","Net work","pict ures","communic ations","sha pe","Stud ents","passeng er","temper atures","emot ional","clin ical","Bow l","accur ate","Chair man","A ward","C ross","G reat","L in","L at","L im","d ates","f old","j ack","l ined","m ere","in als","it tle","il s","ad ult","ill ing","res ent","li kes","po d","cr az","sp ark","comm and","ren der","ens uring","cur b","ob served","fl at","vis its","vis iting","che m","app lied","Se attle","fact or","post s","plan et","Dr ive","organ is","claim ing","invol ve","prep aring","sold iers","heav ily","specific ally","sound s","roy al","stress ed","Are a","legisl ation","tack le","doz ens","jun ior","origin ally","cancell ed","spl it","deput y","Ze aland","Profess or","2 nd","6 3","D ie","L yn","S qu","T ime","b ott","e ating","f lex","t il","the at","re form","ve get","se ctors","for th","for get","im possible","ut ies","con cept","ag ent","ab andon","pe ak","fe ars","gr ass","au g","ber y","comp on","fir ms","des cr","should n","set t","fun dam","Ro ber","pass es","poss ession","market ing","beli ef","friend ly","val u","dep th","prof ile","Pro gram","ides pread","impact ed","compet itive","target s","threat ened","fair ly","Sy d","deep ly","recogn ition","analy st","discuss ions","Mor ris","complain ts","typ es","convers ations","scient ific","wonder ful","tick ets","consist ent","afford able","Kel ly","Econom ic","postpon ed","7 9","A F","E ver","F ree","O pen","T op","V ol","d ial","e li","k in","z y","al ive","be c","ac hel","se as","un likely","un known","not iced","cl oud","ok ed","ck et","some body","int on","under stood","Br ady","des ire","ra ising","eng age","mark ed","law suit","incre ases","ax y","az z","val id","indust ries","invol ving","Char les","Ab out","indic ated","hund red","temper ature","weap on","Sou thern","veter an","Jose ph","retire ment","maxim um","B ab","B ang","B eng","I M","J es","K evin","S anta","T ik","e e","e lder","g am","k il","s and","t ill","t ank","ic ient","be gun","ut ed","res idence","li p","fr on","off ense","sp in","An th","week ly","reg ime","ele ments","support s","char ity","ivers ary","found ed","experi ences","200 8","Sen ior","fail ing","viol ent","ony m","cell s","gen u","encour aging","relationship s","manufact uring","surround ing","batter y","insp ired","kitch en","Attor ney","Syd ney","1 st","7 4","E ric","G i","K ent","R ight","S S","T it","V o","g all","k m","m arch","m useum","t un","w idespread","in cess","the less","en able","ent re","ro lling","ch ances","ver se","we igh","end a","up per","ick en","ang ers","cess ion","reg istr","don ated","clo ck","leg end","public ly","head s","head ing","mark s","Jo sh","hand ling","Be at","200 9","adv anced","Dep uty","bur gh","Cor p","reason able","wide ly","explain s","Med ia","box es","perform ed","clean ing","epis odes","Japan ese","Comm un","journal ist","abs ence","norm ally","assure d","newsp aper","Anth ony","1 20","D om","H al","J P","L y","L and","L ord","O p","O ld","P D","S us","T al","b at","c ies","j ur","p ipe","’ ,","an ia","en h","ou tr","es cape","as er","am oun","ig en","op pos","tr ibut","tr ials","pl om","cr ack","sp ike","ach ment","int ent","don ations","Co oper","vot er","You Tube","hold ings","aim ed","ext ension","vir al","stit ution","short ly","medi um","threat ening","respect ively","War ren","pet ition","effective ly","argu ed","tick et","comed y","diagno sed","deploy ed","anx iety","athlet es","Hen ry","gon na","acknow led","Cath olic","valu able","genu ine","A gr","D ak","O w","S n","S audi","T ha","V ik","W at","p it","re place","st ages","ac cus","am ber","ut il","pl ate","ap olog","end ors","gr ab","pol ling","ret ired","ash ed","head ed","ci pl","hand ed","sign ing","law yers","vent il","lim its","gy m","Cor por","step ped","bas ically","ham mad","rating s","bed s","enn y","address ed","pack ed","wind s","stor age","Gold en","concl uded","appreci ate","Bit coin","CN N","Whe ther","Fur ther","G M","H old","H ope","P it","W ild","s ac","in vent","re ly","re plac","to tally","es cal","as c","ic ian","il ly","ch ose","with draw","con text","ha w","ne ut","res pir","ate ll","ear n","me at","ans wers","no body","str ing","ass igned","St adium","int ention","ick ing","est imate","arr ive","col l","sur ve","ten ance","ik a","grap hic","park s","cult ural","pan ic","suspect s","Per haps","citiz en","perform ing","nom ine","acce ler","acce pted","dy nam","object ive","Wil son","minim um","Spr ing","profession als","epid emic","8 1","B ad","E p","J on","L ive","N ever","S k","S ab","d iverse","f ought","h at","l ins","o le","s i","x it","re ck","en de","ic it","se ed","ch ampion","ol ar","br ut","br ands","St an","low est","arr ival","fin ance","iss ions","gu ide","fl ed","cut ting","produ cing","So ci","fil ing","app ing","Bo ok","Nor thern","ground s","mot ion","collect ive","Reg ional","Every one","Isra eli","prem ier","Che ck","narr ative","select ed","Nav y","liter ally","seg ment","Foot ball","D E","F ive","J ac","L ady","M att","M umb","N a","W HO","c offee","g arden","m its","m ph","r ay","r ival","w age","th ir","re h","and al","it ate","ent r","im pe","et c","ab road","tr acing","It al","ev il","some what","br ill","int ensive","fore ver","ves sel","fun dra","sub sequ","keep s","find ings","house holds","distr icts","techn ologies","sent ence","sal ary","celebr ation","di plom","rac ist","discus sed","Gu y","CA A","represent ed","fortun ate","bour ne","sustain able","Tok yo","anticip ated","constant ly","univers ities","stim ulus","Addition ally","Pac ific","substant ial","Eag les","Dise ase","Bry ant","pod cast","craz y","7 3","? \"","A L","B as","E s","N ight","N ations","P T","U s","V i","b omb","d rew","g or","g ear","p ting","s ending","w art","in su","re called","or ate","al lies","am i","am m","am in","con spir","ab sent","li ft","pro hib","ul a","pl astic","ast s","cor d","ok o","ip tion","back s","Br ian","Min ne","aren ess","ca utions","ca uses","contro lled","train ed","Ber nie","Ke ep","dog s","squ ad","capt ured","Met ro","horr or","Haw ai","occas ion","Den ver","provin cial","Rober ts","Tik Tok","8 9","A ff","B S","F arm","H an","H ur","L ives","L iver","M ir","S ub","b in","d iversity","g al","h ill","p son","en counter","or ation","st ol","ot ic","op posed","res ort","res ulting","pro p","ul ating","so ver","ex port","ex emp","po ver","20 22","end or","me als","ip al","str ange","ach u","coun sel","dis cipl","ick s","vis ed","US A","feel ings","Be ij","pat ter","sen iors","Bo y","def ence","mand ate","Me ghan","Ju li","Sp an","Sp ace","rac es","contract s","Air port","comb ination","extra ordinary","Pat riots","alter n","recomm ended","instit utional","expand ed","rough ly","volunte er","collabor ation","comput er","improv ing","adequ ate","behavi our","Mumb ai","Minne apolis","stol en","Beij ing","A wards","B i","E th","F est","G B","G DP","H ist","I O","N ev","O ak","P hoto","S ony","a fr","d ining","f aster","g s","g reg","i at","r ics","s am","in ent","re pair","he ll","be ating","ut ical","de em","ess ions","bl ame","aw ards","ace utical","pre ne","dis closed","form ed","dr ag","min ing","ask s","ann iversary","ins isted","vis ible","fol io","Com mon","che ll","fact ory","Gr ant","find s","ext ent","Mar vel","stay ed","whe el","har i","bur den","redu cing","depend ent","depart ments","outbreak s","ple as","represent ing","hor se","bill s","slow ly","dom in","explo re","beaut y","Thom pson","Port land","mix ed","Bre xit","rush ed","Def ense","lu x","itar ian","oppon ent","repeated ly","Bloom berg","Palest in","Cu omo","perspect ive","sym bol","Soci ety","C S","H D","M ain","N ation","R ev","R est","T E","W in","b ath","f ab","j u","m ountain","r ug","s atell","t u","v oc","st ers","ed ition","ou red","ch art","ur u","ur ge","em an","ex ter","per mitted","over seas","co s","pres idency","reg on","bu b","clo thing","ph il","Co ok","produ cers","Se a","sit uations","hop efully","hospital ized","car bon","gre es","experi encing","Mc C","mus ical","Cl ark","protect ed","redu ction","strong ly","bank ing","threat s","host ed","purch asing","necess arily","Ab d","div or","complain t","qual ified","camer as","Mus ic","assess ment","remark s","conserv ative","pregn ant","sudden ly","Administr ation","grocer y","surger y","Dak ota","A y","H ay","H ave","K ay","L ind","M L","M ountain","O regon","T ed","c ill","c ure","g ang","g aming","l um","m art","m ary","p up","p lead","w al","re bound","ic an","ac le","ut ers","de ce","ha bit","ex it","ther ap","any body","ans as","ren ce","thr own","clo sures","cap tain","Ro ss","sub scr","expect s","main ly","main tenance","mand atory","dist ur","field s","infect ious","Niger ians","por ter","60 s","lab our","hot els","Do es","track ing","School s","prim arily","tre es","maintain ed","cli ent","susp ic","nom ination","Invest ors","independ ence","refer red","Lab or","critic ism","trail er","apparent ly","Mod i","Ir ish","Ut ah","Lt d","reject ed","trig ger","territ ory","A gain","D or","D id","G H","K um","L ittle","P R","R ap","U r","V is","d uties","l unch","m ild","o v","r it","th rew","in quir","re put","ar us","ar my","ic ial","le im","im pressive","de light","ab led","tr illion","ul ous","so c","ex cess","ll ow","um es","comp reh","br anch","min isters","hel ic","prov en","under lying","arch ite","ton s","Al ab","app s","ext ensive","list ening","organ ized","Mo ore","concer t","process es","har vest","cy ber","rul ed","grap hy","rup ted","sw im","reli able","isol ated","sn ap","kick ed","chan nel","Tur k","Cur rent","Mem bers","Author ity","brill iant","8 4","B ag","B all","C H","D y","E S","F air","K ir","L ight","N el","N ick","O K","P en","P op","R og","S ix","V P","V iet","Y e","i qu","l ady","o o","r and","s is","t ip","al ed","ar c","ay a","ow ed","ow ing","ro of","ro ots","ver age","de grees","res il","out ing","gr ate","co operation","cent res","form al","thr ill","land ed","fact s","With out","short age","fall s","ref uge","nation ally","educ ational","SA RS","represent ative","performan ces","High way","block s","90 s","Bu il","Bu hari","MP s","argu ment","Offic ers","resol ved","constit u","constit utional","cook ing","histor ical","Bor is","jump ed","categ ories","medic ine","fix ed","Ham ilton","NS W","agric ultural","Gul f","entre prene","pover ty","Span ish","3 rd","9 6","A v","B road","C ivil","F all","G ra","K u","L ater","R T","R en","S ams","b ors","d im","d ying","e gg","g ross","n is","n urses","r ub","t um","w ore","is her","as sum","be half","ad mit","ut ter","con ver","em issions","not ing","20 00","up grad","aw areness","pre par","int ense","Wh ich","sc ape","ele ment","person ally","peri or","cap abilities","ah u","En vironment","Sh ould","process ing","exp ansion","bor row","spo ken","por tray","Mic hel","host ing","coach es","assist ant","jud g","sw ing","incident s","review ed","deliver ing","gather ed","isol ate","cru ise","Indian a","san ctions","award ed","Pre vention","eder ation","negoti ations","Sci ence","effic ient","Tre as","Rad io","suff icient","Mit chell","elder ly","Agr ic","neut ral","leim ani","Sams ung","D ev","L uc","N D","N ic","O s","O li","R ights","S et","T ar","U k","b n","b ally","b read","c ited","d ated","d ating","e ager","f ro","f its","l atter","t ent","w rest","re porter","ed itor","to ile","ill ance","us al","ne ls","li ked","pro portion","ex ceed","any more","sp ons","bl ast","comp ar","dis appointed","St at","form at","min i","air line","Co st","Re port","fun eral","Be ll","found ation","manag ing","six th","seem ingly","emer ging","priv ile","contact ed","celebr ated","70 s","interview s","draw n","fit ness","contribut e","contribut ed","crow ds","regul atory","attr ibut","Scott ish","bag s","smo oth","Mel bourne","wash ing","doz en","fant astic","bass y","destroy ed","Child ren","Div ision","Ital ian","Liver pool","afr aid","Abd ul","B an","E ll","G un","G ames","J our","M atter","S uch","T ai","U T","m at","n ab","u f","u ct","u ated","an ne","re in","en jo","ad opted","ch ap","un ve","et t","con front","te ars","ex tr","pr ise","over night","bo ards","cre am","pre cautions","ish ment","fl av","leg ally","Con stitution","econom ies","det ail","list s","hard er","hit ting","stock s","hum ans","campaign s","protect ing","Ste phen","priv acy","coach ing","bar rel","ple ased","represent atives","imm unity","Chief s","gain ed","request ed","contain ed","acqu iring","virt ually","surv ived","distribut ed","cance l","Mont real","Mur phy","tempor arily","pil ot","pound s","recru it","devast ating","Die go","C hel","G ir","G ard","H L","L au","P O","d ers","i as","p ump","r ice","t all","w ine","w ich","in no","the aters","re ward","ic ation","ent it","ac o","ch at","am end","ur gent","ut ch","et ic","op ens","sh ore","ant ib","ll er","od ds","port folio","au se","comp ens","ach ed","dis h","cent ers","cur ities","prov iders","cho sen","ob serv","bet a","set ts","bre ath","Re ad","hand ful","real ized","Con serv"]}}