{"version":"1.0","truncation":null,"padding":null,"added_tokens":[{"id":0,"special":true,"content":"<UNK>","single_word":false,"lstrip":false,"rstrip":false,"normalized":false},{"id":1,"special":true,"content":"<SEP>","single_word":false,"lstrip":false,"rstrip":false,"normalized":false},{"id":2,"special":true,"content":"<MASK>","single_word":false,"lstrip":false,"rstrip":false,"normalized":false},{"id":3,"special":true,"content":"<CLS>","single_word":false,"lstrip":false,"rstrip":false,"normalized":false}],"normalizer":null,"pre_tokenizer":{"type":"Whitespace"},"post_processor":null,"decoder":null,"model":{"type":"Unigram","unk_id":0,"vocab":[["<UNK>",0.0],["<SEP>",0.0],["<MASK>",0.0],["<CLS>",0.0],["s",-2.8089478691601037],["the",-3.327818643213444],[".",-3.358655338823688],[",",-3.432694565876588],["a",-3.7388063572473396],["to",-3.8711703759136213],["and",-4.047402962811775],["of",-4.079104989898601],["in",-4.219799248398255],["ed",-4.2653347172844125],["ing",-4.382738144597166],["d",-4.4889709955965404],["y",-4.541149846735392],["t",-4.565913883494197],["e",-4.7094371405223665],["on",-4.718034363164648],["’",-4.796997109021289],["-",-4.826334205452943],["is",-4.90462003874457],["ly",-4.925231411105942],["that",-4.936735506926828],["for",-4.9804843966367525],["I",-5.130569469571526],["The",-5.1383524046416404],["o",-5.201532561331133],["be",-5.2251055117009475],["with",-5.230596819906134],["it",-5.310238267169577],["“",-5.387409200691449],["n",-5.433260356035307],["was",-5.440121106861989],["are",-5.4876524136772815],["'",-5.538819211991182],["at",-5.555646416646795],["aid",-5.619365655621138],["have",-5.661120663709971],["an",-5.702975236888733],["has",-5.763983325969942],["from",-5.821516231599521],["he",-5.839853466678372],["by",-5.85198388596025],["will",-5.889391466890672],["\"",-5.9082717146057515],["not",-5.974083051796901],["this",-6.026192745152581],["his",-6.088480997227508],["or",-6.106121032144426],["we",-6.1179379880485865],["you",-6.131714816099203],["their",-6.182991547122196],["A",-6.206578803270675],["i",-6.220324880464908],["out",-6.233521187766597],["one",-6.257402184753184],["r",-6.262783598703633],["who",-6.287954761664411],["but",-6.311573036795149],["been",-6.320278256162869],["m",-6.338200655566201],["can",-6.34555429216957],["her",-6.3704712918640976],["ies",-6.377168425694396],["all",-6.413080698686301],["were",-6.421560704869551],["up",-6.422929906328175],["they",-6.426550094135957],["(",-6.427353524418169],["more",-6.428998300060348],["had",-6.4333514748033185],[",”",-6.446193553819622],["er",-6.461374867256799],["also",-6.516486858506008],["people",-6.520124293111067],["about",-6.527104475300311],["other",-6.530125934752503],["S",-6.537469471681771],[":",-6.5543959253874196],["19",-6.5770832014601],[".”",-6.58264669366601],["time",-6.586935469969115],["which",-6.616972694342994],["re",-6.6625993455451304],["like",-6.692384483374813],["year",-6.696617307081265],["”",-6.71791661735916],["would",-6.719245187382807],["h",-6.750864430399217],["new",-6.7556425524188555],[")",-6.7582298311540825],["al",-6.7592322711257555],["our",-6.765598712296313],["l",-6.766802905154263],["In",-6.7776693589040065],["20",-6.786585831321739],["We",-6.792288100213364],["day",-6.7958833174471085],["over",-6.803245496899946],["when",-6.8079844938548035],["He",-6.821650706489786],["after",-6.8298306231916115],["she",-6.842433636192144],["there",-6.84704568504344],["b",-6.860459363197085],["what",-6.905870239194777],["$",-6.909962739059923],["get",-6.91135618547079],["some",-6.9159277776234465],["than",-6.918044220727055],["?",-6.9405323959235705],["us",-6.958730152382054],["its",-6.9596333121448],["now",-6.962989347768719],["just",-6.976960975009088],["able",-6.986027721743069],["first",-7.006858774200128],["if",-7.009973227934794],["two",-7.0161899737279825],["them",-7.035752980219959],["—",-7.04317774767378],["p",-7.051485236526299],["1",-7.056046131511234],["my",-7.057506882386137],["how",-7.057531444449479],["cause",-7.062871337151392],["any",-7.074745026422388],["work",-7.106878463511226],["him",-7.114697337131762],["back",-7.117189958261001],["need",-7.122495385578456],["most",-7.128071565602743],["This",-7.147946920734573],["f",-7.152670398162867],["your",-7.166689639509632],["But",-7.1810194213162095],["could",-7.183470361521478],["C",-7.1967904807922976],["state",-7.19784206165752],["c",-7.206836557951055],["last",-7.214644466225641],["2",-7.245120968268385],["ever",-7.25335779004629],["whil",-7.281256545117055],["through",-7.284071322750417],["take",-7.296646417855382],["want",-7.308114711273011],["man",-7.309207354476545],["during",-7.316477527118004],["being",-7.344753757390745],["well",-7.350830016793503],["way",-7.3521295585717565],["make",-7.3523504932305235],["where",-7.356695727125351],["ve",-7.360524089752841],["hose",-7.364613126448957],["every",-7.3722135393326225],["home",-7.374281134955446],["M",-7.379484147803766],["see",-7.381988723344623],["many",-7.382526067272907],["government",-7.390193743235028],["help",-7.39421866811733],["going",-7.400602917252016],["high",-7.400726860715208],["un",-7.405420263429762],["COVID",-7.41919944481424],["even",-7.420469549134796],["call",-7.421189532713756],["before",-7.422086160272651],["come",-7.422728456529493],["w",-7.433857203125241],["000",-7.435434143807113],["look",-7.43832240171021],["years",-7.445576016439197],["me",-7.4463875668979735],["3",-7.451622697337706],["game",-7.456779657478952],["T",-7.457932089453384],["go",-7.458333209063604],["play",-7.459016104829508],["long",-7.473723310211787],["health",-7.4751774052374875],["–",-7.476975031842766],["into",-7.48009006312689],["U",-7.4818787206126425],["down",-7.487428304238047],["should",-7.488418697077479],["real",-7.496755246523033],["know",-7.509959629327646],["week",-7.512728077133978],["start",-7.51606723156401],["agains",-7.5193518574519045],["B",-7.520366488822513],["end",-7.524210911754854],["Trump",-7.524344717855652],["off",-7.536575067772851],["4",-7.545636097342058],["made",-7.548697972584108],["%",-7.549727097251276],["thing",-7.554869502123418],["And",-7.557144980747847],["coronavirus",-7.557649617562345],["test",-7.562328179859619],["part",-7.568994707874622],["still",-7.571053803461054],["5",-7.571492188443667],["three",-7.581379740597148],["2020",-7.58678090195832],["‘",-7.587008050475962],["use",-7.6046412054130315],["u",-7.6084645900780385],["th",-7.611264587120058],["per",-7.620358844195443],["very",-7.6213819491226324],["these",-7.621960316552091],["old",-7.625597804224325],["may",-7.633577230669172],["R",-7.642406538546678],["place",-7.652786936628579],["She",-7.655308553900198],["under",-7.656198099428223],["million",-7.659724730570621],["show",-7.664300559067246],["g",-7.665577939875084],["support",-7.669338711095988],["good",-7.675043648744704],["pandemic",-7.677912907975503],["country",-7.679024446047726],["number",-7.689746619192802],["much",-7.689768182724053],["There",-7.69455841965751],["E",-7.6993375720336985],["cases",-7.70087425051739],["/",-7.702449315088705],["team",-7.704772383617274],["says",-7.706204183213918],["think",-7.7075349355457945],["k",-7.714008886851909],["school",-7.715231040032094],["around",-7.716536967393111],["New",-7.7245424908432705],["public",-7.729061629479751],["right",-7.737994521611227],["business",-7.740814109992454],["point",-7.74089798882125],["continue",-7.7485165715961655],["season",-7.752572333100204],["such",-7.753848134312472],["If",-7.756287330015249],["10",-7.756952507767626],["world",-7.762956856625164],["N",-7.766995043904963],["ce",-7.768056478821017],["D",-7.773871374236189],["add",-7.774494052073136],["close",-7.77570747171314],["6",-7.783981300565498],["life",-7.785518897847924],["police",-7.7872723777234345],["since",-7.788194707513353],["change",-7.800104539815781],["own",-7.80655064735713],["did",-7.807090681007549],["communit",-7.807159039136101],["P",-7.810042674453294],["self",-7.810913184132037],["company",-7.812863830519552],["ity",-7.813864788020583],["service",-7.814676156804082],["family",-7.829923698251442],["That",-7.832899573956769],["came",-7.843349799018346],["including",-7.850664727835701],["How",-7.850707248306701],["issue",-7.858833244301949],["don",-7.860670749820056],["say",-7.865634614693279],["person",-7.869384823520995],["next",-7.8817010044784235],["0",-7.889963176236458],["As",-7.8906474419254335],["ready",-7.899350549926989],["second",-7.910929950137834],["7",-7.912564899436836],["8",-7.9200104197803425],["lot",-7.920615905748624],["told",-7.923997651208827],["etween",-7.928184008991232],["head",-7.9311848102398],["both",-7.932490541023955],["Mr",-7.934534122012207],["same",-7.938348895928596],["less",-7.9386324686508525],["W",-7.945451448329808],["care",-7.954177951750786],["O",-7.96924508243095],["For",-7.97077950615149],["ember",-7.971787225334434],["group",-7.9746824387464255],["great",-7.975210219714838],["student",-7.978036210002217],["9",-7.988068281596864],["You",-7.992098697732779],["open",-7.9941458065941875],["allow",-7.995279178344121],["plan",-7.999901125091229],["social",-7.9999678952828885],["L",-8.000546006518462],["current",-8.002797206760892],["few",-8.014406022203536],["On",-8.016536430687093],["keep",-8.021398306932891],["order",-8.02418609627108],["President",-8.02916393795699],["remain",-8.035763736718508],["ll",-8.041320998405478],["recent",-8.042382830186142],["result",-8.044661206708666],["put",-8.04618435202418],["return",-8.046806461044802],["got",-8.047197010356705],["ask",-8.04896562304372],["virus",-8.053163369208908],["coming",-8.057332969648192],["each",-8.05774566404759],["night",-8.059590055840452],["So",-8.061183261009724],["ary",-8.067860158294696],[";",-8.068252277719084],["election",-8.071531477033734],["though",-8.073092320735878],["Friday",-8.076985208600412],["case",-8.077856882427781],["different",-8.082029426183801],["love",-8.08213339541031],["report",-8.082563733271044],["best",-8.084661306854231],["face",-8.08703487007842],["president",-8.090833581765954],["four",-8.091438039055552],["near",-8.09487273345929],["month",-8.09577633425663],["low",-8.107275463426351],["30",-8.108824569839479],["include",-8.110364196877882],["H",-8.112344953064706],["!",-8.113345596122876],["found",-8.113887712197577],["base",-8.11436620393323],["F",-8.124414920258836],["city",-8.124923606127176],["local",-8.127494334074832],["across",-8.13643634203958],["US",-8.137320717431916],["American",-8.141136911100698],["est",-8.141478484557284],["provide",-8.14181734498858],["market",-8.143216764909106],["release",-8.143602850679919],["try",-8.147090301262267],["side",-8.148049436196768],["am",-8.150770975457412],["reported",-8.151391822062953],["line",-8.152139370254353],["ment",-8.155001335536436],["15",-8.155896857750704],["When",-8.157492827737094],["here",-8.160069951038285],["special",-8.162600855844044],["event",-8.167300941807952],["State",-8.175775815893772],["give",-8.187667778216797],["far",-8.196264324242065],["large",-8.19698050921938],["due",-8.197418292365583],["K",-8.198008061154857],["G",-8.207341318567021],["mean",-8.208038514267503],["To",-8.21500587720858],["according",-8.217154828190743],["left",-8.217729163596609],["system",-8.218819119461202],["hour",-8.219117483666997],["price",-8.219221334832778],["move",-8.219327072262839],["turn",-8.222443165711008],["11",-8.225875892197186],["working",-8.22891321930549],["level",-8.233063408411523],["16",-8.235973636245996],["never",-8.236023643762227],["live",-8.242733331825399],["something",-8.245352647285355],["full",-8.253440972692413],["share",-8.256713695216828],["feel",-8.25746859507889],["Monday",-8.260358435624866],["What",-8.260375392198863],["12",-8.260931763694298],["better",-8.266902274116205],["until",-8.270891613403046],["term",-8.276038210647107],["le",-8.276503575047581],["post",-8.282746851986646],["believe",-8.283257391863629],["statement",-8.28465152725296],["big",-8.286538513357925],["record",-8.28656830428615],["talk",-8.286999211424604],["things",-8.290880313814485],["children",-8.291031354838584],["ook",-8.293494299232709],["ance",-8.293974319416613],["didn",-8.294031042700276],["quarter",-8.29684136771063],["might",-8.297830222485022],["months",-8.299214151513759],["ness",-8.303301649124966],["must",-8.307269112711273],["…",-8.307729033985492],["hard",-8.309048876062828],["film",-8.310131258347553],["increase",-8.314361866222164],["five",-8.315018396120696],["With",-8.315783497204862],["does",-8.31694452720167],["land",-8.320304315571345],["China",-8.324890944285414],["final",-8.32604782158015],["alway",-8.326961887160454],["County",-8.327224280719733],["21",-8.328411683156872],["force",-8.33101201856378],["past",-8.333464495200769],["total",-8.3342337831017],["March",-8.334513527497993],["een",-8.334555446331198],["14",-8.335351444360047],["hospital",-8.338074115702153],["information",-8.340162478634063],["away",-8.340728984112499],["Whil",-8.342824203602252],["members",-8.343190714054339],["win",-8.343270384689234],["17",-8.343517564793926],["body",-8.346230924441986],["um",-8.34840920569345],["top",-8.350767713373642],["Thursday",-8.351064136239945],["important",-8.35395714174822],["officer",-8.354159026826519],["stay",-8.354588567554963],["An",-8.356325733669891],["wh",-8.356674572184396],["No",-8.358806992487107],["find",-8.361070525428275],["positive",-8.361652459545745],["become",-8.361916188490087],["decision",-8.362648804215219],["South",-8.362663227508357],["&",-8.367028358543863],["claim",-8.36842211287459],["making",-8.36862631583428],["spread",-8.374510997744176],["risk",-8.376389949560654],["again",-8.37913842487484],["Tuesday",-8.38176705621662],["won",-8.382366374804272],["Health",-8.38474386696877],["went",-8.385232494597961],["media",-8.385572380689272],["age",-8.38721879060331],["Sunday",-8.389421923115341],["power",-8.389603464998727],["Saturday",-8.392214871799071],["De",-8.393880195975663],["food",-8.395253996388611],["vote",-8.39576948160347],["question",-8.39776624205511],["women",-8.401348427115632],["run",-8.402038025019039],["project",-8.402659502813902],[").",-8.404064743714603],["money",-8.40446150297372],["former",-8.40580131178331],["resident",-8.406052519069831],["deal",-8.407422817821079],["car",-8.411506511576793],["hit",-8.414865526645162],["experience",-8.415202407390908],["little",-8.41651416455495],["stock",-8.417048655524589],["small",-8.41948329107841],["hav",-8.419631452636377],["law",-8.41986946016635],["ive",-8.421353002019373],["ic",-8.422474398276314],["together",-8.423400723531856],["future",-8.42423478469457],["One",-8.425505078303843],["later",-8.426429775681818],["concern",-8.430445826089684],["death",-8.431644739111373],["men",-8.436093699688914],["wide",-8.43729336030206],["gan",-8.439565935964279],["water",-8.43987325509968],["pay",-8.440084394972764],["six",-8.442610846710227],["fund",-8.450799368990571],["staff",-8.456246861466948],["shares",-8.457432038068507],["Wednesday",-8.45890623182268],["ten",-8.460970974342699],["happen",-8.461585359198795],["United",-8.46361908213195],["50",-8.464881192829603],["free",-8.4671879297723],["worker",-8.47055567116602],["national",-8.471211880523612],["Al",-8.471321947863226],["action",-8.474258167518766],["receive",-8.47787464237603],["clear",-8.479499076324906],["mask",-8.482019017258287],["leas",-8.482861003154042],["cent",-8.485868909863754],["several",-8.485893133917227],["along",-8.48603927362791],["taking",-8.489538749290826],["process",-8.4922656269149],["air",-8.495872754769003],["announced",-8.496013523098888],["sure",-8.499590447993562],["13",-8.501461233342127],["May",-8.501721825026433],["video",-8.50470196070123],["All",-8.512057604173016],["office",-8.513164285796835],["given",-8.514054131212376],["series",-8.515984627985413],["young",-8.523301113586943],["officials",-8.524637185930576],["sign",-8.52644687768148],["weeks",-8.52660862589781],["political",-8.527840702807318],["ally",-8.529276784896524],["program",-8.52950171846598],["National",-8.53249247584973],["online",-8.535070887145338],["doesn",-8.537503483423652],["court",-8.538130810028594],["z",-8.53925641165467],["seem",-8.541501083064992],["nough",-8.544836349014778],["position",-8.545659308121495],["After",-8.545768164392783],["ial",-8.545773937744489],["24",-8.547178804409356],["data",-8.548040747198755],["),",-8.549175275204648],["today",-8.549313217700995],["half",-8.553066350441572],["taken",-8.554493946132354],["consider",-8.556336293955004],["25",-8.557131164657143],["late",-8.560054188343717],["Police",-8.560200124453555],["campaign",-8.561950487531046],["among",-8.56195394611932],["players",-8.561965469986728],["lead",-8.564017274044254],["possible",-8.5669866441709],["third",-8.570798462204575],["avail",-8.570846801228646],["period",-8.572096344948882],["whe",-8.572392940335689],["ship",-8.572469057501015],["using",-8.574009190972074],["problem",-8.574386386839887],["further",-8.574425392460773],["field",-8.579830080456844],["ation",-8.586152614698648],["house",-8.588063840372296],["party",-8.58929348971316],["light",-8.590886384177892],["yet",-8.59420942887727],["Covid",-8.594387892797137],["job",-8.594849345490953],["complete",-8.59760397922549],["reach",-8.59761561940386],["kind",-8.602787997578789],["Dr",-8.60292731494414],["strong",-8.603449668421856],["18",-8.604290656548923],["cost",-8.608543202331163],["impact",-8.60935058420247],["hope",-8.610659274100719],["effort",-8.610680045600914],["Biden",-8.611061339524307],["leader",-8.611998617358893],["City",-8.614807164390097],["deliver",-8.614947699249427],["fire",-8.623936934531283],["board",-8.62400568067147],["buy",-8.626807493144758],["interest",-8.62691256934994],["ball",-8.629267012859668],["York",-8.63018868810745],["200",-8.630939002238762],["attack",-8.631259381225991],["measure",-8.631491394304026],["rate",-8.632850194739763],["following",-8.633298909918302],["co",-8.633385186249914],["fact",-8.633913675994632],["offer",-8.635111202396459],["watch",-8.63512752631954],["100",-8.638361104991617],["create",-8.638505628742086],["fall",-8.63909626030544],["short",-8.639780764526698],["lockdown",-8.64541795852453],["fight",-8.645893405776008],["led",-8.646318184360887],["trade",-8.648897909800013],["situation",-8.651373136167045],["Be",-8.652658488932182],["Black",-8.65323588286003],["done",-8.655929250664355],["percent",-8.65723182359563],["House",-8.659894217101042],["appear",-8.662659699613563],["economic",-8.66514070865151],["grow",-8.665264013685626],["meeting",-8.665884928140665],["bring",-8.666355162568564],["confirmed",-8.667201077927253],["security",-8.669348842921991],["Nov",-8.672183837838588],["held",-8.672869521076787],["travel",-8.673632593266573],["previous",-8.674659304578846],["course",-8.676103628614516],["industr",-8.676478321857244],["Universit",-8.67863013132548],["expected",-8.678861435648013],["ish",-8.681073419424456],["nation",-8.681317193202517],["known",-8.68215082226204],["major",-8.68249555504546],["v",-8.688758442034842],["opportunit",-8.688853769074012],["hold",-8.689343549393087],["woman",-8.690851541136372],["actual",-8.691933158190505],["role",-8.692798696986028],["limit",-8.694909652622524],["Apri",-8.695205094969536],["visit",-8.69566600038473],["spite",-8.695747542033796],["ago",-8.696369273047585],["Minister",-8.70292821373979],["direct",-8.703767889266052],["wear",-8.705864661842167],["potential",-8.707024474013064],["matter",-8.707061674314954],["June",-8.707447274931411],["safe",-8.708365627372856],["According",-8.709167117995419],["forward",-8.710661516577787],["protect",-8.710745946640223],["thought",-8.712385652199991],["companies",-8.71318086942987],["outside",-8.71463782918698],["Some",-8.71705482087338],["contact",-8.717349392992112],["billion",-8.717419888388342],["moment",-8.719459607248453],["let",-8.720037147067046],["West",-8.723377473375477],["India",-8.726093392710544],["list",-8.727321925768551],["name",-8.728558992556724],["pass",-8.729207290591681],["official",-8.729963263411616],["patients",-8.733089803165987],["fans",-8.733195065475492],["econom",-8.733612548995762],["quick",-8.734108923766442],["front",-8.735490851755142],["challenge",-8.736697475095866],["story",-8.738012238964767],["space",-8.739582341257101],["control",-8.739995624620045],["shot",-8.742663498970902],["focus",-8.744636538583372],["North",-8.746521204947168],["average",-8.746777612719274],["tell",-8.746954407905427],["building",-8.747556866346923],["J",-8.751116018581012],["human",-8.753401876596655],["require",-8.754626741436287],["certain",-8.755514397809634],["worth",-8.757569178030144],["rating",-8.757637689490238],["present",-8.761032152436986],["value",-8.763535032221696],["My",-8.764980319493112],["die",-8.769401650889652],["saying",-8.769902686582565],["once",-8.771614795869814],["parent",-8.772508344535492],["kill",-8.774951097499368],["research",-8.776414231194654],["dollar",-8.779473258254754],["response",-8.779943862940229],["ber",-8.785400816244717],["Dec",-8.787954023900362],["deaths",-8.789822551274874],["financial",-8.792815494623078],["reason",-8.79422527252284],["medical",-8.794644751491846],["individual",-8.797304840612913],["morning",-8.797309099779188],["product",-8.799178004869521],["condition",-8.799454036790628],["ear",-8.79949654232256],["behind",-8.79959596359585],["2018",-8.800176102073717],["mov",-8.800280952270809],["40",-8.801695154482394],["target",-8.804089209944795],["demand",-8.804104090744705],["countries",-8.804115345496957],["Sept",-8.806848058259888],["director",-8.808766738639893],["crisis",-8.810895629300443],["St",-8.811973579662613],["join",-8.816649620224663],["Department",-8.817760320933912],["store",-8.81963736432267],["news",-8.82179668153082],["stop",-8.82205429375331],["entire",-8.822365235653592],["act",-8.823052333828517],["movie",-8.82595555680895],["couple",-8.82652831161204],["develop",-8.835372859884497],["main",-8.837758843394884],["lives",-8.83956181051585],["additional",-8.839619133195438],["drive",-8.839823068988256],["Jul",-8.84005860309552],["bank",-8.841381912428748],["global",-8.845702820118085],["history",-8.845984138393309],["arrest",-8.848224561148534],["lost",-8.84838308011668],["access",-8.849754607661065],["ther",-8.851610729260114],["comment",-8.851624338729724],["22",-8.85174017883794],["times",-8.851777484847716],["ers",-8.854779956738728],["town",-8.854782986525846],["account",-8.854904797066958],["walk",-8.8551845724763],["employee",-8.857602108572479],["leave",-8.86144691220139],["learn",-8.863740861391207],["launch",-8.863845641901873],["recover",-8.865749193055837],["war",-8.866848562436452],["date",-8.870027653008783],["often",-8.873219390086582],["general",-8.87448595605555],["development",-8.877226688457526],["V",-8.877342646665841],["star",-8.87819637558523],["TV",-8.881990734002336],["wait",-8.88418052567068],["customer",-8.88463183281435],["00",-8.886715131436542],["character",-8.886904777901258],["address",-8.888040335397982],["benefit",-8.889135059562818],["America",-8.88969155906058],["count",-8.891424546074777],["form",-8.892339036185955],["bit",-8.892916332469209],["vaccine",-8.894078360344125],["abilit",-8.897264071477176],["hi",-8.897648276946008],["vehicle",-8.899047316928133],["saw",-8.90077710549555],["Now",-8.901035456877132],["option",-8.901529562250701],["explain",-8.90155031712294],["feature",-8.902089846609954],["personal",-8.903930522667352],["arly",-8.907318987908138],["cut",-8.909118597073462],["region",-8.912295693548113],["federal",-8.914104413167793],["friends",-8.914726123800651],["single",-8.917552182328645],["X",-8.918055742150827],["safet",-8.919345242049971],["book",-8.920002582673368],["expect",-8.920443744197673],["ar",-8.920744887303243],["check",-8.923002354687746],["outbreak",-8.925770731974648],["key",-8.926266385784213],["candidate",-8.926830339404209],["Democrat",-8.928032665445322],["States",-8.936912153689489],["phone",-8.941789841028275],["member",-8.942110654439574],["source",-8.944183565663812],["design",-8.944585382905434],["site",-8.945135563371112],["significant",-8.94556084038329],["follow",-8.945595375062593],["John",-8.949807260172303],["charge",-8.950167891600081],["ensure",-8.951060748980666],["famili",-8.952016361776288],["His",-8.95260277751943],["ves",-8.953579621383373],["stead",-8.954298421799498],["Janu",-8.95746173453545],["liv",-8.957939647007446],["ither",-8.95902666184825],["race",-8.961091303350596],["spend",-8.962631642249463],["room",-8.96553485773197],["Our",-8.966252276622711],["kid",-8.967848839771356],["authorit",-8.968297548440374],["earlie",-8.968777441680274],["particular",-8.971343657007143],["UK",-8.978188442536556],["plann",-8.978477857787215],["serious",-8.97942822055437],["stage",-8.980109116003632],["someone",-8.981680988071394],["activit",-8.982108609446895],["difficult",-8.982150825177289],["miss",-8.98291902147962],["emergenc",-8.985059413686642],["cover",-8.987618332321151],["meet",-8.991881645049428],["gav",-8.992172425331507],["international",-8.993039455676817],["World",-8.99847607264833],["bad",-8.999147510776615],["pick",-9.003866464546904],["suggest",-9.006653801997455],["private",-9.006778995596761],["round",-9.007828580474344],["toward",-9.009154200647435],["senior",-9.009540691802474],["mother",-9.010142792241487],["black",-9.010718936899996],["rote",-9.012769474696551],["executive",-9.01513107279806],["deep",-9.016444834653171],["affect",-9.017805830381931],["child",-9.01799304452515],["infection",-9.020707099342212],["chief",-9.020728992786935],["immediate",-9.020729540272665],["August",-9.020739542829297],["assist",-9.020898901194121],["career",-9.023109240792667],["Court",-9.023623954612214],["bigge",-9.024692186982332],["park",-9.026484371632083],["host",-9.026785873159048],["operation",-9.028532011438307],["nothing",-9.02962482708525],["press",-9.030365839800846],["unning",-9.030639417447269],["heart",-9.03071143847027],["Center",-9.031318776486179],["club",-9.031436906169166],["speak",-9.031468967745743],["soon",-9.033814803365221],["ley",-9.034017699349008],["voter",-9.035073466107297],["contract",-9.041121032924668],["push",-9.042643198695758],["chance",-9.043662422004495],["figure",-9.04647557186523],["White",-9.047306385930888],["interview",-9.047310173973255],["goal",-9.047675823624242],["music",-9.047902760276322],["effect",-9.049039929649867],["performance",-9.052374068651307],["study",-9.052530076675911],["enter",-9.05398939761185],["restriction",-9.055093548835657],["amount",-9.058030798497702],["player",-9.059241552220849],["sector",-9.0598405742025],["fee",-9.05990686056682],["girl",-9.060911068501866],["23",-9.06233535302961],["Day",-9.063289574217166],["School",-9.0638397720918],["understand",-9.071315119423788],["model",-9.071320479652417],["Octo",-9.072141708632833],["friend",-9.074114153183707],["states",-9.074119421746474],["incident",-9.07580079241615],["Dur",-9.076011503854549],["normal",-9.07704473770598],["firm",-9.078494392004401],["People",-9.078632777357363],["attempt",-9.08176015303411],["message",-9.082587448138378],["San",-9.083849394275347],["Co",-9.084290925792473],["disease",-9.086712194438812],["district",-9.087624660860936],["arm",-9.087686135809658],["investigation",-9.087695147792765],["bar",-9.08897835955673],["app",-9.089356818106486],["white",-9.090787839192952],["aily",-9.090799265468679],["protest",-9.09086618630668],["makes",-9.091762896142006],["exist",-9.09651955131998],["coach",-9.096969549917025],["shows",-9.097113654996015],["whole",-9.097130878064085],["oil",-9.098216968132673],["eight",-9.099619792376103],["growth",-9.100500195574831],["road",-9.101697245854524],["else",-9.102361421651864],["Chief",-9.105826692477013],["expert",-9.105829202335844],["detail",-9.105838628953219],["seek",-9.108115844592206],["decade",-9.1119694604776],["lower",-9.112386181595035],["60",-9.114065754921839],["track",-9.115758180224969],["26",-9.117531087034825],["echnology",-9.117560219827283],["propert",-9.11791276768088],["essential",-9.118151905978408],["Government",-9.118170060748625],["28",-9.118376073595176],["father",-9.118846327088011],["view",-9.119937873624256],["fast",-9.120290780424906],["practice",-9.12090687821269],["read",-9.122944495946994],["raise",-9.123275066305089],["reduce",-9.123718732986555],["relationship",-9.124406606911247],["production",-9.124557575227382],["Park",-9.126724978310165],["treat",-9.129789999735255],["Donald",-9.130582389004442],["distanc",-9.131919929736567],["Many",-9.1334835791405],["victim",-9.133727488621009],["x",-9.135100859258902],["scene",-9.135974973577227],["Febr",-9.136018712157846],["begin",-9.138063002432904],["example",-9.140101102363007],["mid",-9.140521069643196],["attend",-9.141680373832344],["rest",-9.14335551995887],["review",-9.144656090537161],["quarantine",-9.144969344417568],["idea",-9.146701670610248],["conduct",-9.14671521350094],["approach",-9.148230561390264],["match",-9.148518761842382],["wife",-9.149213011270021],["Even",-9.149286134272627],["27",-9.150021125672055],["weekend",-9.152431467897536],["inside",-9.15271548219074],["relate",-9.153378888057574],["Y",-9.154567000525459],["extend",-9.155339223079881],["lates",-9.157796694310258],["training",-9.158458941572308],["organization",-9.159322903590546],["education",-9.160910823389646],["leaders",-9.161433462498824],["ground",-9.162076967666916],["effective",-9.162781254022601],["Do",-9.163391271500409],["driver",-9.164742953498001],["reports",-9.165026371660094],["respond",-9.16507115865788],["31",-9.165939553449913],["Man",-9.167899702915626],["schedule",-9.169855099440149],["qualit",-9.170530712102336],["500",-9.171071007228631],["suspect",-9.172304997353534],["policy",-9.172424864634998],["platform",-9.17565902071787],["guy",-9.17693551145473],["uar",-9.179084604143654],["similar",-9.180446261637977],["popular",-9.18524296952795],["request",-9.18571541217389],["administration",-9.186491708738846],["legal",-9.187724105168463],["update",-9.188005419948707],["enjoy",-9.1889841922875],["ha",-9.191787864492843],["song",-9.192394709789088],["break",-9.19336954316455],["receiv",-9.194009141559846],["militar",-9.19548218324448],["Bank",-9.19574916135031],["others",-9.199282230055948],["lack",-9.199349660619987],["resource",-9.200520209356679],["summer",-9.202811985428038],["minutes",-9.203676039211796],["daughter",-9.208953737623606],["doctor",-9.20897729803605],["treatment",-9.20928998167398],["revenue",-9.209381913358653],["football",-9.210332755967048],["rise",-9.210901785933666],["prevent",-9.211640043942332],["tax",-9.211885118618792],["ending",-9.211993690045738],["title",-9.213715797302687],["sense",-9.21553815604139],["seven",-9.217298802784853],["represent",-9.217626169999022],["California",-9.218022874999559],["Service",-9.219219350489716],["Street",-9.219222816145482],["crime",-9.219317381942743],["involve",-9.220593171585216],["mind",-9.221999536261576],["ied",-9.224439570559845],["easi",-9.225703964850062],["stand",-9.225860938970357],["population",-9.226106476294655],["brough",-9.226682326657818],["user",-9.227558752341505],["29",-9.227891775129976],["art",-9.228775907255136],["loss",-9.230128324792702],["alleged",-9.235073490276363],["provid",-9.2374392113733],["dead",-9.23889964292961],["themsel",-9.239733749079155],["David",-9.240026253593024],["station",-9.240928442680321],["Chine",-9.241088220370118],["above",-9.241238630994541],["manage",-9.241307896432236],["block",-9.241667176114856],["Nigeria",-9.242650813596203],["quite",-9.243386620925374],["felt",-9.243732601342046],["street",-9.243863372122565],["minister",-9.245904128138214],["energ",-9.247724603987656],["Congress",-9.25057961665949],["probabl",-9.250954427258112],["serve",-9.251834122324635],["thousand",-9.254233784547928],["original",-9.255585052206886],["decided",-9.256089714739389],["letter",-9.257641387485915],["vice",-9.258537888327483],["ex",-9.259721319747271],["bill",-9.259947467859007],["maintain",-9.261293435164205],["answer",-9.261769993823918],["fail",-9.263153776002634],["via",-9.263818025674226],["Africa",-9.264041588683336],["necessar",-9.26421737277635],["huge",-9.264265362259511],["usual",-9.264411261650146],["regard",-9.26475183656311],["etting",-9.267752280856158],["location",-9.268285120108295],["Part",-9.268675674824237],["More",-9.268704666631399],["active",-9.27034532638558],["hands",-9.271412734793872],["ion",-9.271473430703908],["capital",-9.275417937054023],["save",-9.275475557878998],["Washington",-9.275668934125946],["step",-9.276127765911166],["Every",-9.27683264565913],["trial",-9.27770518472468],["regular",-9.27929964076462],["agree",-9.281797041318782],["various",-9.282955190807865],["department",-9.284458378989044],["brand",-9.285489230582847],["class",-9.286691602765764],["ballot",-9.286784425973643],["God",-9.287306979439103],["70",-9.288462709433597],["center",-9.288508401213637],["35",-9.288836747422488],["card",-9.289169656155622],["â",-9.290292399261565],["restaurant",-9.290292399514492],["unit",-9.293379579015792],["General",-9.294003555423007],["prett",-9.297817569876207],["leading",-9.299598583197078],["Joe",-9.299732400272951],["accept",-9.30134330709241],["piece",-9.301358754021923],["website",-9.301441295075438],["conference",-9.30448838493215],["teacher",-9.305356999358196],["build",-9.30554130242279],["purchase",-9.306820680785453],["estimate",-9.306958989403164],["ful",-9.307730249802137],["pre",-9.308656998228532],["pent",-9.308786088214333],["Sinc",-9.3111590176035],["episode",-9.312760828888909],["aught",-9.313230165561698],["Z",-9.31330067854558],["damage",-9.313331072403132],["Facebook",-9.316429664005632],["link",-9.317290977617887],["fair",-9.318540567701554],["ather",-9.319198370209119],["pull",-9.320207772447173],["sent",-9.323052038368532],["finish",-9.323158171070041],["Not",-9.323595219747492],["met",-9.325920377737209],["avoid",-9.326050998239012],["Mean",-9.326904840442278],["ier",-9.327162529089769],["Of",-9.327816194376144],["feeling",-9.329928421884066],["gun",-9.33101850183658],["easy",-9.33240384992642],["virtual",-9.335497782703818],["East",-9.337919312554467],["evidence",-9.339667518629696],["range",-9.341772402316554],["produce",-9.343170075629267],["happ",-9.343943779568548],["specific",-9.344069742481334],["contain",-9.344284210699804],["Australia",-9.346632265663185],["investment",-9.351234317117806],["News",-9.352503587820763],["injur",-9.35271936495758],["physical",-9.355215571386463],["ility",-9.356343620761333],["capacit",-9.359686802388907],["African",-9.35981098363757],["sell",-9.362218968603058],["Council",-9.36284052973787],["husband",-9.36284346139675],["factor",-9.366117239587803],["true",-9.366559629420877],["Green",-9.368288176252683],["actor",-9.368493309868072],["learning",-9.368677793200815],["border",-9.374380714403387],["choice",-9.37479921760027],["stream",-9.375808225693902],["carry",-9.376798077194493],["Her",-9.376850387099338],["addition",-9.377152421769757],["flight",-9.377641638766722],["material",-9.378763532431421],["threat",-9.378803837439598],["League",-9.378814688599224],["Group",-9.378886696026363],["professional",-9.379040751486567],["file",-9.379536638656326],["Re",-9.379685997051006],["plant",-9.383403535138346],["note",-9.383974024221832],["rules",-9.384598406908463],["environment",-9.385266461451241],["solution",-9.38559351634846],["Twitter",-9.386919343831341],["common",-9.387272168103962],["score",-9.389601051972697],["anti",-9.392456759476008],["revealed",-9.392475933013786],["Johnson",-9.395884057529166],["90",-9.399476963943648],["Brit",-9.40032384884333],["gas",-9.400645829986924],["cap",-9.400862800774359],["page",-9.402051979015472],["gone",-9.402790353289738],["imply",-9.405098083993181],["German",-9.405267778266996],["hear",-9.406231711269182],["success",-9.407100838226416],["cash",-9.40748207161035],["By",-9.409258300132095],["Q",-9.409837849966062],["box",-9.411499055761432],["seat",-9.413488050564878],["payment",-9.413495244791791],["heard",-9.414789486648104],["Public",-9.41549090814178],["annual",-9.415660244245808],["league",-9.41571807725328],["initial",-9.41590650992715],["size",-9.416182915003807],["pressure",-9.416422640157492],["Iran",-9.417713942095197],["Japan",-9.41989390957884],["Canad",-9.420058856324598],["document",-9.420226243129703],["discuss",-9.42398329855745],["trust",-9.424534816036426],["supply",-9.428313817646147],["perfect",-9.42834656932775],["remember",-9.429051929140787],["standard",-9.429249412042758],["throw",-9.430751343588074],["appeal",-9.43264798209416],["giving",-9.432702111878033],["winning",-9.432882101642218],["£",-9.435136284152202],["express",-9.435618685955596],["centre",-9.436596602552036],["speed",-9.436881881048095],["fear",-9.437418101347482],["email",-9.439322432735956],["words",-9.439348924934846],["citizens",-9.441097145658443],["continu",-9.44212997635234],["network",-9.445376082051608],["natural",-9.445540271173197],["Senat",-9.445897722205661],["describe",-9.446185996544154],["80",-9.447076703652526],["European",-9.448279183067635],["Just",-9.44871351469207],["jobs",-9.449055192521548],["From",-9.449781927404807],["analyst",-9.449978141318333],["grant",-9.450104383818205],["ran",-9.450636159275795],["award",-9.451306222725538],["budget",-9.454121530229742],["earning",-9.455027594789858],["High",-9.455180378946377],["Or",-9.458152270952482],["wrong",-9.458154525817006],["warn",-9.462441824211751],["holding",-9.462448745043934],["infect",-9.462483797600079],["compare",-9.463353653400493],["cross",-9.463397708162013],["followed",-9.463966371110054],["improve",-9.463982574197136],["voice",-9.465405717263945],["cast",-9.466678977871998],["mention",-9.46696039905176],["camera",-9.467393626298975],["La",-9.467547540628257],["artist",-9.467979169860971],["slow",-9.468013400547939],["item",-9.468142344259892],["encourage",-9.469041106984566],["Last",-9.471374934240291],["loan",-9.472282336972867],["fill",-9.472746383297427],["goe",-9.4738481238091],["drop",-9.474487751452351],["boy",-9.474860474491988],["symptom",-9.475916564364613],["sound",-9.47735179152778],["critical",-9.477860754369779],["version",-9.478833576657571],["content",-9.479491504503818],["respect",-9.479957970499274],["teams",-9.480289122353948],["surprise",-9.480378575822042],["increasing",-9.480378578044766],["application",-9.480379061126948],["buil",-9.48077128691643],["digital",-9.480814825127375],["vot",-9.482056656992018],["manager",-9.484067103291727],["Hospital",-9.484792147106935],["college",-9.484842857354144],["brother",-9.484945007338794],["Road",-9.485032135060436],["Union",-9.485560507730526],["ways",-9.486045082980624],["Over",-9.486315482348935],["sales",-9.486332692602716],["ham",-9.488445317256481],["creat",-9.489696945513037],["sports",-9.490106195112531],["publish",-9.491317768177918],["wa",-9.492201522367754],["hundred",-9.493831676231482],["45",-9.49456577970233],["aware",-9.494985273140372],["county",-9.495318211416878],["partner",-9.496847136329698],["Indian",-9.497418847777956],["income",-9.4981283544202],["International",-9.498425177987427],["delay",-9.498495022236813],["standing",-9.49915213761091],["War",-9.499547615274645],["storie",-9.50130926174679],["fac",-9.505821306819497],["climate",-9.506315616361835],["Act",-9.5079131042775],["judge",-9.509856263928128],["trip",-9.510909626625708],["poor",-9.511728873336958],["Scott",-9.5129899935597],["image",-9.51466549585488],["Michael",-9.516609419946635],["George",-9.516664931092382],["http",-9.516665167093649],["James",-9.51671435924393],["Director",-9.517217792866397],["movement",-9.517850473589089],["tweet",-9.519976925769328],["stress",-9.520675891775042],["universit",-9.521293314634391],["Smith",-9.521328580650227],["spot",-9.522401422682965],["primar",-9.522848393845841],["ban",-9.524081264066584],["exchange",-9.525821582720138],["register",-9.52594450957961],["arrive",-9.526039989469432],["served",-9.526231521522146],["agency",-9.527484377466678],["Go",-9.52827744720906],["facilit",-9.52969465673884],["shift",-9.530629642307495],["Prime",-9.53112053261437],["multiple",-9.531156733804373],["ville",-9.533308206171819],["successful",-9.534876964186125],["violen",-9.535061980421402],["England",-9.535320230666322],["opening",-9.535585734019838],["notice",-9.535609541285933],["London",-9.536427439687998],["ought",-9.538455374887787],["Paul",-9.539821681126249],["Inc",-9.539990430114248],["victor",-9.540047440315847],["fan",-9.541270377465096],["broad",-9.543765016189601],["paper",-9.544662761410603],["equipment",-9.545022642960888],["yond",-9.545396592534345],["Air",-9.547405726828224],["overall",-9.551417854444997],["involv",-9.55193966763109],["foot",-9.553739075501994],["extreme",-9.55431511517731],["wood",-9.555324663131818],["establish",-9.558830007407426],["writ",-9.559532054021165],["transport",-9.563963619960028],["exact",-9.564158269736911],["guideline",-9.56439285356947],["credit",-9.564862252982865],["rule",-9.566229532147386],["ism",-9.566775317665645],["province",-9.566909457841577],["Republican",-9.567963054602615],["First",-9.568824867104002],["expand",-9.568829351938472],["shooting",-9.569654586162489],["ch",-9.570322926309977],["fun",-9.571986052126773],["screen",-9.572521522059606],["Bill",-9.572730954313434],["fine",-9.573515890522064],["Ministr",-9.573906581417916],["extra",-9.574251803531723],["Most",-9.575145634779204],["fourth",-9.575927211887738],["ard",-9.577557703317233],["Los",-9.579178954623949],["Here",-9.579537150132403],["adding",-9.581081209749538],["shop",-9.58224532761583],["haps",-9.5827524807647],["strateg",-9.58285630142355],["Florida",-9.58351424585419],["monitor",-9.583516801322007],["ratio",-9.58401483520223],["im",-9.584249385352727],["gain",-9.584557849914756],["touch",-9.584774710685341],["investor",-9.585314347867833],["search",-9.585555341803598],["drug",-9.585585220325477],["Two",-9.588092059135967],["culture",-9.588273932150493],["defense",-9.588464755586347],["talent",-9.588489396690205],["beginning",-9.588553702782129],["eventual",-9.588579327861016],["discover",-9.589095607372215],["sometime",-9.589736599186809],["Me",-9.591943918700519],["picture",-9.592558425004682],["attenti",-9.5929428295069],["council",-9.593437167155194],["conversation",-9.593439823162015],["asking",-9.593454965392795],["spokes",-9.594375009433215],["import",-9.595086440363097],["agreement",-9.597119697527521],["negative",-9.598953997983932],["Texa",-9.598980963145358],["kick",-9.600798289870301],["con",-9.602713466364118],["blood",-9.603459159918343],["ous",-9.603832012285476],["anagement",-9.604648906855875],["collect",-9.60580264878468],["lift",-9.606753530861884],["couldn",-9.607471806577664],["Nigerian",-9.60978182149285],["generation",-9.610049319700487],["Sam",-9.610310867676146],["door",-9.614294657987372],["foreign",-9.615228329329444],["Europe",-9.615868964592096],["hot",-9.616306219011673],["Office",-9.616753527396828],["battle",-9.61755695317192],["elected",-9.617601543246476],["nine",-9.62060531924736],["named",-9.621492041179266],["offering",-9.621645002694873],["trad",-9.621959009621364],["novel",-9.623800136961997],["difference",-9.623829024576242],["crowd",-9.623864012838112],["leav",-9.624188242807895],["debate",-9.627001822054025],["kept",-9.627566404168157],["animal",-9.628982444950255],["Justice",-9.629032253887637],["celebrate",-9.630288446634468],["murder",-9.631213963616219],["Lake",-9.632565234177768],["church",-9.63415785761574],["District",-9.634182294223788],["mark",-9.634517766089035],["justice",-9.635553319277827],["Commission",-9.637158301941703],["pro",-9.639312760439523],["criminal",-9.639337842651273],["subject",-9.639366165365715],["passenger",-9.639373221168768],["relative",-9.639597353266696],["winner",-9.639671701895754],["double",-9.63970177165342],["basi",-9.642776083762417],["patient",-9.643423048223617],["polic",-9.644252697838425],["sexual",-9.645434529363818],["hat",-9.645619187970304],["Jan",-9.645933281133308],["poll",-9.647295128290468],["yester",-9.647391271885748],["Super",-9.64760147261402],["tool",-9.648090572478235],["sex",-9.648386621522075],["tri",-9.648890859818778],["ill",-9.649306016119034],["rates",-9.649394146987849],["implement",-9.649683525626383],["photo",-9.649745115451747],["hotel",-9.649948103933458],["alone",-9.651779970636355],["Can",-9.652199559079369],["Israel",-9.65239381966972],["decline",-9.652531193646585],["draw",-9.65284492627768],["device",-9.655316532193904],["Minnesota",-9.655834667505285],["Other",-9.65638706728241],["facility",-9.656775653150403],["mix",-9.6575642738641],["table",-9.6611939576213],["scale",-9.66263993748626],["Del",-9.662837801337696],["mission",-9.663126531650208],["Mark",-9.663549334700923],["roll",-9.664075147341904],["favorite",-9.66584617202095],["surance",-9.666378351571801],["word",-9.667627737682398],["reopen",-9.67093048161574],["€",-9.671198152741178],["consumer",-9.671953834844501],["burn",-9.672302758147351],["Bay",-9.672548739066384],["spoke",-9.673525355747266],["Force",-9.673639962718312],["earn",-9.674450922794787],["employment",-9.674613663380853],["32",-9.67607250233766],["Central",-9.67660454005927],["holiday",-9.676604881227153],["Christmas",-9.676615270255141],["spring",-9.67662907918967],["commercial",-9.676704564357657],["BTC",-9.677004796819729],["Tom",-9.677295630570251],["obvious",-9.677644099912882],["proper",-9.677647830443114],["Arm",-9.679168955042059],["ler",-9.680118297040515],["pair",-9.681961857289213],["train",-9.682151669651786],["EU",-9.683943403705715],["mental",-9.684864404523564],["write",-9.685066550190262],["gathering",-9.685257616041447],["Board",-9.68754361905276],["prove",-9.68951444800448],["thos",-9.689683335590825],["Don",-9.689870345611503],["homes",-9.691260001854433],["Red",-9.691836772068417],["threaten",-9.693052727259744],["craft",-9.693126723391916],["charges",-9.69593167850795],["Association",-9.698523049158526],["driv",-9.698538206352836],["competition",-9.698542070893982],["suffer",-9.698991932311646],["rights",-9.700697261933557],["finding",-9.70188045775248],["Well",-9.702009448844912],["remove",-9.703337918874011],["approve",-9.70393338935814],["den",-9.70406188028942],["Carolina",-9.707552927831141],["pack",-9.707920566168836],["volunteer",-9.709665194979134],["degree",-9.709665896660805],["Why",-9.709738391943825],["committee",-9.709919725484319],["owner",-9.713101536040195],["welcome",-9.713219670328598],["ver",-9.713765004756452],["absolute",-9.715283172501344],["wors",-9.716154300668823],["hearing",-9.716614033536288],["society",-9.71677741769395],["Port",-9.718427318169834],["purpose",-9.719285242063926],["fresh",-9.71932147083721],["300",-9.719510354757922],["shut",-9.719649857365273],["intend",-9.720175562175799],["Governor",-9.721100620368109],["Apple",-9.721172764548449],["perform",-9.72136306068342],["34",-9.7218482782772],["wouldn",-9.724283136485809],["tough",-9.724323637927295],["Star",-9.726052973215516],["Like",-9.726663704333664],["afternoon",-9.726883674507038],["crew",-9.726936908367897],["red",-9.727712612827045],["mail",-9.728262964887165],["unique",-9.731584866854257],["Angeles",-9.732551630903949],["straight",-9.733212161288426],["simple",-9.735671208335814],["Mc",-9.736029787905544],["99",-9.737605277883393],["color",-9.737938228171917],["minute",-9.741337411309317],["fell",-9.742697599062733],["weight",-9.743120027898396],["clean",-9.743236222126413],["amid",-9.74383222696522],["middle",-9.743887941250641],["dream",-9.743962189322804],["wise",-9.74595245107372],["definite",-9.746364186290839],["reveal",-9.74751899867805],["Sea",-9.748391740503548],["Committee",-9.749670420657768],["lawyer",-9.749773092231184],["Let",-9.749830304604384],["NFL",-9.74985008722497],["boost",-9.750028072087089],["display",-9.750537858166243],["afford",-9.751672300846996],["Any",-9.752670717845367],["chang",-9.752712628395145],["weather",-9.75365127122998],["audience",-9.75551875218192],["MP",-9.756002740510132],["sister",-9.756052220701132],["traditional",-9.758359770178348],["listen",-9.758657909360318],["putt",-9.759189606314736],["hurt",-9.759378762565337],["Chicago",-9.761400815046404],["CEO",-9.761402789903435],["client",-9.761427711138698],["King",-9.762036485810969],["profit",-9.762379124785047],["advance",-9.763282684687168],["Democrati",-9.763881113463139],["distance",-9.765085440082927],["wish",-9.766687554130712],["discussion",-9.767472040576239],["tagram",-9.76749245585988],["debt",-9.767947829176379],["wave",-9.768438272158999],["connection",-9.768876940396165],["equit",-9.772529837953698],["Home",-9.772789847662787],["suit",-9.773337689193749],["operat",-9.773521899877952],["hair",-9.774240433255251],["born",-9.774996780101105],["balance",-9.77735791232218],["reporter",-9.77818664431048],["progress",-9.778920990227837],["engage",-9.778990886475686],["Compan",-9.779277062255613],["ach",-9.779894140871834],["style",-9.780475970485568],["j",-9.784589696077333],["ut",-9.784833366375196],["Secretar",-9.784990010451889],["sort",-9.785018543021103],["responsibilit",-9.785282389973853],["massive",-9.785439245471508],["75",-9.786447834956142],["rush",-9.78703603107762],["producer",-9.789848851200087],["Both",-9.790367645517218],["Mike",-9.790636282700888],["doubt",-9.791334490347646],["construction",-9.791392239716469],["majorit",-9.791815426306677],["domestic",-9.792233909384507],["baby",-9.795504766241864],["super",-9.795881980265602],["retire",-9.797083362385198],["Car",-9.79756980298253],["defeat",-9.797615134757656],["winter",-9.797989358176649],["rais",-9.798758135844306],["wall",-9.799072980233838],["promise",-9.799516957132681],["48",-9.800563514853138],["36",-9.800727929776377],["peace",-9.803356101994858],["€™",-9.803576503936643],["zone",-9.804280813826928],["Hill",-9.80490907217532],["eyes",-9.80498291917213],["governor",-9.805298372139342],["realit",-9.80554703303357],["type",-9.805756325267796],["invest",-9.80627012919593],["politic",-9.806301131768375],["sleep",-9.807290147610559],["jump",-9.807479478345249],["setting",-9.81144141032524],["Williams",-9.811779941548796],["dog",-9.812604170697519],["depend",-9.813000976644787],["thank",-9.814754078214529],["com",-9.816162772413652],["pool",-9.81617623267632],["campus",-9.81621070199962],["DC",-9.816556837309173],["central",-9.8172212528378],["hous",-9.817299225735859],["prison",-9.818685774127554],["warm",-9.819986200731597],["yourself",-9.821860790011012],["+",-9.822209543858712],["associate",-9.822209645528506],["College",-9.822209863321818],["adult",-9.822255806640555],["evening",-9.822408176531669],["bringing",-9.822650300229327],["classe",-9.8229982178053],["household",-9.823157609972986],["Sen",-9.82484795124428],["Will",-9.826617996905007],["Big",-9.828396540472962],["inform",-9.828480666400168],["floor",-9.828499059644816],["abuse",-9.83134295383649],["lock",-9.833097535119016],["operate",-9.83353614799698],["France",-9.834586183286042],["basket",-9.834828716245738],["Fire",-9.836296286890004],["tic",-9.836799216242234],["session",-9.839077871005415],["cook",-9.84026353801522],["reflect",-9.841086160924814],["Management",-9.841990627640076],["nforcement",-9.842094465682692],["sick",-9.843121729407763],["Final",-9.843264413007013],["Officer",-9.843635061275844],["meant",-9.843832988162454],["north",-9.843920508926082],["incredibl",-9.844452762786808],["tion",-9.84461804022001],["AP",-9.845283130840144],["River",-9.845655625357384],["vulnerabl",-9.847609310586972],["33",-9.848650206394488],["survive",-9.850632356006148],["hop",-9.85266842695606],["article",-9.85317714735466],["flow",-9.853799542243237],["tree",-9.85408424732521],["writing",-9.855138476197894],["please",-9.859318165101914],["farm",-9.859768382756567],["Canadian",-9.860637740416227],["male",-9.860834861217453],["honor",-9.86105928095714],["lose",-9.861631900935102],["Gov",-9.862424262319129],["apply",-9.863240080388724],["steps",-9.863623458095274],["killing",-9.864655596781482],["cell",-9.86628195127723],["weapon",-9.867083168008097],["language",-9.86708873624856],["temperature",-9.867088771310254],["science",-9.867088832311243],["survey",-9.86708907058295],["freedom",-9.867089180470433],["wonder",-9.867116253194279],["suspend",-9.867164645899273],["gift",-9.86717457451893],["ultimate",-9.867180511920518],["responsibl",-9.867513524473317],["sport",-9.86778403090344],["yards",-9.86789237831374],["approximate",-9.868453595891154],["nature",-9.87113043267227],["flood",-9.87366782852275],["Securit",-9.87366788732816],["Amazon",-9.873668620616867],["Le",-9.874106815109208],["struggle",-9.875721895741556],["mis",-9.876816866670515],["upon",-9.877997987671726],["exercise",-9.878256008221136],["ge",-9.879737526738314],["cancel",-9.880120329792682],["speech",-9.880290278396835],["relief",-9.880487088965658],["phase",-9.883166300763488],["statu",-9.884281218079064],["crash",-9.884439828776166],["electric",-9.884528001996307],["bag",-9.886186907702264],["severe",-9.886474657984504],["Premier",-9.88696238161802],["collection",-9.887101755194593],["BC",-9.887182820632471],["95",-9.887862983537438],["Pro",-9.88835570198722],["65",-9.890426798495175],["partie",-9.890642526318544],["independent",-9.89073393151957],["Bu",-9.89107074330798],["scor",-9.892013095607918],["Per",-9.892386154864557],["ticket",-9.893710886298415],["Centre",-9.893754986817896],["divers",-9.894412105364705],["showing",-9.894694434697023],["dark",-9.895304537971342],["identifie",-9.895570190642358],["39",-9.897107933681403],["youth",-9.897285234961803],["supporter",-9.898653168438198],["Ro",-9.89949719417193],["ried",-9.9002112856247],["categor",-9.90040454735222],["secure",-9.900885908560083],["truck",-9.900914691357455],["Ju",-9.90109886913207],["Russia",-9.902851225308282],["pop",-9.903190091806627],["separate",-9.904296666836434],["priorit",-9.905295892285015],["package",-9.905375168971734],["Earl",-9.906135458245277],["window",-9.907232572112843],["studie",-9.90922733968971],["communication",-9.910195073393197],["agent",-9.911296571717017],["rich",-9.911330811130282],["Tok",-9.91326897441537],["rally",-9.913604633731481],["civil",-9.91390903120785],["urg",-9.91400612945067],["journey",-9.914077399779963],["album",-9.914083837637868],["storm",-9.914230848022212],["miles",-9.914468149391542],["tru",-9.914783907599729],["draft",-9.915122471193115],["ez",-9.915635706783622],["ja",-9.9168611578019],["south",-9.91893444855123],["guid",-9.919075163068506],["green",-9.919080019023534],["soft",-9.919124634655004],["Brita",-9.919690755158907],["Oct",-9.920531015555234],["typical",-9.920976516777742],["allegation",-9.920994044861482],["beautiful",-9.921086627669176],["dangerous",-9.92122825507176],["union",-9.921827893145396],["37",-9.921833258923922],["path",-9.923201371169473],["traffic",-9.924052063518577],["38",-9.924458495101735],["accuse",-9.92545563303075],["beat",-9.925897238318708],["meal",-9.92753142636136],["alternative",-9.927936655270145],["remote",-9.928017223457381],["isolation",-9.92817127460911],["ong",-9.92832561372311],["Australian",-9.92880083231618],["Fund",-9.929466726152661],["choose",-9.930062192992324],["carrie",-9.93027272436033],["asset",-9.930458048938132],["47",-9.93107095587499],["maker",-9.932348235337562],["Cup",-9.93275312980775],["Law",-9.934191657792942],["upreme",-9.934906033617754],["cancer",-9.935076938148715],["berg",-9.935255459792199],["Chris",-9.93753005162057],["prepared",-9.937914121009083],["leg",-9.937948237178098],["43",-9.938920577426227],["Ne",-9.93912105691496],["thinking",-9.94140783346563],["farmers",-9.94185527983959],["French",-9.941953341251565],["Googl",-9.941958506324212],["stuff",-9.942125867795866],["infrastructure",-9.942262507657452],["predict",-9.942517181239296],["Jones",-9.942656060974286],["catch",-9.944715514002796],["rising",-9.944728588139444],["strike",-9.944741127237567],["highlight",-9.945007356905807],["sitting",-9.94762132348298],["Year",-9.948206960004136],["rent",-9.948763351894245],["assault",-9.949058784535106],["scheme",-9.94906249077945],["Coronavirus",-9.949095366884116],["female",-9.949109431026095],["Federal",-9.949244419199124],["requirement",-9.950025520337554],["drink",-9.950080493399655],["comfortabl",-9.950102354371754],["guard",-9.95134559167208],["Als",-9.95163948934644],["provider",-9.951746595748528],["Prince",-9.952368048612009],["section",-9.9550500805971],["trend",-9.955525912320308],["advantage",-9.956110344938486],["scientist",-9.956183648278511],["conflict",-9.956188361701049],["institution",-9.956234204734361],["protection",-9.956568623139034],["toll",-9.957636055560023],["55",-9.958737977247672],["prior",-9.959110595025269],["46",-9.95955743447918],["bus",-9.960391777434467],["recognize",-9.960640013497699],["complaint",-9.962146997785517],["opinion",-9.963382769163406],["attorney",-9.96338292130402],["Though",-9.96349143116256],["declare",-9.963959526220574],["recall",-9.96551172208346],["rose",-9.967078945303054],["vision",-9.967773342397486],["defend",-9.968070334499199],["Island",-9.969630150028092],["announcement",-9.970814025272187],["airport",-9.970962156579493],["older",-9.971502773694201],["Communit",-9.971633909564051],["propose",-9.974867016200871],["Brown",-9.975849732195421],["wild",-9.976765745219367],["amazing",-9.977932352599444],["knowledge",-9.977950423975743],["LLC",-9.978111971550895],["offers",-9.978155112933297],["supposed",-9.978790229187823],["memor",-9.98044215368559],["bid",-9.981099593349875],["programme",-9.982319608776491],["mobile",-9.985209532780896],["ceremon",-9.985281650595045],["49",-9.985287870714197],["dozen",-9.985292310763262],["recommend",-9.985395256543002],["tech",-9.986931947749575],["pain",-9.987464032689727],["dropp",-9.988918405354887],["Martin",-9.988943312215234],["sale",-9.989199562838422],["refuse",-9.990107139801836],["struggl",-9.99037978527458],["supplie",-9.990725296912338],["Robert",-9.99156155785173],["warning",-9.991831499304936],["proud",-9.992697840399913],["element",-9.992726821457094],["ney",-9.992816164560178],["Under",-9.992975465819825],["Andrew",-9.993223988481617],["nice",-9.994595151823905],["protester",-9.994639454986915],["42",-9.99478100718446],["ization",-9.994925304432117],["influence",-9.995497811929951],["excited",-9.99594509159747],["serving",-9.996248377993535],["Ben",-9.996425268231672],["entertain",-9.997413515326706],["regional",-9.998026831840672],["structure",-9.998630424966745],["sides",-9.999456489851543],["ize",-9.999668633993899],["closure",-10.000070322732089],["opposition",-10.0001721965458],["east",-10.001582177906055],["surge",-10.00162947486309],["44",-10.001919858860084],["investigat",-10.002547996399269],["bond",-10.00256629472352],["resume",-10.00313038889395],["smart",-10.00348448526153],["confiden",-10.004795822067292],["losing",-10.00505885444726],["citi",-10.006112907437913],["reading",-10.006995720509881],["Business",-10.007671370847167],["Right",-10.007728990986305],["initiative",-10.007746521514857],["author",-10.00777147976025],["truth",-10.009114182855116],["indicate",-10.00995243128023],["Hall",-10.011139616019236],["journalist",-10.012679382214957],["stick",-10.013224623399115],["heavy",-10.015188074201674],["possibilit",-10.015245868885687],["crore",-10.015375343504871],["Fox",-10.015536803045208],["transition",-10.01564635776927],["gold",-10.016377823418747],["skills",-10.016889251455332],["Russian",-10.020175065075502],["happening",-10.02123434306765],["Capital",-10.022880886908915],["guest",-10.02305842933417],["giant",-10.023756121349587],["graduate",-10.025890638067018],["retail",-10.02776716088294],["multi",-10.028826405514913],["ur",-10.029140757130637],["remind",-10.029180305424207],["camp",-10.029588978529468],["Disney",-10.03059073555042],["prime",-10.03062841520519],["politician",-10.030708600731387],["bough",-10.031964223679596],["urge",-10.03263767888727],["trades",-10.033298969639613],["Mayor",-10.033970571060582],["41",-10.034264450106846],["Un",-10.03586642874313],["equal",-10.03717962680194],["ice",-10.037536584143776],["wage",-10.037724219969952],["creative",-10.040297075823052],["aim",-10.041530129660636],["injuries",-10.042604191559038],["Ma",-10.043035261068173],["nel",-10.043208457723349],["ner",-10.044255498908868],["handle",-10.045052185830427],["owners",-10.045858852596082],["circumstance",-10.046136178989014],["constant",-10.046136215023441],["Church",-10.046142599150372],["Region",-10.04614444904152],["married",-10.04617715087932],["Thomas",-10.046191510207883],["ell",-10.046203422502959],["Valley",-10.04665679737963],["Blue",-10.046906258324896],["Republicans",-10.04970608987054],["Up",-10.05042860239853],["gather",-10.05064101508449],["researcher",-10.051240777615586],["appearance",-10.052655207764866],["strict",-10.052825101335308],["tuck",-10.052924533721388],["modern",-10.053243358021938],["Du",-10.053626081957702],["proposal",-10.054396390045632],["powerful",-10.05453645922794],["worse",-10.054577363188287],["port",-10.05527079960601],["task",-10.055517202919297],["insist",-10.05558528333247],["Ex",-10.055587592862867],["direction",-10.055796048475983],["Serie",-10.055976498427734],["Your",-10.056396681426854],["Ar",-10.057872290246037],["400",-10.0579373258261],["ling",-10.058337185719342],["Who",-10.059259943665342],["machine",-10.059270453021108],["village",-10.059941878093177],["illness",-10.060944420091985],["fix",-10.061291804542016],["commitment",-10.062088701063804],["spirit",-10.062272202644914],["load",-10.064215269932085],["donation",-10.064343716350614],["fuel",-10.064729565483276],["chose",-10.065008823269677],["ence",-10.065827442777314],["interesting",-10.0667483365178],["reopening",-10.066873360543063],["han",-10.067019318360924],["ng",-10.069344538949547],["caus",-10.069532531972033],["Market",-10.069561499958548],["secretar",-10.069743889435891],["tournament",-10.0699467115648],["respective",-10.070347851636782],["rock",-10.070556390928207],["combat",-10.070780693339282],["Lee",-10.070963077494085],["Post",-10.07214041031384],["agenc",-10.075418502275753],["writer",-10.075943414993535],["internet",-10.078023940146757],["Nation",-10.078054809826192],["!”",-10.078572917461216],["contest",-10.078843264537042],["bridge",-10.078946989220034],["Peter",-10.079342314907638],["apparent",-10.07991545435345],["gre",-10.079971201096573],["joint",-10.081257435125535],["employ",-10.082554492277353],["Ho",-10.083015507144044],["veteran",-10.08614410499863],["jail",-10.086172559200627],["skin",-10.08617468013897],["rain",-10.087220752455394],["engineer",-10.087459235474473],["chain",-10.088678412258787],["rough",-10.093085297023102],["Follow",-10.094363908526958],["El",-10.095003304550499],["cold",-10.096001460657597],["shape",-10.096693178430016],["complex",-10.097170422257406],["route",-10.098038030073841],["sentence",-10.098192734416067],["Korea",-10.098230988730982],["Har",-10.09844420727639],["reform",-10.099880932189064],["vi",-10.100616796512531],["cool",-10.101188397420037],["wind",-10.101541087663403],["yard",-10.101884905225443],["strength",-10.102562590456616],["ruling",-10.102647105135087],["failure",-10.102689755504858],["Sanders",-10.102789729352885],["Chair",-10.103787790704356],["Den",-10.104572801923073],["stoppe",-10.10600513558668],["Georgia",-10.107005225682446],["fellow",-10.110740052770469],["Institute",-10.110990663151949],["transaction",-10.111007196949013],["protocol",-10.111034131574696],["professor",-10.111039677734773],["approval",-10.111145458013421],["batter",-10.111440588247568],["twic",-10.111612240901692],["compar",-10.111669183767521],["panel",-10.112093425884538],["flag",-10.11334693378596],["radio",-10.113607134633947],["admitted",-10.113681610796174],["Commissioner",-10.114504932773961],["Victoria",-10.114901353456911],["ent",-10.11590519146414],["destroy",-10.116113824032244],["Vic",-10.116869178394047],["connect",-10.11704958050295],["participate",-10.117674480802012],["grand",-10.11823314463792],["achieve",-10.11909285753934],["Harry",-10.119360218777055],["transmission",-10.119361056333911],["representative",-10.119402106944847],["Max",-10.120159121977379],["presen",-10.12062287866808],["runs",-10.120665788919231],["plus",-10.120736983462596],["capture",-10.120925837437559],["Sun",-10.12142417532855],["Ali",-10.12233730520769],["Times",-10.12278436074017],["Virginia",-10.123067879452758],["haring",-10.123984037435285],["challeng",-10.124220315982846],["blow",-10.124867164437358],["surface",-10.125149542392707],["imagine",-10.125466874433418],["PC",-10.125990817794651],["acquir",-10.126625113774626],["Jack",-10.127247826457479],["scenario",-10.127813752399698],["religious",-10.12781841306387],["regulation",-10.127826796500853],["Club",-10.12785640353551],["Development",-10.127904419199666],["rapid",-10.127933466531916],["slight",-10.127977244921436],["opponent",-10.127979757616524],["apartment",-10.128100569188696],["%.",-10.128182801734264],["regulator",-10.128272269437135],["Jackson",-10.12835652151699],["broke",-10.12870540979497],["hall",-10.130106175668061],["familiar",-10.130271421291038],["telling",-10.13059362136287],["Love",-10.130906388652434],["Ab",-10.132824227213039],["NB",-10.133332164739244],["ease",-10.13377009697924],["PS",-10.134333062824012],["Good",-10.136094775215684],["English",-10.136366765029145],["channel",-10.136375107401264],["mom",-10.136492817851945],["Royal",-10.136770245549684],["boat",-10.136963821913046],["mass",-10.136969504767695],["distribution",-10.137090304658997],["ministr",-10.13749973840891],["ural",-10.137651850075743],["Avenue",-10.137967708995035],["nurse",-10.137994636166166],["Feb",-10.13844015173091],["manag",-10.139621512933013],["wealth",-10.143859043211663],["lab",-10.14436179151626],["tackle",-10.144426479560106],["dividend",-10.145040575457514],["pound",-10.145599608687355],["saving",-10.146877063470798],["outcome",-10.149050284753972],["sustain",-10.149416019757531],["donate",-10.14947809417188],["core",-10.150393381168062],["function",-10.1519441282499],["accident",-10.152243267696942],["text",-10.153327706717903],["goals",-10.153590791237672],["studio",-10.153712361824079],["master",-10.153778195929709],["recommendation",-10.153900049118391],["consistent",-10.156016375239261],["appropriate",-10.156099545751097],["trail",-10.156133530542265],["Christian",-10.15649015936945],["entry",-10.15698808857438],["Gar",-10.157935145943707],["mayor",-10.158453351279034],["singer",-10.159552305960663],["division",-10.15976217035303],["promote",-10.159908474217861],["par",-10.16033856146852],["cars",-10.161396549475107],["edge",-10.162258232981356],["Election",-10.16246903126694],["honest",-10.162470492269343],["mouth",-10.162475160896555],["aspect",-10.162685174216241],["internal",-10.16326600222381],["plent",-10.163671032374216],["Aug",-10.164121388463851],["century",-10.165378949358814],["passe",-10.165476676051249],["grade",-10.169725875945947],["obtain",-10.171299142289755],["guilt",-10.171300055847055],["illegal",-10.17130501541923],["replace",-10.171395833009466],["Western",-10.171459706206996],["lines",-10.175234740581224],["CDC",-10.175447084517973],["85",-10.175700635330575],["adopt",-10.177077548436529],["hang",-10.177346922151308],["heat",-10.17757938298492],["52",-10.17785263766978],["basic",-10.178386151275582],["Play",-10.180162004159563],["Corp",-10.180473246318886],["advise",-10.181203732843956],["television",-10.18254476472768],["variet",-10.18270995818203],["rank",-10.182855022147322],["transfer",-10.182943794834111],["owns",-10.183160220829528],["urism",-10.183562859672197],["environmental",-10.183836018002339],["photos",-10.184356137962155],["uncertaint",-10.18435812269729],["emerg",-10.184481069818379],["closing",-10.184596688162038],["Research",-10.185590674963729],["determined",-10.18568445769941],["instance",-10.18579644191167],["enable",-10.186180877350068],["Real",-10.18656728012261],["orrow",-10.186949706088347],["84",-10.187901090344319],["identify",-10.189236171429854],["permanent",-10.18923735192388],["shelter",-10.189242314070874],["Harris",-10.189332456330224],["wake",-10.189627935504895],["PM",-10.189907758007529],["deput",-10.190142349353824],["corner",-10.190156760670034],["visitor",-10.190204379227083],["witness",-10.190577322846426],["Long",-10.19070274821605],["ski",-10.190736955045974],["ington",-10.190788203895279],["ki",-10.191157441819927],["unlike",-10.191331665122629],["locate",-10.191941891081333],["understanding",-10.192192066200741],["66",-10.192199324312055],["56",-10.193256311302521],["Maine",-10.19496428815016],["Dan",-10.19588861865414],["commission",-10.196156658887979],["pic",-10.196182997394196],["whom",-10.19626991281687],["determine",-10.197703915253857],["ji",-10.197780341701563],["blue",-10.198324596085875],["volume",-10.198327339618608],["Three",-10.198330671120122],["Ohio",-10.19833423088847],["blame",-10.198439965260171],["finance",-10.198701853789837],["coverage",-10.19912241033148],["hopeful",-10.199873004372488],["van",-10.20138865359818],["dress",-10.201514183429953],["valu",-10.202246626642221],["NH",-10.202640232015057],["island",-10.202706056491175],["53",-10.202742816038754],["happens",-10.203498898693686],["send",-10.203927714805259],["relat",-10.20485789698132],["plane",-10.205359872187717],["trouble",-10.207258068993667],["length",-10.207457618771075],["Adam",-10.20889524338785],["prepare",-10.209000412215968],["Authorit",-10.209885744966162],["Di",-10.209927145124244],["desire",-10.210719985043337],["rescue",-10.211764012545686],["shock",-10.212621664409504],["busy",-10.212644472209183],["print",-10.212756638913273],["Mexic",-10.213269309670341],["govern",-10.213376822315826],["reaction",-10.21496584636974],["deploy",-10.215059710237771],["ollywood",-10.215848512015764],["method",-10.215946381614852],["spec",-10.21669132116591],["Education",-10.216762020504085],["consequence",-10.216781915890598],["Floyd",-10.21678428839948],["organisation",-10.216831400518227],["softw",-10.216896803648568],["festival",-10.216944516804183],["LA",-10.216949553919433],["Medical",-10.21726085269484],["decide",-10.217612061982024],["secret",-10.218735701048072],["Great",-10.219778312844022],["partners",-10.220159095770795],["800",-10.220181543980186],["ious",-10.22070237879656],["covering",-10.220917392891558],["glass",-10.22134166260784],["forecast",-10.223512782891154],["row",-10.223705642070925],["featur",-10.224166924357345],["numero",-10.224417246550589],["contribute",-10.225050785926808],["everal",-10.225202861640799],["fish",-10.225229562833096],["elling",-10.225275430438359],["drugs",-10.225779000180243],["disappoint",-10.225887168982364],["Student",-10.226106681137082],["segment",-10.226108514021853],["possibl",-10.22643812519097],["EC",-10.226557582337165],["guess",-10.226575003384156],["Yet",-10.229259242236708],["Frank",-10.22994529313829],["viewers",-10.230810576615525],["78",-10.2315319368899],["airline",-10.231856109173247],["breaking",-10.232066908532254],["Micro",-10.232762981600075],["prospect",-10.233304510834131],["correct",-10.23357824494639],["chester",-10.233649928571829],["margin",-10.235503982279145],["neighbor",-10.235515296160724],["sudden",-10.235541002389818],["meaning",-10.236111112394191],["62",-10.236679610341366],["nstead",-10.236835020424849],["bright",-10.237629685701929],["600",-10.237765709159596],["waste",-10.239580843665568],["Iowa",-10.240449138470026],["Onc",-10.242137285666946],["54",-10.24267933739441],["coast",-10.242757513363067],["dance",-10.243705070607366],["Beach",-10.244142211669423],["colleague",-10.245064700286918],["identit",-10.245081296117213],["64",-10.245144164776509],["Mac",-10.24533002185619],["dismiss",-10.245394986269028],["expens",-10.245530506191177],["boss",-10.245538711733309],["Singh",-10.245664640769334],["appointment",-10.245829725344047],["introduce",-10.24585895229744],["Po",-10.246458894659758],["Young",-10.247796628833637],["background",-10.248338264609593],["Are",-10.249029556985908],["debut",-10.250488343714741],["books",-10.251321190214744],["improv",-10.252116355950001],["worrie",-10.252691496452734],["argue",-10.253644288400434],["Spa",-10.2540404584241],["Human",-10.254101238871872],["adapt",-10.254491845735275],["•",-10.254679601627117],["franchise",-10.254681227435528],["Iranian",-10.254730685471717],["Earth",-10.254831182609221],["Life",-10.254936520299474],["lawsuit",-10.255040046806348],["intelligence",-10.255307283651529],["68",-10.255653300171357],["Bar",-10.2570906151354],["produc",-10.257996881873177],["taxe",-10.258575707431273],["76",-10.258999275480967],["encourag",-10.260116674363363],["67",-10.260456038219097],["charit",-10.260697828827093],["pace",-10.26116929059619],["Still",-10.26126149096044],["brief",-10.26157774652075],["breath",-10.262449703084567],["realize",-10.26245004052404],["72",-10.263522178033288],["oursel",-10.263710851583973],["faith",-10.264221787395105],["Netflix",-10.264388339503775],["technical",-10.264388600882363],["consensu",-10.264390420017392],["Investment",-10.26440117929002],["neighborhood",-10.264414186451457],["agricultur",-10.264416191787138],["Watch",-10.264436684908148],["Care",-10.264701063789637],["Assembly",-10.264809776757277],["ter",-10.26488526399675],["wedding",-10.264899398056983],["outdoor",-10.265431601426851],["Con",-10.265493118014636],["reduc",-10.266385239129516],["accus",-10.266823571533923],["Li",-10.26758329577037],["Ital",-10.267633632230641],["employer",-10.267713861383946],["Rock",-10.268218919531968],["relevan",-10.269047522732187],["Yes",-10.269339631503556],["broken",-10.269440133512767],["recruit",-10.270339212676987],["88",-10.27065525133219],["immun",-10.270658824888947],["98",-10.271303775754603],["Ba",-10.272195859812257],["chair",-10.2728985217759],["Work",-10.273141712902412],["doors",-10.273905602515338],["Executive",-10.27419226139965],["participant",-10.274192262138756],["Obama",-10.274200909086433],["racial",-10.274380195020576],["stands",-10.274667293713188],["Water",-10.274747398271693],["chairman",-10.274872528452121],["expectation",-10.2749214220983],["zero",-10.275439461721582],["Look",-10.276648912376164],["PD",-10.276748187795274],["59",-10.277145363750348],["iscal",-10.277243729305601],["resolution",-10.277365386752304],["mandate",-10.278039389534197],["provision",-10.278312778459782],["stars",-10.278598383386527],["beach",-10.278763807929494],["emotional",-10.278811761489038],["famous",-10.278958982484838],["appreciate",-10.279302552409828],["flu",-10.28033934539284],["license",-10.281300399423044],["classic",-10.281937668985876],["ory",-10.282345842643153],["Press",-10.283795047592417],["prompt",-10.284094752336571],["Additional",-10.284103899095498],["celebration",-10.284171649384383],["isolate",-10.284183658160737],["harm",-10.284607532072961],["llino",-10.28487040723042],["Game",-10.287619317483664],["CBS",-10.28765569670783],["57",-10.288260830685262],["larger",-10.289879875091676],["losse",-10.290455323563872],["Daniel",-10.29177941635217],["shire",-10.292551831796196],["Best",-10.293349463645082],["Week",-10.293699659362662],["concert",-10.294093452428365],["Middle",-10.294115852295873],["opt",-10.294168601762788],["Bryan",-10.294497224633279],["partnership",-10.294559488137526],["sharp",-10.294688010594296],["analysis",-10.294706979090074],["Station",-10.295012077181902],["tight",-10.295733168843974],["pitch",-10.296491481134517],["sky",-10.296865284925794],["Team",-10.296874081061807],["sample",-10.29689591752072],["briefing",-10.296999983480756],["combine",-10.297733234390112],["Ver",-10.298154966923445],["Base",-10.29936349169467],["Ka",-10.299761206257081],["Col",-10.30025875433103],["counter",-10.300335900041539],["theater",-10.300685591955816],["Where",-10.302046658018607],["comfort",-10.302884341291994],["guide",-10.303096988649987],["Taylor",-10.304210485348639],["gender",-10.30424029921269],["Four",-10.304337475700063],["lawmaker",-10.304523497932152],["curb",-10.304616707450478],["switch",-10.305547410655425],["favor",-10.306144208092478],["ttle",-10.306264199822241],["crop",-10.306817554547834],["operator",-10.308004114959582],["spike",-10.308363776910635],["Mary",-10.309355674256558],["Francisc",-10.311295948367837],["sub",-10.313140377654552],["Parliament",-10.313267803429259],["Van",-10.31333273389356],["handl",-10.313828184136677],["cloth",-10.313861959687324],["Social",-10.314316319955065],["athlete",-10.314399094144001],["bottom",-10.3144123582156],["nuclear",-10.31444082041468],["Coast",-10.314490601909894],["Jewish",-10.314510646925832],["prosecutor",-10.314745066708706],["Only",-10.315298323648893],["alert",-10.315449295915148],["shortage",-10.316153623541032],["suffering",-10.316910047567173],["omen",-10.318963721100015],["Asian",-10.31904671178437],["laws",-10.319052347445837],["Jim",-10.319197267072827],["Bowl",-10.31994338990118],["committ",-10.320609283681616],["Asia",-10.321340528857077],["58",-10.321693420231473],["repeated",-10.321842036823313],["reject",-10.322585418463827],["sight",-10.322913819056886],["FC",-10.323675850012343],["steal",-10.324185799434908],["tradition",-10.324597452875775],["accurate",-10.324710856096722],["quiet",-10.324773099552049],["soldier",-10.324794606492377],["Turkey",-10.324801510372339],["Local",-10.324897280322352],["elder",-10.324923041641988],["Agenc",-10.32492686328558],["newspaper",-10.32518579601965],["ster",-10.325561424265718],["industrial",-10.32574932790601],["actress",-10.326592244502848],["Gold",-10.32740596410147],["trick",-10.327473907904892],["expose",-10.328835652616462],["escape",-10.329814665631378],["pet",-10.33036408216599],["danger",-10.33141377183513],["lie",-10.331814552802456],["thanks",-10.333133259633932],["deserve",-10.334110049400193],["appoint",-10.334963388213247],["fashion",-10.335124335508826],["medicine",-10.335147452102838],["ug",-10.335427192902149],["Former",-10.335686972234761],["denie",-10.335744120653674],["birthday",-10.336157296910523],["peak",-10.336276727892209],["touchdown",-10.33633288104812],["onna",-10.337174418981007],["51",-10.337551958274368],["stretch",-10.338151906042903],["hole",-10.338589871837206],["Free",-10.338690063028192],["77",-10.33948989081559],["dinner",-10.339504481519146],["bound",-10.340875848091134],["97",-10.34109139679586],["remark",-10.34128295556085],["William",-10.342252559623716],["founder",-10.342371293778832],["mistake",-10.342375095265673],["troop",-10.342549722774532],["compete",-10.343269447890957],["impose",-10.343422035169317],["Global",-10.345650605223238],["marriage",-10.345650659209099],["behavior",-10.345651246741973],["Muslim",-10.345656657611777],["democrac",-10.345680165556523],["contribution",-10.345707872170426],["heavi",-10.345745429014329],["Zoom",-10.345896865938016],["Michi",-10.34598449745071],["drama",-10.346258621447843],["cloud",-10.346448247954338],["Town",-10.346633635829253],["Bost",-10.34699537227936],["purchas",-10.347350071636518],["efore",-10.347790378437029],["Scotl",-10.349071425003174],["invite",-10.349926144224652],["ideas",-10.350394920790606],["corporate",-10.351456161020437],["shoot",-10.352260333910785],["Kim",-10.353513177010367],["rac",-10.35361538865526],["Bo",-10.354309595214103],["ke",-10.354877777766488],["Project",-10.356288941590321],["disaster",-10.356291264042735],["eligib",-10.356347709252551],["Among",-10.356348631820335],["championship",-10.356455331182246],["Charles",-10.356643601047988],["Bloom",-10.356720427318063],["Ryan",-10.356845914177846],["committe",-10.357067037763427],["Ken",-10.357231961937547],["manner",-10.357371668613846],["Control",-10.357611859448369],["dealing",-10.358869127326344],["code",-10.35938689660911],["racis",-10.359745051844515],["Ha",-10.359996752214368],["Pakistan",-10.361325699833491],["solid",-10.36145088618258],["manufactur",-10.36203268927207],["decrease",-10.362208267266151],["za",-10.362221026538736],["Grand",-10.362234974328887],["quarterback",-10.362703317126032],["Khan",-10.364230744914192],["shopp",-10.364312156310227],["assure",-10.364377332997975],["garden",-10.364606930395638],["anticipate",-10.366165985771312],["alcohol",-10.366817994609333],["defensive",-10.367041592909011],["Power",-10.36708338961268],["argument",-10.367219338421187],["dispute",-10.36729937007171],["Morgan",-10.36740569692173],["instruction",-10.367438404334747],["fifth",-10.367595432017858],["bottle",-10.36820308541884],["percentage",-10.368441106052142],["que",-10.368515992012703],["false",-10.370317126921261],["venue",-10.37132881240227],["96",-10.371619035450923],["ward",-10.371777969433932],["corrupti",-10.37248170261037],["rival",-10.372820541033326],["resolve",-10.374256838592206],["UN",-10.375945425039303],["upgrade",-10.37618329891469],["Jay",-10.376350711432472],["2012",-10.376425414065672],["ical",-10.376476511580519],["arriv",-10.376752236318993],["brain",-10.37693307421431],["gate",-10.377531910907274],["gap",-10.377630616759957],["cable",-10.377770061242494],["routine",-10.377927716170587],["affair",-10.377965297311817],["Toronto",-10.378043132123775],["square",-10.378079265794943],["Jordan",-10.378107570267488],["Back",-10.378144347162277],["Kong",-10.378408078189223],["ul",-10.378899079357327],["enem",-10.379075468794703],["vast",-10.380083225960202],["Maybe",-10.381093354642786],["App",-10.381796130847787],["Sports",-10.383609244588431],["explore",-10.385605654317146],["export",-10.385725790729934],["adjust",-10.386053069361456],["flat",-10.386055204257545],["é",-10.386298450989186],["polis",-10.387135873622096],["temporar",-10.387141303999355],["Speak",-10.388743005423715],["mond",-10.38883570231394],["guarantee",-10.388900166578273],["offensive",-10.38890018075459],["territor",-10.388900249255581],["System",-10.38890970285556],["Judge",-10.388931298096441],["procedure",-10.388933973903203],["iPhone",-10.389089286796432],["Open",-10.3891353643903],["Trust",-10.389251184563522],["mine",-10.390522729769895],["Daily",-10.391722896461733],["Financi",-10.39240009180027],["roads",-10.392773909006916],["2010",-10.393636898879736],["profile",-10.394895996778844],["Ra",-10.395140623004297],["tend",-10.395655790672425],["introduc",-10.39658388890981],["Mar",-10.396772307365591],["confirm",-10.397444277248118],["86",-10.398168684738614],["bear",-10.399273451749618],["Net",-10.399323317371694],["surprising",-10.399334966101804],["expense",-10.399470655717158],["photograph",-10.399615708710016],["Nav",-10.399946640742911],["Pennsylvania",-10.400011424780484],["mph",-10.400379154725412],["capabilit",-10.400384917707449],["Ray",-10.400412033793462],["Hav",-10.40130158967138],["teaching",-10.40137323702221],["lay",-10.40234711501483],["eating",-10.404409550510115],["halt",-10.404497323139953],["Bob",-10.40553346208474],["matche",-10.406453678027283],["trac",-10.407237876938275],["tra",-10.408143088172814],["broadcast",-10.409862885139244],["controll",-10.410502059418869],["69",-10.410606976082711],["playoff",-10.410755914244188],["fraud",-10.411087266102719],["vital",-10.411141506128516],["Jersey",-10.411248575145994],["yield",-10.411249936070217],["excellent",-10.411250792698151],["Second",-10.41125607818616],["Economic",-10.411263460838757],["crucia",-10.411266044129155],["assessment",-10.4119133352817],["strategic",-10.41256886688446],["Alex",-10.413220887801726],["Vegas",-10.413779276088185],["Alberta",-10.414072185658231],["possession",-10.41416129938031],["Chi",-10.414363682580396],["EP",-10.414659171761816],["bodie",-10.414709692129925],["native",-10.414929374720609],["unclear",-10.415564769104384],["dry",-10.415745501051013],["sole",-10.4172128692266],["Senator",-10.417230398489076],["SE",-10.417981394250223],["ride",-10.418691506333843],["Houst",-10.420632349650287],["stone",-10.421055200068565],["94",-10.421285644990425],["gen",-10.421900417142336],["Academ",-10.422380245305693],["birth",-10.422413962150987],["frequent",-10.422610868535957],["grocer",-10.422611169217976],["exposure",-10.422614179128265],["wound",-10.422670391843699],["Clark",-10.422982282325437],["fake",-10.423631781805536],["GO",-10.424699513274813],["Lago",-10.426170619732654],["rang",-10.426318923744848],["unny",-10.426680596646488],["residenc",-10.426772298680085],["SA",-10.427548434208507],["polls",-10.428411241308261],["west",-10.42961176887941],["announce",-10.430410089437757],["ramp",-10.430426045722864],["rel",-10.431467383776482],["xciting",-10.431697159561992],["hunt",-10.432190518934082],["Su",-10.43265605687072],["Plu",-10.433757307866724],["object",-10.433769272541578],["thus",-10.433823101986308],["Energ",-10.434106122294803],["Family",-10.434106209697477],["Arizona",-10.434130761442132],["Championship",-10.434163753802558],["attract",-10.434478497413274],["computer",-10.434539801780469],["collective",-10.434615011149733],["footage",-10.434675788405372],["Labour",-10.434719466255281],["Am",-10.435199791635467],["inter",-10.436160905135289],["cheap",-10.436208362905642],["250",-10.436779463811716],["requir",-10.4369310298357],["northern",-10.437268685743302],["reference",-10.437926758817646],["92",-10.438579386092972],["submitt",-10.43919334622542],["uhan",-10.439369144638611],["150",-10.439894540664579],["cycle",-10.440629489022083],["cease",-10.441318099009663],["homeless",-10.441805669713371],["Thank",-10.44325097444681],["Ke",-10.444730475936652],["700",-10.4448997218467],["bas",-10.445069580813547],["urban",-10.445522045716043],["offense",-10.44573366960554],["unprecedented",-10.44573525255661],["kitchen",-10.445736541703855],["competitive",-10.445740530594396],["precaution",-10.445815683193752],["unfortunate",-10.445944550482562],["objective",-10.445959227321113],["tourist",-10.4459906130105],["lakh",-10.446269658789376],["improvement",-10.446627459902231],["legend",-10.446639089835523],["generate",-10.446717950789386],["sweet",-10.446791397355758],["command",-10.449577345308985],["inch",-10.451501801476631],["Paris",-10.451762036620517],["63",-10.45202649869993],["occasion",-10.45291436027384],["Steve",-10.453277507436255],["topic",-10.453393714048673],["recogni",-10.453784426512946],["Show",-10.453961790109101],["map",-10.45435781607198],["collapse",-10.455335305523118],["Report",-10.455600354610732],["Abu",-10.455808357268044],["struck",-10.456702160315746],["Boy",-10.457066302609668],["anger",-10.457195516639786],["settle",-10.457345566536555],["custod",-10.457492843176446],["Wisconsin",-10.457497749663851],["Foreign",-10.457498464837322],["Advisor",-10.457499018663153],["penalt",-10.457505750689021],["collaboration",-10.457514854774413],["pilot",-10.457533426182822],["reduction",-10.457576429892015],["Lewis",-10.45807012081914],["royal",-10.458161215709135],["legac",-10.45847799375189],["Out",-10.4589221891136],["Cross",-10.458984480623494],["indoor",-10.459891715153379],["fired",-10.460077306699572],["uty",-10.460147014148511],["Davis",-10.460439993496065],["rew",-10.461222507710438],["iami",-10.461272541823927],["Jo",-10.46127940054372],["teen",-10.462744515983385],["prepar",-10.463270784841116],["91",-10.463715034183206],["hip",-10.464387455410002],["historical",-10.466512749398895],["HO",-10.467713939512853],["ible",-10.468460568355823],["cultural",-10.469058388365458],["Elizabeth",-10.469404156063312],["Unfortunate",-10.469418804790916],["Disease",-10.469428102734888],["Sheriff",-10.46949038164733],["nomination",-10.46979326998421],["Network",-10.470303319623056],["Late",-10.470575946060634],["indeed",-10.470898846302225],["nurs",-10.47102583487477],["JP",-10.471645222945163],["Eastern",-10.471960870964239],["Deput",-10.4723034645424],["bury",-10.472577434242094],["Down",-10.473323132776521],["gear",-10.473996362161369],["conclude",-10.474999600147882],["embrace",-10.476148236858506],["ensur",-10.476190538956565],["regime",-10.476646019253852],["emerge",-10.477097101302201],["headline",-10.478032786751896],["western",-10.478600474496858],["residence",-10.478965064516757],["Food",-10.479452346775645],["Queen",-10.48010745081141],["Wood",-10.480317061712014],["Richard",-10.48082939659131],["worry",-10.481330241408763],["Ontario",-10.481450689132197],["Afghan",-10.481450690139383],["Attorney",-10.481450691602411],["Special",-10.481471859627948],["advocate",-10.481754853363125],["peaceful",-10.481885882253057],["shoulder",-10.48218605896894],["cop",-10.482688634328628],["pur",-10.483589799747016],["81",-10.483968928904407],["Sara",-10.48397141224467],["downtown",-10.48443036533693],["neck",-10.484527817647672],["laid",-10.484982259730135],["split",-10.486023809621049],["Walk",-10.488712517889649],["filing",-10.490301780075296],["luck",-10.490307180527532],["NA",-10.490728781270374],["engine",-10.491672845935629],["bail",-10.492675338067071],["mount",-10.493099872242194],["speaker",-10.493138700815958],["74",-10.493276112444267],["tension",-10.493312328725073],["maxim",-10.493639172492141],["empty",-10.493645866903364],["junior",-10.493646752272122],["Senior",-10.493654603710837],["extraordinar",-10.49385195030371],["Please",-10.49391652164881],["restrict",-10.495568435523166],["Award",-10.496707520505261],["cancell",-10.49703607437726],["careful",-10.497060931431461],["manufacturer",-10.497370991054726],["Ford",-10.497816833282926],["confident",-10.498260117745854],["AI",-10.498556087235034],["Test",-10.500388801191903],["surrounding",-10.501553993236477],["anywhere",-10.50188742845289],["frame",-10.50379366689863],["dedicate",-10.503964359939008],["mar",-10.504366325565925],["charg",-10.504448636129391],["ABC",-10.505050386660692],["outlet",-10.505468522566202],["Santa",-10.505708016738737],["Catholic",-10.505991497652438],["Colorado",-10.505991784345014],["narrative",-10.506070783953348],["academic",-10.506152398460388],["Lo",-10.506155825401486],["Republic",-10.507001426435522],["clock",-10.50747223514023],["clinical",-10.507633000973403],["formal",-10.508876957567217],["praise",-10.510820744591092],["Area",-10.514810960993845],["cat",-10.515049863578136],["golf",-10.515073555942013],["apart",-10.515166298915439],["folks",-10.51601548925856],["ak",-10.51632523748983],["connected",-10.516710556543895],["exit",-10.517999985834557],["librar",-10.518404371672446],["Conference",-10.518491496062277],["cryptocurrenc",-10.518494403058856],["delphi",-10.518495835153766],["Through",-10.518508941588657],["violation",-10.518549060505201],["signal",-10.518621207414622],["Lord",-10.518839424247377],["Jason",-10.518999286186409],["climb",-10.519111831974682],["desperate",-10.519242495606912],["arrival",-10.51993674072376],["paint",-10.52032889702468],["complain",-10.52061966653405],["Tony",-10.52101201691837],["historic",-10.521554461273427],["Phila",-10.522834809325344],["Justin",-10.523917263679174],["coin",-10.524840694158872],["Israeli",-10.525486974291441],["arren",-10.525896739312149],["ola",-10.526422665893012],["fence",-10.526962321009506],["Add",-10.527395562748332],["fer",-10.528209500557217],["detect",-10.528360413197204],["mini",-10.52841271293942],["followers",-10.528678806127164],["Head",-10.528845470925003],["wheel",-10.529192320240128],["Whe",-10.529452578894194],["diagnose",-10.52983115509527],["newly",-10.530051820751469],["except",-10.53102094205337],["concept",-10.531030983662902],["till",-10.531139403282626],["Professor",-10.531149757338465],["colour",-10.531162999198258],["perspective",-10.531166671640406],["Patriot",-10.531167708933204],["conservative",-10.53117143783213],["encounter",-10.531200384735401],["dramatic",-10.531294277982523],["plastic",-10.53147735786364],["chart",-10.531919623959418],["baseball",-10.533219131205158],["Iraq",-10.533795184111653],["violent",-10.534052706929169],["transform",-10.534080948430102],["trailer",-10.53410680492907],["FA",-10.53460330332215],["Live",-10.534765942893392],["legislation",-10.535507410670018],["surger",-10.536988207068983],["lesson",-10.537391206836979],["61",-10.537605035295913],["disclose",-10.53902572029596],["reader",-10.539097275218941],["79",-10.540778041169283],["experienc",-10.542105999925896],["mode",-10.542503431564919],["Zealand",-10.5439711067684],["absence",-10.543978461794397],["joke",-10.544105500814936],["wonderful",-10.544168323399951],["shore",-10.544347094549083],["Drive",-10.54435558150211],["sanction",-10.544518583419237],["classroom",-10.544727506758143],["Season",-10.545178648156599],["stein",-10.545198569275048],["Las",-10.545334332917871],["reserve",-10.546661816550426],["Kev",-10.546967913693699],["5G",-10.547391598605827],["mile",-10.547654635713416],["recording",-10.547793278792344],["motion",-10.54788957194293],["enforce",-10.548375177714064],["DA",-10.554522653966615],["urgent",-10.555210292242865],["hell",-10.555821530193288],["ide",-10.556761792598998],["caution",-10.556866067768137],["Administrati",-10.556958110418309],["senator",-10.55695891327225],["Science",-10.556964816158064],["combination",-10.556995975124957],["craz",-10.557119093288634],["shirt",-10.557161513985113],["08",-10.558158675865037],["laugh",-10.55879803355861],["fishing",-10.55937804718914],["prayer",-10.559459452559192],["admit",-10.559507535135229],["minorit",-10.559963161808817],["MC",-10.560367105413178],["proof",-10.560943508068048],["Have",-10.562060643996237],["ox",-10.562275849028616],["ID",-10.562332023907214],["IT",-10.562362923745425],["log",-10.562554499333856],["outhern",-10.562778293101182],["applie",-10.563458792194869],["king",-10.566255689681242],["weak",-10.566992127614938],["89",-10.567026291292436],["describ",-10.567597136374136],["witnesse",-10.568291918467857],["plead",-10.568367661104139],["assess",-10.568557484383042],["aged",-10.569036509456101],["stimul",-10.569341805364644],["burg",-10.569485188960002],["fruit",-10.569720894149338],["Joseph",-10.5701156149443],["Saudi",-10.570119688709962],["belief",-10.570120531260205],["component",-10.57012079442886],["fundamental",-10.570128051940129],["strengthen",-10.570178808995015],["assign",-10.57018350662506],["depth",-10.57018734146756],["portion",-10.57021212921005],["extension",-10.570230876708841],["abandon",-10.570327032441043],["knock",-10.570458874743089],["anxiet",-10.57061114414339],["pan",-10.570616968447114],["impossible",-10.570875910832989],["chi",-10.571436380167526],["views",-10.571761689783589],["acquire",-10.572242124285303],["Kelly",-10.572534768143118],["knowing",-10.573021879756881],["ang",-10.573101205897977],["Mont",-10.57347580987104],["pped",-10.574219654690827],["pose",-10.575272383302874],["scientific",-10.575693743921295],["index",-10.576123836045632],["reasonable",-10.576383774739238],["failing",-10.576900961908906],["En",-10.57801820436741],["sung",-10.578248167087096],["Brady",-10.578348639657477],["planet",-10.579369300125022],["literal",-10.581554216986039],["ca",-10.581763642132197],["divide",-10.582651676852148],["Stan",-10.5826966139123],["Official",-10.583448488400853],["nominee",-10.583450025613633],["Saint",-10.583658178014346],["inmate",-10.584092412075538],["Mu",-10.584635955476852],["distribute",-10.585414155057181],["greed",-10.586429133482294],["developer",-10.586748124324641],["permit",-10.586823940022146],["ger",-10.586867630974089],["dale",-10.587287554308785],["tag",-10.587517773213097],["unknown",-10.587620317583712],["upper",-10.588426441634201],["Rose",-10.588796209893335],["Media",-10.589383266263257],["grass",-10.589621066690555],["relations",-10.590771848065259],["km",-10.591060997951546],["install",-10.591406168537976],["ze",-10.591619007500656],["inspire",-10.592149192041836],["observe",-10.592483809469996],["crack",-10.593861786166391],["promis",-10.594090315486723],["Sydney",-10.596962317669593],["horror",-10.596962444783342],["82",-10.596969812402147],["Guard",-10.597019525377656],["criticism",-10.59703469437007],["gym",-10.59732036259237],["hood",-10.5974265344668],["Matt",-10.597571362638647],["comic",-10.598275055593334],["ative",-10.599210991531994],["gam",-10.599642660085241],["automatic",-10.601272495690388],["Night",-10.601542512232125],["demonstrate",-10.602167646233475],["wine",-10.602241563672518],["Eric",-10.602721062705577],["celebrat",-10.603480512744596],["champion",-10.60423272525391],["Old",-10.605318672678077],["Top",-10.605983941114076],["eastern",-10.606386570864768],["oundation",-10.60819671383322],["Tik",-10.609741013652457],["minor",-10.609885757611465],["enhance",-10.60990234842223],["Tim",-10.610449874589591],["racist",-10.610479185312553],["museum",-10.610670232326026],["Sky",-10.610941905701125],["Call",-10.610969599162681],["aggressive",-10.611643446888952],["mere",-10.611856957424907],["Grant",-10.612154694515105],["Josh",-10.612469331842089],["cleaning",-10.61329933565317],["Golden",-10.613423153104034],["signature",-10.6134372554584],["march",-10.613958788446126],["joy",-10.614652042916871],["Time",-10.61530120624516],["Anth",-10.615596188833418],["practical",-10.615866318337876],["onic",-10.616331660438732],["Kan",-10.617628031738057],["Inter",-10.617997891818362],["Henr",-10.620348788699522],["visibl",-10.620418270548676],["YouTube",-10.622491325538702],["viral",-10.62446448542044],["migrant",-10.62452646247645],["genuine",-10.624555059768145],["medium",-10.624601154854101],["pocket",-10.62467740378484],["storage",-10.625222916453936],["Guyan",-10.625887263814029],["Pol",-10.626250080509879],["currenc",-10.628778611419657],["bann",-10.629031410313328],["passion",-10.629600880755858],["flower",-10.629604069866875],["stepp",-10.629705593516153],["tank",-10.630660724733762],["Angel",-10.632114655475661],["trained",-10.633550839644094],["93",-10.633618281785711],["format",-10.633811468309798],["shall",-10.635695720142106],["isation",-10.636004020919424],["hill",-10.637714847892799],["condemn",-10.638434124007748],["technologi",-10.63856527059129],["behaviour",-10.638634128694687],["convert",-10.638637701062052],["Bitcoin",-10.638647593061936],["Bengal",-10.638654863565868],["Further",-10.638745336160099],["context",-10.6387561012043],["smartphone",-10.63888276006476],["assistant",-10.638903241591377],["Safe",-10.638952347175962],["exclusive",-10.63942150736827],["Hope",-10.639446987563588],["videos",-10.639680544793865],["shutdown",-10.640065129824892],["spokesm",-10.640422762611486],["moral",-10.641375414172252],["repair",-10.64317646132232],["investigate",-10.64369898529429],["Ten",-10.64428298796923],["advertis",-10.644590154002024],["meat",-10.644627664377241],["musical",-10.64494900065565],["mate",-10.644964103262012],["Pay",-10.645362668269685],["73",-10.645765098836982],["quote",-10.645826153776845],["zi",-10.646696359615113],["handed",-10.646714789303498],["horse",-10.648513773718218],["cuts",-10.64865125194255],["root",-10.649240798713596],["permitt",-10.651963137288519],["ourne",-10.652660732174112],["Leader",-10.652728570600711],["epidemic",-10.652919730915041],["intervention",-10.652925636278002],["Stadium",-10.652930778205505],["Check",-10.652940937850207],["favourite",-10.652955854261286],["Wilson",-10.653023781186372],["Airport",-10.65307606571],["celebrit",-10.653084996621814],["negotiation",-10.653124873868244],["Bei",-10.6539988298169],["Plan",-10.654291439142487],["Louis",-10.654708510347485],["proceed",-10.654761776203616],["aimed",-10.654808909613685],["acknowledge",-10.655465303619547],["Space",-10.655783136317588],["foundation",-10.656197940642937],["web",-10.659281540799245],["travell",-10.659715329649234],["basicall",-10.659917732455863],["OS",-10.66037287223111],["kar",-10.661587003965796],["nobod",-10.66160816675022],["burden",-10.66219567553437],["cutt",-10.663845827169299],["Spring",-10.664519001952588],["Cooper",-10.665020986021306],["names",-10.665963456337522],["Turk",-10.66743734789556],["respirator",-10.667541288302743],["Investor",-10.667561640683056],["coffee",-10.667721368765246],["comply",-10.668083634464924],["calm",-10.668419147622515],["Brian",-10.668641484799553],["Wi",-10.669156098752033],["Fi",-10.67103878719541],["Men",-10.671624766113599],["adviser",-10.671745638516697],["boxe",-10.672169040193591],["ble",-10.67355080422324],["hari",-10.674708551745626],["Rich",-10.675257240642367],["skill",-10.675317458238416],["oppose",-10.675492007882882],["signing",-10.676143879595463],["pray",-10.676298293133412],["corn",-10.677131413367913],["ears",-10.67890484012971],["Never",-10.680574613139276],["feed",-10.681273839771833],["Financ",-10.681815447706821],["aside",-10.682057431881729],["subsequent",-10.682118361423502],["experiment",-10.682118407321616],["Pacific",-10.682118437361854],["Associate",-10.682118459429466],["podcast",-10.682118680935336],["vessel",-10.682149704007813],["efficient",-10.68219492694996],["Division",-10.682196626708826],["defence",-10.682241730431038],["intensive",-10.682254768798732],["Bernie",-10.68228749284615],["retain",-10.682325624280931],["funeral",-10.682456484301685],["Lady",-10.682578299856484],["Modi",-10.683575062667654],["wore",-10.683698607712085],["substantial",-10.683841917721033],["inning",-10.68434956654381],["Megha",-10.684984079644607],["Minne",-10.685238120610272],["Five",-10.685663829348153],["forth",-10.686415581202798],["reward",-10.68665625005853],["tier",-10.686705195995547],["tune",-10.686797493352277],["tention",-10.686853054297604],["provinc",-10.687920877690615],["Ko",-10.688781054501366],["rack",-10.68889215077234],["MS",-10.690609046430383],["scar",-10.69067485200199],["AE",-10.690813413354329],["CU",-10.690959149646279],["87",-10.691008522737528],["squad",-10.693052658890357],["terrorist",-10.693178972249305],["await",-10.694241787071554],["knee",-10.694670397495955],["Jet",-10.694990278699706],["convince",-10.696745111977929],["Ghana",-10.697011596513216],["Societ",-10.697043736594857],["association",-10.697043749697894],["Mumbai",-10.697043812876458],["gradual",-10.697059540106363],["registration",-10.697070555844356],["absent",-10.697145718584569],["civilian",-10.697207840878837],["brutal",-10.697368172249618],["curve",-10.697583415682175],["Master",-10.697707622523705],["beaut",-10.697937253070293],["jing",-10.698250892838143],["minim",-10.699218054931347],["ou",-10.69948450748986],["unusual",-10.699618192484984],["anniversar",-10.699819730221975],["TON",-10.700054192785405],["evil",-10.700303416843205],["institutional",-10.700706859291703],["itness",-10.701485548136432],["Eagles",-10.70193949908396],["Indiana",-10.702202698436377],["09",-10.702245836091233],["eager",-10.70260348679112],["plate",-10.70266138563747],["bio",-10.702900892253425],["strange",-10.703038662310322],["occur",-10.704847604043945],["ockey",-10.70557465886995],["postpone",-10.706369038588857],["tolen",-10.70746078674164],["buyer",-10.708392097625705],["Zimbabwe",-10.708634548339337],["string",-10.70914734432619],["define",-10.709768753723404],["lake",-10.71001267536127],["tick",-10.710152393944224],["FB",-10.710227934310343],["bike",-10.710291456020892],["drew",-10.710949924965444],["neighbour",-10.712169680790295],["Defense",-10.712195249884065],["pattern",-10.712195402726643],["trillion",-10.712196717002975],["trigger",-10.712201477557388],["Brexit",-10.712207142246807],["Clint",-10.712215661274936],["destination",-10.712257283739094],["Get",-10.712513276436923],["occurr",-10.713067147372517],["arvel",-10.713883042315386],["releas",-10.714096462213352],["Liver",-10.714795081493385],["pictures",-10.714932949930652],["WE",-10.715420473332331],["resort",-10.715584420598333],["orry",-10.715956418687458],["120",-10.716730628045458],["exten",-10.716940236581898],["Bel",-10.717225227191083],["ick",-10.717622920860062],["Han",-10.717662034500202],["overse",-10.718164297903567],["Phil",-10.719067956047542],["Sony",-10.719155985267376],["pursue",-10.719540178019829],["uomo",-10.720230460621583],["lies",-10.721935811186952],["Wall",-10.722566616571932],["lots",-10.723061248561962],["Gen",-10.724920929294875],["CO",-10.725384798431442],["understo",-10.725491592675116],["creation",-10.726534266044627],["convict",-10.727474945511542],["Dakota",-10.727579866569267],["Thompson",-10.727579900894636],["Common",-10.727589515210822],["barrier",-10.727591964989031],["Palestinian",-10.72759684971614],["Italian",-10.727614562973393],["83",-10.727647678988514],["hospitaliz",-10.727810285507504],["mountain",-10.728025614144698],["teammate",-10.728078155575162],["musician",-10.728097342397335],["bias",-10.728109856526991],["cream",-10.728390106816478],["ette",-10.728513922274916],["tip",-10.728580035772497],["finger",-10.728680962739045],["peer",-10.728709651885993],["fulfill",-10.728813039561858],["lung",-10.72882454537637],["edition",-10.729410842922837],["ahu",-10.72988207575192],["smooth",-10.730127927607754],["Pat",-10.730194454961385],["interact",-10.730308214716475],["critic",-10.730519863285316],["error",-10.730593692972555],["NSW",-10.730603156948046],["Lu",-10.731540439862583],["NN",-10.731860032624969],["Bridge",-10.732275630875147],["salar",-10.73249985956894],["GDP",-10.732837657408925],["inspir",-10.733837214811771],["citing",-10.73405837635806],["PP",-10.734651336591615],["marked",-10.737563254946094],["Dar",-10.737600779769638],["primari",-10.738224151929714],["lane",-10.739796243765747],["cruise",-10.741207396183283],["Ni",-10.74186793775278],["pregnan",-10.742445979597207],["citizen",-10.743130720012775],["relax",-10.743148342217353],["Which",-10.743205296152867],["satellite",-10.743205378528938],["mandator",-10.743275009701806],["select",-10.743306758913018],["Arab",-10.743633615820816],["admission",-10.744025713797328],["expansion",-10.744362378327455],["Ja",-10.74461549093127],["mild",-10.744710063642358],["rebound",-10.745162482529153],["drone",-10.745308512607297],["Matter",-10.745476751119295],["Hamil",-10.746163433221293],["independenc",-10.746612152007653],["sumption",-10.748583423597927],["label",-10.748702985444],["Sp",-10.748881762170452],["qualify",-10.749405000682232],["See",-10.749652158733618],["innovation",-10.75006253204284],["Book",-10.750217053193454],["Stone",-10.750492905679748],["swing",-10.750550478257258],["Ga",-10.751032861188659],["indicat",-10.751513668969608],["Ross",-10.751584998088973],["topping",-10.753903276229142],["tenanc",-10.754309325499413],["remov",-10.754437065343463],["hrew",-10.75464733484123],["Jeff",-10.755807662889072],["Ever",-10.757240246102096],["Gu",-10.757887706653937],["Atlant",-10.758917999016997],["ung",-10.759077345376374],["divorce",-10.75907932480412],["cluster",-10.759080833725932],["Utah",-10.759085640667216],["captain",-10.759092291309088],["portray",-10.759106135336435],["warrant",-10.759168215514848],["portfolio",-10.759182767721242],["Irish",-10.759293012589367],["impressive",-10.759295209832432],["confront",-10.759452815026716],["smoke",-10.759587380640758],["progressive",-10.759677927150303],["infectious",-10.759743518452074],["bedroom",-10.759747877887602],["Nick",-10.759865779891129],["scenes",-10.760070400820254],["engagement",-10.760227663402759],["cabinet",-10.760477312461049],["achievement",-10.76063580598547],["Moore",-10.760766278765674],["rely",-10.761170954859036],["Sir",-10.761454110454912],["Highway",-10.761612625566356],["Does",-10.761859879566188],["agenda",-10.762062550577026],["AT",-10.7621423480835],["weigh",-10.763426020346653],["Pi",-10.763921082633548],["solve",-10.764279195614579],["emission",-10.76496846861135],["passionate",-10.766140993335654],["cinema",-10.766540849194872],["resist",-10.766844273905257],["referred",-10.767046567217475],["SD",-10.767107078890394],["lady",-10.767779148934085],["Patric",-10.767961283944706],["fighter",-10.76818976377443],["petition",-10.768982584865736],["nose",-10.769479710966614],["Music",-10.769612879462564],["Take",-10.769927607400936],["beating",-10.770913143942472],["proven",-10.772025594190467],["qualifie",-10.773122731919607],["bowl",-10.774541181608157],["jo",-10.77488692555696],["deposit",-10.775171019325217],["principal",-10.77520691322381],["helicopter",-10.775207138733087],["harvest",-10.775208907734338],["extensive",-10.77522119369166],["Current",-10.775236080714068],["Little",-10.775262622579454],["fantastic",-10.77526613966484],["latter",-10.77527715477167],["carbon",-10.775280379410113],["arrangement",-10.775348424671439],["instant",-10.775515311760369],["sugar",-10.775606402375722],["brilliant",-10.775855613357084],["Melb",-10.776288695581393],["Bur",-10.776440972337905],["hung",-10.776505988115488],["uru",-10.77687221738346],["Stephen",-10.777064847284679],["breach",-10.7777706730825],["sponsor",-10.777812551804836],["cry",-10.778224194608724],["Bad",-10.77871680094623],["commissioner",-10.779251013987277],["headquarter",-10.779542912893222],["fears",-10.779920508681666],["USD",-10.78001419211684],["branch",-10.780421155836846],["stable",-10.78123519299485],["retailer",-10.782050267433782],["Land",-10.782637540971944],["educational",-10.78338401610688],["cited",-10.784095296284923],["earth",-10.784122949410209],["wan",-10.784355799540656],["orthern",-10.785040892908606],["NBC",-10.785479551602009],["Beat",-10.785818360322544],["forget",-10.786456103483083],["transferr",-10.786680042194513],["Wal",-10.786711953333004],["USA",-10.787431025367798],["argu",-10.787717243462199],["Mil",-10.78839038852508],["Ge",-10.789764338652953],["entit",-10.789974618777649],["Spani",-10.790408071119934],["priva",-10.790505955889369],["intention",-10.791090212430237],["Farm",-10.791523855634544],["conclusion",-10.791603543428689],["Prevention",-10.79161106860202],["electronic",-10.791620024975135],["demonstration",-10.79163304233208],["Radio",-10.791637568249936],["console",-10.791710071685884],["replie",-10.791785021874198],["Gulf",-10.791796810883241],["leak",-10.791798210481877],["SARS",-10.791844001157163],["BB",-10.79184874751255],["Again",-10.792894199602834],["Bear",-10.79291279085484],["deadline",-10.7934946317527],["Mitchel",-10.79390492478181],["bell",-10.794610695774242],["alarm",-10.794644425052685],["Sh",-10.79535691465592],["villain",-10.795878817478584],["types",-10.796046570382844],["Did",-10.796295253943043],["blast",-10.796329806115327],["assume",-10.796371912572273],["Boris",-10.796522014830384],["Ram",-10.797676301626666],["exam",-10.798291256573245],["Lives",-10.798654822257165],["Foot",-10.798836254727698],["Bre",-10.798894634531525],["performing",-10.799267090033663],["rail",-10.799493228583133],["venture",-10.80035796155143],["istan",-10.800525094568371],["sustainabl",-10.80193234400651],["utilit",-10.80206978522627],["hub",-10.802347290076794],["ture",-10.804982871698263],["summar",-10.805251430883736],["ideal",-10.806533556770555],["motor",-10.806653408048295],["01",-10.807143565678276],["*",-10.80826278755114],["continent",-10.808267045906629],["Should",-10.808267244186524],["Tiger",-10.80826846506285],["visual",-10.808273410654092],["Organization",-10.808316293907595],["runner",-10.808346454187625],["milk",-10.808546482821486],["impeach",-10.808689403296842],["Childre",-10.809070677376964],["sufficient",-10.80907148266051],["Awards",-10.809104885014781],["suicide",-10.809122440346261],["Main",-10.809399670462927],["wick",-10.809542127801404],["Mid",-10.80965806407075],["promotion",-10.810849363414151],["pot",-10.810864202416326],["Roberts",-10.811277068342358],["soul",-10.811619887107575],["frai",-10.812399828124782],["honour",-10.812501647979225],["taste",-10.812870293220879],["Read",-10.813373934271485],["CA",-10.813762505277895],["Dub",-10.813810171354575],["sheet",-10.814173894275001],["compromise",-10.814970172493869],["lunch",-10.815460425513711],["intense",-10.815541074739212],["Unit",-10.816010184950116],["counsel",-10.818144791143965],["Make",-10.818622039824739],["gross",-10.819523743539833],["complet",-10.819765614124389],["Ash",-10.820092765232602],["CB",-10.820596131277957],["tribute",-10.821081992025173],["jur",-10.821598777857293],["rity",-10.821716930276079],["?\"",-10.821776558854324],["Kenya",-10.821862262143807],["meter",-10.822784689064791],["micro",-10.82357474684437],["PR",-10.823763177549505],["fatalit",-10.824269656000373],["script",-10.825031845479362],["Oregon",-10.825080445913226],["cyber",-10.825085128897289],["Civil",-10.825106069711385],["privilege",-10.825216175312342],["silver",-10.82521660906217],["Affair",-10.825223393591337],["Emergenc",-10.825224311441827],["obligation",-10.825235920350607],["dynamic",-10.825269871777682],["symbol",-10.825291295765979],["explosion",-10.825304613408209],["missile",-10.825369154602512],["Mountain",-10.825516645917968],["moderate",-10.82552900657305],["dose",-10.825840737960782],["coache",-10.826198008685026],["Six",-10.826321912080946],["Agricultur",-10.826465828386201],["hitting",-10.826559713020451],["tries",-10.826650093034871],["toilet",-10.82676371943864],["riot",-10.82677684773292],["editor",-10.827098799542796],["adequate",-10.827293337263095],["narrow",-10.828295997199127],["Brand",-10.830279469266001],["heading",-10.830294457746614],["bread",-10.831326306590672],["pover",-10.831347012801203],["Rep",-10.831960777967154],["Cal",-10.832878470161951],["Rob",-10.833687407720092],["TA",-10.834965135246172],["screening",-10.835096403907162],["processe",-10.835453204394103],["BA",-10.835598668591615],["OK",-10.836114377024112],["Cook",-10.836886890044422],["integr",-10.837446579050514],["beds",-10.838129206832654],["gra",-10.838619370244587],["Fall",-10.83900764235473],["boot",-10.839819995946169],["clinic",-10.840116585218173],["declar",-10.84092399914596],["ignore",-10.840995844295351],["habit",-10.841477619042596],["Murphy",-10.842457556843954],["grateful",-10.842458881479956],["devastating",-10.842465886355686],["Transport",-10.842491098625104],["unveil",-10.842543812142509],["barrel",-10.842866085103688],["ocean",-10.842877128653786],["interaction",-10.84290550618232],["overnight",-10.843173797062352],["Montreal",-10.843195841243952],["rumor",-10.843299577129418],["boyfriend",-10.84351696776148],["labor",-10.843625608944395],["noise",-10.84376976304375],["luxur",-10.843884030811457],["pit",-10.843926428907753],["technique",-10.844035333196985],["Kate",-10.844519580056655],["workplace",-10.845107124634296],["elect",-10.84540102675626],["temporari",-10.845637654592675],["Such",-10.845751939095992],["Dieg",-10.846039339593641],["bu",-10.846720433410583],["chat",-10.846850549024815],["Brad",-10.847142556606913],["GM",-10.84771194252632],["Tech",-10.847790437268888],["tel",-10.848408270350347],["Vi",-10.848464543455004],["metre",-10.848607400917611],["auto",-10.8495619186189],["holder",-10.850783659722545],["mer",-10.852267140842933],["Wale",-10.852518094017196],["2000",-10.852553187614648],["Barr",-10.854364940019742],["Constitution",-10.85437505883287],["NY",-10.855210359626623],["Crow",-10.856540794180189],["HS",-10.857449774048032],["Program",-10.857481013841248],["Massac",-10.857681019786643],["lan",-10.858289107915738],["panic",-10.859056431981625],["lands",-10.859125097082728],["compet",-10.859258565078678],["prohibit",-10.859886768866101],["disrupt",-10.859891505029559],["chapter",-10.860001466273719],["weird",-10.860006627610343],["reliabl",-10.860015397697008],["premise",-10.86002373872465],["Alabam",-10.86011409242705],["achiev",-10.860152172441667],["ventilator",-10.860541038797253],["disabilit",-10.860629869400535],["personalit",-10.860639349368576],["Miller",-10.860721742194688],["Ph",-10.860735715408016],["Forest",-10.860965454968728],["PPE",-10.861067293996484],["71",-10.861070083651194],["Mass",-10.861223712312533],["attendance",-10.861419813784625],["washing",-10.862052122921066],["fatal",-10.862577554931026],["resign",-10.862660582759768],["surveill",-10.862885462050732],["Anderson",-10.862952738733904],["Cape",-10.863097006080364],["helpful",-10.863132365204546],["mess",-10.86398846304483],["Fair",-10.864142539655337],["roots",-10.864191985897921],["gar",-10.864224362731463],["emotion",-10.864297424147935],["inches",-10.864764682263004],["seeming",-10.86491579537747],["Bell",-10.865472761332448],["gang",-10.865774641107793],["Jona",-10.865880254194757],["disappear",-10.866026092412564],["rapper",-10.866810243334898],["Nor",-10.868037851321226],["duti",-10.868689348436046],["GB",-10.869669121981369],["Swi",-10.869695208244313],["premier",-10.872993245558128],["cheer",-10.87324216835836],["Jenn",-10.873572755694536],["proceeding",-10.875577123884128],["Due",-10.875621483892274],["ik",-10.875683202940923],["cha",-10.87669558377359],["Mount",-10.877507346033724],["neutral",-10.877805471139396],["favour",-10.877813511882387],["Brazil",-10.877845561356203],["frustration",-10.877858558409471],["deficit",-10.877858563953914],["shield",-10.87786109605847],["physician",-10.877866053764023],["chicken",-10.87786798785233],["terribl",-10.877875061406929],["sensor",-10.877877995225678],["Galax",-10.877880779332916],["Alexander",-10.877903840688912],["Channel",-10.877906698127342],["liberal",-10.877908982957958],["Zack",-10.878042434246579],["stem",-10.878115519690773],["liquid",-10.878169783331234],["Hawaii",-10.878240669141901],["dish",-10.87831173074947],["Kyle",-10.878377253294087],["Oscar",-10.87865310066568],["Vietnam",-10.878655500159056],["discharge",-10.87876393775099],["clothes",-10.878830094791685],["Austin",-10.879544243132276],["equipp",-10.879934262886753],["ru",-10.880039874165881],["Speaker",-10.880633847746955],["statistics",-10.880859248421995],["locat",-10.882476295999222],["eliminate",-10.882860563887924],["carrier",-10.882937585834476],["overwhelm",-10.88351942999245],["confus",-10.884273190645853],["deny",-10.884599479803219],["05",-10.884802316110314],["occ",-10.885516067148593],["1960",-10.886276497230117],["Gree",-10.886487246815923],["plot",-10.886521185926188],["Wild",-10.887124952767964],["pledge",-10.887329097659673],["Korean",-10.887548922362395],["pen",-10.888264807723061],["Dem",-10.88838008491798],["Burn",-10.889148368742456],["Tour",-10.889324682125846],["math",-10.889507632403852],["Ask",-10.889659849198015],["graphic",-10.89053510624626],["operational",-10.891417631805261],["instrument",-10.892689924660878],["therap",-10.892708413612839],["Tor",-10.893921542135342],["rid",-10.894983212179895],["posed",-10.895502633661886],["Arts",-10.895572537980613],["ional",-10.895968490980703],["semi",-10.89599685179345],["Corporation",-10.896068591347147],["publication",-10.896069958384537],["stakeholder",-10.896084758089735],["Hotel",-10.896120957848114],["immigrant",-10.8961350742465],["Next",-10.89614999181606],["consist",-10.8962133767461],["laptop",-10.896245091989982],["drill",-10.896285443755808],["preparation",-10.8963318718665],["alter",-10.89634330179195],["firefighter",-10.896723164382115],["robber",-10.896760856251081],["implementation",-10.896788338605104],["Manager",-10.896917675420799],["Given",-10.897302063412711],["myster",-10.897707520606494],["discount",-10.897747862518354],["advisor",-10.89821787486329],["Ag",-10.89858405467848],["timing",-10.900121916063462],["Anna",-10.901634272646596],["Turn",-10.901769221949413],["immunit",-10.90180488731618],["Charli",-10.902604824734786],["har",-10.903094346026114],["hide",-10.903137757099922],["rolling",-10.903266529801027],["ET",-10.904205310830191],["creator",-10.904816149818746],["iron",-10.904876570642097],["Whit",-10.906258172845531],["winds",-10.906344751372686],["02",-10.906446045288948],["shower",-10.907316572945767],["Jew",-10.907490045579557],["06",-10.907560667754803],["idden",-10.907739636654256],["coal",-10.907851796454743],["Evans",-10.908138215819225],["activists",-10.911123603872753],["loud",-10.911504816588907],["anyway",-10.911767977370928],["designer",-10.912051410750815],["Collin",-10.912251549799945],["smile",-10.912509661113887],["Kar",-10.913460185235325],["Trade",-10.914123906139299],["quest",-10.91432573342836],["principle",-10.914558893572703],["Charlotte",-10.914558914846987],["Resident",-10.914558981649243],["reputation",-10.914563246778854],["Museum",-10.914564185010846],["Bureau",-10.914569131345623],["taxpayer",-10.91457840669059],["contrast",-10.914608766371469],["Dallas",-10.914617406406755],["cooperati",-10.914742301282686],["icon",-10.914788651749056],["brown",-10.914938935355249],["magazine",-10.914977877236117],["expression",-10.915056146771375],["Information",-10.915091556902354],["NASA",-10.915443640952846],["Mi",-10.915508404088813],["supplement",-10.91553044999973],["Small",-10.915814729894299],["Leban",-10.916210321929674],["Tru",-10.916622596997167],["olar",-10.918035569540343],["Dead",-10.91809874612327],["spin",-10.919251035326464],["norm",-10.919406360144947],["Morrison",-10.919431863762375],["bubble",-10.920052244660607],["chao",-10.920936578483909],["2003",-10.921247771155155],["%,",-10.922007878553696],["parliament",-10.922019236998059],["Marc",-10.922535879304862],["roof",-10.922849171910798],["insight",-10.922859077460089],["houses",-10.923245633484902],["Coin",-10.923335295557145],["participati",-10.923610114489234],["DP",-10.924084538924378],["ium",-10.92491682934369],["IV",-10.925882017759772],["circulat",-10.92662045986763],["southern",-10.926740439554605],["Op",-10.927224392605243],["spoken",-10.927910981496556],["lum",-10.92801534062022],["participat",-10.928019955423313],["metal",-10.928350744762701],["Sometime",-10.928560980601173],["Members",-10.930446692246107],["Simon",-10.930558743177981],["snap",-10.930598760842564],["ake",-10.930733720433993],["hook",-10.931006187647125],["Sean",-10.931316698797312],["nominate",-10.931435050239681],["Class",-10.931506066845488],["Camp",-10.93173260002867],["realise",-10.931992155690228],["beta",-10.932746501856874],["consecutive",-10.933426818169984],["boast",-10.933431737222294],["Nevada",-10.933432211496415],["recession",-10.933440458940433],["stadium",-10.933456540509589],["vegetable",-10.933460002093017],["Barrett",-10.933506619503552],["compliance",-10.933547483636387],["disruption",-10.933549645744653],["conspirac",-10.933582171567135],["controversial",-10.933587793794748],["inspiration",-10.93365351879936],["regret",-10.933723593035854],["roster",-10.933750720239294],["click",-10.933807075956757],["sanitizer",-10.933927456932544],["viation",-10.934015055798586],["drastic",-10.934041652048025],["harass",-10.934279225931775],["teenager",-10.93438086683414],["odds",-10.934429392632229],["Major",-10.934499223137072],["Building",-10.934523258089039],["Was",-10.934679123585743],["girlfriend",-10.934725213425367],["tap",-10.935121265811834],["sensitiv",-10.935571938329744],["Technology",-10.937001595307342],["hired",-10.937009289072094],["attitude",-10.937234758556734],["utter",-10.937287631909813],["interior",-10.937396210584136],["ASDA",-10.938053478450373],["communicate",-10.938057619998874],["organize",-10.938274577578099],["repeat",-10.938931804731933],["investigator",-10.939110624421463],["obust",-10.939772538623684],["Carl",-10.939963692001692],["powers",-10.94110596092809],["pub",-10.941276272388368],["Bi",-10.941780388756888],["Met",-10.94211340729192],["drawing",-10.94247459455113],["commit",-10.942831885540174],["exception",-10.943425138781762],["rooms",-10.943985796860593],["BO",-10.944091326254966],["chest",-10.944705003711737],["Da",-10.944924700331892],["marks",-10.946446802714762],["Nu",-10.94646398337263],["Far",-10.94666788483774],["overwhelming",-10.94681186275914],["acult",-10.949459194000696],["Olympic",-10.949807300483277],["Ott",-10.950003956546269],["overcome",-10.952157272146295],["accomplish",-10.952360754085413],["sack",-10.95239269210705],["spell",-10.95259463131076],["Video",-10.952659397845975],["succeed",-10.952663780791239],["Festival",-10.9526891123733],["Credit",-10.952741103166922],["Muhammad",-10.952755170200744],["conviction",-10.952795487724096],["Chelse",-10.952800259075849],["enterprise",-10.953109051023787],["valid",-10.953178552297612],["Columbia",-10.953180073792414],["chemical",-10.953209536076532],["shine",-10.953219949254576],["Baker",-10.953478676653948],["replacement",-10.953734369454377],["Anti",-10.954208671869036],["prominent",-10.95420959833952],["refugee",-10.954362727907519],["Orange",-10.954424013854618],["Cabin",-10.954621195311052],["Games",-10.954687593005778],["genre",-10.954891640253859],["Stock",-10.955004344259496],["everyday",-10.955211221497747],["angr",-10.955503376821127],["forest",-10.9561908932717],["react",-10.956927154552785],["electoral",-10.95709959952866],["premiere",-10.957699768583417],["comed",-10.957971288068315],["Solei",-10.958043301682713],["productive",-10.95832954891028],["rear",-10.95862904367246],["Shar",-10.958831174477375],["1990",-10.959473214607199],["surround",-10.959654775016713],["MA",-10.963588517715774],["theatre",-10.963795131089864],["announc",-10.964039591728984],["dogs",-10.964112848227877],["propos",-10.964618255055685],["urgh",-10.966425689027979],["Ep",-10.96656685221874],["bra",-10.966611146402805],["landscape",-10.967020610628756],["TO",-10.967780424797658],["contractor",-10.968087409297118],["wipe",-10.968473062840374],["Luk",-10.968515816105423],["Jon",-10.970318821634402],["gu",-10.970817140027986],["sentiment",-10.970975043614466],["Hunt",-10.97216071426443],["universal",-10.97226544168129],["Halloween",-10.972266886366633],["Brooklyn",-10.972277378866867],["Tennesse",-10.972281221119417],["motive",-10.972297041074764],["opposite",-10.972304375279785],["button",-10.972306421474608],["Film",-10.972435907266659],["Bruce",-10.97259092461171],["coalition",-10.972693849222964],["Cha",-10.972781961539003],["vo",-10.972960289359898],["Phase",-10.973000414275955],["delight",-10.97331652913004],["specialist",-10.973581000993597],["isolat",-10.973700499797182],["cake",-10.973801307979485],["Hunter",-10.974110380720258],["Pelo",-10.974484099506714],["silence",-10.97472569530877],["Raj",-10.974912375428866],["useful",-10.975027293365148],["Jesus",-10.975180454783047],["discriminati",-10.976264263721427],["crush",-10.976692815994188],["Dave",-10.977161600638315],["complicate",-10.977443624460609],["CMP",-10.977610003816155],["shoes",-10.977745151040168],["aka",-10.978485702365258],["hiring",-10.978490554789762],["custom",-10.97851516788606],["dig",-10.97973306059055],["wards",-10.979957016175595],["2023",-10.980016995720023],["1970",-10.98010597646456],["ordinar",-10.980558200556635],["UP",-10.981312678580046],["exceptional",-10.98197144539315],["Fans",-10.983486186595291],["pickup",-10.984081063855633],["rape",-10.985381214552454],["poster",-10.985951207065071],["bomb",-10.986524050130576],["prefer",-10.986997762169093],["strain",-10.98900765022751],["raw",-10.990476123993474],["navigat",-10.990618583724181],["integrate",-10.991736098771298],["Mari",-10.991898934677012],["desk",-10.991961535595578],["entrance",-10.992266723216279],["departure",-10.992272712355991],["vendor",-10.99228201049125],["Ocean",-10.992296880990096],["imp",-10.992299810255998],["Philippine",-10.992300158360711],["religion",-10.992315821459604],["Captain",-10.992350889390124],["mortgage",-10.992356457508816],["Order",-10.992371768648681],["Warner",-10.992493480973089],["empower",-10.992501423917943],["tape",-10.99271918244922],["Aaron",-10.992774179102828],["bitter",-10.992803786572827],["Resource",-10.992960831712242],["blend",-10.993053012933805],["hike",-10.993188745684769],["seize",-10.993771454979367],["Eli",-10.993837494503651],["Cost",-10.994096702252346],["constitutional",-10.994172645662063],["probe",-10.994883424229247],["Studio",-10.994895654951177],["transit",-10.996866422435671],["ker",-10.997009846340084],["sweep",-10.997698136605075],["Vanc",-10.997745903683256],["vow",-10.99811763956777],["Tre",-10.998140381401866],["Way",-10.99829579298698],["defender",-10.999195248738431],["Pa",-10.999535847606998],["Ball",-11.000479638227748],["thick",-11.000579313210142],["Robins",-11.00097022222375],["easing",-11.001669276682822],["counted",-11.001966036737583],["wishe",-11.003195892667968],["deck",-11.003762237055176],["river",-11.004034776784879],["HD",-11.005056127691901],["NCA",-11.00506035029831],["optimis",-11.005379157811767],["fever",-11.005437071942318],["sacrifice",-11.005722658045228],["spott",-11.006220061791252],["GP",-11.007551455996067],["fabric",-11.008946832437598],["5th",-11.0098597729487],["spaces",-11.01003015645158],["mad",-11.010052494375426],["observ",-11.011193485315136],["lash",-11.01155371754788],["mill",-11.012060495252104],["Ru",-11.012142484821629],["ND",-11.012387957004076],["₹",-11.012673593734334],["sequel",-11.012674813724503],["recipe",-11.012675103773951],["Representative",-11.012676613623327],["reiterate",-11.012676893730461],["muscle",-11.012677886183045],["educate",-11.012681696207132],["Matthew",-11.012688929016868],["Village",-11.012704282749251],["laborator",-11.012712598173051],["Roger",-11.012753427894387],["Mal",-11.012798386494179],["comprehensive",-11.012819652349899],["curfew",-11.012934387688087],["continuous",-11.013022786373053],["Balti",-11.013085947709166],["Reserve",-11.013195784412037],["Panther",-11.013214688820236],["tactic",-11.013718636566871],["attach",-11.01388927865555],["strand",-11.014025697263754],["lifestyle",-11.014115291374697],["reek",-11.014179884447895],["adventure",-11.014191183917337],["antibod",-11.014653183417625],["rice",-11.015043019524958],["permission",-11.015410895905902],["clip",-11.016127765564649],["spark",-11.017023195459574],["stunning",-11.017295496918736],["belt",-11.019725037755265],["renew",-11.020307476631226],["tiny",-11.021072400143227],["fleet",-11.02180738485848],["oppos",-11.022185813853909],["pal",-11.022257289937627],["unemploy",-11.023999981844113],["Hell",-11.024332604249137],["departments",-11.025444330883232],["innovati",-11.02569661016466],["amendment",-11.026410248850507],["Penn",-11.026595254302023],["07",-11.026621745806132],["midst",-11.026652080318396],["titude",-11.026724264483938],["recognise",-11.027281887862362],["Miss",-11.028042351907846],["appli",-11.028457264023864],["happi",-11.028517805560236],["clash",-11.029105386875772],["examine",-11.02938109856444],["token",-11.029679746037893],["copy",-11.030428681020659],["legitimate",-11.031371044073268],["MD",-11.031665860501313],["ST",-11.032098739437236],["judicia",-11.032660006857732],["Art",-11.033242941328865],["UC",-11.033380675407516],["Staff",-11.033484743304172],["Aberdeen",-11.033506995409034],["Kingdom",-11.033507361178955],["jurisdiction",-11.033507582761901],["float",-11.033508212551457],["tragic",-11.033508355175012],["Fauci",-11.033508841136804],["silent",-11.033523206273172],["substance",-11.033536559958529],["Future",-11.033539380918757],["drove",-11.03355207926691],["Reuter",-11.033564504663937],["Arabia",-11.033702773679293],["ction",-11.033742940647905],["premium",-11.033748165774295],["pipeline",-11.03378558656879],["settlement",-11.034038752275976],["Short",-11.034072874072203],["counterpart",-11.034601723737017],["DN",-11.035512459898824],["consideration",-11.036553033468905],["Viking",-11.036651925939854],["Light",-11.037106427470157],["versu",-11.037263485042718],["Airline",-11.037571260426542],["nail",-11.037846694504552],["ular",-11.038236381161422],["Card",-11.039617586726443],["rap",-11.04017696761063],["render",-11.04032958890161],["lowes",-11.040515935531694],["Cam",-11.040619881637799],["cheat",-11.040804986928512],["Allen",-11.041101442716236],["ensu",-11.041655804357912],["exceed",-11.041692067168189],["tenni",-11.041733810944361],["hire",-11.042019193030963],["buse",-11.042064332018535],["Pitt",-11.042288417181002],["diet",-11.043931046795782],["pause",-11.044979772865283],["assembl",-11.04537373369524],["Buy",-11.046709962273901],["PA",-11.047602399380487],["AM",-11.047879023536884],["Seven",-11.048002932634303],["distribut",-11.04945425550724],["shipp",-11.050370022215931],["promot",-11.051994818395777],["Line",-11.052225807875129],["gram",-11.052298875575454],["ail",-11.052571524483989],["Luc",-11.05266716289318],["convention",-11.052680351666236],["menu",-11.052858740995157],["documentar",-11.053035535359271],["Adams",-11.053361932560206],["pour",-11.053491638492781],["audio",-11.054143753474609],["interrupt",-11.05466485117463],["exhibit",-11.054673420338982],["roit",-11.05475045043977],["Lincoln",-11.054783523484355],["hybrid",-11.054783647143674],["sibling",-11.054784171539396],["treasure",-11.05478774346047],["pivot",-11.054794114549532],["Country",-11.054794864419227],["costume",-11.054811925416649],["occupie",-11.054817526010888],["Memorial",-11.054837111909158],["Graham",-11.054855963408833],["apitol",-11.054888523433412],["Phillip",-11.055034234256471],["Summer",-11.055126395985432],["Gordon",-11.05512770072479],["consult",-11.055645859897833],["transformation",-11.055805844059561],["establishment",-11.056091053884867],["mitigate",-11.056132517083295],["survivor",-11.0561690682249],["download",-11.05632062265147],["chill",-11.057141889894751],["elite",-11.058081475831337],["Kent",-11.058207353463807],["frontline",-11.058593587737349],["tz",-11.058809686970589],["Easter",-11.059002552407074],["Thai",-11.059213739509673],["rallie",-11.059490640506345],["organizer",-11.059623986196813],["presentation",-11.059787698778173],["activist",-11.060475220309314],["Yo",-11.060623781331806],["outfit",-11.060818356939741],["AL",-11.060993452417447],["unexpected",-11.061506234233251],["auction",-11.061842175166342],["Mak",-11.062074319831572],["GH",-11.062105707519864],["Francis",-11.0623569623344],["Thing",-11.06388700278323],["Ham",-11.0641125624531],["Along",-11.064407969712875],["hail",-11.065149149006977],["ES",-11.065966173328645],["Jean",-11.066294859610803],["Putin",-11.066425883574102],["Death",-11.066603482458449],["101",-11.067267419797902],["Mile",-11.067294229614951],["vocal",-11.068106729769719],["fled",-11.068840467217129],["ix",-11.069348649388933],["tale",-11.069568606365168],["Near",-11.069979158096741],["dropping",-11.07013874918126],["liabilit",-11.070770526007028],["crowds",-11.071932136894194],["mir",-11.072918843087994],["NC",-11.07329479144176],["injustice",-11.073430480985598],["Hot",-11.073922893344895],["magic",-11.074280915644321],["align",-11.074322768396213],["Photo",-11.075475555517293],["Greg",-11.075501270750568],["breast",-11.075780803139779],["labour",-11.075978437914712],["Lab",-11.076122648874005],["Par",-11.076299163205768],["wor",-11.07643537114679],["caucus",-11.07652272210459],["voluntar",-11.07652274987262],["furlough",-11.076523684975927],["mechanism",-11.07652629406998],["prize",-11.07653415272564],["democratic",-11.076547683482294],["random",-11.07655039295203],["spiritual",-11.076561619305682],["Asset",-11.076706808661811],["contribut",-11.076738343425442],["Cleveland",-11.076750635537323],["congress",-11.076778468992371],["Point",-11.076895805229569],["corporation",-11.077123542225863],["exhibition",-11.077391895606787],["felon",-11.077455527239783],["partisan",-11.077645008589561],["framework",-11.077990627171465],["Nel",-11.07801690680348],["membership",-11.078642260467191],["beef",-11.07902407212281],["Data",-11.079514607277032],["endorse",-11.08009799723082],["cater",-11.080206002760494],["commander",-11.08027360944463],["inquiry",-11.081083410439064],["soap",-11.081342944597523],["Dean",-11.08417339637538],["Pier",-11.084427200852296],["SU",-11.084574330738876],["battl",-11.084923946187672],["ages",-11.085135568225233],["Iron",-11.085831564296647],["usage",-11.089914682140957],["Kobe",-11.089987385523939],["quit",-11.090027116848761],["Nar",-11.090667334749472],["invit",-11.0909531794873],["tips",-11.092743684115879],["%)",-11.093452443379215],["heel",-11.094089044571254],["Nicol",-11.094111594811011],["explor",-11.094656536797388],["Syria",-11.094672592568998],["che",-11.095019382492419],["arc",-11.095503555147811],["uk",-11.095595147274148],["trauma",-11.096193476347516],["preserve",-11.096290681540168],["Crime",-11.09640988408086],["Hon",-11.097427520104949],["Bat",-11.09763184822782],["tremendous",-11.09874487570372],["flavor",-11.098744876075699],["obstacle",-11.098744877481536],["ingredient",-11.098744890314928],["Similar",-11.098744902266402],["stroke",-11.098745604667466],["guitar",-11.098746477821152],["Quebec",-11.09874957734663],["Douglas",-11.098752273753584],["Conservative",-11.098760470227159],["hawk",-11.098763670949975],["Treasury",-11.09877778178362],["prosecution",-11.098782083435017],["Smart",-11.09878910991642],["consultation",-11.09894306622038],["welfar",-11.098972544130937],["introduction",-11.099000821027136],["fault",-11.099016091842254],["parade",-11.099051558843168],["generous",-11.099116951623817],["judgment",-11.099118698411923],["Storm",-11.099122757403746],["painting",-11.099164494597787],["upset",-11.099225979871639],["Blake",-11.099585666643064],["pink",-11.100145698474325],["Brother",-11.100219527329626],["THE",-11.1002652633285],["globe",-11.100533264715967],["innocent",-11.100784840095502],["gains",-11.101047009905647],["acquisition",-11.1018008841946],["zing",-11.102114520735245],["Hu",-11.103236894412767],["chew",-11.103728545179708],["Oak",-11.104386142698129],["bird",-11.105022913782559],["je",-11.10522440780573],["Medic",-11.105637106336792],["equi",-11.1058336384116],["shake",-11.106128501401306],["immigrati",-11.10622059038023],["Bush",-11.106396896836504],["ICU",-11.108023172069927],["height",-11.108578581827121],["keen",-11.108867002714238],["glove",-11.109347375168648],["lap",-11.109483508301086],["iness",-11.109817845202896],["bab",-11.110020320120464],["dispos",-11.110483947671321],["ping",-11.111265345124972],["gon",-11.111275670633217],["Tu",-11.111427324834072],["prisoner",-11.111580709716998],["showcase",-11.111592380701245],["rick",-11.111734026361693],["Ak",-11.1118172014168],["Come",-11.112770006014228],["Ren",-11.11341237346993],["insider",-11.113459766257352],["Being",-11.11388605470501],["mentor",-11.115352527573023],["shareholder",-11.115597526473154],["wal",-11.11626338242386],["economist",-11.116582912351461],["ndroid",-11.116706061540764],["uncertain",-11.117475420424359],["rug",-11.118424987868176],["atic",-11.12053045378867],["VP",-11.120590163742932],["courts",-11.120717753194718],["2004",-11.120724750169394],["destructi",-11.120820943929612],["Ultimate",-11.121472148229703],["ambassador",-11.121472149077382],["Bangladesh",-11.121472149289046],["athletic",-11.121472218957882],["reception",-11.121472230245319],["criteri",-11.121472263289892],["efficienc",-11.121472399975996],["yellow",-11.121477416044694],["Broncos",-11.121477659051589],["Field",-11.121478325498595],["blind",-11.121494727815469],["suspension",-11.121512186310838],["Wayne",-11.121517733706423],["ouver",-11.121541979302492],["flame",-11.12155641419689],["Thanksgiving",-11.121562352456593],["nonprofit",-11.121626344495308],["crude",-11.121725402128071],["Duke",-11.12176611417506],["Chamber",-11.12178506637041],["exploit",-11.121801067204842],["foul",-11.12201364412779],["Place",-11.122200185002095],["Christophe",-11.122206502095345],["MO",-11.122349284244684],["suggestion",-11.122386530572903],["medication",-11.12241688599607],["pregnanc",-11.122581000275337],["Sudan",-11.122704803877525],["lender",-11.122827805023537],["aunt",-11.123013647044141],["friendship",-11.123282580977937],["punch",-11.123518102061807],["900",-11.123545702016681],["Hi",-11.124471413470784],["Ger",-11.124472769458835],["Kay",-11.12478659266615],["deserved",-11.12491749137528],["lights",-11.125017717049317],["pursu",-11.125140172576055],["indication",-11.125685279282479],["ura",-11.125739233631476],["Thanks",-11.126516756807694],["nife",-11.126522032898844],["ification",-11.12754360407222],["Jacob",-11.128508972365815],["fate",-11.128979526053797],["Knight",-11.129415577819488],["ika",-11.129439122091776],["Bio",-11.129769297930258],["Garden",-11.129851612004602],["Keep",-11.130239876042964],["End",-11.130265113589191],["ck",-11.130593249925354],["Ki",-11.130767791212987],["ranking",-11.130938154762735],["Cor",-11.13123999004086],["occurre",-11.131332278040869],["pure",-11.13151932607044],["bench",-11.133250820720438],["traffick",-11.134333817343286],["picking",-11.134546754578615],["completi",-11.134708960197568],["noon",-11.135262537520543],["Heart",-11.137000928853443],["hits",-11.139111158967449],["ancing",-11.13962081261262],["origin",-11.139658588007462],["glad",-11.140131077917085],["Gra",-11.140595054034925],["Ed",-11.141608591929737],["unfair",-11.14173754803635],["LP",-11.143649881565144],["construct",-11.14438561028887],["arcelo",-11.144424107408469],["tenant",-11.144541329613183],["subscription",-11.144727967195514],["enormous",-11.14472881441447],["mirror",-11.144732681438885],["Picture",-11.144734774692804],["atmosphere",-11.144751120435611],["volatil",-11.144793643822371],["Talk",-11.144796741683452],["boom",-11.144799844195504],["incentive",-11.144846597909499],["compound",-11.14487889619935],["AFC",-11.14487949090826],["Girl",-11.144937453237914],["View",-11.14497202494602],["cancellation",-11.1450919420947],["confirmation",-11.145128298211066],["fift",-11.145153186292033],["adjustment",-11.14539604809616],["Hopeful",-11.145508744825083],["ouisiana",-11.145515449219175],["Dark",-11.145600968485622],["hospitalization",-11.145782082103015],["Saskat",-11.145800251904431],["compell",-11.145897528937944],["endanger",-11.145924604577639],["Kamal",-11.146047880086755],["feedback",-11.146108878668976],["traged",-11.14673106708994],["administer",-11.146903553684515],["limitation",-11.14693550160504],["Labor",-11.1471372026725],["Pass",-11.147194179123533],["Auto",-11.147504644821007],["grain",-11.147640727737913],["beneficiar",-11.147917786955885],["Olympics",-11.14821093997055],["Unlike",-11.148718582633515],["wins",-11.14976110862403],["supplier",-11.150969204154364],["tail",-11.152133276813482],["ula",-11.152442624820322],["refus",-11.152521465738793],["offence",-11.154147905964903],["sideline",-11.154689496145952],["restore",-11.154861266820145],["aches",-11.155091151008286],["Sri",-11.155373261421774],["relation",-11.15577886589207],["lew",-11.155878619756725],["Motor",-11.156692664867618],["Sad",-11.157353655079586],["Princes",-11.15737484212987],["Rome",-11.159563429233799],["trappe",-11.160533787190762],["migration",-11.160741575303017],["flee",-11.16228487532484],["terroris",-11.162464122614132],["cu",-11.162499034831704],["Islam",-11.162541282650825],["rying",-11.162582147186084],["designate",-11.16262016010293],["Hard",-11.162798649000155],["attribute",-11.163895605434146],["Titans",-11.164005029925175],["Walla",-11.165285927324472],["constitution",-11.1655891731624],["grave",-11.165863673226],["Prof",-11.16696629827354],["az",-11.167039739150619],["stance",-11.167553636747897],["commerc",-11.168414427289548],["lover",-11.168419910581566],["buck",-11.168459098993566],["pump",-11.16849315089828],["administrator",-11.16853749393816],["semester",-11.168538592936516],["Pompe",-11.16853932672998],["Entertain",-11.16854108308959],["Square",-11.168542081290767],["Edmonton",-11.168549907507831],["cannabi",-11.168553203059142],["Berlin",-11.168554802369421],["complication",-11.168559282696142],["inflation",-11.168559985523073],["Morning",-11.168588712465358],["dirt",-11.168608977240636],["milestone",-11.168673138853714],["bullet",-11.168689265879234],["Operation",-11.168726108506165],["entitle",-11.168787022307711],["Librar",-11.168859136900679],["Atlanti",-11.168872108303436],["lifetime",-11.16904154546467],["Kumar",-11.169057435767481],["Fargo",-11.169271574524348],["accommodation",-11.169463941998],["anime",-11.169628641741658],["restor",-11.170163912275944],["Rick",-11.17049697884671],["Could",-11.170678154833325],["Stay",-11.170785450307221],["ami",-11.171057290884196],["arrow",-11.171107728827884],["restart",-11.171969429706373],["ries",-11.172082763875292],["Bond",-11.172712544519978],["Kansa",-11.173395406489682],["ML",-11.173658681729515],["Boe",-11.175623847173362],["Christ",-11.175861809312545],["Event",-11.175955649965065],["slide",-11.176161581104132],["Players",-11.17617312708692],["appreciati",-11.176187258512373],["gging",-11.176331410287489],["lyric",-11.176950869600889],["Mel",-11.177193590284435],["tender",-11.177655563147011],["uana",-11.17766394598901],["vary",-11.177885945956943],["worri",-11.177968124754942],["dip",-11.178000802174566],["Assistan",-11.178085189136048],["Mall",-11.178234224534227],["emphasize",-11.17881761397221],["CS",-11.179032739085109],["recount",-11.179123778468867],["Edo",-11.180075519966323],["seal",-11.180113093295647],["03",-11.18021274999926],["Gray",-11.18040365465227],["kiss",-11.180678912749261],["interi",-11.1806990605181],["declin",-11.180823477690293],["ram",-11.182186443338905],["submit",-11.18242453368128],["commence",-11.182935522542039],["ux",-11.183462740581557],["Case",-11.183675249674675],["grab",-11.18409001123258],["gay",-11.184535939340378],["inevitabl",-11.185632413032057],["Carol",-11.185668165637038],["Bl",-11.18575083899727],["reverse",-11.186259988982442],["digit",-11.186384083980943],["starter",-11.18679684477039],["workout",-11.186809419904403],["riding",-11.187140578470816],["valent",-11.187296476425564],["itarian",-11.188637503790773],["drain",-11.18924880123539],["bless",-11.189376525879013],["audit",-11.190136466834762],["pastor",-11.190741190646834],["ndigenous",-11.190855119989138],["Ch",-11.190888608608066],["refer",-11.1926272785417],["Support",-11.192687483746576],["ialogue",-11.192705732329763],["calendar",-11.192927811118606],["certificate",-11.192929374664272],["Consider",-11.192931799474017],["universe",-11.192933675558184],["bunch",-11.192933882592767],["Spider",-11.192936607909155],["Section",-11.192955307863205],["Giant",-11.193038285805688],["hygien",-11.193060244278573],["Palace",-11.193081475192251],["scandal",-11.193117991260799],["dump",-11.193168337284359],["mineral",-11.193264594770405],["external",-11.193280401196334],["Enter",-11.193298369014428],["Alaska",-11.193318260636863],["Ri",-11.193557597060368],["violat",-11.193586162316409],["worship",-11.193589262819128],["Maryland",-11.19372214315793],["breakfast",-11.19374586531259],["Eve",-11.193872205846047],["Ya",-11.19397762288845],["Found",-11.193979480288377],["ual",-11.19427040384602],["Recent",-11.194285670829466],["Libya",-11.194612978344349],["Madri",-11.194651848815221],["removal",-11.19466212056526],["Bull",-11.194957406772396],["Nag",-11.195018000797791],["solo",-11.195056395277836],["involvement",-11.195262262879726],["trans",-11.195772998814153],["entrepreneur",-11.196003174235566],["Steven",-11.196056074919184],["ntil",-11.196080277023057],["Record",-11.196390213307744],["decent",-11.196849102493228],["GA",-11.196975184108796],["Mail",-11.196988164505145],["DO",-11.198057625491831],["posting",-11.19846213672414],["shaw",-11.198616938647497],["Jerem",-11.198635223623699],["ministers",-11.199083386924192],["Rev",-11.199084110721687],["ownership",-11.199165239660749],["grid",-11.199205587975943],["dust",-11.19936250784118],["fundrais",-11.199602829191708],["ich",-11.199897101353262],["q",-11.199900533646563],["Join",-11.200116647803096],["Pittsb",-11.2001473585117],["Emil",-11.20054912633061],["shout",-11.20106578112947],["1980",-11.2011668502404],["mob",-11.201347093807566],["partial",-11.201692490638605],["lineup",-11.202718571438412],["acres",-11.203333146164812],["pad",-11.20335575718066],["Change",-11.203932631936437],["lated",-11.20488984357724],["Marsh",-11.204952638824906],["Cart",-11.20569045016395],["accessib",-11.205930526212946],["None",-11.20643954987915],["issu",-11.206976937528577],["ken",-11.207556744971674],["layer",-11.207584531860109],["Antoni",-11.208049930714182],["kit",-11.208182978853078],["í",-11.20828259602618],["Che",-11.208807282571561],["acre",-11.209573880201836],["Va",-11.210226832266141],["circle",-11.210589220357134],["thread",-11.21078951512183],["Hous",-11.212159679969067],["cute",-11.21259027344016],["outline",-11.214766593597318],["Com",-11.215649628029194],["ock",-11.216060583783808],["Mother",-11.21638845766213],["stall",-11.217170549224122],["Hua",-11.217185129124074],["bath",-11.21751701755901],["patron",-11.217599760756844],["punish",-11.217751169223469],["pharmac",-11.217847791479805],["column",-11.2178479074493],["evident",-11.217927761692009],["Commerce",-11.217927801745233],["nervous",-11.21792784097691],["emphasis",-11.217927979125651],["civic",-11.217928086796489],["Communication",-11.21792825218811],["Internet",-11.217928491134277],["fantasy",-11.217928624138935],["diamond",-11.217929065191585],["commodit",-11.217930393554647],["romantic",-11.217930544196864],["Modern",-11.21793079834176],["Electric",-11.217933791930143],["deliberate",-11.217942680718737],["embass",-11.217944902518452],["ecosystem",-11.217961207837224],["Federation",-11.217973580302305],["convey",-11.217983531066114],["genetic",-11.218080279880411],["comparison",-11.218097258959723],["intimate",-11.21809837739196],["anxious",-11.218197645424357],["meaningful",-11.218280046435375],["disagree",-11.218315234216412],["Update",-11.218453889048337],["Greek",-11.218899740999037],["wildfire",-11.218926791018198],["chef",-11.218950366955017],["safeguard",-11.218964219241633],["borough",-11.218979519523673],["Calif",-11.21933483144728],["mood",-11.219701850989459],["preference",-11.219905900099224],["disorder",-11.220090584408641],["Happ",-11.220424958174235],["intent",-11.220703418565247],["Laura",-11.220722957476994],["Kol",-11.220972417548214],["spray",-11.221185603086925],["Champions",-11.221370671769247],["LC",-11.221493557706735],["kits",-11.221638674391896],["Dun",-11.221655302021347],["izer",-11.221968132830227],["tooth",-11.222164373921611],["Lane",-11.22279899718993],["Receive",-11.22375142242048],["moon",-11.2243353805889],["PL",-11.22468474870068],["reminder",-11.224708632860892],["Side",-11.225080062897344],["Mer",-11.225504122071786],["subsid",-11.225828484129527],["metric",-11.226243454466662],["phrase",-11.226598773408414],["Pick",-11.226806507581937],["350",-11.226833720881851],["arts",-11.226861698972852],["Dis",-11.227063722264006],["processor",-11.227253708284875],["postpon",-11.227317557492563],["Tam",-11.227484373387863],["Mexican",-11.227493927949434],["depressi",-11.228358497021633],["220",-11.228647597796524],["chip",-11.228666551975245],["Robin",-11.229196988791589],["referr",-11.229469903468893],["Page",-11.229512950198409],["endra",-11.23006229585825],["Train",-11.230210087089816],["Jerr",-11.230274884908459],["sovereign",-11.230341002492075],["Log",-11.230416955675068],["belong",-11.23060130033757],["Pan",-11.23065448256501],["accord",-11.231057296632905],["organiz",-11.231114660023438],["crete",-11.231397346043707],["solida",-11.231670901620754],["quin",-11.231741617961326],["oversee",-11.232828049413179],["aq",-11.233373133964482],["municipalit",-11.233839813185483],["ure",-11.23395635270421],["scrutin",-11.23464162877255],["haunt",-11.234664159463192],["cur",-11.235676332401546],["vin",-11.23568345337271],["hak",-11.237767716344285],["leans",-11.23803030717175],["Thu",-11.238272096502309],["Ethiopia",-11.239020397002403],["refund",-11.239116095534422],["Know",-11.239978484561883],["statue",-11.240141742534693],["killer",-11.240207434830701],["instruct",-11.24030824101355],["crossing",-11.240593159850619],["Start",-11.241095569235338],["fiction",-11.24234039248096],["Dian",-11.243133004160292],["plain",-11.243356822119754],["mutual",-11.243568892962605],["Mississippi",-11.243569000486168],["Temple",-11.24356913153172],["ESPN",-11.243569314314007],["earthquake",-11.243572332223088],["excuse",-11.243576607052102],["Taiwan",-11.243577873373685],["Think",-11.243588324286929],["Doctor",-11.243606015339157],["NYSE",-11.243614375873378],["uniform",-11.243646042430216],["constituenc",-11.243657803333162],["animate",-11.243693845639552],["determination",-11.243724143785826],["observation",-11.243775100605212],["cough",-11.243861067650293],["caption",-11.24392331336056],["hotspot",-11.243952670827243],["Dodger",-11.244056932400992],["weakness",-11.24406058782267],["Victor",-11.24427112788161],["bold",-11.24458198378646],["Hamp",-11.2446325259737],["supermarket",-11.244826189502431],["Hud",-11.245145954645022],["declaration",-11.245198639649574],["lic",-11.245342055242267],["notifie",-11.2455977349289],["hol",-11.24595924010338],["pride",-11.245996427004265],["unlock",-11.24610080395081],["ambition",-11.24734005320386],["Rat",-11.24744499585967],["rental",-11.247667727868482],["Born",-11.24808061947796],["Ber",-11.248439146383841],["organ",-11.248541512361077],["preferred",-11.248589397309779],["polluti",-11.24877163561893],["folk",-11.248834037808079],["institute",-11.249122253213972],["APC",-11.250635570664498],["spectrum",-11.251253030363507],["uff",-11.25132458358545],["receiver",-11.251366150707096],["bout",-11.251482819936047],["dependent",-11.251486133840805],["organis",-11.252197045597766],["launche",-11.253623944552714],["shame",-11.254007806452117],["tired",-11.254303500839875],["Laker",-11.254640941178591],["grabb",-11.254719898413773],["apologize",-11.254739340151877],["bats",-11.255119173974915],["ucker",-11.25577628368843],["advis",-11.256240652720024],["augh",-11.25628872543488],["Bru",-11.25760286488962],["Jenni",-11.257967021859733],["timeline",-11.258037650173733],["performer",-11.258605330403283],["Mon",-11.258856403063643],["Var",-11.260038104050224],["legislati",-11.260827091859603],["Prade",-11.260879557629124],["Christin",-11.261087927758625],["chase",-11.261844022674905],["Sport",-11.262050261629792],["Teh",-11.263189484091244],["REN",-11.263351094548842],["deau",-11.264834357833042],["FM",-11.265280042655753],["input",-11.265713086626349],["Singapore",-11.266168709053158],["()",-11.266429170447974],["Roy",-11.26670785726508],["Coach",-11.266728319046893],["cricket",-11.26699843731205],["Camero",-11.267807733684542],["pointer",-11.267962647853809],["Qu",-11.268188552032997],["resistan",-11.268279591206142],["grie",-11.268283532143943],["MT",-11.26835360620039],["assert",-11.26964130556887],["discipline",-11.269714940071603],["Calgar",-11.269797347652883],["courage",-11.269869003421976],["suspicion",-11.269884563921973],["Agreement",-11.269884568691317],["unanimous",-11.26988460160243],["Provinc",-11.269885966045491],["Superintenden",-11.269886830638956],["Window",-11.269886899106417],["chamber",-11.269890433567257],["psychological",-11.26989848669237],["Oxford",-11.269902158666245],["applicant",-11.269903189934645],["twist",-11.269970456122298],["livelihood",-11.270010799492969],["incumbent",-11.270020578687259],["persist",-11.270031023297653],["flash",-11.270088139101388],["detention",-11.270113889626368],["rookie",-11.27018338092615],["Clear",-11.270198652850269],["nutrition",-11.270445263884085],["lone",-11.270470866535106],["Montana",-11.270475535365463],["memorial",-11.27060298094172],["ruin",-11.270669027845482],["Price",-11.270804888385193],["Xi",-11.270875762169402],["Key",-11.270909619835283],["submission",-11.270910026208108],["Much",-11.270945947695822],["pretend",-11.271026723606184],["CM",-11.271093858455247],["Michell",-11.27129008549646],["steel",-11.271301348287746],["loose",-11.271357867820502],["coordinator",-11.271536974649784],["ultra",-11.271635070027452],["Remember",-11.27175883309772],["plea",-11.271759299341214],["enroll",-11.272153578253787],["relie",-11.273340229712828],["charm",-11.273542484390966],["Joy",-11.273611379950664],["breathe",-11.274570214017213],["reign",-11.275338947545684],["programm",-11.27573763903989],["loving",-11.276984177512519],["lens",-11.277236445041162],["Anne",-11.279000057545911],["Note",-11.279251462745629],["stating",-11.28012938566242],["Islami",-11.280215918934806],["Vol",-11.280247870489962],["Mad",-11.280426170905788],["occasional",-11.280671251910993],["Youth",-11.283589092903512],["Jess",-11.28392103964238],["160",-11.283948554902176],["excite",-11.285227171067657],["recycl",-11.285281223560474],["accompanie",-11.285421641950396],["notion",-11.28560880215364],["transparen",-11.286266696922695],["hardwa",-11.286713468353149],["Sure",-11.286828648105082],["NP",-11.288648612551107],["Sab",-11.289267126742699],["Pal",-11.289616417734324],["salarie",-11.290116163780606],["nerve",-11.290164536983566],["Ron",-11.291699725289371],["CAA",-11.29175274031672],["Partners",-11.29177943935318],["CY",-11.29182302185259],["cure",-11.292207453166194],["NG",-11.292792283374446],["els",-11.293058005720992],["RA",-11.293070329297976],["Cre",-11.294004324916358],["camps",-11.294142642486175],["resilienc",-11.29451900060369],["CC",-11.294867912818919],["burst",-11.29507402655782],["mum",-11.295189787469212],["EV",-11.295290008397156],["Child",-11.29563848277595],["eath",-11.29585643113624],["Philip",-11.296012204435792],["Caribbean",-11.296911572454512],["ambulance",-11.296911659222058],["engaging",-11.296913101713269],["Diamond",-11.296913885938723],["Missouri",-11.296914771879951],["firing",-11.296915051367682],["striking",-11.296920751636813],["condolence",-11.2969435669668],["Tyler",-11.296943753202163],["Protection",-11.296943759971612],["Campbell",-11.296944071591366],["casino",-11.296956222884784],["Euro",-11.296962802062586],["radical",-11.296964347190794],["mysterious",-11.296966176645654],["SC",-11.297003170736602],["haul",-11.297042530614476],["Kris",-11.297053457205713],["expenditure",-11.297054076965972],["Doug",-11.29705874074358],["Kennedy",-11.297069583764682],["Medicine",-11.297075307648047],["bankruptc",-11.297133318464164],["impress",-11.297289653444633],["toxic",-11.297289879636772],["bot",-11.2978074930636],["inclusion",-11.297959172289506],["cheese",-11.298057166437445],["mega",-11.298103998859697],["Wolf",-11.29820658763245],["Digita",-11.29852262158515],["castle",-11.29870634983574],["lease",-11.29871024591817],["Sar",-11.29871831871886],["Policy",-11.298881519416993],["pizza",-11.299292117819208],["assumption",-11.299433125378084],["0000",-11.299640521114615],["hence",-11.300895880337222],["awesome",-11.301181603118911],["Ku",-11.301397203028795],["Olive",-11.301857720814334],["FDA",-11.30194468900711],["Tar",-11.302233376951758],["undergo",-11.302532995560728],["intentional",-11.302731207224266],["shell",-11.303083543138847],["Natural",-11.303436398053538],["Jak",-11.304041733202716],["butter",-11.304737005281535],["RE",-11.304963956426793],["Tax",-11.305134035924558],["swimm",-11.3057876477999],["brush",-11.305793755347155],["Roman",-11.30682203169654],["shocking",-11.306965336883572],["Hol",-11.307128696574951],["Put",-11.307866804484144],["Salt",-11.308133989515317],["approache",-11.309155327538114],["minds",-11.309187511969808],["champions",-11.30943651122334],["Ann",-11.30950580914512],["Wright",-11.309823502085605],["screens",-11.30994119661651],["Tali",-11.310183275442661],["ootball",-11.311643251915733],["TC",-11.311814094873409],["sentenc",-11.311918414027588],["Hart",-11.312188771719036],["Newsom",-11.313707740632218],["SP",-11.31382117917254],["Baby",-11.313838568653654],["constitute",-11.315001548424007],["NO",-11.316474403295098],["initiate",-11.316535134593387],["rage",-11.316601081482842],["Bor",-11.317187973349423],["wrap",-11.319662415803387],["cope",-11.3197293359259],["Hawk",-11.320333123120372],["Pho",-11.321029625468785],["suburb",-11.32114188253739],["plac",-11.321361252280044],["Latin",-11.321728785292292],["Cole",-11.322456773156937],["bump",-11.322886329454253],["verse",-11.323119803161674],["breed",-11.323138583638872],["Rod",-11.323493154255452],["reservation",-11.323772455718302],["conscious",-11.324059275981732],["Craig",-11.32460165279999],["concession",-11.324686870200008],["Veteran",-11.324689369139948],["kilometre",-11.324689377098835],["evacuate",-11.324689500445176],["Globe",-11.324690136476338],["Animal",-11.324691677048389],["thorough",-11.324692512898539],["Convention",-11.324693673950009],["compensation",-11.324695690477387],["covid",-11.3246966242572],["financing",-11.324703424743937],["Vision",-11.324709599462167],["eviction",-11.324711380645077],["swift",-11.324717630912065],["Russell",-11.324719941133992],["abortion",-11.324722325443993],["Weinstein",-11.324726046340205],["Spence",-11.324770702479332],["Technologi",-11.324804061377138],["examination",-11.324809736054359],["impression",-11.324819346559966],["prosper",-11.324855007698737],["bathroom",-11.324916390238556],["Queensland",-11.324926659660058],["defendant",-11.325010849802242],["punishment",-11.325016395688888],["Perry",-11.32509947499444],["painful",-11.32524667979594],["mari",-11.325294910629834],["offender",-11.325404818160958],["motivation",-11.325428111362626],["Chat",-11.325479711655337],["steer",-11.325532145469435],["alliance",-11.3256641907581],["filmmaker",-11.32571837796732],["focuse",-11.32578040522784],["gomer",-11.32580397830757],["demonstrator",-11.325839789348965],["Brun",-11.32661088482009],["ETF",-11.32661690306141],["endure",-11.326712673261293],["allocation",-11.327565303021096],["representation",-11.327990037357397],["Store",-11.328357233589982],["stranger",-11.32850024471443],["Dragon",-11.32915682695851],["decid",-11.329644397288964],["Metro",-11.329671172679491],["WH",-11.330134018914137],["enabl",-11.330148757757879],["Farmer",-11.330291718780764],["donor",-11.330635447344115],["CN",-11.330733926121493],["stupid",-11.331120348393917],["fisher",-11.331538962927596],["echo",-11.331800315243674],["DJ",-11.331927637471656],["skeptic",-11.332904855431336],["reache",-11.33312722898921],["cup",-11.333278192657508],["pac",-11.333955501109369],["arij",-11.33474944708989],["Nas",-11.33494644128757],["impos",-11.336915418102413],["trash",-11.336974203401597],["ology",-11.337147397544776],["bonus",-11.337520630069898],["egg",-11.33777708008733],["thrill",-11.33825085971144],["dual",-11.33843097911858],["ranks",-11.33908873946074],["Coming",-11.339214998690366],["trends",-11.3396059140747],["abus",-11.339709876350948],["credible",-11.340016581215762],["bri",-11.340098477961178],["soil",-11.34010112068491],["connectiv",-11.340268306833408],["Rating",-11.340322290899712],["Jessi",-11.34067821953953],["ethnic",-11.340962783005134],["lip",-11.343846777932622],["positiv",-11.344154140380905],["aking",-11.344405172322903],["container",-11.345486040860646],["superior",-11.346136859741026],["notabl",-11.346300117730273],["minimal",-11.346662556157234],["Dor",-11.347274793186372],["Val",-11.347434259227473],["ignor",-11.347506576814155],["bvious",-11.347720197292505],["Find",-11.34847983047079],["Rama",-11.348640389984107],["KA",-11.348740556061685],["Mor",-11.349968327784616],["pat",-11.350227075975235],["Ker",-11.350234376683664],["ku",-11.350272120482849],["blaze",-11.35117980469457],["overlook",-11.351799340678912],["lining",-11.352877456355285],["Kam",-11.352958079502898],["facilitate",-11.352984570625253],["vaccination",-11.353260782088753],["frustrating",-11.353260815967573],["rhetoric",-11.35326100161646],["definition",-11.353261257569278],["vacation",-11.35326178755102],["Would",-11.35326435261965],["streak",-11.353264931749294],["oxygen",-11.35326798497348],["prevail",-11.353268835256905],["Punjab",-11.353287315698834],["desert",-11.353293392758474],["Tampa",-11.353299075157313],["preliminar",-11.353350274167468],["wicket",-11.35342566096283],["foster",-11.353460861609275],["Alliance",-11.353504575478146],["Harrison",-11.35355137406256],["confrontation",-11.353612242712698],["disinfect",-11.353657605306326],["affiliate",-11.353662651576645],["Front",-11.353692768680379],["realistic",-11.353700028577975],["bulk",-11.353798342771],["Mohamm",-11.353944724621245],["Engineer",-11.353984508987816],["terminal",-11.35419632301904],["Winter",-11.354223281686245],["cow",-11.35429954242636],["revise",-11.354309173998498],["Drug",-11.354322502658107],["Horn",-11.354347164681455],["Helen",-11.35459062223017],["ogether",-11.354914105873998],["incorporate",-11.355342519887547],["Jamie",-11.355475536603032],["Fur",-11.35553343279807],["Theatre",-11.355975110713947],["pipe",-11.356032348980163],["PE",-11.356140949510623],["freeze",-11.356188507945763],["Pete",-11.356481174516018],["deployment",-11.356621652622032],["stabili",-11.356733287123507],["Grace",-11.356845874742792],["yder",-11.356975339443999],["memo",-11.357227262706562],["venge",-11.358089703843039],["okay",-11.358528911625676],["ING",-11.358626640557663],["loot",-11.358903419032915],["Maria",-11.359020890569834],["Dick",-11.359106614598621],["airy",-11.359352004589601],["coat",-11.359910306244908],["Ban",-11.360193674884618],["preventi",-11.360648626193202],["stair",-11.361422019921122],["Walm",-11.362032875010922],["diseases",-11.362302734183757],["Journal",-11.363032584332606],["boundar",-11.363087558831468],["allen",-11.363254380048458],["fame",-11.363406220901187],["Weather",-11.363421155960538],["tower",-11.36359260791898],["Macro",-11.364802506654181],["cargo",-11.365181161679835],["pants",-11.365969748618596],["Broad",-11.366238592011324],["AC",-11.36686456640741],["Kid",-11.366953771882432],["outdoors",-11.367356441510458],["Mag",-11.367635507941511],["bug",-11.368009864992342],["welcom",-11.368563667901839],["evaluate",-11.369350388863054],["publisher",-11.369552328891256],["worsen",-11.36987478471423],["dominate",-11.370327553796942],["Kir",-11.370341758795462],["ED",-11.370562799521093],["Low",-11.37074030617794],["scam",-11.37075337906428],["Johnn",-11.373602500513629],["administrati",-11.37369308815267],["choos",-11.373735384138318],["highway",-11.374103793711775],["Tak",-11.37423391485283],["holes",-11.374535037578255],["flaw",-11.375195614066536],["hal",-11.375582365043812],["devote",-11.375595115717488],["casting",-11.376313121993764],["AG",-11.376441529553052],["secur",-11.376603115478225],["AD",-11.377292390119774],["authentic",-11.378847809671353],["evolv",-11.378882918086722],["Glen",-11.379268812122113],["dispatch",-11.379603534672995],["AB",-11.379691916013096],["arring",-11.380420300165603],["structural",-11.380442584276887],["Hills",-11.380498709402548],["influen",-11.381631758160125],["farming",-11.381651261979307],["IP",-11.381668651927367],["Kath",-11.382154870834263],["differ",-11.382630067234016],["Belarus",-11.382649012238437],["ridiculous",-11.382672543071621],["legislature",-11.382672543079156],["Nebraska",-11.382672554772245],["supervisor",-11.38267264481111],["Lawrence",-11.382672902245414],["parallel",-11.38267306806263],["pepper",-11.382673090714274],["surrender",-11.38267639559577],["Samuel",-11.382682370796802],["stagger",-11.382683340356186],["elevate",-11.382690799568651],["cafe",-11.38269986168865],["implication",-11.382707240979418],["Left",-11.382713293261528],["concise",-11.382714093590893],["surpass",-11.382747905834002],["Bishop",-11.38281088706757],["distress",-11.38285840627821],["Legend",-11.382893408071368],["exemption",-11.382908901266784],["Madison",-11.382947014354187],["Oil",-11.382973872969865],["contestant",-11.383048738309457],["garage",-11.383108603890165],["Link",-11.383174680206247],["sheriff",-11.383253637191629],["attractive",-11.383253767345176],["consent",-11.383282880552382],["bull",-11.383362215188686],["Budget",-11.383405253258633],["thankful",-11.383613180619799],["oven",-11.38363634945137],["crown",-11.383733041078166],["distinct",-11.383852808867367],["facial",-11.383958986969825],["Jose",-11.384105709594543],["Box",-11.384222346457083],["Nanc",-11.384253972631722],["accusation",-11.384264349450797],["variant",-11.38443346418098],["Lynn",-11.384548221097234],["survival",-11.384894820920074],["Father",-11.385426673699126],["accelerate",-11.385431745187304],["believ",-11.386288904835116],["Lock",-11.386343357911414],["inner",-11.386346546573103],["diagnosi",-11.386788200490724],["Environmental",-11.386860320701878],["batt",-11.387015153101764],["generat",-11.387320090825948],["Limited",-11.38749772954873],["tele",-11.387632277479142],["ella",-11.387632928273772],["heft",-11.38777332124518],["Gregor",-11.387821125662864],["photographer",-11.388416042399712],["Springs",-11.388673545328986],["RAM",-11.388860883480124],["Bow",-11.388869542871644],["hunter",-11.389354045046819],["Michel",-11.38985397810547],["disable",-11.38985902130695],["hug",-11.389866553209185],["strip",-11.39001872939296],["Uber",-11.390964572608626],["Batm",-11.39162115651936],["Bra",-11.392488128609736],["Has",-11.392768294608192],["Mosco",-11.39323728556203],["adhere",-11.393353719217618],["broker",-11.393712864247092],["Mann",-11.394422730820377],["shopper",-11.394663290069008],["Emm",-11.3963778263007],["criticise",-11.396573825134443],["uncle",-11.39728298308454],["sburg",-11.397499925452145],["realiz",-11.397500659492792],["ridge",-11.397599465102179],["spy",-11.397636892956978],["bully",-11.397684162097676],["Nad",-11.398199222108598],["nam",-11.39971404414746],["corrupt",-11.400993192341163],["mainl",-11.401631229094711],["leverage",-11.402913273730244],["Cro",-11.402920509650881],["communicat",-11.403043851065727],["forgot",-11.403534824324467],["afterward",-11.403572770011685],["Gate",-11.4036958134006],["Code",-11.403965880151786],["Tri",-11.404113559970424],["detain",-11.404680078825873],["Barne",-11.405375381895228],["Pl",-11.405647650745658],["plague",-11.40590738784615],["apped",-11.40610768987932],["withdraw",-11.406114448424798],["WAS",-11.406631264034427],["salt",-11.407249200204355],["Use",-11.40766092474606],["Dav",-11.4078282548679],["availabilit",-11.40806596065393],["Shah",-11.408664760835663],["ambitio",-11.408753640613552],["damag",-11.408885693125859],["1000",-11.408898299259217],["output",-11.40917274876781],["Direct",-11.410082566732648],["rob",-11.410857259472142],["Murra",-11.411346428513703],["ounce",-11.411909652122096],["apolog",-11.4122637171452],["servant",-11.412350299334584],["plug",-11.412444708543994],["isdom",-11.412632194812867],["robot",-11.412815463192835],["wire",-11.412936571051139],["certifi",-11.412971064418555],["Restaurant",-11.41297557347949],["cautious",-11.412975582152708],["awkward",-11.412975592463916],["purple",-11.412976205611297],["Organisation",-11.412976971178413],["Consumer",-11.412977565069536],["Fraser",-11.412977870181527],["devastate",-11.412985336734305],["competitor",-11.412995082450232],["Keith",-11.412995243183929],["filter",-11.412998432952433],["Dublin",-11.413007071391165],["collision",-11.41301101007704],["Hopkin",-11.413012303501743],["graduation",-11.413024236110763],["Bailey",-11.413028256559734],["Bennet",-11.413036951494378],["tighten",-11.413100240452478],["Liberal",-11.413100736174442],["protein",-11.41312637196581],["Larr",-11.413134984657862],["Peace",-11.413135547972457],["Mission",-11.413141714928718],["weaken",-11.41314874415321],["galler",-11.413152927616473],["contrar",-11.413164808062092],["excessive",-11.413172754287572],["Eight",-11.413209403798366],["childhood",-11.4132539285355],["disclosure",-11.41334269399605],["benchmark",-11.41335666324212],["organic",-11.413361420979967],["evacuation",-11.413411531881307],["pronounce",-11.413454322870942],["installation",-11.413507534712414],["froze",-11.413633413995969],["sandwich",-11.413653262574822],["Silver",-11.41389766278262],["withdrawal",-11.414225516696458],["rounds",-11.414284720316589],["eggs",-11.414291704396568],["Secret",-11.414424027781854],["Fisher",-11.414994157896405],["Grammy",-11.415130332757277],["nightmare",-11.415642271386027],["pole",-11.415791236526491],["inventor",-11.416088252125931],["directive",-11.416323275551754],["notification",-11.416386277323124],["median",-11.416554765567604],["enact",-11.417236628424698],["charter",-11.417608571931854],["controvers",-11.417828325134995],["remarkabl",-11.417974292275332],["owing",-11.41857872635881],["BT",-11.418878727865103],["04",-11.41893306133161],["motivate",-11.418944527927954],["unrest",-11.419055208879293],["Pope",-11.419642591059262],["fires",-11.419750723649349],["Beck",-11.420267243287222],["Carr",-11.420758056968696],["uri",-11.420866141840122],["trace",-11.42091693099101],["angle",-11.421529921243568],["Rams",-11.421964055790987],["Friends",-11.422010655039944],["farmer",-11.422179128182579],["litera",-11.422204582663028],["brave",-11.422299827047766],["bind",-11.422443869922942],["cott",-11.424348622818679],["quantit",-11.424595991886724],["pursuit",-11.424710267134913],["Les",-11.42509674601039],["exhaust",-11.425401219705002],["sink",-11.4255499219348],["Face",-11.425757018681164],["Poll",-11.427981747249133],["wrappe",-11.42820803669984],["spill",-11.428415709820067],["Fly",-11.428808855827912],["Victorian",-11.429459598310375],["Deb",-11.429613175885446],["flexib",-11.430438721956154],["indefinite",-11.430644477587109],["Cap",-11.430716029551231],["endless",-11.430871558025835],["pric",-11.431445604780386],["belonging",-11.43188323044215],["ray",-11.431904417745166],["Dame",-11.432158358948143],["rath",-11.432610956979037],["addresse",-11.432702280922266],["Portug",-11.432759657866812],["Kadu",-11.432791805735466],["Marine",-11.433432184953604],["alien",-11.434142611505605],["accommodate",-11.43442608084346],["Pre",-11.434573752299812],["trader",-11.435809840846407],["Lot",-11.436155185085752],["satisfie",-11.436640529703771],["Soft",-11.436955232179947],["allege",-11.437122862306492],["heim",-11.43762605831916],["contentio",-11.437922682921926],["Gi",-11.437981412824],["RS",-11.43809461438142],["Bright",-11.438538937601933],["aring",-11.438889076572018],["hom",-11.439171280978858],["riders",-11.441386381694],["deem",-11.441692824453641],["Histor",-11.442070803918945],["Eddi",-11.44227576730767],["utum",-11.442299782377814],["triple",-11.442551704727048],["Set",-11.44298149902136],["Gib",-11.443177165628745],["Winni",-11.44321992803356],["QB",-11.443627221121531],["Ted",-11.44372660506812],["peg",-11.44409381727398],["Azerbaijan",-11.444225573361939],["Jerusalem",-11.444225573406467],["explicit",-11.444225573856997],["glimpse",-11.444225574532474],["accurac",-11.444225586842673],["Soviet",-11.444225692141245],["pupil",-11.444226057949257],["immense",-11.444226386102233],["precise",-11.444227406119804],["gesture",-11.444232226705665],["explanation",-11.44423499078313],["Standard",-11.444269144046654],["licence",-11.444275580947021],["bishop",-11.4442786491294],["monster",-11.444279789881545],["jacket",-11.444281979336468],["blanket",-11.444297038626365],["linebacker",-11.444318840113954],["consultant",-11.444320556417855],["landlord",-11.444325115313553],["tariff",-11.444347420616761],["Metropolitan",-11.444359674548963],["Sub",-11.444367986131946],["intersection",-11.444370014494439],["commend",-11.444394797961142],["rifle",-11.444476620153408],["cousin",-11.444542527467274],["respondent",-11.444623525368794],["Golf",-11.44462414746683],["grandfather",-11.444645628091116],["flatten",-11.444842497127508],["Raider",-11.44484825348347],["adaptation",-11.444851671494474],["leap",-11.444927196240462],["grandmother",-11.445010588305836],["doubl",-11.445087998088644],["iving",-11.445193862718412],["mainstream",-11.445396784868331],["anonymous",-11.44548242324659],["Cash",-11.445665573479317],["anchor",-11.44576495670815],["terror",-11.446330937988424],["ierra",-11.446503126133571],["Prior",-11.446509547743076],["description",-11.446581384014817],["cock",-11.447212483636717],["conventional",-11.447365929229177],["kov",-11.447960820285175],["bay",-11.4481625412758],["Industr",-11.448261420471347],["indicator",-11.44852996037408],["PG",-11.448835132163538],["CoV",-11.448862536433184],["Mobile",-11.448902392391059],["aving",-11.449003079542802],["Char",-11.449139179192642],["AFP",-11.44940645943608],["LG",-11.450114115719478],["Clay",-11.450737777226514],["specialize",-11.450900731598674],["habitat",-11.45190937200418],["Shi",-11.452573232549849],["regain",-11.453695502822832],["Th",-11.453782537601036],["brick",-11.454339064437136],["Mills",-11.455519888452416],["municipal",-11.45624615164164],["cient",-11.456550754444553],["span",-11.456832455292245],["gent",-11.457187390950356],["consum",-11.457215200333],["CARE",-11.457443441481066],["Blas",-11.457613675989077],["110",-11.457685326608512],["Grow",-11.457839868528815],["Carlo",-11.458243448541722],["firework",-11.458280843201203],["outlook",-11.458579263957496],["flexibl",-11.459304512115526],["slip",-11.459597621831394],["Arn",-11.461402310075288],["sweat",-11.462519784415308],["OT",-11.463065645312447],["Gor",-11.464407363925199],["Bachelor",-11.464637655576453],["NEW",-11.465352177589017],["mock",-11.46553012614619],["evaluation",-11.465708644320966],["centur",-11.465961485932434],["upside",-11.467127234756246],["assumed",-11.467133600861098],["ladi",-11.467159417334372],["popp",-11.467333483487645],["linger",-11.467382476097558],["Hay",-11.46753664257856],["nmar",-11.467863388875482],["practic",-11.467881068546035],["ndeed",-11.469432379033123],["dishe",-11.469544222837698],["filling",-11.469623265610307],["opez",-11.470186164878715],["forum",-11.470199949499097],["assurance",-11.470370371142772],["Nash",-11.471262795091077],["Connell",-11.471354610097205],["Uganda",-11.471772019878076],["CAR",-11.472053453710414],["Na",-11.47245551547332],["illy",-11.472617640010483],["prioritize",-11.472904572319138],["onion",-11.473219926559267],["125",-11.47348571639252],["PF",-11.474190953992595],["lecture",-11.474638804354186],["Za",-11.474710398559955],["awful",-11.475461428866845],["Ukrain",-11.476452190582712],["Hurricane",-11.476483638130318],["Tesla",-11.476484554503545],["predecessor",-11.476485129076153],["clerk",-11.476486334287026],["Qatar",-11.476490227783255],["Arthur",-11.476494029560364],["convenience",-11.476497708839599],["Celtic",-11.47649808936849],["Ronald",-11.476506755245161],["Appeal",-11.476516264575658],["poison",-11.476516305902232],["Bernard",-11.476525730272101],["superhero",-11.476535510400348],["Gandhi",-11.476548833505252],["scholarship",-11.476629465159302],["Tower",-11.476630197345578],["recipient",-11.47663554707323],["telephone",-11.476661773774792],["chocolate",-11.476692762825737],["invitation",-11.476735133761178],["Ridge",-11.4767430415221],["Speed",-11.476761200058853],["Duches",-11.47685028952155],["possess",-11.476928624194386],["130",-11.47706896205393],["sequence",-11.477175533116199],["tonne",-11.477200062413845],["anuel",-11.477228565158988],["rocket",-11.477524006956708],["potato",-11.47754259849271],["exploration",-11.477639651705314],["Ven",-11.477914362114035],["Intel",-11.47801765821388],["epic",-11.478395299746786],["firearm",-11.478486237407695],["passport",-11.478824475761279],["achel",-11.479573808950104],["Nazi",-11.479742435528422],["prolong",-11.48011002014672],["makeup",-11.480194032519751],["Kids",-11.480194064319367],["salon",-11.48028997233724],["adoption",-11.48058813430596],["org",-11.481563505146031],["Gill",-11.481863870250855],["unnecessar",-11.48215473577289],["enix",-11.482400095681879],["revolution",-11.482641122693778],["Learn",-11.482664716835549],["CBD",-11.482711193274444],["Pri",-11.483074606694466],["grace",-11.483185799403628],["allocate",-11.484667796960974],["HING",-11.48545466007832],["Trans",-11.485969413317926],["traveller",-11.485978432453704],["amend",-11.486615275100094],["regulate",-11.487021156666877],["cement",-11.487637561243593],["boil",-11.48803396051893],["valuation",-11.488103772137348],["Holdings",-11.488272507827642],["Yea",-11.488357226004503],["Sign",-11.488417662484581],["Fred",-11.488677768070207],["ili",-11.488771714578101],["buri",-11.489382307076017],["surviv",-11.489405390942451],["cleaner",-11.489445723248698],["Snap",-11.489755920208829],["nderson",-11.489829320617867],["rebuild",-11.490125333176227],["birds",-11.490173971654853],["retreat",-11.490357045005002],["execute",-11.490551967206251],["inclusiv",-11.490740193094751],["HL",-11.491592752510291],["Pen",-11.491691132569166],["patch",-11.492501349729736],["hack",-11.492938471004209],["stack",-11.49303518375686],["Task",-11.494448067449431],["mont",-11.495823934510891],["fines",-11.496034379249632],["blog",-11.49604452789336],["Jimm",-11.496357115267092],["Pas",-11.496421110872841],["greet",-11.4969151147442],["Barry",-11.496988221757123],["Pate",-11.497072119387123],["etic",-11.49709386211822],["Jeffers",-11.497325190139609],["opener",-11.49743544086656],["240",-11.49830809194782],["horn",-11.499155427125437],["Penta",-11.499213804811799],["Penc",-11.499602335783287],["Edwards",-11.499943569693741],["patien",-11.500239308891622],["3D",-11.501707084957696],["hou",-11.50175018107802],["bane",-11.502842225468983],["Member",-11.502859273649682],["Mask",-11.504563920745515],["Palm",-11.504568203004142],["drag",-11.505004280309706],["Indonesia",-11.505137514780204],["TD",-11.505970695475819],["ethic",-11.505997931737447],["Der",-11.506539252769231],["pension",-11.506601832355077],["liqu",-11.506991341037288],["wrestl",-11.507015479402256],["taxi",-11.507231865772985],["buzz",-11.507432999492519],["loop",-11.507704629480918],["backup",-11.507761648230387],["Peters",-11.50810297487832],["Need",-11.508374145243666],["TE",-11.50875157950963],["evolution",-11.508760748150317],["qua",-11.508951080824687],["fortunate",-11.509158456223487],["testimon",-11.509616867506871],["distract",-11.509784916322635],["rib",-11.50979582982967],["wrist",-11.50980097133484],["Buttigi",-11.509816972721373],["Kashmir",-11.509816989888495],["delicious",-11.509816998771871],["frustrate",-11.509817023673296],["fascinat",-11.509817057037415],["horrifi",-11.509817078911004],["verdict",-11.509817133220348],["Hundred",-11.509817298931033],["Freedom",-11.509817419574611],["consolidate",-11.509818583192612],["bipartisan",-11.509820251686872],["cigarette",-11.509821134567083],["Embass",-11.509823644615969],["Derek",-11.50983486147465],["notorious",-11.50983780034249],["Expert",-11.50983930273601],["Sussex",-11.509839698395218],["bacteria",-11.509878959859158],["tropic",-11.509879663285014],["interception",-11.50988275530573],["tribal",-11.509883673760958],["doom",-11.509913993749084],["Cambridge",-11.509919001237572],["Alan",-11.509944255392902],["billionaire",-11.509973809708075],["golden",-11.510001331659783],["fierce",-11.510022963632196],["disciplin",-11.510032604863621],["queen",-11.510046381379786],["layoff",-11.510198750431858],["disadvantage",-11.510237759233675],["perception",-11.510292886975384],["tuition",-11.510351353456143],["stomach",-11.510388328317458],["Woods",-11.51044775827817],["endorsement",-11.510751396692362],["modifie",-11.510809694470202],["procure",-11.51082688838709],["Bir",-11.510859858100487],["Cohe",-11.510912550217014],["Stewar",-11.510972893163514],["payroll",-11.511213384503451],["bounce",-11.5112408860798],["fax",-11.511334046183167],["scores",-11.511407684395731],["Connor",-11.511640802557022],["profound",-11.511792621956497],["pardon",-11.511900678671244],["artificial",-11.51195808312208],["Universal",-11.512061771600614],["Living",-11.512313253473245],["Chase",-11.512953788602559],["propaga",-11.513067805257371],["Finn",-11.513660820460345],["plasma",-11.51374793195792],["smell",-11.51374842723614],["insult",-11.513826398616004],["censu",-11.514135363535418],["hardship",-11.514618237531534],["Rug",-11.515118893712465],["arena",-11.515300083709782],["hungr",-11.515437601496],["RT",-11.51565610984858],["aux",-11.515799375925388],["Ng",-11.516343415349837],["storyline",-11.516590994692523],["ork",-11.51683518957945],["leaning",-11.517254911225452],["casualt",-11.518013103117259],["penn",-11.518226775025992],["gal",-11.519213490082354],["Row",-11.51923887217126],["feeding",-11.519341101457357],["Hanna",-11.519500726583766],["dock",-11.520252016451442],["Crew",-11.520867073907873],["erry",-11.520915707372835],["Hero",-11.521002964880417],["negotiat",-11.521556003407305],["recogniz",-11.521709315053776],["memorabl",-11.522198522622423],["rban",-11.522529338749537],["intervene",-11.522873533239604],["questioning",-11.523076218783856],["shade",-11.523468701077434],["liter",-11.523676993821793],["Gr",-11.524222822022919],["oul",-11.52424759583112],["WW",-11.524656788109667],["Mart",-11.525434480480364],["Zi",-11.525613872302031],["journalis",-11.526041628772475],["Tele",-11.526149437922736],["Ward",-11.526594976834911],["blessing",-11.527215078675797],["asty",-11.527629223981585],["Critic",-11.52803686808166],["Ye",-11.528206006508041],["acute",-11.528280236886632],["laying",-11.528336355965855],["Off",-11.529682399221349],["Sharm",-11.53080675015561],["criticiz",-11.53171328063437],["proportion",-11.531853611986913],["PAC",-11.53187761835644],["nick",-11.532977141952998],["cia",-11.534542102216328],["tense",-11.535163617720643],["sville",-11.535403009528595],["Morris",-11.535742468523217],["keeper",-11.536395413094954],["stamp",-11.536508025702188],["Run",-11.537017462040975],["uperior",-11.537596398290715],["Bal",-11.538161321980331],["quo",-11.538934917941035],["?’",-11.53912752247739],["Dominic",-11.53913638260681],["Malawi",-11.540672318443901],["Kai",-11.540954698581604],["phenomen",-11.540963924358866],["Ros",-11.541075525813525],["Fr",-11.541269170025183],["smash",-11.541494109533993],["Gil",-11.541528336365225],["EX",-11.541630819350837],["Mario",-11.541770989570614],["ric",-11.541781314452844],["ration",-11.54178661976512],["scream",-11.542536125973092],["ophomore",-11.542719309078034],["WA",-11.543007598553281],["Ashle",-11.543270987313925],["Sal",-11.543718131084184],["oalition",-11.54396522821806],["excess",-11.544090598174739],["fool",-11.544124535906079],["lobby",-11.544214810104696],["akh",-11.544228240813327],["orbit",-11.54425015802412],["philosoph",-11.54426489132294],["horizon",-11.544286294382951],["legislator",-11.544299730280411],["Manhattan",-11.544299758099811],["Tanzania",-11.544299761256067],["Magistrate",-11.544299771519185],["companion",-11.544299830043986],["Chancellor",-11.54430020529976],["pedestrian",-11.544300289976675],["Disaster",-11.544301350697198],["hazard",-11.544304382148361],["Switzer",-11.544305459830893],["ordinance",-11.544310059094958],["depict",-11.544319180379745],["burglar",-11.544345820611834],["Progressive",-11.5443474540022],["motorcycle",-11.544362106635141],["skirt",-11.544384556855652],["temple",-11.544389030448052],["Multi",-11.544415261063271],["Retail",-11.544435750731393],["auke",-11.544452067590207],["Battle",-11.544464328193602],["distraction",-11.544488377720906],["Owen",-11.544651947507973],["resignation",-11.544682056239061],["tenure",-11.544693178987519],["tolerate",-11.544769062799615],["Rocket",-11.544823167555778],["Dog",-11.545044026389169],["Arena",-11.545132836077354],["attendee",-11.545224349884586],["reluctant",-11.545619352667774],["algorithm",-11.54562871848174],["attraction",-11.545746154312134],["mourn",-11.546120674674384],["artistic",-11.546428134890503],["snake",-11.54646343441948],["Quinn",-11.546473633461309],["arrange",-11.546614836364224],["uneral",-11.546726603882535],["Ave",-11.547177564263386],["cal",-11.547244872190157],["abad",-11.547533961869881],["Eye",-11.547729991160054],["medal",-11.54828574229086],["merit",-11.548325495102176],["Express",-11.548343405499867],["UCL",-11.548383113179908],["passage",-11.548413166889109],["drift",-11.548701125224838],["Delta",-11.549473340616963],["NE",-11.549479714129546],["hedge",-11.549694265625892],["modest",-11.550070739351883],["breakdown",-11.550351563368409],["spotlight",-11.550655591165143],["chairs",-11.550881230794854],["Nether",-11.551064086914167],["coordinat",-11.551115801697359],["corona",-11.551225253697567],["clue",-11.551283178284168],["dragon",-11.551481372207524],["Cloud",-11.551896753819278],["elli",-11.551963514915577],["dominat",-11.552066039686931],["SF",-11.55224496804927],["interfere",-11.552250773945637],["socio",-11.552724830053176],["Song",-11.552799408500524],["steadi",-11.553087072448372],["rig",-11.553253861275179],["Had",-11.553600959073702],["jet",-11.553649984388183],["IL",-11.553852410434603],["Colt",-11.554601676367962],["aked",-11.554636516723797],["hem",-11.554734499546543],["lore",-11.554766952738134],["HC",-11.556079069917057],["bearing",-11.55757951993629],["quot",-11.557734922001803],["transparent",-11.558334409951536],["vegan",-11.558989267813933],["densit",-11.559257586623387],["EA",-11.559654543152066],["jam",-11.55968109630016],["Communis",-11.56018480539958],["arch",-11.560443898261942],["Cod",-11.560608667326026],["bang",-11.561241519925435],["Bolt",-11.561418880981936],["learner",-11.561652889096258],["anticipat",-11.56242345185876],["ER",-11.563915896648226],["amp",-11.563973510643383],["Rangers",-11.563992828803105],["comm",-11.564334829628107],["ome",-11.564563177639041],["lend",-11.564613122196505],["Malt",-11.564858807381007],["parliamentar",-11.565536717704294],["risen",-11.566041510804213],["reinforce",-11.566141164909338],["lean",-11.566245736248217],["undertake",-11.566309256159066],["Steel",-11.566434435769791],["troll",-11.566649295301985],["Grande",-11.567067099649154],["mal",-11.568059094242855],["beer",-11.56820867216128],["SB",-11.568272925043726],["Abdul",-11.568531755720171],["loyal",-11.569319346982496],["beside",-11.571080928628135],["Wonder",-11.571110170567042],["traveler",-11.57123393671626],["Elle",-11.571347973991065],["CP",-11.571352548455103],["patrol",-11.571885662359156],["HB",-11.572657527763058],["aging",-11.57303244014237],["LGBTQ",-11.57363280131085],["105",-11.573696323981475],["roadway",-11.574041568515934],["banne",-11.574062515084066],["palm",-11.574210684786916],["poet",-11.574493659127231],["rub",-11.574604701825594],["ians",-11.574759266589806],["acknowledg",-11.575210536359533],["Mitch",-11.5754883064995],["mic",-11.576244222084862],["stepping",-11.576738788556622],["cooperate",-11.576957223245056],["ile",-11.577831236922165],["Margar",-11.577884407217079],["Command",-11.578352356853372],["Sim",-11.578416364944806],["ntelligence",-11.578688489949101],["slave",-11.57870139103785],["Hog",-11.578768167496586],["violate",-11.579170379071133],["Mahara",-11.579288895222819],["Egypt",-11.57998538862229],["‚",-11.580014015546372],["Kardashian",-11.580014016515932],["Athletic",-11.580014022499022],["referendum",-11.580014207273443],["delegate",-11.580014463028736],["Abdullah",-11.580014539113531],["terrifi",-11.580015160732096],["Reynold",-11.580015363166776],["homicide",-11.58001590641748],["Regard",-11.580016450600208],["Climat",-11.580017140000145],["Criminal",-11.580018253196961],["ceiling",-11.580019232408452],["perceive",-11.580019262931373],["cliff",-11.580024653844955],["libert",-11.580024655840436],["architecture",-11.58002620677916],["demographic",-11.5800329349285],["Chuck",-11.580035825415152],["Private",-11.580036967695191],["irmingham",-11.580037418208587],["summon",-11.58004054070014],["beverage",-11.580055106869047],["sauce",-11.580063561327023],["Inspector",-11.580063725147614],["steep",-11.58008760069687],["classifie",-11.58011931291442],["Ghanaian",-11.5801544434155],["Draft",-11.580215210007168],["Round",-11.580224371926588],["Deep",-11.580319498325306],["Clair",-11.580440923739763],["Comic",-11.580444006866621],["wireless",-11.580444541673744],["compil",-11.580500850748992],["McDonald",-11.580688792933277],["rumour",-11.580714024853815],["Political",-11.58073916510632],["Token",-11.580759092971842],["recreation",-11.580799660691248],["SUV",-11.580943937443342],["setup",-11.581019062750652],["domain",-11.581029744120798],["Gates",-11.581042555074726],["uck",-11.581251036894677],["Native",-11.58137154908847],["alternate",-11.581541878750176],["renewable",-11.581803465253307],["Richards",-11.582308560052745],["keyboard",-11.582623964607063],["pleasure",-11.583269173384224],["magical",-11.583768165846575],["demo",-11.583860866433653],["Clare",-11.584139582883328],["oming",-11.58416630087052],["Apart",-11.584327805841138],["transmitt",-11.584523971981183],["NR",-11.584588518987932],["Ellis",-11.584661677131393],["RBI",-11.584871995339878],["underground",-11.585435884737457],["portal",-11.585575151337242],["escalati",-11.585622608863114],["tube",-11.585651804069506],["Brooks",-11.58568491051103],["Burk",-11.585949486447715],["ghost",-11.58620057510374],["luth",-11.586219386167699],["ood",-11.586748926941642],["logg",-11.586901335483702],["Hans",-11.587538233187313],["upload",-11.58757170129],["prevalen",-11.588083611920386],["comprise",-11.588124697384137],["Him",-11.588166523345862],["disturbing",-11.588238257273284],["FF",-11.589189045219605],["Personal",-11.589541916222517],["Independent",-11.589930475722086],["accidental",-11.590049080075783],["inequalit",-11.590241108410883],["Bald",-11.590466997754527],["dam",-11.590538813543313],["rque",-11.591447887939356],["foresee",-11.592224159514696],["relieve",-11.592860431464356],["Arsena",-11.592942736242014],["mendment",-11.593076595928427],["honey",-11.593139519980202],["Shore",-11.593266969901045],["criticize",-11.59332595393943],["pharmaceutical",-11.593695287975017],["trait",-11.59390228711653],["eau",-11.593991788836103],["plunge",-11.59436818364571],["Ric",-11.59539528278322],["Gun",-11.595456150495604],["subscribers",-11.595586108428922],["replac",-11.596501497259013],["ector",-11.596848830836189],["Shan",-11.597271188570673],["pile",-11.59734946329378],["Corn",-11.59770615376694],["innat",-11.597873029671522],["Bro",-11.59896861413853],["backyard",-11.599251352241726],["operative",-11.600171489756715],["server",-11.600341572890907],["Pun",-11.601529565567212],["Dad",-11.601821187082793],["rip",-11.602493222900565],["Brie",-11.603017021088172],["DF",-11.603410512918419],["FO",-11.603442404627717],["Beyon",-11.603682203964263],["nav",-11.604201502061652],["reads",-11.604280421791312],["Leed",-11.606384707986326],["consume",-11.607060946726513],["Fan",-11.607344538457484],["Connecti",-11.607973007359845],["liance",-11.608336685327279],["Dund",-11.608730471022252],["vard",-11.609406188281532],["Terr",-11.610639313816817],["Daw",-11.61080248645946],["Fift",-11.611019835696904],["expire",-11.611315653434918],["fitting",-11.611416183710263],["Patt",-11.611918699153982],["Boss",-11.61198775413872],["IG",-11.612052673156178],["translate",-11.612084851020315],["sustainab",-11.612098911500013],["RC",-11.612146117324592],["Pod",-11.612949823933986],["Benja",-11.613152779629306],["lian",-11.613261732276193],["Sale",-11.613540390478072],["pel",-11.614300470539092],["thru",-11.614372611857913],["nik",-11.614379735304137],["chant",-11.614689710088895],["AR",-11.614991209086504],["governors",-11.615699726938999],["PT",-11.615905458033236],["locker",-11.616370875803756],["rystal",-11.616677856803083],["chronic",-11.616725632717213],["Pharmaceutical",-11.617051052593833],["Legislature",-11.617051052606616],["Elliot",-11.617051125791848],["militia",-11.617051127484718],["Oklahoma",-11.617051143095301],["Cricket",-11.617051181802918],["Scientist",-11.617051190025617],["Relief",-11.617051308444116],["threshold",-11.617051807492198],["summit",-11.61706686730323],["interference",-11.617068469493569],["Tamil",-11.617076732239855],["pleasant",-11.61707829533324],["undoubted",-11.617104186684525],["Leonard",-11.617107549994547],["Thousand",-11.617115254600384],["execution",-11.617129665313644],["Voice",-11.617147236619138],["booking",-11.617158772902847],["creature",-11.617164411332105],["brook",-11.617176269198646],["referee",-11.617179231833251],["Rapid",-11.617190493395263],["tunnel",-11.617197688289924],["activate",-11.61721017333495],["Dennis",-11.617212241270789],["absorb",-11.617217469659415],["curious",-11.617242464254796],["flip",-11.617252380955563],["shadow",-11.617316758718188],["Bradley",-11.617319172792406],["Warrior",-11.617423972537052],["existent",-11.617578164687142],["Karen",-11.617719204187479],["detective",-11.617727947016995],["approv",-11.617814639123388],["McCart",-11.617836232621507],["intensit",-11.617893599497322],["Beth",-11.617980661187612],["Switch",-11.618094019384221],["midfielder",-11.618124754582157],["Semiti",-11.618192735290112],["diplomatic",-11.618448906422971],["Level",-11.618509702068971],["Lind",-11.618720781824539],["Kati",-11.619029369528585],["litre",-11.619246632356864],["dubb",-11.619250420415826],["recreational",-11.619456065350262],["varie",-11.619749554119487],["Villa",-11.619883839423132],["woke",-11.620148373668798],["frank",-11.620404945033231],["Sanch",-11.620499537368845],["fundraiser",-11.620556972019044],["Julie",-11.62065313123621],["contributor",-11.620919050972345],["Sel",-11.620952836510467],["Fish",-11.621460495549169],["bow",-11.621725620051528],["mortalit",-11.62198915481826],["Todd",-11.622088832985241],["Yu",-11.622926168287908],["Fla",-11.623213603596536],["workshop",-11.623744423828699],["database",-11.623804162992466],["Mir",-11.624522628672503],["lick",-11.626589206729069],["Wind",-11.626993705997506],["Shares",-11.627304442518916],["presum",-11.628123693597791],["….",-11.628138504339496],["Edward",-11.628267580032695],["tablet",-11.628801530510897],["attacker",-11.628967422152503],["faction",-11.629318036722012],["Aid",-11.629478908783838],["Rad",-11.630687741619877],["tease",-11.631219043048615],["Worker",-11.63151912683327],["harsh",-11.631859553567176],["Glas",-11.63307838246942],["Mau",-11.633548743925926],["outrage",-11.633604044728555],["Jane",-11.634061162682405],["iku",-11.634335236367608],["pos",-11.634402281253983],["orange",-11.6344572741873],["dense",-11.635369798419521],["ports",-11.63549643370744],["Trini",-11.636060728523802],["borne",-11.636268405303456],["Room",-11.637244397822174],["Redd",-11.637404166098097],["poke",-11.638042069621692],["chains",-11.638192931059885],["arth",-11.638335489117244],["undermine",-11.638635872839767],["spare",-11.638823477839882],["northeast",-11.638852262569582],["imagin",-11.638893831360111],["Between",-11.63940357323318],["SG",-11.63945192390745],["Win",-11.639600477204485],["hoped",-11.639736237458683],["Stop",-11.639798279698937],["correction",-11.640420200444884],["retir",-11.640582100735157],["ima",-11.64068418728343],["soup",-11.640721504693687],["CIA",-11.640722602262912],["captur",-11.641022977953666],["trap",-11.64114257740324],["PO",-11.641206429149747],["á",-11.641319363167177],["melt",-11.641581224355155],["Rash",-11.641987617415246],["cca",-11.64249433039667],["Suga",-11.64298100938884],["170",-11.642989187893495],["scrap",-11.643219381391358],["inder",-11.643417466478011],["istic",-11.643437164927459],["uch",-11.645383263809462],["cappe",-11.645567550987396],["escap",-11.645800753281506],["CR",-11.6459554225527],["Ful",-11.645988257674684],["ack",-11.646044650486013],["Cas",-11.646336064015678],["logy",-11.646882368969019],["Frankl",-11.647889562421817],["HP",-11.647926525692156],["pie",-11.648140406816779],["loser",-11.648141995183613],["Wats",-11.648863409756466],["Sound",-11.649135614519318],["Environment",-11.650037813147467],["Industrie",-11.650346811932371],["Malaysia",-11.650869064305251],["Armenia",-11.651026212521272],["tribe",-11.65128726303966],["Mars",-11.651318001109516],["elve",-11.651880949981678],["Tra",-11.652154795092953],["Try",-11.653036015010814],["Want",-11.653572039253305],["monument",-11.65424820402825],["teenage",-11.654387807833677],["Trail",-11.65445349339657],["lev",-11.65460080300363],["Jur",-11.654603288778105],["Neil",-11.65463528966836],["Kur",-11.654910907340728],["exploitati",-11.654951839002777],["embark",-11.655425559452356],["„",-11.655512591044946],["¦",-11.655512591044946],["explosive",-11.655512591058267],["neglect",-11.655512591243065],["frequenc",-11.655512594088309],["pneumonia",-11.655512617025167],["Lloyd",-11.655512622173319],["scratch",-11.65551268039997],["decisive",-11.655513367202351],["Abbott",-11.655513523837246],["occupation",-11.65551355754766],["frighten",-11.655514182014272],["fragil",-11.655522198976927],["Ky",-11.655533096644247],["electorate",-11.655536591628756],["submarine",-11.65553715798677],["Third",-11.655539848127535],["Emirate",-11.6555448302366],["Dutch",-11.655555063150207],["Jazz",-11.655557253287512],["emoji",-11.65556336800071],["Cowboy",-11.655565546647251],["vasion",-11.655575628483337],["speculation",-11.65557865449271],["precious",-11.655581295408057],["verify",-11.655582536721244],["powder",-11.655599740714992],["fluid",-11.655606086240663],["Cyber",-11.655655107526858],["cattle",-11.655691938263486],["intellectual",-11.655714731961188],["limb",-11.655718573788882],["valley",-11.655736534684232],["Revenue",-11.655839310516757],["Few",-11.65590138916513],["comedian",-11.655910528391425],["whale",-11.65599967385248],["imprison",-11.656006367073953],["Carolin",-11.656024527376262],["Township",-11.656238875404766],
[...]
