{"version":"1.0","truncation":null,"padding":null,"added_tokens":[{"id":0,"special":true,"content":"<UNK>","single_word":false,"lstrip":false,"rstrip":false,"normalized":false},{"id":1,"special":true,"content":"<SEP>","single_word":false,"lstrip":false,"rstrip":false,"normalized":false},{"id":2,"special":true,"content":"<MASK>","single_word":false,"lstrip":false,"rstrip":false,"normalized":false},{"id":3,"special":true,"content":"<CLS>","single_word":false,"lstrip":false,"rstrip":false,"normalized":false}],"normalizer":null,"pre_tokenizer":{"type":"Whitespace"},"post_processor":null,"decoder":null,"model":{"type":"Unigram","unk_id":0,"vocab":[["<UNK>",0.0],["<SEP>",0.0],["<MASK>",0.0],["<CLS>",0.0],["s",-2.6957940584899838],["a",-3.2602782561597454],["e",-3.420073033112306],["t",-3.5319712527058122],["the",-3.7461886968874847],[".",-3.799317424785336],["d",-3.8634487585301667],[",",-3.8746488020178784],["o",-3.9418681011179455],["i",-4.112561140050223],["in",-4.123616798874192],["r",-4.158375797420712],["to",-4.1913940700459005],["n",-4.2651573044456175],["l",-4.364067282979887],["ing",-4.37254423050288],["and",-4.406347240639084],["ed",-4.438118504946791],["p",-4.440685881981768],["of",-4.513235026630349],["y",-4.558731062605531],["m",-4.60142282417341],["c",-4.611146981811775],["re",-4.658547080864741],["b",-4.666267555113741],["on",-4.693067224846406],["is",-4.8332740680281745],["it",-4.862126029190392],["g",-4.878073878509847],["f",-4.921634521207553],["an",-4.966557714525209],["h",-4.971109266113599],["al",-5.060951286530871],["u",-5.062562455458707],["at",-5.078303568205081],["or",-5.126659614651723],["er",-5.174365167623968],["’",-5.243860549448945],["-",-5.2743975922422415],["for",-5.2750896332185295],["I",-5.341871328335596],["w",-5.343134539326481],["ly",-5.363874417555296],["ar",-5.364042044816472],["that",-5.387463226825792],["A",-5.412927338977919],["S",-5.447426620644126],["be",-5.482092010487257],["The",-5.510289783432963],["k",-5.583199686283404],["le",-5.618005717974478],["C",-5.649981621424425],["with",-5.674574266954007],["M",-5.7173966995354135],["“",-5.835472587480748],["ch",-5.851523806847753],["P",-5.868093390781226],["was",-5.877026491501809],["he",-5.944637191409452],["B",-5.954299814885326],["v",-5.978421788638903],["are",-5.979358929290344],["'",-5.986882598780481],["ic",-6.014226056575135],["ur",-6.0379618119442675],["un",-6.043080263123697],["aid",-6.054490330214504],["D",-6.05699321029034],["have",-6.111387304597015],["T",-6.114830642043989],["E",-6.125846897426504],["has",-6.169805460160893],["ment",-6.173869533700284],["ent",-6.189006431083618],["G",-6.190189997032219],["all",-6.193475984495171],["ation",-6.196756748593614],["me",-6.2025234522596815],["we",-6.216508367859763],["F",-6.231517092994682],["H",-6.24443729705648],["ion",-6.258403673867933],["from",-6.269586230241034],["us",-6.280061143300351],["2",-6.29219731321686],["by",-6.294624168121722],["not",-6.315327130266445],["ive",-6.326450029907345],["im",-6.328383975621502],["out",-6.332136941721531],["will",-6.337942962398042],["ex",-6.346770133568482],["\"",-6.348953233360811],["up",-6.359954011277372],["th",-6.387924063894085],["ve",-6.393458465479792],["O",-6.408066691503475],["N",-6.416283943671639],["L",-6.426692985467323],["ies",-6.447716913655066],["his",-6.468422840713409],["ce",-6.468518650478172],["one",-6.470735733617568],["R",-6.481356667378858],["ers",-6.484144494850076],["this",-6.504094689607889],["pro",-6.505228144044617],["W",-6.509052603356812],["1",-6.532867426716184],["con",-6.53827092702946],["you",-6.5427788507465685],["her",-6.579495605689745],["if",-6.592922968066754],["ck",-6.598240042171151],["our",-6.610811657917907],["but",-6.611400375011394],["K",-6.612517048781774],["3",-6.626161057098191],["vi",-6.626982586778382],["am",-6.631931483879248],["co",-6.6330375629174885],["their",-6.635443615099437],["end",-6.642057683452881],["age",-6.654004020771318],["who",-6.660305583457699],["per",-6.665771799141398],["est",-6.699111665558835],["ter",-6.707646892032216],["z",-6.734317292005699],["4",-6.739540714049934],["ul",-6.74180795314135],["ge",-6.753179432333022],["other",-6.767816564815275],["been",-6.772640389673965],["5",-6.783202942864952],["can",-6.783365592712778],["j",-6.791726194680299],["In",-6.8049116850702465],["8",-6.822229494500913],["x",-6.824388824133987],["um",-6.841639072727235],["time",-6.856877330985595],["had",-6.858490790262989],["over",-6.860857246674062],["(",-6.863554324089948],["more",-6.87046421672283],[")",-6.874630717333691],["man",-6.874743751909206],["were",-6.877470722326995],["they",-6.877608857148163],[",”",-6.885363565286049],["U",-6.8967350425551786],["com",-6.905479144730821],["ill",-6.907628037918803],["0",-6.91303448989645],["20",-6.919597968420273],["19",-6.937502968636293],["go",-6.942848931189159],["work",-6.953744086597318],["ity",-6.960389210583088],["ke",-6.961652379828234],["6",-6.967535069579435],["people",-6.968188040567494],["also",-6.97317475719173],["about",-6.975591139836315],["able",-6.98913359725025],["day",-6.996196774468146],["new",-6.9996783466151875],[":",-7.002459312176718],[".”",-7.019983677385065],["V",-7.027853663276357],["ever",-7.051344475231156],["ear",-7.05387650449857],["J",-7.064571215676702],["which",-7.065047868143262],["way",-7.068932539876835],["7",-7.071064248333499],["tion",-7.074964901526746],["We",-7.076336457462006],["ance",-7.083361197761299],["He",-7.095202007100445],["like",-7.09608150642001],["tra",-7.100179639887672],["part",-7.101418800709762],["Co",-7.110251080738612],["9",-7.113216340720509],["would",-7.118828414238655],["qu",-7.130295215293065],["ally",-7.138440138111239],["ence",-7.1424718974647465],["”",-7.1442173560629705],["year",-7.148696336560761],["some",-7.173475376532695],["gu",-7.182221151474847],["she",-7.207076539996484],["after",-7.214194530109408],["get",-7.223458063200649],["iv",-7.224296062826962],["state",-7.224405509755428],["cent",-7.243329467476009],["Ch",-7.248183393726489],["old",-7.253180844527327],["hi",-7.253628410176367],["when",-7.254490268509102],["than",-7.272055151229877],["just",-7.276071775414218],["ell",-7.285471071493985],["ard",-7.313812823511601],["ten",-7.318684967675075],["ner",-7.343346027032139],["ary",-7.347255688488303],["play",-7.347947995313256],["what",-7.353298486838757],["ru",-7.3548394290741],["ide",-7.355057836997716],["$",-7.358026125849221],["?",-7.358026125849221],["come",-7.361224579114417],["any",-7.3702299010899255],["tri",-7.371994029906264],["back",-7.372899530305865],["now",-7.380343719674408],["say",-7.3870668340876176],["own",-7.390866083846676],["ail",-7.399864656324006],["ical",-7.401231092335238],["Re",-7.409260460896796],["take",-7.411487044739971],["my",-7.42379014499587],["line",-7.437131593410455],["Ma",-7.452122466495493],["two",-7.452634069469731],["first",-7.454928444983163],["off",-7.4576192256878],["see",-7.458413478112778],["ction",-7.46252351035122],["how",-7.464136104553795],["add",-7.471146825881129],["pri",-7.475880129917663],["make",-7.482286283383171],["down",-7.4829426408130875],["—",-7.4912411344630785],["cause",-7.506211791054906],["air",-7.507757354788969],["week",-7.513770515320527],["inter",-7.519180063336052],["pre",-7.525193326489539],["thing",-7.528515011832292],["know",-7.529585636829031],["even",-7.54150561087982],["could",-7.546544098139981],["long",-7.554032836340554],["need",-7.567561292137076],["most",-7.576842935605866],["him",-7.579900844220768],["ous",-7.583259328274399],["igh",-7.5923568833015755],["last",-7.59407025974051],["ick",-7.596094757821273],["your",-7.596563023919708],["act",-7.601352319732252],["This",-7.605774539016727],["there",-7.6130080789883525],["But",-7.613789792847879],["app",-7.6149716127696125],["De",-7.624822239254245],["test",-7.625593797150401],["St",-7.631742347128734],["ut",-7.6339937809411405],["its",-7.636317289212671],["low",-7.636492237426717],["report",-7.640604067367321],["use",-7.64065371398993],["side",-7.650394801011136],["ask",-7.65093321969713],["gra",-7.654268940192443],["hose",-7.654938893419112],["each",-7.65692521321084],["tic",-7.669730648036591],["home",-7.670555789571539],["rate",-7.671520870027989],["ial",-7.67656206762801],["comm",-7.685227225033111],["ture",-7.69118659142612],["vo",-7.704570250940651],["pol",-7.708931149107456],["through",-7.722912220864773],["them",-7.726358952026253],["whil",-7.729847820750721],["00",-7.732336848029046],["ound",-7.733317894260994],["port",-7.734606768849987],["ish",-7.734625522415385],["late",-7.7368578331777025],["ook",-7.74196276293101],["form",-7.742226275636129],["where",-7.749128050452917],["ize",-7.756077836636659],["No",-7.757451434587096],["during",-7.758007782863361],["want",-7.758166844315249],["show",-7.761025610307771],["high",-7.764582773409526],["tru",-7.765513849417761],["Mar",-7.766067361854922],["Br",-7.767395084312723],["ver",-7.773680781286746],["000",-7.778398404832433],["did",-7.7787583523112405],["che",-7.781822557774457],["many",-7.7886015969144715],["plan",-7.792736080975717],["well",-7.794879649803729],["Al",-7.799034112908612],["row",-7.799664823635215],["help",-7.800888404825549],["10",-7.813094823498923],["call",-7.8198221116855615],["every",-7.827109431059316],["being",-7.8282836532869045],["government",-7.838202918652761],["On",-7.840384015358493],["And",-7.840695966119679],["under",-7.846189948088402],["Ro",-7.847166006764881],["very",-7.847483057367935],["look",-7.859766330275677],["public",-7.861045147302901],["going",-7.863819545395727],["%",-7.866695834188143],["COVID",-7.867262727763264],["mar",-7.867649690691157],["before",-7.871529829976981],["should",-7.88730983896743],["place",-7.891578274755636],["start",-7.89226837634707],["Ju",-7.892684093066141],["game",-7.895017321805516],["right",-7.895672718013173],["So",-7.8965616150324625],["point",-7.897753593550682],["amp",-7.9005253488891505],["car",-7.905618763662963],["ward",-7.907273670349658],["years",-7.909772080745064],["tory",-7.920933536905414],["health",-7.923339169792309],["–",-7.925038418632065],["spec",-7.925154565773491],["ious",-7.9299669598968725],["ful",-7.934251885586764],["leg",-7.9348104198118214],["ugh",-7.934977140734516],["For",-7.938979896027205],["New",-7.944750444547942],["person",-7.946816528980851],["month",-7.947407732371296],["team",-7.951722185720129],["put",-7.953340175448418],["agains",-7.9700159485006346],["Trump",-7.972404566040402],["lot",-7.974623751784435],["rac",-7.983887922534442],["An",-7.986414015272382],["een",-7.986748480324046],["resident",-7.988042067777915],["open",-7.992877068601354],["sign",-7.993175843216713],["gan",-7.9949025548944075],["Y",-7.995533631817267],["made",-7.996769892300429],["less",-8.001472976997027],["coronavirus",-8.005707154124329],["still",-8.006999382611973],["may",-8.011487761970056],["sure",-8.01150327155188],["support",-8.015031325170341],["‘",-8.016181860283108],["She",-8.023780393501692],["qui",-8.025795869136156],["three",-8.031297713186019],["count",-8.031305168910526],["2020",-8.033806846450059],["ber",-8.042393315950413],["lie",-8.042885853373827],["think",-8.046612078852927],["change",-8.05360996042862],["into",-8.061144349883847],["Le",-8.061735798002942],["share",-8.078496134612944],["cap",-8.081570776620678],["though",-8.086416401714867],["mil",-8.088797723466394],["ative",-8.089898666178858],["member",-8.097830000719553],["million",-8.100693982185362],["self",-8.102807020642896],["good",-8.109294919574154],["country",-8.118839254190636],["hop",-8.120714764487861],["came",-8.12340349910203],["pandemic",-8.12597658026278],["try",-8.13158544143222],["event",-8.13216056986954],["ness",-8.133272912605698],["number",-8.13782500384032],["much",-8.138422901337913],["head",-8.139280340096235],["ship",-8.140030428819788],["care",-8.142574107238367],["You",-8.145006073604547],["continue",-8.146009266559986],["/",-8.150512701878004],["life",-8.152867877104786],["move",-8.153054059524603],["school",-8.156556050475317],["close",-8.1582209982936],["around",-8.165931228537868],["season",-8.166633543294617],["does",-8.170282109158919],["law",-8.17711986508812],["ric",-8.18816508478533],["order",-8.18844643250847],["business",-8.188876222940838],["office",-8.189778815928966],["view",-8.19521643576196],["cur",-8.199044918817458],["America",-8.201487576515678],["such",-8.205176904619126],["light",-8.205189357398051],["world",-8.211049514488138],["since",-8.226079308842955],["follow",-8.229586850685733],["national",-8.23274336848731],["State",-8.23426481918326],["police",-8.234489205151345],["lock",-8.237482503392968],["company",-8.239439214971318],["ather",-8.244527394896084],["trans",-8.248325842503268],["communit",-8.255521203865836],["cover",-8.262445518043243],["service",-8.262719177115645],["family",-8.277994356767408],["That",-8.279143463969831],["issue",-8.28774346411647],["Z",-8.29262968444597],["How",-8.29775283178568],["including",-8.298725410018033],["press",-8.30331898290189],["direct",-8.308793547271545],["pass",-8.314046424003244],["big",-8.325372727437053],["next",-8.329549178397823],["ember",-8.331365041147375],["hold",-8.33404253270924],["30",-8.342614706253334],["ready",-8.344615441453517],["allow",-8.347035421461644],["night",-8.34713995589276],["death",-8.349173818265607],["face",-8.350248224963828],["etween",-8.35175377228914],["second",-8.359296935273557],["provide",-8.359986218428153],["creat",-8.361261495650382],["virus",-8.361340003287948],["official",-8.361783432638237],["found",-8.372485679695078],["expect",-8.385297785120505],["both",-8.385779122479208],["50",-8.386724711174708],["base",-8.387972951657872],["econom",-8.401756180597317],["present",-8.407859463562046],["post",-8.409065892310986],["feel",-8.410790615582332],["keep",-8.410813304024924],["fact",-8.411580760307977],["pose",-8.413669623795133],["group",-8.415269475875984],["few",-8.418733940728107],["buil",-8.419256168089024],["12",-8.41991119408895],["!",-8.422140651061323],["social",-8.42218129485228],["same",-8.422617528907704],["mission",-8.42268688267797],["great",-8.425612927644833],["student",-8.426101951346524],["vote",-8.428614753630429],["15",-8.435132051650232],["pay",-8.435597112597497],["serve",-8.443748424231607],["current",-8.448206872890886],["ncy",-8.461392019304515],["love",-8.464886614435853],["Q",-8.470708613550109],["break",-8.472848853653716],["case",-8.474412831159455],["President",-8.481561930271617],["remain",-8.483531020334912],["result",-8.492843632512582],["power",-8.495033673411477],["16",-8.501054534633624],["develop",-8.502306846042464],["lead",-8.503908469606507],["special",-8.513304386681316],["operat",-8.51428452365069],[";",-8.516315664508383],["different",-8.516315682455737],["safe",-8.517675141490741],["log",-8.518067677581273],["election",-8.521591933876804],["large",-8.524833014705074],["Friday",-8.525037351907251],["quarter",-8.526160820117148],["market",-8.526202316925545],["list",-8.539545605604502],["date",-8.54436017174778],["clu",-8.547184960676237],["friend",-8.549425228401324],["Pro",-8.55039645834273],["turn",-8.55614525410983],["release",-8.55748609056636],["include",-8.558492237138296],["system",-8.561830857224853],["employ",-8.564102579693106],["road",-8.564424606291727],["announc",-8.56524209890381],["full",-8.571215764011997],["local",-8.575787146408917],["house",-8.580355738809958],["happen",-8.582491480645452],["hav",-8.596944015478787],["When",-8.60508183610695],["fire",-8.605822821564567],["product",-8.610817916131758],["abilit",-8.613122983290907],["fund",-8.620589101727372],["level",-8.624481216274518],["free",-8.626937020484736],["clear",-8.628121005543463],["etting",-8.631491770274552],["receive",-8.633851824080494],["record",-8.635094774588213],["hospital",-8.637291548043786],["left",-8.653221777134128],["South",-8.656440783541345],["according",-8.66460548684324],["body",-8.669880086678997],["…",-8.684949430662371],["job",-8.688713403713129],["final",-8.693955760581916],["India",-8.702329987000391],["believe",-8.70706314036269],["film",-8.70715402062125],["Monday",-8.708516758470692],["What",-8.708793409540021],["program",-8.714983667405544],["uff",-8.715032068241035],["better",-8.716059197620249],["claim",-8.71897572478195],["until",-8.719011589741475],["position",-8.720250037543607],["past",-8.7213550714992],["trade",-8.722931500160303],["media",-8.733549350992387],["children",-8.73905233832282],["talk",-8.739914233791529],["source",-8.741658956511685],["might",-8.746773407827959],["With",-8.754927914364497],["X",-8.762372994982671],["increase",-8.762379225066658],["infect",-8.774226070077962],["County",-8.774947262544696],["process",-8.776432729474951],["question",-8.77778085588507],["elect",-8.782044535638631],["room",-8.785683359285512],["information",-8.787780831062397],["Whil",-8.791520200872963],["project",-8.7962542899471],["Thursday",-8.799126525495609],["learn",-8.799461438872306],["important",-8.8020114108111],["positive",-8.809258125535],["decision",-8.810713038152645],["again",-8.81311099481525],["mode",-8.813495563974751],["&",-8.815091745333161],["making",-8.816679394578605],["spread",-8.818267842446453],["John",-8.823919474646798],["Tuesday",-8.829830593363637],["video",-8.830161159642842],["charge",-8.831617660010714],["Health",-8.832884225109137],["patient",-8.835807301463113],["water",-8.836289868241659],["Sunday",-8.83734984027355],["Saturday",-8.840278760679805],["class",-8.840428726216171],["experience",-8.841779971780568],["food",-8.843666268671358],["major",-8.844808341044171],["women",-8.849348434458417],["money",-8.853730777234254],["effect",-8.85539580937204],["short",-8.856966273066753],["consider",-8.863285115000519],["little",-8.864665165510745],["require",-8.867980429897376],["staff",-8.869227995408815],["together",-8.870931845827432],["possible",-8.872293184738158],["future",-8.872446093786076],["front",-8.875620586643699],["fight",-8.878136882660801],["concern",-8.878522518421498],["ization",-8.880356570178407],["certain",-8.886345235191524],["protect",-8.888529039290129],["travel",-8.894555097889633],["Wednesday",-8.906969625980317],["United",-8.910193308299972],["field",-8.918281554203267],["agree",-8.922855839793634],["parent",-8.93271774871434],["author",-8.9462505789763],["industr",-8.948024929620399],["avail",-8.948394399285458],["investigat",-8.963043783263386],["control",-8.968147686735168],["National",-8.980396056765848],["After",-8.98052077680599],["North",-8.983469926689454],["campaign",-8.999317050682455],["period",-9.00644845196824],["Police",-9.008158287117094],["complete",-9.01170884068754],["Democrat",-9.013489117042397],["third",-9.018994396377966],["attack",-9.020747141608346],["problem",-9.022454366007944],["further",-9.022512732322035],["measure",-9.035392728756346],["York",-9.037023251614206],["strong",-9.038803712874987],["effort",-9.040912607341783],["Covid",-9.042660327386198],["involv",-9.048002647546662],["venue",-9.048894662728014],["impact",-9.057351375918547],["Biden",-9.05940780783712],["deliver",-9.062909003997788],["Africa",-9.064763628045231],["spoke",-9.093453201507554],["Black",-9.095258838238697],["firm",-9.097329919099717],["situation",-9.099187518168417],["confirmed",-9.112841703751545],["security",-9.116776670349001],["focus",-9.11879339879883],["previous",-9.122732880512194],["Universit",-9.12471476703605],["mount",-9.129151610623953],["famili",-9.131191676713334],["opportunit",-9.136751132702859],["success",-9.138771498077293],["compet",-9.147008209903017],["Minister",-9.150988386464917],["access",-9.151009186363027],["distanc",-9.153502745674059],["potential",-9.155081638104129],["companies",-9.155082750988266],["According",-9.157139035308248],["Nigeria",-9.163337453264015],["depend",-9.16967496922317],["minute",-9.190685299372905],["launch",-9.223169043952431],["critic",-9.223655273709618],["facilit",-9.227530787856113],["response",-9.227532167008938],["dollar",-9.227547544488381],["collect",-9.232064745262772],["condition",-9.238652008217358],["financial",-9.240878954752919],["connect",-9.241668257524058],["individual",-9.24536822500577],["character",-9.256682409537921],["Department",-9.265834057516514],["Europe",-9.28202881579362],["global",-9.293769598707746],["stitution",-9.308034874702452],["contract",-9.315844057863549],["customer",-9.332279884930852],["discuss",-9.3347375969281],["benefit",-9.33719936669533],["suggest",-9.339667059249194],["vaccine",-9.342141803548872],["vehicle",-9.34711267889131],["Australia",-9.349604469986588],["explain",-9.349606421916054],["respond",-9.354628968643624],["candidate",-9.37489723600142],["significant",-9.392978593342567],["echnology",-9.403463605190403],["particular",-9.419400362885472],["celebrat",-9.422090122662908],["affect",-9.422090875036798],["difficult",-9.430167445390339],["emergenc",-9.432884090956136],["disease",-9.4356016458411],["environment",-9.460389508851566],["executive",-9.463183137441803],["August",-9.46879374043079],["Office",-9.477269291723054],["approach",-9.485816454840137],["€",-9.48867991741578],["solution",-9.48868132270913],["School",-9.511903798074314],["schedule",-9.520776289065285],["incident",-9.52372235945628],["People",-9.526697286934565],["attempt",-9.529681564465456],["district",-9.535679487426084],["encourag",-9.541713864307415],["conduct",-9.5569590388363],["quarantine",-9.584994869199019],["popular",-9.604134412707456],["necessar",-9.607363110376959],["recogni",-9.61393349457791],["purchase",-9.617103203700108],["California",-9.633548016574986],["population",-9.674162808166777],["describe",-9.705744251372408],["Washington",-9.723730315844598],["â",-9.727366676764747],["restaurant",-9.738355801421562],["Facebook",-9.76447665400041],["£",-9.806954019271938],["professional",-9.826874971524349],["introduc",-9.843102534529903],["q",-10.005731743505464],["é",-10.031577588038694],["™",-10.233345774656245],["responsibilit",-10.233345774656604],["+",-10.270272930648012],["•",-10.702742988416418],["*",-11.223270300013063],["á",-11.239663742636015],["₹",-11.460736980523635],["í",-11.460736980523635],["ó",-11.592791348939414],["‚",-12.028077402335668],["¦",-12.103575977834245],["„",-12.103575977834245],[">",-12.185242644500912],["ñ",-12.371794498444073],["ü",-12.424426077391441],["т",-12.424426077391441],["А",-12.424426077391441],["·",-12.538805162358763],["½",-12.538805162358763],["¢",-12.538805162358763],["ð",-12.60130516235877],["ä",-12.667971829025442],["°",-12.667971829025443],["è",-12.739400400454034],["ç",-12.81632347737715],["˜",-12.816323477377153],["~",-12.899656810710589],["<",-12.89965681071059],["ђ",-12.990565901619949],["Э",-13.090565901620725],["ā",-13.20167701273431],["ʻ",-13.20167701273431],["ë",-13.20167701273431],["ö",-13.20167701273431],["»",-13.326677012743414],["`",-13.326677012743414],["×",-13.326677012743414],["⁣",-13.326677012743414],["®",-13.326677012743414],["č",-13.326677012743415],["œ",-13.469534155600558],["а",-13.469534155600558],["ă",-13.469534155600558],["с",-13.469534155600583],["ú",-13.469534155640517],["¥",-13.469534155640517],["်",-13.636200822267227],["Ў",-13.636200822267233],["š",-13.636200822307185],["ğ",-13.636200822307185],["ã",-13.636200822307185],["å",-13.836200822267223],["É",-13.836200822267225],["″",-13.836200822307184],["₦",-13.836200822307184],["┬",-13.836200822307184],["г",-14.086200822267223],["ı",-14.086200822267225],["ѓ",-14.086200822267271],["ū",-14.086200822307184],["à",-14.086200822307184],["е",-14.086200822307184],["ê",-14.086200822307184],["´",-14.086200822307184],["ל",-14.086200822307184],["′",-14.086200822307184],["›",-14.086200822307184],["﻿",-14.086200822307184],["о",-14.086200822307184],["ş",-14.086200822307184],["‑",-14.086200822307184],["ߋ",-14.419534155600559],["ɑ",-14.419534155600559],["İ",-14.419534155600562],["Ä",-14.419534155600564],["ѕ",-14.419534155600578],["ł",-14.41953415564051],["म",-14.41953415564051],["Ž",-14.419534155640516],["Ю",-14.419534155640516],["і",-14.419534155640516],["ा",-14.419534155640516],["מ",-14.419534155640516],["क",-14.419534155640516],["ု",-14.419534155640516],["️",-14.419534155640516],["‡",-14.419534155640516],["−",-14.419534155640516],["У",-14.419534155640516],["ה",-14.419534155640516],["Ó",-14.419534155640516],["ô",-14.919534155600562],["တ",-14.919534155600575],["ာ",-14.919534155600575],["र",-14.919534155640513],["ț",-14.919534155640513],["́",-14.919534155640516],["े",-14.919534155640516],["‎",-14.919534155640516],["ם",-14.919534155640516],["±",-14.919534155640516],["ō",-14.919534155640516],["ȼ",-14.919534155640516],["⁠",-14.919534155640516],["ं",-14.919534155640516],["₵",-14.919534155640516],["ु",-14.919534155640516],["Ġ",-14.919534155640516],["«",-14.919534155640516],["ţ",-14.919534155640516],["‰",-14.919534155640516],["န",-14.919534155640516],["ड",-14.919534155640516],["ø",-14.919534155640516],["Ъ",-14.919534155640516],["‐",-14.919534155640516],["²",-14.919534155640516],["י",-14.919534155640516],["ि",-14.919534155640516],["¾",-14.919534155640516],["မ",-14.919534155640516],["Ľ",-14.919534155640516],["һ",-14.919534155640516],["्",-14.919534155640516],["¯",-14.919534155640516],["ć",-14.919534155640516],["§",-14.919534155640516],["स",-14.919534155640516],["ी",-14.919534155640516],["ו",-14.919534155640516],["˚",-14.919534155640516],["ﬁ",-14.919534155640516],["ိ",-15.918434155640517],["õ",-15.918534155640517],["ï",-15.918634155640516],["င",-15.918734155640516],["Ь",-15.918834155640516],["î",-15.918934155640516],["І",-15.919034155640515],["Ÿ",-15.919134155640515],["ю",-15.919234155640517],["Щ",-15.919334155640517],["Ђ",-15.919434155640516],["ē",-15.91953415560057],["Þ",-15.91953415560057],["ў",-15.91953415560058],["က",-15.919534155600603],["ွ",-15.919534155600603],["ေ",-15.919534155600603],["အ",-15.919534155600603],["လ",-15.919534155600603],["у",-15.919534155600651],["ж",-15.919534155600651],["њ",-15.919534155600651],["Т",-15.919534155600651],["Њ",-15.919534155600651],["ќ",-15.919534155600651],["ß",-15.919534155640505],["ြ",-15.919534155640516],["⚽",-15.919534155640516],["ရ",-15.919534155640516],["қ",-15.919534155640516],["├",-15.919534155640516],["温",-15.919534155640516],["ဖ",-15.919534155640516],["त",-15.919534155640516],["ပ",-15.919534155640516],["ḥ",-15.919534155640516],["Р",-15.919534155640516],["я",-15.919534155640516],["ट",-15.919534155640516],["₁",-15.919534155640516],["球",-15.919534155640516],["א",-15.919534155640516],["Ö",-15.919534155640516],["╕",-15.919534155640516],["◆",-15.919534155640516],["γ",-15.919534155640516],["ק",-15.919534155640516],["ƅ",-15.919534155640516],["➡",-15.919534155640516],["Ј",-15.919534155640516],["ņ",-15.919534155640516],["¼",-15.919534155640516],["ż",-15.919534155640516],["ʼ",-15.919534155640516],["घ",-15.919534155640516],["ှ",-15.919534155640516],["─",-15.919534155640516],["य",-15.919534155640516],["ד",-15.919534155640516],["☺",-15.919534155640516],["Č",-15.919534155640516],["Å",-15.919534155640516],["д",-15.919534155640516],["β",-15.919534155640516],["ن",-15.919534155640516],["श",-15.919534155640516],["Я",-15.919534155640516],["⛓",-15.919534155640516],["ת",-15.919534155640516],["သ",-15.919534155640516],["Ѓ",-15.919534155640516],["נ",-15.919534155640516],["³",-15.919534155640516],["Ё",-15.919534155640516],["❤",-15.919534155640516],["ע",-15.919534155640516],["ल",-15.919534155640516],["ー",-15.919534155640516],["－",-15.919534155640516],["❌",-15.919534155640516],["अ",-15.919534155640516],["џ",-15.919534155640516],["‪",-15.919534155640516],["․",-15.919534155640516],["ש",-15.919534155640516],["б",-15.919534155640516],["ħ",-15.919534155640516],["æ",-15.919534155640516],["ｅ",-15.919534155640516],["Í",-15.919534155640516],["ġ",-15.919534155640516],["Ż",-15.919534155640516],["¹",-15.919534155640516],["ב",-15.919534155640516],["ž",-15.919534155640516],["À",-15.919534155640516],["╖",-15.919534155640516],["П",-15.919534155640516],["ń",-15.919534155640516],["ब",-15.919534155640516],["¤",-15.919534155640516],["च",-15.919534155640516],["化",-15.919534155640516],["צ",-15.919534155640516],["▪",-15.919534155640516],["ᥙ",-15.919534155640516],["ⅼ",-15.919534155640516],["‼",-15.919534155640516],["Ш",-15.919534155640516],["✨",-15.919534155640516],["ᴠ",-15.919534155640516],["ည",-15.919534155640516],["ါ",-15.919534155640516],["Ā",-15.919534155640516],["地",-15.919534155640516],["暖",-15.919534155640516],["Î",-15.919534155640516],["օ",-15.919534155640516],["ʏ",-15.919534155640516],["Г",-15.919534155640516],["न",-15.919534155640516]]}}