{"version":"1.0","truncation":null,"padding":null,"added_tokens":[{"id":0,"special":true,"content":"<UNK>","single_word":false,"lstrip":false,"rstrip":false,"normalized":false},{"id":1,"special":true,"content":"<SEP>","single_word":false,"lstrip":false,"rstrip":false,"normalized":false},{"id":2,"special":true,"content":"<MASK>","single_word":false,"lstrip":false,"rstrip":false,"normalized":false},{"id":3,"special":true,"content":"<CLS>","single_word":false,"lstrip":false,"rstrip":false,"normalized":false}],"normalizer":null,"pre_tokenizer":{"type":"Whitespace"},"post_processor":null,"decoder":null,"model":{"type":"WordPiece","unk_token":"<UNK>","continuing_subword_prefix":"##","max_input_chars_per_word":100,"vocab":{"<UNK>":0,"<SEP>":1,"<MASK>":2,"<CLS>":3,"!":4,"\"":5,"$":6,"%":7,"&":8,"'":9,"(":10,")":11,"*":12,"+":13,",":14,"-":15,".":16,"/":17,"0":18,"1":19,"2":20,"3":21,"4":22,"5":23,"6":24,"7":25,"8":26,"9":27,":":28,";":29,"<":30,">":31,"?":32,"A":33,"B":34,"C":35,"D":36,"E":37,"F":38,"G":39,"H":40,"I":41,"J":42,"K":43,"L":44,"M":45,"N":46,"O":47,"P":48,"Q":49,"R":50,"S":51,"T":52,"U":53,"V":54,"W":55,"X":56,"Y":57,"Z":58,"`":59,"a":60,"b":61,"c":62,"d":63,"e":64,"f":65,"g":66,"h":67,"i":68,"j":69,"k":70,"l":71,"m":72,"n":73,"o":74,"p":75,"q":76,"r":77,"s":78,"t":79,"u":80,"v":81,"w":82,"x":83,"y":84,"z":85,"~":86,"¢":87,"£":88,"¤":89,"¥":90,"¦":91,"§":92,"«":93,"®":94,"¯":95,"°":96,"±":97,"²":98,"³":99,"´":100,"·":101,"¹":102,"»":103,"¼":104,"½":105,"¾":106,"À":107,"Ä":108,"Å":109,"É":110,"Í":111,"Î":112,"Ó":113,"Ö":114,"×":115,"Þ":116,"ß":117,"à":118,"á":119,"â":120,"ã":121,"ä":122,"å":123,"æ":124,"ç":125,"è":126,"é":127,"ê":128,"ë":129,"í":130,"î":131,"ï":132,"ð":133,"ñ":134,"ó":135,"ô":136,"õ":137,"ö":138,"ø":139,"ú":140,"ü":141,"Ā":142,"ā":143,"ă":144,"ć":145,"Č":146,"č":147,"ē":148,"ğ":149,"Ġ":150,"ġ":151,"ħ":152,"İ":153,"ı":154,"Ľ":155,"ł":156,"ń":157,"ņ":158,"ō":159,"œ":160,"ş":161,"š":162,"ţ":163,"ū":164,"Ÿ":165,"Ż":166,"ż":167,"Ž":168,"ž":169,"ƅ":170,"ț":171,"ȼ":172,"ɑ":173,"ʏ":174,"ʻ":175,"ʼ":176,"˚":177,"˜":178,"́":179,"β":180,"γ":181,"Ё":182,"Ђ":183,"Ѓ":184,"І":185,"Ј":186,"Њ":187,"Ў":188,"А":189,"Г":190,"П":191,"Р":192,"Т":193,"У":194,"Ш":195,"Щ":196,"Ъ":197,"Ь":198,"Э":199,"Ю":200,"Я":201,"а":202,"б":203,"г":204,"д":205,"е":206,"ж":207,"о":208,"с":209,"т":210,"у":211,"ю":212,"я":213,"ђ":214,"ѓ":215,"ѕ":216,"і":217,"њ":218,"ќ":219,"ў":220,"џ":221,"қ":222,"һ":223,"օ":224,"א":225,"ב":226,"ד":227,"ה":228,"ו":229,"י":230,"ל":231,"ם":232,"מ":233,"נ":234,"ע":235,"צ":236,"ק":237,"ש":238,"ת":239,"ن":240,"ߋ":241,"ं":242,"अ":243,"क":244,"घ":245,"च":246,"ट":247,"ड":248,"त":249,"न":250,"ब":251,"म":252,"य":253,"र":254,"ल":255,"श":256,"स":257,"ा":258,"ि":259,"ी":260,"ु":261,"े":262,"्":263,"က":264,"င":265,"ည":266,"တ":267,"န":268,"ပ":269,"ဖ":270,"မ":271,"ရ":272,"လ":273,"သ":274,"အ":275,"ါ":276,"ာ":277,"ိ":278,"ု":279,"ေ":280,"်":281,"ြ":282,"ွ":283,"ှ":284,"ᥙ":285,"ᴠ":286,"ḥ":287,"‎":288,"‐":289,"‑":290,"–":291,"—":292,"‘":293,"’":294,"‚":295,"“":296,"”":297,"„":298,"‡":299,"•":300,"․":301,"…":302,"‪":303,"‰":304,"′":305,"″":306,"›":307,"‼":308,"⁠":309,"⁣":310,"₁":311,"₦":312,"€":313,"₵":314,"₹":315,"™":316,"ⅼ":317,"−":318,"─":319,"├":320,"┬":321,"╕":322,"╖":323,"▪":324,"◆":325,"☺":326,"⚽":327,"⛓":328,"✨":329,"❌":330,"❤":331,"➡":332,"ー":333,"化":334,"地":335,"暖":336,"温":337,"球":338,"ﬁ":339,"️":340,"﻿":341,"－":342,"ｅ":343,"##e":344,"##t":345,"##i":346,"##n":347,"##g":348,"##r":349,"##l":350,"##a":351,"##d":352,"##o":353,"##h":354,"##w":355,"##y":356,"##p":357,"##u":358,"##c":359,"##K":360,"##G":361,"##s":362,"##b":363,"##x":364,"##k":365,"##8":366,"##6":367,"##v":368,"##f":369,"##4":370,"##0":371,"##m":372,"##j":373,"##S":374,"##C":375,"##V":376,"##O":377,"##E":378,"##F":379,"##L":380,"##R":381,"##M":382,"##T":383,"##q":384,"##z":385,"##D":386,"##ü":387,"##W":388,"##B":389,"##N":390,"##I":391,"##2":392,"##â":393,"##9":394,"##1":395,"##A":396,"##5":397,"##H":398,"##P":399,"##í":400,"##7":401,"##U":402,"##Y":403,"##3":404,"##~":405,"##*":406,"##\"":407,"##X":408,"##ñ":409,"##J":410,"##á":411,"##,":412,"##.":413,"##”":414,"##‡":415,"##:":416,"##?":417,"##တ":418,"##်":419,"##ရ":420,"##ှ":421,"##ု":422,"##န":423,"##ိ":424,"##င":425,"##ပ":426,"##ါ":427,"##သ":428,"##ည":429,"##é":430,"##è":431,"##ú":432,"##ó":433,"##Z":434,"##“":435,"##’":436,"##-":437,"##–":438,"##Q":439,"##(":440,"##$":441,"##‘":442,"##)":443,"##ū":444,"##ă":445,"##ġ":446,"##%":447,"##ï":448,"##ë":449,"##ߋ":450,"##€":451,"##/":452,"##!":453,"##ħ":454,"##ō":455,"##…":456,"##ô":457,"##ń":458,"##ע":459,"##צ":460,"##מ":461,"##א":462,"##ו":463,"##ת":464,"##č":465,"##'":466,"##ø":467,"##Ó":468,"##ç":469,"##õ":470,"##¦":471,"##џ":472,"##е":473,"##ā":474,"##ö":475,"##ु":476,"##श":477,"##्":478,"##क":479,"##ि":480,"##ल":481,"##ʻ":482,"##²":483,"##ђ":484,"##Ю":485,"##±":486,"##ä":487,"##ş":488,"##े":489,"##å":490,"##ं":491,"##ब":492,"##र":493,"##त":494,"##ю":495,"##і":496,"##‰":497,"##ק":498,"##ב":499,"##ל":500,"##ğ":501,"##т":502,"##А":503,"##Щ":504,"##Ľ":505,"##Р":506,"##Ў":507,"##ž":508,"##—":509,"##ḥ":510,"##™":511,"##š":512,"##ð":513,"##;":514,"##ê":515,"##+":516,"##Ġ":517,"##ß":518,"##ţ":519,"##Ѓ":520,"##с":521,"##Ђ":522,"##ѕ":523,"##ѓ":524,"##І":525,"##Т":526,"##ж":527,"##ќ":528,"##Њ":529,"##њ":530,"##у":531,"##Ъ":532,"##Г":533,"##Ј":534,"##ã":535,"##<":536,"##ा":537,"##य":538,"##﻿":539,"##ြ":540,"##မ":541,"##ာ":542,"##လ":543,"##Э":544,"##ट":545,"##ी":546,"##च":547,"##न":548,"##Ā":549,"##£":550,"##Ь":551,"##́":552,"##һ":553,"##ț":554,"##ў":555,"##‚":556,"##ﬁ":557,"##ć":558,"##″":559,"##Я":560,"##Ш":561,"##┬":562,"##ם":563,"##Í":564,"##ʼ":565,"##®":566,"##₹":567,"##`":568,"##Ÿ":569,"##Ž":570,"##⁣":571,"##¯":572,"##д":573,"##я":574,"##о":575,"##г":576,"##ē":577,"##ņ":578,"##ı":579,"##à":580,"##˜":581,"##ד":582,"##י":583,"##נ":584,"##ה":585,"##>":586,"##ł":587,"##қ":588,"##օ":589,"##ȼ":590,"##æ":591,"##ż":592,"##³":593,"##ｅ":594,"##·":595,"##ʏ":596,"##म":597,"##ड":598,"##ー":599,"##É":600,"##球":601,"##温":602,"##暖":603,"##化":604,"##У":605,"##¥":606,"##ေ":607,"##က":608,"##ွ":609,"##he":610,"##er":611,"the":612,"##in":613,"##on":614,"##at":615,"##es":616,"##or":617,"##en":618,"##ed":619,"##nd":620,"##ing":621,"to":622,"##ar":623,"##an":624,"##al":625,"##it":626,"##ou":627,"in":628,"of":629,"##as":630,"##is":631,"and":632,"##re":633,"##ic":634,"th":635,"##om":636,"##il":637,"##ion":638,"##ent":639,"##el":640,"##id":641,"##ec":642,"##st":643,"##et":644,"##ay":645,"##ot":646,"on":647,"##ve":648,"##ur":649,"##ac":650,"##le":651,"##ow":652,"##ut":653,"be":654,"for":655,"##ol":656,"is":657,"##ad":658,"##ir":659,"##ly":660,"that":661,"st":662,"##am":663,"##ver":664,"##ig":665,"The":666,"re":667,"pr":668,"##ith":669,"##ter":670,"##im":671,"it":672,"##ill":673,"with":674,"wh":675,"##ation":676,"##os":677,"##us":678,"al":679,"##ers":680,"as":681,"##op":682,"ha":683,"an":684,"##em":685,"##est":686,"was":687,"at":688,"##ce":689,"##ld":690,"con":691,"sa":692,"##ess":693,"he":694,"##ch":695,"##her":696,"are":697,"##ul":698,"##ak":699,"com":700,"##th":701,"fr":702,"##ate":703,"##oc":704,"##ect":705,"we":706,"##ag":707,"##od":708,"have":709,"ne":710,"said":711,"##ain":712,"##pp":713,"##and":714,"you":715,"##ort":716,"##um":717,"sh":718,"has":719,"##ity":720,"##igh":721,"##ies":722,"##un":723,"##ear":724,"##ist":725,"from":726,"ex":727,"##ment":728,"##iv":729,"##ore":730,"##ive":731,"tr":732,"##art":733,"##ant":734,"not":735,"by":736,"will":737,"##ould":738,"##if":739,"##se":740,"##ct":741,"##ab":742,"##ust":743,"or":744,"de":745,"ch":746,"##ial":747,"su":748,"se":749,"##all":750,"go":751,"this":752,"pl":753,"##nt":754,"##ome":755,"ab":756,"##ight":757,"##ast":758,"his":759,"##ack":760,"wor":761,"##our":762,"##out":763,"##gh":764,"##ud":765,"##ard":766,"sp":767,"##end":768,"20":769,"##ere":770,"##ice":771,"their":772,"##ov":773,"le":774,"##ok":775,"they":776,"##ie":777,"##rou":778,"##ost":779,"out":780,"all":781,"##ap":782,"Th":783,"whe":784,"who":785,"##ell":786,"can":787,"##ik":788,"but":789,"year":790,"##av":791,"ad":792,"up":793,"res":794,"been":795,"##ong":796,"##ep":797,"##ff":798,"##ans":799,"off":800,"do":801,"##ue":802,"##ge":803,"##ally":804,"##ich":805,"##ip":806,"In":807,"##ther":808,"pe":809,"##ions":810,"##ine":811,"cl":812,",”":813,"##ia":814,"##so":815,"##ib":816,"were":817,"had":818,"##ople":819,"##ime":820,"her":821,"rec":822,"##mp":823,"comp":824,"cont":825,"It":826,"more":827,"ac":828,"##ob":829,"##ount":830,"en":831,"##day":832,"##one":833,"##ated":834,"##ous":835,"##ake":836,"also":837,"ag":838,"##own":839,"people":840,"inc":841,"##ure":842,"about":843,"##act":844,"##ame":845,"St":846,"##ide":847,"one":848,"me":849,"##ry":850,"exp":851,".”":852,"##ents":853,"##og":854,"##ays":855,"Ch":856,"##fter":857,"man":858,"He":859,"which":860,"##ely":861,"##oll":862,"##ub":863,"##ose":864,"##00":865,"per":866,"work":867,"new":868,"she":869,"##ace":870,"un":871,"over":872,"##age":873,"int":874,"so":875,"its":876,"would":877,"##ord":878,"##ber":879,"##iz":880,"##ire":881,"##ary":882,"##ike":883,"##ile":884,"##qu":885,"19":886,"##ence":887,"##ew":888,"qu":889,"##mer":890,"rep":891,"##ail":892,"ev":893,"cr":894,"time":895,"us":896,"We":897,"##ind":898,"##ks":899,"##ook":900,"part":901,"other":902,"after":903,"##ations":904,"dis":905,"##ase":906,"##ance":907,"app":908,"there":909,"when":910,"##are":911,"some":912,"##able":913,"fir":914,"##ass":915,"tw":916,"our":917,"##ors":918,"##orm":919,"them":920,"##ign":921,"than":922,"sc":923,"##ult":924,"##ra":925,"##ings":926,"bec":927,"get":928,"##oss":929,"##ach":930,"##ro":931,"just":932,"##uc":933,"##ict":934,"##ond":935,"op":936,"imp":937,"##ree":938,"like":939,"ar":940,"ser":941,"##ens":942,"kn":943,"##aus":944,"##ick":945,"rel":946,"##ark":947,"##ite":948,"##ock":949,"##ition":950,"comm":951,"##ough":952,"##ical":953,"acc":954,"##oy":955,"what":956,"##reat":957,"##oin":958,"pre":959,"##uring":960,"##ru":961,"##very":962,"##lic":963,"pol":964,"##vern":965,"now":966,"first":967,"##ian":968,"two":969,"##irus":970,"##ident":971,"gr":972,"act":973,"any":974,"##anc":975,"##ning":976,"##ade":977,"Pr":978,"my":979,"into":980,"play":981,"add":982,"back":983,"wee":984,"Tr":985,"##ates":986,"br":987,"##alth":988,"if":989,"##nder":990,"your":991,"##ild":992,"count":993,"te":994,"hel":995,"##ied":996,"##rough":997,"##itt":998,"201":999,"could":1000,"##ang":1001,"##hed":1002,"need":1003,"##enc":1004,"##ress":1005,"no":1006,"inter":1007,"##aw":1008,"##ert":1009,"him":1010,"As":1011,"##ove":1012,"##amp":1013,"##iver":1014,"dec":1015,"##fer":1016,"##ood":1017,"This":1018,"##ious":1019,"##ause":1020,"##ities":1021,"##old":1022,"Wh":1023,"how":1024,"cor":1025,"##ound":1026,"But":1027,"again":1028,"##form":1029,"##lud":1030,"##und":1031,"##ump":1032,"##ory":1033,"##ish":1034,"supp":1035,"Al":1036,"##ating":1037,"last":1038,"am":1039,"##vernment":1040,"fe":1041,"dr":1042,"##ne":1043,"inv":1044,"under":1045,"##ool":1046,"Fr":1047,"##iss":1048,"rem":1049,"##ink":1050,"##vel":1051,"att":1052,"##ath":1053,"being":1054,"report":1055,"mon":1056,"##fore":1057,"##ement":1058,"includ":1059,"##ason":1060,"##round":1061,"##ational":1062,"##ery":1063,"only":1064,"##ublic":1065,"through":1066,"ind":1067,"##oun":1068,"el":1069,"sec":1070,"##wn":1071,"str":1072,"##any":1073,"##urn":1074,"show":1075,"bet":1076,"##other":1077,"##pt":1078,"during":1079,"want":1080,"##ater":1081,"202":1082,"years":1083,"every":1084,"##ily":1085,"see":1086,"did":1087,"##als":1088,"##oint":1089,"##hing":1090,"help":1091,"most":1092,"##ues":1093,"CO":1094,"prov":1095,"##erson":1096,"##ID":1097,"offic":1098,"##esident":1099,"because":1100,"many":1101,"##ince":1102,"And":1103,"reg":1104,"co":1105,"##ise":1106,"pro":1107,"week":1108,"bl":1109,"##ased":1110,"##ected":1111,"know":1112,"##arg":1113,"government":1114,"##illion":1115,"000":1116,"day":1117,"##ft":1118,"##uch":1119,"fl":1120,"##aking":1121,"cons":1122,"even":1123,"fam":1124,"make":1125,"call":1126,"##VID":1127,"##ection":1128,"##ases":1129,"Un":1130,"before":1131,"COVID":1132,"end":1133,"those":1134,"Br":1135,"should":1136,"look":1137,"down":1138,"fin":1139,"while":1140,"state":1141,"well":1142,"##we":1143,"##onav":1144,"where":1145,"##erm":1146,"##onavirus":1147,"ve":1148,"home":1149,"##ting":1150,"don":1151,"lead":1152,"des":1153,"##chool":1154,"ass":1155,"##ife":1156,"bu":1157,"health":1158,"ear":1159,"against":1160,"##ven":1161,"month":1162,"stud":1163,"contin":1164,"##ital":1165,"##ited":1166,"start":1167,"New":1168,"##read":1169,"bus":1170,"ret":1171,"##urr":1172,"##emic":1173,"going":1174,"serv":1175,"Trump":1176,"team":1177,"##ful":1178,"An":1179,"##ward":1180,"own":1181,"##ons":1182,"resp":1183,"long":1184,"test":1185,"##xt":1186,"##cc":1187,"##arr":1188,"say":1189,"##uct":1190,"coronavirus":1191,"##ual":1192,"##les":1193,"##iness":1194,"may":1195,"dif":1196,"made":1197,"##ever":1198,"She":1199,"##oth":1200,"ph":1201,"still":1202,"these":1203,"take":1204,"three":1205,"##elf":1206,"##hn":1207,"##istr":1208,"2020":1209,"They":1210,"commun":1211,"ro":1212,"##air":1213,"##ives":1214,"num":1215,"way":1216,"min":1217,"##ures":1218,"med":1219,"person":1220,"##hip":1221,"##ters":1222,"mem":1223,"right":1224,"##gan":1225,"##ently":1226,"gu":1227,"##ier":1228,"10":1229,"ke":1230,"sur":1231,"##ible":1232,"contr":1233,"##ounc":1234,"##med":1235,"##irect":1236,"then":1237,"says":1238,"##ix":1239,"##con":1240,"very":1241,"##andemic":1242,"##ower":1243,"cases":1244,"good":1245,"Mar":1246,",\"":1247,"high":1248,"wr":1249,"##hen":1250,"think":1251,"##ner":1252,"##io":1253,"##eral":1254,"support":1255,"country":1256,"pandemic":1257,"##ility":1258,"##ording":1259,"Com":1260,"cent":1261,"For":1262,"##ollow":1263,"##its":1264,"bel":1265,"pos":1266,"public":1267,"There":1268,"much":1269,"##ont":1270,"prod":1271,"##ets":1272,"##eb":1273,"##ank":1274,"##osp":1275,"##ices":1276,"##ather":1277,"prot":1278,"##iew":1279,"##au":1280,"loc":1281,"sy":1282,"eff":1283,"def":1284,"school":1285,"##man":1286,"around":1287,"conf":1288,"soc":1289,"##pr":1290,"does":1291,"##ouse":1292,"##land":1293,"##up":1294,"##ange":1295,"inf":1296,"##roup":1297,"set":1298,"business":1299,"Amer":1300,"##ric":1301,"If":1302,"##way":1303,"##ines":1304,"##der":1305,"Americ":1306,"##ivers":1307,"such":1308,"point":1309,".\"":1310,"##oot":1311,"sm":1312,"win":1313,"ann":1314,"##ull":1315,"ins":1316,"Ar":1317,"old":1318,"##ope":1319,"season":1320,"vot":1321,"world":1322,"##urs":1323,"##ific":1324,"##ram":1325,"##bers":1326,"##ative":1327,"##ee":1328,"rest":1329,"##ina":1330,"##loy":1331,"##alk":1332,"follow":1333,"care":1334,"since":1335,"sign":1336,"invest":1337,"##ah":1338,"trans":1339,"police":1340,"million":1341,"##ief":1342,"hand":1343,"company":1344,"##ister":1345,"##ments":1346,"open":1347,"##ular":1348,"quar":1349,"cour":1350,"##ene":1351,"That":1352,"##omet":1353,"cap":1354,"##ject":1355,"dep":1356,"family":1357,"shar":1358,"##son":1359,"##imes":1360,"happ":1361,"##atch":1362,"ext":1363,"iss":1364,"How":1365,"##ior":1366,"On":1367,"Sh":1368,"##ork":1369,"including":1370,"game":1371,"run":1372,"##arm":1373,"##eng":1374,"##ency":1375,"##hes":1376,"differ":1377,"im":1378,"##ern":1379,"conc":1380,"Ind":1381,"##conom":1382,"law":1383,"##ision":1384,"##ash":1385,"bo":1386,"plan":1387,"life":1388,"mov":1389,"next":1390,"Min":1391,"mark":1392,"four":1393,"direct":1394,"##line":1395,"You":1396,"big":1397,"##ty":1398,"##atur":1399,"Bl":1400,"##osed":1401,"##eg":1402,"##iving":1403,"death":1404,"come":1405,"##ween":1406,"car":1407,"##get":1408,"##ax":1409,"child":1410,"stat":1411,"##erv":1412,"##iel":1413,"##ually":1414,"##velop":1415,"second":1416,"really":1417,"inst":1418,"told":1419,"##ave":1420,"##ug":1421,"fil":1422,"wom":1423,"Jo":1424,"disc":1425,"del":1426,"put":1427,"though":1428,"curr":1429,"sub":1430,"between":1431,"##iday":1432,"official":1433,"sl":1434,"number":1435,"Mr":1436,"##let":1437,"##ying":1438,"Sp":1439,"ask":1440,"both":1441,"gen":1442,"lot":1443,"same":1444,"##ution":1445,"##aj":1446,"##ics":1447,"##az":1448,"##olog":1449,"rele":1450,"feel":1451,"##ng":1452,"##ised":1453,"So":1454,"emp":1455,"econom":1456,"great":1457,"##res":1458,"##ecial":1459,"es":1460,"use":1461,"social":1462,"prog":1463,"place":1464,"##ton":1465,"real":1466,"allow":1467,"requ":1468,"prop":1469,"##outh":1470,"group":1471,"##ross":1472,"##ys":1473,"pass":1474,"##ness":1475,"##aff":1476,"days":1477,"##akes":1478,"fac":1479,"rece":1480,"another":1481,"somet":1482,"##ale":1483,"##tern":1484,"id":1485,"##uth":1486,"##ists":1487,"##ames":1488,"post":1489,"keep":1490,"few":1491,"##led":1492,"##ued":1493,"ob":1494,"##ants":1495,"incre":1496,"US":1497,"##ged":1498,"Ad":1499,"##ider":1500,"##ember":1501,"adv":1502,"remain":1503,"cle":1504,"det":1505,"President":1506,"Mon":1507,"opp":1508,"##stem":1509,"##ts":1510,"arr":1511,"result":1512,"found":1513,"##ody":1514,"##iend":1515,"##nes":1516,"At":1517,"pat":1518,"##ned":1519,"##ars":1520,"prob":1521,"dem":1522,"pres":1523,"got":1524,"virus":1525,"av":1526,"best":1527,"poss":1528,"##ived":1529,"##ential":1530,"develop":1531,"12":1532,"##ience":1533,"prev":1534,"##ll":1535,"##reak":1536,"par":1537,"community":1538,"##ving":1539,"added":1540,"##ling":1541,"camp":1542,"##ral":1543,"Friday":1544,"##ately":1545,"cond":1546,"##ism":1547,"##orts":1548,"##att":1549,"near":1550,"##ret":1551,"##ission":1552,"too":1553,"head":1554,"gl":1555,"pay":1556,"president":1557,"leg":1558,"Le":1559,"proc":1560,"Is":1561,"cre":1562,"different":1563,"De":1564,"30":1565,"import":1566,"##itive":1567,"##ren":1568,"##ety":1569,"read":1570,"saf":1571,"find":1572,"##per":1573,"##uss":1574,"##thing":1575,"polit":1576,"che":1577,"##ention":1578,"oper":1579,"each":1580,"##orn":1581,"across":1582,"##ruct":1583,"ent":1584,"here":1585,"reported":1586,"##ense":1587,"city":1588,"em":1589,"trad":1590,"##gg":1591,"ris":1592,"##red":1593,"case":1594,"Comm":1595,"When":1596,"things":1597,"inform":1598,"used":1599,"red":1600,"##ways":1601,"air":1602,"hosp":1603,"meet":1604,"##iven":1605,"15":1606,"##rat":1607,"##over":1608,"unt":1609,"May":1610,"##ept":1611,"##ield":1612,"without":1613,"spe":1614,"product":1615,"announc":1616,"able":1617,"fact":1618,"return":1619,"system":1620,"Go":1621,"left":1622,"11":1623,"term":1624,"##ient":1625,"##down":1626,"##ott":1627,"came":1628,"pop":1629,"quarter":1630,"sit":1631,"##ands":1632,"##ask":1633,"sever":1634,"order":1635,"char":1636,"coll":1637,"hour":1638,"Cl":1639,"far":1640,"exper":1641,"according":1642,"working":1643,"hard":1644,"##ey":1645,"Count":1646,"##ves":1647,"night":1648,"##ute":1649,"##ird":1650,"##ized":1651,"##ready":1652,"sim":1653,"##iting":1654,"belie":1655,"local":1656,"##ved":1657,"months":1658,"##aim":1659,"never":1660,"##artment":1661,"expl":1662,"##oney":1663,"ed":1664,"job":1665,"friend":1666,"level":1667,"something":1668,"already":1669,"vis":1670,"##orth":1671,"##side":1672,"State":1673,"members":1674,"fund":1675,"main":1676,"##ided":1677,"students":1678,"Pol":1679,"##earch":1680,"Cent":1681,"Monday":1682,"lik":1683,"past":1684,"news":1685,"due":1686,"top":1687,"##ained":1688,"##augh":1689,").":1690,"move":1691,"program":1692,"better":1693,"##ots":1694,"until":1695,"##ically":1696,"adm":1697,"mod":1698,"##uck":1699,"However":1700,"grow":1701,"Sc":1702,"##ces":1703,"record":1704,"##view":1705,"##ages":1706,"##ared":1707,"aff":1708,"didn":1709,"power":1710,"2019":1711,"let":1712,"must":1713,"continue":1714,"build":1715,"##echn":1716,"called":1717,"quest":1718,"partic":1719,"ll":1720,"might":1721,"##iversity":1722,"Me":1723,"What":1724,"Dr":1725,"tot":1726,"##ittle":1727,"All":1728,"col":1729,"hold":1730,"With":1731,"five":1732,"##ball":1733,"happen":1734,"##ata":1735,"##ecut":1736,"##ortun":1737,"employ":1738,"##ms":1739,"prof":1740,"##atter":1741,"##rem":1742,"always":1743,"##gin":1744,"away":1745,"turn":1746,"##cept":1747,"County":1748,"##ional":1749,"market":1750,"beh":1751,"##ize":1752,"China":1753,"##ajor":1754,"process":1755,"Re":1756,"South":1757,"manag":1758,"dist":1759,"##ley":1760,"March":1761,"took":1762,"seen":1763,"##ple":1764,"art":1765,"children":1766,"##cent":1767,"##ired":1768,"Thurs":1769,"ref":1770,"Thursday":1771,"lear":1772,"##uthor":1773,"200":1774,"While":1775,"important":1776,"based":1777,"##ended":1778,"val":1779,"war":1780,"##ney":1781,"##less":1782,"##ians":1783,"offer":1784,"),":1785,"organ":1786,"event":1787,"Sund":1788,"met":1789,"##ients":1790,"claim":1791,"weeks":1792,"John":1793,"Be":1794,"##ending":1795,"Tues":1796,"est":1797,"##app":1798,"Tuesday":1799,"won":1800,"Af":1801,"vide":1802,"stand":1803,"##pl":1804,"early":1805,"##aturday":1806,"Saturday":1807,"##reen":1808,"##ote":1809,"##urch":1810,"shares":1811,"fut":1812,"##iam":1813,"change":1814,"sk":1815,"##ted":1816,"equ":1817,"Health":1818,"Am":1819,"making":1820,"##aken":1821,"money":1822,"stay":1823,"Sunday":1824,"went":1825,"##une":1826,"addition":1827,"major":1828,"##ested":1829,"deal":1830,"women":1831,"less":1832,"why":1833,"exc":1834,"former":1835,"class":1836,"election":1837,"lock":1838,"prom":1839,"positive":1840,"small":1841,"food":1842,"##aring":1843,"eas":1844,"times":1845,"##ries":1846,"Rep":1847,"face":1848,"##ertain":1849,"One":1850,"media":1851,"later":1852,"little":1853,"Dem":1854,"mus":1855,"14":1856,"distr":1857,"##self":1858,"along":1859,"project":1860,"staff":1861,"information":1862,"Co":1863,"##gy":1864,"25":1865,"##uly":1866,"today":1867,"stop":1868,"fur":1869,"trav":1870,"Ph":1871,"Wed":1872,"free":1873,"complet":1874,"##ined":1875,"seem":1876,"Chr":1877,"effect":1878,"confir":1879,"six":1880,"##idents":1881,"chang":1882,"list":1883,"Car":1884,"##els":1885,"intern":1886,"statement":1887,"Can":1888,"Jan":1889,"##urity":1890,"give":1891,"toget":1892,"appear":1893,"Gr":1894,"together":1895,"area":1896,"##ocrat":1897,"##nesday":1898,"Wednesday":1899,"##ides":1900,"United":1901,"##aid":1902,"hit":1903,"kill":1904,"total":1905,"asked":1906,"##ests":1907,"doing":1908,"24":1909,"hal":1910,"chall":1911,"sol":1912,"##cr":1913,"##ards":1914,"officials":1915,"##ator":1916,"short":1917,"hist":1918,"##han":1919,"several":1920,"##oor":1921,"##ished":1922,"concern":1923,"Man":1924,"##verage":1925,"having":1926,"young":1927,"consider":1928,"##oved":1929,"spread":1930,"future":1931,"##ivid":1932,"percent":1933,"getting":1934,"##uation":1935,"##ream":1936,"announced":1937,"13":1938,"##aining":1939,"##ovid":1940,"hospital":1941,"full":1942,"##iod":1943,"foot":1944,"perform":1945,"indust":1946,"mom":1947,"techn":1948,"sing":1949,"50":1950,"line":1951,"18":1952,"##aign":1953,"##enn":1954,"##usp":1955,"least":1956,"likely":1957,"Mc":1958,"investig":1959,"El":1960,"##iously":1961,"national":1962,"series":1963,"avail":1964,"hum":1965,"##ured":1966,"doc":1967,"##ins":1968,"##ony":1969,"price":1970,"Acc":1971,"talk":1972,"players":1973,"service":1974,"given":1975,"done":1976,"online":1977,"cost":1978,"No":1979,"house":1980,"doesn":1981,"film":1982,"After":1983,"mil":1984,"##iger":1985,"press":1986,"services":1987,"Dep":1988,"hig":1989,"##ature":1990,"elect":1991,"Or":1992,"love":1993,"pot":1994,"##ai":1995,"comes":1996,"become":1997,"fire":1998,"##err":1999,"taking":2000,"##rew":2001,"##used":2002,"##ified":2003,"##oub":2004,"meas":2005,"Con":2006,"National":2007,"close":2008,"##yp":2009,"##ced":2010,"stock":2011,"campaign":2012,"data":2013,"susp":2014,"const":2015,"coming":2016,"clear":2017,"emer":2018,"vac":2019,"period":2020,"opt":2021,"using":2022,"party":2023,"among":2024,"American":2025,"16":2026,"##te":2027,"##stand":2028,"##acy":2029,"Police":2030,"Democrat":2031,"cust":2032,"lim":2033,"sw":2034,"##here":2035,"sure":2036,"enough":2037,"possible":2038,"tell":2039,"##ality":2040,"third":2041,"##vers":2042,"started":2043,"bring":2044,"taken":2045,"activ":2046,"looking":2047,"proble":2048,"author":2049,"further":2050,"ball":2051,"##aun":2052,"##ched":2053,"##ology":2054,"mor":2055,"others":2056,"Bid":2057,"##ck":2058,"##ising":2059,"100":2060,"##ancial":2061,"attack":2062,"Pl":2063,"##ten":2064,"##ipp":2065,"##oci":2066,"video":2067,"Covid":2068,"invol":2069,"yet":2070,"##ury":2071,"Ass":2072,"##inal":2073,"Don":2074,"whether":2075,"recent":2076,"appro":2077,"Col":2078,"thing":2079,"available":2080,"workers":2081,"vict":2082,"impact":2083,"##ead":2084,"Ab":2085,"Tw":2086,"leaders":2087,"My":2088,"deb":2089,"##ances":2090,"Afric":2091,"Biden":2092,"Sen":2093,"risk":2094,"City":2095,"kind":2096,"water":2097,"##ari":2098,"court":2099,"current":2100,"hours":2101,"strong":2102,"mid":2103,"##iol":2104,"##ederal":2105,"##anies":2106,"following":2107,"##itions":2108,"House":2109,"York":2110,"side":2111,"##arge":2112,"begin":2113,"ens":2114,"fall":2115,"clos":2116,"##eal":2117,"##ph":2118,"##omes":2119,"##ague":2120,"Ir":2121,"live":2122,"##ees":2123,"##port":2124,"##ison":2125,"political":2126,"Cal":2127,"story":2128,"lockdown":2129,"games":2130,"reason":2131,"##ains":2132,"decision":2133,"##ebr":2134,"cut":2135,"##ories":2136,"##oke":2137,"Black":2138,"##aly":2139,"low":2140,"form":2141,"ant":2142,"enter":2143,"within":2144,"crit":2145,"polic":2146,"succ":2147,"travel":2148,"July":2149,"sal":2150,"fight":2151,"ra":2152,"book":2153,"alle":2154,"provide":2155,"Just":2156,"##ably":2157,"Ed":2158,"##irl":2159,"expected":2160,"known":2161,"opportun":2162,"confirmed":2163,"Niger":2164,"Se":2165,"Ex":2166,"view":2167,"##ri":2168,"17":2169,"Apr":2170,"West":2171,"foc":2172,"##hic":2173,"ever":2174,"##ences":2175,"expect":2176,"##itted":2177,"##ald":2178,"bene":2179,"##reet":2180,"Inst":2181,"eng":2182,"hope":2183,"non":2184,"##ively":2185,"University":2186,"##ger":2187,"office":2188,"To":2189,"famil":2190,"April":2191,"Aust":2192,"##idence":2193,"half":2194,"##gency":2195,"##ored":2196,"design":2197,"fun":2198,"##pite":2199,"Eur":2200,"fans":2201,"##sel":2202,"priv":2203,"special":2204,"deaths":2205,"potential":2206,"North":2207,"cand":2208,"patients":2209,"According":2210,"Oct":2211,"Off":2212,"21":2213,"companies":2214,"access":2215,"success":2216,"Dec":2217,"##ats":2218,"share":2219,"enc":2220,"##ham":2221,"##co":2222,"##be":2223,"contact":2224,"cou":2225,"ago":2226,"Cor":2227,"sent":2228,"##lier":2229,"##oad":2230,"outside":2231,"experience":2232,"##lement":2233,"residents":2234,"final":2235,"tax":2236,"##inc":2237,"##hers":2238,"gener":2239,"fail":2240,"##lor":2241,"trying":2242,"late":2243,"sum":2244,"cris":2245,"India":2246,"Minister":2247,"June":2248,"##oming":2249,"##ented":2250,"front":2251,"##wards":2252,"Te":2253,"##inistr":2254,"compet":2255,"billion":2256,"##por":2257,"##for":2258,"##ones":2259,"##oms":2260,"##obal":2261,"quick":2262,"benef":2263,"Aug":2264,"mas":2265,"treat":2266,"inj":2267,"##elebr":2268,"needs":2269,"died":2270,"led":2271,"##by":2272,"##head":2273,"saying":2274,"lives":2275,"wa":2276,"##ev":2277,"##reed":2278,"doll":2279,"large":2280,"##imate":2281,"##ecutive":2282,"Pe":2283,"rul":2284,"control":2285,"Sec":2286,"miss":2287,"##tain":2288,"##bs":2289,"##omm":2290,"##ilities":2291,"men":2292,"states":2293,"certain":2294,"held":2295,"received":2296,"believe":2297,"##ners":2298,"once":2299,"##aces":2300,"##ization":2301,"security":2302,"points":2303,"##aur":2304,"##ators":2305,"economic":2306,"vacc":2307,"##most":2308,"##orr":2309,"mean":2310,"friends":2311,"light":2312,"makes":2313,"##rap":2314,"forward":2315,"ide":2316,"##que":2317,"##ination":2318,"Some":2319,"viol":2320,"##lex":2321,"##empt":2322,"educ":2323,"custom":2324,"##ering":2325,"##opp":2326,"means":2327,"##ouncil":2328,"restr":2329,"##ium":2330,"Ge":2331,"bas":2332,"Christ":2333,"Will":2334,"pract":2335,"##ources":2336,"account":2337,"action":2338,"situation":2339,"land":2340,"sen":2341,"protect":2342,"spec":2343,"laun":2344,"##ids":2345,"research":2346,"interest":2347,"financial":2348,"##ference":2349,"everyone":2350,"larg":2351,"##uce":2352,"individ":2353,"road":2354,"behind":2355,"##ered":2356,"These":2357,"##ush":2358,"2018":2359,"issues":2360,"countries":2361,"esp":2362,"Sept":2363,"targ":2364,"##ecially":2365,"average":2366,"watch":2367,"currently":2368,"crisis":2369,"celebr":2370,"cho":2371,"charg":2372,"States":2373,"repres":2374,"charac":2375,"question":2376,"ur":2377,"##road":2378,"Feb":2379,"ep":2380,"##onse":2381,"bit":2382,"mess":2383,"phot":2384,"entire":2385,"Department":2386,"Res":2387,"vol":2388,"address":2389,"morning":2390,"nation":2391,"##work":2392,"medical":2393,"course":2394,"occ":2395,"##par":2396,"threat":2397,"understand":2398,"businesses":2399,"##vir":2400,"##ane":2401,"22":2402,"##ann":2403,"Europe":2404,"Cr":2405,"released":2406,"##go":2407,"##ancing":2408,"thought":2409,"industry":2410,"init":2411,"appr":2412,"##aily":2413,"everything":2414,"buy":2415,"history":2416,"especially":2417,"fav":2418,"break":2419,"lost":2420,"##elt":2421,"canc":2422,"release":2423,"restrict":2424,"##ds":2425,"shows":2426,"cover":2427,"additional":2428,"aw":2429,"creat":2430,"join":2431,"##aps":2432,"position":2433,"##viron":2434,"Bar":2435,"##iding":2436,"reve":2437,"Wor":2438,"pick":2439,"##utes":2440,"candid":2441,"wanted":2442,"net":2443,"##asing":2444,"economy":2445,"Republic":2446,"##aut":2447,"meeting":2448,"nec":2449,"name":2450,"contract":2451,"results":2452,"##break":2453,"##irt":2454,"include":2455,"tested":2456,"Sup":2457,"conn":2458,"##ensive":2459,"##ode":2460,"vote":2461,"music":2462,"##crib":2463,"##uary":2464,"##ither":2465,"response":2466,"Gu":2467,"plans":2468,"human":2469,"40":2470,"His":2471,"step":2472,"##ops":2473,"woman":2474,"discuss":2475,"Eng":2476,"ap":2477,"##itiz":2478,"Rob":2479,"##af":2480,"##aged":2481,"sugg":2482,"recently":2483,"00":2484,"often":2485,"Dav":2486,"signific":2487,"ident":2488,"##ening":2489,"##ilar":2490,"neg":2491,"vehic":2492,"Austral":2493,"Now":2494,"began":2495,"##ades":2496,"almost":2497,"worth":2498,"##uced":2499}}}