{"version":"1.0","truncation":null,"padding":null,"added_tokens":[{"id":0,"special":true,"content":"<UNK>","single_word":false,"lstrip":false,"rstrip":false,"normalized":false},{"id":1,"special":true,"content":"<SEP>","single_word":false,"lstrip":false,"rstrip":false,"normalized":false},{"id":2,"special":true,"content":"<MASK>","single_word":false,"lstrip":false,"rstrip":false,"normalized":false},{"id":3,"special":true,"content":"<CLS>","single_word":false,"lstrip":false,"rstrip":false,"normalized":false}],"normalizer":null,"pre_tokenizer":{"type":"Whitespace"},"post_processor":null,"decoder":null,"model":{"type":"Unigram","unk_id":0,"vocab":[["<UNK>",0.0],["<SEP>",0.0],["<MASK>",0.0],["<CLS>",0.0],["s",-2.8179735939956085],["t",-3.371555980532948],[".",-3.42760261609582],["the",-3.437125201944557],["o",-3.4636414996946616],[",",-3.5012526476645824],["a",-3.5863139931425927],["e",-3.6367746733013906],["d",-3.885335987919259],["and",-4.140532678676834],["y",-4.329395611654002],["n",-4.362532244800194],["i",-4.408432949364773],["in",-4.477725677167632],["f",-4.6331591510878365],["of",-4.740995166366483],["ing",-4.768632529028267],["’",-4.877010281887591],["-",-4.9155403332993775],["to",-4.969161994157584],["for",-5.072210746444643],["h",-5.111000308991086],["r",-5.124403322350657],["I",-5.16903063852749],["on",-5.2282471100617585],["The",-5.237247769508771],["that",-5.2523028392618],["with",-5.316182814094242],["ly",-5.3296557611366815],["“",-5.466740219239625],["w",-5.504147059486954],["is",-5.522698876069752],["ed",-5.565170645187619],["was",-5.6216335762705025],["l",-5.622171860795525],["'",-5.62325052506135],["b",-5.633343497876242],["m",-5.720744501308696],["be",-5.74752560925187],["have",-5.766130755277933],["are",-5.780155648419312],["from",-5.907016366345083],["aid",-5.933422923555678],["will",-5.989168214080296],["\"",-5.993290875616456],["he",-6.039622569605243],["an",-6.053193365211756],["has",-6.168384683767917],["A",-6.179005880512438],["by",-6.213234143706119],["you",-6.221661092675836],["this",-6.239060758530291],["his",-6.262250100622076],["u",-6.263967662360715],["their",-6.27329269315082],["”",-6.35421921881141],["but",-6.419745584085746],["g",-6.422490671485356],["c",-6.423078979663476],["been",-6.4314411324283025],["it",-6.443882352236221],["out",-6.445099016472696],["who",-6.467977033215302],["all",-6.478885961498586],["not",-6.494531103427381],["(",-6.508901609451883],["more",-6.522629824150171],["were",-6.544795303570552],["can",-6.546603723955956],["as",-6.565594387428757],["S",-6.569670565780461],["at",-6.569937534459129],["her",-6.5728101909307135],["p",-6.595130824890747],["people",-6.599288773315092],["up",-6.61103759079286],["about",-6.617680332627343],[":",-6.635225010256006],["other",-6.664898678496607],["which",-6.697436234598676],["time",-6.713552596475443],["also",-6.7376845374518535],["had",-6.743407755418659],[",”",-6.756311048859885],["would",-6.78511392482951],["th",-6.79193132920496],["our",-6.798755998303925],["they",-6.802005002545538],["year",-6.802695243558945],["or",-6.804528197794623],[")",-6.813137170305012],["one",-6.816699919673686],["19",-6.86466438341237],["like",-6.898341623423212],["when",-6.92214329230117],["after",-6.922472155769917],["over",-6.931659737073414],[".”",-6.949197618610501],["re",-6.959457194307973],["$",-6.989286053147661],["M",-7.013239598775222],["?",-7.024902010142401],["there",-7.025011712461504],["what",-7.026516539120542],["T",-7.040421481292669],["some",-7.046513597771028],["new",-7.051207336861427],["1",-7.053568142988542],["just",-7.055340426675134],["He",-7.072778698575945],["2",-7.080446154643255],["first",-7.090745774198684],["day",-7.112141677366966],["We",-7.1165612823654305],["—",-7.122449152489368],["ies",-7.128177691170214],["than",-7.144832570575587],["cause",-7.158743942710801],["now",-7.170021178037867],["them",-7.224189053672343],["back",-7.226411856369293],["could",-7.246675178929062],["C",-7.24955830142936],["This",-7.253226220936295],["into",-7.26053026764617],["him",-7.262106163976429],["In",-7.280499652170015],["how",-7.284169058898567],["your",-7.291775277480175],["most",-7.293858725615871],["But",-7.29706700742854],["al",-7.3013876884026025],["need",-7.310968501162432],["tha",-7.311046104548701],["get",-7.316435307506029],["last",-7.3299124206775845],["its",-7.337487569016517],["state",-7.347998913415509],["being",-7.348377982693508],["work",-7.354445466653186],["two",-7.360469695031002],["B",-7.362058279807483],["through",-7.3671977431494895],["D",-7.382651749423241],["she",-7.407553241917963],["during",-7.4102069894234495],["ha",-7.410467493467861],["make",-7.416851534903175],["hat",-7.422471215553813],["whil",-7.430556499133284],["ar",-7.433080500985583],["W",-7.436798856030651],["where",-7.437313831769415],["ally",-7.4505395774513445],["well",-7.45228178696686],["government",-7.469345517142895],["going",-7.481071205234724],["take",-7.488484428278455],["want",-7.495320539654773],["years",-7.497363974967766],["COVID",-7.498310706228015],["before",-7.502027709788383],["we",-7.50333048814977],["20",-7.503806859691741],["even",-7.508129747960894],["many",-7.510246226099848],["able",-7.513287676870928],["any",-7.518093792870646],["3",-7.520884995877318],["home",-7.522882664412208],["every",-7.525109799516682],["help",-7.526573785829178],["000",-7.5305746484226015],["game",-7.549095182488114],["way",-7.552184089044341],["–",-7.556083833681997],["health",-7.562659234678452],["should",-7.5708357535413295],["know",-7.5727522439351285],["man",-7.581917077889154],["H",-7.5833273560022025],["ever",-7.585112773656814],["down",-7.594627687458016],["ve",-7.599797944624138],["come",-7.602266480830175],["%",-7.6044324669668875],["4",-7.604734492920346],["Trump",-7.605026034142542],["old",-7.607656408875343],["week",-7.6114191469546135],["agains",-7.612272964503679],["U",-7.622506454353528],["use",-7.634116086854344],["coronavirus",-7.6368528518885945],["5",-7.640860837171461],["very",-7.649973357398551],["made",-7.6544449772166585],["And",-7.658366267823352],["part",-7.662891358113242],["2020",-7.663449503389666],["still",-7.663815281747868],["‘",-7.669413795300162],["long",-7.682122446320453],["N",-7.691201194718431],["O",-7.691235870596163],["three",-7.691572761458117],["er",-7.711430788326215],["thing",-7.721505504745669],["k",-7.730456105523297],["million",-7.739141001932757],["off",-7.740309647695639],["place",-7.742062109395917],["P",-7.745878466807357],["pandemic",-7.758348672209353],["country",-7.758690273097214],["good",-7.758808467722223],["cases",-7.772509496539811],["much",-7.7744661981041725],["per",-7.780111744051104],["/",-7.783627590347258],["support",-7.785971077173857],["number",-7.787397401635278],["She",-7.790668044497381],["There",-7.7916210307613065],["6",-7.791734662731655],["call",-7.7955447645519875],["think",-7.804507734369797],["school",-7.8062983373924855],["E",-7.808727529488995],["public",-7.812666415824202],["continue",-7.813559779405101],["business",-7.822929840583591],["look",-7.824257526403144],["around",-7.824920815698402],["show",-7.8284239200737336],["under",-7.836306471533949],["right",-7.836616692029725],["New",-7.83947705320224],["team",-7.841136235050228],["high",-7.841344120122264],["season",-7.8421187337086815],["world",-7.842308281837497],["play",-7.846068154617722],["sai",-7.851940884933728],["10",-7.856011581422381],["point",-7.863021746404968],["us",-7.864466315172462],["police",-7.877393916892505],["R",-7.878857387192706],["since",-7.887757176726659],["close",-7.8900993131515245],["company",-7.892271278181916],["life",-7.892392175802228],["change",-7.894997325349446],["may",-7.895517693594744],["says",-7.900642697497117],["service",-7.90184772184811],["such",-7.90765941512073],["9",-7.908818967774769],["family",-7.910423880535848],["7",-7.928993829336449],["start",-7.929928970836743],["including",-7.932269735129812],["person",-7.940645830650916],["self",-7.944323682503618],["issue",-7.9497908082606035],["That",-7.956787676484188],["plan",-7.959903027807204],["es",-7.96708918363119],["communit",-7.974960871145762],["ready",-7.98200562588725],["these",-7.986982765225464],["second",-7.993435692265545],["own",-8.006007289505826],["next",-8.0092305601388],["hose",-8.009468109555392],["8",-8.01033129164987],["both",-8.036314112097372],["L",-8.049178017044635],["0",-8.049998236651087],["v",-8.053668098698076],["You",-8.055515002359591],["group",-8.059833861042812],["student",-8.062204074000688],["F",-8.071787918384624],["For",-8.085233163735646],["etween",-8.086380027394636],["current",-8.098322506903527],["social",-8.105120942473794],["care",-8.106034172475516],["order",-8.113422995082622],["President",-8.113743070380059],["though",-8.114916662015379],["me",-8.118651302483208],["result",-8.12445542488124],["put",-8.127127017977617],["recent",-8.13112527735132],["my",-8.134269882713344],["virus",-8.134661073223104],["provide",-8.140207886921845],["head",-8.146431665226402],[";",-8.147361079558316],["Friday",-8.15629779769828],["arly",-8.16172037559853],["came",-8.161777913955863],["different",-8.166858033437913],["report",-8.170191614144372],["keep",-8.172895188001979],["less",-8.174101862717908],["face",-8.18137020000642],["each",-8.182187550329438],["coming",-8.18646731159251],["ember",-8.191293962623586],["!",-8.19149065015812],["ary",-8.193790450746814],["release",-8.197612132768104],["month",-8.19891959372654],["remain",-8.19924972899613],["president",-8.202784454665064],["election",-8.20449109798384],["include",-8.205284947674022],["city",-8.211281284067528],["same",-8.217236445860763],["local",-8.220939916455695],["reported",-8.2218004748975],["case",-8.222952303442742],["move",-8.229075108078117],["G",-8.229396920889695],["le",-8.232668790781982],["great",-8.232712805585312],["American",-8.233663593011649],["best",-8.235029946836601],["30",-8.235142376089254],["night",-8.238289521798876],["market",-8.241308068371717],["US",-8.242883901955818],["across",-8.243693605550444],["When",-8.245480286479518],["wa",-8.251144988997632],["found",-8.252645039653668],["love",-8.253763837873947],["four",-8.262088728536355],["State",-8.27120800498469],["ther",-8.272019383849006],["return",-8.275309883007154],["large",-8.277282037951242],["give",-8.277407062401107],["ity",-8.277852111865705],["ll",-8.27973846372356],["don",-8.283312224154201],["working",-8.284333500238535],["ver",-8.287301306639076],["end",-8.291595747086358],["special",-8.292869689281165],["live",-8.295974373372133],["according",-8.299197884560225],["nd",-8.299475171219317],["system",-8.30072255508432],["price",-8.306781707402576],["mean",-8.311836254196002],["did",-8.32032963538682],["go",-8.320570440169814],["here",-8.322192764017014],["base",-8.322591874125566],["level",-8.323048711243622],["left",-8.323992158414773],["open",-8.326281317387501],["something",-8.327380102485442],["full",-8.334635448304647],["Monday",-8.33987269896165],["told",-8.340264807348696],["ook",-8.341130166306346],["better",-8.347736876433098],["side",-8.348341170373011],["receive",-8.34948329251852],["event",-8.352315766252154],["until",-8.3556427095482],["adde",-8.355662039794959],["months",-8.359543493491563],["believe",-8.360240566376238],["body",-8.36240311763834],["aving",-8.363999189439788],["statement",-8.366264039758661],["How",-8.368761911191548],["no",-8.370163724105879],["On",-8.373199093165],["feel",-8.374800111851528],["quarter",-8.378267102988957],["12",-8.378574432616194],["What",-8.378744508738839],["children",-8.3796313879762],["15",-8.382223995582455],["never",-8.383608860961594],["might",-8.393452494112584],["things",-8.396894666619044],["big",-8.398297554932556],["…",-8.400475097095189],["nly",-8.404275600536854],["increase",-8.40625866745889],["County",-8.407209788934537],["With",-8.409075654113114],["South",-8.410972634922999],["force",-8.412397199524225],["term",-8.414761447536698],["China",-8.416155382628421],["201",-8.418026138788402],["March",-8.41817319778593],["using",-8.419418604934062],["film",-8.420504417288196],["must",-8.421560321554406],["didn",-8.422948271225195],["members",-8.424993344532222],["K",-8.425738240822962],["information",-8.427896524808709],["Thursday",-8.430175595912292],["hospital",-8.432668424215478],["vote",-8.434255326413764],["11",-8.436017730293958],["become",-8.441352651492425],["ment",-8.441803614927935],["decision",-8.442993789296304],["line",-8.443403700843206],["&",-8.446137160383094],["important",-8.447280570175977],["positive",-8.448938059530064],["officer",-8.45009105982847],["alway",-8.450510489564254],["again",-8.453427064233558],["Whil",-8.45515653277422],["id",-8.458320601276359],["risk",-8.460045862271098],["making",-8.460612959449492],["Tuesday",-8.460883128779844],["media",-8.463295161178916],["past",-8.464816763448304],["un",-8.466840021735935],["Health",-8.46841326862714],["Sunday",-8.468722216634358],["away",-8.471018278762893],["Saturday",-8.47133023332455],["spread",-8.475905509784525],["five",-8.477729160293979],["total",-8.47965329565201],["women",-8.483566316790252],["As",-8.483777123078056],["does",-8.484736051969515],["share",-8.485030607740871],["money",-8.485679562857838],["en",-8.485814807957713],["power",-8.486571715346482],["project",-8.487424894419053],["former",-8.49343422936592],["experience",-8.499071755979443],["little",-8.503051360933235],["thos",-8.50698093498829],["together",-8.509738063195638],["question",-8.510404122988046],["future",-8.511806781147627],["concern",-8.513451198183027],["resident",-8.517457074390004],["stock",-8.520540201868858],["final",-8.521051181855114],["find",-8.524901146523387],["shares",-8.524938238769284],["later",-8.530119421302768],["death",-8.53234227661315],["food",-8.535399775854097],["car",-8.536360817489808],["low",-8.537699838686198],["Wednesday",-8.538015336959585],["today",-8.541814544168666],["staff",-8.542330879100756],["say",-8.546106387048095],["United",-8.54715234091648],["real",-8.548793726144126],["hard",-8.552746897521391],["process",-8.55547965291593],["worker",-8.55683610416209],["talk",-8.557778640588182],["wide",-8.558096422224535],["went",-8.55941511393457],["several",-8.561307000715203],["ness",-8.56161741820442],["deal",-8.563359267917198],["got",-8.563399514266775],[").",-8.564052200461138],["One",-8.566024382070212],["50",-8.568672663159333],["action",-8.571021713133957],["happen",-8.571962343370295],["test",-8.572544426358542],["announced",-8.579540011146829],["mask",-8.581578936076257],["national",-8.58894502734093],["weeks",-8.593061592081028],["water",-8.595928308900199],["program",-8.600722376969436],["office",-8.600843875778828],["record",-8.60478979687629],["cent",-8.606426892542025],["free",-8.607054700501461],["14",-8.607841241003733],["officials",-8.610333765859743],["clear",-8.611591655032246],["create",-8.611617733686355],["National",-8.612170513107127],["taking",-8.614144119627799],["online",-8.614359577347301],["political",-8.614525027615738],["law",-8.615293684529465],["small",-8.617539030063174],["ave",-8.61826472723418],["series",-8.618625649790438],["trade",-8.619763434395416],["video",-8.622924071749473],["six",-8.62538941526244],["doesn",-8.626569213462478],["After",-8.62695251781833],["No",-8.627766672551484],["run",-8.628846114684134],["lot",-8.630880947117449],["given",-8.631434679455225],["It",-8.632441140169725],["J",-8.634598757571197],["All",-8.634673106700992],["ou",-8.63628669397653],["court",-8.636731470505712],["news",-8.638471943198336],["May",-8.641449316126213],["campaign",-8.642159830642374],["hi",-8.644006476810482],["players",-8.645462030205344],["lead",-8.645809734242448],["along",-8.646076962556377],["allow",-8.649189086933646],["Police",-8.650284246303336],["half",-8.651552387793988],["among",-8.652867246717216],["period",-8.652871490942845],["further",-8.65441359030389],["ive",-8.656505363729408],["third",-8.658403689724581],["possible",-8.659637039271319],["sure",-8.660802282462846],["problem",-8.662729893355309],["claim",-8.663273350353336],["complete",-8.666108012594488],["consider",-8.668528696671492],["late",-8.6708822098957],["24",-8.672113960705925],["Covid",-8.674755468169938],["25",-8.678278921378862],["stay",-8.678955693067433],["position",-8.681282793263147],["party",-8.683533355261858],["Biden",-8.690299217364675],["nough",-8.691477411231277],["200",-8.692625837990418],["City",-8.694312722571489],["z",-8.695818005034873],["impact",-8.696323815882783],["job",-8.696395725543645],["effort",-8.697511837194616],["etting",-8.698513962321943],["field",-8.702796923276743],["following",-8.7086793305814],["few",-8.709692084863246],["house",-8.710281446664391],["York",-8.710783072752317],["pay",-8.711168538765751],["availab",-8.71417895234373],["kind",-8.714445498332449],["men",-8.719181090682252],["So",-8.719793720987493],["deliver",-8.720454817994643],["100",-8.722036943476699],["interest",-8.722298044731204],["lockdown",-8.724746113370536],["measure",-8.727152577800455],["age",-8.727569557806904],["top",-8.728601107750517],["),",-8.729039796362086],["16",-8.72984906951717],["situation",-8.73323682109489],["percent",-8.7359049350072],["board",-8.73672658310647],["meeting",-8.737843827786932],["young",-8.739449893648189],["als",-8.74218881322698],["Black",-8.74441025071673],["confirmed",-8.744556975593035],["cost",-8.745065719549148],["House",-8.749631730976187],["far",-8.750142038435467],["fact",-8.753274346217474],["appear",-8.753337097806696],["travel",-8.753976381194665],["previous",-8.754167431059326],["expected",-8.755997105185756],["Universit",-8.756801949672981],["hope",-8.75734111105562],["taken",-8.758303527954839],["rying",-8.758582108222285],["security",-8.760055463863274],["economic",-8.760405073147542],["require",-8.761005031236682],["13",-8.761534185417688],["leas",-8.762351308540996],["18",-8.76402665442605],["if",-8.764882315075397],["fire",-8.765861768536425],["course",-8.769328337914805],["ting",-8.770525671944846],["Jul",-8.773156846734242],["post",-8.778446592854852],["North",-8.778974219140162],["Apri",-8.779025376452559],["woman",-8.781025062756367],["attack",-8.781863610406795],["Minister",-8.782168354988608],["potential",-8.786231703487516],["times",-8.786739614472282],["seem",-8.788114963172337],["x",-8.788393785277155],["According",-8.788463698534425],["due",-8.789647492430088],["forward",-8.789913822450835],["India",-8.790270980238136],["major",-8.790765679528082],["bring",-8.791174014817138],["ation",-8.79285251766785],["companies",-8.795700325886404],["17",-8.796493241180748],["contact",-8.796578427588754],["matter",-8.797044118411467],["billion",-8.797570724376229],["direct",-8.80058968137595],["outside",-8.80116652941495],["safe",-8.80281064868224],["moment",-8.803064988316688],["control",-8.805331724261045],["light",-8.806047417483281],["June",-8.806311711426773],["led",-8.807448008293557],["visit",-8.810413634831342],["challenge",-8.810550436945533],["ng",-8.811981938622022],["value",-8.81441398595242],["building",-8.814773554288767],["official",-8.815445530703997],["opportunit",-8.817224108632583],["aske",-8.81744607657279],["quick",-8.820864493977801],["patients",-8.820969384731997],["21",-8.822048095814473],["strong",-8.825894920251281],["West",-8.829045182687665],["buy",-8.834219293086747],["watch",-8.835889220528824],["Some",-8.836707241145596],["data",-8.8386633377814],["nation",-8.84028645882513],["average",-8.840648276507633],["story",-8.840941119282324],["Nov",-8.844824108035539],["win",-8.845409146770304],["worth",-8.848505660496302],["actual",-8.84929254066011],["known",-8.849319974271172],["rating",-8.850214894509199],["Al",-8.850243930387938],["space",-8.851870464135116],["industr",-8.85230010685832],["leader",-8.853646316578525],["certain",-8.854860144808082],["deaths",-8.855232702792748],["short",-8.857531794527347],["research",-8.858362588739325],["dollar",-8.86056903087501],["parent",-8.865028406071815],["protect",-8.867588822871443],["held",-8.869232748270079],["front",-8.873059430344968],["near",-8.873716234475895],["financial",-8.874800775319876],["medical",-8.875441530975195],["morning",-8.876929022520414],["individual",-8.877923644133869],["2018",-8.87893132287029],["behind",-8.878996826072402],["condition",-8.880814891084203],["saying",-8.881718895112721],["stop",-8.882156374779491],["reason",-8.882549382507149],["countries",-8.88343559227128],["response",-8.88539795666117],["human",-8.886117840275276],["director",-8.887699850526772],["demand",-8.888359761167765],["target",-8.889184080496303],["crisis",-8.890200500427195],["ties",-8.893619631422856],["econom",-8.89566749733428],["Department",-8.896891154175693],["hold",-8.89806313695654],["thought",-8.901806023496682],["star",-8.908690001895138],["couple",-8.910136615720905],["role",-8.910841030046868],["entire",-8.911907100470604],["product",-8.912067908288144],["movie",-8.917717892168504],["ball",-8.918773765208943],["lives",-8.918967225907068],["fund",-8.920959168870873],["land",-8.922933259790174],["additional",-8.924956704397975],["ship",-8.925238014623815],["fans",-8.925657785820528],["turn",-8.927731180524656],["history",-8.927756242024712],["ne",-8.932679545956258],["once",-8.935512431933466],["Sept",-8.939323473391768],["rate",-8.940526928940024],["global",-8.94071652903824],["feature",-8.94184760823564],["America",-8.943608607972882],["An",-8.946708615121981],["often",-8.947407909755597],["sign",-8.94789787697244],["drive",-8.949473343040397],["name",-8.952150906878513],["development",-8.952525452715811],["se",-8.954076104306086],["leave",-8.954164443750283],["involve",-8.954776203315259],["am",-8.956030462789279],["40",-8.959897718154345],["Dr",-8.960247528452566],["account",-8.963369923547678],["customer",-8.965256098751896],["general",-8.967164029563751],["charge",-8.969734645940774],["store",-8.970204856155885],["TV",-8.970815203590352],["character",-8.975473967132668],["employee",-8.975516104173014],["vehicle",-8.978170856876325],["bank",-8.979079532789186],["benefit",-8.97912765487656],["arrest",-8.984765635778603],["round",-8.986029122229414],["een",-8.98636671232714],["recover",-8.987166581732573],["vaccine",-8.988154509996832],["friends",-8.988765579113293],["region",-8.991036466537158],["raise",-8.994948652722943],["done",-8.995518821646339],["federal",-8.996342838597288],["nstead",-8.996468909360061],["cut",-8.997884522783512],["ooking",-8.998801925869532],["ear",-8.998960336404732],["access",-9.00097754636305],["ill",-9.002074914398488],["Now",-9.00501833030684],["States",-9.007042311197926],["outbreak",-9.00777555810313],["do",-9.01167043724023],["candidate",-9.013770610259954],["expect",-9.014606097761204],["comment",-9.018775746212976],["member",-9.019996736755658],["calle",-9.022253309138911],["Dec",-9.0247844846327],["single",-9.026844291721076],["ance",-9.027161477671308],["then",-9.030698225926269],["whe",-9.033143590337772],["shot",-9.036166351965374],["air",-9.03774360579978],["Howe",-9.038452503784647],["phone",-9.038561084187213],["option",-9.038893335327217],["offer",-9.03981095836092],["Janu",-9.040406240097777],["significant",-9.040668794612248],["follow",-9.041299472223384],["others",-9.041667765731741],["source",-9.042726105744503],["present",-9.043161026910578],["fight",-9.043242145169163],["tell",-9.044030202056724],["grow",-9.044038419050977],["John",-9.048893308575856],["Th",-9.04941536977439],["famili",-9.050687357694063],["operation",-9.05203706864836],["particular",-9.052242531175942],["iving",-9.053513603791512],["someone",-9.05420900451351],["Our",-9.055023535709427],["states",-9.055824020323959],["likel",-9.056440307866591],["ask",-9.059423940197851],["fall",-9.059992706615272],["UK",-9.060152754037706],["ensure",-9.061791499782068],["difficult",-9.062018860793776],["ago",-9.062216135682574],["serious",-9.063524069912495],["V",-9.063802135878134],["earlie",-9.066430835998403],["list",-9.07091061088892],["starte",-9.071360137519758],["emergenc",-9.072662885316285],["check",-9.073531695937856],["international",-9.073662989269424],["unning",-9.07387844071501],["abilit",-9.074500581783617],["personal",-9.077164365103396],["book",-9.078013041706077],["World",-9.078486352904761],["safet",-9.080565235425421],["address",-9.081522972043143],["main",-9.083739439220968],["00",-9.08583193645006],["stage",-9.087726270231464],["His",-9.088003578513913],["suggest",-9.08942461557551],["senior",-9.09167022080051],["ending",-9.092809790261128],["room",-9.096307632544788],["race",-9.098811222102682],["focus",-9.09890879742462],["private",-9.101095035092232],["career",-9.10131608478283],["executive",-9.102298721502411],["infection",-9.103621481420035],["toward",-9.10370681460265],["leaders",-9.103804774687175],["child",-9.104483692474787],["walk",-9.107727984511826],["ays",-9.110338869900048],["affect",-9.111829190217351],["esting",-9.113317260945696],["Court",-9.11391074794864],["war",-9.114045902216631],["music",-9.116086026223353],["key",-9.11708858267843],["ce",-9.119907372457131],["club",-9.11994248190862],["nothing",-9.12136455599363],["cover",-9.121563445545442],["22",-9.121629069453583],["reduce",-9.123063582355721],["chief",-9.123458185344308],["August",-9.123519627726107],["black",-9.125135461586268],["speak",-9.127855362006336],["kid",-9.128821852986803],["chance",-9.130212990814652],["performance",-9.131425320083768],["Center",-9.133226353190452],["restriction",-9.135175367565749],["figure",-9.135331316896618],["contract",-9.138465275569976],["study",-9.138804125881093],["model",-9.139387407991297],["player",-9.139565362566804],["effect",-9.143417631599469],["School",-9.143479781488992],["mother",-9.144488191239684],["girl",-9.146224784996491],["amount",-9.14661807512886],["goal",-9.146724078749092],["count",-9.146997849714978],["shows",-9.147578997589292],["voter",-9.150958914909154],["White",-9.151825933891702],["spend",-9.157320602879429],["People",-9.15783533454675],["bu",-9.160984081042638],["attempt",-9.163605041792641],["coach",-9.163654359243468],["firm",-9.164724333789408],["incident",-9.168068143912151],["investigation",-9.169253190607835],["message",-9.171602497521707],["district",-9.171640745193184],["interview",-9.171657557626702],["sector",-9.173968641956021],["23",-9.17616259298196],["heart",-9.176486653356186],["wait",-9.177495891332136],["protest",-9.178675081622876],["Day",-9.179053022179144],["wh",-9.180270491288486],["ight",-9.180573526896211],["immediate",-9.180611531484757],["X",-9.1812094514314],["growth",-9.182403613105489],["st",-9.182604861875182],["activit",-9.18345154796674],["disease",-9.183854019816735],["whole",-9.185215021837042],["Chief",-9.185839818176245],["form",-9.186304334187788],["town",-9.18697356172851],["Y",-9.188551124400647],["understand",-9.190535400303592],["authorit",-9.191652449790183],["decade",-9.191913324378184],["bigge",-9.191984902062348],["normal",-9.192964790444886],["detail",-9.193215636584103],["lower",-9.194895847714907],["Mr",-9.196479228513523],["Even",-9.197069608844242],["Government",-9.197303170060678],["reach",-9.19838877773276],["ted",-9.201622373688613],["white",-9.201810032647309],["My",-9.20259679066441],["relationship",-9.204479699451682],["essential",-9.205859332361069],["ers",-9.209200798346854],["expert",-9.209581761271876],["um",-9.212119690959309],["victim",-9.21334333950113],["inside",-9.213601356689889],["Donald",-9.213775891852427],["meet",-9.214059345422797],["road",-9.215191135420516],["distanc",-9.216623050130206],["begin",-9.217290134548158],["practice",-9.217681038698137],["production",-9.217974063393768],["father",-9.21893325494783],["Febr",-9.220898211211008],["schedule",-9.221712681362707],["app",-9.22330753139159],["press",-9.223664302099156],["ves",-9.22395085656046],["Many",-9.224869884173694],["rote",-9.224891404143541],["join",-9.225546252707787],["quarantine",-9.226009013216157],["training",-9.226266336123432],["example",-9.226937817293503],["weekend",-9.23022095108571],["De",-9.230738733048607],["Octo",-9.231233242447267],["anyon",-9.23349538436247],["ay",-9.233682869807323],["ad",-9.233972237671107],["ge",-9.23463759296315],["28",-9.236788240639687],["match",-9.241302791166627],["organization",-9.242463671499797],["qualit",-9.244188921723847],["hour",-9.245663205618838],["effective",-9.247578250688342],["makes",-9.248509483830954],["park",-9.249978225597811],["wife",-9.251274505871177],["reports",-9.252918622215239],["education",-9.25335041041664],["ma",-9.257480813807163],["31",-9.259273430453842],["policy",-9.260041915343583],["develop",-9.261717474809636],["60",-9.261722224654957],["conduct",-9.26184302327056],["update",-9.262129366827732],["platform",-9.262472243329304],["track",-9.263355390793489],["read",-9.263600412211186],["approach",-9.264452817047687],["uring",-9.266436418173432],["request",-9.266728264561305],["suspect",-9.26706872054189],["pass",-9.267325910189028],["ca",-9.26754709951786],["Democrat",-9.268014778073248],["Be",-9.269592187346731],["similar",-9.270249629241288],["500",-9.2709622538294],["26",-9.271192558969105],["compare",-9.271257429381773],["administration",-9.272034527560063],["pick",-9.272854878495718],["scene",-9.273724779612202],["prevent",-9.27429980147939],["enjoy",-9.274800789026934],["view",-9.277005011336449],["class",-9.277132071906255],["27",-9.279638237550635],["ways",-9.281198394203876],["minutes",-9.281345998336107],["seven",-9.282539065796826],["manage",-9.28329714696078],["California",-9.284037206753045],["lates",-9.284756956908522],["break",-9.285843144031968],["driver",-9.286342819789986],["ground",-9.286550192527045],["militar",-9.287078679227582],["ither",-9.28860403853162],["resource",-9.289406776153456],["revenue",-9.289626683546334],["summer",-9.289748226739889],["daughter",-9.290282825279238],["football",-9.293213915552272],["echnology",-9.294363917702334],["treatment",-9.294524012769024],["legal",-9.2949559433161],["doctor",-9.295819424937807],["Nigeria",-9.29668053007668],["Park",-9.299463134962203],["loss",-9.30043080678762],["represent",-9.301717868348943],["extend",-9.302128723881637],["Street",-9.302476594468946],["guy",-9.302854505923323],["score",-9.304218404199396],["population",-9.305325717826172],["Service",-9.305349183630575],["purchase",-9.307332886328645],["themsel",-9.314191493917717],["Africa",-9.318092903530207],["bit",-9.319749953402976],["alleged",-9.319984111749001],["tax",-9.320048287156794],["learn",-9.32291499127515],["above",-9.323285913034077],["act",-9.324158154557772],["leading",-9.326921092309567],["street",-9.327793971693273],["date",-9.328115210077957],["title",-9.331760932015893],["ours",-9.332300538180675],["probabl",-9.336678222668159],["produce",-9.337908706156181],["popular",-9.33855035299814],["kille",-9.33960984775824],["thousand",-9.33962058649035],["decided",-9.340342134146535],["exist",-9.340605966134131],["San",-9.341688512234827],["letter",-9.343468524564496],["lack",-9.344525926753734],["review",-9.344901749374547],["ber",-9.344996900481014],["unit",-9.34629317997189],["Congress",-9.346298277681413],["necessar",-9.34665976791494],["answer",-9.347384300576415],["friend",-9.347860619000517],["serve",-9.347980837843357],["regard",-9.34888750724092],["crime",-9.351628221540276],["location",-9.351750065023385],["Bank",-9.352165739110124],["Washington",-9.354781535736667],["minister",-9.355746575376216],["lost",-9.356742012355474],["29",-9.358165040981],["Every",-9.359096580515178],["sense",-9.36001476870512],["original",-9.360824635251735],["News",-9.361429989504384],["regular",-9.361819300620443],["various",-9.362182497056423],["brough",-9.363410594532978],["describe",-9.363482805130246],["David",-9.368919969727441],["playe",-9.36909608782278],["design",-9.369283293802841],["restaurant",-9.370368278779978],["General",-9.37389293132431],["huge",-9.373935167112595],["canno",-9.3753690856635],["department",-9.377285408792808],["center",-9.377898542992128],["trial",-9.378344789423386],["feeling",-9.379110492838134],["damage",-9.380320676561794],["website",-9.38075705046477],["piece",-9.38083880765197],["ballot",-9.380965754994763],["vice",-9.384557084191574],["quite",-9.387757263288698],["brand",-9.389389993508825],["ility",-9.389687988902338],["estimate",-9.390692307734579],["Facebook",-9.395533170697302],["energ",-9.397225466535385],["Part",-9.400146906376968],["build",-9.400705039978671],["usual",-9.401019011921962],["Australia",-9.40157371805779],["More",-9.402006254241538],["35",-9.403499013051182],["active",-9.404819164413723],["episode",-9.404929159860185],["teste",-9.4060602731505],["eight",-9.406603964748903],["teacher",-9.407125471488776],["ell",-9.407573319005753],["70",-9.408684669324025],["God",-9.408922932325911],["agree",-9.409189292401628],["wear",-9.409533380245197],["range",-9.4106616139717],["launch",-9.41068092934053],["mind",-9.413503745244192],["avoid",-9.414124097132536],["station",-9.415744601367352],["â",-9.416823428809227],["step",-9.418966596846818],["com",-9.419154842463247],["conference",-9.419555386482337],["virtual",-9.420847376414779],["Bu",-9.421156884704313],["Sinc",-9.422602335117094],["ial",-9.42315295164246],["see",-9.42339768442114],["add",-9.424186916047645],["limit",-9.424321933871258],["East",-9.42566780675958],["Mean",-9.428097651777666],["thi",-9.42836893055207],["evidence",-9.431702405560433],["investment",-9.431850032313047],["arrive",-9.432371340864997],["Her",-9.433098601664366],["block",-9.435198833250778],["deep",-9.436003539007253],["aught",-9.437328998019275],["specific",-9.437462182658699],["Democrati",-9.4389905797775],["learning",-9.439098208334457],["physical",-9.441060430727292],["passe",-9.441179557554745],["Ma",-9.44215969039071],["felt",-9.442620771323718],["husband",-9.443085326489296],["bill",-9.443813564316658],["actor",-9.444060592749373],["area",-9.444707638703502],["llowed",-9.44502959046778],["Co",-9.445487771337659],["else",-9.447866347994836],["push",-9.44867279783208],["Council",-9.449364123171687],["encourage",-9.450567579825309],["environment",-9.451680761985514],["capacit",-9.452162632633781],["choice",-9.454056758812573],["improve",-9.454484381149001],["box",-9.454487068067241],["addition",-9.455760321038849],["Chine",-9.45641044120141],["fair",-9.456901061883443],["ow",-9.45731584671389],["League",-9.457937378740802],["happ",-9.458481715857623],["pull",-9.462418713642638],["rules",-9.46277271720288],["revealed",-9.464835892929361],["professional",-9.464956276261265],["Group",-9.465267871389774],["Twitter",-9.466082645256733],["African",-9.469951677915354],["common",-9.47003757195014],["ame",-9.471063729244076],["border",-9.47315649564481],["threat",-9.473346325077868],["Johnson",-9.47492569087702],["ur",-9.476463017173806],["est",-9.478031007923276],["site",-9.478709429348847],["material",-9.479156026510505],["solution",-9.479615772542786],["rest",-9.480250036915454],["assist",-9.481051303079798],["German",-9.481098043860905],["oving",-9.481438047204751],["success",-9.482344783631417],["fail",-9.48251186749211],["seek",-9.485865276364876],["capital",-9.487397711100968],["jobs",-9.490048864960926],["stream",-9.492154779796692],["maintain",-9.49245006395596],["co",-9.49324526579291],["earing",-9.494814098535736],["ried",-9.494891041845044],["user",-9.494980873124419],["try",-9.495771714906247],["mid",-9.496370497011759],["league",-9.496619065868636],["bad",-9.497216886669696],["payment",-9.497469771772515],["citizens",-9.498613373094393],["Japan",-9.499062621911367],["annual",-9.501078488143213],["Canad",-9.502101890003614],["carry",-9.502573774270093],["Iran",-9.50515462327947],["anagement",-9.50549139547577],["teams",-9.5055168037885],["202",-9.50569614751689],["pressure",-9.505757738988786],["Public",-9.505805083343496],["earning",-9.506348361967472],["perfect",-9.507368845337606],["supply",-9.511577754275546],["aily",-9.512240733812792],["remember",-9.513144522659957],["£",-9.514668190878425],["winning",-9.5158559230998],["income",-9.51910376699515],["standard",-9.52208671292414],["words",-9.522763042545385],["document",-9.524393985182101],["appeal",-9.524660373011592],["proper",-9.526310480559491],["Senat",-9.526729803734348],["European",-9.527187153563782],["followed",-9.528547878327647],["giving",-9.530164329134442],["From",-9.532373607467877],["Green",-9.534529874421846],["network",-9.53517279176946],["factor",-9.536013726558757],["card",-9.53615932450313],["centre",-9.537072857374724],["page",-9.53724999532611],["propert",-9.538109637490361],["wrong",-9.538227437114017],["High",-9.538302843544843],["budget",-9.538606287290506],["To",-9.538898233841092],["Not",-9.539007956540882],["accept",-9.539822779957102],["tention",-9.540024377761176],["via",-9.5430905808674],["initial",-9.543680353070474],["rise",-9.5467104417528],["mention",-9.547076258328177],["size",-9.547510753180216],["Just",-9.547709318615341],["analyst",-9.547723739541226],["natural",-9.548678408228461],["Joe",-9.549730656120781],["camera",-9.550692005098483],["cross",-9.551379563530645],["holding",-9.553131492427227],["ut",-9.553359357994736],["Brit",-9.554337575796465],["miss",-9.555165764371317],["90",-9.55580982899257],["infect",-9.556256260657205],["symptom",-9.557319266265822],["version",-9.558078642674866],["heard",-9.560282255051563],["increasing",-9.563239437569296],["application",-9.563502631452167],["digital",-9.563624396717925],["Union",-9.564509871370953],["buil",-9.56490535229398],["soon",-9.565379912339784],["respect",-9.566976613362247],["ry",-9.56967915924341],["ion",-9.570367357780363],["voice",-9.570534045482397],["note",-9.571880616113074],["critical",-9.571923967790255],["college",-9.573673160522528],["Hospital",-9.57400273551244],["provid",-9.574466925559861],["hundred",-9.575192110406721],["standing",-9.576964274236563],["artist",-9.577654372656614],["International",-9.577952590787202],["highe",-9.578600740617668],["opening",-9.579023344590107],["80",-9.579736534103247],["homes",-9.580116738022696],["content",-9.580344472058277],["If",-9.58036109432865],["email",-9.580976584356991],["brother",-9.581296606480365],["surprise",-9.581642257632199],["wer",-9.582031165398885],["partner",-9.582154455800598],["continu",-9.58400059798101],["manager",-9.58428924288151],["contain",-9.584664968334097],["drop",-9.586100095773443],["Road",-9.58688245194941],["county",-9.587400343518622],["climate",-9.588597447802451],["hav",-9.58942651448552],["sales",-9.594448886816778],["facilit",-9.594463892986528],["Michael",-9.595780675786184],["movement",-9.596950634447083],["bar",-9.597430284735818],["Director",-9.59786698168351],["explain",-9.598384478087604],["judge",-9.598832035133537],["speed",-9.598850618932513],["sports",-9.599283937029751],["flight",-9.599380517794472],["despi",-9.600485573490715],["James",-9.600818195576542],["universit",-9.60171179591062],["cash",-9.603020907311208],["Indian",-9.605866111059088],["Last",-9.60593935123083],["ent",-9.61062710182393],["ought",-9.611806760374641],["served",-9.613105056926475],["trust",-9.613405552946487],["register",-9.613560210308588],["spite",-9.614045963154162],["adding",-9.614166286827208],["England",-9.614491755379099],["spot",-9.615416825947566],["45",-9.615435943684838],["London",-9.615498148324631],["accuse",-9.615747847316847],["Smith",-9.6157786063815],["George",-9.61704352577128],["easy",-9.617224233398009],["successful",-9.617571420921676],["Over",-9.621967328813138],["Man",-9.62217815249872],["http",-9.62274525894275],["agency",-9.622871576223288],["image",-9.62311119535891],["enter",-9.623431628699866],["overall",-9.625878251691981],["ville",-9.628285012372679],["asking",-9.628487637111594],["multiple",-9.629547020896743],["exchange",-9.630278621425092],["notice",-9.630653776005929],["delay",-9.630671850224157],["equipment",-9.631409918176772],["Prime",-9.632269827607521],["storie",-9.6378681799257],["idea",-9.642033291680647],["guideline",-9.643456827844208],["paper",-9.644810893104829],["sometime",-9.645172899815883],["primar",-9.645661622060778],["trip",-9.647359199928228],["pre",-9.647872653682315],["shooting",-9.648288306469821],["First",-9.648647009635896],["credit",-9.649961604112665],["transport",-9.651332624284244],["celebrate",-9.651354251762175],["Act",-9.651932954918884],["ring",-9.652202934398872],["ide",-9.652590053401369],["song",-9.654153369178557],["Ministr",-9.655809225306928],["Republican",-9.656061692807468],["di",-9.657574234647305],["ic",-9.657954154713796],["attend",-9.659319610961408],["expand",-9.660807837804349],["remove",-9.66113539565723],["won",-9.661276480418978],["aware",-9.661722743456014],["ho",-9.662186688965118],["monitor",-9.662827683231288],["province",-9.663357164936041],["extra",-9.664328806599887],["file",-9.664445500371382],["Inc",-9.664456589329024],["ratio",-9.66526275843826],["Paul",-9.665535361152035],["investor",-9.66580121108616],["Florida",-9.666503109078608],["exact",-9.666546136933015],["decline",-9.66705603454484],["extreme",-9.667664256826656],["beginning",-9.667948831949532],["stand",-9.668326330521065],["poor",-9.668660681590856],["hand",-9.669545904989992],["fourth",-9.669935292828729],["relate",-9.67267446576075],["conversation",-9.67269009032959],["picture",-9.672794936098168],["tweet",-9.674429953155183],["drug",-9.675144233903495],["Texa",-9.675157785866054],["defense",-9.675512193212626],["culture",-9.675879198200969],["offering",-9.678714014629048],["search",-9.67906359261774],["true",-9.679081560395607],["item",-9.680886888579915],["spoke",-9.68317680752925],["throw",-9.685191729870592],["red",-9.685720350629168],["elected",-9.686576787599627],["rule",-9.687490720393344],["council",-9.687733135305349],["imply",-9.688558931736555],["negative",-9.68923270260367],["Office",-9.690596425003482],["son",-9.69096199441433],["Most",-9.69259671792976],["discover",-9.694307705173909],["foreign",-9.694572714951011],["La",-9.69463047626425],["generation",-9.695367155885542],["talent",-9.695442797581837],["reache",-9.695885141002677],["agreement",-9.69746640503207],["mission",-9.698458824764378],["collect",-9.69963772623787],["Bill",-9.701069248334203],["eventual",-9.702298112043698],["difference",-9.703869426080448],["Europe",-9.703924149001882],["Justice",-9.708146903965899],["violen",-9.709007809941578],["patient",-9.709022813535215],["victor",-9.709157329794781],["kept",-9.711522016596334],["double",-9.712794583818386],["District",-9.713320182773739],["church",-9.713456572003718],["debate",-9.713771497569116],["War",-9.713875624491365],["novel",-9.713926061140324],["blood",-9.71407732133138],["crowd",-9.714505362527866],["hear",-9.716041449078205],["Commission",-9.716449313580927],["plant",-9.716588412026471],["animal",-9.718232482591272],["passenger",-9.718607536479244],["Minnesota",-9.719174640772275],["battle",-9.71918548666666],["rates",-9.719364529166448],["approve",-9.719903444295223],["Israel",-9.721434214360428],["subject",-9.722746513964864],["justice",-9.72423548397825],["winner",-9.724446249972262],["j",-9.7246185586007],["igher",-9.72547562509791],["Nigerian",-9.726345720768101],["han",-9.727807595575264],["Q",-9.727888424085885],["slow",-9.729528526270073],["nce",-9.734252762910321],["Two",-9.735143329546524],["shop",-9.735224559413506],["relative",-9.735497181678195],["respond",-9.737029700186403],["device",-9.737385589515231],["Air",-9.737486080764953],["hotel",-9.740537852957644],["shift",-9.7411870803016],["ley",-9.741299949468804],["facility",-9.74459317311139],["anti",-9.746129855525645],["ex",-9.746459235547718],["finding",-9.746552083659708],["019",-9.746931001040311],["fast",-9.74705301171792],["bega",-9.747586699113501],["surance",-9.748235268416122],["€",-9.750307146720875],["screen",-9.75161561745426],["favorite",-9.752288577110097],["Force",-9.752308637977512],["realit",-9.752785986120955],["photo",-9.753060360373077],["launche",-9.753666203656685],["named",-9.754524825471407],["consumer",-9.754956733926008],["turne",-9.755193635102344],["Christmas",-9.755738878889932],["lo",-9.755953668760164],["BTC",-9.75599911650832],["Central",-9.756237334795184],["criminal",-9.756300938464225],["promise",-9.75643405531582],["holiday",-9.757009834122169],["gathering",-9.757657677004019],["reopen",-9.758166949714962],["upon",-9.758530358953825],["Other",-9.75863714309308],["Here",-9.759264371808342],["hit",-9.759304663400801],["gone",-9.760790163635544],["alone",-9.762266307761523],["ecame",-9.762448071771836],["tion",-9.762476558371263],["welcome",-9.762847642062756],["Mark",-9.762946324037062],["spring",-9.763241488440192],["mark",-9.763478876533659],["obvious",-9.76456061561468],["Jan",-9.764706898270669],["employment",-9.764884229715804],["fac",-9.76696516515402],["Board",-9.767525227127452],["host",-9.77024508296016],["charges",-9.77039352777481],["EU",-9.770966667375248],["explaine",-9.772745779296685],["commercial",-9.773607613609364],["sexual",-9.773737224699094],["Association",-9.777732119931198],["competition",-9.777924034151676],["Star",-9.778137701131804],["king",-9.779526676782076],["Lake",-9.78013912559501],["prett",-9.781326411609289],["rights",-9.781910611904523],["ather",-9.782406619323],["threaten",-9.782771409608863],["prove",-9.782878141594953],["urge",-9.785137797148767],["discuss",-9.785366105523334],["draw",-9.787867179810595],["hands",-9.789531653777846],["volunteer",-9.790052709077038],["degree",-9.790546044246952],["table",-9.791213806646857],["majorit",-9.794542905336098],["Carolina",-9.794860682188098],["shut",-9.795993727028808],["pair",-9.797268668647568],["so",-9.797451092904922],["foot",-9.802142054537807],["purpose",-9.802271183326152],["society",-9.803060830280252],["dead",-9.804035809892143],["cast",-9.804670162511053],["door",-9.807481385840502],["afternoon",-9.808591467725307],["write",-9.809513315844416],["elated",-9.809920670954568],["scale",-9.8106438131128],["Of",-9.811405553783942],["straight",-9.811568178135044],["advance",-9.811659984267841],["Los",-9.812892273858953],["Apple",-9.813987643296219],["loan",-9.814212814335788],["32",-9.815132835273337],["Like",-9.815401573682138],["Angeles",-9.816180528947548],["unique",-9.816919952033075],["Z",-9.817464481496645],["declare",-9.820836884374149],["absolute",-9.821750306064406],["arm",-9.82189553015872],["works",-9.82227612305854],["Del",-9.823073699717376],["spen",-9.823603741752386],["link",-9.825456600579955],["Red",-9.8261764607213],["evening",-9.826662601828787],["ying",-9.826875831019489],["Bay",-9.826998393305164],["owner",-9.827711020224463],["minute",-9.82806809228433],["egan",-9.82815974688052],["NFL",-9.828923788813096],["middle",-9.829134659275573],["lawyer",-9.829354405578854],["300",-9.829872814463956],["boy",-9.830217901109005],["murder",-9.830286033115733],["committe",-9.831159274572043],["display",-9.831260156401761],["weather",-9.832594792234623],["mail",-9.832818551461987],["Committee",-9.834535731847332],["craft",-9.8372760607423],["audience",-9.838340332143424],["reveal",-9.83874974880555],["Why",-9.839169823431444],["client",-9.840833129088823],["wood",-9.841600342342268],["Super",-9.842856695499531],["born",-9.84311011693853],["hearing",-9.843193621220369],["Chicago",-9.84384761863982],["committee",-9.844145024328608],["broad",-9.844311575273064],["treat",-9.846062178546592],["Well",-9.846404451469034],["King",-9.847881361569925],["discussion",-9.848254291216362],["publishe",-9.849029182878802],["incredibl",-9.84946895992036],["distance",-9.849770588832385],["beat",-9.849830560363372],["operate",-9.850251356199536],["balance",-9.851395972110915],["touch",-9.853906545631133],["fun",-9.854104337666202],["struggle",-9.854266663098892],["ake",-9.85481900525754],["propose",-9.856091255651938],["Tom",-9.857288961253445],["Governor",-9.858969055006582],["sound",-9.859562300482],["traditional",-9.859669178373803],["im",-9.86013632269979],["Secretar",-9.861362392365564],["ch",-9.862286313360002],["connection",-9.862394903984855],["basi",-9.863801799702482],["massive",-9.864848203717148],["grant",-9.865657564231574],["simple",-9.866214015829158],["responsibilit",-9.867638833635212],["finish",-9.868039094134122],["34",-9.86834314826123],["receiv",-9.868672896534733],["ome",-9.869523122335758],["Do",-9.871420551736346],["bringing",-9.871881588759521],["domestic",-9.87303948421107],["dream",-9.873445448907201],["St",-9.874669831031307],["worke",-9.875365588686572],["definite",-9.875829453461591],["reporter",-9.876918386070342],["spokes",-9.877952055479124],["Mike",-9.880383908567019],["€™",-9.882685086439947],["199",-9.886596659490712],["baby",-9.887007984087244],["Both",-9.887168347135574],["color",-9.887449785846252],["style",-9.887978604561543],["mental",-9.888427828464465],["elling",-9.889101777913666],["cap",-9.889197358522495],["politic",-9.89012440824635],["campus",-9.890173613336227],["showing",-9.890203080856303],["esterda",-9.890234221162967],["engage",-9.891160095492433],["construction",-9.891508391902367],["unding",-9.892087334351615],["word",-9.892443763791],["Williams",-9.892471486472523],["gain",-9.892489524927342],["Arm",-9.89276956287317],["producer",-9.894181892114684],["session",-9.89451884163695],["Don",-9.894669749073174],["abuse",-9.8952853859566],["poste",-9.896293041578208],["peace",-9.896428807898292],["yourself",-9.897775468621855],["governor",-9.897973252455117],["couldn",-9.898748589865423],["rowing",-9.89951519760897],["crew",-9.89970838038612],["survive",-9.90034249349495],["Oct",-9.90088024753673],["sell",-9.901630626874221],["defeat",-9.90285785698703],["zone",-9.903483262333811],["depend",-9.903647540861133],["winter",-9.90390329136449],["Scott",-9.906677347347276],["progress",-9.908100007621023],["invest",-9.909113601577982],["College",-9.909121956177184],["sister",-9.910053747558589],["floor",-9.911038458978016],["household",-9.912508029355756],["nforcement",-9.91262422706716],["strateg",-9.912696330717388],["Big",-9.914318641710144],["steps",-9.91443644829782],["identifie",-9.914690116985906],["refuse",-9.91472622869141],["prison",-9.91537017150744],["weight",-9.91688690462399],["Hill",-9.917429224664064],["wors",-9.918349013549816],["basket",-9.919101240258936],["planne",-9.920826882080956],["associate",-9.921337781237519],["Management",-9.921707472309834],["please",-9.923132066946518],["killing",-9.923300268397199],["ot",-9.923389749367718],["sh",-9.92373383410929],["central",-9.924076777743398],["ai",-9.925657886838621],["doubt",-9.926078476232924],["adult",-9.926178851632713],["vulnerabl",-9.927495715208526],["cancel",-9.930080301587214],["type",-9.930745704556578],["clean",-9.931153802692238],["listen",-9.931544055856126],["hurt",-9.931684495124667],["75",-9.931889274117417],["fresh",-9.931913330874156],["article",-9.931956441251502],["writing",-9.934068890031725],["48",-9.93426000653458],["+",-9.934465609029296],["signe",-9.935642346087288],["la",-9.936355998489546],["reflect",-9.937306928606239],["sent",-9.93915644100544],["Officer",-9.939440824327548],["debt",-9.939717614695684],["36",-9.939769493697037],["Canadian",-9.939859777320462],["sleep",-9.940040920356424],["ated",-9.94379286721154],["limite",-9.94462953183207],["train",-9.945726625292394],["language",-9.946590354570684],["freedom",-9.946688713597087],["responsibl",-9.948063250910051],["ied",-9.948211955747183],["chang",-9.94951154128319],["injur",-9.950721153069065],["indicate",-9.95094633759398],["thinking",-9.951120402004939],["apply",-9.951929233223758],["temperature",-9.95227304400781],["Amazon",-9.952784798849622],["suspend",-9.95336637429913],["retire",-9.953702081416004],["wonder",-9.955047691451705],["opene",-9.955604486754801],["sa",-9.957748539761612],["Russia",-9.959826334054513],["weapon",-9.960897487212709],["setting",-9.96091754038227],["survey",-9.96114856184193],["yards",-9.961856364778303],["speech",-9.96221610254691],["gift",-9.962314666339418],["flood",-9.962985827897985],["introduce",-9.963180194327965],["handle",-9.963606224012434],["Gov",-9.963776223469397],["ultimate",-9.963890105143385],["relief",-9.96420230274995],["France",-9.964289257944746],["greate",-9.965546635605747],["River",-9.96661418679319],["sex",-9.967912155728072],["comfortabl",-9.969397527978373],["amid",-9.969796881090625],["99",-9.972008661815128],["exercise",-9.972635007990094],["Home",-9.974151110544781],["statu",-9.97462800247475],["soft",-9.975151694079956],["approximate",-9.975217202320936],["secure",-9.975668082974407],["independent",-9.976509850905924],["science",-9.977686177875661],["nature",-9.97922770993104],["Will",-9.979435225678936],["traffic",-9.98005638941244],["MP",-9.980382972623739],["fell",-9.981924086903895],["farm",-9.98291954052049],["hair",-9.983207698934777],["Securit",-9.983739816942078],["north",-9.98377903504754],["nded",-9.984123653100609],["collection",-9.985405472273683],["Any",-9.985657991870525],["warn",-9.985669918936388],["Centre",-9.985892591877171],["window",-9.987499172680609],["plann",-9.98772717223903],["ong",-9.988216332953723],["phase",-9.988471504036754],["creat",-9.988548108073353],["Let",-9.988616607646282],["older",-9.989260153527688],["Can",-9.989311569691981],["package",-9.989312549002362],["Premier",-9.990516994846912],["ful",-9.991852218836684],["miles",-9.992393902073708],["recorde",-9.992451178186995],["kill",-9.99253856473186],["offers",-9.992551827757437],["separate",-9.992798236750662],["thank",-9.9931423979385],["communication",-9.993248199325478],["journey",-9.99351508183706],["recognize",-9.994921221569333],["poll",-9.995740084323522],["album",-9.996761898027017],["DC",-9.998055272508067],["profit",-9.99873065025577],["yond",-9.998919725604015],["ticket",-10.000637266318456],["beautiful",-10.000822497343727],["dangerous",-10.001426240790583],["allegation",-10.002012290103783],["Cup",-10.003349894631008],["wish",-10.003511563294886],["sport",-10.004051852522084],["civil",-10.004393120450771],["typical",-10.005439649537612],["remote",-10.01065342291026],["focuse",-10.010807110903876],["alternative",-10.010905323044561],["pro",-10.01131112336317],["locate",-10.0128614168537],["isolation",-10.01310244002526],["gun",-10.01398250150216],["33",-10.016378655728527],["catch",-10.017142354236114],["fear",-10.018252733403989],["truck",-10.018638775768236],["cancer",-10.018792770613063],["owns",-10.018953418950275],["studie",-10.01951980542174],["wasn",-10.019853980007815],["prepared",-10.020504398551548],["Googl",-10.021154347192839],["storm",-10.0212842628011],["Fund",-10.021667753023959],["strike",-10.02183292659874],["ough",-10.022019289763644],["French",-10.02215710510908],["choose",-10.022350860187279],["38",-10.02251549052325],["Go",-10.022571429995747],["farmers",-10.022833734780216],["Jones",-10.023394742320846],["el",-10.024598385714604],["hile",-10.02467030674824],["award",-10.026019399711853],["gan",-10.026086574445266],["die",-10.028154978710068],["Coronavirus",-10.02837344886549],["female",-10.029422157682337],["37",-10.029528749130892],["requirement",-10.029608046983721],["Chris",-10.029757029341393],["Federal",-10.030085151265961],["partie",-10.030594118398174],["assault",-10.03071965981286],["infrastructure",-10.031054364510133],["Year",-10.031366422657051],["institution",-10.03322385907263],["ling",-10.034766178906935],["advantage",-10.037544860227792],["scientist",-10.03829745252498],["scheme",-10.039149601254993],["AP",-10.041940335122327],["uch",-10.045086500124583],["opinion",-10.045213953851153],["attorney",-10.04565331782258],["Prince",-10.046058402122325],["Earl",-10.046203403990123],["Island",-10.04932636850161],["stuff",-10.050324619172375],["agent",-10.051121515899641],["Brita",-10.052452634603007],["il",-10.052624943960831],["Australian",-10.052691479279925],["surge",-10.052730994289195],["upreme",-10.053321036551196],["airport",-10.0536425590976],["conflict",-10.053726642915567],["announcement",-10.053789125286535],["polici",-10.054790007919673],["union",-10.055013196381104],["warning",-10.055575920184719],["Fire",-10.056639242164401],["stress",-10.057684257988626],["urning",-10.05788863286837],["Sam",-10.05804511297142],["supplie",-10.059960680765727],["prior",-10.060079270872901],["mber",-10.06038264194534],["ked",-10.060385741098589],["amazing",-10.060741998564616],["happening",-10.060813517237854],["severe",-10.061043108328668],["rea",-10.06143687818421],["Le",-10.061488906984126],["recall",-10.062355912512949],["knowledge",-10.062545827161518],["reading",-10.06319221086245],["supposed",-10.063936890881084],["kick",-10.0655223326495],["serving",-10.06678521333262],["rising",-10.067253764226274],["ating",-10.067255158210063],["influence",-10.067896848411007],["trades",-10.069295283749693],["dozen",-10.070453148566203],["protection",-10.070651389718304],["ble",-10.071081631804361],["roll",-10.071417972976985],["aying",-10.073177644222628],["proud",-10.07328296903118],["suit",-10.074064706420536],["ighting",-10.07412520692543],["sitting",-10.07500549737821],["Andrew",-10.075103971182862],["super",-10.075269875361144],["predict",-10.075294833892826],["Robert",-10.075695346916845],["49",-10.076258136396246],["ach",-10.076595744711154],["43",-10.077298135463755],["protester",-10.077550077576959],["complaint",-10.077795710395684],["Though",-10.07900002859634],["Communit",-10.07936648325398],["drink",-10.079372163949595],["sick",-10.079412793995253],["39",-10.081444949560893],["46",-10.083320990922054],["excited",-10.08433480376355],["section",-10.084756156846945],["resume",-10.085002195324673],["65",-10.086098688717126],["BC",-10.086179483219983],["Business",-10.086866586958301],["fine",-10.086941374517243],["structure",-10.087627615681432],["initiative",-10.088723739062107],["regional",-10.08936727111034],["programme",-10.089768907574872],["advise",-10.089804850305153],["Compan",-10.089806633073565],["Brown",-10.091042455228099],["opposition",-10.091198464812258],["closure",-10.091666745258307],["entertain",-10.091824017235679],["graduate",-10.092522980812767],["cell",-10.092557107052837],["showe",-10.0929349797686],["willing",-10.093384826319738],["let",-10.094037586598848],["achieve",-10.09497454771383],["Right",-10.09514269056031],["possibilit",-10.095210495240142],["mobile",-10.095315020847732],["crore",-10.09630689652412],["losing",-10.097012043052281],["lly",-10.09745749586866],["55",-10.097715055736124],["honor",-10.097856988265164],["heavy",-10.098673230274539],["guard",-10.09872261653295],["transition",-10.098943880098725],["Re",-10.099229866278478],["skills",-10.099302968417135],["ily",-10.101245668981228],["Under",-10.102154388741159],["joine",-10.102455682737453],["operat",-10.103108737711372],["rely",-10.103305124090092],["oil",-10.103847365385214],["boost",-10.104520259733036],["pain",-10.10491912104088],["appearance",-10.105355245700707],["pool",-10.107245284351663],["male",-10.108431944815944],["almo",-10.108871641891977],["youth",-10.108885549056865],["Mayor",-10.109192956310334],["Capital",-10.109271465429046],["Disney",-10.10969318656518],["author",-10.109735285565662],["confiden",-10.109737986393636],["Fox",-10.109753711489594],["politician",-10.109974214337779],["ra",-10.112158515331034],["provider",-10.112435485396615],["interesting",-10.11292411672899],["retail",-10.113354817274791],["sentence",-10.114084090802061],["green",-10.114346334134467],["worrie",-10.115009396540934],["bag",-10.115781296049683],["acquire",-10.116084805784633],["Republicans",-10.116934108042063],["classe",-10.117235934634873],["capture",-10.118563792338305],["south",-10.119550679048132],["injuries",-10.119906470065413],["truth",-10.120492704675886],["giant",-10.120540601341446],["Pro",-10.120554046791149],["rich",-10.121496357779126],["journalist",-10.122900320782026],["expresse",-10.124568207114791],["Church",-10.125291847868661],["circumstance",-10.125302389429914],["Thomas",-10.125604805772934],["de",-10.126166856128478],["village",-10.126247398251188],["Valley",-10.126497658476108],["Russian",-10.127824319699029],["married",-10.128717621546773],["machine",-10.12884365760845],["pop",-10.130747190696036],["perform",-10.131528530530302],["returne",-10.132953311568077],["wave",-10.133232856234613],["powerful",-10.133574439292675],["95",-10.133698046446138],["proposal",-10.134200110405738],["constant",-10.134872023895147],["participate",-10.1354827402727],["researcher",-10.136089790347835],["creative",-10.13645413976651],["lose",-10.136616332482134],["prime",-10.13844657527119],["direction",-10.139218655495306],["fuel",-10.139571713982427],["400",-10.140304209322888],["meant",-10.140884171169589],["commitment",-10.141356916985693],["carrie",-10.141443942824814],["gram",-10.14167657185045],["camp",-10.141994877691374],["illness",-10.143211059307038],["crash",-10.14416122587098],["guest",-10.144251829172317],["om",-10.145807502713463],["multi",-10.147915212922717],["equit",-10.1484149389506],["emerge",-10.148536344411594],["develope",-10.149772862141317],["respective",-10.150428007823354],["asset",-10.15125211889534],["spirit",-10.151290471166707],["reopening",-10.151414910479929],["argue",-10.15320911910657],["donation",-10.153278211007727],["owners",-10.153851358403603],["tough",-10.153999652490487],["replace",-10.154178307634595],["combat",-10.154297467477923],["Final",-10.15457774940013],["wouldn",-10.154979035150191],["tournament",-10.155026908807018],["accident",-10.155316881174103],["gold",-10.156196334973643],["Korea",-10.156203063184673],["caus",-10.156286697045942],["draft",-10.156497750815229],["contest",-10.159365621555402],["47",-10.159767517204903],["sides",-10.15978371187357],["berg",-10.160118745749575],["Blue",-10.16128330787848],["donate",-10.16143310666644],["apparent",-10.161995514450968],["Car",-10.16231388660111],["promote",-10.162727071238962],["learne",-10.163166408099581],["Hall",-10.163526997085542],["secretar",-10.163534783003993],["broke",-10.164636032992512],["Market",-10.165626073886356],["ard",-10.16573150307481],["jail",-10.166434067389533],["Nation",-10.166572380546492],["veteran",-10.166978526026863],["Peter",-10.167050536175779],["priorit",-10.1672610842902],["internet",-10.167822370571944],["vision",-10.16795863730114],["par",-10.170259754587832],["stoppe",-10.17200394333848],["Vic",-10.17306494042026],["ones",-10.173614968798375],["chose",-10.174122008028665],["tru",-10.174744881319473],["Georgia",-10.17563828799196],["Victoria",-10.175759763030012],["engineer",-10.176549513052791],["Or",-10.176852394013224],["lines",-10.177413430366382],["worse",-10.17836237404239],["beach",-10.18045668684081],["responde",-10.180685889011912],["goals",-10.180837806380076],["strength",-10.180889235203573],["contribute",-10.18153250959395],["tech",-10.181866929196232],["Sanders",-10.182334771686229],["offere",-10.182796670859766],["failure",-10.182978542674089],["trend",-10.182984239062302],["wo",-10.184195231867204],["Region",-10.184469460428641],["dropp",-10.1850739345868],["challeng",-10.1851117748574],["Virginia",-10.185860326780602],["laws",-10.186232278825337],["ruling",-10.187376842178175],["42",-10.189990873547664],["professor",-10.190185517642451],["reall",-10.190340224911338],["protocol",-10.190513215597283],["dark",-10.191014124308083],["dance",-10.192075253711113],["flow",-10.192425076913107],["smart",-10.193147089563777],["Commissioner",-10.193352458807553],["Onc",-10.193663638191076],["transaction",-10.194221442550038],["admitted",-10.194805824220957],["finishe",-10.19516587783609],["happens",-10.196223990423155],["reform",-10.19631059998418],["fellow",-10.1963314266531],["Dur",-10.197309374077324],["reas",-10.197372725511432],["haps",-10.19778539548615],["isolate",-10.198037259322268],["writer",-10.19824366668568],["imagine",-10.198527132989103],["mix",-10.198860276855878],["Martin",-10.199270006069735],["ased",-10.199452109569783],["representative",-10.199457914236858],["ping",-10.199809216372543],["chain",-10.200924354802126],["Harry",-10.200940844810763],["Du",-10.201172298374642],["approval",-10.20127673901583],["By",-10.201560129468568],["warm",-10.201586980762169],["Times",-10.20166496460093],["struggl",-10.20366515712628],["transmission",-10.203988894538499],["element",-10.20444287314103],["Post",-10.205935433626616],["du",-10.206135565187342],["outcome",-10.20683573845184],["Development",-10.207059279865533],["Jackson",-10.207259033780684],["Jack",-10.207331213278366],["Club",-10.20738897328161],["complex",-10.207461416834025],["transfer",-10.207701463505565],["religious",-10.207964629955178],["regulation",-10.208072631472842],["Institute",-10.208357592485356],["regulator",-10.208363074294825],["panel",-10.208535382226028],["opponent",-10.210239990599218],["scenario",-10.210789933793743],["bond",-10.211167363238026],["invite",-10.211171631355427],["afford",-10.212832826996264],["mayor",-10.213352689193165],["pped",-10.213547133924415],["connect",-10.21476317263815],["implement",-10.215472175839452],["English",-10.2154765393467],["rapid",-10.215484280857762],["Royal",-10.216236639149875],["Avenue",-10.217070011182738],["distribution",-10.217614843091507],["Serie",-10.217620852878188],["channel",-10.218853211703184],["plus",-10.21973088927733],["laying",-10.219810450507264],["path",-10.220082221133655],["ministr",-10.220162099997388],["art",-10.220268088204449],["surface",-10.22046795271239],["function",-10.220645708220339],["44",-10.221210566151662],["Feb",-10.22231322047243],["route",-10.223102379665711],["tackle",-10.223660077155547],["radio",-10.224191492375564],["longe",-10.225197530769641],["dividend",-10.226121441875154],["wise",-10.227089515115514],["Ben",-10.227422215347575],["nurse",-10.227742911663864],["electric",-10.227913376888003],["burn",-10.229246718895759],["opping",-10.229363891793248],["establishe",-10.229370999258878],["Law",-10.229403813453267],["familiar",-10.229739448069132],["realize",-10.233034020658572],["recommendation",-10.234012702060692],["covering",-10.234991432160284],["ton",-10.236223620424596],["ish",-10.237265829812827],["meaning",-10.237946568010841],["--",-10.238686348661984],["guid",-10.240619247654099],["Your",-10.24116816101496],["41",-10.241703381979654],["Election",-10.242035449937646],["division",-10.243455933717566],["ural",-10.243951136777468],["century",-10.244512519995038],["modern",-10.246073726799652],["understanding",-10.246148990365915],["flag",-10.246279727116075],["meal",-10.2472550099945],["Aug",-10.24815495828232],["bridge",-10.24904482350388],["eyes",-10.249258285013063],["possibl",-10.249379221717312],["hip",-10.249530937573756],["presen",-10.25018900115515],["ter",-10.250388156833328],["basic",-10.250964186448474],["Max",-10.252269317268821],["stick",-10.252830487425573],["studio",-10.253369229012662],["claime",-10.253507465636844],["shape",-10.253788143613175],["Western",-10.253953517246929],["Follow",-10.254610380802461],["ate",-10.254728725275793],["illegal",-10.25528473524303],["Christian",-10.25611532622153],["obtain",-10.25616855721924],["appropriate",-10.256323150189878],["rally",-10.25650537504087],["internal",-10.256841791706288],["CDC",-10.257284140338754],["alling",-10.257474968023892],["consistent",-10.258160688877037],["guide",-10.260231970689626],["016",-10.261492898274446],["apartment",-10.261576662790514],["pushe",-10.26176363990588],["photos",-10.262187467630497],["wild",-10.262573321094594],["strict",-10.263117996638929],["leg",-10.263657084263226],["island",-10.263692076920432],["Research",-10.264333875040137],["instance",-10.264878339395679],["visitor",-10.265153788729958],["entry",-10.265292793614964],["unlike",-10.265345861201084],["runs",-10.266310619636563],["wealth",-10.268045745365797],["mouth",-10.26846708705983],["guilt",-10.269479566092834],["pack",-10.269680866726771],["east",-10.270880504562351],["cool",-10.272384972381117],["identify",-10.272603125168036],["shelter",-10.272665638207142],["yard",-10.27285344085081],["closing",-10.27368911645113],["permanent",-10.274522056278265],["twic",-10.274790704749801],["rescue",-10.275040860574432],["belo",-10.275833218028186],["joint",-10.276068145261767],["determined",-10.276071429100735],["gre",-10.277905294028677],["Love",-10.277941057411596],["coverage",-10.278169578545409],["television",-10.278646753122441],["Ohio",-10.279052806665103],["honest",-10.279620797473306],["rain",-10.2797832198604],["grade",-10.280077715863609],["Harris",-10.280159917467532],["hopeful",-10.280710367942536],["Corp",-10.280744787549015],["drugs",-10.281327854138858],["ollywood",-10.281647073738345],["length",-10.282028771618684],["margin",-10.282042838173648],["aking",-10.282350789851439],["desire",-10.283126616185085],["volume",-10.28369527930187],["speci",-10.284137293363921],["determine",-10.28420345751918],["combine",-10.285015663914738],["expose",-10.285820974106386],["decide",-10.286460820419457],["singer",-10.28667064867518],["Sen",-10.286753459964466],["ban",-10.286944451830255],["defend",-10.286969051421659],["attende",-10.287107706957887],["communi",-10.287648526854689],["partners",-10.287839026012211],["wall",-10.287875568672277],["breaking",-10.2881058410066],["mor",-10.288481749279256],["corner",-10.2893445951191],["port",-10.289718867591013],["glass",-10.2907359029279],["Three",-10.29389242286394],["Mexic",-10.294092604781836],["deploy",-10.294882917040564],["blame",-10.295122846228901],["ether",-10.29580645691825],["method",-10.295837661805798],["Floyd",-10.295938331503763],["consequence",-10.2959461035311],["finance",-10.296522624493406],["festival",-10.296539618627094],["impose",-10.296636685819667],["highlight",-10.296897727076987],["enable",-10.297131286077764],["reaction",-10.297203002391228],["Education",-10.297361145611735],["variet",-10.29746843685222],["organisation",-10.298990193367707],["maker",-10.29936427396226],["Medical",-10.29967425581254],["designe",-10.299958844458724],["ba",-10.300306437968114],["ran",-10.30042283991602],["Port",-10.30132348144637],["ears",-10.301709715242964],["jump",-10.302831152713615],["Maine",-10.303355171836415],["sed",-10.304186086702908],["ded",-10.30477691162578],["kne",-10.305598488455665],["Student",-10.30633646011945],["rock",-10.306899630751744],["ki",-10.307150293422072],["prepare",-10.307597319105785],["segment",-10.308177784912056],["forecast",-10.309075868823175],["airline",-10.30932638392628],["books",-10.31167771387613],["Ho",-10.311984397157556],["environmental",-10.312882480912338],["uncertaint",-10.313232820063602],["600",-10.314079558250418],["toll",-10.315055691337097],["Iowa",-10.316237457316578],["sudden",-10.318764211518916],["neighbor",-10.31932487817028],["aspect",-10.321929231474948],["busy",-10.32270420751711],["anticipate",-10.32298165028919],["colleague",-10.324324029270649],["express",-10.324757038801838],["correct",-10.325718249963776],["background",-10.326549158360642],["Micro",-10.326827091209376],["Frank",-10.327523114411312],["800",-10.32773708772969],["viewers",-10.328265239997926],["eating",-10.329771398218638],["int",-10.331652325199649],["56",-10.33233904744759],["appointment",-10.33236090301216],["license",-10.332876298009719],["•",-10.33378840346635],["Iranian",-10.333981441868943],["lawsuit",-10.33404302596129],["Only",-10.334119771635192],["sustain",-10.335364657516445],["Beach",-10.335497373200326],["batter",-10.3360510928965],["coast",-10.33668555024794],["op",-10.336776184150521],["Adam",-10.336920495897306],["cold",-10.337219548823812],["pound",-10.337574448488759],["Up",-10.337753745385914],["Long",-10.338031568559515],["ast",-10.338038051239323],["Singh",-10.338123675481732],["Good",-10.33812962892548],["secret",-10.339376614255343],["Ra",-10.339518817242624],["intelligence",-10.33982088590066],["breath",-10.340974617375622],["bee",-10.34185783317631],["Netflix",-10.343497147905452],["consensu",-10.343629736934776],["PM",-10.343910752784742],["Still",-10.34419672672906],["Investment",-10.344226531423335],["Authorit",-10.344466316226729],["Assembly",-10.344521621691335],["Who",-10.344702362191462],["85",-10.344716145924057],["tool",-10.344865201465058],["neighborhood",-10.34564477555071],["resolve",-10.346082867645464],["wedding",-10.346417042181375],["fill",-10.346544743978203],["provision",-10.347416978986963],["wan",-10.347431929322966],["commission",-10.34757925572205],["agricultur",-10.347645244486646],["nice",-10.347759851374267],["ick",-10.348463655084949],["slight",-10.349616646472153],["inspire",-10.349843909177476],["ideas",-10.350413002860737],["injure",-10.350964213207853],["bout",-10.351100939129537],["newly",-10.35282991580695],["Obama",-10.353388845471965],["Executive",-10.353465159091677],["stake",-10.353531213357417],["technical",-10.353642360439057],["participant",-10.353943048252912],["master",-10.353949619114918],["witnesse",-10.354350373393451],["outdoor",-10.354359015473587],["53",-10.354585938388723],["hop",-10.354710236564559],["ir",-10.355274050721762],["grand",-10.35547098842964],["pace",-10.355649315051238],["Young",-10.356047503042896],["chairman",-10.35637182466341],["52",-10.35666203283332],["Play",-10.357263299159062],["lso",-10.357971969350618],["rush",-10.358300784292531],["resolution",-10.35872396088199],["compete",-10.359862204710822],["classic",-10.360365903294799],["li",-10.360814421383017],["mass",-10.361378785438202],["expectation",-10.362756439241483],["denie",-10.3632793306398],["celebration",-10.364339465031376],["Earth",-10.364530154496862],["franchise",-10.36521202583861],["faith",-10.365872964655992],["trouble",-10.366108480266771],["Human",-10.366192845961066],["bi",-10.366624573644916],["briefing",-10.367314917824405],["numero",-10.369939526955715],["famous",-10.369987076282351],["whom",-10.370401863227574],["appreciate",-10.370850070587037],["mandate",-10.372585373621622],["Ne",-10.373309618913837],["partnership",-10.373494341945452],["rom",-10.373601531939348],["Bryan",-10.373679890912525],["telling",-10.374133449069355],["Insta",-10.375156994015448],["doors",-10.375649720222842],["Station",-10.375893483207115],["blue",-10.376988273313144],["reject",-10.377144568543647],["CBS",-10.377207734049794],["employer",-10.37792377636458],["guess",-10.379648051695533],["edge",-10.379796111407131],["importan",-10.379959588405558],["Francisc",-10.380292991409801],["chair",-10.380522454893818],["Press",-10.3817454123937],["broken",-10.382148033181945],["ose",-10.382281695021813],["rose",-10.382990811648188],["skin",-10.383130027843372],["Taylor",-10.38337048999738],["analysis",-10.383684641678204],["suffering",-10.383783043394237],["orrow",-10.384014845249784],["lawmaker",-10.384451674262488],["Daniel",-10.384495704843253],["looke",-10.385113663796947],["racial",-10.385172827225263],["Me",-10.385649965373055],["sample",-10.385679031235536],["Mar",-10.38627291066739],["Week",-10.386728782248731],["ice",-10.38762160536482],["relevan",-10.388285516378353],["softw",-10.388472097432757],["Live",-10.389833230924742],["operator",-10.389996331197228],["Watch",-10.390023976305756],["min",-10.390715848089751],["dealing",-10.390816290783407],["Where",-10.39094424240062],["boat",-10.391216337744016],["escape",-10.39286870832143],["debut",-10.392941071935038],["Jewish",-10.39359726035903],["bottom",-10.393702276414087],["Rock",-10.393765423246077],["prosecutor",-10.393832916045133],["applie",-10.39397181467228],["Ba",-10.394789072284656],["decrease",-10.39499065630977],["spike",-10.395194690826559],["saw",-10.395249589896501],["Asia",-10.395495870172162],["Additional",-10.396760227248091],["dog",-10.397609359317475],["mistake",-10.397778688118155],["repeated",-10.398155981882649],["shortage",-10.398224727313202],["nuclear",-10.398797126613477],["zero",-10.400906371630729],["prospect",-10.400930731939388],["charit",-10.401139310366247],["observe",-10.401463751296834],["ke",-10.402108046925008],["Coast",-10.402139169078431],["emotional",-10.40301747066421],["intend",-10.4034159900461],["Turkey",-10.404239904597727],["Care",-10.40459923550464],["los",-10.404769594640644],["newspaper",-10.405734993560426],["gender",-10.405791354083881],["bus",-10.406286370245503],["Team",-10.406439277637162],["soldier",-10.407778805316847],["athlete",-10.408188029622014],["tuck",-10.40819998617685],["64",-10.409361680160995],["Van",-10.409365589533731],["66",-10.409505032306951],["actress",-10.409922237290235],["govern",-10.410267012810444],["Life",-10.410440648729413],["brief",-10.410676193289964],["save",-10.411406496513914],["Game",-10.411640523186392],["57",-10.411937202143065],["78",-10.411960070077395],["llowing",-10.412429256604007],["suffere",-10.412802539207096],["Parliament",-10.413277424991108],["Grand",-10.414703323915532],["birthday",-10.415133648521495],["accurate",-10.415295500145113],["Former",-10.415508429848053],["58",-10.41635126237517],["sharp",-10.416539308142095],["deserve",-10.416686938269246],["Dan",-10.416957072948941],["explore",-10.41711695104285],["set",-10.417143819679087],["vot",-10.417409238325138],["Col",-10.41761091927004],["wind",-10.417899651830552],["con",-10.41813228385301],["Local",-10.418539460596087],["William",-10.418936952396141],["touchdown",-10.419725540876872],["expens",-10.419986323893205],["medicine",-10.420808513984976],["Pakistan",-10.421556810553628],["te",-10.422314205623382],["remind",-10.422791033349593],["Asian",-10.42308372674728],["Jo",-10.423528236565737],["investigat",-10.423536729520588],["core",-10.423737658702194],["stands",-10.423911033467924],["NB",-10.424652339395767],["thanks",-10.424695945384777],["Sh",-10.424832694081314],["Muslim",-10.424907877640319],["rival",-10.42512117563378],["marriage",-10.425255624157924],["contribution",-10.42550797975641],["Zoom",-10.425792691147997],["wage",-10.425927105965712],["democrac",-10.426054847279431],["behavior",-10.42620871642399],["temporar",-10.426356113245085],["Mary",-10.427502495580061],["Global",-10.428242541845503],["PC",-10.428481549059041],["cloud",-10.428625211005617],["troop",-10.428816093638634],["concert",-10.429502184205514],["Bo",-10.43087608099599],["generate",-10.431030549387392],["spokesm",-10.43106215807897],["treate",-10.431212985513287],["identit",-10.43282530508445],["dinner",-10.433157118858126],["upgrade",-10.43333501509921],["haring",-10.43450607899359],["Best",-10.434511674598387],["bough",-10.435105915224588],["championship",-10.435618935429982],["Se",-10.435710438066401],["Sun",-10.435886675334922],["theater",-10.436026047956926],["venue",-10.436181385760468],["Project",-10.436380815014392],["disaster",-10.436694219512557],["task",-10.437082968583262],["Ro",-10.437260141042845],["Among",-10.437543353253467],["bright",-10.437873030717157],["Ryan",-10.43860386051557],["54",-10.439065043513418],["quiet",-10.439113114922488],["racis",-10.439378896031137],["fashion",-10.43947884732644],["quarterback",-10.439561247792327],["danger",-10.439748191559701],["Maybe",-10.440262677584261],["manner",-10.440337629126443],["conclude",-10.441068720778075],["Social",-10.441586761258154],["tradition",-10.44238852834664],["occasion",-10.44370672181568],["cloth",-10.443931424433305],["roads",-10.444109546081442],["Charles",-10.444495386162894],["trad",-10.445273112153052],["solid",-10.446981630876447],["defensive",-10.447180835243955],["percentage",-10.447186596534783],["corporate",-10.447188085808332],["sort",-10.447680914034155],["trail",-10.447942955772211],["59",-10.44812118661569],["argument",-10.44923831685338],["informe",-10.44955382634677],["drama",-10.449655217072383],["polls",-10.449706072329757],["ro",-10.45022573028773],["lock",-10.450888573155781],["tic",-10.451608290675251],["alert",-10.4516224626048],["Bowl",-10.452113531954959],["ving",-10.452684925366249],["bottle",-10.453412179954823],["instruction",-10.45348557624633],["2012",-10.45522070260651],["garden",-10.45533954586879],["Morgan",-10.455530285474811],["ries",-10.455942683511841],["Control",-10.45594972769641],["blow",-10.456038113127256],["larger",-10.456358357216514],["waste",-10.45706823479464],["Toronto",-10.457074576199876],["founder",-10.457866236772297],["fifth",-10.458185608421736],["valu",-10.459119841951486],["Jordan",-10.45914802599643],["aren",-10.459221743803685],["crop",-10.459571081937673],["dispute",-10.459760197991688],["Kong",-10.459835129379162],["El",-10.46012625815922],["Power",-10.460637618036975],["Work",-10.461293991034047],["alcohol",-10.461427268361671],["affair",-10.46231924956345],["2010",-10.463338605912575],["produc",-10.463863383982623],["easi",-10.464074348145772],["62",-10.465350595101512],["routine",-10.465478455778644],["mov",-10.467146404205288],["Khan",-10.46719695290934],["eligib",-10.467630434705471],["guarantee",-10.468134408811917],["sale",-10.468254213800739],["square",-10.468314585100945],["Gold",-10.468419824634665],["ag",-10.468723003485305],["distribute",-10.469162333034628],["Middle",-10.469212949600038],["System",-10.469727792110971],["Daily",-10.469790627640624],["Yet",-10.470181649589158],["offensive",-10.471211110171906],["84",-10.471232494026083],["ages",-10.471348331822732],["Trust",-10.471378659021909],["Lo",-10.47228781045836],["iPhone",-10.47250390303605],["Sports",-10.47336734068255],["recruit",-10.473628535931969],["Judge",-10.475152484898334],["postpone",-10.475940095839615],["wake",-10.476535379491398],["profile",-10.47671629810189],["ood",-10.477788633753699],["comfort",-10.477887133733471],["procedure",-10.478610189070334],["Pennsylvania",-10.479120217945592],["capabilit",-10.479815096643897],["counter",-10.48060577085354],["Speak",-10.481127184783189],["supporter",-10.481385885255026],["investigate",-10.483160530428666],["playoff",-10.484620932320286],["false",-10.485478567825691],["establish",-10.486341976509316],["Yes",-10.486433433499094],["featur",-10.487439278994412],["immun",-10.488159695935279],["Jim",-10.488175727648933],["PS",-10.488262684830856],["occurre",-10.488408050488038],["Water",-10.488446668221158],["confirm",-10.48890509276405],["involv",-10.489786581046648],["Jersey",-10.490369527665898],["Economic",-10.490658899102929],["Second",-10.49131530347021],["Open",-10.491475682702271],["royal",-10.49308733344951],["unclear",-10.493589934423579],["ty",-10.493650779366472],["possession",-10.493761008169345],["earne",-10.49425602829334],["76",-10.494805887031514],["surprising",-10.495984876233237],["shoot",-10.49616444565293],["Vegas",-10.496245745879037],["Senator",-10.496447488645735],["peak",-10.496838061138046],["categor",-10.496973855068457],["writ",-10.497285470042907],["permit",-10.498453769877212],["taxe",-10.49876636614852],["Lee",-10.49878195238131],["favor",-10.499312137104907],["lifte",-10.500057537302517],["yield",-10.500464518627268],["broadcast",-10.501053050600792],["67",-10.5011162201701],["pic",-10.501607039628144],["grocer",-10.502091430008093],["announce",-10.502482954389315],["excellent",-10.502922794242377],["Paris",-10.503034188746897],["memor",-10.503513063985],["inter",-10.503636872864297],["Bloom",-10.503792261073464],["vital",-10.504148718882647],["ous",-10.504697279894431],["export",-10.50550275656422],["urban",-10.505533805051176],["fish",-10.505859281913201],["Scotl",-10.50600076934542],["Plu",-10.508323203310889],["pitch",-10.508451073566825],["exposure",-10.508481715381613],["oursel",-10.508515899249964],["oday",-10.508691678639867],["trick",-10.50875329081081],["import",-10.50929301714256],["knowing",-10.509568975342347],["gas",-10.510503390800363],["reference",-10.511127600690282],["dedicate",-10.511377568114362],["embrace",-10.511457472648331],["Lago",-10.5119047610203],["expense",-10.512023470216251],["lights",-10.512816770321171],["Arizona",-10.513240557430242],["Championship",-10.513280097395397],["assessment",-10.513975273367224],["ga",-10.514204881514218],["Labour",-10.51431011617288],["Ken",-10.514391601604],["Family",-10.514416260486852],["frequent",-10.514621882356547],["51",-10.514936628716406],["Spa",-10.515136768106867],["footage",-10.515215711734385],["xciting",-10.515671265856572],["collapse",-10.515719793484424],["attract",-10.516664961575032],["fraud",-10.516843291747193],["Energ",-10.516979386321673],["Steve",-10.517016128267738],["uses",-10.51721133145536],["homeless",-10.517255246006718],["computer",-10.517309369704375],["250",-10.51761367159833],["indoor",-10.518111621847257],["industrial",-10.519646464230398],["eeds",-10.521219760541332],["Alex",-10.521413072250065],["struck",-10.52179389923082],["northern",-10.522122476035612],["Real",-10.523835718922268],["strategic",-10.523928381126595],["Town",-10.524029933786016],["lots",-10.524356149241786],["kitchen",-10.52487148266799],["precaution",-10.524911904883076],["88",-10.524949894272833],["competitive",-10.52498507045307],["unprecedented",-10.525006359874283],["unfortunate",-10.525101988540861],["Academ",-10.526663638079917],["highl",-10.526795912704387],["divers",-10.526943527021123],["collective",-10.527139793892758],["helpe",-10.52759737137977],["improvement",-10.528184151376497],["object",-10.52843276932552],["onger",-10.528628643834175],["017",-10.528883518454716],["Back",-10.529050036394477],["met",-10.52913907612232],["Alberta",-10.529149091505221],["legend",-10.529353092833574],["native",-10.530266124548866],["150",-10.530678282294126],["vast",-10.530996491904169],["Ka",-10.53107129669533],["72",-10.531393790894253],["ski",-10.531677421337687],["topic",-10.531813851573283],["bound",-10.533742937600302],["pa",-10.534147303139214],["plays",-10.535334416186231],["diagnose",-10.535524087100864],["historic",-10.536522782319807],["Wisconsin",-10.536606556993966],["Foreign",-10.536650714794828],["Advisor",-10.536753450819647],["stars",-10.536815746265049],["collaboration",-10.536978712153841],["offense",-10.537160987112621],["regime",-10.53739492380105],["deput",-10.537819036163668],["objective",-10.538303861640742],["reduction",-10.539063885910533],["Four",-10.539724996352568],["Lewis",-10.540077160538061],["cars",-10.540080955476348],["nable",-10.540438568825197],["wor",-10.541288231660491],["Kim",-10.541519299068781],["legac",-10.541681135422436],["prepar",-10.541953893727566],["pilot",-10.54207458921333],["Bar",-10.542100686756896],["recording",-10.542588035179193],["witness",-10.544319111613692],["flu",-10.544779370688303],["Great",-10.545078711300128],["bodie",-10.54621620277705],["ant",-10.54668500928712],["Look",-10.547499086409243],["custod",-10.547654210986515],["Elizabeth",-10.54851206125604],["Unfortunate",-10.54853182935878],["Sheriff",-10.548581257743017],["Disease",-10.548654902036985],["command",-10.548683875389685],["Network",-10.548957675602239],["remark",-10.549268573963403],["Show",-10.549272723135768],["birth",-10.549861223034089],["nomination",-10.551126191263567],["sky",-10.551846276910966],["praise",-10.552735868041303],["matche",-10.55375375957436],["luck",-10.553905711463521],["settle",-10.55414730779744],["Free",-10.554744211435002],["switch",-10.55560618630974],["cultural",-10.555758449669664],["wards",-10.55655840972145],["sold",-10.556878300390519],["indeed",-10.556930779853737],["lakh",-10.55784708813097],["77",-10.558066528985872],["deadl",-10.558659271309951],["shire",-10.559243807000932],["700",-10.559769325495523],["connected",-10.559995202132413],["saving",-10.560163530652648],["suffer",-10.560321832193507],["Afghan",-10.560563220756388],["Attorney",-10.56079309034472],["lesson",-10.560847072827627],["Deput",-10.561025915534263],["advocate",-10.561165908745062],["peaceful",-10.561498127634042],["Richard",-10.561932371733935],["Gar",-10.56279522798974],["Ontario",-10.56308543663344],["rmed",-10.563775237096038],["downtown",-10.564611093808988],["shoulder",-10.566644686223025],["Eastern",-10.566762742618945],["teaching",-10.567505832404194],["print",-10.56772329867648],["Nav",-10.567779514850393],["photograph",-10.569097805941148],["tting",-10.569657987616196],["Davis",-10.57081233507372],["anywhere",-10.571405461090247],["stead",-10.571499806167083],["cha",-10.572059180450433],["PD",-10.572755551409367],["junior",-10.572768213855904],["stretch",-10.572964274601087],["greed",-10.573047554263553],["Senior",-10.573093385315442],["Cross",-10.573228691967488],["worry",-10.574956738430222],["Wal",-10.57510409176178],["speaker",-10.576539163546798],["Justin",-10.577867059287794],["careful",-10.578617374677169],["surrounding",-10.579467325878872],["admit",-10.579600192569888],["Report",-10.579764550664837],["code",-10.580166281866383],["68",-10.580262433437966],["cycle",-10.580785750444761],["Ital",-10.580931428661527],["outlet",-10.58094778645673],["quote",-10.582370876154675],["ward",-10.582781446048077],["recommend",-10.583238038545026],["extraordinar",-10.583793140271517],["manufacturer",-10.584187634540562],["Please",-10.58454157792572],["heavi",-10.585048946421157],["Catholic",-10.585100692551094],["acknowledge",-10.585895290134513],["Republic",-10.586133410812481],["corrupti",-10.586436672971455],["Award",-10.58692394720131],["narrative",-10.58716138167075],["empty",-10.587210936874484],["enhance",-10.587283897363154],["akes",-10.587429172961656],["Food",-10.587769883855739],["Colorado",-10.58807352693233],["academic",-10.588695565618401],["sweet",-10.588831856305184],["tourist",-10.58948166271115],["assistan",-10.5895457999471],["motion",-10.591495747494802],["folks",-10.59241612023565],["filing",-10.592490867743232],["Sara",-10.592539772501496],["gav",-10.592750895909603],["headline",-10.59277332515472],["clinical",-10.593118179350558],["manufactur",-10.593398276421798],["split",-10.594026035669266],["Ha",-10.595053028556984],["scor",-10.595275577423404],["residence",-10.595411128784562],["equal",-10.595749964982545],["plane",-10.59582540168994],["cryptocurrenc",-10.597740359850144],["violation",-10.59822546780612],["clock",-10.59839271770991],["Thank",-10.598553021165884],["delphi",-10.599507964025886],["videos",-10.599616195150464],["Jason",-10.600181176460332],["ew",-10.600453292380713],["disclose",-10.600490406642749],["west",-10.600524450863205],["Through",-10.60109886578698],["ABC",-10.601257375465348],["oundation",-10.60141065251575],["ceremon",-10.602320319590657],["Clark",-10.602526381713645],["retty",-10.602609250940226],["NH",-10.60262998372598],["frame",-10.603012270876993],["Queen",-10.60304872003601],["too",-10.60334260157647],["mo",-10.603587920706184],["Conference",-10.603652086756421],["arrival",-10.60387860269309],["brain",-10.603912608835174],["dress",-10.605877718575059],["engine",-10.606005683658648],["Iraq",-10.60696129048538],["text",-10.607040518363139],["concept",-10.61000212938384],["Professor",-10.610271780132894],["perspective",-10.610385249267416],["conservative",-10.610387064999962],["Tony",-10.610883255185342],["dramatic",-10.611443914402823],["legislation",-10.611735349888159],["golf",-10.611969115320207],["desperate",-10.612251841878017],["Phila",-10.612873966359391],["NA",-10.613007020101765],["baseball",-10.613098741206546],["plastic",-10.613467638580817],["historical",-10.613735308404273],["load",-10.614452149313113],["views",-10.615035529630738],["ham",-10.615095073070783],["citi",-10.615160110353063],["Drive",-10.615571740168082],["imited",-10.615842071208089],["except",-10.616043389665794],["plent",-10.616230522153867],["Michi",-10.617060908368853],["ey",-10.617377016672384],["followers",-10.617418153711553],["curb",-10.617501386693313],["encounter",-10.618505111415278],["trailer",-10.61887787576547],["recogni",-10.619080097959587],["minorit",-10.619405559535544],["colour",-10.619744444522745],["ext",-10.622878645644281],["lift",-10.623710889680405],["classroom",-10.623793052877282],["signal",-10.623904908169514],["wonderful",-10.624185561648531],["absence",-10.624780485576952],["Season",-10.626048056470854],["proof",-10.626226531759999],["sanction",-10.627196772395816],["Plan",-10.62788091692077],["adapt",-10.628228018409834],["demonstrate",-10.628333944289205],["ung",-10.628752111096706],["Israeli",-10.628956671885083],["failing",-10.62921051063022],["presente",-10.6295666354441],["easie",-10.63174545542274],["fishing",-10.631995300084178],["5G",-10.632024957838635],["hole",-10.632442737439694],["submitt",-10.632808431477315],["wheel",-10.633399844196676],["joke",-10.634670409988491],["signing",-10.634671911734692],["Mo",-10.634730597343477],["divide",-10.634769999780136],["cook",-10.635570686442342],["combination",-10.63618802883393],["Science",-10.636199933164525],["UN",-10.636372128165256],["index",-10.638335863943958],["Ali",-10.638517103274346],["pen",-10.638785185389498],["caution",-10.638837979138376],["Las",-10.6394612567919],["Tok",-10.639694467833479],["entere",-10.640176943124445],["neck",-10.640339616422011],["senator",-10.640750813106148],["Agenc",-10.641079693881828],["prayer",-10.64140634328405],["vi",-10.644373777362862],["confident",-10.644625422842113],["restrict",-10.646006307439139],["Boy",-10.646169759661468],["69",-10.647458730281828],["disappoint",-10.647991188693876],["Special",-10.648730072964788],["Joseph",-10.649270406562035],["component",-10.649355420535517],["reserve",-10.649441041440761],["portion",-10.650030946520332],["cancell",-10.650204343719672],["enforce",-10.651058917455002],["cease",-10.651100782087898],["Saudi",-10.651153286935388],["touris",-10.652104930808882],["Kelly",-10.652528071252018],["anxiet",-10.652840962803305],["Patriot",-10.652987738059576],["belief",-10.653230429579098],["unny",-10.653237076473445],["urgent",-10.653471794349967],["abandon",-10.653983885199853],["bail",-10.654187717950668],["cuts",-10.655159156894644],["depth",-10.655301535102264],["lab",-10.655365434135243],["gam",-10.655683551530661],["Lord",-10.65585260574513],["mount",-10.655975980354846],["strengthen",-10.656469572944737],["coin",-10.656580887985317],["reduc",-10.656613257053024],["extension",-10.65715922392296],["bury",-10.657179679618952],["inmate",-10.658203420136338],["96",-10.658758332161081],["Zealand",-10.65892512508075],["63",-10.659707458079172],["driv",-10.659766181962722],["fruit",-10.659801509811345],["Brady",-10.6599078741245],["Santa",-10.661296557503936],["At",-10.661651064716665],["uar",-10.661781622353818],["define",-10.662094756565436],["hey",-10.66251506552846],["86",-10.662916330054866],["reasonable",-10.663519035878103],["impossible",-10.663530825026525],["nominee",-10.664194733479867],["mode",-10.664513572322598],["ier",-10.664698158584486],["fan",-10.666073830288713],["App",-10.666334149738024],["Official",-10.666855202617963],["unknown",-10.666951136163146],["younge",-10.666963357815618],["forget",-10.667817524130808],["exit",-10.668063918105027],["198",-10.668941522603388],["relations",-10.66988918482081],["rent",-10.671363176621089],["misse",-10.672649203501795],["cleaning",-10.672811803896654],["FC",-10.673249629332553],["Saint",-10.67387523675793],["Ju",-10.674536842098162],["Head",-10.675064726497977],["non",-10.675649256262478],["visibl",-10.675970825975018],["Eric",-10.676052341522638],["Sydney",-10.676074041280403],["Houst",-10.67698828074499],["horror",-10.677326158391175],["criticism",-10.67740730778978],["61",-10.677783499526663],["grass",-10.68025065343679],["automatic",-10.68044495659736],["LA",-10.681177909458047],["Area",-10.682175844697628],["fired",-10.68277341337291],["Pa",-10.683955564560115],["banne",-10.68420713726918],["ining",-10.684758253725686],["Down",-10.684992084414024],["remaine",-10.685004108015642],["employe",-10.685225052069605],["organize",-10.68525012844967],["Har",-10.685292394986796],["detect",-10.686217150913183],["Media",-10.686708570703239],["names",-10.686811734945467],["cas",-10.686818227470255],["knock",-10.688051240031994],["Mac",-10.688235565599882],["pursue",-10.688344434438338],["hen",-10.688607500635314],["craz",-10.689423579161012],["YouTube",-10.68956426613919],["champion",-10.689813382985449],["museum",-10.689901566945831],["western",-10.691448525503095],["shirt",-10.691538279261628],["ington",-10.692287574050571],["74",-10.692290526081038],["maxim",-10.693103777251498],["developer",-10.693353180595839],["implemente",-10.69378483577578],["comic",-10.69389285815223],["experienc",-10.693953193930268],["aggressive",-10.694105760794095],["improv",-10.694272054178086],["gather",-10.694339303151636],["signature",-10.695473132948191],["penalt",-10.695700413698987],["Golden",-10.696282242456281],["upper",-10.696846468466099],["scientific",-10.697193248684059],["addresse",-10.698737792506375],["Kevi",-10.69884355678737],["Desp",-10.699520780738776],["stimul",-10.699546779965118],["primari",-10.701602219949745],["Als",-10.702071870932002],["purchas",-10.702077581584536],["Late",-10.702189565990377],["Have",-10.702190956013085],["JP",-10.702808770734961],["send",-10.702876077647238],["ely",-10.703189506561062],["medium",-10.70417045124351],["Ar",-10.704437378973438],["viral",-10.704451478120703],["pocket",-10.704458197684726],["HO",-10.704584326399333],["Guyan",-10.704835271993081],["wound",-10.705252769368187],["install",-10.70613796678063],["harm",-10.706311830248138],["quit",-10.70652324755616],["fix",-10.706799214177089],["anger",-10.707739915991827],["storage",-10.708533579617235],["sustainabl",-10.709490239845099],["violent",-10.710162794146965],["Josh",-10.710188014766342],["fundamental",-10.713254242274981],["sta",-10.713528864986959],["et",-10.713914762111695],["Henr",-10.714074001244423],["genuine",-10.716256734430749],["condemn",-10.717531118270397],["Bitcoin",-10.717747682093425],["Bengal",-10.717830705762193],["Further",-10.717953071799656],["context",-10.717995155934862],["behaviour",-10.719274657736861],["ize",-10.719346896833528],["marked",-10.720445639744186],["chart",-10.720826331869493],["smartphone",-10.721478853734855],["itness",-10.721709587540081],["shutdown",-10.721898069030978],["fille",-10.72202293448769],["oing",-10.723221580037343],["minor",-10.723734190862864],["ts",-10.72457368122545],["Louis",-10.725312293531864],["ignore",-10.72553955669458],["surger",-10.725543607880656],["Out",-10.726654283282318],["scenes",-10.727419960299818],["Rose",-10.727484730455828],["Ford",-10.727614113119824],["Bost",-10.728099104376316],["repair",-10.731563996496078],["Stadium",-10.732101680258504],["Wilson",-10.732272450914799],["Airport",-10.732423685997597],["Hope",-10.73262868872321],["favourite",-10.732666044279004],["intervention",-10.733477089083953],["haven",-10.733730368282977],["Check",-10.733949675404851],["celebrit",-10.734218751531428],["aimed",-10.734578855887815],["negotiation",-10.73513324446899],["Space",-10.736146689667118],["81",-10.73657522744352],["boss",-10.737516884744508],["epidemic",-10.737875187437648],["gym",-10.738564622144754],["intende",-10.738648358875508],["exclusive",-10.739369954115311],["laugh",-10.739462969112406],["racist",-10.739813637393807],["Time",-10.739922180797011],["stronge",-10.739986053556219],["sub",-10.740284413143812],["polis",-10.741075282207643],["proceed",-10.741962467819711],["Spring",-10.74265845625849],["currenc",-10.742961055936405],["attle",-10.743021616716323],["intention",-10.743163167781615],["destroy",-10.743558309764133],["que",-10.743995261122379],["burg",-10.744318082038166],["ac",-10.744835639825592],["aged",-10.745981898678863],["elder",-10.746123815097029],["trac",-10.746253972288448],["Investor",-10.747677021312576],["Are",-10.74785974295446],["respirator",-10.747922786474096],["Old",-10.748824683174814],["shock",-10.749274064912612],["89",-10.751236301785484],["efore",-10.752118339603346],["gate",-10.752410918466337],["Perha",-10.752991354370703],["basicall",-10.754091306082088],["Sky",-10.755111637103525],["pe",-10.755276999622318],["nurs",-10.756035878484393],["97",-10.756133271571969],["strange",-10.756726808636992],["foundation",-10.756880554542011],["79",-10.757624750970503],["bas",-10.75845862608275],["passion",-10.758580708441482],["migrant",-10.758840687603271],["occur",-10.759131254883076],["flat",-10.759489292877582],["nless",-10.760080280468895],["allowe",-10.760144449620455],["coffee",-10.760627302806764],["EC",-10.760957571279341],["Pacific",-10.761227467751771],["Division",-10.761514305509163],["podcast",-10.76164612152733],["vessel",-10.761787761520512],["Sea",-10.762748741422076],["insist",-10.76299682352456],["territor",-10.76344113990889],["comply",-10.763726276263576],["intensive",-10.764066681920786],["gains",-10.764234254609242],["Stan",-10.76485304434882],["subsequent",-10.76506222362454],["defence",-10.765637130203121],["Lady",-10.765820375096062],["unting",-10.76613253740301],["inning",-10.766556719679164],["ez",-10.766953205935481],["Angel",-10.767157882523504],["trained",-10.767763460311176],["Bernie",-10.767931584961778],["fake",-10.767950569941338],["gap",-10.769167022750498],["Never",-10.769309877329048],["burden",-10.769590550398611],["Five",-10.77004593495217],["98",-10.771325411903106],["assign",-10.773760785045296],["thus",-10.774286214332129],["Night",-10.774397975577342],["stresse",-10.774952607308972],["Safe",-10.775010496284825],["polic",-10.77504029796215],["thre",-10.776470534537053],["za",-10.776693551549617],["civilian",-10.776816359783174],["unusual",-10.776989304682086],["apped",-10.777228537668442],["Whe",-10.777374230674468],["Megha",-10.777429787816576],["Mumbai",-10.77774266275397],["Mont",-10.777945553079743],["registration",-10.77795377247724],["mile",-10.777971003154015],["ence",-10.778218762538016],["joy",-10.778260996276865],["Associate",-10.778347652659882],["squad",-10.779527915902358],["provinc",-10.779748090742011],["Brian",-10.780033188342228],["adviser",-10.780436745494463],["musical",-10.781326002722398],["Ghana",-10.78166198896753],["120",-10.781830232292865],["weigh",-10.78197176374561],["association",-10.782020691400106],["Minne",-10.782719512047247],["anniversar",-10.783711961559643],["oting",-10.783889838466834],["ri",-10.785375729691534],["inch",-10.785644454192818],["Thi",-10.785808103912556],["watche",-10.785846866401387],["cable",-10.786172535263447],["cy",-10.786312737580813],["absent",-10.786401095865951],["Eagles",-10.78662470432063],["nine",-10.78710134147224],["Zimbabwe",-10.787105825259502],["nchester",-10.788244534094416],["substantial",-10.788669594005299],["ost",-10.788686483162245],["197",-10.789165262961047],["Modi",-10.789583715398273],["label",-10.78968921569874],["prompt",-10.789892322557918],["II",-10.789997651025562],["ootball",-10.79018674771321],["AI",-10.790443255908745],["convince",-10.790498984770677],["pictures",-10.790909378090657],["Brexit",-10.791329889069093],["pattern",-10.791460248424293],["horse",-10.792081277036619],["Financi",-10.792087041284528],["destination",-10.79232600344304],["Warr",-10.792843924896061],["exten",-10.79311965100816],["Cooper",-10.793135281729018],["reward",-10.793676022452267],["heading",-10.793800367707234],["Leader",-10.794396571540444],["error",-10.79532661381845],["ride",-10.795405725949681],["trigger",-10.796229672854334],["ven",-10.796553318630366],["trillion",-10.79792098926875],["neighbour",-10.798487730581147],["mi",-10.798561180201016],["emerg",-10.799628600940673],["SE",-10.800413109894894],["Defense",-10.80069475309246],["Den",-10.801463639131164],["ere",-10.801465123929981],["resort",-10.801559655569754],["hared",-10.801828864223715],["planet",-10.803010778775775],["Societ",-10.8031146010367],["steal",-10.804138911254238],["smoke",-10.804430025866017],["Grant",-10.804540934982079],["pent",-10.80456411694123],["kTok",-10.8046928706231],["Jeff",-10.80518082138048],["beaut",-10.806305653790675],["convict",-10.806573312896163],["rac",-10.806585343003913],["GO",-10.80659613010813],["Thompson",-10.806691069490105],["Dakota",-10.806716926347496],["Palestinian",-10.806725404832516],["rang",-10.806959670535377],["manag",-10.80702856999306],["creation",-10.80752628897499],["barrier",-10.807618317030784],["musician",-10.807626321722104],["institutional",-10.808350913900101],["Common",-10.808924299258555],["Italian",-10.809111564844738],["retain",-10.809232150414186],["hospitaliz",-10.809395093782683],["teammate",-10.809412388011014],["Anth",-10.80996119791173],["ends",-10.809993533622038],["assistant",-10.810034244851177],["Sony",-10.810483694671053],["format",-10.81052958145347],["kin",-10.810680454291354],["Chin",-10.811864644425086],["fulfill",-10.81230345358755],["mis",-10.812384421217024],["employ",-10.813132922439415],["Matt",-10.813812215059528],["turns",-10.813834951130023],["itten",-10.814117514456349],["Clint",-10.814661091691024],["cruise",-10.815002225596455],["SA",-10.81647398717001],["pregnan",-10.817414698964868],["terrorist",-10.817584217545058],["curve",-10.817940168499298],["mainl",-10.818161181980424],["rs",-10.819235378187532],["bid",-10.819276765516907],["owne",-10.819393148882945],["adjust",-10.819708118012624],["EP",-10.819988107023416],["cream",-10.82115218777615],["weak",-10.821718456119648],["drivin",-10.822575558069687],["mandator",-10.823776145191074],["practical",-10.823798169431877],["ramp",-10.824112655630508],["Which",-10.825902477376081],["Con",-10.82630129407969],["innovation",-10.826621834130151],["independenc",-10.827066652473478],["satellite",-10.827105115481924],["Bob",-10.827871850017477],["Master",-10.82789480424011],["solve",-10.827969301448718],["ol",-10.828068220293936],["TON",-10.828361170518644],["Wall",-10.82848086390384],["Wood",-10.828500498765472],["sumption",-10.82854380786269],["Hamil",-10.828788700480825],["types",-10.829198901903247],["Matter",-10.829348538685052],["ned",-10.82935853055077],["appointe",-10.82938488197384],["91",-10.830179412096026],["handed",-10.830438137885288],["admission",-10.830666286982787],["Jay",-10.831059200853012],["mom",-10.831550567472071],["reader",-10.83155323231484],["gradual",-10.831636986418022],["Rich",-10.832938641419906],["fears",-10.835682198065953],["pu",-10.836292926916045],["qualify",-10.836771519043545],["rank",-10.83689411453193],["confront",-10.837231842518264],["understo",-10.83730371515936],["captain",-10.838408179459828],["cluster",-10.838545195374483],["portfolio",-10.838691285843696],["bedroom",-10.838758258108427],["mountain",-10.838826110831501],["portray",-10.838855004394226],["warrant",-10.839043521721315],["progressive",-10.83943205938959],["referred",-10.839546425802794],["wit",-10.839592847326195],["eager",-10.839760937147798],["Highway",-10.839787013661839],["ization",-10.840200155468949],["rushe",-10.840562999565243],["impressive",-10.840599286148086],["Music",-10.840822951963489],["Utah",-10.840839175663938],["crack",-10.840949610367108],["cabinet",-10.840971395543676],["Chair",-10.841144313026426],["acquir",-10.842523780070918],["performing",-10.842801958583983],["bike",-10.843211443801579],["achievement",-10.843530378375945],["hang",-10.843683369565518],["seeming",-10.843847692332197],["beating",-10.844303780985824],["infectious",-10.844343123650656],["Irish",-10.84451928251675],["citing",-10.845919157103129],["gging",-10.84709310409347],["Indiana",-10.847636432503005],["eastern",-10.847681574943316],["USD",-10.847927766516976],["buyer",-10.848037062816438],["divorce",-10.848108562253788],["edition",-10.848623881488844],["engagement",-10.84895765246985],["rolling",-10.849043492652552],["agenda",-10.849657751125356],["Ca",-10.849663219843023],["calm",-10.849918947832697],["ak",-10.850211144797028],["smalle",-10.850218850348707],["inform",-10.85103550859705],["technologi",-10.851744138228081],["Base",-10.851817374750759],["rebound",-10.85205885019997],["lunch",-10.853339870700168],["petition",-10.85403122220934],["principal",-10.85449715418899],["Current",-10.854663061733419],["Little",-10.854674319948565],["interact",-10.854724346848567],["USA",-10.854789105242517],["qualifie",-10.85488424287944],["Top",-10.855026430287236],["helicopter",-10.855432101898192],["lung",-10.855498939711307],["harvest",-10.855972616464133],["Guard",-10.857209264383975],["sing",-10.857252870709662],["advertis",-10.857495016992702],["headquarter",-10.85800106950825],["arrangement",-10.858163788850145],["WE",-10.85819173957689],["ine",-10.858233161642978],["begu",-10.858582431454746],["shall",-10.858822892007037],["powers",-10.85923105641031],["osses",-10.85930780594536],["mixe",-10.85994097504882],["Bridge",-10.859983684225716],["tagram",-10.86020822061705],["87",-10.860210866534121],["Mitchel",-10.860304874305983],["Patric",-10.860388632205224],["extensive",-10.860475952986132],["pur",-10.860508071619257],["NSW",-10.860925476110427],["Moore",-10.861491510966458],["deposit",-10.861610006400173],["cing",-10.862682268438087],["commissioner",-10.862801373874166],["retailer",-10.863281017453836],["fee",-10.863533412741514],["brilliant",-10.863708614331049],["efficient",-10.864343769900866],["NBC",-10.86489372176556],["fixe",-10.864906432482163],["critic",-10.864967291517207],["branch",-10.864981728116948],["plead",-10.865283251215342],["Financ",-10.866035780332892],["counsel",-10.866698618631109],["funeral",-10.866909403624504],["Ex",-10.867408920193906],["knee",-10.867850477465806],["Stephen",-10.867955222136956],["carbon",-10.868265740376867],["moral",-10.869317582651977],["Ram",-10.870554058261233],["pai",-10.87081554246414],["conclusion",-10.870894776023508],["SARS",-10.871039811840951],["Prevention",-10.87113599824205],["demonstration",-10.87154596075213],["sponsor",-10.871574921202928],["villain",-10.871904283801918],["accessib",-10.872125939510784],["meter",-10.872763615751193],["expansion",-10.87336083271884],["Net",-10.87389012118063],["rough",-10.873899771739795],["Li",-10.874179713415465],["finger",-10.874561918639845],["adopt",-10.875319800490598],["Gulf",-10.875399408118806],["assume",-10.8754089182437],["Radio",-10.875429994116224],["Call",-10.876035114497181],["Gen",-10.876379880006763],["Spani",-10.876582415954358],["Kenya",-10.876814291654762],["electronic",-10.87748347326887],["Boris",-10.877741750097176],["educational",-10.878033029787318],["deadline",-10.878674967062341],["pose",-10.87877785115538],["?\"",-10.87917374534989],["Does",-10.87927558479414],["packe",-10.879323430035349],["Awards",-10.880780915384715],["Phil",-10.881079178368996],["climb",-10.881167672255291],["passionate",-10.881670788282687],["tenanc",-10.881692687109336],["instant",-10.881911125372222],["uhan",-10.882806496510415],["venture",-10.882807101841443],["flower",-10.88316242921287],["formal",-10.88368239727098],["compromise",-10.883717493840376],["bowl",-10.884360735939287],["Pay",-10.884938741678184],["evil",-10.884995630671066],["screening",-10.885215600027227],["tension",-10.885295217644032],["ail",-10.885690088463024],["Di",-10.885860416531955],["ix",-10.8862063534355],["urg",-10.88688193149791],["Roberts",-10.887125418114204],["sugar",-10.887362762906662],["Organization",-10.887680422567467],["continent",-10.887745123012882],["cited",-10.888133226630522],["ncies",-10.8883884027208],["Mi",-10.888442640171753],["Tiger",-10.88862340749936],["alarm",-10.88886164904643],["eaching",-10.889250303171012],["ory",-10.889573720870104],["Stone",-10.889785619653772],["Am",-10.89031388200815],["Lives",-10.890392990854394],["fantastic",-10.890393921411748],["Should",-10.891178274578797],["promotion",-10.891350507060151],["Massac",-10.891585421250454],["houses",-10.891992069358253],["lady",-10.892499463003826],["latter",-10.892600398817384],["impeach",-10.892921131350855],["Dieg",-10.893159037399666],["apart",-10.893405044590338],["onic",-10.893422245090314],["personalit",-10.893506468193364],["console",-10.893665187469585],["celebrat",-10.893709135400822],["exam",-10.893980666175201],["eliminate",-10.895381805752749],["nominate",-10.896382016686342],["smooth",-10.896597511669853],["cinema",-10.896795513311886],["grante",-10.89700314895633],["res",-10.897440105691079],["Ross",-10.897953689392944],["crucia",-10.898790405440788],["Childre",-10.899281180666696],["betwe",-10.899434395866768],["sufficient",-10.899697346598321],["ang",-10.899952170274322],["bear",-10.902208255883924],["Unit",-10.902297243073937],["suicide",-10.902466551361936],["issing",-10.902693470310648],["Ver",-10.902754116553869],["tree",-10.903035276721642],["librar",-10.903591934051025],["categori",-10.903988577832191],["Oregon",-10.904132550143128],["privilege",-10.904404100431494],["Affair",-10.90468542506813],["las",-10.904705058304286],["Emergenc",-10.90480251496378],["Agricultur",-10.904940194711315],["Civil",-10.905368630985619],["missile",-10.906016975933237],["Mountain",-10.906047463646443],["citizen",-10.906549233082261],["73",-10.906634535104024],["obligation",-10.907887972921806],["dynamic",-10.908518444752655],["Ever",-10.909745457595209],["explosion",-10.91003281824278],["94",-10.910569499601618],["Nick",-10.910703063797],["clinic",-10.910914142062063],["mad",-10.911546012334579],["roots",-10.911717420661539],["Again",-10.911745611055016],["ru",-10.912413869411683],["ja",-10.912720932845378],["silver",-10.91296564229383],["panic",-10.913098745250275],["string",-10.913759342788818],["Marc",-10.913877967446965],["ritte",-10.914372097048494],["plate",-10.914587506000398],["workplace",-10.914924168133247],["tribute",-10.915685137376684],["Hous",-10.915926388892354],["select",-10.916712166637804],["overnight",-10.91694291756557],["Tim",-10.917532747381502],["whos",-10.917891762356094],["Take",-10.918042831084573],["adequate",-10.918057638098523],["moderate",-10.918270588587749],["*",-10.918382332104235],["counted",-10.918407185697102],["toilet",-10.918880085653955],["Murphy",-10.9215773045294],["Montreal",-10.921654660197515],["unveil",-10.921682117934584],["grateful",-10.921762490051002],["boyfriend",-10.922164718888487],["intense",-10.922391136415687],["devastating",-10.923213995743865],["labor",-10.92412595495491],["Transport",-10.924134780566293],["Constitution",-10.924518517152588],["interaction",-10.924559250249942],["integrate",-10.925253065089207],["ealing",-10.926734118080722],["Su",-10.927129720133191],["liste",-10.927268378758416],["barrel",-10.92741959788103],["lik",-10.927686356695087],["cyber",-10.927925658148816],["priva",-10.927994063015785],["experiment",-10.928400763763374],["82",-10.928448385825575],["Program",-10.928540555961462],["Main",-10.929026180415793],["replie",-10.929496624223637],["technique",-10.9295373642121],["editor",-10.930339323515314],["Ga",-10.930520680087893],["Tech",-10.931468434518996],["complicate",-10.93164865825092],["log",-10.933234732325293],["mini",-10.933986753943005],["runner",-10.934004584856613],["lowes",-10.934078119585276],["Forest",-10.935579864053866],["posed",-10.935711536380426],["pledge",-10.936036068231552],["Bell",-10.936997827055478],["2000",-10.93759917466884],["corn",-10.938178966912421],["milk",-10.938408827306887],["Ja",-10.938545558304774],["Chi",-10.938763462314146],["chapter",-10.939215771277325],["summar",-10.939236447693531],["mild",-10.939337762890059],["ventilator",-10.939344587539921],["Arab",-10.939390681508804],["notabl",-10.9397644947053],["GM",-10.940014820751417],["discusse",-10.940139611589835],["Alabam",-10.940262576469527],["disabilit",-10.940596824752536],["rumor",-10.940664744048116],["cop",-10.940717445818851],["Anderson",-10.940902955985258],["helpful",-10.940904217804889],["counti",-10.940947205817917],["attendance",-10.941029483316726],["ans",-10.9414297023404],["skill",-10.941582063541308],["boxe",-10.942437556376266],["HS",-10.94245122045496],["ding",-10.942480095573778],["OK",-10.942483470253073],["Such",-10.94249506666694],["PPE",-10.942676322907776],["dismiss",-10.942838509513008],["Miller",-10.943225699373283],["rapper",-10.943364027091405],["ime",-10.943498360950459],["Pat",-10.943541386623153],["Beat",-10.944229321937073],["affordab",-10.944589127405944],["proceeding",-10.94509402483601],["lled",-10.945267337314416],["reliabl",-10.94583199606975],["leav",-10.946013804645467],["seat",-10.94606107872948],["Fin",-10.94648587412388],["BA",-10.94669401066648],["premise",-10.947303932992595],["lowing",-10.949082172617835],["rooms",-10.94964274695309],["Farm",-10.9497582715686],["insiste",-10.94976484565946],["Read",-10.950175221757057],["surveill",-10.95019203015516],["Thes",-10.951795342889852],["ism",-10.951846177883779],["minim",-10.95194424161641],["upporters",-10.951965547816014],["PR",-10.952150925324295],["ie",-10.953117134466716],["Na",-10.953159408852507],["Sever",-10.953265394767222],["Cook",-10.953443438574972],["gear",-10.954227488584447],["gross",-10.955014222569885],["realise",-10.956416603631636],["Brazil",-10.956864724551611],["Vietnam",-10.957011889097245],["Alexander",-10.957030423209467],["Galax",-10.957034174153033],["Channel",-10.957058527444866],["frustration",-10.957240322515936],["igh",-10.957275325980973],["chicken",-10.957679718083478],["Austin",-10.957753167027223],["Zack",-10.958028034144602],["Oscar",-10.958199075641385],["ockey",-10.95823529912986],["southern",-10.958375372211643],["publish",-10.958497371555357],["Speaker",-10.95894172491335],["Sa",-10.95904385251083],["terribl",-10.959443860742834],["immunit",-10.960002243923622],["Test",-10.960184353395737],["favour",-10.960712913645374],["ack",-10.960769806134596],["hitting",-10.960859929342265],["1960",-10.96090674080081],["spaces",-10.96135312018526],["heir",-10.961928530309349],["controlle",-10.962010045126448],["Atlanti",-10.962015380778258],["Da",-10.962413970157087],["smile",-10.962537082365268],["breach",-10.96271456190772],["honour",-10.962892377348858],["bread",-10.963674582726565],["Hawaii",-10.963988784360286],["emotion",-10.964367492874594],["deficit",-10.964911332064315],["oved",-10.964946737729452],["complet",-10.96521911048322],["shield",-10.965899208286627],["everal",-10.966224222812631],["exception",-10.966553254359173],["physician",-10.96692487468557],["ore",-10.96697885209992],["clothes",-10.967946291967564],["dogs",-10.967971279690268],["lan",-10.968841178718119],["Fall",-10.969037589741077],["fin",-10.969059474246645],["iscal",-10.969145922486522],["Kyle",-10.970267209352322],["anyway",-10.970386792080582],["hairman",-10.970628939642072],["narrow",-10.971590787185967],["prohibit",-10.972359965123125],["washing",-10.972635143187127],["metre",-10.972871830858136],["band",-10.972923014537624],["premiere",-10.972987697530469],["wing",-10.973120114754275],["pray",-10.973213835295653],["instrument",-10.974151431069613],["Mil",-10.9743019201116],["overwhelm",-10.974365665539306],["Corporation",-10.975227898563661],["laptop",-10.975314736210288],["preparation",-10.97577180600807],["nted",-10.975942539401185],["Hotel",-10.976453739596058],["discharge",-10.976742039229617],["Manager",-10.976789946509474],["statistics",-10.976811009894718],["stakeholder",-10.97689696544127],["Wild",-10.977582006821088],["carrier",-10.977743520762685],["implementation",-10.978013631015557],["immigrant",-10.978050206556738],["commit",-10.97821073526717],["publication",-10.978611118048084],["visual",-10.978727022171467],["Coin",-10.98027487502513],["hos",-10.980457607654095],["creator",-10.980647412598252],["firefighter",-10.980670539748258],["advisor",-10.980855892110627],["recommende",-10.980883976711148],["fatalit",-10.980892525274076],["paint",-10.982061873559433],["istan",-10.98230466686242],["rity",-10.982512569447088],["Tha",-10.982642621634938],["stone",-10.982665206589623],["salar",-10.982842853603703],["drew",-10.983594625182599],["robber",-10.984500054419792],["Make",-10.984957097936755],["liberal",-10.985032789329605],["Given",-10.98541261271791],["weird",-10.985767053569186],["fe",-10.985802970667613],["drawing",-10.986284807148825],["transferr",-10.986390540685626],["83",-10.987163644382047],["laid",-10.98735283465834],["Next",-10.987432162527433],["discount",-10.987449022152983],["hous",-10.988518243292571],["row",-10.988764282230907],["await",-10.988799374212196],["inches",-10.989052788735094],["activists",-10.989451019993098],["equipp",-10.990039369096186],["Sometime",-10.991841248104647],["winds",-10.992510609815263],["istance",-10.993454800566624],["Illi",-10.993506935827305],["Bear",-10.993685431822097],["Museum",-10.99369601321898],["principle",-10.993701380353093],["Charlotte",-10.993737200504432],["Leban",-10.994252149619157],["Bureau",-10.994351377752503],["reputation",-10.994462304412393],["Collin",-10.994570942260719],["NASA",-10.994674736513828],["topping",-10.99509855636207],["magazine",-10.995120410243324],["92",-10.995457715572295],["contrast",-10.99552857403238],["Morrison",-10.995580450245448],["Simon",-10.995900527326697],["Charli",-10.995940182846734],["Jenn",-10.9965470473059],["drone",-10.996904944970122],["Dallas",-10.997113678327494],["Abu",-10.997321690504192],["Information",-10.997351995983664],["complain",-10.997719832572988],["2003",-10.997799458013716],["presiden",-10.997868152302013],["Trade",-10.997951080068205],["Add",-10.998210829611052],["van",-10.998221574762642],["taxpayer",-10.999136874942344],["Evans",-11.001677547336659],["NN",-11.00235638062016],["FB",-11.002546565893596],["ck",-11.00286730864628],["PP",-11.003168854131067],["expression",-11.003430486140772],["graphic",-11.00366839671773],["Six",-11.003681904316434],["communicate",-11.006256737769453],["temporari",-11.006923555091078],["spark",-11.007680438571649],["coache",-11.00781158925465],["q",-11.008467887678314],["restore",-11.008623029049865],["talke",-11.008941152744384],["permitt",-11.009033934381113],["cal",-11.009373176868907],["bubble",-11.009470957874164],["Anna",-11.010014065478906],["Mor",-11.010059663775984],["proven",-11.010504480245265],["Crow",-11.01055643106271],["jing",-11.010718826457286],["Members",-11.011214235961381],["orry",-11.011604065643281],["gettin",-11.012271744571736],["everyday",-11.012327715399012],["Nevada",-11.012537936859765],["vegetable",-11.012552018100116],["consecutive",-11.012573238722855],["compliance",-11.012790200035257],["ensur",-11.012955563653566],["walke",-11.012972355682027],["Building",-11.013043816220655],["conspirac",-11.01310502708376],["girlfriend",-11.013268303617423],["drastic",-11.013344089888246],["Games",-11.013837921681091],["disappear",-11.013992848010167],["linke",-11.014145370023765],["controversial",-11.014146728530147],["disruption",-11.014210004744754],["recession",-11.014314414020353],["Cape",-11.014592679946494],["mph",-11.015027036652228],["loud",-11.015886454037304],["stadium",-11.016504537078108],["investigator",-11.016876074461821],["comed",-11.016942460832022],["Mount",-11.01742354376174],["motor",-11.017726039197575],["attitude",-11.018178179621767],["viation",-11.018192513977269],["sanitizer",-11.01848455243896],["Major",-11.018546994935031],["inspiration",-11.018709609585954],["overwhelming",-11.01887749564289],["interior",-11.019125921457999],["liquid",-11.019361151128845],["designer",-11.019595299468591],["promis",-11.019724189858998],["marks",-11.020691529220143],["Barrett",-11.02089763677516],["Gree",-11.021060183843755],["Korean",-11.021141146067059],["aster",-11.021160176292412],["parliament",-11.021379161353796],["Rep",-11.021834530324567],["click",-11.021915693083583],["resign",-11.021970136373493],["overcome",-11.022144693595319],["Technology",-11.022816477571412],["teenager",-11.02338189692341],["blast",-11.023702119336956],["aybe",-11.024082800813915],["roster",-11.025276737457729],["Class",-11.026724480281514],["lin",-11.027650284554715],["ID",-11.028904961998519],["operational",-11.029227713516033],["Cal",-11.029669394569952],["CU",-11.030272807714116],["ove",-11.031789075341615],["Festival",-11.031819573225619],["prefer",-11.031844359331824],["Muhammad",-11.031848785023994],["Arts",-11.031877440949735],["Chelse",-11.032153941240841],["friendl",-11.032162702348556],["tra",-11.03226432560268],["conviction",-11.032295977696128],["Credit",-11.032317749454995],["strain",-11.032370442849611],["CMP",-11.033286058113084],["announc",-11.033331010396147],["succeed",-11.033483997619054],["Resident",-11.033645447716166],["replacement",-11.033732683964711],["Turki",-11.03381788641469],["participati",-11.03390838955448],["Jew",-11.034409142025009],["Orange",-11.034651059911244],["Video",-11.034678965047435],["Olympic",-11.03469190937398],["Brad",-11.034887962814175],["encourag",-11.035043627823876],["neutral",-11.035512660244237],["1990",-11.036022764669879],["departments",-11.036327253011718],["Book",-11.036481398967814],["harass",-11.036481632994969],["hem",-11.036695453536293],["Small",-11.036857403232752],["Baker",-11.037363753719415],["brown",-11.03751089077605],["ASDA",-11.037705091015978],["ical",-11.038098287249081],["Un",-11.038833818573885],["examine",-11.03924690012754],["becom",-11.040201510261504],["NY",-11.040861435956163],["coal",-11.042659661479231],["ional",-11.043293140946941],["luxur",-11.043705646073969],["assess",-11.045137904743974],["sentiment",-11.045321521271287],["acult",-11.04560727943105],["repeat",-11.046068387969255],["genre",-11.046123030553048],["Dub",-11.04674300997589],["prominent",-11.047285572003666],["noise",-11.048183410527072],["ipping",-11.048578474960339],["insight",-11.048844563885304],["Kate",-11.049342278975496],["enterprise",-11.049687031119156],["emphasize",-11.049740645877682],["scar",-11.049758213416371],["courts",-11.049943233081208],["surround",-11.050182708469858],["landscape",-11.05032918679783],["forest",-11.05039418199802],["lies",-11.051242679748302],["ning",-11.051348478366386],["Brooklyn",-11.05140340306476],["Halloween",-11.051497478879636],["ocean",-11.051512993179044],["Sir",-11.051566849919011],["useful",-11.052565469273691],["pickup",-11.053041419386053],["premier",-11.05345814816433],["coalition",-11.053660563911311],["requir",-11.053976929361724],["roughl",-11.054375557705464],["elect",-11.054793734130376],["lated",-11.054862124203805],["wishe",-11.055062660701024],["Film",-11.055095633804545],["theatre",-11.055226340296137],["1970",-11.05529424477275],["ami",-11.055859516638609],["2023",-11.055882296255666],["contractor",-11.055901012937603],["Ki",-11.05597143998204],["Inter",-11.056302773132721],["Jesus",-11.056341781095357],["Vanc",-11.05748630060598],["refugee",-11.05772950003131],["destroye",-11.057911504421144],["OS",-11.058321614762223],["micro",-11.05833379908081],["Phase",-11.058595737362038],["adopte",-11.05872570397613],["script",-11.059280171137434],["boast",-11.059602853763888],["Bruce",-11.059703231926873],["rail",-11.059971319683608],["universal",-11.060534846069622],["literal",-11.060723214226854],["regret",-11.061479113842953],["Fans",-11.06246971495135],["silence",-11.062481131217385],["authori",-11.062505639530437],["undergo",-11.064041198294838],["consist",-11.064279409761575],["electoral",-11.064323608816423],["opposite",-11.06467761418956],["sensor",-11.065039208437927],["metal",-11.0651446127473],["gathere",-11.066272576139443],["productive",-11.067113267759591],["Dece",-11.067337306746344],["stat",-11.06899472662945],["onl",-11.06900683436447],["legitimate",-11.069846867588321],["BB",-11.070362714683775],["renew",-11.070617670864596],["Captain",-11.071493375227611],["Philippine",-11.071527342225693],["departure",-11.071710777108684],["mortgage",-11.071805869475826],["myster",-11.071934852943246],["Resource",-11.071945257028712],["hel",-11.072213158327788],["specialist",-11.072916989493812],["Warner",-11.07312240316158],["Order",-11.073381432829756],["aring",-11.073604307006036],["spell",-11.073611519342178],["Carl",-11.073633857482164],["antibod",-11.073794028053566],["submit",-11.074231047349624],["Aaron",-11.074622761537448],["Fair",-11.07501340854024],["mine",-11.07526428344798],["religion",-11.0754888624213],["sensitiv",-11.07602351916239],["Jon",-11.07609218912731],["Kent",-11.076349297900286],["shower",-11.076471389151273],["chemical",-11.076500394246143],["timing",-11.076588543785878],["stable",-11.07667096463956],["delight",-11.077159953444289],["entrance",-11.077199463952743],["Did",-11.077221015167634],["uncertain",-11.077267047698124],["input",-11.078764009012799],["ordinar",-11.079184858471264],["Jet",-11.079203288705134],["posts",-11.07977099701312],["vendor",-11.080292913059477],["earth",-11.081082998034125],["probe",-11.08136581534977],["Kan",-11.08271765611412],["ee",-11.082802006482382],["empower",-11.083319785033087],["Tho",-11.084314302284334],["lea",-11.084504313440409],["gu",-11.084649043288076],["Barr",-11.084677982288756],["constitutional",-11.085524927724865],["stole",-11.086530680541275],["march",-11.08654994878593],["transit",-11.08738215294793],["defender",-11.087509929669691],["Par",-11.089767817209356],["sacrifice",-11.090344521119876],["oppose",-11.090867849966084],["wi",-11.091101961707725],["der",-11.091196100844238],["Columbia",-11.09135770300701],["₹",-11.091782395573567],["Representative",-11.091852959417562],["Village",-11.09198108241366],["curfew",-11.09220798281131],["laborator",-11.092284107761],["Matthew",-11.092323124966416],["comprehensive",-11.092412541108343],["Atlant",-11.092428816383727],["Anti",-11.092957292499623],["dominate",-11.092979043561817],["attribute",-11.093164421456226],["permission",-11.093188302586661],["Roger",-11.093432004366695],["lifestyle",-11.093525005638456],["Panther",-11.093741214730803],["Studio",-11.09380938587302],["ound",-11.095066295320608],["Portla",-11.095506324327095],["Adams",-11.096610379117337],["recognise",-11.096622691012481],["FA",-11.09730734600169],["Balti",-11.097946460857102],["muscle",-11.098385922242361],["dale",-11.098773749000621],["performe",-11.099156450836556],["button",-11.099470436219827],["Cha",-11.100687476265447],["desk",-11.101042227285618],["sequel",-11.10169666500185],["Per",-11.10185586819034],["jumpe",-11.102330543536963],["Reserve",-11.102792841963172],["habit",-11.103062476289997],["awarde",-11.10336545985578],["seize",-11.103595579021345],["Being",-11.104084615039232],["lands",-11.10412987871469],["spoken",-11.104187904016374],["Land",-11.104269534750594],["ile",-11.104817170889607],["weren",-11.105568485249341],["posting",-11.10564474533535],["unemploy",-11.105771187925214],["navigat",-11.106791904853454],["map",-11.107147076528177],["reiterate",-11.107346075864063],["assure",-11.10759137670873],["easing",-11.107755265059428],["71",-11.108100561814906],["Tennesse",-11.108340950120065],["shoes",-11.108525686644722],["fighter",-11.108840776461381],["cheap",-11.109390457079638],["Pelo",-11.109959742045225],["Robins",-11.110320784161564],["Easter",-11.110367797633998],["GB",-11.111439664143296],["till",-11.111762483025284],["processe",-11.11209420802759],["Get",-11.112141009841647],["Aberdeen",-11.112615909127772],["jurisdiction",-11.11261730456414],["Fauci",-11.11262458826503],["Kingdom",-11.112670889195032],["Reuter",-11.112733799275308],["Future",-11.112802707828937],["emission",-11.112917250258405],["counterpart",-11.113140908917737],["Scotti",-11.113189273382714],["hiring",-11.113223260688764],["premium",-11.11327604427079],["Viking",-11.113366431869583],["dismisse",-11.113687947379766],["documentar",-11.113729627716893],["injustice",-11.113781413769095],["simpl",-11.114157886247677],["crowds",-11.114566254322972],["ired",-11.115015061276697],["adventure",-11.115195690549385],["wick",-11.115573899155663],["bitter",-11.11563872808086],["settlement",-11.11611997321101],["substance",-11.1162627518016],["consideration",-11.117487878038926],["showcase",-11.117668886837075],["ster",-11.118048094129579],["tragic",-11.118716302796603],["amendment",-11.119023784185046],["Dave",-11.119029782986487],["chest",-11.119363280444336],["uck",-11.119567282815941],["Staff",-11.119623493806408],["Bel",-11.119791327824238],["pipeline",-11.120066261483572],["Putin",-11.12052941661665],["custom",-11.120970047964986],["snap",-11.121419285273827],["Along",-11.121502480547946],["DA",-11.122040469233342],["Islami",-11.12213852389045],["dropping",-11.122241918512108],["ative",-11.122248703905328],["snow",-11.122488070341658],["recipe",-11.122608039326037],["origin",-11.122695102685414],["yet",-11.123134166921705],["MS",-11.123356011587521],["93",-11.123655004051976],["bomb",-11.123724206350392],["stunning",-11.124434988716278],["educate",-11.12463341297725],["Airline",-11.124636947595581],["obust",-11.12465000156251],["Seven",-11.125167944824877],["eas",-11.125851786042098],["convention",-11.125927370059012],["Marshal",-11.126277221787976],["Arabia",-11.127010895991035],["alter",-11.127275724769055],["mitigate",-11.12759334538395],["discriminati",-11.129796623334117],["soul",-11.130089294720916],["poster",-11.13045891403534],["ations",-11.131269002086267],["silent",-11.131356594646029],["eve",-11.131555030536681],["Sean",-11.131613266113057],["ler",-11.131903899254457],["é",-11.132358279859378],["preserve",-11.132456350530735],["exceed",-11.132819766772599],["approache",-11.132834122871635],["judicia",-11.133090255797397],["uomo",-11.133782588334595],["Lincoln",-11.133893073220401],["costume",-11.134042296964433],["Graham",-11.13410141674558],["Gordon",-11.134219719494173],["Administrati",-11.13429432549684],["Memorial",-11.13442778410561],["Phillip",-11.134745055005302],["pivot",-11.134960858498427],["hybrid",-11.135184689413514],["rape",-11.13545430219821],["Country",-11.135607697190554],["occupie",-11.135753849907859],["Hunter",-11.135869598927817],["charg",-11.136036343046928],["sibling",-11.136229820544457],["jo",-11.136445734776688],["download",-11.13659419795711],["exceptional",-11.136686710234603],["unexpected",-11.1374879910472],["Camp",-11.138390593215616],["CA",-11.138650169957822],["survivor",-11.139465087509116],["cheer",-11.139880582775252],["copy",-11.140050070680406],["picking",-11.140093203588835],["fore",-11.140281627138446],["Po",-11.140785993875598],["hood",-11.141047234603885],["ten",-11.142531269741514],["drove",-11.14289594736449],["Jona",-11.143094682286605],["wipe",-11.143202051659317],["fleet",-11.143411594740408],["presentation",-11.143807029498321],["arriv",-11.143910712531722],["outfit",-11.144040235003388],["establishment",-11.14448645672822],["transformation",-11.144858790088179],["ope",-11.146527638938293],["supplement",-11.147770809928389],["magic",-11.148043608402189],["Syria",-11.148206326921326],["valid",-11.148352920785289],["optimis",-11.148431256731802],["treasure",-11.14849429151759],["021",-11.148766584714512],["clip",-11.148837138111164],["deepl",-11.149590049344651],["Luk",-11.149840537523444],["semi",-11.150181039064043],["roof",-11.150324522588141],["norm",-11.150767631811835],["Dead",-11.151322965641215],["ock",-11.151838907997906],["fabric",-11.151875417049819],["idden",-11.15241518599521],["outline",-11.152663430092232],["Solei",-11.152978001708291],["Bi",-11.153018079161217],["Rob",-11.153354141348183],["compet",-11.155116306338538],["Summer",-11.155533363515175],["belong",-11.155565972191884],["furlough",-11.155632631426135],["Cleveland",-11.155726926070532],["caucus",-11.155750335621356],["mechanism",-11.15593704845321],["diversi",-11.156403392871175],["101",-11.156937497963037],["membership",-11.156950930907099],["framework",-11.15725414890676],["hing",-11.157730354536666],["utter",-11.158335717923734],["terroris",-11.158385132956697],["ious",-11.158716975259669],["Cabin",-11.159109462837076],["labour",-11.159184608411085],["spiritual",-11.159364765682728],["yester",-11.15957020854605],["prize",-11.15985178426876],["transform",-11.161304633043535],["Nicol",-11.161504351990665],["commander",-11.161583455597569],["Ke",-11.162028236647329],["painting",-11.162057332885231],["corporation",-11.16209047606576],["Point",-11.16244287378014],["Cost",-11.162545206723486],["pause",-11.16294707200402],["inquiry",-11.163384219504517],["rais",-11.163504887638698],["activist",-11.163910906375989],["exhibition",-11.165662092088779],["token",-11.165674953324777],["vocal",-11.166560160000639],["196",-11.166878632656394],["ndroid",-11.167091647935212],["audio",-11.167108313207674],["democratic",-11.167806354483414],["Short",-11.16810938296712],["Ocean",-11.168156301525277],["organizer",-11.168289998460358],["ease",-11.168412269966613],["continuous",-11.168927501954121],["stein",-11.168944281476225],["hall",-11.169569972388123],["ction",-11.17009276451109],["practic",-11.170134819448272],["cam",-11.171286621989445],["Cor",-11.171450011894745],["pub",-11.171758368463363],["industri",-11.172686524034336],["ministers",-11.172745988845023],["sheet",-11.173407455363055],["tes",-11.173444828328686],["ite",-11.173968668025276],["ideal",-11.174176874115979],["Kobe",-11.174203696682586],["Light",-11.174347337610456],["Francis",-11.174367197849312],["criticize",-11.17514903785134],["revise",-11.17529914793135],["tim",-11.175301006744267],["therap",-11.17579942980213],["hire",-11.176129071205748],["refer",-11.176197903182032],["Thanks",-11.176885730410106],["river",-11.17762225278971],["Quebec",-11.177863827915212],["Conservative",-11.177899451172326],["Douglas",-11.177952931178384],["prosecution",-11.17823819177408],["consultation",-11.178314084585725],["obstacle",-11.17929972773014],["Treasury",-11.179454478074526],["ingredient",-11.179527519298752],["guitar",-11.179563933571572],["lake",-11.17958010291277],["hired",-11.179643323952373],["Similar",-11.179653480930597],["trauma",-11.180034259338722],["Asset",-11.180058519124497],["ul",-11.180087657156127],["flavor",-11.180105861939696],["judgment",-11.180199071195052],["tremendous",-11.180285022176687],["welfar",-11.180649147965111],["introduction",-11.181162274963679],["generous",-11.181555964141921],["roperty",-11.181833873892078],["symbol",-11.18216658655344],["felon",-11.182441935242057],["Brother",-11.183211817800139],["Storm",-11.183463027663485],["ICU",-11.18351570885979],["da",-11.184180695584722],["jur",-11.185227901823389],["Tour",-11.185487455813071],["equi",-11.186082245176731],["acquisition",-11.186267466457084],["Blake",-11.187064614035709],["Stock",-11.187971851718228],["frontline",-11.188276788829409],["pposed",-11.189057629544198],["Ray",-11.190509684758032],["workout",-11.191029708853591],["Liver",-11.192819370930504],["prisoner",-11.19295306830601],["bench",-11.193357286257068],["upset",-11.19384075907313],["stroke",-11.194809117504434],["2004",-11.195197953133167],["rallie",-11.195389267297477],["shareholder",-11.195543259503529],["parade",-11.195777639383047],["innocent",-11.196251449996733],["Bri",-11.197551683312206],["minds",-11.197774405951382],["midst",-11.198084544827559],["supporte",-11.198313538643713],["align",-11.200208160584179],["Bangladesh",-11.200580963493547],["criteri",-11.200627943927037],["Thanksgiving",-11.200673382320344],["Ultimate",-11.200717724436856],["Field",-11.20102290823625],["Knight",-11.201264888920562],["friendship",-11.201667303020088],["Christophe",-11.201691469289255],["reception",-11.20173960246937],["nonprofit",-11.20177937841843],["SU",-11.20197796090253],["Ball",-11.202558175799616],["Chamber",-11.202980082719622],["unfair",-11.203280634923281],["medication",-11.203537990871695],["MC",-11.203582757638797],["CB",-11.203766343385153],["Sudan",-11.204055880278666],["ambassador",-11.204145463617545],["beds",-11.204187441511364],["earn",-11.20480456356177],["react",-11.205216925035359],["partisan",-11.205219740785363],["Broncos",-11.205438038778983],["indication",-11.205516564193688],["offence",-11.205782239446618],["athletic",-11.205782924641735],["suspension",-11.205784983341982],["yellow",-11.20592107874152],["tactic",-11.20600909524803],["aside",-11.206448628568914],["releas",-11.206580934361902],["introduc",-11.207692044222263],["ranking",-11.207759836577237],["crude",-11.208421146034443],["elow",-11.208948547089697],["Duke",-11.209416861230846],["random",-11.20963029297172],["dresse",-11.209719015056262],["01",-11.21016332476411],["participat",-11.210218324889597],["Princes",-11.210788967880756],["suggestion",-11.210993526459262],["Jacob",-11.211049819501445],["ze",-11.211331575087353],["compar",-11.211538920013783],["pregnanc",-11.211806885656694],["utilit",-11.211980252746947],["resist",-11.212063412994521],["usage",-11.212468133926187],["pink",-11.212783090975766],["heat",-11.213161986370025],["BO",-11.213883875999661],["mon",-11.214146867503555],["fatal",-11.216032231407047],["Place",-11.21623612717032],["economist",-11.216480316897389],["plot",-11.216581844994955],["Dean",-11.216717739824722],["ools",-11.217028484815724],["Greg",-11.217273038391294],["NCA",-11.218164012720964],["Smart",-11.218200462669087],["lay",-11.218258498187526],["endorse",-11.218671322522484],["lifetime",-11.219081724257762],["08",-11.219101191863412],["IV",-11.219522563133992],["Keep",-11.21969480854606],["Olympics",-11.220655586693887],["Garden",-11.22097063787735],["voluntar",-11.220992348429688],["Data",-11.221017264797046],["Han",-11.222320622116431],["mus",-11.222420450209327],["Men",-11.223115079679554],["touche",-11.223506752267594],["volatil",-11.223994091916412],["Picture",-11.224000430231806],["confirmation",-11.224206666777015],["mirror",-11.224309202231675],["cancellation",-11.224570823694963],["Saskat",-11.22461491880624],["Mass",-11.224698367300167],["compound",-11.224923962522633],["05",-11.22521474709784],["NC",-11.225230055759514],["eded",-11.22528392913738],["Unlike",-11.22531526721512],["subscription",-11.225361334289271],["hell",-11.225884649878719],["adjustment",-11.225960208864535],["UP",-11.226060160139635],["Hopeful",-11.22612318459445],["Labor",-11.226285158411587],["hospitalization",-11.226457991298673],["cked",-11.226753397375202],["exhibit",-11.226753535754042],["Allen",-11.227216054570395],["els",-11.227237676992356],["Kamal",-11.227795053076463],["limitation",-11.228139562630474],["eed",-11.228412417684432],["feedback",-11.229000639759072],["Line",-11.230630762219324],["enormous",-11.230664275453202],["fault",-11.231079813433881],["constitution",-11.231166134659428],["render",-11.232900717870672],["Miss",-11.233898491279337],["globe",-11.233910504995187],["atmosphere",-11.234207140705834],["AFC",-11.234465195145274],["Fi",-11.234602014759048],["commence",-11.23524456016206],["Hi",-11.235253581355904],["Far",-11.235437241936634],["endanger",-11.235578327828943],["efficienc",-11.236064113341499],["administer",-11.236756132858886],["mate",-11.236840903809929],["fires",-11.239132537809702],["reverse",-11.239328685611278],["relation",-11.23958261353557],["bed",-11.240407519428782],["boot",-11.241412574564597],["deserved",-11.241909304799828],["restart",-11.241913515663814],["onna",-11.242004848871982],["Bush",-11.24236885729177],["battl",-11.242926587597195],["GP",-11.24365664538093],["liabilit",-11.24370151347441],["Pitt",-11.244193411943598],["pastor",-11.244219176357486],["sideline",-11.244955782866585],["ig",-11.245505799811497],["hari",-11.246148669582558],["900",-11.246900010925518],["Entertain",-11.247806236535153],["Berlin",-11.247863119356651],["milestone",-11.247887984470582],["Square",-11.24794435075407],["complication",-11.247996013812216],["Fargo",-11.247999507008435],["Titans",-11.248063564359137],["Penn",-11.248123432294117],["inflation",-11.248443142600282],["Morning",-11.24845263728634],["VP",-11.249079183234947],["rack",-11.249159648296054],["semester",-11.249188828673597],["apologize",-11.249199696739586],["cake",-11.24954597359627],["Ye",-11.249672245466252],["capab",-11.249692584651495],["Edmonton",-11.24971237993557],["Operation",-11.249753198751337],["versu",-11.250012006397586],["undertake",-11.250126747315589],["Hu",-11.250244540410694],["clash",-11.250697551909417],["ssured",-11.250861877435252],["cannabi",-11.25087339673334],["circulat",-11.250880040517067],["innovati",-11.250994399444927],["ogether",-11.25101597209962],["bullet",-11.251143802095683],["administrator",-11.251653372542094],["overse",-11.251682016630062],["lineup",-11.252443093610797],["tenant",-11.252614432378689],["Kumar",-11.252628681130178],["accommodation",-11.25271849989073],["Pompe",-11.252792823922121],["ndigenous",-11.253248522084611],["Kansa",-11.25343910729632],["accompanie",-11.253566082089932],["crashe",-11.253585157670702],["THE",-11.254276408273643],["inevitabl",-11.254351377554073],["Lu",-11.254485948664785],["commerc",-11.255008600183945],["initiate",-11.255442218432071],["gon",-11.255445491377102],["Librar",-11.255621318799667],["flame",-11.255761214662677],["Assistan",-11.256737295867671],["puts",-11.25729033924985],["Oak",-11.257580242864092],["Players",-11.258116233182685],["stance",-11.25815673378639],["Eve",-11.258199903172404],["Robin",-11.25886771244188],["fisca",-11.259557490147962],["pump",-11.260192388758322],["memorabl",-11.26045400660158],["mond",-11.26065043515481],["motivate",-11.261319825032961],["Mc",-11.26139714480665],["omen",-11.261531935646047],["Art",-11.261757292650518],["entitle",-11.26199602016207],["ea",-11.262179578231088],["09",-11.262187300431815],["Wayne",-11.262321484048613],["Could",-11.262348352725525],["designate",-11.262904308892804],["GH",-11.263303235075936],["iting",-11.263380862045889],["locke",-11.263597182327178],["achiev",-11.263797102455808],["arking",-11.264579925415731],["tries",-11.266270799011302],["compell",-11.26640750675715],["Bru",-11.266905914227806],["Heart",-11.267105517211782],["Death",-11.267630291101618],["Walk",-11.267950822054624],["indicat",-11.269103085575125],["detaine",-11.26929083594915],["Jean",-11.269725919059496],["Nove",-11.269757682786274],["iami",-11.270196333640046],["har",-11.270379745130093],["Emil",-11.270875189217907],["integr",-11.270896823200545],["thes",-11.27096891644122],["gang",-11.270978219029884],["tune",-11.271391900343799],["calendar",-11.272112296955232],["Libya",-11.272397612091694],["Maryland",-11.272673887778456],["Consider",-11.273073193170184],["Jerem",-11.273220624165248],["breakfast",-11.273354796368897],["Girl",-11.273584677132629],["Talk",-11.273778178001685],["motive",-11.27382231517394],["Recent",-11.273993666929766],["bird",-11.273997479196453],["Support",-11.274022823100143],["removal",-11.274129391979478],["involvement",-11.27451831788005],["Enter",-11.274830417872353],["scandal",-11.275480477866907],["ouver",-11.275539384393745],["picke",-11.276003271983207],["hygien",-11.27623748344294],["positiv",-11.27625135645092],["1980",-11.276522195363093],["ialogue",-11.276586886316275],["supplier",-11.276680783684855],["Crime",-11.276874341388833],["pression",-11.277076584822405],["auction",-11.277711614967858],["ounds",-11.277962138735763],["ranke",-11.278043910435201],["lender",-11.278185981466537],["pla",-11.278204929386732],["auto",-11.27836406380689],["bo",-11.278627227028743],["adhere",-11.279078539738345],["external",-11.279294159036153],["Palace",-11.279387052340356],["Carol",-11.27941507640898],["beneficiar",-11.279450250641641],["certificate",-11.279795660121303],["glad",-11.280632653878055],["sho",-11.281063972131586],["acres",-11.281745466111467],["issu",-11.281824708704596],["CO",-11.281836694266673],["lyric",-11.28213061065788],["ownership",-11.282311040315957],["Section",-11.282737302293294],["heads",-11.2830805951192],["Rome",-11.28313964244563],["circle",-11.283161132150859],["violate",-11.283376386724976],["bel",-11.283883862153345],["Madri",-11.284073733884252],["Burn",-11.28500366179565],["ewer",-11.285075220655091],["incentive",-11.285094343942102],["les",-11.28536618519942],["Spider",-11.285457565674296],["bell",-11.285488053098668],["Mu",-11.285767672200333],["ates",-11.286341317144045],["strategi",-11.286589690527537],["Photo",-11.286759183340079],["shortl",-11.287284904965718],["Antoni",-11.287342586438776],["insider",-11.287448719828495],["Ten",-11.287841226145641],["diseases",-11.288238319048862],["discipline",-11.288785656698801],["bunch",-11.289628432097178],["350",-11.289715767168108],["Bond",-11.289970920820448],["explor",-11.291858263675174],["accelerate",-11.292047929984797],["tend",-11.29212500434986],["tank",-11.292294926566859],["mineral",-11.29263195605599],["meat",-11.292755442405563],["deck",-11.292790541372153],["Ethiopia",-11.294055203861411],["xchange",-11.294108317994255],["Giant",-11.29439053991209],["processor",-11.295256605188417],["isation",-11.29541743540658],["crossing",-11.296003791915023],["grab",-11.296808245798575],["column",-11.296817611347379],["Federation",-11.297089102909936],["comparison",-11.297116419727956],["Communication",-11.297142320644495],["wildfire",-11.297616140659647],["genetic",-11.297618957449496],["fundrais",-11.297673531577844],["meaningful",-11.297695477331986],["CAA",-11.297957120693138],["romantic",-11.298007080246945],["Swi",-11.298052450185036],["civic",-11.298145754188951],["universe",-11.29820212964262],["Internet",-11.298217466330039],["disagree",-11.29827567465093],["diamond",-11.298379322563658],["beca",-11.298709711754721],["anxious",-11.298762886622335],["Greek",-11.298850888890696],["fantasy",-11.298868984443025],["lif",-11.298977991789966],["nervous",-11.299011904845626],["swing",-11.29903885601521],["construct",-11.299204349253639],["Calif",-11.299598779762558],["DP",-11.299752869457699],["hung",-11.300371958188368],["outhern",-11.300518640826226],["Champions",-11.301146026193312],["Dark",-11.301370346295917],["agenc",-11.301682248611383],["ware",-11.302055322294603],["Commerce",-11.302389883451964],["Hell",-11.302645325299334],["ives",-11.303156281709633],["safeguard",-11.303715830923231],["exploit",-11.303753894905592],["rice",-11.30431405759032],["Electric",-11.304575423477395],["arvel",-11.30477864607617],["ecosystem",-11.30499780651625],["preference",-11.305141900980816],["intimate",-11.305275578231486],["Mail",-11.305689324620971],["organ",-11.305771580734737],["remarkabl",-11.305956390271827],["emed",-11.30634651374406],["Update",-11.306920357504808],["phrase",-11.306921593968129],["municipalit",-11.30812615262002],["Jenni",-11.308226440572248],["borough",-11.309383629446934],["Join",-11.309444899235407],["Mexican",-11.309526068512552],["220",-11.309643384597958],["sovereign",-11.310888277739359],["soap",-11.311421156176374],["Prade",-11.313038546281867],["audit",-11.313051901364133],["timeline",-11.313337694507418],["migration",-11.31370682649469],["maintaine",-11.313875843025636],["IT",-11.313992402110594],["leak",-11.314214428475598],["refund",-11.31432024002281],["Coach",-11.31443443300425],["fiction",-11.314937835292765],["Page",-11.315045656182171],["reminder",-11.315045942309638],["UC",-11.315161370903088],["riding",-11.316274919378484],["hawk",-11.316612913204672],["screens",-11.31716285772076],["Bull",-11.317374744596341],["estate",-11.318032030328336],["blind",-11.318352914656987],["Change",-11.318590495648357],["pric",-11.318779138572776],["glove",-11.318796258084156],["ering",-11.318969002801872],["Mother",-11.319431348819066],["Steven",-11.320556072521452],["embass",-11.32099377746717],["Walke",-11.321228280489994],["ure",-11.321488149470055],["containe",-11.321642477851707],["deliberate",-11.322610972468965],["Mississippi",-11.322677684010044],["ESPN",-11.322684025908734],["selection",-11.32276100280629],["Taiwan",-11.322854632905138],["transparen",-11.323050259297418],["mutual",-11.323060138256704],["Doctor",-11.323070458355119],["accord",-11.323091386297518],["weakness",-11.323115410820604],["scrutin",-11.3231812371379],["travell",-11.32356481953167],["Laura",-11.323579215181935],["determination",-11.32368210471178],["Alaska",-11.32409369862203],["constituenc",-11.32423803196119],["hotspot",-11.324255376908823],["uniform",-11.32468474080907],["entrepreneur",-11.32474094926447],["caption",-11.324840224086968],["unlock",-11.324965174716771],["ium",-11.325161621498129],["tally",-11.32536199810664],["foul",-11.3254826087055],["declaration",-11.32579377432606],["supermarket",-11.326851013065905],["fo",-11.32698664058963],["broade",-11.32709780020585],["McConn",-11.327163945065204],["Luc",-11.327295910095962],["Ge",-11.327350485179553],["observation",-11.327392041486569],["AE",-11.327804332011398],["institute",-11.328231537796128],["Dodger",-11.32841284058422],["preferred",-11.329636655249383],["earthquake",-11.329785957353245],["Jerr",-11.329863349444091],["Cree",-11.33017612826202],["layer",-11.330547677121901],["argu",-11.33137126719247],["ector",-11.331393435404369],["litera",-11.331833576705552],["spectrum",-11.331909276116479],["breast",-11.332945176312279],["Way",-11.333048426126895],["equall",-11.333623514046518],["rew",-11.333633062708136],["convert",-11.334032844664522],["brutal",-11.334374184868164],["incorporate",-11.334611960063604],["punch",-11.335654560664176],["starter",-11.335675305956473],["cheape",-11.335994984703746],["Sport",-11.33633452463352],["corrupt",-11.33661530707235],["digit",-11.336787014296846],["Michell",-11.337176782774435],["excuse",-11.337422817253943],["shore",-11.338662310924168],["sting",-11.339914583850382],["dail",-11.340648292589714],["elite",-11.34081218751216],["oversee",-11.340921395211819],["trends",-11.341209755457525],["salarie",-11.341235401167614],["remov",-11.341316873602116],["evident",-11.341361312302272],["PL",-11.342132269512023],["pride",-11.342169357943732],["nger",-11.342221995480253],["Receive",-11.342501677400467],["shed",-11.342507206214005],["spin",-11.342523091536291],["APC",-11.342746515168663],["fift",-11.343363561956842],["Mid",-11.343422666573971],["Happ",-11.34391144976679],["organise",-11.344010732955951],["ti",-11.344475447242772],["consult",-11.34451633176856],["Singapore",-11.3445415172024],["ike",-11.344782295319586],["keeps",-11.34478603002685],["iding",-11.34487369260068],["metric",-11.345566693013348],["notifie",-11.345847860565302],["cricket",-11.346202341413223],["kits",-11.34621188592665],["ambition",-11.346436280830224],["Rick",-11.346456161128618],["Prof",-11.34718122927861],["Christin",-11.347266431277777],["rental",-11.34867928709328],["Calgar",-11.348872294633825],["ranks",-11.349054917603217],["Oxford",-11.349065688416939],["psychological",-11.349104525488368],["livelihood",-11.349453031407101],["unanimous",-11.349541088545893],["Window",-11.349602493905147],["Agreement",-11.34963988910788],["chamber",-11.349849891137026],["convey",-11.350205884396548],["dependent",-11.350410746183448],["Superintenden",-11.350432067334076],["Provinc",-11.350442497914218],["Remember",-11.350450052501518],["aming",-11.350657868895418],["coordinator",-11.351103129321949],["Rev",-11.351660698132097],["memorial",-11.35202217947068],["incumbent",-11.352034503685664],["suspicion",-11.35239452102352],["Wolf",-11.352950731964652],["loves",-11.353031867863416],["resilienc",-11.353399287343752],["submission",-11.353422609429348],["applicant",-11.353477855638982],["float",-11.354028697657853],["Price",-11.35453374746763],["llino",-11.354889903558375],["med",-11.356654830025212],["blend",-11.356711838360892],["relax",-11.357367873770723],["performer",-11.357730284833423],["Montana",-11.35790563022741],["grid",-11.357962481379698],["recount",-11.35831473527042],["Stay",-11.358907445718971],["kicke",-11.359096614970403],["onto",-11.359360880554087],["rookie",-11.359610778908504],["worship",-11.360378142584883],["disorder",-11.362423449473898],["shocking",-11.363014573053928],["160",-11.363114510287131],["Latin",-11.363951351429312],["cu",-11.36413913795475],["execute",-11.364333102062556],["ET",-11.364339047871617],["loose",-11.364640131827038],["traged",-11.365377302228634],["feed",-11.365722567275792],["Newsom",-11.366055519230205],["Born",-11.366240575935814],["detention",-11.366423509230323],["MD",-11.367158904190546],["otten",-11.367494736063374],["Jimm",-11.368011894467129],["technolog",-11.368325730111646],["Roman",-11.368391516758043],["keen",-11.368427774225742],["thick",-11.368646079970254],["ests",-11.368729764476557],["chase",-11.369158538290826],["ouisiana",-11.369692084974378],["animate",-11.369708878922157],["rself",-11.369771160400648],["ership",-11.369773204126618],["polluti",-11.369793836476035],["Hawk",-11.370493403085845],["beside",-11.370608597786426],["Know",-11.370776701989568],["Victor",-11.371466310584694],["02",-11.372174724117045],["Much",-11.372221855012052],["Wale",-11.372636176952923],["Partners",-11.372715036124648],["tips",-11.373319538700748],["appreciati",-11.37332903970701],["Jessi",-11.373471614751107],["pretend",-11.373478975013604],["solida",-11.373516603099914],["peer",-11.373653124081166],["View",-11.374174785042584],["accountab",-11.375412971010405],["ND",-11.375725371664313],["intent",-11.375742716391205],["camps",-11.375967204547546],["Caribbean",-11.376020383094529],["Campbell",-11.376031286591124],["Missouri",-11.3760570979339],["Protection",-11.376288613405807],["condolence",-11.376310492467482],["champions",-11.37631180322378],["mar",-11.376487218608158],["Kennedy",-11.376707967783076],["mysterious",-11.37673435805377],["odds",-11.376906494959513],["liv",-11.376953982875836],["Tyler",-11.376966438002789],["folk",-11.377640306043654],["patron",-11.377647166612576],["considerabl",-11.3777102008305],["Modern",-11.378720098931442],["bankruptc",-11.379015760289485],["Clear",-11.37908241124477],["uru",-11.379275362980021],["ambulance",-11.379428436644176],["ntil",-11.379443719832706],["ax",-11.37948828245365],["inclusion",-11.379626199780605],["rug",-11.379658833803079],["Pittsb",-11.379810851074918],["Ab",-11.380241307516958],["eat",-11.380758504313512],["av",-11.380841180068149],["hug",-11.380920247092744],["striking",-11.38099194725081],["Bei",-11.382122464563661],["CN",-11.382132735818738],["castle",-11.38219277154342],["casino",-11.382466115743638],["residenc",-11.382772396045798],["Wa",-11.383117151659098],["expenditure",-11.383277481402512],["ancing",-11.38384285068349],["Camero",-11.383989999496855],["Pe",-11.384035502933],["NYSE",-11.38430370670939],["chester",-11.384349394164254],["pizza",-11.384470676924495],["Hills",-11.384970397117295],["stem",-11.38510825183781],["holder",-11.385308758763344],["awesome",-11.385430097450495],["ji",-11.385527871943511],["Medicine",-11.38565741365873],["ML",-11.385754842977052],["assumption",-11.386206565702985],["radical",-11.386544510048381],["Baby",-11.386722126071719],["rick",-11.387253235041902],["shake",-11.387458608699001],["ka",-11.387635390469622],["plac",-11.387963347845572],["cheese",-11.388571628981222],["Temple",-11.388586687416115],["osting",-11.390331214087148],["bvious",-11.390963181367619],["em",-11.391363624160782],["killer",-11.391373618785508],["wins",-11.391378967514811],["grain",-11.392797388799876],["tak",-11.393330088614624],["congress",-11.393656012138473],["pointe",-11.394478548818661],["Mile",-11.394607356632251],["allocation",-11.394625183112908],["sit",-11.394756832500645],["resistan",-11.394904652598264],["Side",-11.395510545312648],["pointer",-11.396772251123387],["engaging",-11.396922270122857],["Nor",-11.396996861098213],["pin",-11.397752735700827],["Olive",-11.39783084513077],["immigrati",-11.39814940892983],["augh",-11.398391595130704],["constitute",-11.39858462963466],["rains",-11.398600361433306],["superior",-11.398704959212532],["assert",-11.399473392763134],["ETF",-11.399755473303548],["plain",-11.400208716925423],["Doug",-11.400255123190473],["Mari",-11.401001132938312],["courage",-11.401451805986401],["anime",-11.401748356690756],["itarian",-11.401949509579747],["suburb",-11.402085929949221],["casting",-11.402336151614866],["deeme",-11.402372052147314],["po",-11.402623694147248],["eries",-11.403028444832769],["stabili",-11.403137487344248],["conscious",-11.403543566906148],["reservation",-11.403544454742304],["Veteran",-11.403806087785577],["Christ",-11.403814194296743],["kilometre",-11.403832942128298],["compensation",-11.403849064817056],["Russell",-11.403870139707543],["Weinstein",-11.403885659957187],["Craig",-11.40393242444406],["Spence",-11.403990366601068],["punishment",-11.404010854722884],["tri",-11.404062975298547],["None",-11.4041560291307],["Vision",-11.404356411789758],["shocke",-11.40436652716816],["bathroom",-11.404463101680594],["painful",-11.404602181466078],["motivation",-11.405034226568883],["abortion",-11.405319024224891],["filmmaker",-11.4053359447248],["existen",-11.405357282838864],["ology",-11.40540066407889],["vary",-11.405840084054645],["Wright",-11.405909414578433],["contentio",-11.405925590491725],["covid",-11.406006952007347],["demonstrator",-11.406056686795171],["defendant",-11.406164085883884],["Animal",-11.406275061714076],["impression",-11.406489123811458],["concession",-11.406741810840337],["financing",-11.407165172843847],["Dragon",-11.407355327720916],["Perry",-11.407930532543089],["soil",-11.408315411286251],["impress",-11.409231907949206],["alliance",-11.40947563889522],["overlook",-11.409547954872739],["Farmer",-11.409638794325485],["quest",-11.409830988667832],["relie",-11.409837723403928],["stupid",-11.41068997830395],["stepp",-11.410744337978763],["examination",-11.410878977823717],["Coming",-11.411070239737708],["thorough",-11.41117984215504],["gomer",-11.411559298556924],["Metro",-11.411842951490478],["actu",-11.41212133017202],["facilitate",-11.412237112713395],["putt",-11.412477168501002],["breathe",-11.413172833094531],["burst",-11.413537686188583],["skeptic",-11.4140364272335],["offender",-11.414148231452401],["Rating",-11.414997471738626],["donor",-11.415097243289079],["protecti",-11.415114662590192],["UA",-11.415238287799792],["cargo",-11.415246537852088],["Digita",-11.415445124852624],["Whit",-11.41562014130972],["traffick",-11.416047206405123],["vo",-11.416186923596365],["economi",-11.416268366114997],["evaluate",-11.41647105152047],["valent",-11.416774873854456],["SD",-11.416944029804222],["Harrison",-11.417209867638219],["iron",-11.417466687350915],["Lab",-11.417527136558205],["outdoors",-11.417619612695965],["bonus",-11.418568864587499],["urgh",-11.419296768458288],["eviction",-11.419327206100489],["toxic",-11.419390521525823],["spray",-11.419826108217329],["06",-11.420063006337086],["Think",-11.420132237205737],["tolen",-11.422182271595622],["connectiv",-11.423616551645154],["consume",-11.423624247300518],["excite",-11.423722759135073],["taste",-11.423900471301256],["gen",-11.424014996837784],["deny",-11.424389419900717],["Globe",-11.424902859575344],["Tax",-11.42492816737043],["lves",-11.425097477401543],["aging",-11.425928003672876],["Child",-11.426037236419122],["decid",-11.426151178406887],["sixt",-11.426336632222327],["questioning",-11.426362522492411],["blaze",-11.426418301040009],["liter",-11.426601254041717],["roadway",-11.426634490167613],["highway",-11.427055275493121],["Iron",-11.427334469882577],["forgot",-11.427825380369411],["swift",-11.428387323050229],["inner",-11.428447345154549],["pres",-11.428543649545787],["regulate",-11.428583407122847],["outing",-11.428646815289415],["evacuate",-11.428867452019901],["Yo",-11.42904698007695],["Jess",-11.429643363608555],["ultra",-11.43045877216085],["representation",-11.430525894873266],["firing",-11.430546105561783],["thread",-11.430853892583016],["Rams",-11.431594835480587],["Diamond",-11.431609887468394],["referr",-11.432301793144166],["Ros",-11.432364984843062],["vacation",-11.43247354926546],["prevail",-11.432558425047361],["Punjab",-11.432582800346482],["rhetoric",-11.432708849766245],["Alliance",-11.432736757893151],["preliminar",-11.432800793301535],["cough",-11.4329356394099],["enem",-11.433184564310679],["vaccination",-11.433370322498005],["frustrating",-11.43338358802307],["butter",-11.433519459678706],["oxygen",-11.433604283195757],["definition",-11.433634966643705],["realistic",-11.433867343170052],["agged",-11.433881289295368],["bulk",-11.434284235455904],["ully",-11.434293972997693],["booste",-11.434515217402716],["loving",-11.434567623442494],["Drug",-11.434596872271637],["Convention",-11.434651375187125],["endure",-11.434702979905317],["confrontation",-11.434899642084087],["describ",-11.435209101485393],["Theatre",-11.435388330520682],["ince",-11.435435272344728],["rap",-11.435470878717165],["prompte",-11.435863750870226],["owed",-11.4364394182968],["Ko",-11.436451541231783],["Weather",-11.436482113741368],["Engineer",-11.43651997812978],["Tampa",-11.436791830873121],["owing",-11.437072197640418],["Bre",-11.437503375751689],["streak",-11.437753979056858],["Macro",-11.438448897188165],["Pass",-11.438756934743312],["Mohamm",-11.438866843860815],["Winter",-11.439032453017475],["FM",-11.43934879339245],["stranger",-11.43952888385154],["Vi",-11.439574179611288],["reviewe",-11.439630073349282],["Technologi",-11.440509819165332],["Policy",-11.440633196507207],["tering",-11.441261987278217],["memori",-11.44151421765015],["acceptabl",-11.441554521914389],["pursu",-11.442505150774942],["Hard",-11.442748352369374],["ragged",-11.443399852167476],["farming",-11.443589398283356],["Grace",-11.443725262901978],["Margar",-11.443909988859367],["completi",-11.443961984418694],["inspir",-11.444680334497596],["fence",-11.4448574171257],["tho",-11.444936183337324],["disinfect",-11.444945514094563],["terminal",-11.445104206616035],["lease",-11.445151209386115],["Dian",-11.445356288372448],["output",-11.445530642599811],["Would",-11.446160916148113],["minimal",-11.447023156618554],["Roy",-11.447087513054143],["affiliate",-11.447367835479852],["Laker",-11.447462463805302],["nois",-11.448045867504844],["HD",-11.44806577625333],["plague",-11.448958856175146],["Hunt",-11.449974788861585],["programm",-11.450159532228112],["attache",-11.450923880384563],["chi",-11.451052725617423],["freeze",-11.45178905078908],["indefinite",-11.452107989351454],["ethnic",-11.452943677068244],["Natural",-11.454246804315797],["Come",-11.454264895275433],["steel",-11.454281691497922],["forum",-11.454386818372324],["avail",-11.45439216265956],["….",-11.454486379014531],["devote",-11.454651733601446],["Ether",-11.455526626611942],["foster",-11.456253113623536],["outlook",-11.456375817042218],["diagnosi",-11.456783450275529],["Maria",-11.456837400691605],["consum",-11.457534773223951],["Mario",-11.45765343261398],["choos",-11.458345533087568],["Va",-11.458720618749702],["Aske",-11.458799558595382],["dump",-11.460394451092093],["wicket",-11.460676493885083],["Shar",-11.460691790236943],["mega",-11.460739932636944],["Store",-11.46080938420965],["evolve",-11.460919018628674],["Gray",-11.461186822475094],["Jamie",-11.461456928788188],["Belarus",-11.461674734411538],["Nebraska",-11.461781359737993],["Lawrence",-11.461791949750966],["parallel",-11.461846057767707],["container",-11.461928174787117],["Budget",-11.461996352732125],["Bishop",-11.461998056880212],["Madison",-11.462019220770953],["Legend",-11.462109321466468],["legislature",-11.462127831003432],["concise",-11.462200321571684],["statue",-11.462266958408897],["garage",-11.462419201665359],["ridiculous",-11.462453440361081],["electrici",-11.46253018344231],["pepper",-11.46260618482697],["surrender",-11.463123988887705],["specialize",-11.463621570740592],["implication",-11.463662612645525],["Fly",-11.46388662417439],["scores",-11.463927384408228],["attractive",-11.463964481903464],["Limited",-11.464380229563469],["contestant",-11.464385797134291],["stagger",-11.464417075196783],["ification",-11.464820600847485],["Environmental",-11.465405710685504],["Gu",-11.46554949825871],["supervisor",-11.465624355815747],["sheriff",-11.465790981216621],["desert",-11.46625098712515],["accusation",-11.466660692957142],["Uber",-11.467214900831829],["Mosco",-11.46746389740397],["Helen",-11.467474186939128],["shopper",-11.46754219216181],["earl",-11.468347595889037],["utilize",-11.468350856282887],["Father",-11.468474471307411],["consent",-11.46882191144855],["exemption",-11.469201929404345],["Kadu",-11.469894646785388],["Euro",-11.46993799976111],["Link",-11.47000937137053],["sweep",-11.470561725228222],["Sure",-11.47056556775436],["plea",-11.470681220647876],["idential",-11.47086128482637],["distress",-11.471333334404676],["facial",-11.471863361890037],["mont",-11.472033242584795],["expire",-11.472150031065013],["grave",-11.472215158064296],["ambitio",-11.472347917422628],["reminde",-11.472524114825337],["dis",-11.472793157161977],["Edo",-11.473011783879501],["photographer",-11.4732344037559],["humanit",-11.473695571772648],["sole",-11.473738566612292],["structural",-11.474935156772483],["Youth",-11.47494294699257],["Pier",-11.475652668101953],["Lynn",-11.476861422940287],["believ",-11.47712618471047],["variant",-11.477348725195604],["ites",-11.477722017521607],["highlighte",-11.477801778134642],["Anne",-11.478608516674784],["Lock",-11.47884623095516],["Springs",-11.478988425304324],["goe",-11.479342044885199],["Nanc",-11.479454046997935],["notion",-11.479713808591807],["makeup",-11.479891875090281],["handl",-11.480200089465956],["withdraw",-11.480890817215725],["boom",-11.481408565735608],["Sep",-11.48218422502895],["Ric",-11.483173833520768],["ich",-11.483435150591253],["okay",-11.48343591032388],["Pete",-11.483606631946026],["cure",-11.484013052282632],["instruct",-11.48446406009699],["hal",-11.484803621986742],["backup",-11.484843970087407],["Centers",-11.485954811768629],["disable",-11.486079824578571],["stretche",-11.486132694175144],["ceremoni",-11.486352178557159],["Journal",-11.486429200800053],["arring",-11.486762447926218],["uncle",-11.48771655592732],["authentic",-11.48826019014876],["Queensland",-11.48830007493082],["elevate",-11.488859849644326],["DJ",-11.488933791316994],["sung",-11.489129114703388],["Cap",-11.489729815652494],["drill",-11.489846421021618],["mal",-11.489956882190747],["WAS",-11.49122493945141],["exhaust",-11.491638877690596],["icked",-11.491693420148382],["mentor",-11.492132531858386],["Hopkin",-11.492146638204435],["Fraser",-11.492167577883817],["Consumer",-11.492188388485872],["Bailey",-11.492193187873283],["Case",-11.49220852091716],["Dublin",-11.492233186553491],["Organisation",-11.4922337652236],["cautious",-11.492267916600351],["Restaurant",-11.492290841359583],["collision",-11.49230593592262],["competitor",-11.492334953869857],["purple",-11.49252205981319],["childhood",-11.492549065795604],["graduation",-11.492666787434253],["shame",-11.492700099837734],["Raj",-11.492789738298692],["pants",-11.4928893573647],["Mission",-11.493020549503767],["Ku",-11.49302839831561],["disclosure",-11.493191517057017],["Liberal",-11.493308433669078],["awkward",-11.493375357534457],["notification",-11.493406557807674],["memo",-11.493429330433834],["benchmark",-11.493493154383604],["arts",-11.493677626475188],["03",-11.493725141654924],["servant",-11.493901039356697],["Portug",-11.494104549535656],["Medica",-11.494179208756323],["withdrawal",-11.494265752140924],["leverage",-11.49428007979219],["differ",-11.494633141491093],["farmer",-11.494857243306239],["Code",-11.494864948294865],["Grammy",-11.494886185860432],["certifi",-11.49489488732695],["protein",-11.494989922323326],["installation",-11.495002544896213],["Auto",-11.495284878217701],["inventor",-11.495371359673022],["thankful",-11.495470234523289],["cooperati",-11.496341151243861],["Keith",-11.496552951575572],["froze",-11.497429385305667],["organic",-11.497471005689002],["Wi",-11.497501497243755],["strip",-11.497774654055062],["Bennet",-11.497954095587843],["Put",-11.497967388869737],["Jak",-11.49844963057959],["trans",-11.498477402082644],["Wh",-11.499020301098508],["belonging",-11.499331480932124],["unrest",-11.500649359259851],["che",-11.500812185120122],["excessive",-11.500844813930417],["directive",-11.501367706218815],["filling",-11.50144554708325],["evacuation",-11.501528422634932],["upside",-11.50164276226223],["ging",-11.501852752160136],["afterward",-11.502161911140991],["charter",-11.503055135275083],["Friends",-11.503706491223502],["filter",-11.503874679632348],["boundar",-11.503936950340485],["Murra",-11.503986600027268],["cking",-11.503999036170255],["lenty",-11.504036107219862],["isdom",-11.504180712973616],["olar",-11.50466169245753],["Brun",-11.50470200225313],["Direct",-11.504903354153235],["breed",-11.505277035094492],["chip",-11.50645110482695],["Winni",-11.5065561422582],["relieve",-11.506754037434217],["Lane",-11.507003705408785],["holes",-11.507122467528836],["wrap",-11.507799156912363],["Eddi",-11.508046961106826],["journalis",-11.508572928952773],["chill",-11.508576286721429],["nightmare",-11.508864027279898],["QB",-11.508909042770174],["ports",-11.50918756936688],["satisfie",-11.509199441867768],["Arsena",-11.509951465440528],["flexibl",-11.510255651400302],["height",-11.511331959659348],["ris",-11.511530164050955],["PA",-11.511593222064523],["accommodate",-11.512183652564461],["Secret",-11.512436335333707],["Fisher",-11.512583905799186],["publisher",-11.513073384716765],["reign",-11.513186010327072],["5th",-11.513235900127741],["trappe",-11.513358361000012],["dual",-11.51337571773707],["Melb",-11.51398520330607],["Low",-11.514800647538575],["Eight",-11.514992165326063],["allege",-11.515421920118953],["mari",-11.515521620629237],["brave",-11.515962367903487],["robot",-11.51596469285419],["inancial",-11.515996270014082],["contrar",-11.516508578091926],["galler",-11.516676624526],["Find",-11.517069999559602],["ju",-11.517735264451584],["criticise",-11.51806772406359],["125",-11.51850032897898],["valuation",-11.518881973600974],["pursuit",-11.519179878610718],["Record",-11.519742441624958],["endless",-11.519808543383496],["Dar",-11.520812813405449],["hub",-11.52123062644784],["flee",-11.521386779201539],["stating",-11.521512984798889],["Buy",-11.521560314933339],["deployment",-11.522874439647074],["survival",-11.523010499966006],["Azerbaijan",-11.523334375210469],["glimpse",-11.523334753691925],["Jerusalem",-11.523343673419003],["Soviet",-11.523370313469474],["pupil",-11.523472846788643],["grandfather",-11.523489419578095],["gesture",-11.523501406071446],["Metropolitan",-11.523537977256195],["grandmother",-11.523761683158448],["licence",-11.523821845895217],["landlord",-11.52382385253241],["Standard",-11.523888939547467],["immense",-11.523949297581185],["mainstream",-11.523972847733122],["intersection",-11.52409663830689],["linebacker",-11.52412339320645],["monster",-11.524321837522331],["Raider",-11.524373747288086],["bishop",-11.524915064954195],["adaptation",-11.525112505394375],["nutrition",-11.52556250242214],["weaken",-11.526132829582785],["cousin",-11.526357948705332],["explicit",-11.526468709051013],["explanation",-11.526653623831713],["CoV",-11.526664979014043],["blanket",-11.526672987663924],["description",-11.526687557731472],["angr",-11.526983721434739],["Uganda",-11.527210950427794],["Sp",-11.527265869178828],["110",-11.527331823565014],["indicator",-11.527367684403778],["belt",-11.527384990635392],["flatten",-11.527999652571154],["Philip",-11.528017159832967],["pover",-11.528217247420246],["riders",-11.528241924463524],["Box",-11.5284056167616],["Touris",-11.528419930676824],["arrange",-11.5287643680085],["AFP",-11.529101846898133],["sandwich",-11.529791394623913],["CARE",-11.530017701823134],["Brando",-11.53008170334015],["consultant",-11.530444442545445],["und",-11.531082207185857],["tariff",-11.531332708540036],["crown",-11.53180604370889],["triple",-11.531874774078233],["tired",-11.53188111181364],["tighten",-11.532283939026684],["devastate",-11.532646408379927],["forth",-11.532754940898954],["End",-11.533128096407534],["Sri",-11.533135167687135],["eggs",-11.533150384949966],["anonymous",-11.5334855429711],["Islam",-11.534132678184422],["cted",-11.535151280427215],["jacket",-11.535300144141452],["conventional",-11.535575096627642],["1000",-11.535743032786346],["Face",-11.535972346754612],["anchor",-11.536419638066741],["raid",-11.53645041827085],["Golf",-11.536995108491883],["northeast",-11.537518247044016],["flexib",-11.537665238679388],["pointing",-11.537676353165626],["birds",-11.539139667365102],["ye",-11.539302369219893],["airy",-11.539735584131735],["precise",-11.539793177254571],["cute",-11.540446392516326],["shell",-11.540567418950198],["decent",-11.540648015479572],["oll",-11.541203664278163],["firework",-11.541620998071492],["municipal",-11.54163178257965],["Penc",-11.541957058009977],["fisher",-11.542869549613522],["EV",-11.543411836897684],["abou",-11.543480854227443],["Ri",-11.543692242917503],["aim",-11.543847555456068],["charm",-11.544226181846208],["Dul",-11.544308136397362],["Woods",-11.54483063059957],["contribut",-11.544866019247623],["sburg",-11.545087085339336],["Mon",-11.545788166971318],["Bright",-11.545788286625314],["utum",-11.545883316911244],["reinforce",-11.546263153577097],["plunge",-11.54633100853278],["Clay",-11.546471927004296],["Dun",-11.546693698887543],["Kids",-11.547016630623455],["Thing",-11.547316300563295],["tooth",-11.54732973596786],["Joy",-11.547656895952246],["bully",-11.547911935410768],["ok",-11.548100217413003],["Then",-11.548487191683519],["LP",-11.548729757352074],["Silver",-11.548910511999496],["lecture",-11.549107191925666],["AM",-11.549458070315337],["Si",-11.54953515661372],["Peace",-11.549571844564598],["kar",-11.549954058784117],["Industr",-11.550019720212733],["fi",-11.55010999960516],["hunter",-11.550167798016819],["strande",-11.550197313696628],["NEW",-11.550476097843966],["dat",-11.550726350239625],["availabilit",-11.551206687639699],["coordinate",-11.55142893171475],["cater",-11.551490521593738],["Pick",-11.552140601794923],["worsen",-11.552283431440737],["quantit",-11.552647862892961],["trash",-11.553077134038],["regain",-11.553590624974337],["Carlo",-11.553605096347377],["broker",-11.553888753541507],["Mega",-11.554074135047198],["comprise",-11.555026930163429],["prioritize",-11.555469392898363],["Ukrain",-11.555485260230554],["predecessor",-11.5555934943685],["Hurricane",-11.555609263532952],["Celtic",-11.5556101272241],["pronounce",-11.55563050208723],["Qatar",-11.555678868566172],["Ronald",-11.555705215927834],["Bernard",-11.55575086644411],["Arthur",-11.555783533659135],["Bachelor",-11.555804087452431],["Br",-11.556138064113059],["Duches",-11.556340219840372],["Hud",-11.556476863119912],["pipe",-11.556498744035421],["Cu",-11.556715426683791],["clerk",-11.556932709455744],["potato",-11.556987765775562],["poison",-11.55704476874691],["firearm",-11.557216244081927],["recipient",-11.55722166383324],["Soft",-11.55740772980897],["invitation",-11.557563820873684],["tracks",-11.557591824328242],["Appeal",-11.55776132491558],["Gandhi",-11.557829939813203],["intervene",-11.557953408149974],["prolong",-11.558094564560527],["spill",-11.558148908864926],["unnecessar",-11.558293532861045],["respondent",-11.558326633664556],["convenience",-11.558549825101206],["kiss",-11.558890494269765],["nning",-11.558933370975433],["Tesla",-11.55894560116143],["superhero",-11.559099549302251],["scholarship",-11.559119059648799],["passport",-11.559617232286257],["Motor",-11.559737022073149],["elve",-11.559769032874481],["reads",-11.56018412844984],["Indonesia",-11.560355033836444],["tender",-11.560361129555861],["Barne",-11.560731025565776],["Mobile",-11.561874959111673],["awful",-11.561917674524103],["CAR",-11.561968449477167],["Sams",-11.562100830302366],["isappointing",-11.56212435081827],["icon",-11.562284955902687],["CBD",-11.562294045604311],["TA",-11.562459183980582],["Mall",-11.562591436699943],["DO",-11.563037718343331],["Hon",-11.563095422013138],["Intel",-11.563258266258348],["chocolate",-11.563416039828168],["240",-11.564135407925],["Gregor",-11.564953170100424],["wrappe",-11.565130001677371],["lbourn",-11.565502573196017],["izer",-11.56657437606912],["fro",-11.566717626093972],["adoption",-11.566838685910989],["Hua",-11.566905887797446],["sequence",-11.56729007766333],["exploration",-11.568185610884212],["arted",-11.56897387132346],["Rs",-11.56928038562764],["Eli",-11.569567046454392],["Peters",-11.569635232213772],["HING",-11.570263922357306],["assumed",-11.570438170924401],["Holdings",-11.570611057071748],["bounce",-11.57090657827818],["retreat",-11.57182864638451],["Key",-11.572299780714076],["bias",-11.572594064131284],["riot",-11.572623046741425],["Tower",-11.57281493254861],["Rod",-11.573204420295491],["Bat",-11.573301240844014],["cleaner",-11.574044792841892],["Left",-11.574144632014258],["fled",-11.57434457681508],["assurance",-11.575298991400965],["beg",-11.575446157278913],["OP",-11.575581130614038],["Emm",-11.575675186487516],["ising",-11.575743015900054],["Gib",-11.575860690038628],["proportion",-11.576004649931129],["ole",-11.57611165763015],["telephone",-11.576121039663445],["interrupte",-11.576284880747266],["leaning",-11.576553043593282],["Salt",-11.576749615266602],["Ashle",-11.576921280060224],["overs",-11.577038459926268],["Nazi",-11.577206506659396],["Member",-11.577674140956177],["130",-11.577802302008092],["cope",-11.578345861963928],["Need",-11.578827869249254],["Edwards",-11.578834848982533],["thereby",-11.57928257300862],["tape",-11.579537559154204],["Ridge",-11.579899116520345],["brick",-11.580259098331986],["fines",-11.58045108511804],["ants",-11.580605138493997],["cement",-11.580835837741763],["Pope",-11.580898327273985],["Task",-11.581744972501307],["precede",-11.582220484038368],["Prior",-11.582285227518627],["disrupt",-11.582322673785352],["nights",-11.582745079899873],["slide",-11.58277120079606],["CC",-11.58326608131836],["lum",-11.583276968990342],["Beyon",-11.583716036951802],["hom",-11.583736760861994],["HL",-11.583883188115594],["traveller",-11.584098486610785],["ading",-11.584251009591961],["AT",-11.584465741281257],["accurac",-11.585333141766087],["Barry",-11.585645721533647],["bump",-11.58641267758723],["layoff",-11.586823895880467],["sum",-11.586836313223138],["ead",-11.587126986486073],["MA",-11.587447429055178],["Alic",-11.588032511599618],["Mills",-11.588117300087248],["char",-11.588254158659733],["Michel",-11.588601232998963],["fortunate",-11.58876220436854],["Kashmir",-11.588926400369907],["cigarette",-11.588930377670508],["Sussex",-11.588941093082994],["Buttigi",-11.588942805004185],["verdict",-11.588980328076243],["Derek",-11.5890385002414],["Freedom",-11.589107904381008],["delicious",-11.589128620342652],["payroll",-11.589264506766566],["perception",-11.589272448438004],["bipartisan",-11.589281250471368],["Hundred",-11.589368823443628],["grounds",-11.589445690884318],["founde",-11.589530344557271],["disadvantage",-11.589662768089909],["billionaire",-11.589775015880099],["receiver",-11.589798612275152],["interception",-11.58984458720477],["distract",-11.589918307695743],["profound",-11.5899862540602],["Garc",-11.589988475574444],["CY",-11.590597877478533],["Universal",-11.590661729631568],["partial",-11.591074950000207],["Connor",-11.59117048702279],["notorious",-11.591237938966811],["interi",-11.59149281679755],["fierce",-11.592075086765142],["tier",-11.592241795009457],["blessing",-11.592297384725201],["recycl",-11.592753347446015],["stomach",-11.592839721019752],["hardship",-11.592927002376657],["forme",-11.59311542590494],["Embass",-11.593427465901694],["horrifi",-11.593512768232706],["pardon",-11.593578784329981],["Oil",-11.594255346924044],["communicat",-11.594550246270222],["Larr",-11.594761855256312],["PG",-11.594995220685748],["artificial",-11.59561420599239],["Victorian",-11.595845362184711],["storyline",-11.595877613122829],["chairs",-11.596425015932182],["bacteria",-11.596487238732603],["Living",-11.5967027252531],["evaluation",-11.596764591084105],["web",-11.597226148733833],["plasma",-11.597267474026225],["golden",-11.597299423877065],["nerve",-11.597453561565239],["translate",-11.597603974122254],["casual",-11.597629095520817],["Ed",-11.598262878826297],["Histor",-11.598592524689893],["endorsement",-11.59887063297151],["Dame",-11.59980260371799],["Sta",-11.599984359092273],["lking",-11.60000661001002],["nic",-11.600031061271832],["Rug",-11.600513812046547],["talkin",-11.600539749416336],["hoste",-11.60099630592033],["Dominic",-11.601042145332006],["controvers",-11.601474642801787],["feeding",-11.601783831337091],["Expert",-11.601963936447882],["Jeffers",-11.602182209934776],["dressing",-11.60223860559875],["complaine",-11.602600325931],["opener",-11.602753859432523],["grace",-11.602825446882129],["Samuel",-11.603660668239446],["Soon",-11.603868660443103],["tribal",-11.603903695443208],["crush",-11.604083187718894],["distinct",-11.605323066035934],["Snap",-11.6057516223773],["dish",-11.605922534709602],["arming",-11.606102676139368],["accus",-11.606154260369117],["damag",-11.606591315290549],["Walla",-11.606624898062261],["Hanna",-11.606833495509298],["parliamentar",-11.607258704178552],["tight",-11.607414557427031],["Cambridge",-11.607512528219509],["Pal",-11.607913137757372],["merit",-11.608014496495844],["mer",-11.608199810719737],["enabl",-11.608436639744793],["Ru",-11.608727875283973],["wrist",-11.609074278309919],["queen",-11.60920953520137],["tory",-11.609407526480362],["Dem",-11.610064135751188],["occasional",-11.610264952003384],["mos",-11.610393413082994],["ING",-11.610432214141081],["eek",-11.610837480150888],["Crew",-11.610969501821167],["interfere",-11.611608942132232],["Clare",-11.611787280295797],["patrol",-11.611960776064988],["Ron",-11.61198068752072],["governors",-11.612090402252903],["ssembly",-11.6122084709104],["consolidate",-11.613053102571993],["buck",-11.613522222624692],["ierra",-11.613872566148547],["respons",-11.61425791996195],["Pri",-11.614645928719748],["hungr",-11.614758690480638],["influen",-11.615778294878915],["negotiate",-11.615934139931099],["patien",-11.616559990539697],["wrestl",-11.616655267469461],["isolat",-11.616663767937697],["eeding",-11.617010429211604],["Jose",-11.617467137709106],["PF",-11.617569923498666],["dministration",-11.61782563031107],["allocate",-11.618473321274486],["parti",-11.618478707992821],["Malawi",-11.61870233380619],["nderson",-11.618837891459393],["twist",-11.618880182541202],["suitabl",-11.619731532510524],["ridge",-11.620472573527577],["mill",-11.620843116043773],["ess",-11.6213969599006],["dragon",-11.62181532969106],["Ann",-11.621938890487135],["horizon",-11.622314749933008],["ethic",-11.622339979751782],["07",-11.62265476839402],["Morris",-11.622967539092063],["frustrate",-11.623048440965924],["authorize",-11.6230675273746],["uneral",-11.623306406016386],["Tanzania",-11.623408585205693],["Manhattan",-11.623411805727978],["Chancellor",-11.623414525556663],["Switzer",-11.623418746335902],["ophomore",-11.623419133342836],["Magistrate",-11.623420517924071],["Disaster",-11.623546377661],["Progressive",-11.623554257573542],["distraction",-11.624227141836005],["companion",-11.624343051088582],["legislator",-11.624428608875599],["varie",-11.624435147799867],["administrati",-11.624622198426502],["resignation",-11.624661781649973],["PAC",-11.624681216040457],["Battle",-11.625339128608879],["passage",-11.625350887656584],["beef",-11.625377019259627],["brush",-11.625488184274765],["underl",-11.625506126954752],["hazard",-11.625704427858658],["Retail",-11.625827809891842],["drag",-11.625998120353444],["loyal",-11.626049457097377],["Rivers",-11.62612789195623],["underwa",-11.626326772120368],["angle",-11.626602060120613],["depict",-11.626850770139207],["landing",-11.626953469345692],["ordinance",-11.626994338573185],["Glen",-11.627364598042295],["breakdown",-11.627375840713407],["tenure",-11.627375903304557],["pedestrian",-11.628711957080547],["algorithm",-11.628745327561473],["excess",-11.628843641332061],["elevision",-11.629147673861306],["undermine",-11.629300878962477],["Chase",-11.629418388774619],["Due",-11.62959319179007],["analyze",-11.629648317886183],["attraction",-11.629791457636724],["artistic",-11.629946889297052],["ndful",-11.630474512755754],["lane",-11.63053420963173],["tly",-11.631045567734363],["eeper",-11.631216527676374],["ney",-11.631448889949018],["ker",-11.631915991324831],["motorcycle",-11.63219039012531],["blesse",-11.632192873947066],["Owen",-11.633140489253897],["Was",-11.63343962368117],["censu",-11.63352076088804],["confuse",-11.633620850385196],["ered",-11.633865501001207],["hunt",-11.634582116053776],["Nash",-11.634833041228838],["Gates",-11.634963867275108],["liqu",-11.635092785930611],["oalition",-11.635272585745653],["spotlight",-11.635974429885328],["intentional",-11.6359897481377],["exclude",-11.636232611405672],["revolution",-11.636285468717336],["Arena",-11.636675977825178],["skirt",-11.63690051492017],["declin",-11.637058469459179],["Apart",-11.637112166030054],["tour",-11.637616414727727],["chains",-11.6376356241058],["tolerate",-11.637745903149625],["waite",-11.638140447475443],["den",-11.638167864496838],["corona",-11.638459694706189],["manufacture",-11.638581252157048],["lobby",-11.639428628499939],["eland",-11.639495504808234],["reluctant",-11.639679212370785],["sweat",-11.639762713840092],["Medi",-11.640578488539317],["Mich",-11.64115706102094],["converte",-11.641347574191482],["mood",-11.642220030281027],["slip",-11.64223401923033],["activate",-11.642319905975613],["messag",-11.642539801415976],["testimon",-11.642842944832196],["arcelo",-11.643359389825168],["Palm",-11.643827327937064],["Rangers",-11.644049374370002],["bold",-11.644941808185846],["stepping",-11.64497499930344],["shar",-11.6450292173425],["rol",-11.645577648666698],["plug",-11.645676489118166],["struction",-11.646091904305651],["centur",-11.646247569524826],["emphasis",-11.646381308405804],["nging",-11.646754454634745],["CM",-11.647148684667624],["Dog",-11.647211828534946],["Cloud",-11.64761028441815],["acute",-11.648080242187525],["smell",-11.648492436396738],["Card",-11.648719340076173],["105",-11.648855616672634],["ade",-11.648919719131275],["halt",-11.649398215625],["appoint",-11.649420077686653],["procure",-11.64981863326407],["theme",-11.65019526855156],["Steel",-11.65072769390313],["scream",-11.650780517870103],["NP",-11.65082134820667],["insult",-11.650856395974595],["flash",-11.651316653246948],["propaga",-11.651744688828884],["ree",-11.651748140961082],["tage",-11.651761106974611],["Fur",-11.652607825517757],["RAM",-11.65272057504845],["icking",-11.652909438077518],["fit",-11.653311558084942],["LGBTQ",-11.653358200069539],["evolution",-11.653384424519883],["Kar",-11.653568878450717],["sentenc",-11.653845655101087],["eal",-11.65396302163893],["recreation",-11.654008550197144],["Bad",-11.654251879482008],["rucial",-11.654544684485794],["rounds",-11.654692773939582],["ES",-11.65508181093971],["Pho",-11.65527320521177],["dding",-11.65528941975503],["Front",-11.655851973054979],["temple",-11.655861241875566],["leans",-11.656001246310923],["titude",-11.65601662239929],["mendment",-11.656300657002477],["drift",-11.656408619931543],["Blas",-11.656438540321606],["fly",-11.657925268794209],["Richards",-11.658954361987194],["Egypt",-11.65900996783828],["‚",-11.659122817385601],["Kardashian",-11.65912282014807],["Reynold",-11.659129472391491],["Abdullah",-11.659137913772856],["Criminal",-11.659217459307548],["perceive",-11.659226729820551],["apolog",-11.659376303262455],["referendum",-11.659391769940717],["Athletic",-11.659401668604378],["Ghanaian",-11.65941257032481],["Inspector",-11.659461541275684],["McDonald",-11.65948995548075],["Chuck",-11.659677279197217],["Regard",-11.659682531700179],["prevalen",-11.659700086645458],["SUV",-11.659939533590661],["ceiling",-11.66003273966171],["ende",-11.660194626015437],["keyboard",-11.660208736998193],["demographic",-11.660344776444171],["renewable",-11.660368565308339],["Comic",-11.660446715758196],["upload",-11.660869519008944],["Note",-11.660875414052342],["wireless",-11.660905951331536],["Draft",-11.661031353890243],["irmingham",-11.661584301196255],["Carolin",-11.661777311397998],["modifie",-11.662001959451125],["Ni",-11.662155239539967],["ith",-11.66231079220665],["rocket",-11.66241090587722],["disturbing",-11.662813582939595],["densit",-11.662923662876523],["RBI",-11.662932626051244],["Fift",-11.662948570828702],["underground",-11.663134098474304],["rumour",-11.663199530105082],["afterma",-11.664291529055836],["lling",-11.664545348055018],["beverage",-11.66466453665402],["Clair",-11.664979621725204],["terror",-11.6656212155995],["pharmac",-11.665657737651353],["armful",-11.665658013300394],["Political",-11.665978061007058],["ntelligence",-11.666065756517563],["pension",-11.666264382829532],["Quinn",-11.66650046124477],["palm",-11.666544454290003],["Mahara",-11.666697246360874],["dry",-11.667021800022182],["distribut",-11.667086177082325],["auke",-11.667130660096637],["Token",-11.6674697186437],["Private",-11.66769541530407],["inequalit",-11.66778970318607],["Climat",-11.668030989254357],["architecture",-11.668208135400402],["homicide",-11.668586799338474],["orbit",-11.668604402256392],["fascinat",-11.668673420978955],["hardwa",-11.66883532360212],["traveler",-11.669207687776245],["Marv",-11.669208767524559],["nife",-11.669221956991379],["modest",-11.669746291039218],["Native",-11.670052451371378],["backyard",-11.670155712019984],["terrifi",-11.671074817921268],["Stewar",-11.671594900755743],["Round",-11.671860063409682],["disciplin",-11.67231648925627],["04",-11.673141503377892],["Yea",-11.673229196990697],["magical",-11.67333762371782],["delegate",-11.67393876360344],["portal",-11.674021534478104],["sauce",-11.674264430705716],["classifie",-11.674452918364597],["ennis",-11.674453209828132],["eats",-11.674647514977655],["Command",-11.674731671022908],["oward",-11.674770027100198],["Rocket",-11.674876087461415],["Cash",-11.675079001737735],["ap",-11.675506635915262],["Found",-11.675549053659463],["cooperate",-11.675558152652487],["mum",-11.675895010045323],["happi",-11.676070616257544],["ells",-11.676417265273225],["significan",-11.677463418523438],["ace",-11.677592841296198],["pleasure",-11.677808575485226],["setup",-11.677838617769577],["vegan",-11.678134139027161],["TO",-11.678237588654136],["babi",-11.67849013861308],["fever",-11.6785498564912],["blog",-11.678938294754271],["haul",-11.679034444001115],["bearing",-11.679871431600073],["nex",-11.679903994866049],["subscribers",-11.680097197052199],["Brooks",-11.681289144762369],["foresee",-11.681333467161089],["howe",-11.681611320968479],["relat",-11.681851217388026],["Lin",-11.681878699313884],["loop",-11.682041856432832],["Near",-11.683153170498395],["hot",-11.683451097613812],["alternate",-11.6834520617861],["Mitch",-11.683630665019619],["domain",-11.684177237184587],["nt",-11.684626853835127],["mmediatel",-11.68479656594036],["Delta",-11.684825081515516],["Broad",-11.685633969205691],["defende",-11.685781973007915],["Ellis",-11.685880456573404],["Ch",-11.686104163093873],["enact",-11.687809414861421],["ained",-11.687888826986216],["mortalit",-11.687905947560182],["patch",-11.688850068618317],["legislati",-11.689067448022026],["Ash",-11.68922499602969],["accomplish",-11.690081898374862],["Beck",-11.69009522053001],["Burk",-11.690444105031014],["Alan",-11.690511623184555],["Kath",-11.691052115080304],["ny",-11.691064286209025],["sville",-11.692426690813846],["Ward",-11.692548100109112],["marking",-11.692706082280514],["learner",-11.692717757325326],["commentar",-11.69291141807808],["pharmaceutical",-11.693378312217849],["menu",-11.693402448826111],["Harv",-11.693761475422791],["Mal",-11.694043485068798],["Critic",-11.694358817401564],["controll",-11.694792518593221],["chat",-11.694897889961556],["booking",-11.694952685830124],["Connecti",-11.695571761931198],["Express",-11.695711414672306],["015",-11.696091760551063],["Oklahoma",-11.69616044288172],["Pharmaceutical",-11.696164226185182],["Legislature",-11.69618011351782],["Leonard",-11.696265725245532],["militia",-11.696338944831439],["Cricket",-11.696375514658017],["stor",-11.696404003048498],["Relief",-11.696438670867305],["Scientist",-11.696541781509083],["Warrior",-11.696565085430038],["fil",-11.696618328327528],["pleasant",-11.696710448402687],["dust",-11.69671926166397],["undoubted",-11.696725900721757],["creature",-11.696832046892258],["Bradley",-11.696868115012867],["rystal",-11.696870293793078],["interference",-11.696882358444373],["Benja",-11.697006515061231],["Room",-11.697077411695995],["midfielder",-11.697325388999674],["Elliot",-11.697331666139885],["tuition",-11.698056519450306],["Rapid",-11.698105731692454],["Thousand",-11.698126398065362],["threshold",-11.698236938017207],["curious",-11.69828025667496],["absorb",-11.698321307052058],["Switch",-11.698711142821592],["database",-11.698842656670909],["contributor",-11.698948262466985],["Tamil",-11.69897723644883],["Charge",-11.699176261281876],["diplomatic",-11.699241327206568],["detective",-11.699266409883908],["Hart",-11.699310896434403],["Event",-11.69949116855889],["Johnn",-11.699520305716248],["Song",-11.699543406530413],["workshop",-11.6998334848702],["Dennis",-11.700097446861669],["execution",-11.700170844730202],["ner",-11.700315064971315],["kills",-11.701383029044376],["fundraiser",-11.701574910019982],["Level",-11.701632618873594],["aux",-11.70216169654091],["Voice",-11.702407494725332],["ption",-11.702619980577373],["waters",-11.703139820651353],["iness",-11.704204642051275],["habitat",-11.704409619579364],["Armenia",-11.704413460683746],["Elle",-11.704510785536707],["Sha",-11.704799100059521],["Malaysia",-11.705391422668171],["summit",-11.705399898382217],["Win",-11.705415737257411],["tunnel",-11.705797009097491],["keeper",-11.706696636527376],["ale",-11.706920878371191],["Shares",-11.7076383089916],["taxi",-11.707680794634234],["Edward",-11.707741347606733],["calculate",-11.70797937390868],["recreational",-11.708047051127114],["shadow",-11.708723185465663],["Karen",-11.708730510186129],["rebuild",-11.709111995793164],["collaborate",-11.709372161128378],["couraging",-11.709389265308808],["outrage",-11.709520795652338],["REN",-11.710106707072292],["Semiti",-11.710341256011123],["Worker",-11.710366861813572],["cafe",-11.711155961354057],["locker",-11.711242146917593],["worrying",-11.711388032125083],["buzz",-11.71191419640019],["Raymo",-11.711948444574457],["mess",-11.712149570909606],["ular",-11.71272496133694],["Citi",-11.713009119164825],["LG",-11.713035947111642],["transparent",-11.7132289999856],["Independent",-11.713797973408692],["enix",-11.71428147381145],["welcom",-11.714416194785349],["Deep",-11.71444053886683],["Trud",-11.714627073009213],["inked",-11.714756266291651],["hoped",-11.715072426285577],["alien",-11.715135611934112],["losse",-11.715432093986685],["Xi",-11.71549918335741],["cup",-11.716086136639436],["PE",-11.716842078984948],["180",-11.717011995648589],["correction",-11.717143361940451],["medal",-11.717490655430115],["Emma",-11.71754618571699],["Between",-11.718718421333195],["asting",-11.718789646830604],["doubl",-11.719031939416345],["Tor",-11.719171944789487],["ters",-11.719376445282546],["UCL",-11.719711037922941],["Industrie",-11.720632083574603],["Hyde",-11.720938436271624],["brutali",-11.72130239246626],["restor",-11.721638632121978],["Fla",-11.722129810528159],["sight",-11.723578864045267],["root",-11.724022065918199],["bull",-11.724165419122798],["relaxe",-11.72446262461641],["Walm",-11.72588367880732],["attacker",-11.726522467018727],["teenage",-11.726649708886374],["Communis",-11.72678318454107],["Hol",-11.72723582402826],["Fish",-11.727665286769751],["united",-11.727710203618935],["McCart",-11.728378850247616],["chewa",-11.728883477868948],["Nine",-11.728959885637007],["referee",-11.729700273865369],["zing",-11.730111245748096],["Shore",-11.730256202148395],["Hamp",-11.730369762725365],["Environment",-11.730404588277674],["olling",-11.730718521968807],["eated",-11.73082116831886],["sustainab",-11.730873034557046],["pure",-11.731239645109282],["escalati",-11.732155287711016],["ardest",-11.732528344460514],["cliff",-11.73266959382447],["escalate",-11.732894706884267],["monument",-11.733485868924717],["„",-11.734621392884177],["¦",-11.734621392884177],["pneumonia",-11.734622130843094],["Lloyd",-11.734644092588697],["Cowboy",-11.734667862400542],["Jazz",-11.734676336109008],["socio",-11.734753576449908],["Abbott",-11.734837131822019],["gunshot",-11.734899586931945],["Township",-11.734908396872969],["Dutch",-11.734949084391221],["precious",-11.735001905288193],["powder",-11.735008554849625],["battleground",-11.73518409534853],["Revenue",-11.735191555892868],["pos",-11.735512112587058],["Nether",-11.735605971059758],["ped",-11.735887059678936],["ist",-11.7359843434623],["decisive",-11.736014172426755],["194",-11.736109851959444],["valley",-11.736295251664709],["comedian",-11.736741805712857],["disregard",-11.736780391723942],["neglect",-11.736817651394109],["Packer",-11.736886832278667],["Nova",-11.7368923283787],["imprison",-11.73700982914525],["uplift",-11.737092469120903],["submarine",-11.737099043362003],["fluid",-11.737293376628887],["Kol",-11.737671473862004],["flip",-11.737828559184978],["occupation",-11.737946922652927],["Forum",-11.737958469421983],["fragil",-11.73810084043634],["electorate",-11.73818539529343],["contemporar",-11.738204939490384],["frequenc",-11.73823364154481],["intellectual",-11.738275144548682],["speculation",-11.738460901983634],["ons",-11.738462740909977],["frighten",-11.738470188561731],
[...]
