{"version":"1.0","truncation":null,"padding":null,"added_tokens":[{"id":0,"special":true,"content":"<UNK>","single_word":false,"lstrip":false,"rstrip":false,"normalized":false},{"id":1,"special":true,"content":"<SEP>","single_word":false,"lstrip":false,"rstrip":false,"normalized":false},{"id":2,"special":true,"content":"<MASK>","single_word":false,"lstrip":false,"rstrip":false,"normalized":false},{"id":3,"special":true,"content":"<CLS>","single_word":false,"lstrip":false,"rstrip":false,"normalized":false}],"normalizer":null,"pre_tokenizer":{"type":"Whitespace"},"post_processor":null,"decoder":null,"model":{"type":"Unigram","unk_id":0,"vocab":[["<UNK>",0.0],["<SEP>",0.0],["<MASK>",0.0],["<CLS>",0.0],["s",-2.7997269945586343],["the",-3.3584627717542457],[".",-3.391593051091215],[",",-3.4658578350288725],["a",-3.6989382534707804],["to",-3.8973433289940846],["and",-4.074205530773135],["of",-4.111254872835648],["in",-4.202493763157957],["ed",-4.24970645105719],["ing",-4.4057969914873425],["d",-4.465258398119817],["t",-4.467236532040779],["y",-4.546087583487482],["e",-4.559594093015988],["on",-4.723575377358676],["’",-4.828868192583979],["-",-4.859405235377276],["is",-4.890490059216807],["ly",-4.92805062677561],["that",-4.96991894588724],["for",-5.003256198881097],["o",-5.066580227794436],["I",-5.119663858082307],["The",-5.169589271856948],["be",-5.231849519149202],["with",-5.263665628140396],["it",-5.278395149228803],["n",-5.292248407377333],["“",-5.420480230615782],["was",-5.473218486653412],["at",-5.497146127293929],["are",-5.5164010806697785],["'",-5.571890241915515],["an",-5.6273392959887225],["aid",-5.648362745836275],["have",-5.694309745875286],["has",-5.794478234652805],["he",-5.846969342752102],["i",-5.848094844228818],["from",-5.854600012995858],["by",-5.8727328286256135],["will",-5.920289389738368],["\"",-5.941364764691164],["r",-5.943417395711526],["or",-5.987273802875036],["not",-5.999572506045698],["this",-6.060553146902839],["m",-6.072115096290087],["A",-6.10085297168426],["his",-6.11981947030052],["we",-6.133780838262632],["er",-6.163008034366747],["you",-6.163796079814633],["their",-6.216095912992822],["out",-6.216614361129084],["S",-6.242374388068535],["one",-6.269187962336661],["who",-6.32159937343747],["but",-6.340397617306033],["re",-6.341980629636156],["been",-6.353474928255979],["her",-6.369738716202155],["l",-6.370077949698398],["can",-6.372730515238539],["ies",-6.392101805704403],["up",-6.399739281935819],["all",-6.414655233726183],["b",-6.452134301790016],["were",-6.4540831454858285],["(",-6.456535656967656],["they",-6.458850956375688],["had",-6.459045148639875],["more",-6.461161169072939],[",”",-6.478725280634755],["h",-6.509081330898123],["p",-6.532973334889229],["also",-6.549619001957987],["people",-6.553195323073689],["about",-6.55996450221045],["other",-6.561579632547566],["19",-6.570401182672642],[":",-6.587466955311752],["al",-6.594746576851726],["time",-6.6081230330629595],[".”",-6.615044329068233],["which",-6.650044804954604],["like",-6.722248810022759],["year",-6.730646845673727],["In",-6.737429105176416],["”",-6.741301386631958],["would",-6.7516925219670725],["our",-6.76277358224781],["new",-6.774839977898175],["c",-6.776654890483803],["over",-6.781919146699737],[")",-6.786338497575624],["20",-6.7876301502449525],["We",-6.798670156978957],["day",-6.819250290236296],["He",-6.824636514641531],["when",-6.841151670023306],["f",-6.859710270982733],["after",-6.862567785716173],["she",-6.868829600081503],["us",-6.877240827351903],["there",-6.889097617803062],["C",-6.891685704107687],["what",-6.939050456742555],["$",-6.943033768984256],["1",-6.943693896473033],["than",-6.9437623491920775],["some",-6.945542716352574],["if",-6.954858210292313],["?",-6.963475572846841],["get",-6.973883128184119],["now",-6.978723595105246],["able",-6.979642755263973],["its",-7.000428524025021],["just",-7.0016361357851284],["first",-7.039929808827994],["two",-7.048958001084725],["M",-7.053942540142913],["—",-7.076248777598113],["my",-7.080496170097942],["them",-7.086345261695116],["how",-7.089016965116687],["cause",-7.097060373381491],["back",-7.099794130873128],["any",-7.106417414488935],["T",-7.109859136900359],["work",-7.120236601398966],["2",-7.133128958457972],["him",-7.136281386908582],["un",-7.142214945448538],["need",-7.142630303722719],["g",-7.148533969384879],["most",-7.161134112940673],["k",-7.181371090194196],["This",-7.18201225425138],["your",-7.202177521695226],["But",-7.210997635512462],["state",-7.211061665344556],["could",-7.215908406632439],["u",-7.23145140371497],["w",-7.235624764050974],["last",-7.239433312533633],["man",-7.243691008468807],["B",-7.255784090385239],["ever",-7.2611967276946],["take",-7.301617169204563],["U",-7.30648449405525],["hose",-7.309052597179157],["whil",-7.314620332700434],["through",-7.317140253926381],["ve",-7.320123991774485],["3",-7.3271802362334295],["R",-7.331032807415986],["want",-7.341493893639559],["way",-7.343500825162176],["during",-7.349746209461627],["W",-7.351945700612204],["me",-7.3559105211779015],["end",-7.360734864280072],["well",-7.372164685368815],["make",-7.375276765838868],["being",-7.378707815036381],["P",-7.383201099787655],["where",-7.389688685749544],["go",-7.396885777479823],["D",-7.397525230657334],["home",-7.4010197161765205],["every",-7.406708913248777],["see",-7.410325689625892],["help",-7.415394218268305],["many",-7.417562851982073],["government",-7.423265951889287],["going",-7.428161910253681],["4",-7.428630621872852],["high",-7.433691920991151],["call",-7.434476214381941],["come",-7.442174679650382],["even",-7.44265299676705],["000",-7.442875000708735],["N",-7.443793427993546],["play",-7.445006609328595],["th",-7.445981932532431],["E",-7.45213309542455],["COVID",-7.4522703727860415],["before",-7.455277546184588],["F",-7.457652769071801],["5",-7.466555552033601],["look",-7.468739858377816],["per",-7.471995275268355],["game",-7.478960513746607],["down",-7.4797872829606],["years",-7.479948755164489],["long",-7.503397947438893],["health",-7.508249806835533],["–",-7.510046061767099],["into",-7.518010649656285],["should",-7.519719241580649],["real",-7.524764181124261],["start",-7.527167309542344],["off",-7.527551508338617],["know",-7.533518055107159],["week",-7.537828334578389],["agains",-7.552728111145873],["Trump",-7.55741057700314],["And",-7.576857522665342],["test",-7.578653842730189],["made",-7.581383125224997],["L",-7.582003917068316],["%",-7.584871382929365],["under",-7.588829634029713],["thing",-7.588911273847951],["coronavirus",-7.590720626825382],["O",-7.591782637119756],["part",-7.595855708503258],["still",-7.5997975049873165],["‘",-7.601189503418142],["use",-7.602681579133252],["three",-7.614461570188024],["2020",-7.620381869010716],["G",-7.622013288389517],["old",-7.623791519812457],["H",-7.63651884043197],["very",-7.647713693329925],["place",-7.655555539827667],["10",-7.658166336988015],["these",-7.66099770675912],["may",-7.66366274756524],["She",-7.671073683087072],["6",-7.672216968321644],["le",-7.674707865421334],["K",-7.68393219102583],["ce",-7.684632526732024],["million",-7.685613936783047],["show",-7.687758466933254],["support",-7.699197869170543],["country",-7.703674196362376],["good",-7.708120144087327],["ity",-7.709632753825671],["pandemic",-7.71098381768355],["point",-7.721270050455084],["number",-7.722805883338443],["much",-7.722958021886728],["team",-7.727210573236222],["right",-7.73241990750167],["think",-7.733010028296281],["cases",-7.733364738396466],["New",-7.733833253754347],["There",-7.73401735181329],["/",-7.735520345013038],["says",-7.738132860008233],["school",-7.7415604315102575],["around",-7.751021219624347],["public",-7.7532732557592245],["season",-7.769739201660323],["business",-7.77388679095582],["continue",-7.786042884820578],["add",-7.787492168024858],["such",-7.789994146589124],["8",-7.792114299371058],["If",-7.793634730292633],["world",-7.796028648011646],["since",-7.804309724832875],["less",-7.806879308796994],["close",-7.8089195352955585],["life",-7.81395368093578],["7",-7.814053862383503],["police",-7.820574875016575],["did",-7.822715770063566],["own",-7.8233117283453915],["self",-7.8288604531670485],["change",-7.829728458239003],["0",-7.835663066112564],["communit",-7.840176072082824],["company",-7.845168887564433],["service",-7.847758000362246],["don",-7.861598108571595],["family",-7.862995050509491],["lot",-7.865207004657742],["That",-7.866081054587318],["ment",-7.872183017914201],["came",-7.876437371294724],["ll",-7.883144780497125],["including",-7.883729664988223],["say",-7.884625282875622],["issue",-7.885618432579949],["How",-7.886069529533608],["person",-7.887845811569177],["As",-7.88916481211668],["ers",-7.899061554416522],["next",-7.914786838758796],["am",-7.91500795485686],["9",-7.915092936047314],["head",-7.916170620604243],["For",-7.927747117996191],["ready",-7.933112397058963],["ic",-7.939995286590446],["second",-7.944003129357284],["So",-7.951140835738267],["est",-7.956261534805605],["told",-7.959180971492755],["etween",-7.961085454492584],["both",-7.965919664497439],["Mr",-7.96989766263651],["same",-7.972009279572998],["care",-7.984255490816149],["group",-8.00033198484851],["ember",-8.003902048422363],["allow",-8.006278105478582],["v",-8.007716273492488],["great",-8.008911470897223],["student",-8.011107888098007],["um",-8.014297751738887],["30",-8.016879154295397],["You",-8.017895892285793],["ary",-8.020720455821557],["open",-8.0248162223811],["plan",-8.026692411689826],["social",-8.029026101593303],["current",-8.033168804907845],["got",-8.038676046785241],["On",-8.04250008357571],["keep",-8.045886509362974],["few",-8.047471737980196],["ear",-8.050923491967865],["order",-8.056808247746329],["President",-8.062381723539538],["night",-8.06258919384133],["each",-8.06515769227924],["base",-8.066226103183464],["put",-8.067315750707934],["remain",-8.069082467932663],["low",-8.075696796612778],["recent",-8.075820849528911],["ask",-8.077592320044266],["result",-8.077735509502762],["return",-8.080275725484668],["virus",-8.086234845692221],["coming",-8.091418613327301],["15",-8.092174122463334],["side",-8.09597491269388],[";",-8.101323307643417],["different",-8.101326855832337],["line",-8.103456202027402],["election",-8.10463181858255],["case",-8.10463837177592],["though",-8.105092302713178],["Friday",-8.110043107977942],["love",-8.110889629297606],["report",-8.111690639532709],["face",-8.11187804292382],["US",-8.112466635176808],["ive",-8.112780898999057],["best",-8.114190233282514],["president",-8.124323703432635],["four",-8.125547613185706],["month",-8.128328539462508],["near",-8.128544825392435],["try",-8.129318267025287],["!",-8.137729853812031],["found",-8.137914644533197],["include",-8.14343778641176],["z",-8.148603581362586],["market",-8.154783196776425],["city",-8.157168493907484],["16",-8.158640597933994],["here",-8.159153451296834],["local",-8.160561363863422],["11",-8.16243239965481],["ance",-8.167733036991036],["across",-8.171167624811291],["American",-8.174513084572784],["To",-8.17480605220048],["co",-8.179922517215823],["provide",-8.183707101122053],["reported",-8.185125971670875],["release",-8.189095091708314],["When",-8.190678757811591],["special",-8.19197577914671],["give",-8.192960816952084],["event",-8.19668249436441],["far",-8.196823674950394],["State",-8.198298716173333],["De",-8.198556392911662],["due",-8.204892685783118],["12",-8.206728979988627],["age",-8.212029758211218],["land",-8.217264461443612],["V",-8.221632884161746],["large",-8.224583731158457],["mean",-8.22933866645898],["An",-8.230058391694099],["14",-8.231939178637043],["left",-8.233406819600962],["system",-8.246683743622388],["price",-8.248655688120817],["according",-8.250213803680797],["hour",-8.25382095814695],["turn",-8.254864986331752],["full",-8.256127175545561],["working",-8.258529000531766],["move",-8.26297582879588],["live",-8.265554867138713],["Al",-8.26606932293252],["level",-8.266140662702973],["never",-8.269843873188648],["…",-8.269957073797407],["17",-8.27217970663776],["post",-8.272862566289284],["ation",-8.277029115332411],["something",-8.27836954930887],["term",-8.285634712843105],["ion",-8.289631436119178],["J",-8.290260331719246],["feel",-8.291054141585258],["big",-8.29140031967935],["ook",-8.292296957984242],["Monday",-8.293506545711855],["What",-8.293550086164654],["share",-8.2947468276006],["hard",-8.296638318628208],["quarter",-8.297424749799747],["better",-8.299979520324289],["car",-8.301419529927076],["until",-8.30401916086712],["believe",-8.304476720212119],["een",-8.311481529288237],["ness",-8.314019169825752],["statement",-8.317113896662379],["21",-8.318572660166469],["record",-8.319933395047597],["talk",-8.320157602799771],["children",-8.324064324927711],["final",-8.324523167410758],["things",-8.325298639913811],["must",-8.32612867138045],["ar",-8.326571125505097],["didn",-8.328295068274834],["might",-8.331009299455848],["months",-8.332974035500595],["run",-8.335379379082354],["win",-8.33539139000364],["With",-8.340473262398081],["film",-8.341167980990004],["away",-8.341239127626586],["does",-8.345349184056444],["increase",-8.34738073483423],["men",-8.347985924812658],["five",-8.348711613835189],["ten",-8.350145639740694],["past",-8.350708160950482],["No",-8.354134832295156],["total",-8.356768767546574],["China",-8.357235357974755],["force",-8.35787950393215],["power",-8.358896461911488],["law",-8.360361354825148],["County",-8.360407243212624],["wh",-8.361006240307265],["alway",-8.362849189591678],["gan",-8.363259982755627],["hospital",-8.364031683212886],["claim",-8.36405065956691],["50",-8.364975391429628],["March",-8.367439433139761],["body",-8.367996713184123],["air",-8.371538913616924],["top",-8.372399465342742],["information",-8.37333807281511],["question",-8.375557295828779],["Whil",-8.375563806348614],["members",-8.376086871171559],["deal",-8.377136347466628],["Thursday",-8.384133899950477],["important",-8.387030496147766],["officer",-8.387811523999765],["stay",-8.387819042460691],["find",-8.39464322517481],["positive",-8.39479505492986],["South",-8.394938666571623],["become",-8.395112201336698],["decision",-8.395719821460673],["13",-8.396264033190342],["pay",-8.398766878637513],["risk",-8.399266353088834],["&",-8.400099388468195],["making",-8.40174463376489],["spread",-8.40330251619141],["media",-8.407624141956122],["again",-8.412802072785325],["went",-8.41414746514874],["Tuesday",-8.414838146465716],["won",-8.416644251177587],["Health",-8.417816198633686],["water",-8.417965644292678],["ial",-8.418605412113799],["Sunday",-8.42250933864582],[").",-8.424140036013299],["Saturday",-8.425285906604154],["food",-8.428294946984114],["vote",-8.431143674830416],["hit",-8.431981869735694],["women",-8.434559679795417],["project",-8.435556111681219],["hav",-8.436789910214001],["later",-8.436916707174264],["money",-8.437589663843902],["resident",-8.438335725553216],["former",-8.43990906052576],["stock",-8.44423006552763],["little",-8.449585990610318],["experience",-8.450122547298083],["small",-8.450745812374848],["Re",-8.45092461293595],["ch",-8.453076295367097],["fund",-8.453533533025682],["staff",-8.454216641440734],["together",-8.456533794141158],["future",-8.457300962004926],["cent",-8.458296075076964],["One",-8.46090382529488],["ish",-8.462505968957846],["concern",-8.463516873610871],["death",-8.464228339526379],["clear",-8.46742802816119],["wide",-8.470844308382244],["national",-8.47123915871649],["ally",-8.47498800547761],["six",-8.479669109014312],["free",-8.48227177826609],["24",-8.4835663304236],["shares",-8.490879906544777],["Wednesday",-8.491977261896283],["happen",-8.494348559132067],["25",-8.495842919297434],["United",-8.496791902595877],["mask",-8.50162082743402],["action",-8.502101628106413],["worker",-8.50725296544729],["court",-8.507689698033673],["process",-8.507752389338258],["All",-8.513583511501597],["leas",-8.515837116646264],["X",-8.51808528570597],["several",-8.519082217496383],["St",-8.522030487201235],["taking",-8.522062024091397],["along",-8.522237418633337],["video",-8.52483388783614],["18",-8.526774719683555],["Be",-8.526944126935032],["announced",-8.529122033870838],["sure",-8.529845109784777],["sign",-8.531069503081213],["late",-8.531314104111036],["position",-8.535718666050158],["May",-8.537231837609896],["house",-8.537833431499507],["ship",-8.54132271470101],["led",-8.541828850070672],["reach",-8.544252426720073],["office",-8.545618796101188],["given",-8.546392134675614],["young",-8.547257137994306],["series",-8.548776506305726],["consider",-8.554517970256395],["let",-8.55579683145795],["officials",-8.559728523772677],["political",-8.561031526922966],["program",-8.561852427164975],["weeks",-8.562435080422791],["After",-8.565161964119273],["National",-8.56561376373108],["online",-8.569304735632263],["doesn",-8.571395036131156],["Dr",-8.573180906383843],["),",-8.573900426146185],["field",-8.575452161841959],["taken",-8.575993619851058],["light",-8.576213175726384],["nough",-8.577820991971716],["receive",-8.578090534013644],["seem",-8.579690499340868],["today",-8.580680789900482],["data",-8.581916040924312],["campaign",-8.584324692176462],["possible",-8.584360869174311],["lead",-8.585045366348204],["half",-8.58626383040466],["hope",-8.589516568484129],["period",-8.591386262423548],["watch",-8.591419308084035],["Police",-8.593170658333458],["among",-8.595135779932304],["players",-8.596100721541307],["using",-8.599531296120658],["board",-8.603720878648058],["hi",-8.603733133749179],["third",-8.603878130329173],["avail",-8.604005623785984],["whe",-8.607380414423623],["problem",-8.607457455506541],["further",-8.607482011156494],["rate",-8.608156690143407],["party",-8.615153184502727],["fire",-8.620974422909676],["York",-8.621966470581793],["kind",-8.623041606442364],["strong",-8.623792914937631],["effort",-8.625627894198946],["Covid",-8.62746107944298],["job",-8.627712134453123],["yet",-8.628790913202204],["ball",-8.630617816570343],["short",-8.630715238434785],["ber",-8.631368786390858],["cost",-8.636044201273677],["complete",-8.636305576135591],["impact",-8.642511672780513],["fall",-8.643059762862519],["Biden",-8.644146770902978],["pass",-8.645267431182267],["hold",-8.647547559109906],["100",-8.647636983836602],["deliver",-8.648216193961662],["City",-8.64889600651663],["Nov",-8.652825901173792],["attack",-8.652978175822152],["200",-8.655726371270507],["buy",-8.656689177585811],["list",-8.65992374939255],["interest",-8.660285516844231],["fight",-8.661177582246182],["measure",-8.664618634855422],["following",-8.666459437332993],["fact",-8.666839056452265],["leader",-8.667707498346896],["offer",-8.667996181622968],["House",-8.6700702040551],["grow",-8.674324570469906],["create",-8.678292533885681],["lockdown",-8.678501100411893],["Black",-8.68066089183726],["ex",-8.684074967433602],["situation",-8.684130764320107],["done",-8.686058974431791],["economic",-8.686677718611287],["trade",-8.687809325846267],["percent",-8.690375463210927],["appear",-8.6958547609338],["course",-8.695878941178115],["Co",-8.696753053534344],["meeting",-8.698780169519509],["travel",-8.699298768406061],["direct",-8.699431270759646],["bring",-8.699679294891759],["visit",-8.699758503943485],["confirmed",-8.70037307705158],["security",-8.702223066394758],["actual",-8.702458990189168],["die",-8.703654212812703],["focus",-8.703759317559072],["spite",-8.704152370499024],["act",-8.705446074345677],["ago",-8.705889840055473],["held",-8.706537259455908],["nation",-8.707530104487182],["previous",-8.707730356238992],["wear",-8.70887643434768],["industr",-8.709527227554382],["West",-8.710141183246947],["major",-8.711066606757736],["Universit",-8.71190996930164],["expected",-8.71242223038975],["front",-8.715169839670285],["role",-8.716328631572463],["known",-8.717275544443101],["tell",-8.721369255759775],["protect",-8.72149195043718],["opportunit",-8.721758610855876],["woman",-8.723954839095406],["im",-8.72799520267184],["official",-8.72814922474457],["Apri",-8.728878985648198],["limit",-8.728945934955334],["challenge",-8.734891767695352],["Minister",-8.735991687962306],["My",-8.736996991968326],["human",-8.738611464786045],["Some",-8.739161452731402],["potential",-8.740089062527838],["matter",-8.740152644882789],["shot",-8.740737489160995],["June",-8.740750682804926],["According",-8.742146671827864],["safe",-8.743014158241127],["forward",-8.744283338104413],["companies",-8.746241962759418],["rating",-8.746768234977502],["thought",-8.747477945311452],["present",-8.747718159095507],["outside",-8.748099278122607],["40",-8.749882000164826],["contact",-8.75042169170228],["name",-8.750433395810397],["billion",-8.750582443566781],["certain",-8.75169544619473],["moment",-8.752563992217912],["Y",-8.755228894596026],["North",-8.755978632503844],["India",-8.757926035194316],["war",-8.761078085495681],["kill",-8.765802282369457],["econom",-8.766437420953679],["patients",-8.766936940822317],["quick",-8.767200346980648],["worth",-8.76728208790206],["control",-8.770580443058083],["fans",-8.77146078115625],["space",-8.771818676264637],["Dec",-8.773124689207714],["story",-8.774300602811616],["con",-8.776958310517013],["building",-8.77871236121511],["average",-8.779999258068514],["bit",-8.78070572630456],["parent",-8.782565823023585],["once",-8.79144925424082],["ha",-8.80121762878501],["saying",-8.802859766940918],["22",-8.803982386515855],["book",-8.805205240852157],["research",-8.80620746497005],["value",-8.806635929275469],["launch",-8.808128280387475],["00",-8.809921724265399],["dollar",-8.812548630976064],["response",-8.813089329891802],["mov",-8.813996701387108],["require",-8.81619961880773],["store",-8.817979768352732],["ur",-8.818061606875887],["condition",-8.823656087541668],["deaths",-8.823700180137045],["star",-8.824883570222738],["financial",-8.825886524626277],["medical",-8.826132643513024],["reason",-8.827322031766219],["form",-8.828316434950153],["director",-8.829745406099239],["individual",-8.830375867989371],["morning",-8.830378310153748],["main",-8.831961785532702],["behind",-8.832684971124536],["product",-8.83276248028648],["2018",-8.834142941295335],["drive",-8.836607920936382],["stop",-8.837056163766299],["target",-8.837170804591526],["demand",-8.837187391815082],["countries",-8.837205586820982],["Sept",-8.839655694734775],["bar",-8.840583531687656],["crisis",-8.843967338792584],["address",-8.844338286742829],["join",-8.844407530396548],["news",-8.845071151002845],["bank",-8.849549033091646],["Department",-8.850831496407611],["walk",-8.853099049837649],["ful",-8.85373685696149],["Z",-8.855371684862053],["entire",-8.855443261053267],["couple",-8.857747508816434],["movie",-8.859247383678717],["abilit",-8.859386103063368],["develop",-8.865876620039916],["room",-8.86594327918895],["town",-8.866192315758315],["additional",-8.872828338397472],["date",-8.873405413007072],["ves",-8.87347053164558],["lives",-8.873530661133618],["lost",-8.877003093832261],["global",-8.87877714591172],["history",-8.879219901883495],["round",-8.880574545188315],["arrest",-8.88142286404446],["access",-8.883003318057952],["comment",-8.883758794749308],["account",-8.886328945195771],["cut",-8.888596214632287],["employee",-8.89068122783117],["general",-8.890750859365939],["ther",-8.891193711084263],["check",-8.893595168973155],["learn",-8.893919225694043],["times",-8.894052632195207],["leave",-8.894296712340434],["ley",-8.896028871219409],["TV",-8.899548058302667],["recover",-8.900098196062439],["Democrat",-8.902562815968453],["personal",-8.90490892125159],["key",-8.906231341770695],["often",-8.909635448286842],["development",-8.910117258618396],["app",-8.911058437905652],["race",-8.914675540279006],["wait",-8.917452307950441],["count",-8.91752010190922],["customer",-8.91825312662327],["saw",-8.91832923609725],["character",-8.91997830101009],["America",-8.922117768815585],["benefit",-8.922206570683233],["design",-8.923480935388056],["vaccine",-8.927149390205713],["stead",-8.930123925699572],["vehicle",-8.932118358588363],["expect",-8.932461183653889],["Now",-8.934383591658264],["option",-8.934572807058895],["explain",-8.934638681982735],["liv",-8.935241851922314],["x",-8.940472597104858],["feature",-8.94062859192079],["vi",-8.943260654948121],["tri",-8.944101053567277],["region",-8.94513020052774],["federal",-8.947175814119191],["site",-8.947343534425125],["read",-8.948855998743642],["friends",-8.948910008902121],["phone",-8.949218562252675],["follow",-8.95030774192377],["Do",-8.951760363953632],["single",-8.952174705959465],["safet",-8.953705500135948],["kid",-8.957618949756162],["outbreak",-8.95904765215365],["candidate",-8.959898260191498],["charge",-8.960304535461077],["etting",-8.963060509468487],["member",-8.96473624251983],["Jul",-8.96608622197003],["source",-8.967648390684182],["Le",-8.968286845768885],["oil",-8.970131176621313],["art",-8.970839332269541],["States",-8.972461955798897],["heart",-8.975968649938142],["Man",-8.977546524187126],["significant",-8.97869846676197],["John",-8.982309279686213],["black",-8.984443734557631],["famili",-8.98502571841577],["ensure",-8.985054496787386],["host",-8.985769552686216],["ither",-8.98973342473059],["Janu",-8.990790811475453],["press",-8.991018636084476],["ier",-8.99302374448791],["pick",-8.993854337936884],["Center",-8.994880533882178],["spend",-8.997377345115801],["miss",-8.999005360251397],["Our",-8.999729456484014],["park",-9.00019989625631],["60",-9.00062779980315],["pre",-9.001569717342827],["earlie",-9.002132989467281],["authorit",-9.002172035880182],["His",-9.004250104271177],["particular",-9.004407979188962],["Mc",-9.009002432981482],["stage",-9.009386214952336],["unning",-9.00963955300897],["UK",-9.012422447446202],["serious",-9.012540067517609],["plann",-9.013446918266492],["23",-9.01384312680142],["someone",-9.014735474797911],["difficult",-9.01517508825134],["activit",-9.01517622475149],["emergenc",-9.018400377463564],["mind",-9.018748603304957],["26",-9.020087293849132],["disease",-9.02064248535559],["push",-9.020813471425683],["rote",-9.022083952554544],["view",-9.023351000852607],["cover",-9.024171044915894],["meet",-9.02540284625341],["international",-9.026153972859122],["club",-9.02621006153831],["arm",-9.028664299730814],["gav",-9.031111067382984],["World",-9.031546786324903],["contract",-9.031773394475406],["bad",-9.0333845318391],["infection",-9.034672955517],["soon",-9.034997166961997],["eight",-9.03679085428682],["child",-9.037033658826907],["rest",-9.038848905221903],["suggest",-9.039567396847925],["private",-9.039855778181142],["senior",-9.04261183017681],["chief",-9.042622583638748],["La",-9.044410998856252],["enter",-9.0480926991381],["executive",-9.048208230434858],["track",-9.048511479520975],["deep",-9.049231375209235],["28",-9.04943794021785],["mother",-9.049725300522853],["Ro",-9.0502395208012],["affect",-9.050716563985667],["operation",-9.052392382265719],["toward",-9.053711167626398],["immediate",-9.053800600132934],["August",-9.053811195509422],["assist",-9.053942894988271],["mid",-9.054842367324301],["protest",-9.055135597013223],["Court",-9.056740605291438],["model",-9.057653554944487],["ize",-9.058518377684234],["career",-9.058812596712123],["Q",-9.059406156784656],["bigge",-9.062350050444763],["interview",-9.06246068787142],["speak",-9.06251857580836],["nothing",-9.062807479221924],["fee",-9.063219024975428],["figure",-9.064177327403545],["White",-9.066838839064467],["ground",-9.06717639922082],["goal",-9.067668006962053],["San",-9.069296049865589],["voter",-9.071640963150045],["ter",-9.071915034794184],["normal",-9.071979739248565],["road",-9.072717263925323],["effect",-9.076259669473199],["chance",-9.077077885462018],["music",-9.080531842842245],["performance",-9.085413922426987],["study",-9.08559890209203],["match",-9.085626383666344],["firm",-9.08794796528582],["restriction",-9.088202076266938],["ous",-9.089019063001812],["27",-9.089533388187839],["amount",-9.08991281626717],["whole",-9.09231386410071],["seek",-9.092561737641507],["player",-9.0935930618165],["girl",-9.093784813987657],["friend",-9.094260879208985],["sector",-9.095863310956219],["School",-9.096910677908717],["Day",-9.097919748482601],["receiv",-9.099221860792985],["understand",-9.105192025667057],["Dur",-9.105302144876408],["Octo",-9.10564086487706],["incident",-9.108836063037518],["states",-9.109037249565048],["People",-9.11170380748819],["attempt",-9.114695934208399],["exist",-9.114743815442397],["message",-9.115791546210428],["break",-9.11603964239509],["agree",-9.116142305057028],["lower",-9.117045213753176],["district",-9.120699797533437],["investigation",-9.120831383130337],["fast",-9.121093699209188],["makes",-9.123044752514865],["white",-9.123895559386927],["wa",-9.124802235481784],["aily",-9.128199441705014],["coach",-9.128428916380402],["else",-9.131777415634783],["Go",-9.132621714124305],["shows",-9.132930741774874],["growth",-9.13373750491079],["father",-9.13684015624004],["Chief",-9.138900844177419],["expert",-9.138906043964031],["detail",-9.13891398610978],["Ka",-9.140937009786814],["victim",-9.145040206667009],["decade",-9.145040253563575],["Park",-9.146004058971279],["31",-9.147168708750202],["echnology",-9.15036931674629],["essential",-9.15122299826286],["Government",-9.151244104243869],["propert",-9.152057831232039],["practice",-9.154375868296889],["leaders",-9.157229206308612],["relationship",-9.157484268980582],["production",-9.157840926805434],["begin",-9.158075950608218],["review",-9.158394264483652],["similar",-9.160568459211333],["scene",-9.162357586554503],["distanc",-9.162634485677646],["treat",-9.162865994073393],["Donald",-9.163588824313432],["500",-9.165301055035293],["29",-9.166556484940598],["wife",-9.166998681789842],["unit",-9.167049609470897],["Febr",-9.168733172783767],["lates",-9.169373976038418],["Many",-9.171145025149087],["schedule",-9.172855710282994],["example",-9.17318109291163],["reduce",-9.173818491635188],["attend",-9.174987343766581],["ge",-9.17654505555597],["ied",-9.17800225313862],["guy",-9.178442906507932],["quarantine",-9.178747795119158],["ending",-9.17909400790867],["approach",-9.179128687119123],["ent",-9.179679387164837],["conduct",-9.17979634380977],["Even",-9.18139373460689],["qualit",-9.18421634733462],["weekend",-9.186012901944252],["dead",-9.187441051139492],["idea",-9.187929426772651],["extend",-9.188431729947968],["popular",-9.189151690542282],["inside",-9.189926819519947],["training",-9.19069755180082],["legal",-9.192429069994752],["organization",-9.192451035797895],["rise",-9.192473639690663],["education",-9.193746935248345],["respond",-9.194233728400963],["effective",-9.195943525086259],["70",-9.196119411804403],["range",-9.196990506231607],["driver",-9.197568046005827],["reports",-9.20032346807577],["Pa",-9.201509497484643],["Her",-9.203249767649877],["ran",-9.204601804221202],["suspect",-9.205376129368027],["policy",-9.205470364098858],["loss",-9.205968452581693],["uar",-9.206490311453159],["pro",-9.207458494213325],["update",-9.20801610917879],["militar",-9.208675699939668],["platform",-9.208723558545817],["j",-9.208914603698474],["football",-9.208945299702998],["ling",-9.21095979383982],["ham",-9.218225038583942],["California",-9.218555663123382],["request",-9.218928505250728],["administration",-9.219558131133562],["stand",-9.220833259021736],["enjoy",-9.221892986883983],["Bank",-9.222465916969467],["block",-9.223981132506218],["prevent",-9.226342950087435],["ul",-9.227010192084814],["lack",-9.227353648815324],["song",-9.22818609695457],["35",-9.228808927187579],["raise",-9.232137997231671],["card",-9.233490293945572],["ut",-9.233694464374103],["title",-9.233869471128347],["resource",-9.234227578063823],["capital",-9.2350519443935],["summer",-9.235289698172924],["ak",-9.23594119372684],["bill",-9.236769303109924],["minutes",-9.23707894606151],["gun",-9.237264208363342],["score",-9.239541893526841],["Con",-9.240070409020284],["provid",-9.240691239288806],["via",-9.241227637881552],["daughter",-9.242031060222553],["doctor",-9.242048551919687],["others",-9.24226735506986],["treatment",-9.24246220272845],["revenue",-9.242672488120508],["War",-9.24380933488595],["seven",-9.245299003641424],["80",-9.245474090342762],["vice",-9.245883022506753],["tax",-9.247716528588917],["sense",-9.248667244681828],["anti",-9.251217217947456],["represent",-9.251494767696979],["crime",-9.25228770338751],["Service",-9.252293506878484],["Street",-9.252297944403022],["cap",-9.25723892759283],["station",-9.257963208565862],["population",-9.25917540772683],["Mar",-9.259778897652428],["easi",-9.259797722615055],["brand",-9.259966586625692],["energ",-9.260088987282536],["brough",-9.260114442819118],["step",-9.262668021508063],["decided",-9.2652351720029],["Joe",-9.268554053076343],["alleged",-9.268566342543263],["serve",-9.27167612164444],["build",-9.272057917227507],["themsel",-9.27219599121246],["David",-9.273090486175679],["active",-9.273137022388315],["finish",-9.273144026855986],["Chine",-9.273212353725445],["above",-9.274343594289114],["mis",-9.274551360653813],["Nigeria",-9.275079265142223],["ather",-9.275141368235424],["class",-9.276505833572386],["felt",-9.27666942879761],["quite",-9.276951980843318],["street",-9.276973042765619],["link",-9.277200561300074],["Me",-9.277207774887088],["minister",-9.278450727479376],["Bo",-9.278604001949443],["hands",-9.27950631990105],["fair",-9.280566620590923],["Congress",-9.283647361609667],["probabl",-9.283699436841676],["usual",-9.286870965751866],["user",-9.287043963285937],["thousand",-9.2873227458633],["original",-9.288701800897336],["letter",-9.290837541274783],["maintain",-9.294355565179089],["answer",-9.294873232672966],["huge",-9.295687659651723],["Africa",-9.2964689707125],["save",-9.296534927496708],["fail",-9.296873999215865],["necessar",-9.297100189791518],["regard",-9.29782989255495],["piece",-9.297968293454144],["location",-9.301232060433435],["Or",-9.301315635760954],["More",-9.30363700370675],["plant",-9.304385860023142],["met",-9.305957928131242],["aught",-9.305965081644104],["Part",-9.306676342517807],["happ",-9.307717621538302],["trial",-9.308560324581169],["Washington",-9.308737972119095],["Every",-9.311326448167826],["regular",-9.312366954198483],["â",-9.312374319899781],["leading",-9.313565665947628],["pent",-9.313575976073317],["sent",-9.3147210484686],["various",-9.316033263999124],["department",-9.316995293954728],["90",-9.317372277156366],["purchase",-9.319318450331874],["ballot",-9.319949121067285],["conference",-9.320289300752854],["screen",-9.322029499663898],["God",-9.323118369913168],["restaurant",-9.323363430818933],["center",-9.325518221507181],["General",-9.327086378997503],["manage",-9.327158556793059],["trust",-9.328492242245563],["ler",-9.329031743545976],["prett",-9.33096485530488],["Not",-9.332446077191069],["accept",-9.334405366001686],["website",-9.334518293525315],["Pro",-9.335985128516059],["ill",-9.336667882228129],["teacher",-9.338583650463583],["ang",-9.341997192109208],["involv",-9.342577583825765],["roll",-9.344815314740691],["avoid",-9.344961078051426],["episode",-9.345710703058089],["ver",-9.346437070718686],["cast",-9.348902447189502],["damage",-9.348965866584983],["Facebook",-9.349503319299206],["pull",-9.353289858142874],["den",-9.353370796174616],["ism",-9.35466186715826],["News",-9.35522126882966],["tic",-9.356808377931898],["Mean",-9.361539719605412],["Brit",-9.361618810368881],["Sinc",-9.361856218909976],["feeling",-9.362373874345016],["Of",-9.363920917218406],["Ma",-9.365554265006633],["easy",-9.365643319836728],["stream",-9.367838157258355],["virtual",-9.368568813846919],["estimate",-9.36992924004487],["East",-9.37053241293715],["mar",-9.37221897549859],["evidence",-9.372429829654395],["mark",-9.37495750803576],["contain",-9.375016424219236],["actor",-9.37516687148029],["box",-9.375994021614519],["gas",-9.37742721930825],["specific",-9.377430175754565],["Act",-9.377973439703029],["Australia",-9.37905818229226],["material",-9.380199202978469],["capacit",-9.380911012369278],["investment",-9.38435531712329],["injur",-9.387790390037857],["physical",-9.388048830138036],["factor",-9.3885431233123],["common",-9.38986251791529],["border",-9.390033272624482],["produce",-9.390063958558901],["drop",-9.390513021768925],["accus",-9.391077272609746],["£",-9.391961662406972],["African",-9.393590973469594],["High",-9.394914195429507],["cross",-9.395431105522153],["Council",-9.395909763778516],["husband",-9.39591477165165],["page",-9.396301388225528],["table",-9.398214037216965],["payment",-9.400929294592867],["learning",-9.401903519011617],["Green",-9.40196596476683],["true",-9.402559280815217],["ard",-9.402721977063589],["sell",-9.404212246503128],["Ne",-9.404859100339706],["fine",-9.405657229262486],["choice",-9.407890942530901],["carry",-9.407951378151619],["addition",-9.410001740849324],["League",-9.411883835457777],["Group",-9.41188550124124],["threat",-9.411886934313332],["perfect",-9.412029043415366],["flight",-9.412047046001902],["professional",-9.41213398959744],["ways",-9.412792404091643],["success",-9.413097531283707],["environment",-9.418047863406267],["solution",-9.418184196246571],["rules",-9.418265297472427],["ck",-9.419003419036414],["fan",-9.419861867790605],["Twitter",-9.420001514834553],["ja",-9.420003328989614],["Ba",-9.420398186246736],["natural",-9.424047420803673],["hear",-9.425199089568814],["revealed",-9.425949270485205],["com",-9.427889865941715],["express",-9.428101614059091],["imply",-9.428751854022206],["Johnson",-9.428959221195305],["Ho",-9.430169039238347],["file",-9.431048026907602],["Canad",-9.431177369264404],["Public",-9.43220848956506],["standard",-9.432326783991604],["Ex",-9.432768009323972],["ong",-9.434883568028276],["By",-9.436822615856192],["cash",-9.440568824884382],["German",-9.44067490425382],["seat",-9.440923225864873],["creat",-9.441688958516867],["Ben",-9.443830690724653],["gone",-9.445204617125697],["note",-9.445801964126062],["boy",-9.44656247997565],["Ar",-9.447490289622227],["annual",-9.448659433380332],["league",-9.448776282308419],["pressure",-9.448865844328143],["initial",-9.44903525228008],["trip",-9.449960209303978],["continu",-9.449995260136212],["heard",-9.451162698322516],["sound",-9.451255469186009],["slow",-9.451758195813534],["Iran",-9.452902873263863],["Japan",-9.45299388677548],["giving",-9.453149460899393],["grant",-9.45328688219496],["Bu",-9.454246727195265],["respect",-9.45677782021109],["discuss",-9.456900823710468],["wrong",-9.457159871768292],["citizens",-9.457821264399126],["document",-9.458522382564917],["Sh",-9.459767982096109],["supply",-9.461390874195732],["fac",-9.464123290209324],["throw",-9.4646008091275],["fill",-9.46506992744295],["remember",-9.465249812383354],["appeal",-9.465748434371015],["winning",-9.46601693098851],["wood",-9.467217654740253],["words",-9.46775124049529],["speed",-9.470041028036706],["45",-9.471078616409951],["centre",-9.471469398759991],["fear",-9.472487131312253],["involve",-9.473023150393981],["email",-9.474345658798924],["Inc",-9.47563976726499],["Bill",-9.476788332695342],["touch",-9.477193463156292],["Star",-9.478240920816782],["red",-9.478371473960259],["network",-9.478452981346866],["judge",-9.478663540696484],["size",-9.479236836056483],["award",-9.47994787109291],["notice",-9.480835249482181],["European",-9.481588625617606],["Just",-9.481938488861491],["analyst",-9.482752112435495],["Senat",-9.48277381473769],["voice",-9.48281333856173],["From",-9.482938800314734],["jobs",-9.483396049146432],["earning",-9.484124905060625],["buil",-9.484222108914608],["budget",-9.487081118378175],["holding",-9.489536329005016],["door",-9.489649504081942],["content",-9.490194517432668],["tweet",-9.491462073473354],["ban",-9.49275117171818],["Po",-9.492958762287124],["credit",-9.493924746315194],["infect",-9.495372512163161],["Hospital",-9.49578912830518],["battle",-9.498279195283132],["warn",-9.498313606393303],["followed",-9.49870581521452],["mention",-9.499616154561355],["standing",-9.500202327189728],["camera",-9.500572378606524],["artist",-9.500995662249293],["facilit",-9.501535049304312],["item",-9.501834793518814],["version",-9.504399824836383],["vot",-9.505042944999948],["Last",-9.505044081768244],["ach",-9.505451666838711],["loan",-9.505893096799998],["Ju",-9.507997553394215],["improve",-9.50844303083549],["que",-9.508904714796577],["symptom",-9.508974975950126],["sports",-9.509455273727884],["critical",-9.510651911589926],["ji",-9.511201244691055],["Can",-9.511355857446851],["Over",-9.511810961045926],["Sam",-9.512559462022965],["increasing",-9.513449618008682],["surprise",-9.513449663581852],["application",-9.513449703209522],["digital",-9.513982358088931],["encourage",-9.5141889397236],["Ra",-9.514282173058636],["suit",-9.51469897393757],["relate",-9.517266153879063],["college",-9.517913892197862],["Michael",-9.51791393914608],["brother",-9.51805808547849],["Union",-9.51812304678568],["successful",-9.518170431189551],["ster",-9.518215020385554],["stress",-9.518235003773633],["Road",-9.51837875712038],["manager",-9.518842147747577],["ner",-9.518974389646177],["ility",-9.519178577948184],["teams",-9.519895863034513],["sales",-9.519956369088991],["ought",-9.520121955984244],["goe",-9.520416263089329],["lift",-9.520983734498039],["poor",-9.521118188386454],["ca",-9.522289219950858],["publish",-9.522447610397656],["El",-9.526470103585577],["hundred",-9.526902720043044],["London",-9.526935756343317],["aware",-9.528446425736249],["county",-9.528456374671993],["partner",-9.529579426138572],["Indian",-9.530734806925949],["paper",-9.53149625140899],["International",-9.531542618242739],["delay",-9.53161483167779],["kick",-9.531977035347289],["Air",-9.533152376871282],["Di",-9.534410536016333],["tion",-9.53468629396675],["income",-9.534740211457045],["han",-9.53480404951051],["climate",-9.53597306203027],["storie",-9.537071771342404],["Lo",-9.538982353627045],["foot",-9.54002798190944],["Texa",-9.540710350320023],["Paul",-9.540849274625135],["agreement",-9.541036247215988],["extra",-9.541075757931473],["Ga",-9.541442901123473],["ence",-9.542520744494517],["Mu",-9.54382458842263],["crowd",-9.545017868641708],["image",-9.546163931838862],["Scott",-9.546288596280554],["George",-9.549736514789036],["http",-9.549738673515703],["James",-9.54987096144708],["Director",-9.550475614132385],["movement",-9.551320984701594],["opening",-9.553456820440797],["fun",-9.553715232380462],["universit",-9.554364357978539],["Smith",-9.55436494752809],["served",-9.555287536647976],["exchange",-9.555320540213746],["primar",-9.556368236811025],["Am",-9.557666387872537],["register",-9.559015724802027],["gre",-9.559570572029315],["agency",-9.560584167124858],["anagement",-9.561430082336818],["strateg",-9.562798109018082],["shop",-9.563034789986016],["collect",-9.563118475848984],["Li",-9.563193882085944],["hat",-9.563423990363791],["shift",-9.563707989091164],["za",-9.563709129165439],["Prime",-9.563925260718364],["multiple",-9.564659168303582],["violen",-9.566243404220721],["search",-9.56673041917594],["England",-9.568383592385192],["drug",-9.569147290625153],["trad",-9.570787998438831],["Ab",-9.571358619826114],["port",-9.571516776248593],["super",-9.572821648787219],["victor",-9.573104941712733],["spot",-9.573558065572206],["born",-9.573565956440223],["broad",-9.57667129439552],["equipment",-9.577839726058626],["yond",-9.580700214327807],["AP",-9.582572294242887],["attenti",-9.583304084948786],["Bay",-9.58356978084534],["Jan",-9.584460879758435],["overall",-9.585947464689706],["extreme",-9.587386167017987],["Del",-9.588090718219984],["writ",-9.590077359495941],["establish",-9.591806858069852],["haps",-9.592646682123547],["describe",-9.592792460538087],["transport",-9.597051446458536],["exact",-9.597434365513049],["guideline",-9.597479185955944],["rule",-9.597521856757746],["ide",-9.598069391636898],["Ha",-9.599598414613434],["Per",-9.599715794367555],["32",-9.59991669849423],["province",-9.600440903452105],["Republican",-9.600568972334486],["First",-9.601880387980506],["expand",-9.601941376548538],["import",-9.60202279878764],["shooting",-9.602923343647463],["tra",-9.604403528942804],["Red",-9.606051164164509],["shut",-9.60611863891286],["Ministr",-9.607003480188743],["adding",-9.607538892285165],["fourth",-9.609410075940367],["gain",-9.612093691961352],["Most",-9.61255801907323],["Tom",-9.61333930546866],["ville",-9.613898415900046],["ratio",-9.616500565534828],["Florida",-9.616585340054144],["monitor",-9.616589311972575],["asking",-9.616981227100084],["relat",-9.617300487691224],["investor",-9.618692491478983],["draw",-9.619569374700474],["hot",-9.619695296975046],["basi",-9.620453996840268],["Two",-9.621057696192759],["sometime",-9.621094120665326],["defense",-9.621535726286993],["culture",-9.621537774228141],["blood",-9.62154575281901],["talent",-9.621575276541474],["beginning",-9.621634990263576],["eventual",-9.621732205191119],["discover",-9.622250205442336],["Here",-9.623138406525387],["picture",-9.62509855267836],["arrive",-9.625930384371998],["council",-9.626506481183943],["conversation",-9.626510854158695],["sexual",-9.626547756255707],["spokes",-9.626639087223621],["bus",-9.627954421284425],["prove",-9.627999636146036],["photo",-9.6302602725682],["negative",-9.632015589776806],["novel",-9.633693111023018],["poll",-9.63395048387295],["murder",-9.636545676835755],["approve",-9.636589591291784],["named",-9.636723075392101],["Hill",-9.63737548284276],["EU",-9.63795401790097],["mental",-9.640478986336543],["Ko",-9.640952707105281],["Minnesota",-9.641586572900927],["proper",-9.641658405922215],["generation",-9.642076434778701],["double",-9.643018675018013],["Du",-9.643679357013422],["Nigerian",-9.643792017322301],["offering",-9.644551491559714],["foreign",-9.645102361658136],["leav",-9.645191072310912],["criminal",-9.646662632766535],["leg",-9.64706319971485],["mission",-9.647446843516269],["couldn",-9.647724621046807],["Europe",-9.64803121963124],["Ja",-9.648746696782522],["Office",-9.649151398835615],["rais",-9.649711563741533],["pack",-9.650315897351835],["nine",-9.650935508856971],["Super",-9.65098599710441],["Los",-9.652609677137473],["elected",-9.652778026178488],["mail",-9.653133283922314],["King",-9.6536820340249],["patient",-9.654094044161576],["Gu",-9.654381402384173],["Well",-9.654427614495383],["pair",-9.65680255119063],["debate",-9.656893977028462],["difference",-9.656905056000769],["Don",-9.657655332989453],["36",-9.658212410006442],["kept",-9.660879036094592],["animal",-9.662066734274328],["Justice",-9.662126136294901],["SA",-9.663971682128679],["rates",-9.66441071692536],["Lake",-9.665031615120263],["ious",-9.666200327628237],["mix",-9.666583720136298],["church",-9.667229302148835],["District",-9.667276813855661],["purpose",-9.66729931464338],["dog",-9.667495380701414],["alone",-9.667704002228884],["justice",-9.66863909258767],["Commission",-9.669238922635394],["subject",-9.672437210108223],["passenger",-9.672440103647546],["relative",-9.67275483180401],["yester",-9.67279068721372],["winner",-9.67303037268379],["Car",-9.673437046203146],["ng",-9.67536374388159],["polic",-9.675990248353404],["celebrate",-9.677277958176472],["word",-9.677455053124957],["34",-9.677574897984933],["earn",-9.678759284461396],["committ",-9.680713276972035],["fresh",-9.681216197107148],["sub",-9.681459810486354],["tool",-9.68164451347332],["implement",-9.682675471024996],["hotel",-9.683088061320227],["Israel",-9.684317739517965],["governor",-9.684323053546818],["PS",-9.685070026365906],["har",-9.685280297309912],["ell",-9.686931703657834],["camp",-9.687673158200187],["device",-9.688426463067545],["listen",-9.689026832073244],["train",-9.689392581626707],["Other",-9.690293978017394],["facility",-9.690541625864057],["scale",-9.692472714597795],["MP",-9.693182117650984],["color",-9.693670461923748],["ez",-9.693819784408529],["burn",-9.694700395773776],["Home",-9.695262350790994],["37",-9.696094695014894],["bid",-9.696393307267591],["55",-9.696723691512346],["wall",-9.696836509281205],["surance",-9.69740375735456],["Arm",-9.698171822060248],["favorite",-9.698922045283995],["wave",-9.700350540980628],["Mark",-9.701441103858054],["decline",-9.701466439338768],["van",-9.70175555175548],["suffer",-9.702881134748553],["75",-9.70323043157848],["tough",-9.704144208002596],["€",-9.704269210337834],["Har",-9.704526162018269],["employment",-9.705731103335985],["spoke",-9.706008800735916],["consumer",-9.706056834756861],["reopen",-9.706801772810362],["Force",-9.707231218233641],["perform",-9.707601878243324],["chang",-9.70930438156524],["Central",-9.709675855927543],["Christmas",-9.709676414744827],["holiday",-9.70967651103979],["spring",-9.709722706669911],["commercial",-9.709811212074577],["Any",-9.70985642453008],["BTC",-9.710260636821165],["obvious",-9.710863226999749],["ice",-9.711556219301315],["ney",-9.714305221501778],["En",-9.716448449088531],["tru",-9.716659758518306],["gathering",-9.718160943439418],["write",-9.718961168098645],["Board",-9.720713036039054],["afford",-9.722332498567596],["38",-9.722334219547502],["advance",-9.72341642436697],["charges",-9.725293564357921],["hop",-9.725924316520786],["threaten",-9.726141364378545],["craft",-9.72651633970198],["crew",-9.726658441464316],["warm",-9.728081711575918],["driv",-9.729032023846305],["clean",-9.729449137700126],["Association",-9.731594077170225],["competition",-9.731628565356225],["99",-9.733237837736741],["33",-9.733406191742294],["homes",-9.733796155323176],["finding",-9.734040725137772],["Port",-9.734165753841879],["style",-9.736947132465247],["straight",-9.73715080338506],["tagram",-9.737242385219572],["committee",-9.737266042126466],["unique",-9.737379443543478],["Sen",-9.73842115036822],["Carolina",-9.740765114391106],["rush",-9.741142162199058],["balance",-9.741259273822651],["Sea",-9.74189157934447],["progress",-9.742432483172554],["volunteer",-9.74273622489685],["degree",-9.74273773494135],["sort",-9.742744253028388],["River",-9.742815564576267],["Why",-9.74290680172303],["rights",-9.744669858270726],["Let",-9.74522006244693],["48",-9.74756230552715],["absolute",-9.748354202424698],["hearing",-9.748849003227589],["society",-9.749840608134246],["300",-9.749980733534159],["hair",-9.750834602025265],["Will",-9.750923108346012],["owner",-9.751060727994052],["welcome",-9.751217618616135],["sex",-9.75309295195062],["intend",-9.754088950262748],["Governor",-9.754193130085884],["Apple",-9.754424823192974],["fell",-9.755286687899765],["wors",-9.755755754336217],["ke",-9.756494286696213],["ki",-9.758897036320139],["hurt",-9.759761302836736],["Like",-9.759895537754655],["afternoon",-9.759946553114013],["catch",-9.760771714694371],["Gar",-9.761032857137415],["trend",-9.76272537239889],["39",-9.763649608253022],["maker",-9.764894669341247],["compar",-9.76494995948548],["simple",-9.765486518532907],["Angeles",-9.765712671407568],["Mike",-9.76593799171178],["abuse",-9.766802508633091],["equit",-9.767883641531347],["eyes",-9.769102581027585],["prison",-9.769934909597602],["wouldn",-9.770030384187887],["remove",-9.771911338045422],["flow",-9.772010980783287],["compare",-9.772323606503283],["connection",-9.772434772080313],["wish",-9.77251568731255],["minute",-9.773840953001105],["pic",-9.775208709701609],["middle",-9.776938656278787],["dream",-9.777111190540543],["weight",-9.778064670174615],["bringing",-9.778196374584805],["lose",-9.778204670450911],["cook",-9.779074431037316],["definite",-9.77917114843805],["wise",-9.779637370622947],["reveal",-9.780028796425846],["Committee",-9.782741450592928],["boost",-9.782743001030445],["lawyer",-9.782941070066695],["construction",-9.782994216202603],["NFL",-9.783017057647754],["display",-9.783666594021097],["weather",-9.786949309959315],["uk",-9.786999775722347],["amid",-9.787140249856023],["audience",-9.788589765157054],["sleep",-9.788656642777894],["mass",-9.789874524592253],["65",-9.791018727796136],["traditional",-9.791598172765397],["Big",-9.793550411684492],["operat",-9.793925582095117],["east",-9.794344552647424],["Su",-9.794463269209402],["é",-9.794468266635183],["identifie",-9.794471759043514],["Chicago",-9.794472024908945],["client",-9.794472287941757],["CEO",-9.794477138988782],["jump",-9.794495135150573],["profit",-9.794868289134124],["sister",-9.79584832822966],["politic",-9.796548723197434],["debt",-9.800429862841467],["discussion",-9.800766089956683],["setting",-9.80081292412392],["putt",-9.800991017918191],["distance",-9.80245998416868],["invest",-9.804013332556572],["lock",-9.804925333454904],["guard",-9.806084484744755],["baby",-9.806332481696355],["type",-9.811260077411127],["engage",-9.81196343624065],["north",-9.812300574801576],["Compan",-9.812440621855174],["crash",-9.812636442038432],["ease",-9.812637298500032],["cell",-9.81277181354826],["rich",-9.813673765985996],["zi",-9.813726691132842],["farm",-9.814071796294513],["Secretar",-9.815109365931225],["nel",-9.816828315761079],["DC",-9.817701114418213],["responsibilit",-9.818353421788593],["Bar",-9.818651826849504],["massive",-9.818664841382429],["Un",-9.819052557003713],["bag",-9.820090261734425],["scor",-9.82099010471822],["inform",-9.822826382183056],["gar",-9.82340180588563],["urg",-9.823619824269423],["doubt",-9.824402590756335],["France",-9.824609652134718],["Both",-9.824674075093249],["hous",-9.824777632551072],["pur",-9.824868447049454],["CO",-9.824901896528825],["domestic",-9.82530445809908],["male",-9.825461401329358],["producer",-9.82546931219757],["reporter",-9.826490879407864],["Dan",-9.827241911880623],["berg",-9.828628653415235],["defeat",-9.830538220343453],["winter",-9.831825918452129],["please",-9.835066973080425],["dark",-9.836282761232837],["peace",-9.836379118084118],["lie",-9.836427407360098],["€™",-9.836647502271923],["majorit",-9.838657130308338],["path",-9.838832856154799],["ical",-9.839806468142365],["steps",-9.840403595947603],["Jo",-9.840675817366353],["Williams",-9.841281172618356],["rent",-9.844514107172747],["depend",-9.844751616488086],["retire",-9.845485949287156],["zone",-9.845822342447335],["sick",-9.846086462442647],["writing",-9.846239299737913],["pool",-9.849222991036896],["ble",-9.849662932315955],["central",-9.85026775561461],["campus",-9.851020909615443],["surge",-9.852680447163479],["priorit",-9.853377347485],["evening",-9.854345765186483],["thank",-9.854353306605098],["upon",-9.854665722500629],["yourself",-9.854840277475962],["+",-9.855280573783045],["associate",-9.855280576046445],["College",-9.855281464932066],["adult",-9.855364121849073],["divers",-9.85552857973221],["household",-9.856219050122709],["inter",-9.856474429788847],["Ver",-9.857267457917757],["classe",-9.860121185283987],["floor",-9.861570429418677],["weapon",-9.861583242323878],["promise",-9.862005962783837],["strike",-9.865233702756626],["rock",-9.865620108079224],["basket",-9.86790016016159],["BC",-9.869621122047397],["Lu",-9.87008130010072],["Fire",-9.870171646037697],["session",-9.871737958694045],["operate",-9.872725319853634],["pop",-9.873288796503584],["reflect",-9.87399634820537],["nforcement",-9.874386958833334],["separate",-9.87494441706679],["Management",-9.875451964306226],["ger",-9.87546570533997],["hip",-9.876423873892051],["Mac",-9.876502908919754],["Officer",-9.87755876589976],["cancel",-9.87836022994632],["Final",-9.878555234109255],["chi",-9.879226352977984],["realit",-9.879985863392186],["vulnerabl",-9.880678683766995],["categor",-9.880678851769739],["nature",-9.881880244742572],["meant",-9.883138303643243],["49",-9.885372706374923],["chain",-9.88554892564058],["article",-9.88566344728454],["gu",-9.88612725093227],["Brown",-9.887373787177836],["ail",-9.887621230282992],["tree",-9.889150585784948],["equal",-9.890138873120916],["Col",-9.890550339886211],["electric",-9.8910119044854],["UN",-9.891343338299727],["yards",-9.892105180028326],["survive",-9.893798455292178],["Canadian",-9.893834840290761],["influence",-9.893958127052237],["honor",-9.894294932969443],["incredibl",-9.894961148346756],["Peter",-9.895143813973808],["harm",-9.895564297201052],["ze",-9.896190522648356],["Gov",-9.896882142896883],["agent",-9.8970549352496],["95",-9.897082942566662],["older",-9.897332836260613],["gra",-9.898117374915632],["47",-9.898279387389769],["uff",-9.899591541410118],["killing",-9.899965925646871],["apply",-9.900051582198614],["ultimate",-9.900159786270532],["language",-9.900159792875622],["temperature",-9.900159885508309],["science",-9.900160027642197],["freedom",-9.900160445369643],["survey",-9.900160999529257],["wonder",-9.90019108447262],["suspend",-9.900270681514286],["gift",-9.900329563503579],["responsibl",-9.900677802147428],["Earl",-9.900836005906742],["approximate",-9.901580093791924],["Island",-9.902717918667795],["ization",-9.904023839898002],["row",-9.904191527141538],["Chi",-9.9056416911143],["ug",-9.906098751359703],["severe",-9.906274338490803],["flood",-9.906738709977073],["Securit",-9.90673926073238],["Amazon",-9.90673932669404],["upreme",-9.906822047615131],["storm",-9.907033167972862],["46",-9.907080744691028],["vision",-9.90719975830389],["flag",-9.909041200201912],["exercise",-9.911664887229055],["speech",-9.913361352540022],["relief",-9.913655139990363],["sport",-9.914834269422332],["statu",-9.915986946186056],["tech",-9.917862078625527],["gen",-9.918364624175897],["struggle",-9.918489388480474],["green",-9.919912468848704],["closure",-9.91993754729312],["Premier",-9.920028123763132],["ride",-9.920031876281762],["collection",-9.92041027682146],["partie",-9.920665369753522],["par",-9.920980404265936],["44",-9.92197745705135],["phase",-9.922928901309202],["independent",-9.924069426644095],["43",-9.924557321630289],["mer",-9.926128897337513],["wild",-9.926447674999661],["civil",-9.926507011429194],["showing",-9.926556928352952],["Under",-9.926768721535588],["ticket",-9.92680233174523],["IT",-9.926832188190474],["Centre",-9.926983724729485],["Fund",-9.927153449452433],["vo",-9.93202924360488],["urge",-9.932450569335659],["rain",-9.93247850337354],["multi",-9.932501465035969],["typical",-9.933499073624557],["truck",-9.93351851508454],["youth",-9.934399755585268],["Russia",-9.935251779564444],["CA",-9.938937191264717],["package",-9.939284780826402],["window",-9.940303158285573],["rose",-9.940627321164806],["Oct",-9.940999030762331],["secure",-9.942109839099935],["communication",-9.942257914919256],["studie",-9.942321402567984],["LA",-9.943297914728957],["Chris",-9.943911497053099],["predict",-9.945512126516363],["Com",-9.945629306947701],["cat",-9.945710363726935],["Cha",-9.945880239292196],["fix",-9.945924900730116],["miles",-9.946079139404288],["Democrati",-9.947135110864789],["journey",-9.947148858427761],["album",-9.947165399272688],["section",-9.9474481958467],["Brita",-9.94831619594681],["ski",-9.949143082787652],["Tok",-9.949208959338227],["union",-9.949767648293813],["asset",-9.950243699552136],["draft",-9.950487380533975],["memor",-9.951253463612698],["south",-9.95370584423198],["allegation",-9.954087278634733],["dangerous",-9.95412526433868],["beautiful",-9.954213722492039],["print",-9.95442982106892],["rising",-9.954467796948947],["Cup",-9.95519669707587],["traffic",-9.956885340427059],["carrie",-9.957975353243615],["rally",-9.958067452509903],["Sal",-9.958729469581698],["guid",-9.959047257062302],["structure",-9.960989062983693],["scientist",-9.960990361494463],["alternative",-9.961003673167957],["remote",-9.961041763670924],["isolation",-9.961522776158581],["supporter",-9.962124241815904],["chair",-9.962682066470606],["Australian",-9.963027598929923],["choose",-9.963467939663797],["lam",-9.965151189083628],["meal",-9.966471862894272],["cancer",-9.968226977590842],["soft",-9.9699294314306],["thinking",-9.970525570763062],["Law",-9.97086688162635],["prepared",-9.971261735120946],["ette",-9.971423659924382],["author",-9.971492506512458],["Hu",-9.97199497987255],["graduate",-9.972765781515458],["NA",-9.973520714673803],["caus",-9.97426032629273],["grand",-9.97495497420029],["French",-9.975024778768004],["Googl",-9.975065051503307],["farmers",-9.97532329216958],["infrastructure",-9.975427140294716],["stuff",-9.97577848414986],["Jones",-9.975968095149732],["sitting",-9.975968721280768],["comfortabl",-9.976310840614572],["PC",-9.978015105252267],["highlight",-9.978211379005021],["Sp",-9.978629757437222],["log",-9.979913125152956],["42",-9.979947518823526],["mobile",-9.982097502025287],["Federal",-9.982117715531487],["female",-9.982129506119323],["assault",-9.982141318657114],["Coronavirus",-9.982164216532354],["scheme",-9.982177314873594],["village",-9.98240714318273],["Year",-9.982700709393836],["requirement",-9.983357110577746],["drink",-9.984585990712244],["Prince",-9.984890306771174],["advantage",-9.989168874977281],["conflict",-9.989259392861758],["ick",-9.989785241144794],["HO",-9.990045671193851],["protection",-9.990210733950438],["institution",-9.990628097986832],["writer",-9.990693109140238],["truth",-9.991021590018695],["prior",-9.991958938412726],["beat",-9.992160532212221],["load",-9.99262031438862],["provider",-9.993038820855343],["lay",-9.993875960952279],["sides",-9.994856828634894],["pain",-9.995295837387744],["recognize",-9.995652538801405],["complaint",-9.995833405729712],["attorney",-9.996454112929285],["opinion",-9.99645443597992],["entertain",-9.996464688181543],["Though",-9.99674232289079],["Blue",-9.998536376328936],["defend",-9.999172489246526],["ax",-9.999565468384503],["Ri",-10.001922268397955],["complex",-10.00370001501526],["announcement",-10.003943887235705],["airport",-10.004056849631844],["recall",-10.005124513527495],["Cor",-10.005751509365506],["Communit",-10.006677424638722],["toll",-10.00687357350867],["EC",-10.007726966864862],["skills",-10.008478857939311],["connect",-10.009389218774169],["Ke",-10.010008928085195],["resume",-10.010049333918456],["amazing",-10.011013595455676],["supposed",-10.011043712944833],["knowledge",-10.011049474191388],["fuel",-10.011091801671522],["LLC",-10.011521144667888],["struggl",-10.012687028181885],["ola",-10.013353036635092],["ik",-10.014108134562862],["outdoor",-10.014676856377225],["stick",-10.015677899406564],["jo",-10.01706412749813],["offers",-10.017311259469725],["appropriate",-10.018306257851087],["ceremon",-10.01835302378034],["dozen",-10.018374838970136],["programme",-10.018375366229803],["recommend",-10.01850678195829],["Fi",-10.020244466028661],["bond",-10.021989069168253],["supplie",-10.02311376745224],["Den",-10.023376227572905],["dropp",-10.023512365386196],["Robert",-10.024212345802123],["warning",-10.024498870082477],["serving",-10.024650709888999],["Martin",-10.025026017354278],["proud",-10.025778604244628],["element",-10.025840041825163],["bra",-10.026242134462063],["Andrew",-10.02650663469499],["investigat",-10.027853198677843],["hang",-10.028963179778572],["excited",-10.029025371067249],["spec",-10.03084152561654],["regional",-10.031805950914718],["41",-10.032270118223447],["opposition",-10.033264052484862],["sale",-10.033735491215097],["Fox",-10.033770563268941],["skin",-10.033782082979712],["losing",-10.03383323772942],["Max",-10.034390668715766],["giant",-10.034391798747478],["gold",-10.034614441323505],["pet",-10.035700000327374],["Ram",-10.03571898516153],["observ",-10.036263045404986],["confiden",-10.03671593878003],["nice",-10.03774896113381],["protester",-10.038358075789622],["400",-10.038830715514148],["Vi",-10.039224495013709],["route",-10.039698509211977],["smart",-10.04000913620699],["initiative",-10.040741317952492],["Business",-10.040743783367606],["Right",-10.040974125331878],["dress",-10.042423904324007],["flu",-10.043234270291768],["onic",-10.04348602629788],["che",-10.044529402517668],["reading",-10.044985296737039],["mate",-10.045141847319812],["journalist",-10.045905803588187],["indicate",-10.046449597273593],["Tri",-10.047854204916591],["heavy",-10.048264087112583],["possibilit",-10.048316910885575],["transition",-10.048775248609292],["crore",-10.048868252716444],["combat",-10.050381374310195],["wind",-10.051572236955465],["Who",-10.051717378917637],["happening",-10.053193441575313],["Russian",-10.053970328305486],["grade",-10.05469743456505],["Capital",-10.055953309353624],["Hall",-10.056797140738519],["guest",-10.056869400794735],["Als",-10.05722422967277],["remind",-10.057646884718292],["insist",-10.057841262256165],["trades",-10.057972073756826],["retail",-10.05812986254469],["hall",-10.060370616261714],["ward",-10.060675233781804],["consistent",-10.063683965067163],["Disney",-10.06369783775958],["Up",-10.06370514734713],["Market",-10.063817733431772],["politician",-10.063998940899618],["prime",-10.064005667588638],["heat",-10.064259677111316],["Ru",-10.065772270938329],["Pi",-10.066846943867825],["Sun",-10.06721460583286],["Mayor",-10.067681161720177],["lab",-10.068287006838567],["FA",-10.069140178465524],["yard",-10.070744521613037],["coast",-10.072024794700727],["king",-10.072753802201632],["Qu",-10.073200670624914],["pot",-10.073582019219465],["Par",-10.073728309211983],["creative",-10.073817883369806],["ural",-10.073913912150928],["injuries",-10.074750586048738],["lan",-10.075682002325816],["owners",-10.077801291534877],["Georgia",-10.078952724005008],["circumstance",-10.079207212240291],["constant",-10.079207322887054],["Thomas",-10.079207605591836],["Church",-10.079216770563805],["Region",-10.079242448712272],["married",-10.079287042564275],["Valley",-10.079343071302475],["Good",-10.07961588180047],["handle",-10.079713007799782],["function",-10.080496859343453],["manag",-10.08117775907227],["task",-10.081978280651894],["ttle",-10.082294542183373],["wage",-10.083184661301662],["Republicans",-10.083687288372168],["Lee",-10.083975380473197],["acquir",-10.084002877104773],["gather",-10.084918969185775],["strict",-10.085438980580133],["CC",-10.085771194398696],["destroy",-10.087081239178211],["Work",-10.087699165577913],["proposal",-10.087910705265466],["powerful",-10.087922516624996],["modern",-10.088123092813099],["appearance",-10.088692272244192],["worse",-10.089059219298935],["direction",-10.089556267984893],["Han",-10.089705027339045],["Serie",-10.090083492387905],["fer",-10.0903035743926],["machine",-10.09127529433783],["gate",-10.09130761548224],["aim",-10.09142782046279],["rank",-10.09214755614154],["DA",-10.092841032217684],["66",-10.093915437999062],["illness",-10.094033801716828],["ory",-10.0941415948184],["85",-10.094327597459987],["Jack",-10.094625206938149],["Wood",-10.095059862912073],["spirit",-10.095088604392174],["master",-10.095132149475198],["commitment",-10.095177293361703],["56",-10.095335030307115],["shape",-10.09626947200377],["ox",-10.096327870825546],["Your",-10.09663631527744],["researcher",-10.09702213789526],["correct",-10.097093681382361],["corner",-10.097100397935883],["donation",-10.098387568785945],["donate",-10.098783960769573],["interesting",-10.098806929910745],["reopening",-10.100440840601081],["elling",-10.101605174705746],["tournament",-10.103017752956896],["famous",-10.103019028559483],["fellow",-10.103024276607954],["Christian",-10.10304738309297],["kar",-10.103493527345904],["Virginia",-10.103547342689769],["respective",-10.103594444165306],["secretar",-10.10409420103738],["chose",-10.106117680616865],["rough",-10.106439383681657],["Post",-10.107097121030804],["challeng",-10.107324779197683],["nurse",-10.107343681936639],["reform",-10.107709395738734],["agenc",-10.10858829936367],["AT",-10.109096655310985],["Daniel",-10.111083273091488],["internet",-10.111106578079124],["apparent",-10.111223134296653],["!”",-10.111525379713333],["bridge",-10.111534625603717],["burg",-10.11279654574161],["Nation",-10.112867506809796],["contest",-10.112935776847351],["employ",-10.113046641222564],["az",-10.114146805119415],["68",-10.114824292312427],["lines",-10.115772946573575],["radio",-10.11646597251204],["lum",-10.116848000764453],["joint",-10.117644069838558],["Ali",-10.118356444622908],["veteran",-10.119220630412967],["surface",-10.119284647478533],["Na",-10.11935674940997],["jail",-10.119368608368678],["text",-10.119498113265262],["Ge",-10.120504295920318],["engineer",-10.121313099218863],["qui",-10.122701744797112],["tuck",-10.123482290523366],["pound",-10.124879121797768],["ou",-10.125610534490264],["egg",-10.12713082543349],["wealth",-10.127455377378126],["Follow",-10.127489578844711],["wake",-10.129871705180598],["Korea",-10.130682792083897],["bough",-10.131365793163923],["refuse",-10.131682722980882],["cool",-10.133900707310119],["presen",-10.134053066847747],["NB",-10.134284074392752],["strength",-10.135620693680593],["margin",-10.13566485561891],["Team",-10.135764864129818],["failure",-10.135768346065342],["ruling",-10.135866348998087],["Sanders",-10.136138239836388],["ollywood",-10.136361551366178],["cold",-10.136740168299031],["Play",-10.137221347494448],["Inter",-10.137238449603462],["Vic",-10.137306391801172],["Chair",-10.137415405591277],["Real",-10.137780488462976],["trail",-10.138319608201998],["citi",-10.138446329137548],["witness",-10.13937105599722],["capture",-10.139410787968403],["je",-10.139551509704887],["sentence",-10.14264138070229],["qua",-10.14273360088093],["TA",-10.143573240823418],["twic",-10.14377480445311],["professor",-10.144006845119605],["approval",-10.144006890108447],["stretch",-10.144008494810166],["Institute",-10.144126411579057],["admitted",-10.14413342220859],["transaction",-10.14413477902923],["protocol",-10.144171117349835],["Bi",-10.144626484844938],["Pre",-10.144678000797807],["batter",-10.14476497934772],["division",-10.145517561319483],["%.",-10.146786455970883],["core",-10.147214644128578],["Sch",-10.147298877467481],["Victoria",-10.147329330515714],["panel",-10.147412186718885],["rac",-10.147981468103001],["Commissioner",-10.14923245639445],["imagine",-10.15016627868989],["understanding",-10.150771521693244],["Che",-10.152447786238682],["transmission",-10.152451092634184],["Harry",-10.152454112530098],["plus",-10.152469605894728],["representative",-10.15250941128324],["mouth",-10.152612355730383],["Ken",-10.153833141497996],["haring",-10.153854751027684],["pped",-10.154954745632136],["entry",-10.155613779815756],["stoppe",-10.15570550501781],["emerg",-10.155757369247246],["Times",-10.156060610820575],["code",-10.157375936698298],["zing",-10.157778890055125],["pan",-10.15815644925081],["mom",-10.158540519515366],["ative",-10.158921025210098],["MA",-10.1598985844085],["broke",-10.160144352646837],["waste",-10.160324764183933],["participate",-10.160641670451064],["plane",-10.160859440970501],["scenario",-10.16088478233918],["opponent",-10.160884782653081],["religious",-10.160884819959627],["Club",-10.160884833392153],["ium",-10.16089367964386],["rapid",-10.160916341449255],["regulation",-10.160921209653836],["Development",-10.160980690569193],["apartment",-10.161264924548853],["Jackson",-10.161467127665762],["regulator",-10.16148998136852],["internal",-10.1621825514341],["honest",-10.162300017741977],["blow",-10.162728011964877],["ure",-10.162931313067983],["familiar",-10.163582610647847],["ST",-10.16416464883837],["76",-10.165020736554347],["Love",-10.165100848344153],["books",-10.165312060577115],["ington",-10.166171748906368],["Feb",-10.166309967746795],["trick",-10.166718238484801],["ake",-10.168394086704243],["produc",-10.169163646554871],["English",-10.169431793504799],["adopt",-10.16943383017087],["channel",-10.169434205823904],["distribution",-10.16956544312944],["forecast",-10.169737959420981],["Royal",-10.169975616136025],["slight",-10.170366574398313],["boat",-10.17056604088116],["ministr",-10.170737410516741],["Avenue",-10.171439845005656],["iv",-10.172256000356452],["telling",-10.173366796358648],["achieve",-10.174655455232894],["pitch",-10.175182922434802],["promote",-10.176017383855546],["valu",-10.176031793421085],["53",-10.176905899185698],["PM",-10.177085205871425],["dividend",-10.178092042064794],["800",-10.178296917418635],["cur",-10.17830015449849],["tackle",-10.17846527141942],["island",-10.179745023610927],["saving",-10.181282329364514],["bio",-10.182598488674518],["closing",-10.182641902794245],["outcome",-10.183094444206375],["52",-10.184425312712527],["accident",-10.184760142229106],["ker",-10.186012894209352],["owns",-10.18667964969191],["rescue",-10.186785170004931],["studio",-10.186804586874814],["recommendation",-10.18705514113062],["vent",-10.187383827942938],["enable",-10.18805303256245],["sustain",-10.188087668768492],["goals",-10.190165229955717],["rel",-10.190342102770098],["PD",-10.190352185793024],["54",-10.190381855472836],["orrow",-10.19106748715231],["64",-10.19162835854996],["mayor",-10.192234716851354],["runs",-10.193469639751815],["blue",-10.195520971673025],["Election",-10.195562366041585],["relevan",-10.195580118731236],["length",-10.195646023105457],["88",-10.195659594988193],["84",-10.195681265949151],["aspect",-10.195856259949704],["Ch",-10.196495915460844],["dry",-10.197252952747768],["edge",-10.197459463122641],["plent",-10.197483638710846],["600",-10.197905961142116],["Aug",-10.198568523577833],["century",-10.198946607460272],["viewers",-10.199226645406284],["FC",-10.200645785714249],["MC",-10.20106642228188],["replace",-10.201543198844016],["teen",-10.201947048944398],["deploy",-10.204002003613741],["78",-10.204052158224794],["rival",-10.204082352080931],["obtain",-10.20437075596961],["guilt",-10.204375176845751],["illegal",-10.20438402703174],["Western",-10.204432210447663],["meaning",-10.204673729760444],["Iowa",-10.20500300468985],["chester",-10.205894398247633],["Human",-10.205970130184802],["App",-10.206945656152152],["singer",-10.207155862621974],["polis",-10.207176342339228],["CDC",-10.208394606619546],["Yes",-10.209147060273422],["ible",-10.209496830557683],["Mal",-10.209573156744838],["expose",-10.210020620211921],["SE",-10.210227101605103],["basic",-10.211385157108356],["method",-10.212033566815798],["mond",-10.212068208188768],["Ten",-10.212240730781751],["ung",-10.212416151239914],["provision",-10.213434829222258],["sight",-10.213446706906016],["denie",-10.21363645344255],["trouble",-10.213915085230557],["ramp",-10.214186522690941],["transfer",-10.214264132225235],["photos",-10.21456911138067],["Corp",-10.215076607952557],["Research",-10.21520033837118],["television",-10.215839375192559],["variet",-10.216013796196954],["Care",-10.216632595775398],["environmental",-10.217546155562287],["combine",-10.217798407374291],["uncertaint",-10.217857522704907],["59",-10.218611133245481],["declare",-10.21874887566426],["determined",-10.218796744340038],["Alex",-10.21917357092731],["instance",-10.220827549767913],["Rock",-10.22105610074897],["Cal",-10.221269617044968],["opt",-10.221855008067045],["identify",-10.222307203227349],["permanent",-10.222308331943232],["shelter",-10.22232581085666],["glass",-10.222390579449677],["Micro",-10.222443122829038],["Richard",-10.22246871944277],["steal",-10.222606617742127],["Harris",-10.222642985439363],["bright",-10.223100101497272],["deput",-10.223364495606571],["ER",-10.223749946223254],["MS",-10.224497997382638],["visitor",-10.224905678484879],["77",-10.22699543980479],["Long",-10.227178989471703],["Kan",-10.227675045834644],["commission",-10.227704972128192],["57",-10.228057547574828],["shock",-10.2281544746312],["67",-10.229280828065802],["passe",-10.229341461486271],["immun",-10.230597581011034],["unlike",-10.230645112755834],["Maine",-10.230734438761615],["determine",-10.231178433233207],["volume",-10.231398715582788],["Ohio",-10.231414607581408],["Three",-10.231414672543004],["false",-10.231424262604577],["finance",-10.231522783852572],["blame",-10.232289858940057],["coverage",-10.232357009629549],["ru",-10.232878014629875],["hopeful",-10.23328849772776],["72",-10.233502296992803],["EP",-10.234944535006392],["Bra",-10.236071706612016],["occurr",-10.236336676986754],["mine",-10.236395413783036],["cra",-10.23677938565379],["featur",-10.237298954432415],["rang",-10.237620938749478],["Ki",-10.237709050429793],["rap",-10.239400272541346],["happens",-10.239633424289007],["unny",-10.240026413681692],["62",-10.240370702253395],["troop",-10.24057313602329],["cars",-10.24074042747791],["Week",-10.24090461427748],["onna",-10.241338145354542],["ID",-10.242017703837693],["Adam",-10.242071321908423],["prepare",-10.243552226610532],["flat",-10.243938885821901],["Authorit",-10.244020143971214],["manufactur",-10.244282489157307],["Shar",-10.245257106214213],["Kar",-10.24534489762371],["desire",-10.245946107327784],["Wi",-10.246010392221041],["Mexic",-10.246059027908153],["fish",-10.246156270544663],["govern",-10.246286920747373],["propose",-10.246299207705729],["rie",-10.246626216629107],["reduc",-10.247849979412258],["hole",-10.247871798421997],["covering",-10.249425586771535],["appoint",-10.249811945923867],["Education",-10.249831681028393],["prospect",-10.249833157662652],["recruit",-10.249835167903543],["Floyd",-10.249869336879781],["consequence",-10.249878356741114],["gender",-10.249959716783577],["organisation",-10.250014409001349],["imp",-10.250055526333558],["secret",-10.250101791782383],["numero",-10.250167300767117],["festival",-10.250194323274107],["dance",-10.250318976197935],["Medical",-10.250444536749736],["96",-10.25055236934244],["breaking",-10.250668964296555],["reaction",-10.25089957918249],["decide",-10.251468801698373],["softw",-10.251706201572812],["busy",-10.251781166505605],["doors",-10.252160007336961],["Bell",-10.253084406775852],["Great",-10.253448589757546],["partners",-10.254387517761883],["breath",-10.255008162358553],["whom",-10.255155016239453],["GO",-10.257971112055856],["possibl",-10.258103724204773],["disappoint",-10.258874013579842],["Student",-10.259178002085552],["segment",-10.259182869567685],["Ag",-10.25922005894248],["sky",-10.26058867139242],["Frank",-10.261215306278231],["improv",-10.262100458840187],["guess",-10.262453457118372],["everal",-10.262725067001128],["58",-10.262779427135902],["urism",-10.262896253503602],["Fr",-10.26381425407131],["drugs",-10.265327511550616],["airline",-10.265431995071278],["NH",-10.265463973556745],["98",-10.265858679856393],["handl",-10.26638934782489],["encourag",-10.267058634069826],["counter",-10.26853720396634],["arriv",-10.268571982524186],["neighbor",-10.268581414710084],["Parliament",-10.268611437468312],["sudden",-10.268612730834347],["Social",-10.268649476305983],["vital",-10.268818349825631],["reject",-10.268942883312452],["postpon",-10.269025263099085],["boss",-10.269665708209068],["Yet",-10.269965884285064],["introduc",-10.272200062096744],["RE",-10.27267247685461],["Onc",-10.27315307606974],["mph",-10.275346257466978],["expens",-10.277194510338884],["alcohol",-10.278135489919446],["colleague",-10.278136372903761],["identit",-10.278165420667502],["Spring",-10.278181455243757],["Ku",-10.278191164950574],["appointment",-10.278439638988491],["dismiss",-10.278490716896592],["Young",-10.2788823815102],["Singh",-10.279166076546456],["resolve",-10.279685688911437],["Beach",-10.279718678058588],["97",-10.280394605401298],["background",-10.280926091724357],["venue",-10.283498372624093],["debut",-10.284381168310379],["Press",-10.285072633661638],["contribute",-10.287171061843914],["uck",-10.28745038887679],["adapt",-10.287492584508632],["•",-10.28775063155145],["franchise",-10.28775070183266],["Earth",-10.287756989914044],["Iranian",-10.287865223531115],["Life",-10.287922787707027],["lawsuit",-10.288268999756369],["intelligence",-10.288621890081881],["tag",-10.28935965500016],["mistake",-10.290401152050672],["cul",-10.293347165357314],["brief",-10.294900078579468],["taxe",-10.294938022869907],["locat",-10.295496985435127],["Still",-10.296032198964197],["oursel",-10.297101859003483],["faith",-10.297245734804049],["Netflix",-10.2974593694607],["Investment",-10.297459399809508],["appreciate",-10.297459422404293],["Assembly",-10.297459991228315],["technical",-10.297460068140996],["consensu",-10.297464098297414],["neighborhood",-10.297490271827344],["Watch",-10.297499591384918],["agricultur",-10.29759673946341],["wedding",-10.297607967051485],["export",-10.297804992137578],["stands",-10.298048322790429],["mal",-10.299575896480075],["charit",-10.299666421408366],["bear",-10.30117723034338],["broken",-10.303264876742285],["employer",-10.303565478895914],["shire",-10.304704221008055],["Executive",-10.30726329203463],["participant",-10.307263293501153],["Obama",-10.307277020425309],["crop",-10.30728171004306],["Out",-10.307431610703556],["Water",-10.307543713728066],["racial",-10.307547232960065],["expectation",-10.308289347463056],["chairman",-10.308291200419664],["Ital",-10.309840585846011],["zero",-10.310369095494917],["Look",-10.311133920720586],["ried",-10.311593178767904],["resolution",-10.31159754520963],["pace",-10.311671738898603],["mandate",-10.31181744908081],["emotional",-10.312115627582823],["aka",-10.3123094470564],["trac",-10.312425877454913],["cal",-10.31486449305955],["Van",-10.315508454651265],["advise",-10.315604641940563],["iscal",-10.315618069816551],["describ",-10.315945469476725],["Additional",-10.317164514269543],["prompt",-10.31716455859991],["celebration",-10.317380572725757],["Game",-10.317949804675376],["llino",-10.31825243055793],["classic",-10.318866475201744],["sharp",-10.31910416877774],["license",-10.320038860155085],["CBS",-10.32072273397104],["Nor",-10.32135881598299],["omen",-10.322026125580525],["stars",-10.325387702488715],["Are",-10.325576300309493],["bann",-10.32588728130213],["ju",-10.326846004063176],["NN",-10.327025285758236],["concert",-10.327164840605196],["Middle",-10.327173487076898],["analysis",-10.327174670688596],["Bryan",-10.327193454598989],["garden",-10.327308891973288],["partnership",-10.327665076667259],["realize",-10.327750452183846],["69",-10.327832328059905],["beach",-10.328533856923041],["larger",-10.328544161062371],["Station",-10.32892379675189],["requir",-10.328924339031676],["wan",-10.329196468190434],["losse",-10.329211325524085],["bail",-10.329516516905285],["luck",-10.329675459246289],["briefing",-10.329817327785715],["ture",-10.330577454928132],["Best",-10.330964171950878],["shoot",-10.331521561381727],["Pol",-10.332251905259774],["tight",-10.332551421086116],["hill",-10.332930699753492],["sample",-10.333234184873227],["Nav",-10.333449432297295],["Hol",-10.333622810167839],["theater",-10.335107111039521],["evil",-10.335441041914244],["tz",-10.336565751789323],["fraud",-10.337265298759625],["Taylor",-10.337266550249748],["spike",-10.337325426765624],["Queen",-10.337568130767108],["lawmaker",-10.337694894991278],["Trust",-10.33798241824672],["lic",-10.338169646730389],["Ak",-10.338700337946594],["curb",-10.339098748966396],["Where",-10.339121130388808],["itch",-10.34033735638199],["Ed",-10.340404479073392],["Ya",-10.340843315474544],["operator",-10.341649390021555],["favor",-10.341718423021824],["Bob",-10.342535012575308],["guide",-10.344231166719249],["Gra",-10.344496434303872],["Ni",-10.344952219469477],["Tor",-10.345399290280632],["switch",-10.345429486697656],["comfort",-10.345931686295444],["argue",-10.346386483636365],["51",-10.346709791258785],["cloth",-10.346860076460409],["Boy",-10.34698348770847],["solid",-10.347339379334196],["Four",-10.347443162692382],["athlete",-10.347470737043551],["bottom",-10.347498344299936],["Jewish",-10.347635237097993],["Coast",-10.347663405442598],["nuclear",-10.347664225868481],["prosecutor",-10.348345501973494],["purchas",-10.348533555686693],["cu",-10.348993591362305],["alert",-10.349361612386954],["Only",-10.349397493128555],["assure",-10.349666419373873],["shortage",-10.349773327645268],["Francisc",-10.350310074093217],["suffering",-10.350395370947894],["elder",-10.35077730626514],["Spa",-10.351711431903546],["weak",-10.352623977323141],["formal",-10.352886153785013],["86",-10.352993189739035],["Mi",-10.353100064326787],["Asian",-10.353119003191043],["Bowl",-10.353737190655533],["Men",-10.354132580679401],["Asia",-10.354398010090183],["isolate",-10.354590780786967],["cha",-10.35500725531668],["repeated",-10.355221618876989],["gue",-10.356958631566883],["accurate",-10.357784644347998],["horse",-10.35789753726914],["Turkey",-10.357898632987249],["Agenc",-10.357912210926248],["soldier",-10.357914447395776],["Down",-10.358074143161094],["quiet",-10.358163084754807],["newspaper",-10.358270480729702],["Local",-10.358405426046431],["tradition",-10.358536811791495],["Gold",-10.358910846533341],["industrial",-10.358971996071112],["actress",-10.359906084268474],["brain",-10.36016440701583],["RA",-10.361917992507164],["danger",-10.363101150357982],["corporate",-10.363439685639012],["dig",-10.364903616947311],["Hi",-10.365636979594335],["escape",-10.36640451749921],["Grand",-10.36655813690911],["thanks",-10.367232125442515],["Mary",-10.367305453110102],["deserve",-10.367336920068945],["fashion",-10.36819542111291],["bottle",-10.368220380223647],["medicine",-10.368241537627327],["Food",-10.368245198896012],["peak",-10.36828625962402],["Former",-10.368828571845391],["birthday",-10.369205598122964],["touchdown",-10.369615663997779],["upgrade",-10.37049974608652],["cop",-10.37162492133289],["bound",-10.373702592991773],["pel",-10.373910806587043],["efore",-10.374422047130235],["explore",-10.37541347854987],["Free",-10.375852609563962],["dinner",-10.376293630967513],["laws",-10.376418572814814],["sweet",-10.377203584374834],["controll",-10.37844443899122],["uhan",-10.378686525014714],["Global",-10.3787216413791],["surprising",-10.378721655849038],["democrac",-10.378721662401354],["Academ",-10.378721740885403],["marriage",-10.378721765439874],["behavior",-10.378721916812491],["conclude",-10.378722357200294],["Muslim",-10.378726864566747],["compete",-10.378734310438796],["Zoom",-10.378736260007166],["Plu",-10.378755103153274],["contribution",-10.378892684328493],["drama",-10.378955653572017],["heavi",-10.379022749671051],["Michi",-10.379333246412093],["cloud",-10.37944760407503],["laugh",-10.380516176101867],["uch",-10.380593233480198],["Th",-10.380884717874913],["William",-10.381358229775982],["Scotl",-10.38256428922347],["Bel",-10.382598480864871],["Bost",-10.383067632471619],["Kim",-10.383791281094764],["racis",-10.38513884139137],["introduce",-10.385241065359182],["ideas",-10.385341020681679],["Jim",-10.385358813723998],["founder",-10.385496847298764],["Town",-10.385718033975778],["anger",-10.385973410601604],["cease",-10.386496016383418],["inch",-10.386567082961873],["Dar",-10.386872621756561],["uru",-10.38804946711326],["Base",-10.388304942529128],["remark",-10.389292039982337],["Project",-10.389360054780516],["disaster",-10.389365825903582],["Charles",-10.389380286569338],["cream",-10.389400884230415],["Control",-10.389479975674941],["map",-10.38951718849809],["championship",-10.389536339628313],["Among",-10.389575709871352],["Tu",-10.389661181112206],["eligib",-10.389667878513132],["Bloom",-10.389711592431432],["Report",-10.389884596610315],["shopp",-10.390100882098501],["Ryan",-10.390210987948134],["94",-10.390309727995412],["regime",-10.390401083242153],["bodie",-10.390938884688431],["manner",-10.391340171430908],["Jay",-10.391611595631492],["lim",-10.391887097231564],["Pakistan",-10.393486454824611],["dealing",-10.395537941961475],["Khan",-10.39604726083881],["quarterback",-10.39610271413028],["ram",-10.397698870106755],["defensive",-10.400112619671877],["maxim",-10.400113549604477],["royal",-10.400123194607701],["Power",-10.400203534963179],["vast",-10.4002718051645],["dispute",-10.400390846569232],["argument",-10.400392115039272],["instruction",-10.400575774157975],["Morgan",-10.4006825189634],["fifth",-10.400817621944684],["nstead",-10.40129669268221],["percentage",-10.401817776757483],["Hav",-10.401977110046403],["olar",-10.40200717788587],["decrease",-10.405171830110772],["organiz",-10.405283523929395],["SP",-10.40559307474507],["uty",-10.406134679830041],["61",-10.409054104414379],["tend",-10.409537435963436],["matche",-10.409610872578963],["PP",-10.409758784029439],["istan",-10.410108737539232],["BA",-10.410288891288282],["2012",-10.41037253099552],["Head",-10.410474864346813],["Jordan",-10.41098329924308],["routine",-10.411009500698576],["admit",-10.411044503558802],["affair",-10.411063082645338],["Toronto",-10.411192317075677],["Back",-10.411242007867507],["square",-10.411287981170092],["pen",-10.411422488906606],["gap",-10.41149080170824],["08",-10.412223466157158],["Kong",-10.412478795723416],["enem",-10.41249758846724],["corrupti",-10.412795499537882],["NC",-10.413369471130089],["halt",-10.413403818021624],["Maybe",-10.413961740887295],["urban",-10.414955866191544],["Paris",-10.415622284332834],["Sports",-10.416559498295978],["Wal",-10.417107937555038],["eating",-10.417455668246042],["cycle",-10.418500448216967],["hood",-10.418650176213852],["temporar",-10.418949373322995],["Financi",-10.419090808577351],["adjust",-10.419319982598488],["Ray",-10.420750145229814],["bu",-10.421071970112777],["urgent",-10.421362776571193],["Speak",-10.42157660653769],["procedure",-10.421971198879966],["guarantee",-10.421971200267588],["offensive",-10.421971227266205],["territor",-10.421971539759992],["iPhone",-10.42197599921493],["dedicate",-10.421983202970967],["System",-10.421986646398306],["golf",-10.422047403852362],["Judge",-10.422099869435176],["custod",-10.422121055914978],["profile",-10.422253820769065],["74",-10.422431813742213],["Open",-10.422535189590008],["jur",-10.422567278382003],["Rose",-10.423361009016523],["cho",-10.424055402462661],["Bl",-10.424683662087723],["Mont",-10.425099066329999],["Daily",-10.425665477951828],["81",-10.427581434639913],["Wild",-10.428155806619753],["2010",-10.428934382151319],["87",-10.429010395061054],["confirm",-10.430223348725345],["stone",-10.43046210798683],["63",-10.430539375472744],["photograph",-10.430871117236592],["Far",-10.430880729554863],["polls",-10.432334941643928],["Pennsylvania",-10.433082306985519],["capabilit",-10.433546970310587],["Cat",-10.434192092516648],["expense",-10.434192257825723],["teaching",-10.43459455503063],["Da",-10.435213102362425],["roads",-10.435284195724732],["thus",-10.435641227987261],["Gen",-10.435995817303937],["PR",-10.436085554171541],["bury",-10.436805776240375],["mode",-10.437289951113783],["western",-10.437351656982342],["Pay",-10.440203212070706],["broadcast",-10.441940422426331],["Dis",-10.442076226049029],["Plan",-10.44366797034483],["charg",-10.443924459859048],["excellent",-10.44431833857164],["yield",-10.444318478907071],["Jersey",-10.44431874100544],["Second",-10.444319588044419],["knock",-10.444321674945215],["Vegas",-10.44433121924119],["Economic",-10.444344841586428],["crucia",-10.44438530363293],["assessment",-10.444681721108406],["hal",-10.444721197426219],["playoff",-10.444738890963636],["cable",-10.445955064693397],["strategic",-10.44647420704167],["isation",-10.446726198818414],["Alberta",-10.446923439896898],["possession",-10.447431523126674],["Bal",-10.447631711881694],["val",-10.449111245373395],["gam",-10.449284437510356],["BO",-10.449815073033125],["unclear",-10.450229077397838],["Senator",-10.45102159845401],["native",-10.451241655166331],["pose",-10.452536855753001],["Houst",-10.454469650620382],["till",-10.454496996445695],["sole",-10.454831762526549],["frame",-10.45515807627384],["birth",-10.455503833172962],["frequent",-10.455681898784047],["diagnose",-10.455681898907423],["exposure",-10.455681913594145],["grocer",-10.455684658491059],["wound",-10.456035804380125],["Clark",-10.456572720822518],["fake",-10.457282798496497],["concept",-10.458954593730367],["residenc",-10.460239810712189],["250",-10.461404977267485],["Lago",-10.461429694199033],["filing",-10.462913821196928],["hunt",-10.463500184076963],["Mon",-10.464338275364934],["nomination",-10.464500957705177],["announce",-10.464623245957874],["object",-10.466597418810586],["paint",-10.46661935786991],["Net",-10.467043171637137],["motor",-10.467097799648844],["Family",-10.46718007099058],["Energ",-10.467180969390114],["Arizona",-10.467201841114782],["Championship",-10.467242448454265],["nurs",-10.467338750895136],["Labour",-10.467792469568614],["footage",-10.46789746460392],["collective",-10.467923813400125],["computer",-10.468063081831627],["150",-10.468264588820016],["motion",-10.468322070742447],["attract",-10.468480056593158],["xciting",-10.46854408923799],["79",-10.469070062972023],["Pat",-10.469106283265099],["mic",-10.470328337740742],["Add",-10.470520779082236],["northern",-10.470720321099988],["neck",-10.470920649726873],["reference",-10.471823502955697],["cheap",-10.472315701374228],["anticipate",-10.472345240813869],["submitt",-10.472654883749826],["Op",-10.473199753286103],["west",-10.473830890693392],["Thank",-10.475852241295932],["homeless",-10.476045740545196],["92",-10.476455014221715],["700",-10.478310942645916],["Angel",-10.478441734157375],["qualifie",-10.478804122272164],["offense",-10.478805212983808],["unprecedented",-10.478807073467227],["kitchen",-10.478810508713483],["competitive",-10.478815126529803],["precaution",-10.478917313293712],["unfortunate",-10.479079946935988],["objective",-10.47911173782285],["tourist",-10.47920937778572],["raw",-10.479808742837026],["improvement",-10.479826636875321],["lakh",-10.47998919602325],["legend",-10.480289974046956],["Yo",-10.480695348109585],["topic",-10.481656860597788],["Emm",-10.48167409376278],["recogni",-10.482409389677077],["Brand",-10.482981237802035],["declar",-10.483175833078125],["ES",-10.48390734300622],["ON",-10.484922415917161],["praise",-10.48519652144015],["occasion",-10.485421612661462],["bomb",-10.485940033604837],["command",-10.486125727634064],["Steve",-10.486192605055118],["aged",-10.48630940844281],["install",-10.486551977190409],["connected",-10.48765841145482],["ND",-10.488103098962897],["invite",-10.489213573427739],["rew",-10.489320191234565],["Sir",-10.489365005817643],["ix",-10.489929367491804],["detect",-10.490005442968727],["Mil",-10.490039766083552],["LE",-10.490514147192364],["Advisor",-10.490568801643644],["Wisconsin",-10.490568802462104],["Foreign",-10.490570353909757],["penalt",-10.490586321501434],["Lewis",-10.490608025469442],["collaboration",-10.49061490168472],["legac",-10.490636343792755],["pilot",-10.490658972803352],["reduction",-10.490713898145735],["struck",-10.490754554832389],["advocate",-10.49130616518239],["AR",-10.491338832741075],["gle",-10.491844405063382],["wheel",-10.492168922624838],["Cross",-10.492721075774268],["prepar",-10.493123657882588],["ensur",-10.493347094552393],["Tim",-10.493373215272982],["Davis",-10.493572675556706],["collapse",-10.493589242268362],["joy",-10.493929572990897],["fired",-10.494882987328886],["WE",-10.49497412024444],["AI",-10.495961694871404],["lip",-10.497551964193278],["Henr",-10.497894507628086],["minim",-10.498980375659821],["worrie",-10.499187197907993],["historical",-10.499986900529972],["BB",-10.502111237424433],["Show",-10.502166071397463],["assess",-10.502217843595357],["cultural",-10.502463106046893],["Elizabeth",-10.502473527674102],["Unfortunate",-10.50249399407058],["librar",-10.50250484484042],["acknowledge",-10.502520095405895],["Disease",-10.502550673111763],["Sheriff",-10.502564400740376],["Network",-10.503352750620849],["locate",-10.503791003866906],["91",-10.50403379762206],["indeed",-10.504480330215925],["vin",-10.504599138797548],["indoor",-10.505084376298615],["JP",-10.505260985075608],["elect",-10.505360485385776],["Eastern",-10.505365891444733],["Deput",-10.505745136708885],["quote",-10.508009980968072],["ourne",-10.508743231363972],["iami",-10.510669546020067],["headline",-10.512040244969526],["residence",-10.51351527694338],["AC",-10.513650235080835],["Ontario",-10.514521719574846],["Attorney",-10.514521723513596],["Afghan",-10.514521724074047],["Special",-10.514568998159698],["worry",-10.514776013203624],["gear",-10.514980789627225],["peaceful",-10.515055253999378],["crack",-10.515760915166787],["disclose",-10.515886209738156],["mile",-10.516056502492422],["downtown",-10.517605607419009],["AM",-10.518235825523803],["split",-10.518894952772346],["planet",-10.520399252021626],["Ever",-10.520564404014833],["embrace",-10.521560923908126],["rid",-10.522968633577703],["Ford",-10.523306309925974],["engine",-10.523571728709577],["Sara",-10.525457249185369],["tension",-10.525884391697591],["promis",-10.526184803044881],["Zimbabwe",-10.526716840953508],["empty",-10.52671699956992],["junior",-10.526717110451628],["Senior",-10.52673296494116],["extraordinar",-10.526762607079638],["Raj",-10.526828655608497],["Please",-10.52719557024675],["index",-10.52780274953001],["settle",-10.528453735935813],["ika",-10.528522035495605],["restrict",-10.5292274826723],["Award",-10.530462279954335],["mini",-10.530554686775517],["knee",-10.530703860007652],["careful",-10.530812826153484],["Walk",-10.530822672747856],["mount",-10.5311543973623],["bird",-10.531398548991074],["rack",-10.532253648887266],["tip",-10.53291223884996],["confident",-10.533060577536967],["manufacturer",-10.534083708160917],["anywhere",-10.534437353150683],["surrounding",-10.534469780431408],["Whe",-10.534576811976759],["cancell",-10.534908362830048],["speaker",-10.535721203279499],["Cas",-10.53593148883034],["Test",-10.537744986424464],["73",-10.538320368961003],["ABC",-10.538796258311413],["breach",-10.538923716386014],["Colorado",-10.539062528541685],["Catholic",-10.539062529560166],["narrative",-10.539147721230918],["academic",-10.539193475546515],["shore",-10.539334204479799],["HS",-10.540010442083716],["Va",-10.54086347989865],["celebrat",-10.541068566574452],["clinical",-10.54110371572704],["clock",-10.541461267262465],["outlet",-10.541753182254519],["followers",-10.542422974096208],["flower",-10.54260500909393],["Republic",-10.543441687549716],["Ok",-10.543471827629794],["SD",-10.543875856213813],["NE",-10.544529349174763],["enhance",-10.544861876438066],["Ren",-10.546046673194002],["82",-10.546571231985709],["ahu",-10.546626281805949],["Ste",-10.546788523144986],["propos",-10.547031152141448],["impose",-10.547119529697289],["PA",-10.54795704010538],["folks",-10.548175606767753],["signal",-10.548382772468699],["Area",-10.550006317271837],["arren",-10.550012839243244],["itness",-10.55014614096646],["exit",-10.550357319471953],["ET",-10.5506648898592],["ric",-10.550717480524536],["dish",-10.550963302544622],["shoulder",-10.55126986687355],["Ham",-10.551542452328697],["delphi",-10.551562521987158],["Conference",-10.551562532209187],["cryptocurrenc",-10.551565429370184],["fruit",-10.551578397682437],["viral",-10.551597440871868],["Through",-10.551612945359814],["violation",-10.551793625036673],["climb",-10.551936826773323],["Lord",-10.552212270504967],["gym",-10.552286938325615],["desperate",-10.55243111210593],["complain",-10.552613271024256],["Jason",-10.552991611089057],["arrival",-10.553859923415185],["historic",-10.554230682288953],["arvel",-10.554869243202603],["Tony",-10.555108572986061],["fishing",-10.555829103652604],["ction",-10.556938961375558],["assembl",-10.557089656915089],["Justin",-10.557760040396204],["Phila",-10.559563249330575],["experienc",-10.559775273079197],["oundation",-10.560417457699842],["Israeli",-10.560892987965914],["89",-10.561919131877913],["surger",-10.562956091113756],["micro",-10.5633844606984],["Live",-10.563515941860466],["clip",-10.563858949782897],["except",-10.563929236676799],["divide",-10.564165543620602],["adequate",-10.564220748282967],["perspective",-10.56422075102941],["Professor",-10.564220806175724],["condemn",-10.564220871450075],["YouTube",-10.564225513586461],["conservative",-10.564230220996354],["colour",-10.564243598839145],["plastic",-10.56424929710409],["Patriot",-10.564249842397022],["burden",-10.564256036296825],["encounter",-10.564292640702714],["dramatic",-10.56434036526139],["Leader",-10.56515985669914],["Santa",-10.565752961946394],["Iraq",-10.565874450934798],["portion",-10.5659012661895],["baseball",-10.56646480268135],["DO",-10.566614726172826],["chart",-10.566855332501072],["generate",-10.56711976721352],["newly",-10.567218064773973],["fence",-10.5673310563014],["transform",-10.567815788037016],["legislation",-10.568558507924841],["Abu",-10.568655460505763],["trailer",-10.569234817288017],["violent",-10.570061047652507],["cor",-10.570113444317862],["RO",-10.57014294722569],["advertis",-10.57078766032383],["tank",-10.571205022045561],["apart",-10.571329228681726],["mir",-10.57235692073688],["pal",-10.572719162260736],["scar",-10.573760355509279],["ile",-10.57459588371902],["snap",-10.574930166806833],["coin",-10.575364258334712],["Drive",-10.576636426038473],["Zealand",-10.577043058492311],["absence",-10.577047818628],["hari",-10.57711708431087],["sanction",-10.57727913846999],["wonderful",-10.57733757466603],["joke",-10.577529353782872],["classroom",-10.577914571455711],["09",-10.578303911869359],["Season",-10.578315265353005],["recording",-10.57865332842971],["root",-10.580669014324785],["5G",-10.580990021199286],["rom",-10.581853334193136],["Val",-10.582753123293717],["grass",-10.58407241095681],["Kev",-10.584317322530563],["Bro",-10.584327566635107],["93",-10.584495575737638],["Eric",-10.584665409389466],["cutt",-10.585049887461064],["Matt",-10.585243428803135],["ami",-10.585546032081812],["rick",-10.587331446989204],["Late",-10.588243080805931],["auto",-10.588646290085293],["caution",-10.589902031116644],["Administrati",-10.590029626236408],["senator",-10.590029856374152],["combination",-10.59003041430271],["Science",-10.59004163892047],["reader",-10.590194996380795],["laid",-10.590258263237484],["nic",-10.590573512077409],["shirt",-10.590582302328773],["craz",-10.590707704048045],["PO",-10.591408632964708],["bike",-10.591588993109585],["alarm",-10.591725843064868],["moral",-10.591870686688827],["lesson",-10.592024208704206],["circulat",-10.592340617589041],["reserve",-10.592377266089152],["Read",-10.592533404754846],["Old",-10.592552638088968],["web",-10.593590238344216],["Call",-10.593712997629673],["See",-10.593850568237212],["spin",-10.594746649885451],["prayer",-10.594778741425843],["dale",-10.595571487644524],["minorit",-10.595909335997142],["bowl",-10.596344287284646],["atic",-10.59641742254108],["ual",-10.597269047593944],["trained",-10.597713809255408],["petition",-10.598069200504836],["Ber",-10.598092797395866],["witnesse",-10.598099347411928],["emerge",-10.598236374575919],["cuts",-10.599046045077605],["exam",-10.600165464466851],["relations",-10.600963365308585],["releas",-10.601035531230389],["wor",-10.601182946575882],["leak",-10.601981472691287],["stimul",-10.602327568721162],["sponsor",-10.602984618778942],["outhern",-10.603047871513983],["component",-10.60318617280004],["anxiet",-10.603186175090912],["Joseph",-10.603187181128279],["depth",-10.603190402342765],["belief",-10.60319824896087],["fundamental",-10.603200880760618],["Saudi",-10.603208832375493],["Program",-10.603241441096237],["strengthen",-10.603270474272232],["extension",-10.603396374539164],["abandon",-10.603497799566854],["Night",-10.603550841597096],["shall",-10.60413885452909],["assign",-10.60418991038207],["knowing",-10.604392323617976],["impossible",-10.604448386232768],["passion",-10.604980818412407],["bal",-10.60535087664267],["enforce",-10.605605090696432],["Kelly",-10.606231572953911],["Pri",-10.606682391075147],["Kenya",-10.606870876490724],["label",-10.608245367359693],["OS",-10.608316970189414],["scientific",-10.608817846566984],["hell",-10.60889204058418],["failing",-10.608990616198419],["TON",-10.609486958111972],["reasonable",-10.609675597158176],["tick",-10.610709989660762],["Brady",-10.611342632575857],["Have",-10.61315917028468],["Bur",-10.613471010947475],["ping",-10.613922949828357],["literal",-10.614247821021946],["trans",-10.615789504871117],["Pl",-10.61626537928321],["Official",-10.61651954323641],["nominee",-10.6165220729651],["Saint",-10.61685842297282],["Keep",-10.617174397142993],["Stan",-10.617304722397376],["proof",-10.617791885305557],["Phil",-10.617995802122113],["gal",-10.618541156230599],["AE",-10.619011690586383],["permit",-10.619037412178269],["ians",-10.621900775117243],["unknown",-10.621971938642606],["cheer",-10.62284139600682],["RC",-10.623327048454769],["stein",-10.624024142400742],["Media",-10.627158117785951],["ula",-10.627244415499426],["Mos",-10.627732691398066],["plead",-10.628173080575047],["upper",-10.628839836121374],["inmate",-10.629799757997398],["Sydney",-10.630033610771711],["horror",-10.630034048759418],["currenc",-10.630035532938388],["Guard",-10.630108434346818],["criticism",-10.63012548017716],["Nicol",-10.630202093703286],["tel",-10.631276844331918],["wine",-10.631344068589875],["Tik",-10.631676750898443],["finger",-10.63229023689399],["Bre",-10.632410698206849],["Top",-10.632936356009733],["weigh",-10.633168563902831],["comic",-10.633198613311588],["boxe",-10.633881433215672],["developer",-10.634174502466443],["automatic",-10.634353399037606],["km",-10.63452826258488],["pray",-10.63506276688559],["Anth",-10.636547353522616],["champion",-10.636779192893748],["strange",-10.636847760681784],["ock",-10.638262446976803],["RS",-10.638355215340976],["ME",-10.639316063394865],["Mad",-10.639861974241757],["views",-10.640969859507486],["zz",-10.641130971979472],["minor",-10.641233471796438],["Za",-10.64145360472458],["Bat",-10.641760018265696],["Jeff",-10.641981627171221],["Tru",-10.64209634117798],["signature",-10.643740454800497],["museum",-10.643748013503654],["aggressive",-10.643875500031601],["carbon",-10.643878207790722],["context",-10.644010303149374],["Josh",-10.644173520531911],["Grant",-10.644258440902822],["cruise",-10.644357553655807],["Sky",-10.644392939014352],["eastern",-10.644507477945659],["racist",-10.645039648728247],["lake",-10.645954874374421],["Golden",-10.646491622916912],["demonstrate",-10.646921331555495],["ockey",-10.647251462577456],["cleaning",-10.6473883303266],["ages",-10.64739848826364],["wards",-10.647519687773485],["AL",-10.648537731917283],["pol",-10.648758635010187],["march",-10.6489838689834],["practical",-10.64920633533196],["Ye",-10.649562016842832],["inspir",-10.649587055534157],["names",-10.650219243300569],["marked",-10.651320725462453],["SC",-10.651979402789394],["Time",-10.65252371052755],["meter",-10.652544504850747],["cope",-10.654156357772177],["Cook",-10.655691163156199],["negotiat",-10.657351974018],["migrant",-10.657568136389184],["genuine",-10.657620774662691],["Stephen",-10.657628064900287],["script",-10.657631254385397],["medium",-10.657689239540478],["Guyan",-10.657727628058968],["pocket",-10.65802510738466],["storage",-10.658435957716154],["runner",-10.658607626933282],["hak",-10.66018246511365],["Barr",-10.660730840886076],["ken",-10.66184731120898],["mere",-10.663316182841392],["Pal",-10.66503681969602],["stepp",-10.665864930034115],["define",-10.666170221176474],["Carl",-10.667168086200473],["alter",-10.668142145220076],["ncy",-10.668759887559036],["Wall",-10.668797446903348],["corn",-10.668984952024534],["Marc",-10.669027329080595],["hub",-10.670065929343226],["Hope",-10.67123956661865],["technologi",-10.671574102509634],["exclusive",-10.671705079131204],["behaviour",-10.671705217664822],["Bitcoin",-10.671710377139217],["convert",-10.67171243378235],["Bengal",-10.671794270124542],["Further",-10.671840406585158],["smartphone",-10.671951841369943],["assistant",-10.672175669067608],["Safe",-10.672237724446342],["Music",-10.672406991413753],["Beat",-10.672601000252696],["organis",-10.673028156483122],["cry",-10.673039355608253],["shutdown",-10.673374387734764],["Ph",-10.67362108221426],["handed",-10.673790062409346],["83",-10.673929396202821],["Las",-10.674306013283484],["Pan",-10.676003787096299],["format",-10.676102384477133],["tolen",-10.676618066667615],["spokesm",-10.676723070504714],["repair",-10.676818467934703],["MD",-10.676993733184291],["lies",-10.67753846986903],["GM",-10.678048992687952],["ray",-10.678118681001274],["chip",-10.67888500605376],["visibl",-10.679175681217917],["musical",-10.679438842362757],["Spani",-10.680595356424512],["Get",-10.680616581399612],["lane",-10.682241840153143],["tune",-10.682248407267673],["tele",-10.683138611103535],["distribute",-10.683562880501695],["videos",-10.683798684643076],["permitt",-10.68395620942191],["Nick",-10.685271397365508],["epidemic",-10.685990756613037],["intervention",-10.685990779907758],["Stadium",-10.685990866490751],["favourite",-10.686033923736233],["Check",-10.686138999781743],["celebrit",-10.686155300175244],["Airport",-10.686211581361675],["negotiation",-10.686267129180031],["Wilson",-10.686368326837488],["Bridge",-10.686456708530375],["01",-10.687739714515178],["fulfill",-10.688060643314296],["proceed",-10.688092104818896],["Louis",-10.68824089483483],["OC",-10.688395249434242],["Space",-10.68959103953684],["equi",-10.68966014580284],["foundation",-10.690511313037085],["investigate",-10.690721101601923],["GA",-10.690813588888357],["aimed",-10.691151333271343],["lung",-10.692044399065665],["bell",-10.69274030591031],["Rob",-10.694246114189939],["basicall",-10.694270376485466],["Crow",-10.695369735665484],["Cooper",-10.695429630884233],["rug",-10.696948329164318],["Ash",-10.698417369133],["ification",-10.698840814043159],["meat",-10.699424439130343],["sung",-10.699751336166015],["forest",-10.700018451318122],["remov",-10.700379415831275],["respirator",-10.70048350909778],["Investor",-10.700484331922645],["comply",-10.700521342233795],["coffee",-10.700585279998444],["Turk",-10.700702189176596],["Bei",-10.700778712453591],["riot",-10.700970768545822],["violat",-10.701007751443687],["indicat",-10.701290213069203],["OK",-10.701306652774573],["wick",-10.70139915646657],["Was",-10.701591080913065],["smoke",-10.70173722840046],["nobod",-10.702302243752204],["Mer",-10.703449053000963],["panic",-10.703892044720446],["Unit",-10.704359881181073],["Sur",-10.704498088821707],["calm",-10.705128470436346],["feed",-10.705274866597277],["Brian",-10.705586775245493],["Sab",-10.705636413042495],["CU",-10.706510987584803],["latter",-10.70654113853826],["adviser",-10.706791735686279],["signing",-10.707574324655418],["Book",-10.708590136531836],["Bru",-10.710131272238804],["argu",-10.710267281530797],["FB",-10.7109855216649],["Tar",-10.71263880307343],["Mat",-10.714135974758602],["pat",-10.714244751857724],["pit",-10.715007703063556],["subsequent",-10.715189391357104],["efficient",-10.715189391363383],["Associate",-10.715189393497315],["experiment",-10.715189515019652],["Pacific",-10.715189582709824],["podcast",-10.715190066240684],["intensive",-10.715192346824038],["Megha",-10.715243552523697],["vessel",-10.715251454737839],["defence",-10.715331225138634],["Division",-10.71535868382098],["summar",-10.715482019264687],["Bernie",-10.715487171027156],["retain",-10.715530555595913],["funeral",-10.715644781142409],["Modi",-10.715740354754661],["Lady",-10.71590847820569],["squad",-10.716257026386256],["clash",-10.716275561084453],["tier",-10.716387475542401],["arch",-10.716422969852491],["substantial",-10.716993863653979],["stem",-10.717044604249926],["Lind",-10.717626971999753],["AD",-10.71778539078539],["cia",-10.718359933922107],["Minne",-10.718509737730258],["els",-10.718901292381457],["Anti",-10.718917455247707],["orry",-10.718980552145005],["Rep",-10.718986211331039],["edition",-10.71905917053948],["Br",-10.719355392426035],["Never",-10.71937431791525],["earth",-10.719374705345196],["provinc",-10.71958093319236],["Em",-10.719773443724856],["Rich",-10.719882084633007],["SU",-10.72014531441657],["travell",-10.72020073136193],["wore",-10.722289248342747],["inning",-10.72272987761936],["scenes",-10.722797655390105],["Mir",-10.723423431912682],["reward",-10.723694473583627],["Five",-10.724317669658328],["GB",-10.724380667560835],["Art",-10.725592274658425],["integr",-10.726235634944086],["terrorist",-10.726815628720477],["ional",-10.727658896549967],["Financ",-10.727837886701433],["error",-10.72810485099522],["convince",-10.72973322797328],["Ghana",-10.730016311690374],["WA",-10.730079375418255],["association",-10.73011476454834],["Mumbai",-10.730114766808175],["Societ",-10.730114771111703],["qualify",-10.730114806620339],["prohibit",-10.730114907515546],["brutal",-10.73011497260474],["sensitiv",-10.730115768816695],["gradual",-10.73014293965258],["lunch",-10.730160495618843],["registration",-10.730167807856478],["Shan",-10.730193026438588],["absent",-10.730287990219924],["Master",-10.730514323604915],["civilian",-10.730527455695643],["curve",-10.731818778910888],["beaut",-10.732453899583001],["anniversar",-10.733008854792615],["await",-10.733291383953885],["unusual",-10.733509570665715],["Take",-10.733861449364674],["120",-10.734087802819683],["Jet",-10.734140719681097],["institutional",-10.734485062795056],["Eagles",-10.735200166059698],["acquire",-10.735997146780162],["occur",-10.737111761011503],["labor",-10.737170541503552],["sumption",-10.737193624964302],["counsel",-10.737608185533663],["Hal",-10.738061727655634],["inspire",-10.738527855207696],["Indiana",-10.738542850821144],["eager",-10.738989200403001],["iron",-10.740310073079865],["lands",-10.740391137756792],["string",-10.74095644338617],["Atlant",-10.741305770231506],["stable",-10.741586165337171],["Mor",-10.742198041895069],["TE",-10.742717063429009],["itz",-10.7432503252418],["DP",-10.743812127015595],["neighbour",-10.74523571132491],["Defense",-10.74526628009125],["trillion",-10.745267063027473],["pattern",-10.74526717486181],["trigger",-10.745281673702332],["Brexit",-10.745297761687684],["Clint",-10.745313887218568],["destination",-10.745351759041785],["drew",-10.746174777582254],["cake",-10.747821998739422],["understo",-10.747992517708381],["forth",-10.748133001779804],["PT",-10.748665586293253],["utter",-10.748685507581596],["Liver",-10.74875026287566],["prefer",-10.749082760422194],["pictures",-10.749690268955357],["emi",-10.750252863134108],["resort",-10.750286882810634],["performing",-10.750665881776506],["Trade",-10.75067222653642],["ura",-10.751202231797066],["exten",-10.75160666882583],["plate",-10.751669715127841],["select",-10.751736766143598],["rig",-10.752439879502774],["Bad",-10.752899613092975],["wal",-10.753501009131952],["ears",-10.753637761837146],["Sony",-10.754784128477574],["gang",-10.754932734153957],["examine",-10.756438495545408],["appli",-10.756933825778258],["overse",-10.757498175486052],["Tre",-10.757767331317794],["clinic",-10.758119961623944],["jing",-10.758187481585484],["aside",-10.758205973296118],["iving",-10.759465256642903],["creation",-10.759639237404295],["priva",-10.759697510753986],["uomo",-10.75977692331604],["convict",-10.76038161593588],["Thompson",-10.760650895430281],["Dakota",-10.760650902470505],["symbol",-10.76065239866831],["barrier",-10.760656496278447],["Palestinian",-10.760692442224682],["Common",-10.760697289620015],["Italian",-10.760727826672266],["Photo",-10.760858877814126],["NSW",-10.760916563057261],["bias",-10.760964379491021],["mountain",-10.76112050917401],["Shi",-10.761138659429562],["GDP",-10.761214857006848],["critic",-10.761316198050718],["hospitaliz",-10.761418991508275],["teammate",-10.7615599492134],["unk",-10.761786804151525],["musician",-10.76193674144649],["citing",-10.762118618399322],["Luc",-10.762419588796806],["smooth",-10.763067538339177],["pursue",-10.763707044076291],["IV",-10.76389032510538],["comed",-10.763988989647139],["peer",-10.764933634398522],["taste",-10.765864417264115],["Kid",-10.765891013019735],["Ross",-10.766022263672765],["buyer",-10.766165536196022],["bol",-10.767591284990385],["Tra",-10.768531030372998],["NY",-10.769244938589832],["swing",-10.769277899286369],["primari",-10.769627561203933],["q",-10.77144161350191],["Bear",-10.77177505415424],["graphic",-10.771945376533235],["MO",-10.773119686266666],["Mak",-10.773541958169876],["71",-10.77358653538028],["lap",-10.77448498132383],["Ven",-10.774575341774298],["skill",-10.774868431007746],["dominat",-10.775056989244899],["pregnan",-10.775118017851852],["subsid",-10.775340985433505],["USA",-10.775484719154186],["Bir",-10.775620449180778],["plain",-10.776071176049223],["relax",-10.776103708412663],["inner",-10.776175708212527],["Arab",-10.776234128387106],["expansion",-10.776275900677156],["satellite",-10.776276592861345],["Which",-10.77627794022558],["cyber",-10.7763911384835],["mandator",-10.77641464250138],["instant",-10.776556441067257],["Tech",-10.7769387431538],["admission",-10.777167127151618],["IN",-10.777486747772766],["Ban",-10.777929189566615],["rebound",-10.778951361291053],["drone",-10.779177554511858],["Matter",-10.77973631547035],["independenc",-10.77998216568565],["interact",-10.78051247025995],["deposit",-10.781004639604028],["Hamil",-10.781086602336348],["RT",-10.78224087740929],["innovation",-10.78243604140864],["quest",-10.782588130669689],["Pur",-10.783031161886866],["mild",-10.783875333987591],["complet",-10.784040738976191],["bri",-10.78409905806192],["types",-10.784736469276886],["Stone",-10.78569239229834],["consum",-10.786505548737154],["nose",-10.786989184572997],["lady",-10.787464308308692],["PL",-10.7905636156472],["bab",-10.791707554353675],["Mid",-10.792085214604302],["topping",-10.792140106642538],["divorce",-10.792148964262333],["Oregon",-10.79215238446983],["Moore",-10.792158864991574],["Utah",-10.792162755127492],["captain",-10.792169273157427],["cabinet",-10.792191619361287],["cluster",-10.79219679993247],["portray",-10.792228515048226],["warrant",-10.792298681797089],["Irish",-10.792318819745052],["portfolio",-10.792324173535182],["impressive",-10.79232621079414],["agenda",-10.792357720201734],["dynamic",-10.79242730890663],["Mountain",-10.792480589739812],["achievement",-10.792869985955813],["bedroom",-10.792985433949855],["progressive",-10.793018156702347],["infectious",-10.793148018143535],["engagement",-10.793177766488729],["confront",-10.793200130659837],["UC",-10.793378563397168],["salar",-10.793402836331815],["Constitution",-10.79384244540653],["Gun",-10.794316536439165],["tention",-10.794465367829915],["Marsh",-10.794771043644268],["gross",-10.794834708608139],["Highway",-10.794966735989957],["resist",-10.795032790581953],["TO",-10.795371755403384],["passionate",-10.795841544485732],["river",-10.796173369043485],["Does",-10.796322686162602],["solve",-10.79758569671555],["UP",-10.7976925114992],["Mill",-10.79787393124332],["cinema",-10.79851945697305],["Gr",-10.79931259037182],["aga",-10.799442788997457],["sheet",-10.799718166325531],["ED",-10.799732764722528],["cited",-10.800375720775083],["hung",-10.80077497538412],["Fair",-10.800866641778137],["hitting",-10.801008239355678],["Sub",-10.80150373387369],["hrew",-10.802560005272216],["winds",-10.803145698842979],["referred",-10.803673362537626],["emission",-10.804072118634096],["beating",-10.804345255543332],["ants",-10.804677777467372],["ella",-10.80555678267377],["layer",-10.806238487089708],["mill",-10.806676937725616],["idden",-10.80707772656766],["ili",-10.807101747051586],["ignor",-10.80719730083759],["evolv",-10.807273867374143],["Je",-10.807325524580214],["forget",-10.807470596113287],["hol",-10.807721522511986],["frai",-10.807942137634871],["premier",-10.808231579587599],["*",-10.808277943148099],["principal",-10.80827794314865],["helicopter",-10.80827794470618],["brilliant",-10.808277961555397],["harvest",-10.80828622917645],["extensive",-10.808297509949192],["Current",-10.808326119409394],["fantastic",-10.808364510836334],["Little",-10.808426688960633],["wipe",-10.808453013869181],["proven",-10.808492100004392],["arrangement",-10.808499647465514],["sugar",-10.809051881204972],["branch",-10.809374369735133],["Six",-10.811042562681665],["holder",-10.811680516770158],["HD",-10.81184366556138],["Melb",-10.812148557135163],["integrate",-10.812237322813205],["headquarter",-10.812827106783152],["Gri",-10.813252642867418],["Mari",-10.814252230210279],["NBC",-10.814564421879517],["oul",-10.815031752224662],["commissioner",-10.815148264949356],["iness",-10.815479955447639],["worri",-10.815824059466635],["fears",-10.815918030237249],["educational",-10.81764507557757],["intention",-10.818546934287014],["OT",-10.819971942870705],["Gate",-10.820483402384951],["lew",-10.820694902307798],["boot",-10.821367312387913],["retailer",-10.82142364203539],["habit",-10.821849497701397],["lated",-10.822018184397328],["oppose",-10.822069260150693],["rail",-10.82240334495476],["transferr",-10.82294887566393],["sustainabl",-10.823835635917469],["fighter",-10.824397364325211],["venture",-10.824460047396448],["nominate",-10.824601013510817],["á",-10.82467138577105],["entrepreneur",-10.82467138577106],["conclusion",-10.82467138732806],["Prevention",-10.82467141583465],["Civil",-10.824677074217625],["electronic",-10.824677321353036],["Radio",-10.824683180577349],["demonstration",-10.824759065176758],["SARS",-10.824761654965457],["replie",-10.824804554941116],["console",-10.824912435610967],["compromise",-10.82493014882628],["CS",-10.824955828336972],["Gulf",-10.82502559695319],["semi",-10.825172317870368],["Farm",-10.82543745142694],["Mitchel",-10.825586550548632],["tenanc",-10.82562686029529],["align",-10.82612933877192],["deadline",-10.82681039140175],["occ",-10.828117116884755],["renew",-10.828390967252915],["USD",-10.828466796249359],["Again",-10.828638308026242],["assume",-10.82955308531968],["ries",-10.830625062796324],["villain",-10.830990351223882],["Boris",-10.831995306445535],["Lives",-10.832742416734629],["titude",-10.832878952011919],["orthern",-10.83569827471673],["roof",-10.836373674695505],["lash",-10.836557558544705],["Ger",-10.837164279788754],["Cre",-10.837268890078885],["bot",-10.837411810316947],["custom",-10.837470249530497],["07",-10.837862775765151],["GP",-10.838234177629678],["citizen",-10.838723010915661],["loud",-10.839338257553585],["Class",-10.839447430676639],["akh",-10.841038272873337],["Dam",-10.84122302845615],["continent",-10.84133819367853],["Should",-10.841339844082771],["navigat",-10.841343555891555],["Tiger",-10.841344793150025],["visual",-10.841352492570058],["liberal",-10.841358706612226],["Organization",-10.841405962828947],["tap",-10.841816751638827],["impeach",-10.841908730422919],["Gre",-10.841983280004374],["sufficient",-10.842225192734125],["hir",-10.842269195039162],["suicide",-10.842324749642644],["milk",-10.842417541262208],["Childre",-10.842436039346179],["rooms",-10.842690969816609],["attach",-10.842741072239349],["ology",-10.843152057574414],["rape",-10.843309900804226],["Var",-10.843798655085317],["Mass",-10.843825453781946],["utilit",-10.84391586891033],["Awards",-10.843939267564581],["chat",-10.843995273030984],["promotion",-10.844424048785994],["Dieg",-10.845141656300544],["Roberts",-10.845597032344795],["mess",-10.845856176691788],["honour",-10.847089055645274],["Make",-10.847217322960788],["achiev",-10.84753987462065],["chest",-10.848175001792159],["quo",-10.848427230532533],["blast",-10.848488837950892],["editor",-10.848505131116582],["VP",-10.848890471913936],["intense",-10.849227001281914],["Anna",-10.849243594202376],["math",-10.850514281445761],["Swi",-10.850560040073937],["tries",-10.850808519440951],["Did",-10.850825686271545],["?\"",-10.85185485221704],["Kate",-10.852073157105409],["Nel",-10.852709798727101],["tribute",-10.85369445996167],["Mart",-10.853927905154613],["Nar",-10.85423002144516],["Steven",-10.85533679990965],["pos",-10.855343938571991],["ular",-10.855869698391068],["duti",-10.856782534957961],["spoken",-10.857337284731251],["explosion",-10.858287204982297],["complicate",-10.858287205956685],["privilege",-10.858287207523421],["Emergenc",-10.858287779292052],["silver",-10.858288597345622],["Affair",-10.85829869141617],["Agricultur",-10.858301650551434],["obligation",-10.858335515409102],["exceed",-10.8583468775312],["missile",-10.858464159919826],["moderate",-10.858652586601234],["fatalit",-10.858720017965158],["pub",-10.859059866433206],["dose",-10.859535790602301],["hum",-10.859761078250092],["ideal",-10.859825412001435],["toilet",-10.85988742260017],["gging",-10.861588229161617],["narrow",-10.861655371012898],["washing",-10.863292530015006],["Dun",-10.864057071874045],["Cam",-10.864111411915143],["Ball",-10.86561502770331],["rity",-10.866860347588467],["gent",-10.867355150218021],["bread",-10.868986086648247],["compos",-10.869405353513287],["heading",-10.86980973662323],["Dub",-10.870308973523969],["coache",-10.871357613761926],["posed",-10.872317892507567],["Main",-10.872626396285192],["Has",-10.873916125736946],["Dem",-10.874350996337734],["Murphy",-10.87552858467234],["technique",-10.875528809405573],["unveil",-10.875529995276183],["grateful",-10.875531039750781],["devastating",-10.875541362588434],["Jacob",-10.875544204340898],["Transport",-10.875577286191925],["punch",-10.875593177049698],["luxur",-10.875626784520597],["noise",-10.875664249310393],["barrel",-10.875860257740037],["Light",-10.875881161537574],["Stock",-10.876003281030105],["rumor",-10.876006806666016],["pledge",-10.876045812738225],["Brook",-10.87606064841134],["ocean",-10.876121332647674],["copy",-10.87620706922754],["Montreal",-10.876405671167037],["Zo",-10.876411338990978],["interaction",-10.876411576489044],["boyfriend",-10.876619055432702],["overnight",-10.877197356666446],["Ep",-10.878343677699986],["workplace",-10.878530199149385],["CB",-10.878758322737868],["Ann",-10.879425199452804],["gel",-10.87977170934699],["temporari",-10.880098158821081],["Such",-10.880103109774174],["houses",-10.880287448105381],["rolling",-10.880438431144153],["compet",-10.880500168835294],["coal",-10.880697229453904],["screening",-10.881049319300393],["IP",-10.881261525516654],["tender",-10.881298716308894],["soul",-10.88338224340098],["amp",-10.883424392570028],["05",-10.883570245161776],["Whit",-10.883814463971774],["Vol",-10.884137840197162],["metre",-10.88467263009215],["VI",-10.884854469609877],["hide",-10.88493158028],["Fall",-10.885710470150254],["Ott",-10.886732135388115],["processe",-10.887295511165963],["rath",-10.887501347620692],["angle",-10.888193940293515],["roots",-10.888241134985066],["spell",-10.888559587809139],["generat",-10.891043357207767],["2000",-10.891722510588263],["viation",-10.891745530978723],["GH",-10.89193379144251],["entit",-10.892393199915542],["disappear",-10.892751265590068],["disrupt",-10.892803451508872],["Wale",-10.892923287237565],["surveill",-10.893072472283302],["chapter",-10.893072884630154],["Alabam",-10.893074941920085],["Crime",-10.89308253888982],["weird",-10.893082672042496],["Eli",-10.893102522958731],["premise",-10.893128243675886],["Forest",-10.89314196920293],["sentiment",-10.8931519570225],["Garden",-10.893354961838245],["Edward",-10.893582163905634],["ventilator",-10.89368273379901],["disabilit",-10.893759970632702],["reliabl",-10.89409770847603],["EA",-10.894349851894955],["Anderson",-10.894402534362758],["attendance",-10.894680607931088],["criticiz",-10.894702586431496],["referr",-10.895040400950732],["fatal",-10.895063114074631],["PPE",-10.895146603593481],["Miller",-10.895624505806648],["seeming",-10.895801437692487],["Massac",-10.895864702047252],["inches",-10.896055385096314],["Rod",-10.896260793963197],["beds",-10.896813364154765],["odds",-10.897358949499361],["helpful",-10.897864865683788],["rapper",-10.898701443711598],["confus",-10.89990825896228],["emotion",-10.90061978923454],["refus",-10.90087815664441],["Card",-10.900906957465452],["pover",-10.901402380041876],["Brad",-10.901727322519248],["02",-10.901847065021943],["vocal",-10.901894364451715],["Jona",-10.902495860915984],["resign",-10.9030531831067],["istic",-10.904863031748325],["uring",-10.90502696895068],["ration",-10.905354795552725],["fil",-10.905785236489953],["06",-10.905998488632381],["Cape",-10.906654598751118],["neutral",-10.906677530529546],["stance",-10.907688469213056],["proceeding",-10.908341955524287],["Pen",-10.908539312856329],["Pra",-10.910254954072954],["Mount",-10.910559050104045],["favour",-10.910876096238935],["Brazil",-10.910900309004775],["frustration",-10.910929595696768],["deficit",-10.910929605760622],["physician",-10.9109297145421],["fabric",-10.910929738416097],["statistics",-10.910929780915403],["shield",-10.910929782495487],["chicken",-10.910929800207088],["Vietnam",-10.910932073802396],["Austin",-10.910952505731187],["sensor",-10.910960407182301],["Galax",-10.910967554628462],["terribl",-10.911001950868833],["Alexander",-10.911003147964967],["Channel",-10.911003279369023],["Zack",-10.911050311876956],["Rev",-10.911100182883068],["brown",-10.911159221454575],["liquid",-10.911176147684973],["Hawaii",-10.911478801914692],["verse",-10.911567348215312],["oko",-10.911711641335689],["discharge",-10.911883164068371],["Kyle",-10.911971700905791],["clothes",-10.912063509613505],["Oscar",-10.912261323070657],["cooperati",-10.912410205724843],["aches",-10.913379014669026],["mad",-10.913472756113983],["directive",-10.913731734089557],["oppos",-10.9141637131122],["equipp",-10.914164642043314],["Fre",-10.914479504406943],["Jenn",-10.914606883410471],["Speaker",-10.914971849884257],["impos",-10.916356560542908],["overwhelm",-10.916682283204677],["plot",-10.917676306556721],["carrier",-10.917794037386777],["til",-10.917878876325043],["vow",-10.917967034503814],["personalit",-10.918055812516549],["NP",-10.918697690961789],["Char",-10.918846318847834],["chill",-10.919865788975539],["rant",-10.920106906260237],["1960",-10.920549695143162],["Kay",-10.921583902103027],["Jew",-10.921691144851946],["Cur",-10.921848434350935],["participat",-10.921958362732457],["Korean",-10.922059004196075],["dogs",-10.924310912667018],["sack",-10.924930937227352],["Yu",-10.925330313792943],["Due",-10.925421968719434],["instrument",-10.925554630864784],["tape",-10.925581730555901],["Burn",-10.925622798671377],["operational",-10.92617817728653],["ich",-10.926490832733146],["%,",-10.927769857064053],["rely",-10.928511648385832],["publication",-10.92861607139568],["usage",-10.928944326760496],["ndigenous",-10.929111437433749],["chemical",-10.929113753445137],["loose",-10.929120621421571],["Film",-10.929121985857641],["Given",-10.929155121245145],["stakeholder",-10.9291613366251],["loyal",-10.929165788072064],["Corporation",-10.929179632618707],["Hotel",-10.929284890484459],["drill",-10.929315458562355],["firefighter",-10.92932652337678],["Next",-10.929329948543698],["immigrant",-10.92933110056307],["Evans",-10.929398181220819],["laptop",-10.929423396138466],["consist",-10.929473813411237],["preparation",-10.929514309807391],["Cost",-10.929885769517512],["implementation",-10.930017961901472],["bench",-10.930133569104807],["robber",-10.930182087930458],["timing",-10.930422536804617],["Manager",-10.930463484415384],["smile",-10.930659316355356],["TC",-10.93078313695808],["discount",-10.93082243975885],["chao",-10.931593705607622],["Ask",-10.931867663592282],["Nu",-10.932546098392951],["advisor",-10.932758012882433],["myster",-10.933029027682494],["Members",-10.933073633064767],["Tam",-10.933375360522758],["invit",-10.933669702572466],["Charli",-10.933989767393784],["tale",-10.934661184901767],["deny",-10.936103131427666],["Put",-10.936879839906151],["isolat",-10.937098453633174],["eliminate",-10.93737348035249],["Patric",-10.937794282601589],["Terr",-10.938107179175777],["Turn",-10.939930113553542],["creator",-10.940352062884791],["tenni",-10.942918219337953],["Greg",-10.943034132202378],["Thu",-10.943717672988992],["dispos",-10.944074312070564],["UT",-10.944255827665902],["activists",-10.944690212173441],["anyway",-10.945534441431729],["Balti",-10.945681362285661],["Jon",-10.945816158667407],["Land",-10.94609713193617],["Gree",-10.946693071856778],["spark",-10.946801604198143],["AG",-10.947033065435154],["consult",-10.94725258301246],["principle",-10.947629923497061],["Charlotte",-10.94762997228771],["Resident",-10.947630151992799],["contrast",-10.947630366677028],["taxpayer",-10.947636771195953],["reputation",-10.94763821134197],["Museum",-10.947639136840625],["Bureau",-10.947647033912933],["Wolf",-10.947649527295273],["motive",-10.94765229897467],["Dallas",-10.947717508990582],["magazine",-10.94817333956828],["quin",-10.948222083369782],["Information",-10.948272447877356],["Tour",-10.948545561508013],["supplement",-10.94884635947929],["expression",-10.948860969407464],["Small",-10.948862478015233],["NASA",-10.9489990738622],["Kris",-10.949069906244965],["immunit",-10.949289983265647],["Arts",-10.949771710009726],["issu",-10.950138130801461],["therap",-10.950388287703396],["Collin",-10.950675113248703],["Pelo",-10.951374093610848],["Leban",-10.951688418881096],["Dead",-10.952244383533229],["Morrison",-10.952478744393279],["metric",-10.952488479007656],["ML",-10.952947788172166],["kins",-10.953360691041366],["norm",-10.953361701889579],["coordinat",-10.953441640648467],["bubble",-10.953738992840538],["fur",-10.955220908004147],["2003",-10.955312447339256],["Miss",-10.956129652711374],["reek",-10.956250919466719],["parliament",-10.956544392443636],["cheat",-10.956948787934408],["designer",-10.957687855730192],["ku",-10.958368597472298],["statue",-10.958402691879098],["southern",-10.95982503645625],["metal",-10.959828397457645],["Sometime",-10.960752779080446],["jet",-10.960874812387708],["insight",-10.961397817232967],["easing",-10.96186034477129],["arc",-10.962564944108617],["ux",-10.963126869954202],["EX",-10.963417453585866],["cup",-10.963890574729326],["rip",-10.96466193337097],["Simon",-10.965368914535974],["construct",-10.966230360716969],["Ethiopia",-10.966497848207617],["consecutive",-10.96649784827865],["recession",-10.966497896400888],["drastic",-10.966498111404775],["stadium",-10.96649831162753],["conspirac",-10.966503579660932],["fiction",-10.966505226178388],["Nevada",-10.966505278421396],["boast",-10.966507784551172],["vegetable",-10.966532692698374],["Building",-10.966542688848195],["roster",-10.966576339828348],["regret",-10.966580999162076],["interrupt",-10.966581689116305],["Barrett",-10.966615013278846],["compliance",-10.966630307099223],["controversial",-10.966640773785102],["disruption",-10.9667876990743],["harass",-10.966827190538066],["inspiration",-10.966873219390852],["Glen",-10.967236564875959],["sanitizer",-10.967326206137914],["click",-10.967513784209041],["Major",-10.967735529767467],["react",-10.967752423382025],["girlfriend",-10.967758972705584],["teenager",-10.967787429352406],["tiny",-10.967906358537457],["Bio",-10.968432452821794],["pour",-10.968511553719189],["Sad",-10.968555863989538],["Camp",-10.968907578313143],["Sean",-10.969137545610511],["interior",-10.96913861090106],["hook",-10.969227597513054],["buck",-10.969521836122833],["comm",-10.970221543156997],["obust",-10.970722404031672],["PE",-10.97151849661962],["Technology",-10.971555449918485],["attitude",-10.971585347475989],["repeat",-10.971683171686394],["Fla",-10.972545000905097],["Fl",-10.97277851294103],["investigator",-10.97304102179073],["moon",-10.974094678879744],["para",-10.974172892545031],["strain",-10.974253860998887],["ark",-10.974471849283601],["participati",-10.97452629491252],["exception",-10.976315377020402],["realise",-10.9768590179934],["shoes",-10.977149755118734],["marks",-10.97744340699284],["drawing",-10.978361105688403],["powers",-10.978534854189189],["beta",-10.979014205629097],["Fans",-10.979067395069144],["lights",-10.979166568841693],["overwhelming",-10.97956634304564],["valid",-10.979766233522653],["eem",-10.979780367691315],["commit",-10.98098991901285],["Olympic",-10.982295568718339],["theatre",-10.982643597013388],["poster",-10.982652440240527],["communicate",-10.982676076485866],["gon",-10.983264701011183],["ASDA",-10.984990367855865],["MB",-10.985056061013617],["accomplish",-10.985336426519165],["hike",-10.98539204008849],["graph",-10.98566684184086],["Festival",-10.985728619193718],["Muhammad",-10.985728625569543],["enterprise",-10.985729706600116],["Video",-10.985737019737744],["Support",-10.98574229178693],["breast",-10.985744888592091],["succeed",-10.985753271379474],["Solei",-10.985765915475277],["landscape",-10.985773716372169],["Cabin",-10.985791263004549],["Credit",-10.985877213580851],["Chelse",-10.98597855217038],["Baker",-10.985982381774022],["hired",-10.986035547704102],["conviction",-10.986066030267981],["distribut",-10.986290958824563],["ordinar",-10.98643637257225],["overcome",-10.986590397585736],["replacement",-10.986598106483004],["shine",-10.986605302014546],["audio",-10.986627416799683],["angr",-10.986769157235562],["Columbia",-10.986832651757048],["shower",-10.9872060478229],["everyday",-10.987386042006326],["prominent",-10.987437232365718],["refugee",-10.987699272067466],["augh",-10.987945368984516],["acult",-10.98870573512339],["Orange",-10.988784198969384],["Games",-10.989115319712221],["Kam",-10.989117963414404],["fled",-10.989232606896758],["THE",-10.98977415639519],["promot",-10.990331927397486],["electoral",-10.990387087924738],["genre",-10.990991598771403],["rice",-10.991115500636528],["Met",-10.991241715852555],["Case",-10.991342560477364],["tactic",-10.991607294937294],["ique",-10.992257678549922],["productive",-10.992618785626838],["surround",-10.993023569926162],["1990",-10.99328088113453],["slide",-10.993913298968252],["announc",-10.994570660365435],["Dave",-10.994638928404976],["FF",-10.995998297634484],["belt",-10.99619289374958],["Jean",-10.99714755689687],["Emil",-10.997745887374542],["Mel",-10.998421759854036],["Ap",-11.000564460626665],["aunt",-11.000762128602505],["End",-11.000878382356781],["ootball",-11.001482005405542],["Hunt",-11.002978789685098],["Luk",-11.00326574308713],["Cap",-11.00327728778469],["mari",-11.003830149071574],["contractor",-11.003943734133916],["Coin",-11.005195627202035],["detain",-11.005254271636957],["universal",-11.005336477798782],["silence",-11.00533806393469],["Halloween",-11.005338990143986],["Tennesse",-11.005344291786637],["Brooklyn",-11.005378296012509],["opposite",-11.005394904300065],["premiere",-11.005395261733028],["Jesus",-11.005426083953253],["Connell",-11.005596090903945],["Bruce",-11.005982642180856],["coalition",-11.005991428551365],["Kh",-11.006136566947553],["outfit",-11.006326571083028],["delight",-11.006581797004715],["Phase",-11.006610835602196],["specialist",-11.006825878289975],["Euro",-11.006885978515506],["qu",-11.007033271059964],["button",-11.007457520936507],["Hunter",-11.008135635236917],["0000",-11.009315857100539],["useful",-11.009692597098304],["Bor",-11.009985541764411],["lone",-11.01018863229876],["attribute",-11.01055264159111],["Mul",-11.011361679329266],["crush",-11.012575836112624],["wins",-11.012954472158032],["2023",-11.01375520642114],["1970",-11.014009168720373],["urgh",-11.014282670833593],["exceptional",-11.015486021616667],["mash",-11.015662247895264],["counted",-11.01594067867875],["ucker",-11.017214946248833],["pickup",-11.017987802156322],["Christ",-11.018559725276965],["shame",-11.018914695352418],["prop",-11.01899343444369],["probe",-11.019245282405004],["hiring",-11.020179683469983],["Seven",-11.020236619257883],["receiver",-11.020737409416634],["magic",-11.022960912966912],["Kent",-11.024576003711612],["desk",-11.025176780715686],["mortgage",-11.025336461412254],["religion",-11.025336838913862],["Captain",-11.025340870369291],["entrance",-11.02534129197897],["Philippine",-11.02534853128326],["departure",-11.025357720427014],["utiliz",-11.025361362653666],["vendor",-11.025375458062037],["Ocean",-11.025394151238741],["Order",-11.025540374730884],["sweep",-11.025666748730814],["empower",-11.025710909832783],["Aaron",-11.025715127798307],["Warner",-11.025838916172898],["buse",-11.026272423294845],["discriminati",-11.026521875760613],["bitter",-11.026679260291669],["Resource",-11.027070721914015],["constitutional",-11.027309111810299],["thick",-11.027325293679102],["abb",-11.02794635722244],["Studio",-11.028342233607159],["blend",-11.029197321369047],["seize",-11.029950205930433],["erial",-11.03141364053984],["03",-11.032010705452077],["transit",-11.032397913328388],["ignore",-11.032576689305513],["cab",-11.033451313309138],["deck",-11.034090349328945],["Robins",-11.034600305200367],["NG",-11.035026638051392],["FO",-11.035065579021214],["Find",-11.035448060847855],["Way",-11.03563986681229],["spott",-11.036469194648246],["defender",-11.037541373179549],["LP",-11.039388966485294],["Wil",-11.039696781338119],["arring",-11.040141675543431],["bull",-11.040264913687999],["CH",-11.04051843655375],["igg",-11.041061563020133],["rep",-11.042263022327333],["contribut",-11.044205867384898],["chew",-11.04430138760846],["Sale",-11.044929878717118],["₹",-11.045744623658667],["í",-11.045744623658667],["Representative",-11.045744712062422],["judicia",-11.045745560058913],["muscle",-11.045747173598448],["sequel",-11.045749771085076],["reiterate",-11.04575159573026],["recipe",-11.045753154193628],["educate",-11.04576808613459],["Matthew",-11.045790370101845],["laborator",-11.04581359682035],["Village",-11.045820115887254],["uri",-11.045844028056187],["comprehensive",-11.04593882471276],["adventure",-11.046104949905558],["Roger",-11.04616535662258],["Panther",-11.046172739824204],["Storm",-11.046308123615697],["continuous",-11.046338521995288],["apped",-11.046351410508015],["curfew",-11.0464891119834],["NO",-11.04661720996778],["explor",-11.046815880726113],["Reserve",-11.047049693311363],["spaces",-11.047223573128505],["cle",-11.047246591605136],["lifestyle",-11.047257453976442],["rear",-11.04738581465718],["Line",-11.047417561575802],["5th",-11.047568874204996],["quit",-11.047692497460435],["strand",-11.047781749590222],["permission",-11.048089366739829],["Pick",-11.048265154704115],["grave",-11.048873555304668],["sacrifice",-11.049386516304834],["legitimate",-11.04943739347373],["Philip",-11.049710273302058],["ensu",-11.050318874777236],["aging",-11.050451300983765],["fever",-11.050967566723362],["stunning",-11.05113806921513],["nife",-11.051506055804168],["Cro",-11.051972263621462],["Vanc",-11.05211795099321],["deeme",-11.052346119689155],["wishe",-11.053421147849019],["Bri",-11.054570265300494],["antibod",-11.05481259223922],["uous",-11.054836495968026],["fleet",-11.055825735452355],["erry",-11.055895978914347],["lib",-11.056687555141956],["NCA",-11.057896559816685],["Zi",-11.05837024921549],["documentar",-11.059782993692394],["amendment",-11.060088457492691],["Islam",-11.060224947315566],["Near",-11.0605458940776],["bay",-11.060588368599898],["horn",-11.06119347136335],["departments",-11.061569685545676],["Staff",-11.061684066253296],["midst",-11.062603883007766],["cus",-11.062717135086938],["Pho",-11.062930090830047],["thrill",-11.063003713153886],["Pitt",-11.063167313491135],["recognise",-11.064219040605355],["101",-11.066011143203779],["Cla",-11.066200511594218],["unemploy",-11.066408493765657],["jurisdiction",-11.066577957010052],["phrase",-11.066578020168603],["Aberdeen",-11.06657806592769],["cricket",-11.066578321375902],["Kingdom",-11.066578715588745],["float",-11.066581166534228],["Fauci",-11.066583266364198],["silent",-11.066585641549537],["tragic",-11.066585980418084],["Reuter",-11.066590812805615],["Future",-11.066601386585688],["patron",-11.066621951503212],["substance",-11.066651950666836],["drove",-11.06665427147964],["hawk",-11.066699856653514],["liabilit",-11.06676026981363],["Arabia",-11.066847106330151],["pipeline",-11.06687029468122],["hire",-11.066884217574438],["premium",-11.06699426490962],["hug",-11.067032524248274],["optimis",-11.067104940381169],["settlement",-11.0672447524144],["counterpart",-11.067719071755745],["render",-11.068019151104892],["Andre",-11.068343915072962],["Short",-11.068546345009128],["pause",-11.068720691160191],["Penn",-11.069435686893407],["gust",-11.069727107310943],["consideration",-11.069800604789489],["Bull",-11.070203106862083],["Hell",-11.070749563457731],["Airline",-11.07106319966063],["Rick",-11.071334839443944],["Viking",-11.072556472597105],["versu",-11.072935432531041],["BE",-11.07398418883356],["Allen",-11.075402032941764],["token",-11.076779684589203],["Lev",-11.077212911010532],["CMP",-11.078194631414583],["roit",-11.07837407319247],["span",-11.078652290622433],["Bush",-11.07870339331747],["recycl",-11.079122111197174],["Mag",-11.080437294394503],["temp",-11.081556627990587],["Francis",-11.081924602305275],["cure",-11.082031412747723],["Joy",-11.08236537807054],["nail",-11.082518601694359],["Tele",-11.083980229803084],["Putin",-11.084023580584272],["NT",-11.085174020564404],["Adams",-11.085294239868512],["convention",-11.0854834723555],["ight",-11.086415674815003],["cow",-11.087309920754596],["exhibit",-11.087585258642479],["Lincoln",-11.087854554022453],["hybrid",-11.087854851763451],["sibling",-11.087856695793135],["Summer",-11.087857415672303],["treasure",-11.087861330394452],["Country",-11.08787511454612],["pivot",-11.087880479370687],["occupie",-11.087888478870008],["costume",-11.08790043083863],["Memorial",-11.087915793730806],["Phillip",-11.088062118508423],["apitol",-11.088066180216677],["Graham",-11.088068477296908],["transformation",-11.088318714639348],["Gordon",-11.088331924377671],["gram",-11.088457670458736],["presentation",-11.088775171496533],["revise",-11.089048776952225],["flash",-11.089252506480957],["download",-11.089575541255753],["establishment",-11.08958311141714],["survivor",-11.089591626329668],["bump",-11.09014984571131],["stabili",-11.091341058711638],["mitigate",-11.091523597104263],["happi",-11.091923592022255],["frontline",-11.09209409751241],["elite",-11.092287715542106],["shipp",-11.092335852118914],["Prof",-11.092347195296604],["relation",-11.092975920219365],["activist",-11.09314918136503],["LL",-11.094301752926878],["rallie",-11.094433159201614],["Easter",-11.0948086070171],["lick",-11.094964138326693],["hail",-11.095189807555998],["plea",-11.095311446815975],["itation",-11.09577120501934],["unexpected",-11.096626372568606],["Thai",-11.096719064082333],["menu",-11.097007926423455],["Buy",-11.098469244352353],["trap",-11.09927753231198],["Death",-11.099915891607123],["diet",-11.10039485773137],["organizer",-11.100413444997505],["Ric",-11.100466695612663],["ancing",-11.100492210807078],["shake",-11.10125925177377],["Kal",-11.101656206514194],["dropping",-11.102562829963897],["Hard",-11.102766026665877],["oven",-11.102923396648038],["iga",-11.103248010249262],["Heart",-11.103352932659256],["auction",-11.104048294292285],["tail",-11.104342150436278],["Mall",-11.105614487341532],["labour",-11.106113734362271],["Along",-11.106429660898547],["izer",-11.106849810882293],["injustice",-11.107622002842035],["aq",-11.108048113214426],["Lim",-11.10815572060498],["DR",-11.109331614267912],["furlough",-11.109593683331536],["voluntar",-11.109593684299988],["democratic",-11.10959368537295],["mechanism",-11.109593687953184],["caucus",-11.109593848006883],["congress",-11.109596593349945],["ialogue",-11.109596886357583],["cannabi",-11.109603726011857],["felon",-11.109604851093001],["random",-11.1096530284037],["scrutin",-11.109666201545028],["spiritual",-11.109668022908288],["prize",-11.109683015547347],["boom",-11.10975788747906],["Asset",-11.10984644659375],["Cleveland",-11.109895931020436],["corporation",-11.11027862593521],["Point",-11.110497580772467],["economist",-11.110525039995466],["worship",-11.110842072892353],["exhibition",-11.110928651955875],["partisan",-11.110982879035518],["framework",-11.11116647272764],["membership",-11.112113098984864],["gro",-11.112520811609183],["Cart",-11.11267070456091],["Foot",-11.112837632529036],["Mile",-11.112986705906899],["beef",-11.113563905283478],["Thing",-11.114094666243838],["Rama",-11.114106507093462],["Data",-11.114618356228311],["tooth",-11.114783805361116],["soap",-11.114885467100791],["fate",-11.114991464555208],["Auto",-11.11503003201819],["endorse",-11.115053954637183],["commander",-11.115597541479879],["CM",-11.115635429186232],["inquiry",-11.115678155485643],["NR",-11.116649714483785],["Islami",-11.117380588565211],["ING",-11.118535990939094],["imagin",-11.119449915037507],["acre",-11.120116593830353],["loom",-11.12029048392526],["cater",-11.12041255383178],["AFC",-11.120462703486353],["Der",-11.120848993537653],["glad",-11.12136001576997],["outline",-11.122624788144671],["Iron",-11.122804658546093],["endra",-11.123429469603487],["Kha",-11.123607914358729],["Pass",-11.124068353505297],["Pier",-11.125336478520044],["%)",-11.125996221920776],["Lab",-11.12665930280448],["battl",-11.126722711596317],["Syria",-11.127311307875942],["upset",-11.127462256149352],["trauma",-11.12819417334861],["Direct",-11.1283563632329],["Bow",-11.128939262774473],["Gi",-11.129381955720255],["BR",-11.130125315326787],["Mun",-11.130431193868006],["SB",-11.13077615659631],["lian",-11.131223466677604],["ological",-11.131679883943903],["Conservative",-11.131815905406246],["tremendous",-11.131815906103142],["Similar",-11.131815908155174],["flavor",-11.131815908460624],["Treasury",-11.131815909085468],["Singapore",-11.131815909849692],["obstacle",-11.131815911074584],["ingredient",-11.131815952242256],["Quebec",-11.131816570541908],["stroke",-11.131817210625787],["Douglas",-11.131818375115591],["guitar",-11.131823918241667],["ethnic",-11.131828310182009],["Smart",-11.131983608823278],["prosecution",-11.132019496295653],["consultation",-11.13212992004977],["welfar",-11.13216261030687],["judgment",-11.132185995438947],["introduction",-11.132220788538259],["generous",-11.132243531359425],["crowds",-11.132399763042933],["digit",-11.13242344048123],["fault",-11.132582970854289],["parade",-11.132765793400196],["Blake",-11.133094499013861],["Sar",-11.133313745371577],["pink",-11.133364007569721],["painting",-11.133890062742854],["innocent",-11.134067850998086],["mega",-11.134142103904479],["Gib",-11.134216355666018],["appreciati",-11.134420494646795],["cycl",-11.134458136883282],["lender",-11.134486600996215],["acquisition",-11.134996194573246],["globe",-11.135801566095761],["Brother",-11.135839582069792],["Dean",-11.136187196425038],["Happ",-11.136828060613544],["abad",-11.138195540757945],["heel",-11.138583315587066],["900",-11.140228101938716],["partial",-11.141022040973041],["ector",-11.14113770519292],["pursu",-11.141296150404024],["ICU",-11.141461272105811],["Fred",-11.141649405657324],["Ade",-11.141964012332444],["VA",-11.142934630105936],["declin",-11.1435976146754],["ndroid",-11.144154035662076],["Oak",-11.144776671260654],["Kobe",-11.145113102398279],["Hot",-11.145487664302646],["FT",-11.145527343194917],["Come",-11.145631627500455],["exploit",-11.14568524853319],["Sri",-11.146729477469984],["height",-11.147113925749952],["showcase",-11.14883984533747],["mac",-11.149031444653366],["keen",-11.149198574794651],["shareholder",-11.149215417038764],["immigrati",-11.149333686238558],["Medic",-11.149466777541075],["reservation",-11.149570726503821],["glove",-11.149880025720792],["LC",-11.150268492886164],["tips",-11.150749395581503],["Sho",-11.150991145835064],["Chat",-11.151217442923368],["insider",-11.151265776410359],["litera",-11.15147239105228],["uncertain",-11.15176477883178],["iva",-11.15257284729769],["pac",-11.152795642981664],["itarian",-11.153677422043337],["destructi",-11.153862069041665],["assert",-11.154425355366133],["2004",-11.154447307548697],["efficienc",-11.154543178120976],["Ultimate",-11.154543178243415],["ambassador",-11.154543178258747],["Bangladesh",-11.154543180145343],["reception",-11.15454318468468],["criteri",-11.154543187901236],["athletic",-11.154543375563904],["Field",-11.15454386515891],["Chamber",-11.154546266086644],["exclud",-11.1545490067919],["yellow",-11.154551253405115],["Broncos",-11.154554512763546],["councillor",-11.154563317114759],["flame",-11.154580526365416],["blind",-11.154591525285113],["suspension",-11.15460027124309],["Wayne",-11.154603707723378],["initiate",-11.15460887579586],["Thanksgiving",-11.154631628392295],["commence",-11.1546366702819],["mentor",-11.154643268888025],["Sudan",-11.154718659414414],["nonprofit",-11.154719547209034],["proportion",-11.154727353174627],["ouver",-11.154789730171444],["Duke",-11.154873359847482],["indication",-11.154967015344388],["Nazi",-11.154974551649312],["Roman",-11.154983627604109],["lecture",-11.155002318599186],["Place",-11.155044885905454],["burst",-11.155048732153391],["blaze",-11.155053790993923],["Christophe",-11.155123894486497],["Histor",-11.15527615374582],["stabb",-11.155349492895468],["lev",-11.15543430956604],["crude",-11.155550144351313],["nick",-11.155564022884501],["NEW",-11.155710973182021],["medication",-11.155734270132985],["foul",-11.15607342959035],["Motor",-11.156123376212948],["pregnanc",-11.156235913319009],["Coach",-11.156369984490873],["friendship",-11.156592461833377],["suggestion",-11.15678102401358],["Tro",-11.156911247760805],["Hart",-11.157041371193364],["Tax",-11.157208303544177],["Mol",-11.157549602198948],["deserved",-11.157836876593123],["Camero",-11.159095445504137],["prisoner",-11.159174061821263],["pole",-11.159678442011124],["reverse",-11.16003097515002],["Gill",-11.160042931617053],["Cub",-11.160279849584418],["Thanks",-11.160704399803802],["preserve",-11.160987434865229],["jam",-11.16106901380429],["arcelo",-11.162326724670663],["refresh",-11.162380471477116],["kit",-11.16248870148841],["Jud",-11.162573123565435],["Nam",-11.164787044894645],["Knight",-11.166620562404079],["aki",-11.166784948895675],["tory",-11.167381420242872],["ranking",-11.167932994371505],["traffick",-11.168200927260724],["MT",-11.16953975289012],["ound",-11.170224612389204],["picking",-11.170449926248219],["Being",-11.171332197503872],["noon",-11.173548006714404],["unfair",-11.174286938255843],["McK",-11.174491733319693],["credible",-11.175297553303231],["ike",-11.17594987277494],["shell",-11.176952562647775],["flaw",-11.17702782338457],["traged",-11.177352202091868],["subscription",-11.177799020431262],["phenomen",-11.177799044612323],["Picture",-11.177799652970409],["enormous",-11.177800576133984],["volatil",-11.177802154084986],["mirror",-11.177811400773198],["compell",-11.177818739539354],["atmosphere",-11.177826773314493],["Titans",-11.177867340956212],["incentive",-11.177869033023471],["apologize",-11.177914042867274],["View",-11.17791699296223],["Assistan",-11.177960729732522],["Mau",-11.177963667740094],["Talk",-11.177997872211163],["compound",-11.178033272717242],["Hawk",-11.178165212493067],["accompanie",-11.178171229046178],["cancellation",-11.178299812191643],["confirmation",-11.178351141897805],["PG",-11.178380076795438],["Girl",-11.178510301071615],["ouisiana",-11.178642098355416],["Hopeful",-11.178663173576489],["adjustment",-11.178676442302608],["hospitalization",-11.179040312591725],["Saskat",-11.179127158943665],["fift",-11.179142096230898],["feedback",-11.179232754252485],["endanger",-11.179361312036047],["Kamal",-11.179874154745836],["tenant",-11.179907748597865],["Low",-11.17992128821598],["administer",-11.180045261528758],["var",-11.180180054223204],["Dark",-11.180246713609375],["Ker",-11.180423778016433],["vard",-11.18049751977691],["Labor",-11.180501908129914],["limitation",-11.180868246805979],["rib",-11.181400293017584],["dip",-11.181506332697015],["Tak",-11.181643264221156],["Olympics",-11.181974867113118],["loot",-11.182515553886308],["beneficiar",-11.182581005466758],["Unlike",-11.18282446865975],["migration",-11.183159378568273],["bold",-11.184294576593695],["origin",-11.185722488261217],["lowes",-11.185795350471913],["zel",-11.18599080008643],["supplier",-11.186223375473277],["lig",-11.187138670788274],["bil",-11.187209639471826],["Nat",-11.187472850378407],["offence",-11.18778728457789],["NU",-11.18801697372207],["00000",-11.188345029856997],["Know",-11.188507032208731],["restor",-11.188557946798856],["CR",-11.188905305794533],["acres",-11.189354710875488],["sideline",-11.189440516601188],["zer",-11.19007783723045],["chase",-11.190083267876162],["flee",-11.190329939589036],["zen",-11.191226488649193],["plac",-11.192832966080115],["Fer",-11.1930447617502],["completi",-11.194709204094117],["valent",-11.19507285222316],["RP",-11.195338139549019],["cro",-11.195566656297972],["trappe",-11.197251608200224],["terroris",-11.197580462079609],["Fle",-11.197601626039976],["relie",-11.198072572015294],["constitution",-11.198475751222507],["Merc",-11.198558699570581],["lop",-11.19939942695542],["bath",-11.199431604850371],["rage",-11.199522169533811],["pure",-11.19997523191249],["lover",-11.200221494049519],["lining",-11.20064671607417],["lifetime",-11.201147997315303],["stall",-11.201253974880256],["innovati",-11.201404876763675],["anime",-11.201478610432108],["trait",-11.201484157927473],["commerc",-11.201515937658616],["Journal",-11.20151606630153],["pump",-11.201543656020217],["complication",-11.201608515956654],["administrator",-11.20160852594632],["Pompe",-11.201608716566131],["Edmonton",-11.201608889863522],["Librar",-11.201610014378426],["semester",-11.201611153258149],["Entertain",-11.201612714362108],["inflation",-11.201619541003843],["inevitabl",-11.201620047077341],["Square",-11.20162799358248],["Could",-11.201640411146865],["accommodation",-11.201655589382039],["Berlin",-11.201659727140626],["activat",-11.201678017986861],["Morning",-11.20171776701035],["dirt",-11.201734164408025],["vary",-11.201741463038392],["milestone",-11.201757253674645],["crete",-11.20176072596481],["Calgar",-11.201820958234862],["Kumar",-11.201837012701088],["bullet",-11.201946103882129],["robot",-11.20198757403423],["apolog",-11.20201084141184],["Operation",-11.202014226108933],["Fargo",-11.203009496933142],["Players",-11.20308063904385],["mil",-11.20328610370834],["hits",-11.203311257483263],["designate",-11.203353987745114],["possess",-11.203739557236492],["entitle",-11.205271526779876],["Stay",-11.205875708018151],["ult",-11.2058967807588],["chef",-11.206110921773433],["Ji",-11.206685775383576],["Qui",-11.206798271628514],["raft",-11.206831971848155],["Bond",-11.207424289492188],["Kansa",-11.2085048578632],["iko",-11.209134516459322],["hou",-11.209333754939234],["intentional",-11.209449969420012],["pad",-11.209594847508695],["Jen",-11.211270978846695],["Gal",-11.21257159738001],["submit",-11.214452618423252],["alien",-11.215206956615251],["scam",-11.215951637046242],["ranch",-11.215979821954512],["cott",-11.216401200568527],["audit",-11.216731691058309],["gri",-11.216952618726605],["Lock",-11.217036239308793],["restore",-11.217080893887658],["Event",-11.218431438753507],["grain",-11.21863578007103],["drain",-11.220152295838478],["Edo",-11.220177955375188],["Carol",-11.220736775405374],["Walla",-11.221484674843953],["grab",-11.221637669414871],["escalat",-11.22169270159931],["pastor",-11.221956493426998],["shaw",-11.222053230445223],["bow",-11.222771696355577],["lyric",-11.222804106731129],["recount",-11.223326447133452],["DN",-11.223411175046069],["eath",-11.224082627937108],["solo",-11.224613849825825],["Hamp",-11.22471747522704],["workout",-11.225001687202159],["restart",-11.225282345405422],["Broad",-11.225515049968932],["hygien",-11.225998760111503],["calendar",-11.225999272306568],["Spider",-11.2259996851661],["certificate",-11.226001855256548],["universe",-11.226001972402287],["Consider",-11.226010486968125],["external",-11.226011379657267],["mineral",-11.226016800694275],["bunch",-11.226032111661183],["Section",-11.226039852917088],["Palace",-11.226103451633552],["Liberia",-11.22612577097199],["seal",-11.226225426697408],["scandal",-11.22625434304947],["Jerem",-11.226283817913293],["FM",-11.226365035146962],["Record",-11.226367071340773],["Giant",-11.226390515914156],["Alaska",-11.226473044890394],["dump",-11.226567634663866],["Enter",-11.226625058717293],["circle",-11.226643522879318],["nutrition",-11.22669307787124],["Maryland",-11.226748097144945],["breakfast",-11.22691239194519],["Pittsb",-11.227115390766667],["Gray",-11.227709947938308],["refer",-11.22789758056794],["Libya",-11.228225442915448],["ava",-11.228285352842004],["bul",-11.228294059641698],["involvement",-11.228343472095746],["removal",-11.228425279104531],["patch",-11.22851293262237],["riding",-11.228805616124767],["Mail",-11.229244043131944],["Jane",-11.229345680087523],["Recent",-11.229535519857151],["communicat",-11.229626160522],["fundrais",-11.229664797963387],["Madri",-11.23026745149605],["decent",-11.230457599970514],["mont",-11.231233837950642],["VE",-11.231775850044844],["deau",-11.232677306875448],["mur",-11.232812503905901],["leans",-11.232814795932095],["AB",-11.233311959195179],["mood",-11.233494765065128],["Neil",-11.234137484277515],["kiss",-11.23441023425167],["SF",-11.234662621986342],["ownership",-11.234941113931281],["dependent",-11.235006569644657],["dust",-11.2358510114377],["1980",-11.236337902297109],["gay",-11.23743626007567],["shout",-11.237669276537392],["lens",-11.238432290091435],["04",-11.238608356518274],["Dev",-11.23940934524379],["lineup",-11.239660516530643],["Change",-11.240181665303353],["HR",-11.240644972681185],["Antoni",-11.240734789783549],["tube",-11.24125736935221],["mob",-11.242212871540561],["mum",-11.24225143541002],["grid",-11.242675685151474],["freeze",-11.243550960362468],["thread",-11.244134179099408],["Rome",-11.244884782479026],["pric",-11.245084597039448],["Note",-11.246571221236543],["RM",-11.246974744374182],["accessib",-11.247548492056062],["Trans",-11.247906079647343],["bless",-11.248221108093384],["matur",-11.24887813504946],["sweat",-11.249536760279625],["Lane",-11.250553911913732],["punish",-11.250647298067134],["calculat",-11.250729107363375],["pharmac",-11.25090792558491],["column",-11.250912058407572],["Commerce",-11.25099885603251],["exhaust",-11.250998915826749],["evident",-11.250998979635071],["Communication",-11.250999045916389],["deliberate",-11.250999051671855],["emphasis",-11.250999149885082],["Federation",-11.250999233885324],["nervous",-11.250999357519516],["romantic",-11.250999971410621],["fantasy",-11.250999972125548],["civic",-11.251000027513259],["Internet",-11.251000621723632],["anxious",-11.251001208719119],["diamond",-11.251001219434073],["Receive",-11.251001285357166],["commodit",-11.251001501237626],["Modern",-11.251004220697872],["embass",-11.251010670780351],["fool",-11.251012245511246],["Electric",-11.251013925594359],["borough",-11.25103704730363],["ecosystem",-11.251059908946715],["convey",-11.251089163266315],["decorat",-11.251112014249706],["genetic",-11.251119645351821],["intimate",-11.251201953471542],["affirm",-11.25123205190904],["comparison",-11.251289227220537],["Laura",-11.25131100804246],["disagree",-11.251372890445866],["meaningful",-11.251527998674238],["Update",-11.251547618630065],["safeguard",-11.25168507163686],["shadow",-11.251871910943457],["wildfire",-11.252100355801405],["rian",-11.252568426346484],["Greek",-11.252718699199274],["hom",-11.253037844130994],["disorder",-11.253200127198362],["Rom",-11.253311582439977],["swimm",-11.253758460037558],["devote",-11.253789777682986],["Calif",-11.253842520476226],["breed",-11.254097613025486],["Roy",-11.254139661036438],["haunt",-11.254292437245315],["preference",-11.25432569172781],["Eve",-11.25469759509463],["Champions",-11.254702709644103],["intent",-11.255195016746553],["institute",-11.255496914595547],["pig",-11.255924272092704],["trim",-11.256940918075053],["tired",-11.257705788454908],["Creat",-11.257869131905775],["brush",-11.258261028986738],["pping",-11.25827782691268],["Gor",-11.258585469879495],["bats",-11.258631893601816],["FL",-11.259318394802952],["Mexican",-11.261348646007757],["aving",-11.26189590503822],["Join",-11.261986303014448],["reminder",-11.26206037304712],["350",-11.262708444089183],["izz",-11.262923980173209],["220",-11.262934931141846],["sovereign",-11.263531325709838],["CD",-11.263985318176006],["solv",-11.264106995841402],["Olive",-11.264296823422363],["Hud",-11.264427267756215],["accord",-11.264430970788172],["Log",-11.265401325222888],["ntil",-11.26544506592851],["processor",-11.265514602790432],["Daw",-11.265704064514921],["None",-11.266347647713426],["Robin",-11.266521178352967],["rub",-11.266886692784215],["depressi",-11.267933671475644],["municipalit",-11.268358172500518],["Page",-11.26870564781395],["borrow",-11.268929174447956],["Thor",-11.270881246370994],["bug",-11.270959656372185],["Carr",-11.270959666109926],["stain",-11.271431312751474],["arrow",-11.272638032350194],["oversee",-11.272702016398352],["instruct",-11.27291998560462],["eller",-11.27333366247501],["Boe",-11.273440415885302],["advoca",-11.275025761105647],["APC",-11.27518956792548],["Mississippi",-11.276639785427447],["earthquake",-11.276639791312531],["Taiwan",-11.276639951137488],["mutual",-11.27664037546966],["Doctor",-11.27664078986694],["Temple",-11.276640967367232],["ESPN",-11.276641464814295],["autonom",-11.276643071479455],["Critic",-11.276644645555514],["Ahmed",-11.276650506829446],["thorough",-11.276652089914354],["Citizen",-11.27665214620773],["uniform",-11.276669669454144],["socio",-11.276670760844205],["excuse",-11.276674001258527],["Malawi",-11.276695342264905],["NYSE",-11.276704036950605],["Think",-11.276729537696863],["dispatch",-11.276734775009803],["Jerr",-11.276770162274376],["constituenc",-11.27677570442864],["solida",-11.276795143644922],["Metro",-11.276839026761643],["determination",-11.276846631460442],["cough",-11.27692515157434],["animate",-11.276925353193153],["hotspot",-11.277027527889793],["Doug",-11.277065644041285],["caption",-11.277224996017154],["weakness",-11.277272058503875],["Dodger",-11.277302301931694],["greet",-11.277311723554167],["observation",-11.277557288846834],["Maria",-11.277679210953174],["Victor",-11.277874370418235],["Mother",-11.27789789419669],["cute",-11.278152413147444],["supermarket",-11.278245665023011],["declaration",-11.278571173470583],["laz",-11.278988237173],["notifie",-11.279095933703287],["preferred",-11.279261453189172],["crossing",-11.279441874160831],["Train",-11.279557663463303],["organ",-11.279992817617947],["REN",-11.280029249853795],["unlock",-11.280145641701184],["refund",-11.280863961983147],["Hay",-11.28089715507198],["ambition",-11.28100391811963],["rode",-11.281866235256715],["stating",-11.282195620808846],["rental",-11.282226689673191],["emphasize",-11.282374912802055],["Pet",-11.28295779410187],["Hous",-11.283090255993468],["pride",-11.283370910485772],["Atlanti",-11.283530523657543],["relieve",-11.283580075204908],["bro",-11.283671079967782],["folk",-11.283807086862058],["Brie",-11.283917335777048],["starter",-11.283965612360793],["Born",-11.284166761338682],["spectrum",-11.286066627622862],["performer",-11.286176530795837],["Kra",-11.286305572800638],["CAA",-11.286917258911075],["grabb",-11.287566672895421],["Side",-11.288919914591947],["Nad",-11.289076428601886],["Jenni",-11.289151475795977],["killer",-11.28921172225563],["Laker",-11.290490919049853],["grie",-11.292266082959081],["rop",-11.292354152082925],["Anne",-11.29236654400722],["Kath",-11.292409951523377],["timeline",-11.293701563913848],["legislati",-11.29394286889703],["pil",-11.29446067259358],["kits",-11.294543660542079],["plug",-11.295226812812064],["Pun",-11.295583640228093],["cord",-11.296340647685952],["Bol",-11.29656128585606],["Start",-11.296891011815024],["Prade",-11.297040866742993],["Christin",-11.297146773007366],["allen",-11.297265412036854],["()",-11.297295766845345],["polluti",-11.297428626412154],["griev",-11.297728942960614],["enabl",-11.29792635238737],["Nag",-11.298864592879438],["rak",-11.299053417639584],["Kol",-11.299664779153193],["resistan",-11.299759974829191],["ridge",-11.300489238637384],["Sport",-11.300534807672813],["programm",-11.300869923321503],["Set",-11.301231913165495],["discriminat",-11.30139302274708],["Teh",-11.301839958367115],["KA",-11.301991312134746],["influen",-11.302233863841993],["ounce",-11.302679381459248],["courage",-11.302717275830428],["pension",-11.302929425655378],["Venezuela",-11.302955574903953],["incumbent",-11.302955575156302],["diagnosi",-11.302955576322393],["unanimous",-11.302955579710114],["Municipal",-11.302955605082051],["concession",-11.302955626786147],["Agreement",-11.302955646881744],["suspicion",-11.302955655478877],["Oxford",-11.302956002849843],["Craig",-11.302957127863154],["Indonesia",-11.302958673414379],["Superintenden",-11.302959672472419],["Window",-11.302959714498407],["chamber",-11.302960141742078],["Provinc",-11.302960810706974],["applicant",-11.302989376499827],["steel",-11.30299390186027],["psychological",-11.302994352916347],["livelihood",-11.303078242439394],["preced",-11.303081048892613],["Uganda",-11.303092638181878],["twist",-11.303112093180015],["Clear",-11.303112927519322],["rookie",-11.303113467442303],["persist",-11.303114684236126],["detention",-11.303159067674688],["submission",-11.30328711012495],["asty",-11.303380832951163],["alia",-11.303401018135833],["hardwa",-11.303436603848812],["ultra",-11.303576867029347],["Montana",-11.303703954795155],["memorial",-11.303840167430135],["pretend",-11.304322147002361],["160",-11.30459832896306],["Price",-11.304810702561927],["anne",-11.305171751401913],["enroll",-11.305876019489737],["Hua",-11.30619686562436],["Tali",-11.306196962229397],["merit",-11.306407779256716],["coordinator",-11.306575436517686],["Kil",-11.306595340637395],["Remember",-11.30695828552146],["mock",-11.307857936732201],["sentenc",-11.307879487358804],["reign",-11.308114879786192],["loop",-11.308151543984263],["Much",-11.308331912467523],["logg",-11.308904298962664],["discipline",-11.309653192671586],["Off",-11.31097405849123],["loving",-11.311807974026777],["reinforce",-11.312045139626157],["charm",-11.312159313844548],["spice",-11.312220166481206],["nerve",-11.312485392030625],["occasional",-11.314652130612496],["minimal",-11.314866338380941],["breathe",-11.315493363224881],["Michell",-11.315850680893952],["Rac",-11.316685204006927],["comb",-11.317247232006624],["Dian",-11.317825721854865],["Say",-11.318171603385226],["transparen",-11.318273309177851],["excite",-11.318430730461891],["Fur",-11.319285378269617],["Youth",-11.319309599757478],["CY",-11.31956383659692],["udi",-11.32038087938128],["Kir",-11.321339946478991],["salarie",-11.321494184943022],["ugh",-11.322238746507743],["Steel",-11.322442483987102],["fame",-11.322692870875986],["euro",-11.32314508290876],["Jak",-11.323157323338501],["avage",-11.32432226887645],["Partners",-11.325054785636734],["rob",-11.325102094931172],["toxic",-11.325545685091798],["resilienc",-11.32667072579644],["hence",-11.327286161017318],["Child",-11.328279037338053],["Key",-11.32827907072956],["disinfect",-11.328346809653217],["Lot",-11.328820778801711],["Beyon",-11.329096670996684],["aspir",-11.329760410709717],["Caribbean",-11.329982603009668],["authentic",-11.329982633272014],["condolence",-11.329982692190864],["expenditure",-11.329982698967864],["ambulance",-11.329982736417213],["inclusion",-11.329982839132821],["engaging",-11.329983569865334],["Friends",-11.329985402418462],["Missouri",-11.32998780849366],["Diamond",-11.329988448785992],["firing",-11.329990706314494],["Nichol",-11.329995230171319],["Policy",-11.329995636894248],["Digita",-11.330002156988588],["cheese",-11.330009630948991],["striking",-11.330017364811214],["Campbell",-11.330019283239821],["pizza",-11.330021529576072],["casino",-11.330030265710045],["constitute",-11.33003577993829],["buzz",-11.330050381940332],["Tyler",-11.330051316026639],["mysterious",-11.330078513237632],["Protection",-11.330090220202324],["radical",-11.330120310583954],["honey",-11.330125065010886],["Kennedy",-11.330125729467285],["Kur",-11.330164393852748],["Medicine",-11.330175027876898],["bankruptc",-11.330253212980228],["haul",-11.330410729983862],["depict",-11.330727490543627],["HING",-11.330729747815818],["realiz",-11.330834083858885],["Mom",-11.33093477835565],["impress",-11.331179204217625],["tire",-11.331203513115796],["Cho",-11.331897521258115],["FDA",-11.332037776572447],["centur",-11.332535718339376],["enix",-11.332812314100078],["assumption",-11.332820706230438],["Corn",-11.33292003586677],["castle",-11.333429127424914],["Dick",-11.333596772676804],["Shop",-11.333793421919141],["ruin",-11.333997995552096],["Step",-11.334176100320674],["awesome",-11.33437443228008],["Deb",-11.335090280226977],["Mack",-11.335880417366013],["Marine",-11.336144433173803],["Natural",-11.336647333620498],["originat",-11.336764929672018],["Front",-11.337130804595553],["facilitate",-11.337479081152942],["shocking",-11.339974018954218],["auke",-11.340069709707278],["HC",-11.341290550615465],["Pac",-11.342185085154734],["EV",-11.342439611808203],["Jess",-11.343329144856664],["clu",-11.34368152187739],["Newsom",-11.345247009236067],["Shah",-11.345398333793028],["Dog",-11.345777604720533],["Communi",-11.346319680878567],["LT",-11.347290944837704],["gli",-11.347924875338949],["Xi",-11.348124499277983],["Olu",-11.34824860433902],["undergo",-11.348968798511956],["Sure",-11.350425647369168],["PF",-11.35121094172638],["butter",-11.351339330233728],["Jessi",-11.351354035449228],["Cole",-11.351492972618985],["notion",-11.351554252190754],["Rad",-11.351986059533289],["wrestl",-11.352885067083623],["pri",-11.353534669923562],["Wright",-11.353902285818204],["suburb",-11.353941688974668],["eau",-11.35485717294704],["clue",-11.355361401507233],["Latin",-11.35592700439981],["dual",-11.35627955325169],["ril",-11.356412482373667],["conscious",-11.356938753789489],["pine",-11.357212914060886],["philosoph",-11.357760379705933],["evacuate",-11.357760380526777],["kilometre",-11.357760380778934],["compensation",-11.357760383005447],["Veteran",-11.357760500912516],["Convention",-11.357760625087948],["Globe",-11.357762810053469],["eviction",-11.357763431880246],["stupid",-11.357763715994555],["Animal",-11.357768304880294],["examination",-11.357769861903167],["financing",-11.357781052489038],["Russell",-11.357784500336543],["kov",-11.357788420552296],["Weinstein",-11.357796195471014],["covid",-11.357796524626384],["swift",-11.357801830807524],["Queensland",-11.35781166068235],["Murra",-11.357818922719858],["contrar",-11.35784029337852],["abortion",-11.357841048527945],["Technologi",-11.357865573734047],["Vision",-11.357869505318524],["isdom",-11.357876369147094],["offender",-11.357943679132235],["bathroom",-11.358026105670833],["impression",-11.358038685633051],["wire",-11.358044557143108],["Spence",-11.35806916504718],["prosper",-11.35807447534063],["punishment",-11.35819258260678],["Sign",-11.358431718157856],["defendant",-11.358456121677182],["painful",-11.358529758176202],["Finn",-11.358565287394601],["Perry",-11.358761547923077],["melt",-11.358887865093982],["pointer",-11.358956596357114],["filmmaker",-11.358987770455293],["uz",-11.358997046532757],["motivation",-11.359096303257376],["demonstrator",-11.359186164783894],["alliance",-11.359222943800937],["steer",-11.359431554711753],["Gil",-11.359489665994612],["Buck",-11.359498389546804],["feat",-11.359511094642889],["decid",-11.359839472253856],["damn",-11.359895772017472],["allocation",-11.360599305013839],["gomer",-11.360715528101302],["1000",-11.360725246992232],["magn",-11.360842552668256],["anticipat",-11.360949394427992],["Rating",-11.361726710186938],["ETF",-11.362001951922291],["Dragon",-11.36218192017395],["representation",-11.362292202822584],["wrap",-11.362925840685135],["Baby",-11.363161501594238],["stranger",-11.363270220186097],["pie",-11.363389318748009],["connectiv",-11.363567135789168],["Store",-11.364552702784088],["skeptic",-11.3646979935609],["raj",-11.364933389236558],["endure",-11.365613440440523],["orbit",-11.365691505652896],["poiler",-11.365730812009717],["arrange",-11.366163917937628],["liqu",-11.366424268120618],["ragged",-11.366855402649684],["yder",-11.367398052286289],["fusion",-11.367998915966941],["venge",-11.368106179747711],["fisher",-11.368433729905625],["Farmer",-11.368611570560518],["ogether",-11.368794714059229],["Cav",-11.370856456042826],["Rio",-11.37087815977534],["kel",-11.37146110324328],["Brun",-11.37303278798263],["believ",-11.374368814505353],["DJ",-11.374459092068854],["bonus",-11.374666602023133],["positiv",-11.375815535183817],["secur",-11.37600222006046],["Member",-11.376751738265686],["notabl",-11.376835607213728],["Pop",-11.376966165156034],["trash",-11.377381803631007],["cru",-11.377561390154204],["echo",-11.37763994255932],["Hold",-11.378045141596978],["welcom",-11.378085892886459],["umble",-11.378351933717907],["bvious",-11.380009018830084],["ipping",-11.380141777140873],["nov",-11.380385653938614],["donor",-11.380551809143359],["disc",-11.381141652073993],["memo",-11.38160449305299],["Shu",-11.38164047227312],["patrol",-11.381973270400172],["cca",-11.382292780227026],["Salt",-11.384338906919417],["hack",-11.38502858864999],["overlook",-11.386270097403886],["Harrison",-11.38632800767488],["vaccination",-11.38633180828152],["affiliate",-11.386331825028666],["ophomore",-11.386331881407092],["frustrating",-11.386331925715297],["preliminar",-11.386331963450626],["prevail",-11.386331992193314],["vacation",-11.38633203832661],["Malaysia",-11.386332214863929],["rhetoric",-11.386332501155971],["plague",-11.386332526034982],["mechanic",-11.38633274171124],["deteriorat",-11.386332798154399],["definition",-11.386333138478829],["oxygen",-11.386333892210796],["Punjab",-11.386340866470618],["streak",-11.386344407840129],["Custom",-11.386344702481328],["Would",-11.386345276744194],["cruel",-11.386364074884408],["desert",-11.386370013289644],["foster",-11.386379912280447],["Tampa",-11.386458964258832],["wicket",-11.38657432457274],["Alliance",-11.386601938074122],["confrontation",-11.386813819996984],["Writ",-11.387097140096879],["Mohamm",-11.387240486996278],["realistic",-11.387251495717047],["Living",-11.38731862372375],["revolution",-11.387325410177912],["terminal",-11.387398280982902],["Run",-11.38745409209934],["suppress",-11.387462559773308],["Engineer",-11.387486501552821],["deployment",-11.387599353970181],["drown",-11.387672648525431],["Jamie",-11.38778642092555],["Belgi",-11.387847834420466],["bulk",-11.387898135026468],["coc",-11.38800440019294],["Helen",-11.388342252473231],["Drug",-11.388442484009031],["Horn",-11.38881084372758],["BL",-11.389086395505853],["specialize",-11.389221289349493],["Margar",-11.389287423951625],["Winter",-11.389398395330304],["Found",-11.3897357283339],["Theatre",-11.390292252383622],["GE",-11.390537041505027],["Poll",-11.390938328236206],["terror",-11.391108254639896],["oka",-11.391108630691928],["feeding",-11.391404239695243],["bane",-11.39173541341247],["TD",-11.391769050854053],["Learn",-11.392147532318422],["pipe",-11.392444981022415],["Grace",-11.393491656602492],["riders",-11.393528099000678],["Moh",-11.395133263552868],["cient",-11.395188191366486],["Pete",-11.395633436451682],["container",-11.396069547529269],["DF",-11.397138342147468],["boundar",-11.397225385819972],["Weather",-11.397236132206078],["okay",-11.397403211709493],["blog",-11.397761665593242],["grace",-11.398277915048292],["Him",-11.398448404703323],["induc",-11.398616670955219],["RAM",-11.400143172699018],["cargo",-11.400925684309508],["resumpti",-11.401162524468337],["stair",-11.401303334088944],["Use",-11.401474457820015],["Michel",-11.40195578040326],["tower",-11.402140650909445],["McCa",-11.40214155597818],["Code",-11.402359451383678],["awful",-11.402380328476976],["Intel",-11.40242647254937],["incorporate",-11.403908388249969],["EE",-11.40441174457505],["Cul",-11.404583474869892],["pants",-11.405291203040568],["worsen",-11.405411147227976],["choos",-11.406241671815271],["Macro",-11.406748756540276],["administrati",-11.406826430197484],["pron",-11.407725405761987],["iza",-11.408151701848695],["highway",-11.408625269341048],["lade",-11.409261112233185],["Ng",-11.409604711844043],["Coming",-11.41002706732073],["shopper",-11.411019897977697],["uana",-11.41275085956277],["prosecut",-11.412934599248436],["owing",-11.413055050723287],["Walm",-11.41327004979923],["rigg",-11.413440974162214],["Johnn",-11.413941901823375],["Clar",-11.41523963582042],["publisher",-11.41541626880145],["distinct",-11.415465389945249],["scholar",-11.415575226668533],["enthusias",-11.41564783987128],["differ",-11.415650831096292],["Belarus",-11.415690600600374],["structural",-11.415742724489],["ridiculous",-11.415743573021995],["legislature",-11.415743573061691],["Nebraska",-11.415743574201652],["supervisor",-11.41574374556394],["Samuel",-11.41574397917818],["variant",-11.415744129946368],["embark",-11.41574417654926],["Lawrence",-11.41574438730057],["parallel",-11.415744701071585],["pepper",-11.415744727290333],["concise",-11.415744963180526],["lobby",-11.41574796289985],["stagger",-11.415753929769735],["surrender",-11.415756286889073],["Legend",-11.415756350108161],["monument",-11.415758974978669],["Celebr",-11.415762744066331],["Arsena",-11.415764258364966],["LGBTQ",-11.415777103138424],["elevate",-11.415784652292597],["Budget",-11.415827630816494],["logistic",-11.415828479039833],["implication",-11.415828488369865],["cafe",-11.415842954033105],["Limited",-11.415847907251504],["crown",-11.415889821361487],["Left",-11.41589217334386],["Madison",-11.41590364409686],["exemption",-11.415941591798116],["distress",-11.415968393740577],["surpass",-11.41598183496202],["Bishop",-11.416049977104334],["corrupt",-11.416253533414732],["laughter",-11.416310498289045],["sheriff",-11.416340293673942],["Link",-11.416355078272808],["Oil",-11.416360639363015],["Face",-11.416443642043188],["attractive",-11.416534192784805],["contestant",-11.416610405598972],["evaluate",-11.416734951125806],["brows",-11.416790236588053],["thankful",-11.416929309767085],["OR",-11.417027392711253],["consent",-11.4172081499607],["ladi",-11.41724769107784],["garage",-11.41727250436737],["facial",-11.417353816960423],["accusation",-11.417723786633994],["brave",-11.418263453631543],["survival",-11.418403170435537],["farming",-11.418593640414215],["Jose",-11.41888034774799],["Sid",-11.418957082601398],["Lynn",-11.419623337832487],["Box",-11.419645962422802],["stabiliz",-11.419711289836648],["liance",-11.419739918240825],["Environmental",-11.420067960250085],["spy",-11.420651603247823],["Wind",-11.420666958074621],["batt",-11.42072015479653],["damag",-11.420771199522534],["igh",-11.421279906331547],["Father",-11.421371302403685],["thru",-11.421830011548034],["BT",-11.421847478711419],["Gregor",-11.42294367912537],["disable",-11.423431861327721],["interi",-11.424302101751755],["Nine",-11.424487951333075],["WAS",-11.424684718769146],["Sel",-11.424787221989398],["Arn",-11.425223262807664],["photographer",-11.425239109772118],["Hur",-11.425774784650583],["Nanc",-11.425963726421028],["hunter",-11.4276938909498],["Uber",-11.427935460852622],["EL",-11.428231463016363],["lude",-11.428295205372683],["Flo",-11.42860773648391],["broker",-11.430259885607459],["criticise",-11.430669133385738],["bind",-11.431233039283239],["Sim",-11.431316445028994],["parliamentar",-11.431543625522483],["Jar",-11.431787089211923],["Ghos",-11.431870781094334],["remarkabl",-11.432258673969818],["uncle",-11.432834911440292],["immer",-11.433478318576162],["logy",-11.433569879071625],["Kadu",-11.433992059340058],["accelerat",-11.434535279729491],["cement",-11.436456614058734],["leverage",-11.437201617111722],["availabilit",-11.43800967521022],["withdraw",-11.439237428333879],["servant",-11.439415433014096],["demo",-11.439478908361853],["Full",-11.440205072373452],["bully",-11.440492960952001],["ambitio",-11.441798063965285],["Arc",-11.443543637285135],["peg",-11.44384349391147],["afterward",-11.443916520945743],["output",-11.444021886855502],["Barne",-11.444334273326106],["sink",-11.444420485633099],["controvers",-11.445815810468895],["certifi",-11.446042462360479],["evacuation",-11.446046603355514],["embarrass",-11.446046603426021],["Restaurant",-11.446046604071148],["collision",-11.446046624514864],["awkward",-11.446046659094096],["cautious",-11.446046666505609],["Organisation",-11.446046668390016],["Consumer",-11.44604740459056],["Liberal",-11.446048465095991],["Hopkin",-11.446049861857974],["purple",-11.446050087578605],["Peace",-11.446053820473242],["Grammy",-11.446054523156032],["Bennet",-11.446059126277277],["Fraser",-11.446059747945451],["pronounce",-11.446060410066389],["devastate",-11.446066036480879],["competitor",-11.446070038349356],["Secret",-11.446082292202343],["Keith",-11.446090944418598],["Dublin",-11.446093304503423],["testimon",-11.446120357915035],["Bailey",-11.44612429836602],["graduation",-11.446175918111596],["tighten",-11.446212708179052],["filter",-11.44628515356342],["protein",-11.44631185896348],["excessive",-11.44631465175732],["inventor",-11.446333318775757],["jack",-11.446363811831569],["benchmark",-11.446365744301637],["weaken",-11.446367807496157],["Mann",-11.44636786091962],["childhood",-11.446384063156948],["disclosure",-11.446462426266267],["Mission",-11.446502523978745],["Larr",-11.446518909666635],["galler",-11.446546510220202],["Villa",-11.446697098694102],["organic",-11.446700092259743],["installation",-11.446735770501583],["sandwich",-11.446840256541725],["Eight",-11.446911648639645],["Silver",-11.447360961635558],["Cel",-11.447367937629519],["chant",-11.447396255779772],["withdrawal",-11.447534180220512],["Beck",-11.44767177980582],["nightmare",-11.44812043774467],["Dav",-11.448427901559217],["froze",-11.448603306471535],["Connecti",-11.449213401723162],["Fisher",-11.449297048586537],["ova",-11.450239689308605],["humor",-11.450935312733986],["flexib",-11.45113635978138],["enact",-11.451248501782967],["lore",-11.451328361877374],["notification",-11.451337634617357],["Kenn",-11.452106301252778],["recogniz",-11.452145678589623],["elective",-11.45232682138547],["void",-11.452454797057747],["charter",-11.453177558597577],["enne",-11.453231922955165],["salt",-11.453282050593339],["glo",-11.453394399088378],["QB",-11.454274199842326],["unrest",-11.455197121358538],["Till",-11.457271130983038],["Pope",-11.45764452390711],["opez",-11.45814727913077],["neuro",-11.458235455763017],["pursuit",-11.458521006619577],["farmer",-11.459237878518364],["wrappe",-11.461334914843164],["fro",-11.461467806667345],["Mosco",-11.462504088640191],["rope",-11.462901531611802],["quantit",-11.463326749401869],["affi",-11.463466650669467],["belonging",-11.464560502366941],["Victorian",-11.46506986725823],["Portug",-11.46707526982549],["elf",-11.467332534940294],["Fol",-11.467349568452999],["heim",-11.467759058961962],["doubl",-11.468371286223874],["accommodate",-11.468851241789102],["Patt",-11.469515043345925],["Moon",-11.469520660299295],["cub",-11.470238800573206],["Rug",-11.470375530438197],["satisfie",-11.47060462675625],["endless",-11.47091665849704],["surviv",-11.471078870416033],["medal",-11.471300349444807],["adhere",-11.472186755277265],["functional",-11.47227866363753],["ister",-11.472432370262815],["allege",-11.473791673147154],["Bright",-11.475929234962656],["Zen",-11.476872469436543],["Bab",-11.476908908098277],["commend",-11.477046024470448],["utum",-11.477088068923296],["Azerbaijan",-11.477296603286266],["convenient",-11.4772966033013],["Jerusalem",-11.477296603302598],["explicit",-11.477296607248327],["accurac",-11.477296609904538],["glimpse",-11.477296610770086],["description",-11.477296677557492],["Soviet",-11.477297144872898],["scrambl",-11.477297436671549],["explanation",-11.477297986684032],["pupil",-11.477299029420394],["immense",-11.477299094199639],["precise",-11.477302294745376],["intervene",-11.47730565170952],["wrist",-11.477312804249797],["Wonder",-11.47731377295488],["gesture",-11.477319660397152],["Standard",-11.477330664358966],["Golf",-11.47733873469453],["fitting",-11.477350720470625],["linebacker",-11.477375604664356],["anonymous",-11.477383232004888],["blanket",-11.477387555591555],["bishop",-11.4773982756095],["jacket",-11.477422404083907],["landlord",-11.47743697971363],["tariff",-11.477442522902457],["doom",-11.477456562677121],["monster",-11.477462699562002],["Metropolitan",-11.477477759788886],["elve",-11.477489289529842],["consultant",-11.477508812676582],["licence",-11.477521749149291],["anchor",-11.477533347204943],["intersection",-11.477549862681723],["AFP",-11.477601716884337],["rifle",-11.477770854466185],["grandfather",-11.477789028005395],["grandmother",-11.477849719417737],["prioritize",-11.477897891707523],["cousin",-11.477937951964664],["Winni",-11.47803547860455],["flatten",-11.478125712318665],["ierra",-11.47812926312338],["ulu",-11.478152785982942],["Fight",-11.47815629478014],["adaptation",-11.478158875488951],["respondent",-11.47823656829887],["mainstream",-11.478526930286371],["stamp",-11.47863041984742],["Raider",-11.47889613343334],["bounce",-11.479192485022203],["leap",-11.479352370873032],["plunge",-11.479441856386128],["Nash",-11.479790261104284],["Qual",-11.480302140545886],["schedul",-11.480431933555064],["Boss",-11.480566132150333],["conventional",-11.48080709128752],["rink",-11.481010760842182],["triple",-11.481050925718169],["brick",-11.481448521722625],["Soft",-11.481661394400673],["Industr",-11.481961212693124],["Cash",-11.482850993625934],["indicator",-11.482867264800738],["Maha",-11.483467024407041],["mobili",-11.483488780597549],["Prior",-11.483500282687118],["Mobile",-11.483620125105976],["Eye",-11.483648732403505],["cock",-11.483926102351479],["wig",-11.48399660570146],["elli",-11.484409287255492],["Cance",-11.484477924587113],["habitat",-11.485931868746821],["Clo",-11.486127689733548],["municipal",-11.487512318124232],["mainl",-11.488159205608326],["CoV",-11.488275468135173],["Dame",-11.48828751479315],["gui",-11.488880458831037],["110",-11.48914704615229],["corp",-11.489662855104527],["regain",-11.49036809551351],["Ev",-11.490451407482206],["Nik",-11.490545899692513],["CARE",-11.491142557425277],["firework",-11.491676171207173],["Carlo",-11.492053208698533],["keeper",-11.494261768313054],["Grow",-11.49438886020237],["dev",-11.495342869378366],["Const",-11.495481787348329],["McG",-11.49565468362102],["Blas",-11.495796933200362],["practic",-11.496176014640984],["Clay",-11.497143527666193],["Bachelor",-11.497543758426039],["lik",-11.497842821955363],["popp",-11.498445943848566],["chel",-11.499406364359206],["layoff",-11.49989778780519],["assumed",-11.500020394059886],["stack",-11.500112766295326],["evaluation",-11.50038451526892],["125",-11.5007521039937],["Kill",-11.500857291268543],["Eddi",-11.501184937998476],["Ferr",-11.502403495652736],["LG",-11.502407124701186],["physi",-11.50366119968178],["linger",-11.504166489449435],["tcher",-11.504795053684473],["flexibl",-11.505730847016924],["upside",-11.506512289006082],["dock",-11.507167579673574],["drag",-11.507308190942886],["trader",-11.507481658849409],["anuel",-11.508669233206929],["sequence",-11.509390270423015],["assurance",-11.509403811752069],["ndeed",-11.509406416019406],["Ukrain",-11.509481196590432],["predecessor",-11.509554667809986],["convenience",-11.509554667813633],["recipient",-11.509554668773667],["Hurricane",-11.509554669175419],["chronic",-11.509554766589686],["chocolate",-11.509554887588255],["cultivat",-11.509554897137722],["Arthur",-11.509555888587768],["intimidat",-11.509556197011696],["Tesla",-11.509556880602327],["clerk",-11.509566147613246],["Abdul",-11.509570190186727],["Qatar",-11.509570475999707],["Duches",-11.50957503429003],["Snap",-11.509583021938983],["Ronald",-11.509584099252121],["Ridge",-11.509600035609308],["lodg",-11.509600592175774],["Appeal",-11.509609629196145],["poison",-11.509620120864964],["Bernard",-11.509630034112474],["superhero",-11.50963147021601],["Celtic",-11.509652470474878],["Gandhi",-11.50970995815434],["scholarship",-11.509778025542742],["Tower",-11.509787362445575],["tense",-11.50978782703215],["procure",-11.509792110076305],["Stefan",-11.50984301822919],["telephone",-11.509860466586423],["invitation",-11.510023569390967],["inclusiv",-11.510240297666263],["Speed",-11.510304108263519],["Holdings",-11.510479379988151],["Lauren",-11.510628041621514],["tonne",-11.510640235691914],["Jeffers",-11.510720892984658],["passport",-11.510950576269545],["exploration",-11.511559968168768],["firearm",-11.511774836636873],["potato",-11.511845287184045],["rocket",-11.511884123980177],["Rabbi",-11.512468161943694],["oming",-11.512560358602729],["CAR",-11.512687199158396],["allocate",-11.513067493387688],["cular",-11.513070419212537],["epic",-11.51437675077309],["adoption",-11.514414970478422],["prolong",-11.515170323339966],["CBD",-11.515206176454516],["Kel",-11.51676547033434],["witch",-11.516773223931315],["unnecessar",-11.516956551106077],["nderson",-11.516978387178039],["dragon",-11.51883178545148],["Guil",-11.519139554517913],["valuation",-11.519989118151441],["Fu",-11.519995793278028],["Jimm",-11.52033503161728],["nav",-11.52087094227613],["buri",-11.521182436001645],["rban",-11.522412621416704],["ffer",-11.523127554437337],["130",-11.523400296587631],["penn",-11.525267146574071],["salon",-11.526145186808014],["stitution",-11.52717822221657],["traveller",-11.527523588350597],["uster",-11.527716908989982],["ampton",-11.527828552767573],["retreat",-11.528525415515773],["arena",-11.528784285879151],["Song",-11.529380317188972],["boil",-11.529884929737179],["dishe",-11.530641528786507],["bur",-11.531682639799689],["cleaner",-11.532549361687444],["lace",-11.532815571765948],["patien",-11.533912907229485],["240",-11.534367786539736],["disciplin",-11.534438631380862],["Barry",-11.53537144511833],["Task",-11.535578241836363],["Dom",-11.536044169764361],["Jam",-11.536241311715527],["amend",-11.53642728679652],["Made",-11.536601265965599],["leaning",-11.537705837640512],["ethic",-11.538021566672697],["Count",-11.538893765585625],["evolution",-11.53955695525366],["wag",-11.539762127204387],["fortunate",-11.542031301674971],["speculat",-11.542636184717317],["distract",-11.542729706692763],["cigarette",-11.542888002193763],["artificial",-11.542888002203991],["perception",-11.542888004283297],["Buttigi",-11.542888006788303],["Kashmir",-11.54288802839822],["plasma",-11.542888030081611],["Namibia",-11.542888031724168],["delicious",-11.542888055893965],["Hundred",-11.54288809889474],["fascinat",-11.54288811557727],["smuggl",-11.542888147881122],["frustrate",-11.542888170998049],["horrifi",-11.542888250539352],["absurd",-11.54288841564865],["verdict",-11.542888446007725],["Freedom",-11.542888977319805],["tuition",-11.542889368864941],["modifie",-11.542889557352455],["consolidate",-11.542892083922592],["sensation",-11.542893576058612],["bipartisan",-11.54289504247016],["fierce",-11.542896094789281],["vasive",-11.542903740334285],["Embass",-11.54290404094282],["stomach",-11.54291470739587],["diabet",-11.542916016742382],["contagio",-11.54292089459825],["Sussex",-11.542928464028105],["interfere",-11.54292864307548],["notorious",-11.542929617411993],["billionaire",-11.542930338830416],["Derek",-11.542940829684275],["Expert",-11.542943130648725],["Cambridge",-11.54300105649245],["bacteria",-11.543002818861513],["manifest",-11.543011650369905],["Connor",-11.543028069172177],["interception",-11.54304894601572],["sneak",-11.543054695958675],["golden",-11.543141258061828],["tribal",-11.543268502547022],["disadvantage",-11.543316116982723],["Guardian",-11.543320008199963],["tropic",-11.543379995596382],["Hanna",-11.543440426187832],["authorize",-11.54345892562332],["endorsement",-11.54348584124324],["queen",-11.543718345090001],["gig",-11.544246389050125],["insult",-11.544338628345699],["uction",-11.544611738477899],["Trail",-11.544662306259074],["Penta",-11.544711308170047],["candle",-11.544814236447092],["payroll",-11.544952154920345],["Universal",-11.545309247714226],["glu",-11.545478660643703],["undermine",-11.545496573124613],["pardon",-11.54570749588645],["deferr",-11.545883318024586],["profound",-11.545963331775743],["Stewar",-11.547300948662695],["taxi",-11.547461234813632],["hardship",-11.548148550046262],["UCL",-11.54823939403312],["Mask",-11.548427833555529],["hungr",-11.548559342118606],["Vir",-11.548729768779074],["smell",-11.548864292022781],["Chase",-11.549334230782886],["storyline",-11.550014285886544],["censu",-11.550605684539487],["3D",-11.551005011303037],["Palm",-11.551336159210827],["restrain",-11.551778627524147],["casualt",-11.551928460840342],["propaga",-11.552592172414501],["prox",-11.553364965353937],["logic",-11.554157338024517],["corona",-11.554277805030093],["regulate",-11.554538042225836],["demon",-11.555470170967375],["memorabl",-11.556688211690108],["fax",-11.557234213163012],["jar",-11.558113348738011],["journalis",-11.55811823443707],["Lau",-11.55821059577356],["Crew",-11.558640126762581],["Clare",-11.559542024826898],["ERS",-11.560382310750573],["blessing",-11.56096335180277],["char",-11.560999041237798],["Cohe",-11.5610992018329],["rebuild",-11.561396316973989],["estimat",-11.561492170811416],["captur",-11.56216154298345],["Sav",-11.562788589398851],["execute",-11.564407513458857],["rabbi",-11.565305205550635],["preventi",-11.5661651226304],["Bang",-11.567634701852553],["arij",-11.56857009595328],["Morris",-11.569223685327422],["geni",-11.569663767858],["PAC",-11.569862958841833],["Tel",-11.570505310676438],["Roh",-11.573021518055901],["Vot",-11.573110751772745],["smok",-11.57493207632176],["uperior",-11.57511001900773],["Dominic",-11.576034218710529],["oalition",-11.576255209704058],["uneral",-11.576816953756188],["excess",-11.577097021190205],["interpret",-11.57711664693882],["horizon",-11.57725292045082],["algorithm",-11.577370759768028],["Tanzania",-11.57737075989004],["Progressive",-11.577370760507506],["reluctant",-11.577370760630622],["legislator",-11.577370760910782],["pedestrian",-11.577370771160522],["Manhattan",-11.577370807436845],["Magistrate",-11.577370825776107],["companion",-11.577370860725978],["reconcil",-11.577370896823878],["Switzer",-11.577371283700138],["Chancellor",-11.577371422061763],["hazard",-11.577371850088483],["Disaster",-11.57737928433645],["ordinance",-11.577384273307137],["drift",-11.577406767025977],["Zambia",-11.57741857119975],["motorcycle",-11.577463694726163],["burglar",-11.57748152259473],["skirt",-11.57753751177107],["distraction",-11.577651838753997],["Rangers",-11.577654535832528],["Multi",-11.577690535740018],["Quinn",-11.577749581711108],["Retail",-11.577754774612902],["hirty",-11.577786697981288],["Battle",-11.577830969984891],["Arena",-11.577883037117386],["resignation",-11.577897356536708],["Owen",-11.577967483321684],["tolerate",-11.578149049758832],["temple",-11.578152784004313],["attraction",-11.578200186653028],["Rocket",-11.57831235688666],["Express",-11.578458135266654],["attendee",-11.578603134425308],["tenure",-11.578750127640152],["spotlight",-11.578929755176315],["snake",-11.579023572667966],["NW",-11.579140515464438],["cooperate",-11.579289051826901],["Cloud",-11.579554169285965],["modest",-11.579598672433425],["mourn",-11.579874144740609],["artistic",-11.581038282236046],["Ashle",-11.581252186164107],["formula",-11.581291182734418],["swab",-11.581616422696737],["proving",-11.582397554366075],["VER",-11.582806635957597],["passage",-11.583123716795622],["Delta",-11.583562951860399],["colon",-11.583757248582614],["breakdown",-11.584185134886766],["Tur",-11.584340027047567],["medic",-11.58455859423847],["hedge",-11.584702775646523],["Nether",-11.585176094624128],["pollut",-11.585520511497391],["Cut",-11.58589811771736],["Mega",-11.58633164300683],["beate",-11.587274450765966],["rude",-11.588350383910555],["Fift",-11.590534349946832],["Elle",-11.591149670530584],["NAS",-11.592052894044949],["Lam",-11.592114771623997],["luc",-11.592487277723714],["Sharm",-11.593017152833008],["transparent",-11.593018582285703],["rque",-11.593428653456556],["ulation",-11.593504399684704],["pond",-11.593518225817192],["nko",-11.593563285637867],["enberg",-11.594165728974176],["vegan",-11.594671206151501],["nell",-11.59755410874448],["Bird",-11.599047779069002],["Lac",-11.599611006891479],["McCo",-11.599962587839288],["Mario",-11.600446925314134],["Tay",-11.60076083394309],["infant",-11.601417401552851],["formation",-11.602037440049942],["steadi",-11.60242012432269],["densit",-11.60247107270937],["Batm",-11.603045593412412],["Charge",-11.603422456952071],["retir",-11.60382675994492],["Parad",-11.60386636390169],["prolif",-11.6061499875884],["CIA",-11.606857031378532],["Row",-11.608414459909547],["Bolt",-11.610786708131222],["Command",-11.610848000848566],["swim",-11.610852936505982],["ntelligence",-11.610921333813524],["Tem",-11.611030078639306],["105",-11.611775322256584],["festiv",-11.612398546627736],["mpire",-11.612611531450124],["academ",-11.612710227917539],["Egypt",-11.613019002640492],["‚",-11.613085045470704],
[...]
