{"version":"1.0","truncation":null,"padding":null,"added_tokens":[{"id":0,"special":true,"content":"<UNK>","single_word":false,"lstrip":false,"rstrip":false,"normalized":false},{"id":1,"special":true,"content":"<SEP>","single_word":false,"lstrip":false,"rstrip":false,"normalized":false},{"id":2,"special":true,"content":"<MASK>","single_word":false,"lstrip":false,"rstrip":false,"normalized":false},{"id":3,"special":true,"content":"<CLS>","single_word":false,"lstrip":false,"rstrip":false,"normalized":false}],"normalizer":null,"pre_tokenizer":{"type":"Whitespace"},"post_processor":null,"decoder":null,"model":{"type":"Unigram","unk_id":0,"vocab":[["<UNK>",0.0],["<SEP>",0.0],["<MASK>",0.0],["<CLS>",0.0],["s",-2.78277412161826],["the",-3.4196909861793507],[".",-3.459452926995281],[",",-3.534317213234404],["a",-3.6182878338184974],["to",-3.947687183518603],["and",-4.13118407336059],["in",-4.170826181647897],["of",-4.174979081957208],["e",-4.264602924908978],["t",-4.271162090928925],["ed",-4.279132796718526],["d",-4.33463138020074],["ing",-4.4209440905872945],["y",-4.540466027122319],["on",-4.722942558270031],["o",-4.834585323486959],["is",-4.870193327453745],["’",-4.8976401351719545],["-",-4.928177177965251],["ly",-4.98470293309151],["n",-5.0383478314870125],["that",-5.039081279745918],["for",-5.056180933947195],["I",-5.134873586231894],["it",-5.190285414376987],["The",-5.2337219752005915],["be",-5.254099975560521],["with",-5.3282443523232],["i",-5.339337435364289],["at",-5.374108273627188],["r",-5.41222181807059],["“",-5.489252173203758],["an",-5.504249214488006],["was",-5.543422260011951],["are",-5.569556211470978],["'",-5.6406621845034906],["m",-5.678103390351399],["aid",-5.707366272157511],["l",-5.717119387780466],["or",-5.7299321248423585],["have",-5.763303849158104],["p",-5.797253350638263],["re",-5.807988407379867],["er",-5.835957296805185],["he",-5.852525333500079],["has",-5.856363165908505],["A",-5.87543967321789],["S",-5.875918559802846],["b",-5.89477963379375],["from",-5.923385086039108],["by",-5.932230355351972],["will",-5.989159189554462],["\"",-6.002732819083821],["not",-6.0518657321018985],["this",-6.133027849214987],["we",-6.138526292680249],["c",-6.143892234501276],["h",-6.178537764135076],["his",-6.184201479766367],["you",-6.2296420989135495],["out",-6.230131168409306],["C",-6.250244194696821],["al",-6.253214581364253],["their",-6.285100249587696],["one",-6.292037580078718],["f",-6.297324262141256],["up",-6.352346081258478],["who",-6.372644071185112],["her",-6.38225531566002],["but",-6.389215252413983],["all",-6.400502538293148],["been",-6.422555300040209],["can",-6.426138755366054],["ies",-6.447366700876524],["g",-6.500113992536379],["u",-6.511630674651428],["(",-6.517333909812958],["had",-6.518174770132974],["were",-6.524675899145022],["M",-6.5249595488925785],["more",-6.5298343746048975],["they",-6.5310753365058005],[",”",-6.545850909772785],["T",-6.586535905550491],["19",-6.5954938099197715],["other",-6.60993438119044],["also",-6.6187607181858645],["people",-6.6219672664529],["about",-6.628789904106924],["time",-6.65372819545005],[":",-6.656238897899728],[".”",-6.681805045231645],["w",-6.6915399752690785],["B",-6.700769858691409],["F",-6.708226093123972],["which",-6.718822364610103],["k",-6.720857767128427],["un",-6.724483901248686],["over",-6.733826551879391],["In",-6.7418411552819855],["P",-6.7455321327128335],["our",-6.749070618490663],["like",-6.778676385422063],["if",-6.778793523413134],["new",-6.788742409152258],["year",-6.799239342389768],["”",-6.814530016753139],["le",-6.81650003224377],["would",-6.819066568629204],["20",-6.829515955304279],["He",-6.8327426157190985],["us",-6.838652864280235],[")",-6.841317022807084],["We",-6.84467764424091],["day",-6.868842187602869],["1",-6.87290477183819],["when",-6.910115760628257],["she",-6.918271455079626],["after",-6.921045408206316],["E",-6.95254521193036],["able",-6.955413533795502],["N",-6.97609003390782],["D",-6.981936650227668],["R",-6.987263741208849],["there",-6.997769205218049],["some",-7.000667520956337],["than",-7.00471331073958],["what",-7.008119975531852],["?",-7.011805711572231],["$",-7.011805711572231],["th",-7.023417536192137],["now",-7.0283789272836055],["get",-7.028504156516733],["W",-7.028682637495954],["G",-7.03913540228484],["ve",-7.051665266462211],["just",-7.054031190441794],["its",-7.06077324341492],["L",-7.079577186428763],["U",-7.09453524070455],["work",-7.096022477577874],["back",-7.09678066524812],["my",-7.09788129899989],["ation",-7.107140544922437],["first",-7.1087017885967265],["two",-7.117586139260159],["me",-7.121624609018176],["how",-7.1220773299930995],["O",-7.127601279610145],["2",-7.131126897707808],["—",-7.145020720186088],["any",-7.158853883064292],["H",-7.161234118279403],["cause",-7.165219644180124],["them",-7.193215166751886],["him",-7.198302070386177],["man",-7.200386566322319],["3",-7.202310657727984],["need",-7.212104376313128],["ion",-7.216582993925567],["per",-7.222816575908933],["ers",-7.224572699680301],["most",-7.229924773513239],["ever",-7.233197533007824],["This",-7.252378562858045],["end",-7.2696347707147515],["v",-7.269884493992435],["your",-7.277335118749362],["state",-7.278629541254827],["But",-7.280345199464473],["last",-7.2805106859212865],["could",-7.283267601981995],["K",-7.290249641150435],["way",-7.3245815535399865],["ce",-7.352090770344824],["go",-7.363587172451624],["take",-7.3696649289896055],["hose",-7.371830098975892],["through",-7.376191955917936],["whil",-7.3827192315400065],["during",-7.409416227692362],["want",-7.411281629002612],["make",-7.424111831249975],["000",-7.427995367268725],["ment",-7.437659778943307],["come",-7.439956701947238],["well",-7.4415248852223215],["see",-7.442673464211783],["being",-7.451531769141513],["every",-7.451855363991993],["even",-7.4536216085654114],["help",-7.453674838085264],["home",-7.456333397504458],["where",-7.458368422647165],["down",-7.464508467497587],["4",-7.471210825635582],["5",-7.474733139187852],["high",-7.483798290292842],["long",-7.483937433553322],["many",-7.490422247678159],["government",-7.492041596045474],["0",-7.492203220892692],["am",-7.494498463473705],["going",-7.494600780613728],["play",-7.500331929273377],["look",-7.500699417977694],["under",-7.503185943481757],["ur",-7.504142502680532],["call",-7.504717971137349],["ic",-7.5058699947930725],["ity",-7.513952789277081],["%",-7.520475419911153],["COVID",-7.521042316922488],["before",-7.524318033164047],["part",-7.525008957847423],["V",-7.53619763602052],["should",-7.541089008175122],["game",-7.548223153318984],["years",-7.550348704525527],["start",-7.55135809388614],["ar",-7.553043686954103],["know",-7.555998266231459],["co",-7.5612775590568],["health",-7.577027587908514],["–",-7.578818004355075],["off",-7.5800763667362885],["test",-7.590905805235828],["use",-7.5985634570434675],["week",-7.605544054396186],["into",-7.611190125942254],["ll",-7.6202200917345495],["And",-7.621096320327692],["old",-7.621234199112009],["agains",-7.621281882842396],["Trump",-7.626182844840584],["real",-7.630393018139891],["um",-7.633983950435946],["made",-7.649803174292563],["10",-7.651471860243199],["still",-7.655374297746673],["thing",-7.655410351947447],["6",-7.6579775297119355],["ch",-7.659071507433607],["place",-7.659157572843224],["coronavirus",-7.659486730625972],["Re",-7.669787588361624],["‘",-7.669961446006117],["show",-7.675504961826976],["less",-7.676911635667873],["three",-7.683293744126497],["2020",-7.687099578485028],["She",-7.701941594322101],["very",-7.702805377280903],["ive",-7.708886101562871],["8",-7.72371801494239],["may",-7.731698514604084],["right",-7.746200248666421],["these",-7.746679232095046],["7",-7.746833586582274],["own",-7.74953745824375],["million",-7.754375551376674],["good",-7.761717172496512],["support",-7.762764510516112],["point",-7.763783880683241],["est",-7.76804064443941],["country",-7.772456188325089],["pandemic",-7.779755824133903],["ul",-7.779761778979119],["public",-7.780753300681469],["De",-7.781940026174326],["ary",-7.788862557293337],["number",-7.791579533445096],["ance",-7.791947014255246],["much",-7.79214842389289],["team",-7.7949207707870265],["cases",-7.796838071042752],["add",-7.797095345206327],["New",-7.800028521383144],["think",-7.801971196302836],["life",-7.802960722569181],["9",-7.804086127993612],["/",-7.8042922876010135],["says",-7.808153120730341],["For",-7.8090652506262375],["school",-7.810332694751056],["There",-7.8194223046748945],["age",-7.820076458853144],["season",-7.8202575447551235],["around",-7.8205273348203255],["business",-7.842655849757195],["continue",-7.8476661214382],["ter",-7.86126209167455],["world",-7.864799762064399],["such",-7.865575136947925],["lot",-7.867896338562964],["ten",-7.871976727665238],["since",-7.87371924934116],["If",-7.874961485824348],["close",-7.877135843386068],["self",-7.8788686401577],["did",-7.883800830285816],["z",-7.889811474628083],["police",-7.889880732237601],["company",-7.893188786928021],["change",-7.894794972326493],["line",-7.896310820540618],["head",-7.901441203096078],["ent",-7.904018068448667],["don",-7.908686151516461],["communit",-7.908987476333618],["St",-7.908996971620476],["service",-7.91654312573028],["im",-7.916779952021644],["ear",-7.9216678245776295],["That",-7.926424235667767],["family",-7.931766674229514],["side",-7.936172793482273],["issue",-7.939244596897191],["person",-7.94265163214893],["To",-7.944894772763548],["came",-7.945547536354792],["including",-7.9525017932682465],["say",-7.957601628784272],["How",-7.960208843454818],["J",-7.9620880624064405],["hi",-7.968616805380927],["land",-7.974174099067218],["As",-7.976969950166354],["next",-7.979550552400935],["vi",-7.980175575649603],["car",-7.980604592957188],["ember",-7.986531711293637],["So",-7.987439408924904],["night",-7.999887028810852],["ready",-8.00289437768442],["etween",-8.005420189898828],["second",-8.012783032476783],["ex",-8.01832096352488],["put",-8.02760228258789],["told",-8.034090638670392],["both",-8.035800087184397],["allow",-8.037616870689838],["same",-8.04293039787036],["Al",-8.044389399765222],["ial",-8.045571919315279],["care",-8.047636327009526],["You",-8.04913116084806],["Mr",-8.052036487084456],["An",-8.054394032888977],["US",-8.054992752057661],["order",-8.05728315561109],["30",-8.059390653060003],["keep",-8.06137307261391],["low",-8.061848229603712],["open",-8.063745691308295],["few",-8.067267063727083],["group",-8.069145580606259],["ask",-8.072618880699896],["social",-8.0759232325035],["great",-8.079166770247234],["student",-8.079878705213954],["base",-8.087393385757618],["plan",-8.08844620288227],["con",-8.090211644867324],["current",-8.101972123312082],["each",-8.11163468481217],["On",-8.113497680930102],["got",-8.114744238845791],["air",-8.119225880744704],["love",-8.121919465699698],["case",-8.130846256498284],["President",-8.131514442187642],["Be",-8.136560387796045],["coming",-8.137273977003293],["remain",-8.138725673401044],["try",-8.14558095236315],["recent",-8.14616505233976],["result",-8.1465055444513],["return",-8.15038166521326],["virus",-8.155038483822793],["15",-8.156505311289205],["ally",-8.157214505066682],["face",-8.157976517255676],["ship",-8.160930998347247],["ish",-8.168547357965062],[";",-8.170095250231393],["different",-8.170108151449867],["though",-8.171394392151996],["found",-8.171532570138123],["election",-8.173587756272404],["report",-8.17561979066685],["Friday",-8.17881623373292],["market",-8.180008111635235],["term",-8.185021561926472],["best",-8.185816534147751],["ber",-8.190452153702712],["post",-8.192268543416644],["president",-8.194233654031121],["month",-8.196053069378427],["four",-8.197666850603987],["near",-8.200330578534464],["16",-8.202410125786518],["win",-8.204431403288586],["!",-8.206583286361358],["ness",-8.208380875921643],["release",-8.208982013759279],["turn",-8.211659976013285],["include",-8.212215971186271],["11",-8.215907109622988],["gan",-8.217104339684923],["special",-8.220160489877763],["cent",-8.221398848170868],["law",-8.221544289340152],["city",-8.226495870113599],["local",-8.22933941311599],["ize",-8.229380012404793],["here",-8.229538076282727],["provide",-8.240254188679852],["across",-8.24070276459625],["Co",-8.241136401443288],["give",-8.243429120622674],["American",-8.243968756633233],["Y",-8.247765329474687],["12",-8.250142404876772],["reported",-8.253699464358128],["far",-8.253952784725591],["When",-8.258636215082639],["ook",-8.259091782634417],["system",-8.26214829324616],["live",-8.262458860668456],["late",-8.263067949282565],["event",-8.265974786334631],["State",-8.266124273524452],["Ro",-8.266724885301667],["due",-8.274819931803766],["deal",-8.277732533105523],["hard",-8.281781214816892],["ill",-8.285599161430216],["14",-8.285933650746077],["mean",-8.288061055254051],["record",-8.288654222566146],["large",-8.291600728812629],["Z",-8.295976156134678],["pro",-8.298391348147257],["left",-8.30228130420971],["La",-8.302766579715787],["light",-8.30340406900153],["share",-8.306365948546006],["final",-8.31253109822795],["price",-8.314818986223777],["according",-8.318977755109934],["fire",-8.319816364849835],["ful",-8.321026920442074],["17",-8.321996418331477],["hour",-8.325788857696665],["tri",-8.326655827349722],["move",-8.328280046076795],["working",-8.3303606213544],["pass",-8.334321672788626],["level",-8.33486861920867],["full",-8.336464399529689],["sign",-8.337324180976545],["50",-8.338035877797505],["…",-8.338729016385383],["een",-8.341433647894405],["run",-8.343284220490286],["never",-8.345107218324124],["something",-8.347059915262097],["big",-8.348884221297737],["power",-8.356592412124897],["ke",-8.358773723531426],["feel",-8.360702071174314],["film",-8.360808761062847],["believe",-8.360814623651251],["men",-8.361386715558655],["Monday",-8.362179819023167],["What",-8.362483055075042],["past",-8.364290508521183],["quarter",-8.3661877859796],["21",-8.36677490471691],["better",-8.368854639252135],["claim",-8.372699024440688],["until",-8.372966053111952],["wh",-8.37445463785773],["Le",-8.376134548759527],["Ma",-8.378984491286051],["hit",-8.379777924270499],["media",-8.38206690053049],["statement",-8.386525020506049],["rate",-8.388957423550643],["talk",-8.389296928135774],["children",-8.392842286005717],["must",-8.39447913269969],["force",-8.396005299762074],["ut",-8.396674374507159],["things",-8.397764089954281],["app",-8.398055347350738],["didn",-8.399549314613832],["might",-8.399642987687566],["happen",-8.39997592553909],["No",-8.402060609564137],["South",-8.402678872751212],["months",-8.403022419884389],["hospital",-8.406905002833465],["With",-8.40850881878395],["does",-8.41289940957482],["increase",-8.416152904225662],["went",-8.416201592606054],["200",-8.417586571489778],["five",-8.419895912006726],["away",-8.423418937698653],["China",-8.426224560767993],["pay",-8.427622774497546],["total",-8.42790524384845],["free",-8.42825697233138],["Dr",-8.428408661215055],["County",-8.429368487058792],["process",-8.430131951886288],["question",-8.43161357514321],["members",-8.432791687257462],["leas",-8.434348069412057],["body",-8.434753813561127],["March",-8.436668725522754],["alway",-8.437845606771326],["information",-8.441656035503426],["let",-8.444326769722668],["Whil",-8.444415095461288],["house",-8.446530468789929],["project",-8.450030614969018],["vote",-8.450255588801287],["stay",-8.45118233848757],["Thursday",-8.452905861949477],["important",-8.455807245126874],["13",-8.456515674546587],["officer",-8.458109511436522],["cut",-8.462064810407036],["positive",-8.46374507674356],["find",-8.464293842161368],["decision",-8.464491774142221],["become",-8.464761270786585],["fund",-8.46532830723952],[").",-8.466127570081333],["risk",-8.468727178921643],["&",-8.468871331056171],["hav",-8.469189548470679],["making",-8.47042513493514],["spread",-8.472393327065504],["trade",-8.478288637278162],["later",-8.480658169033298],["Tuesday",-8.483610156754555],["video",-8.483616348580986],["stock",-8.483883286224415],["Ra",-8.485284573817268],["led",-8.485326672119935],["again",-8.485881007248704],["Health",-8.486593604756294],["water",-8.48717894490813],["Sunday",-8.491294209089205],["Saturday",-8.494057881904823],["food",-8.497072642336015],["action",-8.49967914928265],["top",-8.500099285054084],["former",-8.500455137819724],["X",-8.501570987951917],["sure",-8.50228549547274],["women",-8.503405435704185],["resident",-8.505025621928],["All",-8.506239648173157],["money",-8.506497347566429],["won",-8.508843668138317],["court",-8.510908017207663],["Br",-8.514449972408805],["experience",-8.51631601759756],["consider",-8.516850083232388],["little",-8.518362892074917],["small",-8.520341936318474],["staff",-8.522979795812496],["together",-8.52467883718923],["25",-8.525706215737166],["future",-8.526074267034776],["24",-8.530323331724247],["death",-8.531254005005808],["Do",-8.531328240042328],["concern",-8.532288938156455],["One",-8.535156392192516],["Me",-8.53582134434583],["clear",-8.536073848596168],["Ka",-8.537906092484908],["wide",-8.537956493225963],["tic",-8.539966444872611],["national",-8.541261697922858],["seem",-8.552572614958438],["Pa",-8.55787305701752],["Wednesday",-8.560749204909108],["act",-8.563279380050584],["United",-8.564003911482377],["ck",-8.564130349686803],["shares",-8.565404560144511],["receive",-8.56654181826994],["six",-8.566631427495974],["program",-8.570136914051467],["mask",-8.571233091954305],["18",-8.572913900600405],["ence",-8.574486272193976],["position",-8.575072480983934],["using",-8.585566052865655],["young",-8.587341605703827],["several",-8.588129638305656],["taking",-8.589216331142946],["board",-8.59336543273924],["announced",-8.598093638672015],["war",-8.599452318372649],["star",-8.600896212563832],["avail",-8.60176650224924],["along",-8.603966740975336],["worker",-8.604080599144798],["pre",-8.605591147235709],["com",-8.605832559049631],["ge",-8.60653644529541],["data",-8.607892218222489],["),",-8.612346821315725],["ver",-8.612707545409997],["office",-8.612798169205572],["wa",-8.61396223480179],["buy",-8.61464843042998],["May",-8.61492477597477],["field",-8.616831636632075],["given",-8.617005392499783],["series",-8.618019129363145],["fight",-8.620227067065976],["reach",-8.622983356975539],["list",-8.626106848481175],["tion",-8.62614661063634],["form",-8.627428204980095],["book",-8.627529196862092],["officials",-8.629565545908251],["political",-8.630182232265245],["Mc",-8.632797918455074],["After",-8.633944244825994],["weeks",-8.63409639059918],["National",-8.634536393313581],["press",-8.637053420390334],["ley",-8.641711086321717],["doesn",-8.6419544383117],["online",-8.642860460181042],["kill",-8.645067146191126],["today",-8.646441639370742],["nough",-8.646683062586932],["taken",-8.65000120627597],["lead",-8.652612622995495],["campaign",-8.653096634725449],["Sh",-8.653381070600195],["possible",-8.65358588155885],["name",-8.65371357313228],["half",-8.65531042766073],["che",-8.657040930100857],["die",-8.658728727632298],["ous",-8.659407529923012],["bit",-8.660016488204402],["period",-8.660159637254052],["watch",-8.660205880756122],["Police",-8.661958474224722],["ha",-8.6629996175067],["among",-8.664103393142767],["hope",-8.665236288285596],["players",-8.666697612313175],["short",-8.670814447557694],["third",-8.672638429271366],["attack",-8.674432868790117],["kind",-8.675593475433924],["fall",-8.67584173903095],["problem",-8.676229776518646],["further",-8.676262825188616],["whe",-8.679681741122423],["party",-8.688490949796769],["measure",-8.688940257466877],["Ba",-8.689514131206902],["York",-8.690744765140495],["expected",-8.69195723278229],["strong",-8.69256728102025],["front",-8.694067254010923],["effort",-8.694408590370637],["abilit",-8.694902447283516],["road",-8.69570535795486],["00",-8.696168363467969],["job",-8.696219747400576],["Covid",-8.696237535418271],["ling",-8.696580950383739],["cost",-8.69851403506134],["yet",-8.6993838148117],["ago",-8.701007125295625],["room",-8.701656622373598],["involv",-8.701756457897787],["fact",-8.704089388280194],["Some",-8.704889231728025],["100",-8.705487606941835],["rating",-8.707786106166708],["ball",-8.710379107297484],["travel",-8.710559961728615],["impact",-8.71161668942273],["Biden",-8.712980036317084],["hold",-8.713406214695382],["main",-8.715089175729261],["limit",-8.715423754128075],["tell",-8.716162171714469],["deliver",-8.716642604929435],["ak",-8.717522646258542],["relat",-8.718629101901564],["House",-8.719048867638083],["complete",-8.720852284090636],["Nov",-8.721526105561864],["City",-8.721714030418484],["ier",-8.722764548344404],["present",-8.723370255922962],["leader",-8.723546686678965],["interest",-8.729472517163696],["bar",-8.730575587444285],["count",-8.730577113350414],["certain",-8.733636088688485],["following",-8.735111764485104],["North",-8.738118790152383],["safe",-8.739489374335935],["shot",-8.73954120871872],["offer",-8.741863437574732],["space",-8.742794944838938],["grow",-8.744006604754745],["tra",-8.745714033660002],["nation",-8.746444391944125],["lockdown",-8.74740593743477],["role",-8.748377318826904],["40",-8.748575425982608],["product",-8.749400930800553],["Black",-8.74976460385379],["etting",-8.750711035235227],["situation",-8.752904941223663],["economic",-8.755761715718002],["j",-8.756173006036288],["story",-8.756618773219817],["Bo",-8.758816095594383],["billion",-8.759198786081987],["percent",-8.759571129032127],["ide",-8.764201508228961],["course",-8.764650423218718],["appear",-8.764695803022185],["ug",-8.76524924904643],["Na",-8.765847082206065],["direct",-8.76672545953761],["date",-8.766861411548287],["meeting",-8.767437424767081],["ang",-8.767525503231294],["visit",-8.76861765283947],["bring",-8.769225959510392],["ves",-8.770107486207511],["confirmed",-8.770289298756069],["security",-8.770550305674053],["ick",-8.771332008441755],["major",-8.771532457378273],["actual",-8.771695065852734],["focus",-8.772531663163136],["spite",-8.772624013026695],["den",-8.774443372800182],["iv",-8.774953630530495],["previous",-8.776502467221025],["held",-8.776680423692035],["ca",-8.77802802636502],["industr",-8.77819261158896],["create",-8.779383093583556],["West",-8.781550390437154],["gra",-8.783751961875279],["Universit",-8.784576101232318],["done",-8.78498084308502],["wait",-8.785014667267841],["wear",-8.785563391101086],["ja",-8.785568582325023],["once",-8.788702482315621],["protect",-8.7897607330052],["race",-8.789874199725633],["read",-8.790459739383724],["opportunit",-8.790530555574755],["thought",-8.790582911244893],["known",-8.791327158120236],["qui",-8.792604993456687],["My",-8.793354041115492],["woman",-8.79406368675535],["human",-8.794798171886399],["official",-8.795662634611219],["Apri",-8.797447293736177],["mov",-8.799411175241222],["challenge",-8.802008135379769],["Minister",-8.804759036265391],["access",-8.804759398655406],["vo",-8.804789765274485],["Car",-8.807691150335675],["store",-8.807743619320185],["potential",-8.80886105278524],["matter",-8.80891239438074],["June",-8.808981724766934],["goal",-8.810289680292485],["According",-8.81091861241331],["Pro",-8.812518561564442],["companies",-8.814982288823273],["forward",-8.815344880570219],["Di",-8.815453224675274],["outside",-8.817883358319946],["key",-8.818923701365282],["contact",-8.819197659957432],["phone",-8.819267608826753],["ied",-8.82026248669018],["moment",-8.821476062138368],["India",-8.825237521784114],["walk",-8.828434809920111],["control",-8.831940323026416],["rest",-8.833764868916365],["econom",-8.834861057418749],["worth",-8.835974639082055],["patients",-8.836142390537216],["quick",-8.836244458316601],["Dec",-8.83962173792088],["building",-8.8397553132299],["Ha",-8.840972655019446],["pick",-8.844689002931403],["Ju",-8.845459035040871],["average",-8.846582296975363],["fans",-8.846783461639077],["ham",-8.847277787388322],["mer",-8.84938722776474],["personal",-8.850505728101023],["Li",-8.851382747228802],["parent",-8.851816305718472],["comment",-8.854118355005493],["member",-8.855312306953337],["22",-8.855701665901725],["view",-8.86062240145763],["ster",-8.864571022503352],["ru",-8.865963078907015],["design",-8.86779684057613],["require",-8.868136378032673],["research",-8.869742712777875],["saying",-8.871415127657563],["60",-8.87263401885253],["liv",-8.874473355256246],["que",-8.875550848914255],["launch",-8.876900785445955],["times",-8.878296238299136],["reason",-8.880667172279466],["response",-8.881310140595705],["dollar",-8.881310346845076],["account",-8.88137646381701],["mar",-8.886722109237661],["ious",-8.888574250605679],["break",-8.889533681108126],["condition",-8.89242157834215],["stop",-8.893136194816176],["Ar",-8.893865406320334],["deaths",-8.893951570543397],["financial",-8.894658467822376],["medical",-8.894749664312531],["Con",-8.895311817135156],["Mar",-8.895405172831737],["individual",-8.899147810573893],["morning",-8.899154180055419],["director",-8.899310790284606],["Man",-8.899440404326224],["bank",-8.899873981241464],["learn",-8.89990753734127],["value",-8.900605996888203],["2018",-8.900655655344043],["Ch",-8.901126632188653],["art",-8.901148580242925],["behind",-8.901417190456009],["amp",-8.902117468759904],["drive",-8.905179807037069],["oil",-8.905413550192344],["target",-8.905978212598091],["demand",-8.906006473778612],["countries",-8.906040602439699],["Sept",-8.908200150286781],["news",-8.908423804685931],["mark",-8.909724868112574],["source",-8.910176645327919],["character",-8.910460151644692],["crisis",-8.912742485285893],["address",-8.913039079886058],["Du",-8.913147494660706],["Ex",-8.913730752637703],["join",-8.915336217500926],["rote",-8.915595437634831],["match",-8.917691462492844],["Department",-8.919604090303881],["ather",-8.919628197203147],["entire",-8.924265048473643],["John",-8.925974001137762],["host",-8.926076242848287],["couple",-8.926528401728163],["ner",-8.92802968904368],["movie",-8.928261149681699],["develop",-8.929050189629857],["development",-8.93088735289843],["fer",-8.930993369934228],["stead",-8.93144273992863],["kid",-8.93547048630073],["park",-8.93622607437284],["cover",-8.936710575096075],["met",-8.938939598325945],["inter",-8.939171758152824],["ground",-8.941370815502102],["town",-8.942022348448269],["additional",-8.942040672425279],["23",-8.942496127359759],["unning",-8.944719512194808],["lost",-8.945361769956552],["mid",-8.94665592392747],["global",-8.947570559367717],["cap",-8.948249681132975],["history",-8.948633613622185],["round",-8.948989612309187],["arrest",-8.950642001826491],["log",-8.9514926198047],["lives",-8.95420739155366],["eight",-8.95540208222043],["cur",-8.957302590679777],["option",-8.958514258247483],["general",-8.959467426427652],["employee",-8.959494611635566],["bad",-8.960563954799895],["check",-8.962076253691906],["leave",-8.965023202615207],["Har",-8.966693194631048],["Lo",-8.966964445289168],["contract",-8.969039874962018],["operation",-8.969216239691004],["lie",-8.969855931588484],["idea",-8.970833448597862],["TV",-8.971553944561201],["Ho",-8.97269014208831],["recover",-8.97269805470816],["ach",-8.973279748970793],["Po",-8.978092579304274],["Q",-8.979213411745214],["ell",-8.980122942269006],["ze",-8.98335425728332],["site",-8.983355664536358],["gu",-8.98492214327829],["x",-8.985598611245162],["range",-8.987675311493248],["customer",-8.98779684161568],["gar",-8.989020165670915],["America",-8.989447418884929],["benefit",-8.990977036986074],["red",-8.991251110738734],["ail",-8.992332998844514],["suggest",-8.993446167839828],["saw",-8.993834835971077],["Democrat",-8.994253175518963],["often",-8.995354911881517],["vaccine",-8.995921332927102],["ler",-8.997365869537798],["arm",-9.000252793946402],["ran",-9.000342044784492],["vehicle",-9.00089045713246],["expect",-9.000896747950012],["feature",-9.002545733336865],["explain",-9.003446605797294],["Now",-9.004198108022464],["friends",-9.004268714461135],["heart",-9.007002949262905],["respond",-9.008390875396039],["charge",-9.01284198422316],["region",-9.01314941439421],["Ne",-9.015265236611778],["federal",-9.01594939867297],["stand",-9.017372232646068],["Her",-9.018220637908097],["child",-9.01847978949543],["follow",-9.018917303561285],["mother",-9.023132419234269],["mind",-9.024645529340779],["single",-9.02559313612628],["safet",-9.026852395274833],["outbreak",-9.028377769427792],["candidate",-9.028670536651234],["Ja",-9.031212229272136],["roll",-9.032497290555536],["compar",-9.03445399594542],["scene",-9.03927595814212],["San",-9.04285956679331],["States",-9.043483703586315],["significant",-9.047625184698688],["His",-9.050578436394623],["ensure",-9.051622543431842],["famili",-9.053593187390224],["coach",-9.053799517808134],["black",-9.054186235861593],["ism",-9.05452842727454],["friend",-9.055963935561142],["echnology",-9.057254628533233],["Janu",-9.059904593425028],["deep",-9.06163429040165],["ger",-9.062499924368865],["rise",-9.06272244311393],["Center",-9.064421052894485],["row",-9.065895626700446],["soon",-9.06632892820054],["Su",-9.066768732119272],["gen",-9.067029730916106],["70",-9.067879708493919],["El",-9.069628860905496],["authorit",-9.070102342295801],["ither",-9.07095752673823],["spend",-9.071123562872913],["earlie",-9.07144472006773],["Our",-9.07163418057167],["particular",-9.073180225961522],["Jo",-9.073999429888673],["affect",-9.075860797391789],["fast",-9.076922165071943],["stage",-9.078602519232913],["track",-9.078938879746895],["education",-9.081244718872203],["serious",-9.081469011114065],["26",-9.082385084187369],["UK",-9.083537413110342],["someone",-9.083704130007266],["difficult",-9.083947030840338],["activit",-9.083953612903631],["Go",-9.086055943898653],["plann",-9.08642739903408],["serve",-9.087064671443],["emergenc",-9.087098831691197],["enter",-9.08871296249211],["disease",-9.089422131547092],["minister",-9.089440508012139],["push",-9.089848978439786],["miss",-9.091481899243107],["han",-9.092658553493937],["Part",-9.092911199720412],["mis",-9.094303181029783],["international",-9.095067300749111],["meet",-9.095160264235885],["har",-9.095580168129203],["club",-9.095702668469691],["toward",-9.096283451018472],["par",-9.09781104555648],["infection",-9.098179464928837],["normal",-9.099077256224973],["Mu",-9.099703147302735],["creat",-9.099769078272839],["World",-9.100319565565451],["train",-9.100585091914077],["lic",-9.101419336194198],["28",-9.10165167934301],["ard",-9.102157022263695],["ice",-9.103723421754022],["chance",-9.104932636783442],["attend",-9.10610909143285],["exist",-9.10621332908326],["port",-9.108323755383289],["gav",-9.108486436283567],["gain",-9.108516966009107],["private",-9.108644747438227],["senior",-9.111384358607525],["chief",-9.111396739692667],["father",-9.113820823802856],["Com",-9.115878655090276],["gre",-9.116505394737715],["executive",-9.116962392307968],["protest",-9.11834942082011],["cast",-9.120327457044356],["80",-9.121143743440427],["understand",-9.122357084028756],["assist",-9.12246172232875],["immediate",-9.122572683566363],["August",-9.122582985540593],["Day",-9.123492937749077],["whole",-9.12371328989786],["poll",-9.123904670172653],["Court",-9.125701125684305],["gun",-9.126867971462747],["fail",-9.127391859649371],["model",-9.127505766335911],["speak",-9.128094346255542],["Even",-9.129663629186584],["ical",-9.130107229980194],["interview",-9.131354096932249],["fee",-9.13176439143453],["nothing",-9.131817807025957],["career",-9.131965924865877],["White",-9.133918415001727],["figure",-9.134911324448776],["bigge",-9.136199099914228],["90",-9.137962583858663],["inside",-9.138357680605523],["approach",-9.139595048066429],["treat",-9.142243829706246],["effect",-9.144877458855905],["lan",-9.147610003339505],["music",-9.147708308894705],["Donald",-9.148232522913478],["27",-9.148803499015091],["voter",-9.148912778112884],["mission",-9.151303239714897],["comm",-9.151693749817607],["study",-9.154005268626303],["screen",-9.154005299260369],["performance",-9.154369823128736],["firm",-9.156527896827717],["restriction",-9.157094345695356],["review",-9.158367453331412],["ending",-9.15963873672295],["amount",-9.160033568630894],["receiv",-9.161002777588111],["Per",-9.161045531661344],["girl",-9.162560587115594],["anti",-9.164316056797556],["School",-9.165682806131233],["player",-9.165731885673877],["lates",-9.167054194830644],["lower",-9.171755143274607],["sector",-9.172886220005282],["pic",-9.17378708338973],["schedule",-9.174533712950801],["Octo",-9.17531824214667],["incident",-9.177499573897034],["seek",-9.177819939293041],["Dur",-9.17802121719356],["Jul",-9.178106470476123],["unit",-9.17840280305574],["People",-9.180475753930875],["Not",-9.18110235626391],["rap",-9.181251018005973],["super",-9.182800262972577],["message",-9.183473726921406],["attempt",-9.183485867354513],["states",-9.185466612945845],["ki",-9.187422978377487],["block",-9.188756593046232],["district",-9.189483283193589],["stream",-9.18948432346351],["investigation",-9.190151939818367],["qualit",-9.190393757275947],["agree",-9.1916983066581],["white",-9.192776967735826],["box",-9.19410266747956],["Of",-9.19460448650197],["else",-9.196665330103844],["bus",-9.19958129564562],["prevent",-9.201702610526521],["partner",-9.202241048247192],["door",-9.202839897481049],["growth",-9.203005335441441],["makes",-9.204592935593553],["represent",-9.206352571358547],["Bu",-9.206893398528962],["aily",-9.207278541538425],["Chief",-9.207679446071948],["expert",-9.207701436642191],["detail",-9.207754621689446],["Gu",-9.208825426406108],["ward",-9.2093033691229],["fair",-9.209971204259553],["conduct",-9.210735247851986],["spot",-9.211706950228809],["king",-9.212082663642022],["31",-9.21346339521557],["victim",-9.21381220260594],["decade",-9.213812482470352],["Park",-9.215559332392033],["bu",-9.216095738404485],["Government",-9.219994593686287],["essential",-9.219995100013195],["ries",-9.22041000686419],["tax",-9.220658310007178],["propert",-9.222379232552324],["practice",-9.22282961501604],["department",-9.223101143707947],["happ",-9.223589975349373],["Or",-9.225161467125746],["29",-9.226140858798722],["relationship",-9.226215788971887],["lay",-9.226380721104269],["reduce",-9.227098639771288],["Hu",-9.227182012972662],["begin",-9.227368722327984],["production",-9.22752610455025],["qu",-9.228889181363623],["loss",-9.22900703506809],["similar",-9.229340509342569],["drug",-9.229455300028153],["draw",-9.22954917117394],["shows",-9.230165631584583],["distanc",-9.230315038817642],["training",-9.231250211226486],["table",-9.233113422963921],["500",-9.234325274204615],["ction",-9.234813450412396],["wife",-9.235960941986782],["quarantine",-9.238774497822883],["Un",-9.240206922864225],["example",-9.241940285580208],["trip",-9.245643465335604],["35",-9.246807847253013],["Many",-9.247504385398743],["Febr",-9.247935984935998],["location",-9.248849681509133],["leaders",-9.249731179605694],["song",-9.251728513094251],["En",-9.253936075612971],["photo",-9.254467117812911],["capital",-9.25472442796988],["dead",-9.255088532769498],["weekend",-9.255111567070422],["build",-9.255427160318119],["guy",-9.256386587167999],["Just",-9.256442533630283],["ik",-9.256530128781964],["extend",-9.2576794088072],["popular",-9.25793228655901],["active",-9.260554052045634],["necessar",-9.261139623268157],["organization",-9.261506584528277],["lack",-9.261810964308165],["easi",-9.263338741883981],["Qu",-9.263474826189587],["fan",-9.264004411778345],["effective",-9.264889248650476],["legal",-9.265055503544135],["Col",-9.266885590592024],["daughter",-9.267679676173566],["sense",-9.267717146204562],["raise",-9.268977343522801],["Bar",-9.270311016589806],["driver",-9.270940858334932],["ong",-9.272899073234342],["reports",-9.272985805885725],["cu",-9.273127293873706],["card",-9.273650073986285],["perform",-9.273810303631654],["suspect",-9.274148774126246],["others",-9.274303049022864],["policy",-9.274304143242222],["East",-9.276729374914625],["platform",-9.277426902287411],["update",-9.277463687585307],["regard",-9.27748450600064],["militar",-9.277562497436065],["football",-9.27796841764497],["ture",-9.282650169555147],["class",-9.285255814654489],["hot",-9.286018548522947],["Ko",-9.28638820023668],["California",-9.28732760229942],["request",-9.287959482356722],["administration",-9.288331033147305],["enjoy",-9.29065070145412],["Bank",-9.290922390865326],["cat",-9.291161924381388],["Vi",-9.291317773933478],["fine",-9.292106159139909],["sent",-9.292386619337721],["Ki",-9.293364153325044],["leg",-9.293885609921354],["mate",-9.29440557463156],["regular",-9.297328908338834],["War",-9.300586732096505],["ban",-9.302506842826219],["title",-9.304086017008961],["summer",-9.304102304632767],["resource",-9.305130882395321],["letter",-9.305204052114101],["minutes",-9.306461413610378],["ake",-9.30836128915616],["Act",-9.30866792955621],["News",-9.309577844952708],["doctor",-9.310822429512125],["treatment",-9.311524369378045],["fear",-9.311648951696307],["leading",-9.311688587485873],["revenue",-9.31214893569086],["bill",-9.314419771865657],["contain",-9.317654293126498],["za",-9.31815044118012],["cross",-9.319152664064433],["score",-9.31976808766717],["Ben",-9.3206655279856],["vice",-9.320767924211575],["station",-9.32077512454634],["crime",-9.321058517205584],["estimate",-9.321064213666665],["Service",-9.321066060045213],["violen",-9.321078250142193],["Street",-9.321080688861779],["rain",-9.323014649936406],["plant",-9.32344999602848],["via",-9.324267645339177],["step",-9.327856922691542],["population",-9.32794254830593],["energ",-9.32885196355408],["brough",-9.329997581674512],["brand",-9.330264299600064],["thank",-9.332731433688766],["decided",-9.334547347796553],["alleged",-9.334911280595769],["accus",-9.334997622680111],["actor",-9.335116377533936],["seven",-9.336607892973515],["ix",-9.337159759421624],["provid",-9.337164623741433],["infect",-9.337447672822922],["ways",-9.337615964171711],["Indian",-9.338741013901664],["Air",-9.339546850167578],["themsel",-9.341321050875445],["David",-9.341860484548771],["above",-9.34186125593436],["finish",-9.341989821188932],["Chine",-9.342352008018906],["Nigeria",-9.342402221324342],["quite",-9.344031334817808],["clean",-9.345220877573464],["felt",-9.345377820184837],["manage",-9.345604931886974],["street",-9.345834900176516],["east",-9.346174252693919],["link",-9.347169818821001],["shop",-9.348940256081896],["Joe",-9.349787077584164],["ez",-9.35048672482186],["lock",-9.352356735681063],["Congress",-9.352419825751928],["probabl",-9.352546643071232],["aught",-9.352797307116193],["hands",-9.354556340303233],["thousand",-9.356148113368672],["usual",-9.356255118431958],["val",-9.358498872451545],["dog",-9.358742908793094],["original",-9.35974075539836],["huge",-9.359913425753021],["High",-9.362768332755113],["depend",-9.362960219382266],["maintain",-9.363127231091507],["primar",-9.363219977779675],["Africa",-9.363795916975382],["answer",-9.36385270552844],["piece",-9.366681021293202],["rie",-9.367366096405394],["hear",-9.369188126017043],["ble",-9.371780832055613],["purchase",-9.375177205148967],["Cor",-9.377410955977176],["Washington",-9.37750992210349],["save",-9.377891957653347],["file",-9.378493843326385],["cho",-9.380210129288532],["More",-9.380870155031948],["â",-9.381146262487757],["trial",-9.381679084113488],["pent",-9.382126768235718],["Every",-9.382241879159748],["various",-9.384909724667608],["damage",-9.388500085462574],["ballot",-9.388921816841261],["conference",-9.389263572998717],["bra",-9.390948807686186],["restaurant",-9.392135393178723],["rent",-9.392873050611641],["trust",-9.393218398454836],["hop",-9.393246693541107],["success",-9.395497416121298],["General",-9.395832811710337],["fac",-9.396117511912536],["God",-9.396778092750864],["elect",-9.397001346343806],["ax",-9.39919231877806],["Ga",-9.399238127283501],["ric",-9.399675439413297],["prett",-9.399981555440377],["Star",-9.400154379841625],["cop",-9.400884079985214],["center",-9.402759558469988],["accept",-9.403166598521523],["website",-9.403255999254583],["fill",-9.404830874442101],["rush",-9.40608407138733],["Council",-9.406977965673532],["uar",-9.407094914942476],["teacher",-9.407478507356707],["ville",-9.409175416502876],["lam",-9.409398634726916],["avoid",-9.410727237602856],["picture",-9.410846927164151],["episode",-9.414482650530548],["Ab",-9.417950732796552],["hat",-9.417980940886604],["Facebook",-9.418286591105318],["facilit",-9.418926635235081],["gas",-9.418993729450289],["Sinc",-9.420475941788167],["NA",-9.420629999548563],["Del",-9.420655572082019],["factor",-9.420723122053595],["pull",-9.422241701983788],["annual",-9.425872979260234],["crowd",-9.425889492635873],["sub",-9.42596164946497],["Th",-9.426933700585598],["jo",-9.429440971617685],["prove",-9.43043642573085],["feeling",-9.430772448237649],["continu",-9.431814598121216],["uk",-9.43469785115797],["easy",-9.435002668227607],["user",-9.435141958036784],["Mean",-9.437272479017867],["virtual",-9.437340777037726],["Brit",-9.43762153876042],["produce",-9.44050794083148],["Sch",-9.440883410207185],["evidence",-9.441201912881883],["imp",-9.441508262289261],["boy",-9.444438222802972],["type",-9.445612617943262],["stress",-9.445909252158176],["Australia",-9.44638686223499],["specific",-9.446464054018763],["investigat",-9.448072843920382],["respect",-9.448555752529447],["publish",-9.448969344132433],["material",-9.448970884923089],["Ru",-9.449669588566062],["capacit",-9.4500222485228],["investment",-9.453266302733532],["battle",-9.455778703541842],["establish",-9.45679659756198],["physical",-9.456823596960419],["injur",-9.456884248010702],["size",-9.458267221459444],["Fr",-9.459388608762048],["£",-9.460733604994948],["drop",-9.461253877039743],["ative",-9.463599245130371],["border",-9.46386623967749],["African",-9.463911325070466],["husband",-9.464687580715438],["Ed",-9.465997205297075],["tru",-9.467024129352822],["Can",-9.468145890894283],["Green",-9.468669625094362],["common",-9.468771586585982],["artist",-9.46998352364442],["payment",-9.470347719493372],["learning",-9.473349583344792],["page",-9.473456367507758],["Am",-9.474263383135973],["imply",-9.476108767994745],["choice",-9.476778623464249],["carry",-9.476850476606863],["addition",-9.478020434497278],["van",-9.47883551234401],["true",-9.478875705598925],["sound",-9.4796461759809],["Group",-9.480655237808103],["perfect",-9.480656075853414],["League",-9.480658650491938],["threat",-9.480744420631872],["load",-9.480771629443678],["ought",-9.480777182472792],["professional",-9.481000184524833],["lift",-9.481429379480378],["flight",-9.482532234774906],["Jan",-9.484439783544236],["SA",-9.485026712937074],["CA",-9.485212637725375],["environment",-9.485311293147374],["path",-9.485351672252499],["solution",-9.485718789208075],["By",-9.487532578972896],["version",-9.487631362247136],["spoke",-9.488625442023618],["Twitter",-9.488735449271957],["earning",-9.48970584321141],["natural",-9.492837742350266],["sell",-9.492875039945623],["revealed",-9.494535803954602],["Bi",-9.494543638030692],["rules",-9.495918732579064],["Gi",-9.495944972809355],["express",-9.496879219415266],["je",-9.496961339054117],["Cha",-9.497038145919632],["Johnson",-9.49786114691692],["Canad",-9.49901519833752],["extra",-9.499141721403085],["Public",-9.500980445051308],["credit",-9.501022999949349],["standard",-9.501188915135774],["prison",-9.501451465353057],["German",-9.502132450728343],["centre",-9.505351863450205],["cash",-9.506598392396187],["Ke",-9.50789642804926],["AP",-9.508920197851783],["content",-9.511245279661226],["uff",-9.516877184035074],["ants",-9.516962006308065],["league",-9.517562596748467],["pressure",-9.51789502134503],["initial",-9.518052351442138],["attenti",-9.51810052918224],["document",-9.519925572397415],["ji",-9.520131032302356],["giving",-9.521762971610311],["Japan",-9.5218487155313],["grant",-9.522540500170928],["justice",-9.523184587107849],["heard",-9.524795585971216],["Iran",-9.524944387009931],["words",-9.525134740411733],["discuss",-9.52515634875825],["vot",-9.525373296948171],["wrong",-9.525937571283515],["poor",-9.527085949371193],["seat",-9.52742327767316],["gone",-9.527832308862916],["shut",-9.528854458668908],["pur",-9.529165335888148],["supply",-9.530179987678657],["throw",-9.53254463744817],["Inc",-9.53315298258202],["aware",-9.533515183057157],["appeal",-9.53447968623774],["rank",-9.534638996837444],["yond",-9.53468445978395],["winning",-9.535231334061761],["citizens",-9.535635068954058],["wood",-9.536668426482352],["rule",-9.538137804172365],["Chris",-9.538603577294126],["speed",-9.539147630206742],["Senat",-9.539428546779153],["statu",-9.539598767186241],["45",-9.540257773063614],["grand",-9.540309746892625],["ncy",-9.540963108606157],["slow",-9.541709879601786],["foot",-9.54236020309725],["pack",-9.542723941673547],["remember",-9.542799274184617],["award",-9.542865046596187],["judge",-9.54291882034541],["fresh",-9.54305189103172],["Pri",-9.543321411463936],["email",-9.547197775050918],["network",-9.547245800018121],["truck",-9.547482868751722],["born",-9.548014149031903],["Bill",-9.548849641401635],["uch",-9.549268063974374],["uck",-9.550172045901022],["European",-9.5507858389009],["analyst",-9.55152792784562],["buil",-9.551872199034221],["voice",-9.551885038877632],["From",-9.552315221194199],["Sp",-9.552322993437315],["notice",-9.553359658249335],["jobs",-9.55462976507221],["Mor",-9.555612298851791],["budget",-9.555864127552859],["trans",-9.556248242199544],["touch",-9.557312147775665],["MP",-9.557538118838007],["holding",-9.558065929426913],["pen",-9.558982087767994],["tweet",-9.56027822984829],["Bl",-9.561348696486462],["urg",-9.56281037517872],["mention",-9.562958500593469],["owner",-9.563533995138197],["Hospital",-9.56456107208388],["style",-9.56483303746419],["improve",-9.565270531227124],["LA",-9.565706820298304],["Lake",-9.565862794953407],["sports",-9.566038830687596],["followed",-9.567031719603278],["spec",-9.569355991231575],["camera",-9.56965536194767],["encourage",-9.569671979109103],["agreement",-9.570427531152692],["item",-9.571266683038145],["Last",-9.572194518333768],["pop",-9.572476634480577],["Bay",-9.57256580980631],["standing",-9.573651516591731],["warn",-9.573812367492522],["var",-9.574476613205078],["loan",-9.576278236503533],["symptom",-9.57772864111967],["fun",-9.579830691519279],["farm",-9.580223005211423],["served",-9.580426412146911],["critical",-9.581067587700815],["pped",-9.582047465215718],["increasing",-9.582221609691807],["surprise",-9.582222366667931],["application",-9.582222899258856],["digital",-9.582238102307194],["guard",-9.58248028649497],["author",-9.582897536053757],["suit",-9.583761300121406],["qua",-9.584400292177937],["Over",-9.58472670469773],["gri",-9.585215718198306],["DA",-9.585867796775249],["Michael",-9.586685829513975],["college",-9.586685877445372],["defend",-9.586697114484135],["brother",-9.587043441912751],["successful",-9.587082945367001],["Union",-9.587820666205012],["Road",-9.588030790323756],["mal",-9.588967778867943],["maker",-9.589038477618576],["image",-9.590108291837769],["manager",-9.59069884578048],["Cas",-9.591237594892494],["Port",-9.592020069288292],["broad",-9.59417543391563],["teams",-9.59496548847693],["hundred",-9.595674738437694],["London",-9.595735773963737],["sales",-9.596429631841357],["Pi",-9.596435537420708],["istic",-9.59697572823859],["International",-9.600334083310141],["delay",-9.600465354507461],["paper",-9.600881366885668],["Sam",-9.601679078342675],["kick",-9.603027377878064],["county",-9.603103085566687],["wish",-9.603999744306343],["Mac",-9.604024497994093],["climate",-9.604745145591421],["goe",-9.606008028450134],["north",-9.606093718561073],["mental",-9.606968421640792],["fish",-9.607180773973393],["Texa",-9.609871363698826],["ization",-9.610772153203811],["Paul",-9.610967034030157],["lum",-9.611761346995445],["ker",-9.612330157058377],["CO",-9.613576137751007],["Sea",-9.61359355314606],["foreign",-9.613901427591044],["Scott",-9.614660875395739],["locat",-9.614701710507969],["note",-9.615914647655503],["emi",-9.617484297575347],["income",-9.617761618455443],["George",-9.618510751790108],["http",-9.618524609078722],["James",-9.618609412856154],["Director",-9.619407076724901],["movement",-9.6206799438915],["opening",-9.621959830687969],["universit",-9.623136495498521],["Smith",-9.623138641125033],["exchange",-9.625006182445297],["Sal",-9.625950600129752],["zing",-9.626043124819915],["lose",-9.626294283277502],["rates",-9.627770930633524],["register",-9.627787710189715],["agency",-9.629736958679848],["storie",-9.631055065311084],["strateg",-9.63114396045058],["collect",-9.631229958754849],["mail",-9.631831766071286],["Lu",-9.632344019343066],["multiple",-9.632463086502245],["shift",-9.63250832000152],["Prime",-9.633420205692504],["search",-9.634621278832245],["ung",-9.634738912091056],["surance",-9.635175681113306],["pair",-9.636094522324456],["flu",-9.636277343945629],["mil",-9.636904358394638],["nel",-9.636987408198053],["England",-9.637156100565264],["describe",-9.638448550489493],["Gar",-9.640176983214285],["victor",-9.641932085562198],["32",-9.643644452540126],["Ge",-9.644194965648042],["aging",-9.644624446658675],["equipment",-9.646611542023859],["Bur",-9.646893264485389],["ock",-9.647889728500328],["ken",-9.64849631462432],["mix",-9.649631473970327],["anagement",-9.64993032449301],["Ri",-9.65189659752777],["ski",-9.65213288005187],["ual",-9.652597152294437],["Super",-9.653624380720593],["writ",-9.653704120907364],["extreme",-9.656158260622178],["sexual",-9.656269237535945],["cle",-9.658130814265293],["RE",-9.658427239684968],["named",-9.65858997547488],["overall",-9.658775603678672],["harm",-9.660934877800965],["haps",-9.661732952433173],["earn",-9.662546151152231],["arrive",-9.663367360580235],["word",-9.663415499692725],["hall",-9.665411604940669],["PS",-9.665493782252334],["transport",-9.665921961587664],["guideline",-9.666425593298603],["remove",-9.666750596933163],["exact",-9.666785976126569],["NC",-9.667260158656617],["Gra",-9.66752946048593],["governor",-9.667652362854936],["trad",-9.667726529860271],["Republican",-9.668501292249346],["berg",-9.66943539034213],["ride",-9.670208245469873],["province",-9.670360715582522],["First",-9.670654835548175],["culture",-9.670707394546579],["expand",-9.67090634639787],["import",-9.671301767616857],["shooting",-9.67285165477942],["hair",-9.675036190870184],["definite",-9.675529111045181],["Ministr",-9.675604914404826],["ju",-9.678413637433053],["wind",-9.678825342713182],["zz",-9.679438295920134],["fourth",-9.679573541911232],["pet",-9.679593660972102],["adding",-9.67973551982747],["asking",-9.683037838802083],["Most",-9.683541529694953],["Ken",-9.68392298421466],["ratio",-9.684075251888698],["oul",-9.68439319437012],["é",-9.685357173761702],["Florida",-9.685357174884519],["monitor",-9.685366516909312],["Two",-9.685568503257777],["lines",-9.686439570704461],["BC",-9.688043115547071],["investor",-9.688106113961567],["mph",-9.688512505641146],["sometime",-9.688911180768661],["defense",-9.690307669226566],["blood",-9.690307784931417],["beginning",-9.690435920359096],["talent",-9.690468151254674],["eventual",-9.690837046892534],["discover",-9.690941153873956],["basi",-9.691243710894112],["carrie",-9.692762033690531],["bid",-9.693965233340787],["vision",-9.69518547562949],["council",-9.695272012567496],["conversation",-9.695282845474456],["cell",-9.69543714851292],["ox",-9.695680888436883],["Tom",-9.69627686962194],["EU",-9.700055578644474],["introduc",-9.70009748092073],["negative",-9.700282968546052],["36",-9.701086765300019],["novel",-9.70115727708129],["wall",-9.701228225291434],["ER",-9.701398029145155],["ugh",-9.701897579819295],["leav",-9.703460638436473],["murder",-9.705309412180952],["approve",-9.705414737635468],["employment",-9.705783105771246],["nine",-9.706896140446464],["ette",-9.708002640699421],["double",-9.7084322702718],["Hill",-9.70884103557119],["elected",-9.709149492306256],["pol",-9.709166586719832],["Minnesota",-9.710358559764703],["generation",-9.711093088108683],["proper",-9.71111686035289],["ola",-9.711316503881541],["observ",-9.712675751598564],["offering",-9.712778615021396],["Nigerian",-9.714640848535158],["Don",-9.71487170860356],["criminal",-9.715434568695834],["witness",-9.715465433103722],["Office",-9.716134612249183],["Europe",-9.716307912228215],["ible",-9.719433031104685],["operat",-9.719960541502381],["Hol",-9.72144508760557],["37",-9.72200473833692],["patient",-9.722189325975837],["spokes",-9.722792362528217],["ney",-9.72315557225017],["emerg",-9.725043011404274],["75",-9.725588087446267],["debate",-9.725668120925647],["difference",-9.725697014217022],["Robert",-9.726151605213772],["Well",-9.727432020961267],["Here",-9.727826641761263],["kept",-9.729271069821575],["34",-9.7294718121518],["west",-9.730524936589738],["acquir",-9.73082700176462],["pot",-9.73085830438173],["animal",-9.730894297305387],["Justice",-9.731018443710026],["couldn",-9.732783622653457],["rid",-9.733714212362887],["ttle",-9.73397975969906],["cook",-9.735323891551442],["camp",-9.735907334231586],["memor",-9.735954805739828],["church",-9.73601150743822],["purpose",-9.736067525332409],["District",-9.736101792275106],["celebrate",-9.736166086183179],["Commission",-9.73651522979713],["amid",-9.73863082413191],["divers",-9.73869461384739],["priorit",-9.74021581027711],["Wal",-9.740781759113041],["passenger",-9.741209181106782],["subject",-9.74120920450389],["doubt",-9.741209226690344],["advance",-9.741211562160181],["ration",-9.741516068235924],["polic",-9.74184967328354],["yester",-9.741861506196399],["winner",-9.742067531581489],["rac",-9.742151219976453],["relative",-9.742504653162932],["retail",-9.743656328831788],["ility",-9.743989139556186],["weight",-9.744027245326112],["committ",-9.746390794521083],["38",-9.74672736362404],["intend",-9.74761594739055],["hous",-9.747846690934518],["FC",-9.748103467736513],["implement",-9.750886806867731],["Israel",-9.751151215523496],["alone",-9.751555398947447],["hotel",-9.751790847099208],["Up",-9.752699891394663],["sort",-9.754713120040094],["tool",-9.755740903890771],["Sen",-9.75656810169513],["decline",-9.756895391803816],["wild",-9.757003091343378],["device",-9.757283128995974],["listen",-9.758103563607694],["south",-9.75822407455127],["argu",-9.758727304620269],["Other",-9.759363900290897],["facility",-9.761458241959428],["traffic",-9.762318209572012],["color",-9.762664582801909],["ification",-9.76290951053089],["scale",-9.763282178817233],["Rob",-9.764339011855855],["itch",-9.764604652667078],["AR",-9.764815602416853],["55",-9.766281213337052],["Home",-9.766361611487625],["favorite",-9.767706439508817],["welcome",-9.76774490333931],["Red",-9.769181111343707],["burn",-9.769281138729465],["rais",-9.770820796464559],["King",-9.771968958578318],["suffer",-9.77201442501032],["99",-9.772567441439659],["€",-9.773041207523255],["predict",-9.773047354449165],["profit",-9.773079890859737],["RA",-9.773141101655916],["dress",-9.774570345162363],["Mark",-9.774741732799562],["Mil",-9.774749825001226],["consumer",-9.776194131600601],["wave",-9.776877818650249],["Force",-9.778141556001387],["Christmas",-9.77844748844035],["Central",-9.77844749529229],["holiday",-9.778449363529687],["BTC",-9.778520278707415],["commercial",-9.778524123802551],["spring",-9.778621645359907],["obvious",-9.779937137589014],["operate",-9.780238858249675],["reopen",-9.782866440731983],["dig",-9.782892143143595],["33",-9.784051108813276],["Let",-9.786685523343813],["gathering",-9.786826930828951],["pain",-9.78715999646995],["closure",-9.789346861205846],["Prince",-9.789353212801116],["Board",-9.78969877770054],["article",-9.78984776747063],["write",-9.789956025856512],["tough",-9.790608874735515],["Los",-9.790722552462],["driv",-9.790846514237357],["afford",-9.791142608288428],["bag",-9.791359785359415],["Cal",-9.792079650873855],["Any",-9.793607472560248],["Tim",-9.794514314137453],["reflect",-9.794843094278281],["threaten",-9.794965175749802],["crew",-9.794989754601714],["balance",-9.795228561581858],["48",-9.795461268199526],["craft",-9.795993296944175],["wors",-9.796463452815164],["connect",-9.79659802438831],["valu",-9.7967027526546],["gle",-9.796819123010085],["charges",-9.797299320916867],["Tri",-9.798034102399203],["cra",-9.799348949176402],["Association",-9.800366019813834],["competition",-9.800455391258605],["dropp",-9.800702702516261],["finding",-9.802213069561596],["chang",-9.803887144727602],["straight",-9.805922492185061],["unique",-9.805936192716974],["tagram",-9.805965844991917],["Carolina",-9.806071788321606],["committee",-9.806128334188422],["eyes",-9.806406117221606],["strike",-9.806537055768414],["Art",-9.807413714724108],["39",-9.809075965498185],["PC",-9.810340450285924],["progress",-9.81105016880408],["300",-9.811264780444004],["warm",-9.811344762384202],["volunteer",-9.811508167502986],["declare",-9.811508274259069],["degree",-9.811513483914219],["bio",-9.811623246574587],["River",-9.811798931369152],["Why",-9.81186045201822],["vent",-9.812362540627007],["homes",-9.814151176220019],["absolute",-9.81712614501959],["supplie",-9.817130015967464],["incredibl",-9.818230764786922],["central",-9.818590542921864],["society",-9.818622834243568],["section",-9.818683627435675],["Ver",-9.819780412301498],["hearing",-9.81987873754878],["Arm",-9.820116785228127],["Governor",-9.822776329507835],["urge",-9.822801524171199],["til",-9.823899856025964],["Apple",-9.824043707245416],["Korea",-9.82413875739746],["az",-9.824788458523145],["rich",-9.825388098018308],["pan",-9.827344374262342],["equit",-9.827606498820614],["65",-9.827888782234108],["MA",-9.828055613096781],["afternoon",-9.828466024781934],["fell",-9.828592545063538],["electric",-9.828632080505312],["hurt",-9.828842819950651],["anger",-9.829092682763111],["Like",-9.829130323140106],["retire",-9.830249282412932],["wan",-9.830806672261932],["Will",-9.830952711599773],["catch",-9.831973651387333],["lim",-9.832251639071472],["trend",-9.833312703660745],["temporar",-9.834229604391457],["Mike",-9.834249159788731],["simple",-9.834439758513277],["Angeles",-9.834595486305759],["connection",-9.834973425415644],["abuse",-9.835567805862471],["sex",-9.840252672214099],["propose",-9.840415632162461],["minute",-9.841572222846139],["Pre",-9.841897249629678],["flow",-9.84266333411232],["DC",-9.843375186044412],["rights",-9.843853609141238],["middle",-9.84573561845989],["transfer",-9.845880014836457],["dream",-9.846243478019527],["bringing",-9.846497174850622],["tap",-9.848692190188643],["reveal",-9.849138372197356],["cul",-9.849195296379023],["App",-9.84921788242293],["wise",-9.850818364040528],["Committee",-9.85151339327762],["boost",-9.851519375261196],["NFL",-9.85153155093415],["lawyer",-9.851937407190938],["construction",-9.852068473898981],["display",-9.852615414068548],["ili",-9.854950171166603],["sister",-9.856575098552439],["Par",-9.85685666421282],["audience",-9.857361355402832],["sleep",-9.857614605162277],["weather",-9.857699148571992],["Fi",-9.85882795945654],["IT",-9.859164604279936],["gate",-9.859733156909359],["traditional",-9.861510448806033],["mass",-9.862485564378414],["advantage",-9.86324370498906],["identifie",-9.863243716182929],["Chicago",-9.8632444224974],["client",-9.863245991362446],["CEO",-9.863271383186142],["jump",-9.86331510489784],["green",-9.863512406741945],["politic",-9.86382927731674],["remind",-9.864357014931919],["fix",-9.864661416946106],["hip",-9.865674032106181],["sight",-9.866501944865007],["wouldn",-9.867854025183911],["Pat",-9.869170127757634],["debt",-9.869299804722626],["hood",-9.869326338531359],["Big",-9.869576439305252],["discussion",-9.870252966357459],["tz",-9.870332478252884],["invest",-9.872183280770887],["erry",-9.87301349424829],["distance",-9.873347139277456],["baby",-9.877299557317292],["ural",-9.87743388161579],["racis",-9.878418139095885],["hang",-9.87922989147352],["Bre",-9.879542285428386],["equal",-9.880093298134195],["engage",-9.880504207198829],["Compan",-9.881615510206359],["Phil",-9.883137640557486],["crash",-9.883493168456283],["Secretar",-9.88439885320345],["responsibilit",-9.887125360379635],["survive",-9.887125874197693],["massive",-9.887597011858494],["storm",-9.887748957417946],["demo",-9.888304721662422],["ease",-9.890148738931671],["chi",-9.890740495256662],["zi",-9.892939802033137],["domestic",-9.893185990069803],["responsibl",-9.893185991259696],["ping",-9.893349003498159],["France",-9.893894605171779],["pil",-9.894151323580942],["broke",-9.894395295398024],["Play",-9.895424404605244],["putt",-9.895497649490615],["Both",-9.895654173033062],["inform",-9.896136435364394],["counter",-9.898480011963635],["please",-9.89853615051746],["producer",-9.899144223505981],["defeat",-9.899285929442092],["multi",-9.899321348035912],["immun",-9.899333098970494],["lash",-9.899666041083801],["male",-9.899931638863418],["Dan",-9.900409426723886],["CC",-9.90379061568134],["dark",-9.904458508718255],["winter",-9.904887760307162],["peace",-9.905065386662917],["union",-9.905333336169935],["€™",-9.905419382534753],["ium",-9.905971636786159],["mir",-9.907909589167097],["Mal",-9.909644117595574],["Williams",-9.910624253764022],["promise",-9.910919041760506],["steps",-9.911130500402031],["civil",-9.911294892579285],["yard",-9.911440401437911],["refuse",-9.911760334213369],["communication",-9.91203489662023],["nforcement",-9.912292914990712],["ram",-9.912446720101656],["Mari",-9.912650363018626],["writing",-9.91486399258281],["stick",-9.915660373264487],["Ram",-9.916837217571938],["trac",-9.917699849979826],["pool",-9.917823569052995],["campus",-9.918479325029605],["surge",-9.918693511949424],["NE",-9.919018170229467],["reporter",-9.920558970214955],["worse",-9.921159868625384],["rising",-9.923070814788648],["yourself",-9.923342482174963],["+",-9.92405251637102],["associate",-9.924052521637662],["College",-9.924055554239384],["separate",-9.92405647411354],["adult",-9.924100423353394],["function",-9.924197593079228],["zone",-9.925063596943522],["gold",-9.925096589142273],["household",-9.925165438912883],["rian",-9.925344038004777],["print",-9.925379713763624],["employ",-9.927101008076452],["UN",-9.928190368404692],["evening",-9.928757718076241],["49",-9.929488781427363],["floor",-9.930344972813764],["weapon",-9.930374065428607],["indicat",-9.930380150021879],["Che",-9.930924919420649],["pose",-9.930948287844028],["session",-9.931641897082965],["EC",-9.933056800968565],["majorit",-9.933525427551306],["classe",-9.935751881378215],["writer",-9.936539224576492],["basket",-9.936674658678148],["secure",-9.937464795862054],["tip",-9.93762394965084],["yards",-9.938044916192286],["Alex",-9.938870349034136],["Mill",-9.939157993536206],["contest",-9.940199570478796],["Fire",-9.940846239574412],["ku",-9.94098439068122],["Kar",-9.942618963919411],["onic",-9.944873906288478],["Management",-9.944983921853613],["Den",-9.946769229985023],["text",-9.946829351795845],["chain",-9.947259910029384],["Democrati",-9.94735420261317],["chair",-9.948012861773528],["47",-9.94821924621603],["Officer",-9.948567201619754],["cancel",-9.948904260204095],["older",-9.949033730371788],["Nor",-9.949270660975415],["vulnerabl",-9.949450684430678],["categor",-9.949451520458247],["rock",-9.949802010718095],["Adam",-9.949961124096472],["Pen",-9.950455182183854],["TA",-9.954386514822831],["ON",-9.954671915841683],["Law",-9.955086025468631],["Gov",-9.955736242549538],["structure",-9.95590225523723],["Final",-9.956427427852601],["95",-9.956865829607946],["upon",-9.95725246139559],["burg",-9.957516033797527],["Brown",-9.957645537560815],["Hav",-9.959268070253826],["influence",-9.962739006824165],["Canadian",-9.962758921261372],["bridge",-9.963365889455039],["gal",-9.963609160101374],["honor",-9.963689458454708],["bol",-9.964085319869826],["lip",-9.965787281288327],["meant",-9.966134465155257],["tech",-9.966138005030352],["Peter",-9.966356361945122],["Mad",-9.96649658455674],["46",-9.967875807385923],["approximate",-9.968931688755692],["temperature",-9.96893169608389],["ultimate",-9.968931745201388],["language",-9.96893182219685],["freedom",-9.96893336773433],["science",-9.968934160117705],["survey",-9.968938411869479],["wonder",-9.968978868104433],["suspend",-9.969157386896457],["Work",-9.969171962338017],["gift",-9.969440433576782],["tree",-9.969526317550134],["auto",-9.970043368587373],["Mont",-9.971204218918427],["Earl",-9.971259515461563],["corner",-9.971353739418154],["Game",-9.971944185120172],["Island",-9.972065130469023],["resume",-9.972987901600852],["grade",-9.973050996374287],["teen",-9.973059225988496],["ID",-9.973439407634046],["killing",-9.975280162353144],["nature",-9.975391283811206],["exercise",-9.975510651212801],["flood",-9.975510739098638],["mobile",-9.975511677800473],["Amazon",-9.975511747993579],["Securit",-9.975515371331216],["correct",-9.975586867854954],["44",-9.975725688535942],["upreme",-9.975739451976107],["struggle",-9.976170378388492],["Dar",-9.97692150521771],["Victoria",-9.97781847433441],["cycle",-9.977955631174805],["severe",-9.979393751251274],["agent",-9.980433588385887],["sides",-9.980567039048966],["solid",-9.982134248924236],["speech",-9.982134641142487],["heavy",-9.982145605196111],["relief",-9.98214771173891],["hole",-9.982254445090057],["recognize",-9.982326031548201],["apply",-9.982618855606448],["flag",-9.983310235908494],["weak",-9.983357959061589],["sale",-9.983383522390028],["gue",-9.98446454522982],["rose",-9.98466294399292],["FA",-9.984973431263738],["Han",-9.98711952370236],["bal",-9.987988757199592],["Premier",-9.988800621403398],["independent",-9.988810109621214],["machine",-9.98882209478289],["43",-9.989876868803382],["collection",-9.989907181390603],["attract",-9.990204282596103],["Inter",-9.991633332844211],["tail",-9.991652306924863],["Wi",-9.991952142715823],["Hi",-9.992948004505482],["Tok",-9.995265110363643],["ticket",-9.995534257309906],["Centre",-9.995555858509633],["Under",-9.995599281905843],["Fund",-9.995926552960235],["package",-9.996152686409868],["Far",-9.999422013797815],["serving",-9.999825358197516],["edge",-10.000102335312],["meter",-10.00142247456803],["deploy",-10.002267989580563],["typical",-10.002278300013462],["Mexic",-10.002286226290718],["Russia",-10.002579063987586],["rom",-10.003257808148001],["showing",-10.003530232602621],["phase",-10.003955647040282],["tel",-10.005721667844437],["miles",-10.005995998955925],["partie",-10.006411835645764],["ND",-10.007330055233286],["minim",-10.007342287983672],["raw",-10.008116861188698],["Oct",-10.008647275309066],["graduate",-10.009070796648272],["studie",-10.009084192131281],["window",-10.009085175691247],["guid",-10.009142275125434],["shock",-10.009263185358932],["rig",-10.009960380903774],["Speak",-10.01092428212911],["realit",-10.011484518714715],["journey",-10.01592138281968],["album",-10.015995078060582],["Harris",-10.016024787081754],["pri",-10.016653350086441],["youth",-10.016731858317886],["asset",-10.019677056455404],["Brita",-10.02054325017232],["draft",-10.022422184950132],["TO",-10.022710089928172],["beautiful",-10.022817436271819],["allegation",-10.022820714976255],["dangerous",-10.022945440261008],["permit",-10.023307688426133],["error",-10.024079929027337],["breath",-10.026103056491685],["sick",-10.026923423278554],["elling",-10.027685523205498],["rick",-10.028658446236683],["remote",-10.029761411171783],["scientist",-10.029763401014652],["isolation",-10.029766811808432],["choose",-10.029774228430785],["alternative",-10.029782540661238],["farmers",-10.031254499782307],["comfortabl",-10.031266045218251],["LE",-10.033375816837832],["Tra",-10.033992683104426],["Australian",-10.034392741132354],["Chi",-10.0364482144949],["accident",-10.036754024931486],["cancer",-10.037256749077486],["rally",-10.037473070292117],["thinking",-10.037801429632879],["cal",-10.038334882704387],["cool",-10.038779406901613],["mine",-10.040525581520406],["occ",-10.040935421734904],["prepared",-10.041049795547822],["tele",-10.043693277526605],["infrastructure",-10.043796281947674],["French",-10.043796612880293],["Googl",-10.043886582186806],["motion",-10.044403225362792],["Jones",-10.044813038729973],["sitting",-10.045147719367915],["stuff",-10.045266522349472],["SE",-10.045744840704346],["MC",-10.046213736446893],["flat",-10.046309069413118],["mini",-10.046472637518328],["42",-10.046768125250429],["highlight",-10.047017218923408],["PD",-10.047939237467848],["pursu",-10.048104606067625],["rough",-10.048170864727876],["Award",-10.050435601793193],["Coronavirus",-10.050888624854862],["assault",-10.050888850992308],["village",-10.050892457133488],["Federal",-10.050892677997087],["female",-10.05091900164911],["drink",-10.050983909172956],["scheme",-10.051225086684507],["Year",-10.05209743926294],["skills",-10.052372503919244],["requirement",-10.052827157173223],["AT",-10.053149540220334],["Ber",-10.054303855864287],["NB",-10.05604090822477],["meal",-10.056335000136265],["Gen",-10.056641076338984],["tory",-10.057600460892186],["conflict",-10.05803135616144],["Rock",-10.058993065588702],["HO",-10.05979938243119],["institution",-10.060028556757121],["truth",-10.060456151906294],["protection",-10.060787208006218],["prior",-10.06294672493476],["Cup",-10.063217906435536],["inspir",-10.064398707227644],["organiz",-10.064458003531975],["appropriate",-10.065225578668962],["attorney",-10.065226528189807],["opinion",-10.06523224184766],["entertain",-10.065241168738272],["Blue",-10.065261231582575],["deserve",-10.065712721498521],["Though",-10.065898136268608],["distribut",-10.066733994904693],["sustain",-10.067249463018374],["complaint",-10.067366684210121],["ology",-10.067673565617795],["owners",-10.067924354872257],["kar",-10.068466590681524],["Live",-10.069595315670757],["ians",-10.070949310655333],["complex",-10.072471971273984],["margin",-10.072548147005307],["announcement",-10.072850920539963],["airport",-10.07324918149688],["programme",-10.073742728833432],["lian",-10.073781319346388],["mode",-10.075677003947549],["Communit",-10.076139259745652],["outdoor",-10.077200974827722],["Who",-10.07729290386536],["provider",-10.079115376963097],["trick",-10.079259230897975],["knowledge",-10.079716505255341],["supposed",-10.079772918286274],["modern",-10.079799903500373],["amazing",-10.079810174219684],["motor",-10.079856011166935],["fuel",-10.08000915676183],["plus",-10.08010613591452],["LLC",-10.080954117736486],["opt",-10.081448641327434],["rail",-10.081746164850035],["supporter",-10.08248430827262],["41",-10.083698598468605],["recommend",-10.086314137685818],["ceremon",-10.087125692732798],["dozen",-10.08712621390643],["adapt",-10.087135900589065],["capture",-10.08744078901784],["Martin",-10.087910737046382],["Ku",-10.089505775886984],["recall",-10.090186797632247],["advise",-10.090281498791967],["caus",-10.090450422336875],["pitch",-10.092160587380619],["warning",-10.093043304159536],["struggl",-10.093788981753068],["corporate",-10.094533641286294],["root",-10.09463189146664],["proud",-10.094644856731467],["Andrew",-10.094743177770422],["bond",-10.094754994193885],["element",-10.094850950765208],["ich",-10.096253251315105],["laugh",-10.09714153992887],["arch",-10.097968214764037],["soft",-10.098219797499388],["excited",-10.098296926661444],["toll",-10.099309484708385],["losing",-10.100321099605308],["nice",-10.101538716500702],["giant",-10.102030109552919],["opposition",-10.102108983905248],["frame",-10.10235347328327],["regional",-10.102892154176963],["confiden",-10.103014246252812],["lab",-10.103519289172944],["Fox",-10.103808517347074],["confirm",-10.103844326127689],["tag",-10.104123564730072],["handle",-10.104910475001414],["Max",-10.105736503642436],["adjust",-10.105795126997602],["400",-10.107419701391265],["creation",-10.108150836767066],["Business",-10.109513465121589],["initiative",-10.109513872230877],["Right",-10.109525697001825],["detect",-10.109552649190128],["worrie",-10.109556147232261],["Research",-10.110280658270966],["hell",-10.110406561289858],["journalist",-10.111592835555445],["mile",-10.111923572368672],["Frank",-10.112074338961882],["smart",-10.11263048039892],["reading",-10.114607718075558],["GO",-10.115110159926486],["possibilit",-10.117088815495455],["transition",-10.117110678325597],["combat",-10.117199621154906],["gender",-10.117324180443674],["shape",-10.117771759884885],["Sun",-10.118019387902667],["igh",-10.118133471173046],["crore",-10.118688010660925],["route",-10.11973415201512],["Ni",-10.12141840124728],["Op",-10.12276903603127],["tight",-10.123456489741066],["protester",-10.124119843600624],["skin",-10.124323231250234],["Russian",-10.124373185149015],["Capital",-10.124722446224222],["promote",-10.12472439976477],["consult",-10.124725363390674],["venue",-10.126718146733115],["bri",-10.126851344954984],["guest",-10.127149345890034],["insist",-10.127401332753145],["paint",-10.127536834977061],["NH",-10.128391469839276],["happening",-10.13071232837692],["verse",-10.13170528971776],["outhern",-10.131774343592678],["bound",-10.132023172189694],["Thank",-10.132426298045388],["Disney",-10.132440437740673],["consistent",-10.132613626842263],["Hall",-10.132681654255519],["Market",-10.132706098409516],["bear",-10.132928506158473],["politician",-10.133025347847358],["ES",-10.133698539721369],["prime",-10.134277841516404],["PA",-10.136352123056366],["adopt",-10.137496272629733],["plane",-10.138828608028604],["rage",-10.13963944262673],["Mayor",-10.140069019478055],["Georgia",-10.140166659687017],["creative",-10.141420136473332],["coast",-10.142030305268243],["injuries",-10.143363156720312],["Ali",-10.143720529019618],["wage",-10.14672135751102],["circumstance",-10.147979148869368],["constant",-10.147979579868904],["Thomas",-10.147980491766944],["married",-10.147986591014076],["Church",-10.147993705569448],["faith",-10.148018971778418],["Valley",-10.14817628498044],["Region",-10.148200883055946],["Good",-10.14862848339714],["56",-10.149806831388602],["appli",-10.150357073224672],["66",-10.151293416603458],["Plan",-10.151406653771632],["telling",-10.15254512669385],["strict",-10.153154103410735],["85",-10.154084029971425],["dry",-10.154556724576434],["Jim",-10.154564436470455],["destroy",-10.155853218809096],["proposal",-10.15585398443167],["Nav",-10.156451483483309],["powerful",-10.15734328661568],["gather",-10.157856204207679],["urism",-10.159002719257327],["tuck",-10.159213064831707],["direction",-10.160841653510776],["Serie",-10.162167344841945],["appearance",-10.163038659575832],["spirit",-10.16371886048236],["commitment",-10.163798785394846],["Jeff",-10.163810630285106],["proceed",-10.163850539342853],["Wood",-10.163859014026913],["Jack",-10.163913065177873],["illness",-10.16392587975744],["reference",-10.164122624789535],["master",-10.164439758654368],["pal",-10.165393768538422],["interesting",-10.166898795693948],["donate",-10.169986534939405],["Pra",-10.170378868655106],["Grand",-10.170873819431403],["Corp",-10.171026086411011],["reopening",-10.1711286958001],["68",-10.171150675031305],["glo",-10.171421778222852],["Virginia",-10.171789746611184],["tournament",-10.171789756948648],["Christian",-10.171792928185333],["famous",-10.1717951879157],["fellow",-10.171804004292843],["respective",-10.172731165844137],["donation",-10.174664024323],["nurse",-10.17507063930012],["nov",-10.175440796306335],["cancell",-10.175872031694732],["agenc",-10.177534070648433],["map",-10.178851840498666],["secretar",-10.178883376830973],["Post",-10.179079298155798],["!”",-10.179710959481316],["ound",-10.179750473916148],["Daniel",-10.179855846415462],["internet",-10.179858659235139],["reform",-10.180025084577117],["apparent",-10.180175701046512],["Val",-10.180296612946236],["sky",-10.180799218815672],["photograph",-10.180906195495062],["task",-10.182540322888837],["challeng",-10.182654998979224],["atic",-10.182996823238284],["Your",-10.184530269564771],["replace",-10.184606721200431],["occurr",-10.186680409582166],["researcher",-10.187218406101952],["occasion",-10.187992416136488],["veteran",-10.188026296075641],["surface",-10.188252347284442],["isolate",-10.18855150645776],["jail",-10.188607865726835],["postpon",-10.189024568091607],["engineer",-10.1913287147668],["breaking",-10.191371944493099],["disappoint",-10.19141317585986],["chose",-10.192617638481146],["shopp",-10.194990231020213],["joint",-10.19549871014417],["radio",-10.195997199727397],["Follow",-10.19618125404545],["wealth",-10.196288588353699],["Nation",-10.197802484967951],["sentence",-10.199993738781608],["twic",-10.20035069469662],["egg",-10.204352354088549],["strength",-10.204354904905719],["pound",-10.204370690320427],["method",-10.20444837875498],["failure",-10.204774454011442],["Team",-10.204775764907932],["ollywood",-10.205233236359923],["Sanders",-10.20565147722456],["ruling",-10.205840023761628],["eating",-10.205903704375892],["wake",-10.206238115806606],["Feb",-10.20664179402007],["invite",-10.20710786341311],["rude",-10.207507152374074],["Shar",-10.208105023860861],["understanding",-10.208113072120504],["Chair",-10.208895398049773],["shoot",-10.20901259922675],["76",-10.209999106014948],["Vic",-10.210741319229902],["hunt",-10.211173705175536],["Tre",-10.212112154725911],["Town",-10.212138048679346],["Institute",-10.212778787851155],["professor",-10.212778790427711],["approval",-10.212778853543092],["protocol",-10.212779013866015],["stretch",-10.212781365478808],["division",-10.212883889288097],["admitted",-10.212929770699452],["batter",-10.21293945737755],["transaction",-10.213179902425589],["temp",-10.213371047310911],["hal",-10.214098357178546],["bann",-10.2141622932426],["Char",-10.214292859695806],["blow",-10.215444201854734],["trail",-10.215682207462866],["Sur",-10.215778357661529],["panel",-10.21685723570524],["shire",-10.220665228754342],["Commissioner",-10.220672049836685],["folk",-10.221218545287853],["Harry",-10.221349027216291],["transmission",-10.221389184179245],["representative",-10.221406435680535],["install",-10.221805856425256],["mouth",-10.22196871709831],["cold",-10.223556056305043],["innovati",-10.224230246213082],["BO",-10.22508077635175],["hum",-10.225494709766723],["achieve",-10.227221197209426],["scenario",-10.229656725079503],["Development",-10.229656725182384],["regulator",-10.22965673082962],["opponent",-10.229656731490396],["regulation",-10.229656797215863],["religious",-10.229657115378462],["Club",-10.229657391859444],["tackle",-10.22966270669495],["mom",-10.229702681710936],["88",-10.229768114947456],["rapid",-10.2298288483933],["internal",-10.229856517524048],["apartment",-10.229895636622423],["saving",-10.230044289140235],["Jackson",-10.230249239884337],["indicate",-10.230712982017549],["code",-10.231017711902517],["honest",-10.231590862637288],["clu",-10.23253606905821],["familiar",-10.23312352625993],["Pol",-10.233147634076353],["realize",-10.233383240690964],["Lee",-10.23384404769625],["rang",-10.23500945166365],["Out",-10.23556627452794],["800",-10.236094936552995],["itz",-10.236515566044975],["Love",-10.236915490693143],["haring",-10.237512380448994],["English",-10.238203744262753],["channel",-10.238211128344227],["manag",-10.238268804170207],["Royal",-10.238365735646479],["forecast",-10.238479315944337],["oppos",-10.238726902795221],["waste",-10.23886514189012],["distribution",-10.239124887050925],["impose",-10.239555653114653],["imagine",-10.240299791664162],["ministr",-10.240321980482662],["stoppe",-10.240517298364216],["boat",-10.241217160779755],["Avenue",-10.241328231077727],["Em",-10.2418787724405],["enable",-10.241927411395952],["mic",-10.242719231633451],["PM",-10.243079017544815],["52",-10.245461545715722],["84",-10.246456447046508],["Bal",-10.246593236873586],["Pakistan",-10.246824817050758],["dividend",-10.246882037065282],["fatal",-10.248708369182282],["pel",-10.248968596639752],["entry",-10.249193282336597],["closing",-10.249300954210492],["holder",-10.249562322090277],["ramp",-10.24968818402487],["Luc",-10.250498020310047],["fence",-10.25116961934294],["Real",-10.251569814693614],["64",-10.252444282776562],["53",-10.25311311718285],["59",-10.253628137028834],["Steve",-10.253782158602744],["outcome",-10.253984811296363],["fraud",-10.255520189661816],["studio",-10.255520561428074],["rescue",-10.255704635891925],["recommendation",-10.256489854987748],["presen",-10.257710910260522],["54",-10.25874844775209],["78",-10.261177220036782],["67",-10.261366617827237],["77",-10.26149772705525],["complet",-10.262157930381731],["graph",-10.263583674902605],["trouble",-10.26429200701447],["blue",-10.264299182933026],["relevan",-10.264305304924804],["length",-10.264324106666127],["glass",-10.264324692868897],["century",-10.264336920597614],["plent",-10.264399494499543],["Election",-10.264648595757107],["aspect",-10.265043063390584],["600",-10.265222329203624],["island",-10.267623151338489],["onna",-10.267644545923272],["orrow",-10.268076102166308],["participat",-10.26897630733572],["pray",-10.269391765975083],["produc",-10.269477846149439],["mayor",-10.27062727846562],["core",-10.270864924215402],["viewers",-10.27201908914423],["rival",-10.272644324445405],["CDC",-10.272840750724903],["guilt",-10.273142367071433],["obtain",-10.273145141520576],["premier",-10.273145182333387],["illegal",-10.273190398300422],["Western",-10.273265001557146],["broadcast",-10.27336558160247],["expose",-10.273612707493356],["Iowa",-10.274297648293437],["Human",-10.275472958427795],["chester",-10.276066568443746],["basic",-10.276263458588119],["Aug",-10.27629836343569],["participate",-10.277324312566858],["mond",-10.28081125755012],["franchise",-10.282070141906214],["coordinat",-10.282072457978177],["variet",-10.282072672371264],["uncertaint",-10.282148874121592],["television",-10.28215021696943],["instance",-10.282231770004723],["combine",-10.282245536737708],["provision",-10.282519818345829],["57",-10.28313232330044],["reci",-10.283266066058149],["ignor",-10.284515325389293],["chart",-10.284706237591095],["determined",-10.286042155390222],["polis",-10.286467577086947],["Maine",-10.288786159359917],["environmental",-10.289681844255252],["controll",-10.29019517610007],["Tu",-10.290747351272099],["identify",-10.291079159655972],["permanent",-10.291085170130907],["desire",-10.291088016026396],["shelter",-10.291129676574231],["Micro",-10.291144812979885],["Richard",-10.291348127043698],["steal",-10.291838353633407],["Wall",-10.292074077445928],["deput",-10.292876062235798],["Gold",-10.294365691376814],["commission",-10.294399015340657],["determine",-10.296142387753791],["98",-10.29711409029813],["visitor",-10.297206633550164],["lake",-10.297264243941017],["Long",-10.297742549745621],["96",-10.299242865289521],["sumption",-10.299401907039712],["chel",-10.299699227798714],["champion",-10.299881874233918],["unny",-10.299924520627904],["volume",-10.300174380417975],["Ohio",-10.300233912225565],["false",-10.300263482861972],["Three",-10.300273654178968],["finance",-10.300518412455496],["prefer",-10.30056385387923],["tribute",-10.30083787458152],["Ten",-10.30121356818632],["coverage",-10.301800544581436],["pace",-10.30206366206692],["hopeful",-10.302562336424257],["blame",-10.302826106105245],["Bell",-10.30299478806375],["singer",-10.303436682342639],["cycl",-10.304202285249065],["strange",-10.305764025784296],["lig",-10.30578592204813],["58",-10.306635230225073],["recogni",-10.306801238859403],["bright",-10.30752873873097],["Net",-10.307602378345221],["72",-10.307950903767448],["manufactur",-10.30883246554487],["Authorit",-10.309344380827858],["advertis",-10.309344580767814],["troop",-10.309346666165997],["worry",-10.310106752409794],["62",-10.31020333160554],["Week",-10.310206191515213],["secret",-10.310221246416836],["q",-10.312472810977766],["unlike",-10.313168360200706],["prepare",-10.313737496203863],["govern",-10.314530199301178],["reserve",-10.317257120834471],["gam",-10.318260284394622],["decide",-10.318484329794861],["Education",-10.318603631127111],["overwhelm",-10.318603701163518],["Floyd",-10.318603754357518],["recruit",-10.31860380718166],["pregnan",-10.31860550892262],["prospect",-10.318611217189389],["circ",-10.318697398591526],["consequence",-10.318698247413773],["numero",-10.318746281177152],["appoint",-10.318966050862418],["Great",-10.319112965135194],["festival",-10.319117787780218],["97",-10.319214727426447],["organisation",-10.31928931999139],["Medical",-10.320224302371072],["micro",-10.321758162985494],["softw",-10.321868180333844],["possibl",-10.323360190789563],["rack",-10.323451892550032],["appointment",-10.324711875156428],["denie",-10.326412254734315],["evolution",-10.32794942075382],["Student",-10.327949535289555],["segment",-10.327972654659611],["reaction",-10.328205524191233],["Yet",-10.330114941350988],["featur",-10.331112744024624],["ington",-10.332296062331453],["Mag",-10.332603692418683],["guess",-10.333635585297927],["busy",-10.336003279843128],["NN",-10.336056169327065],["PO",-10.336071134316935],["stone",-10.336305234602914],["neighbor",-10.337331337068631],["rub",-10.337332190954957],["Parliament",-10.337383380416332],["sudden",-10.337389021381629],["license",-10.337391221916608],["Social",-10.337435694969574],["reject",-10.337468710639847],["airline",-10.337501832620632],["bough",-10.337808173876944],["vital",-10.338227311039851],["boss",-10.339908046341192],["EP",-10.34017014584674],["rib",-10.341889611258612],["expens",-10.342499333671684],["olar",-10.344427874405426],["everal",-10.346108665337976],["handl",-10.346726595156364],["alcohol",-10.346907953364246],["colleague",-10.346911141324716],["Atlant",-10.346935379265787],["identit",-10.346976688638419],["Spring",-10.347040807895613],["tension",-10.347130378207382],["Young",-10.347192145873851],["dismiss",-10.34733222653094],["habit",-10.348383513536074],["Singh",-10.349069489976234],["resolve",-10.349911981276737],["background",-10.350314068684071],["citi",-10.350410948221606],["Onc",-10.35282935022516],["Press",-10.352879816698337],["improv",-10.354588373881223],["vast",-10.35467127000294],["object",-10.356063864122337],["evil",-10.356074163458924],["•",-10.356522574139426],["debut",-10.35653459888994],["Earth",-10.356548171925805],["bomb",-10.356558980963992],["Iranian",-10.356722126497498],["Beach",-10.356909766557024],["Guard",-10.356939114014674],["Life",-10.357065183508254],["lawsuit",-10.357118368680737],["charit",-10.357256378323116],["intelligence",-10.35793250322882],["ux",-10.357983569172251],["Kim",-10.359354519909576],["Still",-10.359656600540678],["mistake",-10.360112451294693],["Sara",-10.362929474925675],["reduc",-10.36331407424364],["stabili",-10.363620838973684],["brief",-10.363877743957886],["PR",-10.36398484113225],["encourag",-10.364679326529632],["confident",-10.364904764282532],["Netflix",-10.366231312572591],["Investment",-10.366231387210465],["appreciate",-10.366231683313078],["technical",-10.366232430617924],["Assembly",-10.366234427799917],["consensu",-10.366246508679026],["neighborhood",-10.366284881959494],["Watch",-10.36631615151975],["wedding",-10.366459934599506],["agricultur",-10.366806553799453],["boot",-10.36684435972725],["export",-10.367374316409435],["Wil",-10.371419142164537],["Bel",-10.371834760477668],["wick",-10.372637131254775],["tire",-10.37303108465402],["inning",-10.37339768795354],["69",-10.373411055419897],["Barr",-10.375318072843488],["participant",-10.37603523376535],["Executive",-10.376035239455424],["Obama",-10.376036439441407],["script",-10.376230791223934],["emotional",-10.37626343343434],["zero",-10.376461786955925],["broken",-10.376672911934032],["racial",-10.376714068566763],["escape",-10.376916266363406],["Water",-10.376943470194192],["chairman",-10.377221970852602],["expectation",-10.379280887973332],["Hunt",-10.379562158635062],["oursel",-10.379702915728789],["employer",-10.379878788586566],["crop",-10.38074806842506],["PP",-10.381613267296354],["mandate",-10.382074666404097],["Look",-10.383274212076806],["resolution",-10.383399364066218],["Ital",-10.385796320798804],["activist",-10.385936338658858],["Additional",-10.385936577584388],["prompt",-10.3859384637781],["CBS",-10.386386027078935],["celebration",-10.386547618026182],["sample",-10.386547704212557],["Men",-10.387053513830644],["llino",-10.38794506198894],["Put",-10.388606309947086],["iscal",-10.389309938438902],["sharp",-10.389768258829347],["neck",-10.391686208495372],["classic",-10.393087603803316],["resist",-10.393557645750914],["Mid",-10.395673132949462],["concert",-10.39593828020881],["analysis",-10.395950284358506],["Middle",-10.395960467027855],["switch",-10.396091193667779],["Bryan",-10.396217988955247],["graphic",-10.396415798589551],["garden",-10.396586750101445],["partnership",-10.396892097534753],["briefing",-10.398419627031451],["arriv",-10.398989771913602],["Kh",-10.40045707973881],["Gri",-10.402026097152966],["igg",-10.402995796436468],["gel",-10.403399184139218],["luck",-10.404395271949115],["decrease",-10.406037262241723],["Taylor",-10.406037372320382],["Iraq",-10.406037998727285],["critic",-10.406081802069547],["spike",-10.40613743126395],["Station",-10.406423935260257],["lawmaker",-10.406674332211924],["Trust",-10.40671123210112],["Queen",-10.40677259975823],["cia",-10.406877186594368],["bail",-10.40699847377114],["danger",-10.40750412315142],["Where",-10.408085391779002],["86",-10.408633114633908],["tradition",-10.409151042977138],["stepp",-10.409730276958546],["labor",-10.410950506082504],["larger",-10.411852598725783],["94",-10.411974296071243],["Carl",-10.412388034097173],["operator",-10.41262872558652],["RO",-10.413611878835674],["Down",-10.413853912143377],["51",-10.414660571708104],["Ash",-10.41500301844453],["Best",-10.41526369191314],["cloth",-10.415480632994722],["athlete",-10.416245033377809],["bottom",-10.416289566767787],["Bowl",-10.416383804467781],["Jewish",-10.416452837496966],["nuclear",-10.416599608475812],["elder",-10.416649445059008],["Coast",-10.416732505043647],["prosecutor",-10.417383488705696],["wheel",-10.417581084454056],["curb",-10.417929857396738],["confront",-10.41811095575222],["shortage",-10.418568166049969],["Free",-10.418621329464187],["suffering",-10.418853204867737],["assign",-10.419222340387032],["cry",-10.419469780628162],["assure",-10.419565481556013],["alert",-10.42071836623612],["Pet",-10.422265393225043],["Asia",-10.42282087973977],["repeated",-10.423851716234296],["Asian",-10.423909594564392],["Bob",-10.423963606905293],["oundation",-10.425788161534179],["Plu",-10.426360780739088],["accurate",-10.426550653859373],["actress",-10.426625003833237],["Turkey",-10.426661524896264],["soldier",-10.426775744859466],["horse",-10.426805849282268],["Local",-10.42686585475688],["Agenc",-10.426964237529456],["newspaper",-10.427025121614507],["Drive",-10.428179823025229],["contribute",-10.428211832299233],["lop",-10.428214939716533],["industrial",-10.428308256204897],["beach",-10.42854441631032],["quiet",-10.42892382944325],["Francisc",-10.429447825483322],["favor",-10.430095973936428],["DO",-10.43038538802621],["describ",-10.43409534477897],["peak",-10.435376994659993],["comfort",-10.43558862423157],["medicine",-10.436967506253012],["fashion",-10.436967734548691],["stimul",-10.436990000824292],["bottle",-10.437034422675758],["Food",-10.437074363189723],["theater",-10.43718952634169],["birthday",-10.437931304401669],["dinner",-10.43809354401371],["touchdown",-10.438409124302138],["Former",-10.439163345992466],["upgrade",-10.43982454575264],["hill",-10.439969710785558],["istan",-10.44381023449095],["bodie",-10.444483964684498],["Tar",-10.44603266495524],["marriage",-10.447493616634162],["Global",-10.447493633144543],["Olympic",-10.447493642969569],["surprising",-10.447493788556294],["democrac",-10.447494005375294],["Academ",-10.447494015194728],["behavior",-10.44749421920701],["Zoom",-10.447495395373249],["conclude",-10.447498192099177],["Muslim",-10.447510519155104],["Scotl",-10.447516097242456],["Michi",-10.447528059983554],["Jenn",-10.447563870235662],["Ghana",-10.447589507918497],["drama",-10.448005600796893],["contribution",-10.448172633195178],["heavi",-10.448435308260962],["sweet",-10.448963145119752],["William",-10.449154149060975],["Farm",-10.449176232690142],["cloud",-10.449501480613781],["ourne",-10.449983391817572],["travell",-10.45021732086991],["passion",-10.453871939949497],["purchas",-10.454343630230847],["uhan",-10.45495438729106],["Bost",-10.457485317612115],["Louis",-10.457563385046807],["Project",-10.458132427639917],["Control",-10.458140157196425],["disaster",-10.45814816556811],["Charles",-10.45823462101849],["cream",-10.458322208716861],["Among",-10.45846540658062],["championship",-10.458471190645627],["Sports",-10.458867729293043],["Bloom",-10.45891001881952],["eligib",-10.458915620877992],["Ryan",-10.459592435427968],["remark",-10.45967023564948],["Report",-10.459955211898144],["regime",-10.4606981419578],["Rose",-10.46104210909488],["lap",-10.461950037310581],["manner",-10.46225276793338],["Khan",-10.462921974222807],["formal",-10.46326676126154],["cease",-10.464082010235089],["quarterback",-10.464903527826568],["complain",-10.465840657643906],["urban",-10.467177433507063],["nstead",-10.467675355788948],["communicat",-10.468110623018436],["defensive",-10.46888456228546],["maxim",-10.468888362790903],["royal",-10.468918778425206],["fifth",-10.468951924423214],["Power",-10.469101708448818],["dispute",-10.469205594555248],["bird",-10.46926203327736],["Morgan",-10.469616778462418],["instruction",-10.470037120993819],["argument",-10.470092404330224],["founder",-10.471099668688069],["percentage",-10.471132691022772],["urgent",-10.471144798263285],["87",-10.475343337970255],["integr",-10.47619143972814],["requir",-10.476977135189603],["mount",-10.47861746722257],["2012",-10.478983921414745],["Jordan",-10.479757407120331],["sponsor",-10.479766289975451],["Toronto",-10.479791701443487],["routine",-10.479820919435895],["affair",-10.479929505578355],["admit",-10.480004332924624],["assume",-10.480444271855005],["technologi",-10.480910002927374],["settle",-10.481048752452816],["square",-10.48107469935443],["Back",-10.481082837828994],["compet",-10.482190080461633],["Kong",-10.482412782158748],["Head",-10.482462959722225],["gym",-10.482667494691036],["gap",-10.482677392836006],["enem",-10.483158176016426],["alter",-10.484048907429706],["Bir",-10.485224089271929],["hung",-10.485239891926135],["iami",-10.485343342269829],["Abu",-10.487551366126567],["acre",-10.488877364629175],["lib",-10.490696832845728],["guarantee",-10.49074316676515],["procedure",-10.49074317678498],["offensive",-10.490743188111907],["iPhone",-10.490743930128067],["territor",-10.490745323861677],["enhance",-10.490746502582024],["Judge",-10.490756154359403],["System",-10.490765551590268],["dedicate",-10.490766716771214],["custod",-10.490819186008878],["western",-10.490869540335293],["golf",-10.491044232511015],["tune",-10.491218063516332],["Financi",-10.491255997928326],["profile",-10.491504272796707],["Sky",-10.49205484484361],["Open",-10.492927382392736],["Daily",-10.494294629334721],["Paris",-10.494655634737178],["rop",-10.497166208151366],["2010",-10.49839664716908],["organis",-10.501472189402538],["corrupti",-10.501670534318762],["Pennsylvania",-10.501854249573366],["Alberta",-10.50185750192946],["bury",-10.5026032962432],["capabilit",-10.502659444061404],["teaching",-10.50371581768222],["aches",-10.507165298572072],["ological",-10.50761921761491],["hospitaliz",-10.509636145389678],["loud",-10.51099451092291],["playoff",-10.512911803014468],["Economic",-10.513090208270778],["excellent",-10.513090472126427],["embrace",-10.513091284910079],["yield",-10.513091302095617],["Jersey",-10.513091947905739],["concept",-10.513092585595635],["crucia",-10.513092976314486],["nomination",-10.513095345550934],["Second",-10.513096460851951],["knock",-10.513109980270865],["Vegas",-10.513113163518351],["Houst",-10.513386960598588],["enforce",-10.513399390749662],["assessment",-10.51365368598715],["jur",-10.513754009884675],["Tro",-10.513823067971213],["uz",-10.514001739279836],["Greg",-10.514030278157833],["possession",-10.515955772903022],["Add",-10.51606137959686],["strategic",-10.516286712293422],["WE",-10.517321282563241],["unclear",-10.52179518466654],["Senator",-10.52193239524416],["subsid",-10.52236568646893],["birth",-10.523408320322373],["discriminat",-10.524453841129972],["neighbour",-10.524453841419259],["diagnose",-10.524453842998927],["frequent",-10.524453850076366],["collapse",-10.524453899248108],["exposure",-10.524453903264405],["grocer",-10.524468253028045],["snap",-10.524520525663734],["filing",-10.524522030522853],["panic",-10.526024941858854],["wound",-10.526205327679623],["bench",-10.52629763899129],["residenc",-10.526525653275854],["uru",-10.527733419075807],["Clark",-10.52840806245876],["explor",-10.530515703502026],["150",-10.531078474455757],["fake",-10.531083884541971],["250",-10.531482227936888],["announce",-10.531894276625488],["79",-10.532892645534144],["Base",-10.533971610620405],["Championship",-10.535948094038138],["parliament",-10.535948094913746],["Arizona",-10.535948096916144],["Family",-10.53594983275578],["motivat",-10.53595021635154],["computer",-10.535961339044299],["Energ",-10.53597245574112],["Labour",-10.535979944623724],["Lago",-10.536179048482598],["footage",-10.537045369998573],["collective",-10.537078686024582],["Dam",-10.537675592152151],["northern",-10.540350571089464],["riot",-10.541338139423248],["submitt",-10.542619238946688],["xciting",-10.543071556434327],["sole",-10.54548796191554],["nurs",-10.545722437171715],["homeless",-10.546245854745989],["cultural",-10.5470006106845],["Angel",-10.547281274844877],["unprecedented",-10.547576005089379],["qualifie",-10.54757640539432],["kitchen",-10.547576603248828],["offense",-10.547577611082326],["competitive",-10.547578731908551],["lakh",-10.547625899974587],["precaution",-10.547749243513366],["unfortunate",-10.547991292177093],["ounce",-10.548083492483588],["objective",-10.548132857515093],["define",-10.548638616682293],["700",-10.548706917880901],["tourist",-10.548956761494729],["improvement",-10.54917609425313],["legend",-10.550176812508141],["mac",-10.550817829408269],["ancing",-10.55251639490935],["Sir",-10.555588147449285],["cheap",-10.55576910851088],["stein",-10.555774496292731],["ector",-10.557613336201566],["prepar",-10.558724192852862],["petition",-10.559168124794478],["Wisconsin",-10.559340829752127],["Advisor",-10.559340830030212],["Foreign",-10.559345881025607],["Class",-10.559365131251752],["penalt",-10.559417450899549],["Davis",-10.55943940722915],["Lewis",-10.559463505550674],["legac",-10.559550548703243],["reduction",-10.559569712172587],["pilot",-10.559765315266667],["collaboration",-10.56001654976906],["advocate",-10.560146304164125],["praise",-10.560992054520916],["Cross",-10.562140031730195],["rob",-10.565651863930235],["umble",-10.568257323343694],["ensur",-10.568864799583327],["Ever",-10.56907840650305],["Henr",-10.570806525012621],["bull",-10.57085301317018],["assess",-10.570861501589185],["Elizabeth",-10.571245468670117],["Sheriff",-10.571246068083358],["Disease",-10.571278927817783],["Unfortunate",-10.571281330376253],["Eastern",-10.571319012668194],["acknowledge",-10.571339141108208],["counsel",-10.571353837431008],["librar",-10.571376617842336],["Emm",-10.571424279239963],["quote",-10.571470450845538],["historical",-10.571964636395688],["Network",-10.572419331576071],["indeed",-10.57280176621424],["efore",-10.576718250886977],["Deput",-10.576885442608063],["JP",-10.578848575512723],["charg",-10.579991654982022],["contribut",-10.581023579323034],["Ontario",-10.583293665343998],["Attorney",-10.583293673740386],["Afghan",-10.583293697274378],["Special",-10.583293833722902],["Industr",-10.58335967624166],["split",-10.583448039155757],["peaceful",-10.584019155076804],["disclose",-10.584870706269022],["headline",-10.585329193178453],["NY",-10.585459657462074],["downtown",-10.586476410607972],["crack",-10.586592187975807],["engine",-10.590483988738626],["Bol",-10.592491077066725],["Zimbabwe",-10.595488783524104],["junior",-10.595489149972893],["empty",-10.595489631268402],["cinema",-10.595492901869179],["relax",-10.595522019397357],["Senior",-10.595525457731263],["89",-10.595533538184586],["extraordinar",-10.595536484834655],["Please",-10.595769007038763],["evolv",-10.595911480409747],["tender",-10.597026574429435],["flower",-10.59748053153901],["index",-10.598146596174644],["restrict",-10.599426458730537],["careful",-10.601041017306915],["knee",-10.601297307636038],["ABC",-10.606449491803293],["Catholic",-10.607834469723986],["Colorado",-10.607834498110645],["narrative",-10.607834520641791],["academic",-10.60804192691784],["shore",-10.608418977160692],["manufacturer",-10.608524837323095],["clinical",-10.610639868116937],["ular",-10.610947674692643],["Republic",-10.61164249040484],["Raj",-10.613968301646135],["followers",-10.614046396899088],["clock",-10.615372180449707],["eller",-10.619178936765323],["historic",-10.619721996879427],["origin",-10.6198143714281],["speaker",-10.619997605547336],["cryptocurrenc",-10.620334463991544],["delphi",-10.620334488563872],["desperate",-10.620334491057392],["Conference",-10.620334623265258],["Light",-10.620356128785609],["climb",-10.620362101848986],["fruit",-10.620450215012788],["viral",-10.6204586826316],["Through",-10.620483506754203],["violation",-10.621003595168244],["shoe",-10.621030101449357],["assembl",-10.62151766317225],["Lord",-10.622135136350131],["Jason",-10.623179775049596],["arrival",-10.623806924314692],["except",-10.62435231191526],["Walk",-10.626234462168966],["Tony",-10.626730452197572],["clari",-10.629235152881297],["celebrat",-10.63180664331912],["arvel",-10.632312782036868],["divide",-10.632931721999825],["Professor",-10.632992692770454],["adequate",-10.632992694604756],["perspective",-10.632992703972604],["condemn",-10.632992917972263],["YouTube",-10.63299851877018],["convention",-10.63299966451406],["burden",-10.633005249084118],["Leader",-10.633009972393715],["conservative",-10.633036779233974],["Patriot",-10.633062322343758],["plastic",-10.633074454853428],["colour",-10.633079333075608],["encounter",-10.633183876887074],["dramatic",-10.633257540247447],["Israeli",-10.634337856803151],["baseball",-10.635193803210598],["Santa",-10.63554463867432],["solve",-10.637183109151668],["generate",-10.638686322904231],["portion",-10.63886149955445],["transform",-10.639682204831043],["trailer",-10.641036589369246],["tank",-10.641285469357193],["hub",-10.643820166614496],["clip",-10.645612778458112],["Zealand",-10.645819324395102],["Brazil",-10.64582232790451],["absence",-10.645848448561278],["magic",-10.645923079110592],["wonderful",-10.646301006510125],["classroom",-10.646465442764363],["sanction",-10.64689407292567],["Season",-10.647402632868145],["See",-10.647506589152584],["joke",-10.647527136423703],["arren",-10.647855130039712],["drag",-10.64966735640845],["experienc",-10.650064843051911],["surger",-10.653925600452236],["plain",-10.658458983869902],["caution",-10.6586105854709],["Science",-10.658800439977705],["combination",-10.658800502631651],["senator",-10.658804690235648],["Administrati",-10.65880530004482],["shirt",-10.658855559769208],["circulat",-10.658926521291772],["Kev",-10.65992040061508],["craz",-10.661051224521001],["bike",-10.66149339494699],["angle",-10.665020467451612],["moral",-10.66509492835647],["Read",-10.665926818585913],["Old",-10.66652624980038],["Cooper",-10.666749983834357],["dale",-10.667893901895416],["label",-10.670012880514012],["minorit",-10.67059690187191],["prayer",-10.67082757261379],["bowl",-10.67172595351619],["anxiet",-10.67195813289769],["Joseph",-10.671958138611915],["scientific",-10.671958150383997],["component",-10.671958190968912],["Saudi",-10.671958898856342],["Program",-10.671961894934608],["fundamental",-10.6719764016071],["depth",-10.671979708941365],["Night",-10.671980492014367],["instrument",-10.671990354543855],["belief",-10.67200931776917],["punish",-10.672018061798997],["strengthen",-10.672102646348918],["literal",-10.67212525189899],["extension",-10.672471667946693],["mendment",-10.672517920893029],["abandon",-10.67253772011124],["Eric",-10.673359375467008],["impossible",-10.67476776763143],["anticipate",-10.674782359151077],["endorse",-10.674970849151444],["exam",-10.677726915368488],["reasonable",-10.677744509155144],["Kenya",-10.67778002847309],["bro",-10.678673235091438],["ensu",-10.679776018181528],["ahu",-10.680258403974861],["Official",-10.685291445687541],["nominee",-10.685295023286475],["Media",-10.685429036577514],["TON",-10.685486551531884],["Saint",-10.6860022397192],["gging",-10.686249754373673],["Keep",-10.686837306670146],["lady",-10.687382487972863],["string",-10.687526948251755],["valid",-10.68816973984855],["edition",-10.688485733640677],["visibl",-10.691788268776245],["unknown",-10.693507898899954],["hol",-10.69400307159945],["leak",-10.695661646660549],["collaborat",-10.698103369620245],["dose",-10.698509856685147],["currenc",-10.69876526030114],["automatic",-10.698805356473216],["Sydney",-10.698806027466492],["horror",-10.698809294726264],["venture",-10.698824942156406],["Nicol",-10.698883619771069],["eastern",-10.698909226228857],["criticism",-10.699003809875634],["squad",-10.701568985181542],["weigh",-10.702291457854587],["Tik",-10.705212405548876],["finger",-10.705832925425138],["Tru",-10.707720361632418],["minor",-10.70795652910783],["comic",-10.708940209005142],["Bull",-10.710615716489063],["accomplish",-10.712503587743232],["aggressive",-10.712503588098063],["cruise",-10.712522274456852],["signature",-10.712537956143112],["museum",-10.712542547845183],["thrill",-10.712548978026978],["optimis",-10.712621330702207],["carbon",-10.712878798242516],["Golden",-10.713165907478576],["context",-10.713224475625587],["Josh",-10.713780396595082],["chest",-10.713897897649083],["consist",-10.714007623726093],["Grant",-10.714268377490331],["oko",-10.714579952029782],["ockey",-10.717705367276693],["spokesm",-10.718332320464409],["bow",-10.718476978695065],["practical",-10.719833429738292],["negotiat",-10.725615090529743],["migrant",-10.72629706832939],["Stephen",-10.726392490688607],["genuine",-10.72639413860949],["pocket",-10.726394690098862],["medium",-10.726534245800796],["Guyan",-10.726606739435057],["ambitio",-10.727060935353188],["Trans",-10.727645751851032],["march",-10.72807332324765],["runner",-10.728468994031067],["storage",-10.728769914552759],["audit",-10.736313513614315],["confus",-10.739047951574026],["elve",-10.739245114748487],["Hope",-10.74012333408605],["municipal",-10.740476983696455],["exclusive",-10.740476999168404],["behaviour",-10.740477298323114],["Bitcoin",-10.740480023140822],["Further",-10.74048216917953],["priva",-10.740491844351647],["dominat",-10.740509804108477],["convert",-10.740517651890322],["Metro",-10.740567044691762],["Bengal",-10.740692165637476],["smartphone",-10.740757751456464],["assistant",-10.741654967227898],["Safe",-10.742001646029482],["Music",-10.742264313023417],["shutdown",-10.742441137630724],["Nick",-10.746989207646065],["tolen",-10.747028913066838],["radi",-10.747504400243319],["hom",-10.749527564626849],["buck",-10.750450304638425],["cooperati",-10.753588426916885],["exploit",-10.754762706278822],["epidemic",-10.754762709811532],["celebrit",-10.754762730934662],["intervention",-10.75476297794484],["Stadium",-10.754763041149427],["convince",-10.754764528660914],["fault",-10.754776294372945],["favourite",-10.75482581897299],["Airport",-10.755217433867774],["Check",-10.755273076769786],["negotiation",-10.755563122323128],["Wilson",-10.75557941239087],["fulfill",-10.755688940402486],["Bridge",-10.755772919866697],["raft",-10.756844718492369],["imagin",-10.759421273924925],["Space",-10.760203605864014],["mobili",-10.761084427418194],["ootball",-10.767440259761464],["Turk",-10.769159881555524],["respirator",-10.769255451633633],["Investor",-10.76925712905419],["comply",-10.769438432582785],["coffee",-10.769441728975838],["Modi",-10.769699173640955],["violat",-10.770766923600949],["basicall",-10.772301406091328],["Brian",-10.77230817196428],["Syria",-10.773038767389217],["Spani",-10.774994941862648],["Crow",-10.778791876824513],["subsequent",-10.783961334085202],["efficient",-10.78396133409699],["diploma",-10.783961334592785],["disciplin",-10.783961336565543],["Associate",-10.783961338598072],["Pacific",-10.783961349512357],["experiment",-10.78396175583556],["destructi",-10.783961912409602],["podcast",-10.783962986506225],["intensive",-10.783969322581736],["Bernie",-10.783971588491012],["funeral",-10.78398244445603],["vessel",-10.783990040100967],["terrorist",-10.784070567112924],["Megha",-10.78424270161473],["desk",-10.784244914366424],["defence",-10.784283242626294],["summar",-10.784323615376598],["Division",-10.784419675985344],["retain",-10.784803325974657],["provinc",-10.784847902228769],["escalat",-10.784967463513063],["Minne",-10.785087415247375],["Lady",-10.785745413140436],["fundrais",-10.786904557785867],["substantial",-10.788303849337247],["stem",-10.78889468242311],["clash",-10.789311824672495],["nobod",-10.78957730546697],["orry",-10.790547351690822],["Jet",-10.790658521313059],["Anti",-10.790770717881387],["latter",-10.793237751477738],["Rich",-10.797236542844335],["association",-10.798886707618012],["registration",-10.798886708718165],["Mumbai",-10.798886725883547],["Societ",-10.798886742302898],["anniversar",-10.79888677991286],["qualify",-10.798886962633567],["prohibit",-10.798887537311863],["brutal",-10.798888988743848],["sensitiv",-10.79888908003187],["gradual",-10.798897286711451],["reliabl",-10.799029879023681],["lunch",-10.799249776156229],["absent",-10.799308211797491],["civilian",-10.799656658114156],["drew",-10.800899014844795],["Master",-10.80105509206291],["tactic",-10.801195327070872],["occur",-10.802728285806499],["Swi",-10.804373931434348],["beaut",-10.804505805900725],["immer",-10.804805725806945],["Oak",-10.80499591398407],["gro",-10.80520281906788],["Financ",-10.80559714890364],["agged",-10.806266122512962],["curve",-10.807037861328372],["iron",-10.808083048728228],["eager",-10.809662633994257],["hrew",-10.81027835451677],["Arch",-10.810445332264951],["Defense",-10.814038225244634],["pattern",-10.814040264720916],["destination",-10.814042037192937],["trillion",-10.814043546951885],["trigger",-10.814044841779356],["nominate",-10.814046039470906],["Brexit",-10.814057883587353],["Clint",-10.814258823481449],["mpire",-10.815282331976029],["euro",-10.816173854256865],["cro",-10.816366869957996],["river",-10.821037883676395],["frai",-10.821193434670814],["examine",-10.824637943364461],["Sab",-10.824716669624188],["lade",-10.825925028104024],["Trade",-10.827536252864979],["uomo",-10.827728705692774],["Marsh",-10.828399009377996],["convict",-10.828643785622848],["Jew",-10.828794684688635],["Thompson",-10.829422840274358],["Palestinian",-10.829422841437824],["Dakota",-10.829422877879203],["accelerat",-10.829422908978044],["symbol",-10.829428379222644],["barrier",-10.829433870770778],["detain",-10.829476325351372],["Italian",-10.829558714863422],["Common",-10.829593813662754],["GDP",-10.829600827024032],["transparen",-10.829804488446769],["clinic",-10.829851612636421],["NSW",-10.829882342495905],["mountain",-10.830016303238228],["bias",-10.830494944094676],["teammate",-10.831344318917981],["musician",-10.831627837289929],["smooth",-10.831665352015841],["attach",-10.831817488613986],["constitutional",-10.832333049915135],["deposit",-10.833271780835137],["laud",-10.834405307244687],["taste",-10.836922532817384],["Carol",-10.83740684172059],["uperior",-10.837942696273839],["sustainabl",-10.840669326135616],["anticipat",-10.841700473549972],["neutral",-10.84504785109627],["expansion",-10.845047894410243],["satellite",-10.845049107515948],["flexib",-10.845050892999916],["Which",-10.845059371871582],["calculat",-10.845142339569133],["passionate",-10.845153288368905],["Arab",-10.845293104803293],["instant",-10.84532450977212],["cyber",-10.845415741501741],["mandator",-10.84543943728223],["Tech",-10.845820090682679],["Anna",-10.846845537709772],["admission",-10.846966959919236],["hitting",-10.847577575357686],["drone",-10.850944916042675],["Hamil",-10.851044819660423],["Fla",-10.851229698706213],["consum",-10.85133898289656],["topping",-10.85191112819864],["peer",-10.851948521952936],["plac",-10.859431826190026],["courage",-10.860891744011422],["portfolio",-10.860920853487913],["dynamic",-10.86092092096996],["divorce",-10.86092136055219],["disturb",-10.860921952845718],["cabinet",-10.860922209983055],["impressive",-10.860922446694417],["Oregon",-10.86092429247715],["Utah",-10.86095408515262],["Moore",-10.860962283625938],["captain",-10.860962875657215],["Constitution",-10.861025872899063],["agenda",-10.86107185076161],["portray",-10.861132568014789],["cluster",-10.861240700542128],["Mountain",-10.861291830902186],["warrant",-10.8613063531429],["Irish",-10.861328562890307],["bedroom",-10.861852597461683],["achievement",-10.862049378054898],["progressive",-10.862235713269445],["engagement",-10.862516154007592],["delight",-10.863290227796366],["shame",-10.86797045242714],["nose",-10.870656917804936],["citizen",-10.8722855044516],["*",-10.877049885736074],["principal",-10.877049885749676],["brilliant",-10.87704989003861],["helicopter",-10.877049890269284],["fantastic",-10.877049914733655],["arrangement",-10.877052373431487],["Current",-10.877054695187091],["harvest",-10.877071765259142],["extensive",-10.877079959098523],["itarian",-10.87716921564844],["aspir",-10.877190439896793],["Mitchel",-10.877272845746456],["Little",-10.877519966619133],["wipe",-10.877604151378389],["Clar",-10.87862098312311],["vocal",-10.878629815870319],["valuation",-10.879489793592885],["sugar",-10.88031981033733],["integrate",-10.88246816404588],["interact",-10.882765700025242],["apolog",-10.88382911389871],["Gate",-10.892216258209075],["Histor",-10.892481333298278],["á",-10.893443328359025],["entrepreneur",-10.893443328359567],["demonstration",-10.893443329388848],["beneficia",-10.89344332944863],["conclusion",-10.893443359439576],["Prevention",-10.893443550365742],["electronic",-10.893444432611979],["eliminate",-10.893444959251912],["Radio",-10.893449241481663],["villain",-10.893451320926022],["SARS",-10.893479450428522],["Civil",-10.893481024808933],["Gulf",-10.893510986590293],["resilien",-10.893531911605947],["replie",-10.893584055325151],["align",-10.893783636044585],["preced",-10.893859414862968],["idden",-10.893880428938576],["console",-10.893931306099528],["compromise",-10.894026680712209],["utilit",-10.894446109465369],["Low",-10.894662763216791],["Boris",-10.89550729536101],["deadline",-10.89621088868932],["bil",-10.896226327589213],["custom",-10.89778122396362],["Latin",-10.8998285842533],["Cro",-10.90393389539156],["ipping",-10.905686634258906],["Ven",-10.909707452243136],["Environment",-10.910109997862971],["sufficient",-10.910110013306696],["Organization",-10.910110105398381],["suicide",-10.910110417821265],["continent",-10.910111394195585],["navigat",-10.910117342168414],["Should",-10.910118288229068],["Tiger",-10.910157658559658],["liberal",-10.910182085229065],["visual",-10.910218410952545],["intense",-10.910387954913194],["promotion",-10.910707816981017],["impeach",-10.911493681060225],["Massac",-10.91374516874764],["milk",-10.914602143250777],["honour",-10.916638300303092],["inspect",-10.918377008126374],["Dieg",-10.919712970136416],["chant",-10.92018224176611],["ladi",-10.92489941879708],["explosion",-10.92705914763502],["complicate",-10.927059164605401],["Emergenc",-10.927059175269449],["obligation",-10.927059180747877],["privilege",-10.927059185349165],["exempt",-10.927059518502027],["silver",-10.92706890014554],["Affair",-10.927087735185198],["missile",-10.927095435078584],["Agricultur",-10.927129516885056],["Steel",-10.927140370616257],["exceed",-10.927231619279734],["moderate",-10.927732996813734],["toilet",-10.928286390454037],["mega",-10.928978893455536],["pub",-10.929632949166674],["Kate",-10.933553752640087],["compos",-10.935011014841567],["orthern",-10.939140013824517],["loom",-10.943277260473218],["Murphy",-10.94430053171915],["technique",-10.944300538585782],["devastating",-10.94430054694203],["luxur",-10.944303738219357],["unveil",-10.944305183997853],["grateful",-10.94430909646621],["Jacob",-10.944351544746516],["pledge",-10.944382663864811],["barrel",-10.944406683498311],["Transport",-10.944439268365052],["noise",-10.944624245810985],["trauma",-10.944728021058367],["punch",-10.944783324696354],["boyfriend",-10.94544911365574],["assert",-10.945487836301341],["ocean",-10.945570199003894],["Montreal",-10.945655480375873],["rumor",-10.946320458204637],["Stock",-10.946414411854928],["hydro",-10.94650540165781],["interaction",-10.946741693494491],["Brook",-10.94706866068125],["achiev",-10.94838653537624],["disappear",-10.950439302745199],["hack",-10.95047826051381],["sembl",-10.961017290441898],["disrupt",-10.96106598002887],["ventilator",-10.961844387761836],["legitimate",-10.961844409653828],["surveill",-10.9618448154316],["chapter",-10.961845421535608],["pharmac",-10.961845574445446],["Alabam",-10.961849580223337],["Crime",-10.961851160968052],["weird",-10.961878644203729],["Vol",-10.961919746313363],["premise",-10.961954827144496],["sentiment",-10.961979861492978],["pump",-10.9621527521101],["persist",-10.96226640773302],["Edward",-10.962390716515394],["Garden",-10.962468106105913],["disabilit",-10.96286635990747],["spell",-10.964232237850986],["math",-10.966050385251382],["criticiz",-10.966107393071944],["magn",-10.970932130994758],["kov",-10.971598635620282],["suburb",-10.973319713487875],["salar",-10.973835194660538],["instruct",-10.97778423952963],["Univers",-10.979000711001017],["Mount",-10.979295188035783],["favour",-10.979625081353479],["frustration",-10.979701530767302],["Hawaii",-10.979701576818062],["deficit",-10.979701617884889],["physician",-10.979701850870569],["shield",-10.979702266374847],["statistics",-10.979702596148718],["fabric",-10.979702772137657],["chicken",-10.97970345100686],["Vietnam",-10.979703701999764],["Channel",-10.979706957386176],["Ukrain",-10.979707020509842],["Galax",-10.979711631018922],["column",-10.979715429247731],["Austin",-10.97974328468418],["sensor",-10.979768419467472],["Zack",-10.97977637419938],["Alexander",-10.979840508834666],["liquid",-10.980212163592888],["terribl",-10.980241701515464],["equipp",-10.980281104049109],["Kyle",-10.980426120917675],["brown",-10.980432372472345],["speculat",-10.980572599073925],["discharge",-10.980796408289773],["ridge",-10.996133574054863],["Collin",-10.997032861542728],["ndigenous",-10.997883479387658],["advisor",-10.997885217144155],["chemical",-10.997888123993917],["Corporation",-10.997890742820886],["loose",-10.997912025948072],["firefighter",-10.997915173886797],["Film",-10.997925630735875],["stakeholder",-10.997972438792345],["loyal",-10.998019453336656],["Given",-10.998060252055033],["Evans",-10.998168690488477],["wrestl",-10.998202288832415],["Hotel",-10.998256684815995],["laptop",-10.99836491279986],["immigrant",-10.99837278720784],["robber",-10.998422482104342],["Next",-10.998498363204547],["drill",-10.998751546562607],["discount",-10.998903433726525],["preparation",-10.999159872966898],["Turn",-10.999334819214491],["Late",-11.005686574351603],["tenni",-11.010724882038412],["acult",-11.013357820061442],["dispos",-11.013432142114336],["ethic",-11.014690915813555],["Charli",-11.016061264465254],["principle",-11.016401866086383],["supplement",-11.016402019917319],["Charlotte",-11.016402035841404],["Resident",-11.016402891455776],["Mohamm",-11.016404472564426],["contrast",-11.01640464320955],["Bureau",-11.01640503575422],["Information",-11.016414125552902],["taxpayer",-11.01641489064654],["Museum",-11.01642751299173],["reputation",-11.01645118080141],["Wolf",-11.016453733442793],["motive",-11.016471636213087],["Dallas",-11.016564495427689],["NASA",-11.016840393457755],["metric",-11.017232786247398],["ASDA",-11.017440799692674],["Small",-11.01803810646842],["Pelo",-11.018193135930643],["colon",-11.01826786079474],["Kris",-11.02020069838779],["Jean",-11.022747226025924],["Balti",-11.022962850168673],["journal",-11.030040459338588],["realise",-11.033536288298194],["construct",-11.034495611231993],["Ethiopia",-11.03526979064971],["conspirac",-11.035269791702564],["compliance",-11.035269791765222],["consecutive",-11.035269792349812],["Building",-11.03526980650975],["Nevada",-11.035269893414206],["recession",-11.035270160359342],["stadium",-11.035270791283706],["drastic",-11.03527108919481],["Belarus",-11.035271781552424],["Journal",-11.035271918154141],["interrupt",-11.035272631384288],["Major",-11.035283682167163],["teenager",-11.035286434898849],["boast",-11.035300562360408],["vegetable",-11.035318066056794],["casual",-11.035332111479562],["fiction",-11.03533915818251],["Barrett",-11.035443261115871],["controversial",-11.03548181664672],["regret",-11.035570198302668],["roster",-11.03562820394566],["Politic",-11.035631764345117],["harass",-11.03599664580996],["Glen",-11.036034660064796],["girlfriend",-11.036523103090762],["slide",-11.037268866288287],["repeat",-11.040547716095137],["lippe",-11.040968814979523],["obust",-11.043707015810897],["architect",-11.052624928066006],["Muhammad",-11.054500561159253],["refugee",-11.054500571252987],["Festival",-11.054500583707213],["subscribe",-11.05450060464726],["Columbia",-11.05450063634776],["succeed",-11.054500673065837],["prominent",-11.054500964502981],["enterprise",-11.054503407643988],["Support",-11.054537191655024],["landscape",-11.054546034938308],["Video",-11.054549159435437],["breast",-11.054576477491901],["Cabin",-11.054636980351887],["Credit",-11.05466164910722],["Solei",-11.054673573199413],["Silv",-11.05467836017118],["audio",-11.054776164476934],["enroll",-11.055186887194823],["rystal",-11.055275076956635],["Baker",-11.055529196668104],["ordinar",-11.05599679203539],["shine",-11.056356709987645],["Horn",-11.057345054577524],["THE",-11.058644708334356],["Elect",-11.059231835243576],["surround",-11.062165439246346],["announc",-11.063213235085636],["enne",-11.063536110131379],["duti",-11.06910470899658],["disagree",-11.071915424537517],["universal",-11.074108549056163],["conscious",-11.074108793557276],["Halloween",-11.07411227680819],["silence",-11.074119960283081],["Tennesse",-11.07412081144675],["Jesus",-11.074131694194584],["Mobil",-11.074143729516555],["Connell",-11.07414477206672],["Brooklyn",-11.07415966776841],["opposite",-11.074291209439963],["Euro",-11.078945155621307],["mash",-11.087223051112376],["sacrifice",-11.09410840321236],["mortgage",-11.094108409160897],["Studio",-11.094108421121344],["Captain",-11.094108461746057],["Philippine",-11.094109043005286],["departure",-11.094109260652484],["religion",-11.09411363168132],["entrance",-11.09415342197865],["utiliz",-11.094207653621504],["vendor",-11.094229734514666],["Ocean",-11.094257021332812],["toxic",-11.094320309077016],["Order",-11.094544837017013],["empower",-11.094845089570795],["sweep",-11.094878033051033],["Independen",-11.095062314580618],["Aaron",-11.095145532292925],["cient",-11.095903430893994],["deeme",-11.097757208348284],["tenanc",-11.102186450842245],["blend",-11.107951266252615],["₹",-11.114516566246643],["í",-11.114516566246644],["comprehensive",-11.114516566247909],["Representative",-11.114516989887793],["judicia",-11.114519372266267],["Village",-11.114521468008991],["Connect",-11.114531634588555],["muscle",-11.114534687574555],["reiterate",-11.114537631160996],["sequel",-11.114543525509994],["Matthew",-11.114544617740702],["Panther",-11.114590624429438],["educate",-11.114598814442074],["laborator",-11.114610263294157],["recipe",-11.114615028544396],["liabilit",-11.114690521550369],["Storm",-11.115745550425517],["Philip",-11.116199943378847],["antibod",-11.128501055767831],["Francis",-11.129490442870178],["Staff",-11.131234036548232],["jurisdiction",-11.135349899694535],["Fauci",-11.135349931828951],["Aberdeen",-11.135350144475526],["phrase",-11.135350220414658],["mitigate",-11.135350295465415],["Kingdom",-11.135351501172531],["substance",-11.135351897926231],["premium",-11.135352324349862],["cricket",-11.135352922509796],["Future",-11.135363592951526],["tragic",-11.1353662278083],["float",-11.135366245815238],["Armenia",-11.135366597985918],["silent",-11.135374961678021],["ndroid",-11.135377459977924],["drove",-11.135384019237572],["patron",-11.135390775268082],["Reuter",-11.135484194493227],["hawk",-11.13560105058362],["Arabia",-11.135769324155698],["Command",-11.135846024716619],["render",-11.13824887924826],["Short",-11.139928885678692],["certifi",-11.140901904362153],["Patric",-11.145432091618563],["glad",-11.146512555571976],["buri",-11.149431285846322],["Thai",-11.153554684116756],["exhibit",-11.155847740774451],["enthusias",-11.156626497193606],["Lincoln",-11.156626506302732],["Memorial",-11.156626551733222],["hybrid",-11.156627565387044],["sibling",-11.156637994366825],["Product",-11.156639939937932],["treasure",-11.156644510117772],["Summer",-11.156646434675356],["inaugura",-11.156657062732169],["Country",-11.15667716296188],["costume",-11.15672130418156],["occupie",-11.156723739154273],["pivot",-11.156727658170027],["Gordon",-11.156742411474353],["apitol",-11.156750335352063],["Phillip",-11.156797904256575],["elite",-11.157060659818175],["revise",-11.161554073001705],["bump",-11.16313764551824],["rallie",-11.168834348698653],["furlough",-11.178365629469381],["voluntar",-11.17836564111559],["mechanism",-11.178365646287723],["democratic",-11.17836566908799],["scrutin",-11.178366068738496],["caucus",-11.178366280162546],["corporation",-11.178369907027028],["ialogue",-11.178375854580805],["congress",-11.178376281376568],["cannabi",-11.178385645938622],["felon",-11.178418055302323],["distinct",-11.178419683273168],["reign",-11.17843447234101],["boom",-11.178477684576412],["anuel",-11.178539918465077],["random",-11.178543875224364],["spiritual",-11.178564510616706],["Asset",-11.178822223013924],["arring",-11.180916417924418],["rotat",-11.191084289240713],["Direct",-11.196883669676215],["Conservative",-11.2005878481027],["obstacle",-11.200587850421838],["tremendous",-11.200587851065686],["Singapore",-11.200587868068414],["Treasury",-11.200587877925432],["flavor",-11.200587884091595],["Similar",-11.200587885729437],["judgment",-11.20058796996898],["reservation",-11.200588016365291],["ingredient",-11.200588215924544],["Douglas",-11.200588405333509],["stroke",-11.200588502066896],["Quebec",-11.200591185855176],["generous",-11.200592954338674],["ethnic",-11.200594856186365],["innocent",-11.200603518806629],["guitar",-11.200621949895684],["welfar",-11.200985457647398],["Smart",-11.20108766548948],["Sign",-11.202496778338197],["battl",-11.207001034051833],["efficienc",-11.223315120709728],["ambassador",-11.223315120724333],["Bangladesh",-11.223315120837675],["Ultimate",-11.223315122004028],["reception",-11.223315204213272],["criteri",-11.22331523199955],["athletic",-11.223316017131248],["Wayne",-11.223316837486202],["medication",-11.223317176008532],["Field",-11.22331793105278],["Broncos",-11.223319325746631],["Place",-11.223320124119576],["Thanksgiving",-11.223328760787298],["Chamber",-11.223330272934373],["lecture",-11.22333332245061],["yellow",-11.223336204874412],["exclud",-11.22333767987344],["councillor",-11.223364811745121],["suspension",-11.223378520446143],["Motor",-11.223428086880585],["burst",-11.223440083868194],["initiate",-11.223445404943902],["blind",-11.223449144597806],["flame",-11.22348640748486],["Christophe",-11.223883298452218],["Camero",-11.224292811084144],["blaze",-11.224702161155689],["commute",-11.225994676230416],["migration",-11.229640793565913],["Count",-11.236665515874135],["immigrati",-11.240139131012207],["Cub",-11.240310413129393],["arcelo",-11.240602197122476],["ó",-11.246570934662424],["atmosphere",-11.246570935246975],["Egypt",-11.246570983439332],["phenomen",-11.246571084593427],["subscription",-11.246571085773652],["enormous",-11.246574140569855],["Picture",-11.246577028399656],["volatil",-11.246580931288563],["interpret",-11.24662140933877],["mirror",-11.246626808233003],["Girl",-11.246656770990178],["compell",-11.2466804469319],["Assistan",-11.2466899063164],["View",-11.246718634521216],["incentive",-11.24671989935034],["Titans",-11.246726710101624],["loot",-11.246935373923796],["orient",-11.247001947039323],["accompanie",-11.24730423182096],["Talk",-11.247523635670758],["conserv",-11.24773954182047],["Hawk",-11.247802417118246],["ouisiana",-11.247940697993958],["liqu",-11.249311192110738],["accommodation",-11.270380458511736],["complication",-11.270380462501326],["administrator",-11.270380477140723],["Entertain",-11.27038047813241],["Edmonton",-11.270380512967893],["Pompe",-11.27038199514697],["semester",-11.270390524283247],["Librar",-11.270394964175964],["inevitabl",-11.270421410213986],["inflation",-11.270427363633225],["crete",-11.270471539456295],["Square",-11.270508028120869],["Berlin",-11.270577979646317],["Snap",-11.270589481774095],["mood",-11.270598721200855],["activat",-11.270624491156124],["Could",-11.270624899861144],["dirt",-11.270679394084368],["commerc",-11.271338555118632],["possess",-11.272440702582394],["stitution",-11.278616101035166],["depressi",-11.278823145450776],["submit",-11.280794315288514],["hygien",-11.294770703490595],["nutrition",-11.294770759579507],["external",-11.294771062591083],["calendar",-11.294772496431136],["Spider",-11.29477646417527],["certificate",-11.29477852423024],["universe",-11.294788500419019],["Consider",-11.294802908522934],["mineral",-11.294828045143399],["Palace",-11.294834465032173],["removal",-11.294845388943632],["Liberia",-11.294969639786071],["bunch",-11.29501291315877],["Jerem",-11.29514000560788],["Antoni",-11.295196851924972],["Change",-11.295310474328684],["trappe",-11.305243287288075],["Madri",-11.312462489252281],["deliberate",-11.319770704062208],["horizon",-11.319770711291863],["Modern",-11.319770944094518],["exhaust",-11.319771095527596],["sovereign",-11.319771204674606],["Commerce",-11.319771667722842],["embass",-11.319771791033556],["emphasis",-11.319771926289281],["Communication",-11.319772392945326],["fantasy",-11.319772853281995],["evident",-11.319773434125157],["nervous",-11.31977449252952],["Federation",-11.319775403279735],["Internet",-11.319775557711672],["romantic",-11.319775600645825],["diamond",-11.319775817604478],["satisfie",-11.319776849929674],["anxious",-11.319777100512422],["intimate",-11.31978069521205],["Receive",-11.319783628619195],["civic",-11.31978681433557],["genetic",-11.31979845585373],["commodit",-11.31980066059215],["fool",-11.319827800611339],["borough",-11.319848685473703],["ecosystem",-11.31992994676097],["congrega",-11.319977891621818],["decorat",-11.320194183213191],["shadow",-11.320626666724241],["advoca",-11.34366118054501],["Mississippi",-11.345411728015417],["constituenc",-11.345411728027827],["Temple",-11.345411756667453],["earthquake",-11.345411774608868],["manipulat",-11.345411861366422],["necessit",-11.345412192715564],["Taiwan",-11.345412626564183],["Citizen",-11.345413290947912],["vigil",-11.345414756242217],["ESPN",-11.345415789391687],["Doctor",-11.345416599514936],["mutual",-11.345417529032677],["autonom",-11.345422431565863],["Critic",-11.345437900200725],["thorough",-11.345438650227027],["Ahmed",-11.345440100810993],["Dodger",-11.345443610609719],["execute",-11.345458295673778],["excuse",-11.345463874377865],["uniform",-11.345509572268117],["Jessi",-11.345513610933729],["Malawi",-11.345670601804088],["arbitra",-11.346787321432322],["griev",-11.34743997144989],["rophy",-11.348384536514244],["notifie",-11.34914444794189],["socio",-11.362769661826803],["legislati",-11.362789850315373],["influen",-11.371114760663335],["Venezuela",-11.371727517507741],["Municipal",-11.37172751751662],["pharmaceutical",-11.371727518078902],["incumbent",-11.371727520136012],["livelihood",-11.371727535806968],["unanimous",-11.371727547175071],["diagnosi",-11.371727584841777],["Craig",-11.37172765502222],["Window",-11.371727671243232],["concession",-11.371727763436272],["Agreement",-11.371727817745072],["suspicion",-11.371728031009622],["Oxford",-11.37172828528047],["Indonesia",-11.371731881886895],["Superintenden",-11.371738342834298],["Strateg",-11.371739165514061],["Provinc",-11.371744875671626],["chamber",-11.371744900663085],["loving",-11.371746413935128],["rookie",-11.372004615783915],["Uganda",-11.37201276304163],["steel",-11.372680784143771],["loop",-11.373201831605844],["Neil",-11.373609579786757],["enabl",-11.384665080183481],["excite",-11.385564581882818],["expenditure",-11.398754544611673],["structural",-11.398754545265266],["condolence",-11.398754546393544],["bankruptc",-11.398754547482518],["Caribbean",-11.398754551722085],["constitute",-11.398754555387736],["authentic",-11.398754700603051],["Missouri",-11.398754905711177],["engaging",-11.39875529864897],["ambulance",-11.398755962319154],["Bachelor",-11.398756509328084],["inclusion",-11.398756959777021],["Kennedy",-11.39876029187707],["Diamond",-11.398768299298595],["Nichol",-11.398770610767372],["Friends",-11.398771070074105],["Policy",-11.398789766616144],["Natural",-11.398794778155299],["firing",-11.398795552377067],["Digita",-11.398823927668568],["depict",-11.398867593204837],["urgenc",-11.400946020898719],["patrol",-11.4009683007498],["Communi",-11.41248761123819],["philosoph",-11.426532322294058],["kilometre",-11.426532327959814],["evacuate",-11.426532330021178],["compensation",-11.426532383806636],["Convention",-11.426533460162538],["Veteran",-11.426533552368632],["abortion",-11.42653638731698],["itigation",-11.426537706251617],["stupid",-11.42654095612907],["Globe",-11.426543430552],["examination",-11.426561442887992],["Animal",-11.426565367392609],["eviction",-11.426576072096085],["Technologi",-11.426707339507548],["Murra",-11.426933730749731],["corrupt",-11.426997637735528],["contrar",-11.427285229690785],["induc",-11.427660165563857],["geograph",-11.428869493149058],["decid",-11.429557179666304],["positiv",-11.44108198536141],["bvious",-11.447215157150707],["vaccination",-11.455103750972782],["definition",-11.455103753474239],["frustrating",-11.455103756434793],["Engineer",-11.455103766438523],["deteriorat",-11.455103778288361],["Punjab",-11.455103807328642],["affiliate",-11.455103808514458],["ophomore",-11.455103959331483],["preliminar",-11.455104339751925],["prevail",-11.455105344429587],["Malaysia",-11.455105449808388],["plague",-11.45510633334511],["rhetoric",-11.455106957957035],["vacation",-11.455107001474683],["mechanic",-11.4551075621677],["oxygen",-11.455111160860431],["Custom",-11.455149557273774],["streak",-11.455163121197442],["desert",-11.455190168596712],["Belgi",-11.455458390749234],["remarkabl",-11.460124199917967],["inject",-11.460405072882878],["descen",-11.462493698315473],["pipe",-11.471469830333621],["administrati",-11.475642352138427],["prosecut",-11.48042602292223],["LGBTQ",-11.484515515586489],["ridiculous",-11.484515516087388],["legislature",-11.484515516322194],["Nebraska",-11.484515521559178],["Samuel",-11.484515967307455],["implication",-11.484516263991933],["supervisor",-11.484516406643873],["cliff",-11.48451693526172],["parallel",-11.484518082897017],["embark",-11.484518093327626],["elevate",-11.484518603633605],["Lawrence",-11.484519451679521],["concise",-11.484523273386849],["Celebr",-11.48452345207596],["pepper",-11.484524735612386],["variant",-11.484528204658716],["lobby",-11.484533814347301],["sheriff",-11.484538297275419],["monument",-11.484552765738337],["Arsena",-11.484564655833124],["credib",-11.489483766589075],["figur",-11.503822920336583],["Secret",-11.507511596287813],["controvers",-11.514476305942413],["embarrass",-11.51481854622925],["Restaurant",-11.514818546583538],["evacuation",-11.514818547942586],["Organisation",-11.514818565053709],["dominant",-11.514818580448434],["collision",-11.514818715021235],["graduation",-11.514818776944233],["extremis",-11.514818796770783],["awkward",-11.514818959702598],["cautious",-11.514819275690417],["supremac",-11.51481951808217],["filter",-11.514819852417993],["devastate",-11.514821684263449],["Consumer",-11.51482191221713],["pronounce",-11.514823148031338],["Liberal",-11.51482785121447],["chronic",-11.51483035705685],["sandwich",-11.514832644853147],["Hopkin",-11.514836698065379],["Bailey",-11.514838857110366],["Peace",-11.514847498036435],["Astro",-11.517597969003514],["Azerbaijan",-11.546068545874242],["Jerusalem",-11.546068545937082],["convenient",-11.546068546203575],["explicit",-11.546068610964888],["glimpse",-11.546068620472738],["accurac",-11.546068624654108],["description",-11.546069006134811],["tariff",-11.546070470381423],["Soviet",-11.546071117905978],["scrambl",-11.546071847871387],["landlord",-11.546074423060514],["immense",-11.546076600700843],["explanation",-11.54607713206972],["pupil",-11.546099696347099],["intervene",-11.546104239127839],["precise",-11.546104932465802],["doubl",-11.558233600396774],["practic",-11.563928291191854],["Ghos",-11.56461970675707],["physi",-11.575323377399762],["sequence",-11.577994812439266],["predecessor",-11.578326610428968],["convenience",-11.578326610569306],["Hurricane",-11.578326610884458],["recipient",-11.57832662926955],["chocolate",-11.578328144500658],["cultivat",-11.57832839591026],["mortalit",-11.578328439155737],["Bernard",-11.578330693878243],["intimidat",-11.578330859281008],["Tesla",-11.578337676158869],["invitation",-11.578338490562452],["Arthur",-11.578341318226247],["inclusiv",-11.578437341059477],["reassur",-11.592970697324263],["patien",-11.604453328562027],["fortunate",-11.610356843533545],["artificial",-11.61165994736755],["Namibia",-11.61165995102896],["cigarette",-11.611659954001627],["frustrate",-11.611659959329444],["perception",-11.611659974267814],["Buttigi",-11.61165997931113],["Kashmir",-11.611660091001461],["plasma",-11.611660137912642],["delicious",-11.611660259374617],["fascinat",-11.611660412978136],["Hundred",-11.611660434762719],["horrifi",-11.61166077315573],["smuggl",-11.611661037169439],["Embass",-11.611661191946315],["Freedom",-11.61166131959217],["verdict",-11.611662094586425],["absurd",-11.611663501580637],["consolidate",-11.611666189922968],["bacteria",-11.611668012743756],["modifie",-11.611668685836833],["tuition",-11.611671523255497],["deferr",-11.611686480862922],["contagio",-11.611845350465625],["memorabl",-11.613047421320239],["obsess",-11.631563484186268],["reluctant",-11.646142702347223],["algorithm",-11.646142702438905],["Tanzania",-11.646142702970977],["Progressive",-11.64614270584353],["legislator",-11.646142707723634],["Chancellor",-11.646142744842901],["Manhattan",-11.64614279805336],["pedestrian",-11.646142813940916],["Magistrate",-11.646142915201985],["Switzer",-11.646143185611194],["companion",-11.646143871243115],["reconcil",-11.646144019741069],["hazard",-11.646145555633879],["simulat",-11.646674677612957],["ntelligence",-11.677115546598332],["academ",-11.681293033678536],["‚",-11.68185698805868],["Kardashian",-11.681856988341938],["Criminal",-11.681856999585007],["referendum",-11.681857004388124],["Athletic",-11.681857094814198],["homicide",-11.681857224011795],["Private",-11.681857421432506],["Spirit",-11.681858522588476],["alternate",-11.681858625555694],["pixel",-11.681858659144117],["Abdullah",-11.681858913191743],["Reynold",-11.681858916779337],["delegate",-11.681859612447449],["contaminat",-11.681860087224354],["Coordinat",-11.6818615959925],["transmitt",-11.681862041530561],["irmingham",-11.681873224077595],["terrifi",-11.681886139000497],["Inspector",-11.68192861737434],["classifie",-11.682064916636843],["prevalen",-11.682114691600356],["abundan",-11.682267949863967],["resumpti",-11.686849437062484],["Pharmaceutical",-11.71889402509572],["Legislature",-11.718894025099289],["Oklahoma",-11.718894025556978],["Elliot",-11.71889408066641],["execution",-11.718894128550843],["Scientist",-11.718894618725649],["Warrior",-11.718894809163416],["Advance",-11.71889596337552],["grappl",-11.718912390976016],["Semiti",-11.719996889161994],["onstruction",-11.755225842595923],["¦",-11.757355563557255],["„",-11.757355563557255],["intellectual",-11.757355563567499],["pneumonia",-11.75735556357664],["explosive",-11.75735556364949],["neglect",-11.757355582927122],["powder",-11.75735573278516],["decisive",-11.757355747004732],["Lloyd",-11.757355955845082],["fragil",-11.75735604698404],["onsequent",-11.757356200462908],["frequenc",-11.757356382269501],["Original",-11.757357242164629],["submarine",-11.75735877765182],["abduct",-11.757364204744313],["societ",-11.786580172104289],["diagnostic",-11.797355563557462],["Employee",-11.79735556355812],["Investigation",-11.797355563562666],["Baghdad",-11.797355563927315],["definitive",-11.797355565336272],["compliment",-11.797355565710443],["disproportionate",-11.797355577029297],["Prosecutor",-11.79735558110773],["pocalyp",-11.79735558261915],["gorgeous",-11.797355601769466],["complement",-11.797355613563889],["receipt",-11.797355617159388],["prescrib",-11.797355682777049],["prestig",-11.797357982046725],["Estonia",-11.797366288899845],["ehabilitati",-11.800032280651166],["significan",-11.824994303073314],[">",-11.839022230223922],["simultaneous",-11.839022230224117],["philanthrop",-11.839022230224366],["Circuit",-11.839022233575616],["spectacular",-11.839022293455745],["dimension",-11.839023289054225],["stigma",-11.839024232723174],["Scotia",-11.839035822922707],["horribl",-11.83904288827982],["molecul",-11.839089658463077],["tornado",-11.839296812083491],["ensibl",-11.854500510579356],["vaccinate",-11.882500491908546],["astronaut",-11.882500491980371],["substitute",-11.882500493292781],["unbelievabl",-11.88250049582646],["envelope",-11.882500528210482],["Chennai",-11.882500535619666],["replicate",-11.882500710327859],["obstruct",-11.882501542033427],["Counsel",-11.882595964648624],["adjacen",-11.88265367710732],["profession",-11.923969575266534],["restructuring",-11.92795503654913],["constituent",-11.92795503667481],["hurricane",-11.927955037459883],["Regulator",-11.92795504314978],["credential",-11.927955045566112],["hilarious",-11.927955051380478],["fossil",-11.927955165717915],["contradict",-11.927957217984538],["Gabriel",-11.927958042301285],["ongratulati",-11.92796235137338],["Registr",-11.927964296095062],["Judicia",-11.927964595887142],["retaliati",-11.927977933835194],["unacceptabl",-11.92895477446269],["Ambassador",-11.975574084171685],["Individual",-11.97557408417261],["Campaign",-11.975574084239893],["Orthodox",-11.97557408426416],["Detective",-11.975574084351486],["vulnerabilit",-11.975574085368534],["Advocate",-11.97557408545892],["nostalgi",-11.975574087180537],["Manufactur",-11.97557408734613],["conjuncti",-11.97557441568881],["incarcerat",-11.97559490335127],["ñ",-12.025574084167083],["Mozambi",-12.02557408418153],["aggravate",-12.025574087569456],["cumulative",-12.02557409191154],["Rodrigue",-12.025574094105323],["technician",-12.02557409799452],["zombie",-12.02557411449162],["compatib",-12.025592183734709],["defect",-12.025640573844544],["optimiz",-12.025681059385343],["ü",-12.07820566311445],["т",-12.07820566311445],["А",-12.07820566311445],["Investigator",-12.078205663116776],["catastrophe",-12.078205663149637],["congratulate",-12.078205663361722],["succumb",-12.133761218948663],["nfectious",-12.187830060863448],["¢",-12.192584748081774],["½",-12.192584748081774],["·",-12.192584748081774],["practitioner",-12.19258474813345],["Principal",-12.192584748134276],["efficac",-12.19258474840059],["tabloid",-12.19258474840406],["Colombia",-12.192584758311648],["ð",-12.255084748081778],["epidemiolog",-12.255084750005025],["ecretariat",-12.302342843709448],["ä",-12.321751414748453],["°",-12.321751414748453],["Kazakhstan",-12.321751414748533],["Roosevelt",-12.321751414764869],["Temperature",-12.321751414782817],["arij",-12.33098322375483],["è",-12.393179986177044],["refrigerator",-12.393179986180634],["susceptib",-12.393180011734023],["ç",-12.470103063100161],["˜",-12.470103063100163],["~",-12.553436396433598],["<",-12.5534363964336],["ђ",-12.644345487342955],["Э",-12.744345487343733],["ë",-12.85545659845732],["ā",-12.85545659845732],["ö",-12.855456598457321],["ʻ",-12.855456598457321],["⁣",-12.980456598466423],["®",-12.980456598466423],["»",-12.980456598466423],["`",-12.980456598466423],["×",-12.980456598466423],["č",-12.980456598466425],["ú",-13.123313741323567],["с",-13.123313741323592],["ă",-13.123313741363527],["œ",-13.123313741363527],["¥",-13.123313741363527],["а",-13.123313741363527],["Ў",-13.289980407990242],["်",-13.289980408030182],["ã",-13.289980408030193],["š",-13.289980408030193],["ğ",-13.289980408030193],["É",-13.489980407990236],["″",-13.489980408030194],["┬",-13.489980408030194],["å",-13.489980408030194],["₦",-13.489980408030194],["ū",-13.739980407990235],["ѓ",-13.73998040799028],["ş",-13.739980408030192],["ê",-13.739980408030192],["à",-13.739980408030194],["г",-13.739980408030194],["ל",-13.739980408030194],["о",-13.739980408030194],["´",-13.739980408030194],["е",-13.739980408030194],["‑",-13.739980408030194],["′",-13.739980408030194],["›",-13.739980408030194],["﻿",-13.739980408030194],["ı",-13.739980408030194],["™",-14.07325689538565],["️",-14.073313741323567],["İ",-14.07331374132357],["ा",-14.073313741323572],["म",-14.073313741323572],["מ",-14.073313741323574],["ု",-14.073313741363481],["ה",-14.07331374136352],["ł",-14.073313741363524],["ɑ",-14.073313741363526],["ߋ",-14.073313741363526],["क",-14.073313741363526],["У",-14.073313741363526],["Ó",-14.073313741363526],["Ä",-14.073313741363526],["‡",-14.073313741363526],["−",-14.073313741363526],["і",-14.073313741363526],["Ю",-14.073313741363526],["Ž",-14.073313741363526],["ѕ",-14.073313741363526],["́",-14.57331374132357],["ț",-14.57331374132357],["ø",-14.57331374132357],["ि",-14.573313741323576],["Ъ",-14.573313741323602],["န",-14.57331374136349],["တ",-14.57331374136349],["ु",-14.573313741363517],["स",-14.573313741363517],["्",-14.573313741363517],["ﬁ",-14.573313741363517],["ō",-14.573313741363522],["˚",-14.573313741363528],["े",-14.573313741363528],["ć",-14.573313741363528],["¯",-14.573313741363528],["ם",-14.573313741363528],["Ġ",-14.573313741363528],["һ",-14.573313741363528],["‰",-14.573313741363528],["²",-14.573313741363528],["§",-14.573313741363528],["ड",-14.573313741363528],["י",-14.573313741363528],["Ľ",-14.573313741363528],["«",-14.573313741363528],["र",-14.573313741363528],["ţ",-14.573313741363528],["ו",-14.573313741363528],["မ",-14.573313741363528],["ȼ",-14.573313741363528],["⁠",-14.573313741363528],["‐",-14.573313741363528],["±",-14.573313741363528],["ô",-14.573313741363528],["ာ",-14.573313741363528],["ं",-14.573313741363528],["¾",-14.573313741363528],["‎",-14.573313741363528],["ी",-14.573313741363528],["₵",-14.573313741363528],["င",-15.572213741363527],["Ђ",-15.572313741363526],["ိ",-15.572413741363526],["Р",-15.572513741363526],["ï",-15.572613741363526],["Ÿ",-15.572713741363525],["І",-15.572813741363525],["ю",-15.572913741363525],["î",-15.573013741363527],["Ь",-15.573113741363526],["Щ",-15.573213741363526],["Č",-15.573313741323577],["ž",-15.573313741323577],["ḥ",-15.573313741323577],["Г",-15.573313741323659],["ж",-15.573313741323659],["ќ",-15.573313741323659],["Њ",-15.573313741323659],["у",-15.573313741323659],["њ",-15.573313741323659],["Т",-15.573313741323659],["ပ",-15.573313741363433],["ရ",-15.573313741363433],["ှ",-15.573313741363433],["ब",-15.573313741363503],["ē",-15.573313741363515],["Ā",-15.573313741363526],["ᥙ",-15.573313741363526],["õ",-15.573313741363526],["⚽",-15.573313741363526],["À",-15.573313741363526],["अ",-15.573313741363526],["温",-15.573313741363526],["ת",-15.573313741363526],["³",-15.573313741363526],["အ",-15.573313741363526],["ק",-15.573313741363526],["य",-15.573313741363526],["ن",-15.573313741363526],["▪",-15.573313741363526],["ွ",-15.573313741363526],["Ö",-15.573313741363526],["¹",-15.573313741363526],["я",-15.573313741363526],["ဖ",-15.573313741363526],["⛓",-15.573313741363526],["Þ",-15.573313741363526],["Ѓ",-15.573313741363526],["ע",-15.573313741363526],["₁",-15.573313741363526],["ƅ",-15.573313741363526],["‪",-15.573313741363526],["․",-15.573313741363526],["─",-15.573313741363526],["д",-15.573313741363526],["ў",-15.573313741363526],["Î",-15.573313741363526],["❤",-15.573313741363526],["ż",-15.573313741363526],["П",-15.573313741363526],["ב",-15.573313741363526],["Ż",-15.573313741363526],["Í",-15.573313741363526],["ʼ",-15.573313741363526],["ट",-15.573313741363526],["Я",-15.573313741363526],["Ј",-15.573313741363526],["ʏ",-15.573313741363526],["џ",-15.573313741363526],["ー",-15.573313741363526],["လ",-15.573313741363526],["ᴠ",-15.573313741363526],["צ",-15.573313741363526],["ल",-15.573313741363526],["သ",-15.573313741363526],["က",-15.573313741363526],["◆",-15.573313741363526],["ń",-15.573313741363526],["օ",-15.573313741363526],["ħ",-15.573313741363526],["א",-15.573313741363526],["ד",-15.573313741363526],["נ",-15.573313741363526],["－",-15.573313741363526],["घ",-15.573313741363526],["✨",-15.573313741363526],["Å",-15.573313741363526],["æ",-15.573313741363526],["त",-15.573313741363526],["地",-15.573313741363526],["ါ",-15.573313741363526],["化",-15.573313741363526],["Ё",-15.573313741363526],["श",-15.573313741363526],["ņ",-15.573313741363526],["☺",-15.573313741363526],["ⅼ",-15.573313741363526],["ေ",-15.573313741363526],["❌",-15.573313741363526],["ß",-15.573313741363526],["➡",-15.573313741363526],["γ",-15.573313741363526],["б",-15.573313741363526],["¤",-15.573313741363526],["╖",-15.573313741363526],["ြ",-15.573313741363526],["ġ",-15.573313741363526],["ש",-15.573313741363526],["‼",-15.573313741363526],["╕",-15.573313741363526],["暖",-15.573313741363526],["қ",-15.573313741363526],["¼",-15.573313741363526],["ည",-15.573313741363526],["├",-15.573313741363526],["Ш",-15.573313741363526],["β",-15.573313741363526],["च",-15.573313741363526],["球",-15.573313741363526],["न",-15.573313741363526],["ｅ",-15.573313741363526]]}}