{"version":"1.0","truncation":null,"padding":null,"added_tokens":[{"id":0,"special":true,"content":"<UNK>","single_word":false,"lstrip":false,"rstrip":false,"normalized":false},{"id":1,"special":true,"content":"<SEP>","single_word":false,"lstrip":false,"rstrip":false,"normalized":false},{"id":2,"special":true,"content":"<MASK>","single_word":false,"lstrip":false,"rstrip":false,"normalized":false},{"id":3,"special":true,"content":"<CLS>","single_word":false,"lstrip":false,"rstrip":false,"normalized":false}],"normalizer":null,"pre_tokenizer":{"type":"Whitespace"},"post_processor":null,"decoder":null,"model":{"type":"WordPiece","unk_token":"<UNK>","continuing_subword_prefix":"##","max_input_chars_per_word":100,"vocab":{"<UNK>":0,"<SEP>":1,"<MASK>":2,"<CLS>":3,"!":4,"\"":5,"$":6,"%":7,"&":8,"'":9,"(":10,")":11,"*":12,"+":13,",":14,"-":15,".":16,"/":17,"0":18,"1":19,"2":20,"3":21,"4":22,"5":23,"6":24,"7":25,"8":26,"9":27,":":28,";":29,"<":30,">":31,"?":32,"A":33,"B":34,"C":35,"D":36,"E":37,"F":38,"G":39,"H":40,"I":41,"J":42,"K":43,"L":44,"M":45,"N":46,"O":47,"P":48,"Q":49,"R":50,"S":51,"T":52,"U":53,"V":54,"W":55,"X":56,"Y":57,"Z":58,"`":59,"a":60,"b":61,"c":62,"d":63,"e":64,"f":65,"g":66,"h":67,"i":68,"j":69,"k":70,"l":71,"m":72,"n":73,"o":74,"p":75,"q":76,"r":77,"s":78,"t":79,"u":80,"v":81,"w":82,"x":83,"y":84,"z":85,"~":86,"¢":87,"£":88,"¤":89,"¥":90,"¦":91,"§":92,"«":93,"®":94,"¯":95,"°":96,"±":97,"²":98,"³":99,"´":100,"·":101,"¹":102,"»":103,"¼":104,"½":105,"¾":106,"À":107,"Ä":108,"Å":109,"É":110,"Í":111,"Î":112,"Ó":113,"Ö":114,"×":115,"Þ":116,"ß":117,"à":118,"á":119,"â":120,"ã":121,"ä":122,"å":123,"æ":124,"ç":125,"è":126,"é":127,"ê":128,"ë":129,"í":130,"î":131,"ï":132,"ð":133,"ñ":134,"ó":135,"ô":136,"õ":137,"ö":138,"ø":139,"ú":140,"ü":141,"Ā":142,"ā":143,"ă":144,"ć":145,"Č":146,"č":147,"ē":148,"ğ":149,"Ġ":150,"ġ":151,"ħ":152,"İ":153,"ı":154,"Ľ":155,"ł":156,"ń":157,"ņ":158,"ō":159,"œ":160,"ş":161,"š":162,"ţ":163,"ū":164,"Ÿ":165,"Ż":166,"ż":167,"Ž":168,"ž":169,"ƅ":170,"ț":171,"ȼ":172,"ɑ":173,"ʏ":174,"ʻ":175,"ʼ":176,"˚":177,"˜":178,"́":179,"β":180,"γ":181,"Ё":182,"Ђ":183,"Ѓ":184,"І":185,"Ј":186,"Њ":187,"Ў":188,"А":189,"Г":190,"П":191,"Р":192,"Т":193,"У":194,"Ш":195,"Щ":196,"Ъ":197,"Ь":198,"Э":199,"Ю":200,"Я":201,"а":202,"б":203,"г":204,"д":205,"е":206,"ж":207,"о":208,"с":209,"т":210,"у":211,"ю":212,"я":213,"ђ":214,"ѓ":215,"ѕ":216,"і":217,"њ":218,"ќ":219,"ў":220,"џ":221,"қ":222,"һ":223,"օ":224,"א":225,"ב":226,"ד":227,"ה":228,"ו":229,"י":230,"ל":231,"ם":232,"מ":233,"נ":234,"ע":235,"צ":236,"ק":237,"ש":238,"ת":239,"ن":240,"ߋ":241,"ं":242,"अ":243,"क":244,"घ":245,"च":246,"ट":247,"ड":248,"त":249,"न":250,"ब":251,"म":252,"य":253,"र":254,"ल":255,"श":256,"स":257,"ा":258,"ि":259,"ी":260,"ु":261,"े":262,"्":263,"က":264,"င":265,"ည":266,"တ":267,"န":268,"ပ":269,"ဖ":270,"မ":271,"ရ":272,"လ":273,"သ":274,"အ":275,"ါ":276,"ာ":277,"ိ":278,"ု":279,"ေ":280,"်":281,"ြ":282,"ွ":283,"ှ":284,"ᥙ":285,"ᴠ":286,"ḥ":287,"‎":288,"‐":289,"‑":290,"–":291,"—":292,"‘":293,"’":294,"‚":295,"“":296,"”":297,"„":298,"‡":299,"•":300,"․":301,"…":302,"‪":303,"‰":304,"′":305,"″":306,"›":307,"‼":308,"⁠":309,"⁣":310,"₁":311,"₦":312,"€":313,"₵":314,"₹":315,"™":316,"ⅼ":317,"−":318,"─":319,"├":320,"┬":321,"╕":322,"╖":323,"▪":324,"◆":325,"☺":326,"⚽":327,"⛓":328,"✨":329,"❌":330,"❤":331,"➡":332,"ー":333,"化":334,"地":335,"暖":336,"温":337,"球":338,"ﬁ":339,"️":340,"﻿":341,"－":342,"ｅ":343,"##a":344,"##r":345,"##e":346,"##g":347,"##u":348,"##o":349,"##9":350,"##m":351,"##s":352,"##M":353,"##p":354,"##t":355,"##i":356,"##h":357,"##d":358,"##z":359,"##F":360,"##n":361,"##l":362,"##ă":363,"##y":364,"##c":365,"##X":366,"##B":367,"##T":368,"##k":369,"##f":370,"##b":371,"##â":372,"##w":373,"##v":374,"##R":375,"##J":376,"##E":377,"##A":378,"##N":379,"##I":380,"##G":381,"##O":382,"##C":383,"##V":384,"##Y":385,"##j":386,"##W":387,"##S":388,"##0":389,"##4":390,"##L":391,"##x":392,"##2":393,"##3":394,"##1":395,"##8":396,"##6":397,"##$":398,"##Q":399,"##7":400,"##”":401,"##U":402,"##D":403,"##P":404,"##H":405,"##(":406,"##Z":407,"##5":408,"##ြ":409,"##န":410,"##်":411,"##မ":412,"##ာ":413,"##လ":414,"##ိ":415,"##ု":416,"##ğ":417,"##á":418,"##q":419,"##K":420,"##’":421,"##ä":422,"##õ":423,"##ï":424,"##‰":425,"##—":426,"##.":427,"##'":428,"##é":429,"##ã":430,"##ë":431,"##š":432,"##í":433,"##ā":434,"##ñ":435,"##‘":436,"##ü":437,"##)":438,"##А":439,"##Ь":440,"##ż":441,"##,":442,"##:":443,"##/":444,"##च":445,"##ा":446,"##न":447,"##क":448,"##ḥ":449,"##ū":450,"##?":451,"##ђ":452,"##ў":453,"##ö":454,"##Ÿ":455,"##€":456,"##%":457,"##!":458,"##\"":459,"##…":460,"##Ġ":461,"##Р":462,"##Ў":463,"##£":464,"##ó":465,"##Í":466,"##à":467,"##ç":468,"##य":469,"##о":470,"##г":471,"##–":472,"##ţ":473,"##-":474,"##ל":475,"##ם":476,"##т":477,"##Э":478,"##č":479,"##ć":480,"##ʻ":481,"##һ":482,"##;":483,"##²":484,"##ú":485,"##ı":486,"##ł":487,"##ê":488,"##Ľ":489,"##‚":490,"##ߋ":491,"##Ž":492,"##¥":493,"##“":494,"##ʼ":495,"##™":496,"##ю":497,"##े":498,"##і":499,"##″":500,"##±":501,"##┬":502,"##~":503,"##ş":504,"##>":505,"##́":506,"##è":507,"##ѕ":508,"##ô":509,"##ו":510,"##Я":511,"##Ш":512,"##·":513,"##`":514,"##Щ":515,"##Ā":516,"##₹":517,"##ע":518,"##צ":519,"##מ":520,"##א":521,"##ת":522,"##+":523,"##ħ":524,"##е":525,"##﻿":526,"##օ":527,"##ț":528,"##ु":529,"##श":530,"##्":531,"##ि":532,"##ल":533,"##¯":534,"##<":535,"##*":536,"##æ":537,"##Ю":538,"##ž":539,"##ß":540,"##ʏ":541,"##တ":542,"##ရ":543,"##ှ":544,"##င":545,"##ပ":546,"##ါ":547,"##သ":548,"##ည":549,"##⁣":550,"##џ":551,"##ø":552,"##ń":553,"##ק":554,"##ב":555,"##ē":556,"##ņ":557,"##म":558,"##ं":559,"##ड":560,"##‡":561,"##ﬁ":562,"##ေ":563,"##က":564,"##ွ":565,"##ट":566,"##ी":567,"##ō":568,"##У":569,"##¦":570,"##Ó":571,"##ð":572,"##˜":573,"##å":574,"##д":575,"##я":576,"##ġ":577,"##ｅ":578,"##ȼ":579,"##球":580,"##温":581,"##暖":582,"##化":583,"##³":584,"##®":585,"##ー":586,"##ब":587,"##र":588,"##त":589,"##É":590,"##Ѓ":591,"##с":592,"##Ђ":593,"##ѓ":594,"##І":595,"##Т":596,"##ж":597,"##ќ":598,"##Њ":599,"##њ":600,"##у":601,"##Ъ":602,"##Г":603,"##Ј":604,"##ד":605,"##י":606,"##נ":607,"##ה":608,"##қ":609,"##he":610,"##er":611,"the":612,"##in":613,"##on":614,"##at":615,"##es":616,"##or":617,"##en":618,"##ed":619,"##nd":620,"##ing":621,"to":622,"##ar":623,"##an":624,"##al":625,"##it":626,"##ou":627,"in":628,"of":629,"##as":630,"##is":631,"and":632,"##re":633,"##ic":634,"th":635,"##om":636,"##il":637,"##ion":638,"##ent":639,"##el":640,"##id":641,"##ec":642,"##st":643,"##et":644,"##ay":645,"##ot":646,"on":647,"##ve":648,"##ur":649,"##ac":650,"##le":651,"##ow":652,"##ut":653,"be":654,"for":655,"##ol":656,"is":657,"##ad":658,"##ir":659,"##ly":660,"that":661,"st":662,"##am":663,"##ver":664,"##ig":665,"The":666,"re":667,"pr":668,"##ith":669,"##ter":670,"##im":671,"it":672,"##ill":673,"with":674,"wh":675,"##ation":676,"##os":677,"##us":678,"al":679,"##ers":680,"as":681,"##op":682,"ha":683,"an":684,"##em":685,"##est":686,"was":687,"at":688,"##ce":689,"##ld":690,"con":691,"sa":692,"##ess":693,"he":694,"##ch":695,"##her":696,"are":697,"##ul":698,"##ak":699,"com":700,"##th":701,"fr":702,"##ate":703,"##oc":704,"##ect":705,"we":706,"##ag":707,"##od":708,"have":709,"ne":710,"said":711,"##ain":712,"##pp":713,"##and":714,"you":715,"##ort":716,"##um":717,"sh":718,"has":719,"##ity":720,"##igh":721,"##ies":722,"##un":723,"##ear":724,"##ist":725,"from":726,"ex":727,"##ment":728,"##iv":729,"##ore":730,"##ive":731,"tr":732,"##art":733,"##ant":734,"not":735,"by":736,"will":737,"##ould":738,"##if":739,"##se":740,"##ct":741,"##ab":742,"##ust":743,"or":744,"de":745,"ch":746,"##ial":747,"su":748,"se":749,"##all":750,"go":751,"this":752,"pl":753,"##nt":754,"##ome":755,"ab":756,"##ight":757,"##ast":758,"his":759,"##ack":760,"wor":761,"##our":762,"##out":763,"##gh":764,"##ud":765,"##ard":766,"sp":767,"##end":768,"20":769,"##ere":770,"##ice":771,"their":772,"##ov":773,"le":774,"##ok":775,"they":776,"##ie":777,"##rou":778,"##ost":779,"out":780,"all":781,"##ap":782,"Th":783,"whe":784,"who":785,"##ell":786,"can":787,"##ik":788,"but":789,"year":790,"##av":791,"ad":792,"up":793,"res":794,"been":795,"##ong":796,"##ep":797,"##ff":798,"##ans":799,"off":800,"do":801,"##ue":802,"##ge":803,"##ally":804,"##ich":805,"##ip":806,"In":807,"##ther":808,"pe":809,"##ions":810,"##ine":811,"cl":812,",”":813,"##ia":814,"##so":815,"##ib":816,"were":817,"had":818,"##ople":819,"##ime":820,"her":821,"rec":822,"##mp":823,"comp":824,"cont":825,"It":826,"more":827,"ac":828,"##ob":829,"##ount":830,"en":831,"##day":832,"##one":833,"##ated":834,"##ous":835,"##ake":836,"also":837,"ag":838,"##own":839,"people":840,"inc":841,"##ure":842,"about":843,"##act":844,"##ame":845,"St":846,"##ide":847,"one":848,"me":849,"##ry":850,"exp":851,".”":852,"##ents":853,"##og":854,"##ays":855,"Ch":856,"##fter":857,"man":858,"He":859,"which":860,"##ely":861,"##oll":862,"##ub":863,"##ose":864,"##00":865,"per":866,"work":867,"new":868,"she":869,"##ace":870,"un":871,"over":872,"##age":873,"int":874,"so":875,"its":876,"would":877,"##ord":878,"##ber":879,"##iz":880,"##ire":881,"##ary":882,"##ike":883,"##ile":884,"##qu":885,"19":886,"##ence":887,"##ew":888,"qu":889,"##mer":890,"rep":891,"##ail":892,"ev":893,"cr":894,"time":895,"us":896,"We":897,"##ind":898,"##ks":899,"##ook":900,"part":901,"other":902,"after":903,"##ations":904,"dis":905,"##ase":906,"##ance":907,"app":908,"there":909,"when":910,"##are":911,"some":912,"##able":913,"fir":914,"##ass":915,"tw":916,"our":917,"##ors":918,"##orm":919,"them":920,"##ign":921,"than":922,"sc":923,"##ult":924,"##ra":925,"##ings":926,"bec":927,"get":928,"##oss":929,"##ach":930,"##ro":931,"just":932,"##uc":933,"##ict":934,"##ond":935,"op":936,"imp":937,"##ree":938,"like":939,"ar":940,"ser":941,"##ens":942,"kn":943,"##aus":944,"##ick":945,"rel":946,"##ark":947,"##ite":948,"##ock":949,"##ition":950,"comm":951,"##ough":952,"##ical":953,"acc":954,"##oy":955,"what":956,"##reat":957,"##oin":958,"pre":959,"##uring":960,"##ru":961,"##very":962,"##lic":963,"pol":964,"##vern":965,"now":966,"first":967,"##ian":968,"two":969,"##irus":970,"##ident":971,"gr":972,"act":973,"any":974,"##anc":975,"##ning":976,"##ade":977,"Pr":978,"my":979,"into":980,"play":981,"add":982,"back":983,"wee":984,"Tr":985,"##ates":986,"br":987,"##alth":988,"if":989,"##nder":990,"your":991,"##ild":992,"count":993,"te":994,"hel":995,"##ied":996,"##rough":997,"##itt":998,"201":999,"could":1000,"##ang":1001,"##hed":1002,"need":1003,"##enc":1004,"##ress":1005,"no":1006,"inter":1007,"##aw":1008,"##ert":1009,"him":1010,"As":1011,"##ove":1012,"##amp":1013,"##iver":1014,"dec":1015,"##fer":1016,"##ood":1017,"This":1018,"##ious":1019,"##ause":1020,"##ities":1021,"##old":1022,"Wh":1023,"how":1024,"cor":1025,"##ound":1026,"But":1027,"again":1028,"##form":1029,"##lud":1030,"##und":1031,"##ump":1032,"##ory":1033,"##ish":1034,"supp":1035,"Al":1036,"##ating":1037,"last":1038,"am":1039,"##vernment":1040,"fe":1041,"dr":1042,"##ne":1043,"inv":1044,"under":1045,"##ool":1046,"Fr":1047,"##iss":1048,"rem":1049,"##ink":1050,"##vel":1051,"att":1052,"##ath":1053,"being":1054,"report":1055,"mon":1056,"##fore":1057,"##ement":1058,"includ":1059,"##ason":1060,"##round":1061,"##ational":1062,"##ery":1063,"only":1064,"##ublic":1065,"through":1066,"ind":1067,"##oun":1068,"el":1069,"sec":1070,"##wn":1071,"str":1072,"##any":1073,"##urn":1074,"show":1075,"bet":1076,"##other":1077,"##pt":1078,"during":1079,"want":1080,"##ater":1081,"202":1082,"years":1083,"every":1084,"##ily":1085,"see":1086,"did":1087,"##als":1088,"##oint":1089,"##hing":1090,"help":1091,"most":1092,"##ues":1093,"CO":1094,"prov":1095,"##erson":1096,"##ID":1097,"offic":1098,"##esident":1099,"because":1100,"many":1101,"##ince":1102,"And":1103,"reg":1104,"co":1105,"##ise":1106,"pro":1107,"week":1108,"bl":1109,"##ased":1110,"##ected":1111,"know":1112,"##arg":1113,"government":1114,"##illion":1115,"000":1116,"day":1117,"##ft":1118,"##uch":1119,"fl":1120,"##aking":1121,"cons":1122,"even":1123,"fam":1124,"make":1125,"call":1126,"##VID":1127,"##ection":1128,"##ases":1129,"Un":1130,"before":1131,"COVID":1132,"end":1133,"those":1134,"Br":1135,"should":1136,"look":1137,"down":1138,"fin":1139,"while":1140,"state":1141,"well":1142,"##we":1143,"##onav":1144,"where":1145,"##erm":1146,"##onavirus":1147,"ve":1148,"home":1149,"##ting":1150,"don":1151,"lead":1152,"des":1153,"##chool":1154,"ass":1155,"##ife":1156,"bu":1157,"health":1158,"ear":1159,"against":1160,"##ven":1161,"month":1162,"stud":1163,"contin":1164,"##ital":1165,"##ited":1166,"start":1167,"New":1168,"##read":1169,"bus":1170,"ret":1171,"##urr":1172,"##emic":1173,"going":1174,"serv":1175,"Trump":1176,"team":1177,"##ful":1178,"An":1179,"##ward":1180,"own":1181,"##ons":1182,"resp":1183,"long":1184,"test":1185,"##xt":1186,"##cc":1187,"##arr":1188,"say":1189,"##uct":1190,"coronavirus":1191,"##ual":1192,"##les":1193,"##iness":1194,"may":1195,"dif":1196,"made":1197,"##ever":1198,"She":1199,"##oth":1200,"ph":1201,"still":1202,"these":1203,"take":1204,"three":1205,"##elf":1206,"##hn":1207,"##istr":1208,"2020":1209,"They":1210,"commun":1211,"ro":1212,"##air":1213,"##ives":1214,"num":1215,"way":1216,"min":1217,"##ures":1218,"med":1219,"person":1220,"##hip":1221,"##ters":1222,"mem":1223,"right":1224,"##gan":1225,"##ently":1226,"gu":1227,"##ier":1228,"10":1229,"ke":1230,"sur":1231,"##ible":1232,"contr":1233,"##ounc":1234,"##med":1235,"##irect":1236,"then":1237,"says":1238,"##ix":1239,"##con":1240,"very":1241,"##andemic":1242,"##ower":1243,"cases":1244,"good":1245,"Mar":1246,",\"":1247,"high":1248,"wr":1249,"##hen":1250,"think":1251,"##ner":1252,"##io":1253,"##eral":1254,"support":1255,"country":1256,"pandemic":1257,"##ility":1258,"##ording":1259,"Com":1260,"cent":1261,"For":1262,"##ollow":1263,"##its":1264,"bel":1265,"pos":1266,"public":1267,"There":1268,"much":1269,"##ont":1270,"prod":1271,"##ets":1272,"##eb":1273,"##ank":1274,"##osp":1275,"##ices":1276,"##ather":1277,"prot":1278,"##iew":1279,"##au":1280,"loc":1281,"sy":1282,"eff":1283,"def":1284,"school":1285,"##man":1286,"around":1287,"conf":1288,"soc":1289,"##pr":1290,"does":1291,"##ouse":1292,"##up":1293,"##land":1294,"##ange":1295,"inf":1296,"##roup":1297,"set":1298,"business":1299,"Amer":1300,"##ric":1301,"If":1302,"##way":1303,"##ines":1304,"##der":1305,"Americ":1306,"##ivers":1307,"such":1308,"point":1309,".\"":1310,"##oot":1311,"sm":1312,"win":1313,"ann":1314,"##ull":1315,"ins":1316,"Ar":1317,"old":1318,"##ope":1319,"season":1320,"vot":1321,"world":1322,"##urs":1323,"##ific":1324,"##ram":1325,"##bers":1326,"##ative":1327,"##ee":1328,"rest":1329,"##ina":1330,"##loy":1331,"##alk":1332,"follow":1333,"care":1334,"since":1335,"sign":1336,"invest":1337,"##ah":1338,"trans":1339,"police":1340,"million":1341,"##ief":1342,"hand":1343,"company":1344,"##ister":1345,"##ments":1346,"open":1347,"##ular":1348,"quar":1349,"cour":1350,"##ene":1351,"That":1352,"##omet":1353,"cap":1354,"##ject":1355,"dep":1356,"family":1357,"shar":1358,"##son":1359,"##imes":1360,"happ":1361,"##atch":1362,"ext":1363,"iss":1364,"How":1365,"##ior":1366,"On":1367,"Sh":1368,"##ork":1369,"including":1370,"game":1371,"run":1372,"##arm":1373,"##eng":1374,"##ency":1375,"##hes":1376,"differ":1377,"im":1378,"##ern":1379,"conc":1380,"Ind":1381,"##conom":1382,"law":1383,"##ision":1384,"##ash":1385,"bo":1386,"plan":1387,"life":1388,"mov":1389,"next":1390,"Min":1391,"mark":1392,"four":1393,"direct":1394,"##line":1395,"You":1396,"big":1397,"##ty":1398,"##atur":1399,"Bl":1400,"##osed":1401,"##eg":1402,"##iving":1403,"death":1404,"come":1405,"##ween":1406,"car":1407,"##ax":1408,"##get":1409,"child":1410,"stat":1411,"##erv":1412,"##iel":1413,"##ually":1414,"##velop":1415,"second":1416,"really":1417,"inst":1418,"told":1419,"##ave":1420,"##ug":1421,"fil":1422,"wom":1423,"Jo":1424,"disc":1425,"del":1426,"put":1427,"though":1428,"curr":1429,"sub":1430,"between":1431,"##iday":1432,"official":1433,"sl":1434,"number":1435,"Mr":1436,"##let":1437,"##ying":1438,"Sp":1439,"ask":1440,"both":1441,"gen":1442,"lot":1443,"same":1444,"##ution":1445,"##aj":1446,"##ics":1447,"##az":1448,"##olog":1449,"rele":1450,"feel":1451,"##ng":1452,"##ised":1453,"So":1454,"emp":1455,"econom":1456,"great":1457,"##res":1458,"##ecial":1459,"es":1460,"use":1461,"social":1462,"prog":1463,"place":1464,"##ton":1465,"real":1466,"allow":1467,"requ":1468,"prop":1469,"##outh":1470,"group":1471,"##ross":1472,"##ys":1473,"pass":1474,"##aff":1475,"##ness":1476,"days":1477,"##akes":1478,"fac":1479,"rece":1480,"another":1481,"somet":1482,"##ale":1483,"##tern":1484,"id":1485,"##uth":1486,"##ists":1487,"##ames":1488,"post":1489,"keep":1490,"few":1491,"##ued":1492,"##led":1493,"ob":1494,"##ants":1495,"incre":1496,"US":1497,"##ged":1498,"Ad":1499,"##ider":1500,"##ember":1501,"adv":1502,"remain":1503,"cle":1504,"det":1505,"President":1506,"Mon":1507,"opp":1508,"##stem":1509,"##ts":1510,"arr":1511,"result":1512,"found":1513,"##ody":1514,"##iend":1515,"##nes":1516,"At":1517,"pat":1518,"##ned":1519,"##ars":1520,"prob":1521,"dem":1522,"pres":1523,"got":1524,"virus":1525,"av":1526,"best":1527,"poss":1528,"##ived":1529,"##ential":1530,"develop":1531,"12":1532,"##ience":1533,"prev":1534,"##ll":1535,"##reak":1536,"par":1537,"community":1538,"##ving":1539,"added":1540,"##ling":1541,"camp":1542,"##ral":1543,"Friday":1544,"##ately":1545,"cond":1546,"##ism":1547,"##orts":1548,"##att":1549,"near":1550,"##ret":1551,"##ission":1552,"too":1553,"head":1554,"gl":1555,"pay":1556,"president":1557,"leg":1558,"Le":1559,"proc":1560,"Is":1561,"cre":1562,"different":1563,"De":1564,"30":1565,"import":1566,"##itive":1567,"##ren":1568,"##ety":1569,"read":1570,"saf":1571,"find":1572,"##per":1573,"##uss":1574,"##thing":1575,"polit":1576,"che":1577,"##ention":1578,"oper":1579,"each":1580,"##orn":1581,"across":1582,"##ruct":1583,"ent":1584,"here":1585,"reported":1586,"##ense":1587,"city":1588,"em":1589,"trad":1590,"##gg":1591,"ris":1592,"##red":1593,"case":1594,"Comm":1595,"When":1596,"things":1597,"inform":1598,"used":1599,"red":1600,"##ways":1601,"air":1602,"hosp":1603,"meet":1604,"##iven":1605,"15":1606,"##rat":1607,"##over":1608,"unt":1609,"May":1610,"##ept":1611,"##ield":1612,"without":1613,"spe":1614,"product":1615,"announc":1616,"able":1617,"fact":1618,"return":1619,"system":1620,"Go":1621,"left":1622,"11":1623,"term":1624,"##ient":1625,"##down":1626,"##ott":1627,"came":1628,"pop":1629,"quarter":1630,"sit":1631,"##ands":1632,"##ask":1633,"sever":1634,"order":1635,"char":1636,"coll":1637,"hour":1638,"Cl":1639,"far":1640,"exper":1641,"according":1642,"working":1643,"hard":1644,"##ey":1645,"Count":1646,"##ves":1647,"night":1648,"##ute":1649,"##ird":1650,"##ized":1651,"##ready":1652,"sim":1653,"##iting":1654,"belie":1655,"local":1656,"##ved":1657,"months":1658,"##aim":1659,"never":1660,"##artment":1661,"expl":1662,"##oney":1663,"ed":1664,"job":1665,"friend":1666,"level":1667,"something":1668,"already":1669,"vis":1670,"##orth":1671,"##side":1672,"State":1673,"members":1674,"fund":1675,"main":1676,"##ided":1677,"students":1678,"Pol":1679,"##earch":1680,"Cent":1681,"Monday":1682,"lik":1683,"past":1684,"news":1685,"due":1686,"top":1687,"##ained":1688,"##augh":1689,").":1690,"move":1691,"program":1692,"better":1693,"##ots":1694,"until":1695,"##ically":1696,"adm":1697,"mod":1698,"##uck":1699,"However":1700,"grow":1701,"Sc":1702,"##ces":1703,"record":1704,"##view":1705,"##ages":1706,"##ared":1707,"aff":1708,"didn":1709,"power":1710,"2019":1711,"let":1712,"must":1713,"continue":1714,"build":1715,"##echn":1716,"called":1717,"quest":1718,"partic":1719,"ll":1720,"might":1721,"##iversity":1722,"Me":1723,"What":1724,"Dr":1725,"tot":1726,"##ittle":1727,"All":1728,"col":1729,"hold":1730,"With":1731,"five":1732,"##ball":1733,"happen":1734,"##ata":1735,"##ecut":1736,"##ortun":1737,"employ":1738,"##ms":1739,"prof":1740,"##atter":1741,"##rem":1742,"always":1743,"##gin":1744,"away":1745,"turn":1746,"##cept":1747,"County":1748,"##ional":1749,"market":1750,"beh":1751,"##ize":1752,"China":1753,"##ajor":1754,"process":1755,"Re":1756,"South":1757,"manag":1758,"dist":1759,"##ley":1760,"March":1761,"took":1762,"seen":1763,"##ple":1764,"art":1765,"children":1766,"##cent":1767,"##ired":1768,"Thurs":1769,"ref":1770,"Thursday":1771,"lear":1772,"##uthor":1773,"200":1774,"While":1775,"important":1776,"based":1777,"##ended":1778,"val":1779,"war":1780,"##ney":1781,"##less":1782,"##ians":1783,"offer":1784,"),":1785,"organ":1786,"event":1787,"Sund":1788,"met":1789,"##ients":1790,"claim":1791,"weeks":1792,"John":1793,"Be":1794,"##ending":1795,"Tues":1796,"est":1797,"##app":1798,"Tuesday":1799,"won":1800,"Af":1801,"vide":1802,"stand":1803,"##pl":1804,"early":1805,"##aturday":1806,"Saturday":1807,"##reen":1808,"##ote":1809,"##urch":1810,"shares":1811,"fut":1812,"##iam":1813,"change":1814,"sk":1815,"##ted":1816,"equ":1817,"Health":1818,"Am":1819,"making":1820,"##aken":1821,"money":1822,"stay":1823,"Sunday":1824,"went":1825,"##une":1826,"addition":1827,"major":1828,"##ested":1829,"deal":1830,"women":1831,"less":1832,"why":1833,"exc":1834,"former":1835,"class":1836,"election":1837,"lock":1838,"prom":1839,"positive":1840,"small":1841,"food":1842,"##aring":1843,"eas":1844,"times":1845,"##ries":1846,"Rep":1847,"face":1848,"##ertain":1849,"One":1850,"media":1851,"later":1852,"little":1853,"Dem":1854,"mus":1855,"14":1856,"distr":1857,"##self":1858,"along":1859,"project":1860,"staff":1861,"information":1862,"Co":1863,"##gy":1864,"25":1865,"##uly":1866,"today":1867,"stop":1868,"fur":1869,"trav":1870,"Ph":1871,"Wed":1872,"free":1873,"complet":1874,"##ined":1875,"seem":1876,"Chr":1877,"effect":1878,"confir":1879,"six":1880,"##idents":1881,"chang":1882,"list":1883,"Car":1884,"##els":1885,"intern":1886,"statement":1887,"Can":1888,"Jan":1889,"##urity":1890,"give":1891,"toget":1892,"appear":1893,"Gr":1894,"together":1895,"area":1896,"##ocrat":1897,"##nesday":1898,"Wednesday":1899,"##ides":1900,"United":1901,"##aid":1902,"hit":1903,"kill":1904,"total":1905,"asked":1906,"##ests":1907,"doing":1908,"24":1909,"hal":1910,"chall":1911,"sol":1912,"##cr":1913,"##ards":1914,"officials":1915,"##ator":1916,"short":1917,"hist":1918,"##han":1919,"several":1920,"##oor":1921,"##ished":1922,"concern":1923,"Man":1924,"##verage":1925,"having":1926,"young":1927,"consider":1928,"##oved":1929,"spread":1930,"future":1931,"##ivid":1932,"percent":1933,"getting":1934,"##uation":1935,"##ream":1936,"announced":1937,"13":1938,"##aining":1939,"##ovid":1940,"hospital":1941,"full":1942,"##iod":1943,"foot":1944,"perform":1945,"indust":1946,"mom":1947,"techn":1948,"sing":1949,"50":1950,"line":1951,"18":1952,"##aign":1953,"##enn":1954,"##usp":1955,"least":1956,"likely":1957,"Mc":1958,"investig":1959,"El":1960,"##iously":1961,"national":1962,"series":1963,"avail":1964,"hum":1965,"##ured":1966,"doc":1967,"##ins":1968,"##ony":1969,"price":1970,"Acc":1971,"talk":1972,"players":1973,"service":1974,"given":1975,"done":1976,"online":1977,"cost":1978,"No":1979,"house":1980,"doesn":1981,"film":1982,"After":1983,"mil":1984,"##iger":1985,"press":1986,"services":1987,"Dep":1988,"hig":1989,"##ature":1990,"elect":1991,"Or":1992,"love":1993,"pot":1994,"##ai":1995,"comes":1996,"become":1997,"fire":1998,"##err":1999,"taking":2000,"##rew":2001,"##used":2002,"##ified":2003,"##oub":2004,"meas":2005,"Con":2006,"National":2007,"close":2008,"##yp":2009,"##ced":2010,"stock":2011,"campaign":2012,"data":2013,"susp":2014,"const":2015,"coming":2016,"clear":2017,"emer":2018,"vac":2019,"period":2020,"opt":2021,"using":2022,"party":2023,"among":2024,"American":2025,"16":2026,"##te":2027,"##stand":2028,"##acy":2029,"Police":2030,"Democrat":2031,"cust":2032,"lim":2033,"sw":2034,"##here":2035,"sure":2036,"enough":2037,"possible":2038,"tell":2039,"##ality":2040,"third":2041,"##vers":2042,"started":2043,"bring":2044,"taken":2045,"activ":2046,"looking":2047,"proble":2048,"author":2049,"further":2050,"ball":2051,"##aun":2052,"##ched":2053,"##ology":2054,"mor":2055,"others":2056,"Bid":2057,"##ck":2058,"##ising":2059,"100":2060,"##ancial":2061,"attack":2062,"Pl":2063,"##ten":2064,"##ipp":2065,"##oci":2066,"video":2067,"Covid":2068,"invol":2069,"yet":2070,"##ury":2071,"Ass":2072,"##inal":2073,"Don":2074,"whether":2075,"recent":2076,"appro":2077,"Col":2078,"thing":2079,"available":2080,"workers":2081,"vict":2082,"impact":2083,"##ead":2084,"Ab":2085,"Tw":2086,"leaders":2087,"My":2088,"deb":2089,"##ances":2090,"Afric":2091,"Biden":2092,"Sen":2093,"risk":2094,"City":2095,"kind":2096,"water":2097,"##ari":2098,"court":2099,"current":2100,"hours":2101,"strong":2102,"mid":2103,"##iol":2104,"##ederal":2105,"##anies":2106,"following":2107,"##itions":2108,"House":2109,"York":2110,"side":2111,"##arge":2112,"begin":2113,"ens":2114,"fall":2115,"clos":2116,"##eal":2117,"##ph":2118,"##omes":2119,"##ague":2120,"Ir":2121,"live":2122,"##ees":2123,"##port":2124,"##ison":2125,"political":2126,"Cal":2127,"story":2128,"lockdown":2129,"games":2130,"reason":2131,"##ains":2132,"decision":2133,"##ebr":2134,"cut":2135,"##ories":2136,"##oke":2137,"Black":2138,"##aly":2139,"low":2140,"form":2141,"ant":2142,"enter":2143,"within":2144,"crit":2145,"polic":2146,"succ":2147,"travel":2148,"July":2149,"sal":2150,"fight":2151,"ra":2152,"book":2153,"alle":2154,"provide":2155,"Just":2156,"##ably":2157,"Ed":2158,"##irl":2159,"expected":2160,"known":2161,"opportun":2162,"confirmed":2163,"Niger":2164,"Se":2165,"Ex":2166,"view":2167,"##ri":2168,"17":2169,"Apr":2170,"West":2171,"foc":2172,"##hic":2173,"ever":2174,"##ences":2175,"expect":2176,"##itted":2177,"##ald":2178,"bene":2179,"##reet":2180,"Inst":2181,"eng":2182,"hope":2183,"non":2184,"##ively":2185,"University":2186,"##ger":2187,"office":2188,"To":2189,"famil":2190,"April":2191,"Aust":2192,"##idence":2193,"half":2194,"##gency":2195,"##ored":2196,"design":2197,"fun":2198,"##pite":2199,"Eur":2200,"fans":2201,"##sel":2202,"priv":2203,"special":2204,"deaths":2205,"potential":2206,"North":2207,"cand":2208,"patients":2209,"According":2210,"Oct":2211,"Off":2212,"21":2213,"companies":2214,"access":2215,"success":2216,"Dec":2217,"##ats":2218,"share":2219,"enc":2220,"##ham":2221,"##co":2222,"##be":2223,"contact":2224,"cou":2225,"ago":2226,"Cor":2227,"sent":2228,"##lier":2229,"##oad":2230,"outside":2231,"experience":2232,"##lement":2233,"residents":2234,"final":2235,"tax":2236,"##inc":2237,"##hers":2238,"gener":2239,"fail":2240,"##lor":2241,"trying":2242,"late":2243,"sum":2244,"cris":2245,"India":2246,"Minister":2247,"June":2248,"##oming":2249,"##ented":2250,"front":2251,"##wards":2252,"Te":2253,"##inistr":2254,"compet":2255,"billion":2256,"##por":2257,"##for":2258,"##ones":2259,"##oms":2260,"##obal":2261,"quick":2262,"benef":2263,"Aug":2264,"mas":2265,"treat":2266,"inj":2267,"##elebr":2268,"needs":2269,"died":2270,"led":2271,"##by":2272,"##head":2273,"saying":2274,"lives":2275,"wa":2276,"##ev":2277,"##reed":2278,"doll":2279,"large":2280,"##imate":2281,"##ecutive":2282,"Pe":2283,"rul":2284,"control":2285,"Sec":2286,"miss":2287,"##tain":2288,"##bs":2289,"##omm":2290,"##ilities":2291,"men":2292,"states":2293,"certain":2294,"held":2295,"received":2296,"believe":2297,"##ners":2298,"once":2299,"##aces":2300,"##ization":2301,"security":2302,"points":2303,"##aur":2304,"##ators":2305,"economic":2306,"vacc":2307,"##most":2308,"##orr":2309,"mean":2310,"friends":2311,"light":2312,"makes":2313,"##rap":2314,"forward":2315,"ide":2316,"##que":2317,"##ination":2318,"Some":2319,"viol":2320,"##lex":2321,"##empt":2322,"educ":2323,"custom":2324,"##ering":2325,"##opp":2326,"means":2327,"##ouncil":2328,"restr":2329,"##ium":2330,"Ge":2331,"bas":2332,"Christ":2333,"Will":2334,"pract":2335,"##ources":2336,"account":2337,"action":2338,"situation":2339,"land":2340,"sen":2341,"protect":2342,"spec":2343,"laun":2344,"##ids":2345,"research":2346,"interest":2347,"financial":2348,"##ference":2349,"everyone":2350,"larg":2351,"##uce":2352,"individ":2353,"road":2354,"behind":2355,"##ered":2356,"These":2357,"##ush":2358,"2018":2359,"issues":2360,"countries":2361,"esp":2362,"Sept":2363,"targ":2364,"##ecially":2365,"average":2366,"watch":2367,"currently":2368,"crisis":2369,"celebr":2370,"cho":2371,"charg":2372,"States":2373,"repres":2374,"charac":2375,"question":2376,"ur":2377,"##road":2378,"Feb":2379,"ep":2380,"##onse":2381,"bit":2382,"mess":2383,"phot":2384,"entire":2385,"Department":2386,"Res":2387,"vol":2388,"address":2389,"morning":2390,"nation":2391,"##work":2392,"medical":2393,"course":2394,"occ":2395,"##par":2396,"threat":2397,"understand":2398,"businesses":2399,"##vir":2400,"##ane":2401,"22":2402,"##ann":2403,"Europe":2404,"Cr":2405,"released":2406,"##go":2407,"##ancing":2408,"thought":2409,"industry":2410,"init":2411,"appr":2412,"##aily":2413,"everything":2414,"buy":2415,"history":2416,"especially":2417,"fav":2418,"break":2419,"lost":2420,"##elt":2421,"canc":2422,"release":2423,"restrict":2424,"##ds":2425,"shows":2426,"cover":2427,"additional":2428,"aw":2429,"creat":2430,"join":2431,"##aps":2432,"position":2433,"##viron":2434,"Bar":2435,"##iding":2436,"reve":2437,"Wor":2438,"pick":2439,"##utes":2440,"candid":2441,"wanted":2442,"net":2443,"##asing":2444,"economy":2445,"Republic":2446,"##aut":2447,"meeting":2448,"nec":2449,"name":2450,"contract":2451,"results":2452,"##break":2453,"##irt":2454,"include":2455,"tested":2456,"Sup":2457,"conn":2458,"##ensive":2459,"##ode":2460,"vote":2461,"music":2462,"##crib":2463,"##uary":2464,"##ither":2465,"response":2466,"Gu":2467,"plans":2468,"human":2469,"40":2470,"His":2471,"step":2472,"##ops":2473,"woman":2474,"discuss":2475,"Eng":2476,"ap":2477,"##itiz":2478,"Rob":2479,"##af":2480,"##aged":2481,"sugg":2482,"recently":2483,"00":2484,"often":2485,"Dav":2486,"signific":2487,"ident":2488,"##ening":2489,"##ilar":2490,"neg":2491,"vehic":2492,"Austral":2493,"Now":2494,"began":2495,"##ades":2496,"almost":2497,"worth":2498,"##uced":2499,"abs":2500,"needed":2501,"caus":2502,"norm":2503,"##ron":2504,"Canad":2505,"relations":2506,"board":2507,"safety":2508,"Sm":2509,"dev":2510,"##vironment":2511,"Par":2512,"##venue":2513,"##bo":2514,"areas":2515,"testing":2516,"host":2517,"America":2518,"profess":2519,"thr":2520,"##ills":2521,"##ector":2522,"outbreak":2523,"played":2524,"role":2525,"challeng":2526,"##ler":2527,"actually":2528,"##selves":2529,"director":2530,"measures":2531,"Bo":2532,"heart":2533,"##rupt":2534,"increase":2535,".,":2536,"ban":2537,"##hest":2538,"doub":2539,"matter":2540,"##icult":2541,"federal":2542,"##hold":2543,"##medi":2544,"##irc":2545,"##ival":2546,"##ift":2547,"unc":2548,"Brit":2549,"##uk":2550,"##ech":2551,"dra":2552,"loss":2553,"tem":2554,"##ulation":2555,"##abor":2556,"##ails":2557,"black":2558,"23":2559,"girl":2560,"significant":2561,"Har":2562,"##ability":2563,"space":2564,"diff":2565,"moment":2566,"families":2567,"cur":2568,"mult":2569,"##ural":2570,"saw":2571,"closed":2572,"administr":2573,"higher":2574,"Cour":2575,"Fin":2576,"##aced":2577,"soon":2578,"##rug":2579,"global":2580,"January":2581,"mind":2582,"rating":2583,"typ":2584,"##wh":2585,"someone":2586,"couple":2587,"building":2588,"development":2589,"particular":2590,"##sh":2591,"respons":2592,"Our":2593,"##oring":2594,"assist":2595,"schools":2596,"isn":2597,"star":2598,"dead":2599,"playing":2600,"Part":2601,"fig":2602,"walk":2603,"##oon":2604,"difficult":2605,"News":2606,"key":2607,"##ows":2608,"sex":2609,"dise":2610,"anything":2611,"issue":2612,"UK":2613,"seven":2614,"body":2615,"decl":2616,"respond":2617,"target":2618,"reveal":2619,"rate":2620,"terr":2621,"”.":2622,"##uff":2623,"##aker":2624,"officers":2625,"reports":2626,"visit":2627,"purch":2628,"##iff":2629,"##ibility":2630,"imm":2631,"tal":2632,"##ps":2633,"##ental":2634,"shot":2635,"##ights":2636,"member":2637,"demand":2638,"Gen":2639,"Pro":2640,"gave":2641,"##hel":2642,"personal":2643,"immedi":2644,"allowed":2645,"Geor":2646,"dam":2647,"self":2648,"##den":2649,"##aster":2650,"##ama":2651,"deep":2652,"single":2653,"World":2654,"field":2655,"sell":2656,"##br":2657,"##though":2658,"August":2659,"hot":2660,"##iter":2661,"club":2662,"##ober":2663,"lat":2664,"orig":2665,"earlier":2666,"lo":2667,"##eter":2668,"##lege":2669,"##fully":2670,"running":2671,"pack":2672,"track":2673,"nothing":2674,"suff":2675,"##okes":2676,"##ape":2677,"compl":2678,"events":2679,"interview":2680,"##int":2681,"##ections":2682,"mother":2683,"##ana":2684,"##umb":2685,"parents":2686,"sn":2687,"cann":2688,"wrote":2689,"Not":2690,"##uge":2691,"##ends":2692,"related":2693,"check":2694,"opportunity":2695,"September":2696,"chief":2697,"dig":2698,"poll":2699,"ess":2700,"nearly":2701,"##tt":2702,"##back":2703,"##isc":2704,"international":2705,"Iran":2706,"TV":2707,"ahead":2708,"##ashing":2709,"##ateg":2710,"##ung":2711,"latest":2712,"##ify":2713,"became":2714,"however":2715,"##mber":2716,"##itary":2717,"comb":2718,"Calif":2719,"Court":2720,"Med":2721,"School":2722,"aut":2723,"farm":2724,"##istry":2725,"##ogn":2726,"App":2727,"round":2728,"worked":2729,"Nove":2730,"bank":2731,"jud":2732,"mot":2733,"##ressed":2734,"ensure":2735,"November":2736,"hon":2737,"try":2738,"private":2739,"31":2740,"##use":2741,"environment":2742,"##itting":2743,"focus":2744,"October":2745,"masks":2746,"##ging":2747,"White":2748,"attempt":2749,"phys":2750,"involved":2751,"##atory":2752,"whole":2753,"26":2754,"bad":2755,"daily":2756,"goal":2757,"##attle":2758,"ple":2759,"##itch":2760,"##ips":2761,"En":2762,"jour":2763,"song":2764,"##ule":2765,"##aving":2766,"prep":2767,"encour":2768,"28":2769,"prior":2770,"##ample":2771,"officer":2772,"quarant":2773,"Day":2774,"San":2775,"##book":2776,"Ang":2777,"general":2778,"safe":2779,"Center":2780,"problem":2781,"##erts":2782,"particip":2783,"27":2784,"sched":2785,"longer":2786,"career":2787,"restrictions":2788,"rac":2789,"Chief":2790,"People":2791,"Pat":2792,"hop":2793,"##ached":2794,"##ittee":2795,"propert":2796,"district":2797,"victim":2798,"##ino":2799,"##ighb":2800,"amount":2801,"room":2802,"inside":2803,"growth":2804,"Mich":2805,"age":2806,"port":2807,"##sw":2808,"##abl":2809,"plat":2810,"##ought":2811,"guid":2812,"Government":2813,"Cong":2814,"Many":2815,"Russ":2816,"cult":2817,"##amed":2818,"vaccine":2819,"Sy":2820,"review":2821,"technology":2822,"relationship":2823,"ground":2824,"emergency":2825,"drug":2826,"##ches":2827,"##fect":2828,"moving":2829,"deliver":2830,"High":2831,"##joy":2832,"##reg":2833,"##rove":2834,"##ruary":2835,"##rought":2836,"continued":2837,"similar":2838,"February":2839,"necess":2840,"Act":2841,"wind":2842,"##rod":2843,"##ender":2844,"himself":2845,"ey":2846,"town":2847,"executive":2848,"upd":2849,"pret":2850,"respect":2851,"employees":2852,"December":2853,"##atives":2854,"##oud":2855,"shoot":2856,"##aper":2857,"anyone":2858,"##aud":2859,"govern":2860,"leave":2861,"else":2862,"coach":2863,"present":2864,"dom":2865,"father":2866,"tit":2867,"##me":2868,"##AR":2869,"##itution":2870,"reop":2871,"##aging":2872,"##ubl":2873,"phone":2874,"Do":2875,"##ring":2876,"##dle":2877,"##ume":2878,"##ibut":2879,"player":2880,"##anger":2881,"surpr":2882,"disease":2883,"Mark":2884,"gather":2885,"Donald":2886,"customers":2887,"60":2888,"living":2889,"mass":2890,"##iec":2891,"region":2892,"leader":2893,"circ":2894,"date":2895,"##uel":2896,"##yn":2897,"##atures":2898,"shut":2899,"describ":2900,"education":2901,"500":2902,"Even":2903,"##ota":2904,"prim":2905,"##imately":2906,"white":2907,"seek":2908,"infl":2909,"happened":2910,"policy":2911,"35":2912,"Her":2913,"exist":2914,"2016":2915,"study":2916,"capital":2917,"Commission":2918,"match":2919,"##esh":2920,"##ores":2921,"##itter":2922,"minutes":2923,"essential":2924,"div":2925,"vers":2926,"##iet":2927,"reach":2928,"conv":2929,"drive":2930,"teams":2931,"ready":2932,"football":2933,"var":2934,"wife":2935,"training":2936,"issued":2937,"movie":2938,"Serv":2939,"##BC":2940,"##ises":2941,"##ille":2942,"recogn":2943,"Face":2944,"dest":2945,"analy":2946,"create":2947,"doct":2948,"platform":2949,"##amer":2950,"wasn":2951,"Californ":2952,"29":2953,"Ag":2954,"##come":2955,"enjoy":2956,"popular":2957,"distancing":2958,"quickly":2959,"rat":2960,"##ements":2961,"##ials":2962,"199":2963,"##rugg":2964,"efforts":2965,"##ruction":2966,"Park":2967,"citiz":2968,"lower":2969,"sold":2970,"##erc":2971,"despite":2972,"##aughter":2973,"Net":2974,"fear":2975,"ways":2976,"neighb":2977,"aud":2978,"paid":2979,"isol":2980,"hands":2981,"production":2982,"idea":2983,"##while":2984,"##na":2985,"##yc":2986,"##body":2987,"##ester":2988,"Ste":2989,"Americans":2990,"remains":2991,"killed":2992,"##hern":2993,"conduct":2994,"cannot":2995,"Gl":2996,"either":2997,"##vest":2998,"wants":2999,"summer":3000,"senior":3001,"administration":3002,"Em":3003,"fell":3004,"##band":3005,"##action":3006,".'":3007,"Ms":3008,"Ne":3009,"Reg":3010,"##aul":3011,"--":3012,"Mo":3013,"##ilt":3014,"##eth":3015,"##urning":3016,"##ession":3017,"comment":3018,"represent":3019,"California":3020,"During":3021,"lack":3022,"takes":3023,"scene":3024,"weekend":3025,"military":3026,"##my":3027,"##iers":3028,"##ects":3029,"ener":3030,"alleged":3031,"character":3032,"bar":3033,"brought":3034,"homes":3035,"pur":3036,"##gest":3037,"strugg":3038,"##akers":3039,"##inese":3040,"slow":3041,"require":3042,"kids":3043,"race":3044,"##ett":3045,"above":3046,"themselves":3047,"numbers":3048,"Air":3049,"eight":3050,"virt":3051,"##ivil":3052,"##iple":3053,"Chinese":3054,"provided":3055,"##retary":3056,"son":3057,"##oid":3058,"##ique":3059,"##nings":3060,"quite":3061,"quality":3062,"groups":3063,"Nigeria":3064,"By":3065,"Des":3066,"ill":3067,"##gr":3068,"spokes":3069,"arg":3070,"decided":3071,"authorities":3072,"Congress":3073,"##ened":3074,"##itness":3075,"thous":3076,"trade":3077,"##ource":3078,"repl":3079,"applic":3080,"communities":3081,"performance":3082,"##ole":3083,"##AS":3084,"##ams":3085,"example":3086,"##ograp":3087,"teac":3088,"throughout":3089,"showed":3090,"voters":3091,"dollar":3092,"##omp":3093,"Street":3094,"Char":3095,"traded":3096,"investigation":3097,"David":3098,"boy":3099,"sense":3100,"restaur":3101,"approach":3102,"God":3103,"Washing":3104,"fair":3105,"##lt":3106,"##atic":3107,"shared":3108,"extra":3109,"receive":3110,"lif":3111,"##ara":3112,"below":3113,"Every":3114,"oil":3115,"tour":3116,"Intern":3117,"Washington":3118,"pain":3119,"##where":3120,"##rael":3121,"previous":3122,"changes":3123,"Africa":3124,"felt":3125,"mater":3126,"##itc":3127,"rev":3128,"regular":3129,"moved":3130,"determ":3131,"terms":3132,"Cap":3133,"##emb":3134,"chance":3135,"incident":3136,"leading":3137,"symp":3138,"instead":3139,"products":3140,"##uals":3141,"##lus":3142,"answ":3143,"webs":3144,"clean":3145,"Democratic":3146,"various":3147,"##ael":3148,"##icip":3149,"indic":3150,"2021":3151,"legal":3152,"##oph":3153,"acqu":3154,"continues":3155,"biggest":3156,"seems":3157,"epis":3158,"Ear":3159,"broad":3160,"hous":3161,"mask":3162,"tre":3163,"##ument":3164,"noted":3165,"##epend":3166,"cred":3167,"grad":3168,"Israel":3169,"favor":3170,"##amb":3171,"accept":3172,"gets":3173,"block":3174,"tests":3175,"pict":3176,"sector":3177,"##igr":3178,"Inc":3179,"surv":3180,"Comp":3181,"pretty":3182,"More":3183,"mis":3184,"##uing":3185,"heav":3186,"recover":3187,"minister":3188,"required":3189,"questions":3190,"concerns":3191,"bud":3192,"##ya":3193,"conditions":3194,"jobs":3195,"normal":3196,"Facebook":3197,"huge":3198,"pull":3199,"##ault":3200,"##hood":3201,"##yl":3202,"fore":3203,"force":3204,"##aught":3205,"Per":3206,"store":3207,"##ampions":3208,"probably":3209,"Direct":3210,"Mor":3211,"##oom":3212,"##off":3213,"##ming":3214,"##ply":3215,"touch":3216,"##chie":3217,"screen":3218,"Since":3219,"bed":3220,"mar":3221,"tel":3222,"##ese":3223,"##orters":3224,"##ench":3225,"##isions":3226,"##str":3227,"compared":3228,"##ishing":3229,"quarantine":3230,"anim":3231,"levels":3232,"rules":3233,"energy":3234,"##ective":3235,"recomm":3236,"##encies":3237,"arrested":3238,"East":3239,"Of":3240,"rather":3241,"##uf":3242,"##idge":3243,"super":3244,"General":3245,"70":3246,"Bank":3247,"bord":3248,"park":3249,"##gn":3250,"##osing":3251,"##ude":3252,"disp":3253,"serious":3254,"rights":3255,"department":3256,"increased":3257,"easy":3258,"Phil":3259,"specific":3260,"bill":3261,"##ining":3262,"ste":3263,"2017":3264,"produc":3265,"Indian":3266,"William":3267,"Australia":3268,"hus":3269,"publ":3270,"stream":3271,"works":3272,"regard":3273,"Mean":3274,"vehicle":3275,"citizens":3276,"cast":3277,"##of":3278,"##yle":3279,"##ols":3280,"stage":3281,"ord":3282,"evidence":3283,"firm":3284,"capac":3285,"obs":3286,"prevent":3287,"learning":3288,"Council":3289,"Germ":3290,"##iety":3291,"##fort":3292,"##ON":3293,"ability":3294,"di":3295,"site":3296,"##tion":3297,"itself":3298,"##undred":3299,"Joe":3300,"establ":3301,"limited":3302,"daughter":3303,"roll":3304,"##uit":3305,"revenue":3306,"pred":3307,"crow":3308,"Red":3309,"piec":3310,"sound":3311,"##hi":3312,"##nal":3313,"##ites":3314,"##lying":3315,"spent":3316,"##ibly":3317,"insp":3318,"created":3319,"treatment":3320,"Del":3321,"coun":3322,"##wide":3323,"##arried":3324,"Associ":3325,"Meanwhile":3326,"Group":3327,"##wood":3328,"##enge":3329,"##urt":3330,"##uty":3331,"carry":3332,"##ructure":3333,"experi":3334,"revealed":3335,"fill":3336,"##ges":3337,"##ny":3338,"##itals":3339,"##ster":3340,"improve":3341,"effort":3342,"##ox":3343,"##TC":3344,"##utions":3345,"League":3346,"value":3347,"Twitter":3348,"War":3349,"student":3350,"management":3351,"Rec":3352,"base":3353,"den":3354,"##isl":3355,"hear":3356,"##apan":3357,"resources":3358,"Angel":3359,"ful":3360,"hol":3361,"##ville":3362,"##agn":3363,"trust":3364,"true":3365,"extrem":3366,"Johnson":3367,"property":3368,"Jack":3369,"mat":3370,"##arily":3371,"##ceed":3372,"##oyal":3373,"starting":3374,"turned":3375,"cause":3376,"via":3377,"##erve":3378,"##urk":3379,"prem":3380,"sympt":3381,"husband":3382,"Sch":3383,"##ona":3384,"##ushed":3385,"conference":3386,"chair":3387,"calls":3388,"communic":3389,"Carol":3390,"Flor":3391,"Japan":3392,"pan":3393,"##iant":3394,"##inated":3395,"growing":3396,"message":3397,"Canada":3398,"capacity":3399,"##imb":3400,"wearing":3401,"##elling":3402,"twe":3403,"common":3404,"included":3405,"wrong":3406,"happy":3407,"website":3408,"Hosp":3409,"Public":3410,"Ser":3411,"achie":3412,"fast":3413,"ones":3414,"##vey":3415,"##lear":3416,"##agement":3417,"letter":3418,"##going":3419,"initial":3420,"Mal":3421,"vo":3422,"##ani":3423,"##ida":3424,"goes":3425,"introd":3426,"cross":3427,"attention":3428,"regul":3429,"laws":3430,"Qu":3431,"bur":3432,"##ek":3433,"##DA":3434,"whose":3435,"words":3436,"agre":3437,"implement":3438,"Senate":3439,"raised":3440,"##ex":3441,"##light":3442,"peace":3443,"income":3444,"includes":3445,"looks":3446,"followed":3447,"population":3448,"bre":3449,"cal":3450,"natur":3451,"wond":3452,"##fr":3453,"##oper":3454,"consum":3455,"winning":3456,"Dis":3457,"cash":3458,"lab":3459,"##ha":3460,"##0s":3461,"##elines":3462,"##ady":3463,"##iring":3464,"perfect":3465,"##ength":3466,"progress":3467,"speed":3468,"Offic":3469,"individuals":3470,"analyst":3471,"King":3472,"##irst":3473,"##ems":3474,"heard":3475,"enfor":3476,"##ension":3477,"opened":3478,"tradition":3479,"claims":3480,"African":3481,"immediately":3482,"Pal":3483,"sel":3484,"##FL":3485,"##inary":3486,"##aries":3487,"forced":3488,"##ires":3489,"attend":3490,"defin":3491,"learn":3492,"European":3493,"range":3494,"san":3495,"grand":3496,"##itten":3497,"From":3498,"sales":3499,"Last":3500,"Sw":3501,"Val":3502,"nom":3503,"rise":3504,"##eed":3505,"previously":3506,"presidential":3507,"model":3508,"thousands":3509,"camer":3510,"##itor":3511,"##osition":3512,"tried":3513,"sports":3514,"impr":3515,"associ":3516,"posted":3517,"problems":3518,"Super":3519,"Bu":3520,"Bay":3521,"gone":3522,"##oes":3523,"launch":3524,"Mus":3525,"giving":3526,"exch":3527,"##ction":3528,"##ipment":3529,"Invest":3530,"knew":3531,"increasing":3532,"challenges":3533,"Lond":3534,"Road":3535,"civil":3536,"##cast":3537,"convers":3538,"commer":3539,"##unt":3540,"##aves":3541,"activities":3542,"45":3543,"##AN":3544,"##enced":3545,"annual":3546,"Tex":3547,"hundred":3548,"wel":3549,"##ugh":3550,"content":3551,"serve":3552,"county":3553,"London":3554,".’":3555,"partners":3556,"brother":3557,"built":3558,"box":3559,"Ob":3560,"rad":3561,"sat":3562,"sil":3563,"##ston":3564,"supply":3565,"challenge":3566,"certainly":3567,"necessary":3568,"aren":3569,"seeing":3570,"speak":3571,"caused":3572,"gas":3573,"##urance":3574,"##istic":3575,"##room":3576,"ended":3577,"finally":3578,"foreign":3579,":/":3580,"?”":3581,"Bel":3582,"danger":3583,"mill":3584,"##uled":3585,"##ously":3586,"helped":3587,"opening":3588,"hospitals":3589,"estim":3590,"candidate":3591,"particularly":3592,"International":3593,"symptoms":3594,"://":3595,"htt":3596,"##ago":3597,"agency":3598,"adding":3599,"calling":3600,"details":3601,"funding":3602,"digital":3603,"Over":3604,"mob":3605,"rout":3606,"stories":3607,"##abb":3608,"resol":3609,"overall":3610,"Commun":3611,"Alex":3612,"towards":3613,"stra":3614,"Then":3615,"##aby":3616,"Prime":3617,"independ":3618,"passed":3619,"considered":3620,"CE":3621,"James":3622,"bal":3623,"gun":3624,"##anks":3625,"beaut":3626,"scient":3627,"Union":3628,"##play":3629,"leadership":3630,"England":3631,"budget":3632,"32":3633,"Ke":3634,"rates":3635,"inn":3636,"refer":3637,"Those":3638,"scen":3639,"changed":3640,"Dan":3641,"Je":3642,"##ground":3643,"##ding":3644,"##yond":3645,"##aine":3646,"places":3647,"climate":3648,"remember":3649,"attr":3650,"Another":3651,"esc":3652,"demon":3653,"Smith":3654,"Michael":3655,"##ufact":3656,"Hospital":3657,"AP":3658,"Green":3659,"Sal":3660,"mur":3661,"poor":3662,"source":3663,"vill":3664,"beyond":3665,"##sequ":3666,"served":3667,"##ipped":3668,"violence":3669,"largest":3670,"influ":3671,"Lib":3672,"##ci":3673,"##fl":3674,"drop":3675,"facilities":3676,"simply":3677,"equipment":3678,"multiple":3679,"https":3680,"Ken":3681,"sle":3682,"##anch":3683,"stated":3684,"##emp":3685,"dog":3686,"unl":3687,"partner":3688,"appoint":3689,"active":3690,"driver":3691,"asking":3692,"pressure":3693,"Party":3694,"##ij":3695,"##itely":3696,"reached":3697,"exact":3698,"parts":3699,"couldn":3700,"charges":3701,"##esterday":3702,"Here":3703,"nov":3704,"beat":3705,"providing":3706,"explained":3707,"First":3708,"Hol":3709,"Most":3710,"##ky":3711,"##field":3712,"##DC":3713,"##aches":3714,"##oses":3715,"##oken":3716,"fourth":3717,"feeling":3718,"Scott":3719,"British":3720,"##estern":3721,"##alls":3722,"appeal":3723,"prec":3724,"transport":3725,"avoid":3726,"talking":3727,"individual":3728,"George":3729,"physical":3730,"Distr":3731,"fan":3732,"##owers":3733,"perm":3734,"brief":3735,"infected":3736,"recorded":3737,"Florida":3738,"lib":3739,"##overy":3740,"##haps":3741,"expand":3742,"experts":3743,"brand":3744,"reality":3745,"operations":3746,"funds":3747,"virtual":3748,"link":3749,"sust":3750,"##coming":3751,"##elled":3752,"described":3753,"Vict":3754,"council":3755,"squ":3756,"##izing":3757,"register":3758,"benefits":3759,"\".":3760,"Che":3761,"hom":3762,"vari":3763,"##mas":3764,"##ivery":3765,"##ware":3766,"##xic":3767,"##irth":3768,"comfort":3769,"sup":3770,"##apt":3771,"unf":3772,"soft":3773,"accused":3774,"##uction":3775,"signed":3776,"investment":3777,"Ministry":3778,"Two":3779,"choice":3780,"Texas":3781,"Nov":3782,"battle":3783,"##ma":3784,"##ustr":3785,"separ":3786,"league":3787,"meant":3788,"planning":3789,"Minnes":3790,"complete":3791,"highest":3792,"guidelines":3793,"Paul":3794,"reb":3795,"##unte":3796,"trial":3797,"subm":3798,"subs":3799,"options":3800,"primary":3801,"Bec":3802,"Mic":3803,"Port":3804,"Rs":3805,"bott":3806,"wear":3807,"##anda":3808,"blood":3809,"basis":3810,"ratio":3811,"Ant":3812,"Cont":3813,"Mad":3814,"##rop":3815,"prison":3816,"save":3817,"Stud":3818,"crim":3819,"crime":3820,"earnings":3821,"reduce":3822,"college":3823,"effective":3824,"beginning":3825,"anti":3826,"Office":3827,"title":3828,"80":3829,"CB":3830,"Sim":3831,"kept":3832,"##hib":3833,"##liam":3834,"##ford":3835,"disapp":3836,"##anced":3837,"amid":3838,"protest":3839,"Democrats":3840,"launched":3841,"Republican":3842,"damage":3843,"Sand":3844,"hy":3845,"##lin":3846,"door":3847,"charge":3848,"practice":3849,"episode":3850,"District":3851,"Mid":3852,"pair":3853,"sens":3854,"##ta":3855,"##bur":3856,"##icks":3857,"ongoing":3858,"##ament":3859,"##vert":3860,"note":3861,"spending":3862,"##iction":3863,"looked":3864,"Any":3865,"smart":3866,"passeng":3867,"claimed":3868,"critical":3869,"scheduled":3870,"##liament":3871,"Are":3872,"Cons":3873,"Sing":3874,"loved":3875,"nine":3876,"ult":3877,"##care":3878,"pros":3879,"wouldn":3880,"delivery":3881,"facility":3882,"returned":3883,"failed":3884,"suggest":3885,"natural":3886,"Let":3887,"aim":3888,"##cial":3889,"##eless":3890,"##oles":3891,"leaving":3892,"manufact":3893,"parties":3894,"written":3895,"center":3896,"infections":3897,"directly":3898,"sometimes":3899,"email":3900,"figure":3901,"original":3902,"Despite":3903,"Director":3904,"EU":3905,"Law":3906,"Other":3907,"cook":3908,"pers":3909,"rob":3910,"search":3911,"ten":3912,"yesterday":3913,"##men":3914,"##vent":3915,"##estic":3916,"spot":3917,"agreed":3918,"##berg":3919,"usually":3920,"affected":3921,"agreement":3922,"Ben":3923,"Tod":3924,"ut":3925,"##ER":3926,"##itz":3927,"##olf":3928,"traff":3929,"upon":3930,"198":3931,"retail":3932,"voting":3933,"request":3934,"Add":3935,"option":3936,"Justice":3937,"Minnesota":3938,"Fl":3939,"Sam":3940,"kick":3941,"mention":3942,"witness":3943,"##astic":3944,"legisl":3945,"critic":3946,"draw":3947,"seeking":3948,"Mont":3949,"Que":3950,"named":3951,"##iance":3952,"##IN":3953,"##ena":3954,"##isation":3955,"##rect":3956,"spir":3957,"adj":3958,"thank":3959,"Govern":3960,"##opping":3961,"initi":3962,"murder":3963,"36":3964,"Ac":3965,"##kn":3966,"##orney":3967,"##owing":3968,"##raft":3969,"sett":3970,"obv":3971,"movement":3972,"McC":3973,"charged":3974,"absol":3975,"purp":3976,"90":3977,"Gold":3978,"Hall":3979,"Mart":3980,"gives":3981,"tick":3982,"##oned":3983,"##omb":3984,"##acing":3985,"alone":3986,"deg":3987,"Str":3988,"amb":3989,"votes":3990,"Central":3991,"majority":3992,"engine":3993,"shooting":3994,"##leg":3995,"stake":3996,"items":3997,"##ecting":3998,"##agram":3999,"##unch":4000,"users":4001,"features":4002,"##ification":4003,"proper":4004,"wait":4005,"network":4006,"34":4007,"fre":4008,"##erem":4009,"##ocks":4010,"incred":4011,"grant":4012,"feet":4013,"refl":4014,"projects":4015,"victory":4016,"Christmas":4017,"Los":4018,"Well":4019,"vul":4020,"##LC":4021,"##ander":4022,"except":4023,"decades":4024,"manager":4025,"version":4026,"##ampionship":4027,"Vir":4028,"mand":4029,"wide":4030,"wild":4031,"##ala":4032,"##uments":4033,"owns":4034,"histor":4035,"Victor":4036,"worst":4037,"organiz":4038,"eventually":4039,"costs":4040,"volunte":4041,"journal":4042,"straight":4043,"55":4044,"award":4045,"cat":4046,"mix":4047,"##lies":4048,"##ero":4049,"##urb":4050,"prices":4051,"resident":4052,"qual":4053,"justice":4054,"Why":4055,"Although":4056,"driving":4057,"society":4058,"emb":4059,"offering":4060,"negative":4061,"Board":4062,"33":4063,"300":4064,"Kore":4065,"Mac":4066,"fat":4067,"north":4068,"swe":4069,"##eat":4070,"##za":4071,"##ki":4072,"forces":4073,"altern":4074,"Chic":4075,"##ression":4076,"condition":4077,"systems":4078,"organization":4079,"completely":4080,"crowd":4081,"tweet":4082,"novel":4083,"##ario":4084,"##itation":4085,"##itute":4086,"asp":4087,"comments":4088,"fresh":4089,"spring":4090,"keeping":4091,"managed":4092,"Instagram":4093,"Association":4094,"Like":4095,"Rich":4096,"bi":4097,"birth":4098,"narr":4099,"##inks":4100,"although":4101,"##ibution":4102,"aftern":4103,"##angu":4104,"province":4105,"evening":4106,"capt":4107,"subject":4108,"facing":4109,"warned":4110,"stopp":4111,"appeared":4112,"Angeles":4113,"Carolina":4114,"exactly":4115,"vulner":4116,"BTC":4117,"Su":4118,"cry":4119,"er":4120,"page":4121,"sun":4122,"##rol":4123,"##ES":4124,"##uries":4125,"##pped":4126,"##iful":4127,"##oving":4128,"appre":4129,"defense":4130,"imag":4131,"putting":4132,"candidates":4133,"temper":4134,"commercial":4135,"%.":4136,"Big":4137,"lay":4138,"wat":4139,"##iqu":4140,"##ubb":4141,"197":4142,"Also":4143,"middle":4144,"complain":4145,"37":4146,"Jos":4147,"pen":4148,"ren":4149,"send":4150,"##CA":4151,"##ania":4152,"Franc":4153,"##loyment":4154,"lawy":4155,"boost":4156,"offered":4157,"concerned":4158,"elections":4159,"credit":4160,"75":4161,"Prem":4162,"mail":4163,"##oul":4164,"exerc":4165,"remind":4166,"owners":4167,"##ledge":4168,"Adv":4169,"Apple":4170,"##ograph":4171,"afternoon":4172,"NFL":4173,"Oh":4174,"dream":4175,"jump":4176,"sad":4177,"##yan":4178,"##enty":4179,"##atever":4180,"spoke":4181,"196":4182,"helping":4183,"investors":4184,"object":4185,"dollars":4186,"fully":4187,"CEO":4188,"Bill":4189,"cell":4190,"##person":4191,"##chers":4192,"##ales":4193,"relig":4194,"decisions":4195,"delay":4196,"completed":4197,"Lake":4198,"card":4199,"pet":4200,"spend":4201,"commit":4202,"##ancy":4203,"##airs":4204,"planned":4205,"##asket":4206,"afford":4207,"behav":4208,"benefit":4209,"photo":4210,"culture":4211,"published":4212,"Chicago":4213,"Tom":4214,"sick":4215,"tim":4216,"##ein":4217,"##CC":4218,"##inn":4219,"##akh":4220,"##ager":4221,"##istan":4222,"guy":4223,"feels":4224,"artic":4225,"freed":4226,"size":4227,"trip":4228,"unique":4229,"committed":4230,"actor":4231,"bringing":4232,"38":4233,"Both":4234,"Jew":4235,"cities":4236,"paper":4237,"##ship":4238,"##PS":4239,"##ivity":4240,"commission":4241,"##ressive":4242,"healthy":4243,"owner":4244,"discover":4245,"Committee":4246,"Secretary":4247,"girls":4248,"border":4249,"39":4250,"Harr":4251,"Mike":4252,"log":4253,"offers":4254,"##icted":4255,"knows":4256,"centre":4257,"successful":4258,"joined":4259,"victims":4260,"definitely":4261,"Ol":4262,"dark":4263,"rap":4264,"ton":4265,"€™":4266,"##bum":4267,"street":4268,"trail":4269,"placed":4270,"assess":4271,"simple":4272,"waiting":4273,"##opped":4274,"professional":4275,"band":4276,"und":4277,"tough":4278,"##ocal":4279,"weather":4280,"plant":4281,"showing":4282,"minute":4283,"contribut":4284,"##ricult":4285,"subst":4286,"domestic":4287,"Service":4288,"bag":4289,"baby":4290,"caught":4291,"south":4292,"##oo":4293,"##nel":4294,"##cement":4295,"##DP":4296,"##ola":4297,"##ategy":4298,"scr":4299,"yourself":4300,"winter":4301,"patient":4302,"developed":4303,"trades":4304,"Play":4305,"policies":4306,"purchase":4307,"doctors":4308,"picture":4309,"Governor":4310,"Bus":4311,"fine":4312,"station":4313,"hair":4314,"haven":4315,"##unk":4316,"myself":4317,"reporting":4318,"central":4319,"arrived":4320,"emot":4321,"classes":4322,"easily":4323,"household":4324,"approx":4325,"fighting":4326,"eyes":4327,"recommend":4328,"voice":4329,"camera":4330,"Today":4331,"48":4332,"Kar":4333,"Turk":4334,"har":4335,"mach":4336,"table":4337,"##20":4338,"##ici":4339,"weap":4340,"##ables":4341,"##ellig":4342,"Star":4343,"infr":4344,"infection":4345,"campus":4346,"crew":4347,"collabor":4348,"meaning":4349,"restaurants":4350,"favorite":4351,"millions":4352,"Ber":4353,"gold":4354,"langu":4355,"yards":4356,"##lim":4357,"##iders":4358,"##oti":4359,"owned":4360,"transm":4361,"debate":4362,"Mel":4363,"Up":4364,"##ke":4365,"unemp":4366,"thinking":4367,"politics":4368,"##reme":4369,"Amaz":4370,"College":4371,"sleep":4372,"Lou":4373,"born":4374,"fem":4375,"nurs":4376,"##ros":4377,"##to":4378,"##BA":4379,"##eder":4380,"toll":4381,"##ado":4382,"##imum":4383,"willing":4384,"clin":4385,"display":4386,"2014":4387,"##formation":4388,"##arri":4389,"Management":4390,"construction":4391,"competition":4392,"approved":4393,"uncertain":4394,"housing":4395,"orders":4396,"analysts":4397,"Mil":4398,"Pre":4399,"categ":4400,"##eated":4401,"##EC":4402,"toward":4403,"##ette":4404,"stores":4405,"adult":4406,"2015":4407,"strateg":4408,"Brown":4409,"##egr":4410,"believed":4411,"massive":4412,"teachers":4413,"counter":4414,"demonstr":4415,"ele":4416,"hers":4417,"path":4418,"##sc":4419,"##orthern":4420,"##oval":4421,"##ocked":4422,"Def":4423,"programs":4424,"learned":4425,"debt":4426,"focused":4427,"sexual":4428,"##set":4429,"##night":4430,"##atively":4431,"##iser":4432,"##oves":4433,"shel":4434,"Island":4435,"electric":4436,"alleg":4437,"cancel":4438,"steps":4439,"judge":4440,"governor":4441,"vulnerable":4442,"Ev":4443,"Hill":4444,"Jud":4445,"La":4446,"##ze":4447,"##vention":4448,"##omen":4449,"##ube":4450,"##igned":4451,"becoming":4452,"committee":4453,"flood":4454,"consist":4455,"Spe":4456,"holding":4457,"distance":4458,"suspect":4459,"Robert":4460,"autom":4461,"green":4462,"mag":4463,"##IS":4464,"##iced":4465,"hearing":4466,"youth":4467,"##antly":4468,"##astructure":4469,"outd":4470,"relief":4471,"insurance":4472,"transfer":4473,"extended":4474,"runs":4475,"difference":4476,"markets":4477,"maintain":4478,"standard":4479,"tempor":4480,"heavy":4481,"push":4482,"##aith":4483,"##ushing":4484,"recovery":4485,"actions":4486,"amaz":4487,"produce":4488,"##erved":4489,"##ortunately":4490,"promot":4491,"appears":4492,"missing":4493,"Britain":4494,"Because":4495,"Met":4496,"bought":4497,"mental":4498,"sources":4499,"##sy":4500,"##lines":4501,"##orter":4502,"##oman":4503,"##alled":4504,"expressed":4505,"slight":4506,"limit":4507,"reasons":4508,"opportunities":4509,"characters":4510,"appreci":4511,"approximately":4512,"Amazon":4513,"MP":4514,"Under":4515,"grew":4516,"lic":4517,"nature":4518,"##pm":4519,"##ja":4520,"church":4521,"Thom":4522,"adop":4523,"##ibute":4524,"university":4525,"France":4526,"flag":4527,"buying":4528,"protests":4529,"Once":4530,"piece":4531,"wonder":4532,"traditional":4533,"criminal":4534,"43":4535,"65":4536,"Cup":4537,"Fire":4538,"Mem":4539,"mer":4540,"##time":4541,"##AC":4542,"##jected":4543,"##het":4544,"##esters":4545,"shown":4546,"##antage":4547,"word":4548,"##ghan":4549,"strategy":4550,"highly":4551,"happens":4552,"advice":4553,"valued":4554,"Instead":4555,"watching":4556,"type":4557,"Russia":4558,"existing":4559,"material":4560,"diagn":4561,"hundreds":4562,"42":4563,"41":4564,"basket":4565,"catch":4566,"vent":4567,"##wa":4568,"##iled":4569,"##utely":4570,"album":4571,"##emy":4572,"contain":4573,"##roy":4574,"##ensus":4575,"##iverse":4576,"filed":4577,"operating":4578,"Mexic":4579,"aware":4580,"vehicles":4581,"double":4582,"declared":4583,"Williams":4584,"Tor":4585,"breat":4586,"##ears":4587,"scale":4588,"writing":4589,"cars":4590,"proposed":4591,"document":4592,"attacks":4593,"apart":4594,"##ruption":4595,"Prof":4596,"hopes":4597,"answer":4598,"beautiful":4599,"Mod":4600,"marg":4601,"purs":4602,"rally":4603,"##auc":4604,"##lam":4605,"##HS":4606,"##owl":4607,"Their":4608,"prosp":4609,"sport":4610,"##ogle":4611,"text":4612,"confl":4613,"winner":4614,"status":4615,"activity":4616,"assistance":4617,"isolation":4618,"regarding":4619,"traffic":4620,"46":4621,"Gov":4622,"II":4623,"Wil":4624,"ran":4625,"warm":4626,"##iar":4627,"##hol":4628,"##edic":4629,"##eline":4630,"##abin":4631,"sche":4632,"provides":4633,"healthcare":4634,"greater":4635,"reduced":4636,"Centre":4637,"skills":4638,"identified":4639,"responsible":4640,"talks":4641,"farmers":4642,"##embly":4643,"dangerous":4644,",’":4645,"49":4646,"Gre":4647,"Jones":4648,"Leg":4649,"mission":4650,"sort":4651,"tack":4652,"##hlet":4653,"##TA":4654,"##raw":4655,"feature":4656,"French":4657,"location":4658,"remained":4659,"##itutional":4660,"achieve":4661,"Virgin":4662,"Mary":4663,"fix":4664,"horr":4665,"lose":4666,"lived":4667,"##ef":4668,"stuff":4669,"athlet":4670,"train":4671,"notice":4672,"dism":4673,"scored":4674,"teach":4675,"decade":4676,"depart":4677,"receiving":4678,"ordered":4679,"Coronavirus":4680,"responded":4681,"gradu":4682,"extremely":4683,"Francis":4684,"Federal":4685,"Gar":4686,"Home":4687,"Sun":4688,"UN":4689,"aid":4690,"fest":4691,"##ray":4692,"##iny":4693,"##aded":4694,"ang":4695,"##obe":4696,"opin":4697,"##encing":4698,"assault":4699,"minor":4700,"medic":4701,"survey":4702,"operation":4703,"Scot":4704,"meth":4705,"designed":4706,"Republicans":4707,"figures":4708,"Georg":4709,"infrastructure":4710,"Mag":4711,"hurt":4712,"rain":4713,"##rim":4714,"##more":4715,"##ica":4716,"monit":4717,"Force":4718,"politic":4719,"risks":4720,"Google":4721,"##apped":4722,"prepared":4723,"Ham":4724,"lines":4725,"##iest":4726,"##erous":4727,"storm":4728,"stress":4729,"##ulated":4730,"##agon":4731,"##pper":4732,"shop":4733,"ship":4734,"complex":4735,"appar":4736,"surf":4737,"negoti":4738,"conducted":4739,"LLC":4740,"ir":4741,"il":4742,"rank":4743,"pray":4744,"goals":4745,"doz":4746,"corpor":4747,"supposed":4748,"knowledge":4749,"floor":4750,"guys":4751,"profit":4752,"solid":4753,"ballot":4754,"anticip":4755,"##evision":4756,"terror":4757,"allegedly":4758,"Charl":4759,"amazing":4760,"conflict":4761,"Fund":4762,"##BI":4763,"##bit":4764,"tom":4765,"truth":4766,"unp":4767,"score":4768,"located":4769,"##ological":4770,"ballots":4771,"Nigerian":4772,"creating":4773,"draft":4774,"Germany":4775,"holiday":4776,"balance":4777,"herself":4778,"44":4779,"Av":4780,"Nav":4781,"Pet":4782,"cool":4783,"fif":4784,"wish":4785,"”,":4786,"##alt":4787,"whatever":4788,"resear":4789,"Ins":4790,"##izes":4791,"Andrew":4792,"governments":4793,"Att":4794,"excited":4795,"miles":4796,"clearly":4797,"choose":4798,"responsibility":4799,"journey":4800,"freedom":4801,"ign":4802,"sitting":4803,"##oe":4804,"##makers":4805,"##zz":4806,"##isters":4807,"##ifying":4808,"Inter":4809,"dropped":4810,"maybe":4811,"faced":4812,"modern":4813,"happening":4814,"Supreme":4815,"circum":4816,"neighbor":4817,"adjust":4818,"Premier":4819,"Lab":4820,"Miss":4821,"cop":4822,"princ":4823,"anal":4824,"##isted":4825,"exam":4826,"##anta":4827,"plays":4828,"upcoming":4829,"##anging":4830,"corner":4831,"##ounds":4832,"feed":4833,"surround":4834,"allowing":4835,"opposition":4836,"Develop":4837,"speech":4838,"colle":4839,"standing":4840,"changing":4841,"photos":4842,"recovered":4843,"enforcement":4844,"innov":4845,"Business":4846,"Int":4847,"NAS":4848,"River":4849,"bond":4850,"cerem":4851,"fit":4852,"sister":4853,"##lig":4854,"theat":4855,"##reets":4856,"##uted":4857,"##aming":4858,"proud":4859,"##ocr":4860,"##acks":4861,"outl":4862,"agree":4863,"unable":4864,"Frank":4865,"confidence":4866,"older":4867,"allows":4868,"speaking":4869,"believes":4870,"interesting":4871,"update":4872,"Delhi":4873,"Community":4874,"Penn":4875,"die":4876,"liter":4877,"sem":4878,"ver":4879,"##mar":4880,"##iable":4881,"##FC":4882,"##arian":4883,"##iles":4884,"hasn":4885,"seg":4886,"##eph":4887,"regional":4888,"supporting":4889,"##crip":4890,"measure":4891,"##tainment":4892,"largely":4893,"independent":4894,"##elligence":4895,"language":4896,"Coll":4897,"Kh":4898,"Max":4899,"losing":4900,"mount":4901,"veter":4902,"##EN":4903,"##rel":4904,"troub":4905,"##outhern":4906,"Though":4907,"helps":4908,"consult":4909,"continuing":4910,"surge":4911,"##loyd":4912,"movies":4913,"Const":4914,"##orrow":4915,"urged":4916,"Services":4917,"treated":4918,"Disney":4919,"attract":4920,"sustain":4921,"purpose":4922,"Bre":4923,"Haw":4924,"Ram":4925,"Your":4926,"cyc":4927,"pun":4928,"rent":4929,"##well":4930,"##oug":4931,"##ada":4932,"cong":4933,"##uman":4934,"##arden":4935,"unit":4936,"integr":4937,"Trans":4938,"Art":4939,"films":4940,"propos":4941,"Chris":4942,"injuries":4943,"talent":4944,"prosecut":4945,"stopped":4946,"400":4947,"Jim":4948,"joint":4949,"rule":4950,"sides":4951,"##ban":4952,"##osure":4953,"worse":4954,"perhaps":4955,"Who":4956,"elected":4957,"protesters":4958,"Mayor":4959,"maint":4960,"effects":4961,"solution":4962,"potentially":4963,"cancer":4964,"suggested":4965,"doubt":4966,"reopen":4967,"doctor":4968,"circumst":4969,"Fox":4970,"Good":4971,"Mah":4972,"Rock":4973,"Year":4974,"##de":4975,"##wise":4976,"##asc":4977,"##adium":4978,"stars":4979,"suit":4980,"resc":4981,"uns":4982,"##anges":4983,"rising":4984,"hotel":4985,"established":4986,"Valley":4987,"Thomas":4988,",'":4989,"Ill":4990,"fle":4991,"vice":4992,"forec":4993,"##lywood":4994,"reform":4995,"##odies":4996,"science":4997,"proceed":4998,"ending":4999,"setting":5000,"transition":5001,"collection":5002,"records":5003,"Grand":5004,"raise":5005,"illness":5006,"application":5007,"Company":5008,"mobile":5009,"Jeff":5010,"absolutely":5011,"organizations":5012,"basketball":5013,"Ro":5014,"Wood":5015,"harm":5016,"kid":5017,"male":5018,"married":5019,"sale":5020,"##roll":5021,"##house":5022,"##orks":5023,"tourn":5024,"##ili":5025,"style":5026,"##ipl":5027,"expert":5028,"attended":5029,"returning":5030,"persons":5031,"postp":5032,"reading":5033,"color":5034,"Before":5035,"seemed":5036,"favour":5037,"connection":5038,"immediate":5039,"origin":5040,"conversation":5041,"disappoint":5042,"spirit":5043,"!”":5044,"Matt":5045,"Pak":5046,"po":5047,"##SE":5048,"##inem":5049,"##ingly":5050,"##ano":5051,"##iling":5052,"onto":5053,"island":5054,"##opri":5055,"flight":5056,"guard":5057,"advoc":5058,"presented":5059,"powerful":5060,"entered":5061,"generation":5062,"appropri":5063,"spokesperson":5064,"female":5065,"illeg":5066,"99":5067,"Ak":5068,"Er":5069,"Op":5070,"Times":5071,"bid":5072,"cold":5073,"faith":5074,"pushed":5075,"rock":5076,"##inner":5077,"##rey":5078,"##ownt":5079,"##tered":5080,"##iment":5081,"##abilities":5082,"agencies":5083,"Prince":5084,"flights":5085,"starts":5086,"presence":5087,"equity":5088,"internet":5089,"injury":5090,"occas":5091,"occurr":5092,"motor":5093,"encourage":5094,"welcome":5095,"Bern":5096,"Follow":5097,"Post":5098,"Sn":5099,"tight":5100,"##gers":5101,"##mates":5102,"##IA":5103,"##inger":5104,"stick":5105,"##odes":5106,"Step":5107,"crore":5108,"appl":5109,"apply":5110,"becomes":5111,"supporters":5112,"serving":5113,"protection":5114,"image":5115,"announcement":5116,"sites":5117,"artist":5118,"killing":5119,"books":5120,"celebrate":5121,"reopening":5122,"estimated":5123,"unemployment":5124,"allegations":5125,"Mu":5126,"Town":5127,"Techn":5128,"##ux":5129,"##dom":5130,"##vant":5131,"consequ":5132,"frustr":5133,"seat":5134,"worr":5135,"##ipe":5136,"clot":5137,"Church":5138,"strength":5139,"write":5140,"finding":5141,"Organ":5142,"delivered":5143,"Capital":5144,"47":5145,"51":5146,"Author":5147,"eth":5148,"mist":5149,"##oft":5150,"##ios":5151,"##lish":5152,"##ka":5153,"##RA":5154,"##stein":5155,"##olution":5156,"stands":5157,"##igan":5158,"univers":5159,"##ailed":5160,"twice":5161,"##issions":5162,"protoc":5163,"advantage":5164,"payment":5165,"Finally":5166,"initially":5167,"##friend":5168,"registered":5169,"method":5170,"analys":5171,"Mount":5172,"Sher":5173,"Soc":5174,"barr":5175,"divid":5176,"tech":5177,"##ym":5178,"##owa":5179,"streets":5180,"abuse":5181,"##ours":5182,"##ordin":5183,"uses":5184,"teen":5185,"drink":5186,"secretary":5187,"locations":5188,"instit":5189,"##ologies":5190,"admitted":5191,"easier":5192,"telling":5193,"##cohol":5194,"##hester":5195,"Harry":5196,"drugs":5197,"Victoria":5198,"Korea":5199,"Louis":5200,"Georgia":5201,"Bor":5202,"Cle":5203,"Den":5204,"Sever":5205,"nice":5206,"##hew":5207,"##ita":5208,"whom":5209,"truly":5210,"Chair":5211,"mostly":5212,"flu":5213,"signs":5214,"Adm":5215,"oppon":5216,"Atl":5217,"##board":5218,"separate":5219,"degree":5220,"exercise":5221,"article":5222,"rapid":5223,"Virginia":5224,"Found":5225,"Rel":5226,"Tay":5227,"task":5228,"##gun":5229,"##cher":5230,"##itude":5231,"##istics":5232,"##ucing":5233,"##enses":5234,"sharing":5235,"passion":5236,"arrest":5237,"payments":5238,"injured":5239,"English":5240,"Australian":5241,"eye":5242,"audience":5243,"fellow":5244,"streaming":5245,"Jackson":5246,"introduced":5247,"Sanders":5248,"Development":5249,"56":5250,"Avenue":5251,"Bry":5252,"Es":5253,"Spr":5254,"Tel":5255,"Us":5256,"eat":5257,"##yr":5258,"##yo":5259,"##NA":5260,"##arant":5261,"stret":5262,"prime":5263,"anx":5264,"##agues":5265,"accident":5266,"supported":5267,"remaining":5268,"summ":5269,"radio":5270,"Bra":5271,"Fam":5272,"PM":5273,"od":5274,"##ali":5275,"complic":5276,"correct":5277,"supplies":5278,"cooper":5279,"conserv":5280,"produced":5281,"##ashion":5282,"reportedly":5283,"occup":5284,"understanding":5285,"creative":5286,"loan":5287,"religious":5288,"transmission":5289,"##sych":5290,"circumstances":5291,"52":5292,"Kel":5293,"Mill":5294,"Out":5295,"Peter":5296,"Ten":5297,"downt":5298,"gar":5299,"iP":5300,"mic":5301,"section":5302,"wid":5303,"##la":5304,"##ading":5305,"accur":5306,"prefer":5307,"broke":5308,"strike":5309,"studies":5310,"##hens":5311,"Army":5312,"deploy":5313,"directed":5314,"discl":5315,"suspended":5316,"Institute":5317,"Security":5318,"practices":5319,"##holders":5320,"priority":5321,"hoping":5322,"guidance":5323,"Market":5324,"Daniel":5325,"passengers":5326,"obviously":5327,"53":5328,"Im":5329,"Kn":5330,"Lee":5331,"Mass":5332,"Sar":5333,"Tre":5334,"Wall":5335,"Western":5336,"giant":5337,"hun":5338,"session":5339,"wed":5340,"##equ":5341,"##has":5342,"##load":5343,"##whel":5344,"##itig":5345,"##icient":5346,"chann":5347,"##outs":5348,"union":5349,"coast":5350,"finished":5351,"refused":5352,"skin":5353,"tells":5354,"ideas":5355,"selling":5356,"honest":5357,"Russian":5358,"restaurant":5359,"animals":5360,"scientists":5361,"comfortable":5362,"Camp":5363,"Jon":5364,"Sur":5365,"Work":5366,"batter":5367,"carried":5368,"fol":5369,"wall":5370,"##rary":5371,"##mb":5372,"##har":5373,"##west":5374,"##SA":5375,"##HO":5376,"##ounder":5377,"##ulations":5378,"deals":5379,"contest":5380,"seriously":5381,"Prog":5382,"finish":5383,"personnel":5384,"century":5385,"Arab":5386,"Club":5387,"alongside":5388,"snow":5389,"surprise":5390,"spokesman":5391,"researchers":5392,"57":5393,"Vice":5394,"dress":5395,"migr":5396,"##kins":5397,"##oted":5398,"comed":5399,"##abil":5400,"advert":5401,"##actions":5402,"reporters":5403,"severe":5404,"Conn":5405,"Educ":5406,"viewers":5407,"familiar":5408,"ruling":5409,"missed":5410,"Research":5411,"Series":5412,"Bet":5413,"Hy":5414,"Hope":5415,"carr":5416,"east":5417,"labor":5418,"##gar":5419,"##oors":5420,"##bon":5421,"##bor":5422,"##erry":5423,"weight":5424,"plus":5425,"perman":5426,"interested":5427,"decre":5428,"Alber":5429,"attorney":5430,"secret":5431,"earned":5432,"controll":5433,"highlight":5434,"extend":5435,"possibility":5436,"estate":5437,"distribution":5438,"considering":5439,"closing":5440,"schedule":5441,"television":5442,"alternative":5443,"scheme":5444,"Oly":5445,"Whe":5446,"dedic":5447,"hate":5448,"rose":5449,"##erate":5450,"##orse":5451,"stations":5452,"##illed":5453,"##illing":5454,"##ula":5455,"fraud":5456,"##unicip":5457,"tra":5458,"plenty":5459,"worry":5460,"spl":5461,"overse":5462,"user":5463,"therefore":5464,"##uclear":5465,"brings":5466,"##umption":5467,"busy":5468,"greatest":5469,"solutions":5470,"challenging":5471,"package":5472,"combat":5473,"teacher":5474,"Ohio":5475,"Great":5476,"PP":5477,"fant":5478,"mort":5479,"pil":5480,"##eren":5481,"##arks":5482,"##astern":5483,"##ersey":5484,"heat":5485,"##ectors":5486,"weak":5487,"##antic":5488,"plants":5489,"recru":5490,"compr":5491,"acad":5492,"agg":5493,"overwhel":5494,"pregn":5495,"acting":5496,"underst":5497,"everybody":5498,"coverage":5499,"Brook":5500,"##atured":5501,"developing":5502,"importance":5503,"trading":5504,"excell":5505,"accounts":5506,"covered":5507,"causing":5508,"suffered":5509,"destroy":5510,"struggling":5511,"experienced":5512,"influence":5513,"software":5514,"ultimately":5515,"frequ":5516,"Harris":5517,"slightly":5518,"Following":5519,"worried":5520,"54":5521,"Econom":5522,"Floyd":5523,"Mur":5524,"SA":5525,"Yet":5526,"Youn":5527,"cert":5528,"lands":5529,"length":5530,"##mond":5531,"##LA":5532,"##ini":5533,"##eness":5534,"##ashed":5535,"clients":5536,"guess":5537,"pointed":5538,"lots":5539,"airport":5540,"videos":5541,"closely":5542,"Exp":5543,"Canadian":5544,"Medical":5545,"discovered":5546,"##arriage":5547,"forecast":5548,"tournament":5549,"Olymp":5550,"%,":5551,"64":5552,"85":5553,"Det":5554,"Maine":5555,"Tim":5556,"fuel":5557,"max":5558,"ring":5559,"##mark":5560,"##dden":5561,"##uties":5562,"##olic":5563,"shots":5564,"tro":5565,"sudden":5566,"##enders":5567,"##oster":5568,"thanks":5569,"arm":5570,"arch":5571,"strict":5572,"Ann":5573,"mayor":5574,"numerous":5575,"ministry":5576,"depend":5577,"faces":5578,"##hana":5579,"Christian":5580,"connect":5581,"Parliament":5582,"##box":5583,"materials":5584,"Mexico":5585,"Social":5586,"Care":5587,"Iowa":5588,"Ok":5589,"Wr":5590,"boss":5591,"fal":5592,"psych":5593,"rich":5594,"weren":5595,"##IC":5596,"##inations":5597,"##inson":5598,"##onna":5599,"alcohol":5600,"trend":5601,"enh":5602,"express":5603,"Week":5604,"background":5605,"driven":5606,"goods":5607,"confident":5608,"Only":5609,"statements":5610,"entry":5611,"artists":5612,"taxes":5613,"protective":5614,"entirely":5615,"banks":5616,"songs":5617,"lifted":5618,"exchange":5619,"Singh":5620,"##abinet":5621,"dismiss":5622,"Human":5623,"Ire":5624,"Kim":5625,"Long":5626,"NY":5627,"Win":5628,"Wal":5629,"load":5630,"wave":5631,"##OR":5632,"##ulate":5633,"Three":5634,"upgr":5635,"Still":5636,"newly":5637,"Press":5638,"decline":5639,"removed":5640,"possibly":5641,"##rett":5642,"paying":5643,"distribut":5644,"approval":5645,"purchased":5646,"##iscal":5647,"please":5648,"Earth":5649,"61":5650,"66":5651,"AI":5652,"CN":5653,"Ros":5654,"Royal":5655,"ven":5656,"##OS":5657,"##OP":5658,"##olis":5659,"##aked":5660,"web":5661,"Italy":5662,"##obody":5663,"agricult":5664,"crash":5665,"actual":5666,"bright":5667,"retire":5668,"phase":5669,"emphas":5670,"informed":5671,"employee":5672,"younger":5673,"Assembly":5674,"closer":5675,"immigr":5676,"loans":5677,"Commissioner":5678,"determined":5679,"##flix":5680,"linked":5681,"neighborhood":5682,"Several":5683,"62":5684,"600":5685,"95":5686,"Ell":5687,"Look":5688,"Pac":5689,"Tour":5690,"Van":5691,"gain":5692,"rough":5693,"vision":5694,"wood":5695,"##rial":5696,"##put":5697,"##ien":5698,"##iors":5699,"##LE":5700,"##UR":5701,"##atically":5702,"doors":5703,"comput":5704,"intelligence":5705,"feat":5706,"drivers":5707,"positions":5708,"models":5709,"warning":5710,"moments":5711,"optim":5712,"larger":5713,"devast":5714,"professor":5715,"losses":5716,"Financial":5717,"##inois":5718,"Netflix":5719,"##lusion":5720,"producer":5721,"predict":5722,"breaking":5723,"Addition":5724,"Education":5725,"Ireland":5726,"800":5727,"Bur":5728,"Get":5729,"Kr":5730,"Put":5731,"Rem":5732,"Women":5733,"cas":5734,"##ga":5735,"##gent":5736,"##oh":5737,"##works":5738,"##iti":5739,"franch":5740,"chain":5741,"leaves":5742,"ourselves":5743,"2013":5744,"Ash":5745,"##luded":5746,"featured":5747,"coal":5748,"instruct":5749,"Beach":5750,"staying":5751,"listen":5752,"racial":5753,"determine":5754,"Earlier":5755,"survive":5756,"denied":5757,"chairman":5758,"consumers":5759,"lawyer":5760,"commitment":5761,"##ocracy":5762,"58":5763,"DC":5764,"Four":5765,"Gal":5766,"Ira":5767,"Jord":5768,"Love":5769,"Ont":5770,"Yes":5771,"eld":5772,"names":5773,"zero":5774,"##ez":5775,"##ooth":5776,"##eds":5777,"##essor":5778,"expensive":5779,"##icket":5780,"Prot":5781,"remote":5782,"glass":5783,"smaller":5784,"internal":5785,"singer":5786,"environmental":5787,"pieces":5788,"partnership":5789,"mentioned":5790,"Acad":5791,"uncertainty":5792,"Illinois":5793,"analysis":5794,"59":5795,"91":5796,"Veg":5797,"Where":5798,"gift":5799,"vir":5800,"zone":5801,"##com":5802,"##onn":5803,"##umn":5804,"shift":5805,"##ctions":5806,"unless":5807,"##awa":5808,"leads":5809,"Spain":5810,"Adam":5811,"programme":5812,"confirm":5813,"Executive":5814,"profession":5815,"##uke":5816,"visitors":5817,"clubs":5818,"applications":5819,"carrying":5820,"ceremony":5821,"Young":5822,"Iraq":5823,"Best":5824,"Bob":5825,"Emp":5826,"Hen":5827,"Lt":5828,"Sl":5829,"tied":5830,"turning":5831,"##aution":5832,"##mad":5833,"##sen":5834,"##dy":5835,"##bour":5836,"##SP":5837,"##lyn":5838,"frame":5839,"##aph":5840,"manage":5841,"units":5842,"repeated":5843,"##iana":5844,"counties":5845,"##ounce":5846,"secure":5847,"memor":5848,"voted":5849,"direction":5850,"proced":5851,"embr":5852,"meetings":5853,"##standing":5854,"basic":5855,"suffering":5856,"polls":5857,"acquired":5858,"filled":5859,"associated":5860,"##know":5861,"Martin":5862,"imagine":5863,"Jewish":5864,"Francisco":5865,"institutions":5866,"Boy":5867,"IC":5868,"NBA":5869,"Sol":5870,"Ty":5871,"batt":5872,"dry":5873,"fiscal":5874,"ment":5875,"tend":5876,"##rd":5877,"##AT":5878,"##icious":5879,"##ilty":5880,"##unior":5881,"truck":5882,"resume":5883,"acknow":5884,"Child":5885,"##ucks":5886,"backed":5887,"earth":5888,"seasons":5889,"newsp":5890,"##ipping":5891,"customer":5892,"device":5893,"Enter":5894,"racism":5895,"establish":5896,"matters":5897,"Obama":5898,"village":5899,"outdoor":5900,"Foundation":5901,"false":5902,"Fore":5903,"Food":5904,"Kat":5905,"PC":5906,"Rod":5907,"##cos":5908,"##inate":5909,"##icing":5910,"stim":5911,"sav":5912,"shif":5913,"##oston":5914,"diss":5915,"actress":5916,"offices":5917,"guilty":5918,"requires":5919,"##ucky":5920,"Coast":5921,"documents":5922,"platforms":5923,"touchdown":5924,"parking":5925,"Officer":5926,"Micros":5927,"birthday":5928,"crypt":5929,"Taylor":5930,"Microsoft":5931,"'.":5932,"Bol":5933,"Di":5934,"Each":5935,"Ford":5936,"Hou":5937,"Wat":5938,"fashion":5939,"nuclear":5940,"rum":5941,"wake":5942,"##inals":5943,"tools":5944,"##ishes":5945,"##icide":5946,"beach":5947,"rein":5948,"prove":5949,"##ortion":5950,"##ikes":5951,"crimes":5952,"Trust":5953,"Former":5954,"##onto":5955,"Ariz":5956,"##erves":5957,"messages":5958,"participate":5959,"German":5960,"exchanges":5961,"volunteers":5962,"renew":5963,"Turkey":5964,"72":5965,"76":5966,"Boston":5967,"CDC":5968,"Ghana":5969,"Lag":5970,"Os":5971,"Rad":5972,"bail":5973,"nav":5974,"pod":5975,"powers":5976,"rid":5977,"##MC":5978,"##MP":5979,"##alities":5980,"waste":5981,"##essions":5982,"shock":5983,"championship":5984,"interests":5985,"remove":5986,"Islam":5987,"quarterback":5988,"Among":5989,"prompt":5990,"listed":5991,"industrial":5992,"talked":5993,"Color":5994,"views":5995,"failure":5996,"Iranian":5997,"surprised":5998,"gatherings":5999,"pulled":6000,"panel":6001,"Muslim":6002,"variety":6003,"incredibly":6004,"Richard":6005,"opinion":6006,"Scotland":6007,"princip":6008,"Pakistan":6009,"Administr":6010,"67":6011,"81":6012,"Lew":6013,"Ma":6014,"Ryan":6015,"Watch":6016,"cards":6017,"rural":6018,"yard":6019,"##ront":6020,"##echan":6021,"##usion":6022,"##cean":6023,"exhib":6024,"sequ":6025,"Thanks":6026,"manner":6027,"cruc":6028,"2012":6029,"corruption":6030,"dram":6031,"struck":6032,"consensus":6033,"advised":6034,"Maybe":6035,"values":6036,"Election":6037,"cuts":6038,"Team":6039,"picked":6040,"Guard":6041,"discussion":6042,"deadly":6043,"prepare":6044,"Michigan":6045,"appropriate":6046,"occurred":6047,"dividend":6048,"Ah":6049,"Back":6050,"Div":6051,"Foot":6052,"Kong":6053,"Ra":6054,"Ut":6055,"Wind":6056,"Zoom":6057,"dance":6058,"sought":6059,"##cy":6060,"##craft":6061,"##30":6062,"structure":6063,"wealth":6064,"##uma":6065,"seats":6066,"spect":6067,"##ogue":6068,"##ubs":6069,"2011":6070,"ends":6071,"guarant":6072,"advance":6073,"Real":6074,"dealing":6075,"spreading":6076,"Eliz":6077,"authority":6078,"devices":6079,"walking":6080,"honor":6081,"division":6082,"##burg":6083,"Toronto":6084,"monitoring":6085,"corporate":6086,"unpre":6087,"fifth":6088,"franchise":6089,"Daily":6090,"Hot":6091,"Jam":6092,"Khan":6093,"Local":6094,"Mer":6095,"Ple":6096,"Vill":6097,"Wild":6098,"Warr":6099,"bars":6100,"laid":6101,"##syl":6102,"##part":6103,"##the":6104,"##cel":6105,"##vy":6106,"##isher":6107,"pra":6108,"##aint":6109,"shopping":6110,"spons":6111,"armed":6112,"Asia":6113,"##amples":6114,"elig":6115,"knowing":6116,"passing":6117,"Lead":6118,"factors":6119,"Plan":6120,"entertainment":6121,"roads":6122,"curb":6123,"Project":6124,"window":6125,"gathering":6126,"temporary":6127,"consequences":6128,"iPh":6129,"Jordan":6130,"##sylv":6131,"68":6132,"Bh":6133,"Eag":6134,"Imp":6135,"Life":6136,"Nic":6137,"Pitt":6138,"bul":6139,"gender":6140,"jail":6141,"marriage":6142,"ramp":6143,"tens":6144,"’.":6145,"##ua":6146,"##ww":6147,"inqu":6148,"##oma":6149,"##oto":6150,"champ":6151,"##ella":6152,"usual":6153,"fired":6154,"##rovers":6155,"playoff":6156,"adds":6157,"Asian":6158,"studio":6159,"visited":6160,"standards":6161,"investigating":6162,"master":6163,"apartment":6164,"identity":6165,"throw":6166,"updated":6167,"##ynam":6168,"CBS":6169,"margin":6170,"Pennsylv":6171,"protocols":6172,"78":6173,"Bru":6174,"CA":6175,"Card":6176,"Cath":6177,"Game":6178,"Hel":6179,"Jersey":6180,"Sil":6181,"Wu":6182,"core":6183,"coin":6184,"##gen":6185,"##dr":6186,"##hem":6187,"##eria":6188,"shall":6189,"quiet":6190,"otherwise":6191,"##ossible":6192,"regions":6193,"blue":6194,"assets":6195,"surg":6196,"##lands":6197,"relevant":6198,"operate":6199,"returns":6200,"Carl":6201,"function":6202,"Second":6203,"neck":6204,"System":6205,"struggle":6206,"boys":6207,"tourism":6208,"broadcast":6209,"Advis":6210,"tonight":6211,"canceled":6212,"tomorrow":6213,"Vegas":6214,"NE":6215,"NS":6216,"Sk":6217,"Way":6218,"bull":6219,"dad":6220,"golf":6221,"nations":6222,"yield":6223,"##iences":6224,"##fit":6225,"##wr":6226,"##woman":6227,"##IT":6228,"##inent":6229,"##isf":6230,"##uses":6231,"##using":6232,"##apolis":6233,"##ogan":6234,"Head":6235,"##reek":6236,"relatively":6237,"groc":6238,"broken":6239,"##argo":6240,"Unf":6241,"writer":6242,"Sports":6243,"##resp":6244,"collect":6245,"explain":6246,"affect":6247,"##incial":6248,"unclear":6249,"Global":6250,"resolution":6251,"bottom":6252,"Control":6253,"err":6254,"shelter":6255,"Speaking":6256,"illegal":6257,"troops":6258,"Houston":6259,"4th":6260,"Aff":6261,"Ep":6262,"Far":6263,"Jr":6264,"Jul":6265,"file":6266,"hits":6267,"tag":6268,"vast":6269,"west":6270,"##oz":6271,"##iy":6272,"##iot":6273,"##itory":6274,"thus":6275,"##idency":6276,"stood":6277,"Championship":6278,"195":6279,"flow":6280,"desper":6281,"confront":6282,"plane":6283,"bigger":6284,"Bloom":6285,"exciting":6286,"##cedented":6287,"begins":6288,"typically":6289,"targeted":6290,"participants":6291,"surprising":6292,"matches":6293,"implemented":6294,"homeless":6295,"Middle":6296,"teaching":6297,"trouble":6298,"proposal":6299,"Family":6300,"wedding":6301,"crucial":6302,"BBC":6303,"Fil":6304,"Farm":6305,"Ha":6306,"Hong":6307,"Morr":6308,"Water":6309,"ge":6310,"kitc":6311,"liv":6312,"lakh":6313,"wing":6314,"##ria":6315,"##cing":6316,"##heast":6317,"##oral":6318,"##ares":6319,"forg":6320,"stead":6321,"adapt":6322,"offensive":6323,"controvers":6324,"##iley":6325,"decide":6326,"elim":6327,"provider":6328,"Brad":6329,"pharm":6330,"defend":6331,"defeat":6332,"transaction":6333,"handle":6334,"capable":6335,"Blue":6336,"officially":6337,"resulted":6338,"parliament":6339,"150":6340,"emerged":6341,"represents":6342,"epid":6343,"suggests":6344,"walked":6345,"briefing":6346,"granted":6347,"tweeted":6348,"behavior":6349,"Labour":6350,"excellent":6351,"Arizona":6352,"unprecedented":6353,"Pennsylvania":6354,"Agency":6355,"Bat":6356,"Bowl":6357,"Cam":6358,"Eth":6359,"Hun":6360,"IT":6361,"Luc":6362,"Manc":6363,"PS":6364,"Son":6365,"Wisc":6366,"ease":6367,"ice":6368,"liqu":6369,"native":6370,"northern":6371,"vital":6372,"www":6373,"##uations":6374,"##zil":6375,"##IV":6376,"##hell":6377,"##real":6378,"##icial":6379,"steal":6380,"concept":6381,"##ighters":6382,"notes":6383,"##abeth":6384,"##apers":6385,"brain":6386,"##anged":6387,"coff":6388,"##erman":6389,"##onsin":6390,"##nergy":6391,"defensive":6392,"worldwide":6393,"images":6394,"##ugg":6395,"##azy":6396,"democracy":6397,"explos":6398,"##iami":6399,"percentage":6400,"footage":6401,"constit":6402,"debut":6403,"identify":6404,"significantly":6405,"declined":6406,"motiv":6407,"encouraged":6408,"reaching":6409,"consumer":6410,"increasingly":6411,"route":6412,"watched":6413,"substant":6414,"Judge":6415,"festival":6416,"Alberta":6417,"dedicated":6418,"Foreign":6419,"Wisconsin":6420,"AN":6421,"Dise":6422,"Eastern":6423,"Having":6424,"Lat":6425,"Pay":6426,"Sir":6427,"Sum":6428,"Zimb":6429,"dinner":6430,"##rain":6431,"##rick":6432,"##een":6433,"##cl":6434,"##alf":6435,"##isan":6436,"aside":6437,"##essed":6438,"##ulus":6439,"##ighter":6440,"##uster":6441,"resist":6442,"Its":6443,"scoring":6444,"grown":6445,"2010":6446,"indeed":6447,"oblig":6448,"Class":6449,"custody":6450,"stronger":6451,"falling":6452,"entering":6453,"generally":6454,"##ommod":6455,"volume":6456,"Davis":6457,"Paris":6458,"updates":6459,"Steve":6460,"requirements":6461,"##lusive":6462,"borders":6463,"incredible":6464,"Supp":6465,"weapons":6466,"politicians":6467,"Sheriff":6468,"Academy":6469,"74":6470,"96":6471,"Jay":6472,"Kam":6473,"Las":6474,"Raj":6475,"burn":6476,"none":6477,"pitch":6478,"##pool":6479,"##ius":6480,"##GB":6481,"##xy":6482,"##omo":6483,"##elph":6484,"withd":6485,"##ums":6486,"trib":6487,"trick":6488,"##abwe":6489,"spaces":6490,"##izz":6491,"disin":6492,"wins":6493,"follows":6494,"discrim":6495,"fewer":6496,"collected":6497,"##place":6498,"species":6499,"##ronic":6500,"attempts":6501,"Palest":6502,"Investment":6503,"Hollywood":6504,"machine":6505,"nursing":6506,"downtown":6507,"folks":6508,"permanent":6509,"Elizabeth":6510,"($":6511,"71":6512,"84":6513,"88":6514,"Laur":6515,"Walk":6516,"bat":6517,"bodies":6518,"ce":6519,"cinem":6520,"du":6521,"der":6522,"duty":6523,"icon":6524,"lie":6525,"laugh":6526,"nut":6527,"roles":6528,"tast":6529,"##eing":6530,"##mes":6531,"##rees":6532,"##ila":6533,"##ulf":6534,"##aka":6535,"outcome":6536,"exposed":6537,"exposure":6538,"worker":6539,"194":6540,"eval":6541,"disaster":6542,"relax":6543,"accommod":6544,"anywhere":6545,"index":6546,"famous":6547,"transform":6548,"seconds":6549,"install":6550,"Special":6551,"empty":6552,"demands":6553,"nearby":6554,"legacy":6555,"aircraft":6556,"Clin":6557,"holds":6558,"250":6559,"engaged":6560,"vaccines":6561,"covering":6562,"properties":6563,"houses":6564,"scenes":6565,"manufactur":6566,"delayed":6567,"featuring":6568,"Unfortunately":6569,"Manchester":6570,"Zimbabwe":6571,"69":6572,"700":6573,"Bud":6574,"Cu":6575,"Doug":6576,"Energy":6577,"LA":6578,"et":6579,"era":6580,"fake":6581,"founder":6582,"mechan":6583,"rated":6584,"##ext":6585,"##MA":6586,"##nam":6587,"##fol":6588,"##win":6589,"##orage":6590,"tool":6591,"forms":6592,"##ocurr":6593,"Thank":6594,"accom":6595,"belong":6596,"followers":6597,"courts":6598,"moves":6599,"instance":6600,"promised":6601,"immun":6602,"##intend":6603,"animal":6604,"communication":6605,"estimates":6606,"##ING":6607,"initiative":6608,"strategic":6609,"colleagues":6610,"rescue":6611,"academic":6612,"Lagos":6613,"Lewis":6614,"Please":6615,"Ba":6616,"Barr":6617,"Dar":6618,"Emer":6619,"Fur":6620,"Hear":6621,"Jac":6622,"Jason":6623,"Lord":6624,"NHS":6625,"Oper":6626,"Ray":6627,"Sud":6628,"Tal":6629,"Tok":6630,"Tony":6631,"fish":6632,"flying":6633,"pic":6634,"pushing":6635,"rely":6636,"##rid":6637,"##rig":6638,"##reens":6639,"thinks":6640,"##ils":6641,"##ilton":6642,"##ache":6643,"##ador":6644,"alert":6645,"Through":6646,"##ansion":6647,"hero":6648,"intention":6649,"theme":6650,"actors":6651,"invited":6652,"##athan":6653,"Show":6654,"##aska":6655,"buildings":6656,"equal":6657,"classic":6658,"technical":6659,"##ennis":6660,"Justin":6661,"compete":6662,"connected":6663,"##adesh":6664,"combined":6665,"recognize":6666,"improved":6667,"scenario":6668,"square":6669,"persp":6670,"sweet":6671,"recommendations":6672,"category":6673,"Ontario":6674,"cryptocurr":6675,"Colorado":6676,"iPhone":6677,"Az":6678,"AC":6679,"Dom":6680,"Eric":6681,"Kev":6682,"Lu":6683,"Miami":6684,"Zeal":6685,"hall":6686,"taught":6687,"##aft":6688,"##rum":6689,"##cer":6690,"##bury":6691,"##EA":6692,"##US":6693,"##aron":6694,"##arity":6695,"##omatic":6696,"##ele":6697,"##etic":6698,"fort":6699,"##adelph":6700,"##eman":6701,"##unning":6702,"##ivals":6703,"sea":6704,"cloud":6705,"aged":6706,"##quar":6707,"imposed":6708,"fees":6709,"drama":6710,"minim":6711,"guests":6712,"YouT":6713,"thoughts":6714,"Mrs":6715,"condem":6716,"turns":6717,"Afghan":6718,"Cooper":6719,"Conference":6720,"suspected":6721,"Senator":6722,"expectations":6723,"encoun":6724,"nationwide":6725,"banned":6726,"Medic":6727,"Patri":6728,"enjoyed":6729,"Philadelph":6730,"baseball":6731,"regulations":6732,"submitted":6733,"Anyone":6734,"eligible":6735,"Wuhan":6736,"Philadelphia":6737,"5G":6738,"73":6739,"Cross":6740,"Down":6741,"Squ":6742,"Saf":6743,"UC":6744,"tun":6745,"##under":6746,"##how":6747,"##wan":6748,"##ati":6749,"inch":6750,"##isers":6751,"stuck":6752,"intended":6753,"##bert":6754,"cru":6755,"##angers":6756,"memory":6757,"concert":6758,"lawmakers":6759,"boat":6760,"safely":6761,"promote":6762,"switch":6763,"closure":6764,"Season":6765,"attempted":6766,"Network":6767,"fears":6768,"pictures":6769,"Morgan":6770,"subsid":6771,"Students":6772,"passenger":6773,"##known":6774,"historic":6775,"temperatures":6776,"emotional":6777,"adults":6778,"Chairman":6779,"Brazil":6780,"Award":6781,"Old":6782,"Ron":6783,"Saud":6784,"Tit":6785,"junior":6786,"rare":6787,"royal":6788,"tree":6789,"vs":6790,"##uous":6791,"##point":6792,"##pread":6793,"##ko":6794,"##ji":6795,"##ecution":6796,"##eted":6797,"stressed":6798,"reaction":6799,"##enda":6800,"evac":6801,"command":6802,"deputy":6803,"##azz":6804,"edge":6805,"visits":6806,"##iamond":6807,"appearance":6808,"##onym":6809,"involve":6810,"ensuring":6811,"Seattle":6812,"cancelled":6813,"awa":6814,"immune":6815,"preparing":6816,"soldiers":6817,"heavily":6818,"specifically":6819,"observed":6820,"sounds":6821,"Area":6822,"legislation":6823,"Queen":6824,"Professor":6825,"tackle":6826,"surface":6827,"dozens":6828,"originally":6829,"accompl":6830,"Zealand":6831,"63":6832,"Hold":6833,"Jenn":6834,"Power":6835,"Ver":6836,"eating":6837,"fishing":6838,"gra":6839,"joy":6840,"nor":6841,"pace":6842,"pool":6843,"que":6844,"rail":6845,"sectors":6846,"##uable":6847,"##pir":6848,"##iation":6849,"##EL":6850,"##OT":6851,"therap":6852,"##icop":6853,"##eck":6854,"##uru":6855,"##pping":6856,"execut":6857,"chart":6858,"sees":6859,"aband":6860,"##ikely":6861,"climb":6862,"compon":6863,"meal":6864,"impossible":6865,"streng":6866,"shouldn":6867,"veget":6868,"depth":6869,"profile":6870,"marketing":6871,"##idespread":6872,"impacted":6873,"Abd":6874,"targets":6875,"urban":6876,"threatened":6877,"discussions":6878,"deeply":6879,"Syd":6880,"recognition":6881,"regularly":6882,"conversations":6883,"appointment":6884,"complaints":6885,"wonderful":6886,"postponed":6887,"stretch":6888,"Kelly":6889,"Program":6890,"Economic":6891,"01":6892,"ET":6893,"Ever":6894,"Hon":6895,"Mot":6896,"Ren":6897,"Ret":6898,"Somet":6899,"Southern":6900,"TH":6901,"ast":6902,"bound":6903,"bench":6904,"cart":6905,"##ran":6906,"##oil":6907,"##repr":6908,"forget":6909,"struct":6910,"alive":6911,"##ulating":6912,"##agh":6913,"agent":6914,"unknown":6915,"somebody":6916,"prepar":6917,"flat":6918,"desire":6919,"planet":6920,"##axy":6921,"increases":6922,"possession":6923,"factor":6924,"##otted":6925,"likes":6926,"muse":6927,"industries":6928,"involving":6929,"About":6930,"raising":6931,"coup":6932,"##rupted":6933,"Charles":6934,"lawsuit":6935,"unlikely":6936,"tickets":6937,"properly":6938,"temperature":6939,"Joseph":6940,"weapon":6941,"clinical":6942,"veteran":6943,"Open":6944,"applied":6945,"maximum":6946,"retirement":6947,"77":6948,"86":6949,"AT":6950,"Bang":6951,"Die":6952,"Gh":6953,"Kl":6954,"Kent":6955,"Lim":6956,"NC":6957,"Nor":6958,"Right":6959,"Sa":6960,"Sky":6961,"Santa":6962,"Tam":6963,"Tem":6964,"Tik":6965,"af":6966,"flex":6967,"gear":6968,"map":6969,"wound":6970,"##TON":6971,"##PA":6972,"##aling":6973,"bear":6974,"begun":6975,"sand":6976,"shape":6977,"##aped":6978,"residence":6979,"offense":6980,"peak":6981,"##acted":6982,"grade":6983,"Princ":6984,"regime":6985,"weekly":6986,"Brady":6987,"Anth":6988,"supports":6989,"infect":6990,"##iversary":6991,"puts":6992,"charity":6993,"friendly":6994,"Rev":6995,"2008":6996,"Abu":6997,"Senior":6998,"failing":6999,"competitive":7000,"photograph":7001,"encouraging":7002,"relationships":7003,"experiences":7004,"manufacturing":7005,"criticism":7006,"affordable":7007,"elements":7008,"Attorney":7009,"surrounding":7010,"battery":7011,"elder":7012,"kitchen":7013,"Kevin":7014,"Sydney":7015,"Bell":7016,"Beng":7017,"Call":7018,"Fort":7019,"Jess":7020,"Pel":7021,"ble":7022,"code":7023,"dial":7024,"fly":7025,"mut":7026,"ride":7027,"widespread":7028,"##pet":7029,"##fire":7030,"##bl":7031,"##va":7032,"##RC":7033,"##IL":7034,"##eries":7035,"##inct":7036,"##esides":7037,"##oration":7038,"##eler":7039,"##umed":7040,"shops":7041,"chances":7042,"##ellow":7043,"context":7044,"193":7045,"##icken":7046,"accomp":7047,"registr":7048,"donated":7049,"publicly":7050,"genu":7051,"passes":7052,"advanced":7053,"legend":7054,"chem":7055,"entr":7056,"Clark":7057,"explains":7058,"visiting":7059,"2009":7060,"Deputy":7061,"engage":7062,"apolog":7063,"absence":7064,"normally":7065,"multi":7066,"cleaning":7067,"episodes":7068,"inspired":7069,"Japanese":7070,"scientific":7071,"squad":7072,"##burgh":7073,"cells":7074,"widely":7075,"Anthony":7076,"2nd":7077,"ABC":7078,"Cook":7079,"Lo":7080,"Mas":7081,"bird":7082,"gonna":7083,"sch":7084,"tact":7085,"warr":7086,"’,":7087,"##che":7088,"##50":7089,"forth":7090,"##osis":7091,"trials":7092,"##asts":7093,"##acked":7094,"spike":7095,"outr":7096,"outs":7097,"recording":7098,"##achment":7099,"coordin":7100,"donations":7101,"earn":7102,"medium":7103,"posit":7104,"symb":7105,"voter":7106,"heads":7107,"Drive":7108,"shortly":7109,"violent":7110,"threatening":7111,"joining":7112,"respectively":7113,"argued":7114,"##itcoin":7115,"fulf":7116,"journalist":7117,"athletes":7118,"anxiety":7119,"comedy":7120,"split":7121,"newspaper":7122,"Warren":7123,"Catholic":7124,"YouTube":7125,"Bad":7126,"Dak":7127,"Ly":7128,"Vik":7129,"garden":7130,"gym":7131,"kil":7132,"municip":7133,"ped":7134,"till":7135,"van":7136,"##gu":7137,"##uate":7138,"##maker":7139,"##ias":7140,"##FA":7141,"##IR":7142,"##erb":7143,"##itors":7144,"##aser":7145,"##illy":7146,"##olen":7147,"##olit":7148,"stages":7149,"storage":7150,"alarm":7151,"##andal":7152,"##ords":7153,"##rooms":7154,"##ilding":7155,"00000":7156,"belief":7157,"handling":7158,"extr":7159,"extension":7160,"concluded":7161,"posts":7162,"holdings":7163,"claiming":7164,"effectively":7165,"limits":7166,"##hammad":7167,"Corpor":7168,"##force":7169,"lights":7170,"basically":7171,"polling":7172,"shutdown":7173,"ratings":7174,"beds":7175,"satisf":7176,"smartph":7177,"obvious":7178,"Golden":7179,"ticket":7180,"Josh":7181,"lawyers":7182,"appreciate":7183,"ventil":7184,"Whether":7185,"CNN":7186,"viral":7187,"acknowled":7188,"Further":7189,"Saudi":7190,"08":7191,"97":7192,"Aut":7193,"Bitcoin":7194,"Cy":7195,"ID":7196,"Land":7197,"WW":7198,"lit":7199,"mitig":7200,"nobody":7201,"pock":7202,"sor":7203,"sac":7204,"##pass":7205,"##inating":7206,"##ato":7207,"##asy":7208,"##ician":7209,"##urse":7210,"##amber":7211,"##igen":7212,"##uls":7213,"neut":7214,"enable":7215,"agents":7216,"Stadium":7217,"firms":7218,"##icking":7219,"retired":7220,"respir":7221,"minimum":7222,"surve":7223,"signing":7224,"arrive":7225,"parent":7226,"legit":7227,"explo":7228,"totally":7229,"##apper":7230,"suspects":7231,"Columb":7232,"types":7233,"##what":7234,"convention":7235,"answers":7236,"indicated":7237,"accepted":7238,"Perhaps":7239,"nomine":7240,"escape":7241,"aimed":7242,"objective":7243,"behavi":7244,"diagnosed":7245,"professionals":7246,"epidemic":7247,"Mat":7248,"Mos":7249,"Nick":7250,"Never":7251,"Northern":7252,"Soci":7253,"diverse":7254,"fought":7255,"gap":7256,"mir":7257,"rom":7258,"row":7259,"tally":7260,"##uits":7261,"##pay":7262,"##ih":7263,"##laim":7264,"##xit":7265,"##amm":7266,"conven":7267,"##umes":7268,"trig":7269,"chose":7270,"spark":7271,"alloc":7272,"##eping":7273,"incor":7274,"##ureau":7275,"##assy":7276,"##ockey":7277,"brut":7278,"brands":7279,"Brand":7280,"##aug":7281,"filing":7282,"keeps":7283,"obt":7284,"arrival":7285,"heading":7286,"##overty":7287,"collective":7288,"employment":7289,"##tenance":7290,"lowest":7291,"cultural":7292,"Regional":7293,"Everyone":7294,"Israeli":7295,"observ":7296,"premier":7297,"calc":7298,"selected":7299,"superv":7300,"narrative":7301,"Wilson":7302,"Navy":7303,"literally":7304,"segment":7305,"Henry":7306,"Football":7307,"champion":7308,"82":7309,"Bir":7310,"Curr":7311,"FA":7312,"Five":7313,"Hu":7314,"Ju":7315,"Lind":7316,"Mir":7317,"Mumb":7318,"Night":7319,"Rest":7320,"SAR":7321,"Test":7322,"WHO":7323,"caution":7324,"dipl":7325,"jur":7326,"lad":7327,"tear":7328,"vess":7329,"##rian":7330,"##iat":7331,"##hari":7332,"##da":7333,"##itate":7334,"##owed":7335,"forever":7336,"##osen":7337,"chap":7338,"abroad":7339,"Ital":7340,"Stan":7341,"meat":7342,"unus":7343,"##ordinary":7344,"crazy":7345,"somewhat":7346,"Prod":7347,"endors":7348,"assured":7349,"Marsh":7350,"handed":7351,"sharp":7352,"subsequ":7353,"obst":7354,"findings":7355,"fundra":7356,"mode":7357,"estimate":7358,"technologies":7359,"constantly":7360,"salary":7361,"sentence":7362,"celebration":7363,"discussed":7364,"racist":7365,"districts":7366,"replace":7367,"stepped":7368,"appointed":7369,"util":7370,"households":7371,"universities":7372,"Bryant":7373,"deployed":7374,"Pacific":7375,"Additionally":7376,"##bourne":7377,"stimulus":7378,"Eagles":7379,"coffee":7380,"substantial":7381,"Disease":7382,"etc":7383,"Tokyo":7384,"1st":7385,"87":7386,"94":7387,"Lyn":7388,"Nations":7389,"Top":7390,"Ult":7391,"cy":7392,"hur":7393,"hyp":7394,"ow":7395,"sending":7396,"##Tok":7397,"##OC":7398,"##areness":7399,"##acement":7400,"##uters":7401,"stable":7402,"tracing":7403,"noticed":7404,"##aba":7405,"plastic":7406,"##oked":7407,"allies":7408,"##ika":7409,"recalled":7410,"intensive":7411,"arms":7412,"bridge":7413,"showc":7414,"provincial":7415,"prohib":7416,"Bron":7417,"Brian":7418,"rooms":7419,"guide":7420,"founded":7421,"parks":7422,"##iveness":7423,"promise":7424,"swim":7425,"Plus":7426,"cutting":7427,"##autions":7428,"Guy":7429,"absent":7430,"causes":7431,"##bridge":7432,"packed":7433,"motion":7434,"paint":7435,"escal":7436,"Check":7437,"horror":7438,"##cription":7439,"Hawai":7440,"occasion":7441,"Bernie":7442,"Denver":7443,"channel":7444,"understood":7445,"TikTok":7446,"Ay":7447,"Doc":7448,"Liver":7449,"Lives":7450,"MS":7451,"Nev":7452,"Om":7453,"Ott":7454,"Ross":7455,"Sub":7456,"diversity":7457,"dynam":7458,"hat":7459,"mouth":7460,"pit":7461,"upper":7462,"##ports":7463,"##TO":7464,"##water":7465,"##oning":7466,"##ether":7467,"stolen":7468,"seed":7469,"meals":7470,"##bery":7471,"##raham":7472,"brill":7473,"##erty":7474,"Ali":7475,"##neapolis":7476,"remark":7477,"assigned":7478,"##ups":7479,"transpar":7480,"Minneapolis":7481,"institutional":7482,"##ologist":7483,"feelings":7484,"resulting":7485,"pattern":7486,"##otten":7487,"Meghan":7488,"Beij":7489,"reasonable":7490,"Corp":7491,"seniors":7492,"addressed":7493,"contracts":7494,"combination":7495,"Airport":7496,"extraordinary":7497,"recommended":7498,"counsel":7499,"##front":7500,"improving":7501,"expanded":7502,"mandate":7503,"volunteer":7504,"collaboration":7505,"Spring":7506,"roughly":7507,"podcast":7508,"Patriots":7509,"Mumbai":7510,"Beijing":7511,"?\"":7512,"Awards":7513,"Ball":7514,"Et":7515,"GDP":7516,"Hist":7517,"Oak":7518,"UA":7519,"Vol":7520,"awards":7521,"bath":7522,"bills":7523,"faster":7524,"hell":7525,"hang":7526,"lies":7527,"rushed":7528,"##min":7529,"##life":7530,"##PD":7531,"##erg":7532,"##arch":7533,"##itable":7534,"##itarian":7535,"##utical":7536,"##ima":7537,"anger":7538,"##una":7539,"##ifer":7540,"##oking":7541,"##apse":7542,"ups":7543,"recre":7544,"ages":7545,"##aceutical":7546,"drag":7547,"2022":7548,"proof":7549,"blame":7550,"finance":7551,"##rics":7552,"anniversary":7553,"insisted":7554,"extent":7555,"Span":7556,"finds":7557,"reducing":7558,"explore":7559,"valid":7560,"stayed":7561,"Grant":7562,"outbreaks":7563,"representing":7564,"slowly":7565,"beauty":7566,"Portland":7567,"captured":7568,"##ubble":7569,"penal":7570,"Defense":7571,"departments":7572,"anticipated":7573,"Brexit":7574,"cycle":7575,"opponent":7576,"accurate":7577,"repeatedly":7578,"Division":7579,"Bloomberg":7580,"Palestin":7581,"Cuomo":7582,"##folio":7583,"perspective":7584,"schol":7585,"behaviour":7586,"Society":7587,"89":7588,"Free":7589,"Muse":7590,"Rat":7591,"Sony":7592,"bra":7593,"dining":7594,"hole":7595,"mal":7596,"mild":7597,"races":7598,"##mon":7599,"##mate":7600,"##BO":7601,"##ba":7602,"touc":7603,"##isk":7604,"##rell":7605,"##idays":7606,"##aya":7607,"##ura":7608,"##change":7609,"trained":7610,"##iking":7611,"screens":7612,"interact":7613,"##awn":7614,"remarks":7615,"monitor":7616,"proved":7617,"##weight":7618,"defence":7619,"announce":7620,"presidency":7621,"120":7622,"Dev":7623,"reduction":7624,"situations":7625,"employed":7626,"musical":7627,"hospitalized":7628,"performed":7629,"strongly":7630,"hopefully":7631,"threats":7632,"purchasing":7633,"Media":7634,"banking":7635,"divor":7636,"##ophy":7637,"producing":7638,"producers":7639,"experiencing":7640,"extreme":7641,"communications":7642,"labour":7643,"cameras":7644,"Music":7645,"boxes":7646,"satell":7647,"permitted":7648,"mixed":7649,"complaint":7650,"clothing":7651,"overseas":7652,"pregnant":7653,"suddenly":7654,"computer":7655,"Administration":7656,"grocery":7657,"##reprene":7658,"Dakota":7659,"02":7660,"79":7661,"98":7662,"AF":7663,"Dub":7664,"Gi":7665,"Ka":7666,"Labor":7667,"Lady":7668,"Men":7669,"Oreg":7670,"Pan":7671,"Sad":7672,"Sus":7673,"Ted":7674,"Tan":7675,"Time":7676,"bomb":7677,"fab":7678,"gaming":7679,"mine":7680,"mile":7681,"pal":7682,"rival":7683,"yes":7684,"##mont":7685,"##iop":7686,"##ye":7687,"##erals":7688,"##onom":7689,"##arus":7690,"##aled":7691,"##asure":7692,"##ela":7693,"##eli":7694,"##acle":7695,"beating":7696,"##amin":7697,"##verse":7698,"rejected":7699,"##cho":7700,"exit":7701,"Thomp":7702,"##ansas":7703,"clock":7704,"client":7705,"recept":7706,"##obb":7707,"craft":7708,"acts":7709,"anybody":7710,"provision":7711,"Marvel":7712,"protected":7713,"depos":7714,"Space":7715,"mainly":7716,"maintenance":7717,"Elect":7718,"firef":7719,"Irish":7720,"Nigerians":7721,"expects":7722,"hosted":7723,"territory":7724,"hotels":7725,"tracking":7726,"Schools":7727,"Does":7728,"primarily":7729,"nomination":7730,"Investors":7731,"independence":7732,"referred":7733,"reflect":7734,"mandatory":7735,"aspect":7736,"trailer":7737,"assessment":7738,"Modi":7739,"graduate":7740,"apparently":7741,"maintained":7742,"conservative":7743,"comprom":7744,"Ltd":7745,"surgery":7746,"infectious":7747,"trigger":7748,"Oregon":7749,"Thompson":7750,"Did":7751,"Est":7752,"Fest":7753,"Hay":7754,"Have":7755,"Main":7756,"Mitc":7757,"Nation":7758,"Pant":7759,"RC":7760,"Rose":7761,"dates":7762,"duties":7763,"gall":7764,"maker":7765,"##gi":7766,"##hire":7767,"##ca":7768,"##cks":7769,"##fall":7770,"##JP":7771,"##AM":7772,"##itect":7773,"threw":7774,"##iry":7775,"##imani":7776,"##ulous":7777,"##anded":7778,"##unction":7779,"##abled":7780,"pled":7781,"##oker":7782,"Pres":7783,"counts":7784,"helicop":7785,"underlying":7786,"marked":7787,"delight":7788,"advent":7789,"arrang":7790,"headquar":7791,"##overs":7792,"processes":7793,"excess":7794,"thrown":7795,"isolated":7796,"fairly":7797,"trees":7798,"Philipp":7799,"petition":7800,"Members":7801,"Authority":7802,"brilliant":7803,"Bas":7804,"Carr":7805,"Dam":7806,"Deb":7807,"Fair":7808,"Gulf":7809,"Id":7810,"ST":7811,"Viet":7812,"element":7813,"pin":7814,"poverty":7815,"##pro":7816,"##tr":7817,"##ked":7818,"##bec":7819,"##walk":7820,"##ED":7821,"##IM":7822,"##CO":7823,"##PR":7824,"##era":7825,"##orne":7826,"##anes":7827,"##isations":7828,"##rehens":7829,"##otic":7830,"reven":7831,"prol":7832,"##osite":7833,"conver":7834,"saving":7835,"trillion":7836,"adequ":7837,"impressive":7838,"grass":7839,"gross":7840,"blow":7841,"conspir":7842,"centres":7843,"USA":7844,"entreprene":7845,"colour":7846,"Without":7847,"refuge":7848,"valuable":7849,"listening":7850,"shortage":7851,"performances":7852,"McG":7853,"educational":7854,"landed":7855,"represented":7856,"Highway":7857,"Again":7858,"Moore":7859,"representative":7860,"argument":7861,"Buhari":7862,"routine":7863,"cooking":7864,"degrees":7865,"historical":7866,"jumped":7867,"categories":7868,"consistent":7869,"MPs":7870,"fixed":7871,"Hamilton":7872,"apparent":7873,"sustainable":7874,"Stephen":7875,"cooperation":7876,"controlled":7877,"agricultural":7878,"navig":7879,"NSW":7880,"constitu":7881,"withdraw":7882,"Spanish":7883,"09":7884,"92":7885,"Civil":7886,"Greg":7887,"Ho":7888,"Hal":7889,"Light":7890,"Later":7891,"Little":7892,"Sab":7893,"Sams":7894,"dying":7895,"egg":7896,"king":7897,"lux":7898,"pip":7899,"sets":7900,"soul":7901,"ties":7902,"wore":7903,"##rated":7904,"##lers":7905,"##erk":7906,"##orough":7907,"toil":7908,"prin":7909,"##osa":7910,"noting":7911,"##sey":7912,"##season":7913,"spots":7914,"incidents":7915,"Stat":7916,"expansion":7917,"disag":7918,"apps":7919,"impe":7920,"army":7921,"preced":7922,"grate":7923,"Which":7924,"coaches":7925,"##arged":7926,"phil":7927,"personally":7928,"##ahu":7929,"capabilities":7930,"Should":7931,"carbon":7932,"emissions":7933,"facts":7934,"nights":7935,"behalf":7936,"processing":7937,"disturb":7938,"organized":7939,"constant":7940,"##phy":7941,"ruled":7942,"awareness":7943,"assistant":7944,"Environment":7945,"portray":7946,"reviewed":7947,"delivering":7948,"gathered":7949,"neighbour":7950,"isolate":7951,"marks":7952,"Indiana":7953,"Officers":7954,"sanctions":7955,"dogs":7956,"kicked":7957,"awarded":7958,"nurses":7959,"##ederation":7960,"Prevention":7961,"negotiations":7962,"Boris":7963,"cruise":7964,"elderly":7965,"neutral":7966,"Mitchell":7967,"Samsung":7968,"AM":7969,"Book":7970,"Cast":7971,"Cost":7972,"Dod":7973,"IP":7974,"Kum":7975,"Leb":7976,"MA":7977,"Rights":7978,"Ur":7979,"Uk":7980,"dim":7981,"fitness":7982,"gang":7983,"lunch":7984,"magn":7985,"rot":7986,"western":7987,"##aire":7988,"##uated":7989,"##och":7990,"##ixt":7991,"##nic":7992,"##ashes":7993,"##ico":7994,"formed":7995,"##illance":7996,"exempt":7997,"exceed":7998,"wheel":7999,"Station":8000,"Chap":8001,"reporter":8002,"fires":8003,"##ulty":8004,"##raid":8005,"##roid":8006,"##licit":8007,"anymore":8008,"myst":8009,"Alab":8010,"fee":8011,"undert":8012,"ministers":8013,"contribute":8014,"##ouncill":8015,"wrest":8016,"syn":8017,"smooth":8018,"##ugby":8019,"avo":8020,"headed":8021,"creation":8022,"airline":8023,"edition":8024,"editor":8025,"Science":8026,"managing":8027,"seemingly":8028,"sixth":8029,"performing":8030,"emerging":8031,"format":8032,"contacted":8033,"celebrated":8034,"hosting":8035,"interviews":8036,"judg":8037,"portion":8038,"necessarily":8039,"Agricult":8040,"crowds":8041,"regulatory":8042,"burden":8043,"Scottish":8044,"Michel":8045,"contributed":8046,"Melbourne":8047,"dozen":8048,"disappointed":8049,"fantastic":8050,"pilot":8051,"destroyed":8052,"landsc":8053,"Children":8054,"afraid":8055,"Italian":8056,"Liverpool":8057,"Balt":8058,"Equ":8059,"Ext":8060,"Gun":8061,"Jour":8062,"Live":8063,"Matter":8064,"Nel":8065,"Ow":8066,"Reb":8067,"Such":8068,"boot":8069,"cited":8070,"dating":8071,"eager":8072,"hitting":8073,"horse":8074,"pounds":8075,"rand":8076,"tall":8077,"tears":8078,"##met":8079,"##ses":8080,"##ho":8081,"##lings":8082,"##IP":8083,"##GA":8084,"##jo":8085,"##ora":8086,"##isa":8087,"##urities":8088,"stocks":8089,"##agger":8090,"##sea":8091,"cha":8092,"sew":8093,"spin":8094,"resort":8095,"recip":8096,"compar":8097,"##ogether":8098,"unve":8099,"overnight":8100,"reput":8101,"evil":8102,"disch":8103,"##rah":8104,"##ishment":8105,"string":8106,"proven":8107,"flav":8108,"mini":8109,"Arts":8110,"Indust":8111,"economies":8112,"detail":8113,"opposed":8114,"foundation":8115,"harder":8116,"##appy":8117,"##apping":8118,"campaigns":8119,"swing":8120,"privacy":8121,"protecting":8122,"drawn":8123,"##brid":8124,"suffer":8125,"Chiefs":8126,"winds":8127,"coaching":8128,"representatives":8129,"virtually":8130,"boyfriend":8131,"acquiring":8132,"survived":8133,"precautions":8134,"disappear":8135,"Montreal":8136,"temporarily":8137,"license":8138,"adopted":8139,"prospect":8140,"Constitution":8141,"recruit":8142,"Murphy":8143,"distributed":8144,"devastating":8145,"Radio":8146,"Utah":8147,"immunity":8148,"Diego":8149,"sacr":8150,"SARS":8151,"\",":8152,"Bal":8153,"Broad":8154,"End":8155,"Gard":8156,"Games":8157,"SU":8158,"Ye":8159,"amp":8160,"gained":8161,"sight":8162,"##TV":8163,"##fast":8164,"##esus":8165,"##oriz":8166,"##idden":8167,"##ece":8168,"##etts":8169,"##ami":8170,"reward":8171,"##usetts":8172,"tries":8173,"chat":8174,"chosen":8175,"##endment":8176,"2000":8177,"contained":8178,"export":8179,"intent":8180,"##achusetts":8181,"##ensity":8182,"Prov":8183,"beta":8184,"providers":8185,"Anderson":8186,"blast":8187,"centers":8188,"handful":8189,"captain":8190,"depending":8191,"##aze":8192,"##resent":8193,"requested":8194,"factory":8195,"Report":8196,"humans":8197,"activists":8198,"fallen":8199,"formal":8200,"antib":8201,"funeral":8202,"fields":8203,"portfolio":8204,"essentially":8205,"requirement":8206,"sanitiz":8207,"silver":8208,"innoc":8209,"Conserv":8210,"witnessed":8211,"breath":8212,"theaters":8213,"Transport":8214,"Organization":8215,"drinking":8216,"disclosed":8217,"Massachusetts":8218,"Affairs":8219,"Clinton":8220,"Jacob":8221,"Bengal":8222,"registration":8223,"83":8224,"Chel":8225,"Lar":8226,"Lock":8227,"Nag":8228,"Opp":8229,"Rog":8230,"Roy":8231,"See":8232,"Xbox":8233,"ho":8234,"lady":8235,"loves":8236,"nurse":8237,"pump":8238,"tail":8239,"wage":8240,"##rest":8241,"##las":8242,"##cious":8243,"##bn":8244,"##orial":8245,"ing":8246,"##etime":8247,"##add":8248,"##illa":8249,"##osi":8250,"##usal":8251,"height":8252,"suicide":8253,"outstanding":8254,"##eller":8255,"expenses":8256,"unex":8257,"##izer":8258,"quant":8259,"whenever":8260,"##assador":8261,"blank":8262,"donate":8263,"deserve":8264,"##urric":8265,"##elfare":8266,"Marc":8267,"effici":8268,"defic":8269,"directors":8270,"statistics":8271,"instr":8272,"##azine":8273,"realized":8274,"requests":8275,"advis":8276,"gotten":8277,"entit":8278,"affairs":8279,"column":8280,"organisation":8281,"lessons":8282,"Phill":8283,"impacts":8284,"expecting":8285,"addressing":8286,"typical":8287,"damaged":8288,"honour":8289,"windows":8290,"barrel":8291,"predicted":8292,"panic":8293,"speaks":8294,"##abbed":8295,"Alexander":8296,"mistake":8297,"rapidly":8298,"odds":8299,"Miller":8300,"advertising":8301,"PPE":8302,"aggressive":8303,"architect":8304,"procedures":8305,"iconic":8306,"surveillance":8307,"obtained":8308,"unusual":8309,"##elihood":8310,"3rd":8311,"BJP":8312,"CC":8313,"Dall":8314,"Gall":8315,"Low":8316,"Nat":8317,"Nar":8318,"Osc":8319,"Rac":8320,"Wy":8321,"cabinet":8322,"gif":8323,"latter":8324,"loyal":8325,"lapt":8326,"southern":8327,"wine":8328,"##gs":8329,"##ping":8330,"##cle":8331,"##bell":8332,"##boy":8333,"##ET":8334,"toler":8335,"##arely":8336,"##itar":8337,"inmates":8338,"##iration":8339,"anonym":8340,"##estyle":8341,"upset":8342,"##ipt":8343,"comply":8344,"compens":8345,"agenda":8346,"Stock":8347,"Staff":8348,"brown":8349,"##away":8350,"indoor":8351,"strange":8352,"fled":8353,"desk":8354,"signature":8355,"investments":8356,"transl":8357,"Sole":8358,"cream":8359,"populations":8360,"liked":8361,"sky":8362,"classroom":8363,"investigate":8364,"involves":8365,"enterpr":8366,"traveling":8367,"Exchange":8368,"Austin":8369,"privile":8370,"celebrating":8371,"Barb":8372,"hearts":8373,"Finance":8374,"minds":8375,"diseases":8376,"rounds":8377,"Next":8378,"Region":8379,"improvement":8380,"peaceful":8381,"calm":8382,"selection":8383,"witnesses":8384,"bags":8385,"electricity":8386,"methods":8387,"summary":8388,"Treas":8389,"Galaxy":8390,"touchdowns":8391,"kilomet":8392,"nominee":8393,"93":8394,"Ap":8395,"Bull":8396,"Cry":8397,"Due":8398,"Fe":8399,"FBI":8400,"Given":8401,"Jer":8402,"Kyle":8403,"Od":8404,"Pop":8405,"Rey":8406,"Tra":8407,"Terr":8408,"bread":8409,"drew":8410,"gains":8411,"ranging":8412,"##comes":8413,"##kin":8414,"##vin":8415,"##HL":8416,"tow":8417,"##otal":8418,"forest":8419,"wash":8420,"saved":8421,"weird":8422,"neither":8423,"##ieve":8424,"##aved":8425,"resil":8426,"resign":8427,"##ibilities":8428,"##obi":8429,"incent":8430,"inches":8431,"overs":8432,"somehow":8433,"##orship":8434,"relatives":8435,"Prop":8436,"counting":8437,"everyday":8438,"donation":8439,"serves":8440,"roof":8441,"extensive":8442,"discount":8443,"currency":8444,"adviser":8445,"deter":8446,"readers":8447,"operates":8448,"operational":8449,"collapse":8450,"2003":8451,"equipped":8452,"Represent":8453,"##enny":8454,"McK":8455,"Abb":8456,"closures":8457,"funny":8458,"taxpay":8459,"urgent":8460,"demanding":8461,"pleased":8462,"participation":8463,"elsewhere":8464,"titles":8465,"neighbors":8466,"audiences":8467,"thousand":8468,"attendance":8469,"resolved":8470,"Anton":8471,"Queens":8472,"Hallow":8473,"Turkish":8474,"minority":8475,"ranked":8476,"Charlott":8477,"Atlantic":8478,"tensions":8479,"Emergency":8480,"Abuja":8481,"Leban":8482,"Alabama":8483,"Dallas":8484,"03":8485,"06":8486,"Bi":8487,"Bureau":8488,"GOP":8489,"IS":8490,"Kir":8491,"Kate":8492,"Make":8493,"Sem":8494,"Vis":8495,"Was":8496,"cable":8497,"gate":8498,"jack":8499,"pages":8500,"pending":8501,"rig":8502,"tie":8503,"##ration":8504,"##gage":8505,"##ker":8506,"##few":8507,"##ble":8508,"##OM":8509,"##ju":8510,"##St":8511,"##SU":8512,"##PP":8513,"theory":8514,"theft":8515,"##onies":8516,"input":8517,"##stone":8518,"##stream":8519,"##irty":8520,"stadium":8521,"##amental":8522,"reass":8523,"##emies":8524,"spoken":8525,"lean":8526,"##oko":8527,"##iev":8528,"Information":8529,"##iber":8530,"recon":8531,"##obally":8532,"Stone":8533,"overl":8534,"overcome":8535,"evol":8536,"crop":8537,"scared":8538,"##ictions":8539,"anyway":8540,"Trib":8541,"counted":8542,"noise":8543,"blocks":8544,"consumption":8545,"assume":8546,"retr":8547,"mining":8548,"posed":8549,"insur":8550,"facil":8551,"Adams":8552,"detailed":8553,"legs":8554,"Dead":8555,"2007":8556,"locked":8557,"McD":8558,"lockdowns":8559,"reveals":8560,"girlfriend":8561,"curve":8562,"existence":8563,"convicted":8564,"implementation":8565,"breach":8566,"brothers":8567,"Belarus":8568,"journalists":8569,"Korean":8570,"capture":8571,"Jews":8572,"harass":8573,"Speaker":8574,"innovation":8575,"innovative":8576,"NASA":8577,"prosecutors":8578,"Technology":8579,"clothes":8580,"opponents":8581,"micr":8582,"decrease":8583,"overwhelming":8584,"Morrison":8585,"controversial":8586,"Ethiop":8587,"liquid":8588,"museum":8589,"Corporation":8590,"WWE":8591,"UAE":8592,"impeachment":8593,"Journal":8594,"?’":8595,"Cape":8596,"Camer":8597,"EPS":8598,"Fun":8599,"Gord":8600,"MC":8601,"Mun":8602,"Marg":8603,"OK":8604,"Pass":8605,"Rom":8606,"Six":8607,"Vide":8608,"citing":8609,"hug":8610,"pound":8611,"tent":8612,"trem":8613,"##ae":8614,"##then":8615,"##cceed":8616,"##BS":8617,"##war":8618,"##OL":8619,"##esome":8620,"##aro":8621,"##idd":8622,"stabil":8623,"##osh":8624,"##emi":8625,"##emed":8626,"##umber":8627,"shoes":8628,"##ivic":8629,"##abad":8630,"sugar":8631,"succeed":8632,"##alling":8633,"enth":8634,"intense":8635,"repair":8636,"crack":8637,"knock":8638,"knee":8639,"Trade":8640,"##athy":8641,"everywhere":8642,"helpful":8643,"consecutive":8644,"shoulder":8645,"##ounced":8646,"writes":8647,"beloved":8648,"smoke":8649,"delays":8650,"deleg":8651,"chest":8652,"operators":8653,"##redit":8654,"Polit":8655,"employers":8656,"##ception":8657,"warn":8658,"Amy":8659,"Orange":8660,"attacked":8661,"controls":8662,"questioned":8663,"occur":8664,"Barrett":8665,"contracted":8666,"##shire":8667,"Partners":8668,"terrible":8669,"compliance":8670,"pleaded":8671,"amounts":8672,"struggled":8673,"surviv":8674,"dispute":8675,"achieved":8676,"label":8677,"association":8678,"Kenya":8679,"library":8680,"expanding":8681,"subscrib":8682,"aims":8683,"robust":8684,"initiatives":8685,"waters":8686,"consistently":8687,"Muhammad":8688,"passionate":8689,"complicated":8690,"dismissed":8691,"savings":8692,"Leader":8693,"explosion":8694,"##achelor":8695,"Afghanistan":8696,"##igenous":8697,"respiratory":8698,"penalty":8699,"##rehensive":8700,"conspiracy":8701,"grateful":8702,"%)":8703,"05":8704,"Aber":8705,"Airl":8706,"Bart":8707,"Based":8708,"Dh":8709,"Dig":8710,"EC":8711,"Fans":8712,"Hend":8713,"Mult":8714,"Major":8715,"Naz":8716,"Pen":8717,"Take":8718,"Wales":8719,"aver":8720,"dil":8721,"hanging":8722,"lucky":8723,"tiny":8724,"vend":8725,"ward":8726,"walls":8727,"….":8728,"##rition":8729,"##eo":8730,"##giving":8731,"##oir":8732,"##pected":8733,"##nold":8734,"##ken":8735,"##inance":8736,"##arn":8737,"##itage":8738,"##eta":8739,"##urd":8740,"##acon":8741,"##utch":8742,"##imp":8743,"anc":8744,"safer":8745,"shield":8746,"shirt":8747,"trips":8748,"##usted":8749,"abilities":8750,"20th":8751,"##aping":8752,"##ello":8753,"##ellers":8754,"clar":8755,"hadn":8756,"##obile":8757,"enroll":8758,"enemies":8759,"##ogen":8760,"unn":8761,"somewhere":8762,"reliable":8763,"##ishop":8764,"attending":8765,"wanting":8766,"2023":8767,"assert":8768,"contrast":8769,"Commer":8770,"##ernand":8771,"##egu":8772,"secondary":8773,"##aza":8774,"useful":8775,"developments":8776,"camps":8777,"headlines":8778,"checks":8779,"quarterly":8780,"employer":8781,"investigations":8782,"milk":8783,"electoral":8784,"##oppers":8785,"urging":8786,"deadline":8787,"talented":8788,"governance":8789,"replied":8790,"revolution":8791,"bedroom":8792,"rolling":8793,"##DAQ":8794,"select":8795,"sustained":8796,"suggesting":8797,"##itzer":8798,"absolute":8799,"residential":8800,"aspects":8801,"dreams":8802,"pursue":8803,"NASDAQ":8804,"favourite":8805,"Tenness":8806,"Brooklyn":8807,"frequently":8808,"discrimination":8809,"Sometimes":8810,"juris":8811,"Nevada":8812,"Festival":8813,"reputation":8814,"AL":8815,"Bow":8816,"Cas":8817,"Creat":8818,"Cabinet":8819,"Dun":8820,"Dave":8821,"Hart":8822,"Hind":8823,"Ib":8824,"Jesus":8825,"Ny":8826,"NA":8827,"Nam":8828,"lying":8829,"rush":8830,"tur":8831,"##ss":8832,"##pe":8833,"##like":8834,"##inely":8835,"##oni":8836,"##orate":8837,"##alo":8838,"##iters":8839,"##icy":8840,"##oln":8841,"##ira":8842,"##vere":8843,"reference":8844,"reiter":8845,"##usi":8846,"habit":8847,"##agers":8848,"##sex":8849,"adap":8850,"##order":8851,"relative":8852,"Trav":8853,"dece":8854,"Along":8855,"fever":8856,"##uctions":8857,"Shel":8858,"phones":8859,"guest":8860,"smile":8861,"courage":8862,"concent":8863,"Independ":8864,"realize":8865,"faculty":8866,"##ternal":8867,"opposite":8868,"democrat":8869,"cheap":8870,"Being":8871,"skill":8872,"eastern":8873,"travelling":8874,"Phase":8875,"kinds":8876,"generations":8877,"photograp":8878,"networks":8879,"judges":8880,"recognized":8881,"conducting":8882,"Moham":8883,"replaced":8884,"tourists":8885,"screening":8886,"Warner":8887,"transportation":8888,"searching":8889,"qualified":8890,"timing":8891,"strategies":8892,"transferred":8893,"##auci":8894,"Charlie":8895,"##cript":8896,"reforms":8897,"Bruce":8898,"disinfect":8899,"sorry":8900,"Currently":8901,"Guyana":8902,"Hawaii":8903,"RCMP":8904,"Chelsea":8905,"Soleimani":8906,"Halloween":8907,"()":8908,"Aaron":8909,"Bush":8910,"Cow":8911,"FC":8912,"Find":8913,"Hous":8914,"Nik":8915,"Person":8916,"fold":8917,"fits":8918,"fasc":8919,"hired":8920,"hung":8921,"hiring":8922,"ocean":8923,"picks":8924,"roster":8925,"sid":8926,"sits":8927,"tier":8928,"##ei":8929,"##power":8930,"##HA":8931,"##inth":8932,"##inister":8933,"##iture":8934,"starr":8935,"stunning":8936,"##igar":8937,"##imore":8938,"##emet":8939,"fruit":8940,"trains":8941,"##ifies":8942,"heroes":8943,"recyc":8944,"env":8945,"##owned":8946,"Stand":8947,"Storm":8948,"##ogs":8949,"unity":8950,"grants":8951,"underway":8952,"strain":8953,"##anyahu":8954,"provisions":8955,"covers":8956,"monthly":8957,"continu":8958,"longtime":8959,"personality":8960,"Armen":8961,"conclusion":8962,"##rators":8963,"announcing":8964,"solar":8965,"Sean":8966,"engagement":8967,"accessible":8968,"successfully":8969,"injust":8970,"choices":8971,"Robinson":8972,"##afe":8973,"curfew":8974,"snap":8975,"Patrick":8976,"reviews":8977,"Netanyahu":8978,"Steel":8979,"barely":8980,"rolled":8981,"Associated":8982,"holidays":8983,"Investig":8984,"permission":8985,"settle":8986,"narrow":8987,"contributions":8988,"sleeping":8989,"angry":8990,"medicine":8991,"Matthew":8992,"Olympic":8993,"venues":8994,"Islamic":8995,"principal":8996,"Pitts":8997,"desperate":8998,"##intendent":8999,"fabric":9000,"04":9001,"AS":9002,"Ban":9003,"Bul":9004,"Cru":9005,"Fut":9006,"Fauci":9007,"GM":9008,"HD":9009,"IN":9010,"Kad":9011,"Linc":9012,"Near":9013,"Norm":9014,"PT":9015,"Pun":9016,"Rh":9017,"Sat":9018,"Tai":9019,"UP":9020,"ham":9021,"hockey":9022,"lung":9023,"nose":9024,"ok":9025,"rarely":9026,"samples":9027,"tank":9028,"tennis":9029,"vig":9030,"wis":9031,"##mosp":9032,"##iate":9033,"##die":9034,"##wal":9035,"##viously":9036,"##10":9037,"##iner":9038,"##sters":9039,"##oting":9040,"beer":9041,"##iments":9042,"##opher":9043,"##child":9044,"##ulu":9045,"##ocol":9046,"##agan":9047,"##ighth":9048,"trag":9049,"tribute":9050,"plate":9051,"##apes":9052,"resource":9053,"Inn":9054,"recession":9055,"contem":9056,"Chann":9057,"perpet":9058,"unb":9059,"overt":9060,"##inder":9061,"##anche":9062,"##ancell":9063,"0000":9064,"statewide":9065,"asset":9066,"buses":9067,"Forest":9068,"Arm":9069,"handled":9070,"courses":9071,"##hess":9072,"instruction":9073,"ideal":9074,"visible":9075,"##aughters":9076,"Amb":9077,"prominent":9078,"Manager":9079,"Conf":9080,"construct":9081,"contacts":9082,"competing":9083,"epic":9084,"Reserve":9085,"##anna":9086,"creates":9087,"pickup":9088,"Small":9089,"deeper":9090,"focusing":9091,"reopened":9092,"divided":9093,"versus":9094,"popularity":9095,"Captain":9096,"broader":9097,"misin":9098,"ordinary":9099,"premium":9100,"progressive":9101,"Officials":9102,"sensitive":9103,"engineering":9104,"counterpart":9105,"elev":9106,"Evans":9107,"##hetic":9108,"documentary":9109,"veterans":9110,"Mountain":9111,"Sarah":9112,"overwhelmed":9113,"coalition":9114,"embrace":9115,"manufacturers":9116,"components":9117,"strengthen":9118,"Princess":9119,"incorpor":9120,"vessel":9121,"Museum":9122,"Baltimore":9123,"Aberde":9124,"Tennessee":9125,"jurisd":9126,"Burn":9127,"CS":9128,"Cat":9129,"Easter":9130,"Fre":9131,"Han":9132,"Jen":9133,"Mand":9134,"Rav":9135,"Rivers":9136,"Wolf":9137,"bon":9138,"fel":9139,"pm":9140,"piv":9141,"rall":9142,"rapper":9143,"sib":9144,"sample":9145,"tip":9146,"wider":9147,"wages":9148,"##eep":9149,"##gary":9150,"##zy":9151,"##ystem":9152,"##can":9153,"##father":9154,"##AA":9155,"##inity":9156,"inaug":9157,"thick":9158,"##omed":9159,"##eland":9160,"##stal":9161,"##ete":9162,"##etary":9163,"##acc":9164,"##olly":9165,"reun":9166,"##umer":9167,"##abis":9168,"deemed":9169,"chicken":9170,"##izations":9171,"scores":9172,"arc":9173,"arts":9174,"intervention":9175,"suppl":9176,"dropping":9177,"Android":9178,"download":9179,"101":9180,"investing":9181,"##arma":9182,"empower":9183,"globally":9184,"operator":9185,"visual":9186,"fundamental":9187,"Centers":9188,"Reuters":9189,"organisations":9190,"equally":9191,"Carter":9192,"##bean":9193,"contracting":9194,"Canadians":9195,"hosts":9196,"checking":9197,"attempting":9198,"physically":9199,"communicate":9200,"Kingdom":9201,"nominated":9202,"Building":9203,"welcom":9204,"superm":9205,"unfortunately":9206,"bottle":9207,"purposes":9208,"exception":9209,"boosted":9210,"harvest":9211,"magic":9212,"semi":9213,"proceedings":9214,"Authorities":9215,"odd":9216,"Putin":9217,"Hotel":9218,"taste":9219,"abandoned":9220,"chemical":9221,"smartphone":9222,"acknowledged":9223,"Columbia":9224,"Vietnam":9225,"luxury":9226,"mystery":9227,"discharged":9228,"unexpected":9229,"deficit":9230,"Charlotte":9231,"Gordon":9232,"Airlines":9233,"##emetery":9234,"welcomed":9235,"07":9236,"Around":9237,"Base":9238,"CAR":9239,"Creek":9240,"Eb":9241,"Fal":9242,"Graham":9243,"Hills":9244,"Kal":9245,"Ox":9246,"Pict":9247,"PDP":9248,"SP":9249,"Sask":9250,"Turn":9251,"bump":9252,"river":9253,"sne":9254,"surr":9255,"wet":9256,"wishes":9257,"##rical":9258,"##mart":9259,"##hy":9260,"##dale":9261,"##lights":9262,"##fires":9263,"##itol":9264,"inev":9265,"##eling":9266,"beef":9267,"##adow":9268,"rear":9269,"react":9270,"asks":9271,"comic":9272,"##aints":9273,"ships":9274,"##isting":9275,"##ially":9276,"sevent":9277,"comprehensive":9278,"##roit":9279,"opted":9280,"acceler":9281,"##encer":9282,"supplement":9283,"Bridge":9284,"contribution":9285,"transit":9286,"##arship":9287,"Leon":9288,"Death":9289,"reads":9290,"emails":9291,"Country":9292,"membership":9293,"funded":9294,"furl":9295,"constitutional":9296,"midnight":9297,"falls":9298,"Sea":9299,"hopeful":9300,"generated":9301,"Resp":9302,"buyers":9303,"picking":9304,"Engine":9305,"demanded":9306,"quarantined":9307,"##iece":9308,"commented":9309,"replacement":9310,"Everything":9311,"indicate":9312,"gradually":9313,"blocked":9314,"silent":9315,"rebu":9316,"stakeholders":9317,"##ography":9318,"scrut":9319,"congress":9320,"universal":9321,"Clevel":9322,"Atlanta":9323,"Olympics":9324,"Detroit":9325,"casual":9326,"Village":9327,"praised":9328,"inquiry":9329,"mechanism":9330,"Pelosi":9331,"Ottawa":9332,"touched":9333,"Dubai":9334,"helicopter":9335,"headquarters":9336,"adequate":9337,"Agriculture":9338,"random":9339,"Lincoln":9340,"Buck":9341,"Chen":9342,"DA":9343,"Dor":9344,"DNA":9345,"EV":9346,"Gib":9347,"Hop":9348,"Hamp":9349,"Horn":9350,"Kay":9351,"Kap":9352,"NCA":9353,"Rather":9354,"SEC":9355,"Wa":9356,"bow":9357,"bowl":9358,"cul":9359,"divers":9360,"god":9361,"iron":9362,"ly":9363,"lect":9364,"lift":9365,"pour":9366,"phen":9367,"rend":9368,"tone":9369,"torn":9370,"##iere":9371,"##ded":9372,"##yard":9373,"##RE":9374,"##ori":9375,"##orge":9376,"##ede":9377,"##anth":9378,"##itr":9379,"##eting":9380,"sty":9381,"stability":9382,"item":9383,"washing":9384,"atmosp":9385,"##uming":9386,"##umented":9387,"shocked":9388,"plot":9389,"##apore":9390,"ads":9391,"Inf":9392,"contains":9393,"uncon":9394,"intim":9395,"soil":9396,"soap":9397,"##izza":9398,"192":9399,"quoted":9400,"##rapped":9401,"implic":9402,"myster":9403,"interf":9404,"interim":9405,"Whit":9406,"invent":9407,"Brother":9408,"deserved":9409,"roots":9410,"efficient":9411,"winners":9412,"careful":9413,"invested":9414,"Short":9415,"differently":9416,"obtain":9417,"arrests":9418,"##rete":9419,"##perform":9420,"hardly":9421,"2004":9422,"##lessly":9423,"constitution":9424,"periods":9425,"actively":9426,"Assist":9427,"Seven":9428,"sentenced":9429,"throwing":9430,"momentum":9431,"bankrupt":9432,"priorit":9433,"acquis":9434,"associate":9435,"launching":9436,"Keep":9437,"Jean":9438,"Simon":9439,"Similar":9440,"Singapore":9441,"Quebec":9442,"settings":9443,"reminded":9444,"emotion":9445,"Memorial":9446,"venture":9447,"breathing":9448,"Greece":9449,"departure":9450,"opinions":9451,"politician":9452,"spiritual":9453,"Arabia":9454,"highlighted":9455,"ICU":9456,"duo":9457,"ingred":9458,"Video":9459,"tremend":9460,"Cleveland":9461,"Ast":9462,"BC":9463,"CM":9464,"Cra":9465,"Du":9466,"Data":9467,"Field":9468,"Gary":9469,"Hard":9470,"Kobe":9471,"LGB":9472,"Mess":9473,"Mall":9474,"Ocean":9475,"Pack":9476,"Point":9477,"Rub":9478,"Zacks":9479,"bab":9480,"cauc":9481,"councill":9482,"dur":9483,"drove":9484,"diet":9485,"daughters":9486,"hide":9487,"mel":9488,"pu":9489,"pink":9490,"tips":9491,"vib":9492,"wal":9493,"welfare":9494,"##ean":9495,"##eals":9496,"##mm":9497,"##iability":9498,"##cyc":9499,"##worth":9500,"##instein":9501,"##reement":9502,"##ecess":9503,"##ecurity":9504,"##otely":9505,"##olid":9506,"stem":9507,"##ige":9508,"alt":9509,"##estone":9510,"frag":9511,"##ortheast":9512,"##ivate":9513,"trends":9514,"spotted":9515,"##eps":9516,"clip":9517,"click":9518,"enorm":9519,"Stay":9520,"expend":9521,"##iang":9522,"interior":9523,"remotely":9524,"secured":9525,"##ateral":9526,"projected":9527,"flaw":9528,"assists":9529,"continent":9530,"##airy":9531,"restart":9532,"##enez":9533,"filmed":9534,"presents":9535,"glad":9536,"globe":9537,"Dean":9538,"Common":9539,"airlines":9540,"topics":9541,"##otsp":9542,"admit":9543,"##ucker":9544,"letting":9545,"managers":9546,"refres":9547,"stops":9548,"halt":9549,"emerg":9550,"activist":9551,"Exc":9552,"nonpro":9553,"generate":9554,"friendship":9555,"practical":9556,"responses":9557,"##iffs":9558,"tracks":9559,"Syria":9560,"respective":9561,"audio":9562,"lifestyle":9563,"Capitol":9564,"##emble":9565,"crossed":9566,"perfectly":9567,"enforce":9568,"commissioner":9569,"Defence":9570,"automatically":9571,"Collins":9572,"prosecutor":9573,"frustration":9574,"channels":9575,"Jonathan":9576,"trauma":9577,"mortgage":9578,"upgrade":9579,"immigration":9580,"Looking":9581,"##senal":9582,"##cosystem":9583,"guarantee":9584,"steady":9585,"Batman":9586,"encounter":9587,"Bangl":9588,"warrant":9589,"revenues":9590,"sacrif":9591,"Oscar":9592,"Treasury":9593,"LGBT":9594,"',":9595,".-":9596,"Aud":9597,"AFC":9598,"Bah":9599,"Baker":9600,"Besides":9601,"CH":9602,"Circ":9603,"Egy":9604,"Girl":9605,"Ku":9606,"Lear":9607,"ML":9608,"Mother":9609,"Merc":9610,"Pomp":9611,"Set":9612,"Ta":9613,"Typ":9614,"Vanc":9615,"WA":9616,"auction":9617,"bike":9618,"burning":9619,"bubble":9620,"fault":9621,"km":9622,"kits":9623,"loud":9624,"mph":9625,"pure":9626,"sons":9627,"sessions":9628,"tum":9629,"vocal":9630,"yellow":9631,"##gl":9632,"##hal":9633,"##kel":9634,"##bound":9635,"##wich":9636,"##GO":9637,"##ST":9638,"##19":9639,"##PC":9640,"theater":9641,"##atar":9642,"##orp":9643,"##oric":9644,"##oup":9645,"##ouver":9646,"##uts":9647,"##olves":9648,"##opical":9649,"##ules":9650,"shame":9651,"traged":9652,"##abet":9653,"spell":9654,"##ieg":9655,"button":9656,"##aven":9657,"peers":9658,"recount":9659,"cricket":9660,"##ookie":9661,"grab":9662,"phr":9663,"memories":9664,"keen":9665,"Therefore":9666,"depends":9667,"differences":9668,"institution":9669,"requiring":9670,"arriving":9671,"probe":9672,"developers":9673,"aired":9674,"moderate":9675,"Read":9676,"exclusive":9677,"promising":9678,"promises":9679,"Coal":9680,"completion":9681,"appearances":9682,"suspension":9683,"moral":9684,"Edmont":9685,"viewed":9686,"benefici":9687,"treatments":9688,"violation":9689,"Christopher":9690,"volat":9691,"volunt":9692,"cancell":9693,"Barcel":9694,"checked":9695,"physician":9696,"destruction":9697,"citizen":9698,"Emb":9699,"spokeswoman":9700,"march":9701,"voices":9702,"sanit":9703,"Overall":9704,"Communic":9705,"permit":9706,"hybrid":9707,"ultimate":9708,"robbery":9709,"retailers":9710,"drawing":9711,"McConn":9712,"Insp":9713,"feedback":9714,"mountain":9715,"maintaining":9716,"ethnic":9717,"honestly":9718,"certific":9719,"framework":9720,"Thanksgiving":9721,"##theless":9722,"Advisors":9723,"Film":9724,"Hunter":9725,"Douglas":9726,"Sudan":9727,"Domin":9728,"Titans":9729,"genuine":9730,"entrance":9731,"Vikings":9732,"mirr":9733,"chapter":9734,"cyber":9735,"Broncos":9736,"firefighters":9737,"landscape":9738,"misinformation":9739,"Saskat":9740,"Egypt":9741,"Vancouver":9742,"Barcelona":9743,"!\"":9744,"Bond":9745,"Bey":9746,"Could":9747,"Corn":9748,"Dul":9749,"Dark":9750,"Gram":9751,"Hud":9752,"Jag":9753,"Ky":9754,"Kash":9755,"Lam":9756,"Mack":9757,"Master":9758,"Ng":9759,"Sant":9760,"Tob":9761,"Tax":9762,"Vin":9763,"View":9764,"Winn":9765,"coc":9766,"fate":9767,"finger":9768,"hood":9769,"links":9770,"mad":9771,"pill":9772,"pose":9773,"papers":9774,"ranks":9775,"soph":9776,"wire":9777,"##mother":9778,"##ties":9779,"##dro":9780,"##Beat":9781,"##wind":9782,"##vard":9783,"##EX":9784,"##jan":9785,"##atched":9786,"##enz":9787,"##aration":9788,"##itious":9789,"##acies":9790,"reh":9791,"anime":9792,"##esty":9793,"confer":9794,"weigh":9795,"##iform":9796,"org":9797,"defer":9798,"##outheast":9799,"spr":9800,"##endra":9801,"butter":9802,"acres":9803,"##oga":9804,"workplace":9805,"disrupt":9806,"commod":9807,"accus":9808,"Pros":9809,"backl":9810,"noon":9811,"Butt":9812,"lasting":9813,"Friend":9814,"indoors":9815,"Unit":9816,"Unlike":9817,"teammates":9818,"##ixel":9819,"publication":9820,"defending":9821,"defined":9822,"defeated":9823,"slot":9824,"letters":9825,"Whats":9826,"Allen":9827,"easing":9828,"solely":9829,"singing":9830,"##hereum":9831,"criteria":9832,"senators":9833,"Crim":9834,"Roberts":9835,"Smart":9836,"Morning":9837,"preventing":9838,"Rece":9839,"silence":9840,"resolve":9841,"unfair":9842,"##iques":9843,"Players":9844,"Berlin":9845,"Upd":9846,"magazine":9847,"sporting":9848,"prayer":9849,"solidarity":9850,"Mississ":9851,"expertise":9852,"Louisiana":9853,"Hopefully":9854,"agriculture":9855,"confirmation":9856,"prompted":9857,"exhibition":9858,"dramatic":9859,"NEW":9860,"Latin":9861,"resistance":9862,"cryptocurrencies":9863,"executives":9864,"vegetables":9865,"accompan":9866,"symbol":9867,"##laimed":9868,"Ethereum":9869,"Palestinian":9870,"##giene":9871,"toilet":9872,"entitled":9873,"democratic":9874,"injustice":9875,"Bangladesh":9876,"Edmonton":9877,"McConnell":9878,".)":9879,"Aj":9880,"Jerem":9881,"Luke":9882,"Pot":9883,"Rail":9884,"Sign":9885,"Ug":9886,"buck":9887,"cater":9888,"dump":9889,"gard":9890,"joke":9891,"lake":9892,"mate":9893,"nerv":9894,"poin":9895,"ru":9896,"raw":9897,"rushing":9898,"sour":9899,"##oen":9900,"##iots":9901,"##FF":9902,"##list":9903,"##bu":9904,"##RO":9905,"##onald":9906,"##orious":9907,"##asio":9908,"thread":9909,"##urches":9910,"##irates":9911,"stup":9912,"##iller":9913,"##aks":9914,"##aga":9915,"chains":9916,"spray":9917,"##endar":9918,"outlet":9919,"##iah":9920,"##sole":9921,"containing":9922,"Start":9923,"Champions":9924,"workforce":9925,"crude":9926,"usage":9927,"##ooked":9928,"opens":9929,"##iano":9930,"grat":9931,"inters":9932,"interp":9933,"##isha":9934,"drone":9935,"underm":9936,"Andre":9937,"Anim":9938,"guitar":9939,"transformation":9940,"quarters":9941,"Indigenous":9942,"posting":9943,"##arsh":9944,"politically":9945,"powered":9946,"##ortunate":9947,"metal":9948,"futures":9949,"appearing":9950,"investigators":9951,"Order":9952,"Conc":9953,"critics":9954,"designated":9955,"treating":9956,"discussing":9957,"assisted":9958,"cannabis":9959,"titled":9960,"describes":9961,"inflation":9962,"conviction":9963,"destination":9964,"argue":9965,"indicates":9966,"Early":9967,"accepting":9968,"pulling":9969,"wondering":9970,"Buy":9971,"##abbing":9972,"transported":9973,"bottles":9974,"hydr":9975,"Consider":9976,"fatal":9977,"fatalities":9978,"machines":9979,"flooding":9980,"outdoors":9981,"Legisl":9982,"Maryland":9983,"copy":9984,"outlets":9985,"disappointing":9986,"migrants":9987,"venue":9988,"renewed":9989,"ridic":9990,"playoffs":9991,"livest":9992,"stealing":9993,"Summer":9994,"Walker":9995,"Square":9996,"THE":9997,"dialogue":9998,"mitigate":9999,"divorce":10000,"Panthers":10001,"pipeline":10002,"Kumar":10003,"chaos":10004,"sanitizer":10005,"Channel":10006,"Aberdeen":10007,"siblings":10008,"atmosphere":10009,"Pompeo":10010,"900":10011,"AG":10012,"Credit":10013,"Fargo":10014,"Gab":10015,"Line":10016,"Lane":10017,"Nad":10018,"NBC":10019,"Pas":10020,"Pow":10021,"Roc":10022,"Rick":10023,"Tech":10024,"Wars":10025,"bold":10026,"bats":10027,"bunch":10028,"diamond":10029,"ecosystem":10030,"fool":10031,"gam":10032,"gamb":10033,"hes":10034,"horiz":10035,"jury":10036,"kiss":10037,"lon":10038,"loot":10039,"rice":10040,"rivals":10041,"tar":10042,"tons":10043,"vary":10044,"waves":10045,"##oice":10046,"##lined":10047,"##RS":10048,"##App":10049,"##11":10050,"##heim":10051,"##hent":10052,"##inced":10053,"##onic":10054,"##ington":10055,"##anim":10056,"##ito":10057,"##isive":10058,"##isons":10059,"##ione":10060,"##elle":10061,"##acter":10062,"##acles":10063,"##ads":10064,"##ammed":10065,"print":10066,"##umm":10067,"exha":10068,"champions":10069,"plug":10070,"##acking":10071,"Things":10072,"reck":10073,"##obby":10074,"meets":10075,"expression":10076,"universe":10077,"sovere":10078,"evident":10079,"crops":10080,"disruption":10081,"scary":10082,"knife":10083,"relation":10084,"tea":10085,"Asked":10086,"##ampa":10087,"Almost":10088,"Fred":10089,"removal":10090,"bless":10091,"blind":10092,"assembly":10093,"10th":10094,"locally":10095,"##ifications":10096,"signal":10097,"Blu":10098,"Blake":10099,"caring":10100,"detained":10101,"12th":10102,"condol":10103,"safegu":10104,"cheer":10105,"collaps":10106,"administer":10107,"Within":10108,"refund":10109,"2006":10110,"completing":10111,"Carib":10112,"solve":10113,"electronic":10114,"suspic":10115,"##ippi":10116,"booked":10117,"menu":10118,"charging":10119,"bitter":10120,"breaks":10121,"connections":10122,"##ivalent":10123,"difficulties":10124,"racing":10125,"grounds":10126,"circulating":10127,"1998":10128,"premises":10129,"breast":10130,"Palace":10131,"commerce":10132,"attribut":10133,"appealed":10134,"appealing":10135,"submit":10136,"##ropolit":10137,"utility":10138,"criticized":10139,"settlement":10140,"qualify":10141,"religion":10142,"clinic":10143,"Modern":10144,"semester":10145,"congreg":10146,"integrated":10147,"proposals":10148,"kidn":10149,"barriers":10150,"Wallace":10151,"fantasy":10152,"Krist":10153,"instructions":10154,"memorable":10155,"battling":10156,"Entertainment":10157,"Muslims":10158,"sequel":10159,"Wayne":10160,"Support":10161,"Laura":10162,"accommodation":10163,"legitimate":10164,"absentee":10165,"arrangements":10166,"Nelson":10167,"unveiled":10168,"innocent":10169,"efficiency":10170,"tragic":10171,"##ancellor":10172,"accompanied":10173,"Citiz":10174,"ESP":10175,"Federation":10176,"Gill":10177,"Greek":10178,"HBO":10179,"IM":10180,"Les":10181,"Mak":10182,"Must":10183,"Pa":10184,"Ped":10185,"Saints":10186,"Tig":10187,"breed":10188,"civic":10189,"hin":10190,"hotsp":10191,"mos":10192,"mood":10193,"moon":10194,"punch":10195,"sisters":10196,"##hr":10197,"##haw":10198,"##bow":10199,"##bits":10200,"##OU":10201,"##SD":10202,"##onial":10203,"##atoes":10204,"inher":10205,"##reach":10206,"thorough":10207,"##omfort":10208,"##utt":10209,"##iri":10210,"##irts":10211,"##ims":10212,"alter":10213,"##emon":10214,"##ulance":10215,"trucks":10216,"worship":10217,"##ouri":10218,"##outing":10219,"enemy":10220,"Chand":10221,"manip":10222,"uniform":10223,"unanim":10224,"dish":10225,"arbit":10226,"nowhere":10227,"##ancer":10228,"decent":10229,"corn":10230,"##lude":10231,"Andy":10232,"coord":10233,"blamed":10234,"deserves":10235,"Anna":10236,"longest":10237,"Arch":10238,"depression":10239,"detected":10240,"presently":10241,"speaker":10242,"speakers":10243,"collecting":10244,"hardware":10245,"admission":10246,"affecting":10247,"equivalent":10248,"solo":10249,"filming":10250,"Orig":10251,"##arios":10252,"Iron":10253,"designer":10254,"waited":10255,"urge":10256,"Resources":10257,"breakfast":10258,"restricted":10259,"targeting":10260,"complained":10261,"pollution":10262,"autonom":10263,"participating":10264,"describe":10265,"convinced":10266,"Steven":10267,"lifetime":10268,"Internet":10269,"answered":10270,"Moreover":10271,"inspiration":10272,"deny":10273,"tweets":10274,"Malaw":10275,"naturally":10276,"grandchild":10277,"referring":10278,"APC":10279,"unfortunate":10280,"PlaySt":10281,"crews":10282,"promotion":10283,"licens":10284,"terrorist":10285,"bonds":10286,"mistakes":10287,"preferred":10288,"hunting":10289,"weakness":10290,"pregnancy":10291,"NYSE":10292,"earthqu":10293,"shifted":10294,"rumors":10295,"Ahmed":10296,"error":10297,"involvement":10298,"therapy":10299,"preparation":10300,"couples":10301,"fundraising":10302,"Doct":10303,"satellite":10304,"Ethiopia":10305,"Pittsburgh":10306,"Future":10307,"Taiwan":10308,"supermark":10309,"scrutiny":10310,"NCAA":10311,"ingredients":10312,"enormous":10313,"##ropolitan":10314,"ESPN":10315,"PlayStation":10316,"5th":10317,"AD":10318,"Ath":10319,"Benn":10320,"Buff":10321,"Coin":10322,"Duke":10323,"Fle":10324,"Gand":10325,"Hom":10326,"Hig":10327,"Joy":10328,"Kansas":10329,"Municip":10330,"Pent":10331,"Pick":10332,"Qual":10333,"Rand":10334,"Rams":10335,"SC":10336,"Section":10337,"Ts":10338,"Tes":10339,"Unt":10340,"Ven":10341,"Veter":10342,"Venez":10343,"bases":10344,"cow":10345,"la":10346,"loving":10347,"nod":10348,"rub":10349,"raid":10350,"wip":10351,"zones":10352,"€”":10353,"##oons":10354,"##hand":10355,"##zi":10356,"##zing":10357,"##li":10358,"##lan":10359,"##TE":10360,"##OD":10361,"##erning":10362,"##onia":10363,"##inging":10364,"toss":10365,"##aret":10366,"##itories":10367,"##ioned":10368,"##acher":10369,"##iro":10370,"revers":10371,"##opard":10372,"console":10373,"##ectives":10374,"##orton":10375,"##istent":10376,"notified":10377,"seized":10378,"##udd":10379,"span":10380,"outfit":10381,"Think":10382,"recall":10383,"compare":10384,"incumb":10385,"Chamber":10386,"shed":10387,"sheet":10388,"190":10389,"crashed":10390,"displ":10391,"scor":10392,"##uces":10393,"commander":10394,"grief":10395,"Pradesh":10396,"backing":10397,"deck":10398,"Alaska":10399,"invas":10400,"attitude":10401,"indef":10402,"strip":10403,"seeks":10404,"regret":10405,"flowers":10406,"studying":10407,"respected":10408,"locals":10409,"annually":10410,"##loyed":10411,"Howard":10412,"##armaceutical":10413,"Indones":10414,"Youth":10415,"##atural":10416,"statue":10417,"genre":10418,"chef":10419,"exploring":10420,"topic":10421,"muscle":10422,"lineup":10423,"emerge":10424,"attacking":10425,"Calgary":10426,"frontline":10427,"Secret":10428,"220":10429,"Crit":10430,"humanity":10431,"auto":10432,"farms":10433,"towns":10434,"presentation":10435,"struggles":10436,"illustr":10437,"##ographic":10438,"revised":10439,"Companies":10440,"regardless":10441,"calendar":10442,"civilian":10443,"Belg":10444,"scenarios":10445,"Library":10446,"Kenned":10447,"unlike":10448,"beaten":10449,"liberal":10450,"Anti":10451,"##ropri":10452,"prosecution":10453,"##urban":10454,"ownership":10455,"1960s":10456,"substance":10457,"##liminary":10458,"merely":10459,"achievement":10460,"graduated":10461,"terrorism":10462,"ignored":10463,"surrounded":10464,"segments":10465,"advocate":10466,"advocates":10467,"occupied":10468,"MarketBeat":10469,"enhance":10470,"enhanced":10471,"spectrum":10472,"livelihood":10473,"cinema":10474,"cryptocurrency":10475,"condemned":10476,"ventilators":10477,"pocket":10478,"romantic":10479,"Stanley":10480,"Marshall":10481,"Electric":10482,"##orneys":10483,"Michelle":10484,"Antonio":10485,"reiterated":10486,"deceased":10487,"Nearly":10488,"vigil":10489,"Oxford":10490,"Craig":10491,"Mississippi":10492,"Venezuel":10493,"Bears":10494,"CP":10495,"Cher":10496,"Cust":10497,"Diamond":10498,"Freed":10499,"Ga":10500,"Gil":10501,"Garden":10502,"Had":10503,"Kaz":10504,"List":10505,"Lakers":10506,"Mail":10507,"Much":10508,"Nas":10509,"Pf":10510,"Poll":10511,"Sor":10512,"Sel":10513,"Talk":10514,"Wel":10515,"bom":10516,"borr":10517,"cents":10518,"eighth":10519,"fib":10520,"greet":10521,"hence":10522,"oxy":10523,"pup":10524,"riding":10525,"tab":10526,"##ais":10527,"##rons":10528,"##gor":10529,"##oa":10530,"##oop":10531,"##oqu":10532,"##lif":10533,"##TS":10534,"##kar":10535,"##REN":10536,"##EP":10537,"##erity":10538,"##initely":10539,"##itated":10540,"##ilateral":10541,"beaches":10542,"stays":10543,"stance":10544,"Theat":10545,"pron":10546,"##ema":10547,"##oda":10548,"exams":10549,"outcomes":10550,"##avan":10551,"intr":10552,"repeat":10553,"discon":10554,"##onduct":10555,"Price":10556,"attached":10557,"finishing":10558,"buzz":10559,"##erald":10560,"synd":10561,"defended":10562,"carefully":10563,"caption":10564,"concrete":10565,"##ega":10566,"Spider":10567,"Sox":10568,"Soon":10569,"cheaper":10570,"operated":10571,"11th":10572,"severely":10573,"affili":10574,"2005":10575,"Photo":10576,"shortages":10577,"160":10578,"surely":10579,"Securities":10580,"violations":10581,"Crime":10582,"musicians":10583,"Boeing":10584,"##umble":10585,"encourages":10586,"participated":10587,"governors":10588,"dominated":10589,"versions":10590,"Agreement":10591,"Emily":10592,"determination":10593,"acquire":10594,"steel":10595,"trusted":10596,"introduction":10597,"Superintendent":10598,"mobil":10599,"suprem":10600,"Madrid":10601,"prisoners":10602,"hygiene":10603,"Others":10604,"murdered":10605,"renov":10606,"meaningful":10607,"theatre":10608,"integrity":10609,"occasions":10610,"motorcyc":10611,"Remember":10612,"Employ":10613,"battles":10614,"dramatically":10615,"Epstein":10616,"cease":10617,"##oilers":10618,"coordinator":10619,"diplom":10620,"subsequent":10621,"transparency":10622,"pledged":10623,"##urricane":10624,"Commerce":10625,"Housing":10626,"phenomen":10627,"walks":10628,"nervous":10629,"Until":10630,"Born":10631,"Bachelor":10632,"Case":10633,"Fel":10634,"FDA":10635,"Gw":10636,"HIV":10637,"Na":10638,"Non":10639,"Nich":10640,"Pu":10641,"Pad":10642,"Pence":10643,"Sav":10644,"Ter":10645,"aer":10646,"bin":10647,"cough":10648,"din":10649,"dressed":10650,"gay":10651,"mari":10652,"pig":10653,"pays":10654,"tired":10655,"##rome":10656,"##gom":10657,"##bar":10658,"##bre":10659,"##wart":10660,"##van":10661,"##jab":10662,"##21":10663,"##HING":10664,"##eration":10665,"##inery":10666,"##inces":10667,"inequ":10668,"##asp":10669,"##otyp":10670,"##adition":10671,"stating":10672,"##eston":10673,"shr":10674,"external":10675,"worn":10676,"adher":10677,"resur":10678,"reserv":10679,"reserve":10680,"compound":10681,"unrest":10682,"replic":10683,"Weinstein":10684,"firing":10685,"knocked":10686,"accum":10687,"needing":10688,"##issa":10689,"elite":10690,"consolid":10691,"financing":10692,"bush":10693,"##urray":10694,"Anne":10695,"Coming":10696,"Forces":10697,"##auk":10698,"soccer":10699,"pointing":10700,"Arr":10701,"Ark":10702,"##ielder":10703,"discip":10704,"releases":10705,"receiver":10706,"USD":10707,"detention":10708,"parade":10709,"gloves":10710,"productive":10711,"hardest":10712,"Policy":10713,"affair":10714,"##attered":10715,"warnings":10716,"meters":10717,"Cole":10718,"Coach":10719,"McM":10720,"swift":10721,"Asset":10722,"approaches":10723,"salaries":10724,"engaging":10725,"shareholders":10726,"Corps":10727,"missiles":10728,"landl":10729,"financially":10730,"questioning":10731,"Residents":10732,"Crown":10733,"awesome":10734,"Barn":10735,"Robin":10736,"doubled":10737,"Newsom":10738,"sufficient":10739,"farming":10740,"Russell":10741,"acceptable":10742,"Perry":10743,"Moroc":10744,"telec":10745,"teleph":10746,"animated":10747,"dispos":10748,"Malays":10749,"enforced":10750,"demonst":10751,"villain":10752,"utter":10753,"trafficking":10754,"legislative":10755,"ambassador":10756,"exceptional":10757,"Richmond":10758,"articles":10759,"Harrison":10760,"promoting":10761,"appreciation":10762,"flagship":10763,"warming":10764,"Missouri":10765,"Jimmy":10766,"flew":10767,"laboratory":10768,"decreased":10769,"Wright":10770,"immigrants":10771,"Protection":10772,"Tyler":10773,"praise":10774,"Nicole":10775,"minimal":10776,"Safety":10777,"photographs":10778,"outrage":10779,"philos":10780,"Costa":10781,"judgment":10782,"Queensland":10783,"Cameron":10784,"seventh":10785,"tragedy":10786,"WhatsApp":10787,"stupid":10788,"Caribbean":10789,"Kennedy":10790,"Cur":10791,"Cass":10792,"Drug":10793,"Disc":10794,"Event":10795,"Fif":10796,"GH":10797,"Hann":10798,"Happy":10799,"Jerry":10800,"Living":10801,"Obs":10802,"SM":10803,"Sug":10804,"Sri":10805,"Ton":10806,"Tar":10807,"Together":10808,"Would":10809,"bip":10810,"cake":10811,"dat":10812,"dated":10813,"dual":10814,"doses":10815,"eur":10816,"fu":10817,"fiction":10818,"foul":10819,"gal":10820,"gest":10821,"hidden":10822,"ju":10823,"lane":10824,"rape":10825,"rhet":10826,"sed":10827,"sher":10828,"sizes":10829,"tune":10830,"vet":10831,"##bie":10832,"##val":10833,"##40":10834,"##orb":10835,"inning":10836,"##isp":10837,"##rets":10838,"##star":10839,"##stan":10840,"##leans":10841,"forcing":10842,"##oli":10843,"##irm":10844,"reign":10845,"pride":10846,"habits":10847,"sake":10848,"##thy":10849,"examples":10850,"##ivia":10851,"tri":10852,"##rous":10853,"output":10854,"##ikh":10855,"clash":10856,"cluster":10857,"inclusion":10858,"expense":10859,"unw":10860,"disabilities":10861,"scan":10862,"countless":10863,"##angel":10864,"interven":10865,"##awei":10866,"decor":10867,"Whatever":10868,"##umpt":10869,"remem":10870,"strikes":10871,"Univers":10872,"highs":10873,"##ificial":10874,"extending":10875,"Sport":10876,"prevention":10877,"legally":10878,"experiment":10879,"explan":10880,"Scient":10881,"affects":10882,"Alliance":10883,"profits":10884,"metres":10885,"skept":10886,"investigated":10887,"milit":10888,"Orleans":10889,"Convention":10890,"balls":10891,"1000":10892,"Place":10893,"approached":10894,"closest":10895,"designs":10896,"senator":10897,"celebrity":10898,"celebrities":10899,"nationally":10900,"##anny":10901,"##shot":10902,"declaration":10903,"responding":10904,"authent":10905,"badly":10906,"hoped":10907,"350":10908,"tourist":10909,"casting":10910,"holes":10911,"premiere":10912,"chairs":10913,"burst":10914,"Obviously":10915,"Montana":10916,"Montgom":10917,"settled":10918,"engineer":10919,"crowded":10920,"freshman":10921,"stopping":10922,"objects":10923,"recommendation":10924,"demonstrate":10925,"diagnosis":10926,"catching":10927,"breathe":10928,"athletic":10929,"medicines":10930,"fifty":10931,"outlook":10932,"Snap":10933,"Technologies":10934,"frustrating":10935,"Springs":10936,"Using":10937,"hunger":10938,"Campbell":10939,"procedure":10940,"embraced":10941,"shocking":10942,"Heart":10943,"fortun":10944,"Jennifer":10945,"Temple":10946,"positivity":10947,"Huawei":10948,"swimming":10949,"Ratings":10950,"compromise":10951,"delighted":10952,"Philippines":10953,"eggs":10954,"recruitment":10955,"Phillips":10956,"compensation":10957,"deterior":10958,"##juana":10959,"survivors":10960,"Digital":10961,"Mohammed":10962,"Punjab":10963,"okay":10964,"felony":10965,"nonprofit":10966,"Receive":10967,"oxygen":10968,"marijuana":10969,"Montgomery":10970,"Bagh":10971,"Billy":10972,"Ca":10973,"Cult":10974,"Dur":10975,"Form":10976,"Father":10977,"Falls":10978,"Jose":10979,"Key":10980,"Nebr":10981,"PA":10982,"Rap":10983,"Side":10984,"Tampa":10985,"Var":10986,"Wi":10987,"covid":10988,"caut":10989,"cigar":10990,"dust":10991,"dash":10992,"hors":10993,"honey":10994,"je":10995,"kit":10996,"riot":10997,"rookie":10998,"tap":10999,"tabl":11000,"tables":11001,"wise":11002,"##ris":11003,"##rence":11004,"##dad":11005,"##ders":11006,"##lay":11007,"##cow":11008,"##comm":11009,"##key":11010,"##wall":11011,"##vi":11012,"##held":11013,"##atri":11014,"##esc":11015,"##orous":11016,"toxic":11017,"##anmar":11018,"##itement":11019,"##asa":11020,"##asant":11021,"##omore":11022,"##ethe":11023,"##uri":11024,"##olt":11025,"##olas":11026,"stagger":11027,"##oser":11028,"alike":11029,"##erse":11030,"asc":11031,"haz":11032,"##emen":11033,"##aki":11034,"##ocation":11035,"exists":11036,"##iva":11037,"notably":11038,"##usters":11039,"orient":11040,"chip":11041,"abd":11042,"##ardo":11043,"reson":11044,"meg":11045,"exports":11046,"Hey":11047,"shell":11048,"Weather":11049,"scar":11050,"imper":11051,"preliminary":11052,"Prim":11053,"intercept":11054,"deciding":11055,"Front":11056,"striking":11057,"stranded":11058,"regulation":11059,"flames":11060,"flatt":11061,"conscious":11062,"shoulders":11063,"fines":11064,"finals":11065,"##arrass":11066,"surpass":11067,"Indians":11068,"boom":11069,"boards":11070,"installed":11071,"releasing":11072,"socially":11073,"arrives":11074,"Left":11075,"turnout":11076,"distinct":11077,"2002":11078,"2001":11079,"foods":11080,"killings":11081,"swept":11082,"Myanmar":11083,"strongest":11084,"raises":11085,"Edo":11086,"specialist":11087,"21st":11088,"sentiment":11089,"Teh":11090,"missions":11091,"challenged":11092,"administrative":11093,"revealing":11094,"loose":11095,"interviewed":11096,"##backs":11097,"judicial":11098,"governing":11099,"##ublin":11100,"enjoying":11101,"Need":11102,"##ettes":11103,"indicating":11104,"survival":11105,"recovering":11106,"achieving":11107,"##abbi":11108,"Libya":11109,"Madison":11110,"Lawrence":11111,"organizers":11112,"subjects":11113,"1970s":11114,"timeline":11115,"script":11116,"emotions":11117,"unemployed":11118,"adopt":11119,"prayers":11120,"Pete":11121,"complications":11122,"carries":11123,"dependent":11124,"Windows":11125,"##respond":11126,"Kamala":11127,"nutrition":11128,"manufacturer":11129,"astron":11130,"Limited":11131,"pedest":11132,"sparked":11133,"supervis":11134,"refugees":11135,"Environmental":11136,"Dodgers":11137,"avoiding":11138,"Margaret":11139,"Muhammadu":11140,"Hampshire":11141,"LGBTQ":11142,"cancellation":11143,"Tigers":11144,"grandchildren":11145,"Athlet":11146,"Pfizer":11147,"Theatre":11148,"Aw":11149,"Apart":11150,"Boss":11151,"Baby":11152,"Come":11153,"DJ":11154,"Dublin":11155,"Full":11156,"Him":11157,"Holl":11158,"Jake":11159,"Kath":11160,"Mn":11161,"Mills":11162,"Nancy":11163,"NHL":11164,"Ot":11165,"Oil":11166,"Pok":11167,"Pier":11168,"Rome":11169,"Raid":11170,"Sov":11171,"Saint":11172,"Uber":11173,"Very":11174,"Wond":11175,"cup":11176,"cute":11177,"dairy":11178,"fert":11179,"hub":11180,"hunt":11181,"jew":11182,"misc":11183,"na":11184,"ninth":11185,"tort":11186,"tape":11187,"”)":11188,"##rin":11189,"##uition":11190,"##million":11191,"##mouth":11192,"##hatt":11193,"##kward":11194,"##NT":11195,"##NC":11196,"##25":11197,"##inar":11198,"##edge":11199,"##icate":11200,"##icians":11201,"##omi":11202,"##entle":11203,"##state":11204,"##otes":11205,"##urge":11206,"##acent":11207,"streak":11208,"rehe":11209,"reject":11210,"##ushes":11211,"anch":11212,"conce":11213,"convey":11214,"##ectic":11215,"trails":11216,"##oven":11217,"wheels":11218,"##iker":11219,"resigned":11220,"recipe":11221,"Stars":11222,"overd":11223,"intimate":11224,"##ailing":11225,"cruel":11226,"partly":11227,"thereby":11228,"##assion":11229,"##ignity":11230,"scream":11231,"scandal":11232,"##uchess":11233,"reluct":11234,"##ianna":11235,"grav":11236,"graph":11237,"backs":11238,"Trude":11239,"branch":11240,"##ressing":11241,"correspond":11242,"makeup":11243,"Brun":11244,"Bright":11245,"desert":11246,"studied":11247,"retain":11248,"retali":11249,"testim":11250,"root":11251,"contrary":11252,"belt":11253,"##ullah":11254,"Arsenal":11255,"investor":11256,"concise":11257,"childhood":11258,"slated":11259,"proportion":11260,"cleared":11261,"developer":11262,"ordering":11263,"programmes":11264,"organised":11265,"excitement":11266,"Phoen":11267,"Grace":11268,"consideration":11269,"hospitality":11270,"##teen":11271,"thirds":11272,"midst":11273,"generous":11274,"celebrations":11275,"choosing":11276,"awkward":11277,"Barack":11278,"contractors":11279,"Box":11280,"sexually":11281,"plea":11282,"arguing":11283,"touching":11284,"introducing":11285,"crossing":11286,"Salt":11287,"meantime":11288,"Portug":11289,"criminals":11290,"spirits":11291,"initiated":11292,"ambitious":11293,"wildlife":11294,"embarrass":11295,"Macron":11296,"alternatives":11297,"penalt":11298,"willingness":11299,"demonstrations":11300,"prospects":11301,"assaulted":11302,"conflicts":11303,"adjusted":11304,"punishment":11305,"fleet":11306,"anxious":11307,"Imm":11308,"understands":11309,"certified":11310,"connectivity":11311,"Walmart":11312,"optimism":11313,"Additional":11314,"Getting":11315,"Jamie":11316,"##writer":11317,"Budget":11318,"awaiting":11319,"ETF":11320,"Motor":11321,"wounded":11322,"legendary":11323,"Moscow":11324,"brutality":11325,"Restaur":11326,"ladies":11327,"reception":11328,"adventure":11329,"converted":11330,"Conservative":11331,"Jerusal":11332,"Kaduna":11333,"wisdom":11334,"inevitable":11335,"babies":11336,"Jeremy":11337,"incumbent":11338,"Nebraska":11339,"Trudeau":11340,"Phoenix":11341,"penalties":11342,"90s":11343,"Brew":11344,"CF":11345,"Cand":11346,"Celebr":11347,"Celt":11348,"CUR":11349,"Dame":11350,"Dick":11351,"Fisher":11352,"Hans":11353,"Hug":11354,"Jun":11355,"Kard":11356,"Kids":11357,"Link":11358,"Mend":11359,"Murray":11360,"Nurs":11361,"Nash":11362,"Nobody":11363,"PR":11364,"Pope":11365,"RT":11366,"RA":11367,"Ric":11368,"Rot":11369,"Run":11370,"Rud":11371,"Rah":11372,"Sg":11373,"Sin":11374,"Sold":11375,"Toy":11376,"Verm":11377,"Ward":11378,"cous":11379,"cargo":11380,"furn":11381,"gh":11382,"lov":11383,"lens":11384,"pension":11385,"rif":11386,"wre":11387,"wrapped":11388,"##eav":11389,"##eff":11390,"##oat":11391,"##ois":11392,"##mir":11393,"##math":11394,"##taining":11395,"##di":11396,"##dict":11397,"##zer":11398,"##bal":11399,"##wo":11400,"##western":11401,"##CY":11402,"##jection":11403,"##13":11404,"##17":11405,"##60":11406,"##ingers":11407,"toys":11408,"inh":11409,"innings":11410,"##asma":11411,"thin":11412,"##ilst":11413,"##elve":11414,"##etch":11415,"##urer":11416,"##olph":11417,"stir":11418,"stamp":11419,"reel":11420,"##essa":11421,"neur":11422,"trash":11423,"trapped":11424,"notion":11425,"charm":11426,"chips":11427,"chocol":11428,"churches":11429,"##allel":11430,"abus":11431,"##astrop":11432,"##ova":11433,"##ieved":11434,"alliance":11435,"reserves":11436,"##iban":11437,"incomp":11438,"explicit":11439,"quit":11440,"applying":11441,"appeals":11442,"twin":11443,"##ucc":11444,"grid":11445,"Prior":11446,"##aware":11447,"invite":11448,"removing":11449,"shower":11450,"provinces":11451,"blessed":11452,"##weet":11453,"wherever":11454,"assumed":11455,"##atherine":11456,"##opez":11457,"Shar":11458,"concerning":11459,"Indeed":11460,"##asht":11461,"instant":11462,"instantly":11463,"files":11464,"##aji":11465,"facial":11466,"##aley":11467,"preserve":11468,"aviation":11469,"125":11470,"cheese":11471,"15th":11472,"110":11473,"Clay":11474,"mainland":11475,"mainstream":11476,"pastor":11477,"movements":11478,"programming":11479,"admits":11480,"Beat":11481,"dealt":11482,"lesson":11483,"exclus":11484,"distribute":11485,"Cox":11486,"Gray":11487,"hospitalizations":11488,"lineback":11489,"availability":11490,"Edwards":11491,"Eddie":11492,"##beat":11493,"accountability":11494,"Crow":11495,"##owski":11496,"priorities":11497,"capitalization":11498,"1999":11499,"Stef":11500,"Neither":11501,"purple":11502,"arguments":11503,"graduation":11504,"##offs":11505,"superior":11506,"billions":11507,"filling":11508,"introduce":11509,"regulators":11510,"grandfather":11511,"grandmother":11512,"routes":11513,"guns":11514,"Keith":11515,"rebound":11516,"subscription":11517,"reminder":11518,"Hillary":11519,"Garc":11520,"monitored":11521,"Snow":11522,"Bryan":11523,"frequent":11524,"Winter":11525,"emphasized":11526,"guaranteed":11527,"sponsored":11528,"coinc":11529,"transformed":11530,"Bailey":11531,"Taliban":11532,"Azerb":11533,"condemn":11534,"Jessica":11535,"mutual":11536,"tactics":11537,"Nevertheless":11538,"Brandon":11539,"Ultimately":11540,"dynamic":11541,"remarkable":11542,"Giants":11543,"navigate":11544,"Ukr":11545,"##ixture":11546,"comparison":11547,"antibodies":11548,"Rachel":11549,"laptop":11550,"Representatives":11551,"enthusi":11552,"rallies":11553,"Hopkins":11554,"acquisition":11555,"tremendous":11556,"Friends":11557,"Animal":11558,"suspicion":11559,"attributed":11560,"##RENCY":11561,"sheriff":11562,"CURRENCY":11563,"Sgt":11564,"Azerbai":11565,"3D":11566,"AR":11567,"BR":11568,"BL":11569,"Bab":11570,"Bald":11571,"Code":11572,"Dere":11573,"FI":11574,"Fed":11575,"GP":11576,"Ian":11577,"LP":11578,"Mom":11579,"Mission":11580,"NR":11581,"ND":11582,"Nap":11583,"Rou":11584,"Row":11585,"Si":11586,"Som":11587,"Sure":11588,"Soph":11589,"TR":11590,"Task":11591,"afor":11592,"bell":11593,"bacter":11594,"cod":11595,"cops":11596,"echo":11597,"lod":11598,"mol":11599,"ports":11600,"rental":11601,"rugby":11602,"tor":11603,"tiss":11604,"ware":11605,"##oard":11606,"##mo":11607,"##mit":11608,"##MB":11609,"##pan":11610,"##tle":11611,"##zo":11612,"##liest":11613,"##The":11614,"##80":11615,"##DS":11616,"##organ":11617,"##eded":11618,"##inge":11619,"##asters":11620,"##omach":11621,"##lee":11622,"##olk":11623,"stakes":11624,"##thur":11625,"froz":11626,"##oca":11627,"##odox":11628,"shaped":11629,"##antz":11630,"notable":11631,"##usting":11632,"plain":11633,"plun":11634,"##nty":11635,"##aste":11636,"##asty":11637,"##ellect":11638,"##mph":11639,"enab":11640,"##active":11641,"Store":11642,"Stew":11643,"##ogy":11644,"manif":11645,"unpr":11646,"intens":11647,"##quer":11648,"##ews":11649,"aftermath":11650,"dishes":11651,"themed":11652,"scram":11653,"##roat":11654,"accord":11655,"grades":11656,"Proc":11657,"backup":11658,"corrupt":11659,"supporter":11660,"undergo":11661,"Fraser":11662,"blog":11663,"flour":11664,"endless":11665,"earning":11666,"##ierra":11667,"Mars":11668,"highlights":11669,"centuries":11670,"defender":11671,"##manuel":11672,"opener":11673,"caps":11674,"Share":11675,"##enger":11676,"directive":11677,"instances":11678,"discovery":11679,"deliber":11680,"Spir":11681,"Speed":11682,"Spencer":11683,"Soft":11684,"greatly":11685,"realised":11686,"##uthors":11687,"entity":11688,"traders":11689,"airports":11690,"farmer":11691,"##eyer":11692,"Poland":11693,"Sche":11694,"refuse":11695,"Johnny":11696,"ski":11697,"14th":11698,"240":11699,"halted":11700,"130":11701,"firearm":11702,"16th":11703,"limiting":11704,"##ipper":11705,"approve":11706,"salt":11707,"Peace":11708,"meanwhile":11709,"landing":11710,"celebrates":11711,"Barry":11712,"Works":11713,"devoted":11714,"packages":11715,"digit":11716,"audit":11717,"representation":11718,"painful":11719,"websites":11720,"indication":11721,"##ambia":11722,"recoveries":11723,"superher":11724,"improvements":11725,"definition":11726,"##ught":11727,"permits":11728,"1984":11729,"thanked":11730,"embassy":11731,"##ubbed":11732,"Upon":11733,"Metropolitan":11734,"merch":11735,"Mexican":11736,"Insurance":11737,"Intel":11738,"attractive":11739,"Woods":11740,"garage":11741,"carrier":11742,"neighborhoods":11743,"Tourism":11744,"optimistic":11745,"911":11746,"##lynn":11747,"Boys":11748,"establishment":11749,"reinfor":11750,"principles":11751,"bulk":11752,"Silver":11753,"desperately":11754,"motivated":11755,"relaxed":11756,"Ronald":11757,"Holdings":11758,"boundaries":11759,"structural":11760,"flexibility":11761,"municipal":11762,"subsequently":11763,"Lynn":11764,"History":11765,"scholarship":11766,"prolong":11767,"entrepreneur":11768,"Industry":11769,"Larry":11770,"resilience":11771,"taxpayers":11772,"Lebanon":11773,"vendors":11774,"unnecess":11775,"jurisdiction":11776,"inaugur":11777,"furlough":11778,"intimid":11779,"mysterious":11780,"Assistant":11781,"caucus":11782,"Uganda":11783,"interpret":11784,"condolences":11785,"##gorith":11786,"demonstrators":11787,"authentic":11788,"Soviet":11789,"Jerusalem":11790,"Ukraine":11791,"frozen":11792,"BB":11793,"Bon":11794,"Bird":11795,"Bishop":11796,"Cort":11797,"Coun":11798,"Eve":11799,"Fernand":11800,"Gates":11801,"Golf":11802,"Has":11803,"Lopez":11804,"Map":11805,"OS":11806,"Po":11807,"Page":11808,"Rash":11809,"SE":11810,"Song":11811,"Sierra":11812,"Till":11813,"Use":11814,"Vi":11815,"ax":11816,"bare":11817,"besides":11818,"dorm":11819,"dict":11820,"fier":11821,"gig":11822,"hip":11823,"hire":11824,"lets":11825,"luck":11826,"mac":11827,"mere":11828,"makers":11829,"pard":11830,"riders":11831,"sections":11832,"vowed":11833,"ye":11834,"##rit":11835,"##ras":11836,"##raries":11837,"##95":11838,"##mare":11839,"##iary":11840,"##yen":11841,"##col":11842,"##coin":11843,"##chew":11844,"##fers":11845,"##fielder":11846,"##bed":11847,"##wick":11848,"##LP":11849,"##iche":11850,"##idal":11851,"##otton":11852,"##acco":11853,"##uting":11854,"beans":11855,"stomach":11856,"reactions":11857,"pricing":11858,"##ationally":11859,"haul":11860,"##ching":11861,"##agg":11862,"shoppers":11863,"##istol":11864,"chronic":11865,"seeds":11866,"##astically":11867,"leverage":11868,"outreach":11869,"upside":11870,"heritage":11871,"##actor":11872,"Champ":11873,"newest":11874,"sole":11875,"disad":11876,"##rait":11877,"impose":11878,"##icked":11879,"grace":11880,"acted":11881,"##anches":11882,"broker":11883,"interaction":11884,"Alph":11885,"amendment":11886,"##ementioned":11887,"consent":11888,"finances":11889,"##wealth":11890,"##istrate":11891,"median":11892,"##anka":11893,"smugg":11894,"insult":11895,"insider":11896,"restore":11897,"careers":11898,"transactions":11899,"capability":11900,"deputies":11901,"Shah":11902,"discipl":11903,"genetic":11904,"propag":11905,"prevented":11906,"payroll":11907,"Leeds":11908,"entities":11909,"hardship":11910,"exploration":11911,"moder":11912,"profound":11913,"organic":11914,"##appropri":11915,"Cohen":11916,"Griff":11917,"kills":11918,"18th":11919,"##enna":11920,"McI":11921,"costume":11922,"fireworks":11923,"##oubted":11924,"vacation":11925,"critically":11926,"traveled":11927,"Expl":11928,"accountable":11929,"addresses":11930,"creators":11931,"absurd":11932,"Finn":11933,"##shore":11934,"starter":11935,"difficulty":11936,"purchases":11937,"Nothing":11938,"matching":11939,"1992":11940,"approaching":11941,"Philip":11942,"streams":11943,"communicating":11944,"commonly":11945,"buried":11946,"agreements":11947,"radical":11948,"rebounds":11949,"Benj":11950,"Samuel":11951,"ambulance":11952,"reflects":11953,"journalism":11954,"catastrop":11955,"sunny":11956,"exercises":11957,"reminds":11958,"golden":11959,"flooded":11960,"automatic":11961,"youths":11962,"promoted":11963,"Metro":11964,"limitations":11965,"adoption":11966,"III":11967,"tackles":11968,"storms":11969,"irre":11970,"ignore":11971,"feeding":11972,"verdict":11973,"Mahar":11974,"poison":11975,"protocol":11976,"micro":11977,"accuracy":11978,"coastal":11979,"controlling":11980,"strictly":11981,"psychological":11982,"upgraded":11983,"devastated":11984,"shifts":11985,"wealthy":11986,"quietly":11987,"Carlos":11988,"Advisory":11989,"parliamentary":11990,"obligation":11991,"Medicine":11992,"accomplish":11993,"Abdul":11994,"flexible":11995,"Furthermore":11996,"AFP":11997,"Sussex":11998,"excessive":11999,"entrepreneurs":12000,"Bengaluru":12001,"instruments":12002,"enterprise":12003,"kilometres":12004,"harassment":12005,"Henderson":12006,"Namib":12007,"##criptions":12008,"bankruptcy":12009,"voluntary":12010,"Hudson":12011,"accusations":12012,"Prosecut":12013,"Buttig":12014,"gratitude":12015,"Bennett":12016,"Tesla":12017,"indefinitely":12018,"Indonesia":12019,"##aukee":12020,"bipart":12021,"rhetoric":12022,"##etheless":12023,"Tehran":12024,"chocolate":12025,"Derek":12026,"aforementioned":12027,"##chewan":12028,"Burr":12029,"Crew":12030,"Clear":12031,"Dog":12032,"Delt":12033,"Duchess":12034,"GO":12035,"Ger":12036,"Gate":12037,"Kind":12038,"Koh":12039,"Mik":12040,"Maj":12041,"Member":12042,"Mobile":12043,"Pers":12044,"QB":12045,"Ry":12046,"Rw":12047,"Roll":12048,"Rangers":12049,"SD":12050,"Sah":12051,"Tu":12052,"Tro":12053,"Xi":12054,"authors":12055,"bic":12056,"bass":12057,"cher":12058,"cum":12059,"cope":12060,"dear":12061,"dancing":12062,"ec":12063,"fisher":12064,"hike":12065,"mum":12066,"mour":12067,"nick":12068,"pow":12069,"pub":12070,"rib":12071,"##run":12072,"##right":12073,"##rina":12074,"##eor":12075,"##eut":12076,"##sa":12077,"##iw":12078,"##hall":12079,"##no":12080,"##lo":12081,"##lad":12082,"##NS":12083,"##VP":12084,"##UT":12085,"##edy":12086,"tours":12087,"topped":12088,"##alia":12089,"##rection":12090,"##ecute":12091,"##uter":12092,"##uther":12093,"forum":12094,"styl":12095,"reverse":12096,"prize":12097,"##osn":12098,"ally":12099,"align":12100,"algorith":12101,"##ership":12102,"##ulent":12103,"##orted":12104,"shipping":12105,"##earing":12106,"##ivir":12107,"trim":12108,"##anting":12109,"abortion":12110,"##uda":12111,"##aphic":12112,"Thr":12113,"resumption":12114,"offs":12115,"cloth":12116,"compan":12117,"contag":12118,"aggr":12119,"Chase":12120,"Heat":12121,"unions":12122,"unrel":12123,"intend":12124,"19th":12125,"partisan":12126,"disabled":12127,"themes":12128,"##aching":12129,"##onda":12130,"impression":12131,"##ocking":12132,"grain":12133,"teeth":12134,"attorneys":12135,"Brig":12136,"finale":12137,"assemb":12138,"memo":12139,"guards":12140,"poses":12141,"insight":12142,"##leton":12143,"Presidential":12144,"Command":12145,"collision":12146,"fundament":12147,"colors":12148,"artificial":12149,"importantly":12150,"Beaut":12151,"CoV":12152,"killer":12153,"Manhatt":12154,"techniques":12155,"singles":12156,"milestone":12157,"##ported":12158,"##alyst":12159,"functions":12160,"candy":12161,"##ommy":12162,"Someone":12163,"breakdown":12164,"coverings":12165,"doubts":12166,"##holder":12167,"uncle":12168,"Patel":12169,"deliveries":12170,"domin":12171,"1994":12172,"1997":12173,"Nether":12174,"isolating":12175,"Emmanuel":12176,"commentary":12177,"Perform":12178,"inspire":12179,"inspiring":12180,"hearings":12181,"lawsuits":12182,"burgl":12183,"Swed":12184,"Swiss":12185,"civilians":12186,"villages":12187,"Student":12188,"CBD":12189,"ultra":12190,"##ERS":12191,"legislature":12192,"Martine":12193,"reflected":12194,"Wells":12195,"sweat":12196,"bias":12197,"Oliver":12198,"schemes":12199,"medication":12200,"anticipate":12201,"Maxwell":12202,"consultation":12203,"illnesses":12204,"Jefferson":12205,"Greater":12206,"Brooks":12207,"backgrounds":12208,"memorial":12209,"curbside":12210,"Systems":12211,"bullet":12212,"forgotten":12213,"adaptation":12214,"liquor":12215,"obligations":12216,"burned":12217,"evacuation":12218,"structures":12219,"Kentucky":12220,"genuinely":12221,"fulfill":12222,"beliefs":12223,"pockets":12224,"Tanz":12225,"withdrawal":12226,"Opposition":12227,"leaning":12228,"Funeral":12229,"ancient":12230,"##itzerland":12231,"hungry":12232,"CARES":12233,"lyrics":12234,"Similarly":12235,"phrase":12236,"Coalition":12237,"certificate":12238,"Saskatchewan":12239,"Beyond":12240,"sophomore":12241,"intersection":12242,"Malawi":12243,"earthquake":12244,"Gandhi":12245,"Freedom":12246,"discipline":12247,"Tonight":12248,"rehears":12249,"enabling":12250,"Buttigieg":12251,"bipartisan":12252,"Ave":12253,"Band":12254,"Bott":12255,"Cre":12256,"Cash":12257,"Cody":12258,"Der":12259,"Dund":12260,"Dream":12261,"Gem":12262,"Hur":12263,"Hus":12264,"Hundred":12265,"Hunt":12266,"IG":12267,"Kw":12268,"Kab":12269,"Kano":12270,"Mes":12271,"Past":12272,"RE":12273,"Ridge":12274,"Roman":12275,"Rugby":12276,"Tur":12277,"Tommy":12278,"Viol":12279,"bind":12280,"bother":12281,"cos":12282,"cens":12283,"cock":12284,"census":12285,"cabin":12286,"dies":12287,"fed":12288,"gentle":12289,"hack":12290,"lined":12291,"loses":12292,"pond":12293,"pne":12294,"porn":12295,"ric":12296,"tale":12297,"tender":12298,"tension":12299,"##roc":12300,"##rich":12301,"##gets":12302,"##MS":12303,"##pur":12304,"##pace":12305,"##hill":12306,"##des":12307,"##lah":12308,"##km":12309,"##fe":12310,"##waukee":12311,"##orable":12312,"inner":12313,"##asi":12314,"thres":12315,"haun":12316,"saves":12317,"fright":12318,"weaken":12319,"shake":12320,"##ivan":12321,"##ctional":12322,"##abs":12323,"plasma":12324,"abund":12325,"abused":12326,"##ourt":12327,"##udes":12328,"##arding":12329,"##endum":12330,"##ovic":12331,"leak":12332,"leagues":12333,"Thail":12334,"##elli":12335,"upload":12336,"##ipeg":12337,"##ibutes":12338,"recalls":12339,"acre":12340,"inclusive":12341,"Stev":12342,"Chad":12343,"Charg":12344,"Chancellor":12345,"perce":12346,"intellect":12347,"Web":12348,"dispr":12349,"scam":12350,"##ickets":12351,"##ancies":12352,"branches":12353,"interactions":12354,"corona":12355,"##luding":12356,"Alan":12357,"drives":12358,"underground":12359,"elabor":12360,"considers":12361,"donors":12362,"assign":12363,"Maria":12364,"writers":12365,"supportive":12366,"##aux":12367,"##mann":12368,"Arthur":12369,"transg":12370,"runner":12371,"discour":12372,"delicious":12373,"advise":12374,"founding":12375,"patience":12376,"preserv":12377,"##lington":12378,"simpl":12379,"explaining":12380,"Dragon":12381,"artistic":12382,"Reports":12383,"Phot":12384,"effectiveness":12385,"considerable":12386,"technique":12387,"humor":12388,"documented":12389,"suspend":12390,"Colin":12391,"salv":12392,"fights":12393,"taxi":12394,"musician":12395,"Australians":12396,"throws":12397,"Harvard":12398,"responsibilities":12399,"##dened":12400,"honored":12401,"focuses":12402,"Action":12403,"presenting":12404,"describing":12405,"convince":12406,"1990s":12407,"feared":12408,"neighbours":12409,"treas":12410,"favorites":12411,"pictured":12412,"##mingham":12413,"steep":12414,"Quest":12415,"peacefully":12416,"Superior":12417,"mobility":12418,"precaution":12419,"Contin":12420,"hydro":12421,"spotlight":12422,"1980s":12423,"layer":12424,"jumping":12425,"timely":12426,"##iciary":12427,"Milwaukee":12428,"demonstration":12429,"demonstrated":12430,"apartments":12431,"colleges":12432,"Intelligence":12433,"ceremonies":12434,"suitable":12435,"Grande":12436,"Organisation":12437,"disclosure":12438,"Working":12439,"PPP":12440,"Ashley":12441,"functioning":12442,"steadily":12443,"controversy":12444,"eliminated":12445,"motivation":12446,"tribal":12447,"accommodate":12448,"component":12449,"Abdullah":12450,"Retail":12451,"allocation":12452,"brutal":12453,"endorsed":12454,"obstacles":12455,"showcase":12456,"escalation":12457,"patterns":12458,"recreation":12459,"triggered":12460,"portrayed":12461,"Urban":12462,"wrestling":12463,"SUV":12464,"Wyoming":12465,"gifts":12466,"Reynold":12467,"McDonald":12468,"subscribers":12469,"starring":12470,"contempor":12471,"##eeper":12472,"prioritize":12473,"sacrifice":12474,"beneficiaries":12475,"Embassy":12476,"Communications":12477,"Inspector":12478,"Winnipeg":12479,"pointer":12480,"Powell":12481,"collapsed":12482,"remembers":12483,"horses":12484,"Kardash":12485,"ghost":12486,"##oubtedly":12487,"Benjamin":12488,"Netherlands":12489,"pneum":12490,"Thailand":12491,".“":12492,"8th":12493,"80s":12494,"9th":12495,"AA":12496,"Aqu":12497,"Aven":12498,"Bear":12499,"Battle":12500,"Banks":12501,"DO":12502,"Draft":12503,"ED":12504,"EP":12505,"Fant":12506,"Ferr":12507,"Flynn":12508,"GB":12509,"Hand":12510,"Herm":12511,"Job":12512,"Jets":12513,"Jama":12514,"Kid":12515,"Kos":12516,"Li":12517,"Lad":12518,"Late":12519,"Luk":12520,"MD":12521,"Merr":12522,"Mitch":12523,"Nair":12524,"Note":12525,"Nintend":12526,"Oc":12527,"PE":12528,"Pil":12529,"Pur":12530,"Rain":12531,"Raw":12532,"Round":12533,"RBI":12534,"TC":12535,"Tol":12536,"Try":12537,"UFC":12538,"VP":12539,"Vij":12540,"bol":12541,"cel":12542,"cure":12543,"gorge":12544,"jet":12545,"om":12546,"paus":12547,"pause":12548,"pants":12549,"pizza":12550,"sized":12551,"sinc":12552,"tends":12553,"tuition":12554,"ug":12555,"voc":12556,"yelling":12557,"##rant":12558,"##gie":12559,"##mith":12560,"##pat":12561,"##kens":12562,"##WS":12563,"##Ds":12564,"##hend":12565,"##heart":12566,"##inh":12567,"##inos":12568,"##enza":12569,"##eding":12570,"##arre":12571,"##itime":12572,"ineff":12573,"##asm":12574,"thru":12575,"##enton":12576,"##eld":12577,"##elong":12578,"##aco":12579,"##uten":12580,"alien":12581,"heels":12582,"frank":12583,"##ante":12584,"##ctic":12585,"##usts":12586,"chamber":12587,"aboard":12588,"lease":12589,"##oka":12590,"outperform":12591,"Thous":12592,"advers":12593,"upt":12594,"offseason":12595,"##uez":12596,"Ing":12597,"compassion":12598,"##ouses":12599,"incons":12600,"Chan":12601,"Chall":12602,"worksh":12603,"intends":12604,"##berry":12605,"##quis":12606,"##inda":12607,"disrupted":12608,"commem":12609,"accidents":12610,"preference":12611,"graphic":12612,"##adequ":12613,"Private":12614,"myth":12615,"Trail":12616,"##ittees":12617,"##anga":12618,"drastically":12619,"##athon":12620,"flash":12621,"whereas":12622,"vegan":12623,"homeown":12624,"desp":12625,"medal":12626,"highway":12627,"define":12628,"insists":12629,"oldest":12630,"restruct":12631,"openly":12632,"##ometown":12633,"sharply":12634,"Shan":12635,"boasts":12636,"Blasio":12637,"slip":12638,"Spot":12639,"realise":12640,"passage":12641,"demol":12642,"possess":12643,"preval":12644,"##atta":12645,"Deep":12646,"emo":12647,"airs":12648,"##rator":12649,"Going":12650,"terminal":12651,"Climate":12652,"processor":12653,"refere":12654,"skilled":12655,"travellers":12656,"freeze":12657,"180":12658,"campaigning":12659,"amongst":12660,"failures":12661,"Teams":12662,"practically":12663,"practicing":12664,"worthy":12665,"Parks":12666,"uncomfort":12667,"curt":12668,"sooner":12669,"packs":12670,"circle":12671,"Everybody":12672,"##ylum":12673,"stepping":12674,"citizenship":12675,"Angela":12676,"fastest":12677,"regulator":12678,"Quinn":12679,"Disaster":12680,"attendees":12681,"Switzerland":12682,"##AND":12683,"Alexand":12684,"scientist":12685,"referendum":12686,"partnered":12687,"appointments":12688,"briefly":12689,"Nova":12690,"##ustrial":12691,"separated":12692,"Studios":12693,"sensor":12694,"suggestions":12695,"persu":12696,"tenure":12697,"tenants":12698,"Todd":12699,"criticised":12700,"aspir":12701,"contributing":12702,"Karen":12703,"##arriors":12704,"Browns":12705,"magical":12706,"marginal":12707,"pursuing":12708,"graduates":12709,"ranking":12710,"examine":12711,"sustainability":12712,"congrat":12713,"rescued":12714,"proceeds":12715,"harmful":12716,"frustrated":12717,"teenagers":12718,"Relief":12719,"Esp":12720,"Television":12721,"Connectic":12722,"Express":12723,"Oklah":12724,"casino":12725,"Rodrig":12726,"shifting":12727,"Watson":12728,"championships":12729,"surprisingly":12730,"eliminate":12731,"pharmaceutical":12732,"Operation":12733,"accomplished":12734,"grapp":12735,"benchmark":12736,"Tamil":12737,"satisfied":12738,"conventional":12739,"Birmingham":12740,"prohibited":12741,"transparent":12742,"bathroom":12743,"dragged":12744,"brave":12745,"palm":12746,"gallery":12747,"Against":12748,"constituency":12749,"disturbing":12750,"Yeah":12751,"architecture":12752,"privilege":12753,"resignation":12754,"oversight":12755,"Semit":12756,"reconc":12757,"Nazi":12758,"Independent":12759,"recycling":12760,"continuously":12761,"refresh":12762,"MLB":12763,"mirror":12764,"Duluth":12765,"Kashmir":12766,"wireless":12767,"licensed":12768,"pupils":12769,"telephone":12770,"datab":12771,"Universal":12772,"fortunate":12773,"Raiders":12774,"Wonder":12775,"##urgeon":12776,"testimony":12777,"Stewart":12778,"Delta":12779,"Manhattan":12780,"Martinez":12781,"threshold":12782,"Reynolds":12783,"Nintendo":12784,"uncomfortable":12785,"Connecticut":12786,"(“":12787,"AB":12788,"AU":12789,"Ale":12790,"Bio":12791,"Beth":12792,"Burk":12793,"Curt":12794,"Cemetery":12795,"DM":12796,"Dennis":12797,"Dutch":12798,"Ek":12799,"Eight":12800,"FM":12801,"Few":12802,"Ferg":12803,"Gop":12804,"Hit":12805,"Hell":12806,"Ja":12807,"Jazz":12808,"Kan":12809,"Kings":12810,"Lin":12811,"Luck":12812,"MDC":12813,"Nol":12814,"None":12815,"Nathan":12816,"PF":12817,"Pear":12818,"Ru":12819,"Ree":12820,"Tory":12821,"Tiger":12822,"Tucker":12823,"Vot":12824,"bes":12825,"bout":12826,"brew":12827,"cement":12828,"cattle":12829,"density":12830,"fi":12831,"fingers":12832,"hook":12833,"hiding":12834,"hometown":12835,"merc":12836,"nail":12837,"naked":12838,"northeast":12839,"patch":12840,"rit":12841,"tub":12842,"tanks":12843,"vit":12844,"viable":12845,"##ao":12846,"##aver":12847,"##avery":12848,"##gal":12849,"##mons":12850,"##ped":12851,"##top":12852,"##non":12853,"##nity":12854,"##yer":12855,"##chest":12856,"##king":12857,"##fare":12858,"##born":12859,"##vas":12860,"##ergy":12861,"##eni":12862,"##arat":12863,"##arine":12864,"##armed":12865,"##itating":12866,"##itched":12867,"##asks":12868,"##stemic":12869,"##acular":12870,"forb":12871,"##adan":12872,"##igue":12873,"##immer":12874,"##illo":12875,"wholes":12876,"##oportion":12877,"conj":12878,"healing":12879,"##ulates":12880,"##ulative":12881,"##thodox":12882,"##agen":12883,"##agging":12884,"nep":12885,"execution":12886,"tropical":12887,"##ifty":12888,"Thus":12889,"Third":12890,"##ellar":12891,"##iko":12892,"##iki":12893,"##ava":12894,"##sover":12895,"##mpt":12896,"compelling":12897,"contam":12898,"acute":12899,"##urement":12900,"exped":12901,"Chuck":12902,"unch":12903,"united":12904,"overtime":12905,"##qual":12906,"191":12907,"reprod":12908,"dispar":12909,"disreg":12910,"applies":12911,"impressed":12912,"##rup":12913,"brib":12914,"interference":12915,"##ishi":12916,"amend":12917,"drain":12918,"drunk":12919,"##nex":12920,"stroke":12921,"flip":12922,"endang":12923,"guided":12924,"##ixon":12925,"Mario":12926,"wrist":12927,"confused":12928,"infam":12929,"setup":12930,"smell":12931,"insights":12932,"Arena":12933,"##rams":12934,"deployment":12935,"##asha":12936,"boast":12937,"slide":12938,"slavery":12939,"receives":12940,"poster":12941,"patri":12942,"patrons":12943,"param":12944,"glimp":12945,"risen":12946,"modest":12947,"Meet":12948,"equities":12949,"Amanda":12950,"Amendment":12951,"Pharmaceutical":12952,"Jane":12953,"Managing":12954,"McA":12955,"pressed":12956,"##ippers":12957,"##phones":12958,"policing":12959,"170":12960,"##loroqu":12961,"##forcement":12962,"volumes":12963,"Cris":12964,"awful":12965,"apology":12966,"identifying":12967,"negl":12968,"absorb":12969,"norms":12970,"declare":12971,"responders":12972,"##brook":12973,"snaps":12974,"Glen":12975,"Glad":12976,"Neighb":12977,"lacking":12978,"##grad":12979,"applicants":12980,"painted":12981,"acceptance":12982,"Directors":12983,"produces":12984,"obser":12985,"Switch":12986,"Valent":12987,"imprison":12988,"welcoming":12989,"##grounds":12990,"remembered":12991,"Liberal":12992,"Holy":12993,"libraries":12994,"ambition":12995,"undoubtedly":12996,"displayed":12997,"terrorists":12998,"ignor":12999,"adjustments":13000,"Construction":13001,"attracted":13002,"Bernard":13003,"Township":13004,"teenage":13005,"teenager":13006,"Relations":13007,"Ess":13008,"migrant":13009,"Between":13010,"##borne":13011,"permanently":13012,"worrying":13013,"mortality":13014,"lengthy":13015,"bosses":13016,"loaded":13017,"mentally":13018,"acknowledge":13019,"coins":13020,"##respons":13021,"confrontation":13022,"Bradley":13023,"installation":13024,"Raymond":13025,"forthcoming":13026,"outright":13027,"diplomatic":13028,"##iatric":13029,"recreational":13030,"deposits":13031,"preceded":13032,"Industries":13033,"Roger":13034,"instrument":13035,"facilitate":13036,"Political":13037,"habitat":13038,"photographer":13039,"Standard":13040,"Armenia":13041,"Innov":13042,"bonus":13043,"suppliers":13044,"chemicals":13045,"rebuild":13046,"implications":13047,"councillors":13048,"Commonwealth":13049,"emergencies":13050,"Criminal":13051,"Legislature":13052,"Citizens":13053,"Pentagon":13054,"pronounced":13055,"##breaking":13056,"Malaysia":13057,"explanation":13058,"lovely":13059,"##ashtra":13060,"linebacker":13061,"Garcia":13062,"Azerbaijan":13063,"scramb":13064,"unnecessary":13065,"Maharashtra":13066,"Tanzania":13067,"disproportion":13068,"glimpse":13069,"##loroquine":13070,"AFL":13071,"BM":13072,"CD":13073,"Cav":13074,"Dj":13075,"Dal":13076,"Dad":13077,"Dist":13078,"Days":13079,"Daw":13080,"Diana":13081,"Eston":13082,"Esc":13083,"FY":13084,"Joint":13085,"Ko":13086,"Kend":13087,"Knight":13088,"LG":13089,"Lil":13090,"MT":13091,"Mb":13092,"Mul":13093,"Mick":13094,"Making":13095,"Nep":13096,"Native":13097,"OT":13098,"Ole":13099,"Pul":13100,"Pod":13101,"Pandemic":13102,"Patt":13103,"Qatar":13104,"RS":13105,"Room":13106,"Say":13107,"Sac":13108,"Sep":13109,"Sach":13110,"Tun":13111,"Vision":13112,"WAS":13113,"borrow":13114,"cats":13115,"dip":13116,"foster":13117,"hedge":13118,"nerve":13119,"pad":13120,"rings":13121,"sear":13122,"sink":13123,"vert":13124,"wards":13125,"€¦":13126,"##after":13127,"##uv":13128,"##tics":13129,"##iac":13130,"##hu":13131,"##hot":13132,"##dog":13133,"##lock":13134,"##ympt":13135,"##fits":13136,"##burn":13137,"##wear":13138,"##vet":13139,"##EW":13140,"##IO":13141,"##GH":13142,"##KA":13143,"##onz":13144,"##oner":13145,"##oria":13146,"toug":13147,"tokens":13148,"##alg":13149,"##isure":13150,"##etooth":13151,"##acerb":13152,"bears":13153,"##olo":13154,"##oline":13155,"stip":13156,"##igious":13157,"Therap":13158,"reaches":13159,"prest":13160,"##tery":13161,"##tering":13162,"##illery":13163,"##usc":13164,"altered":13165,"asylum":13166,"asympt":13167,"hav":13168,"sail":13169,"heating":13170,"comeb":13171,"fruits":13172,"exacerb":13173,"troll":13174,"##anted":13175,"##abe":13176,"##abi":13177,"seal":13178,"placing":13179,"worries":13180,"##oute":13181,"##uds":13182,"spy":13183,"##oku":13184,"adhere":13185,"resumed":13186,"clerk":13187,"Chin":13188,"unse":13189,"intensity":13190,"reply":13191,"##acht":13192,"##amped":13193,"##ampton":13194,"Alt":13195,"lasted":13196,"drastic":13197,"invitation":13198,"blowing":13199,"flower":13200,"consists":13201,"endeav":13202,"Bros":13203,"assass":13204,"ears":13205,"Shep":13206,"phases":13207,"105":13208,"Forum":13209,"protein":13210,"systemic":13211,"defe":13212,"defl":13213,"societ":13214,"annoy":13215,"##aha":13216,"Sharma":13217,"Industrial":13218,"planes":13219,"directions":13220,"directives":13221,"cares":13222,"slump":13223,"slammed":13224,"realistic":13225,"prescrib":13226,"viruses":13227,"preview":13228,"Level":13229,"Isa":13230,"reader":13231,"factories":13232,"admissions":13233,"Southwest":13234,"refr":13235,"learners":13236,"valley":13237,"140":13238,"25th":13239,"Chrome":13240,"##ennial":13241,"Account":13242,"electorate":13243,"debates":13244,"midfielder":13245,"Edward":13246,"Too":13247,"##beit":13248,"sentencing":13249,"competitions":13250,"messaging":13251,"Resc":13252,"##parents":13253,"Cricket":13254,"creator":13255,"joins":13256,"##ronics":13257,"thrilled":13258,"curious":13259,"sexy":13260,"declining":13261,"respondents":13262,"damaging":13263,"Enforcement":13264,"##regular":13265,"divide":13266,"destruct":13267,"destinations":13268,"Neil":13269,"painting":13270,"telev":13271,"70s":13272,"parked":13273,"diabet":13274,"establishing":13275,"Recently":13276,"implementing":13277,"wondered":13278,"Official":13279,"Communist":13280,"Liberia":13281,"precious":13282,"variant":13283,"unfold":13284,"Studies":13285,"Simply":13286,"##ventions":13287,"thankful":13288,"sweeping":13289,"crying":13290,"Olu":13291,"Milan":13292,"appreciated":13293,"diagnost":13294,"pursuit":13295,"Wilk":13296,"achievements":13297,"athlete":13298,"minorities":13299,"surfaces":13300,"Franklin":13301,"sticking":13302,"applaud":13303,"barrier":13304,"Know":13305,"dressing":13306,"carriers":13307,"##ORK":13308,"Ellis":13309,"Katie":13310,"Winds":13311,"##thening":13312,"Farmers":13313,"Cambridge":13314,"batting":13315,"evaluation":13316,"Throughout":13317,"UCLA":13318,"accompany":13319,"birds":13320,"exploitation":13321,"allocated":13322,"##minster":13323,"satellites":13324,"elementary":13325,"disagree":13326,"Ukrain":13327,"Natal":13328,"Crystal":13329,"Traff":13330,"Abbott":13331,"liquidity":13332,"Cowboy":13333,"Baseball":13334,"Turner":13335,"##anthrop":13336,"styles":13337,"expenditure":13338,"volatile":13339,"Dominic":13340,"horizon":13341,"Bluetooth":13342,"safeguard":13343,"supermarket":13344,"Veterans":13345,"Venezuela":13346,"Arkansas":13347,"Baghdad":13348,"cautious":13349,"cousin":13350,"propaganda":13351,"Hundreds":13352,"pneumonia":13353,"Oklahoma":13354,"Fergus":13355,"4K":13356,"7th":13357,"Bou":13358,"Cub":13359,"Carm":13360,"CBC":13361,"Craw":13362,"Cyr":13363,"FIR":13364,"Gene":13365,"HR":13366,"Hence":13367,"Ig":13368,"Kil":13369,"Kenn":13370,"Lions":13371,"Lakes":13372,"Mull":13373,"Moon":13374,"Nin":13375,"Nob":13376,"Neg":13377,"N95":13378,"OD":13379,"Py":13380,"Pap":13381,"Pink":13382,"Pixel":13383,"Ring":13384,"Ruth":13385,"Riley":13386,"Sull":13387,"Said":13388,"TO":13389,"Taking":13390,"Tower":13391,"Token":13392,"Total":13393,"Upper":13394,"Wis":13395,"Wend":13396,"biz":13397,"capped":13398,"dive":13399,"dangers":13400,"fighters":13401,"gaining":13402,"grey":13403,"litig":13404,"lobby":13405,"pets":13406,"pubs":13407,"ram":13408,"rains":13409,"##rob":13410,"##uating":13411,"##90":13412,"##hole":13413,"##hma":13414,"##do":13415,"##dam":13416,"##zed":13417,"##ls":13418,"##lass":13419,"##cons":13420,"##caster":13421,"##kh":13422,"##fection":13423,"##bage":13424,"##IF":13425,"##WA":13426,"##onc":13427,"##orld":13428,"token":13429,"##aria":13430,"##arthy":13431,"##ouds":13432,"inadequ":13433,"##icle":13434,"##enter":13435,"##ecca":13436,"##storm":13437,"##steps":13438,"##eties":13439,"##oly":13440,"##olved":13441,"staged":13442,"##aman":13443,"##illon":13444,"aligned":13445,"##opes":13446,"sauce":13447,"comics":13448,"##tha":13449,"##ocese":13450,"shorter":13451,"##ista":13452,"depr":13453,"chase":13454,"spoilers":13455,"2030":13456,"##ieber":13457,"Thunder":13458,"butt":13459,"offence":13460,"offenders":13461,"herd":13462,"complement":13463,"contested":13464,"enabled":13465,"##ureauc":13466,"Cho":13467,"##ollah":13468,"workout":13469,"unm":13470,"unre":13471,"unac":13472,"intellig":13473,"twenty":13474,"scrap":13475,"##ultane":13476,"impl":13477,"imports":13478,"##enson":13479,"relate":13480,"relied":13481,"##arking":13482,"##oya":13483,"##ancers":13484,"Prom":13485,"##erto":13486,"Alb":13487,"securing":13488,"blend":13489,"flo":13490,"Brid":13491,"studios":13492,"Newton":13493,"##urred":13494,"Marine":13495,"default":13496,"confusing":13497,"socio":13498,"Argent":13499,"restored":13500,"signals":13501,"##aho":13502,"##jectory":13503,"issuing":13504,"runners":13505,"booth":13506,"Minor":13507,"delivers":13508,"##ologists":13509,"postseason":13510,"detect":13511,"Month":13512,"headline":13513,"30th":13514,"##overed":13515,"severity":13516,"charities":13517,"Clare":13518,"nightmare":13519,"simultane":13520,"admir":13521,"modified":13522,"builds":13523,"Drag":13524,"colonial":13525,"distant":13526,"##leyball":13527,"offerings":13528,"Johns":13529,"Healthcare":13530,"excuse":13531,"locker":13532,"Manit":13533,"spreads":13534,"McL":13535,"Access":13536,"pressing":13537,"pressures":13538,"Africans":13539,"storyline":13540,"lows":13541,"formally":13542,"travelers":13543,"functional":13544,"sums":13545,"billionaire":13546,"##raph":13547,"violated":13548,"accounted":13549,"humanitarian":13550,"##boards":13551,"immense":13552,"31st":13553,"portal":13554,"cultures":13555,"Markle":13556,"shutting":13557,"Herbert":13558,"recognised":13559,"enjoys":13560,"1990":13561,"Davidson":13562,"lifting":13563,"##ophone":13564,"dispatched":13565,"publish":13566,"observe":13567,"grandparents":13568,"poorly":13569,"battleground":13570,"separation":13571,"submission":13572,"sensors":13573,"Across":13574,"Strong":13575,"Strateg":13576,"historically":13577,"laying":13578,"penet":13579,"sadly":13580,"commitments":13581,"assessments":13582,"floods":13583,"Robertson":13584,"licence":13585,"49ers":13586,"horrific":13587,"irregular":13588,"supposedly":13589,"drafted":13590,"Naval":13591,"colleague":13592,"consultant":13593,"Ern":13594,"Louisville":13595,"summit":13596,"conservation":13597,"Workers":13598,"##abilitation":13599,"Connor":13600,"trajectory":13601,"Experts":13602,"forecasts":13603,"emphasis":13604,"newspapers":13605,"renewable":13606,"spectacular":13607,"CAA":13608,"Cardinals":13609,"surgical":13610,"errors":13611,"confronted":13612,"pharmacy":13613,"intentionally":13614,"climbed":13615,"strengthening":13616,"Revolution":13617,"Clarke":13618,"municipalities":13619,"smartphones":13620,"Cypr":13621,"owing":13622,"dynamics":13623,"deposit":13624,"philanthrop":13625,"anonymous":13626,"Barbara":13627,"Popular":13628,"Kirk":13629,"enrolled":13630,"Travel":13631,"overturn":13632,"Picture":13633,"Chenn":13634,"inventory":13635,"Shortly":13636,"emotionally":13637,"ridiculous":13638,"gambling":13639,"reckless":13640,"administered":13641,"livelihoods":13642,"##HINGTON":13643,"Eventually":13644,"Hannah":13645,"gesture":13646,"hazard":13647,"reluctant":13648,"wreck":13649,"manifest":13650,"superhero":13651,"bicyc":13652,"powder":13653,"companion":13654,"contemporary":13655,"ugly":13656,"asymptomatic":13657,"diabetes":13658,"):":13659,",“":13660,"Age":13661,"Bach":13662,"Beg":13663,"Brett":13664,"CR":13665,"Cel":13666,"Cut":13667,"Cop":13668,"Da":13669,"Dow":13670,"Drew":13671,"Dynam":13672,"Ent":13673,"Fer":13674,"Fall":13675,"Final":13676,"Gur":13677,"Hem":13678,"Lloyd":13679,"Logan":13680,"Lisa":13681,"Mut":13682,"Moss":13683,"Muk":13684,"NAT":13685,"Og":13686,"Own":13687,"PH":13688,"Rice":13689,"Race":13690,"Rush":13691,"SF":13692,"Sny":13693,"SAN":13694,"Soul":13695,"Sanche":13696,"Totten":13697,"Voice":13698,"Vlad":13699,"Were":13700,"bot":13701,"bund":13702,"bands":13703,"bureauc":13704,"cord":13705,"dose":13706,"diver":13707,"drought":13708,"dubbed":13709,"fame":13710,"fence":13711,"fond":13712,"fitting":13713,"halls":13714,"jets":13715,"lip":13716,"lists":13717,"lovers":13718,"mo":13719,"mart":13720,"nost":13721,"soup":13722,"southeast":13723,"tense":13724,"turk":13725,"wars":13726,"##uably":13727,"##sk":13728,"##town":13729,"##iott":13730,"##don":13731,"##ns":13732,"##loe":13733,"##face":13734,"##VE":13735,"##LO":13736,"##24":13737,"##HC":13738,"##heastern":13739,"##erie":13740,"theor":13741,"##esy":13742,"##ener":13743,"##edia":13744,"##edict":13745,"touted":13746,"topping":13747,"inappropri":13748,"##isely":13749,"##ishers":13750,"thunder":13751,"##omers":13752,"##elerate":13753,"##eliev":13754,"##stage":13755,"##eton":13756,"beings":13757,"bearing":13758,"##olation":13759,"##iries":13760,"stig":13761,"stone":13762,"stole":13763,"stabbed":13764,"##aments":13765,"##ighed":13766,"priced":13767,"prisons":13768,"##term":13769,"##imm":13770,"##imir":13771,"##imental":13772,"albeit":13773,"convert":13774,"##chloroquine":13775,"##ulk":13776,"##ulpt":13777,"##ulously":13778,"##through":13779,"fract":13780,"##agar":13781,"##odge":13782,"shore":13783,"##unal":13784,"##istle":13785,"notorious":13786,"goalk":13787,"whoever":13788,"##avy":13789,"pepper":13790,"clarity":13791,"clusters":13792,"conting":13793,"incoming":13794,"Stop":13795,"Heath":13796,"perception":13797,"intrig":13798,"evolution":13799,"crown":13800,"disorder":13801,"accent":13802,"accelerate":13803,"gray":13804,"grabbed":13805,"teens":13806,"##erties":13807,"Butler":13808,"drum":13809,"drones":13810,"drops":13811,"underc":13812,"strang":13813,"stranger":13814,"betting":13815,"2024":13816,"2025":13817,"regards":13818,"weekends":13819,"##fty":13820,"consoles":13821,"Universe":13822,"Brien":13823,"retreat":13824,"teammate":13825,"phased":13826,"104":13827,"Armed":13828,"##ahl":13829,"handing":13830,"happiness":13831,"Index":13832,"boats":13833,"cared":13834,"##lete":13835,"economist":13836,"economically":13837,"parish":13838,"Leices":13839,"30s":13840,"111":13841,"Ref":13842,"Reed":13843,"distanced":13844,"learnt":13845,"),”":13846,"eventual":13847,"classrooms":13848,"mush":13849,"Coordin":13850,"travelled":13851,"Phys":13852,"13th":13853,"McN":13854,"Elector":13855,"measured":13856,"stockp":13857,"suspicious":13858,"impacting":13859,"Twenty":13860,"risky":13861,"salmon":13862,"booking":13863,"17th":13864,"expectation":13865,"privately":13866,"Northwest":13867,"couch":13868,"competitors":13869,"##former":13870,"missile":13871,"certainty":13872,"lighting":13873,"violating":13874,"educated":13875,"basement":13876,"creativity":13877,"connecting":13878,"significance":13879,"temple":13880,"Harvey":13881,"administrators":13882,"mindset":13883,"damages":13884,"packaging":13885,"Notre":13886,"combine":13887,"reviewing":13888,"grounded":13889,"similarly":13890,"pretend":13891,"60s":13892,"lowered":13893,"Emma":13894,"Emirates":13895,"arguably":13896,"##itcher":13897,"publishing":13898,"Jackie":13899,"Schm":13900,"panels":13901,"Serge":13902,"labs":13903,"Palm":13904,"contentious":13905,"Alexa":13906,"Keeping":13907,"references":13908,"Studio":13909,"pairs":13910,"Consumer":13911,"cooked":13912,"freel":13913,"reflecting":13914,"wildfires":13915,"qualifying":13916,"alternate":13917,"layoffs":13918,"750":13919,"Advoc":13920,"assessed":13921,"Miles":13922,"allegation":13923,"beautifully":13924,"prosperity":13925,",’”":13926,",’’":13927,"festivals":13928,"examination":13929,"outlined":13930,"literature":13931,"segreg":13932,"mounted":13933,"mounting":13934,"fleeing":13935,"illegally":13936,"Stephan":13937,"dividends":13938,"Clem":13939,"Clean":13940,"correctly":13941,"cooperate":13942,"garner":13943,"migration":13944,"instructed":13945,"##onnie":13946,"Bobby":13947,"Bolton":13948,"prompting":13949,"Bruins":13950,"Safe":13951,"grave":13952,"queen":13953,"apologize":13954,"##olitical":13955,"Auto":13956,"exploit":13957,"observations":13958,"supervision":13959,"Lynch":13960,"Histor":13961,"Palestinians":13962,"dimin":13963,"exemption":13964,"undertaken":13965,"disappeared":13966,"Rogers":13967,"Marcus":13968,"advisory":13969,"barrels":13970,"laptops":13971,"anonymity":13972,"resilient":13973,"incentives":13974,"taxpayer":13975,"Lebanese":13976,"adapting":13977,"adapted":13978,"lungs":13979,"unbeliev":13980,"pivotal":13981,"Leonard":13982,"Engineering":13983,"congressional":13984,"rendered":13985,"interfere":13986,"Circuit":13987,"Vincent":13988,"Starting":13989,"livestream":13990,"hinted":13991,"hotspots":13992,"unanimously":13993,"Municipal":13994,"Critics":13995,"phenomenon":13996,"Morocco":13997,"philosophy":13998,"Scientists":13999,"jeopard":14000,"astronaut":14001,"exclusively":14002,"molec":14003,"Spirit":14004,"prolonged":14005,"yeah":14006,"Dundee":14007,"intellectual":14008,"Vijay":14009,"gorgeous":14010,"infamous":14011,"Crisis":14012,"WASHINGTON":14013,"comeback":14014,"Rescue":14015,"destructive":14016,"Sullivan":14017,"unaccept":14018,"Chennai":14019,"Sanchez":14020,"Electoral":14021,"?'":14022,"Banc":14023,"Bills":14024,"CW":14025,"Ced":14026,"Core":14027,"Cert":14028,"Census":14029,"EA":14030,"GA":14031,"Got":14032,"Gig":14033,"Hass":14034,"Hogan":14035,"Il":14036,"JP":14037,"Jet":14038,"Jav":14039,"Lion":14040,"Log":14041,"Laz":14042,"Large":14043,"Miz":14044,"Mang":14045,"MIN":14046,"NO":14047,"Nine":14048,"Natural":14049,"Pi":14050,"Pra":14051,"Rio":14052,"RAM":14053,"Rabbi":14054,"Route":14055,"SS":14056,"Sid":14057,"Saw":14058,"Sush":14059,"bik":14060,"bilateral":14061,"cotton":14062,"ded":14063,"dough":14064,"foss":14065,"fighter":14066,"gro":14067,"gaps":14068,"hilar":14069,"jailed":14070,"jazz":14071,"oun":14072,"pole":14073,"sorts":14074,"sque":14075,"wished":14076,"##rians":14077,"##gently":14078,"##ui":14079,"##uz":14080,"##iya":14081,"##nut":14082,"##low":14083,"##lets":14084,"##lists":14085,"##yms":14086,"##cot":14087,"##bot":14088,"##RP":14089,"##NG":14090,"##NP":14091,"##je":14092,"##inally":14093,"##ints":14094,"##aters":14095,"##edi":14096,"##arcer":14097,"##isi":14098,"##isb":14099,"##isbury":14100,"##icism":14101,"##ecraft":14102,"##ecessor":14103,"##otion":14104,"##urbs":14105,"##leep":14106,"##uto":14107,"##aders":14108,"stun":14109,"stew":14110,"stored":14111,"##igo":14112,"revel":14113,"prost":14114,"##oples":14115,"annex":14116,"##essional":14117,"##chi":14118,"##aku":14119,"##ocated":14120,"##agu":14121,"##agwa":14122,"##ods":14123,"shine":14124,"##istani":14125,"##antry":14126,"notification":14127,"##abit":14128,"##ustain":14129,"orange":14130,"suits":14131,"seam":14132,"wors":14133,"leather":14134,"leisure":14135,"outing":14136,"offshore":14137,"##iper":14138,"clim":14139,"##oba":14140,"environ":14141,"##acting":14142,"Sturgeon":14143,"Change":14144,"Heb":14145,"workouts":14146,"sheer":14147,"repatri":14148,"Wealth":14149,"partial":14150,"afterwards":14151,"disability":14152,"twelve":14153,"##roe":14154,"##icts":14155,"##ensively":14156,"relieved":14157,"backd":14158,"backyard":14159,"##itty":14160,"interrupted":14161,"interventions":14162,"Alf":14163,"Alice":14164,"drill":14165,"##atham":14166,"monster":14167,"monetary":14168,"betray":14169,"fined":14170,"desc":14171,"desired":14172,"continuous":14173,"Newman":14174,"testified":14175,"##ucted":14176,"##othy":14177,"contrad":14178,"##henko":14179,"businessman":14180,"Online":14181,"Shore":14182,"Shane":14183,"Sharon":14184,"concessions":14185,"marking":14186,"##ugs":14187,"realities":14188,"sometime":14189,"Adrian":14190,"oppose":14191,"patron":14192,"LeB":14193,"Lev":14194,"Depp":14195,"imported":14196,"cheating":14197,"believing":14198,"editing":14199,"Century":14200,"lethal":14201,"particles":14202,"##gins":14203,"Revenue":14204,"##plex":14205,"metre":14206,"##places":14207,"classified":14208,"internationally":14209,"50s":14210,"costly":14211,"Noah":14212,"vacu":14213,"victories":14214,"debris":14215,"ensures":14216,"ensured":14217,"##phone":14218,"viewing":14219,"beneath":14220,"accessories":14221,"crises":14222,"vaccination":14223,"educate":14224,"urgently":14225,"Resear":14226,"##annon":14227,"Guyan":14228,"thrive":14229,"doubling":14230,"Harper":14231,"##shine":14232,"assisting":14233,"keyboard":14234,"imminent":14235,"talents":14236,"sellers":14237,"digits":14238,"pleasure":14239,"##books":14240,"##swick":14241,"Syl":14242,"respects":14243,"shootings":14244,"circuit":14245,"1993":14246,"1995":14247,"Regul":14248,"Moz":14249,"Congressional":14250,"cleaner":14251,"##ophob":14252,"treasure":14253,"credits":14254,"credential":14255,"blocking":14256,"forefront":14257,"marry":14258,"predecessor":14259,"sounded":14260,"speeds":14261,"traditionally":14262,"definitive":14263,"##castle":14264,"annualized":14265,"radar":14266,"Alexis":14267,"gunshot":14268,"escaped":14269,"villains":14270,"slee":14271,"robots":14272,"Flash":14273,"adjacent":14274,"saddened":14275,"logo":14276,"tonnes":14277,"machinery":14278,"languages":14279,"Melissa":14280,
[...]
