{"version":"1.0","truncation":null,"padding":null,"added_tokens":[{"id":0,"special":true,"content":"<UNK>","single_word":false,"lstrip":false,"rstrip":false,"normalized":false},{"id":1,"special":true,"content":"<SEP>","single_word":false,"lstrip":false,"rstrip":false,"normalized":false},{"id":2,"special":true,"content":"<MASK>","single_word":false,"lstrip":false,"rstrip":false,"normalized":false},{"id":3,"special":true,"content":"<CLS>","single_word":false,"lstrip":false,"rstrip":false,"normalized":false}],"normalizer":null,"pre_tokenizer":{"type":"Whitespace"},"post_processor":null,"decoder":null,"model":{"type":"Unigram","unk_id":0,"vocab":[["<UNK>",0.0],["<SEP>",0.0],["<MASK>",0.0],["<CLS>",0.0],["a",-2.6571430291107276],[",",-2.9035856226385945],[".",-3.319542195170156],["t",-3.8066927321672797],["az",-3.910360721020611],["n",-4.217561661583007],["és",-4.383771997496666],["A",-4.393961320597224],["-",-4.395916026374852],["i",-4.421706002601621],["hogy",-4.618594860425338],["is",-4.636810466866622],["k",-4.640377970733368],["nak",-5.1152812458053525],["nem",-5.120780546487444],["egy",-5.123319974345968],["ben",-5.177760202639556],["ban",-5.194939533590729],["nek",-5.2990601489193025],["Az",-5.441269877378911],["e",-5.497923435897386],["meg",-5.537968483233945],["re",-5.5441683938919795],["en",-5.568914486682299],["ra",-5.6423983125457795],["s",-5.67691602688183],["et",-5.6773204867278615],["el",-5.801795646069033],["–",-5.832496644711231],["ki",-5.86462230198906],["m",-5.908712684798422],["ik",-5.92755875064841],["on",-5.983561303181624],["szerint",-6.037233628823767],["volt",-6.0443862789786085],["de",-6.057471362496383],[":",-6.070962281484105],["már",-6.104385068338088],["g",-6.10898731971486],["be",-6.129418515171928],["van",-6.297393645160668],["\"",-6.306113956321022],["csak",-6.306786419130608],["ott",-6.310285606338491],["mint",-6.3380347543738225],["még",-6.3453776753733155],["át",-6.36877486946959],["több",-6.403892362351021],["ez",-6.4285080999333974],["ák",-6.43065865364999],["pedi",-6.4478678017377895],["ek",-6.483974350486971],["vel",-6.48927278762431],["20",-6.511501717652152],["vagy",-6.516691097555828],["(",-6.550507774079465],["fel",-6.557029045157643],["hoz",-6.567525436867456],["ról",-6.584954435224299],["ból",-6.588373642389493],[")",-6.589063902888901],["év",-6.595430150288644],["ha",-6.6016637187630405],["ok",-6.614026061651538],["sem",-6.615140013381808],["kell",-6.616868582836405],["val",-6.626133139221871],["ről",-6.629083397017553],["ért",-6.640774922125146],["mi",-6.647736781859063],["azt",-6.651027187682637],["ot",-6.668677744113367],["után",-6.681163992827594],["amely",-6.689582037973082],["százalék",-6.695873655100375],["majd",-6.720389535914629],["két",-6.737286673122181],["unk",-6.747288083105808],["lehet",-6.751850694260428],["kal",-6.759294404647752],["”",-6.778531870312369],["ként",-6.796408167178521],["es",-6.79982608192603],["okat",-6.806642632417425],["ig",-6.809587068745103],["magyar",-6.823057904598718],["nagy",-6.829585503181527],["lesz",-6.838854376501197],["ő",-6.840978914756563],["ami",-6.845637664613004],["le",-6.846544505008778],["orosz",-6.84729812284181],["miatt",-6.858576871313683],["2",-6.877215412285826],["úgy",-6.885264269983839],["így",-6.889057007204989],["1",-6.892384074408929],["hez",-6.9112291111869375],["ul",-6.913259667960873],["ünk",-6.940103555014608],["Ez",-6.9434535972002465],["ből",-6.946461089118432],["új",-6.953592503093694],["tól",-6.959952564101181],["minden",-6.960336929337538],["ják",-6.962017628054636],["első",-6.9726476649748745],["olyan",-6.977481643455106],["ni",-7.003280287052476],["ék",-7.008510312019212],["között",-7.03765962185791],["M",-7.038660776305614],["ó",-7.041630650469433],["aki",-7.072289866414857],["„",-7.076908119223874],["leg",-7.118318407591362],["án",-7.125797564631564],["től",-7.128734685404714],["akkor",-7.1351535004802145],["azonba",-7.172689048837072],["nál",-7.18263449719695],["3",-7.184635604232847],["5",-7.188289130800327],["mert",-7.1886193526118305],["éves",-7.193850138960193],["forint",-7.1995034175297565],["?",-7.201004289473263],["va",-7.206872535098849],["mondta",-7.231956646764441],["ták",-7.232414321706964],["nél",-7.232677112007324],["mellett",-7.237427040966582],["egyik",-7.245596688862459],["most",-7.254892939815657],["arra",-7.259204600914426],["ük",-7.267970417069964],["jó",-7.2763484739894215],["ve",-7.305048825073467],["z",-7.313707643861178],["uk",-7.316080634322459],["!",-7.321253254877617],["S",-7.326697945516345],["os",-7.335376738704869],["én",-7.34068880912517],["eket",-7.345174102811229],["ukrán",-7.358197234692739],["ának",-7.362221151824196],["sal",-7.364477657286813],["4",-7.382137201191662],["b",-7.382779999660408],["ja",-7.386698303689489],["ezt",-7.395793827621245],["sok",-7.403190784175344],["által",-7.404869597314147],["millió",-7.408092393620858],["előtt",-7.420152584674782],["más",-7.421985212581684],["fog",-7.422506774345682],["Egy",-7.42402529178231],["d",-7.425021936728586],["ezer",-7.443868237775928],["kormány",-7.445608512974546],["tovább",-7.450688946121088],["r",-7.455817393136618],["akik",-7.460193474075973],["ában",-7.477087596597066],["19",-7.479933154570098],["tal",-7.486043111424645],["202",-7.487653664974013],["K",-7.493464057358998],["l",-7.499721322777619],["amikor",-7.500541593647824],["milliárd",-7.504674436407797],["h",-7.50567766901747],["ba",-7.508444853226745],["tud",-7.511459427548827],["alatt",-7.51471415651383],["óta",-7.533339198138368],["rról",-7.556501544766083],["ett",-7.556915389807917],["hozzá",-7.564603266105019],["három",-7.565729076620408],["Nem",-7.569587153104077],["y",-7.57356401717993],["ország",-7.5798658900689615],["számár",-7.583680411063139],["Ha",-7.585800848831635],["E",-7.599599432562548],["kat",-7.604375435513949],["ahol",-7.617501619085451],["agyon",-7.6326029306531575],["valamin",-7.646786614410608],["ét",-7.647706908949489],["7",-7.656221225679325],["P",-7.662387423098143],["háború",-7.668349003427433],["Európa",-7.669777480004149],["6",-7.670422736881992],["ára",-7.670863531941356],["Oroszország",-7.672787720469619],["o",-7.673620875725434],["10",-7.683288480460757],["kor",-7.685672716991291],["ellen",-7.688132288431922],["világ",-7.696850982428259],["ember",-7.697011793975632],["vissza",-7.702249407640996],["lett",-7.704151743566606],["hét",-7.710153310382854],["voln",-7.710387687889422],["8",-7.716008106439928],["ében",-7.722972047007531],["áll",-7.727984890866802],["ne",-7.735817359079575],["közben",-7.738994255370933],["kel",-7.743029918701794],["hisze",-7.74461802216564],["ték",-7.751031409329645],["juk",-7.75293220953329],["B",-7.763221870261089],["viszont",-7.765124963153455],["mind",-7.765479593904517],["ugyanis",-7.768085632969968],["példá",-7.7710857945934375],["ával",-7.77140408898448],["illetve",-7.784367953772503],["ú",-7.790801541918525],["teljes",-7.791766752872107],["amit",-7.792939432097528],["rá",-7.794398049689491],["0",-7.801109298904755],["Magyarország",-7.811664094187091],["annak",-7.813895696024202],["Mi",-7.816031802196287],["ének",-7.822330042557826],["cég",-7.826937722021543],["elmúlt",-7.827548640031104],["nap",-7.829506054880724],["hanem",-7.830984503308396],["tak",-7.832713024168422],["második",-7.834277516124724],["ilyen",-7.8383897050695595],["em",-7.83894663799965],["amelyek",-7.839658977062418],["férfi",-7.840069250102224],["csapat",-7.841051892381371],["ül",-7.844135104152192],["való",-7.847839512953035],["sel",-7.848176726870929],["míg",-7.855725003792479],["C",-7.86007764504933],["eset",-7.866784672029629],["15",-7.868156113366874],["elnök",-7.872563361321152],["é",-7.877973095547786],["ezek",-7.878818033101467],["fő",-7.8789758082183745],["akár",-7.882904452693411],["egész",-7.884948006993914],["adott",-7.88509600888865],["közölte",-7.890253057836116],["ű",-7.890598663873737],["hat",-7.9037277275448705],["9",-7.926884081179506],["százalékos",-7.9286832544602435],["legnagyobb",-7.929120374063849],["korábba",-7.929891398357203],["milyen",-7.929979926018354],["jelentős",-7.937712188488566],["fontos",-7.95049818941536],["bb",-7.9505776120607115],["30",-7.951609978087578],["tette",-7.955564194586226],["előre",-7.957139440670008],["G",-7.964359616091223],["évek",-7.965973559676274],["nincs",-7.968999594688857],["nagyobb",-7.970013750418782],["került",-7.976525416093854],["felé",-7.982632093494689],["mely",-7.987053680956277],["saját",-7.989015715610609],["amerikai",-7.990795835150092],["során",-7.993151708997064],["18",-8.00320716422842],["emberek",-8.005420411030071],["De",-8.008105907329707],["jól",-8.009470608671025],["azért",-8.010638477443383],["helyzet",-8.01310952692143],["ezér",-8.016499697885159],["Magyar",-8.027916984776828],["alapján",-8.037500851654835],["idén",-8.043992295354567],["össze",-8.047689067318718],["idő",-8.052327972065267],["tek",-8.0528179035343],["om",-8.053455128265778],["szemben",-8.053651698665774],["eddig",-8.060020889616073],["zal",-8.06638418297425],["együtt",-8.069393709146176],["elő",-8.070549710733395],["négy",-8.070960108091963],["részt",-8.071290705866327],["európai",-8.079898441667893],["ével",-8.083416699864015],["újabb",-8.085357776106186],["másik",-8.085675254203668],["nélkül",-8.087643346615042],["ám",-8.091188697411347],["R",-8.09536314468166],["jük",-8.09958403900059],["gazdasági",-8.108364996832908],["ekkel",-8.11458901788534],["itt",-8.118173736371393],["H",-8.119342801418313],["lenne",-8.12484141878878],["ezzel",-8.130092644613017],["er",-8.131717677842609],["F",-8.133301485355238],["közel",-8.137210927616245],["sz",-8.140847922731272],["kellett",-8.147907866543617],["te",-8.15049743984558],["hazai",-8.155731066382666],["je",-8.158450768229958],["túl",-8.16137533671969],["szinte",-8.166390070964413],["22",-8.167484742458992],["közül",-8.16931574159875],["történt",-8.17146279768727],["egyre",-8.171758763324151],["jövő",-8.174484604223238],["voltak",-8.174735764063517],["újra",-8.18054011088985],["Nagy",-8.181716486728616],["őket",-8.184868678554004],["vezető",-8.189334210227814],["játék",-8.190472295442781],["néhány",-8.192879475030303],["szó",-8.197129986078412],["korábbi",-8.19808746169927],["fél",-8.201703750536637],["I",-8.208792439489393],["hónap",-8.210324979813006],["ár",-8.213971514691696],["ennek",-8.214910028955323],["nő",-8.214952093008794],["elmondta",-8.216417413062494],["ad",-8.2182205037569],["mal",-8.219525557063326],["kérdés",-8.228136084202148],["ére",-8.22951208142919],["következő",-8.230677949149433],["perc",-8.231531213857647],["város",-8.235501453063645],["bban",-8.237238532978715],["Ukrajna",-8.24121961498987],["öt",-8.249781127055247],["12",-8.251761497668157],["kapott",-8.256555951908126],["gy",-8.261505888767003],["gal",-8.262218612324595],["ött",-8.265142273138096],["belül",-8.2675930974118],["azok",-8.270056154017762],["jelenleg",-8.273051002204165],["Egyesül",-8.28286706756977],["infláció",-8.285570680993315],["további",-8.289746178892516],["miniszter",-8.290218931064775],["jelent",-8.294487289609895],["L",-8.297407456121634],["tavaly",-8.298011788554927],["utolsó",-8.29992467131644],["gel",-8.300120108488432],["ön",-8.308909964968429],["14",-8.311722930381258],["T",-8.315945258204337],["követőe",-8.31643694233816],["képest",-8.31678147712238],["tett",-8.317950602183373],["része",-8.32103316203617],["család",-8.321482960850469],["megfelelő",-8.328984924073715],["unió",-8.329055885829067],["ugyan",-8.334213302998863],["Mint",-8.33558630934197],["rendszer",-8.336170746184646],["lévő",-8.34503341299932],["él",-8.348088038803882],["13",-8.349525748035658],["euró",-8.349912548794915],["Magyarországon",-8.351117173514048],["25",-8.357116815805773],["Péter",-8.359269367918447],["D",-8.359654420934877],["mindenki",-8.363016911168625],["száma",-8.363721397989064],["hát",-8.364163864826178],["közös",-8.36449867514732],["sikerült",-8.368433224543441],["50",-8.371371855657936],["ás",-8.371993217846434],["kerül",-8.372127768187285],["bár",-8.37342788356888],["szükség",-8.374884032575002],["harmadik",-8.375419018727712],["Orbán",-8.375647005731814],["támogatás",-8.376397398589361],["helyi",-8.381714936656671],["kap",-8.383001002127411],["nemzetközi",-8.384539271406329],["jelentette",-8.38820399118093],["legyen",-8.388311621360328],["f",-8.390267742132291],["21",-8.394440723526513],["/",-8.395714400202607],["17",-8.3962098599177],["erre",-8.396253013312862],["éve",-8.397638046097237],["24",-8.398482028788424],["érdeké",-8.40133855717205],["11",-8.402717545685453],["magát",-8.418005214734666],["indig",-8.41955942189947],["vár",-8.421017408195269],["ebben",-8.42194383892616],["mel",-8.425016233886733],["később",-8.42541670867891],["közösségi",-8.427500990816299],["pár",-8.42996682980533],["miniszterelnök",-8.42997938795374],["tartott",-8.434648002353178],["érkezett",-8.440453506384129],["este",-8.441378839097062],["j",-8.447491353589566],["okkal",-8.449383042437166],["v",-8.456671221071572],["erős",-8.457502632776503],["hosszú",-8.459809914561612],["mikor",-8.460786450897773],["V",-8.462255482523746],["elleni",-8.462572360668961],["16",-8.463402148806482],["magas",-8.465953762131075],["Putyin",-8.470749699241306],["p",-8.475694363177308],["ismét",-8.47572978826755],["jár",-8.47582881027048],["sokkal",-8.476659291162278],["című",-8.47789199990207],["vállalat",-8.47901881134996],["inkáb",-8.481707754210088],["szintén",-8.482546575007614],["álló",-8.49139033035651],["védelmi",-8.49321568664562],["program",-8.49513079187204],["végül",-8.497145475059956],["miután",-8.49984089625687],["fogalmaz",-8.501786395031957],["ukrajnai",-8.509589392548094],["alá",-8.510846769830504],["keresztül",-8.513239587712034],["fiatal",-8.514240193013181],["oldalán",-8.523436535371033],["számos",-8.525882051720979],["pont",-8.530004880653202],["Ezek",-8.533949358396775],["rendőrség",-8.53434243321393],["TI",-8.535247681236992],["múlt",-8.53599430382598],["helyen",-8.536223236568842],["szeretné",-8.53698359336975],["sor",-8.537501355495092],["éppen",-8.538234433045037],["élet",-8.54086371408593],["Már",-8.54136710532443],["c",-8.545665979322038],["kis",-8.550418492456288],["mit",-8.550493875285236],["hol",-8.560498391739603],["oldal",-8.561887413153165],["végén",-8.562798657708225],["200",-8.564457867511639],["rel",-8.564688266067234],["dolgoz",-8.567361607109664],["választás",-8.567465024962917],["járvány",-8.573489348575624],["írja",-8.578920066238208],["katonai",-8.581062219357559],["gáz",-8.581319500526966],["írta",-8.58176661183212],["autó",-8.582524169592348],["legalább",-8.588226031337648],["komoly",-8.590522399747222],["út",-8.59055439571494],["politikai",-8.59235846545436],["elég",-8.593382124328354],["ügy",-8.59398919522004],["időszak",-8.594623589173468],["O",-8.596714045274322],["vált",-8.597938827402068],["előző",-8.603968059287055],["ezen",-8.604234887789337],["kívül",-8.609560767979723],["lag",-8.61110317817669],["szabad",-8.613356011239041],["EU",-8.614975217590182],["beszélt",-8.615204116541323],["Viktor",-8.615850503034293],["Budapest",-8.616039730394359],["koronavírus",-8.617044862582254],["elnöke",-8.619678694097212],["egyébkén",-8.62175867968945],["23",-8.62237763772888],["vasárnap",-8.623706536329252],["mennyi",-8.627846035510675],["40",-8.628359674166909],["jobb",-8.62872794660641],["Ezt",-8.629950147697798],["önkormányzat",-8.630787689304917],["nehéz",-8.630897888580193],["december",-8.635583436379953],["vezetője",-8.63584960813669],["ztán",-8.636291524121447],["baleset",-8.637518400999106],["szervezet",-8.637928527832202],["egymás",-8.638319900654132],["egyes",-8.638364724206467],["jön",-8.63877395763473],["német",-8.639957930741573],["megoldás",-8.640206600791535],["ából",-8.640257382015404],["állam",-8.640439280689005],["képes",-8.641990959645105],["László",-8.642221060769744],["tudja",-8.64418212409801],["ellenér",-8.649156274552684],["azon",-8.649692415179597],["utóbbi",-8.65596611332586],["tart",-8.657037629207798],["maguk",-8.659460438087951],["tíz",-8.660273286922447],["kevés",-8.661342151021543],["idei",-8.661969559345303],["november",-8.663752773256016],["óra",-8.665486498876088],["100",-8.667853036891248],["nőtt",-8.668184027783603],["mond",-8.668990206791573],["biztos",-8.66971394166056],["otthon",-8.671713580921763],["marad",-8.675169756066005],["ház",-8.675581500502464],["tudta",-8.677872013325253],["állt",-8.678171704910161],["bele",-8.681262637572292],["Bár",-8.682382110289025],["csökkent",-8.684425065038345],["órá",-8.686228429349761],["ugyanakkor",-8.687482455363565],["Államok",-8.687848579065637],["lehetőség",-8.688200508812066],["Nemzeti",-8.68864634738118],["megyei",-8.691571470093582],["élő",-8.69811440363134],["vette",-8.70131141075542],["történ",-8.702402046974237],["szükséges",-8.702582364894306],["víz",-8.703539808445203],["neki",-8.70488282733838],["elején",-8.706869713501963],["ket",-8.707617202690095],["dollár",-8.708034573757073],["szeptember",-8.710779410085737],["szankciók",-8.711201181917662],["pénteken",-8.711921251296028],["gazdaság",-8.713995276573693],["legjobb",-8.71429258293756],["ment",-8.71656920522992],["tunk",-8.718072655293778],["benne",-8.719853498232816],["Úgy",-8.721328299176413],["október",-8.723000049842533],["gyermek",-8.723235077830282],["fok",-8.724278384881321],["cél",-8.72476166461181],["szint",-8.727131616685876],["igen",-8.727212319998742],["energia",-8.73027269273733],["rendőrök",-8.730322842429024],["Most",-8.731067221035469],["zel",-8.733583318872338],["érdemes",-8.735102213593889],["köszönhető",-8.737077497628299],["kisebb",-8.737354012514201],["Enne",-8.737583549830717],["Meg",-8.740826294662673],["brit",-8.740853946553843],["végé",-8.743583542863536],["vele",-8.74381195691382],["hasonló",-8.744414388368572],["kapcsolatba",-8.745521200844433],["verseny",-8.745798998531107],["üzlet",-8.74682574549275],["akar",-8.747834680070238],["egyetlen",-8.749174781045493],["csoport",-8.749863329830866],["működ",-8.751254691495092],["piac",-8.753122293389376],["ők",-8.754622007971527],["délután",-8.756440032072536],["adatok",-8.756727498317499],["István",-8.757566127661894],["eseté",-8.757816331543152],["jon",-8.757906762019454],["miért",-8.759261479134928],["maga",-8.76031506209381],["annyi",-8.761979156499791],["csütörtökön",-8.762276698875826],["Több",-8.762504105086249],["készült",-8.76308007116122],["magá",-8.766783568545772],["Í",-8.76829370068948],["tel",-8.77125254199892],["jelen",-8.771674115230272],["teszi",-8.772513512374521],["módo",-8.774545253722277],["különböző",-8.783501242070944],["tűn",-8.784816227036234],["folyamatosa",-8.78527886026133],["alkalom",-8.785638614764439],["kevesebb",-8.787960580034433],["hatalmas",-8.790723799607228],["fejlesztés",-8.790883686002328],["esett",-8.800345198875204],["ismert",-8.800653035291333],["várható",-8.801399152999537],["készül",-8.80543713197228],["támadás",-8.805568081522832],["line",-8.806280694472978],["sokat",-8.807258841075427],["jelenlegi",-8.808661180425801],["napi",-8.810875230967998],["forinto",-8.811384004244234],["kapta",-8.811617428492141],["áról",-8.811637142898086],["súlyos",-8.812600220681457],["született",-8.812700988346432],["növekedés",-8.818623307410807],["szóló",-8.821779204244455],["pénz",-8.822057772238878],["állami",-8.825630238704882],["hétfőn",-8.82707583106933],["szám",-8.830434293722915],["helyett",-8.831348991534494],["U",-8.831915655347093],["jobba",-8.833624692804012],["piaci",-8.834308658483693],["ral",-8.834609946078317],["napon",-8.835032355753338],["á",-8.83827705226581],["látható",-8.838344757354378],["részé",-8.84199877890411],["vett",-8.842122192560002],["gyerekek",-8.844295281870053],["reggel",-8.844552749630825],["szerdán",-8.845250242927989],["országok",-8.849524711195032],["kább",-8.851149788114858],["ráadás",-8.851934773743585],["kapcsolat",-8.854003244332741],["“",-8.85692132838043],["film",-8.857453696995435],["érték",-8.85757090984637],["mai",-8.857718431316254],["legtöbb",-8.861135716545967],["indult",-8.86364773367876],["És",-8.866191565487764],["árak",-8.869444547615487],["N",-8.870793062737892],["előszö",-8.873672174720472],["ed",-8.8760259717544],["munka",-8.878011458717122],["se",-8.879948738123016],["figyelmet",-8.879989990230516],["körül",-8.880162972736919],["határ",-8.88331619128596],["né",-8.885317855730836],["összes",-8.887280381752902],["sorozat",-8.888362387183628],["od",-8.889262185459781],["cégek",-8.8898234544417],["kedden",-8.891620236657001],["jelenti",-8.895863318444258],["március",-8.895976896337352],["rövid",-8.896344355959858],["forintos",-8.898931094260414],["emelkedett",-8.898968909131366],["hivatalos",-8.90019357209132],["képviselő",-8.900636198988904],["ezelőtt",-8.904703393502235],["tudni",-8.90526958567197],["helyszín",-8.906219204109362],["tesz",-8.911718598729218],["esetén",-8.917641411268415],["magasabb",-8.921258065127677],["jött",-8.922208891434785],["kiderült",-8.922296609174612],["valaki",-8.926675024833937],["döntött",-8.92709262119173],["rossz",-8.92712462052776],["eszközök",-8.927693666665109],["szövetség",-8.931177630590781],["valószínű",-8.931808172916243],["parlament",-8.935338457397778],["Minden",-8.93605430893404],["valami",-8.937964545722902],["elérhető",-8.938347375651333],["mindent",-8.939456743385364],["áig",-8.94365037581957],["ették",-8.944296981582788],["minisztérium",-8.94443246466557],["egészségügyi",-8.946058356286349],["60",-8.947501735524641],["vonatkozó",-8.94784893903864],["május",-8.948210516685005],["régió",-8.950551077668345],["legfontosabb",-8.953568096221606],["kapcsolatos",-8.95451317626823],["u",-8.954919971984364],["27",-8.955559556515976],["addig",-8.957615758004252],["található",-8.95776615022967],["szombaton",-8.960657609624285],["azonnal",-8.960911648985004],["Bizottság",-8.961574319964985],["biztonsági",-8.963036199564261],["szolgáltatás",-8.9696817424926],["döntés",-8.970723900660039],["külön",-8.971194575239318],["február",-8.971373196613591],["hatóságok",-8.972329884965998],["oda",-8.973427629937039],["termékek",-8.974754382901663],["maradt",-8.975665851256565],["átlagos",-8.975823731906164],["válogatott",-8.97828235856938],["száz",-8.980477200274667],["hangsúlyozt",-8.982281819275997],["többször",-8.982571033210679],["augusztus",-8.983167508943058],["Egyetem",-8.984515339540945],["érintett",-8.987670161171426],["kapcs",-8.990199672376534],["lépés",-8.991359789893977],["orban",-8.991868116856814],["oroszok",-8.99296431024772],["erők",-8.993850361045958],["őt",-8.994210333169471],["személy",-8.995781061877356],["olaj",-8.997133685858287],["épület",-8.997989880696093],["csup",-8.999066883030634],["talán",-9.001580631317585],["életét",-9.004818604231373],["semmi",-9.005895264613363],["Zr",-9.006883255878737],["segítségé",-9.008314966285868],["köztü",-9.0093985837707],["közötti",-9.009746648876678],["El",-9.00983555628687],["lap",-9.010884869632605],["vesz",-9.011619473262067],["lakosság",-9.012270915614307],["Hozzátette",-9.013474212538474],["január",-9.013837368045262],["tartó",-9.013892384719224],["párt",-9.015031423235042],["het",-9.015357919545643],["szép",-9.017106144329563],["rengeteg",-9.02282139184911],["Bank",-9.02285788928706],["lenni",-9.022985352260612],["nevezett",-9.023198748838364],["sőt",-9.023350387534268],["kellene",-9.024423562668868],["senki",-9.024568051069938],["János",-9.025108291876741],["július",-9.026145890371527],["végre",-9.026447011770049],["pénzügyi",-9.026939508854749],["kutatás",-9.027728381927709],["lehetősége",-9.029092025398862],["jutott",-9.029486650128934],["NATO",-9.031882524264784],["kórházba",-9.031926313051926],["eh",-9.033287463678828],["azóta",-9.034170377307937],["számít",-9.037077382997973],["ához",-9.040626103373892],["adatai",-9.042344081432834],["kínai",-9.046129783608023],["80",-9.048713823464265],["végzett",-9.048725429457106],["%",-9.048870813637956],["II",-9.051483426648781],["soha",-9.054291047005405],["számolt",-9.054856676726313],["nemzeti",-9.057024135799702],["kezdte",-9.05927911430331],["Ferenc",-9.06123416208636],["ukat",-9.063209056417858],["Z",-9.0639356515753],["társaság",-9.065652430198108],["lány",-9.06601079657584],["hozott",-9.066080013972002],["NB",-9.068731085200572],["kicsi",-9.069514797835048],["kezdett",-9.070200774183737],["Unió",-9.071586378902655],["ját",-9.071782649195246],["francia",-9.072225846839789],["érkező",-9.072247198340257],["nyugati",-9.072849240631452],["adó",-9.074036462655087],["teljese",-9.075436669632726],["régi",-9.075793167204678],["külföldi",-9.077025989496251],["mutat",-9.0777009097995],["szakmai",-9.077802948612103],["április",-9.078030006453748],["igazá",-9.079529710961662],["sport",-9.079665135658088],["dal",-9.080486484574873],["használ",-9.081136491755165],["többek",-9.083821472153602],["román",-9.084140024206771],["gyerek",-9.087343104514517],["ság",-9.087607807465059],["országos",-9.090281500341337],["Két",-9.090449955931874],["közé",-9.092029462127147],["kkal",-9.09268925392703],["gyakra",-9.09424981428279],["június",-9.094809314394709],["politikus",-9.095914441586599],["ezút",-9.096272486921414],["hely",-9.096461132983103],["időben",-9.096743555122988],["Facebook",-9.096791928347471],["Ki",-9.09684435886913],["betegség",-9.09857630186118],["egykor",-9.098878488714885],["tudott",-9.100165865789286],["szerepe",-9.102173509122286],["tenni",-9.102263758510762],["Azt",-9.104261184370088],["mennyiség",-9.105773709420834],["ideje",-9.106445224311503],["nevű",-9.107374663933005],["hír",-9.107473920284201],["70",-9.107943541947314],["fogja",-9.110241785945894],["nyolc",-9.11058589838401],["26",-9.110632529366418],["szerzett",-9.110827062111252],["rendelkez",-9.11139505642994],["lát",-9.111603321850044],["rendkívül",-9.11200030003712],["független",-9.11292718705385],["tartoz",-9.113110968771705],["közlemény",-9.11467118401253],["zárt",-9.114994186601068],["pillanat",-9.115235349460544],["lépett",-9.115951787300425],["felelős",-9.116534569170309],["célja",-9.116960380546558],["budapesti",-9.118816301373377],["polgármester",-9.119689004262089],["tegnap",-9.12080766189937],["érkezik",-9.120833850855309],["vé",-9.12113415805181],["találta",-9.124258040622681],["havi",-9.124467249948138],["élete",-9.124628260460007],["elsős",-9.126721308034378],["személyes",-9.12737300082893],["összese",-9.128481698412493],["mégis",-9.131313192207616],["35",-9.131426589161558],["összeg",-9.132953083853977],["cím",-9.133411574143285],["haza",-9.133829661605098],["érte",-9.134115940169655],["eredmény",-9.135797044054481],["projekt",-9.136430003832446],["mostani",-9.137060554888667],["közlekedés",-9.137122429927711],["játékos",-9.137861278452721],["Ukrajná",-9.137956106672483],["szél",-9.138040410027461],["Még",-9.138062392055488],["nyi",-9.140237679392051],["szól",-9.140818997526885],["országban",-9.142986133115794],["soka",-9.143158687105302],["elé",-9.144070653240053],["idején",-9.144293730134779],["változás",-9.146544966669154],["al",-9.14665664733969],["persze",-9.147497845074874],["intézmény",-9.148210006806385],["vagyis",-9.148234441803943],["követő",-9.148352248159945],["abb",-9.151720723915833],["ing",-9.151802911905031],["tartj",-9.151995713590537],["gyors",-9.15423892258767],["forrás",-9.154702866145389],["folyamat",-9.156611493114063],["lakás",-9.15781906785356],["Zoltán",-9.15785458744587],["igaz",-9.158263421308687],["hatás",-9.158943572882503],["negyedév",-9.159050426931188],["szerepel",-9.159795352393363],["iránt",-9.166646652131332],["néz",-9.168330700691794],["termék",-9.168920040542185],["Európába",-9.168966310284652],["hu",-9.170507072368489],["tűz",-9.171018477987058],["többi",-9.174327397209025],["alap",-9.175339498648775],["bíróság",-9.177739430862676],["tér",-9.179315805593632],["eb",-9.181305756338167],["mindössze",-9.183440831302137],["biztonság",-9.184091964624493],["elektromos",-9.185874783636041],["tünk",-9.186478091945276],["lép",-9.187168438631794],["pontosa",-9.187444414941574],["részét",-9.189338431424822],["28",-9.18942193991658],["nyár",-9.189500501798884],["különöse",-9.190585880437972],["épp",-9.19225436351033],["egyéb",-9.192395604350482],["globális",-9.192883881628386],["jövőben",-9.19654474920529],["forgalom",-9.20109966103512],["írt",-9.202930100384357],["úton",-9.203214450677205],["bizottság",-9.203610760713833],["dél",-9.205128775089676],["X",-9.205721104993955],["hadsereg",-9.207417007791003],["létre",-9.212215752319624],["válság",-9.213043394779252],["siker",-9.213624243647724],["beszél",-9.214760769564016],["vették",-9.215543957173509],["üket",-9.217630887338961],["adat",-9.217894410145924],["hivatal",-9.219041039674376],["különleges",-9.219075386406669],["ség",-9.22194990629396],["indított",-9.222302376526462],["29",-9.224037936190541],["vizsgálat",-9.224386365179893],["Sándor",-9.225495476210552],["bé",-9.226711595827965],["Tamás",-9.227859533292278],["ér",-9.227864506889109],["alig",-9.228036725646433],["mögött",-9.228930600486889],["arány",-9.229138305959086],["venni",-9.23074542368447],["lengyel",-9.232381216951069],["digitális",-9.232936721096417],["okozta",-9.233010051227897],["közvetlen",-9.233043997205291],["tagja",-9.233746445911565],["eljárás",-9.23452367507543],["esemény",-9.235535170185027],["egyszer",-9.238124352815586],["rend",-9.23898412512251],["emelked",-9.239508134452954],["Országos",-9.240504502897746],["használt",-9.241911216715598],["tó",-9.242440946179581],["ővé",-9.245526888954668],["találkoz",-9.24555550226829],["bizonyos",-9.245756649558553],["feladat",-9.247050274876209],["31",-9.24757970422186],["terület",-9.249524484414538],["együttes",-9.251544182600655],["kép",-9.2516542833682],["családi",-9.254994364014674],["Attila",-9.255404199834025],["fiatalok",-9.255719896609119],["szerte",-9.256630087956793],["éről",-9.256736993177768],["tájékoztatás",-9.258548028369859],["hálózat",-9.258815762256502],["Le",-9.259496549114207],["beli",-9.261344988968482],["alakult",-9.261417486354443],["női",-9.26148733650908],["Eb",-9.262363244148373],["Gábor",-9.26302329000602],["beruházás",-9.264964436491244],["egyszerű",-9.265389587717152],["látj",-9.26650161993566],["adta",-9.267164169848265],["ipari",-9.267609533552509],["lehetet",-9.26868220595749],["keretébe",-9.268716965587975],["mutatj",-9.269326645563865],["gyorsa",-9.269359792855356],["várt",-9.270175315767542],["általán",-9.271300490869654],["hiány",-9.271408318974864],["szem",-9.271788181585883],["területen",-9.272672215847962],["90",-9.273772707789929],["eddigi",-9.274501590716046],["Kf",-9.276403893967679],["ekkor",-9.27654360072481],["melyek",-9.27742096119154],["héte",-9.278842323983882],["általános",-9.279287340345878],["továbbá",-9.279341813320617],["történet",-9.279587681449573],["közepé",-9.282995643776339],["tagjai",-9.283969060567582],["területén",-9.284558585896157],["főváros",-9.284823483334637],["műsor",-9.285174383457138],["vezetés",-9.286201378893596],["Fidesz",-9.290170958019857],["nappal",-9.290685944937696],["500",-9.291015346022274],["videó",-9.291455783618037],["magyarok",-9.293047214827313],["dolog",-9.294093926353316],["Ukrajnába",-9.2943188260612],["eredeti",-9.294379293037824],["beteg",-9.296664033589728],["heti",-9.296696503870955],[";",-9.298046233822246],["ente",-9.298121307936837],["legin",-9.29879978845484],["végig",-9.29995967812008],["közelébe",-9.300442409136924],["jog",-9.300652300486629],["körülmények",-9.30127796905385],["jegybank",-9.303372064353024],["mindkét",-9.306702912313996],["véget",-9.308082674562089],["anyag",-9.309079414848062],["hamarosan",-9.310099051167036],["indul",-9.311021094897292],["találkozó",-9.311655146338266],["változ",-9.313765758400187],["klub",-9.314217986361374],["várhatóa",-9.314855202646259],["mértékbe",-9.316887029845372],["W",-9.320021260779459],["látsz",-9.320033680725428],["külügyminiszter",-9.320499434738217],["alacsony",-9.320705260962459],["András",-9.32211546658903],["nagyjá",-9.32238879386065],["szakember",-9.32344985508092],["negyedik",-9.323570700966116],["források",-9.326097134040717],["járt",-9.326249313454085],["tartani",-9.326578772189261],["hőmérséklet",-9.327906750227399],["kezdődött",-9.329379622302076],["színész",-9.331005797084678],["díj",-9.331439534513953],["támogatást",-9.332737536873154],["belső",-9.33276731276669],["vállalatok",-9.335335523437825],["napok",-9.336332032758545],["ír",-9.337177882632993],["Hogy",-9.337802059138298],["járó",-9.33846416944752],["közösség",-9.338596007071306],["gyakorlati",-9.339061967415612],["talált",-9.340524596427395],["tervezett",-9.340781853154601],["problémák",-9.341136883618638],["átlag",-9.34123146330747],["sikeres",-9.34139375674862],["csapatok",-9.342339240970691],["együttműködés",-9.342790589544984],["törvény",-9.344415842131905],["tavalyi",-9.344707673193646],["tudju",-9.345083099658272],["kereslet",-9.346099284160466],["lyel",-9.346431932725373],["pontos",-9.347749771324601],["magam",-9.348699776033873],["vá",-9.349569793938205],["Csak",-9.351101448779595],["játszott",-9.35302183461105],["pénzt",-9.35318877380417],["adni",-9.354443588006609],["ebb",-9.355501802710895],["részben",-9.355801298621204],["döntő",-9.355896278196845],["tudjá",-9.357336760397295],["megjelent",-9.358471622409512],["Németország",-9.359218517700002],["Zelenszkij",-9.359290792793477],["labdarúgó",-9.360021453502227],["szív",-9.360287931353671],["igazi",-9.360419087737723],["nyert",-9.361804534792936],["magyarországi",-9.36415027696302],["véli",-9.364366333380623],["csökken",-9.365080609424187],["település",-9.366583566156232],["közölt",-9.366644319816304],["felett",-9.367655859204248],["kiemelte",-9.368116525153326],["ingatlan",-9.36813929824735],["közönség",-9.368525708810619],["szempont",-9.369051891428558],["férfit",-9.369505626908442],["nyal",-9.370361324837159],["hagy",-9.37502095455002],["képe",-9.375275016964643],["halálos",-9.37686877673477],["konfliktus",-9.378410343129987],["előbb",-9.380111017849789],["nevezte",-9.380165343650368],["természetese",-9.381561165627433],["termelés",-9.382290342498841],["friss",-9.383019291623874],["hagyományos",-9.385704382476455],["intézkedés",-9.386632870568357],["darab",-9.387541253781574],["ától",-9.388891749046188],["Észak",-9.389188171827062],["György",-9.389395664364741],["környezet",-9.389763532849482],["kiállítás",-9.390014052384188],["mondott",-9.391202331955835],["Szent",-9.39279786787619],["hosszabb",-9.393275900670666],["Van",-9.394193386496433],["kérte",-9.394936766650293],["tervek",-9.395900889032688],["Ezen",-9.39783718148228],["körülbelül",-9.399196559075488],["300",-9.400553419471823],["információk",-9.400769857891879],["zöld",-9.40143191149939],["dr",-9.401735684597902],["w",-9.402558403255059],["állítj",-9.403205641273143],["oltás",-9.406257382363304],["tervez",-9.406297214334042],["Vlagyimir",-9.406676745593039],["kkel",-9.407025832915956],["előadás",-9.407348618445287],["gondol",-9.407503228055809],["háborús",-9.409926677488912],["gól",-9.410868507824137],["szezon",-9.41339604335003],["erő",-9.414595390181908],["áram",-9.41790960736831],["fegyver",-9.418632680278293],["bajnokság",-9.41903780238523],["tűzoltók",-9.41913510748791],["ol",-9.419756174759083],["keleti",-9.420379993147115],["keres",-9.420830547083739],["napokba",-9.421692735509474],["kampány",-9.424063467230791],["vezet",-9.424572705240367],["támogatj",-9.424580611288558],["vége",-9.425481137065585],["derül",-9.426633323326335],["fizetni",-9.427886489910684],["mérkőzés",-9.428510453893246],["sajn",-9.429092862123714],["jellemző",-9.431122860332067],["hozta",-9.43143792678494],["Be",-9.432769957391784],["lal",-9.433125091223832],["töltött",-9.433434506546266],["Ugyanakkor",-9.434329384090159],["TV",-9.43559124715997],["Nagyo",-9.438020381410624],["munkát",-9.43815733451192],["endő",-9.43835103955739],["mások",-9.43850099771927],["látta",-9.439207805290163],["legmagasabb",-9.439543390766609],["cs",-9.439830940325926],["Itt",-9.439949463736536],["okoz",-9.441308456437124],["óriási",-9.442098490597722],["plusz",-9.442575214061694],["alapvető",-9.442673768042564],["megy",-9.443367097310707],["választ",-9.443535144095716],["időt",-9.443538745960065],["Bors",-9.444911232675988],["75",-9.445494439467687],["kereskedelmi",-9.447961934164123],["helyszíne",-9.448746116990765],["Sok",-9.451422911550093],["Gergely",-9.451866714186647],["biztosa",-9.45257037828592],["vállalkozások",-9.452751791143825],["fény",-9.45435863573225],["felnőtt",-9.454812391252842],["szenvedett",-9.456773713429733],["tartják",-9.457216835730183],["közép",-9.457229637314573],["szerinte",-9.459923821334172],["debreceni",-9.460249532743406],["lel",-9.46112179510176],["embert",-9.46148102197564],["nal",-9.462334300122567],["400",-9.462768328340603],["baj",-9.46354407396699],["us",-9.463810747898773],["alakul",-9.4648944827128],["kormányfő",-9.46523890207352],["szerda",-9.465843617988806],["jármű",-9.46693165944308],["előtti",-9.468241672775005],["elhunyt",-9.46886706072183],["Debrecen",-9.470303356827259],["Kína",-9.470521116182352],["Ugyan",-9.471150404167789],["Megyei",-9.4721358400263],["eredménye",-9.47292408895781],["rajta",-9.472948246262153],["próbál",-9.473316346109247],["kötött",-9.473784944730006],["szereplő",-9.47412007061608],["Zsolt",-9.475237318905485],["érzi",-9.475464900381624],["nevé",-9.475779036405445],["Kijev",-9.475967316389212],["oktatás",-9.477479136214544],["tam",-9.477729594281032],["tekint",-9.478821658112908],["adtak",-9.478956738586806],["199",-9.480039034234313],["élelmiszer",-9.481128059274717],["közösen",-9.481969125228566],["megállapodás",-9.48382920539379],["olasz",-9.48389531042394],["várja",-9.484050131581375],["munkájá",-9.484473133809175],["mondja",-9.48476122882434],["Emellet",-9.486099194460914],["ös",-9.490197010014102],["angol",-9.490326668027604],["nemrég",-9.49247301820678],["kötelező",-9.493007725640627],["segítség",-9.493311129539396],["bejelentés",-9.4934704522373],["József",-9.493904807187313],["sajtó",-9.49432956421796],["lehetséges",-9.494339289378397],["nyilvánosság",-9.495265056539036],["ál",-9.495778459204928],["igazgatója",-9.497717906132582],["…",-9.497955113165915],["eszköz",-9.49908248775077],["hivatkoz",-9.502289392802954],["könnye",-9.503395872956869],["ennyi",-9.50343364225434],["J",-9.504946085127294],["föld",-9.504956058009082],["családok",-9.506389906731595],["SZ",-9.506843447311116],["OT",-9.506932285522172],["nekik",-9.50764895575781],["intézkedések",-9.507774193341715],["térség",-9.51057835917684],["mire",-9.510587487228904],["The",-9.510723723523533],["legújabb",-9.512279080332187],["civil",-9.51275552574504],["vezetet",-9.513499437574838],["iskola",-9.51377595351815],["Mind",-9.514296268971796],["emelte",-9.515974628943148],["jában",-9.51612296184941],["lapunk",-9.51627811372879],["számíthat",-9.516595297946226],["kár",-9.516946967061834],["Én",-9.518316304336512],["annyir",-9.518821071257195],["olvasható",-9.518854227747994],["aktív",-9.519974410947562],["kíván",-9.520718148902235],["szerződés",-9.521457125392214],["hangulat",-9.523421207252653],["Covid",-9.523670656643041],["éhez",-9.524270296993922],["orvos",-9.525510260696851],["helyet",-9.527055597730751],["Szabó",-9.528642958272743],["válasz",-9.52870549423979],["segít",-9.529096235687257],["földgáz",-9.529910376973996],["bajnok",-9.530087220301873],["fa",-9.530106564977043],["segítsége",-9.530317126616882],["bal",-9.530982060250382],["baloldal",-9.531572479604275],["ször",-9.532514322752156],["ható",-9.532575845143139],["remek",-9.532816238925118],["Központ",-9.532828479712101],["győzelem",-9.533691703338262],["városban",-9.535036655383543],["of",-9.536812300698976],["élmény",-9.537624727138624],["állat",-9.5380402573978],["kért",-9.539404354823152],["onnan",-9.540809860370784],["dolgok",-9.542812030150836],["államtitkár",-9.543512239855744],["ivel",-9.543971208771026],["ránt",-9.544252224975345],["hetek",-9.544866011490448],["Ő",-9.54514483047183],["vendégek",-9.545705568055284],["emberi",-9.547449832396733],["működő",-9.547751432456707],["45",-9.548189104832579],["hasonlóan",-9.551167332778935],["megyébe",-9.552675607281296],["számol",-9.553183716784044],["Ráadás",-9.55390090754431],["dolgozott",-9.554413101350832],["téli",-9.556923304285615],["kérdések",-9.556998237675506],["jogi",-9.557664692473697],["áron",-9.557666302683614],["menekültek",-9.559183646865904],["gyártás",-9.560089608456678],["révé",-9.560617918372266],["mondani",-9.560776153737569],["katonák",-9.56146175495676],["utca",-9.562192516769482],["nyílt",-9.562286889126161],["34",-9.563785042629668],["'",-9.56417951077707],["fizet",-9.564435837124071],["tartana",-9.56459012758986],["szakemberek",-9.564719995258127],["jelezte",-9.564972585561758],["ink",-9.56585562659554],["jelentés",-9.566075668802728],["gép",-9.566196128910812],["amennyi",-9.566812345054561],["évi",-9.567458103268649],["hétvégén",-9.567557978736563],["rendezvény",-9.56818732126083],["hírek",-9.568544787147204],["bejelentette",-9.569530173220807],["okozott",-9.571583125422544],["talál",-9.572129381094921],["említett",-9.572560218554175],["szakasz",-9.573153505994444],["pályár",-9.57380246416273],["nyomá",-9.574780956153731],["Szövetség",-9.575258553889658],["szeretne",-9.576149931050793],["helyzetbe",-9.576725352998544],["000",-9.5772204659927],["hiába",-9.577561771139516],["látni",-9.577994505670755],["szolgálat",-9.578192417171444],["éből",-9.578194200586987],["arany",-9.578565129268497],["méter",-9.578807333670472],["állapot",-9.578969243264115],["időjárás",-9.580890760505508],["körüli",-9.583178849355363],["oknak",-9.583492528097505],["folyamatos",-9.584065464628127],["költségvetés",-9.584666984388999],["egyéni",-9.584777109769814],["ötödik",-9.585361897830136],["rész",-9.587482621868368],["32",-9.58829720032475],["eső",-9.588781881406526],["értéke",-9.588920623292577],["pályázat",-9.589442528428098],["alkalm",-9.590696199785299],["33",-9.5913113135327],["esti",-9.591855118243231],["nyári",-9.592536169622345],["kiderül",-9.592943173850125],["Jó",-9.593135006969506],["zajl",-9.593268132638354],["negatív",-9.595678899576633],["pozitív",-9.596101234484824],["38",-9.597251247773286],["Mol",-9.598698648097445],["magunk",-9.600558426934207],["Twitter",-9.601025711512301],["Varg",-9.601096844193464],["fajta",-9.602024562930861],["évtized",-9.6031652872631],["média",-9.603452884911706],["körébe",-9.604637430804818],["probléma",-9.606142176834629],["GDP",-9.60640401183115],["téren",-9.607080314106621],["következté",-9.607412851502318],["mellé",-9.608360814571178],["kínálat",-9.61000160843446],["felesége",-9.610590577270099],["per",-9.610650823687566],["foglalkoz",-9.61175100160998],["Zay",-9.611870038090382],["készített",-9.61411962603976],["kislány",-9.614205227804202],["helyzete",-9.61472954598826],["terv",-9.61641998239508],["vállalkozás",-9.616561851296375],["44",-9.618722159153403],["vezetői",-9.618942060904228],["utaz",-9.618971994313595],["jut",-9.619829646018808],["or",-9.62054477327711],["gyár",-9.621999322121368],["index",-9.623178409827249],["szülők",-9.623294933007807],["péntek",-9.626224919167786],["szal",-9.62679960389006],["Akkor",-9.627169077923567],["szabályok",-9.628016143262409],["Tóth",-9.628210046910322],["Sz",-9.628497256942204],["erősöd",-9.628836536514463],["szakértők",-9.629270472041608],["szüksége",-9.629551964199136],["nekem",-9.631359600126332],["közeli",-9.632542938416817],["kínál",-9.632580215524731],["fiú",-9.632793317910135],["hívta",-9.634280891434383],["többsége",-9.634571291897512],["ég",-9.635153211169612],["36",-9.636255516077895],["jé",-9.636342509973844],["egymást",-9.637089754412266],["jegyezte",-9.637390317658431],["szakértő",-9.637488542230166],["hagyta",-9.639376810939464],["Balázs",-9.639400800288511],["tökéletes",-9.639486544791486],["ellátás",-9.639720261919742],["fehér",-9.641648280365631],["fekete",-9.642155825390418],["tettek",-9.642921699763782],["tanár",-9.643468244649707],["anyagi",-9.645492302172851],["szállított",-9.64554044704073],["meccs",-9.646380544472398],["modell",-9.647046876128883],["délelőtt",-9.647109992439013],["technológiai",-9.647345963186684],["dolgozó",-9.648373018822468],["szervezetek",-9.649577778940147],["Debreceni",-9.649791804139982],["meghalt",-9.650261638124217],["Moszkva",-9.650486207876874],["man",-9.650906970181609],["kelet",-9.651185265966687],["nyitott",-9.651448476776011],["gyakorlat",-9.65305498042559],["déli",-9.653387579177299],["nyerte",-9.654253550425233],["akart",-9.654658104563104],["történelmi",-9.656146304945581],["nunk",-9.65625140998366],["akit",-9.657945746716393],["forgalma",-9.658529245463239],["bajnoki",-9.660890985834111],["bank",-9.663684347712977],["zott",-9.663737179448658],["természetes",-9.66411777642845],["nyel",-9.664672808740782],["tudom",-9.665784753791407],["akció",-9.66587405661156],["veszi",-9.666747504739302],["Tovább",-9.66686901427849],["tőle",-9.666902802910133],["ján",-9.667146838047373],["&",-9.667532026079746],["gyermekek",-9.668219190455133],["Tanács",-9.668838422827815],["ideig",-9.669390232768642],["nők",-9.669662201582987],["rendez",-9.66995314917302],["Szerinte",-9.670504010935403],["folytatód",-9.672002149013071],["li",-9.672260041114445],["Szijjártó",-9.673279152520866],["Fontos",-9.673279404533236],["jelölt",-9.673510901633035],["üzemanyag",-9.673719639779174],["Ami",-9.673932746521423],["Ám",-9.674499510559777],["megye",-9.67464710501391],["közt",-9.674909679684959],["akarta",-9.67494088621964],["segíti",-9.675812112679537],["felvétel",-9.676275517540157],["Nyugat",-9.677764022743462],["kétszer",-9.6784747659573],["szállítás",-9.678752965429386],["áldozat",-9.679243482848431],["lehetne",-9.67943605726898],["autók",-9.680987254724032],["mindez",-9.681342067883389],["felmérés",-9.681505526825601],["hitel",-9.681753821393052],["könnyű",-9.682108242088628],["Budapeste",-9.6838322728589],["lakossági",-9.685078017751682],["csatlakoz",-9.685414187231142],["immár",-9.68607339653322],["minke",-9.686100841569232],["portál",-9.686148163114776],["vádlott",-9.686244368311943],["szolgáltató",-9.68625643327179],["összege",-9.68660053421177],["választások",-9.686716374353328],["tanulmány",-9.68983485226547],["olimpia",-9.69032770233897],["énekesnő",-9.690580455963655],["országgyűlési",-9.691906753237078],["területek",-9.692369181980286],["ló",-9.69237239271276],["tárgyalások",-9.693917239667616],["csökkenés",-9.69475885552993],["Új",-9.695720006516687],["egyedül",-9.695960334892451],["üt",-9.696517996538269],["37",-9.696736688994706],["sajtótájékoztató",-9.696944541659578],["történtek",-9.697036408879146],["gyermeke",-9.697307539123868],["nyilatkoz",-9.697754440296613],["sokszor",-9.69843323575957],["érkezte",-9.69848976253855],["halad",-9.698701501342411],["asszony",-9.701383365179172],["szak",-9.701462176602336],["55",-9.702611579144527],["kifejezett",-9.702643606890947],["segíteni",-9.702745260674025],["vásárlás",-9.702902898649057],["időszakba",-9.703038156764876],["emiatt",-9.703113559569736],["tulajdonos",-9.703759755183171],["mutatott",-9.703882951776901],["Mindez",-9.704021750993322],["szeretnén",-9.705397180922045],["legutóbbi",-9.706868228980465],["pontot",-9.70863463060282],["fesztivál",-9.709301864623978],["könyv",-9.710149263637128],["pályán",-9.710742651421892],["ellenzéki",-9.711163953842634],["intézmények",-9.711260954700904],["48",-9.71371953593113],["látott",-9.714013138451993],["előzetes",-9.714462784664043],["kezdőd",-9.715392296613405],["természet",-9.715433780311937],["szik",-9.716396887016703],["kilométer",-9.716840598629801],["hang",-9.717160806480305],["állás",-9.717512189265856],["kommunikáció",-9.71759855669163],["kihívás",-9.717906381492956],["napján",-9.718071381339117],["adatokat",-9.718231280137939],["hírügynökség",-9.718366961832293],["fogyasztás",-9.718524946683928],["kilenc",-9.719480826912402],["gyártó",-9.719783956567335],["Ilyen",-9.720468080387722],["Biden",-9.72049658765365],["Nemzetközi",-9.720502295272187],["nyire",-9.720721171136734],["nyilatkozta",-9.720861552923983],["szabályozás",-9.722629940892265],["tényleg",-9.722713937037568],["kiemelt",-9.72287868548031],["eredmények",-9.723013194141455],["kormányzati",-9.725927274886544],["meleg",-9.726246436718947],["41",-9.726561599226354],["falu",-9.728943659324603],["külső",-9.72944258972415],["tartozó",-9.730352875153045],["különbség",-9.73042105802806],["népszerű",-9.730661960197725],["értékű",-9.730750283333482],["sors",-9.7313990042058],["vitt",-9.732421234247356],["fal",-9.732601362841232],["nyugat",-9.732770491580427],["rendelkező",-9.732831426075958],["nyújt",-9.732976169516332],["távo",-9.733214260159722],["jelentett",-9.733965461962175],["beszámolt",-9.73414216741299],["ny",-9.73526160087278],["húsz",-9.736527251174888],["kiváló",-9.736782515286688],["növek",-9.737504695750083],["energiaárak",-9.739475727049737],["államfő",-9.739665184658847],["mutató",-9.74054198515988],["fi",-9.740822814807927],["érezte",-9.741241832243421],["szünet",-9.741742518203576],["di",-9.74229088517745],["mindenképp",-9.74319976508481],["példa",-9.743966417682948],["Kovács",-9.744936612404155],["diákok",-9.745418978595522],["munká",-9.746644618126098],["bor",-9.7470532513086],["közzé",-9.747194891421366],["másfél",-9.748163187294182],["játékosok",-9.748400714671378],["utat",-9.750982162425586],["központ",-9.753123343025248],["adja",-9.753407137285521],["Instagram",-9.75469198090718],["éven",-9.754779962063449],["kar",-9.75534640315994],["nyugdíj",-9.756344638608066],["számú",-9.757160610241934],["hazánk",-9.757701911947924],["PC",-9.757910900828726],["szén",-9.758552660450533],["interjú",-9.759061211645745],["piaco",-9.759235984691227],["király",-9.760140091275073],["némi",-9.76062252862838],["esetleg",-9.760765479040291],["folytatás",-9.761311417185672],["oly",-9.762971367515405],["Erzsébet",-9.763701884206313],["felül",-9.763902129129061],["szektor",-9.76394920155938],["azonos",-9.764004626984164],["reggeli",-9.764099445460968],["származó",-9.764128919242083],["Fel",-9.765492927913636],["derült",-9.767286765098188],["sincs",-9.767827607387975],["események",-9.768129337171839],["felhasználók",-9.76818302737544],["választott",-9.768297338453912],["munkatársai",-9.768748918521268],["folyó",-9.769306522344367],["napja",-9.769572112202315],["félidő",-9.769972375010248],["Katalin",-9.770034179881758],["fej",-9.7700528856472],["felje",-9.771976886705332],["vonat",-9.773523338737373],["biztonságos",-9.773848089274551],["ersze",-9.774316598263738],["egyértelmű",-9.77454359248955],["öröm",-9.775277812786857],["egyetem",-9.775874722293961],["49",-9.775923949844163],["sérülés",-9.776222640692584],["alapú",-9.77720209737284],["részvények",-9.778327574610437],["nincsen",-9.778375595074136],["befektetés",-9.779055705754283],["kulturális",-9.779087594759563],["Erre",-9.779579336174614],["énekes",-9.780839664924095],["kapacitás",-9.781073440539327],["velük",-9.781256057598847],["hullám",-9.781682609008072],["rendőr",-9.781939892016627],["kijelentette",-9.782084707260175],["halt",-9.78215308824241],["véletlen",-9.782775478061343],["nettó",-9.783071274988922],["ellenzék",-9.78371455821895],["sérült",-9.78474155305359],["helyettes",-9.784793485046745],["szét",-9.785443840895633],["ingyenes",-9.785551112740837],["fordult",-9.785666790706973],["múlv",-9.786170163306505],["stratégiai",-9.787112280002681],["programok",-9.787307119044243],["tanács",-9.789035222789177],["Brüsszel",-9.789262977361297],["értelmé",-9.789277911032128],["állítólag",-9.789295010196717],["atlan",-9.789413328180956],["hamar",-9.790213241171566],["valójá",-9.791054233051952],["kizárólag",-9.79129485222983],["fotó",-9.791710067100656],["templom",-9.792377541508202],["Olyan",-9.793593550841429],["elől",-9.793789865997095],["vendég",-9.794152653488457],["56",-9.794315026718403],["egészséges",-9.794407775367974],["menni",-9.79522373121122],["Csaba",-9.795773752114894],["Budapesti",-9.796308232108341],["idők",-9.796392157833822],["hete",-9.796961616558853],["boldog",-9.798103089397722],["kemény",-9.799083527094883],["élelmiszerek",-9.799473242893693],["időre",-9.799967237334368],["téve",-9.800299859440734],["váli",-9.800646360878336],["vírus",-9.801615779487442],["napos",-9.802296183155494],["csomag",-9.802571799174649],["évet",-9.802699135661173],["kórház",-9.80287033166857],["jára",-9.80295500142216],["nélküli",-9.803802760325347],["kör",-9.805041267782846],["információ",-9.80663559399709],["ide",-9.807251868741332],["érdeklődők",-9.807413159696747],["élt",-9.80750144862085],["kezd",-9.807627878035436],["külföld",-9.807679386661212],["kettő",-9.80777875554873],["sofőr",-9.808340958650595],["Idé",-9.80901578916853],["itthon",-9.809295448244184],["költségek",-9.809583226305891],["fizikai",-9.809639310310803],["dollárt",-9.80995401243766],["hal",-9.810579581138636],["hív",-9.811140261248],["lehető",-9.811881578708894],["drágulás",-9.812569706251672],["eurót",-9.81288329488494],["hatóság",-9.813286710773529],["szombat",-9.813324458930662],["díja",-9.813917465425707],["igyeksz",-9.815498027045658],["nyomozás",-9.815678920051138],["Arra",-9.815970369952414],["600",-9.81616245369993],["mutatta",-9.816734877701105],["osztály",-9.816853095135352],["idős",-9.817241988801332],["szóvivőj",-9.81787839702985],["hajlandó",-9.81875607505507],["érvényes",-9.82059697432054],["Eh",-9.82060597985178],["életé",-9.822460415883738],["társadalmi",-9.822567174698932],["sztár",-9.822876203478284],["alacsonyabb",-9.822915207943556],["élni",-9.82306419354819],["forduló",-9.823088191666766],["hisz",-9.823343757799494],["amilyen",-9.82469255209387],["erdő",-9.825087314369805],["képzés",-9.825380469973533],["részén",-9.82573895435215],["USA",-9.826570020501812],["szerencsé",-9.826686861091588],["rendkívüli",-9.826751537443968],["széles",-9.82698954398691],["százaléká",-9.827210771176272],["induló",-9.828464538176647],["Jelenleg",-9.829044391883205],["szolgáltatások",-9.829386028507832],["ipar",-9.829822522800402],["der",-9.831401076893453],["ügyi",-9.831886829471568],["39",-9.832048208540009],["Anna",-9.832086445119357],["levegő",-9.832483232063513],["magán",-9.833493970061145],["társadalom",-9.83562807162853],["egésze",-9.835776878249046],["egyszerre",-9.83579884037787],["állandó",-9.835859641578832],["zajló",-9.836793949773934],["Lengyelország",-9.838345801315617],["veszélyes",-9.838891759888899],["forintr",-9.838996073704614],["dolgozók",-9.839531809018023],["politika",-9.839774870295173],["megjelen",-9.839961514950552],["területeke",-9.84143506074097],["bűncselekmény",-9.841620725040801],["lej",-9.84196096769974],["modern",-9.842289304338925],["belőle",-9.842448387228753],["megelőző",-9.842597274780761],["hirtelen",-9.842712241982127],["tehet",-9.843039378696142],["édesanyj",-9.843147503596702],["baloldali",-9.844745951984292],["65",-9.84503030728306],["ro",-9.845211753679674],["esetek",-9.845308327713774],["gyanúsított",-9.845431010643034],["dollárra",-9.845461683777433],["bizony",-9.847503708720037],["központi",-9.847511544632969],["zenekar",-9.848037340876804],["szólt",-9.84834479739716],["Tavaly",-9.849280311787705],["főkapitányság",-9.849328992268333],["típusú",-9.849606613098588],["ismeretlen",-9.849945307271193],["kamat",-9.85032782322488],["színésznő",-9.851095904667805],["hó",-9.854444423993705],["kezelés",-9.855489044956634],["körben",-9.855852408089795],["Tibor",-9.856206191110104],["menekült",-9.856509489816862],["híd",-9.856745503526067],["bíz",-9.85688942269556],["rezsicsökkentés",-9.85720654747146],["követ",-9.857296530508481],["akarja",-9.857956222473721],["semmit",-9.85858215886795],["fogyasztók",-9.858908274957283],["napot",-9.859100150135177],["igénybe",-9.85954668770467],["vér",-9.860705678018553],["von",-9.861140159733306],["beszélgetés",-9.862024164216471],["43",-9.862086540529035],["rendszerek",-9.862618165149657],["szoros",-9.862782878085081],["valóság",-9.863025636813546],["nukleáris",-9.863121078011932],["Miklós",-9.863121250365726],["oogle",-9.863148933825647],["rendelkezésre",-9.863621474759363],["ic",-9.863925740156446],["távú",-9.864435366855576],["órakor",-9.864683710917308],["mostan",-9.865668461198034],["csütörtök",-9.8659913223525],["hónapok",-9.866255757587476],["ügyfelek",-9.866528687078926],["í",-9.866570958049554],["részletek",-9.867634424203283],["elárulta",-9.867785524956297],["képviselői",-9.868860389975112],["kocsi",-9.869843181435932],["kéri",-9.8700651127686],["állított",-9.870682875651777],["elérni",-9.871298701056002],["fegyverek",-9.872813926051187],["nemzet",-9.87370455446297],["melyik",-9.873756152852883],["északi",-9.873764423791139],["helyre",-9.874447681012487],["irányul",-9.875169246420617],["Európá",-9.87567166053041],["Sajn",-9.877117113476459],["Ne",-9.87789424213744],["győztes",-9.878142790841718],["Természetes",-9.878604309330703],["közleményébe",-9.878644132634074],["folytat",-9.879675001615006],["illető",-9.88028838140849],["tartottak",-9.880470057263063],["hozni",-9.880623754574117],["Duna",-9.880715350344186],["védelme",-9.882232730895627],["alkalmas",-9.88223510544129],["Azon",-9.882435962504568],["dolgozni",-9.883735290548163],["No",-9.88400959951229],["láthat",-9.88415237738643],["meghatározó",-9.884323511386704],["kezdete",-9.885420653155816],["férfiak",-9.885619388489772],["rég",-9.885621938604533],["rendelet",-9.886681971896959],["export",-9.886965646707445],["küldött",-9.887157327785996],["béke",-9.887571458919913],["árfolyam",-9.88760493856915],["hajó",-9.887660702268832],["foly",-9.888088715517291],["területé",-9.88810730072332],["hatósági",-9.888791096037817],["írás",-9.889411475136825],["emelkedés",-9.890409379191114],["ná",-9.890874299310065],["Szeged",-9.891391475264726],["Blikk",-9.891393135562945],["féle",-9.891597313623109],["Ebbe",-9.891905011362285],["hétfő",-9.892372212119824],["írtá",-9.892968770402305],["áldozatok",-9.892975678503738],["szerezte",-9.89406335505759],["ágazat",-9.894081910736725],["apró",-9.894495663457679],["csapata",-9.894570086067064],["okra",-9.895252493804012],["szlovák",-9.897296540733665],["sose",-9.89737399481413],["En",-9.898516818297564],["Románia",-9.898828900255538],["felől",-9.899981935891276],["polgármestere",-9.900052240529796],["műszaki",-9.900299457529723],["testület",-9.900664407220823],["figyelembe",-9.901414430408032],["hozzátett",-9.901461136124915],["okon",-9.901579252053288],["biztosít",-9.901748507570918],["hö",-9.902553103933235],["játékok",-9.903130360094217],["városi",-9.904150608731385],["nyomás",-9.904189414450137],["bankok",-9.904366231581523],["betegek",-9.904579000821045],["jával",-9.904621808847773],["ügyészség",-9.905556581556965],["Gulyás",-9.905832027953323],["Krisztián",-9.905872362713323],["beruházások",-9.90673653567405],["idézte",-9.906919150527465],["Dél",-9.90704084832646],["unkat",-9.907042885177725],["érinti",-9.907756941459414],["reagált",-9.908051340970633],["Márk",-9.908257522724924],["esetleges",-9.908539419108287],["fővárosi",-9.908672816897376],["tengeri",-9.909583224219976],["amire",-9.910606873560537],["kerülhet",-9.910945921602407],["150",-9.91131667189305],["Dr",-9.911605611801264],["mesélte",-9.911837213595906],["számított",-9.912110530458524],["vezette",-9.912298435423097],["függ",-9.913169532361788],["támadások",-9.913535719059507],["rájuk",-9.914062094215508],["kisfiú",-9.91430764305051],["állította",-9.914704092124783],["ök",-9.914848032215744],["Franciaország",-9.915705290166521],["édesapj",-9.91615469810573],["busz",-9.917259416411323],["neheze",-9.918249924190995],["nép",-9.918293630094649],["Nyíregyház",-9.918876219176967],["esik",-9.919028467378084],["ov",-9.91912222659441],["tömeg",-9.91996061817099],["+",-9.920484226373052],["világbajnok",-9.921015066707767],["hideg",-9.922087081330023],["élők",-9.922598624256665],["kiemelkedő",-9.922605586876578],["sá",-9.923437604508958],["edző",-9.923784588923612],["nyújtott",-9.923829575787533],["tenger",-9.924548358951439],["cseh",-9.925757855170504],["fogadta",-9.926052572628823],["gond",-9.926650723905023],["tevékenység",-9.92710169619243],["mobil",-9.927880000316947],["Kreml",-9.927891738737959],["Volod",-9.927930566268216],["folytatott",-9.929949866290258],["csapadék",-9.930262290388361],["New",-9.930466073731061],["Vagy",-9.930966018367979],["működés",-9.932248808389664],["formába",-9.932598733230627],["fekvő",-9.93374903905979],["ukránok",-9.934631375819842],["fejtette",-9.935134663904766],["lassan",-9.935332200515521],["Isten",-9.935534844693908],["fizetés",-9.936517854692415],["import",-9.936994200438763],["vevő",-9.937245026520223],["rendezett",-9.937749840765912],["helyezett",-9.938327069900598],["park",-9.938466954535855],["nyilván",-9.938817960750924],["imir",-9.93882019572534],["szembe",-9.940790084791733],["emelt",-9.941954356769342],["kér",-9.942029960022975],["szolgál",-9.942479613492292],["aránya",-9.943083338340351],["használni",-9.943293310212685],["Győr",-9.943375658800818],["várjá",-9.944451795787899],["engedély",-9.945137912001712],["diák",-9.946043431572612],["benzin",-9.946277758932254],["győzelme",-9.946821964642204],["rendszert",-9.946897358805764],["atív",-9.946983140773733],["szerepelt",-9.946997260703402],["Királyság",-9.947046104947688],["számok",-9.947220603919584],["szülei",-9.948032013056785],["íg",-9.949257613766832],["vesztette",-9.949270017744485],["egyedi",-9.94931001541817],["nehezebb",-9.950310266465614],["csúcs",-9.95079413665232],["kezé",-9.951923368993086],["bármilyen",-9.952206128045713],["szívese",-9.95401851065564],["Rendőr",-9.954168863691628],["érzés",-9.95455337728194],["arc",-9.955839389312452],["orvosi",-9.955990231787615],["test",-9.956939867998042],["magyarázta",-9.957031335720778],["döntést",-9.957041222839546],["többség",-9.957138582288215],["Igaz",-9.95822577612305],["évtizedek",-9.958554473562714],["lehetőségek",-9.958659434307236],["bárki",-9.959205209957393],["kezdeményezés",-9.960002635885331],["programo",-9.960880120373487],["tárca",-9.961039657531915],["alatti",-9.961100877378877],["gólt",-9.962080316727434],["hajtott",-9.963095302220285],["vonatkoz",-9.964267454176504],["mezőgazdasági",-9.96463577161309],["halál",-9.964638591330171],["végezte",-9.96538052771078],["Első",-9.965787385582914],["Végül",-9.965844212084157],["veszély",-9.966259099413563],["köz",-9.967063794640215],["47",-9.96710849881523],["fordul",-9.967461262565031],["NSZ",-9.96746232890842],["árfolyama",-9.967947251246944],["aktuális",-9.968418342617422],["junk",-9.969026914268962],["katasztrófavédel",-9.970440692979661],["meglepő",-9.970581386454285],["hivatáso",-9.971191548949907],["stabil",-9.971263029106776],["internete",-9.971694648993626],["hónapja",-9.972560630336933],["szer",-9.973230673588482],["Lajos",-9.973526413855193],["Károly",-9.973552983453187],["szociális",-9.973644601579997],["negyed",-9.974040340524098],["terén",-9.974150377476512],["neve",-9.97420612928317],["kész",-9.975595044100267],["del",-9.975667232429668],["dolláros",-9.975842449720098],["fejezte",-9.976080421938315],["pal",-9.976084382514408],["fele",-9.97690257267633],["fegyveres",-9.977809527295392],["lelki",-9.97848535766461],["rekord",-9.979590162633045],["egység",-9.979841361168557],["rosszul",-9.979927806215532],["PlayStation",-9.981339208390553],["Mihály",-9.981339217326909],["elegendő",-9.981345107349934],["rendszerese",-9.981814096491867],["erősítette",-9.982078608945109],["fertőzés",-9.982927283018808],["őrizetbe",-9.98333215962839],["tábor",-9.983811156149464],["hány",-9.983827545703916],["utcai",-9.984057714027443],["keret",-9.984509582852036],["kockázat",-9.985912099553445],["Balaton",-9.986332154944668],["Egyesület",-9.986864817635674],["Kiss",-9.98857139668296],["utal",-9.988630417328931],["eurós",-9.98874405230508],["felső",-9.988753345654535],["észak",-9.989302919597236],["érintő",-9.989552866475663],["számukra",-9.989854786246497],["napra",-9.99098346849079],["meglepetés",-9.991905256342992],["Er",-9.992549462649997],["42",-9.993123974349995],["ilyenkor",-9.993354585696459],["vizsgálj",-9.994207246983375],["javaslat",-9.99458990533934],["járművek",-9.9950358217619],["vb",-9.996558245544637],["védelmé",-9.997063677990447],["Ádám",-9.99720275488562],["feletti",-9.99728348223991],["szempontjá",-9.997359487085294],["x",-9.997363305839349],["kutató",-9.999432415265316],["bázis",-9.99947791318668],["jét",-10.000217337612867],["Ukrajnát",-10.000428107413262],["szervezők",-10.002146403530912],["órás",-10.002199521974129],["honlapján",-10.003295366319822],["nünk",-10.003636751628163],["generáció",-10.003685722172271],["kaphat",-10.00388704720724],["nézni",-10.004018439774189],["tagállamok",-10.004282446802973],["Xbox",-10.00516052198801],["vehet",-10.005174048204843],["mozgás",-10.005279648880922],["brüsszeli",-10.0053490137455],["Apple",-10.00544845193572],["beszélni",-10.007511627843385],["kezdve",-10.00767088177815],["miként",-10.007678500176858],["címe",-10.007759793226798],["megerősített",-10.007943716155525],["Össze",-10.008917408723399],["csinál",-10.009148982495052],["életbe",-10.009177421964353],["ette",-10.00946809616595],["problémát",-10.009517762259357],["veszteség",-10.010202328951546],["kapcsolatot",-10.01058731202819],["létez",-10.011011766484929],["örök",-10.011026956042528],["koncert",-10.011741885706986],["valamit",-10.011782197158812],["kert",-10.012600993095713],["jöhet",-10.012686414602769],["kénytelen",-10.013214379406765],["omikron",-10.013217563580653],["ezre",-10.013401005945685],["kapcsolódó",-10.013646685220493],["vasút",-10.014083667974745],["életük",-10.014357361624036],["kialakult",-10.014370905918664],["férje",-10.014670763765796],["felek",-10.015793872738811],["alkalmazás",-10.01643487503274],["versenyző",-10.01659672227294],["világo",-10.017268906527327],["mindenkit",-10.018366100002654],["800",-10.018512740455002],["szeret",-10.019021354142133],["orvosok",-10.019244800858212],["fűtés",-10.019349446618598],["szerette",-10.019551322537868],["invázió",-10.020596130462826],["Miskolc",-10.021129334026845],["illegális",-10.021345497530112],["köbméter",-10.02144634759965],["mérkőzésen",-10.022401925627186],["szervez",-10.022551670444482],["Pál",-10.023718635777563],["kutatók",-10.024589390372341],["országi",-10.024644503374555],["figyelmeztet",-10.025078218730915],["osztott",-10.025135640079679],["folytatj",-10.025287125051157],["tervezi",-10.025298555014484],["ális",-10.025522413226357],["pénteki",-10.026293658661942],["rakéta",-10.026442300832013],["tekintett",-10.0276773450753],["Három",-10.029495573580867],["svájci",-10.029541050869263],["japán",-10.029546832840225],["köztársaság",-10.029678416756674],["FC",-10.029681001031637],["Korábban",-10.029698214438433],["kapcsolatok",-10.029729338131098],["csoda",-10.029800894897726],["karácsony",-10.03005547347599],["Volt",-10.030893218613716],["ünnepi",-10.031891472977744],["valamennyi",-10.032038498111238],["családja",-10.03224543005599],["ismer",-10.032654072401982],["észre",-10.032942743746382],["vonta",-10.034388495232339],["korosztály",-10.036191251795598],["közelmúlt",-10.037290944430193],["piros",-10.037846764427957],["Szabolcs",-10.037849367819959],["halála",-10.038291765483145],["szerű",-10.038497643171175],["co",-10.03870763617122],["ter",-10.039474760700022],["váltás",-10.039507210991054],["találni",-10.041564483127175],["120",-10.041902060733836],["költség",-10.042856970601008],["tonna",-10.042870497868996],["miskolci",-10.042950338680981],["támogató",-10.043353012170167],["művész",-10.043395371933933],["sikerül",-10.043794681523519],["Intézet",-10.044261920338844],["irány",-10.04597166139373],["brut",-10.046002337112274],["lépni",-10.046153690191575],["mesterséges",-10.046346626036279],["57",-10.04714844517359],["kezdet",-10.047184405063325],["átmeneti",-10.047723213170372],["technológia",-10.047905511375976],["polgár",-10.048598560952485],["műsorvezető",-10.049008137813559],["fejé",-10.049584701561153],["királynő",-10.050450800632866],["utas",-10.050664727489202],["intenzív",-10.051815235108428],["levél",-10.052827292470848],["2016",-10.05318226850757],["távol",-10.05384743014848],["Imre",-10.054610928902047],["alól",-10.054738254144304],["amik",-10.055754035013244],["zár",-10.056193521864031],["Ped",-10.05627602400614],["védekezés",-10.056452384164057],["egyértelműe",-10.056464647976865],["jel",-10.057307044422151],["vő",-10.058275864559192],["ába",-10.059180464943392],["érdeklődés",-10.059692538283723],["58",-10.060161202689592],["alaposa",-10.060427851904894],["küld",-10.060928402805835],["állatok",-10.06122100969769],["elnöki",-10.062969438117392],["’",-10.06301678456376],["Alapítvány",-10.06302350445501],["viszonylag",-10.063176407878505],["ideiglenes",-10.063383225387351],["46",-10.063488404311183],["számítani",-10.063687320542302],["igazgató",-10.064075396548699],["Re",-10.065539693419078],["érze",-10.065749947504614],["67",-10.066761410910889],["éjszaka",-10.067081650397023],["küzd",-10.068254749255793],["akkori",-10.06836002819739],["függő",-10.068712332086742],["megoldások",-10.06889247747708],["barát",-10.069515361191938],["son",-10.069539455235324],["fertőzöttek",-10.069969267880419],["Elő",-10.070107638713669],["energiát",-10.070287906322307],["pedagógusok",-10.070452800787276],["tragédi",-10.070469905961087],["váratlan",-10.072371135522015],["energetikai",-10.073129059933951],["enged",-10.07328087912466],["idegen",-10.07389733046546],["mentes",-10.07443121747152],["változások",-10.074485760618344],["Ukrajnából",-10.075023020953772],["ch",-10.075145385946326],["felhasználás",-10.075246051364061],["hazaiak",-10.075495641819213],["karácsonyi",-10.07564528397673],["Benc",-10.077880276264121],["értek",-10.078565647752288],["anya",-10.078844958276395],["ellenőrzés",-10.079399647011519],["Gyurcsány",-10.080184482819698],["speciális",-10.080668563575866],["hajnal",-10.080838361353981],["határidő",-10.080929474086037],["képviselője",-10.081100600761104],["többe",-10.081682763065505],["hátra",-10.081794928293835],["zene",-10.081805899312892],["tárgyalás",-10.082053012116614],["vezetők",-10.082161304310535],["árát",-10.08244281188538],["tájékoztat",-10.08303477711475],["vitte",-10.083570726356218],["milliárdos",-10.083572050618843],["85",-10.083749580389952],["szóvivő",-10.084025758577944],["környékén",-10.085193962086837],["kedves",-10.085640029743539],["sszel",-10.086321268281761],["vásárlók",-10.087303652294754],["tartós",-10.088801761641058],["Péntek",-10.088883325407433],["találat",-10.088900214522635],["zni",-10.089105150322911],["követi",-10.089881701508041],["oktatási",-10.090977611290409],["végez",-10.09119650607681],["tűnt",-10.091832852911462],["hatodik",-10.092097373191194],["formájá",-10.093761687789375],["séget",-10.09400813055358],["fejlődés",-10.094358373041509],["tánc",-10.094990501576302],["ítélet",-10.095798636542874],["Hivatal",-10.095968955163332],["tag",-10.096163702738611],["tartózkod",-10.09656630920892],["termelő",-10.097235055724862],["já",-10.097480978528957],["59",-10.097578076193198],["tem",-10.097617750204892],["okozhat",-10.097977795751042],["um",-10.098147409352165],["valódi",-10.098538355126658],["álltak",-10.098798164059378],["fölé",-10.098916011817938],["írják",-10.099320072106647],["gondolta",-10.100595589003824],["néven",-10.101877131219585],["mekkor",-10.10377644255802],["vállal",-10.103940873547288],["vidéki",-10.103983322598317],["rendszeres",-10.104837361493303],["láb",-10.104937330146864],["spanyol",-10.10500771895763],["jogszabály",-10.105247316507743],["nevez",-10.105520981961853],["bíró",-10.105613603951458],["endőrkapitányság",-10.105936592674228],["mély",-10.10615323985105],["gyönyörű",-10.10650673028104],["rögtön",-10.106562719521158],["játékot",-10.10704252903718],["beszédé",-10.10708420757199],["telefon",-10.107723003312529],["holland",-10.107908518116666],["fejlesztések",-10.108316516483573],["nőt",-10.108674879400478],["órák",-10.1097093630128],["mód",-10.110039114792361],["résztvevők",-10.110074245348986],["támogat",-10.110629153915603],["harc",-10.11090157620097],["gyanúj",-10.111326056787885],["néha",-10.111443156329685],["Y",-10.11166531663173],["önkéntes",-10.111721533369362],["ezeke",-10.112128578577494],["Kis",-10.11306336477502],["őszi",-10.11340386870119],["Hajdú",-10.114637120320255],["Gyula",-10.115391496323227],["vég",-10.1154188500235],["otthonába",-10.115966317718534],["módszer",-10.116296700265046],["vagyon",-10.118288594746378],["közzétett",-10.118575979166621],["mértékű",-10.119518047310404],["közút",-10.11971540585322],["epsiszentgyörgyi",-10.120072891338713],["csütörtöki",-10.120388379171317],["Szombat",-10.121516797621988],["Más",-10.121587796474426],["feladatok",-10.121810109758623],["legutóbb",-10.121847976441419],["idény",-10.121962745385439],["története",-10.122056401542256],["szervezett",-10.122611497605035],["kereskedelem",-10.124149437792632],["elképesztő",-10.124439202990114],["Ekkor",-10.124499017577179],["biztosítani",-10.124563073428286],["szerelem",-10.124760390770717],["kőolaj",-10.124835400374295],["liter",-10.125366508119956],["tudományos",-10.12587969206962],["mezőny",-10.126594746013645],["250",-10.126842754343606],["azonnali",-10.127005922662565],["ánál",-10.12724368694693],["66",-10.127479927204881],["állapotba",-10.127752861141442],["eit",-10.127893108557096],["sé",-10.128465253382672],["török",-10.128804902731446],["ellátási",-10.128979454111384],["szabadság",-10.129067193176198],["értékesítés",-10.129191388384704],["munkálatok",-10.12944736352432],["beszélget",-10.129936644040857],["képviselők",-10.130184034644538],["emlékeztetet",-10.13149241332329],["segítő",-10.132153485111228],["eljárást",-10.133477213545145],["településen",-10.13376505501714],["poszt",-10.134301601287413],["nyelv",-10.134854513439096],["szándék",-10.13577286763267],["késő",-10.136478466894129],["próbálta",-10.136879085138677],["Miskolci",-10.137274414184562],["fia",-10.138702936942368],["katona",-10.13904866316862],["cikk",-10.139306047305222],["említette",-10.139617427220774],["jünk",-10.139798624745742],["ült",-10.139999971580156],["zajlott",-10.14024569220225],["ce",-10.140624954740906],["telefono",-10.140933276628633],["zárta",-10.141346249030626],["hető",-10.14138881333293],["jellegű",-10.14270476296802],["Máté",-10.142726406203472],["segíthet",-10.142806301587092],["hiányz",-10.142847646075829],["érdekes",-10.142919914896165],["író",-10.143427800903446],["nézők",-10.143559895421971],["egyszerűe",-10.144516496335196],["51",-10.146864725856242],["világbajnokság",-10.148433366049346],["helyez",-10.149012539048691],["hasznos",-10.149035964468165],["hová",-10.149466738251286],["folyamán",-10.150283258660522],["Ház",-10.150331314872355],["irányába",-10.150450774639236],["kategóriába",-10.15051346658013],["lakos",-10.150659567690052],["vezérigazgatój",-10.150724927913064],["szánt",-10.151718139085638],["édesanya",-10.15197520919187],["utak",-10.153818443109966],["zenei",-10.155054272148076],["igény",-10.155141109852105],["mérték",-10.155542941167557],["lakások",-10.155574650118982],["Borsod",-10.155821453840627],["tudás",-10.15647785500547],["bér",-10.156991259876742],["valós",-10.15778167173215],["állomány",-10.157935561750037],["könnyebb",-10.158446617195157],["úr",-10.158734572661245],["Amennyi",-10.15901376287056],["előtte",-10.159245701347212],["maradhat",-10.159250388947775],["mérkőzést",-10.159649626865537],["ünnep",-10.15994697178549],["teszt",-10.161302829389648],["Márton",-10.161603702078187],["pandémi",-10.162922226511085],["ci",-10.16343899595784],["vereség",-10.16353139994298],["harcok",-10.163849579174384],["osztrák",-10.163894755057884],["hatása",-10.163951526206608],["pedagógus",-10.164192132829605],["zon",-10.164350737759786],["Sport",-10.164836536918934],["52",-10.16491181946044],["2000",-10.166511465711778],["elkövetet",-10.166707655831878],["páros",-10.1674119265485],["voltunk",-10.168226803101565],["profit",-10.16932314432443],["68",-10.169483498942157],["anyagok",-10.16968106269956],["fős",-10.16969109127593],["figyel",-10.169754382580177],["tele",-10.169887327078946],["messze",-10.170611778163796],["harminc",-10.170674867737738],["befektetők",-10.170750457024255],["klasszikus",-10.170986443264269],["konkrét",-10.171511573050102],["ása",-10.171528245336562],["fogyasztói",-10.171563014974947],["szerződést",-10.171621558828193],["személyi",-10.17227992309194],["54",-10.173467895144004],["felkészülés",-10.173674073273386],["Co",-10.17393432365461],["tető",-10.174493712869857],["teljesítmény",-10.175613407223759],["lőtt",-10.175681273432009],["villamos",-10.176388908823903],["esélye",-10.17679594372495],["pálya",-10.17685752859494],["szállító",-10.17744804357761],["Elmondta",-10.177707964968992],["őr",-10.17795179526103],["bejelentett",-10.178027291821042],["finanszírozás",-10.17810102904961],["összecsapás",-10.178851636343106],["városok",-10.179039935588804],["közelebb",-10.180145827748522],["Microsoft",-10.18026815284236],["sebesség",-10.181429608560652],["jelentése",-10.181741339933414],["külügy",-10.182071658424471],["sértett",-10.182168164756838],["energiaválság",-10.182450878571604],["áremelkedés",-10.182968681530493],["ruhá",-10.183222078024539],["kéz",-10.18340602729771],["százalékuk",-10.1834137910249],["mer",-10.183843643578818],["kísérlet",-10.183938498964373],["témá",-10.184534215123854],["légi",-10.184806675963944],["illeti",-10.185657972592434],["vita",-10.186051974736824],["egységes",-10.186849736752784],["tervei",-10.186897539044633],["kihívások",-10.186958089474107],["tartotta",-10.187101239897183],["várni",-10.187643863593493],["bemutató",-10.188804836109817],["tünetek",-10.188939717477629],["éjjel",-10.18992466274987],["üzem",-10.190675007065469],["jelez",-10.19136840097972],["viszony",-10.191471956045724],["folytatta",-10.191485393563742],["nálunk",-10.192967954020457],["ellenfél",-10.194337675879346],["világháború",-10.195368342018622],["részletes",-10.196137791543633],["biztosított",-10.196312233876792],["szombati",-10.196799227766107],["hatásár",-10.197659442464563],["53",-10.199079178238765],["méretű",-10.19988767707851],["utazás",-10.200003438489393],["the",-10.200167310217234],["vendége",-10.200334402736045],["növekedése",-10.200373050121737],["Éppen",-10.200536097360722],["évad",-10.20096441549915],["dönt",-10.201882549411181],["jutottak",-10.201886537606049],["számát",-10.202070098312463],["kiadás",-10.202409375447246],["Talá",-10.202515505008304],["társ",-10.20271886004903],["fontosabb",-10.202748140797095],["Nincs",-10.203733008884726],["részvétel",-10.204601264787378],["cel",-10.204697428427572],["védő",-10.204929773027214],["mentők",-10.205322639722766],["növekedést",-10.207250959994141],["ságot",-10.207308370987448],["herceg",-10.207887609095549],["mentő",-10.208064795010483],["méteres",-10.208838644877712],["kedvező",-10.20922125492661],["szín",-10.209538661235202],["ülésén",-10.210423890885693],["95",-10.211721619239967],["gárda",-10.212417208605892],["erőszak",-10.213064759968905],["akad",-10.214277012426082],["személyek",-10.214549092994215],["állampolgár",-10.216370655452213],["700",-10.216532122475655],["közleménye",-10.217532031781218],["izgalmas",-10.218284279803926],["típus",-10.218550513533279],["biztosító",-10.218713774557337],["kapu",-10.21883496532379],["alapítvány",-10.219296283342452],["hivatalosa",-10.21931369733452],["okok",-10.219315726203071],["korrupció",-10.219325247478523],["különféle",-10.219754076886586],["legfrisse",-10.220008956434151],["egészség",-10.220098607688147],["civilek",-10.221397810413244],["szankciós",-10.221693938017863],["emelkedése",-10.22170807964218],["zás",-10.221754916181979],["védelem",-10.221825616966864],["62",-10.222231254436858],["költségvetési",-10.22275175004876],["iskolába",-10.224308332642677],["kedd",-10.224561799974866],["tartalmaz",-10.225448923112706],["szavai",-10.225730565018155],["tényező",-10.227159139510896],["ismeri",-10.227263405779185],["önálló",-10.22726710654001],["Ön",-10.227500462651145],["ől",-10.228835594428542],["Parlament",-10.22929628467357],["Néhány",-10.229298601377229],["végső",-10.229304886813093],["diplomácia",-10.229306128753471],["Szolgálat",-10.229321722764325],["legnépszerűbb",-10.2294810562958],["Színház",-10.229609510869881],["szokásos",-10.229819307279326],["Újabb",-10.229820338049056],["lak",-10.230037570885898],["vize",-10.230142448828069],["!”",-10.23014875233051],["egyebek",-10.230262841160817],["állhat",-10.230525573341502],["utcában",-10.231442403001534],["technikai",-10.231482461477583],["partner",-10.231767165967199],["csoportok",-10.232525991981454],["papír",-10.233084638472185],["lányok",-10.233496103497796],["Központi",-10.23350093384105],["Szerencsé",-10.234994315437362],["ij",-10.237018811221548],["követte",-10.237762141868991],["Ső",-10.238162290208946],["Később",-10.239449644568962],["Eddig",-10.239539570422934],["bármi",-10.239623338737058],["jelzi",-10.239677471594618],["következik",-10.23974873145869],["húzta",-10.239817334488727],["kivétel",-10.241098539645087],["FT",-10.242575316703494],["bevétel",-10.243045340745017],["mutatkoz",-10.243462963216997],["por",-10.244249097691121],["világos",-10.244491382976989],["várakozás",-10.244733276973864],["Magyarországr",-10.245197897475567],["tor",-10.245481213565647],["eredményt",-10.24613897082656],["szenved",-10.246418435820665],["tájékoztatta",-10.246608754768973],["bír",-10.247451338266181],["családjá",-10.247465510746654],["szigorú",-10.247765779353278],["építés",-10.248004719716818],["labdá",-10.248742080588027],["hónapokba",-10.248799086154941],["étel",-10.248989770411209],["híres",-10.249257974479836],["Dávid",-10.249601379945396],["Kossuth",-10.249601713429428],["Zemplén",-10.249610317568369],["vélhető",-10.249616157741869],["jelentkezett",-10.249685942464279],["Erdély",-10.250064152319435],["MV",-10.251635459227476],["munkaerő",-10.251829266482645],["gazdag",-10.252635986767459],["ponton",-10.25264690755845],["bizonyult",-10.252858411846972],["Mert",-10.253036168095448],["biztonságá",-10.25304018155814],["gondolja",-10.253174379002894],["tekinteté",-10.25417282049677],["térségébe",-10.254256316027558],["fokozatosa",-10.254297453932665],["színház",-10.254688008182773],["produkció",-10.254785315850228],["DK",-10.255768742350751],["vállalkozó",-10.256207134496712],["jelek",-10.257053501183451],["York",-10.257486491023592],["SE",-10.257813784424272],["egységek",-10.257907227633577],["Soka",-10.258105606351146],["próbált",-10.259363416835054],["Karácsony",-10.259919438307683],["Fekete",-10.259950529568302],["szabály",-10.260051999023473],["mértéke",-10.260523564129242],["forgalmi",-10.260969585130704],["táv",-10.26113692319154],["ól",-10.261358546413906],["párhuzamos",-10.262640232129222],["maradtak",-10.263390903926682],["vi",-10.263876694187744],["intézet",-10.263949717816391],["fürdő",-10.264542581725808],["rajongók",-10.264772991193393],["megváltoz",-10.26564262181963],["ók",-10.26574051002878],["száj",-10.266038724414003],["sziget",-10.26641911108128],["ugrott",-10.266833137550908],["irányba",-10.266885708301224],["hatékony",-10.268408938703104],["viszonyít",-10.269858198113745],["szeretet",-10.269975977929919],["ézve",-10.270217458994846],["szóba",-10.270222354923987],["Trump",-10.270327818737657],["migráció",-10.270328728603277],["szexuális",-10.270515157773263],["uralkodó",-10.270595430487138],["Musk",-10.270735620791495],["gépek",-10.271261825237879],["foglalkozó",-10.272092533557144],["kritikus",-10.273309867207178],["vágy",-10.27409129106443],["emlék",-10.275024099838312],["igyekez",-10.275038018925482],["üres",-10.275539613018694],["tuk",-10.276000370653321],["korlátozás",-10.27618168863144],["másodperc",-10.276385185225966],["stílus",-10.276709772028035],["vásárolni",-10.277785236353266],["támadó",-10.278229164487271],["szülő",-10.279041623400712],["hetett",-10.279338760864718],["képese",-10.279613494482717],["repülőgép",-10.280379682809903],["bennünk",-10.280414025306788],["RT",-10.2804198174221],["bőve",-10.280569301756422],["elérte",-10.280699711135362],["Év",-10.280826544026059],["innováció",-10.28085375216463],["Horváth",-10.280886312107953],["tény",-10.28121598544692],["lenné",-10.281740167611815],["állni",-10.281860230195111],["platform",-10.28188690762418],["horvát",-10.282041988165934],["mester",-10.282335322151937],["kül",-10.282607397699282],["Föld",-10.282709434151277],["lángok",-10.282882945971238],["hiba",-10.28308631905385],["véve",-10.28375984515139],["Joe",-10.284064094437195],["feltételek",-10.284118612125603],["Kiemelte",-10.284173818840452],["újságíró",-10.284276599616362],["rendező",-10.284404180592748],["tör",-10.28541175848855],["Sepsiszentgyörgy",-10.286008727368298],["gé",-10.286795394646186],["Na",-10.286947397561095],["kerület",-10.287228909505451],["IT",-10.287666145463838],["sportoló",-10.287775885858697],["visszatér",-10.288286597737237],["ajánlott",-10.288782004737374],["nehézségek",-10.28893782707624],["etlen",-10.28936365665836],["felel",-10.28949109055382],["KB",-10.289509156823224],["pártok",-10.289871586036764],["jelentene",-10.290077327701372],["erejé",-10.290531686156324],["Ők",-10.29057590152792],["Közép",-10.291062374726824],["hulladék",-10.291068401116075],["szavazás",-10.291496532601279],["pénzügyminiszter",-10.291653924657336],["szűk",-10.292106544698115],["tudomány",-10.292389921587812],["ur",-10.293086047556407],["egyetemi",-10.293093459613253],["maradni",-10.293484103931837],["Ferencváros",-10.293998740291391],["nevet",-10.294074898237806],["járat",-10.294136564055032],["világban",-10.294545260970406],["növeked",-10.294763701097441],["egyesület",-10.295007710996403],["rajt",-10.29593911135494],["hozza",-10.296164937341144],["fent",-10.296180779114158],["történelem",-10.29667953197891],["dolgo",-10.296700236009539],["Köz",-10.297856598295763],["faj",-10.298057593567798],["beavatkozás",-10.298375948909055],["büszke",-10.300222551828053],["töltötte",-10.300697235729558],["köré",-10.301554476611315],["Minisztérium",-10.302244621970024],["menet",-10.30297707927518],["tulajdonosa",-10.303415614491737],["További",-10.303499918211235],["ütem",-10.30392910742797],["kilométeres",-10.304346388443212],["biztosítj",-10.304499053731101],["megint",-10.3046341314875],["indít",-10.304844944362213],["legjobba",-10.3048591533266],["látogatók",-10.305658201846995],["várta",-10.306591723213007],["SH",-10.307023463944908],["Kíná",-10.307806259843705],["ötven",-10.308147416143857],["ner",-10.308785050269641],["gondolo",-10.31018152671794],["tervezés",-10.310223142159131],["együttese",-10.310538291352392],["Te",-10.312297315944095],["enként",-10.31260549527823],["vonal",-10.312726158244352],["00",-10.31275742351616],["pápa",-10.313147186011904],["emelkedő",-10.313193242187015],["energiá",-10.313487294107002],["folyamatok",-10.313618274364654],["Sztár",-10.313735794038354],["öz",-10.31475099543102],["használja",-10.315130325373726],["éri",-10.31549094058169],["létszám",-10.315840850244271],["szel",-10.316485204310798],["büntetés",-10.316655118650413],["alkalmazott",-10.316743607881442],["költségei",-10.317269961981951],["háztartások",-10.318045992084876],["ismertett",-10.318477954215897],["árulta",-10.318542423899174],["segítette",-10.319529731753702],["jelenség",-10.320149774281752],["igényel",-10.320869620864563],["fenntartható",-10.320885074783778],["kilométerre",-10.321078229878397],["vásárolt",-10.321412171525143],["fordított",-10.321566825240414],["üzenet",-10.322913714943763],["nyugdíjas",-10.323088101242217],["Utóbbi",-10.323308415438635],["mínusz",-10.323587329290977],["Herszon",-10.32410346415152],["figyelmé",-10.324176062997571],["human",-10.32431883398339],["innen",-10.324599385316732],["hús",-10.324791584558307],["figyelem",-10.325261149932903],["egyet",-10.326203477311795],["terjed",-10.32630775494874],["idősebb",-10.326832747531432],["épült",-10.327027206398649],["eltelt",-10.327392690129358],["művelet",-10.3274778368228],["sokak",-10.32781532217927],["házak",-10.328049611282719],["99",-10.32842544705941],["adhat",-10.329205751829667],["mű",-10.329331196489068],["198",-10.329460827051083],["64",-10.329484641237219],["életem",-10.330295763012174],["kapus",-10.33064739136477],["itárius",-10.33073916444787],["forgatókönyv",-10.330797788733978],["kori",-10.331032464458692],["munkahely",-10.331082315075992],["növeli",-10.331623218283948],["velünk",-10.332026612711866],["méltó",-10.332462071964958],["hónapos",-10.332842544872294],["szavazat",-10.332886496598967],["internet",-10.333094026649835],["magár",-10.33407570250042],["id",-10.334132783351375],["utol",-10.334389569000452],["eltűnt",-10.33452636755918],["Nemzet",-10.334528122805533],["esély",-10.334871000526366],["ciklus",-10.335023090344198],["mindennap",-10.335051921177634],["Abaúj",-10.335428463046368],["Törökország",-10.335710364354817],["előfordulhat",-10.33572842454673],["Johnson",-10.33587192925459],["erősebb",-10.335902977434412],["megvan",-10.336529736403282],["fizetett",-10.336828513160377],["válaszolt",-10.336976281277725],["ko",-10.338085808916532],["Romániába",-10.338217525657228],["Főváros",-10.338791841941159],["végi",-10.339133165643997],["órát",-10.339165821798295],["stúdió",-10.33928356175308],["kerülni",-10.339398515339493],["segély",-10.339511316485419],["égett",-10.339793828520603],["komolyabb",-10.340074425844037],["szerb",-10.340143104343003],["politikusok",-10.34078972845078],["vad",-10.34164755950355],["ötlet",-10.341756107891394],["futball",-10.342683818511638],["Mariupol",-10.34332714498919],["Négy",-10.34371240130818],["területe",-10.34437876664132],["rezsi",-10.34545464082204],["szeretett",-10.345658955230977],["épül",-10.345949650539506],["rdély",-10.346194255356474],["Gazprom",-10.346451610472378],["megújuló",-10.346567009718633],["Novák",-10.34658230362476],["háttér",-10.346833145908786],["felhő",-10.347390529472225],["körű",-10.34806727867252],["évtizede",-10.348333699109547],["ügynökség",-10.348681097516605],["EP",-10.348682366938252],["megtesz",-10.349173734352048],["tagállam",-10.349256705101777],["dokumentum",-10.349721192141452],["díjas",-10.349919807815809],["megszokott",-10.350215033774166],["játszotta",-10.350286432599603],["tanárok",-10.3517216326495],["nyertes",-10.351856047007875],["ismerte",-10.352244179016381],["profi",-10.353095111481718],["tölti",-10.353138205283123],["adás",-10.353563256742582],["rakéták",-10.3536473049862],["abba",-10.353770328746595],["művészeti",-10.354709039251988],["ajándék",-10.35517413156876],["szovjet",-10.355389690258995],["79",-10.355869210090884],["egyike",-10.356148598900324],["tej",-10.356270311977882],["Kelet",-10.356281355893548],["hírt",-10.35632661181182],["tudtá",-10.356387411963436],["létesítmény",-10.35639115102516],["mennyisége",-10.356540592962572],["indította",-10.356824691183245],["lényegé",-10.357014873302997],["áru",-10.357298009684435],["néző",-10.357599220096041],["Borítókép",-10.357813906017007],["ázsiai",-10.357838020912208],["helyét",-10.357846151607243],["közvélemény",-10.357966462703835],["század",-10.358285667578613],["rendbe",-10.358837303847611],["Leg",-10.358948277554209],["keddi",-10.358985680533245],["akkumulátor",-10.35945735954579],["folytatni",-10.359550038484297],["vezethet",-10.359796816400385],["igazság",-10.360020248699165],["ugyanaz",-10.360075700017315],["lezárt",-10.360213255403075],["gyógyszer",-10.360382849329248],["megsérült",-10.360395639935454],["felmerül",-10.361731702865995],["személyautó",-10.361893137825785],["gyenge",-10.36203804447559],["végleges",-10.362594636973036],["repülőtér",-10.363109575938871],["sorozatban",-10.364454370700468],["keresi",-10.365501144626514],["látogatás",-10.36551377552075],["döntetlen",-10.365970222438168],["órán",-10.366100569973389],["negyven",-10.366339297357985],["utáni",-10.366398037381284],["záró",-10.366455094238404],["lánc",-10.367103335758816],["települések",-10.36749214193539],["motor",-10.367546267268182],["többségé",-10.36893348597313],["számítana",-10.369030255485104],["Példá",-10.369308175907605],["minimális",-10.36930821218088],["kulcsfontosságú",-10.369314003927697],["Macron",-10.369319819651881],["Általános",-10.369325768518578],["Japán",-10.369365969821864],["minőségű",-10.369579844244914],["segített",-10.369691024360709],["monetáris",-10.369773588256539],["tudtu",-10.369832708675467],["játszani",-10.369897187109071],["nyilvánvaló",-10.369914136973854],["négyzetméteres",-10.370303167849585],["vásárol",-10.370402123348873],["múl",-10.3708432873464],["fizetési",-10.370997822338698],["üveg",-10.371369935473448],["katolikus",-10.3717513769268],["autós",-10.371805927421889],["vélt",-10.372183043218868],["káros",-10.372200690439488],["számító",-10.372707057803964],["vál",-10.37313677483488],["vállalta",-10.373301120932197],["kibocsátás",-10.373461152133677],["nyíl",-10.373576612268398],["felújítás",-10.37402290135184],["fotót",-10.374530180407291],["vajo",-10.375432197094446],["fertőzött",-10.37669129153532],["iskolák",-10.377039396486218],["mozog",-10.377273856090781],["Fő",-10.377335750137187],["videót",-10.377495497675223],["többé",-10.377794353678397],["meglévő",-10.378109306930181],["alkot",-10.378675583508087],["jegyzet",-10.378926226784746],["buli",-10.378935808485544],["vetett",-10.379114841561876],["tüzet",-10.380177159845434],["hatalom",-10.380700005038761],["kon",-10.380878959787907],["Telekom",-10.380936789361996],["Viszon",-10.380997914865322],["nnál",-10.381704690310158],["szabott",-10.381884157327292],["jelenthet",-10.382064780007795],["játszi",-10.38233713183903],["TK",-10.38273244662354],["hatatlan",-10.383533494729056],["63",-10.383867689411776],["állítani",-10.384541577951815],["javítás",-10.384601687536717],["bizonytalanság",-10.384632842068022],["hölgy",-10.385545294555595],["jöttek",-10.385804144218318],["ssé",-10.38586216045098],["reagál",-10.386116318063198],["múzeum",-10.386252518150993],["közi",-10.386449179088743],["állomás",-10.387525428031442],["bejegyzés",-10.388050296884677],["szomszéd",-10.388236945014636],["koreai",-10.38830146947316],["megpróbál",-10.388355902413956],["NP",-10.389021509083733],["asztal",-10.389148702751775],["iparág",-10.389513830334597],["nánk",-10.389827639589521],["értékek",-10.38994674805479],["robbanás",-10.390176857559407],["növény",-10.390567395674402],["száraz",-10.390789892713258],["ellentét",-10.390955500521198],["irányítás",-10.39102496055939],["érintettek",-10.391148251795201],["jék",-10.39152961327893],["filmek",-10.391552550714767],["állampolgárok",-10.3917944891468],["In",-10.391797648569788],["kötelezettség",-10.392243934274578],["háborút",-10.39225373121717],["elsődleges",-10.392826650101302],["sége",-10.393054626842455],["69",-10.393433005172827],["melletti",-10.393477203727947],["előny",-10.393478438748062],["piacok",-10.393481745125964],["legrosszabb",-10.393509304839329],["közgyűlés",-10.393628514222502],["olcsóbb",-10.393748458187012],["DEA",-10.394235541950174],["szereplők",-10.394322216042589],["iába",-10.395017613738998],["zintén",-10.39643567205955],["kék",-10.396550049397025],["kultúra",-10.397092445739755],["tevékenysége",-10.397188635350947],["futó",-10.397751977707294],["dolgozta",-10.398550740512533],["kettős",-10.398690790525086],["áért",-10.398747133158402],["építeni",-10.399519008614625],["iskolai",-10.399760223454358],["következet",-10.400436063360516],["vasárnapi",-10.40060117358756],["tál",-10.40061765357143],["milliós",-10.401383555832437],["fáj",-10.401485837749611],["határozat",-10.402341280261648],["szereti",-10.402409087701699],["ikus",-10.402597657268121],["97",-10.402940011627386],["légvédelm",-10.403187440302613],["hétfői",-10.40361422873048],["tél",-10.403730938880855],["járműve",-10.40389219098801],["jal",-10.403917721677358],["esen",-10.404067371346272],["lo",-10.404420952297087],["kevese",-10.404587950043313],["Vasárnap",-10.404605826412432],["feltétlen",-10.404768408784912],["csapás",-10.404967814540882],["helyén",-10.404970599400656],["legendás",-10.405117794373528],["elért",-10.40512061997346],["váltott",-10.405211515953518],["rosszabb",-10.40560788126608],["helyes",-10.405671754921624],["megmenteni",-10.4057193456265],["részvény",-10.405730509722115],["versenyt",-10.405867662371342],["közleked",-10.406199924130942],["változat",-10.406356256897277],["okos",-10.406371460350403],["házi",-10.406420182774276],["helye",-10.406903054573153],["felhívás",-10.407475511172095],["kereskedés",-10.407667909370314],["terem",-10.408002761843505],["Molná",-10.408034207047503],["szurkolók",-10.408042419737747],["olt",-10.408065258339246],["Párt",-10.409325574497029],["Pro",-10.409494960859556],["felhívta",-10.409665354153859],["tévé",-10.409849075466855],["ill",-10.41150756663027],["atomerőmű",-10.41153543076129],["célba",-10.411620278554132],["Ny",-10.411940695474545],["egyház",-10.411945950534129],["épített",-10.412137742518562],["vállalt",-10.412310389077781],["elem",-10.412560049913807],["kedvenc",-10.414634581557891],["végzi",-10.415422050001546],["fordít",-10.415475762163089],["pici",-10.416608652658013],["sikert",-10.416631815921523],["Washington",-10.416653721103016],["Papp",-10.416885484428676],["utánpótlás",-10.416949318146958],["maximum",-10.41779060525898],["Berki",-10.417998797314137],["használat",-10.418010910307846],["csinálni",-10.418228718698693],["gyengült",-10.418434300733608],["ovics",-10.418777375784629],["barátai",-10.418819754993525],["ránk",-10.41924559488941],["készen",-10.419320269942832],["lehetetlen",-10.419527932602907],["szellemi",-10.420351844077942],["küzdelem",-10.420554927838364],["láttá",-10.4208205033441],["fertőzötte",-10.421035762845554],["Kup",-10.421227571137067],["részletei",-10.421316423794567],["MSZ",-10.42135128000574],["érvénybe",-10.421505150129121],["készülék",-10.42198110674861],["ügyvezető",-10.422195528045336],["vezeték",-10.422482855586978],["modellek",-10.422507207360535],["lánya",-10.422672064682361],["találkozón",-10.42283887677242],["éles",-10.42356373410201],["ver",-10.42458561002287],["ellenes",-10.424929926231712],["perces",-10.42523088235532],["posztjá",-10.426004401150404],["látványos",-10.426405640178235],["Mindenki",-10.427219884756086],["hozzájárul",-10.428040867703686],["jén",-10.428214069127403],["kutya",-10.428705777086206],["Országgyűlés",-10.428852989399523],["Árpád",-10.428853244888593],["Majd",-10.428975938758509],["Hétfő",-10.429163246027795],["nyitva",-10.429180501572665],["különös",-10.429477296191529],["barátja",-10.429757543926144],["emelés",-10.429803093023294],["ügyfél",-10.42983174549176],["méret",-10.43045869052284],["78",-10.430668562664902],["űr",-10.430997119307474],["harmad",-10.431154162825523],["változatlan",-10.432180427687172],["84",-10.432346775909506],["virág",-10.432509390040366],["kiegészítő",-10.433255201570972],["reg",-10.433514800627083],["számunk",-10.433684762765303],["állít",-10.43394140925593],["ást",-10.434408229970142],["og",-10.43461332992374],["olcsó",-10.434649738948135],["jég",-10.434688658407515],["kölcsön",-10.435529091299228],["hatásai",-10.435656162221541],["svéd",-10.435761346278735],["helyezte",-10.43586262766268],["életünk",-10.435864804036818],["telt",-10.436054939471667],["számlá",-10.436069444273187],["megállapodást",-10.436780008141469],["Man",-10.437346670983885],["visszaesés",-10.438241549789643],["tudná",-10.438922955090373],["működését",-10.43947076878519],["Kar",-10.439543307735818],["utcán",-10.439813688395612],["nyer",-10.440671957311572],["gondolkod",-10.4411432832295],["beszéde",-10.441156065163568],["fideszes",-10.44119452454975],["afrikai",-10.441194574293299],["Jakab",-10.441207301595403],["Fotó",-10.441207826652883],["támogatott",-10.441782825558803],["hetedik",-10.44182443174018],["Jobbik",-10.44207127708323],["nyilvános",-10.443332410435314],["kezdődő",-10.44342248860736],["épít",-10.443714742071693],["esz",-10.444236533515703],["zuhant",-10.444285060417531],["projektek",-10.44532282283688],["következményei",-10.445390406639632],["fogadja",-10.4455428369318],["kezelésé",-10.445705514529045],["Mit",-10.445750335856307],["együnk",-10.445779099865053],["turisztikai",-10.446334381096076],["figyelni",-10.446957223694088],["szokta",-10.447135490296837],["vélemény",-10.447394522331635],["szokás",-10.44746448855681],["hagyni",-10.449150134013676],["elkövető",-10.44940149542263],["mért",-10.44971788939894],["műanyag",-10.44975649664081],["É",-10.44998655315309],["remél",-10.450568162880856],["közlése",-10.45057243739785],["szolgáló",-10.450811147898435],["vegyes",-10.451126845462962],["kancellár",-10.452089866833635],["község",-10.452581294748729],["hamarabb",-10.452598260750232],["72",-10.45271582905291],["vezetést",-10.452726582405546],["hatott",-10.453102566159775],["76",-10.453397765299531],["kijevi",-10.453705358344763],["Judit",-10.453753503085537],["Edin",-10.453897513037518],["csökkenteni",-10.453987461016098],["mesélt",-10.454036242827526],["házaspár",-10.454087170942302],["összefogás",-10.45482286436921],["part",-10.455875060607253],["támogatások",-10.455950351459453],["nappali",-10.45605415491897],["szuper",-10.457253053743415],["csatlakozás",-10.45737219414763],["eredményei",-10.45741275475844],["levele",-10.457567509453252],["nőttek",-10.457653302240685],["zó",-10.457909341485047],["összességé",-10.458212263829036],["ex",-10.458389417465604],["illetékes",-10.45842873154884],["öltözött",-10.458609180878117],["versenyzők",-10.458831366941574],["tizenkét",-10.458942123110312],["felügyelet",-10.459353560915027],["károk",-10.459386233746494],["közbeszerzés",-10.45976423644489],["életébe",-10.460318140693289],["hamis",-10.46082563508278],["legfő",-10.461738499987142],["jai",-10.4619646205888],["jellemzőe",-10.46226261628364],["dőlt",-10.462464172559779],["esztendő",-10.462822138113353],["87",-10.462921777558687],["ellene",-10.463250483083812],["Á",-10.465112810102953],["1000",-10.465765102328987],["börtön",-10.465941572378668],["Sepsi",-10.466322223736428],["céljá",-10.466361468155556],["tüzérség",-10.466425612797732],["büntető",-10.466758681490935],["enek",-10.466762658762647],["Horvátország",-10.46684149830719],["ekre",-10.4669010913241],["andó",-10.467106939742227],["londo",-10.467330507393594],["felhasználó",-10.467471595958054],["érzékeny",-10.46761957551],["érint",-10.46799458694164],["ügyek",-10.46807195602679],["egyeztetés",-10.468233111794369],["lő",-10.469533443079122],["mar",-10.470179078518141],["környék",-10.470626211365335],["éjszakai",-10.47171152235689],["tisztelet",-10.47178976131645],["százalékpont",-10.471960456899385],["osan",-10.4720956075988],["Múzeum",-10.472794541953586],["tudatta",-10.473786342616965],["idősek",-10.473825856521273],["nyilatkozat",-10.47385487750679],["alpolgármester",-10.473959710608305],["kontinens",-10.474309592290712],["ebbe",-10.474404058438772],["sorra",-10.475094026682367],["téri",-10.47520812209561],["szavak",-10.475242717567541],["televízió",-10.475490124334414],["KD",-10.47615469398983],["elkezdte",-10.476175660049144],["váltak",-10.476194942838305],["emmel",-10.476299846592209],["Orosz",-10.477114243829764],["hova",-10.477336821888192],["Béla",-10.477561547991595],["zavar",-10.477592987481115],["vidék",-10.477733256363226],["ritka",-10.478011775171728],["iroda",-10.478072253117297],["döntések",-10.478135666923567],["informatika",-10.478222329726435],["önkormányzatok",-10.47830939451486],["színpad",-10.478778434669117],["izraeli",-10.478792499577446],["Reuters",-10.479173263334683],["tragikus",-10.47917346001035],["véleked",-10.479174416311333],["Richter",-10.479176620099608],["Puskás",-10.47918161018682],["Érdem",-10.47923770090302],["épülete",-10.479252976701064],["meglehetős",-10.479472956655794],["erőteljes",-10.480072263299713],["tapasztalt",-10.48023913363049],["felszerelés",-10.48033103165258],["fogva",-10.480342934345959],["Mari",-10.48059840276128],["tulajdon",-10.480818382053288],["nagyszerű",-10.480947839809348],["vizsgált",-10.481378765517892],["munkavállalók",-10.481489063477094],["szék",-10.481559314021926],["várakozások",-10.481707872548107],["kezdté",-10.481859158509575],["szakértői",-10.481980064991621],["keresni",-10.4823373952734],["vág",-10.482453095155645],["érnek",-10.482712212353348],["lehetőségét",-10.483233068456572],["beszámolój",-10.48325575368051],["gázt",-10.483643166078924],["emelni",-10.48394581014123],["teli",-10.484060090951022],["csökkentett",-10.48420872166577],["lőtte",-10.48479579279405],["jutni",-10.484813017921189],["menté",-10.485322201157778],["képek",-10.486583577649828],["távoz",-10.486761477523395],["léptek",-10.488378344816827],["veresége",-10.488864278729537],["DVS",-10.488870207135303],["kedvezményes",-10.488906266193073],["javasolt",-10.489106283765071],["építése",-10.48913798599513],["felület",-10.489507961922616],["ionális",-10.489809179836055],["kapunk",-10.490183989570873],["korlátozások",-10.490550180598266],["81",-10.49056284156875],["Fehér",-10.49164569177194],["szorul",-10.491721207919115],["kitért",-10.491974495764143],["megtakarítás",-10.492121885541282],["Program",-10.492160302296174],["Hungary",-10.492160867449341],["Szlovákia",-10.492288669766076],["elismerte",-10.492503159034005],["fenn",-10.492578779231138],["terve",-10.492869370258287],["ü",-10.492924041328788],["elmondás",-10.493042159742565],["főtitkár",-10.493232971571658],["and",-10.493330864241447],["legalacsonyabb",-10.493869285922543],["tört",-10.494047884214778],["bevezetet",-10.494985606550632],["tojás",-10.495169072962494],["agresszió",-10.496217777019687],["Air",-10.496399068409529],["döntése",-10.49690542183896],["beszéd",-10.497959077569615],["tiszta",-10.49849938509616],["mentális",-10.499161051201469],["alternatív",-10.499255865562716],["sérülések",-10.499498812922965],["otthont",-10.500305053264448],["lövés",-10.500431031762627],["úti",-10.500505456394777],["zenész",-10.500601521376074],["emlékezet",-10.500754915358465],["apa",-10.501803249675792],["díjak",-10.502874262778235],["programjá",-10.502994420167635],["létrehoz",-10.503185307760397],["Szatmár",-10.504204595317827],["szokott",-10.50444050813051],["gazdálkodás",-10.505336979911794],["Tesl",-10.505352771785912],["gázolaj",-10.50586150215419],["hírportál",-10.506052756022482],["Liga",-10.50610411086317],["ingatlanok",-10.506124051302407],["döntötte",-10.506224323336024],["fölött",-10.50652288498537],["büntetőeljárás",-10.506554618812858],["hatj",-10.50662441528106],["árstop",-10.508448681456281],["mentés",-10.509147071083184],["ágy",-10.509287588639442],["repülő",-10.509504517468567],["földi",-10.510462055230278],["segítene",-10.510510105342295],["hallott",-10.510789385658544],["futott",-10.51087207381119],["származ",-10.510912625222785],["érthető",-10.510940707359328],["veszélye",-10.51243786098204],["támogatta",-10.512783625835908],["fejlesztésé",-10.513435442623432],["télen",-10.513472789983554],["So",-10.514482326107363],["ezelőtti",-10.514696483754127],["bizonytalan",-10.515263871945834],["szor",-10.515318317659352],["osztotta",-10.515322077662745],["körzet",-10.515775188933887],["menő",-10.516283052014188],["visz",-10.516515624718519],["augusztusban",-10.517424534069079],["főút",-10.517783450740836],["sárga",-10.517876888909232],["piacr",-10.517877141139483],["beleér",-10.51828128894823],["Bihar",-10.518649771207212],["Egyéb",-10.518656761811869],["kreatív",-10.518721301937443],["mérte",-10.518859050673722],["eltérő",-10.519619936855738],["77",-10.519739947365661],["legközelebb",-10.519800091840443],["zik",-10.520380119795867],["Németországba",-10.520415948256568],["váltani",-10.520627707482845],["zárás",-10.521144417526482],["elfogadott",-10.522069638135427],["keletkezet",-10.522934633089912],["Szó",-10.52312283971779],["!\"",-10.523356635776363],["igyekezet",-10.52367022739502],["gyilkosság",-10.52508926903656],["tapasztalat",-10.525272337349666],["tanácsadó",-10.525287963728909],["meghaladj",-10.525408661523329],["próbálja",-10.525896742944667],["kezdő",-10.526146314810225],["szemét",-10.526845538984924],["kereste",-10.527478965566083],["ügyvéd",-10.52774493757748],["edzés",-10.527783418360613],["tárgyak",-10.52796229598795],["Moszkvá",-10.528246904514008],["sportág",-10.528270635808928],["küzdött",-10.528692869492035],["Mark",-10.528697585396696],["lakó",-10.529116994084303],["jen",-10.530209198385812],["elejé",-10.530459733220368],["támogatását",-10.530636818377456],["parti",-10.530669850867227],["met",-10.530699156896677],["fenti",-10.530850279088996],["96",-10.530905789112957],["teljesített",-10.53100641819687],["határo",-10.531333210364767],["csúsz",-10.531668433435728],["minimum",-10.531742901957553],["furcsa",-10.532166410833268],["húz",-10.53247037213415],["Németh",-10.532479592139666],["helyek",-10.532637102085744],["százezer",-10.53315223619682],["88",-10.533375923937093],["recesszió",-10.533544144337561],["aligha",-10.533741021054077],["amel",-10.53410110141527],["Tisza",-10.534131844159912],["felnőttek",-10.534153909639002],["tavas",-10.534350946673884],["kormányzat",-10.534430250800613],["Debrecenbe",-10.534457759161972],["Hogya",-10.53461518685528],["Dániel",-10.534642710702329],["alkotó",-10.534944883161325],["rendelt",-10.535328042959062],["eredményes",-10.535386068567618],["karbantartás",-10.536500656188384],["robot",-10.536525212196063],["gazdák",-10.536874230438832],["északkeleti",-10.537081279708215],["dik",-10.53758150343391],["iskolá",-10.537756579827672],["megszűn",-10.537802838738727],["nyomozók",-10.538115391399135],["épületek",-10.5388180415775],["ív",-10.539123174900954],["korszak",-10.539167505470974],["hitelek",-10.540611000760904],["est",-10.541328423696918],["fennáll",-10.541657558991663],["hunyt",-10.542086196074086],["vezettek",-10.542237549403632],["kezelő",-10.542427524206069],["pillanatok",-10.542590101114772],["álom",-10.543224021370655],["tekinthető",-10.543251216083686],["tőke",-10.543645426702636],["továbbiak",-10.54454030447122],["közigazgatás",-10.545870531929722],["Amerika",-10.546033451656289],["újságírók",-10.546285384952267],["usz",-10.546286096807133],["UX",-10.546423906019104],["Szilágyi",-10.546468731492554],["óriás",-10.54671087070967],["színes",-10.54671339863687],["autót",-10.547884670014955],["talaj",-10.548293786885033],["hangsúly",-10.548747293637202],["bővült",-10.549079054171559],["Pho",-10.549514629326543],["partnerek",-10.549562985389962],["sötét",-10.549876659834311],["alsó",-10.550150344927289],["funkció",-10.55015458325759],["támad",-10.550701711990381],["divat",-10.550889964302147],["készülő",-10.551484985026601],["érő",-10.551593965833359],["elit",-10.55218221072938],["kerülő",-10.55259045371497],["kereskedők",-10.552888680416963],["szerezni",-10.552938792400152],["feladata",-10.552954021614141],["nyíregyházi",-10.553262896196046],["ritkán",-10.553902815768453],["fenyegetés",-10.554204966017291],["Lehet",-10.555403549316654],["tempó",-10.555425847184315],["védett",-10.555936453632626],["számom",-10.556034189694603],["háromszéki",-10.556156465690805],["elemzők",-10.556289815528412],["nyújtani",-10.55765731271293],["Nép",-10.558123311162856],["hitte",-10.558208584032784],["eseménye",-10.558240731590974],["termés",-10.558767078003381],["megalapozott",-10.558812530132158],["öm",-10.559692497968726],["Veszprém",-10.559752536288283],["moszkva",-10.559753663384146],["drága",-10.559769616105523],["rapper",-10.559832254018927],["belügyminiszter",-10.559861358667234],["NAV",-10.560054693002373],["találtá",-10.560115253953404],["Számos",-10.560357340839966],["mag",-10.560604455183338],["rendezi",-10.560631434353022],["listá",-10.560821949969217],["korai",-10.560916909754468],["automatikus",-10.561361369002793],["Hangsúlyozt",-10.561840798143969],["eladó",-10.562070405601709],["jelenlété",-10.562364481642572],["Milyen",-10.562612808017684],["válaszadók",-10.562651330042463],["74",-10.562706790550404],["Emm",-10.562885509629101],["küldte",-10.565061299775785],["mail",-10.5653306952082],["név",-10.565772800495992],["cikke",-10.56608390567812],["válaszol",-10.566216207867708],["71",-10.56623253324334],["győz",-10.566313344591784],["Szerintem",-10.566518926792407],["fogad",-10.566578800877464],["írni",-10.566998023673708],["apság",-10.567377699386425],["TE",-10.567724297365022],["tárcavezető",-10.567827765787207],["kezelni",-10.567873586006693],["hass",-10.5685338443941],["fejlőd",-10.568548676583072],["réteg",-10.569029247540149],["számolni",-10.569696769269015],["61",-10.569892814666742],["Dunaújváros",-10.570495113389553],["újdonság",-10.57126541069602],["mindkette",-10.571587096479526],["megjelenés",-10.572069291903976],["zsűri",-10.572685030563903],["technológiák",-10.572748983950962],["fejlesztése",-10.573520070706738],["társa",-10.573640325099436],["Mészáros",-10.573837056202473],["Teljes",-10.573838188267729],["római",-10.573963450977963],["Kiderült",-10.574114041719529],["autópálya",-10.574117890905743],["kizárt",-10.574390357109834],["időnként",-10.574617673230915],["technológiá",-10.574635433621351],["alapanyag",-10.574674036118353],["viharos",-10.574796472955391],["látogat",-10.575257594776115],["óvoda",-10.57534944535841],["bő",-10.57564859655562],["látvány",-10.575681123774356],["négyzetméter",-10.576077983913116],["államok",-10.5760829898134],["ut",-10.576259769351614],["eredményeke",-10.57626826065729],["Ott",-10.576875625485734],["csalás",-10.57712876481769],["világjárvány",-10.577189017988005],["hallgat",-10.5774993972972],["rt",-10.577827793600282],["szankció",-10.578202990741104],["fektet",-10.57837803872238],["érdem",-10.578838749122479],["gabona",-10.578875325590374],["északnyugati",-10.579021491325378],["élte",-10.579059151100251],["82",-10.579675939862668],["tölt",-10.579765508406588],["meccse",-10.579875764093586],["befolyásolj",-10.580089056184915],["területi",-10.580503279077046],["építési",-10.580862979505095],["fagy",-10.581252526860293],["hagyja",-10.581525439659478],["információi",-10.581549511469628],["sáv",-10.581808833098338],["járni",-10.58307619643081],["munkatársa",-10.583156077816959],["Star",-10.583415847292873],["előadó",-10.583872640990093],["szoftver",-10.583893218417245],["utalt",-10.583948451070347],["tényleges",-10.584194431239073],["DV",-10.58448199862255],["tűzoltó",-10.584577859589654],["katoná",-10.58489635045835],["SC",-10.585287441094826],["fut",-10.585821166619208],["aszály",-10.58638130011381],["vörös",-10.586452404586218],["erőt",-10.586511170645778],["érkez",-10.588088542517681],["»",-10.588122757615743],["Zsófi",-10.58812301015988],["megjelenése",-10.588155020876393],["vallomás",-10.58835036216194],["médiába",-10.58850859151221],["tulajdonosok",-10.58863137531337],["egyedülálló",-10.588654367661928],["maximális",-10.588655609251457],["fordulójába",-10.588942200488578],["tétel",-10.589197976976012],["betegségek",-10.589276892147819],["vállalati",-10.590201268049363],["járás",-10.590402143585443],["elismerés",-10.590428774510803],["89",-10.590508093968591],["mezőgazdaság",-10.590565220686429],["helyzetek",-10.59069098629697],["föl",-10.590911542627204],["udvar",-10.59103816670293],["egészségügy",-10.591367933665536],["jegy",-10.591531291447584],["megosztott",-10.591672095681957],["fejlesztő",-10.59198638133534],["gondolat",-10.591990778877445],["felhős",-10.592508814366656],["érkezne",-10.59252687177499],["normális",-10.592910857178381],["vizsgálato",-10.593212702849794],["esté",-10.593505010014042],["kiadások",-10.593576153405134],["párja",-10.593592186871948],["tartomány",-10.59424250243826],["királyi",-10.594873936426398],["történeté",-10.595211501505592],["berendezés",-10.595236219006626],["problémá",-10.59530584759871],["használható",-10.595552997088223],["vezér",-10.596369715622629],["Mar",-10.596713500635765],["minőségi",-10.596831774041],["szerződések",-10.597210240074661],["ablak",-10.597835529433258],["lehessen",-10.598121722080691],["társai",-10.598313600597944],["kezdeményez",-10.598565029923288],["válás",-10.598752213453377],["gyilkos",-10.598891867898535],["baba",-10.599548378366732],["házat",-10.600026468615102],["Csehország",-10.600250493580843],["kezdi",-10.600330558449997],["dob",-10.601284142681603],["gyakori",-10.60129330143307],["református",-10.601504116699239],["valah",-10.601557920153066],["úszó",-10.601596641505289],["határozott",-10.601836257651591],["ígér",-10.601946974484743],["foci",-10.602067828145275],["hibrid",-10.602261293271914],["ős",-10.602603556048148],["enyhe",-10.602616812103502],["Hazánk",-10.602618119852167],["Kovászna",-10.602694854531288],["Csütörtökön",-10.602716241152613],["kérni",-10.602833296874271],["vásár",-10.602981267519283],["Korea",-10.603039529061283],["Finnország",-10.603058134970732],["léphet",-10.60343376624772],["vihar",-10.603554154849466],["belváros",-10.603865395474077],["tartalmazó",-10.60393123983214],["támogatni",-10.604364603609273],["válhat",-10.604385418373383],["ismerős",-10.604946351318361],["építőipar",-10.605025062383024],["foglalkozni",-10.605491161515214],["Világ",-10.606646628606185],["rövidebb",-10.606807868823324],["tanul",-10.606918127922455],["alelnöke",-10.6069283848056],["felelősség",-10.607221008075701],["pénzek",-10.607667909770516],["tájékoztató",-10.608134280303808],["vezeti",-10.608658290462786],["állítása",-10.60870104886248],["kiadó",-10.609391396270386],["ülés",-10.609674437656473],["rámutat",-10.610311505652106],["csökkentésé",-10.610538927891312],["fogyasztó",-10.610578582668664],["kereső",-10.610768372867044],["Olaszország",-10.611243485290935],["hiánya",-10.611377736018955],["viszi",-10.611402880864361],["elemzés",-10.611493000360944],["körbe",-10.6115192159917],["másképp",-10.611854949229564],["üzenete",-10.61312303598175],["Robert",-10.61340189383675],["fűzte",-10.613674378889975],["cukor",-10.61381307567929],["hátrány",-10.614106056434837],["gyorsabb",-10.61410981915547],["népszavazás",-10.614205816626928],["vizsgálatok",-10.614275062375766],["megkapta",-10.614277953032312],["Szlovákiába",-10.614524279867119],["nom",-10.61488888708242],["elégedett",-10.614897209990907],["íz",-10.615071319056053],["szállás",-10.615920154521746],["ügyébe",-10.61617699049233],["Akadémia",-10.617321398490038],["Bajnokok",-10.617490715031465],["nagyot",-10.617742629588712],["Szerdá",-10.617954661428477],["kamatemelés",-10.618026521381097],["160",-10.618092239005648],["fotók",-10.618260569551392],["brazil",-10.61836796839206],["későbbi",-10.618379558046827],["Irán",-10.61850213642852],["baráti",-10.619939862058335],["hívott",-10.619961203285058],["tárgyal",-10.620263112970763],["Ezút",-10.620355006797455],["Nap",-10.620540625871357],["közülü",-10.620562743536155],["szeretettel",-10.621408174485396],["nyelvű",-10.621850521850288],["villamosenergi",-10.621969310092759],["magyarság",-10.622328722464522],["készpénz",-10.62249475685501],["veszélybe",-10.622862141068147],["meccsen",-10.623384652971684],["szabályai",-10.624117707018298],["üzletember",-10.624775320233637],["bevételek",-10.624956079611334],["vadász",-10.62517516575087],["helyzetét",-10.625176908851031],["foglalkoztatás",-10.626122627909634],["táj",-10.626561394517541],["kov",-10.626873494253378],["téma",-10.627744725951437],["legkisebb",-10.627884972411312],["csal",-10.628341672161312],["ahonna",-10.629053929856603],["ly",-10.630010774840223],["94",-10.630182263143006],["tölteni",-10.630364807868599],["Kárpát",-10.631136110307134],["mostaná",-10.631291321592268],["elsejé",-10.631575688108022],["bizonyítj",-10.631770908713962],["fiúk",-10.63180623148289],["Farkas",-10.632236821024222],["Izrael",-10.632246889906654],["Ákos",-10.632254351450024],["Dmitr",-10.632355245798015],["értékes",-10.63238879539232],["bátra",-10.632418938345698],["Pécs",-10.63243912698864],["Kedd",-10.632477867429088],["elengedhetetlen",-10.632506825161594],["Város",-10.632992636474922],["hozhat",-10.633015125571827],["övezet",-10.63382035658951],["Miniszterelnök",-10.633851653280816],["73",-10.634273260296933],["megkérdezettek",-10.634365948797427],["Való",-10.634423366192859],["oroszország",-10.634472225989324],["csi",-10.634676601984278],["aggód",-10.634912807305287],["Alexandr",-10.63501712312635],["top",-10.635047630937107],["doboz",-10.635347802748143],["kábítószer",-10.63542603599154],["változó",-10.63569088882469],["ására",-10.635890013235755],["valamelyik",-10.636145842459097],["197",-10.63637339078935],["igazolás",-10.636594170784482],["boldogság",-10.637270487774316],["ho",-10.637709168505467],["gondoskod",-10.63772599450806],["fejlesztők",-10.637800924982852],["Minde",-10.638377100826611],["ler",-10.638701362390389],["Bar",-10.638824003751292],["ikat",-10.639189233080678],["szerző",-10.639631482461683],["számá",-10.640043393599692],["betét",-10.640221849284304],["szomszédo",-10.640651667953353],["telep",-10.64082652836447],["ugyanez",-10.641575496142892],["szolgálja",-10.641708987361955],["frank",-10.642265148872916],["hit",-10.642517351925353],["pozíció",-10.64267689036081],["só",-10.643065684009056],["fokozott",-10.643172219159165],["tavaszi",-10.64376420476241],["csendes",-10.64389173188627],["szervezete",-10.643931057418687],["tisztába",-10.644126147311992],["főpolgármester",-10.644945254214237],["nyom",-10.645018197660162],["drágább",-10.645132019712168],["rendezte",-10.64518632668656],["régen",-10.64542110264317],["for",-10.64543248899836],["szert",-10.645766294737331],["kárt",-10.646294666984577],["házasság",-10.646392929886673],["alapító",-10.647075098640606],["mögé",-10.64739834200109],["Scholz",-10.647398454270547],["szokatlan",-10.64741978312042],["állapota",-10.647423106991441],["Bereg",-10.647532676946051],["köthető",-10.647730568029694],["Svédország",-10.647775152232999],["jelöltje",-10.64801985537164],["kapitány",-10.648056555329664],["munkák",-10.648211123729212],["valószínűség",-10.648326336718506],["nénk",-10.648616248115509],["kívüli",-10.648628786038085],["energiaellátás",-10.648704404772745],["belföldi",-10.64875545325871],["fenntarthatóság",-10.648877980165905],["Teh",-10.649189535623501],["kihasznál",-10.649410920619642],["utóbb",-10.649786612722073],["estek",-10.651047052480662],["Antal",-10.651374719054392],["elfog",-10.65178900390704],["bevezetése",-10.652125476116524],["többlet",-10.65266355839367],["drámai",-10.653331378872165],["közlekedő",-10.654076314038312],["bejelentése",-10.654819691812794],["épülő",-10.65497672859802],["csökkentése",-10.655191808548008],["szögezte",-10.655550757551772],["finn",-10.655552583888811],["Bor",-10.65611262615999],["kapja",-10.6570868193945],["áldozatai",-10.657438854550431],["kevesebbe",-10.658058868306611],["vásárló",-10.658659033867796],["rádió",-10.6589786141047],["csoportjá",-10.659102618167799],["elkövetésé",-10.659152846067302],["színpadr",-10.659468755793469],["nevelés",-10.659791673351087],["cserébe",-10.660580336179933],["részlet",-10.661188918627932],["ós",-10.66156709788516],["elege",-10.661748761847441],["görög",-10.662425568572106],["fájdalom",-10.662773998970764],["Gimnázium",-10.662782897262332],["Szolnok",-10.662792523848125],["enge",-10.662822940572124],["Di",-10.662909076052102],["Honvédség",-10.66301278622141],["csökkenti",-10.663186107069283],["aratot",-10.66318954200818],["leinte",-10.663203814994898],["tanulás",-10.664199396911108],["komolya",-10.66489724164964],["com",-10.66504588933644],["rám",-10.665154564620266],["fővárosba",-10.665360172364544],["land",-10.665538447245144],["ET",-10.666072492073802],["békés",-10.666153491920035],["szót",-10.66629226498759],["szerez",-10.666565659499184],["elmarad",-10.666619558496514],["Nos",-10.666637128400824],["kiskereskedelm",-10.666938271563067],["Öt",-10.667027815007241],["címvédő",-10.667171918041163],["személyiség",-10.667320230637134],["riasztott",-10.667740630064394],["fák",-10.667829866779051],["szintet",-10.668031174280628],["bel",-10.669265569226026],["holnap",-10.669270754115908],["gondo",-10.66993729402747],["kormányzó",-10.670083595276346],["turizmus",-10.670139688531282],["összegű",-10.670192405543597],["szolgáltatók",-10.670199356407046],["étterem",-10.670452607034413],["súlyosa",-10.670902978708254],["mentek",-10.671696757664872],["ségét",-10.67183495779393],["rendőrségi",-10.671861899226425],["86",-10.672204192531643],["veszélyt",-10.672637612486911],["utasok",-10.674073172175175],["Állam",-10.674281559769533],["információt",-10.674513078013895],["elemző",-10.67453423884584],["háztartás",-10.674664809337152],["inflációt",-10.67473791165218],["Cs",-10.675354685194955],["hirdetés",-10.675387587033086],["egyensúly",-10.675600438854307],["esél",-10.675924529105643],["elnököt",-10.676346470801734],["terjedő",-10.676914877926443],["műsorába",-10.676946454560852],["port",-10.677164780697971],["sorolta",-10.67752933445972],["kabinet",-10.677560165583312],["show",-10.677576787719794],["fellépés",-10.678164246801561],["Svájc",-10.678407897553381],["City",-10.678539051665823],["elektronikus",-10.678574654607964],["Ligája",-10.67861508626644],["eleje",-10.678681546362007],["elnevezés",-10.679127587725631],["ételek",-10.679516705096686],["Éva",-10.679996730353686],["búcsú",-10.680277002111627],["élénk",-10.68051362804851],["vas",-10.680724218301936],["Games",-10.680759809946693],["kávé",-10.680953974057932],["házba",-10.681303320573326],["kellő",-10.681369192699025],["alkotás",-10.681471371477308],["idejé",-10.68178395297398],["köd",-10.68206633207533],["húzód",-10.682072656301607],["mat",-10.682230320174156],["Közel",-10.682337937341906],["had",-10.682462516984987],["szakma",-10.682614276416658],["agresszív",-10.682696578622664],["forintnyi",-10.682727829649687],["halálá",-10.683163441091978],["tartalmak",-10.683165039989092],["forgatás",-10.68358910855406],["vinni",-10.68413142976297],["húzódó",-10.684809809418468],["mondtá",-10.685117147855557],["távoli",-10.685523052389492],["készítette",-10.685677283079087],["száll",-10.685762478231482],["botrány",-10.685901176185617],["javaslato",-10.686650117374558],["ezres",-10.687123142438804],["mu",-10.687126052854609],["tőzsdei",-10.68758957259541],["láz",-10.68774680855274],["megtartott",-10.687809155426516],["Vaj",-10.688033953299694],["szlovén",-10.688266338727415],["haj",-10.689508062300366],["Azok",-10.689835987013382],["működésé",-10.68986271995903],["juttat",-10.690933662318965],["ász",-10.691053986012403],["agrár",-10.691309720811386],["Egyes",-10.691372927732216],["ellenállás",-10.691576901678888],["nyerni",-10.691585515082213],["Bo",-10.69192434955509],["feleségé",-10.692133384021844],["közlés",-10.692705127318245],["világbajnokságo",-10.692832649329958],["minőség",-10.693582638805609],["támadást",-10.694215031913686],["Nehéz",-10.694280913646864],["rubel",-10.69431400998588],["Dunántúl",-10.694347152654384],["származású",-10.694367682072311],["Remél",-10.694377813071291],["testi",-10.69438073409599],["személygépkocsi",-10.694516177320113],["kézzel",-10.694537902098935],["váltó",-10.69457050978064],["szerete",-10.694675466081502],["támadta",-10.69470353344476],["cége",-10.69470538282528],["zivatar",-10.694781920309632],["Inter",-10.694880164966754],["Erst",-10.694912029220609],["márka",-10.69544005155024],["Közölt",-10.695821275434255],["életre",-10.69582653412456],["véleménye",-10.696196012757373],["szólv",-10.697935477826231],["kapni",-10.69857135104644],["építkezés",-10.698831856120886],["2008",-10.698860045873754],["szöveg",-10.698988483407218],["mehet",-10.699011474924262],["tve",-10.699762687346347],["nyelve",-10.700970539681958],["szerep",-10.701391256338157],["pl",-10.701441387190332],["átállás",-10.70145721285323],["cal",-10.701603605919678],["szakmá",-10.701936143284914],["színű",-10.702243701544855],["hozzáférés",-10.70236230530356],["Park",-10.703408882181002],["hetetlen",-10.703489746508795],["jelzés",-10.703622991414878],["halálát",-10.703838877809627],["cikké",-10.704169080634003],["termelők",-10.704177247469268],["alkalmaz",-10.704341731988086],["vezetőjé",-10.704601829288924],["megmutatta",-10.7049731733009],["kereskedő",-10.705185371234677],["Emlékeztet",-10.705195851076585],["forma",-10.705395818837616],["művészet",-10.705398143882064],["bőr",-10.705950701273261],["járta",-10.706528722815548],["oszt",-10.707052925768803],["töltő",-10.707089879740849],["tanév",-10.707223484778517],["érdemi",-10.708012636180467],["csapódot",-10.70816518853369],["viadal",-10.708534436433268],["öl",-10.70873536957654],["politiká",-10.709037357747148],["Király",-10.709347445844259],["búcsúz",-10.70943303403436],["kívánt",-10.709634161720818],["zivatarok",-10.7099022097573],["centiméter",-10.709955274289566],["csillag",-10.709968165104907],["kenyér",-10.71040185293685],["YouTube",-10.710409951556702],["vakcina",-10.710410117595739],["Rádió",-10.71041278845913],["intelligencia",-10.710431174802853],["számtalan",-10.710486962230382],["napsütés",-10.710544509833346],["helyiek",-10.71060886646561],["növelte",-10.710814432841751],["Gy",-10.710828019720722],["mieink",-10.711443490458585],["hőség",-10.711521514277436],["változtat",-10.711598036862936],["multi",-10.711678837883278],["sék",-10.711689990571976],["szigorítás",-10.71187375051571],["emelet",-10.711964795847813],["kérték",-10.71266670844565],["kereszt",-10.713026381932806],["infrastruktúra",-10.713115269987913],["lakók",-10.714082922016747],["vezetése",-10.714995429067056],["kapható",-10.715556418915664],["tárgy",-10.716565193324454],["eknek",-10.716613167866722],["szíve",-10.716700074314177],["rögzített",-10.716738779150166],["kus",-10.716772419455378],["kamera",-10.717213246129093],["váda",-10.717797255090964],["munkáj",-10.717895370124266],["képeke",-10.718035028122511],["Pest",-10.718075549691376],["szállít",-10.7190513249861],["extrém",-10.719129947334213],["cz",-10.719783597603012],["ellenfele",-10.721933502707312],["kerékpáros",-10.72224135513446],["használata",-10.722552821309977],["trend",-10.723451968899239],["Hol",-10.723576554359306],["találkozás",-10.723648022660882],["készít",-10.724071129315423],["vállalkozók",-10.724100508448084],["Vár",-10.725104956612576],["résztvevő",-10.72515638919328],["hatékonyság",-10.72525756763779],["alapok",-10.725444825610051],["nyúl",-10.725652201843735],["fogadtá",-10.725880049336894],["teljesítménye",-10.726136012334226],["magazin",-10.726622406848339],["Jövő",-10.726649868754524],["Szeptember",-10.726803389431746],["Bálint",-10.726803418933958],["Peking",-10.726808853176422],["Roland",-10.726824626541202],["romániai",-10.726856584821903],["Elmondás",-10.726864472666637],["Igen",-10.72690877051334],["évé",-10.726908971669644],["verzió",-10.726950532170921],["belga",-10.726989708783847],["választókerület",-10.727169050345562],["kitörése",-10.727181594762046],["körülményei",-10.727294521782476],["keresztény",-10.727302919730416],["esküvő",-10.727661828413785],["extra",-10.72799978830683],["stressz",-10.728128973622502],["gyereke",-10.728557734305989],["szélesebb",-10.728562585228246],["hő",-10.729092571447062],["levő",-10.729395201386446],["Pár",-10.729398627772213],["könnyed",-10.729537377925869],["helyreállítási",-10.729579355870566],["közepes",-10.72968688476333],["tartalma",-10.729717942279251],["kutyák",-10.729843182535982],["beszámoló",-10.730860087165834],["megelőzés",-10.730944414595964],["ittas",-10.731410343760096],["83",-10.731447792258702],["adót",-10.731502698284842],["elmond",-10.731532781476016],["megkezdte",-10.731965953739966],["tartózkodás",-10.732274179948753],["Erik",-10.732709355897207],["ró",-10.733133336485736],["számot",-10.733339530602453],["igazságügy",-10.733422489614775],["hango",-10.73379123677117],["fenyeget",-10.734148755603336],["volumene",-10.734501471334106],["csere",-10.734714487193731],["ási",-10.73482469176637],["parkoló",-10.735023200497581],["megnöveked",-10.735521811068576],["turisták",-10.735663033318167],["munkájuk",-10.735700642850034],["aink",-10.737394279843883],["kutatások",-10.737459385836166],["játékrész",-10.737703020868711],["Iskola",-10.738017477124252],["közti",-10.738131026792413],["fér",-10.738709103497616],["kifejezés",-10.738972701256145],["játsz",-10.739026110547155],["hétvég",-10.739047909328484],["amerikaiak",-10.739122299265537],["DSZ",-10.739587145914463],["véleményé",-10.739762132762465],["John",-10.739919272934998],["teret",-10.740268079916547],["barátok",-10.740499733467963],["kezdeni",-10.741041513891165],["incidens",-10.741310757244541],["magad",-10.741568292052197],["lélek",-10.741964018696109],["alak",-10.742046445304805],["gyógyszerek",-10.742061339506963],["zápor",-10.74245583909719],["elkötelezett",-10.742493202259393],["rendes",-10.742713502972503],["erősíti",-10.742915075362806],["Meteorológia",-10.743470054736502],["Kristóf",-10.743470105268976],["minimálbér",-10.743470128503775],["Szergej",-10.743470198265445],["Ismét",-10.743473930794634],["Endre",-10.74347695368899],["Tajvan",-10.743574504554147],["használta",-10.743692922976187],["követői",-10.74371196046502],["bűncselekmények",-10.743812140288298],["tranzakció",-10.744024103481149],["gő",-10.744206490399675],["eszközt",-10.744212608174907],["ezüst",-10.744245631532507],["növelni",-10.744421633910711],["hajrá",-10.745117196320283],["DA",-10.745580675432414],["személyzet",-10.745742895875907],["font",-10.745878888209841],["ütötte",-10.745945741493406],["finom",-10.746327558122776],["Annyi",-10.746826326270106],["juthat",-10.747311007711955],["luxus",-10.747682227385344],["időszaká",-10.748233167873044],["temető",-10.74930563976261],["Sto",-10.749619811760194],["vezérigazgató",-10.749705600719452],["ősz",-10.749737401136365],["vevők",-10.74980808716025],["esebb",-10.750088144854526],["ává",-10.750422489353587],["hassa",-10.751038844209468],["%)",-10.751049260181713],["kivitelezés",-10.751377406943469],["vegye",-10.751435257670128],["PS",-10.75156695953051],["megtörtént",-10.751601849407493],["módosítás",-10.751871147919644],["újság",-10.752592205422307],["érhető",-10.75294540761904],["oha",-10.75339592433651],["adód",-10.753620329195742],["kapcsolód",-10.753725596473332],["csap",-10.754562203905866],["elindult",-10.755119330520408],["érik",-10.755302043258851],["tartalom",-10.755757265573898],["felét",-10.755893287530666],["variáns",-10.75603558671818],["gyártók",-10.756602455832681],["kíséri",-10.756808316887698],["képpen",-10.756882461953289],["számon",-10.756882607208592],["MI",-10.757182524692723],["fizetőeszköz",-10.757205356170559],["lan",-10.757217126103555],["elérésé",-10.757439162033045],["formáj",-10.758132944534173],["du",-10.758191781855007],["foglal",-10.758548959544008],["Jo",-10.759114487309807],["emlékeztet",-10.759475689844692],["autósok",-10.759554023837211],["megállapított",-10.759647888623547],["folyt",-10.759794820086855],["vonulta",-10.759826079253632],["karakter",-10.7599874378298],["vitamin",-10.760116738120496],["menedzsment",-10.760419207227324],["Netflix",-10.760423713638932],["töreksz",-10.760467485317486],["fordítani",-10.760527405639618],["fizette",-10.760771354574732],["műtét",-10.761237622221259],["meghaladt",-10.76145050175037],["ifjúsági",-10.761587792155453],["napvilág",-10.761596341721734],["szomorú",-10.762073809159851],["lyal",-10.762253705204312],["ajánlat",-10.762401634700595],["felhív",-10.762421920592345],["örül",-10.76276958219228],["felhőzet",-10.762936421039754],["szelet",-10.762962429567914],["létrehozásá",-10.763331419102684],["hasonlít",-10.763416005226093],["alakulat",-10.763440932623864],["bővülés",-10.763897505712247],["adatot",-10.763942131139093],["Jól",-10.76414747418477],["vív",-10.76451564924203],["határszakaszo",-10.766135925891348],["születésnapjá",-10.766371868730854],["érdek",-10.766406534340511],["velem",-10.766755364434317],["Ko",-10.766950532216157],["kórházi",-10.767129264633724],["tömeges",-10.767141063665957],["ajtó",-10.767391556847745],["előállított",-10.767436237713072],["vallás",-10.767821762775679],["fordulójá",-10.768425948144891],["ital",-10.768575496951662],["dísz",-10.768821650547624],["költsége",-10.768824454747314],["keresett",-10.769836276320598],["hangoztatt",-10.769859249862034],["emleget",-10.770288020371892],["előfordul",-10.770342787168415],["tűnő",-10.771024539875903],["kutak",-10.771336487021468],["Spanyolország",-10.771776910218584],["fordulat",-10.77181631286458],["tulajdonába",-10.772075079595691],["árbevétel",-10.772199843774253],["adomány",-10.77232891937696],["ág",-10.772467708995784],["kollégái",-10.772531153833732],["hozzáállás",-10.772542350055158],["marketing",-10.772702823524924],["sikerre",-10.772848179527248],["percek",-10.772901460931465],["előnyé",-10.772957538548907],["értelembe",-10.773162323749258],["gyanús",-10.773398896959215],["ásra",-10.774243335444073],["tagok",-10.7743452433059],["alakított",-10.774601585194413],["heves",-10.775337615611093],["gyermekes",-10.775873355941995],["utazási",-10.776538315737337],["tárlat",-10.776613359751687],["Közbe",-10.77683548567919],["párizsi",-10.776879308604798],["Klub",-10.776958157603842],["gyűjtött",-10.777405551958527],["egyenlő",-10.777602448290853],["Október",-10.777660586688349],["Március",-10.777660677898318],["Norbert",-10.777661601624828],["konzultáció",-10.777662480076255],["jogállamiság",-10.77766344168436],["Csanád",-10.777663495981361],["virtuális",-10.777667447291808],["anyuka",-10.777671000411466],["Különös",-10.777723435288554],["hírszerzés",-10.777739593183753],["börtönbüntetés",-10.777770520977196],["Sony",-10.777784926372384],["BC",-10.77789041064595],["kivel",-10.777957412743513],["nézzü",-10.778140942884837],["lor",-10.778259344063702],["állást",-10.778313558683227],["kedvezőbb",-10.778382100947722],["fogadni",-10.778405140344297],["nyitás",-10.778823535203145],["üzemeltető",-10.778952555208804],["kérdése",-10.778967614871206],["tanuló",-10.779130206896806],["adózás",-10.779271835718164],["ülésen",-10.779515497988596],["bolt",-10.779633290970125],["idézi",-10.78014583734131],["együttműköd",-10.780817888680126],["megnyerte",-10.78223750428132],["többiek",-10.782560924395172],["statisztikai",-10.782921644497431],["vágta",-10.783012728185216],["vágott",-10.783197009984685],["főre",-10.7834068719597],["megtalált",-10.783587138663886],["VI",-10.784204859883456],["megyé",-10.785396085921548],["ütött",-10.785406900579527],["bírósági",-10.785684605638657],["előbbi",-10.7857933764124],["One",-10.785806334001446],["remény",-10.786081126231753],["hatály",-10.786470896438072],["panasz",-10.786568147967365],["apja",-10.786931552258917],["akarjá",-10.78728264580205],["hárma",-10.787502836029352],["kezeli",-10.787880094531243],["legtöbbe",-10.787960802497352],["medence",-10.788368174115433],["tudósok",-10.788442021876183],["Ö",-10.789136186877638],["mann",-10.789146650831194],["gimnázium",-10.789229620513954],["indokolt",-10.790337153674336],["megélhetés",-10.790374229750423],["lehetőségei",-10.790596614678496],["közep",-10.790640228013379],["törzs",-10.79103443394229],["vízbe",-10.79122332673024],["alapjai",-10.791277133757518],["regisztrálta",-10.791349482501467],["Csoport",-10.791427903947316],["halott",-10.792543325560743],["NN",-10.792546434850387],["un",-10.792825189738851],["bérleti",-10.792912343121014],["gépkocsi",-10.793234141812018],["szenvedte",-10.793475638464159],["hátteré",-10.793748235987698],["foglalkozás",-10.79384012148628],["futam",-10.793899504507372],["Fi",-10.793960415099427],["igazolt",-10.794347276417056],["háromszor",-10.794693943674709],["korszerű",-10.794830497886217],["Group",-10.795005873423698],["Manchester",-10.795204446517056],["Jézus",-10.795204452803176],["Rengeteg",-10.795204898702028],["csodálatos",-10.795219145174709],["Paks",-10.795287295106395],["frakció",-10.795307684526165],["tapasztalható",-10.795638675696058],["Önkormányzat",-10.795716858240706],["ikonikus",-10.795858786874472],["alábbi",-10.796071705505923],["dokumentumok",-10.796076896547623],["állunk",-10.796429710412946],["legerősebb",-10.79650752868534],["anuel",-10.796557303455382],["jogerős",-10.797182156873674],["fejlődésé",-10.797283078025067],["jegyek",-10.798477490827034],["old",-10.798567628295718],["meghaladó",-10.79864884734177],["adósság",-10.79899940107392],["Mindezek",-10.799358234634138],["Dunaújvárosi",-10.799400771059553],["ellátó",-10.800259660633724],["kártyá",-10.800279813873246],["békét",-10.800711512032251],["lakói",-10.800781900268412],["fém",-10.80098021950258],["Akik",-10.801124462035187],["csodá",-10.80118005709754],["teljesítményt",-10.802166118353282],["veszteségek",-10.802477301035177],["kialakított",-10.802659941175921],["lég",-10.80291745157786],["futás",-10.803112204285615],["Akár",-10.803554408996298],["napközben",-10.803735988240142],["hektár",-10.804592248952671],["össz",-10.80461845124955],["fiatalabb",-10.804754649511306],["borult",-10.804808603435426],["tüntetés",-10.80503074876464],["viseli",-10.805322967126521],["elfogadta",-10.80537586589514],["legye",-10.805493007023848],["Hisze",-10.805545167546168],["Hasonló",-10.806207993630961],["koncerte",-10.80653840571783],["menjen",-10.806903218653867],["helikopter",-10.806944814466114],["bizonyíték",-10.807192922173797],["játszó",-10.807442515332411],["tanult",-10.807444504121214],["intézkedéseke",-10.807528464759594],["forgat",-10.807784663294804],["alkohol",-10.808321492187567],["mindegyik",-10.808628547845768],["versenyen",-10.80866182931886],["érve",-10.808874378511351],["belépés",-10.809008354094791],["mozi",-10.809034233293804],["megmérettetés",-10.809433137965733],["idéz",-10.809774607276509],["kutyá",-10.810243133665264],["rivális",-10.810606780097979],["dolgozói",-10.810763302206507],["alapított",-10.81094236922194],["erőmű",-10.81134344177264],["felvásárlás",-10.811357734500163],["útra",-10.81146948170004],["tárgyalt",-10.811805245307447],["juttatás",-10.812085305592635],["reményked",-10.812272712166639],["vád",-10.812412211782672],["hetven",-10.81253588091089],["azonosított",-10.812676482261114],["konzervatív",-10.81280115070771],["Róbert",-10.813061708113894],["Áramlat",-10.813061842788763],["Telegram",-10.813062405064091],["sák",-10.81310938204063],["teheti",-10.813120362885044],["Anikó",-10.81315574506382],["lényeges",-10.813166314766573],["színvonal",-10.813412649182396],["titok",-10.813641511382592],["oltást",-10.813907427055366],["reklám",-10.814182749188236],["180",-10.814517556983692],["országo",-10.814908193510398],["regisztrált",-10.815104656636443],["sérültek",-10.815324900367486],["lelkész",-10.815349086527577],["tük",-10.815580434664],["einek",-10.815685724908525],["környezetvédelmi",-10.81607315413688],["motoros",-10.81609455854579],["hihetetlen",-10.816175523336517],["bejegyzésé",-10.81630956141898],["nyolcadik",-10.816647106935221],["köt",-10.816815229219895],["növelésé",-10.81683061978643],["indulhat",-10.816880303810432],["iket",-10.81689438662527],["tájak",-10.817718496400598],["elemzőj",-10.817754280808705],["ásával",-10.817990400955775],["meghatározott",-10.818321946985595],["áruház",-10.818537657618437],["rezsim",-10.818631198485296],["mo",-10.818673695015411],["stratégia",-10.818893661948454],["figyelme",-10.819718927056787],["berendezések",-10.820280560174696],["elmaradt",-10.821087595453417],["értékelte",-10.821335026717978],["hirdet",-10.821363492801824],["árat",-10.821396783530508],["befektető",-10.82166999607356],["Mária",-10.821808332090622],["verte",-10.822611042224349],["lépések",-10.822828865911777],["érdekelt",-10.823600121036687],["cégcsoport",-10.824081316501202],["visel",-10.824483250128726],["csatorna",-10.825639831190449],["ápol",-10.827529644306146],["őszintén",-10.828043319447303],["zené",-10.82833178676304],["rendezvények",-10.828487583721104],["vonzó",-10.82862633634901],["felelőssége",-10.829846794664011],["TikTok",-10.829964735387335],["eleme",-10.830043267463974],["gyanú",-10.830282967133495],["üzemel",-10.83029471717649],["Ipar",-10.83052674022769],["szerelme",-10.83052705571461],["oldalár",-10.830673800602064],["kezel",-10.830756275507692],["bizon",-10.831193894400368],["következménye",-10.831196703786684],["Május",-10.831243452206014],["Csongrád",-10.831245118264212],["streaming",-10.831254369550965],["Augusztus",-10.83128019909302],["útján",-10.831297035172184],["javítani",-10.831297835711926],["November",-10.831317118261236],["opció",-10.831349484081155],["MÁV",-10.831374797754478],["telen",-10.831463176851102],["államtitkára",-10.831467637279353],["célzó",-10.831481534993115],["csomagolás",-10.831563580259576],["ája",-10.831794982976325],["norvég",-10.831940087484977],["balti",-10.832244748151332],["egyenese",-10.832657064677575],["időpont",-10.83282031754393],["beszerzési",-10.832886998159005],["életmód",-10.833002976663666],["gyakoribb",-10.83378372185711],["London",-10.833939592562032],["alakulhat",-10.833993881514726],["lopás",-10.834532053648276],["támogatásár",-10.834708418694994],["megbízható",-10.835201875176448],["városvezetés",-10.835294279559632],["védi",-10.835503908305046],["megvalósul",-10.836102978613923],["vezetőedző",-10.836119769268908],["Legutóbb",-10.83634046848298],["távolság",-10.836369436022823],["felsőoktatás",-10.836588057380322],["drón",-10.836862558078995],["harci",-10.837200602902058],["követel",-10.8382263471218],["lapot",-10.838304949250672],["szerepét",-10.838343873520085],["kór",-10.838630457128719],["egymillió",-10.838796346167417],["tech",-10.838808408958286],["Ro",-10.838830021893376],["másnap",-10.839544523564744],["szerencsés",-10.839700657950564],["repülés",-10.839984894784068],["hajók",-10.840018923921829],["Donyeck",-10.841108131875512],["kette",-10.841428836513058],["akadt",-10.84202591872311],["romlott",-10.842222942309911],["jövőjé",-10.842463896370436],["férj",-10.842502489147371],["ítélték",-10.842659495353315],["Max",-10.8427487067968],["gyermekük",-10.842750408638636],["Meta",-10.842854759209601],["szervek",-10.84289478410282],["madár",-10.843154907023347],["járhat",-10.843365773226829],["Arénába",-10.84375330752824],["képvisel",-10.84442384024744],["győzelmé",-10.844712718625221],["ED",-10.84483147454548],["programja",-10.845811554106554],["sségébe",-10.845845294579384],["biztosítás",-10.846078329208215],["hátrányos",-10.846681254101739],["kérdésé",-10.846861400050047],["élen",-10.847556635286665],["tartalék",-10.847731538095143],["szörnyű",-10.847732245394072],["gondolni",-10.848247697141426],["Andrea",-10.848309539812504],["pihenő",-10.84844127053799],["hajnali",-10.848484946962758],["szolgálato",-10.848940881754348],["drágul",-10.849116303634016],["tegye",-10.849303993286657],["IM",-10.849331282380131],["alvás",-10.849341388283],["minősítés",-10.84944151486932],["Celsius",-10.849761925936658],["Samsung",-10.849761949655928],["Messi",-10.849765047578588],["Gáspár",-10.849765937641727],["Gergő",-10.849772659958429],["klímaváltozás",-10.849868802651992],["mozgósítás",-10.849897882025328],["eleve",-10.84998202730172],["iráni",-10.850040548127145],["béremelés",-10.850058145035453],["Series",-10.850060088067204],["indiai",-10.850099729266836],["drónok",-10.850141288912411],["Katasztrófavédel",-10.850248636037998],["előrelépés",-10.85037760161664],["forgalomba",-10.850533804972622],["panaszkod",-10.851048158407966],["tulajdonképpen",-10.851392997325366],["Non",-10.851402404893246],["nyereség",-10.851624588859588],["tartózkodó",-10.851893880665386],["vezetni",-10.851991657656377],["kényelmes",-10.852031924059112],["sikere",-10.852044721525619],["Összese",-10.852056894460794],["népesség",-10.852326052347989],["viszonyok",-10.852548247215623],["bármelyik",-10.852868238783373],["chip",-10.853300702699462],["végeredmény",-10.853391232818511],["potenciális",-10.853558872677478],["ügyet",-10.85358539387961],["naptár",-10.854044468867995],["vallott",-10.854752097361118],["televíziós",-10.8548140452885],["tízezer",-10.85510516192259],["klíma",-10.855469316284612],["brutális",-10.857128187529774],["kérés",-10.857212669402895],["ását",-10.85741187494443],["alelnök",-10.857706683844754],["barátság",-10.858161520448249],["bukott",-10.858507354592414],["biztosítási",-10.858733976367835],["boltok",-10.85885117905286],["tavasz",-10.858915602558557],["kamatok",-10.858924499712899],["növel",-10.859442952401514],["tapasztal",-10.859453485916214],["nyugodt",-10.860171887472864],["áldozato",-10.86036605031887],["Hát",-10.861593112609544],["US",-10.861623209675756],["ör",-10.861678061535578],["elismert",-10.861865494171735],["ígért",-10.862203697606082],["ünnepek",-10.86245528871345],["félre",-10.86256606253413],["megbeszélés",-10.862723691410991],["tekinti",-10.863161703414761],["szintje",-10.863202560856791],["kijelölt",-10.863471092478541],["5G",-10.86351112305038],["tartom",-10.86360620138934],["front",-10.86386022023248],["szállítani",-10.86392234048351],["Fed",-10.864343051928559],["ival",-10.86462410784053],["környéke",-10.865011828687155],["Alap",-10.865072584811434],["megpróbálta",-10.865435042238467],["székhely",-10.865517015314921],["kastély",-10.865695161747563],["tizenöt",-10.865702458074935],["dönteni",-10.86587505183426],["oldalú",-10.865985206482486],["gyász",-10.866002432298648],["ragaszkod",-10.866308972197361],["hangzott",-10.866577731230644],["szállítmányok",-10.866707257991047],["wei",-10.86683584359469],["Wall",-10.867175361312178],["kezébe",-10.867810650349218],["tanú",-10.86813859059632],["dioxid",-10.868571957666093],["Hosszú",-10.868629828636497],["Lázár",-10.868629933867275],["Hajnal",-10.86863052433316],["Krím",-10.868635505701382],["kártérítés",-10.868660300586455],["ád",-10.86867386830552],["munkavégzés",-10.868676000792055],["Equi",-10.868786201574654],["kellemes",-10.868807958108736],["euróövezet",-10.868932468614757],["átfogó",-10.869198246084917],["jelentkezik",-10.86927939310528],["MW",-10.869393237065111],["Művészet",-10.869624046195003],["450",-10.86970281850424],["torna",-10.869868065824342],["gondolkodás",-10.870167854940128],["használatát",-10.870389248438345],["választani",-10.870458920255222],["Jog",-10.870584773666117],["munkavállaló",-10.870624221683848],["kéne",-10.871428760530192],["elvesztette",-10.871518598338625],["nyomon",-10.871739303217801],["hallgatók",-10.872044543872429],["megközelítés",-10.8722173856844],["abszolút",-10.872291730901358],["találkozhat",-10.872333727753864],["szavazók",-10.872522343633758],["építésé",-10.873008689057333],["mindegy",-10.873071584726448],["erőszakos",-10.873316806998481],["növények",-10.873684766560988],["zük",-10.873893937983548],["tagság",-10.873975564731206],["könyve",-10.873986201544078],["szi",-10.873993115478527],["lépéseke",-10.87401293454992],["javá",-10.874224149923924],["Lengyelországba",-10.874815091171518],["Székely",-10.875524924289808],["láthatóa",-10.87563119153653],["hála",-10.875887175558422],["értesült",-10.876003404781141],["eléri",-10.876237009493693],["problémái",-10.876478471084855],["bán",-10.87665739606547],["váltotta",-10.87670793633164],["érdeklőd",-10.877220706254938],["bemutatott",-10.877250367794575],["forintba",-10.87727388088905],["hiányá",-10.87736920656147],["hi",-10.877504036289185],["összetett",-10.878201391552661],["oldalak",-10.878278587078787],["nyaralás",-10.878281848621505],["korán",-10.878355921817645],["indulás",-10.878488705578018],["kísérő",-10.879017124598061],["elemzése",-10.880526379311876],["140",-10.88102541429567],["kétszeres",-10.881434287676157],["reméli",-10.88205361778809],["San",-10.882254666510025],["migránsok",-10.882533923121573],["vakciná",-10.883102409737216],["okozza",-10.883199728641864],["kerülne",-10.883226541197207],["médiá",-10.883599344702315],["Nintend",-10.883752053851646],["nézett",-10.883784476548069],["jelentek",-10.883854255636901],["átalakítás",-10.884083620656092],["robbant",-10.884240437203193],["ingyen",-10.885196904061235],["érhet",-10.885212423182393],["országba",-10.885405494427546],["ru",-10.886236537412692],["gyakorolt",-10.886689180411455],["ügyfelei",-10.886828726186863],["kivitel",-10.886833119353785],["dunaújvárosi",-10.887099957305438],["hibák",-10.887157618984762],["98",-10.887184903598632],["kamion",-10.88730581779968],["rák",-10.887341826373504],["eredményez",-10.887670959095315],["forradalom",-10.887860621473543],["Széchenyi",-10.887860654037654],["Zöld",-10.887860847428595],["Szinte",-10.887864617697353],["Benedek",-10.887866839748579],["Harry",-10.887912144777353],["Kolozsvár",-10.887941845097014],["Tíz",-10.887969404136708],["hatását",-10.888062094935663],["katari",-10.888145166120777],["elkészült",-10.888650055023202],["csatorná",-10.88882618670355],["On",-10.889149679465621],["kerítés",-10.889485538133789],["rendezés",-10.890018233543046],["elvi",-10.890315657154492],["hosszabbítás",-10.890410621922875],["bűntett",-10.890577328088904],["sí",-10.890623071770934],["Hódmezővásárhely",-10.89066624976148],["németek",-10.891173876732967],["kód",-10.8913802614163],["figyelmeztetés",-10.891650817465731],["birtokába",-10.89188339022777],["titkos",-10.892020365008248],["gondok",-10.892140303414042],["sorozatot",-10.892270627892339],["megvalósításá",-10.892308377972526],["érem",-10.892457234551575],["éltek",-10.892537282008922],["sztrájk",-10.892715751551496],["ausztrál",-10.892724858030242],["megszállt",-10.893012663075417],["jegyzése",-10.893186436745427],["lügyminisztérium",-10.894005744083096],["élén",-10.894280797603075],["feltételei",-10.894293883610558],["hónapjá",-10.894596307948154],["készülhet",-10.894727882302503],["hagyományok",-10.895073223455423],["hiszem",-10.89561272488847],["kezelt",-10.895686233836742],["hy",-10.895693512263689],["megyék",-10.895760219050874],["helyeke",-10.895955050216054],["EB",-10.896288575422322],["mindannyi",-10.896590106243059],["vízi",-10.896819150079669],["jogok",-10.896832889908678],["teher",-10.896892519418376],["MT",-10.896933866659111],["kétharmad",-10.897068587260637],["holttesté",-10.898069945363686],["felvonás",-10.89882131979071],["történetét",-10.899022525160749],["inket",-10.899689629437052],["Miskolco",-10.89991435885284],["szolgált",-10.900372353935863],["kockázatok",-10.900436366743211],["06",-10.901310625957322],["világra",-10.90141812522254],["keresés",-10.902186515544795],["gyorsabba",-10.90254203543765],["kórházak",-10.902600005898524],["tevékenységét",-10.902644225144659],["hívja",-10.902764428950043],["Me",-10.902932755943658],["ötlete",-10.903685991557861],["Fesztivál",-10.903874183573985],["weboldal",-10.903896252484197],["változtatni",-10.904707362069125],["képesség",-10.904807538892559],["olyanok",-10.904894986564354],["befolyás",-10.905007176723043],["szakszervezet",-10.905163344420206],["kamato",-10.905225127744698],["fogás",-10.905897816745048],["termel",-10.90602029166057],["Egész",-10.906274546301724],["Arany",-10.906916715712699],["készíteni",-10.90719945443354],["honna",-10.90725271218791],["Gyermek",-10.907306780989046],["terhet",-10.907373277536676],["kárpátaljai",-10.907468462639944],["Igazgatóság",-10.907468462691732],["Székesfehérvár",-10.90746846688486],["Jelentős",-10.907468858182522],["Ágnes",-10.907471596090442],["Szerbia",-10.907561937983145],["Tegnap",-10.907583457103165],["hálás",-10.907742321895554],["ozott",-10.907961573881025],["munkanélküliség",-10.908258495457176],["alapuló",-10.908339461136642],["legyőzte",-10.90842095151373],["megoldani",-10.909355625100702],["sorba",-10.909422763381686],["látom",-10.909528076036217],["kedvezmény",-10.9101625335983],["felszín",-10.910219045320606],["fegyvert",-10.910285980854402],["célú",-10.911187837181414],["foglalt",-10.911346215829408],["érezz",-10.911485573201492],["költött",-10.911549695211772],["Hozzátett",-10.91161688984216],["megtenni",-10.911876094726432],["dolga",-10.91332508858462],["akarat",-10.913490538996921],["hős",-10.913940395466518],["elemek",-10.914225512266004],["használó",-10.914621906540706],["válaszolta",-10.914647571631644],["ozás",-10.914747101876848],["olvas",-10.914968792330766],["megemlékezés",-10.915016253714754],["350",-10.9150421923051],["Nek",-10.915166095648768],["fogni",-10.915353364733086],["javult",-10.91547034683536],["számla",-10.915926497375825],["emlékez",-10.91639073955026],["rajongói",-10.916398186737652],["napirend",-10.916443706085142],["okozó",-10.916612032236685],["lemez",-10.916933735285003],["feszültség",-10.917168536653978],["lakosok",-10.917609106844234],["tetsz",-10.91817098804071],["by",-10.918223129491109],["hozzájárult",-10.918479581359579],["becslések",-10.91893651735343],["nyit",-10.919234530751154],["Alig",-10.919502528824967],["góljá",-10.919810064835131],["labda",-10.920232383953149],["alkalmazások",-10.921415017030295],["bio",-10.921827888908334],["pontok",-10.921902557511462],["nyugdíjasok",-10.92221389514192],["fiók",-10.922234333891325],["kormányt",-10.922516955137866],["ésére",-10.92256137585127],["néni",-10.92286354454613],["Magyarországo",-10.923240637706927],["rab",-10.923832627948261],["hirdetett",-10.92427042334205],["érdekeit",-10.924289879004464],["délutáni",-10.924359514444609],["célpont",-10.92444238608967],["tenné",-10.924520543712067],["hatékonyabb",-10.92462720296166],["alul",-10.9251354075508],["covid",-10.92583307710394],["bűnös",-10.926377737527195],["hagyomány",-10.926974900657225],["szavaz",-10.927013059657128],["Hét",-10.927239246071665],["Donald",-10.92746261979864],["tilalom",-10.927469075949967],["Cristian",-10.927469635234718],["Petőfi",-10.927472852085433],["identitás",-10.927473562491564],["tilos",-10.927475686083858],["Leyen",-10.927478944070302],["Ügynökség",-10.92748516217213],["Martin",-10.927504555320933],["Brent",-10.927572214445233],["tábornok",-10.927596923154534],["találja",-10.927824443466918],["partnerei",-10.927875220829433],["jele",-10.927964930555513],["legszebb",-10.927997119193536],["teljesíteni",-10.9280870910391],["rendszerét",-10.928373681152499],["keletkez",-10.92844546332437],["célt",-10.929578872401333],["Tom",-10.929776573072976],["rendelte",-10.929997977505064],["Loki",-10.930110007896559],["csatá",-10.930307581326755],["szent",-10.93081145803086],["veszélyhelyzet",-10.930968387206292],["Katar",-10.931066874470904],["lényeg",-10.93116057047527],["szervező",-10.931160798632146],["barátjá",-10.931934633825902],["Val",-10.931945328874788],["Andi",-10.932183023057426],["hetet",-10.932393187042882],["elkövetkező",-10.932410733043334],["kerékpár",-10.932936576108823],["füst",-10.933839061359997],["eken",-10.933879537380824],["teljesítette",-10.934034073205744],["lejje",-10.934284982423716],["zárult",-10.93430089730956],["feltétel",-10.934551960428475],["szülés",-10.934804924829539],["Újra",-10.934859041209712],["ruha",-10.935086729634767],["emberiség",-10.935313074027956],["orr",-10.93531398174958],["ottani",-10.936116669960521],["Nemrég",-10.93644744757226],["partnere",-10.936475250642369],["képtelen",-10.936541804374535],["mondat",-10.93656797942382],["tehetség",-10.937124150116945],["tapasztalatok",-10.937269628558319],["őzött",-10.937279774543043],["go",-10.937286901331396],["kérésé",-10.937942731041076],["130",-10.938207859187354],["megőrzés",-10.938610080966813],["Olaszországban",-10.938733033818803],["mérleg",-10.939130536654133],["célra",-10.93967841696634],["ej",-10.939791853361797],["kialakításá",-10.940645198847633],["Los",-10.940694693953404],["javul",-10.941041236111824],["ültet",-10.941637793097506],["tartás",-10.941661585680942],["kellemetlen",-10.94213111182065],["pályafutás",-10.943333516662756],["képernyő",-10.943441853917676],["partján",-10.94387520784198],["ley",-10.944012271951182],["foglaltak",-10.944016547326125],["környez",-10.944197104596388],["járatok",-10.944679316550104],["kamara",-10.944836823810954],["szakemberei",-10.945204081231932],["rekordo",-10.945385765610887],["bu",-10.946069079303482],["búza",-10.946243046192059],["igazgatóság",-10.946672887657009],["tár",-10.946894901317629],["kérdezte",-10.94705686467238],["sztori",-10.947208163444133],["infrastruktúrá",-10.94729143613192],["ifjú",-10.947813288058645],["David",-10.947884276803503],["Fehéroroszország",-10.947929664055195],["Harkiv",-10.94794302080971],["hallani",-10.947949237506698],["ps",-10.94796487368562],["fantasztikus",-10.947966088220685],["Stadion",-10.94815904980485],["játszhat",-10.948193149787576],["megpróbált",-10.948209770661872],["vonni",-10.948323042246605],["biztosítana",-10.94833288441412],["csökkenésé",-10.948609232074796],["vonul",-10.948878594407136],["lista",-10.949143716165056],["éjfél",-10.94923709439039],["népszámlálás",-10.949423356702635],["lemond",-10.949710580386245],["dventi",-10.949821527223056],["logisztikai",-10.950071285914285],["párti",-10.950104666804492],["alapul",-10.950150207423327],["gyermekei",-10.950162799302717],["ülő",-10.950634983671005],["ált",-10.950992232610165],["feldolgozás",-10.951220397841832],["haladó",-10.951797923725087],["vezetésé",-10.95199727262334],["forró",-10.95228034196913],["ajánl",-10.952410614522996],["bázispont",-10.952416023291093],["ell",-10.952678672107877],["Gazdasági",-10.952848588965086],["állampolgárság",-10.953076564222659],["Wh",-10.953417179372519],["Danc",-10.953531678323138],["esztendős",-10.953578961160044],["félév",-10.953877980081515],["hallgató",-10.95413165276272],["véd",-10.954158382543428],["ébe",-10.954259546791302],["felvételek",-10.954510696782236],["bármit",-10.95506319928807],["M1",-10.955281367000115],["fokos",-10.955356128052106],["mos",-10.955421703304257],["birtok",-10.955538397453072],["alkalmazottak",-10.955651406578411],["pártja",-10.955925170689381],["Buda",-10.956163066173646],["kiemel",-10.95616395196724],["látogatott",-10.95622264813953],["előnye",-10.956987943300842],["városába",-10.957289986805856],["ozó",-10.957345047339263],["autópályá",-10.957584094373438],["Red",-10.957812452075455],["Po",-10.957985389991823],["fogadott",-10.958030637920597],["92",-10.958633376559405],["érni",-10.958920181823773],["jelző",-10.95916810650525],["mielőbb",-10.960221748467713],["mindennapjai",-10.96024213458621],["int",-10.960286362602428],["választók",-10.960383948806893],["testvér",-10.96055477074363],["ódott",-10.960610732271263],["kanadai",-10.960754424773697],["ajánlato",-10.961312285444606],["novemberi",-10.96145475647984],["irányítj",-10.961478073395991],["földön",-10.96159788826284],["rendelkezésé",-10.961644135049644],["nyeresége",-10.961668622115768],["900",-10.962191162088446],["tőzsde",-10.962475764563768],["tikus",-10.962482818081384],["költő",-10.962625462837476],["elkezd",-10.962765227304146],["csomópont",-10.963041850017666],["hetes",-10.963165208193951],["mikro",-10.963170234094942],["eladás",-10.963392664206205],["közeled",-10.963622988216123],["berg",-10.964054566785943],["szállt",-10.964296328705231],["csend",-10.964398368527204],["körök",-10.964686029278862],["ung",-10.964935080825018],["háziorvos",-10.965459379188818],["utasítás",-10.965474005312716],["megegyez",-10.965560524761035],["dízel",-10.965764541798752],["IV",-10.96605362881404],["javasol",-10.966198048900107],["War",-10.966560944058681],["tisztán",-10.966673245888456],["Q",-10.967024036006896],["BL",-10.967696214796463],["országai",-10.967781205768025],["mentem",-10.967880663467032],["turista",-10.968067141938315],["Nyilván",-10.968298014269317],["kiló",-10.968301991206841],["működtet",-10.968337955796544],["hajtás",-10.968378399909174],["emel",-10.968422870838445],["Befektetés",-10.968711493447767],["Szilárd",-10.968711501755934],["mozgalom",-10.96871716671436],["középső",-10.96872699445626],["Technológia",-10.968749151874585],["Bács",-10.968974449897324],["felesleges",-10.96906815610982],["jönni",-10.969088242077833],["építő",-10.969249678542544],["feltehető",-10.969293240231154],["legjelentősebb",-10.969313905389525],["napjá",-10.969517640262346],["tanítás",-10.969766565378137],["fenntartása",-10.969923010529492],["művészek",-10.970034414666193],["felújított",-10.970075159658686],["számítógép",-10.970167267136933],["sürgősségi",-10.970178223601868],["megszűnt",-10.970186588903795],["Vas",-10.970232015683727],["rokon",-10.970247249075388],["érdeke",-10.970305141753698],["Külön",-10.970325394357086],["életveszélyes",-10.97043526533273],["felirat",-10.970883305954802],["helyezés",-10.970976682691697],["történhet",-10.971047075597935],["dönthet",-10.97107145137496],["maszk",-10.971213510594229],["vidéke",-10.971342577020904],["kívánja",-10.971417998857982],["kockázato",-10.971462789007692],["biztosította",-10.971743880530523],["telepített",-10.971765561371491],["összeállítás",-10.97204777493879],["tünetei",-10.973218960186362],["kezelése",-10.973626536562959],["hatvan",-10.973880049439643],["má",-10.974037812170186],["délnyugati",-10.97420599618371],["komplex",-10.974751660226062],["indokolta",-10.974761176440566],["egészségi",-10.975448780000379],["helyettese",-10.975619603173747],["jelentősége",-10.97577842700916],["előnyt",-10.976124262608995],["tartalmazz",-10.976699772947542],["feljelentés",-10.977003127380824],["lépése",-10.977230200918692],["ebbé",-10.977734567447849],["mélyen",-10.977760750636811],["szex",-10.978327616714727],["Grand",-10.97839259198978],["energiahordozók",-10.978478140568445],["küldetés",-10.979647821635513],["so",-10.97968319347072],["igények",-10.979862412313864],["szexi",-10.979878693462503],["egyházi",-10.979889826514205],["példány",-10.980029953831913],["Britanni",-10.980647982088538],["vetni",-10.980860369210802],["professzor",-10.981055615986003],["szerkezet",-10.981229012872038],["polgármesteri",-10.981267058504123],["szilárd",-10.981562313139401],["megegyezés",-10.982143501354875],["ă",-10.982287930999217],["folyosó",-10.983153803255654],["lakot",-10.983615299465107],["omat",-10.983755868829636],["jelentő",-10.983840928647485],["ics",-10.984198142438574],["RM",-10.98427626494414],["megtudtu",-10.984580606057143],["készletek",-10.984590385627943],["szeptemberi",-10.984925715080765],["előírások",-10.985074469605896],["megyek",-10.985789920288902],["listán",-10.985959491524106],["teljesít",-10.985991454004814],["vádolta",-10.98695002828094],["fül",-10.98750063299124],["koncentrál",-10.988102008500602],["okot",-10.98863145159241],["ajánlás",-10.98864860702378],["stabilitás",-10.988710212348574],["kevered",-10.988920217603122],["akciót",-10.989006371408296],["tapasztalatai",-10.98965581120867],["Ü",-10.989664754912782],["viselő",-10.989787354605854],["lehetőségük",-10.989847565056369],["93",-10.989950779927655],["jubileum",-10.989986554986729],["Február",-10.989986554991962],["Április",-10.989986555040332],["Törvényszék",-10.989986556459339],["COVID",-10.989986558593605],["Switch",-10.989986747899774],["Palkovics",-10.98998680654974],["Disney",-10.989986891115114],["elegáns",-10.989987880465694],["Legalább",-10.989997707365276],["Eszter",-10.990018642780333],["megállapod",-10.990028961825228],["December",-10.990107142111627],["elképzelhető",-10.990220109164058],["Ukrán",-10.990221274134854],["bevonásá",-10.990303481005153],["hátsó",-10.990362144797729],["megmaradt",-10.990454829417752],["hall",-10.99058912669693],["Bíz",-10.990602577037542],["riasztás",-10.990611873331922],["túlnyomó",-10.990995795240863],["testvére",-10.991016458781349],["légitársaság",-10.991368010932288],["India",-10.991498085120485],["szegénység",-10.991647389239755],["kommunista",-10.991814244623967],["sír",-10.992101898591546],["csapott",-10.9925676302114],["hírül",-10.99258599214793],["számlák",-10.992636485039768],["szobá",-10.992697460731991],["versenyek",-10.992938728915393],["láng",-10.992957538633528],["Bukarest",-10.993214397227803],["bevételei",-10.993480527022164],["Boris",-10.993709500276985],["autójá",-10.994111828638161],["jóvá",-10.994409540240085],["Szám",-10.994514665624537],["honvédel",-10.994565414440878],["készülni",-10.994780413601955],["emeli",-10.99525434018792],["többféle",-10.995307043647003],["ellátásá",-10.995664707033825],["részesül",-10.996025760347234],["Facebooko",-10.996271379335194],["hatékonya",-10.996969086721844],["tol",-10.997110875665747],["Hold",-10.99765452252388],["ud",-10.998611752306784],["emléke",-10.998618526755696],["megtalálható",-10.998907287614397],["hagyjá",-10.999330781352782],["Jan",-10.999469995586681],["színpado",-10.999517369433141],["állapotá",-10.999778223955497],["béké",-10.999798161552372],["Pi",-11.000500604166843],["mellette",-11.000868702549887],["mérő",-11.00136521904416],["Párizs",-11.001424896142987],["nyújtotta",-11.002411728020878],["kikötők",-11.00243269190574],["célok",-11.002620121018733],["találkozta",-11.002674704577796],["háztartási",-11.003234112100056],["vallotta",-11.003528413289775],["Levent",-11.004056561264052],["gyengébb",-11.004408860646528],["ilyet",-11.004496981526513],["gondolt",-11.004727794246403],["tudomás",-11.004783055387279],["vers",-11.005182492463621],["követni",-11.005405887286987],["ését",-11.005495288656117],["Tar",-11.005613986686996],["magasság",-11.005819294045356],["elhagyta",-11.005952467298442],["Megjegyezt",-11.005988707939913],["bírságo",-11.006114863936261],["állítottak",-11.006260335436938],["zászló",-11.006787221372562],["közösségek",-11.00809411559104],["Londonba",-11.008506711343072],["könyvtár",-11.008651981547477],["életkor",-11.008893584392926],["szállította",-11.008922587872199],["köszönte",-11.00952998725559],["fejlett",-11.00965935262273],["stáb",-11.009860267067365],["ráta",-11.009888176087268],["eink",-11.010004868625717],["felszólította",-11.010091970109494],["ellátást",-11.010441954684364],["balesetek",-11.010449207580045],["végleg",-11.010969345834122],["Iroda",-11.011167658261693],["szed",-11.011291255410827],["prémium",-11.011647062847869],["Lavrov",-11.011725686820366],["Madrid",-11.011725712337952],["kézműves",-11.011725759647597],["konyha",-11.011730092094082],["Szovjetunió",-11.011749873836699],["Július",-11.0117676438499],["benzinkutak",-11.01180829266926],["Meghan",-11.011938866363261],["irányadó",-11.012031266267716],["lét",-11.012126907416523],["Truss",-11.01230167582188],["célzott",-11.012371592863186],["kultúrá",-11.01238031924971],["esélyt",-11.01244482171171],["kezdetét",-11.01259206796563],["érezhető",-11.013305614539263],["védőoltás",-11.013501640070048],["fontosságá",-11.013545626208408],["várost",-11.013852929748378],["érezni",-11.013903478960602],["tudatosa",-11.014116123697015],["ö",-11.014267092340937],["aggodalom",-11.01428920452179],["bevezetésé",-11.01462389820773],["biológiai",-11.01487125553869],["Ho",-11.015050020792],["fókuszál",-11.015061357720327],["használatá",-11.015307837233278],["gyalogos",-11.015364208622703],["tőzsdén",-11.015567629593946],["fehérorosz",-11.015612706972798],["meghirdetett",-11.016075775029007],["esszü",-11.016358518786323],["gyermekét",-11.016562851550727],["feleségét",-11.016642469636741],["ereje",-11.016746652626663],["mandátum",-11.017218208018157],["érdeklődő",-11.017451061223952],["fokozód",-11.017592254969232],["visszatért",-11.01765336961669],["csomago",-11.017810408503085],["temetés",-11.017885630983526],["cikkek",-11.017989327890914],["op",-11.01840568732192],["eredményét",-11.018775745626328],["szálló",-11.018903045000433],["lejt",-11.019193929276755],["tá",-11.019214301461218],["részvényei",-11.0194211527772],["jót",-11.019438418364016],["akadály",-11.020216948280591],["roham",-11.020477733787693],["elhagy",-11.021023011062834],["szálloda",-11.021488056070858],["igazolvány",-11.021594774373673],["valamely",-11.02166833184977],["működni",-11.021733219754136],["törvényt",-11.021938776249455],["karok",-11.021956958076826],["részesedés",-11.021965881168242],["nyújtana",-11.022153822322522],["Újpest",-11.022176216162858],["Alex",-11.022348442058439],["élvonal",-11.0224227634356],["buda",-11.022584905014352],["készlet",-11.02275551946969],["mutatni",-11.023993479706848],["07",-11.024190077375852],["ítélte",-11.024249195263982],["bővül",-11.024290105367891],["do",-11.024410586021629],["kezdeményezte",-11.024423635307443],["selejtező",-11.024631506358668],["dán",-11.02481052073905],["mérnök",-11.025127505615998],["adag",-11.02523065044964],["tisztviselők",-11.02526533710111],["pek",-11.026047903036167],["népi",-11.026126265001086],["fejlesztését",-11.026647797290403],["alapkamat",-11.026695846495116],["kötet",-11.026734297602209],["kötvény",-11.026881954870502],["egekbe",-11.026902846816501],["férjé",-11.027173089905872],["menetrend",-11.027476121266975],["bérek",-11.02763583117975],["inter",-11.028669707573966],["nyomást",-11.02911630229823],["bűn",-11.029223998876567],["anyago",-11.029471539526549],["nézte",-11.029581914078616],["látszott",-11.030009899050228],["posztolt",-11.03001698950747],["amelyik",-11.030330971002067],["91",-11.030535871470992],["frissen",-11.030787375674434],["másod",-11.031314165551512],["tanulni",-11.031457847657313],["átalakulás",-11.03155564042735],["hotel",-11.031605805047864],["szórakoztató",-11.031676963003305],["szélsőséges",-11.031790223111468],["Mostan",-11.032026054632887],["Értéktőzsd",-11.03218136101765],["csarnok",-11.032415112233643],["neked",-11.032669917074548],["kutat",-11.033003992409117],["órákba",-11.033034450983015],["ron",-11.033509696637303],["bántalmazás",-11.033947907999735],["Kisvárda",-11.033947947398087],["NASA",-11.033956933957224],["radikális",-11.033982749265574],["Fanni",-11.033992849918537],["előtérbe",-11.034085436224268],["legismertebb",-11.034272225869834],["behozatal",-11.034440725420236],["bevételt",-11.034493861051168],["szőlő",-11.034516703231901],["túlzás",-11.03459641647973],["javasolja",-11.034627552074628],["játékosa",-11.034675888152805],["kivitelező",-11.03471917648076],["jelentkező",-11.034818609042974],["határoz",-11.03490031897559],["őrzött",-11.03502730408496],["hordó",-11.035463418979655],["vádolj",-11.035471246281332],["kapcsolatuk",-11.035598757315217],["felvételi",-11.036045871498875],["ítélete",-11.036869931494929],["NA",-11.036904229010352],["vidám",-11.037503261872903],["Br",-11.037551198738155],["tervezte",-11.038088843953679],["fer",-11.038790738577177],["szabadságharc",-11.038954785282597],["mező",-11.039238903334384],["születése",-11.039376598988826],["erdei",-11.039636839392227],["szab",-11.039878974236967],["Ausztriába",-11.039999827989504],["tizenegy",-11.040172190506372],["Élet",-11.040246344245613],["rendezvénye",-11.040286203131451],["egyhetes",-11.040560354804859],["bekövetkez",-11.040575942341292],["értékelés",-11.040961015398167],["mélyebb",-11.04109619011522],["szakadt",-11.041258944151505],["Sch",-11.041383404174063],["Or",-11.04141109205319],["feladatai",-11.0414396663932],["ápolás",-11.041500734619628],["változatos",-11.041521381628744],["rakétá",-11.041768471803167],["ünnepség",-11.041962178069213],["kint",-11.042528152952201],["útjá",-11.042718627438093],["Go",-11.042838741107287],["jobboldali",-11.04290937971454],["platformok",-11.042939242364525],["érintette",-11.042976800618128],["ígérte",-11.044313058381233],["tagadta",-11.044457971340288],["lényege",-11.044621266755362],["témáj",-11.045103097471298],["veszített",-11.045336728837588],["teljesítő",-11.045378987058626],["koalíció",-11.04549269724843],["arch",-11.045703509963285],["kitüntetés",-11.046547175347234],["elfogad",-11.046659602467415],["csont",-11.0467816572645],["örülhet",-11.046835049960166],["püspök",-11.047562821644355],["ismételte",-11.047647595632986],["kilencedik",-11.04831913327117],["cipő",-11.04837742096652],["elképzel",-11.048628286115532],["készülékek",-11.04872280501052],["küzdő",-11.048791227601656],["suk",-11.048952684611494],["gyengülés",-11.049157698726265],["feladato",-11.049291203247654],["drágult",-11.049880007149948],["becsült",-11.050271649270957],["kulcs",-11.050375531664956],["ütközés",-11.051125556260509],["jutás",-11.051289056775877],["okostelefon",-11.051316149663007],["fogyott",-11.051331610954476],["lassul",-11.051471729063115],["zsidó",-11.051500788865747],["tűzijáték",-11.051910100646818],["szolidaritás",-11.05217889166536],["biztosítása",-11.052481550181675],["Idő",-11.052687839092021],["látv",-11.052697307401612],["fát",-11.052966018006241],["háromszoros",-11.05317684317316],["stratégiá",-11.053373479478058],["embere",-11.053622988428481],["mese",-11.05393037174033],["Ó",-11.054002242059648],["szegény",-11.0544034688142],["kínált",-11.054476395913271],["kudarc",-11.054509936381919],["Államokba",-11.05469893193684],["gyulladás",-11.054733776488018],["gépjármű",-11.054794186696672],["Do",-11.0548304912324],["hajtotta",-11.055257957441091],["tar",-11.055518808814073],["határt",-11.055783973376155],["jövedelem",-11.056050010752246],["krízis",-11.056139661203941],["Kor",-11.056198993859141],["pá",-11.05651550566367],["törekvő",-11.0566753292627],["Sopron",-11.056675563978427],["szlovákiai",-11.056708067001923],["újonc",-11.056717794833485],["hangz",-11.056737209410246],["exkluzív",-11.056823443512862],["Pont",-11.056838948200966],["Rendkívül",-11.056960125514063],["Game",-11.056997095439169],["reményé",-11.057007534191131],["Lisz",-11.057092302548224],["sportolók",-11.057168122634591],["növekedését",-11.05721923446306],["Áron",-11.057346281727522],["játsza",-11.057679011772228],["adminisztráció",-11.05779205485217],["megélénkül",-11.057916269388809],["igyekezte",-11.058087012504515],["nulla",-11.058262725631458],["rendszere",-11.058478526003846],["végrehajtott",-11.058820998020817],["egyikük",-11.058848929561446],["beton",-11.058968985890019],["részleges",-11.05908763293042],["jei",-11.059091336548772],["legnehezebb",-11.059163640775393],["ány",-11.059647222109522],["alapja",-11.059767573672051],["stadion",-11.0598056989683],["összeköt",-11.060172289174147],["jutó",-11.060261582160097],["tehetséges",-11.060321484965081],["alkalmazásá",-11.060523642378087],["hármas",-11.061217289109768],["előrejelzések",-11.061284533635831],["számításai",-11.061457803882494],["360",-11.061748094505258],["felfüggesztett",-11.06192272423845],["szán",-11.062488335960303],["megkapj",-11.062490208418836],["szerv",-11.062493375333185],["felelősségre",-11.062843064698374],["Egyik",-11.06349097906749],["következmények",-11.063935019834688],["nagykövet",-11.064330218586196],["kelt",-11.06455781034131],["önkéntesek",-11.064726882790636],["köze",-11.065022698029896],["viselte",-11.065129209518703],["fenntartás",-11.065438224436146],["raktár",-11.06582282608602],["wit",-11.066031871404462],["videók",-11.066662881177807],["rangsor",-11.066699354128628],["harcol",-11.06708775203026],["lep",-11.06749208624822],["változtatás",-11.067588450287387],["karjuk",-11.067627608394762],["mentette",-11.06823436726817],["önmagába",-11.068676823454567],["sson",-11.0687070298544],["ságosa",-11.068727416420739],["Mikor",-11.068825213497234],["állítás",-11.068963484687933],["utalás",-11.069193527536626],["gyártásá",-11.06933589099573],["használhat",-11.069349571025619],["részei",-11.069357313484408],["fenntartásá",-11.070227033872921],["hatást",-11.070717408018973],["ulturális",-11.070737859631066],["nyitó",-11.070841519354566],["szükségünk",-11.071080242852515],["hessen",-11.072217600931436],["helyben",-11.072232577156184],["devizák",-11.072735655840878],["összhangba",-11.073047789361343],["munkába",-11.073488228461724],["ító",-11.073669394200337],["kézilabda",-11.073705445485656],["ődött",-11.074048700475508],["sújtotta",-11.074244646015341],["tudna",-11.074370436459539],["Stars",-11.074431342660008],["oper",-11.074647876572598],["tudat",-11.074884229069465],["láncok",-11.074992121373738],["forrásai",-11.075747405885595],["sújtj",-11.075934015049086],["útvonal",-11.075980077050898],["utcák",-11.07598080529554],["vizsgá",-11.076500913827568],["edett",-11.076863201857204],["kilátás",-11.077260576598906],["lin",-11.077923714281459],["applikáció",-11.07829718925701],["végrehajtás",-11.078346298079696],["területre",-11.078551041904632],["kilogramm",-11.078579807051106],["NG",-11.07888628147847],["Szer",-11.079087095534582],["eformátus",-11.079341234346005],["nagyban",-11.079465460854259],["korrekció",-11.079710337246551],["tucat",-11.079759862120957],["Június",-11.079930994484467],["Statisztik",-11.07993104512253],["Kérdés",-11.079933606935576],["messzi",-11.079935568963242],["elképzelhetetlen",-11.079954771442441],["Pintér",-11.07998897117746],["Balogh",-11.079989784413389],["Eger",-11.080451427747652],["jótékonyság",-11.080586941778336],["tároló",-11.080683627777224],["bajba",-11.080855454673806],["félelem",-11.080920828433348],["tetszett",-11.081169849036455],["műfaj",-11.081178366044972],["Réka",-11.081312678428539],["utazók",-11.081317661045668],["drasztikus",-11.08133387780392],["élelmiszerárak",-11.081382609549344],["To",-11.081769468944888],["segítse",-11.081847547999576],["tudhat",-11.081921446264708],["reagálni",-11.082078350248029],["darabok",-11.082386860924444],["ölt",-11.082444129662152],["bajnokságon",-11.082788026339083],["papírok",-11.0829801245435],["szállítmány",-11.083146393663643],["emlékezetes",-11.083242186790287],["Mars",-11.083376405300333],["Bab",-11.083654586587919],["fedez",-11.083893998988264],["vetette",-11.08403506823623],["aláírás",-11.08429063400229],["megkezd",-11.084384376907176],["fű",-11.084430330144219],["ium",-11.084549176923254],["tiszt",-11.084640295074468],["korlátozott",-11.084676690623661],["határozz",-11.084794481076798],["hegy",-11.084904885764029],["térkép",-11.085077391795188],["tényezők",-11.085153834697996],["elfogadni",-11.085337125834164],["Margit",-11.085403359519269],["kormányzój",-11.08543663420484],["magyarázat",-11.0855456034351],["sör",-11.085671745254139],["mondhat",-11.085973456555033],["spórolni",-11.08647848372349],["napilap",-11.086621610187501],["döntését",-11.086851717294087],["hatások",-11.086992954006513],["megjelentek",-11.087029751786433],["vehető",-11.087076795651718],["szervezte",-11.087247514715166],["foglalja",-11.087642856536938],["csökkentés",-11.087884733577198],["megnőtt",-11.088599127682023],["képp",-11.088821862568325],["viselked",-11.089021803536735],["kilátások",-11.089062718096665],["nemzetbiztonság",-11.089401732612727],["legkevesebb",-11.089552412883446],["zseb",-11.089836077471599],["ebéd",-11.090252241692111],["mondv",-11.090260539748137],["frissítés",-11.090431781415196],["árai",-11.09072708961704],["bemutatta",-11.090825866108492],["képez",-11.091057508558631],["Kereskedel",-11.09119346840165],["átadás",-11.091227386723277],["tengeren",-11.09143798554635],["SD",-11.09207983322425],["off",-11.092088474617828],["nemzetiség",-11.092133857422613],["figyelmeztette",-11.092176300740043],["Ben",-11.092426222908777],["elismerést",-11.092686738925835],["utazni",-11.093045598780034],["valahogy",-11.093239412761651],["párbeszéd",-11.093646664877397],["vásárolta",-11.09368643173408],["hajt",-11.093999371901505],["minősége",-11.094362675310823],["kerek",-11.09553129626901],["újból",-11.095687974249943],["javításá",-11.095992433502108],["jelzett",-11.096858224662014],["választhat",-11.096934885702408],["íján",-11.097250073857579],["videójá",-11.09779139049282],["kényszer",-11.097837577845977],["Se",-11.09888212867666],["erültek",-11.099045646160288],["rászorulók",-11.099480529606744],["Sziget",-11.099556996767108],["kollégák",-11.099749708837297],["betű",-11.099755503738125],["kezdés",-11.099789745991412],["kiválasztott",-11.099863903307316],["fehérek",-11.099937613372667],["védeni",-11.09999675500985],["ennünk",-11.100004598994454],["kever",-11.100025770471664],["elment",-11.100118413716567],["tárolás",-11.100271807990593],["portugál",-11.100637798474807],["her",-11.100900927112908],["egyenlített",-11.100965905428223],["terápiá",-11.101001873833766],["magatartás",-11.101342089444213],["bizonyítani",-11.10147096597819],["idézett",-11.101603143977615],["városrész",-11.101765264699868],["digitalizáció",-11.101795351328011],["közönsége",-11.102321935737146],["csoportos",-11.102350676496652],["Ola",-11.102454437576702],["eszközei",-11.102509390006137],["inger",-11.102904843170823],["besorolás",-11.10331258268238],["határozotta",-11.103583765445343],["minősül",-11.103610368341926],["pályafutásá",-11.103644558837232],["szavazta",-11.103692827990892],["Guardian",-11.103740518221247],["Rövid",-11.103740542806293],["Kecskemét",-11.103740544263323],["szobor",-11.10374161970078],["szürke",-11.103743080705447],["Kálmán",-11.103743488784453],["hordónként",-11.103758775556937],["érzelmi",-11.103888392008896],["Fejér",-11.104087425933479],["ellenőrzi",-11.104278028431736],["Bíróság",-11.104278151911705],["Köztársaság",-11.104304640533567],["szegedi",-11.104489503040615],["jegyében",-11.104535103587306],["innovatív",-11.104655270845846],["rsula",-11.10472154947954],["Szu",-11.104737959662742],["FK",-11.104756680928439],["harcot",-11.104771234749919],["alakja",-11.104815577788088],["kiegyensúlyozott",-11.104900689283934],["akadályozz",-11.1049548501062],["törvények",-11.105016717823073],["fűződ",-11.105042449087769],["lakhatás",-11.105335801892505],["bolygó",-11.105446501882533],["zenét",-11.105476759196941],["Open",-11.105525186812601],["igényei",-11.105549051193117],["kialakítani",-11.10559146649144],["amike",-11.105939547625065],["Ausztri",-11.106028116153368],["jogszabályok",-11.10624370482692],["szereplői",-11.106282496628584],["zárv",-11.106840694298764],["feldolgozóipar",-11.10688193175424],["üzemanyagok",-11.106993635623583],["szervezés",-11.10714009278056],["szakaszán",-11.107553409968308],["köszöntötte",-11.107565902876411],["mondható",-11.107709363919984],["hirdette",-11.107749149418108],["fordulhat",-11.108029553777278],["lemondás",-11.108173706294684],["Neke",-11.108217099956068],["rejt",-11.108398344793269],["törvényjavaslat",-11.108514274375475],["válni",-11.109717419462603],["hétköznapi",-11.109968419765222],["üzletek",-11.110027315797463],["Simon",-11.110323804477686],["ellátott",-11.110345828325888],["kötni",-11.110522590706541],["kaland",-11.110639546794072],["ingi",-11.110969661952463],["hivatás",-11.110975890341239],["ingatlant",-11.111857480009336],["vesztesége",-11.112102964395639],["fűz",-11.112290816796406],["mell",-11.112766905208742],["vizsgálni",-11.113011956317477],["jelentkezte",-11.113291108724527],["szélé",-11.113528064424752],["gumi",-11.113610106319417],["árult",-11.113890463560248],["CI",-11.114104197403252],["földre",-11.114300291791201],["mérséklőd",-11.115390842794401],["lezár",-11.115735212075275],["támadt",-11.116425571419727],["feksz",-11.116472999539802],["lábá",-11.116580262983543],["terhelés",-11.116799198665143],["befektetések",-11.116932707503677],["összegek",-11.117130230602232],["költ",-11.11795639812954],["emelésé",-11.118053383454981],["érzékelő",-11.118900520579205],["kormánypárti",-11.119300832941931],["gyártan",-11.119495732114036],["útjár",-11.120059760350273],["napeleme",-11.120268486710177],["hor",-11.12082370622218],["tevékenységek",-11.120830504325763],["szerezhet",-11.121448591044729],["olvasó",-11.121844855486158],["hatályba",-11.122056370396292],["minisztere",-11.122512885665145],["mesél",-11.122633456714428],["hangos",-11.123291962080394],["mérhet",-11.123858842786968],["megvásárolt",-11.125147625940773],["státusz",-11.125224734928477],["š",-11.125291039755233],["ger",-11.125299465404488],["jelenet",-11.125311996601882],["fájdalmas",-11.12558855246053],["szerzés",-11.125968857995275],["beruházást",-11.126351381311451],["strand",-11.126400680184375],["légkör",-11.126428005976221],["történetek",-11.126600488456008],["elhangzott",-11.126875474401102],["szállítások",-11.127147475890514],["Ronald",-11.127205105100895],["elképzelés",-11.127265169694015],["gyártott",-11.127446408765564],["lassú",-11.128127177202126],["egyiptomi",-11.12813076213698],["World",-11.128130762175381],["diadalmaskod",-11.12813076402688],["bitcoin",-11.128130768208642],["krónikus",-11.128130769256765],["Január",-11.128130813381524],["laboratórium",-11.128130880384706],["majomhimlő",-11.128131386366762],["Virág",-11.128134083036894],["Fradi",-11.128135528231674],["legenda",-11.128143789190107],["elfogadhatatlan",-11.128165528046852],["reális",-11.128175061842565],["Luhanszk",-11.128283399620525],["eleji",-11.12836190011621],["Jenő",-11.128594118499226],["demokratikus",-11.128753617616185],["edzője",-11.128769784073116],["teremteni",-11.12885364824501],["Hszi",-11.128904787739017],["legsúlyosabb",-11.128943719760201],["polgárok",-11.128996227622059],["problémáj",-11.129205580278757],["társulat",-11.129220479029415],["helyezi",-11.129293599852728],["továbbjutás",-11.129317741603337],["Veres",-11.129770481035465],["Óriási",-11.12981205369271],["sikeré",-11.129993421266544],["sehol",-11.130136384103864],["vizes",-11.130204393928997],["érettségi",-11.13025548402251],["Mac",-11.130324199088172],["kedvelt",-11.130878898611002],["zék",-11.130931486081257],["jába",-11.130966661972163],["ness",-11.131013488439569],["vadon",-11.131323682996483],["létező",-11.13144827986422],["Nyíregyházán",-11.131506173476968],["tudatos",-11.131752108795716],["útszakasz",-11.1319443909419],["recept",-11.132602674320918],["gyümölcs",-11.132796491907763],["tisztviselő",-11.13297374425112],["juss",-11.13326010921419],["szeme",-11.133303210618696],["következtetés",-11.133340159122888],["rajz",-11.133878993654776],["kodás",-11.133945990493173],["ép",-11.133974485375516],["Fejlesztés",-11.13399402604839],["megvizsgál",-11.134110877638967],["válassz",-11.134793946096664],["öreg",-11.134799010468493],["töltés",-11.13482869754747],["Ameriká",-11.13547942467196],["követet",-11.135808898755357],["Sokszor",-11.135846654858835],["eljutott",-11.135890108817476],["szavazatok",-11.13610031301455],["szerelmé",-11.136302531163366],["üzemeltetés",-11.136631711018495],["ruhák",-11.136723560714984],["teherautó",-11.136772943665523],["megmarad",-11.136886737969284],["?”",-11.137279483021135],["que",-11.13835244557234],["konténer",-11.138901710855437],["reakció",-11.139409490863827],["megerősöd",-11.139419202057818],["pihenés",-11.139626004831046],["felhasználásá",-11.140102651692636],["pályázato",-11.140190423195186],["termékei",-11.140432415620364],["IP",-11.140564512481822],["dobogó",-11.14096342676363],["Szabad",-11.140968803328633],["csata",-11.14115574113003],["kérő",-11.141168829587354],["kapcsol",-11.1416202078579],["szövege",-11.142113543122122],["összefüggésben",-11.142266464287637],["halottak",-11.142848048876452],["indítvány",-11.14287045340149],["adóz",-11.143527045389902],["pel",-11.14364790905046],["szigetek",-11.143687822342315],["létesítmények",-11.143785671299053],["művelődés",-11.144122349597813],["politikájá",-11.144364133097977],["háttérbe",-11.144560034663407],["Ti",-11.144562834832664],["munkavállalói",-11.144728505502759],["emokratikus",-11.145052404290004],["rendelő",-11.1453070878993],["hesse",-11.145446371304502],["javasolta",-11.145706206663297],["Szak",-11.145723352097814],["megjelenésé",-11.145779093193243],["medencébe",-11.145784740405922],["csökkenése",-11.145881418040275],["játékosai",-11.145924582720353],["veszít",-11.145982937052585],["nyarán",-11.14619449004734],["ügylet",-11.146241986707553],["őszinte",-11.146251613274668],["gazda",-11.146314576021744],["hibát",-11.146682659354788],["posta",-11.146687476144095],["feje",-11.147518659172857],["élvez",-11.14768629427693],["végző",-11.147855662116545],["Hollandi",-11.147882821960046],["kézi",-11.14794706159337],["Köszön",-11.148305617655677],["döntései",-11.148548434905026],["szett",-11.148960496699953],["küzdelme",-11.149137166751055],["csapatai",-11.149170665501176],["vékony",-11.149266234506069],["látás",-11.14943200641333],["talp",-11.149625818402875],["hatalm",-11.149634930702787],["idejét",-11.151099317631315],["szál",-11.151107558652507],["Román",-11.151239781436551],["haderő",-11.151577344454347],["tevő",-11.151921146605734],["fogott",-11.152202967102452],["hazánkba",-11.15222211620721],["csatornák",-11.15225325089991],["Ver",-11.152361640892533],["köszönete",-11.152731453855424],["bizalom",-11.152875797009054],["Momentum",-11.153130767605678],["Mátyás",-11.153130780573013],["demokrácia",-11.153131705797708],["Hatalmas",-11.153132819338412],["Technolog",-11.153152600052595],["bácsi",-11.153164079829349],["Valószínű",-11.153168974084071],["széria",-11.15318031165341],["ésével",-11.153185280773947],["mentősök",-11.153208555288952],["Mazsi",-11.153229831914578],["Érdekes",-11.153285346536826],["látó",-11.153288008753066],["dúl",-11.153293250334494],["Kocsi",-11.153484851489846],["Angeles",-11.153562592040826],["MOL",-11.153795788992777],["nyersolaj",-11.153844634291268],["bevezetését",-11.154305495868647],["gőz",-11.154316898505707],["áremelés",-11.154337123734352],["lovas",-11.15467363769108],["politikát",-11.154702225395404],["tárgyalni",-11.154962255039294],["előnyös",-11.154966064570115],["vizsgál",-11.155186918285366],["megbízott",-11.15525343269281],["argentin",-11.15537712577288],["Car",-11.155378362998967],["előadásá",-11.15541771363911],["hidrogén",-11.155489696975355],["fogyasztási",-11.155667072332461],["Real",-11.15588602414021],["látogató",-11.156116579248906],["Egészségügy",-11.156272508365435],["javít",-11.156373888240111],["tisztáz",-11.156537706643364],["hosszas",-11.157025178631955],["valósul",-11.15707301308867],["bukkant",-11.157289988542079],["po",-11.157461620700921],["bocsátott",-11.157490738164105],["madarak",-11.157536758198253],["villany",-11.157638465704071],["bővítésé",-11.157666941319228],["összehasonlítás",-11.15772373080128],["vicces",-11.15777391281708],["ákóczi",-11.15778741154835],["Lo",-11.15791621577201],["élhet",-11.158611884417079],["megakadályozz",-11.158732309260717],["siet",-11.158834729635414],["telek",-11.159068268220164],["ismerhet",-11.159570740889258],["kivételes",-11.161009950044155],["érdekei",-11.161100818825549],["ham",-11.161130774226283],["alkotók",-11.161766272679447],["munkatárs",-11.162151065787075],["irodalom",-11.162294044147552],["szemtanú",-11.16230470923556],["ES",-11.16269580162255],["komp",-11.163927241499568],["égés",-11.164247559001977],["lakást",-11.164529618676355],["gyűjtő",-11.164862021306828],["sztárja",-11.16563833124819],["munkaerőpiac",-11.166345883343272],["lelkes",-11.166578065384666],["képességé",-11.16671787418374],["áruk",-11.166799557796562],["képessége",-11.166834378428574],["tiltott",-11.1671456892427],["kezdene",-11.167452074966917],["Kórház",-11.167586947602134],["világpiac",-11.167772228568559],["óvatosa",-11.16803911764382],["munkahelye",-11.168468518337423],["programsorozat",-11.168964532243892],["csapatát",-11.169406519493585],["hozam",-11.169520551169068],["piacán",-11.16955047525421],["környezeti",-11.171367105476245],["zöldség",-11.171645697857347],["valósult",-11.17169781047534],["kitermelés",-11.171946103586583],["ségi",-11.172337463685171],["kialakítása",-11.17237152289664],["480",-11.173107229483653],["érjük",-11.173372625465671],["székely",-11.17340542916337],["döntőbe",-11.173451861349843],["festés",-11.17347877631256],["válságo",-11.173897361937374],["résztvevői",-11.174069485278267],["fényes",-11.174311838161943],["metró",-11.17448637734018],["elnökválasztás",-11.17464010604832],["egyeztet",-11.175002592122196],["nyitottak",-11.175006345513726],["depresszió",-11.175185598192215],["elfoglalt",-11.175330686399692],["magánszemélyek",-11.175560687221155],["propaganda",-11.175707802241327],["deviza",-11.17593513695093],["szintjén",-11.175971103594351],["irodalm",-11.176044090168979],["képviseleté",-11.17605231877959],["Ju",-11.176595510224997],["kérdeztü",-11.176654988802984],["zsír",-11.176980063650424],["simán",-11.177060204076207],["haladt",-11.177183700482912],["olvasni",-11.177445888152434],["OSZ",-11.17766652162615],["rablás",-11.177797992969024],["ow",-11.17805489818126],["Lőrinc",-11.178060249276042],["sejt",-11.178086155951975],["reform",-11.178109965092524],["Múlt",-11.17858284611092],["éttermek",-11.178673501033064],["Fülöp",-11.178771125879447],["regisztráció",-11.178771787676524],["Vodafone",-11.178771787752066],["csalódás",-11.178775206078601],["indoklás",-11.178780847398546],["United",-11.178800317687534],["kamerá",-11.178835903060175],["Főügyészség",-11.178885511781065],["engedni",-11.178899908636707],["emberölés",-11.178947504222668],["Mezőkövesd",-11.178992952883341],["tűzszünet",-11.179215313663189],["Dan",-11.179295445047599],["németország",-11.179452848852893],["tartozás",-11.179554476689933],["emelkedhet",-11.17962150474734],["légierő",-11.179867085990015],["venné",-11.179944669419914],["címét",-11.18000254003158],["elérheti",-11.180034251220643],["túlzott",-11.180116457120565],["ünnepli",-11.180195585821133],["súly",-11.180343630912517],["veszélyeztetett",-11.18034388094714],["közössége",-11.180406531043172],["Gabi",-11.180479982953084],["szakítás",-11.180560580056635],["legdrágább",-11.180649735293267],["All",-11.180886746038789],["NO",-11.181391502594916],["hercegnő",-11.181594210635124],["filmes",-11.18182814116584],["liga",-11.182563696359974],["sága",-11.18263512322755],["csatár",-11.18310238285045],["házigazdák",-11.183212165094908],["emléké",-11.183353360660558],["kísérte",-11.183367440658948],["jelentések",-11.183390004396818],["olaszok",-11.18347151197396],["előnybe",-11.183831482293467],["választó",-11.18388982000049],["repülőgépek",-11.184439761890374],["úszás",-11.185069522486161],["állapotát",-11.18507281649268],["létrejött",-11.185358150592934],["hátul",-11.185417008875524],["karrierj",-11.18550256996603],["parancsnokság",-11.185554561620272],["szokások",-11.185596899100826],["Szép",-11.185662664119516],["határai",-11.185664072705048],["karantén",-11.186470075885335],["csalók",-11.18669741211927],["Bus",-11.18683971035383],["gá",-11.187034482940359],["Su",-11.187051122207132],["mérete",-11.187100678413879],["érdekel",-11.18719492960946],["jeles",-11.187300769072145],["koronavírusos",-11.18734458008722],["leány",-11.187537481179557],["Vol",-11.187562638411123],["felhasználói",-11.187575983034026],["értesítette",-11.187848545940383],["egyenes",-11.18820191180098],["börtönbe",-11.188242771917018],["amarosan",-11.188273947319516],["próba",-11.188560888048782],["Fél",-11.188587600893895],["bírság",-11.188598611107082],["megírta",-11.188863009258641],["sorok",-11.189035984747786],["különösebb",-11.18915873126552],["elindul",-11.18925990500864],["korú",-11.189329466375433],["horgász",-11.189680063541806],["adományoz",-11.189790042459851],["pap",-11.18995412575012],["konzolok",-11.190274922302438],["alakította",-11.190413208301313],["Másrész",-11.19061988637231],["atlanti",-11.190653895503054],["pótolni",-11.190814677033838],["mobiltelefon",-11.190820935427281],["IC",-11.190939141901081],["Párizsba",-11.191089150534737],["zárja",-11.192069089460787],["feleségem",-11.192804402563574],["kialakulásá",-11.193075946675712],["cső",-11.1932980765666],["hallotta",-11.19339907372977],["döntene",-11.19349561664059],["Peti",-11.193992445475406],["évfordulój",-11.194018701049082],["fogalmazta",-11.19437956963024],["Török",-11.194444252754778],["terep",-11.194605604565846],["dat",-11.195027018159895],["feleség",-11.19507241324634],["fenyegeti",-11.195164847026351],["Auto",-11.195847411643195],["témák",-11.196101270283245],["kezdetek",-11.196414740072594],["napjai",-11.196426175674535],["gazdaságo",-11.19648515679555],["évszázad",-11.19649087098356],["dobás",-11.197459831655177],["etlenül",-11.197926946799377],["nyolcvan",-11.198042930641707],["engedte",-11.198993093291396],["nyomozó",-11.19955994799009],["küzdeni",-11.199971157644558],["művek",-11.200456144667156],["értékesített",-11.200551437172182],["háborúba",-11.200633117505166],["stb",-11.200884751989665],["jogosult",-11.200965737243026],["Kijevbe",-11.201023203414987],["őrült",-11.201038271671964],["díját",-11.201189762948081],["Pal",-11.202157097308298],["karrierjé",-11.20242407917354],["közgazdász",-11.202447447056347],["liberális",-11.202598157278857],["küldeni",-11.202830000665596],["Du",-11.20292615081267],["bemutat",-11.20303877347839],["vallj",-11.203288561465568],["vásárhelyi",-11.203339688215609],["hárított",-11.2034022733709],["nyilvánosa",-11.203455426849565],["fázis",-11.20363395701416],["edik",-11.203909631840755],["kötőd",-11.204119747996524],["információs",-11.204249162019615],["súlyosabb",-11.204565507418074],["ősi",-11.204579395761144],["jócská",-11.204737089179163],["nyak",-11.204858145817088],["hívni",-11.205024577086267],["kézdivásárhelyi",-11.20508760445505],["Curtis",-11.205088075040752],["labdarúgás",-11.205093674512025],["Oscar",-11.2050949959341],["Kanada",-11.205095198002104],["Szavai",-11.205097096127654],["rosszindulatú",-11.205115779185178],["székelyföldi",-11.205117056794599],["influenza",-11.205136441086637],["végrehajtani",-11.20516138763395],["Soros",-11.205177373039197],["olajembargó",-11.205241869575518],["betekintés",-11.20524210923722],["Innen",-11.205249620615252],["Liu",-11.20526399889026],["Lapunk",-11.20530285320666],["Amazon",-11.205386519618411],["értékelése",-11.205387696636533],["nagyszabású",-11.205390311731573],["zák",-11.205473872541393],["előírt",-11.205635276833602],["tervezet",-11.20568281489702],["tanácsadója",-11.205960420989541],["Paul",-11.206049778707031],["Fehérvár",-11.20606971513654],["Senki",-11.206391478102885],["italok",-11.206448758655739],["boltokba",-11.206484883066697],["merült",-11.206510099741813],["kedvé",-11.206510871983568],["ezüstérmes",-11.207018009013382],["egyszerűbb",-11.207164428498839],["ideális",-11.207214318522212],["harmadá",-11.207941053279995],["elérése",-11.208006115053452],
[...]
