{"version":"1.0","truncation":null,"padding":null,"added_tokens":[{"id":0,"special":true,"content":"<UNK>","single_word":false,"lstrip":false,"rstrip":false,"normalized":false},{"id":1,"special":true,"content":"<SEP>","single_word":false,"lstrip":false,"rstrip":false,"normalized":false},{"id":2,"special":true,"content":"<MASK>","single_word":false,"lstrip":false,"rstrip":false,"normalized":false},{"id":3,"special":true,"content":"<CLS>","single_word":false,"lstrip":false,"rstrip":false,"normalized":false}],"normalizer":null,"pre_tokenizer":{"type":"Whitespace"},"post_processor":null,"decoder":null,"model":{"type":"BPE","dropout":null,"unk_token":"<UNK>","continuing_subword_prefix":null,"end_of_word_suffix":null,"fuse_unk":false,"vocab":{"<UNK>":0,"<SEP>":1,"<MASK>":2,"<CLS>":3,"!":4,"\"":5,"$":6,"%":7,"&":8,"'":9,"(":10,")":11,"*":12,"+":13,",":14,"-":15,".":16,"/":17,"0":18,"1":19,"2":20,"3":21,"4":22,"5":23,"6":24,"7":25,"8":26,"9":27,":":28,";":29,"<":30,">":31,"?":32,"A":33,"B":34,"C":35,"D":36,"E":37,"F":38,"G":39,"H":40,"I":41,"J":42,"K":43,"L":44,"M":45,"N":46,"O":47,"P":48,"Q":49,"R":50,"S":51,"T":52,"U":53,"V":54,"W":55,"X":56,"Y":57,"Z":58,"a":59,"b":60,"c":61,"d":62,"e":63,"f":64,"g":65,"h":66,"i":67,"j":68,"k":69,"l":70,"m":71,"n":72,"o":73,"p":74,"q":75,"r":76,"s":77,"t":78,"u":79,"v":80,"w":81,"x":82,"y":83,"z":84,"~":85,"§":86,"«":87,"®":88,"°":89,"²":90,"³":91,"´":92,"µ":93,"·":94,"»":95,"Á":96,"Ä":97,"Å":98,"Ç":99,"È":100,"É":101,"Í":102,"Ó":103,"Õ":104,"Ö":105,"×":106,"Ø":107,"Ú":108,"Ü":109,"à":110,"á":111,"â":112,"ã":113,"ä":114,"å":115,"ç":116,"è":117,"é":118,"ë":119,"í":120,"î":121,"ï":122,"ð":123,"ñ":124,"ò":125,"ó":126,"ô":127,"õ":128,"ö":129,"ø":130,"ú":131,"û":132,"ü":133,"ý":134,"ā":135,"ă":136,"Ć":137,"ć":138,"Č":139,"č":140,"Ď":141,"ď":142,"Đ":143,"đ":144,"ę":145,"ě":146,"ğ":147,"Ľ":148,"ľ":149,"ł":150,"ń":151,"ň":152,"Ő":153,"ő":154,"ř":155,"Ş":156,"ş":157,"Š":158,"š":159,"Ţ":160,"ţ":161,"ť":162,"Ű":163,"ű":164,"Ž":165,"ž":166,"Ș":167,"ș":168,"Ț":169,"ț":170,"ʼ":171,"́":172,"̈":173,"̋":174,"β":175,"μ":176,"‐":177,"‑":178,"‒":179,"–":180,"—":181,"‘":182,"’":183,"“":184,"”":185,"„":186,"†":187,"•":188,"…":189,"‼":190,"€":191,"−":192,"❗":193,"➡":194,"﷯":195,"️":196,"sz":197,"el":198,"et":199,"en":200,"gy":201,"er":202,"at":203,"al":204,"an":205,"az":206,"ek":207,"és":208,"ak":209,"or":210,"ár":211,"in":212,"em":213,"on":214,"ol":215,"ál":216,"eg":217,"ás":218,"ez":219,"is":220,"es":221,"án":222,"tt":223,"ok":224,"ér":225,"ar":226,"ég":227,"ho":228,"ik":229,"én":230,"egy":231,"os":232,"kö":233,"bb":234,"cs":235,"át":236,"ül":237,"ett":238,"am":239,"ít":240,"él":241,"meg":242,"ág":243,"ap":244,"hogy":245,"ék":246,"ban":247,"ét":248,"ed":249,"int":250,"ad":251,"ben":252,"ott":253,"szer":254,"agy":255,"il":256,"szt":257,"oz":258,"it":259,"ra":260,"ut":261,"ki":262,"om":263,"re":264,"ség":265,"ta":266,"nem":267,"köz":268,"ny":269,"ig":270,"fel":271,"ni":272,"tö":273,"ól":274,"ja":275,"ul":276,"le":277,"ák":278,"áz":279,"áll":280,"ell":281,"be":282,"ép":283,"og":284,"ely":285,"nk":286,"as":287,"aj":288,"hat":289,"ai":290,"nak":291,"ent":292,"ész":293,"ány":294,"ám":295,"het":296,"év":297,"ény":298,"ért":299,"nek":300,"kor":301,"elő":302,"Az":303,"iz":304,"id":305,"val":306,"olt":307,"ag":308,"ot":309,"te":310,"ind":311,"mi":312,"ci":313,"ság":314,"leg":315,"uk":316,"end":317,"jel":318,"ter":319,"us":320,"vez":321,"ől":322,"kez":323,"ált":324,"for":325,"od":326,"unk":327,"ont":328,"szág":329,"art":330,"ön":331,"ország":332,"hoz":333,"hely":334,"ud":335,"ír":336,"oly":337,"ös":338,"de":339,"ve":340,"ber":341,"szám":342,"ók":343,"ne":344,"nagy":345,"ök":346,"ond":347,"nap":348,"volt":349,"ha":350,"vet":351,"ill":352,"ük":353,"rend":354,"már":355,"mind":356,"ker":357,"ov":358,"több":359,"att":360,"ább":361,"szerint":362,"ők":363,"agyar":364,"ur":365,"20":366,"áb":367,"ában":368,"kal":369,"új":370,"öl":371,"sza":372,"vár":373,"tel":374,"ént":375,"elm":376,"ej":377,"ében":378,"fog":379,"ült":380,"Sz":381,"ív":382,"osz":383,"pr":384,"tart":385,"eket":386,"úl":387,"hi":388,"ött":389,"ős":390,"ára":391,"kap":392,"olg":393,"mű":394,"vezet":395,"száz":396,"ások":397,"van":398,"jelent":399,"vel":400,"ette":401,"ia":402,"ked":403,"tud":404,"azt":405,"éd":406,"ember":407,"lehet":408,"ert":409,"kép":410,"éz":411,"tör":412,"ját":413,"fi":414,"vég":415,"kül":416,"szak":417,"még":418,"len":419,"kell":420,"ció":421,"más":422,"csak":423,"iszt":424,"alék":425,"ör":426,"jár":427,"mag":428,"mint":429,"zet":430,"biz":431,"amely":432,"ba":433,"százalék":434,"ep":435,"után":436,"ály":437,"vál":438,"ebb":439,"ped":440,"ása":441,"ir":442,"ése":443,"vagy":444,"ást":445,"ják":446,"ajd":447,"aszt":448,"koz":449,"tal":450,"ház":451,"össz":452,"ról":453,"est":454,"vis":455,"ünk":456,"sem":457,"pedig":458,"nál":459,"tat":460,"um":461,"ület":462,"ony":463,"két":464,"érd":465,"ügy":466,"mény":467,"obb":468,"ély":469,"ezt":470,"okat":471,"min":472,"áj":473,"öv":474,"ód":475,"szem":476,"na":477,"mány":478,"ső":479,"ést":480,"Ez":481,"ellen":482,"ami":483,"ható":484,"tak":485,"tár":486,"rész":487,"ió":488,"ított":489,"magyar":490,"ának":491,"vi":492,"követ":493,"abb":494,"fő":495,"né":496,"elt":497,"ző":498,"minden":499,"mond":500,"tan":501,"mill":502,"pont":503,"ei":504,"lát":505,"ort":506,"han":507,"azon":508,"old":509,"ór":510,"ére":511,"foly":512,"kör":513,"hal":514,"őr":515,"gyan":516,"uró":517,"ín":518,"sor":519,"let":520,"ver":521,"orosz":522,"hez":523,"ád":524,"va":525,"je":526,"ug":527,"alm":528,"Egy":529,"idő":530,"ási":531,"majd":532,"bel":533,"fej":534,"sok":535,"vil":536,"esen":537,"any":538,"élet":539,"im":540,"ének":541,"eny":542,"utat":543,"tám":544,"ogat":545,"op":546,"kel":547,"áció":548,"eset":549,"lesz":550,"nök":551,"ab":552,"ult":553,"alap":554,"munk":555,"st":556,"ism":557,"véd":558,"ovább":559,"nő":560,"vált":561,"íz":562,"aki":563,"ost":564,"akkor":565,"raj":566,"kezd":567,"zés":568,"bizt":569,"kész":570,"ával":571,"árt":572,"emel":573,"ót":574,"ob":575,"ális":576,"forint":577,"világ":578,"ós":579,"üz":580,"men":581,"így":582,"Magyar":583,"yen":584,"úgy":585,"miatt":586,"között":587,"tovább":588,"von":589,"ból":590,"tört":591,"aság":592,"emény":593,"lak":594,"ikai":595,"osan":596,"olyan":597,"atok":598,"tet":599,"kormány":600,"ítás":601,"lan":602,"eni":603,"előtt":604,"tek":605,"csap":606,"ről":607,"város":608,"ési":609,"Or":610,"eng":611,"azd":612,"első":613,"szín":614,"érték":615,"kis":616,"uróp":617,"di":618,"ilyen":619,"ugyan":620,"kol":621,"szab":622,"hol":623,"mell":624,"hét":625,"mér":626,"asz":627,"00":628,"zs":629,"har":630,"fél":631,"rán":632,"hasz":633,"ből":634,"elnök":635,"út":636,"állal":637,"elem":638,"ün":639,"ések":640,"dön":641,"öz":642,"ábor":643,"ként":644,"igaz":645,"nél":646,"vállal":647,"gat":648,"eszt":649,"hető":650,"hozz":651,"atal":652,"telj":653,"erg":654,"gazd":655,"nyi":656,"eb":657,"vas":658,"miniszt":659,"jelen":660,"esz":661,"term":662,"utó":663,"ink":664,"202":665,"azonban":666,"ani":667,"seg":668,"ch":669,"szint":670,"vény":671,"szél":672,"egész":673,"kapcs":674,"egyik":675,"lő":676,"ták":677,"Nem":678,"vezető":679,"ikus":680,"par":681,"ikor":682,"dolg":683,"ász":684,"éves":685,"gyer":686,"talál":687,"ev":688,"által":689,"oszt":690,"étel":691,"ló":692,"árd":693,"szen":694,"elmi":695,"hár":696,"ment":697,"adás":698,"alak":699,"lt":700,"etlen":701,"jó":702,"segít":703,"per":704,"juk":705,"mert":706,"ma":707,"föl":708,"erős":709,"játék":710,"fér":711,"19":712,"csal":713,"külön":714,"való":715,"esít":716,"mondta":717,"ével":718,"ran":719,"port":720,"szolg":721,"kat":722,"nagyobb":723,"mellett":724,"dig":725,"ati":726,"arra":727,"most":728,"mar":729,"bet":730,"haj":731,"össze":732,"száll":733,"Magyarország":734,"millió":735,"pol":736,"ján":737,"ukrán":738,"oldal":739,"font":740,"kapcsol":741,"hábor":742,"pl":743,"enek":744,"vol":745,"saj":746,"köd":747,"támogat":748,"ökk":749,"sal":750,"últ":751,"ését":752,"őség":753,"éter":754,"form":755,"visz":756,"tó":757,"hang":758,"un":759,"óta":760,"eked":761,"keres":762,"használ":763,"ezer":764,"tag":765,"ütt":766,"ásár":767,"ered":768,"közös":769,"sik":770,"gond":771,"lép":772,"miniszter":773,"rá":774,"énz":775,"valam":776,"három":777,"av":778,"eti":779,"közel":780,"érkez":781,"ém":782,"korább":783,"cél":784,"vesz":785,"energ":786,"nagyon":787,"csökk":788,"mes":789,"milli":790,"fiz":791,"ram":792,"választ":793,"öt":794,"ata":795,"adó":796,"haz":797,"dolgoz":798,"állam":799,"határ":800,"együtt":801,"ező":802,"cég":803,"gazdaság":804,"vány":805,"Európ":806,"milliárd":807,"figy":808,"érdek":809,"pénz":810,"tött":811,"pár":812,"zel":813,"ását":814,"ács":815,"dönt":816,"ettek":817,"ford":818,"űn":819,"család":820,"őz":821,"ették":822,"jobb":823,"kérd":824,"kon":825,"alatt":826,"fontos":827,"háború":828,"viz":829,"hagy":830,"helyzet":831,"dr":832,"változ":833,"hon":834,"úly":835,"vissza":836,"terület":837,"kom":838,"akik":839,"ekt":840,"oló":841,"nok":842,"kod":843,"társ":844,"íg":845,"dí":846,"tér":847,"Uk":848,"ván":849,"atkoz":850,"atot":851,"súly":852,"ából":853,"történ":854,"biztos":855,"jegy":856,"pia":857,"szerep":858,"ába":859,"Cs":860,"siker":861,"éld":862,"alkal":863,"működ":864,"rendszer":865,"folyam":866,"eml":867,"bal":868,"amikor":869,"lal":870,"ri":871,"erő":872,"szerű":873,"incs":874,"lét":875,"Ukraj":876,"ors":877,"nyug":878,"intéz":879,"kív":880,"következ":881,"hozzá":882,"szük":883,"10":884,"fü":885,"hó":886,"hív":887,"vers":888,"gáz":889,"észt":890,"inek":891,"mek":892,"szeret":893,"marad":894,"péld":895,"vásár":896,"eh":897,"séges":898,"emelked":899,"beszél":900,"illet":901,"ító":902,"ogy":903,"óz":904,"szó":905,"pály":906,"szól":907,"jog":908,"mutat":909,"ic":910,"fl":911,"usz":912,"kön":913,"polit":914,"anak":915,"jöv":916,"Orosz":917,"eken":918,"megy":919,"okoz":920,"számára":921,"tá":922,"anyag":923,"baj":924,"ahol":925,"hír":926,"enc":927,"személy":928,"kit":929,"An":930,"ko":931,"leszt":932,"fizet":933,"ségi":934,"der":935,"gal":936,"épít":937,"gel":938,"magas":939,"itt":940,"ing":941,"ex":942,"másod":943,"egyed":944,"omb":945,"arról":946,"hiv":947,"kam":948,"15":949,"százalékkal":950,"oll":951,"ezte":952,"valamint":953,"mely":954,"br":955,"verseny":956,"hónap":957,"ssz":958,"osság":959,"onság":960,"ac":961,"eredmény":962,"tól":963,"növ":964,"Oroszország":965,"közl":966,"kil":967,"közöl":968,"nyil":969,"rég":970,"foglal":971,"négy":972,"iai":973,"kar":974,"esség":975,"dél":976,"ogram":977,"ide":978,"Ha":979,"gyak":980,"iskol":981,"lap":982,"ismer":983,"lett":984,"and":985,"adott":986,"omány":987,"ezett":988,"vétel":989,"ően":990,"rendőr":991,"amit":992,"cí":993,"nemzet":994,"nyom":995,"ülés":996,"felelő":997,"őt":998,"kapcsolat":999,"túl":1000,"ög":1001,"szor":1002,"uszt":1003,"egyen":1004,"mód":1005,"őket":1006,"adat":1007,"állap":1008,"volna":1009,"has":1010,"annak":1011,"olgár":1012,"ször":1013,"rendel":1014,"ób":1015,"ekkel":1016,"körül":1017,"elmúlt":1018,"kerül":1019,"lat":1020,"uló":1021,"lam":1022,"hiszen":1023,"szabad":1024,"ásokat":1025,"okban":1026,"tor":1027,"ésre":1028,"fejleszt":1029,"met":1030,"hát":1031,"ciók":1032,"sel":1033,"Nagy":1034,"ekben":1035,"úz":1036,"űz":1037,"rom":1038,"úja":1039,"áltat":1040,"maz":1041,"Gy":1042,"viszont":1043,"csökkent":1044,"ugyanis":1045,"ezért":1046,"előre":1047,"ec":1048,"részt":1049,"ául":1050,"sér":1051,"bár":1052,"fr":1053,"sg":1054,"jövő":1055,"bar":1056,"költ":1057,"autó":1058,"hány":1059,"Mi":1060,"polgár":1061,"állít":1062,"illetve":1063,"eddig":1064,"hanem":1065,"ással":1066,"ró":1067,"ru":1068,"sége":1069,"néz":1070,"lehetőség":1071,"udap":1072,"gyermek":1073,"férfi":1074,"Mind":1075,"bizony":1076,"biztonság":1077,"gg":1078,"só":1079,"udapest":1080,"ank":1081,"csapat":1082,"pen":1083,"almaz":1084,"of":1085,"program":1086,"jut":1087,"mel":1088,"jelenleg":1089,"irány":1090,"ium":1091,"nincs":1092,"nyit":1093,"oport":1094,"képvis":1095,"moz":1096,"mad":1097,"kev":1098,"ti":1099,"energia":1100,"In":1101,"fogy":1102,"tiszt":1103,"munka":1104,"valy":1105,"akar":1106,"esebb":1107,"második":1108,"30":1109,"vizsg":1110,"vő":1111,"ásra":1112,"prób":1113,"vél":1114,"víz":1115,"Köz":1116,"függ":1117,"ügyi":1118,"eség":1119,"ésére":1120,"gyű":1121,"18":1122,"séget":1123,"zár":1124,"jelentős":1125,"kívül":1126,"lag":1127,"őd":1128,"2022":1129,"amer":1130,"El":1131,"ói":1132,"kés":1133,"milyen":1134,"akár":1135,"újabb":1136,"si":1137,"ven":1138,"csoport":1139,"gondol":1140,"jük":1141,"például":1142,"tem":1143,"ottak":1144,"tette":1145,"rd":1146,"orv":1147,"díj":1148,"otta":1149,"bír":1150,"ték":1151,"ája":1152,"piac":1153,"kí":1154,"szav":1155,"folytat":1156,"saját":1157,"került":1158,"bajnok":1159,"műv":1160,"perc":1161,"ológ":1162,"szervezet":1163,"történt":1164,"reg":1165,"közölte":1166,"szik":1167,"euró":1168,"atlan":1169,"elmond":1170,"beteg":1171,"százalékos":1172,"nélkül":1173,"szolgáltat":1174,"ítani":1175,"zett":1176,"gyors":1177,"tett":1178,"legnagyobb":1179,"vannak":1180,"ttal":1181,"ros":1182,"övet":1183,"teljes":1184,"korábban":1185,"nép":1186,"gazdasági":1187,"gép":1188,"azért":1189,"bbi":1190,"mester":1191,"lég":1192,"amerikai":1193,"helyi":1194,"jól":1195,"bán":1196,"bank":1197,"fiatal":1198,"emlék":1199,"esült":1200,"mit":1201,"észet":1202,"emberek":1203,"szabály":1204,"ához":1205,"ította":1206,"belül":1207,"től":1208,"mindig":1209,"azok":1210,"doll":1211,"katon":1212,"ef":1213,"50":1214,"rec":1215,"gató":1216,"nal":1217,"inkább":1218,"érint":1219,"éb":1220,"ellát":1221,"találkoz":1222,"oztat":1223,"tavaly":1224,"tő":1225,"jelentette":1226,"során":1227,"lőd":1228,"ozz":1229,"körny":1230,"szön":1231,"szemben":1232,"lány":1233,"kereszt":1234,"kér":1235,"ülő":1236,"iség":1237,"abban":1238,"üntet":1239,"harmad":1240,"kl":1241,"tiz":1242,"almas":1243,"hazai":1244,"kár":1245,"12":1246,"szolgál":1247,"ham":1248,"hivatal":1249,"olaj":1250,"telep":1251,"védelmi":1252,"En":1253,"uty":1254,"szi":1255,"ezek":1256,"nőtt":1257,"újra":1258,"vit":1259,"éről":1260,"infl":1261,"ített":1262,"enn":1263,"közi":1264,"föld":1265,"De":1266,"amelyek":1267,"folyamat":1268,"időszak":1269,"chn":1270,"Szer":1271,"alapján":1272,"oda":1273,"ull":1274,"idén":1275,"kutat":1276,"ására":1277,"álló":1278,"növeked":1279,"negyed":1280,"nö":1281,"gyerek":1282,"ess":1283,"forr":1284,"hason":1285,"14":1286,"aton":1287,"európ":1288,"éssel":1289,"eztet":1290,"ord":1291,"Ny":1292,"európai":1293,"Mar":1294,"figyelm":1295,"üzem":1296,"enged":1297,"ant":1298,"tervez":1299,"másik":1300,"zi":1301,"ozott":1302,"jában":1303,"ka":1304,"elér":1305,"ződ":1306,"gyakor":1307,"16":1308,"vizsgál":1309,"őbb":1310,"alom":1311,"Ál":1312,"fut":1313,"ozó":1314,"ozat":1315,"nevez":1316,"zal":1317,"éve":1318,"ájék":1319,"up":1320,"közül":1321,"veszély":1322,"idej":1323,"cia":1324,"egyre":1325,"hatóság":1326,"mos":1327,"tam":1328,"ub":1329,"ánd":1330,"eit":1331,"köszön":1332,"fogyaszt":1333,"képviselő":1334,"ezet":1335,"csi":1336,"veszt":1337,"készül":1338,"hit":1339,"eszköz":1340,"termék":1341,"míg":1342,"uni":1343,"csat":1344,"ottság":1345,"tűz":1346,"ennek":1347,"gyal":1348,"Meg":1349,"ezzel":1350,"mik":1351,"árak":1352,"fogad":1353,"rendez":1354,"Budapest":1355,"nyer":1356,"had":1357,"mer":1358,"okkal":1359,"dar":1360,"fek":1361,"zék":1362,"vá":1363,"str":1364,"önk":1365,"hiány":1366,"mai":1367,"ón":1368,"egyes":1369,"mal":1370,"lenne":1371,"alk":1372,"Ukrajn":1373,"szív":1374,"átlag":1375,"ációs":1376,"átt":1377,"utol":1378,"fil":1379,"kellett":1380,"13":1381,"hall":1382,"igény":1383,"kő":1384,"barát":1385,"Ki":1386,"fegy":1387,"rendelkez":1388,"szület":1389,"írus":1390,"obl":1391,"lév":1392,"árs":1393,"ásban":1394,"további":1395,"tekint":1396,"ck":1397,"voltak":1398,"Európai":1399,"part":1400,"teljesít":1401,"dollár":1402,"elég":1403,"etem":1404,"bor":1405,"ismert":1406,"Már":1407,"egyéb":1408,"törtö":1409,"ütörtö":1410,"lel":1411,"felé":1412,"számít":1413,"17":1414,"őv":1415,"inak":1416,"megold":1417,"ay":1418,"hu":1419,"győz":1420,"ulajd":1421,"nev":1422,"újt":1423,"telen":1424,"rak":1425,"hatnak":1426,"jai":1427,"sp":1428,"szervez":1429,"ass":1430,"iss":1431,"probl":1432,"néhány":1433,"pént":1434,"halál":1435,"rel":1436,"játsz":1437,"oj":1438,"aut":1439,"tit":1440,"leges":1441,"szükség":1442,"ánt":1443,"vend":1444,"könny":1445,"országban":1446,"ákat":1447,"továbbra":1448,"otthon":1449,"követően":1450,"test":1451,"Nemzet":1452,"párt":1453,"koron":1454,"költség":1455,"elmondta":1456,"évben":1457,"következő":1458,"szár":1459,"ekre":1460,"ünne":1461,"kór":1462,"ították":1463,"rit":1464,"asztal":1465,"végén":1466,"nov":1467,"atív":1468,"hossz":1469,"különb":1470,"Ar":1471,"ebben":1472,"összeg":1473,"ipar":1474,"ájékoztat":1475,"inform":1476,"héz":1477,"mivel":1478,"lov":1479,"azzal":1480,"egymás":1481,"ulajdon":1482,"fin":1483,"mod":1484,"ro":1485,"Ukrajna":1486,"ika":1487,"elés":1488,"techn":1489,"ukat":1490,"napi":1491,"keresked":1492,"sport":1493,"ókat":1494,"óra":1495,"kapott":1496,"25":1497,"Er":1498,"lás":1499,"ezés":1500,"szavaz":1501,"ron":1502,"alá":1503,"érte":1504,"nehéz":1505,"vissz":1506,"ormány":1507,"alkalmaz":1508,"Azt":1509,"ala":1510,"lévő":1511,"korábbi":1512,"próbál":1513,"olni":1514,"lik":1515,"bér":1516,"száma":1517,"bo":1518,"nyilván":1519,"helyen":1520,"éhez":1521,"els":1522,"méter":1523,"rep":1524,"helyett":1525,"pal":1526,"zen":1527,"szank":1528,"heti":1529,"Egyesült":1530,"utolsó":1531,"csütörtö":1532,"hő":1533,"ozás":1534,"épület":1535,"indul":1536,"képest":1537,"okon":1538,"talan":1539,"vendég":1540,"pi":1541,"gyárt":1542,"eknek":1543,"ezni":1544,"megfelelő":1545,"magát":1546,"harc":1547,"utc":1548,"fenn":1549,"hál":1550,"SZ":1551,"közben":1552,"fal":1553,"vide":1554,"üt":1555,"gó":1556,"polgármester":1557,"orvos":1558,"szig":1559,"szerd":1560,"Al":1561,"köny":1562,"óri":1563,"alakul":1564,"lott":1565,"csú":1566,"mérték":1567,"tíz":1568,"kötel":1569,"értelm":1570,"készít":1571,"foglalkoz":1572,"11":1573,"ismét":1574,"üzlet":1575,"Mint":1576,"fegyver":1577,"igazgató":1578,"uház":1579,"jú":1580,"úr":1581,"érdem":1582,"Magyarországon":1583,"infláció":1584,"elej":1585,"erre":1586,"tap":1587,"alább":1588,"előző":1589,"2021":1590,"kik":1591,"utóbbi":1592,"tulajdon":1593,"oknak":1594,"várható":1595,"széd":1596,"assz":1597,"vállalkoz":1598,"egészség":1599,"szék":1600,"járvány":1601,"ános":1602,"ormányz":1603,"akad":1604,"Orbán":1605,"ús":1606,"erősít":1607,"sikerült":1608,"lab":1609,"fogalmaz":1610,"tartott":1611,"hasonló":1612,"áról":1613,"szintén":1614,"felt":1615,"ept":1616,"nai":1617,"szomb":1618,"neki":1619,"ang":1620,"harmadik":1621,"esemény":1622,"200":1623,"mintegy":1624,"törvény":1625,"ahogy":1626,"éj":1627,"ölt":1628,"később":1629,"ly":1630,"sze":1631,"hétfő":1632,"ist":1633,"kisebb":1634,"kórház":1635,"fert":1636,"sék":1637,"ítása":1638,"Péter":1639,"szok":1640,"édes":1641,"fok":1642,"öld":1643,"ür":1644,"képes":1645,"éseket":1646,"legjobb":1647,"bűn":1648,"óság":1649,"érdekében":1650,"gól":1651,"áld":1652,"színű":1653,"jon":1654,"gyel":1655,"földi":1656,"40":1657,"rem":1658,"ellem":1659,"vállalat":1660,"nemzetközi":1661,"annyi":1662,"kir":1663,"usban":1664,"állt":1665,"tanul":1666,"üzd":1667,"osztály":1668,"társaság":1669,"elet":1670,"éppen":1671,"segítség":1672,"jön":1673,"szül":1674,"áját":1675,"szabb":1676,"válasz":1677,"városi":1678,"vasár":1679,"olc":1680,"vér":1681,"özben":1682,"helyszín":1683,"aján":1684,"küld":1685,"talált":1686,"komoly":1687,").":1688,"se":1689,"var":1690,"fordul":1691,"nyilatkoz":1692,"jának":1693,"ral":1694,"ine":1695,"miniszterelnök":1696,"üket":1697,"elleni":1698,"érkezett":1699,"hitel":1700,"ánc":1701,"),":1702,"24":1703,"rag":1704,"évvel":1705,"ehér":1706,"öbb":1707,"köt":1708,"hetnek":1709,"írta":1710,"haszn":1711,"vád":1712,"ánk":1713,"kider":1714,"készült":1715,"közösségi":1716,"MT":1717,"ógy":1718,"javas":1719,"intézmény":1720,"magasabb":1721,"ern":1722,"teljesen":1723,"ékony":1724,"támad":1725,"uniós":1726,"hosszú":1727,"kett":1728,"nia":1729,"jt":1730,"olta":1731,"szövet":1732,"természet":1733,"közlemény":1734,"keret":1735,"kezdőd":1736,"elni":1737,"Puty":1738,"li":1739,"intézked":1740,"önkormányz":1741,"áig":1742,"eli":1743,"csom":1744,"megállap":1745,"sokkal":1746,"ári":1747,"játékos":1748,"létre":1749,"so":1750,"című":1751,"német":1752,"atos":1753,"tölt":1754,"csökken":1755,"Ist":1756,"ista":1757,"este":1758,"jött":1759,"etés":1760,"ékeny":1761,"jav":1762,"adásul":1763,"miután":1764,"tárgyal":1765,"átette":1766,"közép":1767,"felhasznál":1768,"táv":1769,"Állam":1770,"Vik":1771,"amelyet":1772,"bem":1773,"küzd":1774,"öm":1775,"végül":1776,"része":1777,"eptember":1778,"tűn":1779,"köl":1780,"számolt":1781,"hetően":1782,"alkot":1783,"ved":1784,"esetben":1785,"fot":1786,"mikor":1787,"arány":1788,"tani":1789,"oldalán":1790,"avírus":1791,"érium":1792,"szk":1793,"központ":1794,"ideg":1795,"ukraj":1796,"múlt":1797,"áv":1798,"ennyi":1799,"ozta":1800,"övid":1801,"ellenére":1802,"ukrajnai":1803,"húz":1804,"anu":1805,"elnöke":1806,"súlyos":1807,"rossz":1808,"részlet":1809,"elmiszer":1810,"keresztül":1811,"olvas":1812,"Ezt":1813,"igen":1814,"tény":1815,"ségek":1816,"közleked":1817,"Putyin":1818,"Kr":1819,"sen":1820,"her":1821,"műsor":1822,"utaz":1823,"számos":1824,"NA":1825,"ene":1826,"valós":1827,"fa":1828,"lakosság":1829,"koronavírus":1830,"100":1831,"ébe":1832,"végre":1833,"drág":1834,"okra":1835,"dec":1836,"halad":1837,"tóber":1838,"vét":1839,"problém":1840,"akció":1841,"adatok":1842,"utas":1843,"jából":1844,"élelmiszer":1845,"nyel":1846,"kos":1847,"űr":1848,"”.":1849,"ászló":1850,"kérdés":1851,"ünnep":1852,"cik":1853,"mec":1854,"tunk":1855,"akt":1856,"ásával":1857,"ezték":1858,"mennyi":1859,"politikai":1860,"reggel":1861,"pill":1862,"legyen":1863,"2020":1864,"szenved":1865,"tanács":1866,"héten":1867,"hajt":1868,"tük":1869,"eljár":1870,"menek":1871,"történet":1872,"kapcsolatban":1873,"válság":1874,"kevesebb":1875,"Bal":1876,"hull":1877,"ner":1878,"írja":1879,"vezetője":1880,"nie":1881,"mező":1882,"élő":1883,"szerződ":1884,"korlát":1885,"november":1886,"tájékoztat":1887,"gyógy":1888,"átor":1889,"fektet":1890,"felelős":1891,"ától":1892,"vonatkoz":1893,"friss":1894,"da":1895,"esett":1896,"hetetlen":1897,"tapasztal":1898,"öző":1899,"akat":1900,"december":1901,"környezet":1902,"ah":1903,"szinte":1904,"Ennek":1905,"vasárnap":1906,"állás":1907,"ezen":1908,"legalább":1909,"gyűl":1910,"egyház":1911,"forgal":1912,"országi":1913,"uguszt":1914,"katonai":1915,"oktat":1916,"ítja":1917,"nyolc":1918,"évek":1919,"maga":1920,"viszony":1921,"egyébként":1922,"Fer":1923,"rövid":1924,"csony":1925,"film":1926,"den":1927,"bele":1928,"tized":1929,"EU":1930,"ket":1931,"bejelent":1932,"sorozat":1933,"hamar":1934,"cser":1935,"enger":1936,"MTI":1937,"rek":1938,"ésével":1939,"szent":1940,"százaléka":1941,"Európa":1942,"jed":1943,"hogyan":1944,"szeptember":1945,"ilis":1946,"kény":1947,"elen":1948,"energi":1949,"technológ":1950,"bíz":1951,"ion":1952,"son":1953,"elek":1954,"fogalmazott":1955,"egyelőre":1956,"áram":1957,"eget":1958,"konc":1959,"rendőrség":1960,"Biz":1961,"ves":1962,"legtöbb":1963,"jármű":1964,"land":1965,"szükséges":1966,"he":1967,"vett":1968,"ották":1969,"hangsúly":1970,"alacsony":1971,"válogat":1972,"esetében":1973,"bajnokság":1974,"büntet":1975,"fed":1976,"tev":1977,"kéz":1978,"poz":1979,"mindenki":1980,"baleset":1981,"utt":1982,"encs":1983,"menny":1984,"lament":1985,"inál":1986,"először":1987,"vonal":1988,"kőzés":1989,"emelte":1990,"cím":1991,"egyetlen":1992,"piaci":1993,"Viktor":1994,"ésének":1995,"ingat":1996,"október":1997,"beruház":1998,"száml":1999,"örgy":2000,"rancia":2001,"mérkőzés":2002,"sért":2003,"vagyok":2004,"délután":2005,"szakért":2006,"brit":2007,"Deb":2008,"II":2009,"öd":2010,"szép":2011,"nehez":2012,"beszélt":2013,"Bár":2014,"bék":2015,"forintot":2016,"valószínű":2017,"hatja":2018,"endő":2019,"ünet":2020,"essz":2021,"idei":2022,"indult":2023,"ésben":2024,"jét":2025,"vette":2026,"egyszerű":2027,"lep":2028,"plom":2029,"Debrec":2030,"énk":2031,"szállít":2032,"király":2033,"Ugyan":2034,"Zs":2035,"éből":2036,"kevés":2037,"ándék":2038,"zaj":2039,"úttal":2040,"döntött":2041,"megyei":2042,"ugyanakkor":2043,"efon":2044,"ten":2045,"azonnal":2046,"mérsék":2047,"fontosabb":2048,"kín":2049,"ton":2050,"szeretn":2051,"Nemzeti":2052,"László":2053,"rez":2054,"tehát":2055,"meccs":2056,"iv":2057,"igy":2058,"forduló":2059,"szankciók":2060,"faj":2061,"egyszer":2062,"idős":2063,"bőv":2064,"erd":2065,"áni":2066,"zése":2067,"émi":2068,"élt":2069,"nyert":2070,"tevékeny":2071,"ingatlan":2072,"gyeng":2073,"forg":2074,"elején":2075,"telefon":2076,"vele":2077,"mények":2078,"ebru":2079,"kamat":2080,"auguszt":2081,"növel":2082,"pénteken":2083,"60":2084,"ereg":2085,"kori":2086,"rendkívül":2087,"ezelőtt":2088,"látogat":2089,"mennyiség":2090,"hos":2091,"kísér":2092,"sokat":2093,"ellenőr":2094,"rt":2095,"Úgy":2096,"döntő":2097,"Bar":2098,"Több":2099,"nyújt":2100,"adék":2101,"emelt":2102,"rendőrök":2103,"Most":2104,"St":2105,"tuk":2106,"benne":2107,"óg":2108,"bemutat":2109,"Hozz":2110,"részvény":2111,"vid":2112,"orban":2113,"biztonsági":2114,"könyv":2115,"érdemes":2116,"közvet":2117,"befektet":2118,"állapot":2119,"csomag":2120,"za":2121,"kedvez":2122,"biztosít":2123,"nyugati":2124,"elekt":2125,"ens":2126,"Szab":2127,"ódott":2128,"látható":2129,"pillan":2130,"sa":2131,"előny":2132,"80":2133,"áson":2134,"ettel":2135,"proj":2136,"úli":2137,"alkalm":2138,"ke":2139,"miközben":2140,"István":2141,"tenger":2142,"ong":2143,"állítás":2144,"szakasz":2145,"politikus":2146,"Minden":2147,"bi":2148,"til":2149,"vad":2150,"ólag":2151,"bíróság":2152,"kifej":2153,"csütörtökön":2154,"fenntart":2155,"gl":2156,"ina":2157,"dob":2158,"minisztérium":2159,"mozg":2160,"ca":2161,"dal":2162,"töl":2163,"tesz":2164,"érdeklőd":2165,"folyamatosan":2166,"Ferenc":2167,"23":2168,"ásának":2169,"mindent":2170,"atták":2171,"maradt":2172,"színész":2173,"művész":2174,"fehér":2175,"ítette":2176,"Ezek":2177,"hird":2178,"ítottak":2179,"émet":2180,"jobban":2181,"Br":2182,"fény":2183,"mun":2184,"ilag":2185,"jelentkez":2186,"kínál":2187,"különböző":2188,"ítő":2189,"itány":2190,"tudja":2191,"alkalom":2192,"fű":2193,"tur":2194,"vill":2195,"nemcsak":2196,"hatalmas":2197,"terv":2198,"attal":2199,"kelet":2200,"jára":2201,"ítvány":2202,"bevétel":2203,"óv":2204,"enet":2205,"Rom":2206,"pap":2207,"eként":2208,"megjelen":2209,"enget":2210,"állami":2211,"évtized":2212,"idéz":2213,"gar":2214,"ázs":2215,"napon":2216,"hosszabb":2217,"ügyminiszter":2218,"Jó":2219,"máj":2220,"féle":2221,"hagyomány":2222,"jelenlegi":2223,"janu":2224,"lem":2225,"ója":2226,"márci":2227,"ültek":2228,"ebruár":2229,"Német":2230,"különös":2231,"kilom":2232,"bocs":2233,"Uni":2234,"szom":2235,"amelynek":2236,"módon":2237,"erm":2238,"pontos":2239,"imi":2240,"Így":2241,"érvény":2242,"terem":2243,"22":2244,"vág":2245,"együttes":2246,"hétfőn":2247,"tr":2248,"ítés":2249,"kíván":2250,"szóló":2251,"visszat":2252,"mély":2253,"olcs":2254,"követő":2255,"ácsony":2256,"született":2257,"izál":2258,"oszk":2259,"népszerű":2260,"egyetem":2261,"adta":2262,"szerzés":2263,"ációk":2264,"éig":2265,"teszt":2266,"őként":2267,"eztek":2268,"távol":2269,"szerdán":2270,"utal":2271,"Mik":2272,"közep":2273,"pályáz":2274,"forgalom":2275,"jellem":2276,"adt":2277,"feny":2278,"zik":2279,"árul":2280,"szempont":2281,"régi":2282,"21":2283,"íció":2284,"úsz":2285,"hatatlan":2286,"Ország":2287,"feltétel":2288,"válogatott":2289,"Em":2290,"por":2291,"veg":2292,"felett":2293,"prilis":2294,"tudni":2295,"román":2296,"aztán":2297,"összesen":2298,"éli":2299,"ságot":2300,"kock":2301,"tizen":2302,"TO":2303,"mus":2304,"rendezvény":2305,"eik":2306,"pus":2307,"kora":2308,"parlament":2309,"olja":2310,"És":2311,"jutott":2312,"bek":2313,"tab":2314,"beli":2315,"független":2316,"figyelmet":2317,"elérhető":2318,"27":2319,"una":2320,"időben":2321,"látt":2322,"felvétel":2323,"többi":2324,"együttműköd":2325,"line":2326,"ná":2327,"közötti":2328,"kormányz":2329,"régió":2330,"vélemény":2331,"áron":2332,"inc":2333,"forintos":2334,"hálóz":2335,"Sok":2336,"lez":2337,"seb":2338,"kedden":2339,"2023":2340,"töltött":2341,"báz":2342,"fokoz":2343,"csatlak":2344,"elte":2345,"nyí":2346,"hozott":2347,"vagyunk":2348,"település":2349,"kilométer":2350,"ait":2351,"takar":2352,"életét":2353,"esetén":2354,"csúcs":2355,"megállapod":2356,"\".":2357,"kult":2358,"számol":2359,"támadás":2360,"alakult":2361,"emelkedett":2362,"augusztus":2363,"ga":2364,"jával":2365,"feleség":2366,"tudják":2367,"igyek":2368,"Rend":2369,"szí":2370,"szki":2371,"ásos":2372,"hetik":2373,"fejlőd":2374,"édesany":2375,"eleg":2376,"ódik":2377,"sokan":2378,"diák":2379,"ráadásul":2380,"modell":2381,"egészségügyi":2382,"ebo":2383,"all":2384,"ású":2385,"addig":2386,"években":2387,"vásárl":2388,"gyakorlat":2389,"kiderült":2390,"ájuk":2391,"található":2392,"Fac":2393,"megsz":2394,"városban":2395,"mot":2396,"ete":2397,"Le":2398,"beszéd":2399,"azonos":2400,"kockáz":2401,"jen":2402,"becs":2403,"Kor":2404,"nos":2405,"zöld":2406,"ségét":2407,"hatékony":2408,"örök":2409,"imir":2410,"Ti":2411,"február":2412,"mög":2413,"rál":2414,"vezér":2415,"janak":2416,"sziget":2417,"tűnik":2418,"Ol":2419,"méd":2420,"oci":2421,"valami":2422,"rakét":2423,"ián":2424,"legy":2425,"mon":2426,"rét":2427,"esek":2428,"Ak":2429,"fit":2430,"pan":2431,"poszt":2432,"baloldal":2433,"uális":2434,"zárt":2435,"azóta":2436,"agg":2437,"júli":2438,"hatunk":2439,"hivatalos":2440,"darú":2441,"nan":2442,"legfontosabb":2443,"darab":2444,"engeteg":2445,"get":2446,"sereg":2447,"munkat":2448,"fertőz":2449,"Facebo":2450,"étt":2451,"ikt":2452,"irod":2453,"szombaton":2454,"vonatkozó":2455,"35":2456,"árfolyam":2457,"többször":2458,"ősorban":2459,"jelenti":2460,"fiú":2461,"erősöd":2462,"repülő":2463,"Bizottság":2464,"atég":2465,"észak":2466,"írt":2467,"köszönhetően":2468,"org":2469,"index":2470,"többet":2471,"semmi":2472,"eszközök":2473,"70":2474,"Bank":2475,"fáj":2476,"elkép":2477,"szakember":2478,"óban":2479,"alig":2480,"ozik":2481,"döntés":2482,"Új":2483,"ark":2484,"ente":2485,"elmet":2486,"végzett":2487,"magán":2488,"tulajdonos":2489,"man":2490,"úton":2491,"venni":2492,"ipari":2493,"Pr":2494,"etet":2495,"lenül":2496,"talán":2497,"oldog":2498,"avar":2499},"merges":["s z","e l","e t","e n","g y","e r","a t","a l","a n","a z","e k","é s","a k","o r","á r","i n","e m","o n","o l","á l","e g","á s","e z","i s","e s","á n","t t","o k","é r","a r","é g","h o","i k","é n","e gy","o s","k ö","b b","c s","á t","ü l","et t","a m","í t","é l","m eg","á g","a p","ho gy","é k","b an","é t","e d","in t","a d","b en","o tt","sz er","a gy","i l","sz t","o z","i t","r a","u t","k i","o m","r e","s ég","t a","n em","kö z","n y","i g","f el","n i","t ö","ó l","j a","u l","l e","á k","á z","ál l","el l","b e","é p","o g","el y","n k","a s","a j","h at","a i","n ak","en t","é sz","án y","á m","h et","é v","én y","ér t","n ek","k or","el ő","A z","i z","i d","v al","ol t","a g","o t","t e","in d","m i","c i","s ág","l eg","u k","en d","j el","t er","u s","v ez","ő l","k ez","ál t","f or","o d","u nk","on t","sz ág","ar t","ö n","or szág","ho z","h ely","u d","í r","ol y","ö s","d e","v e","b er","sz ám","ó k","n e","n agy","ö k","on d","n ap","v olt","h a","v et","il l","ü k","r end","m ár","m ind","k er","o v","tö bb","at t","á bb","szer int","ő k","agy ar","u r","2 0","á b","á ban","k al","ú j","ö l","sz a","v ár","t el","én t","el m","e j","é ben","f og","ül t","S z","í v","o sz","p r","t art","ek et","ú l","h i","ö tt","ő s","ár a","k ap","ol g","m ű","vez et","sz áz","ás ok","v an","jel ent","v el","ett e","i a","k ed","t ud","az t","é d","em ber","le het","er t","k ép","é z","tö r","j át","f i","v ég","k ül","sz ak","m ég","l en","k ell","ci ó","m ás","cs ak","i szt","al ék","ö r","j ár","m ag","m int","z et","b iz","am ely","b a","száz alék","e p","ut án","ál y","v ál","e bb","p ed","ás a","i r","és e","v agy","ás t","j ák","aj d","a szt","k oz","t al","h áz","ös sz","r ól","es t","v is","ü nk","s em","ped ig","n ál","t at","u m","ül et","on y","k ét","ér d","ü gy","m ény","o bb","él y","ez t","ok at","m in","á j","ö v","ó d","sz em","n a","m ány","s ő","és t","E z","ell en","am i","hat ó","t ak","t ár","r ész","i ó","ít ott","m agyar","án ak","v i","kö vet","a bb","f ő","n é","el t","z ő","mind en","m ond","t an","m ill","p ont","e i","l át","or t","h an","az on","ol d","ó r","ér e","f oly","kö r","h al","ő r","gy an","ur ó","í n","s or","l et","v er","or osz","h ez","á d","v a","j e","u g","al m","E gy","id ő","ás i","m ajd","b el","f ej","s ok","v il","es en","an y","él et","i m","én ek","en y","ut at","t ám","og at","o p","k el","á ció","es et","le sz","n ök","a b","ul t","al ap","m unk","s t","is m","v éd","ov ább","n ő","v ált","í z","ak i","os t","ak kor","ra j","kez d","z és","biz t","k ész","á val","ár t","em el","ó t","o b","ál is","for int","vil ág","ó s","ü z","m en","í gy","M agyar","y en","ú gy","mi att","köz ött","t ovább","v on","b ól","tör t","as ág","em ény","l ak","ik ai","os an","oly an","at ok","t et","kor mány","ít ás","l an","en i","elő tt","t ek","cs ap","r ől","vár os","és i","O r","en g","az d","el ső","sz ín","ért ék","k is","uró p","d i","il yen","u gyan","k ol","sza b","h ol","m ell","h ét","m ér","a sz","0 0","z s","h ar","f él","r án","ha sz","b ől","el nök","ú t","áll al","el em","ü n","és ek","d ön","ö z","áb or","k ént","ig az","n él","v állal","g at","e szt","het ő","hoz z","at al","tel j","er g","g azd","ny i","e b","v as","min iszt","jel en","e sz","ter m","ut ó","in k","20 2","azon ban","an i","s eg","c h","sz int","v ény","sz él","eg ész","kap cs","egy ik","l ő","t ák","N em","vezet ő","ik us","p ar","ik or","d olg","á sz","év es","gy er","tal ál","e v","ált al","o szt","ét el","l ó","ár d","sz en","el mi","h ár","m ent","ad ás","al ak","l t","et len","j ó","seg ít","p er","j uk","m ert","m a","f öl","er ős","ját ék","f ér","1 9","cs al","kül ön","val ó","es ít","mond ta","év el","r an","p ort","sz olg","k at","nagy obb","mell ett","d ig","at i","ar ra","m ost","m ar","b et","h aj","össz e","sz áll","Magyar ország","mill ió","p ol","j án","uk rán","old al","f ont","kapcs ol","h ábor","p l","en ek","v ol","s aj","kö d","tám ogat","ök k","s al","úl t","és ét","ő ség","ét er","for m","vi sz","t ó","han g","u n","ó ta","ek ed","ker es","hasz nál","ez er","ta g","ü tt","ás ár","er ed","köz ös","s ik","g ond","l ép","miniszt er","r á","én z","val am","hár om","a v","et i","köz el","ér kez","é m","kor ább","c él","ve sz","en erg","nagy on","cs ökk","m es","mill i","f iz","r am","vál aszt","ö t","at a","ad ó","h az","dolg oz","áll am","hat ár","egy ütt","ez ő","c ég","gazd aság","v ány","E uróp","milli árd","fi gy","érd ek","p énz","tö tt","p ár","z el","ás át","á cs","dön t","ett ek","for d","ű n","csal ád","ő z","ett ék","j obb","k érd","k on","al att","font os","hábor ú","v iz","h agy","hely zet","d r","vált oz","h on","úl y","vis sza","ter ület","k om","ak ik","ek t","ol ó","n ok","k od","tár s","í g","d í","t ér","U k","v án","at koz","at ot","s úly","áb ól","tört én","bizt os","j egy","p ia","szer ep","áb a","C s","sik er","él d","al kal","mű köd","rend szer","foly am","em l","b al","am ikor","l al","r i","er ő","szer ű","in cs","l ét","Uk raj","or s","ny ug","int éz","k ív","követ kez","hozz á","sz ük","1 0","f ü","h ó","h ív","ver s","g áz","é szt","in ek","m ek","szer et","mar ad","p éld","v ásár","e h","ség es","emel ked","be szél","ill et","ít ó","o gy","ó z","sz ó","p ály","sz ól","j og","m utat","i c","f l","u sz","kö n","pol it","an ak","j öv","Or osz","ek en","m egy","ok oz","szám ára","t á","any ag","b aj","a hol","h ír","en c","szem ély","k it","A n","k o","le szt","fiz et","ség i","d er","g al","ép ít","g el","mag as","i tt","in g","e x","más od","egy ed","om b","ar ról","hi v","k am","1 5","százalék kal","ol l","ez te","valam int","m ely","b r","vers eny","hó nap","s sz","os ság","on ság","a c","ered mény","t ól","n öv","Orosz ország","köz l","k il","köz öl","ny il","r ég","fog lal","né gy","i ai","k ar","es ség","d él","og ram","id e","H a","gy ak","is kol","l ap","ism er","l ett","an d","ad ott","om ány","ez ett","v étel","ő en","rend őr","am it","c í","nem zet","ny om","ül és","fel elő","ő t","kapcsol at","t úl","ö g","sz or","u szt","egy en","m ód","ők et","ad at","áll ap","vol na","h as","an nak","olg ár","sz ör","rend el","ó b","ek kel","kör ül","elm últ","ker ül","l at","ul ó","l am","hi szen","szab ad","ások at","ok ban","t or","és re","fej leszt","m et","h át","ci ók","s el","N agy","ek ben","ú z","ű z","r om","ú ja","ált at","m az","G y","visz ont","csökk ent","ugyan is","ez ért","elő re","e c","r észt","á ul","s ér","b ár","f r","s g","jöv ő","b ar","kö lt","a utó","h ány","M i","p olgár","áll ít","illet ve","ed dig","han em","ás sal","r ó","r u","ség e","n éz","lehet őség","ud ap","gyer mek","fér fi","M ind","biz ony","bizt onság","g g","s ó","udap est","an k","csap at","p en","alm az","o f","pr ogram","j ut","m el","jelen leg","ir ány","i um","n incs","ny it","op ort","kép vis","m oz","m ad","k ev","t i","energ ia","I n","f ogy","t iszt","munk a","val y","ak ar","es ebb","másod ik","3 0","viz sg","v ő","ás ra","pr ób","v él","v íz","K öz","fü gg","ügy i","es ég","és ére","gy ű","1 8","ség et","z ár","jelent ős","kív ül","l ag","ő d","202 2","am er","E l","ó i","k és","m ilyen","ak ár","úja bb","s i","v en","cs oport","gond ol","j ük","péld ául","t em","ott ak","t ette","r d","or v","dí j","ott a","b ír","t ék","á ja","pia c","k í","sza v","foly tat","saj át","ker ült","baj nok","mű v","per c","oló g","szer vezet","tört ént","r eg","közöl te","sz ik","e uró","at lan","elm ond","bet eg","százalék os","nél kül","szolg áltat","ít ani","z ett","gy ors","t ett","leg nagyobb","van nak","tt al","r os","ö vet","telj es","korább an","n ép","gazdaság i","g ép","az ért","bb i","mes ter","l ég","amer ikai","hely i","j ól","b án","ban k","fi atal","eml ék","es ült","m it","ész et","ember ek","szab ály","á hoz","ított a","bel ül","t ől","mind ig","az ok","d oll","kat on","e f","5 0","re c","gat ó","n al","ink ább","ér int","é b","ell át","talál koz","oz tat","ta valy","t ő","jelent ette","sor án","lő d","oz z","kör ny","sz ön","szem ben","l ány","ker eszt","k ér","ül ő","is ég","abb an","ün tet","har mad","k l","t iz","alm as","haz ai","k ár","1 2","szolg ál","h am","hiv atal","ol aj","tel ep","véd elmi","E n","ut y","sz i","ez ek","nő tt","új ra","v it","ér ől","in fl","ít ett","en n","köz i","föl d","D e","amely ek","folyam at","idő szak","ch n","Sz er","alap ján","od a","ul l","id én","k utat","ás ára","áll ó","növ eked","n egyed","n ö","gyer ek","es s","for r","has on","1 4","at on","e uróp","és sel","ezt et","or d","N y","európ ai","M ar","figy elm","üz em","eng ed","an t","ter vez","más ik","z i","oz ott","j ában","k a","el ér","ző d","gyak or","1 6","vizsg ál","ő bb","al om","Á l","f ut","oz ó","oz at","ne vez","z al","év e","áj ék","u p","köz ül","vesz ély","id ej","ci a","egy re","ható ság","m os","t am","u b","án d","e it","kö szön","fogy aszt","képvis elő","ez et","cs i","ve szt","kész ül","h it","esz köz","term ék","m íg","u ni","cs at","ott ság","t űz","en nek","gy al","M eg","ez zel","m ik","ár ak","fog ad","rend ez","B udapest","ny er","h ad","m er","ok kal","d ar","f ek","z ék","v á","st r","ö nk","hi ány","m ai","ó n","egy es","m al","len ne","al k","Ukraj n","sz ív","át lag","áció s","á tt","ut ol","f il","kell ett","1 3","hal l","ig ény","k ő","bar át","K i","f egy","rendel kez","sz ület","ír us","ob l","l év","ár s","ás ban","tovább i","tek int","c k","volt ak","Európ ai","p art","telj esít","doll ár","el ég","et em","b or","ism ert","M ár","egy éb","tör tö","ü törtö","l el","fel é","szám ít","1 7","ő v","in ak","meg old","a y","h u","gy őz","ul ajd","ne v","új t","tel en","r ak","hat nak","ja i","s p","szer vez","as s","is s","pr obl","né hány","p ént","hal ál","r el","ját sz","o j","a ut","t it","leg es","szük ség","án t","v end","kön ny","ország ban","ák at","tovább ra","ott hon","követ ően","t est","Nem zet","p árt","kor on","költ ség","elmond ta","év ben","következ ő","sz ár","ek re","ün ne","k ór","ított ák","r it","aszt al","vég én","n ov","at ív","ho ssz","külön b","A r","ebb en","össz eg","i par","ájék oztat","in form","h éz","mi vel","l ov","az zal","egy más","ulajd on","f in","m od","r o","Ukraj na","ik a","el és","te chn","uk at","nap i","keres ked","s port","ók at","ó ra","kap ott","2 5","E r","l ás","ez és","szav az","r on","al á","ért e","ne héz","vis sz","or mány","alkal maz","Az t","al a","lév ő","korább i","prób ál","ol ni","l ik","b ér","szám a","b o","nyil ván","hely en","é hez","el s","m éter","re p","hely ett","p al","z en","sz ank","het i","Egy esült","utol só","cs ütörtö","h ő","oz ás","ép ület","ind ul","kép est","ok on","tal an","vend ég","p i","gy árt","ek nek","ez ni","meg felelő","mag át","har c","ut c","f enn","h ál","S Z","köz ben","f al","v ide","ü t","g ó","polgár mester","orv os","sz ig","szer d","A l","kö ny","ór i","alak ul","l ott","cs ú","m érték","t íz","kö tel","ért elm","kész ít","foglal koz","1 1","ism ét","üz let","M int","fegy ver","igaz gató","u ház","j ú","ú r","érd em","Magyarország on","infl áció","el ej","er re","t ap","al ább","elő ző","202 1","k ik","utó bbi","t ulajdon","ok nak","vár ható","sz éd","as sz","vállal koz","egész ség","sz ék","jár vány","án os","ormány z","ak ad","Or bán","ú s","erős ít","siker ült","l ab","fog almaz","tart ott","hason ló","ár ól","szint én","fel t","ep t","n ai","sz omb","nek i","an g","harmad ik","es emény","20 0","mint egy","tör vény","a hogy","é j","öl t","kés őbb","l y","sz e","hét fő","is t","kis ebb","kór ház","f ert","s ék","ít ása","P éter","sz ok","éd es","f ok","öl d","ü r","kép es","és eket","leg jobb","b űn","ó ság","érdek ében","g ól","ál d","szín ű","j on","gy el","föl di","4 0","r em","ell em","vállal at","nemzet közi","an nyi","ki r","us ban","áll t","tan ul","üz d","oszt ály","társ aság","el et","ép pen","segít ség","j ön","sz ül","á ját","sza bb","vál asz","város i","vas ár","ol c","v ér","öz ben","hely szín","aj án","kül d","tal ált","kom oly",") .","s e","v ar","ford ul","nyil atkoz","j ának","r al","in e","miniszter elnök","ük et","ellen i","érkez ett","hit el","án c",") ,","2 4","ra g","év vel","eh ér","ö bb","kö t","het nek","ír ta","hasz n","v ád","án k","ki der","kész ült","közös ségi","M T","ó gy","ja vas","intéz mény","magas abb","er n","telj esen","ék ony","tám ad","uni ós","hossz ú","k ett","ni a","j t","ol ta","sz övet","term észet","közl emény","ker et","kezd őd","el ni","P uty","l i","intéz ked","önk ormányz","á ig","el i","cs om","meg állap","sok kal","ár i","játék os","lét re","s o","cí mű","né met","at os","tö lt","csökk en","I st","is ta","es te","j ött","et és","ék eny","ja v","adás ul","mi után","tár gyal","át ette","köz ép","fel használ","tá v","Ál lam","V ik","amely et","b em","k üzd","ö m","vég ül","rész e","ept ember","t űn","kö l","szám olt","hető en","alk ot","v ed","eset ben","f ot","m ikor","ar ány","tan i","oldal án","av írus","ér ium","sz k","köz pont","id eg","uk raj","m últ","á v","en nyi","oz ta","öv id","ellen ére","ukraj nai","h úz","an u","elnök e","súly os","ros sz","rész let","elmi szer","kereszt ül","ol vas","Ez t","ig en","t ény","ség ek","közl eked","Puty in","K r","s en","h er","mű sor","ut az","szám os","N A","en e","val ós","f a","lak osság","koron avírus","1 00","é be","vég re","dr ág","ok ra","de c","hal ad","tó ber","v ét","probl ém","ak ció","ad atok","ut as","j ából","él elmiszer","ny el","k os","ű r","” .","ász ló","kérd és","ünne p","c ik","m ec","t unk","ak t","ás ával","ezt ék","men nyi","polit ikai","reg gel","p ill","l egyen","20 20","szen ved","tan ács","hét en","haj t","t ük","el jár","men ek","történ et","kapcsolat ban","vál ság","kev esebb","B al","h ull","n er","ír ja","vezető je","ni e","m ező","él ő","szer ződ","kor lát","nov ember","t ájékoztat","gy ógy","át or","fek tet","felelő s","át ól","von atkoz","fr iss","d a","es ett","het etlen","tap asztal","ö ző","ak at","dec ember","körny ezet","a h","szint e","En nek","vasár nap","áll ás","ez en","leg alább","gyű l","egy ház","for gal","ország i","ug uszt","katon ai","ok tat","ít ja","ny olc","év ek","mag a","visz ony","egyéb ként","F er","r övid","cs ony","fil m","d en","bel e","tiz ed","E U","k et","be jelent","sor ozat","ham ar","cs er","eng er","MT I","r ek","és ével","sz ent","százalék a","Európ a","j ed","hogy an","sz eptember","il is","k ény","el en","energ i","techn ológ","b íz","i on","s on","el ek","fogalmaz ott","egy előre","ár am","eg et","kon c","rendőr ség","B iz","v es","leg több","jár mű","lan d","szük séges","h e","v ett","ott ák","hang súly","ala csony","vál ogat","eset ében","bajnok ság","b üntet","f ed","te v","k éz","p oz","minden ki","bal eset","u tt","en cs","men ny","lam ent","in ál","elő ször","von al","kő zés","emel te","cí m","egy etlen","pia ci","Vik tor","és ének","in gat","ok tóber","ber uház","szám l","ör gy","ran cia","mér kőzés","s ért","vagy ok","dél után","szak ért","br it","D eb","I I","ö d","sz ép","ne hez","beszél t","B ár","b ék","forint ot","való színű","hat ja","end ő","ün et","es sz","id ei","ind ult","és ben","j ét","v ette","egy szerű","le p","pl om","Deb rec","én k","száll ít","kir ály","U gyan","Z s","é ből","kev és","ánd ék","z aj","ú ttal","dön tött","megy ei","ugyan akkor","ef on","t en","azon nal","mér sék","fontos abb","k ín","t on","szeret n","Nemzet i","L ászló","r ez","te hát","mec cs","i v","i gy","ford uló","szank ciók","f aj","egy szer","id ős","b őv","er d","án i","z ése","é mi","él t","ny ert","tev ékeny","ingat lan","gy eng","for g","elej én","tel efon","vel e","mény ek","eb ru","kam at","a uguszt","nö vel","pént eken","6 0","er eg","kor i","rend kívül","ez előtt","lát ogat","menny iség","ho s","kí sér","s okat","ellen őr","r t","Ú gy","dönt ő","B ar","T öbb","ny újt","ad ék","em elt","rendőr ök","M ost","S t","t uk","ben ne","ó g","bem utat","H ozz","rész vény","v id","or ban","biztonság i","köny v","érdem es","köz vet","be fektet","állap ot","csom ag","z a","ked vez","biztos ít","nyug ati","el ekt","en s","Sz ab","ód ott","lát ható","pill an","s a","elő ny","8 0","ás on","ett el","pr oj","úl i","alkal m","k e","mik özben","Ist ván","t enger","on g","áll ítás","szak asz","polit ikus","Mind en","b i","t il","v ad","ól ag","bír óság","ki fej","csütörtö kön","fenn tart","g l","in a","d ob","miniszt érium","moz g","c a","d al","tö l","te sz","érdek lőd","folyamat osan","Fer enc","2 3","ás ának","mind ent","att ák","marad t","szín ész","műv ész","f ehér","ít ette","Ez ek","hi rd","ított ak","ém et","jobb an","B r","f ény","m un","il ag","jelent kez","kí nál","különb öző","ít ő","it ány","tud ja","alkal om","f ű","t ur","v ill","nem csak","hat almas","ter v","att al","kel et","j ára","ít vány","be vétel","ó v","en et","R om","p ap","ek ént","meg jelen","eng et","áll ami","év tized","id éz","g ar","áz s","nap on","hos szabb","ügy miniszter","J ó","m áj","fél e","hagy omány","jelenleg i","j anu","l em","ó ja","már ci","ült ek","ebru ár","N émet","külön ös","kil om","bo cs","U ni","sz om","amely nek","mód on","er m","pont os","i mi","Í gy","ér vény","ter em","2 2","v ág","együtt es","hétfő n","t r","ít és","kív án","szól ó","vissz at","m ély","ol cs","követ ő","ács ony","szület ett","iz ál","osz k","nép szerű","egy etem","ad ta","szer zés","á ciók","é ig","te szt","ők ént","ezt ek","tá vol","szerd án","ut al","M ik","köz ep","pály áz","forgal om","j ellem","ad t","f eny","z ik","ár ul","szem pont","rég i","2 1","í ció","ú sz","hat atlan","Or szág","felt étel","válogat ott","E m","p or","v eg","fel ett","pr ilis","tud ni","rom án","azt án","össz esen","él i","ság ot","ko ck","tiz en","T O","m us","rendez vény","e ik","p us","kor a","par lament","ol ja","É s","jut ott","b ek","ta b","bel i","függ etlen","figyelm et","elér hető","2 7","u na","idő ben","l átt","fel vétel","több i","együtt működ","l ine","n á","között i","kormány z","rég ió","vél emény","ár on","in c","forint os","hál óz","S ok","l ez","s eb","ked den","202 3","töl tött","b áz","f okoz","csat lak","el te","ny í","hoz ott","vagy unk","telep ülés","kilom éter","a it","tak ar","élet ét","eset én","csú cs","megállap od","\" .","k ult","szám ol","tám adás","alak ult","emelked ett","auguszt us","g a","j ával","fel eség","tud ják","igy ek","R end","sz í","sz ki","ás os","het ik","fej lőd","édes any","el eg","ód ik","sok an","di ák","rá adásul","mod ell","egészség ügyi","eb o","al l","ás ú","ad dig","év ekben","vásár l","gyakor lat","kider ült","áj uk","talál ható","F ac","meg sz","város ban","m ot","et e","L e","be széd","azon os","kock áz","j en","be cs","K or","n os","z öld","ség ét","hat ékony","ör ök","imi r","T i","f ebruár","m ög","r ál","vez ér","j anak","szig et","tűn ik","O l","m éd","o ci","val ami","rak ét","i án","l egy","m on","r ét","es ek","A k","f it","p an","p oszt","bal oldal","u ális","z árt","az óta","ag g","j úli","hat unk","hivatal os","dar ú","n an","leg fontosabb","dar ab","enget eg","g et","s ereg","munk at","fert őz","Fac ebo","é tt","ik t","ir od","szomb aton","vonatkoz ó","3 5","ár folyam","több ször","ős orban","jelent i","fi ú","erős öd","rep ülő","Biz ottság","at ég","ész ak","ír t","köszön hetően","or g","ind ex","több et","sem mi","eszköz ök","7 0","B ank","f áj","el kép","szak ember","ó ban","al ig","oz ik","dönt és","Ú j","ar k","ent e","elm et","vég zett","mag án","tulajdon os","m an","út on","ven ni","ipar i","P r","et et","len ül","tal án","old og","av ar"]}}