{"version":"1.0","truncation":null,"padding":null,"added_tokens":[{"id":0,"special":true,"content":"<UNK>","single_word":false,"lstrip":false,"rstrip":false,"normalized":false},{"id":1,"special":true,"content":"<SEP>","single_word":false,"lstrip":false,"rstrip":false,"normalized":false},{"id":2,"special":true,"content":"<MASK>","single_word":false,"lstrip":false,"rstrip":false,"normalized":false},{"id":3,"special":true,"content":"<CLS>","single_word":false,"lstrip":false,"rstrip":false,"normalized":false}],"normalizer":null,"pre_tokenizer":{"type":"Whitespace"},"post_processor":null,"decoder":null,"model":{"type":"Unigram","unk_id":0,"vocab":[["<UNK>",0.0],["<SEP>",0.0],["<MASK>",0.0],["<CLS>",0.0],["a",-2.7092525743854754],["t",-3.1155045836735944],[",",-3.4716915125818844],["i",-3.4852849418700753],[".",-3.8876480851134456],["k",-4.14907055751625],["e",-4.293152866129818],["n",-4.309546252089911],["és",-4.310015764787215],["z",-4.350076094581105],["az",-4.399925868412385],["s",-4.400604147345428],["l",-4.559269783074997],["el",-4.563153722207014],["m",-4.57690933067731],["r",-4.641154386532255],["en",-4.685743776848049],["g",-4.687569117670892],["d",-4.721297446952269],["ó",-4.729312455722157],["A",-4.773457660796254],["sz",-4.818477476579822],["et",-4.951574443842784],["-",-4.964021916318142],["b",-4.972718444616822],["ő",-5.042876892799219],["is",-5.049023839708566],["p",-5.056673021818369],["ek",-5.075705911438037],["hogy",-5.1851472470889455],["egy",-5.1908630188590905],["es",-5.203908983254342],["meg",-5.208354284620393],["on",-5.218619948276606],["ok",-5.242539701248269],["é",-5.257194847672469],["f",-5.3783261257603225],["j",-5.413283735440945],["ás",-5.430939102048782],["os",-5.445824779543241],["á",-5.448166628680509],["ra",-5.450295820202985],["re",-5.454088491551637],["ki",-5.465455572755417],["h",-5.497577965394711],["ni",-5.504558108515097],["ez",-5.522866156457143],["o",-5.539940345890061],["ban",-5.571071916698276],["be",-5.584319664818839],["er",-5.596766119477525],["v",-5.632321185489101],["ik",-5.633835000475049],["nem",-5.639956227212723],["ár",-5.688357800016579],["ett",-5.6995473932061085],["ben",-5.729663757659889],["nak",-5.734547076359908],["ott",-5.742578926776089],["fel",-5.764150985175785],["ol",-5.768714884914107],["cs",-5.785887332234678],["ja",-5.7958410849547],["án",-5.796255060244512],["c",-5.798633663640668],["ség",-5.811198857690304],["nek",-5.812269739786066],["al",-5.830938710326244],["u",-5.881408526708341],["te",-5.931626571980976],["í",-5.932254594702407],["ül",-5.938882005194657],["M",-5.989388147846757],["Az",-5.990021547254109],["or",-6.014849724890933],["y",-6.018325563165055],["ér",-6.021712378031507],["le",-6.02230634879446],["K",-6.022749691942986],["de",-6.03355850610242],["át",-6.049903722441517],["ul",-6.101747899965259],["om",-6.112660923012811],["ú",-6.11329492798486],["B",-6.131930865873574],["mi",-6.132693252433066],["ot",-6.14257340752102],["él",-6.143265827249927],["ha",-6.181917158041426],["ed",-6.20052791695578],["em",-6.217226492564743],["gy",-6.244579302575913],["S",-6.250796080026779],["én",-6.261522094280865],["ny",-6.267236880223969],["T",-6.275233974849165],["leg",-6.2846104378617635],["ét",-6.298726065092774],["ék",-6.311339976544806],["ál",-6.3240609656069005],["ért",-6.383865569391517],["–",-6.400602534654521],["ad",-6.409921586103444],["0",-6.418153068523713],["szer",-6.4397962852093364],["ve",-6.452007427618488],["köz",-6.453417996775833],["2",-6.458874587902976],["ság",-6.466556031267615],["év",-6.468807138551302],["E",-6.476030255017555],["rá",-6.479097760445205],["volt",-6.488520513411968],["1",-6.489972434161725],["ű",-6.495042061874717],["hat",-6.495259908483295],["ö",-6.501280511250606],["P",-6.522472457696205],["va",-6.526625069887155],["ig",-6.536526206187288],["több",-6.56247273600539],["szerint",-6.571416282379534],["20",-6.586737338597892],["I",-6.600242205572066],["már",-6.607856867214656],["D",-6.609199313287242],["3",-6.617837076455128],[":",-6.636405566563953],["ut",-6.6392847773885215],["hely",-6.640008189699655],["od",-6.658068152668541],["V",-6.665823687240751],["tart",-6.6760919071016005],["het",-6.689465010157049],["F",-6.695469155493914],["unk",-6.70546907581457],["H",-6.713908091084283],["ü",-6.717007619112435],["Sz",-6.723795105015835],["4",-6.726997191902955],["áll",-6.738321995964704],["ter",-6.738928831346751],["ében",-6.739668167597545],["új",-6.746597037092176],["ák",-6.752586343752705],["hoz",-6.755112235538755],["N",-6.7632600325920755],["kor",-6.763319569206844],["R",-6.76410005160737],["nap",-6.773859670139764],["tud",-6.782204858157133],["5",-6.784488990591026],["nagy",-6.788768931231596],["int",-6.806397481951878],["van",-6.81756819495007],["eket",-6.823188027335606],["ne",-6.829974912681568],["jár",-6.837429617813646],["ír",-6.846432835842476],["vég",-6.849084071125269],["ég",-6.8523460390079],["\"",-6.859490355415765],["még",-6.864257985044379],["csak",-6.87750999943429],["vi",-6.877594039861208],["L",-6.883475592493079],["ami",-6.892926719345512],["uk",-6.897354358184261],["ba",-6.898003730865401],["mint",-6.9012697346721],["tak",-6.902786164575099],["7",-6.909902635431585],["ény",-6.91198558715749],["kell",-6.913481110569638],["okat",-6.918938072938234],["százalék",-6.929877508298954],["elő",-6.9307746186086],["után",-6.939056452255388],["je",-6.939140569278914],["ön",-6.942879762266054],["ük",-6.948883845848382],["vel",-6.95512200067852],["ország",-6.956310724421986],["G",-6.961182307871569],["ában",-6.9622576005368],["vagy",-6.963929250759151],["két",-6.966024173454171],["ják",-6.967156840643911],["C",-6.968075217906167],["lesz",-6.996776701829917],["ünk",-6.997970586155882],["ellen",-6.9995655303657855],["us",-7.009746119016556],["sem",-7.011257013889939],["ány",-7.011346299545973],["val",-7.01222071574977],["pedi",-7.016739040637383],["di",-7.016966514433937],["ött",-7.025610193544779],["más",-7.0339648863641635],["ci",-7.039236000151474],["tek",-7.039910648138175],["6",-7.045820082406992],["össze",-7.046479091877307],["minden",-7.0545950161393645],["öl",-7.055904899052479],["rész",-7.0564268550494],["fő",-7.072211928654969],["lehet",-7.076421484368474],["ták",-7.081619390496684],["pont",-7.093020507738597],["ebb",-7.0973789815913015],["szak",-7.099501116968792],["ére",-7.100156672169907],["(",-7.106142834643629],["8",-7.110108258662089],["magyar",-7.120792645371006],[")",-7.121296553005177],["bb",-7.12439120294151],["Ez",-7.124572793455396],["ről",-7.126025598191706],["kap",-7.134580280169315],["ügy",-7.134764714930986],["szám",-7.14394346641453],["ként",-7.1529963163310715],["J",-7.156783311890242],["ember",-7.1577470528118425],["lát",-7.160270597397945],["ára",-7.166988188199763],["um",-7.182403144503466],["ezt",-7.20261056541576],["amely",-7.208614526280794],["első",-7.211465343414387],["kat",-7.21230518153445],["orosz",-7.234963144394339],["9",-7.235611014469326],["jel",-7.237219066992063],["ur",-7.238832438739291],["vár",-7.241402427356123],["vá",-7.244364720713177],["ők",-7.2496014552799135],["ko",-7.254673885633393],["jó",-7.2556720810369395],["olt",-7.256487537214312],["jelent",-7.260346412584948],["hez",-7.261915173570765],["kal",-7.2659278988950575],["O",-7.270306908013369],["mű",-7.2782508041296055],["ház",-7.278707170801058],["nál",-7.280287043679353],["ör",-7.28181649922243],["fog",-7.28590963857131],["ók",-7.288330984476174],["majd",-7.288529624587568],["tár",-7.289608581382595],["”",-7.2960378013590805],["ható",-7.304573753497452],["ról",-7.309963573891055],["ro",-7.312154365452422],["ának",-7.32049332445991],["esz",-7.329529781825823],["idő",-7.332074899404427],["li",-7.341828204766564],["ív",-7.34717956110746],["forint",-7.3486357823120265],["Z",-7.354703817679564],["élet",-7.356992773411063],["ból",-7.3587920870435095],["miatt",-7.370542839604012],["vál",-7.387869983302318],["akkor",-7.393086714184415],["ének",-7.394787681881597],["fej",-7.400569193234434],["tette",-7.403908721492242],["mény",-7.424367164836852],["sok",-7.425302052575312],["kép",-7.425360217013848],["hal",-7.427416969952469],["világ",-7.437066693706512],["mondta",-7.437292893315606],["így",-7.452642270128403],["úgy",-7.460127164033936],["ját",-7.462819971967657],["tovább",-7.463230007224776],["között",-7.463575288430462],["etlen",-7.470477424438051],["kerül",-7.474554845881024],["kormány",-7.478046249052689],["tól",-7.478134148772276],["ből",-7.481536692706763],["város",-7.4823299804514205],["ov",-7.490070964004567],["vé",-7.4928908379368115],["ment",-7.501624842637208],["ítás",-7.502001399364182],["vezet",-7.503126527084648],["og",-7.510620983685018],["történ",-7.510973645530399],["ök",-7.512651933316775],["előtt",-7.514449618456987],["olyan",-7.5170126288766195],["hol",-7.525005477089648],["tal",-7.526489109227823],["hét",-7.526644924095071],["par",-7.530948014292057],["hető",-7.533936402296154],["rend",-7.545937995694981],["ával",-7.5460624293317435],["eset",-7.54930625992352],["érték",-7.550456521167322],["keres",-7.561649745665525],["Egy",-7.568794118031442],["Ha",-7.5701627024136116],["azt",-7.571897312422546],["juk",-7.5765175843969335],["ám",-7.5765363666079635],["öv",-7.577302660474602],["osan",-7.5842826301981],["most",-7.586093886324152],["fél",-7.587049774818042],["nő",-7.596915570981107],["szín",-7.597837139398449],["vezető",-7.602849889164256],["ték",-7.604686041937587],["vissza",-7.60672069066009],["hi",-7.609292049051318],["től",-7.613829300555272],["ló",-7.61398295593458],["U",-7.6170451164152935],["út",-7.617509680716963],["pár",-7.620172996824439],["fi",-7.635987886120656],["ított",-7.642081455967067],["tér",-7.643339042998956],["„",-7.645014009167164],["mellett",-7.646757842724456],["alma",-7.648409904936368],["mind",-7.649678956629065],["sor",-7.65398754395028],["se",-7.654621730631663],["dönt",-7.660635523063213],["lép",-7.661321283247058],["éves",-7.661893991084677],["hozzá",-7.666416651744663],["való",-7.668631971538442],["ális",-7.6698464033498155],["adó",-7.681293144718467],["adás",-7.681872570335392],["azonba",-7.683999484702031],["ch",-7.6865171372438725],["aki",-7.696122628715747],["and",-7.696631260946376],["mutat",-7.699057542741594],["elnök",-7.7006194161719845],["által",-7.706879669285959],["használ",-7.7116617061440484],["kezd",-7.713950703417399],["mert",-7.715352356831546],["w",-7.71715745646987],["ások",-7.723091603103308],["mond",-7.727020269845585],["ismer",-7.727854445100729],["egyik",-7.728636243904826],["alap",-7.734414886738507],["segít",-7.737790142201054],["lak",-7.7386189366939995],["követ",-7.740661317986109],["usz",-7.741841995039997],["von",-7.742031042189635],["?",-7.749539449919243],["játék",-7.759817598765583],["elem",-7.767169064876029],["10",-7.77306569873897],["19",-7.7768713147825705],["őr",-7.779986695302425],["véd",-7.781435098795373],["arra",-7.782453461984795],["!",-7.789437711111202],["un",-7.795138445328873],["kon",-7.797529047760154],["talál",-7.799643906716421],["É",-7.800920612882383],["oldal",-7.804294052508272],["abb",-7.811332857908301],["millió",-7.812540446832044],["ill",-7.815248621434641],["ján",-7.81836960320589],["esen",-7.822042046226126],["Magyarország",-7.827824746183162],["kis",-7.830138595764893],["zár",-7.838615358884661],["ukrán",-7.840487830088481],["ing",-7.842449786958765],["egész",-7.844854783847343],["ével",-7.851545516452988],["ös",-7.852045409649909],["ása",-7.853844343930004],["nyi",-7.8622331022775915],["köt",-7.8743564967688755],["állam",-7.879915128259946],["lás",-7.883836010303532],["közös",-7.884221255459128],["háború",-7.889051091608433],["áció",-7.890276037545379],["bor",-7.892126151918492],["nél",-7.896746959379333],["kör",-7.897298194687096],["x",-7.898136478278796],["három",-7.90183436737029],["por",-7.9030585173896295],["képes",-7.906500637667434],["csapat",-7.90676604246935],["haj",-7.9074100610976386],["érkez",-7.908427082690428],["marad",-7.913971629601277],["állít",-7.914159869249784],["munka",-7.916377087119524],["dolgoz",-7.917996214176319],["ikus",-7.919100995419451],["csökken",-7.9202433334363045],["óta",-7.923435092037762],["Nem",-7.924199372926244],["ezer",-7.92537811903647],["okkal",-7.925412359669529],["cél",-7.931079335991106],["gazdaság",-7.932768003393529],["pénz",-7.938454349805395],["együtt",-7.939706350969685],["lap",-7.946713025398457],["közel",-7.947589310617385],["milliárd",-7.950104162632104],["vány",-7.952199357988239],["maga",-7.952651682002891],["figyel",-7.952775011478458],["vesz",-7.955880008529039],["cég",-7.956705294866549],["föld",-7.959711231159462],["helyzet",-7.963448118162429],["terület",-7.964286681063547],["ítés",-7.964879398815682],["akar",-7.965897001653332],["magá",-7.966757634702465],["család",-7.969566736819719],["op",-7.971979295237653],["működ",-7.974294568388393],["atás",-7.9790250687355],["alatt",-7.979240580287532],["teljes",-7.979321854230804],["jobb",-7.97933883641616],["sal",-7.980302049685182],["igaz",-7.981605590302676],["kapcsolat",-7.983895228858649],["erő",-7.986197874552345],["változ",-7.989399507136493],["autó",-7.990457498798811],["mér",-7.994298166499524],["ését",-7.997378805100435],["rendszer",-7.997735386601173],["atlan",-8.0030487863282],["Cs",-8.00501387451941],["piac",-8.012622288658125],["külön",-8.012767636609167],["szerep",-8.021180857038157],["amikor",-8.021348382693944],["akik",-8.02901240403429],["szem",-8.031661234823327],["készül",-8.034731313521494],["lét",-8.046132871080076],["ink",-8.046933635050763],["ex",-8.047695233127845],["oszt",-8.049141361487303],["ített",-8.0510041877811],["válasz",-8.054249773083518],["nyug",-8.056569429792807],["W",-8.060301626790174],["ozás",-8.065773441488158],["vétel",-8.070825404484959],["hív",-8.071460152203251],["pro",-8.073639151462427],["bban",-8.07472964176301],["Á",-8.078692946728598],["hang",-8.081877718994885],["22",-8.08226083930306],["vásár",-8.083626102317446],["szól",-8.088081523275115],["fizet",-8.0890214260411],["üze",-8.091551527984834],["jegy",-8.096665595663978],["gáz",-8.102847022932224],["díj",-8.104874104250634],["ását",-8.107880362920657],["emelked",-8.110348974835304],["férfi",-8.110369438419077],["beszél",-8.113356820457213],["jut",-8.116705601752006],["anyag",-8.116863037805388],["hát",-8.117041781345545],["jog",-8.123699168427182],["annak",-8.126002762268048],["mely",-8.12617656061316],["rról",-8.13075182554224],["aszt",-8.13658630606813],["hír",-8.13921666175677],["mennyi",-8.139703558893803],["szükség",-8.14029188228195],["ekkel",-8.142801936498426],["rendez",-8.14351762059733],["ció",-8.147677281112678],["ugyan",-8.15495867838382],["ából",-8.156920765541802],["ába",-8.163095431621244],["személy",-8.163758145582754],["szolgál",-8.168070805977099],["épít",-8.170750317028705],["nyom",-8.172127168990485],["ver",-8.172810525884303],["up",-8.176044989210745],["energia",-8.185640863084403],["számár",-8.191004095890015],["tiszt",-8.192017867673151],["50",-8.195325193434126],["verseny",-8.198260862819756],["valamin",-8.199771869742815],["hónap",-8.201402928227488],["nyer",-8.202554725146944],["30",-8.203954667725405],["túl",-8.205359498187951],["eredmény",-8.20653184646012],["Oroszország",-8.214832038834647],["indul",-8.217957910206284],["elme",-8.218317938324898],["ilyen",-8.218387078768416],["fontos",-8.219418890905672],["négy",-8.222322187834674],["példá",-8.230928605714746],["néz",-8.232438251692512],["munká",-8.235020810094012],["érdek",-8.235116939649926],["Európa",-8.237883385340368],["ozó",-8.240570474044603],["előre",-8.245337370834163],["ették",-8.249585631536466],["táv",-8.250522913862723],["fordul",-8.253552446481258],["hisze",-8.253827316816793],["súly",-8.255201325975477],["milyen",-8.25644969807194],["víz",-8.25982208804054],["körül",-8.260639481725434],["közben",-8.261381700270906],["ottak",-8.268027902430614],["15",-8.270735761134464],["cím",-8.273141867736083],["voln",-8.278922273711359],["gondol",-8.28159145436761],["hagy",-8.28349564276485],["gyermek",-8.284025181934517],["jövő",-8.288973172240432],["követő",-8.293411089878653],["neve",-8.29418342665818],["miniszter",-8.301632392660622],["szabad",-8.30214150534616],["elmúlt",-8.304088011723227],["számol",-8.305848060082239],["foly",-8.312785868717999],["állítás",-8.313366329274832],["Gy",-8.318242981770661],["Nagy",-8.319420347939147],["jelentős",-8.320650842509501],["tölt",-8.322756007024253],["viszont",-8.323033468753149],["alkalm",-8.332044481183171],["kérdés",-8.332401921310293],["számít",-8.336704502906615],["ugyanis",-8.33882817382458],["eddig",-8.349828568630397],["lehetőség",-8.35056917083713],["szerű",-8.351366617211895],["illetve",-8.352245045105516],["nélkül",-8.355788180907595],["szervezet",-8.357369803067641],["program",-8.359220013460103],["bizony",-8.363616932256402],["biztonság",-8.365381140543438],["mar",-8.375628095374372],["kedv",-8.376114424650169],["jelenleg",-8.379670004459335],["áról",-8.379713946043243],["21",-8.381329640549243],["ító",-8.383025235138867],["irány",-8.383915655321978],["támogatás",-8.384319102141259],["nincs",-8.385823210352303],["jában",-8.395338573034302],["Mind",-8.39660708477507],["második",-8.402278834902827],["alakul",-8.404435643108219],["függ",-8.415167306504028],["Köz",-8.415377497093449],["folytat",-8.416811866534916],["pályá",-8.417052531152661],["csoport",-8.421684361894748],["kívül",-8.421807294891646],["míg",-8.424618055524146],["18",-8.430324753585705],["fogad",-8.432734718441981],["gép",-8.439509567874062],["újabb",-8.440911922958747],["folyamat",-8.441497139975345],["szinte",-8.44906974996575],["vállalat",-8.452793172100458],["közölte",-8.455919785787032],["saját",-8.462055260744672],["okoz",-8.4642085826005],["bajnok",-8.464631348393233],["perc",-8.469928366703755],["euró",-8.470909039271362],["ájá",-8.47500090819031],["beteg",-8.476007008060028],["derül",-8.478112939668781],["győz",-8.488014976084738],["Ú",-8.488309829362041],["gyors",-8.48960062439171],["nagyobb",-8.492443572997889],["amerikai",-8.496330029321395],["korábba",-8.498123553243001],["legnagyobb",-8.498231272077362],["siker",-8.502253418425568],["próbál",-8.507463672781686],["jelentette",-8.509041481184564],["emlék",-8.517924419956127],["fiatal",-8.518874434925976],["visel",-8.51951653473771],["idén",-8.521936992689563],["gyerek",-8.523022451356795],["tűz",-8.527598366819063],["költség",-8.52803991643285],["ezér",-8.530537175775653],["szabály",-8.53115180240874],["belül",-8.535791525214574],["dollár",-8.542046396874447],["találkoz",-8.54569481566616],["inkáb",-8.549568849836254],["vállal",-8.550575436052773],["tavaly",-8.554398634330898],["tervez",-8.554757091527893],["ozott",-8.560656585443677],["Mar",-8.562456973101],["biztosít",-8.567429231964596],["tűn",-8.571942485771178],["biztos",-8.577987604040686],["hazai",-8.583272430587826],["negyed",-8.585788696162563],["Magyar",-8.587020432065266],["hivatal",-8.58797706724171],["időszak",-8.596482916260829],["nőtt",-8.597156155445031],["alapján",-8.605736583370552],["olaj",-8.606966539233724],["köszön",-8.613674223098869],["endő",-8.62099991887937],["száz",-8.625293328344497],["európai",-8.626216845641537],["védelmi",-8.629708193281921],["indít",-8.635155833814949],["készít",-8.639499032154],["termék",-8.641367659539924],["ítani",-8.650278267521898],["méter",-8.650551396062854],["veszély",-8.656472153789661],["szület",-8.657567231928834],["képviselő",-8.661222385593774],["otthon",-8.663999651868014],["éppen",-8.664214103886454],["lenne",-8.66576267212504],["támogat",-8.66924017796471],["fogyaszt",-8.669536834237405],["Egyesül",-8.669578778243999],["Meg",-8.678312034136631],["barát",-8.67884833436884],["Budapest",-8.681574701539768],["választás",-8.682263990378587],["ezzel",-8.688595324718674],["kezel",-8.692785372373551],["formá",-8.69293400108743],["infláció",-8.709832151170318],["Ukrajná",-8.712327431962624],["lévő",-8.71455159984516],["sport",-8.723154272745944],["rendelkez",-8.724902790332699],["következő",-8.732523283644225],["korábbi",-8.736349842922557],["támadás",-8.736429194781763],["teljesít",-8.74517148391367],["tanul",-8.745926688350796],["ajtó",-8.753060949554296],["szavaz",-8.756064433755284],["forrás",-8.75837169559761],["néhány",-8.760963091831787],["politika",-8.76490371047862],["tulajdon",-8.771508684226934],["ozta",-8.773641220901528],["módo",-8.7738150315807],["rossz",-8.777066208098947],["tájékoztat",-8.786195184808937],["később",-8.7875487868162],["ünnep",-8.791590525414843],["film",-8.792049255526681],["X",-8.79294284763943],["fegyver",-8.808006337900647],["Ukrajna",-8.809325465085355],["társaság",-8.82738983193208],["szeretné",-8.828949439927381],["unió",-8.831702378039944],["ismét",-8.83260024337709],["nehéz",-8.83582866283652],["nyilván",-8.837241401718781],["igazgató",-8.84719878173127],["sorozat",-8.848629445688244],["utolsó",-8.851499576635899],["határoz",-8.852894800794509],["ellátás",-8.853791987374606],["Ö",-8.854371777429312],["orvos",-8.856101384668747],["nyújt",-8.862500682202846],["csütörtök",-8.865957712622034],["növekedés",-8.867415454965148],["vendég",-8.867419214946047],["komoly",-8.873376296533124],["megfelelő",-8.876352334578439],["polgármester",-8.882110849736677],["üzlet",-8.8821382996874],["kamat",-8.892783155267402],["fogalmaz",-8.894058097333886],["foglalkoz",-8.898923882293253],["szankció",-8.900035348274445],["hasonló",-8.909119879975187],["törvény",-8.91370458650226],["Péter",-8.91844195888807],["könyv",-8.921387026658337],["foglal",-8.932060513040827],["Orbán",-8.932198187331206],["sikerült",-8.932449698089709],["erősít",-8.935887999843217],["szervez",-8.938116089944113],["mérkőzés",-8.938442326929476],["megoldás",-8.940034361502537],["természet",-8.944726823239305],["esemény",-8.94689245162694],["kórház",-8.949473312144018],["nemzetközi",-8.952638200856196],["szombat",-8.954237233483058],["hosszú",-8.957417682271704],["múlt",-8.95844283773626],["/",-8.963820290145897],["indig",-8.96407694129956],["adatok",-8.964870019284263],["magasabb",-8.965490516630743],["vizsgá",-8.969798048189329],["tárgyal",-8.973595519930871],["alakít",-8.9829938838716],["osztály",-8.98659107259568],["videó",-8.986870032154528],["rendőrség",-8.98986576993795],["nyilatkoz",-8.991509394946807],["vasárnap",-8.993162901969836],["szolgáltatás",-8.996518679089261],["küzd",-9.001502860947003],["gyűl",-9.01357609532717],["intézmény",-9.019987353782085],["környezet",-9.03023492671175],["feladat",-9.033161851680113],["közlemény",-9.033695262953556],["mozg",-9.033716454812588],["önkormányzat",-9.037125533514363],["Putyin",-9.038855525334121],["információ",-9.044063986803597],["problémá",-9.04929941971199],["gyűjt",-9.049319601500635],["baleset",-9.054741700896042],["látogat",-9.058155397380542],["közleked",-9.06162662199597],["reggel",-9.070562522930212],["település",-9.074101420083675],["menekül",-9.076107019350301],["ukrajnai",-9.077695287534077],["keresztül",-9.081309128254622],["tapasztal",-9.086738590705416],["művész",-9.090410882501086],["intézkedés",-9.094029580947238],["kísér",-9.094187755008885],["tanács",-9.097701433178102],["lakosság",-9.097723260727701],["koronavírus",-9.099534178407717],["szövetség",-9.101376702126654],["tartoz",-9.109102646899974],["élelmiszer",-9.110635991772732],["szenved",-9.118120688282081],["kevesebb",-9.127521138235657],["november",-9.135174129865074],["polgár",-9.137034250172785],["vonatkoz",-9.140859706561589],["friss",-9.140889626458144],["állapot",-9.142799485630121],["december",-9.148610836512969],["rövid",-9.15438346839198],["legalább",-9.156318569427887],["Államok",-9.160216288356303],["gyakorlat",-9.162173573272401],["egyébkén",-9.162206422985735],["viszony",-9.164136110310272],["Í",-9.168067153317066],["hallgat",-9.170047008112046],["büntet",-9.175990467179684],["szeptember",-9.179960487279196],["Viktor",-9.183961746326805],["telefon",-9.196044803835601],["alacsony",-9.19806954597179],["László",-9.21032751571122],["áldozat",-9.214446444482679],["október",-9.216514211629828],["valószínű",-9.226911334466346],["meccs",-9.226921077123881],["király",-9.233249706348024],["iskolá",-9.234297646700956],["szerződés",-9.241644948480754],["Y",-9.245895538337422],["Ugyan",-9.248062945657],["Nemzeti",-9.254463354506331],["Debrecen",-9.256602274818569],["elején",-9.271805428460617],["könnye",-9.27417199927655],["beruházás",-9.276168143519953],["augusztus",-9.282776059734836],["minisztérium",-9.287205743671628],["rendőrök",-9.298368260841144],["fehér",-9.302877331860719],["projekt",-9.31421503345543],["bíróság",-9.321070157701635],["politikus",-9.323367974936318],["István",-9.325672180121089],["Ferenc",-9.33261813860884],["érdeklőd",-9.33961131336233],["különböző",-9.351374349076723],["pillanat",-9.351374424683101],["évtized",-9.372907078134695],["hosszabb",-9.375328473252807],["január",-9.38263186900829],["február",-9.385071862477464],["kilométer",-9.387523266819764],["válogatott",-9.397387373052748],["tevékenység",-9.409856265492007],["forgalom",-9.412368838439605],["fordít",-9.415050563915521],["“",-9.42502721832372],["parlament",-9.43013837819516],["%",-9.448224121895416],["hálózat",-9.456077601832108],["május",-9.456079953884426],["csatlakoz",-9.458710765626687],["egészségügyi",-9.471972300185255],["javaslat",-9.49629798757476],["hatékony",-9.499038605569115],["július",-9.518428465265984],["Facebook",-9.52403844708277],["Bizottság",-9.529680268099668],["hangsúlyozt",-9.546801438354883],["április",-9.555469593467846],["rengeteg",-9.590923814972848],["fenyeget",-9.593935847756427],["Ő",-9.618364513925556],["kockázat",-9.618364514013534],["megállapodás",-9.621460490972828],["Németország",-9.652959137139518],["budapesti",-9.662605498916335],["karácsony",-9.678892494685602],["technológia",-9.682181963164723],["jellemző",-9.692116132723742],["fertőzött",-9.708894712993322],["hőmérséklet",-9.712284542503276],["hadsereg",-9.722527093776245],["elektromos",-9.753884962910622],["labdarúgó",-9.757431052617608],["konfliktus",-9.757431052733805],["globális",-9.760989793194893],["Országos",-9.808443878223853],["Ü",-9.838806704657202],["finanszíroz",-9.854340978145117],[";",-9.866152123765536],["debreceni",-9.890201348379039],["q",-9.91069383849792],["pedagógus",-9.919009882773057],["Zelenszkij",-9.927395664074604],["kategóriá",-9.940107681732993],["Vlagyimir",-9.961660205466512],["…",-9.970412982565824],["akadályoz",-9.98815178201697],["kommunikáció",-10.038621114955294],["bűncselekmény",-10.052839337314225],["technológiá",-10.062431718617582],["'",-10.13228540072036],["&",-10.235637916023036],["Ó",-10.288591309979882],["ă",-10.38359910226751],["Q",-10.431226967412417],["+",-10.488590116316342],["’",-10.63112267450705],["č",-10.73884932960086],["́",-10.807503183372777],["š",-10.984759611002307],["»",-11.156228647559033],["ș",-11.246513787205622],["ć",-11.558092444925284],["«",-11.82799827189453],["ý",-11.91628449547487],["ä",-12.013125893324332],["è",-12.013125893324332],["Š",-12.083322937659306],["Č",-12.158821513157882],["*",-12.158821513157882],["Ű",-12.158821513157884],["Ľ",-12.158821513157886],["ț",-12.240488179824549],["â",-12.240488179824549],["Ș",-12.427040033767705],["õ",-12.427040033767708],["°",-12.479671612715077],["•",-12.535227168270634],["î",-12.594050697682404],["ž",-12.656550697682407],["—",-12.794645935777671],["ş",-12.794645935777671],["à",-12.87156901270079],["ľ",-12.871569012700792],["û",-12.954902346034226],["̋",-12.95490234603423],["ł",-13.045811436943588],["ď",-13.14581143694436],["ë",-13.256922548057947],["ţ",-13.256922548057947],["−",-13.256922548057947],["ř",-13.381922548067047],["ç",-13.524779690964152],["×",-13.524779690964154],["Ž",-13.691446357590861],["ğ",-13.69144635763082],["ě",-13.69144635763082],["å",-13.891446357590867],["️",-13.891446357630821],[">",-14.141446357630821],["‘",-14.141446357630821],["~",-14.141446357630821],["‐",-14.141446357630821],["μ",-14.141446357630821],["❗",-14.141446357630821],["®",-14.141446357630821],["$",-14.141446357630821],["ť",-14.474779690924196],["ā",-14.474779690964148],["Ț",-14.474779690964148],["ę",-14.474779690964152],["ô",-14.474779690964153],["³",-14.474779690964153],["Ç",-14.474779690964153],["ï",-14.974779690924198],["ð",-14.974779690924198],["Ä",-14.974779690924198],["ʼ",-14.974779690964144],["<",-14.974779690964155],["‑",-14.974779690964155],["²",-14.974779690964155],["ã",-14.974779690964155],["€",-14.974779690964155],["Å",-14.974779690964155],["·",-14.974779690964155],["ñ",-14.974779690964155],["‒",-14.974779690964155],["ń",-15.974279690964153],["Ď",-15.974379690964152],["đ",-15.974479690964154],["Đ",-15.974579690964154],["̈",-15.974679690964154],["Ţ",-15.974779690924205],["Ø",-15.974779690964143],["ň",-15.974779690964153],["´",-15.974779690964153],["β",-15.974779690964153],["ø",-15.974779690964153],["➡",-15.974779690964153],["†",-15.974779690964153],["§",-15.974779690964153],["ò",-15.974779690964153],["﷯",-15.974779690964153],["‼",-15.974779690964153],["Õ",-15.974779690964153],["Ş",-15.974779690964153],["µ",-15.974779690964153],["Ć",-15.974779690964153],["È",-15.974779690964153]]}}