{"version":"1.0","truncation":null,"padding":null,"added_tokens":[{"id":0,"special":true,"content":"<UNK>","single_word":false,"lstrip":false,"rstrip":false,"normalized":false},{"id":1,"special":true,"content":"<SEP>","single_word":false,"lstrip":false,"rstrip":false,"normalized":false},{"id":2,"special":true,"content":"<MASK>","single_word":false,"lstrip":false,"rstrip":false,"normalized":false},{"id":3,"special":true,"content":"<CLS>","single_word":false,"lstrip":false,"rstrip":false,"normalized":false}],"normalizer":null,"pre_tokenizer":{"type":"Whitespace"},"post_processor":null,"decoder":null,"model":{"type":"Unigram","unk_id":0,"vocab":[["<UNK>",0.0],["<SEP>",0.0],["<MASK>",0.0],["<CLS>",0.0],["a",-2.6787456696035328],[",",-3.0593557092768364],[".",-3.4753122818083977],["t",-3.689750553738815],["az",-4.057607001516292],["i",-4.060230715761268],["és",-4.366359498884799],["n",-4.4261889709533175],["A",-4.475920566360784],["-",-4.551686113013094],["k",-4.5538960638969535],["is",-4.738781433961234],["hogy",-4.772810331253217],["e",-4.982534269055003],["s",-5.116838447013931],["meg",-5.118096151615225],["egy",-5.206524078181806],["el",-5.207104873718594],["en",-5.208842129621846],["ban",-5.254701492035705],["nem",-5.270186659338188],["ben",-5.303442255141418],["nak",-5.3150715510544675],["ki",-5.477240600632447],["m",-5.534671716587985],["nek",-5.538354052984555],["et",-5.555717770332546],["Az",-5.569386137954709],["ek",-5.580195423926542],["on",-5.605346747036995],["ra",-5.609327701432525],["re",-5.609815116345743],["ok",-5.631923465377298],["g",-5.651069606754039],["be",-5.693781633156371],["ik",-5.792272803226751],["z",-5.824369120005844],["ni",-5.846321401553437],["át",-5.863148582862054],["–",-5.988266731349473],["fel",-6.040954700326388],["ó",-6.064425559151896],["de",-6.10482302372416],["es",-6.131143207798168],["szerint",-6.1860642349782715],["volt",-6.200108876921444],["ot",-6.200644661777384],["ő",-6.204406781272141],["ja",-6.212682681394217],[":",-6.224069763258905],["már",-6.229927973392426],["le",-6.259402228564797],["ez",-6.2594178896263095],["d",-6.267946351806097],["ott",-6.312159242184599],["l",-6.326568929592524],["20",-6.32958257122082],["r",-6.332501164129059],["van",-6.396180595577727],["os",-6.400744624722035],["M",-6.431790660880898],["\"",-6.461974887938366],["csak",-6.462488495456684],["mint",-6.478968338421771],["nagy",-6.491860377342862],["ha",-6.497607916585423],["még",-6.502362107276202],["több",-6.509060487929544],["sz",-6.524567333682009],["ul",-6.5368608740216185],["b",-6.540062692194304],["p",-6.569133095561373],["S",-6.582710178099418],["pedi",-6.601916573877752],["ét",-6.610063240318361],["mi",-6.619314320106437],["ért",-6.62117926783848],["y",-6.6242334873109705],["év",-6.628544834742899],["án",-6.6462884826177735],["vagy",-6.67229687052234],["(",-6.693807031338581],["okat",-6.708564314600771],["K",-6.720740255343548],[")",-6.724246212549492],["ják",-6.728776608671454],["hoz",-6.748054459979311],["kell",-6.749159109796288],["vel",-6.751422120724625],["unk",-6.7661180391797835],["sem",-6.768259469378382],["ból",-6.781582800147131],["ba",-6.787382325487631],["után",-6.794449132181013],["százalék",-6.804374689091096],["leg",-6.806801547269728],["amely",-6.807466967491141],["két",-6.810673001107462],["B",-6.8252906284221275],["eket",-6.825545784016876],["ról",-6.828717683612329],["azt",-6.842139617963458],["ig",-6.85969984159005],["ről",-6.861900652251755],["h",-6.870851329461351],["ünk",-6.874231638782923],["majd",-6.876154066123229],["ák",-6.89204797625556],["lehet",-6.906001325940515],["ás",-6.90667000440973],["f",-6.910547922382317],["ként",-6.911481045206548],["”",-6.914529501558057],["ve",-6.930641851180326],["val",-6.946049294965125],["új",-6.947659529953853],["magyar",-6.949408819239423],["lesz",-6.956186263105458],["P",-6.959723755075984],["orosz",-6.961709306668412],["ami",-6.971447254801008],["én",-6.973957734768085],["1",-6.979276157001561],["va",-6.9799868155018885],["é",-7.008825417164516],["miatt",-7.0116822243246775],["ék",-7.015175481899496],["E",-7.0224828937411665],["így",-7.031794346079189],["hat",-7.032732525974225],["úgy",-7.04073465177165],["ában",-7.04790001014431],["c",-7.063265136116785],["minden",-7.06852245329222],["j",-7.0722841504025284],["első",-7.072644230223656],["Ez",-7.081721586622397],["ták",-7.089243027129949],["ük",-7.089415498815219],["om",-7.099442428200752],["te",-7.1119875253430695],["uk",-7.112476151814348],["olyan",-7.113330181571935],["R",-7.12718847914291],["o",-7.1281384044790475],["kal",-7.130057823948501],["tól",-7.135750193122247],["ből",-7.150762161581976],["ának",-7.161257212372174],["C",-7.163624654058643],["2",-7.176166695654633],["között",-7.184314373111058],["tak",-7.187258836390281],["T",-7.193970905598607],["rá",-7.196307503009255],["hez",-7.200122244171017],["G",-7.209991511140822],["H",-7.211069503573214],["3",-7.211940700010805],["ú",-7.22568449231473],["ében",-7.227829044342839],["ár",-7.228708618900456],["„",-7.232678205862116],["5",-7.2340506414560535],["v",-7.23470945318539],["ség",-7.237612970173836],["től",-7.2527572543952825],["ett",-7.259984413826408],["éves",-7.263130612531956],["forint",-7.270904354803413],["F",-7.280794213793213],["akkor",-7.286029492945068],["fog",-7.286534591818886],["cs",-7.2909768182251735],["V",-7.294133609675757],["nál",-7.300505345000398],["L",-7.3013839352539085],["jó",-7.302281387931352],["mellett",-7.315429307726242],["tud",-7.318420325686283],["I",-7.324556043332088],["er",-7.332752564941578],["kor",-7.332932637494658],["egyik",-7.333792547026579],["het",-7.335061179020705],["?",-7.337203646614195],["D",-7.337802618616931],["sok",-7.346376863586333],["mert",-7.3475196708335515],["ol",-7.350328940933689],["em",-7.353013127431133],["je",-7.355583682112294],["kat",-7.357381857037183],["4",-7.363725178625411],["aki",-7.366433598345856],["mondta",-7.372940743552607],["ű",-7.37393984475356],["ének",-7.376486674903729],["Egy",-7.380874671350663],["tal",-7.381898596739762],["kormány",-7.383264276631562],["ára",-7.385040620617393],["ne",-7.390106085652243],["arra",-7.392731526335463],["azonba",-7.394470384996341],["elő",-7.396431494676852],["millió",-7.400201234497542],["nél",-7.402954308629169],["most",-7.405970004126198],["világ",-7.408576176116784],["juk",-7.416694134048955],["ül",-7.428767973151496],["ság",-7.434598049521585],["más",-7.443399671061567],["gy",-7.4488926474870505],["ték",-7.449454138122553],["sal",-7.457783502640663],["!",-7.468126367728441],["ezt",-7.478346292519187],["ország",-7.492908614872635],["19",-7.494686502045364],["Ha",-7.495832918600534],["ellen",-7.5031329307301995],["vissza",-7.506024643220509],["ukrán",-7.508534082411819],["á",-7.509030715676811],["hozzá",-7.511584966789622],["össze",-7.5232775464130075],["tovább",-7.524592454982855],["ezer",-7.548928007570124],["előtt",-7.555087852296077],["által",-7.56080639347167],["él",-7.561043183378571],["ed",-7.563796982168065],["áll",-7.566443061320007],["ad",-7.575516821006731],["bb",-7.576717262227508],["ember",-7.5813233675553535],["nap",-7.585477239173304],["N",-7.5885864807586305],["tek",-7.591746193452336],["fő",-7.60185212861208],["három",-7.604521673608878],["milliárd",-7.6117504407496686],["akik",-7.613173432225743],["u",-7.613869040578567],["O",-7.616057210326089],["hét",-7.616774302316455],["ére",-7.625412249951646],["7",-7.628238958744169],["ön",-7.632679933611218],["amikor",-7.634635966625198],["teljes",-7.637447689022188],["8",-7.643918840734122],["alatt",-7.653100414153565],["óta",-7.666459841706364],["0",-7.667344178606359],["10",-7.672514350657354],["háború",-7.676516478084429],["22",-7.677950168005644],["helyzet",-7.68445895148864],["6",-7.690537364551206],["ny",-7.697190270257376],["Mi",-7.710216967121612],["Nem",-7.711707692107472],["rról",-7.712664990282186],["ával",-7.717089684383606],["or",-7.7253285509972525],["élet",-7.736550677326907],["számár",-7.741196940499379],["ál",-7.760421405992468],["í",-7.761567049374499],["csapat",-7.762375701782009],["9",-7.772314250794084],["ját",-7.776770725112871],["ahol",-7.785983002834519],["valamin",-7.796029763676397],["Oroszország",-7.8026319753432025],["elnök",-7.814405729688797],["od",-7.817862512041331],["ér",-7.824610658435994],["Európa",-7.8255475660089555],["lett",-7.829437591708521],["cég",-7.830197722573333],["közben",-7.836107905434347],["fél",-7.839068945151447],["példá",-7.843584834812586],["vár",-7.850313423209092],["való",-7.85420869352502],["eset",-7.854844719944462],["mind",-7.861825679002401],["al",-7.863893454961699],["voln",-7.866013419269804],["ám",-7.8687136161560005],["egész",-7.870176847888268],["Sz",-7.875389439571067],["ur",-7.8771480918256955],["di",-7.881998731534281],["Magyarország",-7.894459939453106],["Nagy",-7.906617744409847],["viszont",-7.91086784454382],["köz",-7.911111036843545],["annak",-7.918074552283106],["hisze",-7.9228412773693755],["ugyanis",-7.92405219531954],["ével",-7.937615798524156],["idő",-7.938283688617616],["illetve",-7.939889833214962],["tette",-7.940564560323813],["15",-7.948120812072365],["szó",-7.949438034890959],["ment",-7.952209360707564],["város",-7.952480035732691],["adott",-7.956147976691245],["öt",-7.958512413821635],["amit",-7.962611626970202],["ekkel",-7.964215487640761],["adó",-7.965650693576586],["De",-7.969018859280398],["ház",-7.969710253480589],["vezető",-7.972798428920263],["gáz",-7.975709314174399],["ilyen",-7.976410372563471],["jük",-7.978690946785874],["túl",-7.981800645084736],["21",-7.9830184754213995],["hanem",-7.983975542096441],["elmúlt",-7.984369974349797],["us",-7.987405580842114],["játék",-7.98821916923095],["li",-7.98978714791545],["második",-7.990316478168872],["nő",-7.9908211946030585],["férfi",-7.992531308999336],["rendszer",-7.997147842571112],["került",-8.004395977435827],["kap",-8.006509882117543],["előre",-8.011413814772263],["sel",-8.011786991872977],["míg",-8.01184777517563],["30",-8.013800597472212],["fontos",-8.024942926059104],["ezek",-8.03321916487085],["amelyek",-8.034241209207678],["négy",-8.039147333818798],["okkal",-8.041288932015469],["kis",-8.042996557392598],["közölte",-8.046866368501401],["jelentős",-8.047399270012939],["akár",-8.054609423998345],["sor",-8.059279229579326],["tett",-8.060365890743128],["U",-8.062065391881518],["se",-8.06215795415277],["pont",-8.063129065332],["verseny",-8.07011377793718],["autó",-8.071198215791725],["saját",-8.073026334391757],["W",-8.076312833806096],["százalékos",-8.076451293462078],["nagyobb",-8.080871357439474],["ható",-8.081250345781594],["korábba",-8.085038345340806],["legnagyobb",-8.085111858515699],["milyen",-8.090003455407848],["mely",-8.091601201499728],["18",-8.097575910638485],["ló",-8.098086630081173],["hető",-8.104081897421619],["alap",-8.10449039134192],["felé",-8.104922794123297],["jár",-8.105638062551272],["út",-8.10607415239414],["kerül",-8.109178778324214],["jól",-8.110516058981599],["nincs",-8.118712633370091],["érték",-8.119697782781763],["rend",-8.125940337735713],["pár",-8.135372046632542],["szinte",-8.138244097109833],["amerikai",-8.146077755723926],["során",-8.14917955897447],["évek",-8.151387463277452],["ök",-8.161553363689396],["bban",-8.162861558628196],["um",-8.164217470978738],["család",-8.165381348581512],["nélkül",-8.16618935269341],["zal",-8.16798520381496],["azért",-8.170055226112012],["határ",-8.172942509360887],["Magyar",-8.174994405765842],["ebb",-8.17982045051765],["itt",-8.181287042868373],["időszak",-8.181490915964872],["emberek",-8.18363569822429],["jelent",-8.187483634949768],["kérdés",-8.188880257461609],["alapján",-8.192548267338886],["együtt",-8.194781658244416],["ro",-8.195631622779695],["idén",-8.199373475515674],["cél",-8.200646304317216],["ü",-8.203450596208338],["tart",-8.205821120422822],["szemben",-8.206105619285989],["része",-8.20768860355556],["eddig",-8.210593048315346],["európai",-8.213866824465095],["közel",-8.214689451611472],["részt",-8.21704925168256],["gazdasági",-8.221090283874663],["víz",-8.223012615329068],["újra",-8.223921438444524],["ügy",-8.226455790863056],["ci",-8.230854533777935],["őket",-8.232033931729976],["másik",-8.234348324355318],["pénz",-8.236595260795534],["jövő",-8.237437849326806],["piac",-8.241409399332728],["újabb",-8.242367766726769],["közül",-8.242593011747502],["történt",-8.25024335447351],["ezér",-8.254066715784042],["akar",-8.256800997941053],["mal",-8.258834094380624],["szer",-8.261794844506987],["ők",-8.265424635663916],["perc",-8.265697148717733],["gal",-8.26840400417894],["kel",-8.268548890287597],["lenne",-8.275896402598796],["helyi",-8.279258707450921],["energia",-8.281974819080691],["hát",-8.283034189843496],["ezzel",-8.286141648596885],["w",-8.28730488708877],["mond",-8.287355751880439],["12",-8.289546887662846],["50",-8.28969993832375],["szám",-8.291635243355717],["hol",-8.295087535335607],["hónap",-8.296156482088776],["infláció",-8.29749630529307],["hely",-8.301311104570892],["csoport",-8.301606310767536],["szak",-8.302004245743335],["kellett",-8.304581296347902],["lap",-8.304982627209261],["23",-8.307959116973429],["ing",-8.311305271422999],["hazai",-8.315471399568008],["ter",-8.320447935206449],["következő",-8.320745535112243],["14",-8.322329030282738],["miniszter",-8.322422537384284],["olt",-8.323381479588814],["korábbi",-8.32401302225541],["ös",-8.327130181671468],["abb",-8.327697715296392],["egyre",-8.328210626721333],["voltak",-8.331735702342446],["jog",-8.337310870135124],["vállalat",-8.338244125924088],["tor",-8.340208370529611],["kapcsolat",-8.34241497134245],["Már",-8.346427505231468],["néhány",-8.348681912691028],["ver",-8.35087973227213],["ött",-8.356629655718862],["kapott",-8.356719353199058],["otthon",-8.35699106082863],["ugyan",-8.360553996831158],["álló",-8.368160102722126],["munka",-8.370173482019062],["tér",-8.373275300895386],["13",-8.373865387056501],["ennek",-8.374821982336325],["később",-8.375281604891814],["helyszín",-8.37533421286039],["elmondta",-8.378104966650657],["hatás",-8.378283474438547],["bár",-8.37890329889968],["oldal",-8.379569487029826],["og",-8.381441211595362],["összes",-8.389400728264464],["program",-8.390722964087194],["fi",-8.392571930594361],["25",-8.392887823754293],["jában",-8.393131985520116],["belül",-8.395700431932479],["ók",-8.396455265174131],["Ukrajna",-8.396989660789544],["szervezet",-8.398942641332088],["áról",-8.404365079050748],["Meg",-8.40647477125675],["lévő",-8.410657595179938],["17",-8.411061493497318],["csökkent",-8.417386714418102],["történ",-8.420329049789924],["gel",-8.42042237972696],["jelenleg",-8.424046283252292],["ából",-8.424328018255103],["hír",-8.426236499114898],["szem",-8.434385488600753],["tavaly",-8.434410367709333],["alá",-8.434624884096621],["Egyesül",-8.437199504254881],["utolsó",-8.439170999153212],["ch",-8.439872174335326],["gyermek",-8.441229712203972],["11",-8.443110241941584],["vált",-8.443182523041349],["euró",-8.444971431463824],["szükség",-8.44576599323807],["indig",-8.446211689598673],["lát",-8.448834091234199],["erre",-8.449158486596918],["24",-8.449410563371716],["El",-8.452991165482912],["tartott",-8.458086705951825],["bor",-8.460159235676986],["marad",-8.460457719306483],["további",-8.46073316064424],["lag",-8.461594306402867],["Z",-8.462181055143253],["jelen",-8.463244476824588],["né",-8.463495983276387],["megfelelő",-8.464463951117878],["ill",-8.466173526844177],["Budapest",-8.467108458263883],["hiány",-8.469577015244964],["este",-8.473344571280721],["magas",-8.473918926915161],["szabad",-8.47546699755106],["ebben",-8.476692949986443],["vi",-8.479006554859147],["fok",-8.479628291047625],["képest",-8.480814453749861],["támogatás",-8.481345632706487],["fogalmaz",-8.481710179349308],["unió",-8.485050083776068],["választás",-8.48834502414837],["Mint",-8.492126052343174],["védelmi",-8.493373894733578],["miniszterelnök",-8.494077913859748],["legyen",-8.494272463778268],["nyi",-8.496982339472762],["közös",-8.498090268000194],["gazdaság",-8.498199109255603],["film",-8.5013099172238],["Péter",-8.505957572853397],["képes",-8.506719493762912],["Magyarországon",-8.508084041849383],["inkáb",-8.510465623823992],["mel",-8.511000870409084],["kar",-8.511071033055527],["száma",-8.514463838152524],["siker",-8.516357729158639],["J",-8.517848870498003],["éve",-8.518673282539101],["ö",-8.51893019731619],["bele",-8.519151991010078],["Orbán",-8.519875617424756],["mindenki",-8.521040213539802],["dolgoz",-8.521118926638099],["erős",-8.52320973439532],["sikerült",-8.52510807456331],["állam",-8.526459035417608],["szintén",-8.52741190401774],["lépés",-8.529937601735602],["40",-8.530138120403317],["harmadik",-8.531774589164094],["keres",-8.532269711916975],["eit",-8.532464074605702],["fiatal",-8.532788114201308],["néz",-8.534639030208524],["követő",-8.538208329418495],["nemzetközi",-8.540304534187703],["ismét",-8.540535056633438],["írta",-8.541348613991415],["öl",-8.541531395416246],["jelentette",-8.542317802437601],["hosszú",-8.545079420883548],["16",-8.545677990341023],["ket",-8.55133689794945],["/",-8.551484486840849],["ör",-8.551652855851225],["jön",-8.552510104703922],["állás",-8.554804592679789],["já",-8.55554605224691],["tíz",-8.556142240739852],["kkal",-8.558406347742658],["Cs",-8.560061955460977],["gondol",-8.560784763120015],["x",-8.564353420233147],["ához",-8.56782396173158],["mutat",-8.57254604307441],["videó",-8.574246561697173],["mit",-8.574480804070895],["párt",-8.575490104102848],["magát",-8.57593075972694],["nehéz",-8.57728797823901],["rel",-8.577552740673969],["ink",-8.57762727052036],["rendőrség",-8.578775455138512],["múlt",-8.580191859251485],["vasárnap",-8.580829162651835],["száz",-8.581004290976596],["lány",-8.58691447006481],["azon",-8.58797347140206],["közösségi",-8.588084437539564],["ása",-8.589135478278436],["ették",-8.589454135624333],["ll",-8.589578083491357],["lak",-8.590435404589932],["német",-8.590945831800482],["dal",-8.592169482335335],["mű",-8.59331590886788],["esz",-8.593808907481836],["érkezett",-8.59451268371214],["ján",-8.5958402963763],["erő",-8.596716856574464],["szint",-8.5983963338366],["tunk",-8.602749060052355],["egyes",-8.607896190796872],["támadás",-8.608825459643407],["órá",-8.609250432861796],["óra",-8.609305345745655],["elég",-8.610314728085228],["érdeké",-8.610325117755147],["heti",-8.61081192565436],["komoly",-8.611459827533519],["jon",-8.61327413207192],["éről",-8.614571596035109],["ismert",-8.615384780498312],["sokkal",-8.615821313818328],["helyen",-8.616551715615628],["tó",-8.616981581835407],["zás",-8.621033753075073],["állt",-8.621556361554958],["járvány",-8.624399263577535],["Putyin",-8.626519655760147],["jobb",-8.626656980683563],["Ki",-8.627318344772714],["súlyos",-8.630188937701206],["fa",-8.633865782948892],["nyom",-8.633952825729544],["című",-8.633988372653342],["szív",-8.634386164924177],["kívül",-8.634899499513356],["olaj",-8.635571175237118],["osan",-8.635829835145405],["készül",-8.636517482608994],["vette",-8.636700547993915],["ette",-8.638159659597514],["lép",-8.639237855613665],["per",-8.641899647277427],["kép",-8.642952684733476],["baleset",-8.642991720387748],["elleni",-8.645339322591386],["készült",-8.645422413612902],["törvény",-8.647402109881876],["gyors",-8.648808569879025],["200",-8.652202697339476],["végül",-8.653366502685422],["hagy",-8.653462540880282],["mikor",-8.65374616285171],["terület",-8.653906773160426],["lás",-8.655796599488763],["ic",-8.656406134742635],["miután",-8.656568025985994],["vé",-8.658917438528688],["követ",-8.659261785141211],["lo",-8.65939018550496],["TI",-8.659535612461362],["sége",-8.66060098617396],["üzlet",-8.661957972454044],["ukrajnai",-8.665359478813373],["írja",-8.666458252030132],["vezetés",-8.667079231754087],["lehetőség",-8.667482917174516],["ce",-8.667818070757573],["árak",-8.668868374694194],["keresztül",-8.669234059026357],["azok",-8.67116332001346],["okra",-8.67429083866609],["politikai",-8.676295124941028],["oldalán",-8.678027070710403],["számos",-8.679318393208733],["hitel",-8.68364142858714],["egymás",-8.685466596767974],["sorozat",-8.68651840806565],["sport",-8.687182375164769],["koronavírus",-8.68720552290175],["usz",-8.689421704292485],["zár",-8.693969872384173],["éppen",-8.694007227396584],["ztán",-8.696378594485827],["élő",-8.698060282694845],["biztos",-8.698971791203068],["ná",-8.699043729987336],["végén",-8.700185112528851],["kör",-8.701246563144222],["ális",-8.70181982573464],["igaz",-8.703250361982697],["környezet",-8.703783339149936],["halál",-8.705822106227256],["beszélt",-8.709358996746563],["adás",-8.709837659144709],["ég",-8.710211441968118],["nőtt",-8.71286266661641],["kevesebb",-8.715372009288256],["mennyi",-8.715828439085922],["adat",-8.717240626138809],["megoldás",-8.718136013130403],["ált",-8.719459967367428],["pi",-8.720297807951724],["november",-8.722792445224375],["jai",-8.723097879367792],["hív",-8.724056364550105],["tűn",-8.725321524682894],["fotó",-8.728603089093163],["X",-8.730120539794854],["Ezek",-8.730240141276274],["épület",-8.73024152768547],["szeretné",-8.73039929067046],["állapot",-8.730497726251912],["tűz",-8.732899580222654],["december",-8.736228169485607],["fejlesztés",-8.73773976844158],["katonai",-8.73874588284491],["vá",-8.738782168227088],["működ",-8.73919640512884],["vezetője",-8.741128031416487],["ral",-8.743452125342149],["legalább",-8.744000246009549],["zó",-8.744000975467461],["fej",-8.744576749306377],["ly",-8.746693218131998],["dollár",-8.74859867021764],["hang",-8.748744557473113],["látható",-8.75135513298784],["ezen",-8.751556434128183],["ivel",-8.752391165754975],["utóbbi",-8.752433012127817],["Államok",-8.75595436975954],["őr",-8.756676431856988],["előző",-8.757639258481504],["mény",-8.758353211388368],["EU",-8.75948839803856],["Enne",-8.759601438753247],["vég",-8.7610661747759],["enged",-8.763729378628925],["zel",-8.765297421066323],["test",-8.765410944217594],["ellátás",-8.765504492271472],["szeptember",-8.767624463811234],["ír",-8.76790635777948],["tam",-8.76912492699224],["elnöke",-8.769347434667553],["önkormányzat",-8.76965503160135],["Viktor",-8.771624004686824],["egyébkén",-8.771805934146089],["kon",-8.773012391070107],["jött",-8.774324765373812],["lakás",-8.774462327400611],["Köz",-8.775382466492996],["vett",-8.77557603858795],["üket",-8.775692430752393],["legjobb",-8.778414666078485],["ekre",-8.778787204143905],["maguk",-8.781884421640846],["indult",-8.783018260643821],["ov",-8.78457286679588],["Bár",-8.786892087565231],["oknak",-8.787469734867486],["esett",-8.789183448434722],["kapta",-8.78996276305574],["Be",-8.79001880850116],["Most",-8.790357164923114],["döntés",-8.79139946695168],["hi",-8.791437135031268],["annyi",-8.792700082170697],["szükséges",-8.793592918650521],["szél",-8.79371565269194],["kutatás",-8.793959522378223],["tekint",-8.794294471985872],["semmi",-8.794742927643696],["von",-8.796643097744209],["mai",-8.797149106832357],["László",-8.797991315077915],["Ezt",-8.802595085206688],["délután",-8.802850495131857],["október",-8.804177313581194],["brit",-8.806574844042437],["ított",-8.80686453289454],["tudja",-8.807076575703],["Í",-8.808319034279936],["egyetlen",-8.808901805784824],["vesz",-8.811427481654551],["Le",-8.812239519280334],["személy",-8.81463056590573],["Re",-8.816589560821814],["kisebb",-8.817170493177189],["kevés",-8.817704618816068],["atlan",-8.818647843842047],["követőe",-8.821340879151425],["osztály",-8.822306458493474],["idei",-8.82421042685328],["ko",-8.824675577911282],["cím",-8.82529857520965],["100",-8.825955921416083],["tudta",-8.82629916206187],["döntött",-8.827409345233939],["piaci",-8.827546662624922],["növekedés",-8.828073377914233],["ását",-8.829639874386073],["körül",-8.832189762633165],["tiszt",-8.837790147295655],["barát",-8.838261518185853],["együttes",-8.839519414208652],["járó",-8.840171761820464],["vér",-8.840788027044166],["vele",-8.840858369737006],["un",-8.841976562937035],["ugyanakkor",-8.843228373840237],["képviselő",-8.844025177405381],["hivatalos",-8.844832428302247],["Nemzeti",-8.846325132805195],["megyei",-8.846887752424202],["éhez",-8.848257970103038],["bo",-8.849233192651704],["napi",-8.851656560396496],["hasonló",-8.852085759853292],["esemény",-8.852411812930043],["feladat",-8.853046077474083],["maradt",-8.85312649231291],["fegyver",-8.853214898878184],["der",-8.854115805282566],["díj",-8.859357875135665],["elején",-8.861726719131076],["legtöbb",-8.86226105511957],["telen",-8.863028776982333],["felvétel",-8.863029956646393],["szi",-8.863571071904833],["rész",-8.86496711877281],["igen",-8.86676339302152],["pénteken",-8.868561156495069],["átlag",-8.86928898755568],["szolgáltatás",-8.876173455157659],["külön",-8.877092179232346],["Több",-8.877092812228902],["Úgy",-8.877221009220005],["ítás",-8.878197852270276],["teszi",-8.878611673765246],["szankciók",-8.880925597296784],["magá",-8.881329610010454],["játékos",-8.882855123779091],["szállítás",-8.882884505227427],["maga",-8.882886956229633],["benne",-8.88313046596943],["halad",-8.883432923317148],["szerű",-8.884217003481231],["rendőrök",-8.88623866871946],["ezelőtt",-8.886481518260204],["föld",-8.890215253339985],["érdemes",-8.891815763644136],["kár",-8.891962877550547],["biztonság",-8.893058071194684],["köszönhető",-8.89324751075345],["elem",-8.894417604537157],["ró",-8.895526277264313],["neki",-8.896305553852638],["tartó",-8.896361748389358],["próbál",-8.897242412093888],["munká",-8.897445381562042],["termék",-8.897578860996305],["visel",-8.897862461967007],["oda",-8.899610776989967],["döntő",-8.89987147912484],["végé",-8.901892987683798],["ellenér",-8.902014842089859],["indul",-8.902916998437195],["tag",-8.903061045656717],["ését",-8.90330424483249],["jegy",-8.906946080991172],["ást",-8.907732930046766],["öm",-8.909542147231882],["előny",-8.91155800775031],["In",-8.911580279749156],["anyag",-8.91238783192513],["István",-8.913336265729864],["helyett",-8.914350946137233],["lő",-8.915469958772928],["60",-8.91693475321868],["gyerek",-8.917708541359639],["csütörtökön",-8.91812187453646],["országok",-8.91838617385383],["rövid",-8.919618003561013],["adatok",-8.92131847606812],["miért",-8.92178761873199],["várható",-8.922147009094143],["ru",-8.922192816790066],["ut",-8.922734739560287],["összeg",-8.923186659378768],["bér",-8.924502631896404],["rendelkez",-8.92456358533793],["Á",-8.9269705605665],["társaság",-8.927873386486887],["Bar",-8.930101592134342],["sokat",-8.930864534221888],["ény",-8.931723942210336],["arány",-8.935359229167144],["enek",-8.937549270396083],["különböző",-8.93926157497813],["ába",-8.939788327141422],["társ",-8.940838631106583],["jobba",-8.941188096455967],["alkalom",-8.941410945900572],["hal",-8.941818705974239],["szövetség",-8.943079200098236],["vány",-8.943212848914612],["régió",-8.943425425674661],["áram",-8.943549588195253],["tétel",-8.944090595228623],["szóló",-8.944753513356954],["ukat",-8.945405595365383],["hatalmas",-8.946344400526343],["válság",-8.949147034965335],["szól",-8.94915239860945],["használ",-8.950327749764618],["folyamatosa",-8.951134647482625],["séget",-8.95278621670197],["line",-8.954400067452621],["módo",-8.954863430332697],["harc",-8.95560542222497],["bé",-8.957811387838213],["öv",-8.960597122964625],["du",-8.96095774662804],["intézmény",-8.961806099300508],["darab",-8.961964067284443],["80",-8.964413428414023],["hu",-8.965728516121679],["kér",-8.9671842927171],["forrás",-8.967842512177349],["született",-8.968437352862573],["fizetés",-8.969221623543351],["hivatal",-8.969650070127702],["január",-8.970291140964001],["március",-8.970292551307097],["eredmény",-8.970318596374812],["február",-8.972736058896997],["kezd",-8.97303599974764],["jelenlegi",-8.973667232490904],["vezet",-8.973864584097093],["eb",-8.97585359645369],["gép",-8.976952153323598],["indított",-8.977790398437175],["műsor",-8.978560856395433],["and",-8.98007235480994],["állami",-8.980211530603963],["haza",-8.98030354223579],["közép",-8.981157615608826],["központ",-8.981740270402177],["hétfőn",-8.981818130225053],["elérhető",-8.984072656188225],["Gy",-8.985172644272067],["írt",-8.985967132646653],["válogatott",-8.986232624720099],["oly",-8.98934544826718],["található",-8.990853109704089],["Minden",-8.991256861191259],["son",-8.99156510353818],["man",-8.992099704048826],["napon",-8.9927460346464],["reggel",-8.994636585927163],["lehetősége",-8.995645311623441],["magasabb",-8.995973065444279],["Eb",-8.996086136823717],["mo",-8.998632836157231],["gól",-8.998837737498498],["tudni",-8.99904775808293],["bank",-8.99997237624557],["forgalom",-9.000033204653228],["szerdán",-9.00088274328567],["biztonsági",-9.001775766297108],["ozás",-9.004114859784757],["27",-9.007072540711789],["tesz",-9.007743591523138],["ráadás",-9.008664883244546],["okon",-9.009079241426004],["talan",-9.010474216852167],["figyelmet",-9.011518604203257],["esen",-9.011946845884797],["“",-9.012691415018672],["eh",-9.014248556562272],["valaki",-9.01428607624497],["És",-9.014713829461783],["baj",-9.015119530010075],["ász",-9.016192551703156],["számlá",-9.016390441361779],["betegség",-9.01660030991332],["parlament",-9.017800006511438],["jutott",-9.018204784567885],["érintett",-9.018891511287297],["áig",-9.019336583633834],["kíván",-9.020220677002696],["eken",-9.021173707228986],["tem",-9.022935323323924],["rendezvény",-9.023003483415192],["szín",-9.023968154328282],["co",-9.023996961511552],["gyerekek",-9.02408639272161],["áció",-9.024732692794403],["rossz",-9.025885235077311],["mér",-9.027010320022228],["utaz",-9.027062341569366],["eszközök",-9.027134579244425],["mar",-9.027567375003626],["többször",-9.030723485373489],["egyszerű",-9.031338003863778],["tenni",-9.031961640382502],["kezdte",-9.032764674662207],["mer",-9.033030746910633],["valószínű",-9.034825870606053],["dr",-9.036968458211266],["cégek",-9.03747570939423],["valami",-9.038947064088514],["forduló",-9.03905765883708],["oszt",-9.03979941597952],["rendez",-9.039873454447646],["figyel",-9.040534345513919],["május",-9.043742623465132],["hálózat",-9.043800015126394],["lakó",-9.043938924977851],["igény",-9.045008331789155],["független",-9.045902145403243],["sziget",-9.04666135581726],["számít",-9.047125833321138],["kedden",-9.047889750002],["polgármester",-9.048014500576103],["akció",-9.048802881879634],["fehér",-9.04898764327525],["jelentés",-9.050424055054414],["ikus",-9.051321887110864],["augusztus",-9.051687139023105],["emlék",-9.052999150927647],["po",-9.053890031384126],["jával",-9.054761649393217],["emelkedett",-9.055078734340757],["ingatlan",-9.056516995114906],["forintos",-9.05952455102028],["lakosság",-9.062013424715602],["jelenti",-9.06227190246309],["nép",-9.062344774327327],["lét",-9.062763644071559],["egészségügyi",-9.063133061140764],["dik",-9.06340934297636],["beszél",-9.064047360860336],["hon",-9.064531765208553],["könyv",-9.064725923273093],["fogyasztás",-9.06485858894646],["ülés",-9.065017146095897],["jelölt",-9.065034667190133],["szeret",-9.066907624898366],["szk",-9.067344623553911],["esetén",-9.067729378369677],["kamat",-9.068037206727965],["addig",-9.07039369156787],["szép",-9.071477952507713],["Mar",-9.072231685072499],["érte",-9.072404975176035],["SZ",-9.073075505660576],["használat",-9.075057223391187],["fal",-9.075083882221008],["mennyiség",-9.075531101557294],["II",-9.075596931895587],["információ",-9.075692251060394],["láb",-9.075716444492665],["venni",-9.078942600346267],["kiderült",-9.080142592513877],["csi",-9.081499888908985],["előszö",-9.08160227517389],["örök",-9.081898209395113],["közösség",-9.082388910133318],["köt",-9.082552289311316],["senki",-9.082665066465566],["aszt",-9.083169822144308],["70",-9.08361027875057],["kicsi",-9.084233905465414],["őt",-9.084509847590189],["választ",-9.085980657473716],["bíróság",-9.08703039538738],["Fel",-9.087084369848409],["ésére",-9.087334524390277],["vásárlás",-9.08822035543362],["szolgálat",-9.08947851511226],["id",-9.091383060057607],["ág",-9.092155881310525],["életét",-9.092236637077463],["eszköz",-9.092441803837621],["rom",-9.093236162439611],["emelked",-9.095181770825285],["atás",-9.096060189148467],["tanács",-9.097444032166543],["állat",-9.0977042827205],["számolt",-9.099491708151719],["partner",-9.10072139179772],["vonatkozó",-9.104408449200443],["26",-9.105197515953625],["július",-9.106092568612322],["orban",-9.106366330285873],["orvos",-9.107193248809658],["adatai",-9.107216320659116],["cz",-9.108540526510563],["legfontosabb",-9.109227132317994],["do",-9.110255869131997],["oló",-9.110779204137714],["azonnal",-9.111521794906004],["Facebook",-9.111702643923895],["közlekedés",-9.111742176515541],["fény",-9.112582982127542],["talál",-9.113220652599509],["írás",-9.113364086508629],["alma",-9.114211343083586],["projekt",-9.115052531116104],["nyolc",-9.115626065747254],["ipari",-9.116047863200013],["Li",-9.116219131157386],["szombaton",-9.116289070404662],["célja",-9.116385534809073],["termékek",-9.116886596770087],["Bizottság",-9.117344432883293],["erősöd",-9.117456932973663],["termelés",-9.117747909474966],["ására",-9.117898916314298],["változás",-9.119727113847034],["pillanat",-9.12001668389177],["kapcsolatos",-9.121114475675016],["talán",-9.122133640247732],["hatóságok",-9.122231544519536],["mindent",-9.12228742537625],["érkező",-9.122671800619145],["tünk",-9.122904790280806],["végzett",-9.123093131452055],["ós",-9.124110133977476],["előbb",-9.125433145361955],["beli",-9.125608136520373],["véd",-9.128032464552984],["Unió",-9.128758898964543],["segít",-9.129422126849796],["jé",-9.130242674659428],["köszön",-9.132289783872352],["élelmiszer",-9.134490908042071],["politikus",-9.134493669533825],["endő",-9.1345829388504],["minisztérium",-9.136552789613855],["zott",-9.136631659666946],["végre",-9.136752215132994],["János",-9.13734908297146],["éből",-9.137786534603993],["adta",-9.138461494606545],["Egyetem",-9.140357980178905],["kapcs",-9.14082042335087],["üzem",-9.141035189768832],["nevezett",-9.14105708779529],["kább",-9.141218343587877],["gó",-9.142347583864213],["nyugdíj",-9.142855475475718],["április",-9.143133783401298],["Ro",-9.143619641996803],["kkel",-9.143782385859803],["külföldi",-9.145026340166432],["nyer",-9.14550577565615],["formá",-9.145897985321415],["játszott",-9.146215169947693],["részé",-9.147573856601426],["mérkőzés",-9.148306560477728],["felelős",-9.150647666266128],["hangsúlyozt",-9.15203295107432],["veszély",-9.154740574426334],["kínai",-9.154813353953497],["arc",-9.155119138696197],["csup",-9.155167571198023],["jut",-9.15536686677197],["ítés",-9.155414484923504],["román",-9.155885532418717],["eseté",-9.156449925529529],["eknek",-9.15666524122246],["közötti",-9.157823685804571],["folyamat",-9.157968762032056],["június",-9.16070406474511],["bíz",-9.162453002740182],["csökken",-9.162564999899288],["jára",-9.163371074130977],["tuk",-9.164401856155392],["művész",-9.164670990424936],["Ferenc",-9.165902356761517],["jét",-9.167229753420685],["magán",-9.16752570067505],["lenni",-9.167644372937794],["telefon",-9.168812260591551],["számol",-9.169613386659806],["Hozzátette",-9.169650051790907],["látsz",-9.170040463058378],["kert",-9.170202452110352],["szezon",-9.170687065216903],["met",-9.170689268787644],["Zr",-9.171172602324809],["közlemény",-9.17131544828278],["35",-9.17241364380932],["nappal",-9.172511582678261],["Er",-9.173708169031551],["28",-9.176509886978797],["üt",-9.17666468901487],["oroszok",-9.177582098673392],["iskolá",-9.178173644202994],["település",-9.178559535809587],["rengeteg",-9.178588012443058],["Bank",-9.17872287801966],["utal",-9.178905328526945],["ották",-9.179297304545633],["sőt",-9.180497634377602],["azóta",-9.180749058018858],["pénzügyi",-9.181790322253951],["zavar",-9.182035601797821],["ült",-9.182198494275303],["kellene",-9.182664905293151],["No",-9.182804189007138],["találkozó",-9.183546622942774],["ozó",-9.186063546773628],["NATO",-9.187651505713452],["féle",-9.187691412515509],["állít",-9.188709111346798],["tanul",-9.1888989776333],["használt",-9.188973743402183],["kórházba",-9.189577725739241],["főváros",-9.19083148963377],["vál",-9.192201331829008],["ások",-9.194248053981251],["ünnep",-9.194441014669612],["elé",-9.19453033537236],["erők",-9.194986485089089],["90",-9.195253911796657],["visszatér",-9.196385157830768],["szerepel",-9.196919302695726],["Ukrajná",-9.197376393346826],["tartoz",-9.197832898524663],["keret",-9.198147823733535],["időben",-9.198578232868947],["töltött",-9.198950669518446],["íz",-9.20020895930092],["forinto",-9.20040266612212],["%",-9.204816160731866],["beteg",-9.204843316341845],["negyed",-9.205506025777922],["sajtó",-9.206260398474015],["beruházás",-9.206274068474588],["gyártó",-9.206354853222848],["NB",-9.20654939683737],["csúcs",-9.208422270419685],["soha",-9.20921067795243],["megállapodás",-9.210352402557353],["napok",-9.211865016070277],["lan",-9.212394011635956],["történet",-9.213434031996735],["eljárás",-9.214480032754782],["adni",-9.21497297613734],["országban",-9.215600749188727],["vállal",-9.21584483457536],["Két",-9.216222360649128],["nemzeti",-9.216847215596875],["ször",-9.21749571780452],["of",-9.219392439019087],["ától",-9.220501380092259],["lég",-9.22082355223394],["index",-9.221599742109007],["kampány",-9.221605640096914],["változ",-9.222889440352363],["üzemanyag",-9.223315183830177],["ős",-9.223346297771833],["jel",-9.223348742727016],["tudott",-9.224737628538952],["ismer",-9.224788675700681],["dob",-9.226237098004482],["Szent",-9.226695251339063],["nyugati",-9.226765998911954],["francia",-9.228056223879488],["Hogy",-9.228191913150093],["dél",-9.228607638140444],["Mo",-9.229111900154559],["köztü",-9.229214973560723],["mértékbe",-9.230028990833183],["úr",-9.231642933195797],["többi",-9.231722972973476],["500",-9.233936349368896],["pl",-9.235144743618067],["szakmai",-9.235234102511185],["átlagos",-9.23580704057181],["pontos",-9.236052973254518],["járt",-9.23638300679199],["szerepe",-9.237982224154543],["találkoz",-9.238095679527088],["szervez",-9.238886814423207],["kezdett",-9.239592601393982],["fogja",-9.239592685719725],["gyorsa",-9.239805127751234],["érkezik",-9.240178246998312],["fizet",-9.240702914516834],["Németország",-9.241119062404392],["hozott",-9.242429127615903],["negyedév",-9.243612919328058],["találta",-9.24363281024781],["szereplő",-9.245408476100554],["zárt",-9.24577512169504],["különleges",-9.24706423363686],["jármű",-9.247640647213396],["hajó",-9.247711204028366],["arany",-9.249013753950505],["gyakra",-9.249424610683695],["szal",-9.24997232509186],["nevű",-9.250272947194507],["budapesti",-9.250274010828544],["kötött",-9.250318456411033],["képzés",-9.250405616232944],["közé",-9.252335892832225],["csomag",-9.25303473912846],["bajnokság",-9.253208389343463],["válasz",-9.253940476429495],["oltás",-9.25449980815953],["ezút",-9.254626843043216],["régi",-9.254629422275404],["tör",-9.254724947646057],["for",-9.256004634786041],["Bo",-9.256143271560429],["sérülés",-9.25675609015509],["hullám",-9.256869047001615],["vendég",-9.257023846982722],["segítség",-9.258845506664533],["várt",-9.258900717170455],["kapu",-9.259359851204529],["gond",-9.259521609957918],["vizsgálat",-9.260186286207698],["29",-9.260992726858364],["lépett",-9.261506635589921],["kezelés",-9.261565753758479],["zik",-9.26216924229949],["Fi",-9.26239188416173],["térség",-9.262541070900163],["rendkívül",-9.262922686265288],["ideje",-9.262939252764042],["táv",-9.263056926692563],["klub",-9.263326965308945],["egyszer",-9.264464598736685],["nyitott",-9.265795182983549],["színész",-9.265960418441084],["segítségé",-9.266546401468252],["szerzett",-9.266701296889565],["alakul",-9.267984058836127],["modell",-9.269168142267247],["soka",-9.269272126183257],["bal",-9.270061773178522],["előadás",-9.271028723434148],["nyújt",-9.27270978105284],["ec",-9.272750015425636],["mégis",-9.272871722792086],["lengyel",-9.273147617698363],["közönség",-9.273160219653406],["tegnap",-9.27370053857053],["többek",-9.274463974594582],["irány",-9.275398193172375],["Új",-9.279449058028963],["jellemző",-9.279791576657495],["hetetlen",-9.27988846989509],["havi",-9.280710202793696],["koz",-9.280743176644078],["személyes",-9.280881307870931],["hatatlan",-9.28233809074451],["szület",-9.284059146380148],["friss",-9.285922667976084],["Y",-9.286451235014514],["öz",-9.28652400413466],["tagjai",-9.288817855635118],["koncert",-9.289813629469354],["bejelentés",-9.29032229208751],["meleg",-9.290525844813379],["országos",-9.290921701660071],["zöld",-9.29102664352128],["kapcsolatba",-9.29145571014179],["játsz",-9.292078431963525],["vagyis",-9.292215094065968],["úton",-9.293865933840905],["lal",-9.295546187546346],["Még",-9.296125425314134],["einek",-9.296436834834008],["bizottság",-9.296559035436168],["mostani",-9.296949785633856],["épp",-9.297037467921413],["idején",-9.298409961109744],["old",-9.299009711375255],["területén",-9.29929857873202],["hőmérséklet",-9.299948739199879],["szakasz",-9.300326213540654],["hatj",-9.300842989956884],["tartj",-9.300871504732434],["olás",-9.30087806493054],["méter",-9.301938445436413],["tevékenység",-9.303024640118311],["iskola",-9.30317664343282],["persze",-9.303180786023347],["forgalma",-9.303351341497173],["távol",-9.303900778220214],["Ne",-9.304885282583268],["járat",-9.30528661365867],["egykor",-9.305457242825288],["csatlakoz",-9.306303420770774],["ipar",-9.30988561562746],["hadsereg",-9.310209887969421],["élmény",-9.311094574716632],["megjelen",-9.311677964711858],["utas",-9.312186852154273],["ex",-9.312785330482583],["bizonyos",-9.31312531914692],["szünet",-9.313624513144973],["Zoltán",-9.31362495836714],["mentes",-9.314302540031395],["sikeres",-9.314935689084862],["int",-9.316182167359226],["tartás",-9.316661170885506],["nal",-9.316734117080705],["mögött",-9.31707243691283],["ell",-9.317913705922912],["Debrecen",-9.319464107214152],["intézkedés",-9.319623697233855],["erdő",-9.32093198357179],["zni",-9.321229433613649],["létre",-9.321279240512471],["sztár",-9.322313223273987],["együttműködés",-9.322696496847588],["gyár",-9.322836371280903],["teljesítmény",-9.322928164496357],["tár",-9.323575981568949],["éri",-9.324803078745472],["tenger",-9.325163107290997],["képe",-9.325719626435996],["végig",-9.325939975954869],["ővé",-9.326579899284503],["nevé",-9.327362734656571],["ottak",-9.327863883902646],["iránt",-9.329185161046006],["mondott",-9.329383222428227],["jegybank",-9.333056658823029],["mindössze",-9.333495645992652],["meccs",-9.333550116025513],["tük",-9.33520031734487],["értéke",-9.335598952987116],["bu",-9.336391269281496],["jen",-9.336478184753613],["szakember",-9.337153576030332],["ruhá",-9.337451993865635],["dolgozó",-9.337508502149358],["nyomás",-9.337656659444898],["női",-9.33769498783768],["földgáz",-9.338554755836046],["szerte",-9.34115031248182],["elektromos",-9.34154915222625],["részét",-9.341851863606445],["Tamás",-9.341897657071417],["papír",-9.341997394353468],["mutatott",-9.342897792231602],["mély",-9.34299554576096],["elsős",-9.343072020006517],["vették",-9.343171807163962],["működés",-9.343367262014429],["szerződés",-9.343899630095832],["konfliktus",-9.345095249323972],["labdarúgó",-9.345095294157153],["egyértelmű",-9.345095338277103],["kedv",-9.34544907021766],["var",-9.346993607963551],["globális",-9.348653972883614],["lel",-9.348821209286257],["gyártás",-9.349032747665706],["ád",-9.349277581017112],["jövőben",-9.350488693996358],["szolgál",-9.351557552452704],["fiú",-9.351675992519159],["fizetni",-9.352096230571643],["szik",-9.35306140818499],["élete",-9.353327062404649],["kislány",-9.353890925456795],["napja",-9.35394862037485],["tervez",-9.356149004945884],["egyéb",-9.357000081598398],["gyermeke",-9.35888580878899],["nevez",-9.35907970982797],["küld",-9.360559841837954],["nyal",-9.3606804568852],["okoz",-9.361738411205689],["export",-9.361797195600655],["rt",-9.362511250464758],["ozott",-9.363871089955985],["öröm",-9.364335619398407],["vonal",-9.36445877494995],["aktív",-9.365208662935412],["alkalmazás",-9.365778736149343],["pontosa",-9.36631841167339],["anya",-9.36672886448145],["ré",-9.367323747510518],["készített",-9.368301568186117],["nyár",-9.369034613147166],["mozgás",-9.369401514428958],["források",-9.369764237418455],["edző",-9.37014009331044],["eddigi",-9.370574599044229],["választott",-9.371384544504904],["est",-9.37187246927028],["megjelent",-9.372040371639024],["tagja",-9.37206506592787],["ekkor",-9.372083010811444],["csökkenés",-9.372677968899053],["alig",-9.37280481295035],["hisz",-9.372890583629413],["op",-9.373633071292943],["polgár",-9.37366718130693],["hosszabb",-9.37378311169381],["épít",-9.373874840898743],["31",-9.374772940369667],["okozta",-9.375019041211285],["utat",-9.37523115480919],["mutatj",-9.375396625707502],["etlen",-9.376655129811498],["sék",-9.376875928779004],["pe",-9.377180117348722],["Európába",-9.377593180364421],["tehet",-9.378655769015307],["Ko",-9.380391282346896],["Sándor",-9.381266754814487],["nyert",-9.382226974519156],["mutatta",-9.382544275537594],["Mind",-9.38329726159329],["emelés",-9.383656285505458],["családi",-9.384067009974014],["nyelv",-9.384207177277052],["akad",-9.386531770390548],["szerel",-9.386752295181527],["közvetlen",-9.388739950773157],["digitális",-9.388831049687855],["vállalatok",-9.390568538033115],["part",-9.391141326495347],["egyetem",-9.394588365261228],["igazá",-9.394847801088883],["pályá",-9.395146581102729],["csinál",-9.395552965428863],["alkalm",-9.395878540896689],["területen",-9.396295102680718],["Br",-9.396460722964683],["érdek",-9.396503959956657],["ébe",-9.396864715803043],["talált",-9.397143218522181],["Országos",-9.397336530035549],["szempont",-9.398462927338297],["vas",-9.400128028861154],["bevétel",-9.402498870237327],["hangulat",-9.403617799145966],["húz",-9.40421904019303],["tájékoztatás",-9.405697588175304],["alakult",-9.406608074110348],["ron",-9.407294782616678],["figyelmeztet",-9.4074541161877],["készít",-9.407812416926657],["biztosít",-9.408698519444886],["érkez",-9.40903023062041],["helyez",-9.409201618605545],["kínál",-9.409278139598266],["kéz",-9.409398833213634],["szent",-9.410523909785127],["Attila",-9.41117443759526],["szerep",-9.417028923758753],["Gábor",-9.418794387375176],["váltás",-9.418881726203939],["vétel",-9.41922060990701],["teszt",-9.420112168877518],["általán",-9.421465160792035],["hibá",-9.422278757069236],["külügyminiszter",-9.422721165790502],["ide",-9.424110183905427],["egészség",-9.424476310362007],["rang",-9.426083473134764],["vág",-9.4266164611615],["szerző",-9.42674404397459],["András",-9.42675105848612],["tartani",-9.427445230544912],["kül",-9.427795811104934],["É",-9.42893820594404],["ságot",-9.429075581943998],["szék",-9.429158826816039],["napos",-9.429780303661415],["ány",-9.430580628995717],["ító",-9.430892964241131],["ván",-9.43218690288296],["lin",-9.434158998396576],["körülmények",-9.43422088692792],["államtitkár",-9.43423835381418],["viszony",-9.435820819397163],["különöse",-9.436634799383086],["továbbá",-9.437308910896922],["fiatalok",-9.437538651111833],["felmérés",-9.438178675209304],["sé",-9.438862387890008],["örül",-9.439207040204703],["ger",-9.439833692674089],["Jó",-9.440691515018587],["mód",-9.443225248414247],["tört",-9.443348452676418],["ítani",-9.443422770774198],["ségi",-9.443734893978274],["idéz",-9.443759556282949],["általános",-9.44453147555117],["követel",-9.445118496740118],["Kf",-9.44527177759079],["he",-9.44532443020328],["Fidesz",-9.445933534123986],["dolgozott",-9.447681368160518],["dolog",-9.449868754227447],["eredeti",-9.44989094734558],["eső",-9.451686514694932],["részben",-9.452198195758424],["élt",-9.452631401400172],["közepé",-9.452922098899222],[";",-9.453816320460488],["Ol",-9.453871787680853],["park",-9.45497552543404],["vezeték",-9.455268450242055],["negyedik",-9.456072289799895],["támogatást",-9.456744730886218],["mindkét",-9.457465037938984],["keretébe",-9.45825091264675],["mentő",-9.459342745246566],["For",-9.459389967220154],["űr",-9.46009181505672],["zon",-9.460181237231478],["kormányfő",-9.461817930593458],["kórház",-9.461900990406651],["ségét",-9.46240892023243],["ív",-9.463752561606977],["kockázat",-9.46381670207122],["zák",-9.464012022434483],["kezdőd",-9.46427926768828],["Kijev",-9.46577100009824],["hamarosan",-9.466039993867582],["Elő",-9.466362075274194],["olasz",-9.466630636068977],["melyek",-9.46894683164362],["magam",-9.469419213792868],["bolt",-9.469649594991568],["fesztivál",-9.469784710953906],["import",-9.471101671928523],["tervezett",-9.47151732496571],["eink",-9.471745744292441],["sí",-9.471884235602358],["várhatóa",-9.472166158972986],["alacsony",-9.472930182581955],["Ugyan",-9.473133360983724],["rég",-9.473969515269104],["véget",-9.474326560706174],["terv",-9.474844682145374],["mutató",-9.475135120680982],["busz",-9.476198862371959],["rezsi",-9.476490288580127],["mondja",-9.476535283359167],["kereszt",-9.476962160374],["ási",-9.477216139700943],["debreceni",-9.477865543631154],["olvas",-9.478484261386152],["árul",-9.478549218332969],["legin",-9.478871473365825],["ho",-9.479566307329296],["cse",-9.479871395164448],["fordul",-9.479927054478452],["folytat",-9.480135137102405],["75",-9.483144495448673],["kezdődött",-9.483388289544752],["Ny",-9.483524111349883],["listá",-9.483708057857807],["neve",-9.483886839642382],["közölt",-9.484319071343457],["nagyjá",-9.484630209515757],["kérte",-9.485383654312786],["ránt",-9.485505794353319],["kilenc",-9.485972086088367],["lánc",-9.486059272828953],["falu",-9.487123634832091],["elhunyt",-9.487783568547927],["ker",-9.488764988234454],["hetett",-9.489070138338985],["pénzt",-9.489822310448634],["kiállítás",-9.489897756559143],["szomszéd",-9.490069050033409],["természetes",-9.490080472684753],["csap",-9.491498762909718],["nyel",-9.491592303362143],["boldog",-9.491875297156602],["állított",-9.492244485614442],["folyó",-9.49277340738655],["nyílt",-9.493468662798897],["tulajdon",-9.493520947297483],["sors",-9.493556726961808],["oktatás",-9.493577470774131],["ellenőrzés",-9.494225908206555],["kereslet",-9.495370623915015],["br",-9.495960066608692],["Itt",-9.496036066485047],["közt",-9.49623079930252],["lyel",-9.496294447806871],["hatóság",-9.497024802706257],["ner",-9.497499391513752],["védő",-9.497967330065576],["megye",-9.498286346735316],["író",-9.498366756436074],["áldozat",-9.498750955718322],["javaslat",-9.499095988173034],["felett",-9.500377790648106],["dó",-9.501862367474754],["gyakorlati",-9.502377787099274],["György",-9.502507603524336],["szektor",-9.50253893150277],["kocsi",-9.502639256901357],["belső",-9.503072764598706],["díja",-9.503802736333519],["magyarok",-9.504538823638384],["ow",-9.50531622741994],["tető",-9.505540095743266],["költség",-9.50636395220641],["pályázat",-9.508541519996733],["Csak",-9.50869510782827],["függ",-9.508734558742859],["minőség",-9.510318076830693],["kísérlet",-9.511265628698268],["vevő",-9.511614175464363],["áron",-9.511785147027004],["béke",-9.511899072226036],["hallgat",-9.51475288983492],["Zelenszkij",-9.515059860544927],["par",-9.516187830251464],["tavalyi",-9.51642581453259],["tanulmány",-9.518668868378835],["vagyon",-9.518809409606531],["tárgyal",-9.51915207007184],["por",-9.519237610149785],["magyarországi",-9.520148288783084],["TV",-9.520515966014003],["esebb",-9.521861940785818],["szolgáltató",-9.522771412080177],["küzd",-9.52287224005598],["szor",-9.523484959365359],["kutató",-9.523884759401453],["bel",-9.524189225536848],["véli",-9.524713496724573],["300",-9.524781234739613],["ival",-9.524939789491992],["látott",-9.525543826600167],["csapatok",-9.527888604899864],["mos",-9.528158279032581],["Észak",-9.52816027613268],["változat",-9.53003980294579],["hagyta",-9.530334296857005],["ájá",-9.530629342070625],["láthat",-9.530635004173156],["vonat",-9.531053652348756],["vállalkozások",-9.53113545502202],["helyettes",-9.531504661515253],["pal",-9.53166855820161],["pozitív",-9.532045386536213],["lik",-9.532709775353805],["szállás",-9.532748831689847],["mondani",-9.53278209891031],["biztosítás",-9.533048659589962],["felül",-9.533154843246896],["Ukrajnába",-9.53332818484084],["helyre",-9.5343691797422],["áru",-9.53536924084362],["esti",-9.536513614462493],["tömeg",-9.538591180936521],["férfit",-9.540144535880863],["dás",-9.540247868230466],["gyakorlat",-9.540616872724112],["látni",-9.541440190602309],["igazi",-9.541563395273197],["fogy",-9.541669029478818],["látta",-9.541807663505388],["halálos",-9.542222167068182],["nevezte",-9.543015310928384],["képvisel",-9.54394438442558],["Van",-9.544447308101889],["kiemelte",-9.544709646366627],["mat",-9.54700501234028],["építés",-9.547103449303552],["Ő",-9.547164231229793],["199",-9.547432534009232],["ennyi",-9.548344656174322],["megy",-9.548990862025192],["nyerte",-9.549232314522788],["fenyeget",-9.54927621743511],["Vlagyimir",-9.549324402261849],["mag",-9.550993894598859],["hó",-9.551009452704267],["tri",-9.553895559959035],["körülbelül",-9.554160882229038],["időt",-9.554488885507773],["hő",-9.554897503288657],["közelébe",-9.556971228051566],["poszt",-9.557295734676428],["…",-9.558077179260776],["Szövetség",-9.558077194990995],["kelet",-9.558927900602619],["problémá",-9.559119021720946],["lehetet",-9.559245309846581],["hagyományos",-9.559825980371084],["hozta",-9.560022311500653],["haj",-9.560275352946459],["lé",-9.561612952605934],["ium",-9.562129631188988],["mobil",-9.563116914636124],["nyilatkoz",-9.563576255680468],["felesége",-9.565583030981632],["vágy",-9.565938315923423],["háborús",-9.566823386392501],["szállított",-9.56696596394266],["nemzet",-9.567194010768592],["biztosa",-9.567282914643275],["angol",-9.567363411506904],["szerda",-9.567387736155856],["költségvetés",-9.567414190207563],["téren",-9.567456889251828],["fordít",-9.567552303016496],["ített",-9.569614567556666],["hass",-9.570428206707732],["helyet",-9.571363752186626],["különbség",-9.571374001638436],["edett",-9.571663028166554],["Co",-9.57216321332207],["árfolyam",-9.572401888071525],["tál",-9.572708634221762],["zene",-9.573312600687675],["látj",-9.573900800785813],["vény",-9.575738277544534],["kezel",-9.57590687724856],["Ezen",-9.57602259708915],["ács",-9.57605285797106],["civil",-9.576466326233314],["nyilván",-9.576604903689338],["ügyi",-9.576638259360386],["problémák",-9.576722097218578],["keleti",-9.577140844348015],["rendőr",-9.577408105668436],["városban",-9.577456926931003],["derül",-9.57780086387158],["légi",-9.579109232275039],["tervek",-9.57912426328599],["számíthat",-9.57915353074807],["épített",-9.579448624343073],["nunk",-9.579475742026503],["egyház",-9.579707022869517],["működő",-9.579750901669343],["templom",-9.580300670207029],["sajn",-9.58039235265437],["plusz",-9.580549506198814],["területek",-9.581638198767532],["tartják",-9.581895785501946],["álás",-9.583893338053318],["uc",-9.58442269083082],["felnőtt",-9.584436671551682],["vírus",-9.584790702271583],["kapacitás",-9.584804817255009],["vége",-9.585420876458446],["tűzoltók",-9.58547714563343],["portál",-9.585558545438282],["Nap",-9.58642796246869],["Mindez",-9.587238792099338],["magyaráz",-9.588591997219353],["interjú",-9.589348130050105],["széles",-9.589655122806962],["kész",-9.590039431250588],["Ugyanakkor",-9.590101580730856],["tanár",-9.59128896086959],["tol",-9.5914250425376],["tölt",-9.59225914930597],["sák",-9.593590737654614],["Gergely",-9.59387523604803],["természet",-9.593900467088215],["tisztelet",-9.593923612180571],["tudás",-9.594032337523057],["nyújtott",-9.595074309251338],["legmagasabb",-9.595911376551083],["felső",-9.595948474901283],["érzi",-9.595956645189856],["ud",-9.596888297983401],["diák",-9.597083661365895],["szén",-9.597335648623993],["ler",-9.597381259882457],["adtak",-9.597523923979429],["Di",-9.598389329226663],["hivatkoz",-9.598441346344876],["alapvető",-9.598441596160152],["kereskedelmi",-9.600420694425143],["veszi",-9.60053797457158],["szakad",-9.601668364313085],["tábor",-9.602542676092185],["Nyugat",-9.603028495120586],["levegő",-9.603030361266693],["óriási",-9.603074605679808],["munkát",-9.60318000426061],["kötelező",-9.60371616716758],["Bors",-9.604422088257392],["eredménye",-9.60496346036581],["fogad",-9.605411307473869],["indít",-9.605871418641073],["The",-9.606673154369783],["végez",-9.606691912268882],["jék",-9.606710974718666],["asszony",-9.60763680317439],["felújítás",-9.60766295934902],["nemrég",-9.607704531380636],["pu",-9.607850826041485],["csal",-9.60818509350441],["üzenet",-9.608471652582363],["fia",-9.610815307023879],["ája",-9.611575891044279],["mu",-9.612572155037101],["Bor",-9.61268907772681],["szenvedett",-9.61305506730091],["Dr",-9.61326609640309],["média",-9.61374596175699],["Kar",-9.613823304618997],["érvényes",-9.614081756351013],["OT",-9.614345625088768],["várja",-9.614990357836795],["vehet",-9.615142684296666],["támad",-9.615798677461267],["34",-9.616510938846174],["szét",-9.616663193871904],["fut",-9.616684529123326],["tettek",-9.61671245177293],["45",-9.617724322252997],["állította",-9.617806056514402],["38",-9.61912056731321],["nyugat",-9.619668573272394],["Lo",-9.620144293161559],["kért",-9.620170969758828],["Megyei",-9.621606749687217],["vadász",-9.621848155017844],["bűn",-9.621947261278862],["400",-9.622446153341851],["Központ",-9.622825000340494],["vezér",-9.623231410607247],["kínálat",-9.623993766036563],["sáv",-9.624405685177464],["olni",-9.624432416052866],["szállító",-9.625099657329448],["del",-9.626224376263071],["Kína",-9.626291717079209],["hozzájárul",-9.626555650566814],["szenved",-9.626803447668578],["király",-9.62708999219771],["alakít",-9.627700740882702],["hívta",-9.627784931206477],["könnye",-9.627933854575904],["Me",-9.628166697012858],["ber",-9.62877904123596],["junk",-9.629174310334514],["foglalkoz",-9.62998716103176],["társa",-9.630821910906386],["embert",-9.630865876048464],["József",-9.63100229403588],["platform",-9.631002303262619],["Zsolt",-9.631223194413804],["kemény",-9.631360265704489],["37",-9.63162478594921],["tánc",-9.63187001317738],["foglal",-9.632309781915001],["baloldal",-9.633022701389622],["tartozó",-9.633246011060269],["36",-9.633386357023323],["remek",-9.633632841848534],["igazgatója",-9.635122802623183],["hírek",-9.635200648688933],["egyedül",-9.635532590044807],["front",-9.635778955423437],["utazás",-9.63612679640589],["vállalkozás",-9.636754371117515],["előtti",-9.637361893083952],["lej",-9.637407752282929],["délelőtt",-9.637469559644336],["lep",-9.637919137074901],["rajta",-9.63797315278089],["sága",-9.6402484501933],["befektetés",-9.640533989411061],["szakértő",-9.642941814394705],["észak",-9.6431509802898],["közösen",-9.643571358237857],["ásával",-9.64365340650682],["hit",-9.645030676165893],["igazgató",-9.645580432706694],["intézkedések",-9.645678858600302],["szándék",-9.646414875639449],["fenn",-9.647237455494615],["vidék",-9.647245355468298],["szabály",-9.648991889157363],["rekord",-9.649245514734098],["kommunikáció",-9.649355340594859],["bajnok",-9.64981923819942],["vita",-9.649821979470648],["Lengyelország",-9.65009591685122],["fürdő",-9.650102908896008],["vádlott",-9.650129788358026],["lehetséges",-9.650141297993164],["lapunk",-9.65027745262276],["ente",-9.651226842107528],["nyilvánosság",-9.651952729908919],["szoros",-9.654336036604887],["éven",-9.654687281172933],["állomás",-9.655987375163594],["44",-9.656637836799744],["kezé",-9.657164127453008],["költségek",-9.6586106805389],["helyek",-9.659375309801922],["folytatás",-9.659506708122278],["pontot",-9.659623143479553],["becsül",-9.659863165028113],["érint",-9.660301593317861],["információk",-9.660372520808497],["kilométer",-9.661815385603168],["menet",-9.66365131899061],["mások",-9.66367906945724],["go",-9.664173446832796],["teremt",-9.665318407174702],["egyéni",-9.666305305040883],["kettő",-9.666947330229641],["szab",-9.667238749266492],["vezetői",-9.668462080578319],["land",-9.669182677624779],["legújabb",-9.669305686582689],["emelte",-9.669379534288103],["Su",-9.66951104570776],["Sok",-9.670721496738915],["jogi",-9.670788132098155],["annyir",-9.671205156687513],["utca",-9.672124138872533],["irat",-9.67221864142814],["állítj",-9.6731721123835],["onnan",-9.673793761907103],["vezetet",-9.674075239222255],["asztal",-9.674785334076265],["olvasható",-9.674868972939551],["Én",-9.675538970758499],["mester",-9.675956588322569],["szülők",-9.676205112122627],["org",-9.676969128027444],["munkahely",-9.677089250554348],["tárgyalások",-9.677590694390204],["alkotás",-9.679036059780564],["Covid",-9.679438656696425],["sofőr",-9.679574754342081],["odott",-9.679587017322515],["ásra",-9.679645410771375],["jén",-9.679764778447979],["Év",-9.680010692507677],["amennyi",-9.68030357028711],["tikus",-9.68074657216331],["fejlesztő",-9.68078531925331],["házi",-9.680953586176102],["mire",-9.68103469875651],["nekik",-9.681295796088957],["bővít",-9.681437238507751],["támogatj",-9.681563617460782],["munkájá",-9.681906665577163],["ígér",-9.682069463252107],["mány",-9.68360803886095],["Más",-9.68418557753933],["Szabó",-9.684414353029663],["kísér",-9.684781938390573],["Ber",-9.685553968874428],["politiká",-9.686081459870628],["vitá",-9.687655367986356],["folytatód",-9.687725712965644],["észre",-9.687834897281359],["39",-9.689141437668114],["megpróbál",-9.689296968061708],["dokumentum",-9.689412939492883],["hazánk",-9.689678276103916],["győzelem",-9.689832584700573],["Mag",-9.689867588147234],["gazdag",-9.690407120229342],["intézet",-9.690656217365834],["hiába",-9.691167808386364],["fér",-9.693297640569124],["alkalmaz",-9.693387076072717],["mellé",-9.694355707522073],["látogat",-9.696616460840323],["Bu",-9.696918878244755],["sze",-9.697991885968472],["32",-9.698644289341743],["beszélgetés",-9.699021790345709],["súly",-9.699344264190543],["kiváló",-9.699511529063749],["rendelet",-9.699642075948937],["méret",-9.700018654284259],["000",-9.701518973742452],["sá",-9.702192077404831],["áló",-9.70232123001093],["szerinte",-9.703031600830016],["családok",-9.70331477683655],["fajta",-9.704855899231415],["valóság",-9.705360393276116],["jelentése",-9.706404845229546],["hasonlóan",-9.70651233069369],["ard",-9.707913990227699],["elme",-9.708687359811055],["cikk",-9.709556295765431],["Ráadás",-9.70966798870155],["lom",-9.709715751446485],["vize",-9.710278021407607],["révé",-9.710615422403077],["idős",-9.710670628494377],["enként",-9.71134995937732],["tartózkod",-9.711522174365914],["megyé",-9.711934067530624],["évtized",-9.712699938623054],["színház",-9.71400066599882],["had",-9.714773025617006],["kihívás",-9.714789035196777],["kollégá",-9.71479555576154],["Tanács",-9.714828329726751],["íg",-9.715022805997032],["hegy",-9.715134615300398],["33",-9.715302211491412],["Ja",-9.715954936016463],["áj",-9.717827324412191],["folyamatos",-9.718074319007243],["téli",-9.71825584477757],["népszerű",-9.71828252928536],["említett",-9.718778031729073],["mindez",-9.719311646630693],["ítj",-9.719596525007526],["összege",-9.719693687811858],["'",-9.719949597415312],["benzin",-9.720170559500584],["magunk",-9.72085176725179],["idegen",-9.721051219820449],["államfő",-9.721622893346224],["emelkedés",-9.722620736819415],["hány",-9.722828687245356],["Mol",-9.723108637875896],["jelezte",-9.723150764529427],["védelem",-9.723347697526112],["ezre",-9.724283529370972],["tizen",-9.724553989011763],["tökéletes",-9.72513189254932],["hétvégén",-9.725316732425426],["jegyezte",-9.726431099070513],["tartana",-9.726638388947928],["öd",-9.727341884618461],["vitt",-9.727587191002595],["teljesít",-9.728223909958697],["dolgok",-9.728228251420719],["érzés",-9.728549627324217],["támogató",-9.728835124479586],["Na",-9.72963529376722],["hango",-9.729646245559529],["Mari",-9.729786361576698],["tív",-9.730092626494457],["Ami",-9.730196021760735],["fekete",-9.73050771498755],["Nép",-9.730697317919134],["Dél",-9.730820767409371],["bejelentette",-9.731675997654996],["nyári",-9.731735863697658],["pályán",-9.731992018438994],["okozott",-9.732022207094474],["esély",-9.732225552657788],["környék",-9.732395130071724],["katonák",-9.73299858199032],["rakéta",-9.733395700176182],["bajnoki",-9.733998825722775],["pro",-9.734168589520916],["tapasztalat",-9.734288935283546],["létez",-9.735227343701265],["időjárás",-9.735847014502232],["fejlődés",-9.736004372058535],["menekültek",-9.736437868299799],["kiderül",-9.736956299704069],["So",-9.737167810384236],["vesztette",-9.737210544451258],["zajl",-9.737457620057405],["Jo",-9.737808393695905],["má",-9.73810306950051],["szakemberek",-9.738789446468637],["érze",-9.739403663518189],["nyire",-9.739480193025637],["karácsony",-9.739584300763248],["bázis",-9.739591327372622],["fe",-9.739893246955852],["Instagram",-9.740838037927617],["probléma",-9.74083803799887],["Varg",-9.7408526115662],["ötödik",-9.740865878633898],["emberi",-9.741139467838595],["vendégek",-9.741922635171388],["Akkor",-9.742523499050563],["menekült",-9.743251446437304],["szerv",-9.743356618790013],["hetek",-9.744045330577038],["ff",-9.74589110204004],["szülei",-9.746551098715162],["terjed",-9.746907588744666],["szeretnén",-9.747663415682897],["lövés",-9.747837487604532],["vád",-9.748830017933258],["ros",-9.749028205048287],["vad",-9.750212840075388],["gyermekek",-9.751391667594014],["negatív",-9.75145042177748],["hideg",-9.752416509981606],["szeretne",-9.752521082389293],["engedély",-9.753208435082424],["vész",-9.755050901222564],["felelősség",-9.755246254275413],["ssa",-9.755442175843207],["növek",-9.75637535055647],["aink",-9.756735669452688],["dolgozni",-9.756765802860523],["Twitter",-9.756796271863816],["nünk",-9.757072681963454],["körüli",-9.757734911265118],["közzé",-9.759699724805447],["szembe",-9.760596404132286],["lakos",-9.76088990285398],["szabadság",-9.760960817556334],["GDP",-9.762180043505676],["külső",-9.762336355686983],["rúg",-9.763249789625668],["következté",-9.763491027045482],["elte",-9.763572265689437],["évi",-9.763738597886],["erősít",-9.764807444301399],["azonos",-9.767335484208063],["másfél",-9.767384352358647],["segély",-9.767577613105557],["Zay",-9.767914978608434],["módszer",-9.768223194787605],["felület",-9.768959029159596],["csapata",-9.769812381366727],["szülő",-9.77015940993078],["szel",-9.770662871132433],["járművek",-9.771895862850277],["nyit",-9.77195785023627],["sokszor",-9.772539052329925],["kapcsol",-9.773420710604668],["tulajdonos",-9.774279341887063],["tele",-9.774525248248162],["48",-9.774533849254443],["igényel",-9.775302596827917],["ikat",-9.775471943789306],["anyagi",-9.775683032461174],["hagyomány",-9.776301449964096],["húsz",-9.7763784177573],["hete",-9.777017943906655],["ció",-9.777608046961673],["Miskolc",-9.777765120454992],["kov",-9.777925497890354],["könnyű",-9.77847682546401],["tudju",-9.778827363793837],["kiadás",-9.779032911338707],["gő",-9.780133487648573],["kerület",-9.780255529940668],["szorul",-9.7803831171876],["szerzés",-9.78041685042475],["lu",-9.781523535396822],["ítő",-9.781552621278973],["segítsége",-9.781694877981689],["péntek",-9.782732635174822],["szakértők",-9.7833088994716],["nők",-9.783561148766573],["ítélet",-9.783757686853544],["Tóth",-9.78397210471377],["modern",-9.78397456281825],["ágazat",-9.784058548900262],["szobá",-9.784154517479227],["küldött",-9.784351588087532],["énekes",-9.784558377758172],["dor",-9.785181438931932],["menni",-9.785867763942441],["témá",-9.78610556349869],["foly",-9.786391933180981],["fertőzés",-9.787141734236467],["napján",-9.787780186060829],["Emellet",-9.788060107383771],["rendszeres",-9.788708515852086],["szabályozás",-9.788855214257907],["országi",-9.789259322938314],["kölcsön",-9.789496179651334],["autók",-9.789535900054634],["felhasználás",-9.789637945422431],["Pro",-9.79089181806846],["szüksége",-9.792233989458552],["ütem",-9.793013982425812],["pályár",-9.793375544472365],["ésével",-9.793498359953663],["rendelkező",-9.793955590973283],["állítás",-9.794212458640263],["Balázs",-9.795052352520429],["példa",-9.795053412861709],["cu",-9.795054393661406],["Nyíregyház",-9.795089551555542],["ismerős",-9.795430854458324],["napokba",-9.795609869159772],["érkezte",-9.79574690810384],["állni",-9.795824852077534],["szervezetek",-9.795932975336811],["rajt",-9.796968923781243],["41",-9.797019272161211],["lehetne",-9.797280004420932],["Kr",-9.7973960949721],["minke",-9.797597738257796],["érezte",-9.797663560855796],["ódott",-9.797987992598017],["Val",-9.798175075680344],["költ",-9.798603453594787],["emelt",-9.799231823503053],["Ilyen",-9.80065425379627],["Duna",-9.800699735396526],["technológiai",-9.80148744014819],["könnyebb",-9.801827969787807],["kezdet",-9.802128322306695],["szavazat",-9.802264380365429],["ismerte",-9.802453901850665],["meghalt",-9.802826150203167],["kedves",-9.803397896027832],["többsége",-9.8034090049972],["segíti",-9.80354935914287],["szerezte",-9.80386601846078],["nekem",-9.803980175154297],["hajtott",-9.804183431512985],["zsi",-9.804857080082718],["Moszkva",-9.806256523585608],["állomány",-9.806257531786425],["énekesnő",-9.806734412665666],["városi",-9.807231091676854],["mutatkoz",-9.807610201074727],["támogat",-9.80883217042631],["49",-9.809889196347775],["tárgyalás",-9.810136915624867],["adja",-9.810247223586721],["bont",-9.810319852181351],["egymást",-9.810506040246654],["ánál",-9.81063296887613],["nélküli",-9.810643399351619],["szerencsé",-9.810943816981453],["bemutató",-9.811065826363759],["sérült",-9.811329501553555],["politika",-9.811670044477072],["történelmi",-9.811937142712814],["bír",-9.812390930775317],["zza",-9.813055366327813],["Te",-9.81369387557055],["tőle",-9.814352104138994],["Po",-9.814981808818365],["kérdések",-9.815244107999817],["élni",-9.815406580090354],["szabályok",-9.815532232651297],["faj",-9.81631486961291],["felhő",-9.816379373056773],["fordult",-9.816524870292081],["só",-9.816634679518877],["Bal",-9.817279370044234],["Tovább",-9.817387298575467],["55",-9.81768731055876],["győztes",-9.817802550946844],["tény",-9.818167231530644],["közeli",-9.818215283561868],["fer",-9.818233853769197],["nehezebb",-9.818331601212748],["enge",-9.81870587465242],["név",-9.818835757772174],["déli",-9.81897855510409],["Debreceni",-9.819346838555525],["határozott",-9.81957898684748],["tudom",-9.819585345628411],["New",-9.820309200376247],["intézmények",-9.820463743084701],["unkat",-9.821125633505577],["Zs",-9.821222898221611],["halt",-9.821391508421131],["fedez",-9.821732033876655],["dolgozók",-9.822687617550574],["&",-9.823302112717988],["olimpia",-9.823302799744859],["finom",-9.82345922251195],["veszélyes",-9.824371153957442],["tus",-9.82469545868926],["Szerinte",-9.825075137814139],["kötelezettség",-9.826458770643846],["Ám",-9.827363835168182],["vő",-9.82756006449448],["kétszer",-9.82859783553138],["Szijjártó",-9.829049239297728],["invázió",-9.829049239506972],["Fontos",-9.829052376691342],["labdá",-9.829066293836693],["hírügynökség",-9.829178771981658],["ágy",-9.829468420892352],["ideig",-9.829654573041603],["esített",-9.829726240043069],["kivétel",-9.829930116128146],["számú",-9.83050159552116],["érhet",-9.830904594655077],["biztonságos",-9.832207128259462],["bizony",-9.83292777451226],["cserél",-9.833688732256451],["többség",-9.833915454561225],["cel",-9.834100861962433],["növény",-9.834291143715644],["up",-9.83461848081426],["hasonlít",-9.83482390195823],["csapadék",-9.834830458773418],["udvar",-9.834885216748535],["érdem",-9.835323495535867],["ekhez",-9.83533301310333],["harmad",-9.83585461091679],["események",-9.836248966805524],["egység",-9.837873277475852],["édesanyj",-9.839729211960837],["sincs",-9.840725569468358],["hallgató",-9.841126086823017],["Hu",-9.841144363099689],["szombat",-9.84129487660796],["hajt",-9.841363603588903],["akit",-9.841490026227778],["köztársaság",-9.841563319192637],["körébe",-9.841828705127977],["gondolkod",-9.842616975282688],["immár",-9.84317958949925],["hős",-9.843372210255673],["győz",-9.84369773557529],["remél",-9.843840027438478],["szerette",-9.844458381778399],["drágulás",-9.845515041585866],["tehetség",-9.8459648700966],["értékű",-9.846059534504612],["herceg",-9.84649272319641],["országgyűlési",-9.846496631690563],["hajlandó",-9.846511213736832],["körben",-9.846654740122695],["királynő",-9.847420310395755],["He",-9.848372476370994],["reg",-9.849651137342395],["gyógyszer",-9.849858277789068],["melyik",-9.850257750699118],["pad",-9.850359640107667],["levele",-9.85083442350432],["testület",-9.85238227038869],["sajtótájékoztató",-9.85242121450074],["hajnal",-9.85254973339932],["vásárol",-9.852687016341537],["Anna",-9.852775942202882],["órák",-9.853103004602799],["levél",-9.853350804702597],["jogszabály",-9.853836608160018],["ajánlott",-9.854697882183215],["lakossági",-9.855029572306826],["kerek",-9.8562332852044],["értékesítés",-9.856245707291283],["Sch",-9.856419420904162],["önkéntes",-9.858342948840207],["tar",-9.858359800920912],["segíteni",-9.858530404565588],["véletlen",-9.858598128147285],["kifejezett",-9.858656079869293],["alkotó",-9.859200584403872],["találni",-9.859472094417288],["érdeklődés",-9.859799006645753],["nyilatkozta",-9.860262739242515],["osság",-9.860295056990713],["vezetők",-9.860870639871184],["törés",-9.862042847694186],["kizárólag",-9.864244261491919],["gyanúsított",-9.864325328063071],["alacsonyabb",-9.864431229967211],["mezőny",-9.864515684294284],["izmus",-9.865105713939439],["ub",-9.865938086839115],["legutóbbi",-9.867184022387375],["nyilatkozat",-9.867453404287183],["adatokat",-9.86800708048558],["ellenzéki",-9.868408556688259],["fű",-9.868477909534276],["áért",-9.86862722419547],["kezdeményezés",-9.869537642010581],["Pi",-9.870073925015575],["előzetes",-9.870232270258395],["előrejelzés",-9.870473435081117],["bőr",-9.871016935773927],["juttat",-9.872465592187005],["tényleg",-9.872805285960599],["ozta",-9.87298326170507],["kiemelt",-9.873185985771379],["láz",-9.87569992887346],["zuhan",-9.87625800598968],["Nemzetközi",-9.876259857336645],["természetese",-9.876275961138049],["Biden",-9.876306105508867],["némi",-9.87632933552455],["ij",-9.876857679983237],["mesélte",-9.877850927329149],["érdekes",-9.878631339714815],["beszámolt",-9.87872393368954],["kezdete",-9.880028090204716],["andó",-9.881028742650354],["kormányzati",-9.88170344510111],["gu",-9.88193272350548],["Kovács",-9.882317080742654],["zenekar",-9.882615072750037],["tion",-9.882790495202952],["merül",-9.8833776152434],["kerülhet",-9.88347067718222],["Sport",-9.883674257134055],["akarta",-9.883862684083471],["eredmények",-9.885134881938894],["elismerés",-9.885218788492454],["vizsgá",-9.886089482415112],["növel",-9.886942150737088],["zené",-9.88707118538655],["büntetés",-9.887811166250806],["pan",-9.888276925626549],["szánt",-9.888444548417205],["utak",-9.888955390375308],["tatta",-9.889884918385192],["nézni",-9.890092705090233],["alkot",-9.890205075791808],["lehető",-9.890331785623076],["számított",-9.891019121755964],["motor",-9.891594683238576],["ob",-9.891701912720812],["utcá",-9.892019749713509],["PC",-9.8921182711872],["hesse",-9.892443353044897],["vonatkoz",-9.89260541010393],["ítél",-9.892697963271733],["napra",-9.893633377206447],["befolyás",-9.894253145035787],["részvény",-9.89454438173355],["csillag",-9.894550489588575],["tartalék",-9.894552332356561],["csatorná",-9.894586346153911],["látás",-9.894658025011267],["fűtés",-9.89503985084417],["Ch",-9.895211541214259],["energiaárak",-9.895593265691042],["Olyan",-9.895639496239555],["kelt",-9.896035332028115],["őriz",-9.896183942351975],["időre",-9.896276955410562],["vásárolt",-9.896723420831426],["élvez",-9.897301073965634],["SE",-9.898290959203361],["fáj",-9.898497060395083],["szavaz",-9.898801147268017],["helyzetbe",-9.89898493741099],["ry",-9.899337191780546],["gé",-9.899501466992067],["zett",-9.899529542082941],["Franciaország",-9.900724540714545],["56",-9.901587654428905],["téve",-9.901878229481886],["rendező",-9.902447513220846],["tartalmaz",-9.902893504760481],["készülék",-9.904017181753108],["bármi",-9.904953188713652],["00",-9.904996131063704],["her",-9.905035667444036],["pol",-9.90524154249196],["választó",-9.90603028906621],["emiatt",-9.906129951959015],["neheze",-9.906199133454646],["dollárra",-9.906665241299356],["választások",-9.906845532901702],["robbanás",-9.90694489633781],["létesítmény",-9.906983946684175],["Ti",-9.90706347076559],["sportoló",-9.907327410702234],["profit",-9.90811926603945],["futó",-9.908295156728373],["próbálta",-9.908704190731612],["tévé",-9.90917271469257],["lelki",-9.90961253968058],["emlékez",-9.909772045598046],["híres",-9.909803115270886],["Össze",-9.910135425559542],["találat",-9.910767667829024],["osabb",-9.910770279988999],["vonul",-9.911051884081504],["Du",-9.912612035275789],["történtek",-9.912944120607676],["Rendőr",-9.91320714685078],["üveg",-9.913292229109505],["egészséges",-9.913530275120111],["derült",-9.913569959170747],["itthon",-9.913899610360687],["bar",-9.914466007120947],["repülőgép",-9.914846576869541],["csapás",-9.915029267234873],["reggeli",-9.915807689612397],["irányul",-9.91602728706366],["szed",-9.916271700893205],["idézte",-9.916814085682688],["versenyző",-9.916867472993932],["esetleg",-9.917495308992372],["szűk",-9.917935697744774],["épül",-9.918018217119268],["kategóriá",-9.918464778093313],["ológiai",-9.91850179450018],["Erzsébet",-9.91947197097],["mindenképp",-9.919624489851438],["szigorú",-9.919672390593194],["hatékony",-9.919954943436998],["Királyság",-9.920080098448299],["jelentett",-9.920100489308375],["43",-9.920202129542371],["csúsz",-9.920772831352167],["fejtette",-9.920778113075574],["hű",-9.920837487186821],["erejé",-9.921259646595605],["tudatos",-9.921496032725742],["származó",-9.921533151037421],["ingyenes",-9.921550618987954],["védelme",-9.921770774113284],["kedvenc",-9.921861145764941],["induló",-9.922408362598539],["rin",-9.922498129259438],["részén",-9.92320579551993],["ákat",-9.923713604141355],["remény",-9.92406326586344],["Katalin",-9.92580172608552],["árstop",-9.925805826396036],["komment",-9.925868388715838],["hónapok",-9.926006236867472],["módosítás",-9.926148740539245],["múlv",-9.926207307808786],["pá",-9.927660762160027],["mell",-9.927851266042701],["vonta",-9.9282495712469],["vélemény",-9.928292770179963],["esse",-9.929015556884716],["las",-9.929268923006632],["oper",-9.929779169534442],["szállít",-9.929989271060998],["ajándék",-9.930311335870734],["diákok",-9.930573095534783],["Európá",-9.932163326481788],["generáció",-9.932171487685421],["híd",-9.932191542164743],["képesség",-9.932340748227986],["Ház",-9.93289711095759],["Igaz",-9.933007092247031],["telep",-9.933093004968633],["sose",-9.933548505324339],["helyezett",-9.933939131526984],["ajtó",-9.93410941633399],["terem",-9.934453503346848],["Pál",-9.934562662281921],["ellenzék",-9.934625171146177],["eladás",-9.934852848989387],["kulturális",-9.935087065129114],["fele",-9.935260210844557],["irányítás",-9.93545224478564],["din",-9.936699760140884],["alapú",-9.936979468384267],["und",-9.937193966740125],["munkatársai",-9.937216490105389],["társai",-9.937620550613167],["imp",-9.93777655165357],["dönt",-9.937836489389746],["Föld",-9.938593879921903],["javul",-9.93862525877245],["felhasználók",-9.938893104344508],["nyug",-9.939135084998066],["hozni",-9.939267214683216],["nettó",-9.93930798905939],["apró",-9.93960233436008],["velük",-9.939649695630159],["zük",-9.939899495062487],["Erre",-9.940169196859594],["jünk",-9.94073534025038],["65",-9.940811166912065],["játékosok",-9.941229028341958],["fogadta",-9.94166324387556],["tartós",-9.94199705266582],["cseh",-9.942103117590607],["érő",-9.942130992123719],["ham",-9.942525395820422],["ismeret",-9.942825708432636],["kijelentette",-9.943476691651128],["álni",-9.943506778874095],["hatalm",-9.944152106274267],["stratégiai",-9.94487238698547],["Brüsszel",-9.945032402754247],["Világ",-9.945032485794483],["állítólag",-9.945033608684351],["megszűn",-9.945035219946313],["minősít",-9.945036232020325],["értelmé",-9.9451177444651],["létrehoz",-9.945462646677875],["ersze",-9.945483561639282],["állandó",-9.945593152071984],["alkalmas",-9.945746993771824],["hirdetés",-9.946427205261202],["távú",-9.94643766412976],["záró",-9.946847124290969],["emmel",-9.946940801159403],["atív",-9.94788523978755],["Tud",-9.949304679835304],["hamar",-9.949340559557688],["szeg",-9.949631370780134],["hozzátett",-9.95040930135474],["pálya",-9.951139405794626],["virág",-9.95160784411484],["drón",-9.951698797220013],["Sajn",-9.951699331168134],["esetek",-9.9517331786199],["Csaba",-9.951874886382143],["hall",-9.952053270484278],["adomány",-9.952292332630218],["Ver",-9.952651012322711],["Azon",-9.9530009860991],["Kor",-9.953371073629576],["igazság",-9.95337526934739],["vetett",-9.953407245095374],["biztosított",-9.953442308426819],["részvények",-9.95409349191596],["területe",-9.956622262229878],["használni",-9.956681163519136],["szólt",-9.956989746172656],["félidő",-9.957036284695473],["zárás",-9.957453483109752],["képviselői",-9.959494975978913],["alakított",-9.959588765146515],["elől",-9.960031497989554],["érdeklődők",-9.960379058659903],["idők",-9.961776710295595],["illető",-9.961920921483939],["amilyen",-9.962017546366774],["szolgáltatások",-9.962485384251796],["esek",-9.962582469277397],["ődött",-9.963531532126336],["fejezte",-9.963832581104988],["ációs",-9.96420806981602],["szeretet",-9.964411356960454],["szlovák",-9.96462134143952],["produkció",-9.964640782641386],["fizikai",-9.964641422996293],["szöveg",-9.964645475604158],["ügyészség",-9.965281620520425],["Ho",-9.965946565806615],["Arra",-9.966261625463314],["Idé",-9.96664985741874],["íteni",-9.966973226510333],["órán",-9.967102409171762],["tüntet",-9.967245654561832],["vetés",-9.967262735740169],["különös",-9.96787331881853],["bűncselekmény",-9.968118109485626],["port",-9.968226306847523],["akart",-9.969289896651976],["mostan",-9.96971907045868],["javít",-9.969901075587913],["határozat",-9.97069863296436],["stabil",-9.971216906206873],["igyeksz",-9.971323161414322],["vasút",-9.971400938942246],["terjeszt",-9.972098756142966],["szokás",-9.97216867270009],["nincsen",-9.972505441422147],["nyomozás",-9.972532659699324],["kezelő",-9.97316304124856],["itás",-9.973213690137602],["évet",-9.973314471487686],["ellenes",-9.973425491868014],["szívese",-9.97358111842669],["felje",-9.973886102943856],["szavazó",-9.974448164558797],["Kon",-9.974556898457164],["pozíció",-9.975008970094962],["egyszerre",-9.976033849990163],["külföld",-9.976307816300777],["san",-9.97630872967811],["napot",-9.977127807732598],["reagál",-9.977241188067993],["600",-9.97740738279889],["kapitány",-9.977873475384495],["Ü",-9.977929912475894],["társadalmi",-9.977930391433283],["fekvő",-9.977935295729973],["irodá",-9.977986400014837],["kérdez",-9.97823912711248],["Fő",-9.97827353384293],["támadások",-9.978914708294674],["fővárosi",-9.9789869387489],["részvétel",-9.980173381921844],["ster",-9.980415139429468],["zárta",-9.980467796620555],["feletti",-9.9808957999514],["rendelt",-9.98105624413395],["hús",-9.981823763108569],["vezette",-9.981877044054723],["gyereke",-9.98308552561129],["dollárt",-9.983438156659181],["idejé",-9.983603910689666],["igénybe",-9.98367123956234],["össz",-9.983855266394565],["számítás",-9.984370689989694],["USA",-9.984515747844553],["hulladék",-9.984641743185763],["iket",-9.98477138852931],["Jelenleg",-9.984953890027871],["tavasz",-9.986647086467325],["repül",-9.986853471187985],["eurót",-9.986976542213561],["dy",-9.98738928977378],["játékok",-9.98745480669687],["szóvivőj",-9.987739124303225],["baloldali",-9.988997821550203],["Budapesti",-9.990077964670409],["lista",-9.9908160970266],["ukránok",-9.990928806599895],["váltott",-9.99111560700701],["Eh",-9.991150235036987],["börtön",-9.991346360929615],["társadalom",-9.991398403427128],["köd",-9.991765009324716],["ej",-9.992656804642248],["úsz",-9.993138474651683],["rendkívüli",-9.993287312374825],["zajló",-9.99468669195333],["rd",-9.995448769285716],["töltés",-9.995876441417803],["édesapj",-9.99604785244102],["megközelít",-9.996290915317712],["élelmiszerek",-9.997678347116512],["táj",-9.998085122659077],["hirtelen",-9.99820183257658],["Balaton",-9.998207129129863],["belőle",-9.998300450677341],["olcsóbb",-9.99875327422361],["végezte",-10.000359660534617],["ötlet",-10.000669619710505],["függő",-10.00090079121308],["hatósági",-10.001390309043654],["avat",-10.001699646588627],["szóvivő",-10.00189850922209],["To",-10.002947166551614],["északi",-10.00336785840356],["részlet",-10.00408341778419],["száraz",-10.004114552311876],["ozni",-10.004134077876273],["rendszert",-10.004181343568579],["sértett",-10.004576982602472],["főkapitányság",-10.005050750655275],["televízió",-10.005050783087913],["Tavaly",-10.005051815567871],["kutyá",-10.005058592363149],["közvetít",-10.005341728418994],["határoz",-10.00534895107005],["szűr",-10.005381450725775],["orvosi",-10.005435654684504],["fejlőd",-10.005486163806363],["típusú",-10.005731731253968],["színésznő",-10.006404171774019],["megelőző",-10.00643670181986],["órás",-10.006546935289984],["ismeretlen",-10.007252289291358],["figyelembe",-10.007373272871334],["káros",-10.007597248268794],["beszéd",-10.007671399469437],["okozhat",-10.008515552125445],["állítani",-10.008717548479758],["olj",-10.009849833001574],["erőszak",-10.010651915338375],["hozam",-10.01159614543695],["Hajdú",-10.011844130953598],["rezsicsökkentés",-10.011955522027742],["Tibor",-10.012247363458066],["nyúl",-10.01225915853232],["tárca",-10.01249664222491],["Vagy",-10.012557813508682],["Man",-10.01261547268913],["költöz",-10.012645566231345],["beszélget",-10.012647438508889],["fed",-10.013238012637528],["játszó",-10.014304736190397],["Par",-10.014463430361896],["útjá",-10.014892085640792],["Kis",-10.015880293470953],["kaphat",-10.015906257078836],["elárulta",-10.01594421774019],["férje",-10.016014326922527],["korlátozás",-10.016101672401412],["akarja",-10.017676006208312],["kék",-10.017741217068572],["ou",-10.018886880934037],["nukleáris",-10.018891166870482],["Miklós",-10.018891666805914],["meglepetés",-10.018891946492186],["rendelkezésre",-10.019031302214664],["veszélyeztet",-10.019051254672824],["oogle",-10.019277737945028],["47",-10.019646019273816],["programok",-10.019721472434318],["ügyfelek",-10.020337111797861],["Ju",-10.020633253036202],["órakor",-10.021730930804656],["rosszul",-10.022834224006276],["hónapja",-10.023037702387008],["rendszerek",-10.02330434635681],["közleményébe",-10.023787288950627],["csütörtök",-10.023954143776177],["150",-10.024139468887714],["megyébe",-10.024170032942346],["terhe",-10.024520481917566],["bán",-10.024711570208517],["fogyasztók",-10.025520917106917],["kibocsátás",-10.02594119635632],["robbant",-10.026038554382467],["elérni",-10.026048889033893],["tényező",-10.026068154334492],["múl",-10.026318331980198],["tanácsadó",-10.026783327999883],["ablak",-10.02680426156656],["tartottak",-10.027158699129753],["osztott",-10.028712226097117],["polgármestere",-10.029374828760874],["távo",-10.029489072675203],["háztartás",-10.029807196220476],["helyezés",-10.030029367891043],["bővül",-10.030140809391353],["folyt",-10.030178138890783],["számok",-10.03039212591978],["nyomá",-10.031227200417359],["lic",-10.031545042089283],["központi",-10.032860193260671],["funkció",-10.032927959053522],["kiber",-10.03329131448707],["Győr",-10.033389362148865],["mentés",-10.033654930546817],["Star",-10.03368114254064],["időpont",-10.034506470160537],["nyugdíjas",-10.037373543766744],["esélye",-10.037581785571561],["amire",-10.038197562206458],["Természetes",-10.038296382270577],["hatott",-10.038673606411702],["technológiá",-10.03903177390696],["alkalmazott",-10.03966009071117],["Hivatal",-10.040018807388371],["spanyol",-10.040018972824342],["konkrét",-10.04002081577781],["meghatározó",-10.040043822124597],["fiók",-10.041429233509895],["terén",-10.041941859049189],["lőtt",-10.04275463813093],["férfiak",-10.042927882444282],["járás",-10.043074768893488],["bőve",-10.04316365649878],["veszteség",-10.043178303980934],["betegek",-10.043477586967416],["ezett",-10.043517305989244],["áremelkedés",-10.043726961086136],["látogatás",-10.044946337966984],["meglepő",-10.045752410892682],["osztás",-10.045764054699466],["Volt",-10.045924916785308],["tekintett",-10.04605621179762],["iroda",-10.046760743753174],["áruház",-10.046928073020311],["Szeged",-10.047161606612008],["emlékezet",-10.04717380624306],["Blikk",-10.04718772273403],["tél",-10.047242505758497],["hétfő",-10.047400576853935],["semmit",-10.047592067096089],["viz",-10.04759902119558],["tesztel",-10.048194582659775],["értesül",-10.048837532061135],["rajz",-10.050044826296315],["energiá",-10.050881447081027],["vizsgálj",-10.051188629530834],["kapcsolód",-10.05119500898689],["birtok",-10.051470042721396],["tudós",-10.051616965522392],["top",-10.052003472791132],["alatti",-10.052034954645574],["kilátás",-10.052476891505464],["megegyez",-10.053030989816541],["rém",-10.053253638076901],["hö",-10.05333739177674],["munkaerő",-10.05365073190724],["ajánlat",-10.053707956937394],["szerez",-10.054150831199639],["építésé",-10.054288223924466],["Románia",-10.054355798548425],["műszaki",-10.054380602141299],["kőolaj",-10.054444403111843],["jutni",-10.054697615162905],["qu",-10.054793220217022],["kamerá",-10.05494689347357],["készlet",-10.054977721350628],["képzel",-10.055135476175048],["szállt",-10.055208224370123],["felől",-10.05581030490358],["bocsát",-10.05638920038313],["Leg",-10.057305645669679],["kedvezmény",-10.057417119666052],["étel",-10.058863097060172],["címe",-10.058919537988997],["száj",-10.059729750305078],["Ben",-10.060396075136955],["ülő",-10.061412694838673],["Krisztián",-10.061602101801185],["Gulyás",-10.061602239618932],["karrier",-10.061602485912776],["gondoskod",-10.06165122657768],["jöhet",-10.061670793136798],["bíró",-10.061710644850766],["idősebb",-10.062019983410789],["bérlet",-10.062863579058039],["vív",-10.062936779792569],["szeres",-10.063293511248693],["vízi",-10.063602969837051],["egyedi",-10.063814200663872],["képpen",-10.06443994547925],["hátra",-10.064495381942397],["Egyesület",-10.064538923984554],["tüntetés",-10.066087934784186],["ragad",-10.066552668326784],["sír",-10.066810519412932],["esetleges",-10.06693799327634],["repülő",-10.067661172906831],["anyagok",-10.06828545585887],["termelő",-10.068410612483376],["egyesület",-10.06891397980785],["sebesség",-10.068922923214526],["lendül",-10.068929088683065],["szuper",-10.068937525764284],["Kíná",-10.068966463717507],["értek",-10.06927772757292],["holland",-10.069280192728979],["nevet",-10.069487277253316],["felhasználó",-10.069673700056587],["kisfiú",-10.069814594091742],["Ön",-10.06986689560436],["említ",-10.070089790529774],["aránya",-10.070188315414518],["rájuk",-10.071320502299969],["ügyfél",-10.072251223571596],["tengeri",-10.072415886080439],["tárgy",-10.072551896963061],["erősítette",-10.072942849708674],["áldozatok",-10.073204466772939],["fegyveres",-10.073211953622558],["rov",-10.074137891618319],["szerb",-10.075991819854814],["+",-10.076254313011294],["intenzív",-10.076254316765162],["világbajnok",-10.076616970938133],["esik",-10.076920959013815],["szerepelt",-10.077714275549665],["történeté",-10.077816522112727],["támadó",-10.078312560886259],["házak",-10.078633005810108],["mindennap",-10.078688461965317],["kiemelkedő",-10.079380010317278],["készítés",-10.079582505383959],["vidéki",-10.080646209642566],["ung",-10.080742021322314],["fellépés",-10.081087645012229],["zék",-10.081609945425214],["elfogad",-10.082103524741221],["ápol",-10.08294020997122],["Or",-10.083040370321493],["esté",-10.08305395626568],["írtá",-10.083087047721351],["riz",-10.083305082830005],["liter",-10.083443653528851],["változtat",-10.083491821987426],["Ru",-10.083622507537747],["kritikus",-10.0836636456151],["Kreml",-10.083664215979692],["Volod",-10.08366594696261],["ox",-10.084093795553633],["lassan",-10.084146885249794],["hette",-10.084603065794791],["imir",-10.084692104955415],["Vas",-10.084976040923436],["Hol",-10.085600368905823],["rendezett",-10.086276935720091],["fizető",-10.08665170911954],["foglalkoztat",-10.086883846157198],["jába",-10.087159623262696],["megakadályoz",-10.08757238312117],["páros",-10.088113994317501],["élők",-10.088164460770075],["válaszol",-10.088194443224353],["folytatott",-10.088473186820014],["tulajdonosa",-10.088554877254746],["vizsgált",-10.088791573672843],["anti",-10.08889085678205],["Ter",-10.089285988086417],["lépni",-10.089407126461294],["dísz",-10.090787675286268],["Szombat",-10.091124642827177],["vári",-10.091198384422126],["Isten",-10.091217827545504],["57",-10.091255123567784],["útvonal",-10.092822558416742],["katona",-10.092828753328252],["atom",-10.092867939129665],["fektet",-10.093458629709819],["korosztály",-10.093475603275426],["bankok",-10.093752581980736],["42",-10.093799945985408],["Ár",-10.094200301012261],["érintő",-10.094282388743299],["távoz",-10.09433521075503],["vállalkozó",-10.094373751833277],["háttér",-10.094962167181258],["öltöz",-10.095028269455645],["bírál",-10.095036532409711],["észeti",-10.095628986752025],["származ",-10.096306614567052],["Vár",-10.096337986677884],["ideg",-10.097820364390467],["műsorvezető",-10.09846456323642],["spórol",-10.098643234381246],["alkohol",-10.098643714676573],["szerkezet",-10.09865767755408],["Első",-10.098745318168337],["világbajnokság",-10.098990376609422],["kikötő",-10.099385586260315],["háló",-10.100045471403824],["részletes",-10.100252406062484],["idény",-10.100476689480034],["tapasztal",-10.100520107274635],["VI",-10.100955316025507],["néző",-10.101228640317682],["internet",-10.101998179953455],["nyíl",-10.102119060655529],["kéri",-10.102336090094859],["elkövető",-10.102959642814604],["győzelme",-10.103157002301675],["beruházások",-10.105617043068905],["alsó",-10.105940002676594],["gyűjtés",-10.105956546063844],["foci",-10.106090076657264],["ológus",-10.10620634275752],["tőzsde",-10.106216465448657],["Lajos",-10.106220532627805],["elv",-10.107401327244418],["bármilyen",-10.107970674154295],["részletek",-10.109308699707267],["sejt",-10.110104544092014],["vitte",-10.110547981930317],["magyarázta",-10.111090675940265],["ric",-10.11168995827651],["tájékoztat",-10.111719082483233],["rét",-10.112119387716493],["the",-10.112515998040632],["fül",-10.113312762515882],["jég",-10.113693124759468],["köbméter",-10.113852643718682],["kereskedelem",-10.113968471102801],["mérleg",-10.113970880172445],["jelez",-10.11440975112368],["látványos",-10.11444522762958],["reagált",-10.114841706842864],["növeked",-10.115051268243928],["fegyverek",-10.115995207728151],["fagy",-10.117303369671859],["családja",-10.117322304562975],["közzétett",-10.117544787172983],["ölt",-10.117548148649405],["segítő",-10.117822252671482],["ünnepel",-10.117866024184135],["válaszolt",-10.120955290685934],["adhat",-10.121207890641475],["harcol",-10.121480128705262],["művelet",-10.121534870385176],["miskolci",-10.121544859129568],["aktuális",-10.121544895230675],["Olaszország",-10.121546466000755],["blokk",-10.121548334224304],["aggód",-10.12157836094141],["Végül",-10.121987871207047],["teher",-10.122036001217307],["edzés",-10.122140867983424],["kedés",-10.122405408333176],["helye",-10.122615768270867],["török",-10.122832978215328],["téri",-10.123266459360579],["mezőgazdasági",-10.123327424270645],["hadi",-10.123345322821152],["állatok",-10.1234831780271],["döntést",-10.123734301378954],["NSZ",-10.12376471628986],["bárki",-10.123776283459037],["szólal",-10.124040044707819],["termel",-10.12425559336101],["árfolyama",-10.125110885074353],["töltő",-10.125137122961313],["száll",-10.1252337426317],["dar",-10.125290756317852],["seb",-10.126659704391539],["FT",-10.126735690434439],["négyzetméter",-10.12693225073169],["katasztrófavédel",-10.128797006843719],["szociális",-10.129297834273917],["Károly",-10.129299553216095],["frakció",-10.129302003709775],["körzet",-10.129349703969732],["imád",-10.129504683849573],["mérkőzésen",-10.129563435554395],["cukor",-10.130220831106836],["várakozás",-10.130684324711027],["telt",-10.13128770466815],["képző",-10.131332548402106],["megold",-10.131910266409362],["atomerőmű",-10.132858936453804],["évtizedek",-10.134176444113358],["története",-10.134506589703282],["nőt",-10.134616359118443],["nánk",-10.135350877648655],["teljesített",-10.13582903846493],["távolság",-10.135972542555951],["dolláros",-10.135973130049791],["tve",-10.136024369025211],["álltak",-10.136166184527383],["Tar",-10.136431629391183],["kérés",-10.136508305754795],["pihen",-10.136616548475425],["érinti",-10.136767849403274],["orvosok",-10.137063571752822],["esztendő",-10.137067027579894],["PlayStation",-10.13710929501718],["Intézet",-10.137109298663162],["Mihály",-10.137109303252384],["beavatkozás",-10.137109303359782],["stílus",-10.13710934024693],["Moszkvá",-10.137109452132544],["Dunaújváros",-10.137114362440709],["bizalm",-10.137116096970965],["elegendő",-10.137130519636564],["sötét",-10.13718349350868],["őrizetbe",-10.137243645382064],["jelző",-10.137273121388564],["kötvény",-10.137312851728733],["messze",-10.1373217062483],["85",-10.13765073461191],["fogás",-10.138177493257682],["feltételek",-10.138580690681493],["segíthet",-10.140017034150073],["tevő",-10.140277077033893],["Szer",-10.14095785654347],["elfog",-10.141605636468718],["ép",-10.14162623378623],["vallás",-10.141723865149068],["Ott",-10.141743766352507],["béké",-10.141925378868507],["edik",-10.141948830177014],["FC",-10.142810106803957],["fogyaszt",-10.143036387332966],["PS",-10.143756617339655],["gólt",-10.14413032896882],["ságú",-10.144427872836118],["védelmé",-10.144898708580897],["honlapján",-10.14498350716326],["Ku",-10.144994299271865],["számukra",-10.145003114632932],["úti",-10.1455245442381],["vallott",-10.145927900362508],["Kiss",-10.146005454748511],["torná",-10.146118803061462],["évad",-10.14691326251143],["tűnt",-10.147248449165422],["szál",-10.147794031328559],["állítása",-10.148777564081549],["utcai",-10.148998313558133],["korú",-10.149050229789026],["sikerül",-10.149895721045155],["nom",-10.150885847452145],["Talá",-10.150906702751609],["ilyenkor",-10.15098668235142],["eget",-10.151658693821211],["kerülni",-10.151868241039715],["ajánl",-10.152083368479534],["városok",-10.152354901994288],["szavazás",-10.152605105464215],["forintr",-10.152811786678617],["Ádám",-10.152922300400377],["szempontjá",-10.154080988902482],["láng",-10.154096570850365],["bátor",-10.15431593671472],["felhív",-10.154834932429512],["védekezés",-10.155008087468248],["szépség",-10.156566379663502],["telepít",-10.15691587677219],["cent",-10.157616263738909],["biztosító",-10.157868069334487],["War",-10.157953640606184],["eurós",-10.158135168256006],["úszó",-10.158214110987917],["Ped",-10.158221969584131],["tej",-10.158470449904808],["atott",-10.159027255779279],["kultúr",-10.15913748258696],["technológia",-10.159704322839989],["döntése",-10.159871129264033],["rab",-10.159969724767395],["vb",-10.160111500294281],["rajongó",-10.160329812070184],["résztvevő",-10.160556326713696],["brüsszeli",-10.160919819187015],["Xbox",-10.160920186019654],["Apple",-10.160922655293128],["ellentét",-10.163634764089949],["zenei",-10.163645679254445],["szerezni",-10.164417925285878],["com",-10.164794884685284],["kapcsolatot",-10.16539188098767],["méltó",-10.165619195111613],["buli",-10.167069662305773],["miként",-10.167221808050916],["kezdve",-10.167335326235179],["életük",-10.167524061663574],["dolgo",-10.167868393847076],["szervezők",-10.168035111112344],["tanú",-10.168269981294817],["kutatók",-10.168354341312966],["szervező",-10.168651362339165],["harminc",-10.168984335911711],["kénytelen",-10.168990736105453],["omikron",-10.168998318939163],["Kelet",-10.169691857078298],["Ukrajnát",-10.170125971000154],["beszélni",-10.170281755660952],["drágul",-10.1703347054647],["kialakult",-10.170733859368902],["Car",-10.17087549275577],["gyógy",-10.170901290286357],["tervei",-10.171262315861274],["tagállamok",-10.171527045169206],["nyertes",-10.171783418671943],["kapcsolódó",-10.17179540519738],["DK",-10.17245541635032],["46",-10.174178628865505],["község",-10.174194025951412],["terjedt",-10.175265367985723],["58",-10.175437239489899],["valamit",-10.17545245020623],["komp",-10.175477677870862],["hivatáso",-10.17565400223383],["mutatni",-10.17621581884972],["akkumulátor",-10.177114416131722],["pandémi",-10.1771144252989],["Szabolcs",-10.177114434385608],["illegális",-10.177114592821638],["hektár",-10.1771453991971],["pénteki",-10.177760516232446],["Jan",-10.17840119297371],["lezárt",-10.178469332641066],["típus",-10.18058824236239],["120",-10.18082663218243],["gyorsabb",-10.181522595311598],["hallott",-10.181590475769912],["közelmúlt",-10.181788079445038],["67",-10.182108709937587],["milliárdos",-10.182556229321705],["takarít",-10.18267951197251],["halott",-10.184785607908047],["frissít",-10.185108344632607],["Három",-10.185241641655342],["svájci",-10.185311145444736],["Korábban",-10.185311845667826],["gyakorol",-10.185316425516685],["japán",-10.185443284936458],["határidő",-10.185499904233179],["üres",-10.185643103277645],["panasz",-10.185890636843412],["megváltoz",-10.186216589008861],["bejegyzés",-10.186252592996038],["büntető",-10.18658553548176],["valamennyi",-10.18721179055153],["okos",-10.187994492352178],["csoda",-10.188299644303733],["tonna",-10.188383922793118],["mindenkit",-10.188428813770056],["hirdet",-10.188877715640782],["szex",-10.18965903936905],["gazdá",-10.190019278642293],["vendége",-10.191090148667744],["tervezés",-10.191223309386162],["menő",-10.191275404327548],["800",-10.191749532061397],["üze",-10.192708247570192],["éjszaka",-10.192843463840964],["gyanúj",-10.19344470000586],["vállalás",-10.193451115963885],["ugrott",-10.19354786010601],["tőzsdé",-10.193575550081142],["szoftver",-10.193575628743478],["érzékeny",-10.193579538370411],["kop",-10.193778097291737],["kór",-10.193789598733623],["piros",-10.193914920592636],["ságát",-10.193929852037936],["fékez",-10.194684825729418],["földi",-10.194844551286156],["Város",-10.195449817447628],["játékot",-10.1954687618443],["pedagógus",-10.195909924577107],["vonás",-10.196366905839914],["sszel",-10.196412383510003],["körű",-10.196413181682829],["lakások",-10.19642509308851],["eredményei",-10.196551519377472],["tragédi",-10.197310241219398],["bál",-10.197839236088878],["tudtu",-10.198084255196221],["problémát",-10.19823935396537],["villamos",-10.19824065227749],["szabadul",-10.19849377061269],["vásárló",-10.198610265755207],["hasznos",-10.19940844316282],["valójá",-10.199692922621043],["gomb",-10.200067156529922],["búcsúz",-10.200675325620473],["jelzés",-10.201200487330592],["drágább",-10.201775782285775],["múzeum",-10.201908934045466],["izgalmas",-10.201908937591565],["itárius",-10.201909465515833],["mesterséges",-10.201915201185923],["átmeneti",-10.201993837534136],["brut",-10.202208693937806],["összecsapás",-10.20264265644802],["olvasó",-10.203218827003383],["befektetők",-10.205782279210027],["ellátási",-10.205986413564993],["ötven",-10.20649930673044],["javítás",-10.20659496191286],["Benc",-10.206924875250511],["állampolgár",-10.207209574230326],["szolgáló",-10.207388457975316],["titkos",-10.20746996682867],["járműve",-10.207728881206965],["pedagógusok",-10.207944147798184],["előadó",-10.207969961665405],["gyilkosság",-10.208317715093894],["Ker",-10.208868650164487],["elnöki",-10.209040401141158],["programo",-10.20919702337289],["közleked",-10.20950432382001],["barátai",-10.209736403025023],["gyász",-10.209895940975478],["becslés",-10.210314313716626],["befejez",-10.210456945210455],["Imre",-10.210573664416557],["hatásai",-10.21072349789907],["futam",-10.21132205633328],["2016",-10.211357118928147],["alól",-10.211678721156208],["energiát",-10.211680254249448],["rendelés",-10.211688509433587],["képp",-10.212442406286204],["sük",-10.214781402196548],["kereste",-10.21785810890934],["alakulásá",-10.21799823490927],["mozi",-10.218095522510161],["ütköz",-10.218588321915547],["’",-10.218786871202003],["Alapítvány",-10.218786872568645],["ideiglenes",-10.218787397453752],["mozog",-10.21878922759045],["hölgy",-10.218791388242732],["viszonylag",-10.219251629843573],["Borsod",-10.219544203665397],["tudomány",-10.21987600831098],["Pl",-10.219926248211939],["számítani",-10.220017958941922],["59",-10.220950715790924],["mondhat",-10.22128777039683],["vereség",-10.222642771617682],["ünnepi",-10.223757160777854],["épült",-10.22445170193728],["fejlesztésé",-10.224537460162367],["66",-10.224706252741726],["tűzoltó",-10.226060330848501],["szárny",-10.227063885060108],["óriás",-10.227254462432754],["gyűl",-10.227318801375652],["energetikai",-10.227333879755673],["csarnok",-10.227334229856135],["megtakarítás",-10.227383484806293],["munkálatok",-10.227435027211076],["ence",-10.227859086396858],["képtelen",-10.22821268771748],["finanszíroz",-10.228367185004773],["forgat",-10.228613249148498],["váratlan",-10.228942612522092],["félre",-10.22909681152116],["foglalt",-10.22927221531378],["Air",-10.229512146052947],["menekül",-10.230447848537123],["forma",-10.230500573650538],["Ukrajnából",-10.230522763829718],["fertőzöttek",-10.230688776786465],["tervezi",-10.230849373887118],["kém",-10.231297941661651],["beszámoló",-10.231767989907507],["főz",-10.232405752488365],["vo",-10.232444548625129],["környékén",-10.232557427662188],["művészeti",-10.232988641319052],["Har",-10.233242059685157],["Pal",-10.2334496688052],["rokon",-10.23384966212755],["hazaiak",-10.233989927650216],["írják",-10.234467761746139],["kapcsolatok",-10.235240725813785],["köré",-10.235495140821396],["Gyurcsány",-10.235954569479116],["speciális",-10.235954570308763],["forgalmi",-10.235955687776027],["horvát",-10.235960705273275],["tiltakoz",-10.235982625258938],["endőrkapitányság",-10.236027637705782],["osztrák",-10.236098770591571],["Máté",-10.236386148814319],["kulcs",-10.236398324326956],["ügyvéd",-10.236789123857093],["kever",-10.237101970470675],["tároló",-10.237614253664056],["gyilkos",-10.238005110104137],["képviselője",-10.23855586110027],["testvér",-10.23919710885639],["Ér",-10.239948187287515],["Ex",-10.240702115318493],["szankció",-10.241074551504195],["hiányz",-10.241317565850077],["hangzott",-10.242352020026747],["elkezd",-10.24354883650187],["oktatási",-10.243677781422683],["Fehér",-10.24462167834796],["összefüggés",-10.24466459906632],["parancsnok",-10.24467396202786],["Péntek",-10.244675548698865],["kávé",-10.24480103772853],["világos",-10.245103563474341],["baba",-10.245180027265267],["tetsz",-10.245302446261356],["nevelés",-10.245364249204403],["hatodik",-10.245489583624227],["válás",-10.246134098402143],["burg",-10.246283380666437],["csodá",-10.246464593460056],["karácsonyi",-10.246728637395284],["irányít",-10.24739846592776],["hor",-10.247751008876392],["vásárlók",-10.248310028552059],["század",-10.24840681114887],["hátrány",-10.248570750713329],["kaland",-10.249101485149662],["250",-10.249581511128724],["technikai",-10.250386834896378],["ack",-10.250495874444224],["hova",-10.250674967862942],["árát",-10.250677044071207],["klíma",-10.251068245189352],["lehetetlen",-10.251751940968308],["működtet",-10.251940695975314],["stúdió",-10.253422190973263],["zápor",-10.253428832447385],["zászló",-10.253430184899184],["észlel",-10.253551030101027],["feltételez",-10.253591418956672],["maradás",-10.253654139340737],["Nemzet",-10.25397104883458],["őszi",-10.254032820448874],["nehezít",-10.254187936999607],["települések",-10.254502450616137],["hy",-10.255266512243821],["érdekelt",-10.255439639080356],["akadály",-10.255822292566561],["Op",-10.255868723914551],["néven",-10.256437006693119],["szök",-10.256974547219652],["51",-10.257152385163161],["Kup",-10.257165064154954],["oszl",-10.257921800525166],["valódi",-10.257960277240493],["vásárolni",-10.258098931923428],["fölé",-10.260113736396669],["jelöl",-10.260302612058648],["jelenthet",-10.260681568033238],["számát",-10.26099890378741],["tanít",-10.26118454361493],["tőke",-10.26185729628973],["hívás",-10.262093455447435],["gyönyörű",-10.262271708926281],["tranzakció",-10.262271721474669],["botrány",-10.262272259155948],["rögtön",-10.262278620325844],["ismeri",-10.262300677984129],["hárma",-10.262364417806873],["Szó",-10.262523249181974],["önálló",-10.263250733689759],["mekkor",-10.263306359201293],["értékelés",-10.263855898117683],["honna",-10.263909934082559],["52",-10.263960405581733],["réteg",-10.264631955104697],["részesül",-10.264672475451002],["húzta",-10.264866933229806],["feleségé",-10.264889529548757],["változások",-10.264988693357115],["ponton",-10.265509620010679],["egyeztetés",-10.26641406674215],["szervezett",-10.26727672898346],["gépek",-10.267560319581053],["kodás",-10.267950250973296],["mértékű",-10.268316501267847],["valós",-10.268364471949425],["vin",-10.26878215624949],["fordított",-10.269559587321574],["vetít",-10.269637190082259],["TE",-10.270546564802332],["kód",-10.270595659648887],["kontinens",-10.271200281560297],["újságíró",-10.27120769616301],["egyensúly",-10.271253658040214],["Gyula",-10.271469291298626],["foglalás",-10.27148760470283],["robot",-10.27162879794658],["halaszt",-10.271652227730616],["szerződést",-10.271727914827126],["finanszírozás",-10.271864206637506],["néha",-10.272406802898951],["legutóbb",-10.272546659895703],["csütörtöki",-10.273046483123114],["alaposa",-10.273078108010871],["katoná",-10.273833560805976],["epsiszentgyörgyi",-10.273934383358434],["zenész",-10.274503394715275],["ajánlás",-10.275371141869943],["68",-10.275781789493427],["internete",-10.276266972137961],["tiltott",-10.277179331652079],["díjas",-10.277889441178232],["látó",-10.277922037686025],["gondo",-10.278961551609797],["alternatív",-10.280209291823194],["elképesztő",-10.280209295512662],["büszke",-10.280209299792851],["sztrájk",-10.28020930353416],["Ekkor",-10.280398156500787],["divat",-10.280503888114023],["biztosítani",-10.281104750367147],["résztvevők",-10.281212515067455],["történelem",-10.281320426627754],["településen",-10.281567690172157],["eladó",-10.281740606416186],["54",-10.281866262128387],["62",-10.282839223088644],["lop",-10.282844360949158],["alitás",-10.282874270491329],["lezárás",-10.283055609474022],["nyitó",-10.283199109946764],["javasolt",-10.283471037004317],["alul",-10.283798117819822],["felfedez",-10.284027109943194],["hová",-10.284506011741975],["gondolat",-10.284984503877162],["Fu",-10.285556935819956],["szerelem",-10.286105512635892],["fent",-10.287195163233413],["tudományos",-10.288075614625335],["piacok",-10.288965875652519],["minimum",-10.289300395476689],["forgatókönyv",-10.28930095632267],["lor",-10.289481918384011],["műtét",-10.28949143257603],["hatalom",-10.289521938224112],["színvonal",-10.289607071263102],["betét",-10.29022272327707],["energiaválság",-10.290275208855952],["gondolta",-10.291429057615593],["mondás",-10.291727866926143],["célpont",-10.291839570363418],["gyenge",-10.292277117004144],["keresés",-10.292299586475554],["nyilvános",-10.292310130418795],["egységes",-10.292846500014065],["hagyni",-10.292883816610875],["apja",-10.293179771374206],["53",-10.293372769575182],["érdemel",-10.293909246050724],["szálló",-10.294455697739938],["etlenül",-10.29450253645521],["teli",-10.295011119986416],["törő",-10.29515700251065],["méteres",-10.295588432778153],["megoldások",-10.29642036712576],["bő",-10.296520991389393],["késő",-10.296837590185117],["emlékeztetet",-10.297139507807774],["parti",-10.29744995668672],["költségei",-10.298160280326776],["jellegű",-10.298476702724436],["York",-10.298492632966498],["mellék",-10.298558137111488],["rejt",-10.299373337623265],["chip",-10.299373479387658],["Miskolci",-10.299672717012147],["azonnali",-10.29980760621686],["nézők",-10.300065037891159],["berendezés",-10.300161569178362],["ight",-10.3011902061351],["futott",-10.301560728118499],["közút",-10.301647412988416],["tanuló",-10.301740004822408],["Szerencsé",-10.302380447419175],["folyamán",-10.302701226263501],["támogatott",-10.30303861261408],["éles",-10.303635928814202],["mérkőzést",-10.30369929749045],["IT",-10.30387221514082],["alapanyag",-10.304174437994979],["lényeg",-10.304287210163235],["elemzés",-10.304436558992835],["engedélyez",-10.304675116595158],["védett",-10.304973389809557],["99",-10.305331766257265],["hamis",-10.306175983780648],["amp",-10.306249163335135],["Ör",-10.306654393302152],["izáció",-10.307067488837866],["megosztott",-10.30736312721654],["sugár",-10.30754568248351],["eljárást",-10.307604468814827],["agrár",-10.307652807485486],["éjszaká",-10.307734347584264],["fájdalma",-10.30773458344677],["Nincs",-10.307736089876249],["pótol",-10.307763031918324],["édesanya",-10.307801029878393],["Amennyi",-10.308198938140421],["küzdött",-10.308321179101725],["fizetési",-10.309134380337866],["ugyanaz",-10.309808293462982],["borít",-10.310276421450505],["házasság",-10.310482355572516],["omat",-10.311337103447666],["említette",-10.312629386994399],["előd",-10.313048793743082],["kapus",-10.313071526025924],["jutottak",-10.313383682293845],["hin",-10.313631201827754],["képviselők",-10.315077064039876],["gabona",-10.31708308627434],["karakter",-10.317097261172076],["kártyá",-10.317102752126015],["harcok",-10.317420329913386],["következet",-10.317468134086944],["inter",-10.317582565124034],["emelet",-10.317616675590397],["szán",-10.317634369551486],["Márton",-10.31776203772487],["elkövetet",-10.317988585483576],["Tisza",-10.318589959228877],["zajlott",-10.318849439777061],["másodperc",-10.318922454165492],["kihasznál",-10.320071455022884],["indulás",-10.320522444851282],["érdeklőd",-10.320885402462705],["létszám",-10.321073859456483],["lov",-10.321294164906353],["vezérigazgatój",-10.321730697819973],["alakulat",-10.322025368025692],["süt",-10.322537972761172],["voltunk",-10.322558148985237],["járta",-10.322720560371781],["maradhat",-10.322931016203784],["89",-10.323010136968396],["fontosabb",-10.32357202483865],["2000",-10.323705664740011],["Tor",-10.324150334716247],["tapasztalt",-10.324282885392433],["Alap",-10.324865885156736],["beszédé",-10.325293478634194],["klasszikus",-10.32651352959363],["Utóbbi",-10.326513550478058],["szexuális",-10.3265136239561],["tech",-10.32651977450596],["pusztít",-10.326528996134655],["érdeke",-10.326605344337821],["terror",-10.3266910507602],["felkészülés",-10.326732322680746],["küzdelem",-10.326903433119572],["Her",-10.326912857382856],["utol",-10.327472887747064],["iába",-10.328664889024417],["igazolt",-10.329027845999562],["felügyelet",-10.329242805276563],["lenné",-10.330171468369116],["komolyabb",-10.330295265345958],["zták",-10.330432308467541],["Elmondta",-10.330682943960984],["jelenség",-10.331123624487098],["terhel",-10.331520566946097],["húzód",-10.332263045048487],["bejelentett",-10.332410293278777],["irányába",-10.332589459503591],["munkavállaló",-10.33302940875747],["fogyasztói",-10.333698724615164],["kerékpár",-10.33435062545642],["építése",-10.334709371994341],["következménye",-10.334881771870805],["alakítás",-10.334988360653506],["Kárpát",-10.33602757630733],["Microsoft",-10.336037335823052],["jogosult",-10.33604308938607],["doboz",-10.336047919887287],["döntetlen",-10.336171486733644],["indokolt",-10.336281474451138],["adósság",-10.336369290752035],["szorít",-10.336839302052706],["ellenőriz",-10.336900650945084],["illeti",-10.336943493202309],["tevékenysége",-10.336951986612258],["erőmű",-10.337028743084858],["Mat",-10.337126293454542],["csere",-10.337194073559699],["közelebb",-10.337284930130323],["nálunk",-10.337629458087374],["kamatemelés",-10.337718528522739],["árulta",-10.338592078290535],["azonosít",-10.339361984490395],["elmarad",-10.34085965413075],["ügyek",-10.341601949105335],["szabadít",-10.34220055883921],["javasol",-10.342201786617938],["79",-10.34248348355279],["jegyez",-10.343065959623095],["előtte",-10.343189437583055],["világháború",-10.34344401004466],["terel",-10.34469266225021],["százalékuk",-10.345163336414354],["Múzeum",-10.345652720647308],["katolikus",-10.345654468524971],["mérnök",-10.345666385995079],["éjjel",-10.345668744695994],["rádió",-10.345716466489101],["hétköznap",-10.34579845046136],["gárda",-10.345884401526503],["elemző",-10.346425700644026],["gazdálkodás",-10.346886840055754],["ülésén",-10.34713700154388],["fejlesztések",-10.347207905958637],["másod",-10.347593382744972],["gyűjt",-10.348161134039193],["off",-10.348359480441584],["csoportok",-10.348487911647558],["Szám",-10.348662373039804],["app",-10.348767040423084],["barátság",-10.348843579954789],["Andre",-10.349531695148244],["San",-10.349665352011932],["ssé",-10.349692319703244],["ovics",-10.35016230762736],["külügy",-10.350250376545151],["állhat",-10.350270677023243],["kihívások",-10.350539283243299],["cal",-10.35169542694819],["járul",-10.352061491856578],["futball",-10.352803974648921],["fenntartás",-10.353451194599277],["bin",-10.35418917508386],["képez",-10.354446732621593],["fenti",-10.354448378436773],["bol",-10.354636017953284],["ellenfél",-10.355306363860445],["táblá",-10.35535884536318],["tojás",-10.355369736028909],["támasz",-10.35537041212276],["elképzelés",-10.355463133666357],["feszültség",-10.355486765993408],["Musk",-10.355546279489374],["maszk",-10.356273513992132],["ügynökség",-10.356559689615953],["méretű",-10.356591216998915],["Éppen",-10.356753434385588],["folytatta",-10.356788044189468],["váli",-10.35690615816895],["Szu",-10.357253214983686],["egyetért",-10.357776518532425],["szombati",-10.357917985944983],["színpad",-10.358081558099943],["tilt",-10.358483486947936],["üzemeltető",-10.35857924188014],["többlet",-10.359959033578438],["díjak",-10.360486840802594],["házat",-10.360540517575123],["igyekez",-10.36102025787676],["mentők",-10.361944687440666],["közleménye",-10.36247361846901],["hiba",-10.362612845738475],["Con",-10.363198610025659],["területeke",-10.363756133016462],["utcában",-10.363760641812458],["kedvező",-10.36458030298731],["kényszer",-10.36493815455594],["feladatok",-10.364982372040298],["Mariupol",-10.365165588569708],["fenyegetés",-10.365274386050055],["felszerelés",-10.365309521773142],["végleges",-10.365329213103632],["szereplés",-10.365367656775017],["közgyűlés",-10.365497318648373],["hamarabb",-10.365589986312772],["iskolai",-10.365894928249027],["95",-10.366547063758912],["vezethet",-10.366794177847048],["nyitva",-10.367112464974358],["tagállam",-10.367129215258098],["személyi",-10.367725853446426],["követte",-10.367954425459047],["növekedése",-10.368251749676837],["mozg",-10.368679045010591],["felmerül",-10.369081003576976],["viszonyít",-10.370397509585832],["mesél",-10.371035631865613],["előfordul",-10.371324791837306],["ünnepség",-10.371554483116856],["kedd",-10.371717050786508],["személyiség",-10.372191368754653],["testvére",-10.372285742274428],["88",-10.373402335299616],["várni",-10.373789401535868],["formájá",-10.37449470598474],["mérő",-10.374592436727568],["élte",-10.374669431790219],["ă",-10.37506636901211],["korrupció",-10.375066370355505],["alapítvány",-10.375066384258744],["garantál",-10.375066487909619],["bukkan",-10.37507012654584],["főnök",-10.375124805428676],["ezüst",-10.375135537913046],["Közép",-10.375270922434055],["fölött",-10.375288672590525],["különféle",-10.37553651176838],["bizonyíték",-10.375961021509635],["emelkedése",-10.376026095241023],["Gal",-10.37639518301721],["nehézségek",-10.376488338059431],["óvodá",-10.376625511885331],["gyógyul",-10.376902298903254],["legfrisse",-10.376906941861636],["cská",-10.377332331486468],["ellenfele",-10.377440733459567],["érve",-10.377526108265847],["gondolja",-10.377819694084625],["EP",-10.378580636692845],["utasított",-10.378696625792571],["pat",-10.37930233586005],["közbeszerzés",-10.379472880666743],["72",-10.380110781017134],["fenntartható",-10.380625980587492],["vihar",-10.381162730518469],["fertőzött",-10.381566739396968],["szankciós",-10.381958877870943],["álja",-10.38209478107023],["!”",-10.383424308813664],["Szolgálat",-10.385066369989422],["Parlament",-10.385066432762892],["újdonság",-10.385067164087538],["Néhány",-10.385067257325934],["legnépszerűbb",-10.385067497867112],["reklám",-10.385068691746245],["tartomány",-10.385068895817852],["diplomácia",-10.385078657204414],["negyven",-10.385101327560337],["végső",-10.385163011819913],["MV",-10.38533182249998],["egységek",-10.385358290210213],["egyebek",-10.385400329903403],["iparág",-10.385409688441012],["elégedett",-10.385487973671598],["bizonyult",-10.385602283715004],["családjá",-10.385619488131542],["Színház",-10.385858541356138],["700",-10.386291821195801],["Újabb",-10.386603970354077],["odik",-10.386969317498787],["uralkodó",-10.387072234188587],["szokásos",-10.3875933867621],["hárít",-10.3878650514743],["tekinteté",-10.38795768708695],["bil",-10.38824774685196],["érzékel",-10.389005643929282],["hatály",-10.389014104994464],["fős",-10.389203224518463],["érezhet",-10.389884865106257],["eredményes",-10.39023448783686],["jelzi",-10.390445795718072],["következik",-10.390994180566683],["97",-10.392199377062546],["Ú",-10.393570630926288],["folytatj",-10.393666448424462],["maradtak",-10.39368135240843],["kette",-10.393851615023394],["költségvetési",-10.39412297182576],["könyve",-10.394593237660935],["olcsó",-10.394920969867002],["́",-10.39516738006773],["Eddig",-10.395167567847306],["Később",-10.395167903935633],["ciklus",-10.39517299974423],["figyelme",-10.3955566224916],["öreg",-10.396327896600042],["mértéke",-10.396507187754922],["bizonyít",-10.396528534089551],["69",-10.397033639556097],["voks",-10.397165392704423],["vegye",-10.39779411832915],["kiegészítő",-10.398272643722224],["önmagá",-10.3985466185492],["megvéd",-10.39869102768142],["Lu",-10.398845135573135],["helyén",-10.399001693961377],["64",-10.399264467545331],["RT",-10.401795845222395],["Központi",-10.402219619094236],["odás",-10.402895986355798],["szavai",-10.402981215102162],["MI",-10.403056513818406],["kezdeményez",-10.403234048972465],["feje",-10.40382923151558],["érhető",-10.404026679080745],["fokozatosa",-10.405270401077434],["konferenciá",-10.405371461756392],["Kossuth",-10.40537146177542],["Zemplén",-10.405371462153237],["Dávid",-10.405371467653744],["illetékes",-10.405372863884786],["jelentkezett",-10.40537614994673],["vélhető",-10.405378321639432],["szögezte",-10.405378714341797],["nyugodt",-10.405389770844724],["Szatmár",-10.405414586577557],["számla",-10.405731088269498],["78",-10.405800508039132],["Erdély",-10.40621057472653],["Mert",-10.406577146267477],["cső",-10.406918723590561],["személyek",-10.407425154135492],["Mark",-10.407858892932168],["tájékoztatta",-10.408165262022296],["bizonytalanság",-10.408238451092965],["raktár",-10.408285899118567],["átalakítás",-10.408615607140394],["folyamatok",-10.408866080960895],["Vaj",-10.409054885984663],["segített",-10.409580218093105],["mező",-10.409668495532907],["vállalta",-10.409693022757992],["tünetek",-10.410643092794835],["szava",-10.410875681585921],["jóváhagy",-10.41184936507771],["63",-10.411849787581957],["vádol",-10.41323944954039],["látogatók",-10.414248065795814],["lemez",-10.414418263333614],["civilek",-10.414430019627062],["szintjé",-10.414628003825598],["gyűjtött",-10.41543822965382],["Karácsony",-10.415680740961971],["koncentrál",-10.415680745910763],["mínusz",-10.415680854884217],["kutya",-10.415686884935678],["Viszon",-10.415701080922222],["Fekete",-10.415947238488329],["megkezd",-10.416172928676929],["bánt",-10.416666381995466],["visszaesés",-10.416724482466378],["svéd",-10.416738789337334],["egyeztet",-10.417096128648236],["rendelte",-10.417367364943864],["helyes",-10.417600212985132],["hallgatás",-10.418086555027884],["személyautó",-10.419941486625424],["használható",-10.420366976140103],["tisztít",-10.421217516673448],["81",-10.421774420429458],["figyelem",-10.42254152835055],["válogat",-10.423175597873325],["hid",-10.42468376519719],["Ó",-10.4260575360737],["Trump",-10.426097445994522],["migráció",-10.42609940306016],["dohány",-10.426331123263607],["óvatos",-10.426457589697321],["hirdetett",-10.427129371724018],["tekinthető",-10.427666884891673],["szög",-10.428000565115742],["veszített",-10.428062927986138],["ültet",-10.4287978853773],["hibáz",-10.429105302205576],["emelkedő",-10.42942836037944],["Vég",-10.429474645407733],["lélek",-10.430255233482866],["hajtás",-10.43124838363654],["orr",-10.431708400832985],["foglalkozó",-10.4317537714718],["ígérete",-10.432356155940997],["vezetőjé",-10.432600622655306],["NP",-10.432827708189322],["bizonytalan",-10.433902223796762],["TK",-10.434096907859129],["keze",-10.43482310538015],["álom",-10.435382308465773],["dőlt",-10.435441479238627],["ered",-10.435469830601825],["sereg",-10.435614418895579],["bűntett",-10.43571967333153],["Horváth",-10.436623722595584],["innováció",-10.436623766673844],["vakciná",-10.436623956843762],["Törökország",-10.43663412670271],["füst",-10.436694180770864],["művészet",-10.437028127092525],["mikro",-10.437060259390357],["Kiemelte",-10.437068125196237],["számítógép",-10.437657111225715],["hordoz",-10.437660405405543],["bennünk",-10.438079238401615],["módosít",-10.438948605523995],["font",-10.439371939814494],["erőteljes",-10.439688453072929],["árd",-10.440022486295138],["mail",-10.440101018475675],["őrök",-10.44042514945143],["kettős",-10.441047118042071],["árbevétel",-10.441393405112057],["hívott",-10.441410919108115],["kilométeres",-10.441532399311466],["eredményez",-10.442197524693004],["véve",-10.442304584247282],["vitel",-10.44371929974211],["Sepsiszentgyörgy",-10.444016477293673],["elérte",-10.444888599994034],["sorol",-10.445149703001949],["76",-10.446037100200076],["tized",-10.446173083327993],["berg",-10.446199372943301],["tudhat",-10.446357607025448],["zsák",-10.446392230879011],["jú",-10.446631991848577],["tartalma",-10.446714804357152],["sürgős",-10.447262020478409],["agresszió",-10.447262020644484],["szovjet",-10.447262211554914],["pénzügyminiszter",-10.447262612883769],["viadal",-10.447363158653241],["duplá",-10.447516455825355],["parkoló",-10.447575926011758],["szúr",-10.447803187489352],["fém",-10.447804866050209],["rajongók",-10.448051000379976],["kilométerre",-10.448545817114404],["napjá",-10.44889641487026],["hozza",-10.448942057531667],["cseré",-10.448988713630325],["Emm",-10.4490342815442],["óv",-10.44907392912425],["tűnő",-10.449566624360152],["Ferencváros",-10.44988440638408],["használja",-10.449942111323299],["számot",-10.449977902173336],["párhuzamos",-10.450595984904059],["Öt",-10.451311058254685],["Ők",-10.452584083765885],["iskolák",-10.452924177744798],["lényeges",-10.45334750056516],["készítő",-10.454226283204996],["intéz",-10.454454216983825],["Joe",-10.455133971806916],["teret",-10.455344773436053],["élénk",-10.45541433956313],["fejleszt",-10.456289191591722],["helyét",-10.456533173285923],["hatásár",-10.457149448998749],["jöttek",-10.457196959539152],["csalás",-10.457620485247386],["Minisztérium",-10.4580147085539],["maximum",-10.458014708595297],["kancellár",-10.45801471890622],["luxus",-10.45801483989267],["Négy",-10.458027914037185],["pattan",-10.458136718943853],["látvány",-10.458199221825453],["küzdelme",-10.458236100652583],["human",-10.458608307401388],["Orosz",-10.45866754881733],["oltott",-10.458925449039377],["tagad",-10.459071855486147],["maradni",-10.459105494360719],["következményei",-10.459321814039795],["futás",-10.460217760891755],["újít",-10.460433869558567],["fogadja",-10.461290715750273],["készülő",-10.461368303572186],["lad",-10.461433412529649],["hull",-10.461551925801174],["megállapított",-10.462051274372389],["Sp",-10.462121670449573],["szellemi",-10.46229919521264],["pártok",-10.462879619830243],["szóba",-10.463150942438515],["eltűnt",-10.463197446401754],["lányok",-10.463838073869532],["próbálkoz",-10.464114703790244],["kezdő",-10.464678781775026],["megtesz",-10.46484558331871],["királyi",-10.4653116870678],["jelek",-10.466320880072136],["Pár",-10.466358462045275],["sorozatban",-10.46737532564558],["fogadás",-10.467420757954436],["töröl",-10.467825551167902],["sült",-10.4678814326206],["megkérdez",-10.468252230930212],["rdély",-10.46865141833175],["médiá",-10.468699987118338],["medencé",-10.46888434360393],["variáns",-10.468886446630732],["rivális",-10.468886494052924],["sebesült",-10.468887362555833],["pápa",-10.469054076513896],["koreai",-10.469096110498315],["Tan",-10.46911241928606],["További",-10.469283437262916],["Párt",-10.469891896560846],["utó",-10.470113219866102],["Sztár",-10.470353659954437],["erősebb",-10.470928754076873],["forgatás",-10.472329345917604],["SH",-10.472356410776749],["kereső",-10.473323837613645],["növeli",-10.474269184201503],["műanyag",-10.474687810214498],["gépjármű",-10.474701225959748],["gyanús",-10.4755818610863],["pályáz",-10.475694325281587],["tárgyak",-10.47645046950332],["épületek",-10.476856188883719],["vir",-10.476890519869858],["gyűjtő",-10.476935768496741],["hatékonyság",-10.477836642468684],["megint",-10.478154618413296],["Állam",-10.478642895077176],["életem",-10.479134313438108],["változtatás",-10.479519254089345],["velünk",-10.479662641346852],["Csehország",-10.479879741906785],["Herszon",-10.479880368234713],["tisztviselő",-10.479934910960532],["temető",-10.479956534223362],["feszít",-10.480094197361357],["regény",-10.480194798795914],["téma",-10.480404240432772],["innen",-10.480531692238106],["igazolás",-10.480543312072827],["bányá",-10.480551928655956],["figyelmé",-10.48074315711791],["számolni",-10.480924340161092],["megsérült",-10.481373500799048],["megvalósít",-10.48175188654602],["fogva",-10.481808517677937],["veszte",-10.482058906450284],["színű",-10.482172697392858],["ránk",-10.482175261371747],["legfő",-10.482413013407017],["fizetett",-10.48272640838431],["emlékeztet",-10.482844065764251],["vélt",-10.483690957758345],["bél",-10.483822400634068],["Sim",-10.48386906566865],["84",-10.484407623875441],["korlátozások",-10.484525957351593],["87",-10.485465514646355],["vesztés",-10.48591449391673],["világítás",-10.486279610793995],["valósul",-10.48688530826627],["ock",-10.487044313399633],["tartozás",-10.48718735077096],["anyá",-10.487958559374075],["Dan",-10.488315720441701],["számítana",-10.488586838761847],["Go",-10.48910617882192],["hangsúly",-10.489368064478324],["eltelt",-10.489377681107836],["értelmez",-10.489783260654852],["gyakori",-10.48980431540495],["évtizede",-10.489945875066672],["hajtó",-10.490188796978602],["szomorú",-10.490984410208256],["megőrzés",-10.490988855798246],["ritka",-10.49100429607219],["alkatrész",-10.491036179320012],["Johnson",-10.491121838903382],["ionális",-10.491219747881726],["multi",-10.4913169847242],["Abaúj",-10.491472610684603],["közlekedő",-10.491906348082662],["előfordulhat",-10.492314530094413],["égett",-10.492753865637653],["föl",-10.492800870394035],["cska",-10.494016898316413],["végzi",-10.494169490130021],["túrá",-10.4944500306946],["77",-10.495957044554782],["tisztáz",-10.496124650282425],["életünk",-10.49613975488709],["Főváros",-10.496162470614985],["Szak",-10.496328736442248],["zseb",-10.497899174573687],["építeni",-10.498163306341791],["repülőtér",-10.498408713506153],["Inter",-10.498607968290838],["munkás",-10.499141192141629],["megszüntet",-10.499336623945908],["övezet",-10.499421583292955],["mindegyik",-10.500562737530116],["gyengült",-10.500724885108774],["rosszabb",-10.501671083740076],["gyűlés",-10.501960222068071],["Gazprom",-10.502220537500193],["görög",-10.502220874094025],["megújuló",-10.50222130819988],["vörös",-10.502221568248693],["Novák",-10.502237865384197],["köteles",-10.502311278374716],["sétál",-10.502350717104282],["aszály",-10.502361598391342],["hónapos",-10.502404220963232],["eltérő",-10.502559541622233],["érvénybe",-10.502595124715931],["keresztény",-10.50259964962087],["hazá",-10.50288564071695],["Edin",-10.503999757465586],["lenség",-10.504277837323631],["ismerked",-10.504995758823334],["kiló",-10.50502974357008],["bevezetésé",-10.505155553792264],["Élet",-10.505437068729652],["térségébe",-10.505996274499118],["elmélet",-10.506228461567865],["igazgatóság",-10.506230674146188],["profi",-10.506900237329074],["erősíti",-10.506921907971652],["fennáll",-10.5072871192177],["együttműköd",-10.507328564956923],["megszokott",-10.507509906592887],["háztartások",-10.50838631499408],["területé",-10.509113984460077],["encia",-10.51089490001629],["nagykövet",-10.51089788739694],["próbálja",-10.51116268604927],["rakéták",-10.5115700087058],["Pest",-10.511655697662128],["Dor",-10.51188288492558],["web",-10.51246627450628],["romlott",-10.512544770466432],["Tele",-10.512686309315715],["bio",-10.513471169253357],["infrastruktúrá",-10.513583987552625],["Borítókép",-10.513584022978776],["részesedés",-10.513585286291299],["ázsiai",-10.51358541262432],["vallomás",-10.513609194175952],["elvárás",-10.514156093878825],["túlél",-10.514322007214755],["közvélemény",-10.5148497769781],["alpolgármester",-10.515419339988389],["termés",-10.515618030101106],["mondtá",-10.515996304022355],["tölti",-10.517190255248444],["töltötte",-10.51770541685368],["talaj",-10.518657931860016],["ová",-10.519201716630882],["leány",-10.519485492201422],["Magyarországr",-10.519600732102335],["váltó",-10.519761891769594],["Per",-10.519801985244584],["szemét",-10.519915009458444],["keddi",-10.52036822793062],["fogyasztó",-10.520699424143618],["felejt",-10.521828071083892],["tanárok",-10.522093773664027],["Nyír",-10.522296848528743],["folytatni",-10.522354487103794],["kony",-10.522768235159575],["lépte",-10.523762531465117],["hétvég",-10.52435585657506],["pap",-10.524443221886898],["irányba",-10.524671406793278],["szokta",-10.524774198378982],["politikusok",-10.524958080994953],["koalíció",-10.525078240234976],["kulcsfontosságú",-10.525078257633993],["monetáris",-10.525078261674121],["minimális",-10.52507834982719],["Példá",-10.5250783708714],["komplex",-10.525078998333676],["zsűri",-10.525080111989155],["Japán",-10.525084905964983],["Általános",-10.525124653988051],["Macron",-10.525148391222125],["tárlat",-10.525298037299054],["törzs",-10.52544672534856],["játszani",-10.525813157771315],["cipő",-10.52591543563775],["tüzet",-10.525961208587095],["nyilvánvaló",-10.526086074096236],["fúj",-10.52616861791136],["mennyisége",-10.52625293069195],["csatlakozás",-10.526634252495096],["minőségű",-10.526819517140204],["jelentene",-10.528145873191843],["Gu",-10.528528792011251],["négyzetméteres",-10.528601237954167],["visz",-10.529430116586456],["öltözött",-10.529823792654124],["megelőzés",-10.529918601476293],["vonulás",-10.530233672894237],["lus",-10.530590867329222],["színes",-10.53116712245254],["jegyzet",-10.534070435635144],["tonná",-10.534526811363277],["vil",-10.535564386302138],["ügyvezető",-10.535622569805046],["kereskedés",-10.535928207292052],["számító",-10.535931127859678],["Fed",-10.536441530598044],["jövedelm",-10.536706170938075],["megbetegedés",-10.536706301549465],["tartóztat",-10.536710812240852],["könnyít",-10.536712017899626],["Telekom",-10.536716265967051],["ölte",-10.536842977418807],["DEA",-10.536954254382803],["mosoly",-10.537077796718165],["tölteni",-10.537086804938752],["sportág",-10.537442497161056],["villany",-10.537900834317949],["vegyes",-10.53802252352014],["mindannyi",-10.538940028964848],["pici",-10.539428579412203],["hajrá",-10.53964565556829],["nyitás",-10.539825626697503],["írni",-10.539948264142684],["csőd",-10.540306030802842],["74",-10.540317645138158],["újság",-10.540414453438213],["szabott",-10.541208737165118],["jelöltje",-10.541276713692378],["korán",-10.542137306428078],["Ö",-10.543530255346438],["beszéde",-10.543737224981744],["folt",-10.544692811773249],["szakmá",-10.544707200656124],["támadta",-10.545608955924983],["Molná",-10.547042601198017],["segítette",-10.547510062450252],["szólított",-10.547842616341608],["US",-10.548043703912338],["táplál",-10.54846980757372],["Miniszterelnök",-10.548470853046684],["recesszió",-10.548470853599163],["potenciál",-10.548470857808418],["elsődleges",-10.54847113892305],["sárga",-10.548512010063734],["nyújtani",-10.549232545772439],["zintén",-10.549384044106485],["Euro",-10.549413597124214],["legrosszabb",-10.549650685883199],["fűzte",-10.550025171070718],["ügyfelei",-10.550072372769609],["magár",-10.550945816098183],["fontol",-10.551874232277282],["vonulta",-10.552424421872075],["keletkez",-10.552481997682486],["jegyzése",-10.55276152091967],["korláto",-10.554005479971204],["szövetséges",-10.554468814013012],["elmondás",-10.55505263028815],["kodó",-10.555411216936964],["MSZ",-10.555563346678554],["foglalkozás",-10.555771997385328],["székhely",-10.556473193525148],["végző",-10.556594155469131],["készen",-10.556914103512142],["fejé",-10.557280891235127],["projektek",-10.55811667221],["kevese",-10.55922766469569],["büntet",-10.559473728742653],["körbe",-10.559904818178627],["kerülő",-10.560149283370869],["kábítószer",-10.560375614951788],["nyíregyházi",-10.560375619373808],["Donyec",-10.560375701217222],["feltétlen",-10.56037571866446],["Vasárnap",-10.560377744925386],["verzió",-10.560378835191969],["brazil",-10.56037976811765],["megmenteni",-10.560385232757142],["árnyék",-10.56038756717005],["show",-10.5603983462403],["esküvő",-10.560434937572168],["képernyő",-10.560453075880702],["transz",-10.560520584670737],["indok",-10.560546186236401],["tankol",-10.560552871564745],["gépkocsi",-10.560592267172558],["állampolgárok",-10.560643129608609],["építő",-10.560800022947515],["megbeszélés",-10.560815198763983],["temetés",-10.561617785816583],["kupa",-10.561918105561102],["abbak",-10.56243399930732],["akadályoz",-10.562811215457938],["véleménye",-10.563786801426508],["rövidebb",-10.563800867828235],["legendás",-10.564402125992018],["terve",-10.564973569120884],["otthonába",-10.565049202503847],["ezred",-10.565282269300452],["fordulat",-10.565466628813962],["londo",-10.565834483957424],["üzemeltetés",-10.566111382137777],["beszámolój",-10.566310075103146],["tárol",-10.5668419249308],["nénk",-10.566909380961548],["fejlesztett",-10.56784802623331],["felhívás",-10.569566321708317],["fordulójába",-10.571109834636161],["azonosított",-10.57114584760329],["megtalált",-10.571188175530288],["felhívta",-10.571847035179534],["rögzít",-10.572034779496157],["esszü",-10.572091150819528],["szakszervezet",-10.57209825299499],["John",-10.5723038120509],["juthat",-10.572417476430902],["š",-10.572423807697259],["Washington",-10.57242380769745],["statisztika",-10.572423820645792],["izraeli",-10.572424617123643],["mandátum",-10.57254288701311],["huszon",-10.572576278684613],["népszavazás",-10.572603831316437],["fagyaszt",-10.572609913132045],["Mező",-10.572684320617116],["utánpótlás",-10.572923185412144],["köves",-10.573227018488307],["számunk",-10.573481867112932],["Papp",-10.573681185082423],["alapított",-10.574307450443207],["belváros",-10.574351308964722],["étterem",-10.575110757293718],["vajo",-10.575633217074035],["Pri",-10.575945622722646],["drog",-10.576187892014357],["érintettek",-10.576710402633992],["házas",-10.57684459684085],["ütő",-10.577160366134088],["ity",-10.57745737298542],["őzött",-10.578212116865892],["szakaszá",-10.57825799498763],["ejtett",-10.578776751485394],["listájá",-10.57878571931645],["oldalú",-10.579007567502764],["befektető",-10.579011852119795],["édes",-10.579020336956807],["részletei",-10.579103711390347],["zárult",-10.580369840067693],["ezze",-10.580912326670642],["csökkentett",-10.581006808090592],["célba",-10.581422782810492],["váltak",-10.581837740668448],["csinálni",-10.582549814808878],["hagyja",-10.582787960702575],["emokratikus",-10.582910925853406],["regisztrált",-10.583044740910882],["Berki",-10.583288291398713],["közep",-10.583889307197996],["ET",-10.583937524026712],["kiegészít",-10.584251522130383],["pszich",-10.58457982200842],["selejtező",-10.584618932529303],["Árpád",-10.584619288555178],["karbantartás",-10.584623743106858],["Majd",-10.58462688431112],["Országgyűlés",-10.584633891088],["véleked",-10.584638069966314],["Hétfő",-10.584639088189554],["szállodá",-10.584700292752899],["dönteni",-10.584839689999693],["egyenlő",-10.58487897742502],["küldetés",-10.584918077589899],["rögzített",-10.585116931423542],["Teh",-10.585374055263765],["tarthat",-10.58538245092926],["személyzet",-10.585432457146467],["változatlan",-10.585493480641397],["szár",-10.585749232375498],["tudatta",-10.586246063961113],["tudná",-10.586928247472407],["fejlett",-10.587146685046946],["ingatlanok",-10.588158022568471],["terjedő",-10.589326206258082],["érthető",-10.589359358028888],["zati",-10.589745741220728],["próbá",-10.589929335880301],["dolgozta",-10.590084687501095],["hatékonyabb",-10.590290331519636],["tervezet",-10.590682330189829],["kiemel",-10.590755621717715],["légvédelm",-10.591044538491118],["korszak",-10.591183608032482],["bombáz",-10.591401906281607],["Mindenki",-10.591725183369226],["zöldség",-10.592552685488721],["perces",-10.594223071544725],["szurkolók",-10.594685125405483],["kötelez",-10.595728626152953],["figyelni",-10.596291831362215],["Ső",-10.59638335919297],["keresni",-10.596510871651777],["barátja",-10.596536057800048],["százalékpont",-10.59666004836989],["turisztikai",-10.596964608662809],["afrikai",-10.596964627006736],["fideszes",-10.596964734551646],["Hasonló",-10.596965720108207],["kabinet",-10.596968384310658],["Jobbik",-10.596968792276451],["Jakab",-10.596970096115768],["sűrű",-10.596986961374014],["tempó",-10.596999748716884],["irodalom",-10.597076594165445],["Fotó",-10.597159546511516],["óvoda",-10.597172670742836],["végzés",-10.597732157240674],["irodalm",-10.59778285530053],["épülete",-10.598136733402733],["hetedik",-10.598370104997322],["terep",-10.598451618356957],["pénztár",-10.598610235018791],["tervező",-10.598656908770458],["szerelmes",-10.59939507032195],["gázolaj",-10.599434162737056],["csó",-10.59959300337269],["közlése",-10.600043777122437],["Pho",-10.600804970594954],["fák",-10.600985449740833],["földön",-10.601459190582439],["kezdődő",-10.603297079160143],["megvalósul",-10.603729703561182],["szellem",-10.604669137894502],["állításá",-10.605049084233034],["közelít",-10.605211559365934],["juttatás",-10.60551071676337],["üzenete",-10.60734805432622],["elszámolás",-10.60742477361149],["kötőd",-10.607684306427355],["vicc",-10.607752605453207],["mese",-10.608205574209213],["Sepsi",-10.609458874309633],["Britanni",-10.609464612752813],["Bihar",-10.60946671639936],["építkezés",-10.6094670504176],["Judit",-10.609489363998723],["kijevi",-10.609489853905288],["háromszéki",-10.609493340516627],["kötet",-10.609929472293878],["Bereg",-10.609961548056827],["sztori",-10.610102986354242],["fiatalabb",-10.610262007575889],["csökkenteni",-10.610523178968368],["összefogás",-10.610526575859328],["vezetőedző",-10.610663949984906],["házaspár",-10.610984790604034],["stáb",-10.611088306967071],["összességé",-10.61164863627453],["86",-10.611716227524663],["mentális",-10.611981544444536],["modellek",-10.612092525586984],["vezetni",-10.612389792146693],["kultúrá",-10.612429947717871],["kereskedők",-10.612873392377612],["százezer",-10.61351327835107],["ává",-10.614227993570957],["Zene",-10.614496649248085],["Pont",-10.614621167172091],["tájékoztató",-10.615087000478969],["hunyt",-10.61688316468196],["DVS",-10.61697428674327],["csendes",-10.617241164262538],["utasít",-10.617247230715893],["Lehet",-10.617346845670689],["léptek",-10.61740074206027],["megfelel",-10.619464250227104],["küldte",-10.619542252135105],["okozó",-10.620190163165022],["meccse",-10.620320592047607],["nőttek",-10.621305442967268],["kitért",-10.621500335780823],["fertőzötte",-10.621740056609966],["viselkedés",-10.621755586430142],["kommun",-10.622080703674008],["1000",-10.622093902076678],["Spanyolország",-10.622122836738077],["Horvátország",-10.622122837116901],["tüzérség",-10.622122838223266],["Farkas",-10.622122857122804],["prémium",-10.622123022871985],["informatika",-10.622123188932026],["bolygó",-10.622124659406492],["Egész",-10.62212763538464],["völgy",-10.622129215935631],["felszín",-10.622229647736704],["tucat",-10.622246849909853],["sark",-10.622299135604173],["roham",-10.622510291016678],["torna",-10.6225880035288],["tizenkét",-10.623138570087857],["szörnyű",-10.62332195731133],["elismerte",-10.623587109554148],["Béla",-10.62371758025482],["erőforrás",-10.624052439087642],["fogadni",-10.624994534236343],["pri",-10.625266375859955],["nyereség",-10.625777502622835],["polc",-10.626422456349491],["ítélte",-10.627062354886107],["képessége",-10.627063314849659],["rendelő",-10.628600601527321],["legkisebb",-10.628962112645645],["versenyzők",-10.629689498195912],["hónapokba",-10.630656029723962],["jegyzés",-10.631195666859746],["foglaló",-10.631793789917422],["megelőz",-10.632227430492645],["hangz",-10.632362562316857],["segítse",-10.632419934306567],["örökség",-10.632736333399277],["adományoz",-10.633451625070375],["posztjá",-10.633668109360837],["sorolta",-10.63404860835583],["szólít",-10.634528265259181],["Külön",-10.63477017037505],["č",-10.63494334922838],["Reuters",-10.634943357821506],["Richter",-10.634943383792413],["Puskás",-10.634943493147539],["gyulladás",-10.634943633213075],["tragikus",-10.634945005709273],["Érdem",-10.63496528541507],["letartóztatás",-10.634982445015623],["ázta",-10.635031570613387],["kedő",-10.635042865909025],["meglehetős",-10.635056887073993],["sújtott",-10.635065312140508],["szembesül",-10.635659683968376],["életébe",-10.635990064002684],["aláírás",-10.636009396704416],["helyezte",-10.636995214771112],["arch",-10.637313861274343],["készpénz",-10.637945056599307],["programja",-10.63801552293617],["szerződések",-10.638639675364828],["weboldal",-10.639863055685169],["bővülés",-10.640053387735477],["kivitel",-10.640238226195477],["tetni",-10.641486793200766],["kedvezményes",-10.642412732494561],["Petr",-10.642559927984731],["szokott",-10.642940740619471],["tanév",-10.643266721245155],["nagyszerű",-10.643759974332976],["bevezetet",-10.644548750089113],["védekez",-10.644731491073173],["kényszerít",-10.644893247657796],["készülni",-10.64508754894915],["alakulhat",-10.645172267576857],["lényegé",-10.645373134822249],["reform",-10.646338747361824],["ural",-10.646342019897936],["utalás",-10.647809302314183],["tizenegy",-10.64791724135746],["Szlovákia",-10.647930363444255],["Hungary",-10.647930367481361],["Érdekes",-10.647930480686872],["Program",-10.647930490123592],["óceán",-10.647953853118477],["jelentkező",-10.647961009183714],["finálé",-10.64799899199955],["stabilitás",-10.648033215119046],["főtitkár",-10.64819137020908],["indulhat",-10.64860516313136],["borult",-10.648607164177854],["nyerni",-10.648851488832957],["dátum",-10.648985088233154],["csomago",-10.649262568524481],["ujj",-10.649372017518223],["biztonságá",-10.649597012384382],["ugr",-10.649693966512096],["bbá",-10.64969951442407],["oktató",-10.650083356677069],["mehet",-10.650217177071358],["legalacsonyabb",-10.650392378906233],["csont",-10.651004038431598],["bázispont",-10.65104799928043],["övé",-10.651577998927113],["kapunk",-10.65162260770126],["legyőz",-10.651857234884712],["stratégiá",-10.653473075666511],["télen",-10.65437941343122],["csend",-10.655195098630738],["Való",-10.655387123108804],["our",-10.655852897094288],["Sto",-10.655974897529635],["szegény",-10.656378343779231],["Romániá",-10.656479793880932],["vásár",-10.65812782236142],["Por",-10.65879485923163],["ruha",-10.659667553836913],["lehetőségét",-10.659734287711665],["léphet",-10.659765278977275],["meccsen",-10.659836470633646],["mozgat",-10.659928804966313],["étterm",-10.660005078802051],["ételek",-10.660355734062115],["adag",-10.660420346233026],["alábbi",-10.661023821956633],["Emlék",-10.661065061842075],["nyaralás",-10.661091641156673],["zárkóz",-10.661097595062245],["születésnapjá",-10.661146172266271],["konzol",-10.661157810429717],["deviza",-10.661263905011417],["lépcső",-10.66134754567851],["Tesl",-10.661457933838776],["béremelés",-10.661573718432706],["Buda",-10.661633278461537],["feldolgozás",-10.66165302178863],["hírportál",-10.661734313060341],["belépő",-10.662163629083274],["büntetőeljárás",-10.662275208265786],["kamera",-10.662707813037276],["kategóriába",-10.663206764076602],["Liga",-10.664440446597608],["villá",-10.664774315813956],["munkavállalók",-10.665270842719393],["kormánypárt",-10.665622920768458],["főút",-10.666252622655762],["vonzó",-10.668327278850136],["hőség",-10.668701053699111],["újjá",-10.66911477044103],["meghaladj",-10.669231811291834],["térít",-10.669424635500617],["folyam",-10.670599402875222],["magasság",-10.671214858976978],["egészségügy",-10.671485335534314],["közlés",-10.671627417466436],["ítik",-10.672502197718341],["tatni",-10.672526583945627],["ereszt",-10.673731601141956],["helikopter",-10.674341746940854],["cselekmény",-10.67435514198747],["Teljes",-10.674425919995238],["Szabad",-10.674432357327714],["riasztott",-10.674433282319232],["Egyéb",-10.674456762411086],["kreatív",-10.67451105591665],["jelenlété",-10.674558745144406],["okostelefon",-10.674621233947674],["kezelésé",-10.674664070237727],["lőtte",-10.675324943163215],["legközelebb",-10.675996760089678],["teherautó",-10.676106236766291],["akarat",-10.67617011080253],["váltani",-10.676435831360347],["nyelvű",-10.676733056317042],["kereskedő",-10.676737719886736],["elfogadott",-10.678510130654846],["támogatta",-10.678616013534246],["találtá",-10.678638550420462],["idősek",-10.678937268873543],["felhős",-10.679181316458276],["dzs",-10.679199708281216],["vinni",-10.679496682828013],["veresége",-10.683480009867228],["kormányzat",-10.6839696746973],["gumi",-10.685559158460933],["várakozások",-10.687682969025492],["agresszív",-10.687935152917007],["hibrid",-10.687935202590474],["furcsa",-10.687935959867744],["Hollandi",-10.687938440436117],["Robert",-10.687945322882156],["ausztrál",-10.687945991084622],["gyűrű",-10.687949826800306],["megalapozott",-10.687950417768832],["kellemetlen",-10.687965793931099],["jelentkezés",-10.687970850269544],["csatorna",-10.687985831376354],["északkeleti",-10.68813819230811],["brutális",-10.688214347260597],["oroszország",-10.688256907398774],["termeszt",-10.688353841645409],["igyekezet",-10.68851375059223],["kézzel",-10.688653815134177],["Németh",-10.688902230830776],["református",-10.688964325291298],["halász",-10.69035692211391],["aligha",-10.690758492633543],["valah",-10.690778292741241],["elejé",-10.69100773314404],["tavas",-10.691216116842002],["kétharmad",-10.69135082482476],["korszerű",-10.691662203524748],["odafigyel",-10.691798920196764],["Irán",-10.692444092179631],["Ger",-10.692529218454858],["Dániel",-10.692842458353956],["változó",-10.693586609498512],["beleér",-10.693613145362031],["helyezked",-10.694244972226123],["többségé",-10.694450114042231],["kockázato",-10.694673865159164],["gráf",-10.694697982152931],["mondható",-10.696037992141699],["kezdeni",-10.696041644811727],["márká",-10.696112944623078],["megvalósítás",-10.696444033731114],["kérdezte",-10.696652166530512],["keletkezet",-10.697214121115174],["használhat",-10.698498244788386],["megjelenése",-10.69966487750572],["enyhít",-10.700813119244426],["terme",-10.701126035323549],["incidens",-10.70163373470933],["Szilágyi",-10.701633734759964],["közigazgatás",-10.701633735292335],["bonyolít",-10.701633879195914],["ritkán",-10.701639454041143],["immun",-10.701641957438003],["Amerika",-10.70164731005692],["turizmus",-10.701655627860351],["utasítás",-10.701947191693346],["menjen",-10.702073630722403],["hitte",-10.702253955764917],["befolyásolj",-10.702332843931941],["bűnös",-10.702354238440105],["továbbiak",-10.702417498591888],["kíváncsi",-10.702469529706228],["irányított",-10.703072407032796],["nevelő",-10.70359425327474],["UX",-10.703916343953747],["művek",-10.704367745634011],["fokozott",-10.70508854291716],["céljá",-10.7050985590056],["magabiztos",-10.705232108433016],["Romániába",-10.706455892468488],["mértéké",-10.707143035641256],["inform",-10.707974824689318],["vágás",-10.708138718206474],["nézett",-10.709694060695536],["számom",-10.710833072742176],["emelni",-10.712016165915664],["rangsor",-10.712582269720983],["cikke",-10.714100770650544],["lato",-10.714285592524769],["hangsúlyoz",-10.715005505305491],["lügyminisztérium",-10.715461811957777],["Veszprém",-10.715522623303876],["automatikus",-10.715522626392625],["Hangsúlyozt",-10.715522649126115],["belügyminiszter",-10.715522881986436],["Group",-10.71552313201656],["moszkva",-10.715523456050152],["Klub",-10.715533250181437],["dolga",-10.715543165617158],["kímél",-10.715546584409191],["válaszadók",-10.715547405260624],["rapper",-10.715567164017106],["drága",-10.715581991179759],["madár",-10.7156031466541],["nyersanyag",-10.715604319266687],["NAV",-10.715699121729322],["patak",-10.715711820690876],["semleges",-10.715899361800547],["légitársaság",-10.71594762230895],["forró",-10.716163334730002],["mindkette",-10.716205152977965],["fárad",-10.716294892138269],["üldöz",-10.716453417473573],["segítene",-10.716870016794623],["ebbé",-10.717003317274937],["Számos",-10.717960231392412],["térkép",-10.718118631326595],["húzódó",-10.718957315403472],["tudomás",-10.7196347008741],["üzletember",-10.719803932311244],["tanulás",-10.719896482983303],["energiaellátás",-10.720009900120065],["tárcavezető",-10.720912699429494],["gyanú",-10.72106043319847],["csökkentése",-10.72109266449346],["ismertett",-10.72114575080263],["ismerhet",-10.721552058106525],["szülés",-10.722213671555014],["indítás",-10.722646946110123],["felnőttek",-10.723187122907392],["boldogság",-10.723538552799294],["láttá",-10.72399827998619],["kisebbség",-10.724334234763894],["bizonyított",-10.725216342168626],["Szerintem",-10.725235660949973],["kezelni",-10.725290051306652],["felismer",-10.726391682985284],["finn",-10.728138437370673],["páciens",-10.729607166578884],["Mészáros",-10.729607395526491],["varázs",-10.72960911769399],["dobogó",-10.729623292267753],["hozzáférés",-10.72965186544611],["időnként",-10.72980463778099],["északnyugati",-10.72990590602235],["Col",-10.729934023507743],["szavak",-10.730039237986315],["Kiderült",-10.7300818905062],["autópálya",-10.730298043487153],["létrehozásá",-10.730444651478674],["Arany",-10.730536637416746],["római",-10.730618947736197],["Ausztri",-10.731239414085161],["babá",-10.731394462860857],["bátra",-10.731570569481342],["lovas",-10.731584146696072],["búcsú",-10.731701784286388],["Fri",-10.731991503037037],["Rend",-10.733197853991118],["összeköt",-10.73406093403852],["világjárvány",-10.734626613303451],["elveszít",-10.734985374098788],["érje",-10.73521789309256],["viharos",-10.735221419097796],["Szala",-10.736169584032947],["Cser",-10.737841918664312],["biztosítj",-10.738774361551362],["pontjá",-10.739012869600664],["délkelet",-10.739473436030085],["ellátó",-10.73999491298504],["ugrás",-10.740756473863055],["mezőgazdaság",-10.741242192138],["verte",-10.741537542455752],["labda",-10.743841197029202],["»",-10.743892844253985],["maximális",-10.743892844281874],["gyengébb",-10.743892851831465],["Nyilván",-10.743892853373687],["felfüggesztett",-10.743892877719421],["fájdalom",-10.74389322427873],["stadion",-10.7438937847297],["Zsófi",-10.743896372929031],["Ameriká",-10.743926596278856],["rongál",-10.744032874767594],["fokozat",-10.744041659377121],["frank",-10.744042727356439],["foglalkoztatás",-10.74406454302768],["lehessen",-10.744149054875312],["extra",-10.744254243025939],["egyedülálló",-10.744607598532827],["emleget",-10.74556074139492],["találkozás",-10.745620807590361],["nyomozó",-10.746808136728964],["napeleme",-10.74718132789749],["Games",-10.748040095292122],["Antal",-10.748174011522451],["Hír",-10.749080286594975],["csatá",-10.75001570261964],["felirat",-10.75111330980046],["férjé",-10.751751274387201],["motoros",-10.75262943937846],["lapot",-10.752653112924062],["apság",-10.753051106053302],["ütött",-10.753915194920896],["tényleges",-10.755179223369652],["védeni",-10.755318619769554],["kamato",-10.75571951932556],["szerelme",-10.755918630196096],["szakma",-10.756835822715505],["küszöb",-10.758385598682953],["Kovászna",-10.758385601827163],["Gazdaság",-10.758385644541615],["Ausztráli",-10.75838566697449],["bicikli",-10.758385751516585],["TikTok",-10.75838706482396],["horgász",-10.758387130660985],["Finnország",-10.758388240773925],["liberális",-10.75839334135048],["húsvét",-10.758397310293276],["Hazánk",-10.758401286258323],["humor",-10.758413573359629],["enyhe",-10.758428246600413],["Csütörtökön",-10.758532548178398],["megbízható",-10.758715757211498],["őrző",-10.758830192374395],["Bukarest",-10.758851850319054],["buda",-10.759232610051093],["Jász",-10.759560957097795],["egyenlített",-10.759937273318751],["rendszerese",-10.760130864110222],["regisztrál",-10.760262153286934],["Korea",-10.760489090038291],["ézve",-10.760981765885395],["építőipar",-10.761930188833656],["értelembe",-10.762080917397896],["160",-10.762436611769925],["népszerűség",-10.76300449015269],["alapító",-10.763249138764376],["juss",-10.763959041622535],["tartalmazó",-10.764127268316408],["életmód",-10.764721421908776],["fenntarthatóság",-10.764871937576885],["elkötelezett",-10.764991690463024],["szakított",-10.765150198514476],["mérte",-10.76566753448031],["ugyanez",-10.766258585496143],["támogatni",-10.766393832589436],["foglalkozni",-10.768037676613377],["alelnöke",-10.76849787907709],["válhat",-10.768746082231868],["Akadémia",-10.773091480556854],["Bajnokok",-10.773091480690617],["Rádió",-10.773091633925633],["kilogramm",-10.773092207037568],["kenyér",-10.773093599080385],["tendenci",-10.773094239765651],["Alexandr",-10.773102652361477],["kártya",-10.773107842015154],["szlovén",-10.773111321738671],["video",-10.773116432503098],["dög",-10.773155964544694],["szigorítás",-10.773182735579045],["megyeszékhely",-10.773190784031843],["Háromszék",-10.773239972908435],["kanyar",-10.773324924807405],["kerítés",-10.773514109825069],["riport",-10.773554028770914],["álmod",-10.773573210250955],["Mond",-10.773735614641495],["devizá",-10.77393770983927],["megvizsgál",-10.774068043429262],["Max",-10.77409911762946],["könyvtár",-10.77540352855659],["elsejé",-10.77551499329524],["túra",-10.77663313467114],["munkaerőpiac",-10.7768009623306],["másképp",-10.777388991528438],["szabályai",-10.777503584295594],["Szerdá",-10.777883966220482],["programjá",-10.7781831281916],["családtag",-10.778207793373094],["Dar",-10.778342579247713],["kezdté",-10.779507634967946],["villamosenergi",-10.780212236536462],["szintje",-10.780750236582033],["szervezésé",-10.78145081227181],["kényelmes",-10.781622156389414],["szolgálja",-10.781714730686168],["zóná",-10.782125090531213],["ozzák",-10.782242380925235],["gyermekük",-10.783776665479891],["elnököt",-10.784683832676695],["találja",-10.785027207193432],["összetett",-10.785236983030636],["fizette",-10.787424294579658],["portfólió",-10.788016853372309],["kritiká",-10.78801700970946],["Izrael",-10.788019151226056],["elengedhetetlen",-10.78802077538289],["mögé",-10.788023176083152],["megkérdezettek",-10.788031282870243],["bronz",-10.788056134558301],["tartalom",-10.788087968114809],["Pécs",-10.788134397804697],["Ákos",-10.788136330719414],["vendéglátó",-10.788183766472834],["Kedd",-10.788188244995176],["hódít",-10.78836222130732],["valamelyik",-10.788385934732844],["készíteni",-10.788641892233162],["alapkamat",-10.788864861747633],["pihenő",-10.789070011077854],["Dmitr",-10.789094172978505],["tüzel",-10.789733547078669],["fénykép",-10.78977037566126],["eltávolít",-10.789798392156396],["szabályoz",-10.789994153751206],["napirend",-10.79020944627689],["látogatott",-10.793628020255323],["emeli",-10.794345748329977],["rombol",-10.794450808930392],["mozdul",-10.795246540220194],["végeredmény",-10.796116942891423],["végezni",-10.798414849254705],["csapódot",-10.798548979727693],["főpolgármester",-10.799175323183437],["utóbb",-10.800161273074588],["liga",-10.8007477983537],["jövedelem",-10.803168369405972],["sürget",-10.803168404407742],["Scholz",-10.803174487690413],["stressz",-10.803183469595412],["magazin",-10.803191185091716],["norvég",-10.803209304955365],["Svédország",-10.803215350297313],["szokatlan",-10.803217160795661],["nyolcadik",-10.803224591677049],["kivitelezés",-10.80325992809933],["centiméter",-10.803286980776067],["kormányzó",-10.803300829940007],["belföldi",-10.803342238579834],["bevezetése",-10.803527642887348],["képzett",-10.803636261589531],["elkövetésé",-10.80378511810473],["költött",-10.803946067249637],["épülő",-10.804072746113484],["nézzü",-10.80409079105042],["visszajelzés",-10.804180906867483],["eskü",-10.8042170484237],["Szlovákiába",-10.804618870502987],["félelme",-10.804812043334906],["köthető",-10.8049044134784],["kitörése",-10.805123327703921],["gondolkodás",-10.805434510299605],["szélesebb",-10.80642079353354],["ázás",-10.806666982586602],["lopás",-10.80675497141079],["összegű",-10.807388154399458],["kincs",-10.807403471968595],["áldozatai",-10.808605825885218],["taxi",-10.808856352932452],["vetette",-10.809272277797286],["koroná",-10.810100688218958],["könnyed",-10.810137580784009],["zsír",-10.810225067080069],["Bab",-10.810286106320717],["ütötte",-10.81421240746348],["Gimnázium",-10.818552983900789],["menedzser",-10.818552985030314],["megállapítás",-10.818552990467783],["vigyáz",-10.818553393758759],["pillant",-10.818553463362928],["Donald",-10.818553465888431],["Szolnok",-10.818554552735751],["pusztul",-10.818555469252686],["extrém",-10.818558019865446],["körülményei",-10.818560570776317],["Gyermek",-10.818563946975548],["techniká",-10.818568385035109],["generál",-10.818575596721457],["tönkre",-10.818577113715396],["folyosó",-10.8185808085961],["próba",-10.818638948480785],["vékony",-10.818790795230058],["címvédő",-10.819109405616818],["bánya",-10.819175849509769],["termékei",-10.819326767324679],["Honvédség",-10.819620341279233],["méh",-10.819754040479534],["medi",-10.819973306867304],["közeled",-10.82035417028425],["leinte",-10.820405400951737],["titok",-10.821337310633442],["összeállítás",-10.823669356119563],["irányító",-10.82417508686207],["táncos",-10.824198550787077],["ittas",-10.824435978468369],["valószínűség",-10.824867172065314],["Mac",-10.825677126981102],["szemlé",-10.825741180893978],["élvonal",-10.825778423252522],["kiskereskedelm",-10.826988097513325],["gyalog",-10.828446987760909],["holnap",-10.82890749018764],["hord",-10.82952439048045],["jóvá",-10.829776143087415],["javaslato",-10.830005619386814],["utód",-10.83128794563586],["csökkentésé",-10.831916031292854],["cserébe",-10.833391407315425],["székely",-10.83411456226029],["diplomá",-10.834159311016725],["ș",-10.834177983900574],["gimnázium",-10.834177983901641],["elektronikus",-10.834177984199329],["Svájc",-10.834178011216483],["daganat",-10.834178244582251],["Jövő",-10.83418090815477],["Ligája",-10.834182157210108],["Eszter",-10.834195846861425],["ábrázol",-10.834215161214269],["rutin",-10.834249727812676],["heves",-10.834271509660404],["oszlop",-10.834349176862766],["páncél",-10.834373552680287],["szálloda",-10.834521060022954],["elnevezés",-10.834684843123028],["tenisz",-10.834873846447437],["City",-10.835214369221825],["rög",-10.835348823582024],["eleje",-10.836174113839458],["párbeszéd",-10.836619875436275],["kerékpáros",-10.836963177182184],["nézte",-10.836983124245023],["tapasztalatai",-10.837189153401592],["zivatar",-10.837229689549353],["vásárolhat",-10.837468901148757],["szurkoló",-10.838718504763463],["felszólal",-10.839201386594594],["ellenállás",-10.839773703672616],["hajl",-10.840515858281872],["vágta",-10.840859289529217],["aratot",-10.841703948589014],["adód",-10.842402837016248],["színpadr",-10.842909366203806],["forintnyi",-10.844127071781745],["háromszor",-10.847079516312299],["fontosságá",-10.84895764832056],["Q",-10.848971378991083],["parancs",-10.850009917631002],["munkáltató",-10.850051009784067],["statisztiká",-10.850051017800016],["Nehéz",-10.850051021773401],["ragaszkod",-10.850051182372923],["marketing",-10.850051369533645],["Csoport",-10.850051404697215],["származású",-10.850052559121476],["strand",-10.850053477082934],["megélhetés",-10.850053573922533],["Dunántúl",-10.850053754032682],["kudarc",-10.850055059713373],["Szerbiá",-10.85007209429483],["Emlékeztet",-10.850079895730627],["Remél",-10.850083480811891],["palack",-10.850191998095701],["személygépkocsi",-10.850250884925906],["finomító",-10.850276227932362],["pályafutás",-10.850455943791765],["kétszeres",-10.850528783709418],["rubel",-10.850806946987895],["egyenese",-10.851178656072065],["szállítmány",-10.851486261325718],["gramm",-10.851815073051895],["pesti",-10.853245102257773],["tiltás",-10.853392437329887],["mélypont",-10.853751433745837],["2008",-10.85443144110622],["Erst",-10.854576247383067],["visszavonul",-10.854697329509248],["sértő",-10.855778239041799],["kérelme",-10.856720055228248],["hálás",-10.857325413039156],["cher",-10.857353756472785],["főszereplő",-10.857415155228843],["naptár",-10.857482236899566],["piacr",-10.857505522727227],["ovic",-10.8584708710712],["adózás",-10.858847001628245],["háziorvos",-10.859038485548478],["állapított",-10.860140589419466],["ígérte",-10.863506013089394],["csoportjá",-10.864298274033228],["Király",-10.864615775633574],["egyenlít",-10.864835403778965],["jutás",-10.86547880828984],["YouTube",-10.866180032032002],["intelligencia",-10.866180032049723],["infrastruktúra",-10.866180032369757],["csempész",-10.866180047654012],["kastély",-10.86618005011102],["vakcina",-10.86618019785545],["terápiá",-10.866181910229034],["fellebbez",-10.866182793513254],["napsütés",-10.866191462953829],["szülött",-10.866192293612047],["párizsi",-10.866194934284445],["szivárg",-10.866197803040677],["jegyző",-10.866251299779098],["sodor",-10.866313368210896],["zsidó",-10.86642793697862],["Alex",-10.866485493515516],["kontroll",-10.86671797454283],["Gond",-10.86685618885597],["reményked",-10.86699942340006],["erősíteni",-10.867036648012258],["számtalan",-10.867794150443881],["hotel",-10.868026931436441],["nagykövetség",-10.868187191318505],["demokrat",-10.86847843186582],["növelte",-10.869238929298838],["tisztség",-10.869928701982015],["függőség",-10.87089402600114],["ózsa",-10.87135023833422],["Tény",-10.871526777801648],["szavazta",-10.871616467781259],["mieink",-10.871994590318302],["foglaltak",-10.872994223521971],["Közölt",-10.873431710318242],["fizetőeszköz",-10.874422975107542],["kiesés",-10.875805824391676],["keresked",-10.87810638965718],["képeke",-10.878570726221156],["zivatarok",-10.879380671068901],["vezérigazgató",-10.879985946217733],["ápolás",-10.880273142681554],["munkájuk",-10.880818425744678],["menetrend",-10.881419125061097],["professzor",-10.88257347525633],["Szeptember",-10.88257347745034],["megmérettetés",-10.882573513184497],["Iskola",-10.882573576527335],["drasztikus",-10.882573643497132],["sláger",-10.882575535957098],["Bálint",-10.88257589653109],["turisták",-10.88257778515559],["dventi",-10.882578262767147],["fázis",-10.882582457443725],["csepp",-10.88258300432178],["bűnöző",-10.882584974717997],["recept",-10.88258835977435],["Peking",-10.882621487688896],["romániai",-10.882689124557654],["választókerület",-10.882728786505245],["Tizen",-10.882761251432001],["Iroda",-10.882771135925864],["korlátozott",-10.882789916506992],["helyreállítási",-10.88286307910145],["Roland",-10.882948620092904],["Elmondás",-10.882977943394728],["lovag",-10.88304431536675],["Igen",-10.883261369587139],["köröz",-10.883412860250594],["Qu",-10.883690009118393],["belga",-10.883715693805165],["mindennapjai",-10.884226240995968],["évszázad",-10.885101804839065],["szalag",-10.885421514792696],["mostaná",-10.88548784239556],["vesztesége",-10.885779798315713],["Will",-10.886177528517136],["formál",-10.886541001362366],["DSZ",-10.886576983233919],["játszhat",-10.886831315105834],["örnyezetvédelmi",-10.887001101420836],["közepes",-10.887966760568926],["meghaladt",-10.888356420651698],["édesap",-10.888497499062474],["gyalogos",-10.888629978593709],["tárolás",-10.889539514543944],["kényszerül",-10.889952171149506],["halmoz",-10.890298473987054],["igazságügy",-10.893476707176474],["bocsátott",-10.894402359128105],["érme",-10.895480353348034],["érezz",-10.897168079634394],["Hold",-10.897283314787716],["megjelenésé",-10.897843243338134],["lassul",-10.898506239263266],["veszít",-10.898717321792478],["álma",-10.898824033046974],["alkotmány",-10.89904742949507],["konstrukció",-10.899240141321547],["tevékenyked",-10.899240141327185],["minimálbér",-10.899240143351154],["Kristóf",-10.899240148141255],["Meteorológia",-10.899240149330186],["süllyed",-10.899240158337179],["epizód",-10.899240165744605],["Fejleszt",-10.899240188138776],["menedék",-10.899240728783939],["Szergej",-10.899240782257328],["Ismét",-10.899241421873942],["gyűjtemény",-10.899242174208279],["Tajvan",-10.899244149285067],["Endre",-10.899244676532081],["misszió",-10.89924770998388],["vidám",-10.899250547671638],["Angli",-10.899250716778617],["rendezte",-10.899257517275393],["népesség",-10.899272221003152],["Vissza",-10.899317308224283],["Csilla",-10.899406336539709],["szoba",-10.89959425862088],["határszakaszo",-10.8997775755697],["hetven",-10.899826979166889],["Hely",-10.900031525512327],["elérésé",-10.900106016531748],["eleve",-10.900296252113492],["alvás",-10.900407827646223],["ereje",-10.90056781148327],["törvényjavaslat",-10.900709571987889],["Tech",-10.90090656383169],["Gar",-10.90101511703299],["posta",-10.901086973002641],["szakítás",-10.901158071427588],["alapítás",-10.901691545761308],["ajándéko",-10.904147933325351],["ügylet",-10.904446859534517],["profil",-10.904512039774058],["előállított",-10.90481230520244],["Annyi",-10.905217174246546],["születése",-10.905630089377674],["termébe",-10.906078442924485],["Alig",-10.906468499512275],["mozdulat",-10.907973724928496],["szólv",-10.908213873208624],["gyümölcs",-10.908499822571248],["tartózkodás",-10.910083009514263],["liszt",-10.910307945927727],["vastag",-10.913252731537831],["Netflix",-10.91618929388046],["menedzsment",-10.91618929394274],["Bulgári",-10.916189302989771],["Gabriel",-10.916189424350039],["karantén",-10.916189556042275],["Biztos",-10.916192347297113],["medence",-10.916193622744583],["covid",-10.916194174132048],["ifjúsági",-10.916198845185544],["biztat",-10.9161995110664],["bútor",-10.916214542372195],["űrhajó",-10.916619913822382],["töreksz",-10.916739495903228],["pánik",-10.91674784674143],["fordítani",-10.91701118133668],["fölény",-10.917308487046146],["létrejött",-10.917580804670905],["maradj",-10.918324128506839],["kamion",-10.918410769564364],["Ipar",-10.918729417203098],["Hisze",-10.919090884967012],["oldalár",-10.92121201872683],["készség",-10.921889668059094],["London",-10.923078311310494],["gyümölcsö",-10.923938350164834],["vitamin",-10.923990803036526],["Székely",-10.924024539383998],["villa",-10.924558478491676],["határozz",-10.924803430393052],["tragédiá",-10.925649545748215],["lyal",-10.926291670818802],["Andr",-10.926399661665315],["mérkőzésé",-10.926894053467143],["útszakasz",-10.930547830746045],["játékrész",-10.931126952300222],["dönthet",-10.931349739837982],["eredményeke",-10.931919664173016],["hajdú",-10.93339701416214],["virtuális",-10.93343067667496],["Október",-10.933430678371327],["bravúr",-10.933430718564356],["Norbert",-10.933430721900272],["szilárd",-10.933431223895969],["tükröz",-10.93343169069643],["Csanád",-10.933431943778842],["Március",-10.933431956270159],["Vörös",-10.933432460497592],["jogállamiság",-10.93343289699586],["olimpiá",-10.933434279839348],["érettségi",-10.933434681374836],["Franc",-10.93344144278903],["konzultáció",-10.933442431735147],["búza",-10.9334426413497],["jobboldali",-10.93348320473551],["Arénába",-10.933552066681354],["börtönbüntetés",-10.93356367576483],["anyuka",-10.93373864196877],["Különös",-10.933761095718083],["ebéd",-10.93377745851717],["Társa",-10.933785760028025],["tetejé",-10.933919825693867],["hátteré",-10.933947000696078],["hírszerzés",-10.934129823257578],["kedvezőbb",-10.934479397862926],["kialakításá",-10.934865984609749],["nyugalm",-10.935120449405971],["Sony",-10.935405486045365],["vizsgálato",-10.936241551617012],["viselked",-10.938062154388092],["alku",-10.940351184851588],["unoká",-10.941760044862761],["tagság",-10.94207999090623],["formáció",-10.942991111189276],["lelke",-10.945148054626346],["emelkedésé",-10.948300907171067],["hétvégé",-10.950864793900111],["büszké",-10.950971950291772],["dunaújvárosi",-10.95097453324895],["Manchester",-10.950974533603187],["kérdőív",-10.950974535114357],["Zsuzsa",-10.950974542695253],["Jézus",-10.950974543215217],["Rengeteg",-10.950974608244472],["Hosszú",-10.950974627110497],["dioxid",-10.95097467955125],["konténer",-10.95097501316991],["csodálatos",-10.950975202777546],["riasztás",-10.95097642718604],["Nintend",-10.95097657164613],["összpontosít",-10.950993924991158],["csíp",-10.951034636245303],["ikonikus",-10.95107400598059],["meghaladó",-10.951101671668667],["vásárhelyi",-10.9512006275584],["alkalmazkod",-10.951223109949158],["Paks",-10.951356683262745],["Idő",-10.951363416811148],["mobiltelefon",-10.951395985412898],["Önkormányzat",-10.951411575974955],["stratégia",-10.951412159144008],["küzdeni",-10.951458360955382],["tapasztalható",-10.951715196152694],["dől",-10.952105211459159],["szükséglet",-10.952293631906429],["anuel",-10.95234713006942],["jósol",-10.952675819421941],["hála",-10.952720814835972],["legerősebb",-10.95280287880086],["szerény",-10.952971706021287],["fogadtá",-10.953652739540477],["jogerős",-10.953752281874866],["olvad",-10.955078835166441],["mélység",-10.956763431013595],["bírság",-10.958355210319878],["bizonyítj",-10.960267389651662],["beszerzési",-10.961403498825227],["cseng",-10.964331075646278],["gazda",-10.965272630090016],["war",-10.965572253794686],["csatár",-10.967550454646306],["ügyész",-10.967571534847872],["takarékos",-10.968598567351432],["Áramlat",-10.96883168584521],["mérséklőd",-10.968831748739383],["Telegram",-10.968831823444084],["Róbert",-10.968831908702905],["pincé",-10.968841964792219],["ellensúlyoz",-10.96887848189493],["barátnőj",-10.969059897876955],["Anikó",-10.969067302893313],["kriptovalut",-10.969173686960941],["társasház",-10.969371544484972],["jutalma",-10.969560366459675],["hihetetlen",-10.969911578537264],["csatol",-10.970289435847143],["lelkész",-10.97071025997619],["folyósít",-10.971151923281067],["üzent",-10.971601254838692],["gyártott",-10.972315293074944],["csúcstalálkozó",-10.972943075227267],["Lili",-10.973467343981431],["titko",-10.974854563527057],["megvalósításá",-10.978082933500982],["Munká",-10.978595284656935],["szerkesztő",-10.982085463929268],["terjesztett",-10.984802092543998],["bizon",-10.985813482198207],["püspök",-10.98700079208499],["Augusztus",-10.987013493882099],["Csongrád",-10.98701349423381],["streaming",-10.987013497522081],["igazolvány",-10.987014410367289],["Május",-10.987015489277855],["szenvedély",-10.98701677478368],["hidrogén",-10.98701687125173],["November",-10.987018603585916],["MÁV",-10.987022111777982],["turista",-10.987023936052477],["ifjú",-10.9870336054784],["ébred",-10.98710165974101],["kimenetel",-10.987276355784743],["opció",-10.987312505155526],["Wall",-10.98735873404667],["emészt",-10.987410187056698],["javítani",-10.987610844012448],["kosár",-10.987789201863368],["csomagolás",-10.98782892888598],["pénzintézet",-10.987990461640178],["tűzijáték",-10.988081392039101],["tájak",-10.988244979022046],["konyhá",-10.98838106511639],["haderő",-10.989077512076223],["gyakoribb",-10.989110724184263],["balti",-10.98952119034911],["izom",-10.989702193639124],["célzó",-10.989758586392316],["növelésé",-10.990158829583564],["következte",-10.990570215595353],["Legutóbb",-10.992175343732056],["felsőoktatás",-10.992732319966393],["ítélték",-10.998700108770594],["igazod",-10.999303863569708],["Hozzá",-10.999681093448128],["trón",-11.001106260946717],["rsula",-11.002783164511456],["sérültek",-11.005030133092728],["wei",-11.005336486748774],["Katasztrófavédel",-11.005532012380664],["Samsung",-11.005532018149204],["Celsius",-11.005532021447614],["Fesztivál",-11.00553208894825],["produkál",-11.005532095281971],["kanadai",-11.005532418537982],["törekvés",-11.005532519244793],["határátkelő",-11.005532769371293],["Köszön",-11.005533964603131],["Series",-11.005534138454113],["gerinc",-11.005537186405242],["indiai",-11.00553808185104],["Értéktőzsd",-11.005538389657147],["cáfol",-11.00554224120133],["Ember",-11.005548600545701],["figurá",-11.005550684119537],["utomatizá",-11.005551019871273],["Gáspár",-11.005553689555533],["Messi",-11.005560036047152],["felhőzet",-11.005565062640436],["Válasz",-11.005570909860383],["szőlő",-11.005575826687359],["megnyugtat",-11.005588811248717],["Film",-11.005611021785446],["Gergő",-11.005623868188103],["anyuká",-11.005676056450026],["tulajdonképpen",-11.005733163130628],["klímaváltozás",-11.005767811645761],["India",-11.005774549188427],["Szervezet",-11.005830892457528],["jogosít",-11.00589266236814],["lökések",-11.005999338171751],["bukott",-11.006059388203745],["törlés",-11.0061236818856],["bármelyik",-11.006290967945121],["panaszkod",-11.006392309244763],["mozgósítás",-11.006802811303517],["örökös",-11.00722201591257],["iráni",-11.008002185884624],["cske",-11.00937226619635],["bírságo",-11.010335375082542],["jövőjé",-11.011358712810118],["sségébe",-11.012520709878002],["tagjá",-11.01267745755074],["korszerűsít",-11.013246663904788],["okozza",-11.014443162163674],["Összese",-11.01467905322244],["hallhat",-11.015175621774853],["feszül",-11.015439693721481],["lőszer",-11.015828936878599],["jelképe",-11.019309863311115],["alapoz",-11.022020272534299],["szállítmányok",-11.02288118480659],["lövöldöz",-11.024399936909376],["abszolút",-11.02439993876644],["tájékozód",-11.024399941583244],["applikáció",-11.024399956838614],["Művészet",-11.024400032172842],["türelm",-11.02440104134248],["jelentkezik",-11.02440120578899],["rejtély",-11.024401696837224],["kártérítés",-11.024402840800946],["tüdő",-11.024403457078126],["Hajnal",-11.024403517760721],["Lázár",-11.024403746694235],["túlnyomó",-11.024408653158355],["nyeremény",-11.024417801249442],["Krím",-11.024423865930231],["bronzérme",-11.024425269202325],["besorolás",-11.024478332728918],["dízel",-11.02449961940132],["gyöker",-11.024541307999348],["Equi",-11.024547143594916],["átfogó",-11.02468145610821],["gondolatai",-11.02474702015208],["munkavégzés",-11.024759170579166],["euróövezet",-11.024767317156208],["következtetés",-11.02478150053133],["kellemes",-11.024829266441625],["szabálytalan",-11.024894574873816],["haszon",-11.024980086786204],["megbízás",-11.024992001062259],["dicsér",-11.025070853220901],["tizenöt",-11.02561179537786],["gondozás",-11.025664481211116],["autóbusz",-11.025903436078348],["választani",-11.025913203729004],["véleményé",-11.02846868102785],["szélső",-11.028898795076545],["bevonásá",-11.029499609699464],["bölcs",-11.030061956821292],["csomópont",-11.030435503546348],["értékesített",-11.031198387032523],["tünet",-11.03162477881769],["háromszoros",-11.032222015182771],["felülvizsgál",-11.032567741499566],["létesít",-11.034792847605134],["ingyen",-11.037415981847168],["hosszabbítás",-11.043252569356767],["ilyet",-11.043521770746679],["Széchenyi",-11.043630706147479],["Kolozsvár",-11.043630706165581],["mechanizmus",-11.043630706180227],["koncepció",-11.043630706320862],["bevándorló",-11.043630706470877],["burkolat",-11.043630707081753],["forradalom",-11.043630709902075],["evakuál",-11.043630734494622],["rugalmas",-11.043630737289003],["korrekció",-11.043630822805738],["gyülekez",-11.043631015490414],["Kórház",-11.043631741576487],["segéd",-11.043633075098905],["holttesté",-11.043636063936683],["műhold",-11.043637507906908],["Zöld",-11.043637759883982],["Tünd",-11.043654653013693],["Benedek",-11.04365664574423],["kóstol",-11.04371989435575],["kattint",-11.043729829173419],["Harry",-11.043754174341094],["katari",-11.043758645308866],["évfordulójá",-11.043811772344506],["Együtt",-11.043835613568803],["távozás",-11.043863904959174],["Szinte",-11.043904663226295],["médiába",-11.04409329125562],["szemtanú",-11.044162226350906],["Újpest",-11.04452594769737],["díszít",-11.044668926026059],["telepített",-11.045002808938474],["Szép",-11.045134262786775],["Zala",-11.04579780317603],["fókuszál",-11.04797653590803],["elégít",-11.048172221904707],["Hódmezővásárhely",-11.048519834893916],["boltokba",-11.049161042511553],["emelté",-11.050027621993491],["gyengül",-11.050387787193909],["szegénység",-11.050984996735787],["értékesít",-11.051409640861563],["alkalmazottak",-11.052567276857477],["négyszer",-11.055041272278693],["győzelmé",-11.056147340673006],["ligá",-11.057363611923225],["Dáni",-11.057917255382373],["sajt",-11.062230198581759],["érdekeit",-11.062866205886204],["szolidaritás",-11.063238549279284],["Székesfehérvár",-11.06323854928224],["depresszió",-11.063238549283556],["kárpátaljai",-11.063238549339854],["Igazgatóság",-11.063238549541087],["gyilkol",-11.063238869037143],["bizalom",-11.063238944047246],["éghajlat",-11.063238962593262],["mérsékelt",-11.06323935838719],["Ágnes",-11.063239483990115],["koszorú",-11.063240708888912],["Jelentős",-11.063240865569249],["munkanélküliség",-11.063242794063047],["Szerbia",-11.063242890965936],["státusz",-11.063243237391923],["Tegnap",-11.06324996635952],["alátámaszt",-11.06325210547854],["édesanyá",-11.063297649763568],["fenyő",-11.063303908097492],["düh",-11.063306177763057],["étkezés",-11.063308085793523],["alapuló",-11.063311018989552],["Levent",-11.063318106069843],["vacsorá",-11.063319062903826],["Sziget",-11.063350122990109],["hadművelet",-11.06340419870309],["visszaélés",-11.063473133053197],["megemlékezés",-11.063521201979626],["bomba",-11.063552588253122],["Berlin",-11.063615268628938],["gárdá",-11.063815541093572],["bekövetkez",-11.064044732071412],["kevered",-11.064557859614695],["kering",-11.064562848158278],["lassít",-11.064646561422991],["partján",-11.06474422659718],["lámpá",-11.064757088382256],["legyőzte",-11.064916534183705],["megfigyelés",-11.065330462092966],["rakétá",-11.066105394506579],["hivatás",-11.066792157471284],["beszerzésé",-11.066933528603956],["liget",-11.067670630372051],["Hozzátett",-11.069179714821338],["Ellen",-11.071083039783664],["ostrom",-11.071885538622528],["részvénypiac",-11.07365952831903],["elemzőj",-11.075679629685808],["isztikus",-11.076474640835249],["politikájá",-11.076509343693294],["átalakulás",-11.076718401302907],["cikké",-11.07682374674479],["terjedésé",-11.07718155683272],["szenvedte",-11.077597575373254],["tárcá",-11.080053388562193],["szerezhet",-11.080844673569679],["Ausztriába",-11.080927553040498],["Párizs",-11.081059873873006],["q",-11.081859585340817],["Ügynökség",-11.083238549290888],["Cristian",-11.08323854955959],["Petőfi",-11.083238675735057],["identitás",-11.083238730805132],["Polgár",-11.083238733050557],["tilalom",-11.0832411960674],["gyógyászat",-11.083242054721243],["zaklat",-11.083250635459763],["legszebb",-11.083271590735883],["Leyen",-11.083313431064964],["Ronald",-11.083324109716951],["torony",-11.083324443128278],["fokozód",-11.083331090363883],["tilos",-11.083352170316445],["aranyérme",-11.083366252681444],["Martin",-11.08336723578343],["tábornok",-11.083430358540756],["összhangba",-11.083433962142301],["kamara",-11.083448827357039],["klip",-11.083639204807369],["parkolás",-11.083730184982041],["rablás",-11.083775620081262],["bizonyítani",-11.083942973062893],["ügyébe",-11.084032575002396],["előírások",-11.08409221818258],["Brent",-11.08409993427857],["ológia",-11.086285150790232],["megkapj",-11.086715347065208],["Katar",-11.08742327317278],["helyettesít",-11.088290360396584],["Rész",-11.088864991022106],["ajánlato",-11.089509844769008],["teljesítményé",-11.090141752003246],["Tánc",-11.092125903438966],["városrész",-11.093794691831057],["rejl",-11.094319744924348],["ild",-11.097280147691805],["környez",-11.099400535025085],["feksz",-11.100428071538412],["szolgálato",-11.10228284095269],["fajtá",-11.102566123464344],["fantasztikus",-11.103646712643322],["portugál",-11.103646715999679],["jégkorong",-11.103646736310775],["tartalmú",-11.103646843060293],["gratulál",-11.103646863551269],["népszámlálás",-11.1036468840097],["tábla",-11.103646894802743],["Stadion",-11.10364702478591],["Disney",-11.103647094406915],["szorgalmaz",-11.103647392296155],["David",-11.103648186630657],["ellenkező",-11.103648234140078],["kézilabda",-11.103648756863402],["fejlemény",-11.103649934974436],["illeszked",-11.103654391886336],["Harkiv",-11.103659863464415],["éjfél",-11.103676815566438],["festő",-11.103680533470747],["Fehéroroszország",-11.103716465629667],["sertés",-11.103783248131517],["döntéshozó",-11.103808717410097],["kétségbe",-11.103828499608177],["aukció",-11.103873892754175],["újrahasznosít",-11.10395460772435],["töreked",-11.104036478108727],["srác",-11.10403842671702],["megbízott",-11.104247840845302],["hallani",-11.104345813597908],["laptop",-11.104399984464019],["magatartás",-11.104580106670351],["Raj",-11.104666247011135],["Klár",-11.104677581081159],["ismételte",-11.104999484239613],["elege",-11.105422131448142],["rontott",-11.106464455654775],["középiskolá",-11.106833220784672],["korlátozó",-11.108489016012008],["hasznosít",-11.109556004578002],["gatta",-11.110199981635908],["anyago",-11.111034406468171],["telephely",-11.111461253158987],["világbajnokságo",-11.111542991189543],["győződ",-11.111899398085857],["tőké",-11.116186462327166],["intézkedéseke",-11.118121909964986],["menü",-11.119598588070913],["Neke",-11.119739528878299],["szolgáltat",-11.120381363721325],["kifejez",-11.12124141012163],["ejteni",-11.122309481503155],["tölthet",-11.123387568416131],["kripto",-11.123564820422894],["podcast",-11.12448004652964],["publikál",-11.124480053152288],["ösztöndíj",-11.124480058124256],["Szilárd",-11.124480072082399],["Lőrinc",-11.12448009280891],["energiahordozók",-11.124480210875664],["krízis",-11.124481202509191],["festmény",-11.12448162125029],["felesleges",-11.124482864600372],["centrum",-11.124482866429299],["minősül",-11.12448359208852],["stabilizál",-11.124483635908037],["Befektetés",-11.124485840820745],["Kiskun",-11.124486509846646],["legjelentősebb",-11.124486918580802],["mozgalom",-11.124490127895191],["semmisített",-11.124498301773304],["szélsőséges",-11.124499586137333],["Család",-11.124504881266066],["Technológia",-11.124522069723383],["Grand",-11.124548963163985],["feltehető",-11.124556989598215],["felújított",-11.124560857871598],["középső",-11.124584856834476],["pásztor",-11.124586157456285],["Kézdivásárhely",-11.124622206970338],["fűtő",-11.124707005082007],["Halál",-11.124727294819488],["Tri",-11.124956513174961],["mutass",-11.125037774928083],["légkör",-11.125055807426069],["délnyugati",-11.125156544252846],["jelentősége",-11.1256752626227],["műsorába",-11.126810854020412],["tünetei",-11.126821834771448],["Game",-11.127168063213219],["fejezet",-11.128462345287303],["üzemeltet",-11.129062883820296],["zaúd",-11.132695107603922],["tározó",-11.133634628979056],["szakemberei",-11.133810732396901],["témáj",-11.140763643783377],["ársapk",-11.141536776800132],["bejegyzésé",-11.142513831400443],["különböz",-11.14363147376562],["ügyelet",-11.143784609057892],["szuverenitás",-11.145756641624216],["jubileum",-11.145756641655426],["Törvényszék",-11.145756641677615],["Február",-11.145756642262198],["COVID",-11.145756642338512],["birkóz",-11.145756644899997],["Április",-11.14575664569269],["Szlovéni",-11.145756670443511],["debütál",-11.145756916592935],["Switch",-11.145757011168314],["Verseny",-11.145757356345879],["Palkovics",-11.145757509641527],["közgazdász",-11.145758082483226],["Ukrán",-11.145759290087357],["elképzelhető",-11.145761638641382],["elegáns",-11.145766690294009],["cigány",-11.14576752252541],["December",-11.145771432381395],["nagyságrend",-11.145775201256248],["Legalább",-11.14577753282216],["work",-11.145892094207888],["medve",-11.145901764779742],["Kormány",-11.14596795756854],["felszólította",-11.1460592426859],["jelzett",-11.146145736112299],["harckocsi",-11.146430844285621],["biztosítana",-11.146984135908019],["mono",-11.14849602446265],["Tiszt",-11.148703874494021],["dúl",-11.150784029257865],["képességé",-11.151909330267035],["módjá",-11.152286837397101],["hűtő",-11.152341829114192],["autópályá",-11.153169274606936],["bevételei",-11.153302326867319],["birtokába",-11.154403816557554],["állampolgárság",-11.15440419273671],["Megjegyezt",-11.155088331389809],["erőművek",-11.157994740041428],["lépéseke",-11.161298967867719],["ndít",-11.166075131995385],["ázi",-11.166475531651606],["Szovjetunió",-11.167495772071891],["Kereskedel",-11.167495772420349],["kereszteződés",-11.16749577278613],["aggodalom",-11.167495772884386],["kézműves",-11.16749578094203],["Lavrov",-11.167495872212974],["Madrid",-11.1674959299764],["Truss",-11.167496221546637],["gyakorlás",-11.16749628008897],["nadrág",-11.167498209194509],["monitor",-11.167507233016591],["sodród",-11.167508096141527],["biológiai",-11.167583407465166],["motivál",-11.167589611041521],["benzinkutak",-11.167598184834528],["egekbe",-11.167615147253844],["Július",-11.167727250500343],["Meghan",-11.167827347220229],["elhárítás",-11.167837946900132],["védőoltás",-11.168021630551872],["titka",-11.16823268334122],["pakol",-11.169247489510369],["tulajdonába",-11.16931542742666],["sújtj",-11.171589597035894],["fejeződ",-11.172205989508932],["szoc",-11.17294415626052],["fertőz",-11.176585085651068],["észenlét",-11.179065495804014],["bukta",-11.179214721433029],["vesztetté",-11.186962636757883],["húg",-11.187233715666894],["embargó",-11.189538127621327],["digitalizáció",-11.1897179943689],["koncentráció",-11.189717994769978],["argentin",-11.18971799544379],["felfüggesztés",-11.189717999239953],["művelődés",-11.189717999341681],["bántalmazás",-11.189718043081795],["allergi",-11.18971819772296],["Kisvárda",-11.18971821159101],["száguld",-11.189718310156456],["optimist",-11.189718365346884],["Litváni",-11.189718521039126],["hűvös",-11.189718619524632],["folyadék",-11.189720451568874],["szobrá",-11.189723880635594],["radikális",-11.189723984807129],["NASA",-11.1897246000862],["legismertebb",-11.189724665979767],["őrzött",-11.189726503864351],["várandós",-11.189727187723632],["Reggel",-11.189727840725615],["behozatal",-11.189731322060783],["kivitelező",-11.189732569577059],["reaktor",-11.189767379962547],["örvend",-11.189778658148665],["sújtó",-11.189832462360625],["összehangol",-11.189838883713367],["Fanni",-11.189918422307006],["kilencedik",-11.189951432238512],["előtérbe",-11.189958171380349],["utólag",-11.190173504281745],["teremteni",-11.190270288775064],["szabadságharc",-11.190271475822406],["előzte",-11.19096782223695],["Ismer",-11.191569306341691],["részvényei",-11.192251591430178],["indítványoz",-11.192582440160724],["elszabadult",-11.198613908028847],["kényelm",-11.199412486288832],["melegít",-11.202085451422738],["idejű",-11.203528073449846],["gatni",-11.20456706948951],["csomó",-11.205500275830309],["állapod",-11.206583821344235],["érkezésé",-11.207712059201635],["Szín",-11.211581942696796],["szigor",-11.21164898806262],["diagnosztizál",-11.212445267004515],["republikánus",-11.212445267004517],["exkluzív",-11.21244526700549],["influenza",-11.212445267005503],["ösztönöz",-11.212445267090759],["bonyolult",-11.212445267505174],["katasztrófá",-11.21244526807687],["Görögország",-11.212445268587388],["szituáció",-11.212445313349122],["törekvő",-11.212446910726854],["Virág",-11.212447757223199],["enyhül",-11.212449236661147],["fojt",-11.21245151618762],["Sopron",-11.212453017235905],["Margit",-11.212458430681739],["megélénkül",-11.212459239159536],["válassz",-11.212466513405884],["osztalék",-11.212467599192705],["Valószínű",-11.212495212544447],["részleges",-11.212512117124781],["tipp",-11.212514224795605],["szlovákiai",-11.21251697767634],["extraprofit",-11.212526787823291],["hazud",-11.212574161361173],["nulla",-11.212701564657515],["újonc",-11.21271150478835],["Rendkívül",-11.212735906119297],["közreműköd",-11.212899757595784],["végrehajtott",-11.21290340066276],["csík",-11.213052573213744],["farag",-11.213071118887136],["történész",-11.213086165882874],["adminisztráció",-11.213132612542923],["kosara",-11.213142084638408],["kamasz",-11.2134877032652],["eszközei",-11.214885041100507],["köszönete",-11.2177260933843],["zzuk",-11.220217162075054],["ulturális",-11.22503467763147],["Ország",-11.22797591524328],["igényei",-11.22920309196757],["csapód",-11.232087512778786],["nyújtana",-11.232688833298074],["anno",-11.232819975805366],["nyilatkozato",-11.232967632085526],["Auto",-11.232968274463806],["táská",-11.23402430841973],["eformátus",-11.234025915625292],["kongresszus",-11.235701080958712],["Portugáli",-11.235701080959018],["propaganda",-11.235701080971488],["Június",-11.235701092686002],["producer",-11.235701098474514],["Statisztik",-11.235701165773945],["Kérdés",-11.235702009070188],["Balogh",-11.235702088990596],["rászorulók",-11.23570218344641],["elképzelhetetlen",-11.23570279467591],["szaporod",-11.235706536452874],["nedves",-11.235717950840394],["lassú",-11.235720059337908],["Pintér",-11.235728792647688],["forgás",-11.235811918245194],["messzi",-11.23581277109838],["krimi",-11.235863393862665],["Információ",-11.235894956016216],["Száz",-11.235934825427835],["döntőjébe",-11.236453225450028],["küldeni",-11.236507132477875],["Amazon",-11.236588200522002],["tanúsít",-11.236681987949245],["aludt",-11.236819775324669],["zug",-11.237181959999774],["támaszkod",-11.237661212679193],["homok",-11.237688781961612],["játssz",-11.238949109188933],["csinos",-11.23925875174845],["édesanyjá",-11.239406286603128],["ifiká",-11.239968819852907],["szerelmé",-11.240091469664732],["cellá",-11.244009707717785],["széria",-11.245162153492313],["Londonba",-11.249881888006037],["bővítésé",-11.249998161695299],["nyir",-11.254782311555756],["Jelen",-11.258871511050062],["Argentín",-11.25951060477155],["üdvözöl",-11.259510604818516],["Kecskemét",-11.25951060482987],["innovatív",-11.259510606365449],["Guardian",-11.259510606816358],["szürke",-11.259510613915289],["aktivitás",-11.25951063044881],["Bizony",-11.259510786835277],["Kálmán",-11.259510840788222],["kiegyensúlyozott",-11.259511627053492],["csirke",-11.25951199114108],["Rövid",-11.259512123280057],["Fejér",-11.25951537352943],["Bíróság",-11.259515821672018],["kapaszkod",-11.259517836464303],["hordónként",-11.259525016665243],["érzelmi",-11.259529877212593],["szobor",-11.259533421937585],["mérgezés",-11.259542467149908],["szegedi",-11.259554856691746],["stagnál",-11.259568429176483],["Michel",-11.259574740189432],["jelentkezte",-11.259576799195509],["feldolgozóipar",-11.259580166397036],["blog",-11.259627415177551],["gonosz",-11.259637393747003],["czky",-11.259641387342018],["töltőállomás",-11.259712944051834],["fertőződött",-11.25978716102507],["hacker",-11.260097150913863],["falvak",-11.260322923165642],["elődöntőbe",-11.261391055348877],["szemlélet",-11.262037543095687],["sarok",-11.262881494466525],["fűződ",-11.264564103377245],["futballoz",-11.265260587326487],["uralkod",-11.268125143533346],["találgat",-11.268267285801922],["gyártan",-11.276048035753236],["örökít",-11.278191409777762],["gyógyít",-11.280359043771291],["fejlődésé",-11.28130179943266],["levelé",-11.281349168836915],["szurkol",-11.281511996385165],["franc",-11.282992842966507],["roller",-11.283113944252097],["majomhimlő",-11.283900848669967],["diadalmaskod",-11.283900848674058],["ajdúböszörmény",-11.283900848689361],["egyiptomi",-11.283900852759933],["bitcoin",-11.283900853163338],["Óriási",-11.283900855496348],["szennyezés",-11.28390085855859],["kilowatt",-11.283900861110318],["World",-11.283900885842701],["krónikus",-11.283901021892136],["dinamikus",-11.283901065004153],["laboratórium",-11.283901350091972],["Január",-11.283901979789984],["számjegyű",-11.283902636156014],["oszovó",-11.28390279468016],["időtartam",-11.28390605778106],["Bundes",-11.283911594848941],["madarak",-11.283913402211347],["tanácskozás",-11.283925015509205],["honfitárs",-11.283932591234136],["konzul",-11.283953270427322],["legenda",-11.283977129842153],["Fradi",-11.28398743420937],["meredek",-11.284073172087677],["Jenő",-11.284117822801893],["locsol",-11.284156241710296],["gyűjteni",-11.284197451075169],["irigy",-11.28419974400865],["elfogadhatatlan",-11.28421533110899],["Peter",-11.284250094333316],["nyarán",-11.284363031042675],["ozdít",-11.285229693550882],["bemutatás",-11.285986501630155],["képviseleté",-11.286968225954897],["tablet",-11.287254283159184],["ártatlan",-11.294105702779028],["ogató",-11.294609353003192],["Honvéd",-11.297785040383026],["felügyel",-11.30163286973162],["rendészet",-11.303585489098365],["venné",-11.305541073630469],["titkár",-11.308683371797656],["intelligenciá",-11.308900848675755],["demokrácia",-11.308900848716346],["Technolog",-11.308900853610005],["Fülöp",-11.308900858124755],["tranzit",-11.308900967726132],["Norvégi",-11.308901002308748],["feküd",-11.30890103641971],["autonóm",-11.308901149090687],["hosszas",-11.308901289614894],["ákóczi",-11.308901454196976],["Mátyás",-11.308901551843087],["Momentum",-11.308901700686945],["Hatalmas",-11.308901716554029],["buzdít",-11.308902574924335],["Múlt",-11.30890512673707],["kivizsgálás",-11.308905846912264],["Angeles",-11.308906876631653],["Egészségügy",-11.308906914849615],["nyersolaj",-11.308910276665191],["mentősök",-11.308913117389954],["pohár",-11.30891328193908],["nyugalom",-11.308919510487359],["összehasonlítás",-11.308927287863995],["MOL",-11.308944532041444],["bácsi",-11.30915310574795],["amarosan",-11.30927071484748],["összegzés",-11.309521152373046],["simán",-11.30989856003712],["felderít",-11.310396403177796],["Glob",-11.310840576686832],["shop",-11.311044539005465],["kérésé",-11.317465989544559],["bombá",-11.320379153464588],["indításá",-11.323035659779165],["Szeretné",-11.324774862119655],["tisztába",-11.326008157280901],["legendá",-11.32602688460832],["sétá",-11.327767640081786],["ügynök",-11.330856766437284],["regisztráció",-11.334541874334477],["Vodafone",-11.334541874560239],["objektum",-11.334541874615873],["hajléktalan",-11.334542061216414],["ggály",-11.3345425590961],["szégyen",-11.334542677344682],["csalódás",-11.334543094383251],["United",-11.33454309686095],["tenyész",-11.334543978628094],["hardver",-11.334544958036703],["gesztus",-11.334545645324095],["segítségnyújtás",-11.334546924619334],["kockáztat",-11.334547568844638],["hivatott",-11.33454950048217],["delegáció",-11.334567397036178],["feledkez",-11.334589016079171],["gyújtott",-11.334598482850957],["hormon",-11.334613796168902],["kiszolgáltatott",-11.334620564911498],["oltóanyag",-11.334644966077981],["emberölés",-11.33464891742496],["házigazdák",-11.334675974608379],["Épít",-11.334695371402011],["Gabi",-11.334712889489339],["titkolt",-11.334945879958703],["Rossz",-11.334988542858362],["józan",-11.334994879328551],["rozs",-11.335144248642287],["latin",-11.336541989990836],["palotá",-11.33658108847556],["technika",-11.343431388783394],["domb",-11.35061228611859],["osztoz",-11.353998897989136],["diploma",-11.35596530562128],["volumen",-11.358709639962576],["pályafutásá",-11.360304079848701],["fertőződ",-11.360621552332155],["érmé",-11.36080405754285],["demonstráció",-11.36085766378538],["kompromisszum",-11.360857663786144],["ollywood",-11.360857663916482],["kritizál",-11.360857664210716],["rosszindulatú",-11.360857665573256],["nagyszabású",-11.36085766988292],["integrál",-11.360857672621304],["kézdivásárhelyi",-11.360857714752491],["pletyká",-11.360857737262014],["ritmus",-11.360857763613113],["végrehajtani",-11.360857773273299],["labdarúgás",-11.36085783244152],["megawatt",-11.36085806138015],["George",-11.360858242482117],["erkölcs",-11.36085827332646],["ezüstérmes",-11.36085830883958],["Vásárhely",-11.36085841277934],["Oscar",-11.360858636470333],["csecsemő",-11.36086000006457],["Kanada",-11.360861503296423],["Curtis",-11.360863476792963],["Lapunk",-11.360864176728379],["tisztségviselő",-11.360872900643466],["tilalma",-11.36087354687113],["aszfalt",-11.360883375274621],["megújult",-11.360895714937016],["Szavai",-11.360896376916577],["elérése",-11.360900447559155],["felelőtlen",-11.360901502629448],["székelyföldi",-11.360925952887069],["album",-11.360972289132667],["méltatt",-11.360978906188677],["bontakoz",-11.361005764293935],["doktor",-11.361031063064484],["skálá",-11.361065207355317],["pokol",-11.361220030372165],["für",-11.361700301187405],["korlátozz",-11.362302936372412],["népszerűsít",-11.362442071539403],["katasztrófa",-11.362572075364096],["beleegyez",-11.36264104361022],["acionális",-11.362717489544035],["jellemzi",-11.365208414604803],["vétség",-11.365597774432246],["rekedt",-11.368844798807887],["rendelkezésé",-11.371177484361768],["Komoly",-11.371774888164635],["vegyé",-11.374119044800036],["másrész",-11.376261200145182],["trükkö",-11.381786121082378],["eredmén",-11.386559910952974],["pótlás",-11.386758661989948],["prognózis",-11.387884690826809],["Ügyészség",-11.387884690879217],["kategória",-11.387884690920934],["elektronika",-11.387884691810859],["lövedék",-11.38788470082035],["Erdogan",-11.387884749493685],["terjeszked",-11.387884761351206],["Járásbíróság",-11.387884860411035],["Pénzügy",
[...]
