{"version":"1.0","truncation":null,"padding":null,"added_tokens":[{"id":0,"special":true,"content":"<UNK>","single_word":false,"lstrip":false,"rstrip":false,"normalized":false},{"id":1,"special":true,"content":"<SEP>","single_word":false,"lstrip":false,"rstrip":false,"normalized":false},{"id":2,"special":true,"content":"<MASK>","single_word":false,"lstrip":false,"rstrip":false,"normalized":false},{"id":3,"special":true,"content":"<CLS>","single_word":false,"lstrip":false,"rstrip":false,"normalized":false}],"normalizer":null,"pre_tokenizer":{"type":"Whitespace"},"post_processor":null,"decoder":null,"model":{"type":"WordPiece","unk_token":"<UNK>","continuing_subword_prefix":"##","max_input_chars_per_word":100,"vocab":{"<UNK>":0,"<SEP>":1,"<MASK>":2,"<CLS>":3,"!":4,"\"":5,"$":6,"%":7,"&":8,"'":9,"(":10,")":11,"*":12,"+":13,",":14,"-":15,".":16,"/":17,"0":18,"1":19,"2":20,"3":21,"4":22,"5":23,"6":24,"7":25,"8":26,"9":27,":":28,";":29,"<":30,">":31,"?":32,"A":33,"B":34,"C":35,"D":36,"E":37,"F":38,"G":39,"H":40,"I":41,"J":42,"K":43,"L":44,"M":45,"N":46,"O":47,"P":48,"Q":49,"R":50,"S":51,"T":52,"U":53,"V":54,"W":55,"X":56,"Y":57,"Z":58,"a":59,"b":60,"c":61,"d":62,"e":63,"f":64,"g":65,"h":66,"i":67,"j":68,"k":69,"l":70,"m":71,"n":72,"o":73,"p":74,"q":75,"r":76,"s":77,"t":78,"u":79,"v":80,"w":81,"x":82,"y":83,"z":84,"~":85,"§":86,"«":87,"®":88,"°":89,"²":90,"³":91,"´":92,"µ":93,"·":94,"»":95,"Á":96,"Ä":97,"Å":98,"Ç":99,"È":100,"É":101,"Í":102,"Ó":103,"Õ":104,"Ö":105,"×":106,"Ø":107,"Ú":108,"Ü":109,"à":110,"á":111,"â":112,"ã":113,"ä":114,"å":115,"ç":116,"è":117,"é":118,"ë":119,"í":120,"î":121,"ï":122,"ð":123,"ñ":124,"ò":125,"ó":126,"ô":127,"õ":128,"ö":129,"ø":130,"ú":131,"û":132,"ü":133,"ý":134,"ā":135,"ă":136,"Ć":137,"ć":138,"Č":139,"č":140,"Ď":141,"ď":142,"Đ":143,"đ":144,"ę":145,"ě":146,"ğ":147,"Ľ":148,"ľ":149,"ł":150,"ń":151,"ň":152,"Ő":153,"ő":154,"ř":155,"Ş":156,"ş":157,"Š":158,"š":159,"Ţ":160,"ţ":161,"ť":162,"Ű":163,"ű":164,"Ž":165,"ž":166,"Ș":167,"ș":168,"Ț":169,"ț":170,"ʼ":171,"́":172,"̈":173,"̋":174,"β":175,"μ":176,"‐":177,"‑":178,"‒":179,"–":180,"—":181,"‘":182,"’":183,"“":184,"”":185,"„":186,"†":187,"•":188,"…":189,"‼":190,"€":191,"−":192,"❗":193,"➡":194,"﷯":195,"️":196,"##i":197,"##í":198,"##r":199,"##á":200,"##s":201,"##n":202,"##e":203,"##a":204,"##u":205,"##m":206,"##p":207,"##l":208,"##t":209,"##é":210,"##z":211,"##g":212,"##ú":213,"##d":214,"##ó":215,"##ü":216,"##k":217,"##b":218,"##j":219,"##o":220,"##y":221,"##ő":222,"##h":223,"##v":224,"##ö":225,"##f":226,"##ű":227,"##c":228,"##2":229,"##1":230,"##5":231,"##F":232,"##D":233,"##T":234,"##O":235,"##P":236,"##Z":237,"##G":238,"##L":239,"##0":240,"##E":241,"##w":242,"##W":243,"##A":244,"##3":245,"##6":246,"##x":247,"##S":248,"##V":249,"##q":250,"##.":251,"##M":252,"##à":253,"##́":254,"##̋":255,"##ț":256,"##C":257,"##R":258,"##â":259,"##ș":260,"##K":261,"##4":262,"##8":263,"##9":264,"##7":265,"##B":266,"##I":267,"##ă":268,"##X":269,"##ć":270,"##,":271,"##N":272,"##̈":273,"##U":274,"##Y":275,"##Q":276,"##î":277,"##É":278,"##J":279,"##H":280,"##!":281,"##õ":282,"##„":283,"##ʼ":284,"##ž":285,"##Á":286,"##<":287,"##-":288,"##«":289,"##ý":290,"##+":291,"##'":292,"##–":293,"##č":294,"##ğ":295,"##;":296,"##Ö":297,"##å":298,"##)":299,"##š":300,"##è":301,"##\"":302,"##û":303,"##/":304,"##ï":305,"##ł":306,"##Í":307,"##Ő":308,"##Ú":309,"##ç":310,"##Ü":311,"##ä":312,"##ď":313,"##…":314,"##ş":315,"##Ó":316,"##Ű":317,"##?":318,"##”":319,"##ě":320,"##“":321,"##Ľ":322,"##*":323,"##ę":324,"##ř":325,"##:":326,"##’":327,"##(":328,"##ñ":329,"##ô":330,"##Ț":331,"##đ":332,"##ň":333,"##ń":334,"##ð":335,"##>":336,"##ë":337,"##~":338,"##ã":339,"##ţ":340,"##ā":341,"##ľ":342,"##ť":343,"##†":344,"##ø":345,"##❗":346,"##ò":347,"##et":348,"##el":349,"##en":350,"##sz":351,"##gy":352,"##er":353,"##at":354,"##an":355,"##ek":356,"##al":357,"az":358,"sz":359,"##ár":360,"##ak":361,"##on":362,"##or":363,"##ás":364,"##eg":365,"##in":366,"##em":367,"##ol":368,"##án":369,"##ál":370,"##tt":371,"##es":372,"##ok":373,"##ez":374,"##és":375,"el":376,"##ég":377,"##ik":378,"##ar":379,"##os":380,"##én":381,"##bb":382,"és":383,"##ér":384,"##ett":385,"##ül":386,"ho":387,"##ít":388,"is":389,"##át":390,"meg":391,"##ág":392,"egy":393,"##ap":394,"##ék":395,"kö":396,"hogy":397,"##oz":398,"##ban":399,"##ét":400,"##ed":401,"##él":402,"##agy":403,"##int":404,"##ott":405,"##ra":406,"##ben":407,"##szt":408,"##is":409,"##it":410,"##il":411,"##ta":412,"##ség":413,"##om":414,"##ad":415,"##ni":416,"##cs":417,"nem":418,"##ól":419,"##ul":420,"##re":421,"##ák":422,"##ja":423,"cs":424,"##áz":425,"##nk":426,"fel":427,"##og":428,"ki":429,"##ely":430,"köz":431,"szer":432,"##ig":433,"##aj":434,"##ai":435,"##nak":436,"##ent":437,"##ány":438,"##ság":439,"##am":440,"##ény":441,"le":442,"am":443,"##ám":444,"##ész":445,"##het":446,"##ag":447,"Az":448,"##ép":449,"##az":450,"##iz":451,"##nek":452,"ez":453,"##ot":454,"tö":455,"##ut":456,"##lt":457,"##olt":458,"##ny":459,"ak":460,"##ell":461,"ér":462,"al":463,"be":464,"##ci":465,"##ől":466,"##as":467,"##end":468,"min":469,"##us":470,"##ll":471,"##ért":472,"##hat":473,"##unk":474,"##ök":475,"##ro":476,"##ont":477,"##szág":478,"##ön":479,"##uk":480,"gy":481,"év":482,"##szer":483,"##art":484,"##áll":485,"##ók":486,"ny":487,"##egy":488,"##ud":489,"##od":490,"in":491,"##ött":492,"##ált":493,"jel":494,"##ond":495,"##av":496,"##ük":497,"##len":498,"kor":499,"volt":500,"de":501,"mind":502,"##ró":503,"##ov":504,"id":505,"##ert":506,"##vet":507,"##kö":508,"##vel":509,"##ább":510,"leg":511,"##agyar":512,"##ezet":513,"már":514,"##ában":515,"elő":516,"áll":517,"##att":518,"##rt":519,"szerint":520,"##áb":521,"es":522,"for":523,"##ep":524,"##erül":525,"##ly":526,"em":527,"##ab":528,"nagy":529,"##ej":530,"több":531,"##ént":532,"##ők":533,"##kal":534,"##te":535,"##ber":536,"mi":537,"##ős":538,"##ében":539,"##kez":540,"##ev":541,"##ív":542,"szám":543,"hely":544,"Sz":545,"ut":546,"##eket":547,"rend":548,"##olg":549,"20":550,"ad":551,"##atás":552,"##ia":553,"##elm":554,"##ill":555,"##ette":556,"##let":557,"val":558,"##val":559,"##koz":560,"er":561,"##ára":562,"##ország":563,"##ssz":564,"##okat":565,"száz":566,"##kor":567,"##asz":568,"##éz":569,"kap":570,"##oly":571,"lehet":572,"még":573,"##est":574,"azt":575,"##id":576,"##eszt":577,"tud":578,"van":579,"kell":580,"##iszt":581,"##áj":582,"ter":583,"##ció":584,"##alék":585,"##zet":586,"##rosz":587,"mint":588,"##éd":589,"##ítás":590,"százalék":591,"##ály":592,"##ése":593,"amely":594,"hi":595,"ar":596,"##esz":597,"##ják":598,"##ajd":599,"##hoz":600,"vagy":601,"##um":602,"##elő":603,"ped":604,"##ld":605,"##ünk":606,"más":607,"vég":608,"tart":609,"##aszt":610,"fog":611,"mag":612,"##ín":613,"##ony":614,"##ír":615,"új":616,"##mény":617,"pedig":618,"##ei":619,"##ély":620,"csak":621,"biz":622,"##öv":623,"##ról":624,"##árt":625,"##obb":626,"sem":627,"##ba":628,"##alm":629,"##ebb":630,"jelent":631,"##ést":632,"##mány":633,"tel":634,"##be":635,"Ez":636,"össz":637,"##ód":638,"##ve":639,"##ör":640,"hat":641,"##ió":642,"##ított":643,"nap":644,"##ked":645,"##ának":646,"##ort":647,"magyar":648,"kép":649,"##ást":650,"minden":651,"##ző":652,"ellen":653,"két":654,"kül":655,"át":656,"en":657,"##abb":658,"##ső":659,"vár":660,"##na":661,"##ére":662,"##ost":663,"##tet":664,"##nál":665,"##uró":666,"szem":667,"##da":668,"##nök":669,"##eh":670,"rész":671,"##nap":672,"azon":673,"hoz":674,"##ult":675,"##ások":676,"##ém":677,"ig":678,"or":679,"##ád":680,"##eres":681,"vál":682,"##őr":683,"orosz":684,"Egy":685,"majd":686,"mill":687,"kez":688,"##gyan":689,"##ható":690,"##leg":691,"##tek":692,"##ös":693,"##ug":694,"##esen":695,"mond":696,"követ":697,"##ték":698,"kör":699,"##im":700,"##ása":701,"##eny":702,"##alál":703,"##ós":704,"lesz":705,"##áció":706,"után":707,"##köz":708,"##ani":709,"##ovább":710,"ami":711,"##va":712,"##ház":713,"##ót":714,"fi":715,"mű":716,"##ilág":717,"##zés":718,"##ális":719,"ha":720,"##szak":721,"tám":722,"##ával":723,"##tak":724,"idő":725,"##isz":726,"##iv":727,"sok":728,"ár":729,"##hez":730,"##tat":731,"##ről":732,"##rán":733,"forint":734,"munk":735,"él":736,"vis":737,"Magyar":738,"foly":739,"##ch":740,"##íz":741,"ország":742,"##öz":743,"##dés":744,"##év":745,"tovább":746,"így":747,"##port":748,"lát":749,"##enn":750,"elm":751,"##ének":752,"##emény":753,"##osan":754,"##vezet":755,"##je":756,"alap":757,"##ikai":758,"202":759,"miatt":760,"##lyan":761,"bel":762,"##ból":763,"##atok":764,"##ült":765,"##mű":766,"##ki":767,"kormány":768,"##jel":769,"vezet":770,"között":771,"han":772,"ját":773,"##ur":774,"szak":775,"##kel":776,"##ölt":777,"úgy":778,"##uróp":779,"##for":780,"##eni":781,"##ján":782,"első":783,"kis":784,"olyan":785,"ember":786,"ugyan":787,"##lan":788,"an":789,"világ":790,"bizt":791,"##any":792,"jár":793,"##ogy":794,"##enek":795,"##állal":796,"tört":797,"ah":798,"uk":799,"ép":800,"##ir":801,"##utat":802,"##sági":803,"##önt":804,"aki":805,"most":806,"sor":807,"hét":808,"##vez":809,"##árs":810,"##erg":811,"##ből":812,"##ábor":813,"##ési":814,"##fel":815,"##ember":816,"##ügy":817,"##ként":818,"##atal":819,"##hető":820,"##eb":821,"##nyi":822,"##elt":823,"##öld":824,"##00":825,"##ási":826,"##erm":827,"##ület":828,"##őt":829,"élet":830,"kezd":831,"azonban":832,"vissz":833,"##old":834,"érd":835,"akkor":836,"##etlen":837,"##ontos":838,"hozz":839,"fej":840,"int":841,"##erült":842,"##raj":843,"##ellett":844,"valam":845,"##vény":846,"eset":847,"##úl":848,"##ász":849,"telj":850,"Nem":851,"##csol":852,"##ram":853,"##ikus":854,"##ikor":855,"##új":856,"kész":857,"##egít":858,"kér":859,"né":860,"##ór":861,"##ossz":862,"tan":863,"##kol":864,"##gész":865,"##fi":866,"##ések":867,"egyik":868,"ind":869,"##elmi":870,"##ob":871,"vált":872,"jó":873,"ism":874,"##pont":875,"##vár":876,"besz":877,"csap":878,"##st":879,"##eti":880,"##gat":881,"##juk":882,"##őz":883,"term":884,"mert":885,"##árom":886,"##adás":887,"##ló":888,"##árd":889,"##hely":890,"##étel":891,"##esít":892,"lak":893,"##áv":894,"##ind":895,"egész":896,"##ers":897,"##ével":898,"##eng":899,"segít":900,"##óz":901,"##ati":902,"##ták":903,"mondta":904,"##ját":905,"Magyarország":906,"##lő":907,"##ltal":908,"jelen":909,"igaz":910,"arra":911,"##elem":912,"##ank":913,"ukrán":914,"##últ":915,"szint":916,"pro":917,"##tö":918,"##azda":919,"##iszter":920,"külön":921,"csal":922,"ill":923,"ker":924,"##eked":925,"talál":926,"támog":927,"##aton":928,"szab":929,"##őség":930,"elnök":931,"##ökk":932,"##asznál":933,"ügy":934,"való":935,"vállal":936,"##sal":937,"##ütt":938,"##árm":939,"kapcsol":940,"állam":941,"dönt":942,"dolg":943,"saj":944,"##ezett":945,"üz":946,"##űn":947,"##ata":948,"fér":949,"##ekt":950,"##áború":951,"ok":952,"éves":953,"által":954,"##énz":955,"közös":956,"##arad":957,"##ásár":958,"##tel":959,"##erület":960,"nagyon":961,"játék":962,"visz":963,"előtt":964,"korább":965,"ol":966,"##nok":967,"fő":968,"emel":969,"##zel":970,"ott":971,"ezt":972,"##fog":973,"mellett":974,"##iárd":975,"##oló":976,"Európ":977,"har":978,"##vány":979,"##ri":980,"sik":981,"##ün":982,"##ező":983,"hal":984,"haz":985,"három":986,"##ink":987,"együtt":988,"##and":989,"millió":990,"19":991,"##dig":992,"ben":993,"##ették":994,"##ács":995,"érdek":996,"##úly":997,"##ését":998,"##oll":999,"men":1000,"gond":1001,"Cs":1002,"##utó":1003,"akik":1004,"háború":1005,"nő":1006,"##izet":1007,"család":1008,"Uk":1009,"##jár":1010,"##atot":1011,"##atkoz":1012,"##kod":1013,"##után":1014,"##un":1015,"##ából":1016,"alatt":1017,"##lát":1018,"##erek":1019,"energ":1020,"ered":1021,"kom":1022,"##ába":1023,"mér":1024,"##op":1025,"##szerű":1026,"cég":1027,"##ván":1028,"##emel":1029,"alkal":1030,"milliárd":1031,"ked":1032,"cél":1033,"amikor":1034,"##incs":1035,"Ukraj":1036,"##olit":1037,"##ezte":1038,"kon":1039,"##anak":1040,"pénz":1041,"##ors":1042,"##lal":1043,"közel":1044,"bet":1045,"##gg":1046,"ezer":1047,"fél":1048,"##tó":1049,"##ettek":1050,"##rog":1051,"érték":1052,"ed":1053,"vol":1054,"##éter":1055,"ír":1056,"##inek":1057,"##észt":1058,"##kép":1059,"##tam":1060,"érkez":1061,"##jelent":1062,"re":1063,"hang":1064,"pél":1065,"##up":1066,"megt":1067,"##séges":1068,"##ozás":1069,"csökk":1070,"nek":1071,"##ic":1072,"ért":1073,"történ":1074,"##vis":1075,"##usz":1076,"következ":1077,"##szín":1078,"illet":1079,"##ító":1080,"helyzet":1081,"össze":1082,"##ran":1083,"##kül":1084,"##ozott":1085,"hó":1086,"##iai":1087,"##dő":1088,"figy":1089,"keres":1090,"##ily":1091,"szeret":1092,"szerep":1093,"##amat":1094,"vesz":1095,"hisz":1096,"##véd":1097,"##ip":1098,"##alom":1099,"Orosz":1100,"véd":1101,"város":1102,"számára":1103,"választ":1104,"##form":1105,"szük":1106,"ház":1107,"per":1108,"##enc":1109,"##eken":1110,"##ac":1111,"##erseny":1112,"An":1113,"old":1114,"tör":1115,"terület":1116,"biztos":1117,"##zs":1118,"##fl":1119,"lép":1120,"##ségi":1121,"von":1122,"##izs":1123,"miniszter":1124,"##rány":1125,"ahol":1126,"##gel":1127,"szolg":1128,"másod":1129,"##ilyen":1130,"##tatás":1131,"##oh":1132,"##leszt":1133,"péld":1134,"##omb":1135,"##lyen":1136,"százalékkal":1137,"arról":1138,"valamint":1139,"##oszt":1140,"##alán":1141,"vezető":1142,"te":1143,"megy":1144,"jöv":1145,"én":1146,"hónap":1147,"##ását":1148,"gazda":1149,"Oroszország":1150,"##enne":1151,"vissza":1152,"##fő":1153,"##nél":1154,"nev":1155,"jog":1156,"##lat":1157,"##le":1158,"##ozó":1159,"##ozat":1160,"##öl":1161,"##dul":1162,"##ing":1163,"tár":1164,"##esség":1165,"##ium":1166,"##íg":1167,"##omány":1168,"intéz":1169,"dél":1170,"szín":1171,"erős":1172,"##ően":1173,"felh":1174,"amit":1175,"##almaz":1176,"közölt":1177,"személy":1178,"beszél":1179,"ment":1180,"rendszer":1181,"tag":1182,"##ög":1183,"nemzet":1184,"10":1185,"201":1186,"##uszt":1187,"négy":1188,"bal":1189,"Ha":1190,"költ":1191,"##ermek":1192,"marad":1193,"rendőr":1194,"körül":1195,"##enni":1196,"nyug":1197,"volna":1198,"##város":1199,"pár":1200,"##okban":1201,"hozzá":1202,"##rend":1203,"##ekben":1204,"##bl":1205,"határ":1206,"kil":1207,"##ciók":1208,"##rogram":1209,"ne":1210,"kapcsolat":1211,"haj":1212,"Or":1213,"út":1214,"eredmény":1215,"mely":1216,"közl":1217,"hiszen":1218,"rá":1219,"tav":1220,"Mi":1221,"nyil":1222,"hiv":1223,"Gy":1224,"cí":1225,"fontos":1226,"##ari":1227,"##lék":1228,"óta":1229,"polit":1230,"Nagy":1231,"ilyen":1232,"pont":1233,"műkö":1234,"lét":1235,"##úz":1236,"##tart":1237,"viszont":1238,"ugyanis":1239,"##jabb":1240,"##elet":1241,"##ául":1242,"legn":1243,"##űz":1244,"ezért":1245,"tér":1246,"##ec":1247,"##út":1248,"##akor":1249,"15":1250,"kerül":1251,"##tól":1252,"kev":1253,"##élkül":1254,"illetve":1255,"##éb":1256,"száll":1257,"verseny":1258,"alkalm":1259,"##ekkel":1260,"##ítani":1261,"ma":1262,"##iac":1263,"##udap":1264,"szó":1265,"kar":1266,"Mind":1267,"##rób":1268,"##izsg":1269,"##udapest":1270,"öt":1271,"##aly":1272,"Am":1273,"növ":1274,"neh":1275,"##osz":1276,"##nő":1277,"férfi":1278,"hagy":1279,"##ket":1280,"##oport":1281,"##hon":1282,"##sége":1283,"jelenleg":1284,"társ":1285,"lehetőség":1286,"##ája":1287,"kiv":1288,"##érték":1289,"hanem":1290,"hír":1291,"pály":1292,"##ajnok":1293,"nincs":1294,"##ügg":1295,"mutat":1296,"##ször":1297,"##sel":1298,"##ítés":1299,"##dött":1300,"túl":1301,"annak":1302,"elmúlt":1303,"##pen":1304,"gáz":1305,"st":1306,"lett":1307,"magas":1308,"In":1309,"alak":1310,"második":1311,"szól":1312,"jövő":1313,"##osság":1314,"##ezés":1315,"Köz":1316,"használ":1317,"##ívül":1318,"##séget":1319,"nyom":1320,"emelked":1321,"kit":1322,"##ogat":1323,"##ológ":1324,"##ügyi":1325,"jav":1326,"##esebb":1327,"bizony":1328,"képvis":1329,"##só":1330,"##jük":1331,"##tört":1332,"##epül":1333,"##ocs":1334,"##fej":1335,"##szám":1336,"##ne":1337,"##alak":1338,"itt":1339,"például":1340,"támogatás":1341,"##essz":1342,"gyermek":1343,"##lag":1344,"eddig":1345,"##otta":1346,"táv":1347,"##ant":1348,"mód":1349,"##ített":1350,"##ottak":1351,"##ozz":1352,"##ester":1353,"jobb":1354,"##erikai":1355,"irány":1356,"##íj":1357,"##elés":1358,"akár":1359,"##ef":1360,"jelentős":1361,"közölte":1362,"##adó":1363,"program":1364,"euró":1365,"##övet":1366,"##ason":1367,"##ang":1368,"megh":1369,"akar":1370,"elmond":1371,"saját":1372,"##agyobb":1373,"br":1374,"##fél":1375,"##émet":1376,"nélkül":1377,"par":1378,"##zett":1379,"##ttal":1380,"legnagyobb":1381,"csapat":1382,"rég":1383,"##üz":1384,"nagyobb":1385,"okoz":1386,"##bbi":1387,"gondol":1388,"##sor":1389,"ör":1390,"megsz":1391,"hossz":1392,"azért":1393,"##ással":1394,"##elnök":1395,"amerikai":1396,"##min":1397,"vél":1398,"##eli":1399,"kés":1400,"százalékos":1401,"##ass":1402,"##őv":1403,"korábban":1404,"El":1405,"vannak":1406,"##ához":1407,"##áról":1408,"##mad":1409,"jól":1410,"##észet":1411,"ór":1412,"vid":1413,"##ította":1414,"fiatal":1415,"mindig":1416,"tiszt":1417,"kérdés":1418,"történt":1419,"ban":1420,"doll":1421,"esz":1422,"szabad":1423,"##dik":1424,"néh":1425,"katon":1426,"##nal":1427,"##föld":1428,"foglal":1429,"##ásra":1430,"##tár":1431,"##bben":1432,"rendel":1433,"tavaly":1434,"elh":1435,"##okkal":1436,"##újt":1437,"##mér":1438,"##tal":1439,"##arát":1440,"során":1441,"##ess":1442,"##egyed":1443,"any":1444,"szemben":1445,"##ter":1446,"##jt":1447,"reg":1448,"vas":1449,"##eztet":1450,"##iség":1451,"2022":1452,"érint":1453,"##esült":1454,"##üntet":1455,"csökkent":1456,"körny":1457,"megv":1458,"hazai":1459,"##almas":1460,"fejleszt":1461,"12":1462,"##atlan":1463,"##anyag":1464,"##éről":1465,"néz":1466,"teljes":1467,"##uty":1468,"újra":1469,"##ex":1470,"dolgoz":1471,"##ull":1472,"##előtt":1473,"részt":1474,"bizton":1475,"##súly":1476,"En":1477,"##tor":1478,"amelyek":1479,"##chn":1480,"##közi":1481,"legy":1482,"##oknak":1483,"alapján":1484,"##all":1485,"##ism":1486,"De":1487,"idén":1488,"Er":1489,"jegy":1490,"##vétel":1491,"folyamat":1492,"perc":1493,"##ck":1494,"bef":1495,"Szer":1496,"##egyv":1497,"##izsgál":1498,"##uár":1499,"elér":1500,"##urópai":1501,"Ny":1502,"szav":1503,"##ris":1504,"infl":1505,"időszak":1506,"vel":1507,"##ékoz":1508,"európai":1509,"másik":1510,"##ói":1511,"felt":1512,"figyelm":1513,"nép":1514,"uta":1515,"autó":1516,"##eit":1517,"fizet":1518,"##jában":1519,"találkoz":1520,"gyerek":1521,"##von":1522,"##őbb":1523,"##nn":1524,"##ekre":1525,"kín":1526,"##pr":1527,"##ánt":1528,"##ésre":1529,"forg":1530,"vásár":1531,"##itk":1532,"gyors":1533,"30":1534,"víz":1535,"közül":1536,"Al":1537,"##cia":1538,"újabb":1539,"##itel":1540,"##ogyaszt":1541,"##öt":1542,"fok":1543,"egyre":1544,"kam":1545,"oszt":1546,"##ord":1547,"##zal":1548,"##ment":1549,"egym":1550,"##állítás":1551,"hatás":1552,"##ója":1553,"##ájékoz":1554,"##acs":1555,"##ilm":1556,"kereszt":1557,"##ics":1558,"##ekint":1559,"adat":1560,"Meg":1561,"ál":1562,"Budapest":1563,"##etem":1564,"tűz":1565,"##író":1566,"##csak":1567,"18":1568,"elv":1569,"játsz":1570,"emlék":1571,"folytat":1572,"moz":1573,"készül":1574,"került":1575,"lenne":1576,"Ukrajn":1577,"jut":1578,"adott":1579,"önk":1580,"##ációs":1581,"beteg":1582,"##ay":1583,"##bban":1584,"energia":1585,"negyed":1586,"##jai":1587,"dr":1588,"hason":1589,"##zék":1590,"ezzel":1591,"kellett":1592,"##ti":1593,"harmad":1594,"##ején":1595,"##eknek":1596,"elt":1597,"##óság":1598,"##rec":1599,"##erős":1600,"##írus":1601,"átlag":1602,"szolgált":1603,"utol":1604,"további":1605,"##ern":1606,"##gyel":1607,"Európai":1608,"míg":1609,"##ub":1610,"tervez":1611,"hivatal":1612,"rendelkez":1613,"##ón":1614,"egyéb":1615,"##ütört":1616,"##ütörtök":1617,"tesz":1618,"kösz":1619,"Már":1620,"##pl":1621,"##eset":1622,"dollár":1623,"Em":1624,"##ottság":1625,"##inak":1626,"##ulajd":1627,"voltak":1628,"##blém":1629,"##kot":1630,"tett":1631,"##mal":1632,"##ral":1633,"##di":1634,"##kész":1635,"megold":1636,"##ulajdon":1637,"megfel":1638,"föld":1639,"néhány":1640,"piac":1641,"gyakor":1642,"##hatnak":1643,"ám":1644,"kih":1645,"támogat":1646,"tölt":1647,"##elen":1648,"pént":1649,"semm":1650,"##lott":1651,"szél":1652,"##ezni":1653,"##omán":1654,"##rat":1655,"##okon":1656,"##aság":1657,"##róbál":1658,"növeked":1659,"25":1660,"##eség":1661,"megk":1662,"##ákat":1663,"##évő":1664,"továbbra":1665,"szervezet":1666,"követően":1667,"kl":1668,"ön":1669,"Nemzet":1670,"csat":1671,"elmondta":1672,"szükség":1673,"teljesít":1674,"problém":1675,"##ították":1676,"had":1677,"##ánk":1678,"##ásokat":1679,"halál":1680,"##vas":1681,"győz":1682,"termék":1683,"lég":1684,"##zi":1685,"##ong":1686,"##ür":1687,"11":1688,"mik":1689,"munka":1690,"polg":1691,"##leges":1692,"##ha":1693,"közt":1694,"##des":1695,"##erő":1696,"ber":1697,"kid":1698,"Ukrajna":1699,"veszély":1700,"##ukat":1701,"ennek":1702,"szület":1703,"##azd":1704,"tárgy":1705,"aut":1706,"##nnep":1707,"##ókat":1708,"milyen":1709,"azzal":1710,"##eget":1711,"súly":1712,"##ika":1713,"megáll":1714,"függ":1715,"raj":1716,"##áló":1717,"##ark":1718,"gazdasági":1719,"tekint":1720,"##ormány":1721,"nehéz":1722,"képviselő":1723,"##nny":1724,"##ítása":1725,"alkalmaz":1726,"Áll":1727,"Azt":1728,"mivel":1729,"belül":1730,"13":1731,"##ih":1732,"##atív":1733,"szen":1734,"##mel":1735,"##uló":1736,"##jegy":1737,"rendez":1738,"tette":1739,"test":1740,"##rel":1741,"szeretn":1742,"ink":1743,"csoport":1744,"ismert":1745,"korábbi":1746,"##endég":1747,"kapott":1748,"##uház":1749,"##olni":1750,"elég":1751,"##vezető":1752,"szabály":1753,"eszköz":1754,"##lás":1755,"szül":1756,"ezek":1757,"14":1758,"ünnep":1759,"##akat":1760,"##akkor":1761,"##lés":1762,"##alt":1763,"##orv":1764,"elfog":1765,"következő":1766,"kór":1767,"##őzés":1768,"##ete":1769,"##árnap":1770,"alá":1771,"Egyesült":1772,"uni":1773,"bejelent":1774,"komoly":1775,"költség":1776,"igény":1777,"otthon":1778,"##ítja":1779,"csütörtök":1780,"képest":1781,"sport":1782,"##ept":1783,"iskol":1784,"##éhez":1785,"##bán":1786,"szank":1787,"felad":1788,"##szik":1789,"##áját":1790,"őket":1791,"##ánd":1792,"inkább":1793,"##gal":1794,"eng":1795,"teh":1796,"##ítette":1797,"inform":1798,"barát":1799,"tal":1800,"##ánc":1801,"felel":1802,"##műv":1803,"##ene":1804,"azok":1805,"erő":1806,"16":1807,"bajnok":1808,"emberek":1809,"im":1810,"helyi":1811,"tulajdon":1812,"##of":1813,"##talan":1814,"könny":1815,"vide":1816,"megfelelő":1817,"vendég":1818,"miniszterelnök":1819,"utolsó":1820,"Mint":1821,"##itt":1822,"különb":1823,"tíz":1824,"##ános":1825,"##amar":1826,"egyes":1827,"lap":1828,"oldal":1829,"fordul":1830,"Magyarországon":1831,"kat":1832,"##átt":1833,"száma":1834,"##ári":1835,"magát":1836,"2021":1837,"##uh":1838,"##ús":1839,"koron":1840,"aján":1841,"bár":1842,"##éssel":1843,"##olc":1844,"változ":1845,"##követ":1846,"di":1847,"fenn":1848,"##jobb":1849,"##ésére":1850,"as":1851,"rossz":1852,"utc":1853,"##ormányz":1854,"üzlet":1855,"foglalkoz":1856,"##oldal":1857,"zár":1858,"sikerült":1859,"##ron":1860,"hasonló":1861,"##élet":1862,"helyszín":1863,"##álat":1864,"ellát":1865,"##ságot":1866,"fogyaszt":1867,"elem":1868,"##assz":1869,"várható":1870,"els":1871,"köt":1872,"mintegy":1873,"##gyű":1874,"Ar":1875,"part":1876,"épít":1877,"Orbán":1878,"##ármester":1879,"##sér":1880,"techn":1881,"##gr":1882,"megb":1883,"köszön":1884,"hát":1885,"##sék":1886,"energi":1887,"nyilván":1888,"harmadik":1889,"ismét":1890,"Péter":1891,"##nai":1892,"##öm":1893,"##óta":1894,"Ki":1895,"édes":1896,"legjobb":1897,"cím":1898,"fegyv":1899,"tájékoz":1900,"vizsgál":1901,"érdekében":1902,"##előre":1903,"infláció":1904,"szív":1905,"##lam":1906,"##úg":1907,"##ellem":1908,"##őket":1909,"tűn":1910,"##érium":1911,"legal":1912,"enged":1913,"##haj":1914,"szomb":1915,"##ották":1916,"nemzetközi":1917,"mérték":1918,"##usban":1919,"##ka":1920,"szervez":1921,"##szab":1922,"lány":1923,"##jon":1924,"##ektet":1925,"##iskol":1926,"hiány":1927,"segítség":1928,"bűn":1929,"neki":1930,"utó":1931,"##rás":1932,"lévő":1933,"válasz":1934,"szavaz":1935,"számít":1936,"##eteg":1937,"##ügymin":1938,"mérk":1939,"hív":1940,"állap":1941,"esemény":1942,"fogalmaz":1943,"Állam":1944,"##jának":1945,"##ezt":1946,"##utatás":1947,"hétfő":1948,"bank":1949,"érdem":1950,"ára":1951,"##úcs":1952,"elleni":1953,"később":1954,"szerző":1955,"##izt":1956,"erre":1957,"##aszn":1958,"kórház":1959,"##hetnek":1960,"##ehér":1961,"vasárnap":1962,"##inál":1963,"##ist":1964,"zs":1965,"##ógy":1966,"##okra":1967,"hol":1968,"közösségi":1969,"törvény":1970,"évben":1971,"##üket":1972,"##nem":1973,"200":1974,"épület":1975,"nyit":1976,"egészség":1977,"uniós":1978,"kik":1979,"##ista":1980,"##nia":1981,"ismer":1982,"tap":1983,"##iában":1984,"##rom":1985,"##SZ":1986,"##lov":1987,"##ens":1988,"párt":1989,"évvel":1990,"##úr":1991,"hosszú":1992,"éve":1993,"MT":1994,"Puty":1995,"##mények":1996,"természet":1997,"önkormányz":1998,"mit":1999,"vállalkoz":2000,"mod":2001,"##ock":2002,").":2003,"17":2004,"##ségek":2005,"##abd":2006,"című":2007,"ap":2008,"német":2009,"##szolg":2010,"Ist":2011,"##nyv":2012,"##ovember":2013,"helyett":2014,"##asztal":2015,"##lak":2016,"##tag":2017,"tanul":2018,"##öző":2019,"létre":2020,"járvány":2021,"vád":2022,"##áig":2023,"##adásul":2024,"##színű":2025,"közlemény":2026,"##erj":2027,"miután":2028,"megállap":2029,"##átette":2030,"sokkal":2031,"szintén":2032,"Vik":2033,"##áp":2034,"##ékeny":2035,"##ozta":2036,"amelyet":2037,"##hetően":2038,"kí":2039,"##kívül":2040,"lev":2041,"##földi":2042,"##edett":2043,"végül":2044,"üt":2045,"##özben":2046,"teljesen":2047,"nyilatkoz":2048,"fert":2049,"film":2050,"##avírus":2051,"##olta":2052,"##bert":2053,"##enet":2054,"jelentette":2055,"##övid":2056,"ukraj":2057,"ellenére":2058,"ukrajnai":2059,"##lin":2060,"képes":2061,"##kkor":2062,"##éseket":2063,"##elmiszer":2064,"keresztül":2065,"Ezt":2066,"24":2067,"##lik":2068,"üzem":2069,"nőtt":2070,"tem":2071,"biztonság":2072,"Putyin":2073,"múlt":2074,"előre":2075,"kisebb":2076,"##ásban":2077,"lel":2078,"án":2079,"##foly":2080,"##ébe":2081,"##hetetlen":2082,"),":2083,"##isztérium":2084,"környezet":2085,"##eptember":2086,"abban":2087,"##elni":2088,"##áltak":2089,"összeg":2090,"koronavírus":2091,"része":2092,"játékos":2093,"50":2094,"bőv":2095,"mell":2096,"##mond":2097,"áld":2098,"közép":2099,"dec":2100,"sp":2101,"##jából":2102,"számos":2103,"##fit":2104,"##szor":2105,"##riss":2106,"gól":2107,"megl":2108,"##encs":2109,"##heti":2110,"sér":2111,"tény":2112,"gyárt":2113,"form":2114,"intézked":2115,"”.":2116,"szig":2117,"települ":2118,"##nyire":2119,"rak":2120,"vez":2121,"este":2122,"2020":2123,"##tóber":2124,"oldalán":2125,"reggel":2126,"felelős":2127,"##ászló":2128,"Bal":2129,"##meg":2130,"helyen":2131,"##ait":2132,"végén":2133,"legyen":2134,"ex":2135,"küz":2136,"##áros":2137,"##ezték":2138,"szerd":2139,"élelmiszer":2140,"Mar":2141,"##engyel":2142,"végre":2143,"állt":2144,"##ától":2145,"##per":2146,"##nyit":2147,"héten":2148,"##telen":2149,"gép":2150,"##adt":2151,"éppen":2152,"javas":2153,"##ettel":2154,"##országi":2155,"fot":2156,"baleset":2157,"##ői":2158,"nyújt":2159,"vállalat":2160,"gazdaság":2161,"kapcsolatban":2162,"vonatkoz":2163,"november":2164,"##től":2165,"##átor":2166,"részlet":2167,"december":2168,"##díj":2169,"Ennek":2170,"het":2171,"##hogy":2172,"olaj":2173,"100":2174,"fin":2175,"olt":2176,"##ására":2177,"##iaci":2178,"anyag":2179,"utaz":2180,"legalább":2181,"kötel":2182,"ide":2183,"fogad":2184,"##uguszt":2185,"től":2186,"##get":2187,"hall":2188,"felhasznál":2189,"közleked":2190,"nyert":2191,"##ejt":2192,"ebben":2193,"##üt":2194,"##ized":2195,"katonai":2196,"egyébként":2197,"Fer":2198,"##af":2199,"##pal":2200,"szor":2201,"MTI":2202,"##den":2203,"##ilis":2204,"##igaz":2205,"bem":2206,"kívül":2207,"##öbb":2208,"évek":2209,"százaléka":2210,"Európa":2211,"érkezett":2212,"hangsúly":2213,"##acsony":2214,"##ékony":2215,"csökken":2216,"tárgyal":2217,"40":2218,"menek":2219,"##ion":2220,"##elek":2221,"szép":2222,"##álták":2223,"arány":2224,"##mag":2225,"felé":2226,"műsor":2227,"EU":2228,"észak":2229,"szövet":2230,"legf":2231,"keret":2232,"keresked":2233,"veszt":2234,"ének":2235,"egyelőre":2236,"Br":2237,"írta":2238,"legtö":2239,"bér":2240,"rendőrség":2241,"Kr":2242,"rövid":2243,"##ítő":2244,"szakember":2245,"And":2246,"előző":2247,"írja":2248,"beszélt":2249,"Most":2250,"esetében":2251,"szükséges":2252,"NA":2253,"##utt":2254,"##enger":2255,"##ágy":2256,"szeptember":2257,"mindenki":2258,"szenv":2259,"pill":2260,"álló":2261,"##lament":2262,"##örgy":2263,"hatóság":2264,"szolgáltatás":2265,"súlyos":2266,"##rd":2267,"egyen":2268,"gyű":2269,"kezdő":2270,"Viktor":2271,"##őleg":2272,"orv":2273,"##rancia":2274,"Deb":2275,"kény":2276,"##ört":2277,"##ezs":2278,"##adék":2279,"##ulás":2280,"kir":2281,"ezen":2282,"##endő":2283,"először":2284,"próbál":2285,"##jét":2286,"##íts":2287,"##csap":2288,"kevesebb":2289,"##ogatott":2290,"brit":2291,"terv":2292,"vagyok":2293,"október":2294,"délután":2295,"##városi":2296,"##eccs":2297,"forintot":2298,"ahogy":2299,"##énk":2300,"##két":2301,"elnöke":2302,"fogalmazott":2303,"kialak":2304,"##hatja":2305,"harc":2306,"hitel":2307,"##íteni":2308,"esetben":2309,"##gatlan":2310,"valószínű":2311,"polgármester":2312,"fut":2313,"##ebr":2314,"utóbbi":2315,"Zs":2316,"haszn":2317,"hogyan":2318,"St":2319,"##övel":2320,"##sze":2321,"Debrec":2322,"szinte":2323,"konc":2324,"##védelmi":2325,"##polg":2326,"##ereg":2327,"##határ":2328,"Ugyan":2329,"tev":2330,"##éből":2331,"szok":2332,"kéz":2333,"megm":2334,"##itás":2335,"##ünet":2336,"drág":2337,"##úttal":2338,"akt":2339,"ford":2340,"ugyanakkor":2341,"##ológiai":2342,"kiemel":2343,"megyei":2344,"idei":2345,"##országban":2346,"azonnal":2347,"szakért":2348,"##efon":2349,"László":2350,"zaj":2351,"nyolc":2352,"támad":2353,"Nemzeti":2354,"tehát":2355,"##őben":2356,"##land":2357,"olvas":2358,"beruház":2359,"##orban":2360,"##nyiség":2361,"##gép":2362,"alkot":2363,"bék":2364,"##zése":2365,"poz":2366,"##ője":2367,"vet":2368,"##ítják":2369,"kifej":2370,"orvos":2371,"auguszt":2372,"##úsz":2373,"##he":2374,"elején":2375,"idej":2376,"repül":2377,"##űt":2378,"##álni":2379,"rendkívül":2380,"szakm":2381,"21":2382,"hál":2383,"ezelőtt":2384,"szankciók":2385,"ip":2386,"pénteken":2387,"bárm":2388,"kív":2389,"írt":2390,"Úgy":2391,"##gazda":2392,"##oha":2393,"kevés":2394,"egyszer":2395,"##omag":2396,"hamar":2397,"egyszerű":2398,"##óban":2399,"viszony":2400,"##ismer":2401,"##fizet":2402,"korlát":2403,"##úli":2404,"siker":2405,"mérkőzés":2406,"##ebruár":2407,"tevékeny":2408,"benne":2409,"díj":2410,"fr":2411,"eljár":2412,"közben":2413,"##attal":2414,"bele":2415,"politikai":2416,"vele":2417,"Hozz":2418,"##érte":2419,"gyan":2420,"áram":2421,"##ációk":2422,"##ner":2423,"érdemes":2424,"tapasztal":2425,"hon":2426,"##tunk":2427,"##szk":2428,"rendőrök":2429,"bíró":2430,"##hi":2431,"##ulat":2432,"intézmény":2433,"Minden":2434,"megjel":2435,"Szab":2436,"##ekv":2437,"##rod":2438,"történet":2439,"Bár":2440,"óra":2441,"cik":2442,"éj":2443,"egyed":2444,"##almi":2445,"kedv":2446,"fenntart":2447,"gyógy":2448,"miközben":2449,"István":2450,"##uta":2451,"iz":2452,"ingatlan":2453,"tenger":2454,"##uz":2455,"##arab":2456,"egyetlen":2457,"növel":2458,"##tized":2459,"##vég":2460,"##elte":2461,"mozg":2462,"csütörtökön":2463,"rem":2464,"tudja":2465,"részvény":2466,"döntött":2467,"##ilag":2468,"##izen":2469,"##ultak":2470,"tanács":2471,"folyamatosan":2472,"Ferenc":2473,"őr":2474,"##hhez":2475,"##rag":2476,"mindent":2477,"##atták":2478,"gazd":2479,"on":2480,"kics":2481,"közvet":2482,"érdeklő":2483,"Ezek":2484,"proj":2485,"politikus":2486,"##ím":2487,"##össz":2488,"##ítottak":2489,"##gyek":2490,"##anuár":2491,"##ina":2492,"annyi":2493,"at":2494,"##itány":2495,"alkalom":2496,"jobban":2497,"pillan":2498,"sokat":2499,"##enz":2500,"elkövet":2501,"kísér":2502,"bor":2503,"hav":2504,"##írt":2505,"nemcsak":2506,"##őként":2507,"tartott":2508,"maga":2509,"fal":2510,"labd":2511,"##ennyi":2512,"adatok":2513,"Több":2514,"##ítvány":2515,"##kori":2516,"legtöbb":2517,"##enci":2518,"##ontosabb":2519,"igazgat":2520,"meccs":2521,"##ileg":2522,"különböző":2523,"felv":2524,"hatalmas":2525,"##jára":2526,"##ow":2527,"évtized":2528,"##folyam":2529,"pl":2530,"##ültek":2531,"gyeng":2532,"##ügyminiszter":2533,"Kis":2534,"látható":2535,"jelenlegi":2536,"befektet":2537,"kr":2538,"elekt":2539,"nyí":2540,"márci":2541,"##kezd":2542,"ellenőr":2543,"##műkö":2544,"kedvez":2545,"színész":2546,"22":2547,"Német":2548,"alacsony":2549,"jelentkez":2550,"##ódott":2551,"különös":2552,"állapot":2553,"Uni":2554,"jött":2555,"kett":2556,"##mun":2557,"amelynek":2558,"mennyiség":2559,"módon":2560,"##vonal":2561,"kamat":2562,"##ib":2563,"##né":2564,"##nev":2565,"##ox":2566,"hő":2567,"Így":2568,"##oszk":2569,"Biz":2570,"dí":2571,"##ésével":2572,"terj":2573,"##ácsony":2574,"hagyomány":2575,"friss":2576,"vezetője":2577,"magasabb":2578,"oda":2579,"##kap":2580,"##har":2581,"##éves":2582,"##íti":2583,"23":2584,"február":2585,"máj":2586,"román":2587,"vit":2588,"##óg":2589,"##keres":2590,"##árak":2591,"##álló":2592,"##atos":2593,"##ésben":2594,"élő":2595,"készült":2596,"hétfőn":2597,"Mik":2598,"##lép":2599,"##szint":2600,"közep":2601,"beszám":2602,"szerdán":2603,"##ese":2604,"megerős":2605,"##nie":2606,"kérd":2607,"##str":2608,"kilom":2609,"kíván":2610,"mező":2611,"ról":2612,"##szerzés":2613,"állami":2614,"kutatás":2615,"##íció":2616,"##gaz":2617,"##ozni":2618,"##hatatlan":2619,"szempont":2620,"Ország":2621,"valak":2622,"szóló":2623,"##prilis":2624,"##elv":2625,"##ásával":2626,"##eztek":2627,"aztán":2628,"igen":2629,"vill":2630,"##olaj":2631,"előny":2632,"jellem":2633,"mély":2634,"rezs":2635,"##alap":2636,"##orn":2637,"érvény":2638,"visszat":2639,"##eként":2640,"parlament":2641,"küzd":2642,"port":2643,"És":2644,"##si":2645,"##lom":2646,"##úni":2647,"##ésének":2648,"elérhető":2649,"január":2650,"##éig":2651,"többi":2652,"##lovák":2653,"megjelen":2654,"összesen":2655,"együttműkö":2656,"##zik":2657,"##eleg":2658,"közötti":2659,"nehez":2660,"figyelmet":2661,"zen":2662,"##eik":2663,"##oci":2664,"indul":2665,"mai":2666,"##érd":2667,"napon":2668,"2023":2669,"kormányz":2670,"kedden":2671,"##line":2672,"Sok":2673,"bír":2674,"##áson":2675,"##ebo":2676,"régió":2677,"király":2678,"##una":2679,"válogatott":2680,"forintos":2681,"fény":2682,"##bizt":2683,"esetén":2684,"##jával":2685,"##árul":2686,"##álaszt":2687,"tudni":2688,"vagyunk":2689,"sorozat":2690,"pályáz":2691,"augusztus":2692,"\".":2693,"##ah":2694,"##onban":2695,"##bank":2696,"##éli":2697,"felett":2698,"##fordul":2699,"független":2700,"##íp":2701,"##uny":2702,"##olja":2703,"##hetik":2704,"édesany":2705,"##ockáz":2706,"Ol":2707,"vett":2708,"##észeti":2709,"támadás":2710,"sokan":2711,"ráadásul":2712,"Kor":2713,"rek":2714,"ít":2715,"##tuk":2716,"##arg":2717,"##igit":2718,"tudják":2719,"##ájuk":2720,"Rend":2721,"##TO":2722,"szom":2723,"##adott":2724,"jármű":2725,"kiderült":2726,"büntet":2727,"##elj":2728,"hib":2729,"született":2730,"diák":2731,"megállapod":2732,"bemutat":2733,"igyek":2734,"piaci":2735,"##ecs":2736,"feleség":2737,"##nos":2738,"években":2739,"lakosság":2740,"csatlak":2741,"Fac":2742,"hull":2743,"sen":2744,"tizen":2745,"ész":2746,"##sd":2747,"##esek":2748,"idős":2749,"##ódik":2750,"feltétel":2751,"őt":2752,"##uc":2753,"##élt":2754,"##ségét":2755,"akad":2756,"##róf":2757,"adó":2758,"let":2759,"##uális":2760,"##függ":2761,"##akt":2762,"agg":2763,"óv":2764,"##mus":2765,"kult":2766,"##janak":2767,"központ":2768,"eml":2769,"##féle":2770,"tűnik":2771,"til":2772,"##szki":2773,"##imp":2774,"##imir":2775,"##lap":2776,"##vá":2777,"##ató":2778,"fejlő":2779,"valami":2780,"működ":2781,"bi":2782,"mög":2783,"zöld":2784,"##son":2785,"##tr":2786,"azóta":2787,"##ozik":2788,"kapcs":2789,"rakét":2790,"júli":2791,"kár":2792,"##gáz":2793,"##arúg":2794,"##ázs":2795,"##hatunk":2796,"##ítási":2797,"semmi":2798,"##engeteg":2799,"hivatalos":2800,"ők":2801,"##bajnok":2802,"számolt":2803,"legfontosabb":2804,"Facebo":2805,"##rész":2806,"##elmet":2807,"##ármaz":2808,"alakul":2809,"Bar":2810,"pr":2811,"tet":2812,"##állt":2813,"##ősorban":2814,"Kín":2815,"látt":2816,"##egnap":2817,"##ratég":2818,"vonatkozó":2819,"Bizottság":2820,"##bből":2821,"köszönhetően":2822,"szombaton":2823,"ég":2824,"többet":2825,"addig":2826,"jelenti":2827,"##ivil":2828,"munkat":2829,"rendezvény":2830,"27":2831,"##enes":2832,"műv":2833,"##nőtt":2834,"bek":2835,"teszt":2836,"##viv":2837,"elkép":2838,"##ente":2839,"többször":2840,"Le":2841,"med":2842,"ra":2843,"egyetem":2844,"##oldog":2845,"kockáz":2846,"##ikt":2847,"mégis":2848,"Egyetem":2849,"kapcsolatos":2850,"35":2851,"feny":2852,"Új":2853,"április":2854,"##lob":2855,"##erc":2856,"azaz":2857,"##aként":2858,"##óknak":2859,"indult":2860,"##őzött":2861,"emelkedett":2862,"tűzolt":2863,"köztük":2864,"Bank":2865,"íg":2866,"##űr":2867,"csúcs":2868,"lem":2869,"##ián":2870,"##elik":2871,"lehetett":2872,"külföldi":2873,"távol":2874,"alig":2875,"##ocsát":2876,"település":2877,"##szi":2878,"##osabb":2879,"arany":2880,"##upán":2881,"térség":2882,"örök":2883,"irán":2884,"##vált":2885,"életét":2886,"társaság":2887,"júni":2888,"talán":2889,"##sa":2890,"árak":2891,"kínai":2892,"kal":2893,"##tató":2894,"döntés":2895,"Bors":2896,"tur":2897,"##eum":2898,"##akar":2899,"##hatják":2900,"hétvég":2901,"baloldal":2902,"online":2903,"méd":2904,"##za":2905,"##ver":2906,"##erem":2907,"##ülés":2908,"##sága":2909,"##idesz":2910,"maradt":2911,"Hozzátette":2912,"lez":2913,"mes":2914,"megs":2915,"forr":2916,"küld":2917,"##ársa":2918,"Államok":2919,"kapcsán":2920,"Zrt":2921,"lakás":2922,"kelet":2923,"##már":2924,"##pály":2925,"elk":2926,"##izál":2927,"vagyis":2928,"ahhoz":2929,"##obil":2930,"célja":2931,"értelm":2932,"szolgál":2933,"##jev":2934,"##eleti":2935,"érintett":2936,"gyakorlat":2937,"meglep":2938,"lenni":2939,"nál":2940,"sőt":2941,"##ft":2942,"származ":2943,"##ázis":2944,"azonos":2945,"##áris":2946,"telefon":2947,"társad":2948,"eszközök":2949,"NATO":2950,"##dönt":2951,"megny":2952,"##éteres":2953,"##ereség":2954,"Ed":2955,"Román":2956,"hid":2957,"##olás":2958,"Ezzel":2959,"##házi":2960,"lakos":2961,"található":2962,"vezér":2963,"digit":2964,"fehér":2965,"##elmű":2966,"árfolyam":2967,"feladat":2968,"János":2969,"föl":2970,"##ái":2971,"szék":2972,"kihív":2973,"elsősorban":2974,"Két":2975,"lass":2976,"vér":2977,"##pány":2978,"##elők":2979,"##állam":2980,"kutat":2981,"##mill":2982,"##li":2983,"esély":2984,"időszakban":2985,"költségvet":2986,"tulajdonos":2987,"darab":2988,"##áért":2989,"##kos":2990,"##csoport":2991,"csupán":2992,"erők":2993,"##ung":2994,"pénzügyi":2995,"##beli":2996,"26":2997,"civil":2998,"poszt":2999,"sta":3000,"Szent":3001,"kellene":3002,"ellenzék":3003,"##pár":3004,"##vállal":3005,"##ikat":3006,"##ítése":3007,"##rad":3008,"végzett":3009,"nemzeti":3010,"énekes":3011,"magán":3012,"##össze":3013,"##ná":3014,"##eink":3015,"többek":3016,"lesznek":3017,"alkalommal":3018,"##avar":3019,"##helyi":3020,"teljesítmény":3021,"labdarúg":3022,"##rég":3023,"##jj":3024,"közz":3025,"##almat":3026,"világbajnok":3027,"stratég":3028,"osztály":3029,"##óm":3030,"##jen":3031,"##jut":3032,"##ivál":3033,"egészségügyi":3034,"hangsúlyozta":3035,"dob":3036,"##lány":3037,"##étől":3038,"kiz":3039,"nyugati":3040,"##ismert":3041,"##ándor":3042,"március":3043,"fiz":3044,"várt":3045,"zárt":3046,"óri":3047,"##lét":3048,"szerencs":3049,"##kör":3050,"válság":3051,"Ak":3052,"Att":3053,"francia":3054,"##var":3055,"védelmi":3056,"Nagyon":3057,"töltött":3058,"fegyver":3059,"budapest":3060,"járt":3061,"##fer":3062,"főváros":3063,"Központ":3064,"projekt":3065,"28":3066,"##org":3067,"megp":3068,"bevezet":3069,"miért":3070,"##ájában":3071,"üzemanyag":3072,"budapesti":3073,"60":3074,"##eged":3075,"##ítva":3076,"tudott":3077,"##őzsd":3078,"Ma":3079,"Moszk":3080,"jön":3081,"##esül":3082,"##ila":3083,"csomag":3084,"##ódó":3085,"kezdemény":3086,"hatóságok":3087,"gyűjt":3088,"##pt":3089,"##ce":3090,"##éki":3091,"##ogatás":3092,"jelölt":3093,"egészen":3094,"oktatás":3095,"régi":3096,"biztonsági":3097,"valaki":3098,"név":3099,"os":3100,"##óval":3101,"##bel":3102,"azokat":3103,"ezeket":3104,"becs":3105,"##értelmű":3106,"##ései":3107,"napokban":3108,"oroszok":3109,"nyugdíj":3110,"működés":3111,"##mérsék":3112,"Fel":3113,"tém":3114,"##éri":3115,"megelő":3116,"##csi":3117,"##hetett":3118,"rengeteg":3119,"##ezz":3120,"egykori":3121,"ezúttal":3122,"kampány":3123,"modell":3124,"Ne":3125,"agr":3126,"##ású":3127,"megval":3128,"##ellát":3129,"##ítást":3130,"szerepel":3131,"tagja":3132,"karácsony":3133,"jutott":3134,"tegnap":3135,"##ezik":3136,"##ólag":3137,"##ukt":3138,"nappal":3139,"jelentősen":3140,"Kar":3141,"kont":3142,"lengyel":3143,"##la":3144,"szár":3145,"##inte":3146,"feld":3147,"közé":3148,"##ünket":3149,"technológ":3150,"megvalós":3151,"boldog":3152,"##óra":3153,"##ásnak":3154,"##eznek":3155,"##ényeg":3156,"##unkat":3157,"napi":3158,"népszerű":3159,"betegség":3160,"különösen":3161,"baj":3162,"##bil":3163,"##orú":3164,"##ezer":3165,"##apír":3166,"##oltak":3167,"alk":3168,"deb":3169,"állás":3170,"##tatta":3171,"országban":3172,"igazán":3173,"forgalom":3174,"##mérséklet":3175,"Val":3176,"húz":3177,"##etet":3178,"##szem":3179,"szez":3180,"megjelent":3181,"##adta":3182,"időt":3183,"##ekvő":3184,"Még":3185,"vegy":3186,"minél":3187,"országok":3188,"##orvát":3189,"II":3190,"glob":3191,"##sereg":3192,"##olog":3193,"felnőtt":3194,"kim":3195,"akinek":3196,"##ast":3197,"##álisan":3198,"199":3199,"Ch":3200,"Tam":3201,"koll":3202,"rög":3203,"”,":3204,"##tette":3205,"##ca":3206,"##agóg":3207,"##evő":3208,"összes":3209,"##iós":3210,"##nökség":3211,"persze":3212,"nevű":3213,"##ocsi":3214,"fertőzött":3215,"seb":3216,"##etett":3217,"tartóz":3218,"mostani":3219,"együttes":3220,"##romos":3221,"ideig":3222,".”":3223,"Miskol":3224,"dok":3225,"soha":3226,"esett":3227,"tudjuk":3228,"fogja":3229,"hatékony":3230,"##osztály":3231,"szenved":3232,"##ípus":3233,"Kár":3234,"Sp":3235,"Zolt":3236,"##érkez":3237,"##ítását":3238,"pontosan":3239,"##eztetett":3240,"május":3241,"mot":3242,"tenni":3243,"##iát":3244,"##üssz":3245,"##kit":3246,"##nyal":3247,"magyaráz":3248,"felhív":3249,"hajt":3250,"Mivel":3251,"teszi":3252,"##igazgat":3253,"31":3254,"##zott":3255,"##őd":3256,"csod":3257,"idején":3258,"országos":3259,"szerződés":3260,"szakmai":3261,"Ad":3262,"Kir":3263,"élt":3264,"##rá":3265,"##van":3266,"##vásár":3267,"##ásának":3268,"meghatár":3269,"kijelent":3270,"##játék":3271,"2019":3272,"-,":3273,"eny":3274,"##észség":3275,"##ózs":3276,"családi":3277,"engedély":3278,"áldoz":3279,"vi":3280,"##rál":3281,"##einek":3282,"##őknek":3283,"százalékát":3284,"szakasz":3285,"##ökkent":3286,"önkormányzat":3287,"cikk":3288,"pillanat":3289,"%-":3290,"löv":3291,"##ma":3292,"##jas":3293,"folyam":3294,"cégek":3295,"róla":3296,"mögött":3297,"múl":3298,"##tad":3299,"cser":3300,"szinten":3301,"földgáz":3302,"jellemző":3303,"##száz":3304,"##akció":3305,"##ttól":3306,"ell":3307,"##ákkal":3308,"helyre":3309,"női":3310,"vélemény":3311,"utas":3312,"ideje":3313,"hálóz":3314,"Bor":3315,"konfl":3316,"konflikt":3317,"egyértelmű":3318,"minőség":3319,"sikeres":3320,"tehet":3321,"befoly":3322,"mértékben":3323,"##gazdasági":3324,"egyedül":3325,"vad":3326,"##zó":3327,"##ancs":3328,"##árok":3329,"##áns":3330,"##itív":3331,"felvétel":3332,"gyak":3333,"##lenül":3334,"ideg":3335,"legutó":3336,"részét":3337,"időben":3338,"reag":3339,"környék":3340,"elektromos":3341,"##unyt":3342,"##rét":3343,"##anács":3344,"felkész":3345,"mindössze":3346,"éjszak":3347,"Zoltán":3348,"Gerg":3349,"ehhez":3350,"##oss":3351,"felmér":3352,"kislány":3353,"29":3354,"Ber":3355,"információ":3356,"Duna":3357,"##oc":3358,"közön":3359,"idéz":3360,"##közben":3361,"##ővé":3362,"Min":3363,"##jön":3364,"##ansz":3365,"##entum":3366,"##szervezet":3367,"nyár":3368,"erősö":3369,"Debrecen":3370,"##ekről":3371,"##inc":3372,"megn":3373,"##élte":3374,"hird":3375,"csaknem":3376,"##andó":3377,"figyelem":3378,"##oft":3379,"##ker":3380,"elé":3381,"##ársaság":3382,"bíróság":3383,"##oni":3384,"##egór":3385,"Ezért":3386,"kommun":3387,"érkezik":3388,"segítségével":3389,"kilométer":3390,"##piac":3391,"##ener":3392,"##regy":3393,"felül":3394,"akció":3395,"utal":3396,"tudnak":3397,"##abban":3398,"##forg":3399,"Európában":3400,"##rendszer":3401,"jövőben":3402,"##magas":3403,"##itányság":3404,"lényeg":3405,"##éve":3406,"##akoz":3407,"gyorsan":3408,"természetesen":3409,"senki":3410,"bíz":3411,"##onn":3412,"érzék":3413,"végig":3414,"telep":3415,"##ivatal":3416,"július":3417,"80":3418,"Megy":3419,"Tovább":3420,"##hess":3421,"##edik":3422,"erről":3423,"##asztróf":3424,"férfit":3425,"##hajt":3426,"havi":3427,"Facebook":3428,"lő":3429,"##részt":3430,"##titk":3431,"##éért":3432,"##intéz":3433,"érte":3434,"##esztivál":3435,"tartja":3436,"##inkább":3437,"péntek":3438,"várhatóan":3439,"keretében":3440,"terjed":3441,"##agógus":3442,"fáj":3443,"##vét":3444,"##20":3445,"##széd":3446,"##emelt":3447,"##éni":3448,"minim":3449,"sajtó":3450,"benz":3451,"Mol":3452,"##úra":3453,"könyv":3454,"##olták":3455,"bevétel":3456,"kilenc":3457,"Budapesten":3458,"hadsereg":3459,"globális":3460,"##izmus":3461,"embert":3462,"különleges":3463,"##ozza":3464,"Attila":3465,"Sándor":3466,"mobil":3467,"megszer":3468,"kib":3469,"##ekete":3470,"épp":3471,"szereplő":3472,"szóviv":3473,"fed":3474,"vette":3475,"akit":3476,"munkav":3477,"közösség":3478,"partner":3479,"szomszéd":3480,"június":3481,"Saj":3482,"felúj":3483,"##általán":3484,"##ovid":3485,"jóval":3486,"krit":3487,"Kov":3488,"pan":3489,"##ard":3490,"szerzett":3491,"beszéd":3492,"##szolgált":3493,"Országos":3494,"digitális":3495,"konfliktus":3496,"##etés":3497,"ügyfel":3498,"Amikor":3499,"hosszabb":3500,"visszatér":3501,"Rá":3502,"hí":3503,"##atott":3504,"tartó":3505,"továbbá":3506,"##felé":3507,"érkező":3508,"meghal":3509,"tanulmány":3510,"hőmérséklet":3511,"Kft":3512,"irod":3513,"újság":3514,"államtitk":3515,"haza":3516,"bizonyos":3517,"Alap":3518,"tájékoztatás":3519,"##szabály":3520,"##anszír":3521,"70":3522,"##atát":3523,"kezdett":3524,"visszav":3525,"videó":3526,"Rendőr":3527,"Vl":3528,"##iatt":3529,"##séggel":3530,"mindkét":3531,"halad":3532,"sziget":3533,"tartózkod":3534,"dolog":3535,"tor":3536,"##pad":3537,"##50":3538,"leginkább":3539,"hozott":3540,"Emellett":3541,"##ándék":3542,"Unió":3543,"##szkij":3544,"ekkor":3545,"trag":3546,"##zést":3547,"##olják":3548,"elsz":3549,"##hatjuk":3550,"állít":3551,"##ajdú":3552,"##dí":3553,"koncert":3554,"Gábor":3555,"fűt":3556,"##lus":3557,"##ven":3558,"elind":3559,"tömeg":3560,"minisztérium":3561,"##belül":3562,"Fidesz":3563,"Van":3564,"of":3565,"remény":3566,"tév":3567,"##hetünk":3568,"forin":3569,"élmény":3570,"látogat":3571,"hozzáj":3572,"##osszabb":3573,"állampolg":3574,"sajt":3575,"konz":3576,"értékesít":3577,"nekik":3578,"beszélget":3579,"hamarosan":3580,"debrec":3581,"gyakran":3582,"dem":3583,"titk":3584,"##man":3585,"##őj":3586,"##ítik":3587,"tudta":3588,"maguk":3589,"##ebben":3590,"külügyminiszter":3591,"forintra":3592,"eddigi":3593,"öröm":3594,"gyerekek":3595,"együttműködés":3596,"kért":3597,"méter":3598,"vitt":3599,"megf":3600,"##csó":3601,"lehetővé":3602,"##ivat":3603,"olasz":3604,"##fejleszt":3605,"támogatást":3606,"Zelen":3607,"##ítették":3608,"##omat":3609,"##ulcs":3610,"állat":3611,"nagyjából":3612,"közelében":3613,"területen":3614,"negyedév":3615,"##iak":3616,"##vér":3617,"##ságban":3618,"nyelv":3619,"##aba":3620,"tudom":3621,"##isztikai":3622,"véget":3623,"##úti":3624,"abb":3625,"egyáltalán":3626,"##ozók":3627,"##ságú":3628,"mennyire":3629,"nevel":3630,"sérül":3631,"András":3632,"##ennyiben":3633,"debreceni":3634,"Itt":3635,"Leg":3636,"mon":3637,"tran":3638,"##lési":3639,"##eri":3640,"##ésében":3641,"egyet":3642,"##urkol":3643,"pénzt":3644,"területén":3645,"Re":3646,"venni":3647,"##polit":3648,"##üst":3649,"##oj":3650,"##viz":3651,"felsz":3652,"valós":3653,"üzemel":3654,"Nyug":3655,"adatai":3656,"szob":3657,"akart":3658,"##ártó":3659,"##alma":3660,"mindennap":3661,"##urális":3662,"ang":3663,"prod":3664,"##foglal":3665,"##iplom":3666,"negyedik":3667,"üzleti":3668,"helyszínen":3669,"Tamás":3670,"Elő":3671,"hu":3672,"##bé":3673,"##öny":3674,"##attak":3675,"általában":3676,"##emelked":3677,"György":3678,"##ihar":3679,"információk":3680,"kollég":3681,"##besz":3682,"##atta":3683,"fellép":3684,"amíg":3685,"előbb":3686,"forrás":3687,"kapu":3688,"##idő":3689,"Csak":3690,"percben":3691,"stabil":3692,"forinttal":3693,"Vol":3694,"kárt":3695,"##gatás":3696,"nemrég":3697,"intern":3698,"hallgat":3699,"##utas":3700,"atom":3701,"fenyeget":3702,"bü":3703,"ebből":3704,"ülés":3705,"##jenek":3706,"##faj":3707,"##áni":3708,"##ánál":3709,"##ülő":3710,"##közel":3711,"módos":3712,"Sch":3713,"attól":3714,"##világ":3715,"##fr":3716,"fognak":3717,"##ektől":3718,"biztosít":3719,"lehetőséget":3720,"Ukrajnában":3721,"kötött":3722,"ipar":3723,"500":3724,"Id":3725,"Mari":3726,"##méter":3727,"##onal":3728,"##edig":3729,"csinál":3730,"tartalmaz":3731,"magyarországi":3732,"##lex":3733,"résztv":3734,"dokum":3735,"mester":3736,"pontos":3737,"Észak":3738,"##őző":3739,"##ezi":3740,"##iket":3741,"##edt":3742,"erd":3743,"##ásáról":3744,"##övetség":3745,"ajánl":3746,"valószínűleg":3747,"gyanús":3748,"Nap":3749,"##SA":3750,"##eml":3751,"Ezen":3752,"##urcs":3753,"igazi":3754,"úton":3755,"tervezett":3756,"klub":3757,"létrehoz":3758,"##nevezett":3759,"labdarúgó":3760,"##dést":3761,"##bev":3762,"##györgy":3763,"##ukció":3764,"többen":3765,"amelyben":3766,"kétszer":3767,"index":3768,"##atait":3769,"okozta":3770,"rajong":3771,"Vlagy":3772,"Zelenszkij":3773,"Tr":3774,"változat":3775,"##képpen":3776,"négyzet":3777,"egymást":3778,"Kriszt":3779,"elképzel":3780,"Is":3781,"benn":3782,"##ogyan":3783,"szándék":3784,"megrend":3785,"dolgozó":3786,"olimp":3787,"##ölcs":3788,"tavalyi":3789,"##plom":3790,"munkatárs":3791,"internet":3792,"főleg":3793,"kuty":3794,"ver":3795,"##junk":3796,"##ttel":3797,"##isták":3798,"inn":3799,"Ins":3800,"növekedés":3801,"kategór":3802,"pozitív":3803,"Más":3804,"prób":3805,"vág":3806,"##men":3807,"##üv":3808,"##hagy":3809,"##cselek":3810,"legk":3811,"magukat":3812,"fiú":3813,"csapatok":3814,"általános":3815,"körülbelül":3816,"finanszír":3817,"tr":3818,"##hass":3819,"felső":3820,"##usk":3821,"látszik":3822,"belső":3823,"vásárl":3824,"Hogy":3825,"Tör":3826,"tánc":3827,"tőzsd":3828,"##pp":3829,"elkezd":3830,"##ékes":3831,"##enti":3832,"kormányfő":3833,"hozzátette":3834,"előtti":3835,"lépett":3836,"veszteség":3837,"Vlagyimir":3838,"átad":3839,"##áng":3840,"##entgyörgy":3841,"tagállam":3842,"Kijev":3843,"Vég":3844,"vak":3845,"ül":3846,"##pát":3847,"megoszt":3848,"##állás":3849,"követő":3850,"úgynevezett":3851,"##helyzet":3852,"egymás":3853,"halálos":3854,"kicsit":3855,"diplom":3856,"##ball":3857,"##szó":3858,"##álás":3859,"száml":3860,"magyarok":3861,"indított":3862,"lakó":3863,"házas":3864,"működik":3865,"##úzeum":3866,"elkerül":3867,"Lengyel":3868,"Pl":3869,"assz":3870,"derül":3871,"hátt":3872,"ét":3873,"##zők":3874,"##xim":3875,"##ilt":3876,"##amos":3877,"##odik":3878,"pedagógus":3879,"bizottság":3880,"belép":3881,"megtalál":3882,"Pr":3883,"főt":3884,"mer":3885,"mikor":3886,"meleg":3887,"sért":3888,"##ráció":3889,"kiad":3890,"érz":3891,"##odott":3892,"##avéd":3893,"szerinte":3894,"##abda":3895,"magam":3896,"##kedő":3897,"alapvet":3898,"##anyol":3899,"segítséget":3900,"valóban":3901,"vállalatok":3902,"üzenet":3903,"háborús":3904,"kereslet":3905,"41":3906,"keleti":3907,"ötö":3908,"##lós":3909,"szoci":3910,"kiállítás":3911,"amelyeket":3912,"kínál":3913,"##szabad":3914,"Ugyanakkor":3915,"gyógyszer":3916,"rekord":3917,"Király":3918,"300":3919,"Te":3920,"rom":3921,"ös":3922,"legmagas":3923,"adomány":3924,"terh":3925,"részben":3926,"##ásokkal":3927,"##latform":3928,"alakult":3929,"Gergely":3930,"34":3931,"Né":3932,"ere":3933,"##olnak":3934,"##eps":3935,"sajnos":3936,"##ence":3937,"hivatkoz":3938,"megoldás":3939,"kórházba":3940,"kevésbé":3941,"annyira":3942,"36":3943,"Ahogy":3944,"Fő":3945,"##fra":3946,"##hatott":3947,"##rón":3948,"ennél":3949,"történő":3950,"bűncselek":3951,"típus":3952,"##pon":3953,"##úd":3954,"szű":3955,"kisz":3956,"##hetjük":3957,"mostan":3958,"védelm":3959,"leveg":3960,"plusz":3961,"óriási":3962,"legmagasabb":3963,"Im":3964,"Józs":3965,"Term":3966,"se":3967,"seg":3968,"##ttől":3969,"##ula":3970,"végéig":3971,"kezel":3972,"##évén":3973,"indok":3974,"##ektor":3975,"megvált":3976,"forduló":3977,"##strukt":3978,"kommunik":3979,"Lig":3980,"Tud":3981,"Össz":3982,"##se":3983,"adta":3984,"##urg":3985,"kezdet":3986,"##vári":3987,"késő":3988,"játszott":3989,"elfogad":3990,"kísérlet":3991,"feldolg":3992,"et":3993,"##álta":3994,"##niuk":3995,"ezr":3996,"lehetnek":3997,"fogják":3998,"munkát":3999,"edző":4000,"37":4001,"láb":4002,"##kinek":4003,"##fal":4004,"##cz":4005,"tök":4006,"##nyug":4007,"korr":4008,"##zetes":4009,"##émi":4010,"emberi":4011,"megyében":4012,"tagjai":4013,"módszer":4014,"használt":4015,"nyílt":4016,"Megyei":4017,"robb":4018,"##újabb":4019,"##dal":4020,"##aszkod":4021,"közösen":4022,"helyzetben":4023,"megbíz":4024,"József":4025,"##úgy":4026,"##encia":4027,"##orm":4028,"##átum":4029,"ingy":4030,"állnak":4031,"látvány":4032,"délelőtt":4033,"megfelelően":4034,"##mód":4035,"##váz":4036,"##DP":4037,"eleg":4038,"##ötte":4039,"körülmények":4040,"elhunyt":4041,"oldalon":4042,"Németország":4043,"##epsisz":4044,"Mát":4045,"Per":4046,"faj":4047,"##uzs":4048,"##bor":4049,"évre":4050,"visel":4051,"csapata":4052,"##esszió":4053,"repülő":4054,"hideg":4055,"Igaz":4056,"szór":4057,"##okból":4058,"##szerte":4059,"klím":4060,"nyilvánosság":4061,"édesap":4062,"ellent":4063,"üzemeltet":4064,"38":4065,"Ebben":4066,"Kl":4067,"gar":4068,"##áci":4069,"##párt":4070,"##tem":4071,"##issz":4072,"arc":4073,"biztosan":4074,"szezon":4075,"##ásában":4076,"lehetséges":4077,"##ájának":4078,"fiatalok":4079,"katasztróf":4080,"Zsolt":4081,"remek":4082,"##epsiszentgyörgy":4083,"75":4084,"ruh":4085,"##lcs":4086,"##hang":4087,"##álkod":4088,"elismer":4089,"nyer":4090,"legújabb":4091,"Egyes":4092,"megtart":4093,"##orvos":4094,"honlap":4095,"33":4096,"Kat":4097,"Kül":4098,"list":4099,"##if":4100,"##yás":4101,"##höz":4102,"felf":4103,"##hatók":4104,"##velet":4105,"##áján":4106,"vezetett":4107,"##enged":4108,"létesít":4109,"##gyűlés":4110,"kötelező":4111,"kiemelte":4112,"érdeklőd":4113,"##bizton":4114,"befolyás":4115,"OT":4116,"##autó":4117,"##vé":4118,"##akad":4119,"##apán":4120,"százalékot":4121,"vége":4122,"tartanak":4123,"##ipari":4124,"gondolkod":4125,"találtak":4126,"aktív":4127,"enyh":4128,"közönség":4129,"angol":4130,"Covid":4131,"Hol":4132,"Én":4133,"ölt":4134,"szex":4135,"megúj":4136,"tartják":4137,"várja":4138,"folytatás":4139,"interj":4140,"finom":4141,"\",":4142,"bl":4143,"##nunk":4144,"##hol":4145,"##22":4146,"##ésnek":4147,"##omás":4148,"háztart":4149,"nevezte":4150,"##örtön":4151,"ígér":4152,"Mag":4153,"Tw":4154,"Vas":4155,"dal":4156,"hord":4157,"platform":4158,"##br":4159,"##fogyaszt":4160,"sztár":4161,"##egész":4162,"##éken":4163,"körében":4164,"hazánk":4165,"jegybank":4166,"termékek":4167,"Szabó":4168,"hagyományos":4169,"Pet":4170,"mar":4171,"rep":4172,"ritk":4173,"vírus":4174,"##eci":4175,"##adók":4176,"##ákban":4177,"mire":4178,"átalak":4179,"járó":4180,"maxim":4181,"szankció":4182,"lelk":4183,"export":4184,"írták":4185,"tevékenység":4186,"hullám":4187,"Bl":4188,"kő":4189,"kan":4190,"vették":4191,"##lel":4192,"##fér":4193,"##ere":4194,"##ork":4195,"##okk":4196,"napja":4197,"##émia":4198,"##irág":4199,"hozzát":4200,"##ack":4201,"Nyí":4202,"##keresked":4203,"90":4204,"The":4205,"hit":4206,"##NB":4207,"##esett":4208,"Szil":4209,"százalékra":4210,"kisfi":4211,"védek":4212,"hónapban":4213,"hasonlóan":4214,"szenvedett":4215,"kényszer":4216,"##hiány":4217,"dokumentum":4218,"takar":4219,"##don":4220,"kapac":4221,"str":4222,"Int":4223,"rajta":4224,"ajánd":4225,"áldozat":4226,"tűzoltók":4227,"##frastrukt":4228,"44":4229,"400":4230,"bolt":4231,"##iába":4232,"##tan":4233,"##ónak":4234,"szerk":4235,"készít":4236,"igazság":4237,"működő":4238,"növény":4239,"győzelem":4240,"észre":4241,"Par":4242,"Tanács":4243,"bázis":4244,"gener":4245,"hum":4246,"vágy":4247,"##onz":4248,"megjegy":4249,"##egyen":4250,"előadás":4251,"est":4252,"helyet":4253,"terem":4254,"##ítására":4255,"képesség":4256,"mondja":4257,"körüli":4258,"futball":4259,"Ráadásul":4260,"39":4261,"neg":4262,"##ezést":4263,"##ítók":4264,"##apcsol":4265,"emellett":4266,"tudós":4267,"##ásokra":4268,"mutatja":4269,"munkaerő":4270,"tényleg":4271,"ipari":4272,"akadály":4273,"munkavállal":4274,"Auszt":4275,"Go":4276,"Nép":4277,"buk":4278,"pót":4279,"téli":4280,"vereség":4281,"##jének":4282,"##éket":4283,"##elleg":4284,"amivel":4285,"dolgozik":4286,"bejelentette":4287,"bajnokság":4288,"lapunk":4289,"Joh":4290,"révén":4291,"##met":4292,"csill":4293,"szerelm":4294,"##azon":4295,"##ábban":4296,"##óth":4297,"időjár":4298,"##tatott":4299,"jövőre":4300,"okozott":4301,"##tagram":4302,"hétvégén":4303,"OTP":4304,"Akkor":4305,"Hajdú":4306,"kin":4307,"rang":4308,"##ga":4309,"##arc":4310,"##zések":4311,"##ford":4312,"változás":4313,"hangulat":4314,"Ami":4315,"regiszt":4316,"átlagos":4317,"szövetség":4318,"igazgatója":4319,"Kína":4320,"Instagram":4321,".\"":4322,"Három":4323,"fesz":4324,"elkö":4325,"bejegy":4326,"nyar":4327,"##esztő":4328,"hiába":4329,"##ügynökség":4330,"következmény":4331,"személyes":4332,"tökélet":4333,"Hat":4334,"##szav":4335,"##erv":4336,"##ásos":4337,"##éséhez":4338,"##ukra":4339,"Szlovák":4340,"tartani":4341,"olcsó":4342,"történik":4343,"szerepet":4344,"jogos":4345,"2018":4346,"##száml":4347,"kiderül":4348,"##gyűlési":4349,"olvasható":4350,"eljárás":4351,"lemond":4352,"sajtót":4353,"negatív":4354,"32":4355,"Varg":4356,"kemény":4357,"láng":4358,"##ainak":4359,"##gazd":4360,"szünet":4361,"##ozást":4362,"##aival":4363,"##örög":4364,"dolgozott":4365,"##ölgy":4366,"pályára":4367,"önként":4368,"templom":4369,"megmutat":4370,"büszk":4371,"Twitt":4372,"GDP":4373,"##ich":4374,"##váj":4375,"##akon":4376,"##ona":4377,"elárul":4378,"##aránt":4379,"##oskod":4380,"nyári":4381,"##ikusan":4382,"méret":4383,"nekem":4384,"következt":4385,"Zay":4386,"börtön":4387,"tették":4388,"##jú":4389,"szén":4390,"egyaránt":4391,"##nyel":4392,"Mindez":4393,"talált":4394,"parlamenti":4395,"45":4396,"MNB":4397,"rag":4398,"ve":4399,"##bér":4400,"szeg":4401,"szöv":4402,"évi":4403,"##rtok":4404,"##zési":4405,"sokszor":4406,"belől":4407,"döntő":4408,"folyamatos":4409,"##enzív":4410,"lezár":4411,"szlovák":4412,"##átus":4413,"##sztön":4414,"felk":4415,"##iget":4416,"minős":4417,"##ukor":4418,"kaptak":4419,"összet":4420,"várják":4421,"##ációt":4422,"színpad":4423,"vádlott":4424,"végrehajt":4425,"következtében":4426,"fők":4427,"fest":4428,"jutt":4429,"tünet":4430,"##ubl":4431,"##enként":4432,"##alk":4433,"##esed":4434,"##ságát":4435,"látni":4436,"kamer":4437,"ütköz":4438,"Tóth":4439,"agy":4440,"fu":4441,"mél":4442,"pih":4443,"Érd":4444,"##ettem":4445,"##niük":4446,"kiemelt":4447,"emiatt":4448,"oka":4449,"kilát":4450,"melyek":4451,"bizonytalan":4452,"véli":4453,"##művek":4454,"##ofőr":4455,"közepén":4456,"##millió":4457,"Miskolc":4458,"Nyíregy":4459,"Horvát":4460,"húsz":4461,"##ota":4462,"##co":4463,"##rop":4464,"mintha":4465,"198":4466,"##árólag":4467,"kereskedelmi":4468,"##erceg":4469,"ötödik":4470,"Dr":4471,"kulcs":4472,"papír":4473,"tü":4474,"tábor":4475,"##ítanak":4476,"köv":4477,"Szi":4478,"másfél":4479,"kezdte":4480,"ismerős":4481,"Márki":4482,"munkahely":4483,"import":4484,"ajándék":4485,"Jelen":4486,"jelleg":4487,"ural":4488,"áp":4489,"##hal":4490,"##űv":4491,"elej":4492,"##ítható":4493,"##ítások":4494,"##takar":4495,"##elemben":4496,"városban":4497,"ötlet":4498,"Elmond":4499,"rendelkezik":4500,"megkap":4501,"születés":4502,"erőszak":4503,"tőle":4504,"Debreceni":4505,"asszony":4506,"kérte":4507,"vizsg":4508,"##term":4509,"##ered":4510,"szét":4511,"elől":4512,"##osok":4513,"minket":4514,"jelezte":4515,"##iaszt":4516,"##eivel":4517,"átv":4518,"versenyző":4519,"megkérd":4520,"könnyen":4521,"izg":4522,"óvod":4523,"Twitter":4524,"Dél":4525,"eszt":4526,"jég":4527,"Ám":4528,"##qu":4529,"befej":4530,"##szerep":4531,"Szám":4532,"##élyes":4533,"szeretnék":4534,"gazdag":4535,"villamos":4536,"említett":4537,"tragéd":4538,"zavar":4539,"##rák":4540,"##kett":4541,"##bi":4542,"##ya":4543,"##ikát":4544,"lej":4545,"évet":4546,"évente":4547,"többség":4548,"##örös":4549,"esetleg":4550,"##ezetten":4551,"szeretne":4552,"déli":4553,"##ozzák":4554,"tervek":4555,"szakértők":4556,"portál":4557,"felesége":4558,"fejlődés":4559,"gyakorlatilag":4560,"lakossági":4561,"Szijj":4562,"Har":4563,"Jó":4564,"Man":4565,"mig":4566,"viz":4567,"##sp":4568,"##gond":4569,"##ke":4570,"##verseny":4571,"##ezése":4572,"megtört":4573,"##ozási":4574,"kifizet":4575,"kiegész":4576,"tartozik":4577,"válik":4578,"kezelés":4579,"ügyben":4580,"államfő":4581,"jogszabály":4582,"források":4583,"Moszkva":4584,"államtitkár":4585,"Fontos":4586,"##ros":4587,"##sem":4588,"##energ":4589,"##ekhez":4590,"##akban":4591,"##emet":4592,"elkész":4593,"meggy":4594,"egyéni":4595,"##oznak":4596,"inváz":4597,"csapadék":4598,"mened":4599,"akiknek":4600,"nyomán":4601,"vállalkozások":4602,"művész":4603,"New":4604,"Szijjártó":4605,"Francia":4606,"ágaz":4607,"megd":4608,"kölcs":4609,"##szerint":4610,"többsége":4611,"hivatás":4612,"kivitel":4613,"szabadság":4614,"támogatja":4615,"immár":4616,"száraz":4617,"Ár":4618,"ült":4619,"##sé":4620,"##munk":4621,"##pénz":4622,"##öd":4623,"##enő":4624,"##áshoz":4625,"##ezhető":4626,"##ity":4627,"##ajon":4628,"aminek":4629,"##ova":4630,"számító":4631,"Szövetség":4632,"adtak":4633,"##enekar":4634,"konk":4635,"hajland":4636,"Erzs":4637,"probléma":4638,"győzt":4639,"előrejel":4640,"Bel":4641,"Pár":4642,"sofőr":4643,"##iák":4644,"##nék":4645,"##nák":4646,"##ozása":4647,"napig":4648,"országgyűlési":4649,"látja":4650,"kerék":4651,"közeli":4652,"##képp":4653,"történelmi":4654,"eltűn":4655,"könnyű":4656,"utca":4657,"sajtótájékoz":4658,"Varga":4659,"aszt":4660,"nők":4661,"rejt":4662,"sincs":4663,"##osem":4664,"infrastrukt":4665,"mások":4666,"ellenfel":4667,"##aradt":4668,"##ipar":4669,"találkozó":4670,"intézkedések":4671,"Balázs":4672,"legutóbbi":4673,"##díjas":4674,"invázió":4675,"Bid":4676,"messz":4677,"–,":4678,"##ea":4679,"##háború":4680,"##fok":4681,"szurkol":4682,"##okba":4683,"##énnyel":4684,"erőt":4685,"komp":4686,"hajnal":4687,"véletlen":4688,"órától":4689,"iskola":4690,"kedvezmény":4691,"vezérigazgat":4692,"kizárólag":4693,"fogy":4694,"fekete":4695,"lek":4696,"lit":4697,"##rid":4698,"##ss":4699,"##mik":4700,"##elnek":4701,"##annyi":4702,"##emben":4703,"egyház":4704,"##ékek":4705,"##evíz":4706,"tudomány":4707,"annyit":4708,"##figyel":4709,"dollárt":4710,"Szerinte":4711,"autók":4712,"szeretnénk":4713,"vizsgálat":4714,"képesek":4715,"ellenzéki":4716,"motor":4717,"Sh":4718,"Tav":4719,"kert":4720,"étel":4721,"íz":4722,"ösztön":4723,"##elték":4724,"##ítést":4725,"##adik":4726,"évig":4727,"idők":4728,"élete":4729,"##ezettek":4730,"választás":4731,"szüksége":4732,"vezetői":4733,"melynek":4734,"eurót":4735,"elvég":4736,"szeretné":4737,"menekült":4738,"egyszerűen":4739,"fenntartható":4740,"énekesnő":4741,"rögz":4742,"fájd":4743,"Ilyen":4744,"búcs":4745,"##akkal":4746,"##okról":4747,"##ozs":4748,"felm":4749,"eső":4750,"külső":4751,"folyó":4752,"valójában":4753,"emelte":4754,"Nemzetközi":4755,"bajnoki":4756,"kormányzati":4757,"hivatkozva":4758,"Fehér":4759,"vettek":4760,"##iban":4761,"##jék":4762,"##yel":4763,"azoknak":4764,"megőr":4765,"egység":4766,"##app":4767,"##nként":4768,"tudták":4769,"vagyon":4770,"amire":4771,"##tatni":4772,"valóság":4773,"érkeztek":4774,"téren":4775,"tisztelet":4776,"dolgoznak":4777,"széles":4778,"szakemberek":4779,"közzét":4780,"benzin":4781,"Kovács":4782,"Természet":4783,"segély":4784,"Hung":4785,"Olyan":4786,"ko":4787,"mos":4788,"puszt":4789,"stat":4790,"##ázott":4791,"leáll":4792,"##roda":4793,"esti":4794,"forgat":4795,"##eszköz":4796,"##ódi":4797,"áron":4798,"kiváló":4799,"##ológus":4800,"elhagy":4801,"##ügyminisztérium":4802,"anyagi":4803,"rezsics":4804,"birtok":4805,"43":4806,"48":4807,"Sport":4808,"sür":4809,"##aik":4810,"##jebb":4811,"##jait":4812,"felszer":4813,"tartós":4814,"küldött":4815,"sokáig":4816,"sors":4817,"##stop":4818,"helyzetet":4819,"örül":4820,"Erd":4821,"átlagosan":4822,"mellé":4823,"szakértő":4824,"front":4825,"hálózat":4826,"Katal":4827,"hús":4828,"rám":4829,"##zák":4830,"##énél":4831,"##avatkoz":4832,"##rtelen":4833,"mondott":4834,"segíteni":4835,"megye":4836,"mentő":4837,"hírügynökség":4838,"meghalt":4839,"figyelmeztet":4840,"rendelkező":4841,"javaslat":4842,"világbajnokság":4843,"John":4844,"rezsicsökkent":4845,"##jet":4846,"##ine":4847,"egyben":4848,"##szakasz":4849,"látott":4850,"összefügg":4851,"itthon":4852,"##gyűjt":4853,"technológiai":4854,"nyitott":4855,"kezdődött":4856,"ítélet":4857,"megpróbál":4858,"résztvev":4859,"web":4860,"##társ":4861,"szellem":4862,"##ásai":4863,"##emlék":4864,"##okhoz":4865,"##ésen":4866,"##ita":4867,"felügy":4868,"részéről":4869,"##őzést":4870,"nekünk":4871,"nélküli":4872,"Budapesti":4873,"##ürdő":4874,"autós":4875,"kifejezetten":4876,"Erzséb":4877,"Ád":4878,"##veszt":4879,"##ana":4880,"##olcs":4881,"elb":4882,"##oztak":4883,"gyil":4884,"összeh":4885,"külföld":4886,"menet":4887,"eredeti":4888,"rec":4889,"szerepl":4890,"semmit":4891,"Balaton":4892,"funk":4893,"##ax":4894,"##zás":4895,"##víz":4896,"##ust":4897,"előfordul":4898,"##ird":4899,"jogi":4900,"Erre":4901,"közleményében":4902,"menekültek":4903,"pozíció":4904,"keletkez":4905,"származó":4906,"felszól":4907,"Persze":4908,"Biden":4909,"Föld":4910,"fesztivál":4911,"nett":4912,"ür":4913,"##vesz":4914,"##álja":4915,"cseh":4916,"##ová":4917,"##erte":4918,"legfel":4919,"##örny":4920,"képet":4921,"##szaki":4922,"##ítésére":4923,"szempontból":4924,"kulturális":4925,"kijelentette":4926,"lőtt":4927,"kibocsát":4928,"bűncselekmény":4929,"kölcsön":4930,"55":4931,"tél":4932,"Ép":4933,"##ík":4934,"##nünk":4935,"##nának":4936,"##pontos":4937,"##hull":4938,"##önyv":4939,"##AC":4940,"megkezd":4941,"##adni":4942,"##elyik":4943,"##kezdő":4944,"kapnak":4945,"végére":4946,"hozta":4947,"árul":4948,"fővárosi":4949,"komment":4950,"reform":4951,"pályán":4952,"megszűn":4953,"önmag":4954,"szombat":4955,"temet":4956,"Brüssz":4957,"nyáron":4958,"állítólag":4959,"Ház":4960,"Tib":4961,"bot":4962,"mért":4963,"sosem":4964,"##ou":4965,"Szak":4966,"lehetne":4967,"tartozó":4968,"##ugár":4969,"Magyarországra":4970,"mérsék":4971,"megtud":4972,"katonák":4973,"piacon":4974,"múlva":4975,"idegen":4976,"vakc":4977,"herceg":4978,"##ko":4979,"##ann":4980,"##ania":4981,"##ora":4982,"rendelet":4983,"majdnem":4984,"készített":4985,"rendszeresen":4986,"parkol":4987,"velük":4988,"Lengyelország":4989,"Erzsébet":4990,"PC":4991,"alt":4992,"bra":4993,"heti":4994,"nuk":4995,"pal":4996,"étt":4997,"##zár":4998,"##jött":4999,"##elést":5000,"kip":5001,"##amb":5002,"##eiben":5003,"időre":5004,"valamilyen":5005,"jóvá":5006,"egymással":5007,"berend":5008,"Arra":5009,"speci":5010,"reggeli":5011,"rendkívüli":5012,"beszámolt":5013,"büntető":5014,"közzé":5015,"nettó":5016,"Gul":5017,"derült":5018,"##náz":5019,"##ves":5020,"##fjú":5021,"##ersz":5022,"érzi":5023,"állítja":5024,"##esti":5025,"##háza":5026,"##helyen":5027,"jöved":5028,"semmilyen":5029,"testület":5030,"önkormányzati":5031,"modern":5032,"beszámoló":5033,"Nyugat":5034,"busz":5035,"rát":5036,"##ix":5037,"##par":5038,"##olikus":5039,"##ilván":5040,"beavatkoz":5041,"mindez":5042,"##ovics":5043,"összek":5044,"ható":5045,"napra":5046,"részén":5047,"termelés":5048,"197":5049,"távon":5050,"fizetni":5051,"energiaárak":5052,"##biztos":5053,"##függeszt":5054,"egyértelműen":5055,"##bevétel":5056,"főkap":5057,"Katalin":5058,"DV":5059,"Ehhez":5060,"Nov":5061,"TV":5062,"ab":5063,"met":5064,"sáv":5065,"tüz":5066,"ugr":5067,"##vi":5068,"##ókkal":5069,"mindegy":5070,"legend":5071,"Csaba":5072,"voltam":5073,"kiterj":5074,"kínálat":5075,"hatással":5076,"csatorn":5077,"szigorú":5078,"hasznos":5079,"egyszerre":5080,"megelőző":5081,"Jelenleg":5082,"Kon":5083,"asz":5084,"ev":5085,"oly":5086,"tők":5087,"űr":5088,"##ux":5089,"szent":5090,"##álság":5091,"##ezár":5092,"megért":5093,"megközel":5094,"éven":5095,"##való":5096,"kapta":5097,"##napos":5098,"mennyi":5099,"eltér":5100,"teszik":5101,"elemző":5102,"társadalmi":5103,"szóvivője":5104,"szűk":5105,"levegő":5106,"Aki":5107,"Hét":5108,"USA":5109,"Világ":5110,"hány":5111,"riaszt":5112,"##ham":5113,"##cel":5114,"##atokat":5115,"##ulása":5116,"hirtelen":5117,"##irk":5118,"##iros":5119,"választások":5120,"##ességében":5121,"erősen":5122,"Szerencs":5123,"fokozat":5124,"tekintet":5125,"aránya":5126,"baloldali":5127,"tranz":5128,"Idén":5129,"nukle":5130,"Laj":5131,"Rich":5132,"tit":5133,"##tér":5134,"##jével":5135,"##hív":5136,"##etes":5137,"##erh":5138,"elhely":5139,"megr":5140,"megél":5141,"##ellig":5142,"nagykövet":5143,"amelyen":5144,"mindenkit":5145,"##ádió":5146,"##utató":5147,"##ésekkel":5148,"prof":5149,"hónapokban":5150,"Mih":5151,"problémák":5152,"szülők":5153,"vendégek":5154,"sérült":5155,"közvetlen":5156,"falu":5157,"alacsonyabb":5158,"robban":5159,"Tavaly":5160,"For":5161,"Tisz":5162,"Vagy":5163,"eg":5164,"tüntet":5165,"vihar":5166,"##ror":5167,"##pót":5168,"##zük":5169,"##kum":5170,"##etek":5171,"##atban":5172,"##alan":5173,"hom":5174,"##adja":5175,"##ulátor":5176,"lef":5177,"korszerű":5178,"##ovjet":5179,"állandó":5180,"adni":5181,"##kora":5182,"##éseit":5183,"utána":5184,"időpont":5185,"lépés":5186,"pontot":5187,"alkalmas":5188,"parancs":5189,"északi":5190,"érdeklődés":5191,"állampolgár":5192,"##ászt":5193,"##uni":5194,"##lám":5195,"##latot":5196,"##SC":5197,"##ekszik":5198,"##olva":5199,"##íték":5200,"egyeztet":5201,"köny":5202,"##ash":5203,"##unkra":5204,"##eim":5205,"##forr":5206,"közölték":5207,"hírek":5208,"gyermekek":5209,"órakor":5210,"elveszt":5211,"rendelkezésre":5212,"##művész":5213,"ismeretlen":5214,"apró":5215,"nyilatkozta":5216,"Miklós":5217,"megállapodás":5218,"iránt":5219,"hirdet":5220,"csillag":5221,"elárulta":5222,"nukleáris":5223,"000":5224,"Dun":5225,"##áit":5226,"##ogle":5227,"##nyom":5228,"deviz":5229,"hatály":5230,"munkáját":5231,"egészséges":5232,"kivétel":5233,"inflációs":5234,"adatokat":5235,"zajló":5236,"állapotban":5237,"##2022":5238,"Play":5239,"típusú":5240,"repülőgép":5241,"lél":5242,"##üm":5243,"##kert":5244,"##ff":5245,"##ttest":5246,"##okrat":5247,"##ettünk":5248,"##ülni":5249,"megegy":5250,"megment":5251,"##köt":5252,"##ájára":5253,"##eiről":5254,"##ódnak":5255,"##jelölt":5256,"döntést":5257,"sikert":5258,"eredet":5259,"##szerűen":5260,"szállod":5261,"hívta":5262,"zajlik":5263,"mezőny":5264,"társadalom":5265,"stratégiai":5266,"Kárpát":5267,"főkapitányság":5268,"49":5269,"Blik":5270,"Gr":5271,"Hivatal":5272,"oper":5273,"átt":5274,"##sért":5275,"##film":5276,"##eltek":5277,"##gyal":5278,"megakad":5279,"##élemény":5280,"felfüggeszt":5281,"ezután":5282,"Szín":5283,"##élyi":5284,"##kedik":5285,"tanár":5286,"házi":5287,"felhő":5288,"kerültek":5289,"mutatott":5290,"megvásár":5291,"Ukrajnának":5292,"hasonl":5293,"##erőmű":5294,"automat":5295,"igénybe":5296,"kötelezett":5297,"##polgármester":5298,"értelmében":5299,"##ferenci":5300,"##önyör":5301,"##fajta":5302,"konkrét":5303,"##pro":5304,"##box":5305,"##30":5306,"##olók":5307,"##ozták":5308,"##aján":5309,"bevon":5310,"Szeged":5311,"tudunk":5312,"##ünkre":5313,"##öveked":5314,"napján":5315,"áremelked":5316,"családok":5317,"védő":5318,"##prom":5319,"kettő":5320,"függetlenül":5321,"Olasz":5322,"központi":5323,"Mac":5324,"mut":5325,"##dor":5326,"fell":5327,"##hetők":5328,"nyers":5329,"##ásait":5330,"amiért":5331,"##ript":5332,"értesít":5333,"török":5334,"##minc":5335,"fejlesztés":5336,"köszönt":5337,"Emlék":5338,"szívesen":5339,"##eztem":5340,"kedves":5341,"érvényes":5342,"feletti":5343,"álláspont":5344,"##beszéd":5345,"gyanúsított":5346,"innov":5347,"Török":5348,"kőolaj":5349,"Google":5350,"Tibor":5351,".,":5352,"Hon":5353,"Iz":5354,"jö":5355,"roh":5356,"##ry":5357,"##ton":5358,"##ébb":5359,"##barát":5360,"##jén":5361,"##her":5362,"elismert":5363,"##apor":5364,"felület":5365,"##idéz":5366,"tartottak":5367,"körben":5368,"életet":5369,"##újvárosi":5370,"##uhan":5371,"kiköt":5372,"spanyol":5373,"koncent":5374,"gyanú":5375,"figyelembe":5376,"hozzájárul":5377,"cent":5378,"rájuk":5379,"##rem":5380,"##aknak":5381,"##onna":5382,"##emm":5383,"köb":5384,"amik":5385,"Azonban":5386,"##ellyel":5387,"##erületi":5388,"televíz":5389,"látsz":5390,"embereket":5391,"##ávol":5392,"ügyfél":5393,"alatti":5394,"hagyta":5395,"szólt":5396,"klassz":5397,"fegyveres":5398,"őrizet":5399,"Egyesület":5400,"Intéz":5401,"teremt":5402,"regisztr":5403,"Gulyás":5404,"Blikk":5405,"Ben":5406,"Jo":5407,"Márt":5408,"bőr":5409,"kelt":5410,"nak":5411,"tettek":5412,"##biz":5413,"##szék":5414,"##gyors":5415,"##eknél":5416,"##ásuk":5417,"##emes":5418,"##ítél":5419,"kiáll":5420,"tudtak":5421,"nyugat":5422,"ellenőrzés":5423,"árfolyama":5424,"áldozatok":5425,"Külön":5426,"belőle":5427,"uralkod":5428,"Természetesen":5429,"log":5430,"sújt":5431,"##iben":5432,"##atart":5433,"szup":5434,"##inél":5435,"elvár":5436,"##ulnak":5437,"szerb":5438,"állította":5439,"erdő":5440,"##járól":5441,"Miután":5442,"150":5443,"elérni":5444,"Aztán":5445,"helyszínre":5446,"hátrány":5447,"holland":5448,"##onnan":5449,"Volod":5450,"Brüsszel":5451,"megakadály":5452,"bar":5453,"bab":5454,"opt":5455,"##ikó":5456,"##ítettek":5457,"##adást":5458,"ezüst":5459,"korosztály":5460,"Szomb":5461,"hitt":5462,"műszaki":5463,"élvez":5464,"valamit":5465,"ukránok":5466,"Győr":5467,"karri":5468,"elvesz":5469,"folytatott":5470,"légi":5471,"gólt":5472,"intézkedés":5473,"Románia":5474,"lassan":5475,"##ivatar":5476,"olimpiai":5477,"hivatásos":5478,"Ex":5479,"Kom":5480,"fekvő":5481,"hős":5482,"káros":5483,"me":5484,"tól":5485,"üd":5486,"##éttel":5487,"##ésőbb":5488,"##ázó":5489,"leb":5490,"amennyiben":5491,"alelnök":5492,"##rov":5493,"##által":5494,"számított":5495,"##onyec":5496,"mindenkinek":5497,"intellig":5498,"változott":5499,"nevet":5500,"politik":5501,"megoldást":5502,"képviselői":5503,"természetes":5504,"biztonságos":5505,"felelősség":5506,"tengeri":5507,"részvények":5508,"Moszkv":5509,"katasztrófavéd":5510,"App":5511,"Fin":5512,"mad":5513,"##tünk":5514,"##őre":5515,"##választ":5516,"szektor":5517,"##ítését":5518,"megnyit":5519,"megérkez":5520,"##ányi":5521,"##sággal":5522,"előzetes":5523,"jelenlét":5524,"körülmény":5525,"tavasz":5526,"akarja":5527,"Ukrajnát":5528,"szolgáltató":5529,"fertőzés":5530,"##perc":5531,"közlekedési":5532,"##energia":5533,"győztes":5534,"Mat":5535,"ler":5536,"miskol":5537,"sár":5538,"##ie":5539,"##mes":5540,"##del":5541,"##alog":5542,"##onc":5543,"##ásról":5544,"##hattak":5545,"idény":5546,"##ősen":5547,"napot":5548,"mondani":5549,"##ölte":5550,"##ramm":5551,"gondoskod":5552,"összecsap":5553,"hónapja":5554,"nyugdíjas":5555,"megszok":5556,"béke":5557,"bármilyen":5558,"mezőgazdasági":5559,"hulladék":5560,"alkoh":5561,"Krisztián":5562,"alapvető":5563,"##biztonsági":5564,"EN":5565,"Fi":5566,"NB":5567,"Pál":5568,"fagy":5569,"kript":5570,"##ky":5571,"##használ":5572,"##vid":5573,"##orok":5574,"##ezve":5575,"megvéd":5576,"miszerint":5577,"##központ":5578,"##tation":5579,"##özött":5580,"intenzív":5581,"##szerűbb":5582,"területeken":5583,"rendszert":5584,"utcai":5585,"Kreml":5586,"kedvenc":5587,"színésznő":5588,"média":5589,"fizikai":5590,"meghatározó":5591,"Végül":5592,"nyaral":5593,"születésnap":5594,"hajlandó":5595,"miskolci":5596,"42":5597,"Ott":5598,"kocsi":5599,"nőt":5600,"sét":5601,"##íl":5602,"##rág":5603,"##jog":5604,"##Station":5605,"szim":5606,"fele":5607,"felek":5608,"##uth":5609,"##cion":5610,"utat":5611,"vall":5612,"várakoz":5613,"részvétel":5614,"##imnáz":5615,"kezdete":5616,"##ésekre":5617,"##und":5618,"energet":5619,"##upl":5620,"eurós":5621,"##nnan":5622,"##ötét":5623,"közleményben":5624,"vesztette":5625,"polgármestere":5626,"aktuális":5627,"dísz":5628,"iránti":5629,"Károly":5630,"Sajnos":5631,"Volodimir":5632,"##imnázium":5633,"47":5634,"Alex":5635,"bul":5636,"gab":5637,"norm":5638,"pand":5639,"rob":5640,"zenekar":5641,"árt":5642,"##io":5643,"##aink":5644,"##mit":5645,"##kan":5646,"##száll":5647,"##ekből":5648,"##árda":5649,"##arnok":5650,"##ozások":5651,"##építés":5652,"utáni":5653,"segíti":5654,"elnöki":5655,"családja":5656,"melyet":5657,"dolláros":5658,"miként":5659,"alkalmazott":5660,"rosszul":5661,"##szolgál":5662,"helyettes":5663,"vezette":5664,"nehezen":5665,"ítél":5666,"háttér":5667,"felfed":5668,"legfeljebb":5669,"Mihály":5670,"PlayStation":5671,"ham":5672,"od":5673,"##pedig":5674,"##zen":5675,"##hettek":5676,"##hivatal":5677,"##cél":5678,"##elése":5679,"##szön":5680,"##ezr":5681,"megte":5682,"##uss":5683,"gyönyör":5684,"kora":5685,"##őkép":5686,"Szolg":5687,"##almak":5688,"élni":5689,"##ává":5690,"veszi":5691,"régióban":5692,"viselked":5693,"sürg":5694,"51":5695,"abl":5696,"un":5697,"ágy":5698,"##hír":5699,"##cell":5700,"##aliz":5701,"##onta":5702,"##ásba":5703,"##ételt":5704,"##entő":5705,"évad":5706,"számukra":5707,"##onyol":5708,"jelentés":5709,"ennyi":5710,"##tekint":5711,"ügyészség":5712,"sikerül":5713,"##külön":5714,"ilyenkor":5715,"brüssz":5716,"veszélyes":5717,"elfoglal":5718,"imád":5719,"Kiss":5720,"diákok":5721,"szociális":5722,"nyilvánosságra":5723,"##vájci":5724,"Ádám":5725,"hatósági":5726,"ENSZ":5727,"Xbox":5728,"hekt":5729,"hete":5730,"kop":5731,"ud":5732,"vb":5733,"##tön":5734,"sztr":5735,"##akozás":5736,"##ásához":5737,"megtakar":5738,"##csal":5739,"##ajt":5740,"évfordul":5741,"előkész":5742,"##őkkel":5743,"##eszél":5744,"választási":5745,"Oroszországgal":5746,"120":5747,"hivatalosan":5748,"problémát":5749,"teher":5750,"kórházban":5751,"levél":5752,"lelki":5753,"fordult":5754,"##harc":5755,"szempontjából":5756,"költségvetés":5757,"##hessen":5758,"##nyugati":5759,"ingyenes":5760,"Mic":5761,"font":5762,"hegy":5763,"omik":5764,"var":5765,"##part":5766,"##kl":5767,"##kocsi":5768,"szal":5769,"##csomag":5770,"##ulni":5771,"befog":5772,"##artóz":5773,"##egyű":5774,"##ükben":5775,"esk":5776,"##kozott":5777,"##árták":5778,"művel":5779,"induló":5780,"2017":5781,"használat":5782,"dolgozók":5783,"gyakorl":5784,"szervezetek":5785,"halála":5786,"Államokban":5787,"felhasználók":5788,"szoros":5789,"tárgyalások":5790,"bejegyzés":5791,"Apple":5792,"65":5793,"Fej":5794,"Ig":5795,"bánt":5796,"ik":5797,"##nének":5798,"##ey":5799,"##tatták":5800,"##dése":5801,"##huz":5802,"##SE":5803,"##II":5804,"azután":5805,"##ozg":5806,"nyereség":5807,"adóz":5808,"##elmúlt":5809,"jelentőség":5810,"esetleges":5811,"igazol":5812,"illeg":5813,"kapcsolódó":5814,"halt":5815,"példa":5816,"##upa":5817,"##upol":5818,"városi":5819,"2010":5820,"emelkedik":5821,"##sorozat":5822,"##árius":5823,"műsorvezető":5824,"kialakult":5825,"közvetlenül":5826,"megerősítette":5827,"jellemzően":5828,"reagált":5829,"honlapján":5830,"futam":5831,"Lajos":5832,"##ümölcs":5833,"brüsszeli":5834,"Gam":5835,"Vár":5836,"bomb":5837,"japán":5838,"trend":5839,"##iás":5840,"##jába":5841,"##erny":5842,"##álják":5843,"kimond":5844,"közelmúlt":5845,"beszerzés":5846,"tartotta":5847,"##eire":5848,"fejl":5849,"fejezte":5850,"Cseh":5851,"értéke":5852,"szolgálat":5853,"eredménye":5854,"autópály":5855,"álm":5856,"ünnepi":5857,"zárta":5858,"igazgató":5859,"##harmad":5860,"Korábban":5861,"négyzetméter":5862,"tökéletes":5863,"önkéntes":5864,"56":5865,"Város":5866,"svájci":5867,"zivatar":5868,"őszint":5869,"##ínek":5870,"##terület":5871,"##busz":5872,"##hál":5873,"##hány":5874,"##vad":5875,"##ini":5876,"##éshez":5877,"elad":5878,"##ítve":5879,"megfog":5880,"##berg":5881,"##őtér":5882,"##figy":5883,"kapcsolatot":5884,"mérleg":5885,"szerepelt":5886,"Amer":5887,"nincsenek":5888,"kérdésre":5889,"legyenek":5890,"közülük":5891,"nyilatkozott":5892,"gyártó":5893,"formában":5894,"szövetséges":5895,"orvosi":5896,"Szabolcs":5897,"##szich":5898,"felmérés":5899,"ellentét":5900,"szöveg":5901,"őrizetbe":5902,"600":5903,"Met":5904,"##rak":5905,"##ain":5906,"##szállítás":5907,"##ekkora":5908,"##ettük":5909,"##itárius":5910,"csend":5911,"akkum":5912,"##kező":5913,"terén":5914,"összeget":5915,"világon":5916,"kezdve":5917,"##védő":5918,"2016":5919,"melyik":5920,"férfiak":5921,"programot":5922,"meghív":5923,"feltölt":5924,"hatása":5925,"igényel":5926,"édesanyja":5927,"magyarázta":5928,"híd":5929,"elegendő":5930,"létesítmény":5931,"##kereskedelmi":5932,"feszült":5933,"Egész":5934,"din":5935,"kos":5936,"táj":5937,"tétel":5938,"szil":5939,"##ezési":5940,"##ikán":5941,"##ary":5942,"##éld":5943,"##ámadás":5944,"alól":5945,"##szerző":5946,"lehető":5947,"újdon":5948,"##almát":5949,"##vezetés":5950,"##ebek":5951,"##index":5952,"értékű":5953,"hozzáfér":5954,"politika":5955,"érintő":5956,"##íróság":5957,"testvér":5958,"szülő":5959,"találták":5960,"nyújtott":5961,"##eremt":5962,"vadász":5963,"##urcsány":5964,"##epsiszentgyörgyi":5965,"omikron":5966,"57":5967,"DK":5968,"káb":5969,"kab":5970,"sk":5971,"##ij":5972,"##écs":5973,"##kar":5974,"##jünk":5975,"##han":5976,"##ségben":5977,"##omp":5978,"kif":5979,"##ájával":5980,"##hozatal":5981,"##ump":5982,"tartalék":5983,"##emelte":5984,"##lehet":5985,"tárca":5986,"bronz":5987,"mozog":5988,"különbség":5989,"energiav":5990,"extr":5991,"viszonylag":5992,"mérkőzésen":5993,"##kapitányság":5994,"##eiket":5995,"Borsod":5996,"mesélte":5997,"Alapítvány":5998,"munkatársai":5999,"lapunknak":6000,"Fr":6001,"rák":6002,"sír":6003,"süt":6004,"tonna":6005,"Által":6006,"##nánk":6007,"##aw":6008,"##mező":6009,"##méteres":6010,"##zon":6011,"##gyárt":6012,"##esi":6013,"felől":6014,"közbe":6015,"gyümölcs":6016,"##abizt":6017,"##umot":6018,"árstop":6019,"látogatás":6020,"##keleti":6021,"Ind":6022,"meghosszabb":6023,"##terj":6024,"Ukrajnából":6025,"legjobban":6026,"##szolgálat":6027,"játékosok":6028,"szövetségi":6029,"##uttó":6030,"Star":6031,"egyedi":6032,"aggod":6033,"ideiglen":6034,"Imre":6035,"Dem":6036,"War":6037,"beny":6038,"horvát":6039,"lánc":6040,"por":6041,"virág":6042,"elenged":6043,"##ítmány":6044,"kore":6045,"rendező":6046,"vala":6047,"tartották":6048,"##házban":6049,"alaposan":6050,"2014":6051,"irányuló":6052,"park":6053,"osztrák":6054,"tekintve":6055,"kezdődik":6056,"tiltak":6057,"látta":6058,"pénteki":6059,"tájékoztatása":6060,"abból":6061,".)":6062,"46":6063,"Mad":6064,"Míg":6065,"Pént":6066,"fa":6067,"némi":6068,"tegy":6069,"Ügy":6070,"##ápl":6071,"##ler":6072,"##alíció":6073,"szoft":6074,"##ítési":6075,"megalap":6076,"##önny":6077,"##öntet":6078,"adnak":6079,"országot":6080,"harminc":6081,"196":6082,"visszaes":6083,"Gyurcsány":6084,"kitör":6085,"távú":6086,"bruttó":6087,"dolgozni":6088,"megkeres":6089,"nyerte":6090,"díjat":6091,"frakció":6092,"eljárást":6093,"kutatók":6094,"oktatási":6095,"kontin":6096,"sebesség":6097,"környékén":6098,"éjszaka":6099,"##onald":6100,"54":6101,"59":6102,"Co":6103,"Un":6104,"Volt":6105,"der":6106,"fia":6107,"ily":6108,"káv":6109,"piros":6110,"rokon":6111,"##ílus":6112,"##néz":6113,"##mer":6114,"##menet":6115,"##lása":6116,"##húz":6117,"szög":6118,"megsér":6119,"##iság":6120,"##ama":6121,"gyalog":6122,"számú":6123,"tudat":6124,"mindenképpen":6125,"váratlan":6126,"fiók":6127,"vezetés":6128,"világszerte":6129,"ügyvéd":6130,"határozott":6131,"##úton":6132,"##ernatív":6133,"fogyasztók":6134,"szervezők":6135,"azonnali":6136,"beruházás":6137,"##gazdaság":6138,"kezdeményezés":6139,"karácsonyi":6140,"fertőzöttek":6141,"##ponttal":6142,"korrup":6143,"elkötel":6144,"Air":6145,"Ebből":6146,"Mit":6147,"Péld":6148,"fű":6149,"lenn":6150,"vajon":6151,"##ein":6152,"##aut":6153,"##óc":6154,"##fontos":6155,"##elési":6156,"felében":6157,"felaján":6158,"##állom":6159,"voltunk":6160,"mindkett":6161,"##ábl":6162,"többnyire":6163,"számítani":6164,"##olyg":6165,"##ításra":6166,"műt":6167,"ugyanaz":6168,"életében":6169,"kezdtek":6170,"##védelem":6171,"párhuz":6172,"eredmények":6173,"energiát":6174,"tűnt":6175,"szervezett":6176,"fotó":6177,"##csapat":6178,"működtet":6179,"##elikop":6180,"rögtön":6181,"megnéz":6182,"Techn":6183,"menedzs":6184,"Intézet":6185,"illegális":6186,"##fontosságú":6187,"Bra":6188,"Bence":6189,"Jel":6190,"ch":6191,"ifjú":6192,"onnan":6193,"órán":6194,"üv":6195,"##úk":6196,"##ődés":6197,"##olható":6198,"megismer":6199,"amellyel":6200,"##ella":6201,"##ellenes":6202,"##öket":6203,"##epp":6204,"Szat":6205,"magára":6206,"munkan":6207,"embernek":6208,"Anna":6209,"beszélni":6210,"drám":6211,"kihasznál":6212,"szabályok":6213,"spór":6214,"mennyiségű":6215,"letartóz":6216,"technológia":6217,"negyedévben":6218,"produkció":6219,"mesterséges":6220,"későbbi":6221,"ütközött":6222,"asztal":6223,"köbméter":6224,"52":6225,"DE":6226,"Ekkor":6227,"Haz":6228,"bát":6229,"ital":6230,"sepsiszentgyörgyi":6231,"##sen":6232,"##ste":6233,"##égy":6234,"##oy":6235,"szel":6236,"##orosz":6237,"##inni":6238,"##ola":6239,"eljut":6240,"##élly":6241,"##csk":6242,"bevet":6243,"számol":6244,"Szék":6245,"Egyelőre":6246,"##köznap":6247,"2024":6248,"annál":6249,"játékot":6250,"195":6251,"háborút":6252,"##jármű":6253,"##tatási":6254,"intézmények":6255,"Amennyiben":6256,"akarnak":6257,"##mentes":6258,"otthonában":6259,"mérkőzést":6260,"támadások":6261,"királynő":6262,"kaland":6263,"Miskolci":6264,"legutóbb":6265,"erősödött":6266,"méltó":6267,"speciális":6268,"Gab":6269,"Hang":6270,"Sőt":6271,"Utó":6272,"bán":6273,"páp":6274,"vív":6275,"vers":6276,"##hont":6277,"##akra":6278,"##emi":6279,"##ákon":6280,"felvon":6281,"##agan":6282,"töm":6283,"valódi":6284,"magának":6285,"jelentett":6286,"ügyvezető":6287,"akiket":6288,"félid":6289,"##ica":6290,"választók":6291,"legnép":6292,"gázt":6293,"Inter":6294,"megvan":6295,"emlékeztetett":6296,"szeretnének":6297,"##orvég":6298,"egyesület":6299,"bárki":6300,"Isten":6301,"remél":6302,"nehezebb":6303,"##ársasági":6304,"helyreállítás":6305,"##údió":6306,"##szavaz":6307,"alternatív":6308,"energetikai":6309,"gyönyörű":6310,"58":6311,"Jobb":6312,"Nek":6313,"husz":6314,"lov":6315,"tol":6316,"tük":6317,"unok":6318,"vevő":6319,"##társaság":6320,"##dtek":6321,"##kelő":6322,"##kosság":6323,"##ővel":6324,"##ikában":6325,"##ara":6326,"##adal":6327,"kiber":6328,"##aim":6329,"mára":6330,"esik":6331,"rendben":6332,"tudok":6333,"fogunk":6334,"alapanyag":6335,"##ászati":6336,"##órium":6337,"szintű":6338,"férje":6339,"előtte":6340,"melletti":6341,"háromszor":6342,"összefog":6343,"szeretet":6344,"250":6345,"képviselője":6346,"bankok":6347,"szerződést":6348,"mellék":6349,"##afut":6350,"idősebb":6351,"meglepő":6352,"##eredmény":6353,"##hullám":6354,"akkumulátor":6355,"Med":6356,"Nor":6357,"Nincs":6358,"Pedig":6359,"mak":6360,"múzeum":6361,"nél":6362,"őszi":6363,"##óját":6364,"##kér":6365,"##ésről":6366,"##osi":6367,"##omra":6368,"cselek":6369,"szerv":6370,"szerda":6371,"##izni":6372,"értek":6373,"alsó":6374,"##könyv":6375,"legr":6376,"legsz":6377,"emelt":6378,"összegyű":6379,"##ódni":6380,"szemb":6381,"árát":6382,"világháború":6383,"neve":6384,"nyugod":6385,"páros":6386,"kiválaszt":6387,"köztársasági":6388,"rajt":6389,"ellátás":6390,"építő":6391,"##lovén":6392,"tanácsadó":6393,"településen":6394,"szerencsére":6395,"néven":6396,"folyamán":6397,"izgalmas":6398,"##éllyel":6399,"Pro":6400,"av":6401,"főként":6402,"##papír":6403,"##lánc":6404,"##top":6405,"##ht":6406,"##vizsgál":6407,"##öp":6408,"##gyakor":6409,"##álatok":6410,"##ezések":6411,"##ésük":6412,"##ázni":6413,"##ellel":6414,"##unkban":6415,"##ukban":6416,"gyár":6417,"tudtam":6418,"##ivár":6419,"ahogyan":6420,"készen":6421,"kapcsolatok":6422,"otthont":6423,"személyi":6424,"használni":6425,"legyőz":6426,"Szerb":6427,"győzelm":6428,"szabályozás":6429,"aláír":6430,"költségek":6431,"élelmiszerek":6432,"hetekben":6433,"édesanya":6434,"kritikus":6435,"##szolgáltatás":6436,"atomerőmű":6437,"kapacit":6438,"85":6439,"Rob":6440,"ot":6441,"##program":6442,"##piaci":6443,"##özés":6444,"##empl":6445,"##sztikus":6446,"érez":6447,"##költ":6448,"százalékuk":6449,"##ehez":6450,"részeként":6451,"##icc":6452,"##ítója":6453,"fontosabb":6454,"növekvő":6455,"mutató":6456,"anyuk":6457,"betegek":6458,"dollárra":6459,"##eteor":6460,"csütörtöki":6461,"holttest":6462,"szerdai":6463,"fogadta":6464,"elkövetett":6465,"székely":6466,"Debrecenben":6467,"Máté":6468,"közzétett":6469,"53":6470,"döntet":6471,"fenti":6472,"kol":6473,"keny":6474,"lux":6475,"sötét":6476,"##kov":6477,"##ood":6478,"##vai":6479,"##széki":6480,"##atikus":6481,"felép":6482,"##igény":6483,"##aira":6484,"##ellen":6485,"előáll":6486,"2000":6487,"##jukat":6488,"##vándor":6489,"##ohány":6490,"alkalmából":6491,"mutatta":6492,"kitart":6493,"történtek":6494,"hatására":6495,"támogató":6496,"Sokan":6497,"##milliárd":6498,"Franciaország":6499,"tudományos":6500,"sztráj":6501,"Micros":6502,"közelmúltban":6503,"Ked":6504,"La":6505,"Múzeum":6506,"Th":6507,"York":6508,"kerület":6509,"zene":6510,"##leked":6511,"##büntet":6512,"##alizál":6513,"##ori":6514,"##ánik":6515,"##ozatot":6516,"##edző":6517,"##ilabda":6518,"felb":6519,"##endszer":6520,"adja":6521,"##elmes":6522,"##ódás":6523,"hatodik":6524,"##kedett":6525,"##ádi":6526,"##alálkoz":6527,"##portál":6528,"##adását":6529,"főszerep":6530,"célpont":6531,"biztosítani":6532,"nyomás":6533,"képviselők":6534,"találkozott":6535,"fogyasztói":6536,"szigor":6537,"novemberben":6538,"kiemelkedő":6539,"gazdálkod":6540,"kamatemel":6541,"nálunk":6542,"##fejlesztési":6543,"időjárás":6544,"Elmondta":6545,"optim":6546,"Székely":6547,"68":6548,"Jak":6549,"aj":6550,"kre":6551,"kegy":6552,"lop":6553,"ri":6554,"tó":6555,"vok":6556,"Ért":6557,"Ön":6558,"író":6559,"##tud":6560,"##ze":6561,"##üsz":6562,"##fa":6563,"##erd":6564,"##atórium":6565,"szánt":6566,"##aktor":6567,"##emp":6568,"elutas":6569,"##raf":6570,"szerette":6571,"##hatta":6572,"##ókusz":6573,"állatok":6574,"##eje":6575,"század":6576,"##aszk":6577,"jelentése":6578,"napelem":6579,"ellenfél":6580,"körzet":6581,"áruház":6582,"hétköznap":6583,"##felvétel":6584,"általa":6585,"##járó":6586,"tárc":6587,"lehetősége":6588,"anya":6589,"##egyven":6590,"készülnek":6591,"kidolg":6592,"veszélyeztet":6593,"vállalkozás":6594,"szépség":6595,"Brit":6596,"egyenl":6597,"orvosok":6598,"elektron":6599,"Németországban":6600,"##oxid":6601,"igyekszik":6602,"medenc":6603,"fővárosban":6604,"egyetért":6605,"védekezés":6606,"messze":6607,"forgatók":6608,"Éppen":6609,"botrány":6610,"Honvéd":6611,"klasszikus":6612,"Márton":6613,"!”":6614,"67":6615,"800":6616,"Pat":6617,"Rem":6618,"Tes":6619,"Visz":6620,"hev":6621,"pszich":6622,"tét":6623,"Ör":6624,"##nár":6625,"##lése":6626,"##kezet":6627,"##etáris":6628,"##alkot":6629,"elért":6630,"##osta":6631,"meglát":6632,"##ulást":6633,"lep":6634,"##velt":6635,"állomány":6636,"Szal":6637,"##örg":6638,"napos":6639,"##évé":6640,"##kir":6641,"Magyarországot":6642,"másodperc":6643,"##asonl":6644,"érinti":6645,"hazaiak":6646,"##allgat":6647,"ellátási":6648,"Andre":6649,"térségében":6650,"költségvetési":6651,"Akad":6652,"##intézet":6653,"kisfiú":6654,"tragédia":6655,"Árp":6656,"##ashing":6657,"Car":6658,"Kol":6659,"Lond":6660,"Mel":6661,"hez":6662,"héttel":6663,"##écsi":6664,"##hette":6665,"##fesz":6666,"##ereket":6667,"##éséről":6668,"##éti":6669,"érzés":6670,"##illa":6671,"képzés":6672,"élők":6673,"visszaj":6674,"valamennyi":6675,"érdekes":6676,"közelebb":6677,"helyzetbe":6678,"eredményt":6679,"eredményeket":6680,"pályafut":6681,"Közép":6682,"bizonyíték":6683,"##esszív":6684,"katona":6685,"játszik":6686,"##arkas":6687,"utóbb":6688,"közleménye":6689,"ütem":6690,"legfriss":6691,"Központi":6692,"felkészül":6693,"újságíró":6694,"szankciós":6695,"korrupció":6696,"párhuzam":6697,"Microsoft":6698,"Be":6699,"drón":6700,"ep":6701,"ettől":6702,"hű":6703,"torn":6704,"Év":6705,"Újabb":6706,"##ménnyel":6707,"##zió":6708,"##hitel":6709,"##elep":6710,"##anni":6711,"##áron":6712,"##ettet":6713,"##cser":6714,"szerelem":6715,"gyász":6716,"##óként":6717,"##ősebb":6718,"különféle":6719,"2015":6720,"határon":6721,"vásárol":6722,"utcában":6723,"egyensúly":6724,"kultúr":6725,"Borsnak":6726,"megprób":6727,"##ezzük":6728,"vigy":6729,"##forgalom":6730,"iparág":6731,"Néhány":6732,"kommunikációs":6733,"édesapja":6734,"garant":6735,"Parlament":6736,"jellegű":6737,"búcsúz":6738,"legnépszerűbb":6739,"legfrissebb":6740,"At":6741,"Bu":6742,"Kéz":6743,"Koss":6744,"Ok":6745,"Talán":6746,"kur":6747,"lend":6748,"svéd":6749,"tend":6750,"##mar":6751,"##hő":6752,"##három":6753,"##vélemény":6754,"##cég":6755,"##ené":6756,"##aték":6757,"##eking":6758,"szörny":6759,"##olid":6760,"##ánnyal":6761,"##októl":6762,"##ezését":6763,"##bantart":6764,"gyerm":6765,"##szeres":6766,"előz":6767,"##hatóság":6768,"##ektív":6769,"betart":6770,"érkeznek":6771,"##prém":6772,"sportoló":6773,"##asszal":6774,"megbeszél":6775,"címet":6776,"fegyverek":6777,"küzdött":6778,"legalábbis":6779,"szeptemberben":6780,"beruházások":6781,"éjjel":6782,"Eddig":6783,"fölé":6784,"technológi":6785,"panasz":6786,"szórakoz":6787,"##ervatív":6788,"sajtótájékoztat":6789,"Cl":6790,"Dáv":6791,"Gal":6792,"Gaz":6793,"Később":6794,"Mon":6795,"Mert":6796,"Zempl":6797,"furcs":6798,"gárda":6799,"hárm":6800,"hírt":6801,"mand":6802,"záp":6803,"##rum":6804,"##uel":6805,"##óján":6806,"##jak":6807,"##őn":6808,"##vére":6809,"##szent":6810,"##anta":6811,"##oros":6812,"##ülnek":6813,"##edő":6814,"##ények":6815,"##agn":6816,"előír":6817,"forintért":6818,"életben":6819,"##ésekor":6820,"kedd":6821,"írják":6822,"Oroszországot":6823,"létszám":6824,"mutatják":6825,"növekedése":6826,"önálló":6827,"feladatok":6828,"építkez":6829,"lánya":6830,"számítanak":6831,"környezetben":6832,"oltás":6833,"szokásos":6834,"vakcin":6835,"jóváhagy":6836,"fokozatosan":6837,"tekintetében":6838,"hamis":6839,"Kossuth":6840,"Dávid":6841,"64":6842,"BU":6843,"Haj":6844,"Mil":6845,"kony":6846,"mín":6847,"rász":6848,"sim":6849,"toj":6850,"##beteg":6851,"##TE":6852,"##atra":6853,"##one":6854,"##étert":6855,"##rab":6856,"##nyék":6857,"##hatták":6858,"##sszel":6859,"kapus":6860,"támadó":6861,"kormányt":6862,"illeti":6863,"találta":6864,"találni":6865,"vonal":6866,"kivált":6867,"stílus":6868,"euróval":6869,"akarják":6870,"gondolom":6871,"megszól":6872,"megszüntet":6873,"növekedést":6874,"bejelentés":6875,"komolyan":6876,"feladata":6877,"Karácsony":6878,"pillanatban":6879,"szóvivő":6880,"ügyfelek":6881,"Rendőrkapitányság":6882,"ülésén":6883,"Királyság":6884,"##ítókép":6885,"vezérigazgatója":6886,"Szerencsére":6887,"pandémia":6888,"ablak":6889,"62":6890,"Bél":6891,"Fekete":6892,"Musk":6893,"jót":6894,"mekkora":6895,"pot":6896,"úsz":6897,"##jaként":6898,"##VI":6899,"##enisz":6900,"##ekbe":6901,"##onikus":6902,"##ezők":6903,"megmér":6904,"egyebek":6905,"##ulhat":6906,"mielőtt":6907,"helysz":6908,"##ünkben":6909,"élnek":6910,"akkori":6911,"integ":6912,"lakások":6913,"##ozását":6914,"házig":6915,"pálya":6916,"gyermeke":6917,"egymill":6918,"szolgáltat":6919,"ismertette":6920,"Arról":6921,"szombati":6922,"##ionális":6923,"##örtén":6924,"márciusban":6925,"kettős":6926,"naponta":6927,"##ecsk":6928,"rakéta":6929,"megsért":6930,"fölött":6931,"##személy":6932,"interjú":6933,"szerkeszt":6934,"parancsnok":6935,"Utóbbi":6936,"Ge":6937,"Mak":6938,"ejt":6939,"fűz":6940,"tápl":6941,"##íni":6942,"##lást":6943,"##gl":6944,"##gyil":6945,"szán":6946,"##aiban":6947,"##udit":6948,"##avezet":6949,"szerintem":6950,"##korú":6951,"tartomány":6952,"magunk":6953,"telt":6954,"alapítvány":6955,"világot":6956,"milliárdos":6957,"##ítószer":6958,"szerepe":6959,"személyesen":6960,"Miért":6961,"ponton":6962,"fizetés":6963,"vendéglát":6964,"foglalkozó":6965,"mértékű":6966,"bőven":6967,"aktiv":6968,"kedvező":6969,"zenei":6970,"kutató":6971,"tulajdonosa":6972,"érzékeny":6973,"Érdek":6974,"Horváth":6975,"statiszt":6976,"udvar":6977,"energiaválság":6978,"Aba":6979,"Pal":6980,"Párt":6981,"SZ":6982,"dohány":6983,"lettek":6984,"zav":6985,"##áf":6986,"##sh":6987,"##uj":6988,"##div":6989,"##ekció":6990,"##okr":6991,"eldönt":6992,"közúti":6993,"##izált":6994,"alul":6995,"beszer":6996,"##usi":6997,"##értve":6998,"##ötték":6999,"nagym":7000,"Ezután":7001,"szeml":7002,"hozni":7003,"ugyancsak":7004,"okos":7005,"mentén":7006,"kivon":7007,"régóta":7008,"Szerint":7009,"forgalma":7010,"készülék":7011,"tesznek":7012,"szélső":7013,"kötvény":7014,"megbeteg":7015,"közlekedés":7016,"sikerrel":7017,"egyetemi":7018,"További":7019,"transz":7020,"Trump":7021,"erőtelj":7022,"hajnalban":7023,"katasztrófavédelem":7024,"##hálóz":7025,"bes":7026,"kék":7027,"riv":7028,"vari":7029,"##SH":7030,"##emmel":7031,"##oknál":7032,"##ésbe":7033,"megint":7034,"##edek":7035,"##adása":7036,"##csökkent":7037,"level":7038,"számát":7039,"adag":7040,"lehetetlen":7041,"terve":7042,"##asztó":7043,"##ósság":7044,"járnak":7045,"##ózis":7046,"profit":7047,"érdekelt":7048,"illetően":7049,"Oroszországban":7050,"nevezett":7051,"színház":7052,"Mich":7053,"működött":7054,"szállás":7055,"versenyt":7056,"##tárban":7057,"győzelmet":7058,"polgári":7059,"könnyebb":7060,"nyertes":7061,"reklám":7062,"fertőzöttet":7063,"Minisztérium":7064,"minimum":7065,"megváltoz":7066,"büszke":7067,"##fokú":7068,"liter":7069,"Joe":7070,"kontinens":7071,"chip":7072,"voks":7073,"Zemplén":7074,"Bizt":7075,"FC":7076,"Lev":7077,"Ste":7078,"Ver":7079,"cig":7080,"man":7081,"ost":7082,"rab":7083,"##gent":7084,"##dni":7085,"##kó":7086,"##űkö":7087,"szovjet":7088,"##ákra":7089,"csin":7090,"felszabad":7091,"##iga":7092,"##épület":7093,"alább":7094,"##odó":7095,"tudás":7096,"##ástól":7097,"részesed":7098,"##ugál":7099,"ant":7100,"kéri":7101,"##helyett":7102,"##játsz":7103,"ügyében":7104,"személyiség":7105,"költsége":7106,"kerülnek":7107,"szállították":7108,"karbantart":7109,"piacra":7110,"videót":7111,"Kiemelte":7112,"szankciókat":7113,"##politikai":7114,"pedagógusok":7115,"szexuális":7116,"alkohol":7117,"robot":7118,"üveg":7119,"Ah":7120,"Bék":7121,"Eközben":7122,"Hersz":7123,"Tel":7124,"pak":7125,"pap":7126,"sel":7127,"vész":7128,"##iber":7129,"##ura":7130,"##hy":7131,"##NP":7132,"##elhető":7133,"##atikai":7134,"##eksz":7135,"##onstr":7136,"##omi":7137,"##észek":7138,"mégsem":7139,"tudtuk":7140,"hatalom":7141,"várnak":7142,"##ásoknak":7143,"élett":7144,"kerek":7145,"##telenek":7146,"családtag":7147,"##ice":7148,"következik":7149,"vesznek":7150,"nevét":7151,"maradnak":7152,"ötven":7153,"gondolja":7154,"vélhetően":7155,"órát":7156,"velünk":7157,"autót":7158,"ajánlat":7159,"eseményen":7160,"települések":7161,"jelentkezett":7162,"terjeszt":7163,"Romániában":7164,"agresszió":7165,"Mariupol":7166,"Iskol":7167,"Négy":7168,"kancell":7169,"szegény":7170,"Szolgálat":7171,"koreai":7172,"##király":7173,"rivális":7174,"Gu":7175,"Hogyan":7176,"Sam":7177,"Tim":7178,"bocsát":7179,"mult":7180,"tab":7181,"vét":7182,"##urt":7183,"##zil":7184,"##dnek":7185,"##elve":7186,"##orna":7187,"##áss":7188,"##ésű":7189,"elrend":7190,"elérte":7191,"##ikk":7192,"##bbe":7193,"meglehet":7194,"##omin":7195,"amint":7196,"##ámogatás":7197,"##ódtak":7198,"hozam":7199,"mondják":7200,"munkálatok":7201,"elmarad":7202,"##atokkal":7203,"akivel":7204,"##újváros":7205,"szintet":7206,"Csütörtök":7207,"volum":7208,"területek":7209,"szóba":7210,"hagyott":7211,"emelkedése":7212,"vidék":7213,"vidéki":7214,"##allgatás":7215,"feltét":7216,"vásárló":7217,"rosszabb":7218,"köszönhető":7219,"mértéke":7220,"események":7221,"fotót":7222,"##ítsák":7223,"májusban":7224,"##váltás":7225,"reagál":7226,"human":7227,"TV2":7228,"gyanúja":7229,"megbeteged":7230,"66":7231,"Dan":7232,"EP":7233,"Telek":7234,"fürdő":7235,"ge":7236,"hölgy":7237,"negyven":7238,"the":7239,"##süt":7240,"##lon":7241,"##láb":7242,"##tett":7243,"##ger":7244,"##ervez":7245,"##olása":7246,"megfigyel":7247,"##utak":7248,"világban":7249,"##utatott":7250,"inter":7251,"egyike":7252,"keddi":7253,"##essége":7254,"határid":7255,"stúdió":7256,"nyomozás":7257,"programok":7258,"akarta":7259,"óráig":7260,"nézve":7261,"folytatja":7262,"eltelt":7263,"rendezik":7264,"ajánlott":7265,"kilométeres":7266,"tilt":7267,"júliusban":7268,"alkat":7269,"visszavon":7270,"abba":7271,"mindennapi":7272,"erdélyi":7273,"ezren":7274,"##párti":7275,"kapacitás":7276,"Novák":7277,"Szatmár":7278,"Gazprom":7279,"mínusz":7280,"Abaúj":7281,"Fed":7282,"Kan":7283,"Kelet":7284,"Munk":7285,"Sim":7286,"Teh":7287,"Vesz":7288,"auszt":7289,"bezár":7290,"disz":7291,"fül":7292,"fős":7293,"görög":7294,"les":7295,"tra":7296,"##ibb":7297,"##park":7298,"##lók":7299,"##tör":7300,"##éj":7301,"##dán":7302,"##óhely":7303,"##öbben":7304,"##szob":7305,"##atni":7306,"##ségbe":7307,"közvélemény":7308,"##udvar":7309,"többé":7310,"helyezett":7311,"##ításában":7312,"ennyire":7313,"##tetés":7314,"mondták":7315,"amiben":7316,"##irat":7317,"történelem":7318,"biztosított":7319,"##ciókat":7320,"Közben":7321,"emelkedtek":7322,"irányába":7323,"##övetkez":7324,"jutottak":7325,"tervezi":7326,"légit":7327,"tekintettel":7328,"##ágyi":7329,"mozgás":7330,"esélye":7331,"Való":7332,"Borítókép":7333,"tagállamok":7334,"sértett":7335,"funkció":7336,"##divásár":7337,"Bud":7338,"Dáni":7339,"Sw":7340,"Sepsiszentgyörgy":7341,"ba":7342,"füst":7343,"mel":7344,"Ők":7345,"##ue":7346,"##kák":7347,"##kam":7348,"##our":7349,"##hord":7350,"##szül":7351,"##anci":7352,"##ala":7353,"##akter":7354,"##arch":7355,"egységes":7356,"kiadott":7357,"amiket":7358,"évesen":7359,"##ovi":7360,"##abor":7361,"##kezelő":7362,"Szint":7363,"##ításának":7364,"##ításával":7365,"hiba":7366,"végső":7367,"műanyag":7368,"##chan":7369,"vezetést":7370,"##enie":7371,"dolgok":7372,"hallott":7373,"menni":7374,"konferenci":7375,"pénzügyminiszter":7376,"védett":7377,"útvonal":7378,"túlél":7379,"szembeni":7380,"forgatás":7381,"barátság":7382,"##talanul":7383,"tájékoztatta":7384,"vasárnapi":7385,"bérlet":7386,"szolgáltatások":7387,"Zsuzs":7388,"sorozatban":7389,"szomorú":7390,"megelőz":7391,"csoda":7392,"monetáris":7393,"négyzetméteres":7394,"diplomáci":7395,"olcsóbb":7396,"kulcsfontosságú":7397,"eredetileg":7398,"megszokott":7399,"forgatókönyv":7400,"99":7401,"Bajnok":7402,"Neh":7403,"Reg":7404,"hűt":7405,"jók":7406,"tej":7407,"##nes":7408,"##kő":7409,"##AR":7410,"elf":7411,"##ikum":7412,"##arm":7413,"##érmes":7414,"##raeli":7415,"##ream":7416,"##ázta":7417,"kiegyen":7418,"##otó":7419,"bevándor":7420,"##asi":7421,"##szervez":7422,"előfizet":7423,"##epsi":7424,"helyét":7425,"##ítással":7426,"##ugr":7427,"követi":7428,"vezetők":7429,"ugyanúgy":7430,"##irány":7431,"##esített":7432,"##ation":7433,"háborúban":7434,"betölt":7435,"megtám":7436,"##viselő":7437,"szeretett":7438,"használják":7439,"##ney":7440,"okozhat":7441,"jegyban":7442,"Ukrajnába":7443,"katolikus":7444,"tényező":7445,"megállapodást":7446,"megnyug":7447,"##ómai":7448,"##ellátás":7449,"titkos":7450,"kategóriában":7451,"fordulójában":7452,"ingyen":7453,"megújuló":7454,"##kezdődött":7455,"árulta":7456,"aszály":7457,"##reműkö":7458,"Viszont":7459,"potenci":7460,"Telekom":7461,"Hab":7462,"Ill":7463,"Jár":7464,"Net":7465,"bátor":7466,"fár":7467,"mez":7468,"méteres":7469,"Ág":7470,"ázs":7471,"##ach":7472,"##kat":7473,"##bíróság":7474,"##ető":7475,"##atér":7476,"##ektek":7477,"##emb":7478,"##oki":7479,"megemlék":7480,"##ségeket":7481,"##adások":7482,"csom":7483,"felidéz":7484,"##techn":7485,"szembe":7486,"##kelet":7487,"elsőd":7488,"világos":7489,"##ászat":7490,"tanú":7491,"indítvány":7492,"##iszterelnök":7493,"döntése":7494,"okost":7495,"edzés":7496,"hónappal":7497,"intézet":7498,"Inn":7499}}}