{"version":"1.0","truncation":null,"padding":null,"added_tokens":[{"id":0,"special":true,"content":"<UNK>","single_word":false,"lstrip":false,"rstrip":false,"normalized":false},{"id":1,"special":true,"content":"<SEP>","single_word":false,"lstrip":false,"rstrip":false,"normalized":false},{"id":2,"special":true,"content":"<MASK>","single_word":false,"lstrip":false,"rstrip":false,"normalized":false},{"id":3,"special":true,"content":"<CLS>","single_word":false,"lstrip":false,"rstrip":false,"normalized":false}],"normalizer":null,"pre_tokenizer":{"type":"Whitespace"},"post_processor":null,"decoder":null,"model":{"type":"Unigram","unk_id":0,"vocab":[["<UNK>",0.0],["<SEP>",0.0],["<MASK>",0.0],["<CLS>",0.0],["a",-2.6674488096441884],[",",-2.9503500151373245],[".",-3.366306587668886],["t",-3.803519472754097],["az",-3.9551498095281374],["i",-4.3166587334998425],["n",-4.323344301567374],["és",-4.381634393794323],["A",-4.421624305250326],["-",-4.442680418873582],["k",-4.622655919142101],["hogy",-4.665369052307206],["is",-4.66760453721135],["egy",-5.1546652039485785],["nem",-5.163686619248455],["ban",-5.171840732340543],["nak",-5.177367586119111],["ben",-5.191768286793591],["e",-5.348734223514153],["en",-5.371551868606934],["meg",-5.372507769834218],["nek",-5.372744690459012],["Az",-5.488097767506758],["s",-5.492106835054468],["re",-5.546368285597081],["el",-5.560839077677089],["ra",-5.625614205316868],["et",-5.633849272426195],["ki",-5.678048490589553],["m",-5.790286063789356],["–",-5.879261037209961],["ik",-5.881448923250286],["on",-5.8902375679998595],["g",-5.921756508489031],["be",-5.926439803983273],["de",-6.061060844404926],["szerint",-6.0833619857001615],["volt",-6.091186330046488],[":",-6.115064069119393],["át",-6.129152078576592],["ek",-6.129332129111011],["már",-6.143329747515111],["ok",-6.1646747622588105],["van",-6.3324225935074825],["ott",-6.341164990979047],["\"",-6.352908343196587],["csak",-6.353236539247529],["ez",-6.373249918273771],["mint",-6.376929606884103],["ot",-6.388379639571138],["fel",-6.39163139670239],["még",-6.3924374899887635],["több",-6.418388975277965],["20",-6.4568522734788285],["pedi",-6.492714801757819],["vel",-6.548778923479922],["le",-6.5501872710885145],["es",-6.550963311997117],["vagy",-6.563423638754102],["(",-6.591843536051229],["ák",-6.597217183627203],["ha",-6.599406785645318],["ni",-6.6027734696316305],["év",-6.612238844939837],[")",-6.622490197496674],["hoz",-6.626531827395054],["mi",-6.640805723641444],["ból",-6.641283568428184],["ról",-6.6557051700489165],["sem",-6.6630139764261145],["kell",-6.663231133066413],["ért",-6.666774609739074],["z",-6.677358393642834],["ő",-6.682270948142996],["azt",-6.69123747311945],["ről",-6.691897376446946],["százalék",-6.696184051234953],["után",-6.717148011920655],["amely",-6.725898005678822],["val",-6.7288036238689415],["okat",-6.741466608460286],["unk",-6.745248256375193],["két",-6.763145993544066],["nagy",-6.764614697057846],["ó",-6.765199043807831],["majd",-6.767157117580027],["ja",-6.794745752620178],["lehet",-6.799804363703455],["ul",-6.803432575896572],["”",-6.818280401680674],["ig",-6.825107963174441],["ként",-6.837325272959083],["M",-6.842892951047855],["magyar",-6.864053331312537],["ják",-6.86757933384577],["lesz",-6.869696448789371],["ami",-6.872829278559113],["1",-6.882226317977752],["orosz",-6.8872333269307795],["kal",-6.898368988761939],["ünk",-6.904385178416189],["miatt",-6.9047669734051],["úgy",-6.931401748881074],["így",-6.935798798078149],["2",-6.936588861430435],["új",-6.959100334467317],["d",-6.9678446017824145],["os",-6.97386843991476],["Ez",-6.979795497715864],["első",-6.981063551074639],["án",-6.981412951271961],["hez",-6.993708931428415],["minden",-7.002589592644513],["ből",-7.004301169067105],["tól",-7.018106541282883],["olyan",-7.023215587415422],["ba",-7.031865174913957],["leg",-7.037779525459697],["ék",-7.075630381202221],["S",-7.076259307367963],["között",-7.081334730070777],["b",-7.093444302652283],["r",-7.115830775071077],["„",-7.123672511722604],["va",-7.128250416844648],["l",-7.128925653876942],["ták",-7.133178429777867],["eket",-7.133233332432316],["3",-7.149500219734702],["aki",-7.168508943306561],["től",-7.169419333858955],["ük",-7.1780945651900705],["akkor",-7.180768117979332],["5",-7.185274398107616],["K",-7.1872150562115324],["y",-7.195064354809358],["ve",-7.198703405485495],["forint",-7.208280058746578],["éves",-7.231879059095519],["nál",-7.233597446591252],["mert",-7.2365062596257195],["?",-7.247812585869229],["azonba",-7.25316773616967],["én",-7.260664134712595],["h",-7.263629625647589],["mondta",-7.266747113513983],["ét",-7.270380606978844],["uk",-7.273591591270824],["ának",-7.274739796856074],["mellett",-7.281189111277921],["nél",-7.283964876608261],["egyik",-7.28457955088104],["jó",-7.30038910360078],["most",-7.300972364653846],["arra",-7.305950008050469],["ában",-7.329300758791833],["4",-7.332360382769573],["!",-7.368144639753822],["fog",-7.3860030738217795],["sz",-7.389590942921599],["sal",-7.397403197024408],["sok",-7.402518214804533],["ukrán",-7.403925863215801],["ezt",-7.414216421904224],["millió",-7.41721152892272],["más",-7.421291790625147],["Egy",-7.421377914169939],["B",-7.4259729273153186],["o",-7.431883234203952],["kormány",-7.438383983061082],["P",-7.441572388590249],["által",-7.451648116175678],["előtt",-7.4524882241294605],["tovább",-7.45454868289515],["ezer",-7.455263764729459],["19",-7.462709525586505],["kat",-7.478068989361148],["tud",-7.481118884662984],["tal",-7.484270610215678],["hat",-7.490298293689663],["milliárd",-7.503038317635307],["akik",-7.5090713506971],["E",-7.514167021433415],["Ha",-7.516415075257702],["hozzá",-7.520328616444611],["vissza",-7.526750055132717],["juk",-7.540153704863593],["tak",-7.540541765486438],["hét",-7.544818773712386],["ország",-7.545443865871366],["amikor",-7.546711497348887],["ára",-7.554381483238578],["alatt",-7.559022970889582],["három",-7.561101919540638],["ett",-7.563539117532158],["kor",-7.566582261141782],["óta",-7.570011244050584],["teljes",-7.572552140967031],["ne",-7.576357439319142],["C",-7.579524757464175],["világ",-7.584902822681414],["Nem",-7.601291102175702],["rról",-7.602293908545166],["rá",-7.60762790597493],["é",-7.6146012603609154],["ú",-7.626466095114789],["6",-7.627700341595067],["ében",-7.628213997578394],["számár",-7.6315250478506895],["7",-7.633895819785724],["om",-7.635865207334494],["p",-7.642051875853155],["ellen",-7.645657100573157],["ének",-7.6483819193984015],["ember",-7.663682716615877],["ték",-7.664151806860914],["ahol",-7.666674446287303],["10",-7.66831326661153],["G",-7.669652615291006],["háború",-7.677639770854547],["áll",-7.6876424851536305],["valamin",-7.691678733606889],["ű",-7.696595567587534],["8",-7.698074337541479],["ás",-7.700095068968267],["em",-7.7146501761356],["Európa",-7.716541872253241],["Oroszország",-7.7183510581354735],["lett",-7.731706671938851],["F",-7.737551662741151],["R",-7.746604752007885],["ával",-7.748324772782159],["ül",-7.748507431440378],["voln",-7.757328996815658],["te",-7.762027478076344],["fő",-7.765342625469234],["H",-7.766561706488684],["csapat",-7.76923483650166],["T",-7.772568601573467],["Mi",-7.777169336965218],["össze",-7.778346581266086],["közben",-7.783729305072268],["egész",-7.786678179739385],["nap",-7.787432011446257],["202",-7.794643172445515],["cég",-7.801162223631743],["agyon",-7.801502598602025],["viszont",-7.801990020086135],["ár",-7.803606198808489],["mind",-7.8065799420958575],["je",-7.807900475470599],["f",-7.808020781561688],["Magyarország",-7.809449013098045],["példá",-7.8096060653619235],["elő",-7.8105771407299995],["hisze",-7.8130947658258085],["ugyanis",-7.814757794321635],["c",-7.819086147719368],["bb",-7.822217589551111],["0",-7.825555757108275],["való",-7.8301425176877],["illetve",-7.831163387814795],["amit",-7.84061692335561],["eset",-7.845964105101763],["annak",-7.846921143846755],["ilyen",-7.869084036929001],["15",-7.870092669284518],["hanem",-7.873391724783504],["er",-7.874424733452],["elmúlt",-7.874585551675805],["sel",-7.877808380440183],["ezek",-7.880725542822263],["második",-7.88107318962742],["elnök",-7.88112127563851],["férfi",-7.886780341231614],["amelyek",-7.897243779129111],["9",-7.8975882696061745],["míg",-7.902560786514041],["kel",-7.906682825235768],["gy",-7.910476503693147],["tette",-7.919670260219313],["tek",-7.923300419842353],["L",-7.925289407311862],["adott",-7.926301360136409],["akár",-7.9338707804316515],["közölte",-7.937418576903163],["előre",-7.955084506968553],["j",-7.955336827995195],["30",-7.962400400714059],["v",-7.964379224848813],["ad",-7.965151957418419],["De",-7.972021717694783],["helyzet",-7.974582814090935],["legnagyobb",-7.975958713728949],["korábba",-7.976653190507158],["került",-7.976940933845395],["22",-7.977088646945039],["százalékos",-7.977203638046245],["milyen",-7.978734489848254],["jelentős",-7.9845107366511385],["18",-7.985758784075882],["idő",-7.986923725579691],["fontos",-7.995693961079841],["I",-7.9996134454265215],["V",-7.999971483130473],["saját",-8.006853684894644],["nincs",-8.015883873173506],["nagyobb",-8.016232123902464],["ére",-8.017190532376219],["évek",-8.020395019316599],["felé",-8.02680226155306],["mely",-8.02962142097639],["ekkel",-8.03170802783993],["ön",-8.033875001334971],["amerikai",-8.037359535332051],["során",-8.03964830752859],["ám",-8.041950551541568],["jól",-8.043907964352433],["jük",-8.044112480548371],["emberek",-8.04662208164678],["ével",-8.047860435687053],["fél",-8.054632782504529],["azért",-8.055998089199328],["túl",-8.065049996925486],["Magyar",-8.065977115241893],["négy",-8.074944304329966],["alapján",-8.084247937652655],["játék",-8.087549507330674],["ezér",-8.089712829417543],["idén",-8.090647490480102],["szemben",-8.093746366527284],["D",-8.093864222741153],["együtt",-8.103799840963264],["részt",-8.104330159667777],["eddig",-8.105535386364004],["időszak",-8.108985890099047],["zal",-8.1094119924579],["nélkül",-8.119360966287235],["másik",-8.122872026244696],["európai",-8.126515589405283],["jövő",-8.128393458206848],["Nagy",-8.131481071996959],["szó",-8.132282781709009],["újabb",-8.132620154490967],["vezető",-8.135253472196183],["itt",-8.136890469403557],["gazdasági",-8.142155372438467],["öt",-8.15063504945945],["nő",-8.156480541374433],["újra",-8.159495552309163],["él",-8.164774016823513],["rendszer",-8.165509725428512],["lenne",-8.168924930540648],["közel",-8.169185850800535],["ezzel",-8.176981932227328],["család",-8.181188008957815],["kellett",-8.194721494744385],["őket",-8.197858011289961],["okkal",-8.201890509634659],["hónap",-8.2036479687847],["hazai",-8.2039089676509],["szinte",-8.204428022200888],["város",-8.207423792013145],["közül",-8.207816400150573],["bban",-8.20907926866158],["12",-8.209276182006114],["ség",-8.213028737684324],["történt",-8.214779437000864],["egyre",-8.219432173438841],["het",-8.22067521643168],["voltak",-8.221821094446156],["mal",-8.225940458210182],["tett",-8.225983970774674],["kap",-8.229001950132723],["perc",-8.229809964238346],["néhány",-8.239653341718023],["korábbi",-8.244744746454884],["kérdés",-8.248355457328973],["14",-8.258264833136822],["gal",-8.26386532480246],["elmondta",-8.265254152227897],["ennek",-8.267493190482607],["ött",-8.2757355476041],["következő",-8.276380034601821],["Ukrajna",-8.287983967217723],["vár",-8.288407335450163],["része",-8.289459515386401],["ed",-8.28987612079897],["21",-8.291170189393092],["jelent",-8.291414932246449],["kapott",-8.293433069775634],["infláció",-8.295975869226268],["13",-8.306075255310825],["kerül",-8.310069284970226],["élet",-8.311784877729334],["belül",-8.314378789215638],["jelenleg",-8.318601741689607],["sor",-8.32150360647799],["Egyesül",-8.329379355751282],["tavaly",-8.32938419386487],["utolsó",-8.330160312531653],["gel",-8.334199451944162],["víz",-8.334486768076541],["miniszter",-8.33493484996185],["17",-8.335023893341265],["álló",-8.338386741426643],["euró",-8.340437873860516],["további",-8.34070320108783],["ját",-8.344895907673067],["gáz",-8.345150528080442],["pár",-8.345840467457773],["25",-8.34636822626047],["O",-8.349806633093877],["od",-8.352440193847588],["lévő",-8.35748627548043],["Budapest",-8.362043982464414],["képest",-8.368283642830395],["ugyan",-8.36897879082202],["hát",-8.36928787680635],["bár",-8.370251765381937],["unió",-8.375744934974705],["megfelelő",-8.375808800807393],["50",-8.375816066069612],["11",-8.382266521433822],["Mint",-8.382542534794105],["száma",-8.383268518561394],["u",-8.38762740896985],["kis",-8.388767500955252],["közös",-8.39116172731149],["Péter",-8.39694622832942],["Magyarországon",-8.397296437977035],["á",-8.397325222133002],["azok",-8.40188769566684],["autó",-8.402809801219156],["szükség",-8.406550645678614],["pont",-8.407538127263567],["erre",-8.408262004991375],["támogatás",-8.4082623578004],["Orbán",-8.410863869224626],["mindenki",-8.412314599399412],["sikerült",-8.415392538969456],["ság",-8.416484771780798],["ebben",-8.41790981198952],["legyen",-8.418108106296618],["harmadik",-8.422294503451049],["ház",-8.4227879680198],["24",-8.422865069834824],["helyi",-8.423423906291085],["követőe",-8.428140560575834],["határ",-8.42926337430098],["képes",-8.43086108878076],["nemzetközi",-8.431306419385603],["vállalat",-8.431790693584048],["jelentette",-8.432274386637049],["program",-8.433164368244725],["16",-8.434931189864642],["/",-8.442478792701337],["jár",-8.443613907810146],["éve",-8.44648266924558],["cs",-8.446927277668175],["alá",-8.448467085349854],["érdeké",-8.451078559380184],["magas",-8.456872424585367],["inkáb",-8.458963961969499],["oldal",-8.461085159172974],["indig",-8.461503476765419],["ol",-8.462320676746199],["tartott",-8.465598335874077],["magát",-8.465675126703676],["este",-8.467141905651403],["később",-8.47084130074094],["miniszterelnök",-8.471068537811519],["közösségi",-8.475581459637443],["mel",-8.480295404488732],["ment",-8.484864021014566],["ismét",-8.484913130833199],["Meg",-8.484920294598918],["erős",-8.48519833031511],["40",-8.48568885012902],["érkezett",-8.486438961459243],["hosszú",-8.490634934292085],["ügy",-8.490664214780029],["hol",-8.49103838153226],["út",-8.504024784981862],["vált",-8.50493362369757],["mikor",-8.514224643842269],["elleni",-8.514745133461815],["Putyin",-8.517513962011897],["23",-8.518588837672187],["múlt",-8.519086802225733],["sokkal",-8.520221728543893],["rel",-8.52066846962859],["se",-8.522938919635028],["című",-8.524743371820023],["védelmi",-8.52793059026278],["szintén",-8.528155088492692],["tart",-8.528186683294235],["fiatal",-8.528672411443171],["fogalmaz",-8.533978499824507],["bele",-8.542635845653502],["szervezet",-8.543342445771358],["végül",-8.543997464969829],["jön",-8.546697979719784],["miután",-8.54691568472219],["munka",-8.553247211620604],["ukrajnai",-8.556353785339297],["választás",-8.556804745393539],["keresztül",-8.560052107383123],["dolgoz",-8.56169795227741],["azon",-8.563413926399093],["ők",-8.565719905223997],["verseny",-8.56612967689545],["otthon",-8.568076871020324],["szabad",-8.568818748220153],["mit",-8.568984693309798],["lag",-8.56958823250286],["elég",-8.569977419191481],["csoport",-8.570577525033706],["Már",-8.57090533514128],["oldalán",-8.571382980626934],["fok",-8.571999209441785],["számos",-8.573142910746935],["állam",-8.573499197229893],["N",-8.573564413684803],["helyen",-8.575719567924617],["energia",-8.580011985306696],["rendőrség",-8.580153913637243],["TI",-8.584695990790411],["El",-8.586059754325799],["éppen",-8.586144426670938],["ket",-8.589078929208537],["ából",-8.589191555529759],["gazdaság",-8.58921061664277],["Ezek",-8.592295631845882],["szeretné",-8.592604852705891],["óra",-8.593396852305393],["végén",-8.593733725990322],["piac",-8.597090422278722],["jobb",-8.597287150454086],["cél",-8.598787030099295],["járvány",-8.607089943534108],["írta",-8.610270028623454],["marad",-8.611395710910916],["komoly",-8.611608658589317],["nehéz",-8.612868864696466],["tunk",-8.613970661306311],["egyes",-8.616144434043862],["írja",-8.616283804120926],["U",-8.61641279521835],["200",-8.618025763734444],["akar",-8.618353457907787],["adó",-8.6221906354317],["lap",-8.623476389617146],["vasárnap",-8.62468743391554],["órá",-8.625856922607994],["szint",-8.6275870905013],["katonai",-8.628205113020707],["csökkent",-8.629455295932788],["politikai",-8.630525313247787],["kapcsolat",-8.633552329841937],["ny",-8.634392308398489],["legalább",-8.634980937077325],["or",-8.635765075791717],["baleset",-8.635967068714576],["mennyi",-8.64332451208383],["EU",-8.649454690333691],["előző",-8.650047994185897],["al",-8.65075829608571],["vette",-8.651230084097612],["koronavírus",-8.651716931862312],["mond",-8.653203082884637],["tíz",-8.653540451202893],["egymás",-8.654667655648883],["kívül",-8.655015883060397],["érték",-8.659018535847771],["áról",-8.662359863251268],["ezen",-8.662499446798268],["Viktor",-8.66261523168256],["beszélt",-8.662693096495087],["önkormányzat",-8.663657527190082],["zel",-8.665935704579951],["elnöke",-8.666615678410029],["egyébkén",-8.667542662872199],["ál",-8.670074353337906],["biztos",-8.671357158721609],["megoldás",-8.672097030253903],["dollár",-8.673655549063632],["gyermek",-8.675445503826447],["Ezt",-8.677713511231989],["pénz",-8.679239652979867],["élő",-8.680450671508565],["december",-8.681311514474292],["német",-8.681503412703616],["üzlet",-8.683359289551607],["jon",-8.684207247206771],["vezetője",-8.684285204719151],["nőtt",-8.68670346948858],["László",-8.688985460312505],["kevesebb",-8.69024368662747],["ztán",-8.690936986816402],["tudja",-8.692738087697702],["Bár",-8.692879286684384],["állt",-8.694876747964596],["utóbbi",-8.702542913299546],["lehetőség",-8.703451018179248],["Z",-8.705941857864595],["szám",-8.707668691978625],["kevés",-8.708275021856949],["idei",-8.70939645681093],["november",-8.70958800111395],["alap",-8.709951749592026],["kisebb",-8.710012449191339],["maguk",-8.711348051162492],["100",-8.715129596373055],["ellenér",-8.718446849716912],["tér",-8.71859119715143],["Államok",-8.719477172580834],["történ",-8.727260230917098],["né",-8.728790803992585],["sorozat",-8.728924539448979],["ugyanakkor",-8.734208963309964],["Nemzeti",-8.736358655669658],["legjobb",-8.737564718698394],["megyei",-8.738209342226885],["neki",-8.741347051261307],["szükséges",-8.742701041184317],["tudta",-8.743151148286252],["W",-8.743193913328193],["legtöbb",-8.749517218108286],["Í",-8.75280072346662],["elején",-8.753181382851352],["í",-8.755817957816536],["szeptember",-8.75650667825929],["pénteken",-8.759096593826033],["maga",-8.759726003858155],["igen",-8.76194325178286],["hely",-8.761996067087374],["szankciók",-8.763574608755142],["vett",-8.767815407553533],["Úgy",-8.768104579140656],["október",-8.768900766824562],["benne",-8.770416844823362],["készül",-8.773337551732745],["hasonló",-8.774767770031126],["rendőrök",-8.777167485890681],["Most",-8.777198857725637],["árak",-8.777916537994539],["olaj",-8.77818990363788],["jelen",-8.778811642253736],["működ",-8.779559948401513],["érdemes",-8.78204642043912],["tel",-8.782085582348524],["köszönhető",-8.783884306465119],["ához",-8.783983442601212],["brit",-8.784393822791227],["vele",-8.78471262157439],["helyszín",-8.788784028388832],["fejlesztés",-8.790165169143519],["ismert",-8.792201014456037],["készült",-8.79247655085215],["látható",-8.792821346824837],["tűn",-8.792827219752958],["összes",-8.793093552789866],["egyetlen",-8.79592891101576],["annyi",-8.797596892396331],["végé",-8.798508099113633],["kapta",-8.799553683325374],["adatok",-8.801990124359241],["délután",-8.802402091943833],["Több",-8.804238477487672],["István",-8.804330516918569],["hír",-8.804362185913476],["Enne",-8.80499265806132],["teszi",-8.805474090615377],["film",-8.80747199985537],["miért",-8.80775508827207],["csütörtökön",-8.80906741076576],["támadás",-8.809349807692744],["magá",-8.811207577331494],["sport",-8.811693098948084],["várható",-8.812293411175514],["jött",-8.819842485316403],["súlyos",-8.820993549621832],["li",-8.823318052121241],["jobba",-8.827546271523556],["dal",-8.828654485415955],["növekedés",-8.82998733054627],["különböző",-8.830349100026861],["mai",-8.832152836601644],["alkalom",-8.832403618240733],["szóló",-8.833628582856356],["módo",-8.834152077449364],["folyamatosa",-8.834152271413828],["ették",-8.834243347273958],["abb",-8.83538535565122],["eseté",-8.836921184465648],["hatalmas",-8.837245959640804],["kkal",-8.837421243193058],["szövetség",-8.837831198135367],["ral",-8.838877795960823],["napi",-8.839045893445181],["országok",-8.841437525127095],["line",-8.841746577956727],["sokat",-8.842608230211495],["ur",-8.843524751228385],["esett",-8.848574968273116],["piaci",-8.85330307400232],["jelenlegi",-8.857614948527612],["született",-8.859589592411357],["száz",-8.861316055478031],["személy",-8.861531901073933],["Sz",-8.862404547069634],["vesz",-8.863859669128367],["állami",-8.864967700503136],["épület",-8.866908948344125],["oda",-8.869025037553762],["rövid",-8.870049764470924],["hétfőn",-8.873280866053687],["napon",-8.87503729641982],["helyett",-8.877937293142494],["képviselő",-8.878388419452385],["körül",-8.879289818842988],["ing",-8.88580700152413],["w",-8.887310299941348],["indult",-8.888898676998515],["lakás",-8.889615621995327],["gyerekek",-8.890717489633127],["szerdán",-8.89192099267607],["párt",-8.892078906805493],["reggel",-8.892703508892849],["köz",-8.894830771890767],["ráadás",-8.898871217048715],["figyelmet",-8.899663727091514],["És",-8.900551375109822],["nyi",-8.902031986764268],["ható",-8.90219416391795],["“",-8.90368572087916],["lány",-8.905649613772647],["cégek",-8.905728481588474],["parlament",-8.908794293240941],["valaki",-8.90915914615834],["döntött",-8.909476980590355],["részé",-8.912254919405388],["rossz",-8.913788463261977],["ebb",-8.915205995476871],["válogatott",-8.916492029713188],["eszközök",-8.918187794873308],["tó",-8.92250466277147],["gyors",-8.925160793014168],["heti",-8.927668686133346],["kép",-8.927694636363862],["tudni",-8.927915007483053],["hivatalos",-8.928547718686348],["vé",-8.929125256022727],["tartó",-8.929202103423037],["jelenti",-8.929224666405606],["tesz",-8.92999778219453],["kapcsolatba",-8.93036483630078],["ukat",-8.931261029393607],["esemény",-8.932404947932008],["60",-8.934204381981463],["környezet",-8.934384811572095],["május",-8.934748445126989],["külön",-8.936398888057063],["műsor",-8.936859326333519],["semmi",-8.9381299874064],["kedden",-8.938628586372676],["termék",-8.941543844845437],["március",-8.94210762381951],["us",-8.943886653091685],["valószínű",-8.945241993594527],["Be",-8.945541364242331],["emelkedett",-8.945774971042015],["forintos",-8.947365731493091],["ér",-8.948795033793289],["régió",-8.949253399177682],["elérhető",-8.950101528220962],["mutat",-8.950903501306284],["ezelőtt",-8.951094879810904],["valami",-8.951276682254191],["adat",-8.953262962805304],["társaság",-8.956122357267652],["Minden",-8.959700052768124],["szolgáltatás",-8.960240260689318],["addig",-8.961373085058446],["esetén",-8.962214233921003],["szem",-8.96250722026813],["27",-8.968167370570953],["Ki",-8.968691541345569],["magasabb",-8.969105966417546],["kiderült",-8.969382758797835],["minisztérium",-8.971104769364917],["hatás",-8.971483917324598],["hető",-8.975234175667605],["lépés",-8.975588205875592],["döntés",-8.977161445790019],["áig",-8.977401605135817],["haza",-8.98269648850602],["siker",-8.984707274604245],["forinto",-8.98503603065043],["maradt",-8.985651796573505],["mindent",-8.985696779556928],["egészségügyi",-8.987333224006623],["február",-8.988988167689197],["szép",-8.993078084081905],["előszö",-8.99420691617701],["vonatkozó",-8.994722951029654],["tűz",-8.99877357598886],["legfontosabb",-9.000152471162604],["intézmény",-9.00180983790706],["Facebook",-9.00269694965963],["kapcsolatos",-9.003709971840923],["található",-9.004023245147417],["biztonsági",-9.00463518987495],["rend",-9.00574502377691],["hatóságok",-9.005786406997608],["azonnal",-9.006407437431978],["szombaton",-9.006775353377112],["őt",-9.006993408779696],["szél",-9.007045071364677],["kább",-9.007708892763397],["Bizottság",-9.008338715645632],["hiány",-9.008616483510338],["cím",-9.009841941997811],["kutatás",-9.010218999037516],["talán",-9.01059334606904],["néz",-9.010954818042947],["mennyiség",-9.015248508924461],["jog",-9.015489242976937],["J",-9.016111045533515],["videó",-9.017153131576237],["Le",-9.019233218600217],["közötti",-9.021141777084885],["rendelkez",-9.021501178012311],["gyerek",-9.023588784643195],["üket",-9.02564713059681],["80",-9.02670982225335],["többször",-9.027242479096987],["János",-9.028378654466923],["augusztus",-9.028751445747972],["szak",-9.029076133460368],["hangsúlyozt",-9.030415700057254],["bé",-9.03058107581163],["Egyetem",-9.031296943262774],["nevezett",-9.031689142895761],["követő",-9.032008963194585],["érintett",-9.032223574575525],["hu",-9.032715355424179],["termékek",-9.033293324677627],["lát",-9.034499701564403],["lakosság",-9.035889748148737],["kapcs",-9.035938668588736],["használ",-9.036601323097925],["orban",-9.040970629422056],["átlagos",-9.042393721677264],["január",-9.045490642171858],["ján",-9.045804611570293],["csup",-9.04584202849344],["életét",-9.04827507776649],["erők",-9.050644880404217],["oroszok",-9.053130958218272],["eh",-9.053465566536936],["kórházba",-9.054105247020889],["Zr",-9.056009684061998],["Hozzátette",-9.060361060594662],["számít",-9.061362618607532],["nyolc",-9.061715860281197],["tenni",-9.061995777020574],["érte",-9.06296292384189],["számolt",-9.063529026050995],["segítségé",-9.064117158102981],["szól",-9.065052056000896],["lehetősége",-9.065649952140205],["biztonság",-9.065840162375093],["tam",-9.066032446318147],["rengeteg",-9.069583987774225],["Bank",-9.069640896876656],["sőt",-9.069899325240105],["lenni",-9.069917717120838],["köztü",-9.070322584135004],["július",-9.071396315418365],["senki",-9.071844093482143],["jutott",-9.072270523252017],["kellene",-9.072322562999336],["kezdte",-9.072903923971197],["X",-9.07374321670774],["venni",-9.074104818818338],["pénzügyi",-9.074407519082214],["kicsi",-9.075216460584821],["tünk",-9.075461043618098],["azóta",-9.078215781193949],["NATO",-9.078645806006639],["pillanat",-9.079451846714438],["per",-9.080073387448897],["polgármester",-9.080347883318153],["végre",-9.080986757819044],["ro",-9.081023804292684],["játékos",-9.081711683094131],["szív",-9.082418979831463],["politikus",-9.084972000311836],["Unió",-9.086830449700015],["tartoz",-9.087053134467856],["betegség",-9.088991181314032],["adatai",-9.08941238263957],["Ferenc",-9.090139686595473],["kínai",-9.092771742349878],["felelős",-9.093001491539114],["végzett",-9.094594843988176],["éről",-9.094666459118502],["%",-9.095680395152272],["hálózat",-9.09659295427926],["összeg",-9.097045308294053],["26",-9.09777188927557],["arány",-9.099386588103695],["soha",-9.10085849692027],["lép",-9.101741592900481],["II",-9.103916482179415],["román",-9.104277400553197],["anyag",-9.105132940674913],["nemzeti",-9.105441557256182],["terület",-9.105463657469734],["Ukrajná",-9.105644177197988],["70",-9.106008415492152],["közlemény",-9.106527049145674],["érkező",-9.106909361828759],["ír",-9.10881971884379],["közösség",-9.109196432066236],["28",-9.110399254588772],["NB",-9.110839639931157],["já",-9.111659347631015],["ása",-9.112122689783657],["nyugati",-9.113080379124014],["régi",-9.117108580482096],["hozott",-9.118604579375408],["kezdett",-9.118720257840554],["francia",-9.119017793155564],["fa",-9.119160460897529],["jában",-9.121358857629577],["eredmény",-9.121418353425327],["föld",-9.122181538433209],["fogja",-9.122412217439871],["időben",-9.122671258121263],["külföldi",-9.123005965321326],["kar",-9.123174885970851],["közlekedés",-9.12319794957022],["változás",-9.123567170766567],["április",-9.123840082774581],["folyamat",-9.124327136459364],["ló",-9.12483999104925],["igaz",-9.124931185396157],["szakmai",-9.125005232581618],["zárt",-9.125436398718639],["35",-9.125834328977893],["elé",-9.127652452301486],["áram",-9.12780187222204],["negyedév",-9.12844994957971],["független",-9.129712224593423],["Két",-9.130035057108532],["Azt",-9.130382611698327],["válság",-9.133668066505047],["többek",-9.136890496735063],["közé",-9.13857174942881],["június",-9.140706300221012],["gyakra",-9.140740588211951],["budapesti",-9.141266101234555],["projekt",-9.141334177575324],["ink",-9.143265313226806],["ter",-9.143272364600396],["ezút",-9.143484301991482],["hagy",-9.144329199319122],["forrás",-9.144733400707548],["egyszerű",-9.145666467914523],["hivatal",-9.146567866991514],["tudott",-9.147362177275292],["szerepe",-9.147522004955807],["igazá",-9.148597341949467],["indul",-9.149329303280398],["célja",-9.15001359636894],["találta",-9.150842322776207],["országos",-9.15149224250679],["bíróság",-9.151878332104909],["ideje",-9.153461413520162],["nevű",-9.15410486286122],["törvény",-9.154691966570734],["di",-9.157447530815272],["rendkívül",-9.157508840031289],["szerzett",-9.157607718001906],["szerepel",-9.158107870233465],["hal",-9.16161784099284],["lépett",-9.162441943975345],["személyes",-9.164556670196248],["kampány",-9.165671777481059],["gondol",-9.16641266745837],["tegnap",-9.167414738844155],["érkezik",-9.167873538377776],["adta",-9.168106687389187],["feladat",-9.168350477550922],["tartj",-9.169180783114388],["együttes",-9.17066601457773],["jellemző",-9.170775796364463],["havi",-9.171830326987225],["sajtó",-9.172805964003013],["mégis",-9.173758743653364],["átlag",-9.174703732841706],["erő",-9.175107704651635],["eb",-9.177202924013024],["fi",-9.177321914593499],["soka",-9.178395948626164],["forgalom",-9.182184553035743],["egykor",-9.18290564604483],["díj",-9.183166921850681],["országban",-9.18452919720741],["mostani",-9.184755387961777],["Még",-9.18496986206992],["élete",-9.185175699723901],["29",-9.187588376479697],["idején",-9.190295851337671],["vagyis",-9.191230962431462],["persze",-9.193244225148455],["járó",-9.193552523337457],["ipari",-9.195240530087158],["beli",-9.196514844646547],["vizsgálat",-9.196973750708064],["ingatlan",-9.197742517518751],["emelked",-9.199525092457353],["létre",-9.200201886052586],["bizonyos",-9.200501749770602],["szer",-9.200661747383393],["elsős",-9.200853935882735],["fegyver",-9.20094818377573],["hadsereg",-9.20118990239119],["beszél",-9.201236537048487],["próbál",-9.204196733074248],["Zoltán",-9.204618598288741],["jé",-9.20504775639451],["dél",-9.205691415299635],["mögött",-9.208066735982898],["térség",-9.209430269850664],["oknak",-9.20972901772164],["vezetés",-9.21193834297446],["adni",-9.212031992345805],["ov",-9.213909756268407],["bizottság",-9.215137000676744],["iránt",-9.215461872314233],["fény",-9.216659595366561],["végig",-9.216679600427621],["épp",-9.216757792150036],["zöld",-9.218446700565881],["gól",-9.218849471519686],["klub",-9.221225725715154],["ná",-9.221609889565158],["eljárás",-9.222659068900228],["tekint",-9.223716045743338],["ill",-9.225611856155478],["Fel",-9.227076922451666],["település",-9.227228677524606],["úton",-9.227230191153762],["mindössze",-9.227718225083255],["bor",-9.228128860107528],["hőmérséklet",-9.228912677751058],["napok",-9.229087293504566],["történet",-9.229886302304326],["különleges",-9.23026552717562],["részét",-9.231565644284824],["elektromos",-9.232656107914085],["Eb",-9.23271828194471],["Tamás",-9.23272152702474],["um",-9.233197777078397],["szerte",-9.233543282205567],["élelmiszer",-9.234500918341789],["vá",-9.23472008615455],["gép",-9.235327438632956],["vették",-9.23614133006043],["pontosa",-9.236798254655133],["nyár",-9.236833558489813],["baj",-9.238016776927907],["globális",-9.239648274808467],["egyéb",-9.24058738182843],["90",-9.242112806576316],["tagjai",-9.2421313439148],["beruházás",-9.243251135768876],["kkel",-9.243763881883996],["többi",-9.244553329063415],["ök",-9.245675877254044],["jövőben",-9.246129989742748],["írt",-9.249163993119717],["Európába",-9.25617447165972],["beteg",-9.256298506037641],["állás",-9.256812501861782],["egyszer",-9.259332294841592],["színész",-9.261346890641253],["mérkőzés",-9.262580096704252],["ci",-9.262942956228764],["sikeres",-9.264027492516583],["indított",-9.26409702399504],["keres",-9.26617490661383],["változ",-9.266603041479431],["tagja",-9.267747978945845],["31",-9.267896571006474],["eit",-9.26799077749692],["főváros",-9.268981020270825],["alig",-9.271965558169114],["Sándor",-9.272260006763375],["ször",-9.27303364209855],["alakult",-9.273645596856044],["ös",-9.2742206648525],["találkoz",-9.275755185463774],["döntő",-9.276595738327533],["együttműködés",-9.276705887615204],["lengyel",-9.278181664382563],["közvetlen",-9.279664051128501],["digitális",-9.279738399044604],["okozta",-9.281149809600796],["szakember",-9.281161174717418],["látsz",-9.281876420432273],["ók",-9.282904730122848],["der",-9.282962169286126],["különöse",-9.28323036227042],["darab",-9.283538504426197],["látj",-9.284518652523325],["jegybank",-9.28524785751886],["ellátás",-9.286003744969896],["szakasz",-9.28626608661735],["Szent",-9.286701664818521],["kár",-9.287413421947015],["Országos",-9.287473019696831],["dr",-9.28781728149558],["500",-9.291221226608643],["bér",-9.29122588850396],["járt",-9.291610404454111],["területén",-9.291651724102246],["tájékoztatás",-9.295630276566312],["éhez",-9.296350096158648],["ic",-9.296626608603415],["test",-9.297833828263371],["közép",-9.298316207929414],["og",-9.29890000511256],["női",-9.301755156127825],["ővé",-9.301895774577813],["várt",-9.301983405867997],["találkozó",-9.302158612710793],["Attila",-9.302168609437597],["okra",-9.302479704798921],["szín",-9.302783626576787],["használt",-9.305984032254202],["területen",-9.307376740843269],["labdarúgó",-9.308227439524696],["Gábor",-9.309787747995546],["pontos",-9.311551248191327],["családi",-9.31217285223795],["fiatalok",-9.313359826919452],["általán",-9.313564245817721],["külügyminiszter",-9.313822470807995],["x",-9.318973339938792],["tartani",-9.319513528656573],["eddigi",-9.323011144719597],["arany",-9.32398955574251],["ekkor",-9.324078490089239],["orvos",-9.324145865442382],["állapot",-9.32528174596927],["Kf",-9.325318482598323],["továbbá",-9.326597066156749],["fizet",-9.327929139738291],["körülmények",-9.32973378388295],["rész",-9.331005855916647],["melyek",-9.331153046827884],["általános",-9.331586498707638],["vezet",-9.331586567108264],["közepé",-9.33179600989655],["ától",-9.332212282921255],["alakul",-9.333259883835996],["lo",-9.334783196549473],["bank",-9.335362728759087],["rendezvény",-9.336609266089836],["gyorsa",-9.336742064107874],["Fidesz",-9.33692236994436],["lehetet",-9.338679863392546],["dolog",-9.340858755654551],["eredeti",-9.340866478805676],["állat",-9.344554749574815],[";",-9.344810626320976],["negyedik",-9.34504633361584],["források",-9.346102199232561],["nappal",-9.348249064627087],["legin",-9.348447027842088],["keretébe",-9.348493515907949],["mindkét",-9.351147621377176],["kormányfő",-9.351987261903155],["tervez",-9.352118332334541],["kérte",-9.355076631756237],["tervezett",-9.355836783569252],["véget",-9.356699616350166],["hamarosan",-9.356909922143963],["okoz",-9.358623747831281],["magyarok",-9.359276229903626],["játszott",-9.360084918009054],["szezon",-9.360443735679095],["fej",-9.360852427184582],["hosszabb",-9.360903428808921],["összese",-9.362101453984895],["magam",-9.362207385094083],["lal",-9.36262486727855],["fizetni",-9.362782082923044],["vállalatok",-9.36282969943613],["közelébe",-9.363350517182178],["várhatóa",-9.363945934431566],["csökken",-9.364728756000734],["alacsony",-9.364823449056285],["tanács",-9.365335654224655],["Van",-9.36547046494614],["mutatj",-9.367394086645955],["olt",-9.367855210619577],["nyal",-9.368613258841412],["András",-9.368947989370417],["támogatást",-9.36942001482402],["nagyjá",-9.370527501727478],["kör",-9.371353382945339],["iskola",-9.37151618524129],["osztály",-9.372183699419185],["felett",-9.37292802843357],["Németország",-9.37295339933071],["közönség",-9.373887870131147],["válasz",-9.375286480346194],["kezdődött",-9.375605680331528],["mondott",-9.375818476545865],["ente",-9.376587201418712],["pénzt",-9.379044555993449],["arc",-9.379986163494717],["nyert",-9.3808706691296],["eszköz",-9.38104640635055],["választ",-9.381145338116653],["kiállítás",-9.381798573903925],["belső",-9.382673459484517],["ü",-9.383597307441168],["intézkedés",-9.384034481342082],["fogyasztás",-9.384112532014191],["Hogy",-9.385478062497684],["endő",-9.387505963789724],["termelés",-9.38807335225891],["gyakorlati",-9.388473759066919],["élmény",-9.388734871023726],["man",-9.39258030350156],["kereslet",-9.39275676560158],["szempont",-9.39340138739996],["mértékbe",-9.3937834839342],["problémák",-9.393813114063356],["tavalyi",-9.395754799153647],["előadás",-9.397839644123422],["szállítás",-9.397904476159436],["lel",-9.398010079110268],["Csak",-9.398090881334078],["oltás",-9.39825584127186],["részben",-9.399248179968936],["csapatok",-9.400038347914217],["jármű",-9.40236778644724],["szolgálat",-9.40322907721772],["éből",-9.403594079097854],["vásárlás",-9.404117954069388],["megjelent",-9.404344319367446],["Ukrajnába",-9.405127515996718],["Zelenszkij",-9.406055276553117],["hitel",-9.408955071593077],["talált",-9.409254728697881],["igazi",-9.410296091885419],["magyarországi",-9.410922833869844],["csúcs",-9.411445609999197],["véli",-9.412172700679854],["nyílt",-9.412491848116465],["hozta",-9.415456130724813],["férfit",-9.415917696700951],["előbb",-9.418629575495636],["Észak",-9.418887450285705],["friss",-9.419823888811344],["konfliktus",-9.420180966998096],["talál",-9.421317738099464],["forduló",-9.423273943528653],["kiemelte",-9.424027048472599],["szerű",-9.424650077264522],["halálos",-9.424894289309538],["szerződés",-9.425326312126913],["közölt",-9.425654836159069],["segítség",-9.426281767804802],["nevezte",-9.428766385945703],["hang",-9.42939705591828],["lyel",-9.431226258109572],["nal",-9.431587341211696],["aktív",-9.431680169494534],["Mind",-9.433517943981496],["időt",-9.43394967924195],["György",-9.433954808053834],["hagyományos",-9.435029989534357],["kötött",-9.437756014149695],["ába",-9.43837058698202],["ch",-9.439184542334228],["Vlagyimir",-9.440318708013443],["erdő",-9.440597536481302],["75",-9.442226807738287],["bajnokság",-9.442770662165225],["képe",-9.44473034789501],["körülbelül",-9.445975198317514],["segít",-9.447029936135607],["felvétel",-9.447627445099986],["300",-9.447823601788926],["gyár",-9.45029263898714],["tervek",-9.451052062193362],["zott",-9.451683489409696],["nevé",-9.452097483001499],["számol",-9.455378699996768],["Ezen",-9.45557932834257],["háborús",-9.455958658110447],["fesztivál",-9.457812904574238],["okon",-9.459415219927738],["tor",-9.460112462149937],["ver",-9.461218421987947],["költségvetés",-9.462410261220798],["információk",-9.464642007158133],["tűzoltók",-9.468282171279753],["keleti",-9.468448759911771],["töltött",-9.468821790968185],["Re",-9.469343626408806],["derül",-9.470974482611208],["plusz",-9.471372236714817],["gyártás",-9.471677474469779],["érzi",-9.472829933791656],["sajn",-9.473951741851618],["munkát",-9.474002746558128],["angol",-9.474598391252357],["állítj",-9.474649302660914],["mondja",-9.475696098081263],["vér",-9.47590812345566],["Debrecen",-9.476455010837686],["kamat",-9.477111290188649],["bal",-9.477474480543142],["hív",-9.47825849719195],["tudju",-9.47904117646154],["vég",-9.479962435558596],["vége",-9.480533302500769],["felnőtt",-9.480912979609718],["ette",-9.480917526697528],["biztosa",-9.480959190093394],["Ugyanakkor",-9.481057635270766],["kíván",-9.481652668355228],["bejelentés",-9.48209072708889],["hullám",-9.482955006249725],["vállalkozások",-9.483627678105107],["TV",-9.48438595585753],["Gergely",-9.484869480962939],["oktatás",-9.485376033647132],["legmagasabb",-9.486430973141832],["pályázat",-9.487065576924543],["Itt",-9.48729356694615],["ránt",-9.488949059730585],["alapvető",-9.48943569421142],["akció",-9.4901289811908],["megállapodás",-9.490200113157611],["osan",-9.490456502068948],["ipar",-9.490653626904528],["óriási",-9.491127044151028],["jával",-9.492122558882528],["Bors",-9.492291489945874],["id",-9.492803741789345],["kereskedelmi",-9.493370379899702],["munká",-9.494768311031063],["szal",-9.49490027063342],["vi",-9.495085264461911],["adtak",-9.49531378471507],["eredménye",-9.497041638895524],["Ő",-9.49760995966577],["kislány",-9.498114579325774],["oly",-9.498290841943485],["látta",-9.498528125830834],["…",-9.498629181090761],["asszony",-9.498631085371724],["ég",-9.499654643804188],["támogatj",-9.499705226409745],["tartják",-9.501903169019515],["szektor",-9.50304124974214],["rajta",-9.50330459021044],["szenvedett",-9.503599533426895],["láb",-9.503875307796115],["megy",-9.504298771152463],["ce",-9.505066018931242],["debreceni",-9.50570455530556],["szolgáltató",-9.506159519633943],["34",-9.507137847708556],["jai",-9.50732185308233],["tudjá",-9.50806966853476],["földgáz",-9.508337298088032],["meccs",-9.509677781387257],["Kijev",-9.510259787226373],["tuk",-9.510502240032064],["nunk",-9.510575534648726],["OT",-9.510632018008655],["of",-9.510699345753068],["mások",-9.5116814328258],["SZ",-9.511977458632437],["pozitív",-9.51247957298509],["vírus",-9.5125724673662],["szerda",-9.512671545434166],["400",-9.51281537819552],["embert",-9.513904185306549],["rendőr",-9.514696183332637],["szét",-9.51476227800492],["követ",-9.5149387211593],["jut",-9.515224430416154],["elhunyt",-9.515750301336237],["Sok",-9.516376395670708],["előtti",-9.516914824397249],["Kína",-9.517290855096682],["Megyei",-9.519066813624729],["méter",-9.519271870785051],["szereplő",-9.52061221599345],["Ugyan",-9.520986197506778],["jelölt",-9.52176244992772],["Zsolt",-9.522039755175644],["József",-9.522109073230357],["Új",-9.522579174704003],["hangulat",-9.522917817484135],["gyakorlat",-9.52349719148593],["olasz",-9.523508533507353],["szerinte",-9.524105729623678],["usz",-9.525000689598471],["jára",-9.526266764203637],["remek",-9.526970671133444],["kért",-9.527049225390073],["nemrég",-9.527311108589092],["baloldal",-9.527863263555505],["magán",-9.528225894782883],["központ",-9.52848692002593],["ör",-9.528509045146063],["adás",-9.528532739228368],["helyet",-9.52854143588017],["várja",-9.529123159482562],["ivel",-9.529687183379256],["fiú",-9.53074831213872],["nyugdíj",-9.530788217094816],["eső",-9.530831824332926],["közösen",-9.531735507337732],["terv",-9.53388385084295],["The",-9.534481337220285],["intézkedések",-9.53508213667617],["folyó",-9.538364245549875],["könyv",-9.538435573993771],["veszi",-9.538505874311808],["természetese",-9.539036286411308],["jelentés",-9.539220747176984],["civil",-9.5406633275954],["lehetséges",-9.54110135018568],["nyilvánosság",-9.542012120541091],["vállalkozás",-9.542071564725259],["jogi",-9.542289597210576],["munkájá",-9.543293390973478],["kötelező",-9.543296047898664],["igazgatója",-9.543524741750218],["alkalm",-9.543642750771719],["emelte",-9.54394942082595],["áldozat",-9.544548919872252],["Emellet",-9.54459120947123],["nyel",-9.54463492921445],["öröm",-9.544900147701],["falu",-9.545013824688265],["képzés",-9.545388150605453],["38",-9.547546601990053],["bajnok",-9.547941041373385],["hírek",-9.548227674768953],["hivatkoz",-9.548455163832749],["atlan",-9.548931808530849],["látni",-9.549415409122872],["mutató",-9.549602806443229],["vezetet",-9.552365640085743],["ly",-9.5525542809676],["utaz",-9.552628519401114],["értéke",-9.552693671378291],["média",-9.553849395181377],["45",-9.554133257120927],["telefon",-9.558325546095471],["Központ",-9.558785122364506],["Én",-9.558973388895447],["lapunk",-9.55931244464539],["legújabb",-9.559332035322495],["üt",-9.561214931977178],["nekik",-9.561657967487328],["esz",-9.562262554428255],["Köz",-9.562487898997777],["vezetői",-9.562695054602049],["vonat",-9.564065502434419],["államtitkár",-9.564449982267165],["természetes",-9.564452652763869],["forgalma",-9.564543513661112],["Ne",-9.564914165872082],["mondani",-9.565157085954501],["bíz",-9.565336694458974],["számíthat",-9.56559059785005],["mire",-9.565670814789982],["olvasható",-9.565747274244819],["áron",-9.566348180578345],["amennyi",-9.566755735363824],["annyir",-9.566901936297823],["kapacitás",-9.568142641901453],["családok",-9.568619150108777],["Bo",-9.569133831136156],["portál",-9.570408909261765],["Covid",-9.570440981916562],["városban",-9.570578507687012],["üzemanyag",-9.571988966283964],["co",-9.572948025590733],["tem",-9.575304427399647],["könnye",-9.575371168897973],["Szabó",-9.575407657165478],["44",-9.575662554262255],["37",-9.57664173395],["Jó",-9.578182499029872],["199",-9.578450098664234],["csomag",-9.579076430376738],["gyártó",-9.579523558594587],["hazánk",-9.580465529958751],["győzelem",-9.580503079284608],["rendez",-9.580666542699493],["zó",-9.58136463287585],["utca",-9.5820388163885],["emberi",-9.58293397954704],["ennyi",-9.585565387005854],["kocsi",-9.585623003108454],["különbség",-9.586352247585747],["lak",-9.58745575718681],["zni",-9.587484358289288],["természet",-9.587581812578893],["működő",-9.588144195815968],["területek",-9.589210098112773],["foglalkoz",-9.591455618969526],["hajó",-9.591537887896155],["36",-9.59199554400696],["hiába",-9.594224551226883],["kilométer",-9.5949428655634],["fehér",-9.59605056990645],["ö",-9.596650303565438],["hasonlóan",-9.597693023319543],["dolgozott",-9.600481542983694],["Ráadás",-9.600673886609844],["vendég",-9.600952844911529],["kínálat",-9.600969632546462],["vendégek",-9.601996340898273],["32",-9.602212251463566],["téli",-9.604714719983452],["segítsége",-9.604822923592128],["magunk",-9.605669176695042],["napokba",-9.60570176250808],["Tanács",-9.605793687746427],["említett",-9.607250207073783],["onnan",-9.607490822551958],["készített",-9.608370808016762],["jét",-9.608510844625108],["enged",-9.609990940683273],["jegyezte",-9.610287793268089],["pályár",-9.61040914103048],["egyetem",-9.610563997669685],["'",-9.6109439032758],["dolgok",-9.610998801850046],["révé",-9.61220661434422],["katonák",-9.612333831728812],["államfő",-9.612341776179237],["tartana",-9.612819302968889],["jelezte",-9.612883056626634],["hetek",-9.613115698504384],["szik",-9.613579702061589],["menekültek",-9.614750460759382],["hétvégén",-9.615744325011761],["dolgozó",-9.615951554180274],["tökéletes",-9.616125982449823],["kommunikáció",-9.616473314703363],["kínál",-9.617147890525857],["szakemberek",-9.617711742170407],["bejelentette",-9.618545944360463],["helyszíne",-9.618564840535987],["33",-9.618890624665292],["okozott",-9.619145169872734],["bajnoki",-9.619378178911923],["nyári",-9.619617866935275],["Szövetség",-9.620687422190514],["mobil",-9.620850499381543],["fekete",-9.621368942955659],["hívta",-9.62144500732281],["kert",-9.621469691463542],["nemzet",-9.621929730424409],["évtized",-9.622665279680993],["000",-9.622671888762781],["nyitott",-9.62308321345672],["keret",-9.623216106285357],["kérdések",-9.624233504681747],["hagyta",-9.624641572114655],["nyomá",-9.62533354609791],["Mol",-9.625831118253519],["szeretne",-9.626103204467205],["modell",-9.626485035203828],["ekre",-9.627477330417275],["időjárás",-9.627713850314109],["egyéni",-9.629365062856515],["kiderül",-9.629711349788309],["séget",-9.630077691935343],["tábor",-9.630400176046106],["hisz",-9.630563730642857],["esti",-9.630998844722424],["szén",-9.631530431252958],["sztár",-9.631539172593737],["folyamatos",-9.631672598742165],["probléma",-9.63183234374976],["Instagram",-9.631832346817403],["csökkenés",-9.63215939342815],["ötödik",-9.632297916526888],["levegő",-9.632985210755216],["Akkor",-9.633091052373622],["körüli",-9.63393141252103],["élt",-9.634109180897209],["index",-9.634327512233458],["szülők",-9.635650255306386],["közt",-9.636132328762741],["évi",-9.636823668099783],["zajl",-9.636837900468805],["tettek",-9.637517545071152],["felmérés",-9.638158269054635],["meleg",-9.640521493504234],["erősöd",-9.6411810392989],["folytat",-9.64218836917107],["negatív",-9.642443725074092],["szakértő",-9.643069127157872],["szállított",-9.643456601739793],["téren",-9.643462680422562],["esen",-9.643552723772753],["fajta",-9.644541359874655],["edző",-9.644896400606255],["felül",-9.646372095627163],["megye",-9.646440231119023],["sors",-9.646534422024219],["Varg",-9.646872863545145],["mellé",-9.647085836089921],["Twitter",-9.64779012866921],["nép",-9.648758173651165],["anyagi",-9.649157671919998],["szünet",-9.650317171838077],["növek",-9.651936777539346],["felesége",-9.652421632504165],["GDP",-9.653169892207366],["fal",-9.653218677538614],["külső",-9.653253751307396],["árfolyam",-9.653281072482958],["következté",-9.654139265145488],["ált",-9.655081439086702],["másfél",-9.656079059757548],["tag",-9.65609750445658],["papír",-9.656311089747476],["anya",-9.656376688825429],["idős",-9.657340722477208],["tanár",-9.657348554198927],["vádlott",-9.657929719678434],["boldog",-9.658352532343283],["Zay",-9.658707933477956],["zás",-9.658877699241794],["írás",-9.659626221258074],["érvényes",-9.659738225409935],["Nagyo",-9.660977630792742],["megyébe",-9.662685234969842],["egyértelmű",-9.66319980659265],["kórház",-9.663199922544893],["interjú",-9.664233283073969],["úr",-9.66620669824984],["folytatód",-9.66910652882125],["körébe",-9.67101629755139],["szakértők",-9.671577033060487],["Nyugat",-9.672547221953426],["mozgás",-9.67272819367755],["halad",-9.673538416667903],["péntek",-9.673656516386163],["hatóság",-9.674302570279268],["lő",-9.674340703154897],["tanulmány",-9.674464879931968],["események",-9.67459210116759],["kelet",-9.674840316324921],["Tóth",-9.674965730579947],["39",-9.675148542349476],["szabályozás",-9.675392084900832],["örök",-9.675439013742011],["von",-9.675683872314126],["menni",-9.675924190685123],["kon",-9.67623533878741],["figyel",-9.676501210487654],["helyzetbe",-9.677372105536456],["pi",-9.678053002299505],["Dr",-9.678142428104255],["őr",-9.680073734854854],["rendelkező",-9.680138214310007],["ozás",-9.68028158851584],["ós",-9.680387853992729],["folytatás",-9.680505847264143],["nyom",-9.68138965924512],["nekem",-9.681863640562675],["szüksége",-9.682357137497227],["zon",-9.682696377733798],["pályán",-9.6830035159737],["szoros",-9.683169091316564],["többsége",-9.684498296661932],["fotó",-9.68514585096872],["közeli",-9.68567873217217],["Balázs",-9.686046176903433],["egymást",-9.686116897475152],["mű",-9.686301875726134],["sokszor",-9.686634450427249],["zár",-9.687552328727683],["sérülés",-9.68792769466894],["templom",-9.688299773206365],["szabályok",-9.688724505266794],["díja",-9.688847181602998],["kér",-9.688900962386114],["technológiai",-9.689584617603634],["autók",-9.690033797202933],["cz",-9.690503727610857],["meghalt",-9.69083752679805],["akit",-9.69102385692975],["Ilyen",-9.691636313337746],["41",-9.692929637373954],["vagyon",-9.69321499855715],["délelőtt",-9.693565901655726],["export",-9.694552231998676],["kilenc",-9.696446094167399],["Moszkva",-9.697250617561732],["helyzete",-9.69832448302182],["tárgyalás",-9.698768172453782],["Debreceni",-9.698791810074805],["mer",-9.699347216024378],["gyermeke",-9.70005027110385],["béke",-9.700709880547578],["déli",-9.702409794365192],["történelmi",-9.702914068000442],["énekesnő",-9.703019972061865],["szerencsé",-9.704311626780722],["sége",-9.704973552428939],["pal",-9.706203379907931],["son",-9.706443897666459],["küld",-9.706784717715358],["mentes",-9.706793156997183],["csatlakoz",-9.706980688799206],["tudom",-9.707555724217446],["nyelv",-9.708382578606908],["sérült",-9.709186516764369],["élni",-9.710033751640681],["Ám",-9.711451300344322],["nyerte",-9.711855616750526],["vehet",-9.71208386949112],["Tovább",-9.712331581896553],["nyire",-9.712395070936033],["Ami",-9.712872432014656],["szervezetek",-9.713005302565819],["azonos",-9.71312565116089],["&",-9.714296418578476],["pontot",-9.715862467490929],["tőle",-9.716221935816883],["busz",-9.716375735097795],["költségek",-9.716461239394599],["gyermekek",-9.716903052814587],["Szerinte",-9.716956778388868],["ideig",-9.717568236647908],["nyilatkoz",-9.71764675511149],["nők",-9.71773339477062],["egyedül",-9.717869475946602],["48",-9.718026449783558],["író",-9.71806823201958],["lehetne",-9.71843205970163],["énekes",-9.718687371974323],["szeretnén",-9.719984648419189],["Szijjártó",-9.720043545031356],["Fontos",-9.72004426659711],["hírügynökség",-9.720131660927503],["sá",-9.721140270751704],["éven",-9.721290847918167],["49",-9.722461732632384],["összege",-9.7226436070268],["vitt",-9.723678464728383],["kezd",-9.7237079559923],["kétszer",-9.724879489151041],["akarta",-9.726057306475479],["mindez",-9.726454306716283],["mutatott",-9.72678558990648],["nyújt",-9.727689531606067],["tulajdonos",-9.728387325350326],["könnyű",-9.729201710511543],["sincs",-9.731653385392029],["érzés",-9.731970721581073],["drágulás",-9.732785583061318],["immár",-9.733128921131435],["érkezte",-9.733352255738495],["emlék",-9.735014550698011],["lakossági",-9.735019140595522],["váltás",-9.735064090856524],["órák",-9.735160416140047],["értékű",-9.735741551097753],["akart",-9.736526174066453],["olimpia",-9.737007291466465],["segíti",-9.737953519701115],["országgyűlési",-9.738799754970778],["kezdőd",-9.738930209100982],["unkat",-9.739580576693943],["szervez",-9.74029457160905],["utas",-9.74051128449334],["mély",-9.741687367643],["int",-9.742208115618167],["információ",-9.742335283390311],["tárgyalások",-9.743034426233201],["testület",-9.743370807795554],["sajtótájékoztató",-9.743611000481703],["hatj",-9.744058879186568],["nyilatkozta",-9.745576440009401],["tető",-9.746620862039006],["menekült",-9.747208352923268],["társ",-9.748698190793526],["Mindez",-9.749374928312733],["segíteni",-9.749377950430134],["kifejezett",-9.74950120855759],["befektetés",-9.749553825267803],["húsz",-9.74987206535917],["55",-9.750308296334108],["No",-9.75034933945476],["kihívás",-9.750613458336018],["hó",-9.750811804897364],["napos",-9.75116111674706],["eredmények",-9.75126844823884],["bolt",-9.751579194347823],["kezdeményezés",-9.753392532374306],["ését",-9.75409106284128],["alacsonyabb",-9.75433106298793],["legutóbbi",-9.754695194596358],["ismer",-9.754948176546682],["jelentett",-9.755404519206952],["fizetés",-9.755720486282046],["napján",-9.755827402793733],["ru",-9.755983740669038],["utat",-9.756045708039],["távo",-9.757460762888677],["történtek",-9.757945556517065],["minke",-9.758582221978653],["választások",-9.758648790545417],["ellenzéki",-9.759231595040148],["intézmények",-9.759281756613005],["emiatt",-9.759663206202724],["gond",-9.759876022659883],["látott",-9.760716944263768],["tenger",-9.760917996939945],["előzetes",-9.761229051861097],["adatokat",-9.761324674430707],["kiemelt",-9.761604509436317],["tehet",-9.763850724821202],["szent",-9.763855472751274],["sé",-9.764238823629347],["tényleg",-9.76711014222797],["Biden",-9.767267198096466],["Nemzetközi",-9.767272047513426],["némi",-9.767640074284667],["hatatlan",-9.7683373201886],["népszerű",-9.769808902776699],["tartozó",-9.770493040524816],["kormányzati",-9.772201448348566],["nyugat",-9.77221856253168],["Kovács",-9.773310761395578],["zenekar",-9.773920029636892],["példa",-9.774273199491144],["öl",-9.774485358804709],["érezte",-9.775297169850216],["beszélgetés",-9.776392868336487],["táv",-9.77681689741722],["del",-9.777592980894443],["széles",-9.779076743735558],["mutatta",-9.779186289760924],["diák",-9.779338607824673],["park",-9.77974396098913],["engedély",-9.77980221849476],["junk",-9.780148699497042],["veszély",-9.781056691249816],["Anna",-9.782611200629221],["jék",-9.782646426307902],["Á",-9.782858417949974],["ását",-9.783528495116627],["kiváló",-9.783749714563406],["mindenképp",-9.78386334287794],["ális",-9.784183279570325],["Olyan",-9.785766671311483],["En",-9.786106994849561],["állított",-9.786147189309728],["energiaárak",-9.786434723150123],["király",-9.786548042555815],["fűtés",-9.788129100702555],["ág",-9.789156063626471],["beszámolt",-9.78926721955521],["egység",-9.790514833574354],["közzé",-9.79124053418969],["Y",-9.791436082498098],["ide",-9.791438995568233],["Franciaország",-9.792162288869902],["PC",-9.792423576548217],["In",-9.792760759641688],["sose",-9.793518865818875],["56",-9.794429803296861],["adja",-9.794601114309025],["kemény",-9.79574848264809],["könnyebb",-9.796076856769112],["szülei",-9.796133790860075],["hozni",-9.79677685645094],["kockázat",-9.797831019236835],["számú",-9.797938752194426],["rekord",-9.798539956833153],["veszélyes",-9.79951500288507],["reggeli",-9.79968474833802],["nyomás",-9.799686232564259],["napja",-9.800470068651133],["import",-9.801178987880157],["megjelen",-9.80151245219879],["vevő",-9.802106925776988],["Össze",-9.802571607804762],["szeret",-9.802906793517527],["negyed",-9.80374243883749],["itthon",-9.804317989413253],["Lengyelország",-9.80436394271829],["diákok",-9.804615293258724],["kettő",-9.805386729420443],["játékosok",-9.805443645995961],["tömeg",-9.80741446639519],["esetleg",-9.807586246120318],["zik",-9.808802830885655],["derült",-9.80968929583967],["Erzsébet",-9.810466276711479],["Királyság",-9.810827491360968],["származó",-9.811086623151327],["versenyző",-9.811100997683706],["ingyenes",-9.811780793186518],["képviselői",-9.813535142102335],["szombat",-9.8143698382463],["Katalin",-9.816804162205173],["43",-9.817582054735844],["munkatársai",-9.81768947473551],["helyettes",-9.818234880088003],["fürdő",-9.818677534394148],["választott",-9.819667539709908],["felhasználók",-9.82039545378073],["tisztelet",-9.821406893963964],["felső",-9.822694705186382],["por",-9.8230570035912],["generáció",-9.823164939229702],["híd",-9.823168199928016],["időre",-9.824243786425866],["nincsen",-9.824472160408067],["alapú",-9.824762260311939],["ró",-9.824762420261813],["félidő",-9.825816831271322],["kulturális",-9.825895576294092],["féle",-9.826049211895732],["biztosít",-9.826401666660416],["felje",-9.826482816244798],["Erre",-9.82665686054978],["kéz",-9.827454641276493],["javaslat",-9.828589082894284],["csapadék",-9.829282797731992],["ellenzék",-9.829298247528081],["kezelés",-9.829532748048639],["véletlen",-9.829560611902389],["nettó",-9.82993086995824],["cseh",-9.830412556282855],["part",-9.830483415177905],["velük",-9.83055016816323],["ersze",-9.830568421006902],["állni",-9.83071492936987],["kijelentette",-9.831076895869616],["költség",-9.831729269518906],["szabály",-9.832004458954785],["részvények",-9.83214442516267],["benzin",-9.83235344012715],["kizárólag",-9.83296731142019],["védelme",-9.833170365331934],["biztonságos",-9.833621905210446],["dolgozók",-9.83365684271007],["függ",-9.83403972007823],["nevez",-9.834280635080454],["stratégiai",-9.834427456048445],["tör",-9.83451918860099],["hete",-9.83517030344845],["Brüsszel",-9.836026692574295],["értelmé",-9.836050153581413],["állítólag",-9.836087341590302],["múlv",-9.837192151522903],["hónapok",-9.837593657312514],["hamar",-9.838247673258817],["szándék",-9.83832753101488],["elől",-9.839115889239949],["csapata",-9.839141474794772],["koncert",-9.839679603221152],["dolgozni",-9.839766731942301],["foly",-9.839779153032097],["valóság",-9.839789686859485],["téve",-9.840059488987603],["lehető",-9.841835126612875],["fejezte",-9.842328307683943],["Csaba",-9.842580251254022],["Ro",-9.842998539530427],["halál",-9.843369948920753],["egészséges",-9.843735965348914],["Na",-9.84397212979389],["helyre",-9.844460030217093],["csinál",-9.84473624030612],["Co",-9.844963094118217],["Európá",-9.84514572239789],["Di",-9.847037898219437],["induló",-9.847833742275641],["szólt",-9.848445482790586],["esetek",-9.848820301594163],["fegyverek",-9.849033216589591],["ellenőrzés",-9.849200069432213],["Dél",-9.849399155762482],["politika",-9.849925132940015],["rakéta",-9.850368367158506],["and",-9.850682564765362],["ikus",-9.851405508143829],["észre",-9.851875558300932],["külföld",-9.852050411758809],["bizony",-9.853245542231896],["fordult",-9.853412300285637],["idők",-9.8535427800049],["érdeklődők",-9.854128675711294],["ügyi",-9.854624160347297],["hetett",-9.854691819540548],["sofőr",-9.854825438449168],["szlovák",-9.855622943508926],["szóvivőj",-9.855659101369573],["harc",-9.855740850880112],["Idé",-9.855939684212245],["részén",-9.856164285870946],["Arra",-9.856321342271716],["hány",-9.856457105974568],["fizikai",-9.856486753298757],["65",-9.8565574228734],["hö",-9.85703531580146],["fejlődés",-9.857804709844967],["un",-9.857960032855898],["ására",-9.85829208042857],["küldött",-9.858509846341695],["nélküli",-9.85869439929726],["évet",-9.859419354025043],["amilyen",-9.85971452450978],["menet",-9.859888535912637],["programok",-9.860785010332535],["illető",-9.861104318683815],["halt",-9.86164777807521],["körben",-9.861778801246773],["stabil",-9.861888618815357],["élelmiszerek",-9.862112963288745],["nyilván",-9.862191720987799],["igyeksz",-9.862270524377905],["dollárt",-9.862482060257175],["nyomozás",-9.862694735690795],["irányul",-9.863035041198],["Budapesti",-9.86319077977073],["alkalmazás",-9.86399601655],["jel",-9.864014506282098],["eurót",-9.864988788077408],["hajlandó",-9.865629202701811],["bűncselekmény",-9.865797080486622],["600",-9.866636238915195],["művész",-9.867229617110024],["neve",-9.86791288624405],["osztott",-9.867968880101067],["ezre",-9.868488485795757],["dollárra",-9.868533888652685],["telen",-9.868910491214002],["társadalmi",-9.868924444882873],["egyszerre",-9.869261398909355],["Eh",-9.869613371062467],["részvétel",-9.870223414442982],["járművek",-9.870276665134728],["édesapj",-9.870503284155522],["melyik",-9.871032157288433],["rendszerek",-9.871838740821978],["távú",-9.872286904362312],["igénybe",-9.87251167654523],["bázis",-9.873838169985486],["tár",-9.87393010032372],["USA",-9.874011864999506],["baloldali",-9.874360540003684],["ágazat",-9.874487314393415],["ruhá",-9.874828707884788],["szolgáltatások",-9.875028417571068],["szánt",-9.875154809688889],["édesanyj",-9.875716696035067],["Jelenleg",-9.8758534493601],["lej",-9.876169856942344],["rendkívüli",-9.87619502571801],["íg",-9.87652211578258],["fordul",-9.876884505916088],["jegy",-9.87830394265058],["nyer",-9.8805332171045],["valójá",-9.881605376736715],["északi",-9.881802497271483],["végez",-9.882019408423837],["utal",-9.882285358708174],["társadalom",-9.88239252276993],["Sajn",-9.882432674058066],["állandó",-9.882705084324398],["apró",-9.883213476032568],["életé",-9.883533783026664],["zajló",-9.883993176862951],["eken",-9.884283639571692],["vezette",-9.887355234019264],["láthat",-9.887475952176551],["győztes",-9.887860013805724],["szi",-9.887915431429313],["modern",-9.888141946612471],["belőle",-9.889228818243541],["közleményébe",-9.889301420877853],["hirtelen",-9.88966818504155],["tevékenység",-9.8897936766507],["felhasználás",-9.891333449805039],["védő",-9.891549084035798],["gyanúsított",-9.89170745298586],["tudás",-9.891801551958668],["megelőző",-9.891899241132908],["met",-9.892311894903576],["vál",-9.893607417174842],["értek",-9.894051543137692],["városi",-9.895134527920968],["ült",-9.895341138178239],["atív",-9.895845409329123],["teszt",-9.89596629869235],["Tavaly",-9.896045035486548],["főkapitányság",-9.89608863480605],["típusú",-9.89644035541182],["sziget",-9.896988574554687],["emelkedés",-9.897018315536311],["ismeretlen",-9.897224783508895],["színésznő",-9.897241850629293],["alkalmas",-9.897982697243076],["polgármestere",-9.899414116757333],["központi",-9.90025737322802],["poszt",-9.900560246148755],["rendszert",-9.900583989672683],["akarja",-9.901051757225485],["vállal",-9.901367234439746],["szállás",-9.902598226687253],["Balaton",-9.902944004476211],["Tibor",-9.903029990731369],["rezsicsökkentés",-9.903945926719613],["mostan",-9.904238140164622],["Duna",-9.904473797622916],["mentő",-9.90551784520429],["járat",-9.90601128112796],["hónapja",-9.906086769408347],["barát",-9.906497737705738],["hatósági",-9.90769621213332],["támadások",-9.908530030831084],["eknek",-9.908701807471601],["szembe",-9.909310298453317],["nukleáris",-9.909885471011645],["Miklós",-9.909885866993568],["meglepetés",-9.909901579845926],["oogle",-9.90998910931419],["rendelkezésre",-9.91000495444516],["üzem",-9.910174189839246],["játékok",-9.911250053158774],["semmit",-9.911624805970565],["órakor",-9.911877771829475],["irány",-9.91216900162882],["aránya",-9.912629073497106],["napot",-9.912637492250928],["rendelet",-9.913610983029926],["ügyfelek",-9.913964994487433],["fogyasztók",-9.914215273866283],["csütörtök",-9.914247814663533],["elárulta",-9.914317832790339],["kerülhet",-9.914887563170513],["szolgál",-9.91499011436106],["használat",-9.916027972593003],["tekintett",-9.916876367933586],["elérni",-9.91820947859685],["produkció",-9.918418890048724],["tánc",-9.919126068883648],["bevétel",-9.91924917259616],["Elő",-9.919592373677357],["állította",-9.920676947195961],["Győr",-9.92397055507136],["do",-9.92499053680211],["piaco",-9.925907287000449],["talan",-9.926356638129391],["Cs",-9.926743943666349],["fejtette",-9.926787046327659],["tartottak",-9.927285326405762],["Természetes",-9.927326314041093],["vág",-9.927686187245982],["ást",-9.928533492840128],["szerezte",-9.928636338775888],["részletek",-9.92866499273333],["egészség",-9.929495413192031],["hús",-9.929751648782723],["ítés",-9.929927069053928],["pálya",-9.930693730956493],["vő",-9.930752206767874],["kéri",-9.930804243527167],["einek",-9.931152229121226],["meghatározó",-9.931180286332774],["helyezett",-9.931324403268619],["váli",-9.931396632205246],["cikk",-9.932444055770532],["kezé",-9.932887181519519],["erősítette",-9.933082783482213],["férfiak",-9.933516705788897],["ágy",-9.93376597382546],["kezdete",-9.935427941432774],["színház",-9.93675238703454],["gazdag",-9.9369809717073],["47",-9.93702084754647],["épít",-9.9372077876363],["Szeged",-9.938156059216382],["Blikk",-9.938162245435386],["dik",-9.938776373558053],["íz",-9.938996066653743],["észak",-9.941466113700738],["írtá",-9.941526861521492],["tengeri",-9.941940502116301],["hajtott",-9.942056773592373],["rég",-9.942088988121386],["működés",-9.942620385688059],["igény",-9.943333680200741],["hétfő",-9.943380144275697],["Nyíregyház",-9.943892229449164],["helyez",-9.94401147222526],["ánál",-9.94446439448049],["levél",-9.944979131299757],["létez",-9.945251046759687],["fogadta",-9.94537167880058],["Románia",-9.945616211232084],["védelem",-9.945639347880434],["esik",-9.945832804726205],["kőolaj",-9.946365562379313],["amire",-9.946627125807908],["betegek",-9.946672828362102],["felől",-9.946845494754049],["műszaki",-9.94725285695828],["királynő",-9.947305707486443],["vágy",-9.947429168337486],["csi",-9.948251398663235],["témá",-9.948271320030901],["figyelembe",-9.948523065347574],["bo",-9.949529954711146],["zene",-9.949859975906215],["Egyesület",-9.950991010728103],["forintr",-9.951476655723834],["áldozatok",-9.951996906148853],["Föld",-9.952263100972425],["ügyészség",-9.952432819818346],["Gulyás",-9.952596466162483],["fekvő",-9.952597375472452],["Krisztián",-9.952641161388035],["szerette",-9.954099556016272],["légi",-9.954502993409578],["esetleges",-9.955984743687775],["Er",-9.956246273312484],["lan",-9.957440942704782],["fegyveres",-9.957570412151778],["Azon",-9.95757265200251],["150",-9.957908956348435],["idézte",-9.958505429806735],["New",-9.959159448139916],["fővárosi",-9.959510650796247],["sebesség",-9.959900760926136],["jöhet",-9.95990133411682],["Kíná",-9.959950800879476],["holland",-9.96006677509332],["partner",-9.960212617548951],["számított",-9.960527745590639],["mesélte",-9.960774992271723],["kisfiú",-9.960836367158862],["ukránok",-9.961156157032342],["invázió",-9.961616883723337],["támogató",-9.961617208084895],["rájuk",-9.96179253418638],["bankok",-9.962130492916593],["ut",-9.962218621264448],["neheze",-9.964164966862828],["számok",-9.964484762958858],["szel",-9.965283537560419],["viszony",-9.965582158509093],["szék",-9.965651916490987],["ex",-9.966182881621645],["futó",-9.966528317503553],["+",-9.967248618871782],["igazgató",-9.968000918485608],["ságot",-9.968473164979692],["veszteség",-9.968795250876475],["kiemelkedő",-9.969767949841813],["világbajnok",-9.96981670242537],["enek",-9.969942164034277],["kész",-9.970215384721048],["reagált",-9.971060671765471],["Pál",-9.971118882018494],["élők",-9.971182770516519],["tárca",-9.97169151190664],["érinti",-9.971963895833472],["olás",-9.972101494001745],["nyújtott",-9.972320444253622],["beruházások",-9.97245405073179],["orvosi",-9.972987711608834],["győzelme",-9.973222877576184],["polgár",-9.973278115116281],["vesztette",-9.973365219424107],["kaphat",-9.973704309609356],["lőtt",-9.974412128878715],["dob",-9.974550051239559],["Kreml",-9.974656301765995],["kritikus",-9.974656366835003],["Volod",-9.974737180239197],["Miskolc",-9.974903941368844],["szerepelt",-9.975113362266967],["hideg",-9.975246890859388],["lassan",-9.975762600396015],["ád",-9.975865009994592],["oszt",-9.9760888787088],["folytatott",-9.977539899481267],["idegen",-9.977602773216013],["bíró",-9.977665031990847],["tiszt",-9.97779351166957],["fele",-9.978407731187612],["Vagy",-9.979145366450503],["Fi",-9.979340660502775],["dönt",-9.979763788458047],["szabadság",-9.980701194959874],["hi",-9.98078349641107],["részletes",-9.981105793474057],["konkrét",-9.982079160368388],["Isten",-9.982153148154119],["Igaz",-9.982261484834332],["ko",-9.98227390299106],["imir",-9.98243686511626],["érintő",-9.98313656286932],["ív",-9.983742483837064],["pl",-9.98448765980135],["hozzátett",-9.984534263966065],["emelt",-9.984909054726888],["mezőny",-9.98512118473013],["nünk",-9.98584063753276],["Rendőr",-9.98623346808538],["mat",-9.986454401764622],["42",-9.986530305759413],["idény",-9.987168342274135],["támogat",-9.987878540572293],["tele",-9.98797627103],["Mar",-9.988133133767649],["többség",-9.988269445486392],["napra",-9.98845061076887],["rendezett",-9.988519729721602],["egyedi",-9.988598177236323],["lelki",-9.989179421031368],["utak",-9.989705886469256],["beszélget",-9.989886496826834],["du",-9.990363696918607],["57",-9.990823220263305],["Volt",-9.991451631787212],["figyelmeztet",-9.993000960604107],["terén",-9.99373478971246],["árfolyama",-9.99380002645174],["vonatkoz",-9.99503722643513],["lánc",-9.995153446453223],["találni",-9.995379954990433],["kutató",-9.995576010243706],["módszer",-9.995895417980705],["területé",-9.996184048666201],["korosztály",-9.996435688485594],["fertőzés",-9.996722434893524],["nehezebb",-9.997072557506343],["érze",-9.997511907953868],["távol",-9.997689250715592],["magyarázta",-9.99791328044839],["jogszabály",-9.998426890374605],["súly",-9.998461545552617],["bármilyen",-9.998978547784617],["feletti",-9.999530726642039],["vezetők",-9.999875213099209],["használni",-10.000201458746929],["Márk",-10.001604198146914],["bír",-10.001956789113887],["lakó",-10.00299319867235],["órás",-10.00365676962491],["elem",-10.00442280439312],["köbméter",-10.004846881283289],["lehetőségek",-10.005319714992885],["döntést",-10.005511917553935],["lépni",-10.00675128259045],["tájékoztat",-10.007371937763597],["gólt",-10.00749592823529],["tartózkod",-10.007753515775828],["családja",-10.007799237732723],["záró",-10.008008344156806],["bárki",-10.009826692876093],["életük",-10.010536259213367],["páros",-10.010831868270143],["nézni",-10.011414693759574],["kori",-10.011750805444986],["termelő",-10.011883388385172],["évtizedek",-10.011940125409993],["mezőgazdasági",-10.012168876508794],["sértett",-10.012250566148566],["miskolci",-10.012539163051436],["aktuális",-10.012541993094885],["Első",-10.012570095181484],["Végül",-10.01264990859077],["küzd",-10.013340467132732],["programo",-10.01384453816269],["számlá",-10.01390030255741],["NSZ",-10.014000684148208],["kiadás",-10.014147924403435],["mérkőzésen",-10.015145022808127],["Benc",-10.015485767176418],["felhő",-10.015780509954414],["kapu",-10.017073904363423],["űr",-10.017148409676992],["meglepő",-10.01719696608409],["területeke",-10.018236324243148],["bemutató",-10.018455417245047],["intézet",-10.018978106882106],["végezte",-10.02014592423195],["Lajos",-10.020290638350364],["szociális",-10.020291225911457],["Károly",-10.020305329360179],["szobá",-10.020359574095652],["virág",-10.020539387056584],["energiá",-10.020576367142182],["katasztrófavédel",-10.020784242902165],["vad",-10.020861142195102],["Kis",-10.020887350921939],["etlen",-10.022256788564892],["évad",-10.023115936544016],["alatti",-10.023425716280236],["dolláros",-10.023917447555366],["mar",-10.024526137673394],["állatok",-10.02547891678193],["építés",-10.025935951783046],["segíthet",-10.026619545704586],["asztal",-10.026984242497244],["PlayStation",-10.028103600909962],["Intézet",-10.028103601031365],["Mihály",-10.028103601884716],["stílus",-10.028108313793485],["elegendő",-10.02811168303531],["őrizetbe",-10.02815330615092],["rosszul",-10.028417298196164],["mérték",-10.028573427393445],["áru",-10.028933039068967],["köztársaság",-10.029295539025258],["kedves",-10.031509743970613],["jünk",-10.03279286999135],["Kiss",-10.033022073371782],["utcai",-10.03334653602661],["országi",-10.034829532499131],["enként",-10.03639504811343],["Sport",-10.036566035850718],["teljesítmény",-10.036610498846198],["számukra",-10.036647632296592],["ítélet",-10.036997142489682],["mag",-10.037628410923412],["helye",-10.038000570526851],["címe",-10.038520397181372],["tál",-10.038585783352168],["vasút",-10.038847971271652],["hivatáso",-10.039272083658467],["eurós",-10.039567101909695],["védekezés",-10.040173434761972],["ilyenkor",-10.040760709915098],["rendszeres",-10.04164121468057],["rt",-10.041741755695856],["motor",-10.042589950181132],["Te",-10.042726406831013],["védelmé",-10.043798350805014],["labdá",-10.043913457008316],["Ádám",-10.043914516943182],["szempontjá",-10.044399845682662],["ler",-10.046187064384307],["tűnt",-10.046248659733042],["ős",-10.046986858201329],["Ny",-10.047261327952482],["sikerül",-10.04803911554962],["tartás",-10.04804749498892],["cel",-10.048498063891657],["vb",-10.048662398272288],["terem",-10.049438972891224],["szállító",-10.049463728373059],["mester",-10.049834815014991],["szervezők",-10.049943245221566],["vonta",-10.051031890336333],["brüsszeli",-10.051914124690203],["Xbox",-10.051936851656961],["Ukrajnát",-10.052122575247104],["Apple",-10.052221048362782],["áremelkedés",-10.05254386126347],["Ko",-10.052883755725276],["mód",-10.053002028987926],["honlapján",-10.053800324328648],["érdeklődés",-10.05409630816736],["kezdve",-10.055096668340267],["beszélni",-10.055454752092434],["miként",-10.05557622461503],["szívese",-10.056117445326283],["kül",-10.056615942960587],["szülő",-10.056789944997778],["problémát",-10.056848690662694],["orvosok",-10.057371136453558],["Bar",-10.057668321144904],["zavar",-10.05794966888783],["mo",-10.057984658111119],["tagállamok",-10.058385747464822],["tartós",-10.058859105634832],["valamit",-10.059245159891804],["kialakult",-10.059912470126992],["harminc",-10.059978640891016],["kénytelen",-10.059979156889147],["omikron",-10.059986144361023],["Mari",-10.060539740357058],["kapcsolódó",-10.060762387046793],["kapcsolatot",-10.061219832368842],["É",-10.061491829023314],["tapasztalat",-10.062252119305352],["segély",-10.062362739918163],["gyanúj",-10.062698406344332],["hátra",-10.063359082712097],["kezdet",-10.064206539172815],["bőr",-10.064254097134498],["mindenkit",-10.06454431098951],["részvény",-10.064738612907586],["férje",-10.065298224528846],["száj",-10.065919947866597],["jen",-10.066303721025832],["kutatók",-10.066379786424626],["jelentése",-10.06688225429621],["Val",-10.067302822979078],["faj",-10.067481617363645],["58",-10.067787078738146],["illegális",-10.068110518920964],["ud",-10.068557023124827],["találat",-10.068821318207181],["gó",-10.068919904217282],["dolgo",-10.069257903614883],["po",-10.06938294737035],["milliárdos",-10.069719603771494],["ébe",-10.070145748818582],["pénteki",-10.070539203941387],["közelmúlt",-10.070663749291445],["technológia",-10.070691723843002],["800",-10.071131487393954],["46",-10.071345155838806],["amik",-10.071592420622757],["ner",-10.0716516318925],["határidő",-10.072335936248452],["hulladék",-10.072952044969337],["öz",-10.073578245742567],["for",-10.0738275116911],["sí",-10.07395485297989],["karácsony",-10.07416600391241],["FC",-10.074312071034981],["szigorú",-10.074569087260453],["vezér",-10.075393556480929],["alaposa",-10.07616684153949],["Három",-10.076264077134747],["svájci",-10.076305443719578],["japán",-10.076330066896482],["büntető",-10.076369067818963],["Korábban",-10.076440958981756],["csoda",-10.07713474676364],["valamennyi",-10.07867487951524],["függő",-10.078745402323847],["67",-10.078774316309767],["ünnepi",-10.080399866239375],["álltak",-10.081209778213282],["utazás",-10.081723420165623],["go",-10.083238183528879],["kapcsolatok",-10.083603300992095],["nevet",-10.084163202857694],["Szabolcs",-10.084569910260853],["piros",-10.084610228416834],["társa",-10.086297665892097],["igényel",-10.08690099251633],["éjszaka",-10.087808457003685],["név",-10.087953836961198],["85",-10.088345169084352],["tonna",-10.089708648988887],["okozhat",-10.089823025580941],["étel",-10.089829311477255],["villamos",-10.089873227331307],["szenved",-10.090012060472382],["pedagógus",-10.090257965066964],["Ebbe",-10.090438608982401],["kibocsátás",-10.090966161598274],["vitte",-10.092222784240784],["szóvivő",-10.092273934992225],["tervezi",-10.092451134091753],["120",-10.092816267448946],["sszel",-10.092871305041475],["múzeum",-10.092903239468285],["brut",-10.092919850133683],["mesterséges",-10.0931214618603],["So",-10.09354573175423],["lin",-10.093594253843339],["próbálta",-10.093656342193636],["átmeneti",-10.094675496258196],["Más",-10.094848266845645],["pedagógusok",-10.095555529825527],["vas",-10.09579675185006],["műsorvezető",-10.095919236684109],["esélye",-10.095941734479764],["ésére",-10.096096357773472],["ival",-10.096257281375525],["ája",-10.096428011898265],["ép",-10.096767165114265],["éri",-10.097135934073531],["szavazás",-10.097372951342523],["halála",-10.097851608924337],["tej",-10.098352491260911],["Man",-10.098637512790166],["szor",-10.09905786440963],["tartalmaz",-10.099116250331594],["állomány",-10.099937782329363],["aink",-10.100685002202837],["intenzív",-10.100710072388775],["életbe",-10.100973589045855],["2016",-10.101095105977338],["sék",-10.101157288663872],["Hajdú",-10.101233354572827],["Imre",-10.101405512477108],["vita",-10.101529158842135],["alól",-10.101660810338636],["tulajdon",-10.102080143193668],["nánk",-10.10218694806656],["öm",-10.102536309051333],["visszatér",-10.102729952852343],["vezeték",-10.10309301159684],["tragédi",-10.103103699889532],["tudomány",-10.103730004627511],["internete",-10.103977279738146],["sportoló",-10.104294506863884],["okos",-10.105025521063592],["Ped",-10.105544136555638],["profit",-10.106074995509932],["vizsgálj",-10.107304745620631],["mentés",-10.107739377279948],["települések",-10.108406449807614],["segítő",-10.108685817136527],["mu",-10.109147568136333],["66",-10.109435120741296],["rezsi",-10.10948104961307],["várjá",-10.109596750733417],["’",-10.10978117706249],["Alapítvány",-10.109781177118549],["bel",-10.10984656579041],["viszonylag",-10.110000458925903],["ideiglenes",-10.11018744259705],["számítani",-10.110197341857393],["Borsod",-10.110219070841534],["büntetés",-10.11051459125352],["nőt",-10.110817998691456],["játékot",-10.110840591738858],["vereség",-10.110916619766448],["energiát",-10.111358384744731],["ítás",-10.111537848535557],["had",-10.113524915796075],["felek",-10.11558413522129],["59",-10.116640087033652],["reg",-10.116660015720594],["jelzés",-10.117398795341032],["beszédé",-10.117634232341016],["fertőzöttek",-10.11797661554891],["kereszt",-10.11813332370367],["üveg",-10.118234510599686],["értékesítés",-10.118441059424237],["váratlan",-10.11924774863071],["eink",-10.119375427913191],["vidéki",-10.119889088585861],["energetikai",-10.120012612739696],["hasznos",-10.120119164871737],["nyilatkozat",-10.120339684941971],["örül",-10.120743150719175],["tol",-10.120910291464263],["karácsonyi",-10.121900237664839],["Ukrajnából",-10.121916335800055],["létesítmény",-10.122253328150006],["szk",-10.12321949378034],["hazaiak",-10.123515817852745],["oktatási",-10.123739847178307],["elnöki",-10.124798228213836],["korlátozás",-10.124968351253234],["házi",-10.125240291765017],["ellenes",-10.126326605463067],["Hivatal",-10.126689968352242],["Gyurcsány",-10.126948875265722],["osztrák",-10.126985420532007],["lás",-10.127293722390679],["speciális",-10.127506066575762],["rendelt",-10.127567630455465],["remény",-10.128076991427395],["jég",-10.128156032901792],["hajnal",-10.128246844232708],["képviselője",-10.128372334261808],["rom",-10.129168031350614],["csúsz",-10.129720797508387],["állomás",-10.12980140886679],["környékén",-10.129818812920725],["tévé",-10.130123227190605],["vonal",-10.131023196874912],["javítás",-10.13122537265603],["SE",-10.131332585601447],["látogatás",-10.131939211894085],["megerősített",-10.132445707315217],["önkéntes",-10.13294918565557],["írják",-10.133553337597029],["fejé",-10.133604961144233],["Péntek",-10.135650654144525],["Kar",-10.135677298783454],["internet",-10.136424638366783],["változások",-10.136635720141612],["sáv",-10.136718284384052],["ozó",-10.136789385897863],["szervezett",-10.13747967717504],["ikat",-10.137738468627997],["ij",-10.137772106338357],["árát",-10.13805592323624],["vize",-10.138274241451523],["század",-10.138726667145992],["akkori",-10.138808450666556],["jelez",-10.139996972384857],["endőrkapitányság",-10.140658166136067],["anyagok",-10.141139321510273],["áért",-10.141457719326535],["néven",-10.141570205857382],["húzta",-10.141764435833515],["hatodik",-10.142495133063797],["csal",-10.14263860977451],["kereskedelem",-10.1441027401379],["köré",-10.144941522253099],["valódi",-10.145615891491401],["szerződést",-10.146188946532405],["megoldások",-10.14735636521579],["fölé",-10.147853519973047],["fül",-10.148229462495415],["folytatj",-10.148241984056927],["Nemzet",-10.148775447082208],["hő",-10.148849017733191],["formába",-10.148898087475985],["ajándék",-10.149119778025803],["katona",-10.149140644709476],["világbajnokság",-10.149720579122167],["platform",-10.150154898681725],["spanyol",-10.150816516726643],["mekkor",-10.151325159471298],["ellátási",-10.151437949695774],["vásárlók",-10.151580398360245],["Br",-10.151748113557245],["látványos",-10.15176405337737],["formájá",-10.152564239180286],["lakások",-10.152684368885458],["68",-10.153001647568642],["látás",-10.153023582665323],["gyönyörű",-10.153266014785352],["rögtön",-10.153351630821646],["Gyula",-10.15415855929453],["önálló",-10.154339401876687],["gondolta",-10.154794399764743],["mos",-10.155756252994518],["határozat",-10.15589559172841],["liter",-10.155942557486505],["hatott",-10.156826407901868],["őszi",-10.157141759243906],["résztvevők",-10.157217839165908],["54",-10.157298376480547],["török",-10.158959232390398],["néha",-10.159416938701575],["szomszéd",-10.160393054714163],["land",-10.16052732440885],["közzétett",-10.160913644584642],["51",-10.161408492920163],["messze",-10.16204538572649],["szeretet",-10.162960633236331],["lég",-10.163138649863743],["Mag",-10.163220674407167],["Ház",-10.163302181133961],["vásárló",-10.163852570499431],["rendszerese",-10.164676283315426],["ász",-10.16484788535923],["családjá",-10.164929525893243],["csütörtöki",-10.165129570002971],["érint",-10.165652400340004],["epsiszentgyörgyi",-10.166189539231059],["kivétel",-10.166566938634642],["udvar",-10.166770639026527],["településen",-10.16677957526881],["mértékű",-10.167028751805741],["legutóbb",-10.167347200889774],["érdekes",-10.168003369210936],["fejlesztések",-10.168173526066006],["ünnep",-10.16909431032088],["zenei",-10.1696008800787],["nézők",-10.169601769179337],["köd",-10.169677785313976],["híres",-10.170004220470144],["62",-10.170027014801969],["indít",-10.170507991440283],["ho",-10.171109689874047],["elképesztő",-10.171203596150338],["Ekkor",-10.17128130156512],["mérkőzést",-10.171445554045116],["történelem",-10.171463806665955],["biztosítani",-10.171480177741463],["ségét",-10.171727772062276],["aszt",-10.172036593128164],["Szombat",-10.172171121489043],["szerelem",-10.172219325112597],["Gy",-10.172302964037197],["közút",-10.173239765970767],["est",-10.173691128541348],["felújítás",-10.173930881595549],["250",-10.174126577820255],["Szerencsé",-10.174444089889732],["tudományos",-10.174604356554045],["futott",-10.175507070397316],["pandémi",-10.177219606622232],["követi",-10.177913782085625],["azonnali",-10.17794500852392],["he",-10.178014739424553],["munkálatok",-10.178058886805454],["egységes",-10.17808788796757],["zárta",-10.179814947915709],["gyógyszer",-10.179855493794498],["emlékeztetet",-10.179934422270284],["alkotás",-10.180205327027394],["forgatókönyv",-10.180295037991828],["hatalom",-10.180591168944169],["gépek",-10.18064808151229],["energiaválság",-10.180900708067263],["52",-10.181222658643499],["méteres",-10.181494615211482],["fagy",-10.18207825393419],["erőszak",-10.182531367742813],["eljárást",-10.18307255050845],["állít",-10.183734156051909],["késő",-10.184015654702332],["iket",-10.184342890797751],["For",-10.18464576546954],["képviselők",-10.184819857417992],["só",-10.18669795312616],["Miskolci",-10.186928257873879],["kapus",-10.187203469219183],["mozog",-10.187478767867013],["fogás",-10.188911739854628],["99",-10.18925742912894],["jellegű",-10.189469387053524],["York",-10.189472124700849],["Máté",-10.189516432038378],["gé",-10.189704855962486],["sák",-10.190887599283805],["emlékez",-10.191433789717816],["ügyfél",-10.191952128557368],["említette",-10.192273746700218],["zajlott",-10.19314854849321],["szavazat",-10.19335355738443],["község",-10.194080245974451],["növekedést",-10.194365022164966],["tar",-10.194406808756444],["Nép",-10.194720467293529],["ismerte",-10.195193453568471],["kihívások",-10.195631093246384],["csap",-10.196207350311493],["tervei",-10.196255221807437],["munkaerő",-10.196466706528625],["53",-10.196544630366802],["folyamán",-10.196549013864697],["lakos",-10.19694234288642],["hová",-10.197928027231004],["Nincs",-10.198731166991593],["édesanya",-10.19875851916304],["hatása",-10.198772989440906],["üres",-10.198779431277794],["múl",-10.198798900783409],["előtte",-10.199106368645086],["Talá",-10.199183898924105],["repülő",-10.19942378225969],["elfog",-10.199735929080955],["Amennyi",-10.200085501458016],["története",-10.200421033265883],["irányába",-10.201232545043744],["feladatok",-10.201489235552742],["Nap",-10.201659365171304],["börtön",-10.201831068666799],["kísérlet",-10.201983385164528],["egyesület",-10.202286295355114],["vezérigazgatój",-10.20286172092274],["listá",-10.203091526589319],["költségei",-10.203356783176805],["harcok",-10.203934555407649],["Év",-10.204478618716294],["finanszírozás",-10.204504247767254],["lik",-10.20488997649611],["haj",-10.205894044948534],["fáj",-10.206446600465748],["00",-10.207939253820667],["Márton",-10.208404286866676],["the",-10.208445284628095],["másodperc",-10.209575725723957],["hit",-10.209993366961978],["jutottak",-10.210042502591808],["fontosabb",-10.21086472433832],["valós",-10.211012767026652],["mentők",-10.211646365631172],["2000",-10.213398775845219],["vásárol",-10.213934560187699],["maradhat",-10.214691154899162],["búcsúz",-10.214988592208154],["voltunk",-10.215187960692486],["ötven",-10.215794230394525],["lenné",-10.215820714332025],["elkövetet",-10.21690297691739],["foci",-10.217460771764035],["klasszikus",-10.21751212311441],["befektetők",-10.21775384729293],["Ön",-10.218188941236626],["járás",-10.21824016005241],["kölcsön",-10.218387396211934],["alkalmazott",-10.218465397426773],["akad",-10.218654771105356],["biztosított",-10.21897811559787],["járműve",-10.21929505261232],["ow",-10.219560435727711],["Pro",-10.220408942055563],["Tar",-10.220777152813387],["vizsgált",-10.220784073906884],["összecsapás",-10.221023464454388],["Elmondta",-10.221106028610333],["világos",-10.221114734668515],["felkészülés",-10.221332219649595],["fogyasztói",-10.221586051483795],["Világ",-10.222495292746942],["fia",-10.222740497406448],["Leg",-10.22339411173158],["úszó",-10.223784711723162],["növény",-10.223993339720248],["bejelentett",-10.224929052275638],["csapás",-10.225378612255678],["üzenet",-10.225528782026378],["típus",-10.225682814929087],["otthonába",-10.22601803958325],["Microsoft",-10.227032504818235],["döntetlen",-10.227093096755869],["közelebb",-10.227201357807763],["kedvenc",-10.227461208216852],["fős",-10.227861607596857],["ponton",-10.228212055905619],["kötelezettség",-10.228876878961147],["Sch",-10.22935503670867],["mutatkoz",-10.229621315506606],["külügy",-10.23021211715724],["technikai",-10.230322914310925],["lu",-10.231482052068746],["személyi",-10.231505416706034],["érhet",-10.231578285025186],["láz",-10.231601902957536],["tartotta",-10.23164146044242],["hiányz",-10.231822179787224],["ics",-10.231861190907637],["százalékuk",-10.232910781866481],["robot",-10.232943259048666],["telep",-10.234133783431716],["illeti",-10.234665214470756],["biztosító",-10.235465264594165],["folytatta",-10.235575181686901],["95",-10.236070464372148],["komolyabb",-10.236327581185098],["Múzeum",-10.236647026304002],["éjjel",-10.236747483113806],["gárda",-10.236774076238664],["gazdálkodás",-10.237060412802975],["vendége",-10.237235919178952],["várni",-10.237477791200961],["tervezés",-10.237589492234527],["munkahely",-10.2381374082593],["csoportok",-10.238371768546234],["nálunk",-10.238787728888074],["ütem",-10.239302736373293],["Hu",-10.239899694278247],["képvisel",-10.240446688220853],["többlet",-10.24054081497967],["vélemény",-10.240746455292367],["világháború",-10.240918185766468],["vidék",-10.241095188237335],["vetett",-10.241138894375098],["bán",-10.241144197997222],["számát",-10.241428399820627],["városok",-10.24260672869655],["stúdió",-10.242613462407158],["ellenfél",-10.24296729197265],["MV",-10.243218085867507],["tünetek",-10.243322848640405],["idejé",-10.243479880315943],["szombati",-10.244285382372027],["viszonyít",-10.244632414898085],["tény",-10.244894372036041],["növekedése",-10.245070856117007],["óriás",-10.245552515163043],["tojás",-10.246358547662833],["társai",-10.246750126044931],["méretű",-10.246783691876923],["ügynökség",-10.246824900835245],["ülésén",-10.247144494895757],["Éppen",-10.247524029146245],["Bor",-10.247739216575598],["jelenthet",-10.24803436156746],["Musk",-10.24835762299703],["megtakarítás",-10.248693815590077],["terjed",-10.248910680253704],["félre",-10.249223843859994],["állhat",-10.249255106980918],["személyek",-10.24968341065677],["reagál",-10.2498891649771],["kategóriába",-10.250435975252106],["követte",-10.250646001492623],["edzés",-10.250659317692254],["ozott",-10.250831568252853],["ismeri",-10.250878690812064],["Li",-10.25197060641137],["hetetlen",-10.252092601432018],["válás",-10.252810996501264],["futball",-10.25281118135141],["hass",-10.25303811180473],["ított",-10.253775467449314],["und",-10.254525927324186],["Or",-10.254635985358153],["hiba",-10.25466057924411],["vonás",-10.254702961845515],["herceg",-10.254713956773431],["kaland",-10.255050553356142],["emelkedése",-10.255377354407436],["egyház",-10.255821338183054],["andó",-10.256011021575913],["kedvező",-10.25603762671567],["Mariupol",-10.256159704926823],["közgyűlés",-10.256224122535208],["eladó",-10.25666823931],["állampolgár",-10.256906968075125],["támadó",-10.257246298803818],["megpróbál",-10.257392376128864],["DK",-10.257698912239785],["felügyelet",-10.257908346826696],["fejlesztő",-10.258336489585535],["ium",-10.259042816596013],["éles",-10.259765287375647],["rendező",-10.260419291798842],["fogad",-10.260673357320599],["házak",-10.2611032183448],["tagállam",-10.261142077557102],["buli",-10.262180964883813],["különös",-10.263197039151198],["indulás",-10.26328716209739],["egységek",-10.263329335903713],["hatásár",-10.263927129423376],["Fő",-10.26449989083632],["néző",-10.26472575367521],["izgalmas",-10.26521435751616],["iskolák",-10.265506538520446],["lezárt",-10.265718011089385],["bármi",-10.265804078729321],["megváltoz",-10.265813940798026],["korrupció",-10.266060676179539],["alapítvány",-10.26606067622862],["Közép",-10.266143199757586],["különféle",-10.266273419359402],["oló",-10.266512321858599],["iroda",-10.266786632843928],["mér",-10.266899715956125],["legfrisse",-10.267029959507214],["formá",-10.267698052563587],["tölt",-10.268256675921215],["közleménye",-10.268533144500736],["rajt",-10.269411050921743],["szankciós",-10.269895012348794],["esély",-10.269905010358057],["pe",-10.270059140846957],["hátrány",-10.27018174779306],["700",-10.270236421797716],["állítani",-10.27026428181299],["hős",-10.270396418531043],["létszám",-10.270853008486071],["művelet",-10.271072552870747],["szuper",-10.27123109255194],["kedd",-10.271622415853773],["álás",-10.27172843069505],["igyekez",-10.272393916383495],["fenntartható",-10.272441831831483],["órát",-10.27256811865977],["gondolkod",-10.272595948659248],["tényező",-10.27318546552852],["épül",-10.273877184856982],["váltott",-10.273921466094802],["fizetési",-10.274288636329675],["Szolgálat",-10.276060675864773],["Parlament",-10.276060682396166],["Néhány",-10.276060817462463],["diplomácia",-10.27606358587552],["ablak",-10.276075907601083],["végső",-10.276082386513188],["negyven",-10.276087904892258],["!”",-10.276105498123986],["tartomány",-10.276149449461268],["legnépszerűbb",-10.276261217359322],["Színház",-10.276488600149989],["költségvetési",-10.276695363816936],["szokásos",-10.276853851611044],["Újabb",-10.276856884742164],["uralkodó",-10.276945967715289],["civilek",-10.276961967523569],["utcában",-10.277253315500204],["egyebek",-10.277297708321292],["hivatalosa",-10.277499369034054],["tekinteté",-10.277544489334495],["edett",-10.277885005593522],["érdem",-10.278638458124451],["szavai",-10.279148029760309],["folyamatok",-10.280325980706937],["várakozás",-10.280794196894135],["eredményt",-10.281108141936924],["ány",-10.281890329117275],["op",-10.282968065247005],["zárás",-10.28326337949043],["ötlet",-10.283306113622862],["Központi",-10.283435021857242],["szűk",-10.283582446668749],["következik",-10.283982700633317],["erejé",-10.284060165068013],["közbeszerzés",-10.284914374375793],["FT",-10.284976790064368],["ciklus",-10.286176051553664],["Később",-10.286221518426167],["Eddig",-10.286306011024589],["jelzi",-10.28721566155595],["emmel",-10.287237276646405],["bu",-10.28737468472961],["dokumentum",-10.287557989805759],["97",-10.288489400272422],["alma",-10.289398489888978],["gondolja",-10.289487727126577],["Ju",-10.289856781352421],["tevékenysége",-10.290806057286538],["harmad",-10.290813784482232],["Hol",-10.291065395560427],["ell",-10.292166980275168],["szoftver",-10.292999848807824],["forgalmi",-10.293904539903712],["64",-10.293933850474353],["má",-10.294245543616947],["előny",-10.294587621822416],["tapasztalt",-10.295266006198403],["tájékoztatta",-10.296219466670767],["Kossuth",-10.296365767564863],["Dávid",-10.296365790445938],["vélhető",-10.296366730858532],["Zemplén",-10.296378629232857],["jelentkezett",-10.296502649469419],["Erdély",-10.296878882968663],["pozíció",-10.29703614912598],["tulajdonosa",-10.297366149506281],["ajtó",-10.297768534933542],["egyértelműe",-10.297892436555664],["vállalkozó",-10.298116202539372],["ásra",-10.298214020818621],["fordít",-10.298241408132036],["bizonytalanság",-10.298948522044064],["látogatók",-10.300488393124454],["lányok",-10.301047474678079],["feltételek",-10.301384691042488],["próbált",-10.301408262075071],["emelés",-10.301462848372335],["kov",-10.301680975902514],["rajongók",-10.301771426251289],["menő",-10.302075610080323],["port",-10.302479033378244],["fokozatosa",-10.302669578420275],["IT",-10.302900952866562],["Mert",-10.303220929395504],["63",-10.303436333650009],["Soka",-10.303971340767522],["ító",-10.304072311429914],["háttér",-10.304525536908733],["kerület",-10.304677269814833],["felhasználó",-10.305246778027257],["RT",-10.305526498821765],["díjas",-10.3056368195547],["létrehoz",-10.305734700932263],["Zs",-10.305939105214147],["szed",-10.305960800373896],["lét",-10.306007760081748],["véd",-10.306315658854867],["Karácsony",-10.306675051781118],["mínusz",-10.30667515180661],["kutya",-10.306677102491467],["Fekete",-10.306755712746204],["bizonyult",-10.307258562410311],["maradtak",-10.307459997359082],["műtét",-10.30780089227606],["ügyvéd",-10.307832766704133],["repülőgép",-10.307870430465254],["világban",-10.308623114373098],["visszaesés",-10.309092356584756],["kezdeményez",-10.310448986817644],["Ch",-10.310555185762613],["adhat",-10.310656153686939],["okok",-10.310962890556233],["idéz",-10.31099826859657],["ron",-10.311718942816146],["növeli",-10.311749422207626],["személyautó",-10.31178448542176],["pá",-10.312431151514083],["hatékony",-10.31257398507185],["kezelésé",-10.313168581059104],["párhuzamos",-10.313720362502181],["térségébe",-10.314182711321887],["húz",-10.314194980525347],["jelek",-10.31465449606549],["kapitány",-10.31479431475736],["ugrott",-10.314842973101545],["zenész",-10.315020931204979],["EP",-10.31508580851046],["küzdelem",-10.315859144235542],["mértéke",-10.316385354496845],["Trump",-10.317093229117134],["migráció",-10.317094213566886],["szexuális",-10.317096746133522],["emelkedő",-10.317415580308603],["újságíró",-10.318719325599218],["iskolába",-10.318813143290402],["távoz",-10.319038196916804],["old",-10.319261846333177],["méret",-10.319263776054],["forma",-10.319446959052453],["foglalkozó",-10.319680674920017],["alkot",-10.320440354653162],["húzód",-10.320999051390055],["egyetemi",-10.321401705192994],["szankció",-10.322287450318722],["nyertes",-10.323446692290645],["vásárolni",-10.32453637722554],["horvát",-10.325134863983244],["hozza",-10.325563099523073],["NP",-10.325770372251323],["öv",-10.326080603307435],["aggód",-10.326106825502109],["fent",-10.326871100370944],["Jo",-10.32699071449128],["vásárolt",-10.327175970818473],["tanácsadó",-10.32720742525963],["bőve",-10.327502550494962],["innováció",-10.327618156634529],["Horváth",-10.327660379536265],["mail",-10.327751282387922],["bennünk",-10.32778227953121],["Törökország",-10.329510498935928],["következményei",-10.329651400924561],["telt",-10.32979802506043],["véve",-10.330544427688608],["épült",-10.331198082577686],["olcsó",-10.331234549615044],["69",-10.331815023802605],["száraz",-10.331839819957779],["Kiemelte",-10.331944258566628],["parti",-10.33231027210718],["Ső",-10.332776661970112],["teher",-10.333218190722178],["KB",-10.333330937825787],["Sepsiszentgyörgy",-10.33351874576541],["szóba",-10.33364651232265],["tétel",-10.334185458337783],["ézve",-10.334820041324777],["következet",-10.334824034730612],["bejegyzés",-10.334836082589872],["változat",-10.33492622734681],["jén",-10.335301990160527],["elérte",-10.33533697120506],["Joe",-10.335654901114417],["órán",-10.335925850729021],["ajánlott",-10.337584650904887],["Po",-10.337707689153977],["robbanás",-10.337728333853434],["használja",-10.337735985436769],["növel",-10.338072738746773],["beavatkozás",-10.338209129231053],["agresszió",-10.338256326286583],["szovjet",-10.338256353117636],["pénzügyminiszter",-10.33845874140183],["szab",-10.338478131869172],["kék",-10.339040358669767],["hatalm",-10.339064414480754],["történeté",-10.339075733630754],["Szó",-10.339296322734583],["Emm",-10.339309661545876],["79",-10.339568287628378],["büszke",-10.339661633382594],["irányba",-10.3401112777334],["Ők",-10.34013911772811],["állapotba",-10.340529015196084],["Ferencváros",-10.34070763213706],["beszéd",-10.340741039160843],["bűn",-10.341828913962381],["maradni",-10.34197853192056],["vállalta",-10.342383956948266],["botrány",-10.342493252914629],["ásával",-10.3432202689403],["játszotta",-10.344109128515598],["Ber",-10.344772212519313],["tanú",-10.345522416126435],["br",-10.34562633523813],["pártok",-10.345668560940364],["méltó",-10.346612450486749],["piacok",-10.34669003763409],["Minisztérium",-10.349009014412044],["kancellár",-10.349009020107061],["Négy",-10.349010420271831],["maximum",-10.349167134003217],["human",-10.349337966052357],["nyugdíjas",-10.349476445884411],["jelentene",-10.349505464392234],["Ti",-10.349575118145147],["nehézségek",-10.349697742508205],["indította",-10.350178619519031],["megtesz",-10.350270865578487],["legjobba",-10.350606886693104],["mindennap",-10.35103843866947],["akkumulátor",-10.351546310423107],["kilométeres",-10.352130439014807],["SH",-10.352239555160416],["ajánlat",-10.352396975790995],["üzenete",-10.352497468452988],["További",-10.352733918580057],["halott",-10.35275367560045],["78",-10.353979078402192],["színpad",-10.354148637494976],["fe",-10.354493961980047],["forgatás",-10.354527069461959],["győz",-10.354640992989193],["gondolat",-10.35486593275049],["atomerőmű",-10.355189997708763],["televízió",-10.35573113750275],["Du",-10.35574913015673],["ovics",-10.356081194823307],["sorozatban",-10.35609842293505],["ották",-10.356465743753386],["Magyarországr",-10.356545263899658],["fiók",-10.356682074910145],["Párt",-10.356691171325377],["ások",-10.357498410750823],["megint",-10.357582674760437],["növeked",-10.358560416169334],["Ni",-10.359117838854559],["lánya",-10.359713073393046],["évtizede",-10.359742561816711],["variáns",-10.359879054284159],["rivális",-10.359879483443054],["koreai",-10.359957084327856],["rdély",-10.36000339300232],["mikro",-10.360023087315184],["ügyek",-10.360053136196235],["pápa",-10.360058486342341],["Sztár",-10.360144939725279],["ps",-10.360145115676506],["épített",-10.360184373832752],["kontinens",-10.360233385685259],["ülés",-10.360774182272426],["helyét",-10.362036208387565],["köt",-10.362060105119054],["panasz",-10.362194696050393],["műanyag",-10.362544450140287],["dolgozta",-10.362813119977963],["zük",-10.362939663523424],["árulta",-10.363227026765404],["hy",-10.363456861098896],["érve",-10.364028556120996],["töltötte",-10.364223175757404],["nyíl",-10.365958172975814],["végzi",-10.366271827106576],["gő",-10.36667016349617],["kilométerre",-10.367182379502768],["com",-10.368569691438207],["jelenség",-10.368758118395442],["helyes",-10.368828963629701],["lehetetlen",-10.368912034679658],["funkció",-10.36901392798077],["Utóbbi",-10.369526500868792],["teremt",-10.36991374319057],["háztartások",-10.370371636034717],["idősebb",-10.370780316599769],["Herszon",-10.370868437598176],["figyelmé",-10.371047132558473],["igazolás",-10.371071332498524],["innen",-10.37140214344009],["temető",-10.37169568994397],["fordított",-10.372215467608438],["utol",-10.372689334349996],["politiká",-10.372833870869751],["beszéde",-10.373328387038125],["igazság",-10.373346373571906],["helyén",-10.373536718138224],["ger",-10.373540454284363],["Csehország",-10.373610930330047],["mennyisége",-10.373787951791522],["sötét",-10.374444356933402],["autós",-10.374508356288395],["felel",-10.37451648884003],["művészeti",-10.374626793963401],["számolni",-10.37493897891176],["támad",-10.375429042013337],["erősebb",-10.375788209026709],["eltelt",-10.375907336439006],["várta",-10.37672842693646],["itárius",-10.377533683540271],["iskolai",-10.377726051003613],["irányítás",-10.378026233057891],["látvány",-10.379059163921523],["berendezés",-10.379110149648769],["területe",-10.379159947784244],["remél",-10.3792460187929],["nom",-10.379416334619423],["velünk",-10.381343722860354],["válaszolt",-10.381457423346177],["életem",-10.381526371324334],["kulcs",-10.38200857857196],["eltűnt",-10.382090360835747],["Abaúj",-10.382325765668297],["fizetett",-10.382346706109232],["nnál",-10.382496488077908],["Ru",-10.382710716789202],["Johnson",-10.38271664042604],["előfordulhat",-10.382750476395493],["He",-10.38287720196529],["mozi",-10.382909799807326],["gyengült",-10.383297152099768],["hónapos",-10.3834220498042],["tanul",-10.383965161451322],["rakéták",-10.384192734340612],["fut",-10.384376805637984],["tisztáz",-10.38478014734714],["Ja",-10.385023336083533],["Főváros",-10.38588496368321],["égett",-10.386259406763102],["hasonlít",-10.386423304265913],["ugyanaz",-10.386536543932092],["szerb",-10.386725857137652],["Me",-10.387102024514707],["segítette",-10.387214908170336],["vív",-10.387499529982382],["száll",-10.387773667196315],["életünk",-10.387969891834071],["tük",-10.38808573179012],["sokak",-10.388236789380667],["repülőtér",-10.38827057891407],["finom",-10.3889041427283],["látogat",-10.389002154693348],["kerülni",-10.389382442638023],["iskolá",-10.38959101077168],["azonosított",-10.38970178634081],["rosszabb",-10.389822856183716],["építeni",-10.389880675084498],["telefono",-10.39039152480973],["futás",-10.39120613785264],["apa",-10.391228714113444],["fektet",-10.391728565431004],["felület",-10.39196836220809],["kávé",-10.393190255603406],["vörös",-10.393214733188938],["Gazprom",-10.393216798069943],["Novák",-10.393219728927194],["eltérő",-10.393324861851058],["megújuló",-10.393414080467737],["76",-10.393712302904731],["csatlakozás",-10.39392550324305],["segített",-10.394126101242799],["számítana",-10.394540443402953],["hölgy",-10.394949048869751],["töltő",-10.395360817244882],["szeretett",-10.395933666135315],["tanárok",-10.396245965013726],["megsérült",-10.396272447069606],["hall",-10.396288849745956],["szemét",-10.396731315541604],["táj",-10.396885637175497],["felmerül",-10.397064974020898],["megszokott",-10.397199991854235],["fed",-10.397222012202931],["közleked",-10.39728011754493],["projektek",-10.397449418946874],["szorul",-10.397930006880276],["vadász",-10.397970447931083],["fertőzött",-10.398223178433787],["sír",-10.39824665617147],["profi",-10.398470377049712],["járta",-10.398558320860527],["végi",-10.398570691742439],["magár",-10.399102847897895],["politikusok",-10.399256191845257],["hamis",-10.39952293747134],["Se",-10.399655956019682],["szerep",-10.400095896379927],["gyilkos",-10.400361602015057],["körű",-10.400783200191203],["helyek",-10.400874201365557],["her",-10.40119622145593],["alpolgármester",-10.401897447975744],["versenyt",-10.402050318632284],["biztonságá",-10.402302845553452],["Kelet",-10.402908450306398],["téri",-10.403036915734514],["tri",-10.403111916194153],["fékez",-10.403680224543688],["együttese",-10.403755745033163],["készülék",-10.404115506057126],["Borítókép",-10.404578298282898],["ázsiai",-10.404578489638537],["Viszon",-10.404605434090325],["úti",-10.404631919205588],["vétel",-10.404633716519905],["közi",-10.404720366470933],["termés",-10.404750392674124],["katoná",-10.404795137972794],["közvélemény",-10.404992634083204],["ülő",-10.40506581072205],["vád",-10.405112376862338],["iába",-10.405832912038568],["lángok",-10.40599568585884],["81",-10.406012470996082],["kelt",-10.406064681645198],["keddi",-10.407052394511929],["tél",-10.407123430150058],["ájá",-10.407391579883075],["végleges",-10.407435194877195],["lényegé",-10.407526879145784],["olvasó",-10.407773824470311],["folytatni",-10.407786551591641],["talaj",-10.40802172442783],["gyilkosság",-10.408147514240433],["jába",-10.40851322641548],["hango",-10.408534803156925],["szereplők",-10.408669727268773],["fejlőd",-10.408759574620944],["tölti",-10.410137838320068],["gyenge",-10.41031453907991],["Air",-10.41039456734605],["szellemi",-10.41121654921787],["hagyni",-10.41160625589614],["videót",-10.412987598630767],["színes",-10.4146045312722],["biztosítj",-10.415231600555678],["igazolt",-10.415676699824974],["vezethet",-10.41585999484419],["Példá",-10.416072564399212],["minimális",-10.416072705917696],["zsűri",-10.416072776565905],["Japán",-10.416073717109427],["kulcsfontosságú",-10.416084259252997],["Macron",-10.416094797278886],["Általános",-10.416115945246185],["minőségű",-10.416477715461843],["monetáris",-10.416590540882588],["ván",-10.41668190920656],["fogyasztó",-10.416766810945013],["nyilvánvaló",-10.41676871026575],["játszani",-10.417030634531073],["tüzet",-10.417134196774011],["ítani",-10.417392867912449],["négyzetméteres",-10.41749483877005],["89",-10.418227561935705],["érő",-10.418299720680743],["környék",-10.418518878965852],["katolikus",-10.418552958575727],["jöttek",-10.418896436488975],["Tisza",-10.419308291603684],["számító",-10.420126819083556],["tört",-10.421004721640113],["TK",-10.421393317277973],["juttat",-10.421434291996732],["vegyes",-10.421636386725982],["kereskedés",-10.421837014327885],["Bu",-10.421955311943478],["értékek",-10.422275386205492],["ási",-10.423294195631776],["érzékeny",-10.423507274194725],["egyike",-10.423713718167662],["kezelő",-10.423765643934075],["káros",-10.423886851141358],["ssé",-10.42414737157111],["jegyzet",-10.424380296870833],["öltözött",-10.424768757374565],["küzdött",-10.425376285646692],["megvan",-10.425647523251978],["jutni",-10.426761443085942],["veszélye",-10.426812310093567],["ker",-10.427182494713835],["fotót",-10.42768876026398],["Telekom",-10.42770212599934],["gu",-10.427937700659617],["hirdet",-10.428029991401154],["pici",-10.42804917142392],["keresi",-10.428353018839061],["72",-10.428556362996577],["készít",-10.42920150488351],["ítj",-10.429470183004888],["meglévő",-10.42953468743945],["szabott",-10.429670802898183],["újság",-10.430247684154235],["orr",-10.430540923831334],["vélt",-10.430698132395513],["médiá",-10.43095174226496],["vasárnapi",-10.431326859137737],["többé",-10.431338181921394],["bő",-10.431530796695846],["kamatemelés",-10.431667382250627],["szakmá",-10.432225110453555],["cipő",-10.432536140428713],["klíma",-10.43299790024798],["ragad",-10.433129179302911],["mért",-10.43331638866352],["hírt",-10.433963385700634],["doboz",-10.433976080771144],["háborút",-10.434029832733815],["alkohol",-10.434690804501855],["84",-10.43494071438246],["kamerá",-10.435240321368322],["iparág",-10.435864194372414],["levele",-10.436083492801615],["tikus",-10.436631871767347],["öd",-10.436950828203914],["figyelem",-10.436954589558185],["ellentét",-10.436984140239911],["eredményei",-10.437612853057129],["szolgáló",-10.438098967163398],["88",-10.438260977071353],["tiltott",-10.438308772447098],["Car",-10.43835175685625],["többségé",-10.43842216964208],["minimum",-10.438767806285313],["kerek",-10.439396645232655],["zászló",-10.439462174945351],["Miniszterelnök",-10.439465158910322],["recesszió",-10.43946515892842],["Szatmár",-10.439512084073169],["elsődleges",-10.439608097639654],["nyújtani",-10.439679038157937],["kerülő",-10.439747162663306],["ígér",-10.440086745579496],["legrosszabb",-10.440401376589406],["szokás",-10.44058880942464],["hónapokba",-10.440841172231952],["hova",-10.441090028686475],["olcsóbb",-10.441278615856923],["DEA",-10.44162970003607],["MSZ",-10.442284602527598],["világo",-10.442698082229152],["par",-10.442775513378804],["állampolgárok",-10.442941851578102],["kettős",-10.442948200068509],["szerez",-10.44322422289662],["dőlt",-10.443264797388455],["fér",-10.443880339596022],["ügyvezető",-10.444269589144241],["rendbe",-10.444552637249252],["Kor",-10.444748217263063],["tárgyak",-10.445145409811435],["tőke",-10.445160103091887],["zintén",-10.445370065938555],["tudtu",-10.445585583757435],["elégedett",-10.445711474914024],["előadó",-10.445731132982312],["Jan",-10.445861701612454],["modellek",-10.446209591132856],["érintettek",-10.446251793863539],["izmus",-10.446446895869414],["szokta",-10.446592559847115],["oper",-10.4466872684748],["bizonytalan",-10.446688826928678],["házasság",-10.447035456163576],["épülete",-10.447585609266323],["álom",-10.44782808680816],["ET",-10.44856566292807],["fenn",-10.448652857993135],["ingatlanok",-10.448988228237106],["hétfői",-10.449875926011309],["képek",-10.450601832569587],["Molná",-10.451284315457354],["Kárpát",-10.451367089268468],["kábítószer",-10.4513699207888],["Vasárnap",-10.451370448895169],["kevese",-10.451438437988392],["megbeszélés",-10.451622035885794],["feltétlen",-10.451714888775635],["tartalék",-10.451769433509202],["kultúra",-10.452457663849518],["milliós",-10.45246687351321],["nyilvános",-10.452540733669103],["megmenteni",-10.452689259449864],["Pár",-10.452992921584869],["lőtte",-10.453244976179587],["legendás",-10.453655712439398],["ismertett",-10.454056630073673],["felhívás",-10.454260829737525],["osztotta",-10.454373350677312],["írni",-10.454883524147606],["eredményes",-10.455544812988283],["utcán",-10.455545596084889],["77",-10.45564563596717],["alapanyag",-10.456268285750784],["divat",-10.45628597755092],["vállalás",-10.456498775675419],["zuhant",-10.456751395942375],["szeg",-10.457004601334447],["légvédelm",-10.457610449415853],["felhívta",-10.457713606271735],["Kup",-10.458029606124192],["állítás",-10.458118207340906],["lövés",-10.458284225659114],["réteg",-10.458514892497355],["egyet",-10.45921220392692],["lep",-10.459535018023512],["ránk",-10.459931387313151],["hozzájárul",-10.460055720116326],["gondoskod",-10.460197813817434],["szurkolók",-10.460993093571567],["vezetést",-10.461070009189037],["szöveg",-10.461177666563104],["forgat",-10.461765469489835],["építése",-10.462455493220688],["illetékes",-10.462751626038536],["célba",-10.462822992849778],["filmek",-10.462843962264017],["csarnok",-10.463218780349589],["Ü",-10.463396562832052],["š",-10.463418113557747],["Washington",-10.463418113558648],["izraeli",-10.463418254164905],["viadal",-10.463457446368718],["népszavazás",-10.463517830898308],["alapított",-10.463634497716384],["utánpótlás",-10.463848446442654],["abba",-10.463946612065984],["barátai",-10.464235750291142],["étterem",-10.464498324857516],["utáni",-10.465176442701491],["fogva",-10.465812255403094],["kiadó",-10.465836079492957],["tudná",-10.466102647763872],["találkozón",-10.466162186740991],["csinálni",-10.466211190920959],["ismerős",-10.466559315811025],["díjak",-10.467212750644116],["Berki",-10.467454040275214],["Papp",-10.468615345449276],["készen",-10.468829748905634],["melletti",-10.468833805325808],["részletei",-10.469134620164718],["ottak",-10.469341232802437],["érthető",-10.469370927352955],["pu",-10.469553322442014],["számunk",-10.469914602004621],["lista",-10.470447854478948],["parkoló",-10.47063676414951],["jal",-10.470911333053209],["rádió",-10.471617180670407],["vállalt",-10.471828554783123],["hassa",-10.472169743203889],["gázt",-10.472612719585923],["ku",-10.472642843546499],["Inter",-10.472690267635318],["ec",-10.47292671137183],["küldte",-10.472990572953503],["bál",-10.473077639210876],["Mit",-10.473553926503847],["megállapodást",-10.47369277699315],["dó",-10.474490917560377],["alkotó",-10.474600531698396],["cse",-10.475420592285897],["Majd",-10.475614341907944],["karbantartás",-10.475614982048514],["Országgyűlés",-10.475619982023186],["véleked",-10.475621022251573],["Árpád",-10.475624424864414],["kapcsol",-10.475704341960892],["személyzet",-10.475750186112133],["jelöltje",-10.475883473968775],["elért",-10.475893290168404],["Hétfő",-10.47600822290798],["nyitva",-10.476347184746182],["perces",-10.476403624206721],["hatásai",-10.476480268682836],["lélek",-10.476702487783164],["átalakítás",-10.47686534333057],["Mindenki",-10.477069063497849],["barátja",-10.477610232696202],["dísz",-10.47761532480815],["gyűjtő",-10.477796404760213],["változatlan",-10.47804198197155],["fer",-10.478127041590014],["kiegészítő",-10.478780040119144],["elmondás",-10.478826352371113],["elkövető",-10.479976014139766],["épületek",-10.481093515056473],["posztjá",-10.481224727787442],["megjelenés",-10.48166653889027],["fogadja",-10.481773055331093],["96",-10.481789234386959],["származ",-10.481847905193272],["terve",-10.482420186694581],["érdek",-10.483885994622437],["árstop",-10.48425818723975],["svéd",-10.484377983734177],["keresni",-10.484450561038972],["csere",-10.484746049066906],["vihar",-10.48487354776543],["juthat",-10.484889397393932],["közlése",-10.484946357996709],["enge",-10.48575725574176],["sikert",-10.486013674629135],["alsó",-10.486135606328926],["felszerelés",-10.486326310835581],["87",-10.486675947195216],["ff",-10.487097085842173],["kezdté",-10.487173113192343],["juttatás",-10.487248409736232],["mesélt",-10.487295988264993],["működését",-10.487383890876277],["Mo",-10.487727068917145],["hozam",-10.4877302655846],["fideszes",-10.487958927210132],["afrikai",-10.487959055266359],["Jakab",-10.487960561848041],["aszály",-10.487981539114696],["Fotó",-10.488002280058215],["óvoda",-10.488056804278369],["tempó",-10.488228030225219],["támogatott",-10.488382849701576],["Jobbik",-10.488853348162174],["hetedik",-10.4888990333365],["gázolaj",-10.48928107872606],["részlet",-10.489582273802593],["drágább",-10.489651807407284],["szakértői",-10.489957122445702],["technológiá",-10.490263810524258],["Ho",-10.490369872970348],["kezdődő",-10.490629030471773],["nevelés",-10.490682774886015],["fenyegetés",-10.49074209421055],["figyelni",-10.491152522357616],["megyé",-10.491370079219784],["fertőzötte",-10.49154104906597],["újdonság",-10.492444079860096],["korszak",-10.492795298487952],["szereti",-10.492886396886181],["helyezte",-10.493179038416578],["ségi",-10.49339798089768],["teljesít",-10.493659372503789],["Vár",-10.493711559038204],["fennáll",-10.493772897591997],["turisztikai",-10.493921988905292],["atom",-10.493953948367052],["kezel",-10.494652272176939],["károk",-10.495185846531637],["alakulat",-10.495207253130278],["megosztott",-10.496188632965946],["ionális",-10.497105136178043],["szállít",-10.497762710514465],["építési",-10.497931850347548],["töltés",-10.49876468110891],["elemzés",-10.498771920194297],["hamarabb",-10.499408534324289],["játsz",-10.499424166494942],["járni",-10.499719842396196],["Orosz",-10.499811406335507],["Judit",-10.500463209455308],["háromszéki",-10.500471003597909],["Ben",-10.500474657474957],["kijevi",-10.500485182948516],["törzs",-10.500560936239244],["Edin",-10.500755093363274],["csökkenteni",-10.500910615930744],["mentális",-10.500914312615784],["házaspár",-10.500943819697326],["összefogás",-10.501099761181726],["összességé",-10.501368763406871],["hatvan",-10.501559370855855],["hajt",-10.501602111589628],["teljesített",-10.501760153464303],["baba",-10.504002594493539],["Pi",-10.504046137601154],["kezdő",-10.504065045953862],["fém",-10.504555573724886],["kívánt",-10.504596452882671],["láttá",-10.505078665062932],["négyzetméter",-10.505491603368544],["bővülés",-10.505716108530663],["lemez",-10.50602581549019],["együnk",-10.50639336911183],["beszámoló",-10.506533003354871],["61",-10.506715796818455],["legfő",-10.507005375008166],["százalékpont",-10.507168144108437],["nőttek",-10.507768991090941],["megszűn",-10.507797190362062],["tizenkét",-10.507837121271292],["ákat",-10.508241301917263],["nappali",-10.508489073502195],["váltak",-10.50852664679324],["olni",-10.508593329379574],["esztendő",-10.508872828622355],["hunyt",-10.509335860939544],["kereső",-10.509647645099967],["áj",-10.509868568761124],["keze",-10.509887274967227],["emlékezet",-10.510160258332224],["kitért",-10.510747170744445],["felszín",-10.510812085267776],["var",-10.510867353398659],["hagyomány",-10.510977840953105],["tudatta",-10.511480794995677],["hallgat",-10.512816222352889],["1000",-10.512904386599256],["Sepsi",-10.513110013418359],["informatika",-10.513117223216184],["tüzérség",-10.513117227284551],["bolygó",-10.513117388403362],["sárga",-10.513138177262803],["londo",-10.513147092901068],["erőt",-10.513264772071548],["Horvátország",-10.513553986375573],["Spanyolország",-10.513635546820066],["Béla",-10.513751984348865],["front",-10.513754068774517],["198",-10.513759707610207],["szert",-10.513858144055398],["odott",-10.514275368878948],["befolyás",-10.514280903226403],["ham",-10.514716743386181],["körbe",-10.514824220097195],["versenyzők",-10.515244341977802],["egyeztetés",-10.51544589576568],["kapcsolód",-10.516740041268331],["körzet",-10.516865497889086],["csalás",-10.517054783240347],["bio",-10.517174955183375],["érvénybe",-10.517236464546151],["Romániába",-10.517485914458081],["változtat",-10.518446812548241],["legkisebb",-10.518518705785866],["élte",-10.518978380290914],["sorra",-10.519022632448628],["szerezni",-10.519228446587482],["Alap",-10.520511778623753],["éjszakai",-10.520927712248264],["cal",-10.520956488017237],["ă",-10.521195364679677],["kérés",-10.521224258306912],["államok",-10.521388613267657],["tölteni",-10.52167085728987],["láng",-10.521830762355393],["hegy",-10.522094935140252],["önkormányzatok",-10.522214096189797],["DVS",-10.52241964706061],["vezeti",-10.522757904945152],["amel",-10.523074537648565],["válaszol",-10.523333285979533],["ől",-10.523355597385141],["védett",-10.5241324490148],["ritka",-10.524326963486669],["luxus",-10.524496141127608],["minőség",-10.525122391929301],["KD",-10.525335083682739],["egyszerűe",-10.525549935649176],["ített",-10.525727985944547],["mény",-10.52581357915419],["ellene",-10.525909282913025],["Reuters",-10.525937658604278],["Puskás",-10.525937677322679],["Richter",-10.525937729910867],["tragikus",-10.525938088214932],["seb",-10.525972700571405],["Érdem",-10.526061769494483],["multi",-10.526152792040559],["meglehetős",-10.52628252437015],["játszi",-10.527608169846825],["házat",-10.527878223307301],["készpénz",-10.528290029094382],["érdekelt",-10.528511147100746],["nyerni",-10.528761215207691],["földi",-10.528892891614602],["erőteljes",-10.528922852320623],["alternatív",-10.529170742602599],["nagyszerű",-10.529385529096617],["támogatások",-10.52939076863817],["ebbe",-10.52939851410931],["ruha",-10.529544220222864],["ölt",-10.529604581720845],["Pho",-10.531014536545005],["elismerte",-10.531360111265714],["beszámolój",-10.531501062864598],["munkavállalók",-10.531897021150305],["lehetőségét",-10.53222999125311],["TE",-10.532630927635516],["gabona",-10.532737641905152],["döntése",-10.532830136284751],["könyve",-10.53302142191669],["teli",-10.533154862558126],["esebb",-10.533289291776569],["To",-10.533454505405864],["Öt",-10.534485045357762],["elkezdte",-10.534584856079547],["kérdez",-10.534893424236516],["céljá",-10.534896489613764],["ital",-10.535126137968469],["léptek",-10.536077096276317],["kedvezményes",-10.536454234523163],["inket",-10.53681424500922],["Moszkvá",-10.536930516187812],["övezet",-10.537584505343958],["Fehér",-10.538329153466012],["zék",-10.538399920587086],["kabinet",-10.538541764804949],["Hungary",-10.538924674266848],["Program",-10.538924714537945],["Szlovákia",-10.539065364798487],["főtitkár",-10.539114927924965],["fellépés",-10.539360494753904],["kapunk",-10.539498915344476],["emelni",-10.539660602170787],["idősek",-10.540225883940437],["színvonal",-10.540781887885643],["legalacsonyabb",-10.540873132608294],["felelősség",-10.541451862421273],["egyensúly",-10.541578593376048],["kihasznál",-10.541585658460006],["kód",-10.541654704089918],["ápol",-10.541722813076072],["várakozások",-10.542989087627696],["Való",-10.543189632321356],["szomorú",-10.544347376140516],["elmarad",-10.544439506352287],["mező",-10.545032702070202],["területi",-10.545917554709273],["korlátozások",-10.546375121453693],["tűzoltó",-10.546673865755723],["Ver",-10.546825505800683],["tudtá",-10.547174804501463],["futam",-10.547195470584235],["nénk",-10.547295265928948],["képesség",-10.547349961559908],["léphet",-10.547561682167817],["hadi",-10.54783826297804],["bevezetet",-10.547900360521009],["csillag",-10.548074627982466],["Lehet",-10.549213417201173],["döntések",-10.549303524481921],["vajo",-10.549350529763668],["szabadul",-10.549420827592748],["akarat",-10.54993346869199],["módosítás",-10.550651330037322],["pan",-10.551170795363753],["nyereség",-10.551463181522578],["szán",-10.551598983575198],["cikke",-10.551663338170389],["fölött",-10.55198980058465],["fejlesztésé",-10.55204353789255],["vallomás",-10.55205883224011],["csökkentett",-10.55206626727748],["Tesl",-10.552162943313768],["lépcső",-10.552225118257391],["hírportál",-10.552482372773598],["gépkocsi",-10.552573268703174],["kamera",-10.552764203185063],["foglal",-10.552798793634194],["nyaralás",-10.55283623396721],["visz",-10.553290675134718],["Liga",-10.553419213200428],["bevételek",-10.553512652913813],["ésével",-10.553542093485824],["szokott",-10.553672839397441],["föl",-10.553684749956012],["javasolt",-10.553741927920205],["büntetőeljárás",-10.553776834088804],["meccsen",-10.554109927264829],["otthont",-10.554123959668193],["74",-10.554203518991923],["érnek",-10.554346281533368],["gépjármű",-10.554358186404162],["tárgy",-10.555227228843487],["szerző",-10.555680773763289],["születésnapjá",-10.555682567059723],["autót",-10.55574385729225],["hozhat",-10.556010426940704],["bot",-10.557030553795098],["évé",-10.557520603885859],["indulhat",-10.558238251013819],["lor",-10.558416833409884],["szeres",-10.559192173253594],["segítene",-10.559902226100629],["hallott",-10.56015138160705],["Mark",-10.560259265056569],["télen",-10.561052129334001],["párti",-10.561202534790034],["szomszédo",-10.561344392277729],["szavak",-10.562093465858041],["helyzetek",-10.56251445339375],["támogatta",-10.56263932890007],["hin",-10.562672108478981],["csendes",-10.562724338906973],["irat",-10.56305041257808],["célpont",-10.563181717744637],["gyűjtés",-10.563308333118021],["vezettek",-10.56354187875123],["működtet",-10.563708186828558],["alkalmaz",-10.565022347515308],["próbálja",-10.56503180739303],["augusztusban",-10.565055763655632],["szavazó",-10.565171879481166],["Bihar",-10.565416074745134],["Egyéb",-10.565425368784599],["kreatív",-10.565494421308149],["elit",-10.56559608314615],["vásár",-10.56575862077095],["érkez",-10.566161742620828],["ezelőtti",-10.566250938235424],["váltani",-10.566277862496289],["százezer",-10.566661712216195],["legközelebb",-10.566662674739021],["esté",-10.566756435671499],["riasztott",-10.567923772703844],["!\"",-10.568088138833602],["ságát",-10.568494765734382],["közlés",-10.568748869116305],["vizsgálatok",-10.56882269534582],["testvére",-10.569376265746445],["gyereke",-10.56953754731658],["főút",-10.569540404643462],["távolság",-10.569772426323784],["elfogadott",-10.569929110632902],["kártyá",-10.570613585825672],["szolgáltatók",-10.571693423671993],["Ö",-10.571890634753661],["igyekezet",-10.572546147760487],["követői",-10.572621082447089],["ley",-10.573747923270885],["keletkezet",-10.573931504610071],["Do",-10.57407896948708],["változó",-10.574682590985052],["osok",-10.574688978325309],["sportág",-10.57473384094503],["Bereg",-10.574763763019746],["utalt",-10.575128078540075],["fenti",-10.575874644494188],["tárgyal",-10.575969130809613],["ozni",-10.576285678652042],["programjá",-10.57632021442506],["kereste",-10.576387772081464],["meghaladj",-10.576439235229504],["hangsúly",-10.576448660836146],["képpen",-10.57710816644872],["tve",-10.577285777896526],["lakói",-10.577320895066713],["gazdák",-10.577364433550837],["készítés",-10.577652632718419],["Star",-10.577665805305482],["veresége",-10.577729531064687],["hatékonyabb",-10.578246688059394],["piacr",-10.578337830175819],["kezdi",-10.578390588764128],["Hogya",-10.578503718994217],["hibrid",-10.578929419062732],["agresszív",-10.57892942492622],["furcsa",-10.578933418404581],["megalapozott",-10.578935637605838],["Robert",-10.578949991406773],["brutális",-10.579025522975417],["református",-10.579404096958207],["Németh",-10.579440991954911],["tavas",-10.579862313512695],["kormányzat",-10.579892586971159],["gondolo",-10.579916776700994],["mérő",-10.580204199388307],["Irán",-10.580590028949246],["aligha",-10.580690501337926],["elejé",-10.580716269744379],["visel",-10.581060589433491],["betegségek",-10.58125849645877],["hon",-10.58145951400876],["Dániel",-10.581485299573194],["hitelek",-10.58185440307128],["mesél",-10.581854688819114],["támogatását",-10.582633492788808],["kezdeni",-10.582887302638852],["szervezete",-10.583165209458745],["Szer",-10.583468906396597],["ültet",-10.583523828884257],["akadt",-10.583926353372988],["PS",-10.584017781338627],["betét",-10.584336981525528],["északkeleti",-10.584371008622169],["rajz",-10.584787413950863],["meccse",-10.58605767858249],["felhős",-10.586229474325542],["hor",-10.58635431411059],["nyomozók",-10.586959670454661],["Hasonló",-10.587266342116555],["kereskedők",-10.588319774762837],["tapasztal",-10.588583805926245],["problémá",-10.588690021322257],["tanult",-10.5888836660993],["edik",-10.588964931529667],["beleér",-10.589236930167619],["94",-10.589243996595005],["hajtás",-10.589522205312134],["rák",-10.589706903364057],["org",-10.59001469151685],["felnőttek",-10.590263016039641],["szerkezet",-10.590417631737338],["tekinthető",-10.590522201749085],["személyiség",-10.590529540661379],["képernyő",-10.590897123756882],["fotók",-10.590921361401733],["ól",-10.591484257347815],["ekhez",-10.591706163900614],["SC",-10.591963383944584],["71",-10.59217027605056],["továbbiak",-10.592199472323221],["sük",-10.592280671330428],["átállás",-10.592293110960991],["incidens",-10.592628040020161],["Szilágyi",-10.592628219785023],["turizmus",-10.592631737742256],["Amerika",-10.592634064577032],["közigazgatás",-10.592666297493274],["befolyásolj",-10.59270310238086],["viszi",-10.592891068980826],["UX",-10.593468546153915],["adósság",-10.593948772131668],["fokozott",-10.593961204866714],["mindegyik",-10.594047261442327],["szálló",-10.594434062374681],["szög",-10.594451005818648],["Ex",-10.594587122701121],["Park",-10.59499383847433],["tanulás",-10.595181741684296],["akadály",-10.595195662637122],["Egyes",-10.595197671788991],["használható",-10.595715644431777],["számom",-10.595795118148143],["elkezd",-10.596610483515665],["ré",-10.596659556947465],["össz",-10.596950835493018],["zsi",-10.597279295599591],["érhető",-10.59746922962055],["82",-10.597586771462948],["nyitás",-10.597730626440022],["Tud",-10.597922664080697],["menjen",-10.598005776948412],["sérülések",-10.59845939608633],["készülő",-10.598836592994584],["szeme",-10.598938520303548],["boldogság",-10.598995438821614],["nyíregyházi",-10.599162281651504],["ural",-10.600161154737341],["számla",-10.600179305601543],["építő",-10.600649216717414],["bővült",-10.600699533333078],["karakter",-10.60107271175768],["újságírók",-10.601772336362158],["vitá",-10.602095622930722],["királyi",-10.602288870909533],["DA",-10.602746370287347],["Állam",-10.60321222818379],["elemzők",-10.603422389757595],["ritkán",-10.603573577214988],["üzemeltető",-10.604050896620574],["alul",-10.604448248850252],["ezüst",-10.605298070535646],["zák",-10.605762142250054],["vallás",-10.60588997302355],["hívás",-10.606316955719187],["show",-10.606474481547515],["görög",-10.606486149071195],["Veszprém",-10.60651692879474],["moszkva",-10.606517039756467],["automatikus",-10.606518273407149],["Klub",-10.606518719399368],["rapper",-10.606526940601576],["madár",-10.606536085044938],["jelenlété",-10.60655350904851],["drága",-10.606558156519963],["belügyminiszter",-10.606618438058161],["öreg",-10.606757984958257],["NAV",-10.606925157220129],["osz",-10.607027690902736],["Számos",-10.607327461293565],["vinni",-10.607380889652264],["kultúrá",-10.607714534453319],["tiszta",-10.607790216992946],["húzódó",-10.608074740681452],["kezelni",-10.608169626428147],["rendes",-10.608387539238068],["Hangsúlyozt",-10.608860520768182],["Milyen",-10.609068687663022],["árbevétel",-10.60931273612541],["86",-10.609394928536254],["részesül",-10.609543402040815],["válaszadók",-10.60957401047527],["energiaellátás",-10.609837329384137],["torna",-10.609949680402837],["pillanatok",-10.610033840672529],["sör",-10.610365791545757],["művészet",-10.611754451388137],["korai",-10.6121988232569],["raktár",-10.612315523666243],["tárcavezető",-10.613271378437803],["Szerintem",-10.614048019097684],["szerződések",-10.614206005637369],["cukor",-10.614375570953484],["mini",-10.61461569891534],["hagyja",-10.615099165681341],["Közel",-10.615522903436425],["íteni",-10.615784371549235],["utasítás",-10.616304903243432],["top",-10.616379238223022],["Dunaújváros",-10.616520019479792],["váltó",-10.617086343081263],["app",-10.617254547908697],["mindkette",-10.617816923944869],["blokk",-10.618149869822858],["észlel",-10.618445088597529],["képp",-10.618791890391746],["DV",-10.618959432153412],["határozott",-10.61933914921828],["apság",-10.619363704699518],["dolga",-10.619935452829608],["találtá",-10.620415243177614],["Mészáros",-10.62060146774828],["Teljes",-10.62060187510112],["Kiderült",-10.620926438143394],["római",-10.620937065259875],["autópálya",-10.621050458975965],["bátra",-10.62115318768269],["időnként",-10.621524135537758],["verzió",-10.621529093345213],["üzletember",-10.621718745402642],["tehetség",-10.62183461320667],["hirdetés",-10.621847917430117],["fúj",-10.622165882906595],["viharos",-10.622746074856],["elismerés",-10.622994563875936],["foglalkoztatás",-10.623445548228883],["pro",-10.62351665775049],["valah",-10.623648791745273],["feladata",-10.623798312154248],["avat",-10.62405231215852],["búcsú",-10.624103089177263],["alak",-10.624161764240345],["pénzek",-10.62416762365763],["világjárvány",-10.624400370080787],["Ott",-10.62485702584993],["Tom",-10.624945135013473],["Lát",-10.625119793037102],["fejlesztése",-10.625387340188269],["estek",-10.625947812679344],["ellátó",-10.625987819201718],["árd",-10.626225928044715],["északnyugati",-10.626342639771233],["követel",-10.626496452320811],["hozzáférés",-10.626672732770427],["csatá",-10.627134130470862],["szál",-10.628266642901437],["hitte",-10.628475707998223],["kizárt",-10.628893270127689],["Har",-10.629110482236616],["éjszaká",-10.629110916851499],["szavaz",-10.630107566581062],["Romániá",-10.630944875737367],["szállt",-10.631274426921419],["Minde",-10.631507276512728],["kérni",-10.631569749571707],["kapni",-10.631789440694023],["mehet",-10.632475375330987],["maradás",-10.632479271146028],["technológiák",-10.633877905918895],["munkatársa",-10.633893340111278],["övé",-10.633953175819416],["Bal",-10.633970920847965],["frank",-10.634645674525185],["»",-10.634887150114473],["gyengébb",-10.634887154268718],["stadion",-10.634887285939463],["fájdalom",-10.63488728718486],["Zsófi",-10.634888090484779],["98",-10.63499408230843],["atás",-10.635177321171305],["egyedülálló",-10.63549246031693],["emleget",-10.635600782198557],["mezőgazdaság",-10.636101799210365],["lehessen",-10.636412549741841],["maximális",-10.636500495855943],["tényleges",-10.636550412761132],["Város",-10.63658974589629],["ES",-10.63688411251309],["egészségügy",-10.63694977806444],["nyelvű",-10.637596196223136],["omat",-10.638795751000455],["játszó",-10.638941795890082],["Antal",-10.63916856632179],["márka",-10.6392308222773],["normális",-10.639546434687471],["elmond",-10.639548012742342],["alapok",-10.639868091253199],["hessen",-10.639940721489761],["termelők",-10.640327906516525],["kus",-10.640441094577932],["vállalati",-10.640611398914498],["kísér",-10.640803410183308],["kiló",-10.64100858771219],["trend",-10.641168101715007],["élénk",-10.64163438828415],["rejt",-10.641798941250887],["fiúk",-10.64209934697549],["kényszer",-10.642692973411325],["infrastruktúrá",-10.642727446742349],["belváros",-10.642825034634459],["partnerek",-10.643056051261318],["koz",-10.64308620381205],["nyit",-10.643246986747535],["jei",-10.643319020008317],["folyt",-10.64364920430736],["kiadások",-10.643797430508986],["tulajdonosok",-10.643865074175393],["romlott",-10.643867022266829],["szögezte",-10.643977892918215],["tagok",-10.643984589750715],["ételek",-10.645071634919917],["kívüli",-10.645212304535608],["mérés",-10.645472438856306],["gyakori",-10.645524464839255],["tájékoztató",-10.645668122715179],["szárny",-10.646033021023822],["fogy",-10.646038936711204],["téma",-10.646225184631312],["73",-10.646382484774694],["párja",-10.646387000036729],["megjelenése",-10.646440139159349],["esküvő",-10.647922763348557],["engedélyez",-10.648112830124381],["lapot",-10.6481444028535],["baráti",-10.648266857032109],["minőségi",-10.648745851710885],["menté",-10.648850988083588],["fűzte",-10.648893537021205],["agrár",-10.648985918471823],["Hazánk",-10.64938474129254],["enyhe",-10.649387093942275],["Finnország",-10.64940963628385],["Kovászna",-10.649496906012278],["Csütörtökön",-10.649504268792032],["Bukarest",-10.649635681027931],["megbízható",-10.649709162852016],["cu",-10.649895495991803],["Lo",-10.64993950329186],["jegyzése",-10.650038966886212],["Korea",-10.650292498259489],["zett",-10.651021976249003],["ődött",-10.651071437183987],["életébe",-10.651380899438056],["háztartás",-10.651428375290212],["tartalmazó",-10.651462247127977],["Su",-10.651510369948742],["támogatni",-10.652277873060594],["Games",-10.652294211167309],["hatékonyság",-10.652751615628738],["építőipar",-10.652953841756059],["ütött",-10.653093952235526],["válhat",-10.653219425884387],["foglalkozni",-10.653733697944674],["rövidebb",-10.65373375113393],["munkák",-10.653763340850988],["Pest",-10.654206403943569],["zóná",-10.654556044195589],["ezett",-10.654563160227067],["fenntarthatóság",-10.654669473571927],["nagyot",-10.654733686127894],["parancsnok",-10.655149898547267],["rám",-10.655435920878382],["alelnöke",-10.655444336783766],["juss",-10.655819370200163],["bizonyíték",-10.656460030591392],["Olaszország",-10.657383095309973],["másképp",-10.657824615453578],["Szu",-10.657895424104998],["adomány",-10.658259496393214],["csatorná",-10.658838073092152],["közti",-10.658983715397412],["tanév",-10.659070609005433],["rov",-10.65920200928485],["hajrá",-10.65959246380535],["őriz",-10.660147437835432],["gyorsabb",-10.660889929613106],["befejez",-10.660977658252701],["érkezne",-10.661843980527722],["stáb",-10.662054880868343],["fejlesztők",-10.662555706445204],["sztrájk",-10.662571024635334],["szintet",-10.66299649850673],["tus",-10.663114948493128],["brazil",-10.663394595184085],["selejtező",-10.663551732899398],["intéz",-10.663883387553858],["vállalkozók",-10.664028569830666],["č",-10.664085785683458],["Akadémia",-10.664085797427097],["kenyér",-10.66408650186433],["Rádió",-10.664091657336199],["szlovén",-10.664091928144321],["bővül",-10.664095058544168],["szigorítás",-10.664099158149785],["székhely",-10.66417865757293],["Bajnokok",-10.664350411999344],["finn",-10.664810859059124],["hívott",-10.665147512771753],["könyvtár",-10.665155582466978],["számon",-10.665288593568576],["oroszország",-10.66533645480182],["Ezút",-10.665459027061635],["régen",-10.665547033333747],["MI",-10.66562280679366],["Szerdá",-10.665686796913914],["útvonal",-10.665711383128738],["szabályai",-10.666353582997765],["szolgálja",-10.666484260781793],["számot",-10.66669621497873],["kupa",-10.666755507373086],["160",-10.666965330309536],["számá",-10.667324211522676],["oldalú",-10.667883707386835],["motoros",-10.668879319645058],["szeretettel",-10.669257709569099],["megkapta",-10.6696485994371],["villamosenergi",-10.669783419152196],["állítása",-10.67005343546342],["áruház",-10.670246036964105],["ung",-10.670294768105634],["elsejé",-10.67042289238952],["frakció",-10.670536694961227],["kerékpár",-10.670819571802618],["rendezi",-10.670900807718553],["vány",-10.671248633501484],["ebbé",-10.67175904907214],["pihenő",-10.672167327193831],["ugyanez",-10.672309551601426],["szelet",-10.672493544174973],["összetett",-10.672896126374102],["vezetése",-10.672987745159713],["értékes",-10.673113440932624],["javít",-10.673602878860063],["ub",-10.673760318118171],["jegyek",-10.67437808033998],["információi",-10.67477255899594],["későbbi",-10.675736800604],["helyzetét",-10.676734096426706],["mann",-10.677742945435444],["rendezés",-10.67782911905137],["Ku",-10.678365214242572],["adományoz",-10.678676091956461],["ológus",-10.678809476596982],["Farkas",-10.678997390295677],["Izrael",-10.679011505092204],["Pécs",-10.679028071984568],["elengedhetetlen",-10.679028592997643],["Ákos",-10.679034411212424],["készíteni",-10.679150938538239],["tartalom",-10.679180125368006],["Buda",-10.679220796228094],["Dmitr",-10.679259502690384],["Kedd",-10.679557736624256],["emelet",-10.679599447209139],["emel",-10.679600684767728],["magyarság",-10.679642594369081],["kodás",-10.680224694010928],["megelőzés",-10.680550654164273],["Németországba",-10.680665850060755],["nyúl",-10.680857088310763],["megkérdezettek",-10.68158013462206],["osság",-10.681880853167787],["83",-10.682546773903262],["valamelyik",-10.682712943712856],["ajánlás",-10.682768131937376],["szerv",-10.682783045243092],["csökkentésé",-10.68348818408482],["alapító",-10.68369605728385],["megvalósul",-10.685076054588123],["ahonna",-10.685811851405624],["reakció",-10.686150541443759],["erőmű",-10.686376676801475],["szolgált",-10.686485003366041],["Alexandr",-10.686758916961466],["Szlovákiába",-10.687225301171653],["végeredmény",-10.687244773293383],["mentek",-10.687267293155143],["eladás",-10.68749953402847],["érem",-10.68789143771549],["kever",-10.688698629648776],["reklám",-10.689020616401079],["mostaná",-10.689343720968392],["szerzés",-10.689960042330618],["előbbi",-10.690069866887287],["ová",-10.690617421776853],["fák",-10.69066127781361],["roham",-10.690988041156528],["adót",-10.690997396218929],["fizette",-10.691034532429507],["főpolgármester",-10.692117657248074],["ros",-10.692243750944822],["bocsát",-10.692467133521415],["építkezés",-10.692767956759369],["boltok",-10.69279065276627],["túrá",-10.693434796238243],["tanít",-10.693486018403966],["mögé",-10.69416299419095],["Scholz",-10.694163661697864],["szokatlan",-10.694168338262184],["Svédország",-10.694170466051812],["magazin",-10.694172887817944],["stressz",-10.69417614772764],["norvég",-10.694192420049509],["tavaszi",-10.69426317506407],["költsége",-10.69447092638395],["ütötte",-10.694588020836694],["köthető",-10.694704430720792],["San",-10.69495505277975],["komolya",-10.695037808124543],["utóbb",-10.6950907475765],["szerelme",-10.695104492837444],["ódott",-10.695416173059247],["belföldi",-10.695582390862526],["használó",-10.696544558255503],["szélesebb",-10.696559004044559],["tudhat",-10.696688537537826],["hőség",-10.696803143683148],["elemző",-10.697002862210804],["szakma",-10.697208314540926],["rendezvények",-10.697309617066143],["elkövetésé",-10.69754924746411],["birtok",-10.697739211837842],["okozó",-10.698344365472064],["könnyed",-10.698519284807023],["kormányzó",-10.698642041402326],["szakadt",-10.698675179743049],["hallgató",-10.69900610468921],["nyolcadik",-10.699134703096558],["időpont",-10.699290682957905],["bevezetése",-10.700222982657284],["Wi",-10.700414239948493],["IM",-10.700853606596512],["drámai",-10.701149491027914],["mell",-10.701189982448149],["sága",-10.701748669937572],["csökkentése",-10.70187153639124],["kapja",-10.701875551217888],["kivitelezés",-10.701878057649747],["közlekedő",-10.701880679346711],["magad",-10.701887517078498],["sztori",-10.702075353703606],["kereskedő",-10.702206818595005],["készítette",-10.702240931384967],["valószínűség",-10.702607181083785],["drón",-10.702730930230011],["sorolta",-10.702890629363697],["tűnő",-10.702999901962443],["Debrecenbe",-10.703078552317606],["vo",-10.703151367280142],["nyitó",-10.703284590936699],["ry",-10.703360348263812],["ittas",-10.703893084180574],["ősz",-10.704030393298368],["zápor",-10.704179299658414],["zené",-10.704432353851224],["eszközt",-10.704510815009675],["veszélyt",-10.704878397805958],["lov",-10.705024985524435],["áldozatai",-10.705197075536487],["napirend",-10.705343055963159],["olvas",-10.705375189799184],["súlyosa",-10.70568410256173],["mérte",-10.705719326951751],["hektár",-10.705767785997487],["gondo",-10.70582395060087],["tároló",-10.705833010354736],["verte",-10.705849053324778],["ké",-10.706083181652248],["tavasz",-10.706323631827582],["koncentrál",-10.706658354354472],["lejt",-10.70688629060295],["rab",-10.707071495357248],["épülő",-10.708237116565625],["tapasztalatai",-10.708446427248514],["vegye",-10.70852340842645],["egyenlő",-10.709211912387083],["Gimnázium",-10.709547289761073],["Szolnok",-10.709547484134408],["extrém",-10.709555505401074],["folyosó",-10.70955868739744],["rendezte",-10.709673847516722],["tá",-10.709822686942642],["Nos",-10.709886090949094],["Honvédség",-10.7100267699881],["bizonyítj",-10.710078463957156],["csont",-10.710167360884467],["leinte",-10.710380513242756],["rendel",-10.710779726137428],["́",-10.710902082419437],["utasok",-10.71097310186223],["gyermekei",-10.71105499583075],["rámutat",-10.711170927799971],["körülményei",-10.711485056944387],["vízi",-10.712338690879122],["cserébe",-10.713042806849696],["címvédő",-10.713175608000322],["bejelentése",-10.713726437427354],["kiber",-10.713892311986008],["békés",-10.714569961122114],["tüntetés",-10.715324878114764],["Teh",-10.715544475575802],["támadást",-10.715760415136412],["Fu",-10.715877183042746],["holnap",-10.715886052053563],["kiskereskedelm",-10.71616859381285],["döntötte",-10.71687155251865],["karrier",-10.717545781492648],["összegű",-10.717624084070533],["előfordul",-10.718019888316356],["kutat",-10.718235927392357],["kárt",-10.71831850438538],["váda",-10.718348226193871],["lelkes",-10.718835274425178],["erősíti",-10.719543444361502],["adód",-10.719717912845255],["mérleg",-10.720035815199466],["aratot",-10.720070699905722],["reform",-10.720255607258899],["jóvá",-10.720358734421115],["színpadr",-10.720869726130259],["ítő",-10.72092102708391],["küldetés",-10.721061052397468],["ává",-10.721383248032094],["stratégiá",-10.72138428058496],["teret",-10.721391927859436],["hesse",-10.721470283052156],["bol",-10.721654985031947],["tisztába",-10.72165696650697],["pol",-10.72174863805547],["elindult",-10.722097885906297],["szót",-10.722179519994954],["elnököt",-10.722520399742482],["változtatás",-10.722644357674902],["eredményeke",-10.722786608015287],["foglalás",-10.722898095938948],["terjedő",-10.723548577753654],["mondtá",-10.723652504542226],["konzervatív",-10.725111982243657],["gimnázium",-10.725172289761137],["Svájc",-10.725172291445926],["elektronikus",-10.725172485300595],["Jövő",-10.725172543911892],["szálloda",-10.725396504165882],["költ",-10.725491228149526],["Ligája",-10.725542920796142],["csoportjá",-10.725599894959386],["lopás",-10.725601472316612],["City",-10.725656615566464],["eleje",-10.725742382903652],["vizsgá",-10.725932399362165],["terep",-10.726538214531498],["nevelő",-10.726814370265913],["látogató",-10.72683858147204],["esél",-10.726890595385425],["inflációt",-10.72721118690966],["elnevezés",-10.727630261599653],["magasság",-10.727975346346492],["szett",-10.728097978936553],["változtatni",-10.728132718882199],["ellenfele",-10.728514426268024],["információt",-10.729048897706743],["vers",-10.729351858812532],["rendőrségi",-10.729575759535049],["fenyeget",-10.729933688572585],["BK",-10.73038304181198],["pap",-10.730689541284644],["forintnyi",-10.730961915103782],["kereset",-10.731010368016676],["testvér",-10.731131818697408],["Sto",-10.73205870012074],["heves",-10.732106382059937],["kifejezés",-10.732246869426097],["élvonal",-10.732409422212438],["felét",-10.732413862241959],["hangos",-10.732418461275927],["suk",-10.733130456196903],["helyezked",-10.733493165388621],["fordulójába",-10.733522667053602],["tárgyalt",-10.73389540073134],["útra",-10.734521804665079],["látó",-10.735366802242535],["zivatar",-10.735563617970012],["bocsátott",-10.735683147144009],["cikké",-10.735859802871618],["fogadtá",-10.73614784163114],["találkozás",-10.736224532394498],["átadás",-10.736441101329671],["felhív",-10.73671555465772],["ellenállás",-10.736770279408521],["tőzsdei",-10.736771757519213],["büntet",-10.737733631272155],["távoli",-10.73775910483852],["font",-10.738233246638899],["vetít",-10.738816455167065],["lé",-10.73890797103088],["kikötő",-10.739021892214371],["törés",-10.739566666427198],["színű",-10.739590064959955],["vágás",-10.740005366840453],["veszélybe",-10.740621103872176],["Éva",-10.740684107587658],["figyelme",-10.74086431475492],["US",-10.74086725728906],["Nehéz",-10.741045307674323],["ragaszkod",-10.741045362534658],["marketing",-10.741045704410428],["Dunántúl",-10.741048140895213],["Remél",-10.74105304081661],["Csoport",-10.741055260292601],["finomító",-10.741093013167688],["megélhetés",-10.741123220782203],["származású",-10.741175400493805],["rubel",-10.741203085662516],["személygépkocsi",-10.741217140347457],["zza",-10.74130035985112],["kézzel",-10.741484801274567],["cseré",-10.741856383463452],["titok",-10.741963506477504],["Erst",-10.742052444642958],["dor",-10.742268292045669],["ujj",-10.74243186287911],["feszültség",-10.742500468712555],["alelnök",-10.742559054003141],["áció",-10.742823920871874],["helyezés",-10.742995999439517],["jutás",-10.74348885744191],["elege",-10.743607802562007],["küzdelme",-10.743777018707586],["béremelés",-10.743884784826228],["centiméter",-10.744292815557655],["csökkenti",-10.744401227234224],["Közölt",-10.744662751665764],["Ker",-10.744964435344457],["búj",-10.744977483575719],["támadta",-10.74507192619135],["ob",-10.745101397000234],["naptár",-10.745601125982553],["tech",-10.745781474193368],["megtartott",-10.74578847730997],["2008",-10.745790757762663],["hiánya",-10.745823916297812],["fordulójá",-10.746085314978284],["szépség",-10.746578980201178],["lényeges",-10.746636312617252],["csapódot",-10.746659081462614],["szakított",-10.74696587372928],["szerel",-10.747266732232909],["tetsz",-10.747347096441704],["választó",-10.747776682873038],["koncerte",-10.747840414455323],["Ol",-10.747969589591074],["merül",-10.748113197356377],["osabb",-10.748473224071294],["kutak",-10.749157859543857],["kitörése",-10.749280624941704],["chip",-10.749358233905106],["tartalmak",-10.74951587244561],["korú",-10.749701987666269],["tartalma",-10.749832678515087],["kint",-10.750291061474176],["kutyá",-10.750562455487618],["halálát",-10.750955010259702],["keresés",-10.751167423897773],["Ér",-10.751574460156373],["építésé",-10.751612084096497],["lezár",-10.751924168126727],["feleségé",-10.751962874617032],["térkép",-10.75217104263725],["ológiai",-10.752259887063644],["versenyen",-10.752497565505],["életre",-10.752829220676318],["hette",-10.752974169668958],["kellő",-10.753009457330158],["ezres",-10.754268921704346],["vezetőjé",-10.754383718785338],["ítél",-10.75448875129218],["adatot",-10.75456305728406],["hatály",-10.754610721530764],["tárolás",-10.754715515521728],["megmutatta",-10.75473310872993],["használta",-10.75474462293241],["forró",-10.75568157337326],["bűnös",-10.755693209770874],["san",-10.755931462120852],["Király",-10.756244307702737],["Emlékeztet",-10.756596720063735],["eredményez",-10.756711022008147],["tanuló",-10.756806981660027],["intelligencia",-10.757174337892899],["kastély",-10.75717434168617],["YouTube",-10.757174349915074],["vakcina",-10.757174768145976],["párizsi",-10.757178989119684],["zsidó",-10.757212504031877],["napsütés",-10.757342505765749],["alakított",-10.757487111268425],["számtalan",-10.757551502372422],["vizsgálato",-10.757818407026331],["ény",-10.758095214301512],["növelte",-10.758129016825063],["reményked",-10.75814063817226],["Vas",-10.758308770425726],["dán",-10.758545196850813],["kutyák",-10.758600669551793],["állást",-10.7586170846862],["sze",-10.758742681751674],["vesztesége",-10.758902694653996],["véleménye",-10.759497672428507],["szólv",-10.759663479958439],["irodá",-10.7597668222812],["mieink",-10.759840436723037],["dy",-10.759925586575335],["elemzése",-10.760081266434934],["infrastruktúra",-10.760173560589045],["berg",-10.760340862734537],["fogni",-10.760708747877086],["apja",-10.76076926473457],["hotel",-10.761013926365361],["cége",-10.761528466505828],["emlékeztet",-10.761715965034211],["állapota",-10.76191428917226],["érdemi",-10.762523362244323],["Vaj",-10.76260175119975],["zivatarok",-10.762776170623939],["vevők",-10.763291391079122],["ügyébe",-10.763606969647054],["dat",-10.764464901412282],["Lu",-10.764609557369223],["Con",-10.76479535760819],["BC",-10.765036355967183],["jegyez",-10.766341507263476],["Pal",-10.766371728868478],["fizetőeszköz",-10.766374393849206],["kollégái",-10.766768549730482],["lakók",-10.766913093864373],["kötvény",-10.767474456941507],["kapható",-10.768643440409047],["házba",-10.768716758806264],["jelző",-10.769165447662168],["minősítés",-10.769573520191283],["résztvevő",-10.769937948031327],["kerékpáros",-10.770089320090836],["közülü",-10.77040420139194],["keletkez",-10.770855406700178],["keresztény",-10.771115549376368],["megnöveked",-10.771552994566179],["ard",-10.771811142535757],["munkáj",-10.772014205308686],["testi",-10.772024940277102],["helyiek",-10.772836092010966],["öltöz",-10.773074046651757],["pályafutás",-10.773207781585189],["labda",-10.773494199748512],["professzor",-10.773567780549367],["Szeptember",-10.773567785516692],["Iskola",-10.773567790163039],["drasztikus",-10.773567798105145],["Bálint",-10.77356807366203],["recept",-10.773572603903162],["Peking",-10.773579890744758],["Tizen",-10.773601436085531],["romániai",-10.773634022852363],["Roland",-10.773664862496553],["Elmondás",-10.77368844779717],["Igen",-10.773769288960942],["belga",-10.773972626596969],["gyártók",-10.774000318164909],["választókerület",-10.77400556131741],["harci",-10.77417961456614],["bánt",-10.77419082211884],["teheti",-10.774290862378596],["szereplés",-10.774300470687473],["dohány",-10.774584315834058],["rangsor",-10.774727093520063],["működésé",-10.775051573299809],["megmérettetés",-10.775091541345478],["feldolgozás",-10.775115807353275],["Wa",-10.775349513646535],["extra",-10.775403965595453],["ox",-10.775774111066394],["felvonás",-10.776418344310358],["rögzített",-10.776481301760597],["aláírás",-10.77651742851792],["merült",-10.776757280246095],["lehetőségei",-10.776768160995703],["maszk",-10.777208447959783],["közepes",-10.777406380142825],["levő",-10.77745763296123],["kérték",-10.778229395989555],["ausztrál",-10.778489265758676],["elfogadta",-10.778883403975875],["Akár",-10.779488506552632],["háló",-10.779588395028258],["kézi",-10.779686720613372],["igazságügy",-10.779691476641974],["Sza",-10.77992207616768],["Kon",-10.780178796792669],["megtalál",-10.780294097963058],["Erik",-10.780382350031529],["rin",-10.78052563455297],["fordulat",-10.78054765548341],["ity",-10.781051264987108],["ígért",-10.7812094147211],["helyreállítási",-10.781660151136284],["tranzakció",-10.78184513685348],["tudatos",-10.782690691386051],["bérleti",-10.7829476660398],["Petr",-10.78325572706089],["tartózkodás",-10.783532308966539],["megkezdte",-10.783724743531394],["csatorna",-10.784403490906346],["művek",-10.784443922641632],["figyelmeztetés",-10.784620585263252],["teljesítménye",-10.78488242531022],["volumene",-10.785715054254176],["John",-10.785974851748612],["turisták",-10.786082647352702],["költő",-10.786591920213308],["tragédiá",-10.78666510084647],["munkájuk",-10.786727402710778],["Fed",-10.786823564352611],["elkötelezett",-10.787035243032694],["vezérigazgató",-10.787445706759234],["ber",-10.788164418617864],["vonulta",-10.788391423262379],["inter",-10.788939734009539],["amerikaiak",-10.789011836221466],["szintje",-10.789309316573867],["jú",-10.789552229491873],["tárlat",-10.789557007852533],["kutatások",-10.789665804857117],["székely",-10.789752299630562],["szíve",-10.789837992024516],["elte",-10.7899662791954],["béké",-10.790169859669202],["Meteorológia",-10.79023444765355],["Szergej",-10.790234522516872],["Kristóf",-10.790234604617003],["minimálbér",-10.790234741495379],["Ismét",-10.790235145955354],["Tajvan",-10.790235330252216],["misszió",-10.790236997637972],["Endre",-10.790247083316025],["elérésé",-10.790314604258235],["hetven",-10.79039336128479],["Hely",-10.790415366956076],["határszakaszo",-10.790485813819792],["Gyermek",-10.790562246718466],["biztosítás",-10.790757271800182],["Emlék",-10.790825442577068],["alvás",-10.790834856866235],["eleve",-10.791009343341724],["DSZ",-10.79105628702822],["sejt",-10.79111314016155],["hangzott",-10.791361029504788],["csend",-10.791969895265096],["idézi",-10.791979502088148],["cserél",-10.79204200807312],["növelni",-10.792522426470239],["javul",-10.792818406066168],["elismert",-10.792969088353324],["mérnök",-10.79314852697527],["Annyi",-10.793986818639102],["zseb",-10.794503087308886],["vágta",-10.794852377465059],["felirat",-10.795030753948648],["Jog",-10.795135630987733],["játékrész",-10.795591406213852],["terhelés",-10.795886141528374],["telek",-10.7959286312302],["Alig",-10.796055629806201],["mese",-10.796945172190593],["helikopter",-10.797135932345558],["%)",-10.79756579011775],["hétvég",-10.797632939205087],["esek",-10.797950718519456],["igazgatóság",-10.797985730644548],["bűncselekmények",-10.798171354629979],["ej",-10.798296219147904],["érik",-10.798541392319727],["szervező",-10.798810239513726],["VI",-10.798906093493475],["gyűjtött",-10.799390667893821],["szegény",-10.799616043573845],["véleményé",-10.799758241225632],["197",-10.799769948350336],["vonzó",-10.799956262353504],["barátok",-10.80033235000256],["érzékel",-10.800483262818743],["nyolcvan",-10.800517617500798],["számítógép",-10.800732161671979],["másnap",-10.80080925357222],["békét",-10.802375902926489],["érezz",-10.802506851020246],["tartozás",-10.802539258497012],["körök",-10.80316932575653],["ajánlato",-10.80334499478996],["napvilág",-10.803410523840915],["árul",-10.803769679874897],["pad",-10.804330578647644],["gyümölcs",-10.804682071452557],["füst",-10.805101784099353],["jelöl",-10.805185311106982],["szakszervezet",-10.805259067145805],["hajók",-10.805884887883632],["las",-10.806817830100265],["Netflix",-10.807183599724755],["menedzsment",-10.807183599735843],["ifjúsági",-10.807200984467077],["covid",-10.807223154288288],["töreksz",-10.807309756523956],["pánik",-10.80735090649041],["fordítani",-10.807366835005341],["Ipar",-10.807410239854732],["torná",-10.807439036957769],["dönthet",-10.80765466759528],["MW",-10.807664508717256],["ítélte",-10.807774552769105],["megtörtént",-10.807947609497525],["terápiá",-10.808024925420382],["oldalak",-10.808440287920554],["vitamin",-10.80847331898581],["kamion",-10.808715681824339],["ric",-10.808945379514],["Hisze",-10.809044386777657],["lépések",-10.809634637227836],["kísérő",-10.809848940641563],["üzletek",-10.81000312136719],["rajongói",-10.810238133452613],["barátság",-10.810707469084745],["dás",-10.810934204652613],["létrehozásá",-10.811028078573775],["Ge",-10.811135287007076],["vári",-10.811974335136362],["gondolt",-10.812122415945172],["fogadás",-10.81221604933811],["megállapított",-10.812233207807484],["rendszere",-10.812315176695888],["szület",-10.812351625629628],["szex",-10.812432392984114],["Mat",-10.812538792962156],["Jól",-10.812657214646645],["vakciná",-10.812972949789263],["velem",-10.813437514845344],["belépés",-10.813556333824671],["javaslato",-10.813668962173804],["meghaladt",-10.814018422453142],["ügyfelei",-10.81496691761066],["terel",-10.815002383895123],["sorozatot",-10.815207854776833],["közep",-10.815857692692195],["világbajnokságo",-10.81676920620811],["halálá",-10.817330670578151],["ismeret",-10.81756882580009],["lyal",-10.817622321101954],["esített",-10.818112667633029],["hangoztatt",-10.818179619530557],["műsorába",-10.818756601359954],["szakítás",-10.818827451553291],["tömeges",-10.81916400263625],["gyász",-10.819470670184705],["autósok",-10.819659281162433],["előállított",-10.819740043791978],["vágott",-10.820267482314456],["bírósági",-10.820566811153668],["hozzáállás",-10.820699932371816],["gyógyszerek",-10.82082909553258],["számítás",-10.821757124311697],["zták",-10.821905966393341],["Dar",-10.82207906963343],["érdeklőd",-10.822298743591436],["szemlé",-10.823232520263051],["kategóriá",-10.823725413437362],["Ó",-10.824223452899016],["foglalkozás",-10.824306707976945],["ș",-10.824424979034475],["Október",-10.824424979455234],["Norbert",-10.824425020547366],["Március",-10.824425103072919],["virtuális",-10.824425110142345],["Csanád",-10.824425130193271],["jogállamiság",-10.824426286431413],["konzultáció",-10.824427555107288],["anyuka",-10.824456121202902],["Különös",-10.824508294708256],["hódít",-10.824515844807348],["börtönbüntetés",-10.824536596177825],["hírszerzés",-10.824596976926653],["ebéd",-10.824608463730069],["kérdése",-10.8246174734335],["kórházi",-10.824624627757377],["Sony",-10.82489160571469],["vizsgál",-10.824978183869726],["együttműköd",-10.825094485527941],["kedvezőbb",-10.825243871790594],["utazási",-10.825869237758333],["értékelés",-10.826325171657764],["fogadni",-10.82633036819032],["köszön",-10.826512548808175],["megyeszékhely",-10.826925622562454],["temetés",-10.827194205707109],["adózás",-10.827252384685892],["Pl",-10.827456125184792],["Par",-10.827517768946251],["Hét",-10.827913294745569],["médiába",-10.828059108815982],["gyermekes",-10.82825636182149],["születése",-10.829058472612349],["gyanús",-10.82911262984895],["használata",-10.82967202255983],["látogatott",-10.829931959609556],["statisztikai",-10.83025469130877],["tagság",-10.830256520887712],["Per",-10.830381458064254],["London",-10.830453617248333],["kivel",-10.831041234673766],["városába",-10.831195125058503],["formáj",-10.831670443059249],["eleme",-10.831911706290619],["találkozhat",-10.832471500229182],["kerítés",-10.83311112980618],["megnyerte",-10.83314306025975],["keresett",-10.833287469926411],["Mária",-10.833374930037708],["hárma",-10.833613782926605],["életmód",-10.83366007631523],["dolgozói",-10.834039679531575],["alakít",-10.834501874327277],["árat",-10.834623827898156],["mindennapjai",-10.834950392781593],["gyengülés",-10.835634420847658],["fűz",-10.835779869163915],["One",-10.835877384316445],["vezetőedző",-10.837155640550769],["Bod",-10.837232404867319],["indokolt",-10.83728641119945],["ülésen",-10.83751179073695],["elvi",-10.838196239063826],["ovic",-10.83828849704532],["Q",-10.838690240502888],["TikTok",-10.838846398249432],["ajánl",-10.838935785971021],["medence",-10.839151848489191],["borult",-10.839262814591924],["kedv",-10.83987862090541],["főre",-10.840210663778233],["Tra",-10.840412749721214],["háromszor",-10.840660728418879],["egyenes",-10.840959060992795],["alábbi",-10.841243851903746],["felhőzet",-10.84138483101407],["Group",-10.841756015246249],["növelésé",-10.84195881219091],["Manchester",-10.84196883875957],["dunaújvárosi",-10.84196883880431],["dioxid",-10.841968849950035],["Jézus",-10.841968869784601],["Nintend",-10.841969490611724],["Rengeteg",-10.84196950048547],["csodálatos",-10.84200836723584],["Idő",-10.842024927127484],["Paks",-10.842102729615139],["küzdeni",-10.842126424108987],["Arany",-10.842376063670113],["hála",-10.842400393478922],["Önkormányzat",-10.842442281296504],["maradj",-10.842493575983571],["korszerű",-10.842604395323054],["hátteré",-10.842663070948113],["foglaltak",-10.842788357093813],["emeli",-10.842840910027256],["tudósok",-10.842847284150182],["pontok",-10.84297519815389],["ikonikus",-10.843138147899747],["jogerős",-10.84325213531135],["sérültek",-10.843354318952453],["legerősebb",-10.84339232804443],["stabilitás",-10.843442321279491],["tapasztalható",-10.843478454259973],["lá",-10.843698705599019],["viselő",-10.843914831238706],["hűl",-10.844170341637021],["robbant",-10.844483003890716],["anuel",-10.844595787039697],["oltást",-10.844617002754909],["előnyé",-10.844802059041385],["dventi",-10.845490214967189],["többiek",-10.845789694858823],["meghaladó",-10.845989836252222],["tani",-10.846073946956606],["tudat",-10.846164882784716],["stratégia",-10.846354960573619],["Arénába",-10.846470019651317],["korlátozott",-10.846588511605077],["állunk",-10.846780334241117],["Dunaújvárosi",-10.847094672712128],["képeke",-10.847276480046485],["lad",-10.84730041622125],["napelem",-10.847487988881596],["pos",-10.847497610392862],["csó",-10.847800808151906],["zárult",-10.84806264460298],["alapjai",-10.848197061736592],["váltotta",-10.848497998273313],["kette",-10.848888681589465],["gyanú",-10.848904924996752],["áló",-10.849161469487257],["csodá",-10.849531100217206],["megjelenésé",-10.849865804975714],["érzékelő",-10.850825571594708],["kialakított",-10.850918471072958],["napközben",-10.850946264907968],["útjá",-10.851002158208239],["by",-10.85101561093915],["ács",-10.851479131714518],["szen",-10.85188578485365],["sugár",-10.852335319936552],["mondhat",-10.853257079655833],["fiatalabb",-10.853403327529872],["percek",-10.853421766412719],["Mindezek",-10.853463932679388],["hatta",-10.85369364039703],["útján",-10.853945882653466],["felvásárlás",-10.854504993352773],["teljesítményt",-10.854679900341182],["repülés",-10.855414348445452],["rúg",-10.85541809750427],["Meta",-10.855639303619906],["pel",-10.855918809106573],["Akik",-10.855987460387677],["regisztrálta",-10.856858754035287],["tatta",-10.857065330514525],["jönni",-10.857140429129089],["megkezd",-10.857960637384574],["mindannyi",-10.858246138092156],["foglalt",-10.858583419320713],["MT",-10.859106403908083],["Hát",-10.859505691923177],["helyiség",-10.859623785758178],["irodalm",-10.859800857287974],["Áramlat",-10.859825982788028],["Telegram",-10.859826021897609],["Róbert",-10.859826249362875],["vendéglátó",-10.859837276520755],["Anikó",-10.859944530936712],["kíséri",-10.860019516325805],["oszlop",-10.860049039881654],["szenvedte",-10.860324871488466],["álni",-10.860328128618644],["mérséklőd",-10.860434560801533],["berendezések",-10.860690413416402],["gyártott",-10.86070924090458],["hallgatók",-10.860921414675031],["mondat",-10.86106072812441],["vidéke",-10.861617608429862],["villany",-10.861662960802024],["lelkész",-10.862148706676809],["környezetvédelmi",-10.863093339749856],["hihetetlen",-10.863172813679647],["tulajdonába",-10.863207696919929],["kényelmes",-10.863321095961007],["drágul",-10.863608227360896],["példány",-10.863672911203698],["180",-10.864444750374059],["gyűjt",-10.864645285480812],["zsír",-10.865394996535562],["Ger",-10.866095535044394],["beszerzési",-10.866225542784722],["népesség",-10.866301807449382],["meghatározott",-10.866335983647671],["bejegyzésé",-10.866336285108542],["cégcsoport",-10.866736917478605],["befektető",-10.866887125356119],["gyalogos",-10.867035419600708],["tájak",-10.867172342865832],["kamatok",-10.867375795907167],["On",-10.867453399267896],["inger",-10.867508065295006],["medencé",-10.867677810009525],["következménye",-10.867717917282953],["főnök",-10.8677989569481],["szervek",-10.868355655243981],["honna",-10.86837409967745],["kodó",-10.868533159873856],["szavazók",-10.868611290567983],["értelembe",-10.86877936840699],["jelentek",-10.868848232766979],["kivitel",-10.869025379093191],["rezsim",-10.869052572878218],["megyék",-10.869269202213252],["harcol",-10.869422061426125],["Bak",-10.86953267865638],["pótol",-10.869950464007943],["drágult",-10.869955924756878],["ülése",-10.869987341779929],["ser",-10.870485074594335],["értékelte",-10.87084335419695],["titkos",-10.871048610320738],["wei",-10.871246603164671],["kötőd",-10.871256913285094],["zárni",-10.871893220417048],["indítás",-10.872383101748971],["szülés",-10.872866394441578],["viseli",-10.873045039079436],["őszintén",-10.873092563883379],["szerepét",-10.873167859464127],["Szak",-10.873838098227768],["dokumentumok",-10.874044462754386],["pénztár",-10.874276338939637],["Gal",-10.874348076107262],["emléke",-10.874371422540259],["kötés",-10.875721366038082],["programja",-10.876117132924552],["utód",-10.876185764981345],["lépése",-10.876213318432448],["Britanni",-10.876308226080631],["nézzü",-10.876836657927461],["szigetek",-10.877341186163711],["ack",-10.877555484945255],["feje",-10.877861901318541],["püspök",-10.877962404973399],["Augusztus",-10.878007799724115],["igazolvány",-10.878007831970162],["Május",-10.878008040728146],["MÁV",-10.878008861535537],["November",-10.878008983037557],["Csongrád",-10.878009584447742],["turista",-10.878010788079754],["hidrogén",-10.878023412090624],["streaming",-10.87805014316402],["ifjú",-10.878109360881648],["javítani",-10.878136306190964],["kimenetel",-10.878188605142848],["opció",-10.878217330171356],["bizon",-10.878288244171518],["konyhá",-10.878387719226719],["5G",-10.878533895318117],["tőzsde",-10.878572040283665],["célzó",-10.87868775606173],["hetes",-10.87898193070026],["ítélték",-10.87914879976491],["balti",-10.879254556110624],["készség",-10.87947491645122],["gyakoribb",-10.879860188931781],["izáció",-10.879885008746355],["költöz",-10.879946377295528],["csomagolás",-10.879997931163203],["arányos",-10.880352762262048],["hívja",-10.880871899373627],["ster",-10.881079364477555],["férj",-10.881109562972293],["Com",-10.881166799035135],["képtelen",-10.881236883016996],["kialakításá",-10.88127020755092],["ED",-10.881543137107514],["mozgat",-10.881555536371588],["államtitkára",-10.881968555011687],["EB",-10.882155430141593],["városvezetés",-10.882232590131785],["tagad",-10.88237261629811],["elmaradt",-10.882612890426987],["bar",-10.882874286923297],["kezeli",-10.882956717246731],["Legutóbb",-10.883283115249462],["anyá",-10.883729000558557],["felsőoktatás",-10.883806245919573],["alakulhat",-10.883930294492096],["óval",-10.884103198561444],["darabok",-10.884334549469422],["szerete",-10.884774046262493],["gondolni",-10.884978757590499],["oha",-10.885130627858269],["egymillió",-10.88527175257077],["éltek",-10.885470908699936],["határoz",-10.885839963580187],["kór",-10.886054595290712],["les",-10.886295857709843],["off",-10.886791053767782],["atott",-10.887298541832557],["vin",-10.887428869396649],["cső",-10.887677877054823],["vetette",-10.887933256486493],["fővárosba",-10.888234975479676],["nagykövet",-10.888258074366828],["elemzőj",-10.888309482272293],["ütő",-10.888395910618618],["munkavállaló",-10.888657524848435],["patak",-10.888737380428097],["NN",-10.888957858882566],["frissítés",-10.889258127579094],["határai",-10.889786226517906],["szerencsés",-10.88986005252266],["cent",-10.890266378363325],["védi",-10.890268199286885],["ápolás",-10.890268554700057],["Cser",-10.890607274124807],["pártja",-10.89095869489138],["reál",-10.891223107680796],["up",-10.891530124294004],["gyermekük",-10.891566356151852],["Donyeck",-10.891582576541794],["ünnepség",-10.891772104345087],["ütés",-10.891880858249824],["megőrzés",-10.891890289227197],["ers",-10.892839451776503],["Non",-10.892961756309479],["előrelépés",-10.893487622182352],["veszteségek",-10.893586245190962],["szörnyű",-10.89382039544087],["tanulni",-10.893849521394376],["ring",-10.893903835130128],["hajnali",-10.893946964848833],["lezárás",-10.894239017042985],["vízbe",-10.894792276139752],["kérdezte",-10.894801649859824],["zünk",-10.894854993781657],["próba",-10.89487074273853],["horgász",-10.894919355459534],["bérek",-10.894988032373156],["Szabad",-10.895027856086712],["elhagy",-10.8950565194258],["jövőjé",-10.895170302135682],["készlet",-10.895543828215168],["mellék",-10.89557414542989],["leány",-10.89559001428837],["kerülne",-10.89564173780074],["oldalár",-10.895651443288209],["fát",-10.895859836333008],["munkás",-10.896059140775659],["Nyilván",-10.896115179183383],["Celsius",-10.896526319011075],["Fesztivál",-10.896526324721142],["Samsung",-10.896526363131692],["kanadai",-10.896526511652072],["búza",-10.896528223524449],["Messi",-10.896531623132306],["Gáspár",-10.896533512953615],["Series",-10.896539712031508],["India",-10.896552642119943],["Gergő",-10.896564166539193],["Max",-10.896684327231895],["klímaváltozás",-10.89670178598743],["mozgósítás",-10.89679500418524],["szőlő",-10.896842192966737],["indiai",-10.896962795121162],["Katasztrófavédel",-10.896987678634163],["iráni",-10.897077517209581],["panaszkod",-10.897156274457547],["telepített",-10.89731822424039],["támogatásár",-10.897531073606146],["Tíz",-10.897606668093255],["nyak",-10.89798737872093],["üzemel",-10.898075689587674],["tulajdonképpen",-10.898178093477716],["06",-10.898555044023265],["bukott",-10.898711122351312],["regisztrált",-10.899161346238897],["művel",-10.899295590308908],["javasol",-10.899376007483443],["bármelyik",-10.89978447984717],["oltott",-10.899815722768341],["partnere",-10.900104135597761],["tartózkodó",-10.900151200775822],["vezetni",-10.901043533762012],["sségébe",-10.901236059728827],["Összese",-10.901331509635723],["újjá",-10.901465409613182],["győzelmé",-10.90148723108484],["tartom",-10.901533665723655],["nézett",-10.90154910737596],["fedez",-10.901586106169376],["vallott",-10.90175293161304],["megállapítás",-10.901839079991843],["Él",-10.901933828672934],["Gu",-10.902010502742215],["potenciális",-10.902097463869396],["panel",-10.902107291327798],["tízezer",-10.90212613327718],["hitt",-10.902469120987366],["kétszeres",-10.902482818517566],["felülete",-10.902799029048385],["üs",-10.902925835480957],["arch",-10.903083124960215],["elkészült",-10.90332922914627],["televíziós",-10.903682344312596],["járhat",-10.904020823289668],["Bla",-10.904109898991324],["utcá",-10.90451089869974],["felvételek",-10.905000654339478],["jót",-10.905388649554435],["biztosítási",-10.905466384715966],["Bab",-10.905588094803509],["beton",-10.905964212940571],["Azok",-10.90639756654976],["szállítani",-10.906830033263391],["hátrányos",-10.907329129010538],["fordulás",-10.907389466485878],["felelőssége",-10.90770919856973],["fogadott",-10.908325488776057],["vigyáz",-10.908665436394198],["hatását",-10.909274293253143],["nov",-10.91003095735831],["kiemel",-10.910683002923465],["játszhat",-10.910729971688728],["égés",-10.910870411998225],["rí",-10.910928148410719],["fejlődésé",-10.911110352894267],["forgalomba",-10.91132349394446],["okozza",-10.911767988757266],["Andrea",-10.911850740724455],["Un",-10.911854254562133],["dönteni",-10.911873827125138],["elképzelés",-10.91195641152497],["War",-10.911989479414002],["ügyet",-10.912341880189643],["rohant",-10.91238352977385],["tegye",-10.914075346990813],["feltételei",-10.914246878525793],["összeállítás",-10.914859984317385],["ünnepek",-10.915057297449005],["Wall",-10.915137053552051],["nyugodt",-10.915215534614093],["láthatóa",-10.915252004596617],["abszolút",-10.915394242856166],["applikáció",-10.915394243967516],["Hosszú",-10.915394251263589],["Lázár",-10.915394517888544],["Hajnal",-10.915395407131196],["túlnyomó",-10.915395441349887],["kártérítés",-10.915395493725795],["Krím",-10.915407441200148],["gondolkodás",-10.915420474597433],["átfogó",-10.915480800465982],["munkavégzés",-10.915504842948897],["következtetés",-10.91557161230962],["kellemes",-10.915602892391673],["Equi",-10.915638622019639],["részesedés",-10.915705176223186],["euróövezet",-10.91574621933989],["cikkek",-10.915754154337444],["zöldség",-10.915876336539007],["kijelölt",-10.915919261522149],["választani",-10.915980861557271],["Rom",-10.916402521771232],["jelentkezik",-10.91645327096542],["zaj",-10.916472337972543],["tizenöt",-10.91657813524496],["irányító",-10.916800413748287],["Művészet",-10.91691436977522],["napjai",-10.91692690765862],["ölel",-10.916980780489505],["visszatért",-10.91708476881825],["viszonyok",-10.917709831066066],["megpróbálta",-10.918229777309575],["használatát",-10.918369035741694],["mindegy",-10.918840691806324],["450",-10.919073459758254],["jogok",-10.91926601640869],["kéne",-10.919915724917594],["szerelés",-10.920210615356648],["javult",-10.920654054660213],["eléri",-10.920795548307293],["költött",-10.920813299658802],["szolgálato",-10.921114271445145],["hatná",-10.921291141431137],["elvesztette",-10.921671351997109],["számlák",-10.921955967966788],["versenyek",-10.922058171611575],["élen",-10.9223822089767],["Sp",-10.922485369849094],["kétharmad",-10.922636786854742],["Székely",-10.922736254346415],["gumi",-10.923031901621718],["etlenül",-10.923919945280177],["megközelítés",-10.92396208072029],["erősít",-10.92427986730496],["sikere",-10.924408013733943],["nyomon",-10.924454787263905],["csomópont",-10.924538604644646],["Mac",-10.924853053690283],["lépő",-10.92486898527657],["Wh",-10.92496303753273],["fegyvert",-10.925194946083925],["erőszakos",-10.925633152160563],["bemutatott",-10.926211793677414],["kímél",-10.92666552727443],["munkatárs",-10.92668282223862],["készülni",-10.926687017830742],["anti",-10.926845679397823],["készletek",-10.927585389396421],["tisztán",-10.927654943187344],["élén",-10.92877645288225],["terhet",-10.92891640705667],["Por",-10.928973172110032],["csökkentés",-10.929036336523872],["korán",-10.92916326270052],["Pá",-10.92989704249331],["Újra",-10.930421835483644],["bűntett",-10.930558903594932],["ingyen",-10.930634893368309],["csomago",-10.931010197893793],["Go",-10.931287744195503],["növények",-10.931421215119176],["140",-10.93173174140704],["értesült",-10.931876469827941],["érdeke",-10.932338137196673],["weboldal",-10.932356859149797],["próbá",-10.932855395958185],["uc",-10.933047302116861],["350",-10.933216776336732],["szállítmányok",-10.933266877839218],["komplex",-10.93452142919536],["Széchenyi",-10.9346250120004],["mechanizmus",-10.934625012052683],["forradalom",-10.934625017129186],["Kórház",-10.93462523384158],["korrekció",-10.934625286110233],["Zöld",-10.934625949770966],["Benedek",-10.934630223132045],["Szinte",-10.93466072711261],["kattint",-10.93466810740493],["hosszabbítás",-10.934677431424035],["Kolozsvár",-10.934727442548652],["Harry",-10.934747864728072],["drónok",-10.934818498790019],["szemtanú",-10.93486158400162],["kezdés",-10.935068723981125],["szórakoztató",-10.935096352091378],["Újpest",-10.935182670884428],["katari",-10.935234650880853],["nyeresége",-10.935525253553031],["wit",-10.936193958123459],["ari",-10.936231659242926],["rendszerét",-10.93627445563261],["fókuszál",-10.936522328664907],["yi",-10.936557201104883],["lügyminisztérium",-10.93661783751677],["problémái",-10.936817462350703],["kedve",-10.936910557095663],["gyakorolt",-10.937017435856855],["teherautó",-10.937633846388348],["fizető",-10.938088729408728],["abbak",-10.938196511335864],["Hódmezővásárhely",-10.938216711538361],["bevonásá",-10.938264150997913],["sorok",-10.939641502642594],["mozdul",-10.939645366943735],["Red",-10.9396766709187],["sereg",-10.939898505445191],["hord",-10.940157461159304],["posta",-10.940285249242374],["elemek",-10.940397104391549],["alkalmazottak",-10.94091332464583],["megszállt",-10.941581558582914],["enyhít",-10.941710136017964],["reméli",-10.942041041134843],["megfelel",-10.943278456287533],["lényeg",-10.943434316285469],["nézhet",-10.943445979948706],["kórházak",-10.943477879042625],["irányít",-10.943673387407877],["Gra",-10.943981800144492],["biztosította",-10.944795904213228],["forintba",-10.94499627000917],["sorol",-10.945047515944987],["országba",-10.945541788085086],["ich",-10.946020732664149],["mérete",-10.946027305462112],["indexe",-10.946202617299786],["vil",-10.94652100111135],["játékosai",-10.946780020679062],["kop",-10.946998025257603],["rokon",-10.947098901729053],["terjedésé",-10.947104107684286],["összeköt",-10.94760100947094],["legyőz",-10.948284054145056],["kedvezmény",-10.948809530091989],["hiszem",-10.949011235939064],["Nek",-10.949106896959394],["vezetésé",-10.949346561581006],["közvetítés",-10.949377133257688],["térít",-10.949425528951485],["próbálkoz",-10.949454607162842],["tevékenységét",-10.950085034763164],["babá",-10.950419725231658],["92",-10.950751190592543],["kevered",-10.95080947305443],["migránsok",-10.951185760877257],["adóz",-10.951283620529793],["holttesté",-10.951667841939432],["ettek",-10.952048747685012],["szava",-10.952525884203272],["Pont",-10.952649665367474],["Egész",-10.952700069966639],["tarthat",-10.952762475735483],["németek",-10.953134165284162],["megvalósításá",-10.953147902670759],["szilárd",-10.953604903774037],["jövedelem",-10.953688083642],["ME",-10.953745821720581],["kárpátaljai",-10.954232855147673],["Igazgatóság",-10.95423285524003],["Székesfehérvár",-10.954232855698315],["mérsékelt",-10.95423291009725],["Ágnes",-10.954233046362623],["Jelentős",-10.954233647266324],["Szerbia",-10.954233977479825],["Köszön",-10.95423655588994],["Tegnap",-10.95423892319242],["depresszió",-10.95423978682953],["bomba",-10.95425975226543],["ukban",-10.954366793272136],["lassít",-10.954493301879165],["partján",-10.954754274621767],["igények",-10.954913202304446],["alapuló",-10.955381392403263],["munkanélküliség",-10.955535747147438],["legyőzte",-10.955818540137573],["Külön",-10.955902872296816],["birtokába",-10.955963019147534],["közeled",-10.956160419241263],["megoldani",-10.956586096368257],["hálás",-10.957246899525334],["dől",-10.957613469706406],["látom",-10.957684992539523],["Dom",-10.957883911159879],["városrész",-10.958064622972016],["történetét",-10.958127954855302],["Hozzátett",-10.95817212086305],["tevő",-10.958173384706834],["termel",-10.958197219525353],["listán",-10.95829091841538],["fű",-10.958315692412322],["édes",-10.958587657514554],["fázis",-10.95913396243916],["vész",-10.959215991270405],["célú",-10.959411521246816],["készülhet",-10.959488001110518],["strand",-10.960354213709188],["fokozat",-10.960597490758811],["Hír",-10.96104734576455],["földön",-10.961251348116129],["Levent",-10.961476510080942],["alom",-10.96156786359446],["alátámaszt",-10.961573582196925],["tőké",-10.961739074768138],["megemlékezés",-10.962433233638428],["Élet",-10.962921943216719],["főz",-10.963266897456522],["hibák",-10.963438802024827],["finálé",-10.963570205070326],["Los",-10.964187912096849],["hatékonya",-10.964383143518805],["gyorsabba",-10.96458506979452],["rendelő",-10.964603477577375],["műhely",-10.964722886224854],["feltétel",-10.964739560794706],["őrök",-10.964813338168058],["teljesítette",-10.964990708491518],["utalás",-10.965177408839901],["vizes",-10.965292653108243],["fokos",-10.965511328866242],["megtenni",-10.965633934644007],["világra",-10.96567048185849],["környéke",-10.965782249278814],["filmes",-10.965985262192195],["rendelés",-10.966115832199574],["vehető",-10.96622724266956],["megmarad",-10.966367814110544],["tekinti",-10.966831744557773],["veszít",-10.966849572478957],["elfogad",-10.96696678193188],["lom",-10.967976711460478],["rém",-10.968348553614028],["lelke",-10.968365881435803],["válaszolta",-10.96896843116221],["becslések",-10.969117820356434],["ereje",-10.969917133903621],["hirdetett",-10.970880081095657],["időn",-10.970919133494295],["szereplői",-10.971660241427452],["lakosok",-10.972290430052315],["hallotta",-10.972582198491818],["fogta",-10.972646757092477],["ötlete",-10.97278203585621],["érdekeit",-10.972895858844982],["hagyományok",-10.9729182122549],["találja",-10.973219378262854],["ideg",-10.973319370845985],["kamara",-10.974110887037359],["Donald",-10.974220298988751],["Ügynökség",-10.974232855138258],["Cristian",-10.974232855202246],["Petőfi",-10.974232874975641],["identitás",-10.974232891977646],["tilalom",-10.974233847168968],["fokozód",-10.974249229621133],["Ronald",-10.974250113252005],["tilos",-10.974252122153636],["Leyen",-10.97425817387396],["prémium",-10.974288346233205],["rablás",-10.974304842882932],["Martin",-10.97432255359923],["bizonyítani",-10.974383218795603],["tábornok",-10.974408332953256],["Brent",-10.974520684536468],["játsza",-10.974630503252047],["dátum",-10.97474648100187],["legszebb",-10.974759895121377],["üldöz",-10.974784263915254],["esse",-10.974867126575107],["Ola",-10.974874625601455],["sson",-10.97505032076509],["spórol",-10.975088034554549],["rakétá",-10.975190933123908],["adag",-10.975324563090403],["teljesíteni",-10.975661291991743],["sétál",-10.975787092054151],["néni",-10.975924949359621],["Andi",-10.976303831199552],["nézte",-10.97678990276891],["fehérorosz",-10.9768036224038],["kormányt",-10.976836815270687],["menetrend",-10.976840289553213],["vonni",-10.97720686988863],["alkalmazások",-10.977584574802481],["védte",-10.977725390754973],["pek",-10.97777813329949],["veszélyhelyzet",-10.977791328154343],["feksz",-10.977832020797527],["vonul",-10.977847878666683],["rejl",-10.977890279336314],["jegye",-10.978041502504668],["délutáni",-10.978242059582803],["ll",-10.97827161052305],["vallotta",-10.978488414397946],["Nemrég",-10.978498998788572],["átalakulás",-10.979018182506868],["nyugdíjasok",-10.97912437734107],["lejje",-10.979462299866485],["itás",-10.979566532959746],["nyitotta",-10.97960378349072],["Art",-10.979611403212434],["hozzájárult",-10.979725390777515],["Loki",-10.979871732056852],["jelenet",-10.980415891579304],["küzdő",-10.98046367354735],["Katar",-10.980488969356216],["kínált",-10.98094069465174],["drog",-10.981718996839673],["szellem",-10.981747338833287],["tenné",-10.982180296593159],["hordó",-10.982367404370375],["Raj",-10.983017408341919],["partnerei",-10.983304092317702],["Mond",-10.983740217897408],["pat",-10.983944558296274],["változatos",-10.984069890399786],["elme",-10.984642497254935],["alapul",-10.984719726729516],["gyűlt",-10.984851361210389],["Olaszországban",-10.985335973436042],["kezébe",-10.985508437216573],["teljesítő",-10.985882484987522],["07",-10.985895369782572],["emberiség",-10.98589739765561],["intézkedéseke",-10.98608173913455],["járatok",-10.987109761663618],["ottani",-10.987287991286275],["ellátást",-10.987294266201395],["cska",-10.987541747744526],["130",-10.987635138128043],["kellemetlen",-10.9879343370391],["csoportos",-10.988786178266267],["környez",-10.99074897760749],["tisztviselők",-10.990809098868247],["elkövetkező",-10.991184405073906],["profil",-10.991194304150953],["ellátott",-10.991496294055354],["foglalkoztatott",-10.991618493736858],["Párizs",-10.991710033221278],["rock",-10.991729391953633],["érvényesül",-10.991956186067354],["határozotta",-10.992151200955728],["célt",-10.99281007071377],["mentem",-10.993092824232416],["célra",-10.993560369896679],["termébe",-10.993794513668496],["érni",-10.994201155457686],["liberális",-10.99454924531615],["portugál",-10.994641027057948],["Stadion",-10.994641058389934],["helyettese",-10.994642678511527],["Disney",-10.994643311067456],["Harkiv",-10.994644693616372],["süt",-10.994651899462015],["kézilabda",-10.994668789764987],["népszámlálás",-10.994670327842217],["buda",-10.994676698354807],["Fehéroroszország",-10.994690667635652],["David",-10.994698666167709],["fantasztikus",-10.994711922912463],["vidám",-10.99476991758603],["hallani",-10.994838336004383],["laptop",-10.994916386975172],["RM",-10.995382018093366],["konyha",-10.995384617637223],["Víz",-10.995586275391455],["hű",-10.995587779114347],["szállodá",-10.995725677647897],["egyházi",-10.995738865301067],["tesztelés",-10.995844605657993],["értelmez",-10.995991291662678],["fölény",-10.996162515959732],["SD",-10.996496698164444],["jele",-10.996696902000487],["megbízott",-10.996914193450152],["előnyt",-10.997020230348284],["logisztikai",-10.997040023840896],["viz",-10.99720935164362],["éjfél",-10.997271408774248],["olyanok",-10.997717463040765],["fájdalmas",-10.998351340314926],["biztosítana",-10.998396847506713],["kitermelés",-10.998437066183651],["bázispont",-10.99853934094814],["kudarc",-10.99855446957253],["úsz",-10.99892191721441],["félév",-10.999229397096721],["javá",-10.9992445105229],["ütközés",-10.999372578482971],["Gazdasági",-11.00015275986126],["kezelt",-11.000585311052054],["elárul",-11.000603177076915],["élhet",-11.001047105618738],["szolgáltat",-11.001192625138597],["kérdésé",-11.001214265520357],["93",-11.001397954341817],["epizód",-11.001400658615248],["esztendős",-11.001476699062572],["állítottak",-11.001551196803339],["okostelefon",-11.001812818061047],["bármit",-11.0025020262694],["gondok",-11.002606298980687],["barátjá",-11.002651794491962],["jobboldali",-11.00302209853859],["haladó",-11.003042574845272],["Sh",-11.00365530804109],["előnye",-11.004160511311726],["országai",-11.004258557551683],["állampolgárság",-11.004317924228125],["gyűlés",-11.004396901222144],["esszü",-11.004682129809414],["repül",-11.004844344728133],["kockázatok",-11.00488896447491],["művészek",-11.00493124716679],["légkör",-11.004943408206486],["szorult",-11.005051512526018],["Game",-11.005287039185784],["Danc",-11.005623166918152],["foglalkoztat",-11.006072155154007],["lépéseke",-11.006083114543511],["szabadít",-11.00614605375502],["hazatér",-11.006531235363001],["gépe",-11.006751063727695],["mandátum",-11.007095073794241],["autójá",-11.007139474077043],["áremelés",-11.007675947265877],["Csi",-11.007806969213505],["szakemberei",-11.007942044029502],["hónapjá",-11.007964557758285],["választotta",-11.00823707928988],["közelít",-11.008393483073743],["ence",-11.009188150057357],["háziorvos",-11.010047767570478],["BL",-11.010087295162041],["hetet",-11.010123957381406],["mielőbb",-11.010602271567977],["our",-11.011079583116366],["tehetséges",-11.011086251843011],["okba",-11.011324748697639],["résztvevői",-11.011660501385524],["Op",-11.01170429469693],["ismerked",-11.012476423811584],["dízel",-11.012618771811425],["óv",-11.013134379692413],["egyeztet",-11.013160923442705],["bevon",-11.013398701376687],["betegsége",-11.01364346037683],["techniká",-11.014915849857202],["konstrukció",-11.015175539036315],["munkaerőpiac",-11.015413471126822],["Lőrinc",-11.015474359497887],["podcast",-11.015474387060594],["krízis",-11.015474707415745],["felesleges",-11.015475004674148],["minősül",-11.01547655514342],["szélsőséges",-11.015477394813127],["Befektetés",-11.015477502714461],["Szilárd",-11.015484166418911],["talp",-11.015487700866041],["mozgalom",-11.015489269207261],["Technológia",-11.015490058949133],["középső",-11.015504015252182],["festmény",-11.015505619194382],["Kézdivásárhely",-11.01560315761888],["Sze",-11.015642114488431],["ösztöndíj",-11.01567094416753],["egysége",-11.015689949114034],["jólét",-11.01582977955012],["M1",-11.016019499759047],["legjelentősebb",-11.016130126177021],["Lengyelországba",-11.016143743804337],["sürgősségi",-11.016157407075902],["kötelezettsége",-11.016168631309034],["tünetei",-11.016187557498334],["Bács",-11.016194908125113],["viselte",-11.01653150304697],["feltehető",-11.016685807976888],["mus",-11.016727105404248],["megszűnt",-11.016803311879876],["fenntartása",-11.016902866947042],["autópályá",-11.016906504389937],["célok",-11.017057829093515],["letartóztatás",-11.017250382213462],["úszás",-11.01734199726441],["csapott",-11.017736629841139],["novemberi",-11.017899262170943],["életveszélyes",-11.017962283245076],["felújított",-11.018155863284973],["900",-11.018268195349124],["képzel",-11.018891885145578],["Grand",-11.018901880623252],["reális",-11.019343357745417],["tanítás",-11.019365437392414],["embere",-11.019640984518654],["ítélt",-11.019686371992943],["tőzsdék",-11.020137348472966],["nyelve",-11.02038733953523],["kívánja",-11.020795225559262],["megegyez",-11.020898597510527],["indokolta",-11.021168166574224],["Sár",-11.021456952072688],["délnyugati",-11.021498623490407],["lendület",-11.02158621996559],["szemet",-11.021683006416964],["rajongó",-11.022029551700687],["tőzsdén",-11.022442094488687],["kialakulásá",-11.022901562676342],["megvéd",-11.023089268426993],["bekövetkez",-11.023096785636739],["IC",-11.023338946462301],["jelentősége",-11.02336040030049],["terek",-11.023706926618463],["kötet",-11.023815260532087],["Bur",-11.024101568189522],["lemond",-11.024705871954286],["halász",-11.025011826462372],["bírságo",-11.025445704378967],["képessége",-11.025484151584466],["kérésé",-11.0256578552532],["bérlet",-11.02577887180033],["odik",-11.026154848553961],["energiahordozók",-11.026276277712896],["vény",-11.02647741461084],["komp",-11.026735727715035],["képez",-11.027460477820238],["elindul",-11.027583314338477],["hivatás",-11.027843608735129],["évfordulójá",-11.028133944392655],["Szám",-11.028182769878399],["lehetőségük",-11.0284574081616],["megtudtu",-11.0294483414112],["megegyezés",-11.02982638487624],["ígérete",-11.029860024676747],["kedvelt",-11.030117465384944],["szök",-11.030694932200293],["rendelkezésé",-11.031068992654099],["shi",-11.03187924705378],["tartalmazz",-11.032093302162],["szexi",-11.032106811898752],["mélyen",-11.032267828718572],["kíváncsi",-11.032294885593311],["törvényt",-11.032302673969529],["ness",-11.032314815117452],["rekordo",-11.032688001080656],["bin",-11.033024719898908],["értékelt",-11.033065640702722],["bizalm",-11.033088798172134],["nyomozó",-11.033183676675321],["vádolta",-11.033192075897732],["jelentő",-11.033284433660079],["vetni",-11.033438826984776],["kamato",-11.033523400121721],["esélyt",-11.033628724742929],["légitársaság",-11.033917741001655],["választhat",-11.034148066345022],["szoba",-11.034367079046154],["betű",-11.0345032163743],["kiegészít",-11.034794142949231],["csatár",-11.035041639965238],["feljelentés",-11.035050379048208],["dobás",-11.035216083500579],["gá",-11.03521958538593],["különböz",-11.03526240783868],["tapasztalatok",-11.03526756462443],["ügyelet",-11.035285796603905],["gyulladás",-11.03581181783653],["Pe",-11.036016715889172],["érez",-11.036154425065126],["szervezés",-11.036170003571005],["honvédel",-11.036228062136576],["megállapod",-11.036535516925522],["Eszter",-11.03674851389045],["jubileum",-11.03675094748666],["Február",-11.036750947549153],["Április",-11.036750947820604],["COVID",-11.036750954260047],["Törvényszék",-11.036750954747681],["debütál",-11.036751005167092],["közgazdász",-11.036751017089095],["Palkovics",-11.03675136957253],["Switch",-11.036751799990274],["cigány",-11.036752553188723],["elegáns",-11.036752789232702],["December",-11.036756314444851],["beszerzésé",-11.03675681162683],["Legalább",-11.03675948298542],["medve",-11.036787703860186],["elképzelhető",-11.03690080447657],["áramlás",-11.037059719489365],["Ukrán",-11.037088033241654],["egészségi",-11.037110257601828],["áldozato",-11.037217423198213],["hátsó",-11.037379343217122],["bérlő",-11.03739892112355],["harckocsi",-11.037477659204393],["hibá",-11.03762050741585],["tív",-11.037688554763184],["riasztás",-11.037756704171823],["dúl",-11.037764392110418],["rontott",-11.037816538478337],["láncok",-11.037821658190113],["Bra",-11.037955702252189],["tudós",-11.038042303246362],["bevételt",-11.03807717924974],["Rock",-11.038209425485567],["Bíz",-11.038519760645627],["kommunista",-11.038606885718552],["ársapk",-11.038820212720324],["szegénység",-11.040243422029931],["őzött",-11.040289362243122],["látv",-11.040580722367512],["párjá",-11.040613916868866],["hírül",-11.04079878573859],["nyújtotta",-11.040817940947058],["szeptemberi",-11.041828961113202],["szakad",-11.042056961843308],["elv",-11.042225529345004],["pop",-11.042456381855578],["többféle",-11.042518787333616],["megyek",-11.04312161849366],["kiáll",-11.043245218589941],["gyógyul",-11.043443909438725],["Tor",-11.043488611800218],["kedvel",-11.043563667150215],["polgármesteri",-11.043790729739909],["Vol",-11.044078642206186],["bevételei",-11.044123297462168],["idejét",-11.044129449159383],["választók",-11.044826796817517],["kezelése",-11.044985310661582],["készülékek",-11.04554929104173],["gyűrű",-11.04566532134312],["szállította",-11.045898802942325],["helyeke",-11.046213830705115],["megfogalmaz",-11.046484769299116],["összegyűjtött",-11.04694832048537],["helyben",-11.046963667514543],["borít",-11.047239004392631],["ajándéko",-11.047541362041342],["szúr",-11.047597863791518],["alapkamat",-11.047762505072754],["életkor",-11.048146716152644],["Iroda",-11.048747852299226],["que",-11.049062831462065],["91",-11.049224037299487],["csökkenésé",-11.049544409375757],["megmaradt",-11.049876138599336],["rutin",-11.050566504185767],["tudatosa",-11.051164103414],["évszázad",-11.051180321768785],["ilyet",-11.051193137804923],["ennünk",-11.05126756757317],["egyenese",-11.051327011614141],["megtalálható",-11.051488516592448],["üzemeltetés",-11.05200454331079],["Hold",-11.05215485366427],["képességé",-11.052346224160788],["előírások",-11.052784013476579],["fejlett",-11.053032678371446],["egyikük",-11.053207346145658],["IV",-11.053316553732987],["háztartási",-11.05334394422112],["bírság",-11.054036760558137],["kóstol",-11.054210644231688],["gazda",-11.054396042767566],["bátor",-11.055464648855082],["vizsgáló",-11.056226410275722],["Cor",-11.056866669076033],["köszönte",-11.056880934812241],["Boris",-11.056919346968346],["felszólította",-11.056987475903497],["árt",-11.057562421078835],["leállás",-11.057717050327643],["bronz",-11.058035921643906],["egekbe",-11.058267536449156],["sürgős",-11.058459581819836],["ügyész",-11.058489246448541],["aggodalom",-11.058490078181805],["Kereskedel",-11.058490085251423],["Lavrov",-11.058490090355146],["Madrid",-11.058490179295804],["kézműves",-11.058490260337908],["nadrág",-11.0584908950106],["Truss",-11.058504211086358],["végleg",-11.058507951955061],["Szovjetunió",-11.058513170241296],["korona",-11.058539241241078],["Július",-11.05857878874495],["benzinkutak",-11.058586738550746],["haszon",-11.058666625334112],["metró",-11.058709146252589],["elhagyta",-11.05870971438833],["Meghan",-11.058757014523014],["pakol",-11.058947435320317],["irányadó",-11.05906102008824],["töröl",-11.059272067041842],["hegyi",-11.059285914169621],["célzott",-11.05944154480591],["Alex",-11.060159585390835],["kikötők",-11.060232394031175],["védőoltás",-11.060462026806139],["Lisz",-11.06049409313369],["góljá",-11.0605009781504],["vásárhelyi",-11.060566597752887],["feladato",-11.060592360332507],["érezhető",-11.060847950021625],["felajánlás",-11.060975219246455],["isten",-11.06135055539949],["gőz",-11.061383670728954],["valamely",-11.061389015343234],["tere",-11.06145075531438],["NG",-11.061523321669128],["tatni",-11.061529101582725],["aláírt",-11.061546703777152],["akarjá",-11.061566033212955],["enko",-11.06162892149368],["élvez",-11.062093065954455],["biológiai",-11.062276972185705],["felvételi",-11.062335550106006],["közösségek",-11.062365128406444],["érezni",-11.062523767691626],["feltételez",-11.062892622376019],["helyettesít",-11.06294835737131],["kijelző",-11.063272682728247],["napeleme",-11.063305823053707],["meghirdetett",-11.06362859466776],["bővítés",-11.063909375233989],["csuk",-11.06403476082037],["érdeklődő",-11.064189010921819],["feleségét",-11.064549035782978],["követni",-11.064939018147834],["nyújtana",-11.065577518125462],["gyermekét",-11.06608186329508],["ER",-11.066142014846188],["járul",-11.066194397378862],["kötelez",-11.066464042758078],["vont",-11.066686447092048],["tervezte",-11.066819077291392],["Pri",-11.066928770314258],["részvényei",-11.066956084070235],["korláto",-11.066970268719265],["mutatni",-11.067050056704677],["sorba",-11.067187740107267],["mobiltelefon",-11.067422018632591],["énekel",-11.067514437682762],["felajánlott",-11.067787150487817],["határt",-11.067806579723102],["hűtő",-11.067853222888338],["kezdetét",-11.068038648068569],["anyago",-11.06822897051236],["Értéktőzsd",-11.068343478404362],["IP",-11.068539043631887],["ébred",-11.068806133044928],["alapoz",-11.068835645124722],["ráta",-11.069279842876664],["használhat",-11.069448509573807],["foglalja",-11.069755697821307],["számolta",-11.069930162502772],["megerősöd",-11.070263200215127],["tartalmú",-11.070520215503308],["előrejelzés",-11.070522678175843],["tűzijáték",-11.070823185561146],["tervező",-11.070916671063813],["akciót",-11.071041219437877],["ostrom",-11.071076188886215],["töm",-11.07141926157501],["balesetek",-11.071484571214393],["másod",-11.07165182089992],["mellette",-11.071788435638563],["all",-11.072021934658785],["Tur",-11.072059013673638],["gyógy",-11.072664273490602],["bevezetésé",-11.072912640194772],["működni",-11.073079505327428],["eredményét",-11.073403715745249],["Szo",-11.074330745151578],["szolidaritás",-11.07451048137121],["elindított",-11.074573747018594],["üzemeltet",-11.074690686713863],["érzék",-11.075080901740135],["zer",-11.075378634448047],["Egyik",-11.075775769877175],["politikát",-11.076077765604081],["napjá",-11.07671468682248],["tudomás",-11.077022173150912],["szíves",-11.077111091183514],["szerény",-11.077433767079063],["veszített",-11.077434420645334],["férjé",-11.0779345546771],["sági",-11.078275902960701],["jegyzés",-11.07860222115383],["szólít",-11.078852706774072],["háromszoros",-11.079281584620546],["kezdeményezte",-11.079496217279472],["fejlesztését",-11.079498555257963],["lábá",-11.079992279021571],["váró",-11.080019496939123],["ismételte",-11.080070100782832],["fontosságá",-11.080320263294725],["embargó",-11.080556241754715],["Mostan",-11.080693736754926],["digitalizáció",-11.080712300194122],["bántalmazás",-11.080712303441791],["művelődés",-11.080712335843447],["Kisvárda",-11.080712358020119],["argentin",-11.080712727115257],["radikális",-11.08071301823119],["behozatal",-11.080721875186525],["NASA",-11.080723901629023],["őrzött",-11.080748444857605],["Fanni",-11.080787944042296],["előtérbe",-11.080803925072289],["utólag",-11.080837781850978],["edd",-11.081056713160027],["legismertebb",-11.081062358624012],["nyomást",-11.081169853586486],["Ismer",-11.081360231330903],["óceán",-11.081528989642369],["szerezhet",-11.081558142141068],["eget",-11.081590083509846],["posztolt",-11.081879902801907],["korlát",-11.081948610293775],["kivitelező",-11.081997426653324],["emet",-11.082030168640195],["túlzás",-11.08205711208663],["javasolja",-11.082072924200782],["Tu",-11.082205597897717],["elképzel",-11.08221617876575],["szavazatok",-11.082231377635443],["frissen",-11.08231473698684],["jelentkező",-11.0824177431181],["munkáltató",-11.082516625964658],["megtalált",-11.082595011109161],["olvasni",-11.08291852038742],["hatályba",-11.082960607540816],["mozdulat",-11.083033469173724],["fogyott",-11.083326188220665],["alakja",-11.083794131758085],["érdekel",-11.083794517954198],["teremteni",-11.084007314240614],["feladatai",-11.08480896320277],["Megjegyezt",-11.08487447797471],["Mars",-11.084884957225835],["gyerekei",-11.085070675475391],["szabadságharc",-11.085237208046724],["érdemel",-11.085268077375598],["várost",-11.086153310535488],["Miskolco",-11.086180075465954],["tagadta",-11.086277191598926],["viselt",-11.087279494126589],["olj",
[...]
