{"version":"1.0","truncation":null,"padding":null,"added_tokens":[{"id":0,"special":true,"content":"<UNK>","single_word":false,"lstrip":false,"rstrip":false,"normalized":false},{"id":1,"special":true,"content":"<SEP>","single_word":false,"lstrip":false,"rstrip":false,"normalized":false},{"id":2,"special":true,"content":"<MASK>","single_word":false,"lstrip":false,"rstrip":false,"normalized":false},{"id":3,"special":true,"content":"<CLS>","single_word":false,"lstrip":false,"rstrip":false,"normalized":false}],"normalizer":null,"pre_tokenizer":{"type":"Whitespace"},"post_processor":null,"decoder":null,"model":{"type":"BPE","dropout":null,"unk_token":"<UNK>","continuing_subword_prefix":null,"end_of_word_suffix":null,"fuse_unk":false,"vocab":{"<UNK>":0,"<SEP>":1,"<MASK>":2,"<CLS>":3,"!":4,"\"":5,"$":6,"%":7,"&":8,"'":9,"(":10,")":11,"*":12,"+":13,",":14,"-":15,".":16,"/":17,"0":18,"1":19,"2":20,"3":21,"4":22,"5":23,"6":24,"7":25,"8":26,"9":27,":":28,";":29,"<":30,">":31,"?":32,"A":33,"B":34,"C":35,"D":36,"E":37,"F":38,"G":39,"H":40,"I":41,"J":42,"K":43,"L":44,"M":45,"N":46,"O":47,"P":48,"Q":49,"R":50,"S":51,"T":52,"U":53,"V":54,"W":55,"X":56,"Y":57,"Z":58,"a":59,"b":60,"c":61,"d":62,"e":63,"f":64,"g":65,"h":66,"i":67,"j":68,"k":69,"l":70,"m":71,"n":72,"o":73,"p":74,"q":75,"r":76,"s":77,"t":78,"u":79,"v":80,"w":81,"x":82,"y":83,"z":84,"~":85,"§":86,"«":87,"®":88,"°":89,"²":90,"³":91,"´":92,"µ":93,"·":94,"»":95,"Á":96,"Ä":97,"Å":98,"Ç":99,"È":100,"É":101,"Í":102,"Ó":103,"Õ":104,"Ö":105,"×":106,"Ø":107,"Ú":108,"Ü":109,"à":110,"á":111,"â":112,"ã":113,"ä":114,"å":115,"ç":116,"è":117,"é":118,"ë":119,"í":120,"î":121,"ï":122,"ð":123,"ñ":124,"ò":125,"ó":126,"ô":127,"õ":128,"ö":129,"ø":130,"ú":131,"û":132,"ü":133,"ý":134,"ā":135,"ă":136,"Ć":137,"ć":138,"Č":139,"č":140,"Ď":141,"ď":142,"Đ":143,"đ":144,"ę":145,"ě":146,"ğ":147,"Ľ":148,"ľ":149,"ł":150,"ń":151,"ň":152,"Ő":153,"ő":154,"ř":155,"Ş":156,"ş":157,"Š":158,"š":159,"Ţ":160,"ţ":161,"ť":162,"Ű":163,"ű":164,"Ž":165,"ž":166,"Ș":167,"ș":168,"Ț":169,"ț":170,"ʼ":171,"́":172,"̈":173,"̋":174,"β":175,"μ":176,"‐":177,"‑":178,"‒":179,"–":180,"—":181,"‘":182,"’":183,"“":184,"”":185,"„":186,"†":187,"•":188,"…":189,"‼":190,"€":191,"−":192,"❗":193,"➡":194,"﷯":195,"️":196,"sz":197,"el":198,"et":199,"en":200,"gy":201,"er":202,"at":203,"al":204,"an":205,"az":206,"ek":207,"és":208,"ak":209,"or":210,"ár":211,"in":212,"em":213,"on":214,"ol":215,"ál":216,"eg":217,"ás":218,"ez":219,"is":220,"es":221,"án":222,"tt":223,"ok":224,"ér":225,"ar":226,"ég":227,"ho":228,"ik":229,"én":230,"egy":231,"os":232,"kö":233,"bb":234,"cs":235,"át":236,"ül":237,"ett":238,"am":239,"ít":240,"él":241,"meg":242,"ág":243,"ap":244,"hogy":245,"ék":246,"ban":247,"ét":248,"ed":249,"int":250,"ad":251,"ben":252,"ott":253,"szer":254,"agy":255,"il":256,"szt":257,"oz":258,"it":259,"ra":260,"ut":261,"ki":262,"om":263,"re":264,"ség":265,"ta":266,"nem":267,"köz":268,"ny":269,"ig":270,"fel":271,"ni":272,"tö":273,"ól":274,"ja":275,"ul":276,"le":277,"ák":278,"áz":279,"áll":280,"ell":281,"be":282,"ép":283,"og":284,"ely":285,"nk":286,"as":287,"aj":288,"hat":289,"ai":290,"nak":291,"ent":292,"ész":293,"ány":294,"ám":295,"het":296,"év":297,"ény":298,"ért":299,"nek":300,"kor":301,"elő":302,"Az":303,"iz":304,"id":305,"val":306,"olt":307,"ag":308,"ot":309,"te":310,"ind":311,"mi":312,"ci":313,"ság":314,"leg":315,"uk":316,"end":317,"jel":318,"ter":319,"us":320,"vez":321,"ől":322,"kez":323,"ált":324,"for":325,"od":326,"unk":327,"ont":328,"szág":329,"art":330,"ön":331,"ország":332,"hoz":333,"hely":334,"ud":335,"ír":336,"oly":337,"ös":338,"de":339,"ve":340,"ber":341,"szám":342,"ók":343,"ne":344,"nagy":345,"ök":346,"ond":347,"nap":348,"volt":349,"ha":350,"vet":351,"ill":352,"ük":353,"rend":354,"már":355,"mind":356,"ker":357,"ov":358,"több":359,"att":360,"ább":361,"szerint":362,"ők":363,"agyar":364,"ur":365,"20":366,"áb":367,"ában":368,"kal":369,"új":370,"öl":371,"sza":372,"vár":373,"tel":374,"ént":375,"elm":376,"ej":377,"ében":378,"fog":379,"ült":380,"Sz":381,"ív":382,"osz":383,"pr":384,"tart":385,"eket":386,"úl":387,"hi":388,"ött":389,"ős":390,"ára":391,"kap":392,"olg":393,"mű":394,"vezet":395,"száz":396,"ások":397,"van":398,"jelent":399,"vel":400,"ette":401,"ia":402,"ked":403,"tud":404,"azt":405,"éd":406,"ember":407,"lehet":408,"ert":409,"kép":410,"éz":411,"tör":412,"ját":413,"fi":414,"vég":415,"kül":416,"szak":417,"még":418,"len":419,"kell":420,"ció":421,"más":422,"csak":423,"iszt":424,"alék":425,"ör":426,"jár":427,"mag":428,"mint":429,"zet":430,"biz":431,"amely":432,"ba":433,"százalék":434,"ep":435,"után":436,"ály":437,"vál":438,"ebb":439,"ped":440,"ása":441,"ir":442,"ése":443,"vagy":444,"ást":445,"ják":446,"ajd":447,"aszt":448,"koz":449,"tal":450,"ház":451,"össz":452,"ról":453,"est":454,"vis":455,"ünk":456,"sem":457,"pedig":458,"nál":459,"tat":460,"um":461,"ület":462,"ony":463,"két":464,"érd":465,"ügy":466,"mény":467,"obb":468,"ély":469,"ezt":470,"okat":471,"min":472,"áj":473,"öv":474,"ód":475,"szem":476,"na":477,"mány":478,"ső":479,"ést":480,"Ez":481,"ellen":482,"ami":483,"ható":484,"tak":485,"tár":486,"rész":487,"ió":488,"ított":489,"magyar":490,"ának":491,"vi":492,"követ":493,"abb":494,"fő":495,"né":496,"elt":497,"ző":498,"minden":499},"merges":["s z","e l","e t","e n","g y","e r","a t","a l","a n","a z","e k","é s","a k","o r","á r","i n","e m","o n","o l","á l","e g","á s","e z","i s","e s","á n","t t","o k","é r","a r","é g","h o","i k","é n","e gy","o s","k ö","b b","c s","á t","ü l","et t","a m","í t","é l","m eg","á g","a p","ho gy","é k","b an","é t","e d","in t","a d","b en","o tt","sz er","a gy","i l","sz t","o z","i t","r a","u t","k i","o m","r e","s ég","t a","n em","kö z","n y","i g","f el","n i","t ö","ó l","j a","u l","l e","á k","á z","ál l","el l","b e","é p","o g","el y","n k","a s","a j","h at","a i","n ak","en t","é sz","án y","á m","h et","é v","én y","ér t","n ek","k or","el ő","A z","i z","i d","v al","ol t","a g","o t","t e","in d","m i","c i","s ág","l eg","u k","en d","j el","t er","u s","v ez","ő l","k ez","ál t","f or","o d","u nk","on t","sz ág","ar t","ö n","or szág","ho z","h ely","u d","í r","ol y","ö s","d e","v e","b er","sz ám","ó k","n e","n agy","ö k","on d","n ap","v olt","h a","v et","il l","ü k","r end","m ár","m ind","k er","o v","tö bb","at t","á bb","szer int","ő k","agy ar","u r","2 0","á b","á ban","k al","ú j","ö l","sz a","v ár","t el","én t","el m","e j","é ben","f og","ül t","S z","í v","o sz","p r","t art","ek et","ú l","h i","ö tt","ő s","ár a","k ap","ol g","m ű","vez et","sz áz","ás ok","v an","jel ent","v el","ett e","i a","k ed","t ud","az t","é d","em ber","le het","er t","k ép","é z","tö r","j át","f i","v ég","k ül","sz ak","m ég","l en","k ell","ci ó","m ás","cs ak","i szt","al ék","ö r","j ár","m ag","m int","z et","b iz","am ely","b a","száz alék","e p","ut án","ál y","v ál","e bb","p ed","ás a","i r","és e","v agy","ás t","j ák","aj d","a szt","k oz","t al","h áz","ös sz","r ól","es t","v is","ü nk","s em","ped ig","n ál","t at","u m","ül et","on y","k ét","ér d","ü gy","m ény","o bb","él y","ez t","ok at","m in","á j","ö v","ó d","sz em","n a","m ány","s ő","és t","E z","ell en","am i","hat ó","t ak","t ár","r ész","i ó","ít ott","m agyar","án ak","v i","kö vet","a bb","f ő","n é","el t","z ő","mind en"]}}