{"version":"1.0","truncation":null,"padding":null,"added_tokens":[{"id":0,"special":true,"content":"<UNK>","single_word":false,"lstrip":false,"rstrip":false,"normalized":false},{"id":1,"special":true,"content":"<SEP>","single_word":false,"lstrip":false,"rstrip":false,"normalized":false},{"id":2,"special":true,"content":"<MASK>","single_word":false,"lstrip":false,"rstrip":false,"normalized":false},{"id":3,"special":true,"content":"<CLS>","single_word":false,"lstrip":false,"rstrip":false,"normalized":false}],"normalizer":null,"pre_tokenizer":{"type":"Whitespace"},"post_processor":null,"decoder":null,"model":{"type":"Unigram","unk_id":0,"vocab":[["<UNK>",0.0],["<SEP>",0.0],["<MASK>",0.0],["<CLS>",0.0],["a",-2.6731828681249556],[",",-3.0212850925931622],[".",-3.4372416651247235],["t",-3.7401636500511017],["az",-4.020078912725507],["i",-4.151574375153174],["és",-4.377335079814124],["n",-4.4030178416910495],["A",-4.460438633242232],["-",-4.51361549632942],["k",-4.5863485111222015],["is",-4.716500691869227],["hogy",-4.734738606668145],["e",-5.101637569777294],["meg",-5.147199640005345],["egy",-5.19348230683101],["ban",-5.2158635365669355],["s",-5.229480749435153],["nem",-5.232061781382635],["en",-5.243614744372527],["ben",-5.253873570050386],["nak",-5.262037888788203],["el",-5.337368574594366],["nek",-5.474005422983126],["ki",-5.50560729699612],["Az",-5.553882096063788],["re",-5.592154508004487],["m",-5.601607459666292],["ra",-5.61810111024916],["et",-5.643014143404514],["be",-5.723314037235662],["g",-5.727484631931532],["on",-5.749010489918177],["ok",-5.769550836049104],["ek",-5.782963380845446],["ik",-5.82203069307214],["át",-5.930832986542704],["–",-5.950196114665799],["ni",-6.027393101181055],["z",-6.0631285319275],["de",-6.094334133365413],["szerint",-6.148821094807806],["volt",-6.162000168945296],["fel",-6.166106063852887],[":",-6.185999146575231],["már",-6.203757257482364],["ot",-6.242365304218874],["ó",-6.2571518491319456],["20",-6.291418918073642],["ez",-6.308058104067555],["es",-6.333882110701188],["ott",-6.3378285829927545],["le",-6.3485474057756655],["ő",-6.355595199831388],["ja",-6.357467711167004],["van",-6.389977775372268],["\"",-6.423881936155787],["csak",-6.424310236607271],["mint",-6.440851271964178],["még",-6.464044996650827],["több",-6.484174190248179],["d",-6.542801902743038],["os",-6.543078368156602],["ha",-6.545216594274864],["r",-6.546040807655936],["pedi",-6.563747577906252],["M",-6.571219345494356],["l",-6.592935247835591],["év",-6.615629485924941],["vagy",-6.634455481829589],["mi",-6.642797150705018],["ért",-6.6458478410788935],["ul",-6.647939214269744],["(",-6.655736414654907],["nagy",-6.669316647184337],[")",-6.686171662346435],["okat",-6.701552721523354],["hoz",-6.702082183658362],["vel",-6.713448891743653],["S",-6.7164260363479364],["ják",-6.717177743214371],["b",-6.721325647255867],["kell",-6.729803739529489],["ból",-6.731487901209492],["sem",-6.732490444829121],["y",-6.737768443866457],["sz",-6.7397064654750025],["án",-6.741953626887412],["unk",-6.756585015592272],["százalék",-6.766571943150426],["amely",-6.770096003174508],["ról",-6.770675095063867],["két",-6.77242054207985],["után",-6.7771087763663616],["azt",-6.784854767284035],["ba",-6.806687763364259],["ét",-6.806698752560074],["ről",-6.808595559224923],["ák",-6.822304742942153],["majd",-6.838083275832426],["ig",-6.854797832366836],["p",-6.856736942685012],["lehet",-6.869772713707826],["”",-6.8764365851827165],["ünk",-6.879146201586579],["ként",-6.8846381714720035],["val",-6.886648560215027],["eket",-6.891036330851378],["leg",-6.893469921111773],["K",-6.894787125757128],["lesz",-6.924943212128698],["magyar",-6.933967384041766],["ami",-6.935982394692454],["orosz",-6.948650123545842],["h",-6.9503972959630715],["új",-6.958492398366306],["miatt",-6.974354984167041],["1",-6.9977571379772225],["B",-7.000920109078477],["úgy",-7.002518660762212],["így",-7.00340722946528],["ve",-7.0204792495155095],["va",-7.024185075452045],["P",-7.027332348148901],["én",-7.036511730670911],["első",-7.037455405409032],["minden",-7.0425007005940525],["Ez",-7.0451844375841635],["ék",-7.061808769362811],["kal",-7.063033607914974],["ták",-7.0663281476230715],["olyan",-7.074281056870191],["ás",-7.090157022539521],["tól",-7.092803382185766],["ből",-7.106162806595497],["hat",-7.115609199000845],["ük",-7.117813347401696],["hez",-7.122849804018129],["ában",-7.134885390950172],["között",-7.145848983190726],["é",-7.160175680669349],["ának",-7.176940835180835],["o",-7.181687373403843],["C",-7.184464216214681],["2",-7.187563641093551],["„",-7.194607589178442],["uk",-7.201539410062633],["tak",-7.2086120384250565],["5",-7.211710992085393],["től",-7.21574798657887],["c",-7.2227225552096534],["éves",-7.225069156109427],["forint",-7.237152884662834],["akkor",-7.249323219575371],["3",-7.254500461879409],["j",-7.257238531167426],["R",-7.292980285210701],["T",-7.296843403060621],["?",-7.299133029930521],["jó",-7.300872044820167],["f",-7.301539775615749],["rá",-7.3052169807049525],["nál",-7.307372972889427],["mert",-7.308272326795536],["om",-7.317244172469375],["G",-7.317250738285159],["H",-7.319680802559091],["fog",-7.320742171431459],["F",-7.322251771869198],["mellett",-7.322739861030625],["aki",-7.325219146947547],["tud",-7.326661710397758],["ében",-7.32699396573026],["egyik",-7.3344481383226645],["mondta",-7.335224561867473],["ár",-7.342473763806825],["kormány",-7.344249797949334],["E",-7.3452599004832875],["ára",-7.352733746200104],["azonba",-7.3563573607946156],["nél",-7.358456609397],["kat",-7.361743586323127],["arra",-7.363715161239473],["most",-7.367101268273706],["sok",-7.377213332377206],["4",-7.390411152908009],["juk",-7.409486789047211],["millió",-7.4095346671529825],["ne",-7.416017490848072],["sal",-7.4163735712404995],["ú",-7.4210620501329],["!",-7.429955876917977],["világ",-7.429994234628027],["más",-7.439039575724892],["te",-7.439852102169369],["ének",-7.443272847618448],["Egy",-7.4437267172467925],["kor",-7.444210009304002],["je",-7.444680892768117],["ezt",-7.452501003536683],["er",-7.463854049995616],["em",-7.468568894076884],["ukrán",-7.471354278960119],["ű",-7.472415012378053],["ett",-7.473517744210787],["Ha",-7.476433858370274],["V",-7.477149619571738],["tal",-7.477876832369742],["tovább",-7.488121939537464],["19",-7.4918046711421],["ül",-7.493080854480548],["hozzá",-7.499534688557268],["I",-7.5014322090430525],["ték",-7.50445906460854],["v",-7.50557116200702],["elő",-7.506637289150871],["L",-7.508777342142986],["vissza",-7.514704541860406],["ezer",-7.515535726435126],["előtt",-7.51914459051856],["által",-7.522623755256155],["D",-7.528623759099778],["ellen",-7.557758141816038],["ország",-7.560765020505172],["gy",-7.568516865460996],["akik",-7.572224332746896],["milliárd",-7.5735789317318964],["ség",-7.577517962839087],["hét",-7.57782832690004],["három",-7.591434580621722],["ember",-7.593632746410728],["amikor",-7.596258027564731],["teljes",-7.599502464780936],["fő",-7.607609331296805],["össze",-7.615155718771141],["ad",-7.623144849428412],["áll",-7.624999401781923],["cs",-7.625445777343959],["alatt",-7.627554760851282],["het",-7.631514199331872],["10",-7.634197429034742],["ol",-7.638761118637812],["6",-7.639066726891241],["22",-7.640042339061785],["óta",-7.640640494249919],["bb",-7.6689855313670945],["7",-7.672081604805434],["Nem",-7.673111534150833],["rról",-7.674133474803836],["0",-7.687047300545654],["ére",-7.693580138755759],["háború",-7.695558753631125],["ával",-7.698356536010765],["számár",-7.7027103421670775],["ön",-7.723539386452298],["nap",-7.734909531576909],["8",-7.73718267219687],["ahol",-7.737981580940701],["tek",-7.746140980153708],["valamin",-7.759362803260265],["Oroszország",-7.764574854878504],["csapat",-7.774391244990495],["Európa",-7.787476949188245],["u",-7.791130384294292],["ság",-7.792573517457483],["Mi",-7.795213287273587],["lett",-7.798020823517308],["cég",-7.801550651149421],["ed",-7.802741699296716],["á",-7.825228306217095],["voln",-7.827936040642318],["egész",-7.83270056981666],["O",-7.833215895802568],["eset",-7.8346862050107955],["él",-7.836048131812156],["mind",-7.836735344433883],["9",-7.841792196050333],["közben",-7.842459115653425],["példá",-7.85044863451119],["Magyarország",-7.857859244280777],["való",-7.860812366392792],["élet",-7.870023300169818],["ny",-7.871858888092478],["viszont",-7.872830767164682],["hisze",-7.874042642394314],["elnök",-7.876184027430917],["N",-7.88120962223767],["ugyanis",-7.885834867959931],["annak",-7.894630612781139],["ám",-7.89742050154243],["illetve",-7.902127847930151],["ját",-7.91041635111178],["15",-7.9148915741462424],["Nagy",-7.917704633210604],["amit",-7.920115284364922],["helyzet",-7.920303737088084],["tette",-7.922449826654524],["ével",-7.929625925207893],["idő",-7.931505548729987],["vezető",-7.9318533909237114],["fél",-7.933453474066508],["ilyen",-7.938854993764293],["De",-7.939527122413359],["od",-7.9415231001643],["hanem",-7.945212867970107],["elmúlt",-7.945949680926684],["21",-7.946196687837903],["adott",-7.951226839645229],["második",-7.9521172305538075],["öt",-7.95234041809723],["férfi",-7.955658697217396],["or",-7.957024400366701],["ál",-7.957106954469841],["város",-7.958764021772917],["került",-7.962800604660429],["sel",-7.965383941238112],["játék",-7.965432290828323],["míg",-7.973606251977635],["ekkel",-7.977167632996372],["nő",-7.979782818903625],["ezek",-7.980848822467978],["amelyek",-7.992425536994599],["négy",-7.9997142900582165],["szó",-8.00155160330418],["akár",-8.004230305966344],["közölte",-8.00836899247895],["jük",-8.009197875355813],["30",-8.011667916257114],["előre",-8.028264221942997],["saját",-8.034859057660768],["százalékos",-8.037315258331212],["nagyobb",-8.04289283335903],["jelentős",-8.043425739241744],["fontos",-8.043600611009069],["legnagyobb",-8.046947872331728],["korábba",-8.046953730580064],["okkal",-8.048583112415946],["rendszer",-8.051200393222928],["milyen",-8.051204522263665],["túl",-8.05775677122094],["18",-8.058328043215084],["vár",-8.059492026153702],["ér",-8.080632800740469],["ható",-8.081814025332813],["nincs",-8.081990357860242],["tett",-8.083272540686902],["kis",-8.08971569397023],["mely",-8.096074909170898],["adó",-8.098521266293965],["ház",-8.10100679688363],["évek",-8.106220087188909],["amerikai",-8.10806782125948],["felé",-8.109291624458162],["során",-8.110664456700745],["í",-8.113204837820229],["jól",-8.113596925799904],["agyon",-8.114013051310653],["kel",-8.121039149613988],["azért",-8.129584518576717],["család",-8.130553505907514],["al",-8.131784256412356],["kap",-8.13299953585678],["ment",-8.133551155637226],["kerül",-8.134889079524172],["Magyar",-8.136943216081253],["emberek",-8.139118042088866],["zal",-8.143092889435],["U",-8.143283545550155],["időszak",-8.14339402430486],["köz",-8.14368751910498],["us",-8.15202243644829],["alapján",-8.154404639825037],["együtt",-8.155438898303863],["Sz",-8.156174193177986],["kérdés",-8.157736822372854],["nélkül",-8.157829640498601],["se",-8.158383869959849],["idén",-8.161316379678693],["bban",-8.161475252677743],["szemben",-8.166131971295133],["itt",-8.172829973649325],["eddig",-8.17408284554416],["európai",-8.175795797213237],["részt",-8.175900330532949],["szinte",-8.181577378282899],["gazdasági",-8.18188643850861],["gáz",-8.181912538043903],["újra",-8.185009310573943],["közel",-8.189912771483428],["ezér",-8.194396424973554],["másik",-8.195553016476657],["jövő",-8.199219963689593],["ur",-8.200323223267873],["li",-8.200927809656363],["rend",-8.203040324219128],["újabb",-8.204118526845107],["közül",-8.20427899519603],["őket",-8.208965930095143],["határ",-8.209241719996239],["sor",-8.214072629059771],["mal",-8.216905313825691],["lenne",-8.238417920768489],["víz",-8.243637792145224],["ezzel",-8.247636428831441],["W",-8.248060418635292],["12",-8.249099846844283],["út",-8.258959081597666],["infláció",-8.259425687185653],["jár",-8.26349770415107],["hónap",-8.264412408646143],["kellett",-8.265841218754403],["23",-8.269969423946732],["része",-8.274043920550692],["pár",-8.27412604167668],["di",-8.27577280588062],["hazai",-8.276647996754845],["gal",-8.277753399531239],["energia",-8.278201909402535],["következő",-8.28259976037425],["autó",-8.283935604615172],["történt",-8.28429053901502],["hető",-8.28503614588741],["miniszter",-8.285880501737967],["korábbi",-8.28594239729808],["egyre",-8.289096935258524],["jelent",-8.290792205667072],["akar",-8.29296908681761],["voltak",-8.293378361677238],["hát",-8.294498009792209],["perc",-8.296496272477803],["14",-8.309481803074986],["néhány",-8.310597985608293],["ügy",-8.315025086392723],["cél",-8.315122250712268],["kapott",-8.318114300857452],["alap",-8.321890432549417],["érték",-8.32397432083621],["ött",-8.332912162363046],["álló",-8.333235649195824],["pont",-8.333563244467808],["ennek",-8.337539873519422],["elmondta",-8.338692673341454],["szak",-8.348902217342257],["szám",-8.352055211042105],["ök",-8.352297906603798],["összes",-8.35250696765983],["13",-8.354005282837472],["25",-8.356208648176292],["belül",-8.357621180535416],["Ukrajna",-8.358919045399727],["50",-8.364244181923059],["ők",-8.367814250093604],["ugyan",-8.36788549865342],["lévő",-8.372708023637957],["17",-8.373408931956492],["oldal",-8.379830977397958],["helyszín",-8.381196750790943],["Már",-8.384131289663296],["verseny",-8.38526864216395],["csoport",-8.385815449904708],["jelenleg",-8.387168762652514],["bár",-8.38722798872793],["mond",-8.387934835731553],["w",-8.390653121037124],["ebb",-8.390983542644623],["munka",-8.391857278061226],["gel",-8.39221912485582],["Meg",-8.394271095542372],["csökkent",-8.394759262701715],["tart",-8.397659491264285],["tavaly",-8.39786197880109],["Egyesül",-8.400390335928545],["utolsó",-8.401098466450106],["hely",-8.40197518259518],["vált",-8.404569560162464],["11",-8.405446222116424],["euró",-8.408765301321967],["24",-8.411212687695134],["erre",-8.413445845444905],["alá",-8.417125815758688],["további",-8.418866394635685],["program",-8.421800923724778],["lap",-8.423429920783331],["megfelelő",-8.426236780303885],["pénz",-8.426723682572055],["indig",-8.43003146021147],["Budapest",-8.43047891816079],["kapcsolat",-8.436043830361939],["vállalat",-8.439433024851681],["El",-8.441000863840205],["képest",-8.441471655422774],["um",-8.443029433648029],["támogatás",-8.444725902748306],["piac",-8.445049183102117],["unió",-8.446865050109626],["szabad",-8.448531480181188],["ából",-8.450084461444188],["lag",-8.450417830955],["Mint",-8.453796230723924],["áról",-8.454455600714253],["történ",-8.456212991800832],["legyen",-8.457720730024274],["közös",-8.460032547919136],["gazdaság",-8.46156798726333],["otthon",-8.46549336991858],["Péter",-8.467884526379446],["képes",-8.468515986105913],["védelmi",-8.468973982174004],["Magyarországon",-8.469121059914997],["szervezet",-8.4693589170017],["ebben",-8.46997756796748],["száma",-8.470744279686635],["helyi",-8.473263086107828],["magas",-8.473575604869229],["szükség",-8.475367947764521],["éve",-8.477457027902297],["inkáb",-8.478692118628604],["abb",-8.48074156017202],["Orbán",-8.48180248449609],["mindenki",-8.485477394031786],["később",-8.48636303761445],["dolgoz",-8.486432213557645],["sikerült",-8.486722759396523],["erős",-8.488580665381185],["harmadik",-8.49349467681754],["miniszterelnök",-8.496790986670327],["Z",-8.497257944347972],["ci",-8.497447546194646],["ro",-8.498022234436643],["nemzetközi",-8.502242756280602],["ismét",-8.502449285953752],["jelentette",-8.503531116395596],["marad",-8.505213490591842],["J",-8.50584901142457],["16",-8.506939837876308],["hosszú",-8.507008765970578],["azon",-8.507142422087286],["írta",-8.510694613604429],["/",-8.513413870157173],["olt",-8.513750851912],["bele",-8.52279010381875],["ló",-8.524215890952146],["ü",-8.525823361876448],["este",-8.527244730238866],["tíz",-8.531824069297823],["rel",-8.534104304154091],["mit",-8.536370539714026],["magát",-8.537414918442689],["jog",-8.537777032775878],["érdeké",-8.539064593456736],["tartott",-8.539433950000696],["fi",-8.543159496010933],["hol",-8.544231804108033],["fogalmaz",-8.54512992070531],["választás",-8.545446878433458],["40",-8.54578699269487],["né",-8.547844066108087],["közösségi",-8.549019563241718],["egyes",-8.552256234659861],["tér",-8.557126801294885],["érkezett",-8.557282514388461],["fiatal",-8.557977178065784],["jában",-8.55807772473234],["múlt",-8.563987753429059],["elég",-8.568454645511176],["komoly",-8.571622953889108],["mutat",-8.573270522389985],["órá",-8.575237178751355],["ket",-8.577275784403707],["állt",-8.577949708237492],["gyermek",-8.578628940536001],["ill",-8.578713246788649],["sokkal",-8.582285360806345],["járvány",-8.586239285671562],["állam",-8.588037929521096],["jobb",-8.588263651116598],["Putyin",-8.58844903891882],["vette",-8.588486679857859],["száz",-8.594556744287992],["fok",-8.595066546958368],["ing",-8.595537463767792],["című",-8.595829248111492],["elleni",-8.598105477599477],["szintén",-8.59882625021638],["ter",-8.601336071291762],["tunk",-8.604200713124172],["baleset",-8.604980863338927],["szint",-8.605502509708845],["jön",-8.606997469034841],["azok",-8.607375776795344],["mikor",-8.608709482505521],["nehéz",-8.60876378093009],["ch",-8.610994195554033],["ink",-8.6110313806198],["hír",-8.611039120979827],["200",-8.613056361422561],["végül",-8.615067142318594],["olaj",-8.615703500105315],["ához",-8.61712728773178],["miután",-8.618047318315217],["hatás",-8.619329785261899],["nyi",-8.620801977762849],["hiány",-8.62222455289806],["helyen",-8.622241298019375],["TI",-8.622735995111968],["árak",-8.626664304118822],["ukrajnai",-8.627288862060848],["óra",-8.627721292737956],["írja",-8.6285343316475],["dal",-8.628645587871183],["szív",-8.630727264469257],["keresztül",-8.631069569975104],["kkal",-8.631618003195634],["politikai",-8.63774109487943],["számos",-8.640701696907577],["oldalán",-8.64165941015828],["törvény",-8.645292579073551],["követőe",-8.648782208253214],["rendőrség",-8.64905516426116],["koronavírus",-8.649135174002126],["ver",-8.649724846668196],["hagy",-8.654090107982668],["éppen",-8.658722194605634],["Ki",-8.660327927545474],["biztos",-8.66104939531744],["végén",-8.663079381776942],["bor",-8.66490672338298],["tó",-8.665388907314409],["beszélt",-8.667182296540501],["kar",-8.669906710516308],["já",-8.670312327856053],["élő",-8.670930606518425],["nőtt",-8.674928145743689],["mennyi",-8.677556057023422],["szeretné",-8.679372479289931],["megoldás",-8.679816739899788],["környezet",-8.68105016487881],["eit",-8.681162808758506],["ása",-8.683585673913148],["Ezek",-8.684711425667349],["november",-8.684721915491421],["gondol",-8.687675173757967],["og",-8.69007309227783],["állapot",-8.692417551696906],["vasárnap",-8.694356431166524],["épület",-8.695784073791021],["december",-8.698155840846557],["Cs",-8.7002254392374],["katonai",-8.700284102335345],["film",-8.700758288287062],["lány",-8.70078038608262],["ették",-8.701029978456596],["ztán",-8.70190604155577],["egymás",-8.702817019476903],["dollár",-8.70415891617653],["mel",-8.704686091143873],["legalább",-8.705925251872578],["ö",-8.70613675396099],["zel",-8.706300247054976],["ismert",-8.70657173026093],["támadás",-8.70741078818001],["vi",-8.709776712207162],["német",-8.713556369538182],["utóbbi",-8.714175406070666],["fejlesztés",-8.71646910532057],["éről",-8.717158926200678],["Államok",-8.717948451420849],["előző",-8.7197357668252],["EU",-8.720783511492897],["ezen",-8.721740108506921],["kívül",-8.723334705788162],["sport",-8.7239470713613],["gyors",-8.725590364902212],["heti",-8.726390046508122],["tűn",-8.727023482224737],["elnöke",-8.729066971788303],["szeptember",-8.729553841415633],["vezetője",-8.730196385866384],["lakás",-8.730389503983957],["kép",-8.73080639912936],["súlyos",-8.731161033834082],["önkormányzat",-8.732521433912698],["üzlet",-8.732826003384217],["Viktor",-8.733551695236073],["szem",-8.733767897536058],["ján",-8.73546960796866],["egyébkén",-8.73556259785843],["jött",-8.735618902772032],["ír",-8.736434271606967],["jon",-8.736754104019314],["legjobb",-8.739575521268504],["maguk",-8.741693173048873],["szer",-8.742232111673559],["követő",-8.742344436198422],["lehetőség",-8.742430442488349],["tor",-8.744275765436036],["mű",-8.745975168365263],["vett",-8.747448997715068],["Bár",-8.74748472488492],["jelen",-8.748048669024953],["készül",-8.748077894932237],["látható",-8.750170416308666],["ral",-8.75085933322599],["fa",-8.75234225271706],["sorozat",-8.75352099176072],["szükséges",-8.754365465655425],["Ezt",-8.757280868825923],["néz",-8.759301682640022],["László",-8.759920586430177],["kevesebb",-8.761179145515648],["kör",-8.762634790726189],["délután",-8.764895814083852],["október",-8.766106531851158],["ör",-8.76640200868313],["ég",-8.767061105884263],["tudja",-8.767342128784067],["vesz",-8.768354313470915],["ók",-8.769169573832396],["egyetlen",-8.770108196906051],["nyom",-8.7705970506303],["brit",-8.771161852698768],["tűz",-8.772652647530823],["kevés",-8.77960662394786],["kisebb",-8.780400073337102],["személy",-8.780714364262003],["tudta",-8.783165068835407],["idei",-8.78356333309718],["Í",-8.784892134891287],["működ",-8.785271975702761],["fej",-8.785462518574608],["100",-8.786762086941533],["esett",-8.791586835054503],["keres",-8.797998495740543],["per",-8.798028646965466],["tam",-8.799390651266163],["mai",-8.799859709789356],["üket",-8.802187156302857],["ellátás",-8.803237235016239],["öl",-8.803739523968446],["ugyanakkor",-8.80514750734622],["Nemzeti",-8.80788637716625],["megyei",-8.808007091129184],["képviselő",-8.808532911049431],["videó",-8.809448843497648],["hasonló",-8.813990520268547],["magá",-8.817309657566106],["adat",-8.818325441413208],["fegyver",-8.81885804273541],["ov",-8.821124247017327],["legtöbb",-8.821232976597463],["ös",-8.822828478132514],["elején",-8.823770889707582],["neki",-8.825667950636973],["igen",-8.826190610696438],["annyi",-8.826602338307257],["készült",-8.828686674887017],["pénteken",-8.830371652709491],["vé",-8.832960772441442],["teszi",-8.833253176217987],["esz",-8.833897342576591],["osan",-8.834182788398135],["végé",-8.834398150511927],["lo",-8.83748786426974],["lát",-8.837506238472283],["szolgáltatás",-8.837755686057587],["semmi",-8.838819341206772],["külön",-8.838994418442372],["Több",-8.839021973321874],["Úgy",-8.839136176233982],["maga",-8.840028337686494],["szankciók",-8.841481487600127],["piaci",-8.842321443415576],["párt",-8.843112153488637],["ellenér",-8.84457562555469],["benne",-8.84484507473659],["Le",-8.846267358082581],["vele",-8.846863692333809],["Most",-8.847849822531458],["rendőrök",-8.848115380384163],["hív",-8.852455594925605],["érdemes",-8.85314483479463],["köszönhető",-8.855015026148756],["díj",-8.856654476316823],["tartó",-8.858368458567409],["sége",-8.858797884835266],["hi",-8.858839676637954],["siker",-8.859986720652596],["termék",-8.86166260541627],["szél",-8.86472290027411],["döntő",-8.865203415763215],["lép",-8.866689951497321],["Be",-8.867557342633251],["maradt",-8.869411302613445],["lépés",-8.869629643317179],["helyett",-8.873192874045163],["országok",-8.873739702597533],["x",-8.874305277245321],["István",-8.875265627322108],["állás",-8.87587786134107],["szerű",-8.875937540622052],["zás",-8.87868915569384],["adatok",-8.87983576316061],["csütörtökön",-8.880037204056144],["biztonság",-8.880324706151047],["miért",-8.880616624675874],["indult",-8.88068307744293],["rövid",-8.881414400328172],["ná",-8.881728164667637],["várható",-8.883709649099593],["cím",-8.8866586286589],["gyerek",-8.886800045023314],["összeg",-8.888227451785008],["növekedés",-8.888281153158236],["napi",-8.889612691235193],["társaság",-8.88963401554981],["oda",-8.891426382151895],["rendelkez",-8.891766751013614],["X",-8.893768838420627],["sokat",-8.894256497691968],["kutatás",-8.8944262789658],["erő",-8.894507203391488],["der",-8.894890545914238],["kapta",-8.896937390385208],["esemény",-8.897313322000688],["arány",-8.89930011262476],["különböző",-8.901343363276059],["alkalom",-8.903339353531889],["jobba",-8.903695924001351],["régió",-8.904761431162552],["szövetség",-8.905723952245054],["szóló",-8.905730567472885],["hatalmas",-8.908213027178766],["okra",-8.909803605489916],["folyamatosa",-8.911086439544999],["line",-8.912873351782839],["Enne",-8.914397369349917],["vá",-8.917962123360965],["átlag",-8.921984276098687],["terület",-8.92216194158241],["körül",-8.922530759883152],["indul",-8.923960293447987],["intézmény",-8.925186329345681],["adás",-8.925565399696962],["igaz",-8.927469995199703],["feladat",-8.928748976694843],["született",-8.929970643261418],["hal",-8.931528462138848],["kon",-8.931932770209698],["március",-8.932221397081731],["lás",-8.932288519937835],["jelenlegi",-8.932900553018925],["február",-8.93466544210728],["lehetősége",-8.935883367277343],["áram",-8.936551361116168],["állami",-8.936705437444484],["oknak",-8.938953629605562],["módo",-8.939488724562231],["haza",-8.941963450264023],["hétfőn",-8.943842756221406],["műsor",-8.945850936417456],["napon",-8.946808616467212],["éhez",-8.94738255192691],["hang",-8.947917224142877],["válogatott",-8.948277313020114],["ic",-8.94969050933831],["Eb",-8.9519127218474],["található",-8.952647157963243],["Minden",-8.953348987526105],["fotó",-8.953394994276703],["reggel",-8.957607328593127],["magasabb",-8.957701333406394],["osztály",-8.958017543956776],["tesz",-8.958652417910224],["60",-8.959496968181998],["ukat",-8.960119878657462],["ivel",-8.960146724019475],["rész",-8.960409483680245],["usz",-8.961795360510587],["döntött",-8.96223631998029],["döntés",-8.962713990874313],["szerdán",-8.962799672535041],["vér",-8.963519656148424],["járó",-8.966487062448167],["tekint",-8.967467203526464],["tel",-8.968485441099428],["ráadás",-8.970261128459427],["játékos",-8.97138014180609],["figyelmet",-8.972989196033991],["“",-8.974620798334998],["ly",-8.974687975417233],["És",-8.975285569782452],["27",-8.97579655314674],["jai",-8.975957107900108],["ce",-8.977270438732637],["valaki",-8.977422231930294],["gyerekek",-8.977534732140256],["jutott",-8.979651929098807],["válság",-8.979689742578357],["betegség",-8.9797074035003],["parlament",-8.979729377810221],["érintett",-8.981686902458026],["hu",-8.98459971329715],["elérhető",-8.98460842127158],["föld",-8.984807125518945],["szól",-8.985782584692286],["rossz",-8.987607829019597],["eszközök",-8.98881936138057],["együttes",-8.989967494303592],["anyag",-8.99243146931282],["egyszerű",-8.993134979018595],["ált",-8.99324655014438],["cégek",-8.993782190166964],["valószínű",-8.99714623561191],["hivatalos",-9.00080955544911],["valami",-9.004591035652037],["május",-9.00567173930423],["hálózat",-9.005721613845314],["tudni",-9.006161158132944],["and",-9.00700161688685],["január",-9.007376386117194],["ette",-9.008447771084814],["áig",-9.008652922641014],["ekre",-9.008774842627968],["kedden",-9.009756271825324],["enged",-9.010110858337693],["jelenti",-9.010713508101567],["lak",-9.012160279255436],["polgármester",-9.012173335753136],["augusztus",-9.013409638760464],["érte",-9.013962233615764],["nép",-9.015981935110332],["emelkedett",-9.016798926193015],["80",-9.017575073815387],["használ",-9.018973384521711],["bér",-9.019661731041035],["forintos",-9.01993593616794],["ezelőtt",-9.020730470812314],["ését",-9.023089966414304],["lakosság",-9.023959440439532],["egészségügyi",-9.02475318324747],["ába",-9.025695163209086],["hivatal",-9.02730830761106],["közép",-9.02783560150562],["szép",-9.029168094740218],["számít",-9.030202524944524],["esetén",-9.030684869229862],["fizetés",-9.031468878205452],["addig",-9.032315760704375],["bé",-9.035278803478587],["mar",-9.036363154882936],["eh",-9.038699243648185],["eb",-9.039076262859645],["ko",-9.039205783635843],["venni",-9.040746823360642],["mennyiség",-9.041153003257875],["kiderült",-9.04133857659862],["minisztérium",-9.043879765221407],["kicsi",-9.04429405219798],["senki",-9.044452014902102],["közösség",-9.04447440680337],["eseté",-9.044665168418188],["70",-9.044722867227703],["központ",-9.045210567462599],["írt",-9.04560875821618],["biztonsági",-9.04636825588279],["II",-9.04772416186351],["gép",-9.04863047570011],["forrás",-9.048764214761375],["bíróság",-9.048797157027117],["Re",-9.051056996865153],["akció",-9.053385213035618],["halad",-9.053941247749602],["számolt",-9.057308188923885],["darab",-9.059382684608934],["jé",-9.059610333692525],["részé",-9.060780323884273],["próbál",-9.063819738415459],["gól",-9.065646126988035],["rendez",-9.065964981472408],["vonatkozó",-9.066133295995915],["július",-9.068021941093999],["oszt",-9.068262995028952],["felvétel",-9.068386793564425],["un",-9.068474479178693],["ális",-9.06887265496107],["szi",-9.069957078296408],["26",-9.07048742554591],["legfontosabb",-9.0711285491279],["bo",-9.0720799290414],["írás",-9.07244917689168],["test",-9.072673391405063],["mindent",-9.072732933528846],["Facebook",-9.073632027168284],["figyel",-9.073988004517506],["szállítás",-9.074366064345098],["láb",-9.07436719182455],["azonnal",-9.074930196543692],["célja",-9.076383176807141],["termékek",-9.076732946959513],["nyolc",-9.077545208476774],["szombaton",-9.07798390413826],["projekt",-9.07892745137407],["Bizottság",-9.0792738004271],["változás",-9.079708241083164],["kapcsolatos",-9.080143893277828],["orban",-9.081879966760791],["tem",-9.082046237801055],["talán",-9.082452667309127],["eredmény",-9.082794516224647],["pillanat",-9.082917388336954],["hatóságok",-9.083610372213247],["elem",-9.084947074111632],["végzett",-9.084992686124096],["őt",-9.085630095630673],["előszö",-9.086720529991418],["tünk",-9.087970502398118],["Unió",-9.090681404624766],["von",-9.091364013690402],["esen",-9.095308561808553],["végre",-9.096679261856341],["politikus",-9.097295557226122],["segít",-9.09798379469441],["többször",-9.09891598208564],["János",-9.099277557530982],["arc",-9.099566835726293],["üzem",-9.10003791164987],["érkező",-9.100187209111724],["adta",-9.101740192651995],["Egyetem",-9.102294599457558],["mo",-9.102458630754462],["nevezett",-9.102895455424159],["kapcs",-9.10299018050046],["talál",-9.103010001036612],["ág",-9.104232745212611],["április",-9.105063165731302],["külföldi",-9.106284683098414],["ingatlan",-9.10711438401136],["ását",-9.109123961977126],["közötti",-9.109284613772532],["Fel",-9.110272890276526],["életét",-9.110889578074474],["lő",-9.112322506338725],["fogyasztás",-9.112486774842296],["hangsúlyozt",-9.112702557846747],["munká",-9.115913226179078],["román",-9.115975611208654],["forgalom",-9.116219707064275],["kínai",-9.116742501403422],["csup",-9.116893675477103],["dr",-9.11729267640316],["felelős",-9.11865397855408],["Á",-9.119426288132566],["man",-9.121972859057152],["június",-9.122633364812472],["hitel",-9.122888930015588],["folyamat",-9.12322896889184],["vezetés",-9.126535045700518],["Ferenc",-9.127802790870666],["lenni",-9.128468442584953],["bank",-9.128767434005635],["kórházba",-9.129386027821784],["Hozzátette",-9.131450064772483],["tenni",-9.131864247169982],["Zr",-9.132083542953911],["beszél",-9.132633311316972],["ított",-9.133874823118425],["csökken",-9.134416963853756],["28",-9.137677716489023],["rengeteg",-9.140518948038586],["Bank",-9.140624833152645],["adatai",-9.140694300407691],["ismer",-9.14079604169752],["közlemény",-9.141486777971823],["erők",-9.141736246392338],["oroszok",-9.14258371638983],["sőt",-9.143774098440494],["település",-9.144167597950087],["azóta",-9.144281933184779],["kellene",-9.145046548277001],["ikus",-9.145100298393157],["kamat",-9.145117460182444],["éből",-9.145316224734387],["ró",-9.145404351609876],["kezdte",-9.145715242953397],["pénzügyi",-9.145769504219547],["talan",-9.146050768580942],["forinto",-9.14622830482396],["okon",-9.146327217300993],["napok",-9.148957075498489],["tanács",-9.149196945847924],["NATO",-9.149580936475498],["számol",-9.151215298709062],["fehér",-9.15150688245446],["könyv",-9.152654852910615],["beli",-9.153196195065107],["főváros",-9.153199579083541],["szerepel",-9.15377697118177],["zárt",-9.15405674793934],["köztü",-9.155362850961556],["Ukrajná",-9.156437768375433],["szín",-9.157763947610121],["ször",-9.158238707920411],["közlekedés",-9.15880246582877],["tartoz",-9.159476790679394],["ll",-9.16417341542006],["keret",-9.164655440562607],["időben",-9.165238588979076],["NB",-9.16542344913136],["beteg",-9.165702811914056],["son",-9.165859928897003],["%",-9.166698547104838],["töltött",-9.166860193506459],["ipari",-9.168415052115552],["35",-9.168458865316781],["beruházás",-9.168539695493399],["adni",-9.168723093885765],["zár",-9.1687718829126],["pi",-9.169317224302219],["jelölt",-9.170110162702802],["co",-9.17038281250565],["elé",-9.17042135168572],["átlagos",-9.17084095493341],["soha",-9.171120833466695],["Két",-9.17264039817367],["ény",-9.172795822967839],["kább",-9.173109950221656],["emelked",-9.175000315035888],["kér",-9.176333503825857],["eljárás",-9.177355741303952],["hon",-9.17743255493026],["járt",-9.178057834836805],["bíz",-9.178320973076268],["nemzeti",-9.178885272577183],["rendezvény",-9.179206220005188],["ut",-9.179938693348806],["formá",-9.181339100679761],["állít",-9.182339073376674],["kampány",-9.18353495562479],["kkel",-9.183813128867381],["aszt",-9.183944840508172],["kapcsolatba",-9.185022538912602],["atlan",-9.185338616249712],["tudott",-9.185642010850962],["zó",-9.186036642673253],["nyugati",-9.186229639875116],["francia",-9.189973348359505],["szerepe",-9.192298781466949],["használat",-9.192342714566962],["sajtó",-9.192820641597336],["szakmai",-9.196640664732836],["dél",-9.197330424019128],["történet",-9.197453286702245],["fogja",-9.198657674725936],["kezdett",-9.19904082420955],["élelmiszer",-9.199203012839146],["emlék",-9.199608768477024],["véd",-9.199953296743086],["Szent",-9.200985922064776],["találkoz",-9.201104714611116],["tag",-9.201539127872365],["választ",-9.201606330562115],["hozott",-9.201867951674965],["fizet",-9.201872845993861],["független",-9.2025302877054],["Németország",-9.203107873203123],["szal",-9.204863039023461],["találta",-9.205950462157997],["régi",-9.207167196006488],["soka",-9.20741515097231],["oltás",-9.208538750910904],["szereplő",-9.208946192393244],["negyedév",-9.208980422584268],["különleges",-9.208989189334673],["jármű",-9.20935039767471],["számlá",-9.209373252562958],["pontos",-9.209805506931406],["oly",-9.210181449476234],["fény",-9.210401166712145],["baj",-9.210446882587128],["tiszt",-9.210601489795991],["gyakra",-9.211334128670437],["budapesti",-9.212202912524202],["kötött",-9.212314341106719],["segítségé",-9.2125672561008],["közé",-9.213688218490962],["ezút",-9.215594812301626],["válasz",-9.216111724265229],["vásárlás",-9.218659691003566],["hullám",-9.2187947392448],["ától",-9.219039736561372],["egyszer",-9.220129123048565],["nyitott",-9.221123955874894],["ós",-9.221770532327316],["gyorsa",-9.222311769351355],["nyer",-9.222488458982681],["lépett",-9.22288062959352],["ideje",-9.224517205697868],["többek",-9.224711421821507],["jét",-9.224736803398748],["nevű",-9.224922422926971],["klub",-9.225244799542635],["rendkívül",-9.226255119299967],["színész",-9.227886958700145],["vizsgálat",-9.22815267638229],["térség",-9.228242428880387],["szerzett",-9.228571540994087],["forduló",-9.230467443544072],["országban",-9.230548879707305],["90",-9.232473631279742],["előadás",-9.23258197370567],["szezon",-9.232899886085093],["modell",-9.232925284079261],["orvos",-9.233138197014371],["vég",-9.233309337544913],["találkozó",-9.23404534428471],["képzés",-9.234108484642183],["friss",-9.234651444326257],["ésére",-9.235059657479944],["lengyel",-9.235076616113773],["közönség",-9.23508423157805],["állat",-9.235182069920896],["őr",-9.236373444649706],["id",-9.23659141057227],["érkezik",-9.237439979415097],["dik",-9.237658251446149],["mégis",-9.237670764297873],["tegnap",-9.238292089490102],["nyújt",-9.238321428128117],["kezelés",-9.240286691501888],["személyes",-9.24115338406504],["séget",-9.241289839646388],["havi",-9.24155158943417],["jellemző",-9.241715087714304],["országos",-9.243550857425767],["Fi",-9.244415312060578],["tagjai",-9.24499954463801],["zavar",-9.245305591388961],["követ",-9.245335479448862],["29",-9.24608320088121],["segítség",-9.246983261310685],["jelentés",-9.248567431351608],["Azt",-9.25088661458959],["visel",-9.251429612779095],["mény",-9.25270288539819],["erősöd",-9.252741198909538],["úr",-9.253940877713557],["jával",-9.254866890126959],["fal",-9.254948809662963],["zni",-9.25576492339972],["vagyis",-9.256236539152454],["Még",-9.257431221683719],["mostani",-9.257707936364643],["bizottság",-9.258488360020914],["barát",-9.260802823240919],["Köz",-9.261284953516263],["társ",-9.261850450313842],["hőmérséklet",-9.261878122514219],["idején",-9.262191609323741],["jára",-9.262951937402857],["ítás",-9.263726135016286],["méter",-9.264029989801584],["eszköz",-9.264241506567206],["termelés",-9.264666452893373],["persze",-9.264756419892748],["épp",-9.265501558806088],["iskola",-9.266584475881203],["területén",-9.267149782385463],["tartás",-9.267423671679689],["ővé",-9.268210965004787],["SZ",-9.26858680851432],["egykor",-9.269529573999119],["lel",-9.269796431956584],["szakasz",-9.271231118955157],["hadsereg",-9.272130367246488],["élmény",-9.272528657844195],["tár",-9.272837101973124],["enek",-9.273493963425508],["élete",-9.274136381663386],["bizonyos",-9.274268812863188],["Zoltán",-9.275554088647727],["visszatér",-9.275755996034349],["gond",-9.276100618236322],["tartj",-9.278195821000093],["mögött",-9.279001817740468],["mérkőzés",-9.281258471915164],["úton",-9.282001462401936],["erdő",-9.282826476501356],["Debrecen",-9.282836708689452],["ozás",-9.283873549790343],["létre",-9.284925523073404],["együttműködés",-9.285351491821167],["elsős",-9.285985073763783],["zöld",-9.286001686974075],["ást",-9.286212882019466],["bal",-9.286951132931074],["igény",-9.287104957333622],["igazá",-9.287263521924467],["telen",-9.287937432373496],["végig",-9.2880747997677],["cz",-9.28824750853604],["ására",-9.288639034156546],["do",-9.288699620198745],["csomag",-9.289264321541134],["iránt",-9.289824181470667],["halál",-9.289948432839385],["500",-9.29160581323736],["változ",-9.2929910026936],["In",-9.293244060244096],["női",-9.29418121208716],["jegybank",-9.294417587027684],["lal",-9.294514590003983],["mindössze",-9.295566151364469],["hatj",-9.299597158341836],["szakember",-9.301155446842436],["nevé",-9.301932885547757],["arany",-9.302550732361242],["mondott",-9.30265167924735],["részét",-9.302783250444179],["ru",-9.303172724323517],["elektromos",-9.303483803206877],["üzemanyag",-9.30360577083637],["Tamás",-9.30378314162056],["vették",-9.304237075239223],["pontosa",-9.306660479311539],["konfliktus",-9.30702463263384],["labdarúgó",-9.307024671386557],["egyértelmű",-9.307027074703417],["szerte",-9.308363682268514],["mer",-9.309090537055786],["globális",-9.31058335392433],["szerződés",-9.31128175870904],["jel",-9.31149819061623],["fizetni",-9.313462169766346],["látsz",-9.313472748512257],["előny",-9.314333180483281],["jövőben",-9.314453007413938],["földgáz",-9.31461661535253],["kislány",-9.315977840597728],["egyéb",-9.316270321842275],["zik",-9.316916665783491],["meccs",-9.316997519872313],["mutatj",-9.317234994620456],["választott",-9.317832253367989],["tuk",-9.319894999912899],["alakul",-9.320304757594776],["Br",-9.32062868218955],["nevez",-9.321558312799981],["Ne",-9.322776011077327],["endő",-9.32324941156039],["tervez",-9.32478368504474],["források",-9.324980978099559],["telefon",-9.325224184439294],["öröm",-9.3257291393647],["szerel",-9.326476815587622],["nyár",-9.326992984046896],["okoz",-9.327087447530403],["gyár",-9.327608844472376],["eddigi",-9.3277309230299],["mozgás",-9.330008615095064],["vezet",-9.330578667428764],["nyert",-9.333355627324384],["szolgálat",-9.3335306253845],["tagja",-9.333712047193933],["okozta",-9.335589992458328],["Y",-9.335846829688043],["ült",-9.337008037919794],["po",-9.337198983507768],["Mar",-9.337284158618338],["Ro",-9.33975997690429],["kapu",-9.33983619733155],["indított",-9.340429144628118],["sikeres",-9.34077214214296],["családi",-9.34088703769013],["talált",-9.341250951956136],["eknek",-9.341622044095743],["ítés",-9.34198955383381],["alig",-9.342119156017636],["31",-9.342500093534511],["Sándor",-9.343195715087756],["Európába",-9.343631378178637],["tenger",-9.346555425492983],["Mind",-9.34885035766428],["közvetlen",-9.350632561475173],["digitális",-9.350720239151144],["alkalm",-9.353812098589694],["többi",-9.354750185849953],["magán",-9.355557751649247],["vállalatok",-9.356039019251845],["csúcs",-9.35736867063144],["ekkor",-9.357793465384848],["Országos",-9.359045637428466],["szempont",-9.360851246911412],["jut",-9.361046090938995],["alakult",-9.361604097569133],["használt",-9.363678838349784],["területen",-9.366420008809008],["tájékoztatás",-9.367259320973883],["Bo",-9.369747467808617],["bevétel",-9.370491478850667],["kínál",-9.37130482136611],["ex",-9.371605491165694],["veszély",-9.373040178510966],["Attila",-9.373103751734067],["megjelent",-9.373361941402514],["vány",-9.375574461232425],["hatatlan",-9.377172685057559],["vétel",-9.377644081775227],["hisz",-9.37836080560039],["csatlakoz",-9.378916031301568],["kert",-9.379011768380956],["Gábor",-9.380723254327012],["játsz",-9.38216405829603],["of",-9.382332627381906],["általán",-9.382333072388263],["aktív",-9.382484230164167],["rom",-9.383915626501917],["met",-9.384467576033522],["egészség",-9.38463165143671],["külügyminiszter",-9.38465476385187],["int",-9.38718820479668],["eső",-9.387745497892197],["András",-9.388629585749008],["iskolá",-9.389638075615391],["követel",-9.389902277941932],["jegy",-9.390001478058283],["tartani",-9.390235221586611],["tör",-9.393166479302142],["ruhá",-9.393493306627818],["Mo",-9.393567639249031],["fiatalok",-9.393957347525232],["államtitkár",-9.396165915294432],["negyed",-9.396407808680014],["napos",-9.396427420017925],["továbbá",-9.39857162531085],["irány",-9.399425291730758],["Kf",-9.400532653933535],["felmérés",-9.400612373238218],["Jó",-9.402048061721384],["körülmények",-9.40228487872805],["nappal",-9.402375962920257],["bu",-9.40265297011517],["üt",-9.403158075186536],["örök",-9.406088200432528],["nyugdíj",-9.406455858554866],["általános",-9.406645798784346],["zott",-9.40674121090657],["játszott",-9.406804702323825],["mentes",-9.407443909373654],["Fidesz",-9.407861233100455],["dolgozott",-9.409197157610407],["intézkedés",-9.409601414860216],["ották",-9.41046423017913],["napja",-9.410497602888018],["keretébe",-9.411042683672491],["dolog",-9.411795406166082],["eredeti",-9.411815292659266],["forgalma",-9.41184459382676],["közepé",-9.412666390770298],["nyal",-9.413451084377812],["park",-9.41346075161136],["küld",-9.413560515782109],["vendég",-9.415289743683504],["támogatást",-9.415312313854818],[";",-9.415745703776814],["nal",-9.415982742096958],["különöse",-9.416464197284432],["mértékbe",-9.417002840224185],["negyedik",-9.417065502661869],["űr",-9.417626131935833],["egyetem",-9.419272350461688],["szünet",-9.419557195141875],["mindkét",-9.420936606371606],["pl",-9.420989252770609],["kár",-9.421220283327656],["melyek",-9.422277978751822],["kormányfő",-9.423711405386495],["öm",-9.42380988911533],["várt",-9.424818563838347],["nyomás",-9.425089824096373],["kockázat",-9.427520311101963],["Kijev",-9.427699674533102],["hamarosan",-9.427939537396579],["olasz",-9.42819932162529],["csi",-9.429074587835007],["szik",-9.42997350780395],["hosszabb",-9.430363580469262],["véget",-9.430917315849948],["csinál",-9.431064355979636],["magam",-9.431284055174665],["fesztivál",-9.431714089383664],["legin",-9.432208959485578],["pénzt",-9.43259304483039],["No",-9.43261952892939],["tervezett",-9.433044001068343],["part",-9.434796810036651],["várhatóa",-9.434813972828591],["alacsony",-9.434931693090375],["vállal",-9.435004225889145],["sztár",-9.435141297647103],["mutató",-9.436752700909448],["ébe",-9.43751331123855],["vas",-9.43844612451215],["kérte",-9.439684639529652],["debreceni",-9.439794926877152],["nyelv",-9.44202750335695],["export",-9.442084146222175],["terv",-9.442242675692603],["képe",-9.442257405282813],["mondja",-9.442490422922312],["eken",-9.443032033432885],["75",-9.443135356708153],["kíván",-9.443339301426914],["nagyjá",-9.444167595211331],["ász",-9.444813687722789],["kezdődött",-9.4450092141068],["Li",-9.446889577895384],["ránt",-9.447252156328174],["közölt",-9.447758246461778],["kilenc",-9.447907315528678],["gyártás",-9.44890522444252],["bel",-9.449238338903829],["elhunyt",-9.449498574208846],["lehetet",-9.450723878330344],["megye",-9.450765499078194],["működés",-9.451062411214874],["kiállítás",-9.451208702136189],["felett",-9.45171752182798],["biztosít",-9.453261175285412],["csökkenés",-9.453576053544966],["magyarok",-9.453785613049607],["nyílt",-9.454729120976388],["boldog",-9.455244997473816],["ellenőrzés",-9.456155233497912],["Itt",-9.456387053987953],["kereslet",-9.45662587763428],["papír",-9.456653097792982],["ipar",-9.456918361455767],["bajnokság",-9.456927575632427],["oktatás",-9.45694225289904],["Hogy",-9.457027290635962],["látj",-9.45776707411855],["lan",-9.458563246113641],["belső",-9.45859788417144],["einek",-9.458934203877343],["hajó",-9.460443981968687],["áru",-9.461519615607743],["sí",-9.46159432440667],["részben",-9.461636446721561],["védő",-9.461683723267068],["áldozat",-9.462330927592264],["gyakorlati",-9.462856412180228],["megállapodás",-9.463108444990555],["neve",-9.464076604041876],["György",-9.464436876222777],["szektor",-9.464452236183796],["kocsi",-9.464477837756522],["értéke",-9.466658456865972],["javaslat",-9.467744458066772],["ány",-9.467879978134594],["koncert",-9.467885093903206],["Csak",-9.470241907286201],["hatóság",-9.470822326454758],["öz",-9.473512937609451],["tavalyi",-9.473872210658351],["költség",-9.474147884176494],["bejelentés",-9.474557639631605],["ülés",-9.475450019417238],["ván",-9.476309365086523],["Zelenszkij",-9.476989244372685],["pályázat",-9.477003976607216],["ozott",-9.478840719194125],["TV",-9.480503702229058],["ítani",-9.480705396725547],["hetetlen",-9.481546206901792],["magyarországi",-9.481921957214148],["csapatok",-9.484282176503845],["véli",-9.485113241957762],["szolgáltató",-9.485421141800263],["látta",-9.48570924196559],["300",-9.486272047269651],["kutató",-9.486739543601448],["szállás",-9.48851418443165],["gó",-9.488817721267141],["mat",-9.489201721717837],["ások",-9.489379923416921],["Észak",-9.490023070871112],["előbb",-9.490685847579476],["ennyi",-9.491020801011116],["Gy",-9.491136176182394],["igazi",-9.491519238036624],["vonat",-9.491902165835505],["vállalkozások",-9.49350162355136],["közelébe",-9.493907928928447],["pozitív",-9.493974766609696],["Van",-9.494566218858736],["mondani",-9.495572450158335],["halálos",-9.49590723282915],["férfit",-9.49609788695192],["művész",-9.496320794385554],["problémák",-9.49738774075174],["Új",-9.498545142223234],["természetes",-9.499124709500638],["látni",-9.499282349844492],["Ukrajnába",-9.500789918943262],["por",-9.502038016799737],["információ",-9.502523087128473],["kiemelte",-9.503630870733375],["ente",-9.503858835088142],["nevezte",-9.503860172627087],["gyakorlat",-9.50405644205065],["ünnep",-9.504108118888471],["vagyon",-9.50478944820346],["oló",-9.505247307140005],["edző",-9.506202678823573],["időt",-9.506626806114266],["hó",-9.506946836523078],["lég",-9.507200964693023],["állított",-9.507715224666015],["váltás",-9.509036861190076],["gyártó",-9.5091482814498],["utaz",-9.509897691155349],["lyel",-9.511006662393967],["Vlagyimir",-9.51125378553811],["hangulat",-9.513337330982065],["szállított",-9.513838022563544],["hagyományos",-9.514562899043694],["körülbelül",-9.516048326225288],["megy",-9.516297126267336],["utas",-9.51659823322779],["cse",-9.51854342951117],["ős",-9.518634868107943],["mér",-9.519235999836635],["zon",-9.519893897676717],["…",-9.520006562577102],["Szövetség",-9.520006910032883],["háborús",-9.521479729993782],["poszt",-9.521652715123691],["mód",-9.52213169265477],["hozta",-9.522449440092217],["érkez",-9.523410675440319],["mobil",-9.524869991493988],["ide",-9.525233967569402],["nyilatkoz",-9.52579955927883],["vágy",-9.526683004127296],["Elő",-9.528337572811253],["áció",-9.528547059916374],["biztosa",-9.529153368261918],["nemzet",-9.530210663099481],["En",-9.530243688186498],["költségvetés",-9.53084603541512],["anya",-9.530978794026865],["vége",-9.5313790027366],["különbség",-9.53329673882206],["dolgozó",-9.533621679194757],["árfolyam",-9.533776683682154],["épített",-9.534446450685028],["Ol",-9.535017253520072],["keleti",-9.535077667959552],["Ezen",-9.535124346066937],["működő",-9.536712376324427],["fordít",-9.537467767197915],["áron",-9.538208111802572],["olás",-9.538233306889072],["jen",-9.53851409766163],["lin",-9.538575119491432],["civil",-9.539012853978107],["tervek",-9.539058227652362],["É",-9.539766633082905],["sajn",-9.53986363590054],["rendőr",-9.53992268990921],["Di",-9.540021619196892],["köt",-9.540325330423535],["derül",-9.54070068457317],["egyház",-9.54107318700778],["templom",-9.542229879174485],["plusz",-9.542380318458566],["teszt",-9.542474306758082],["tétel",-9.544693189977508],["alma",-9.545473988217061],["ho",-9.545536895608798],["láthat",-9.545684587426422],["rég",-9.546341069517423],["vírus",-9.546718797262784],["kapacitás",-9.546734186943414],["sé",-9.547107934817927],["angol",-9.547598999228903],["felnőtt",-9.547762615821641],["tűzoltók",-9.547784596559085],["nunk",-9.548645725229424],["városban",-9.549930191461828],["éri",-9.550484175335852],["mentő",-9.551614080803454],["Ugyanakkor",-9.55194168241115],["ád",-9.55332259784894],["érzi",-9.55357041506327],["tanár",-9.553900438413992],["Gergely",-9.55580460797046],["Dr",-9.557075843214292],["természet",-9.557506952318676],["legmagasabb",-9.557670735905447],["portál",-9.558207203283935],["utal",-9.558403270037257],["adtak",-9.558931774230519],["munkát",-9.559246968303011],["kezdőd",-9.55966823710796],["kül",-9.559851644843963],["veszi",-9.560113114199941],["hivatkoz",-9.560370724580991],["alapvető",-9.56037086577711],["helyet",-9.56128731679972],["kereskedelmi",-9.561368130312252],["Bors",-9.563566412386196],["import",-9.563650413282826],["szén",-9.563709521999176],["óriási",-9.564197222623816],["szent",-9.564393641806415],["tábor",-9.56457732534583],["eredménye",-9.56483741966128],["Nyugat",-9.564957876991127],["levegő",-9.564960293329841],["információk",-9.565199870007618],["ozó",-9.565268469060001],["szét",-9.567068502765329],["Ő",-9.567798374183436],["hetett",-9.568167016762136],["jék",-9.568300966496414],["kötelező",-9.568620869084858],["téren",-9.569024584328716],["du",-9.569028259412574],["The",-9.569047841249343],["asszony",-9.569566170388235],["tartják",-9.569771548143315],["szék",-9.571112149356566],["ell",-9.57304544376996],["hit",-9.57313312303972],["OT",-9.574129504499243],["szenvedett",-9.574706903815969],["falu",-9.576007745859144],["média",-9.576349429934247],["tál",-9.576817680050542],["hírek",-9.576983180382356],["rajta",-9.577416346888295],["ségét",-9.577458865109154],["területek",-9.578964683418437],["nemrég",-9.579345242879818],["kért",-9.580423653047216],["folyó",-9.581045400275205],["készített",-9.581349886345023],["sors",-9.583450849486132],["szerda",-9.583755415709923],["34",-9.584711472353643],["sziget",-9.58482097234619],["Központ",-9.585288631560609],["Megyei",-9.585585445287638],["kínálat",-9.58578195463263],["400",-9.585942568513385],["hívta",-9.586218606080964],["szállító",-9.58628891563627],["Kar",-9.586812542043],["indít",-9.587549079704111],["Bar",-9.587727661930913],["Kína",-9.588218466871442],["emelés",-9.58984604375637],["király",-9.5905512386759],["fiú",-9.592074084239272],["etlen",-9.592565023166522],["József",-9.592931676684676],["Zsolt",-9.593053140675035],["vonal",-9.593072257765854],["foglalkoz",-9.593422323628005],["helyez",-9.594648467588708],["Ugyan",-9.594892641593244],["remek",-9.594936006411888],["38",-9.596373892643365],["baloldal",-9.596438583590553],["junk",-9.596735731145067],["igazgatója",-9.597009327745749],["egyedül",-9.597446248395798],["vállalkozás",-9.598197377623517],["várja",-9.598621390997668],["lakó",-9.59885190486705],["délelőtt",-9.59952973220759],["díja",-9.599596992751273],["nyel",-9.599928578823064],["szervez",-9.600906117207927],["befektetés",-9.602461616027819],["intézkedések",-9.602854057287413],["esti",-9.604603077840622],["kezd",-9.60472372477523],["mély",-9.604826374031617],["közösen",-9.604848575801824],["ec",-9.6063655929133],["előtti",-9.606466006878911],["Sok",-9.606499899475612],["embert",-9.606545921320112],["igazgató",-9.607893093564705],["199",-9.607906483997468],["állítj",-9.609921393586665],["mások",-9.609997311732034],["megjelen",-9.610689750899848],["vidék",-9.610903407052849],["lapunk",-9.6111967192342],["élt",-9.611201648186967],["felesége",-9.611361421778291],["Lengyelország",-9.612025299860502],["lehetséges",-9.612054560783024],["vádlott",-9.612080502267942],["haj",-9.612171212367166],["rekord",-9.612668362223156],["készít",-9.613546947401957],["nyilvánosság",-9.613599394612844],["kommunikáció",-9.613907407960518],["jogi",-9.614664450811533],["hibá",-9.615411031260557],["bajnok",-9.615484691220235],["ített",-9.61552602213974],["vezetet",-9.615541305953077],["folytatás",-9.615870363080774],["kezé",-9.616231006825384],["vezetői",-9.616580637698378],["44",-9.617830789840434],["helyre",-9.618039652060213],["költségek",-9.618730241361817],["37",-9.619355165239183],["Ny",-9.61946017280583],["lik",-9.62086866926808],["kilométer",-9.620891045863097],["Na",-9.62253169125789],["béke",-9.62265965965491],["tető",-9.622665938897988],["mutatott",-9.622887774853083],["emelte",-9.62367991520592],["folytat",-9.62383237985268],["45",-9.62503233756836],["érint",-9.625118179168355],["ító",-9.627553962119848],["kettő",-9.627675522132597],["egyéni",-9.627937709364765],["féle",-9.628751228145848],["Más",-9.629230617266675],["onnan",-9.629407537440095],["legújabb",-9.630846434493755],["ságot",-9.631748210002073],["támogatj",-9.632001859906968],["felül",-9.632024470558832],["munkájá",-9.63244259377959],["utca",-9.635510746925018],["tömeg",-9.635612158869147],["szerinte",-9.636689541870584],["olvasható",-9.63672658449358],["Én",-9.63680850562135],["szülők",-9.637653056401557],["számíthat",-9.638543468862967],["mester",-9.63887185120141],["járat",-9.63933910236154],["alkotás",-9.63934044069703],["alkalmazás",-9.639708249715042],["nekik",-9.640393375964653],["olvas",-9.640409507796857],["lét",-9.64073554645855],["Covid",-9.64136765878536],["busz",-9.641870218983971],["ási",-9.642166970145393],["mire",-9.642906243389415],["annyir",-9.643066519106249],["amennyi",-9.643242114135653],["mu",-9.644271687956753],["bolt",-9.64593048097771],["folytatód",-9.6461482823495],["Szabó",-9.646343025662546],["Mag",-9.649557287130602],["ow",-9.649602625558543],["sá",-9.65090923789139],["méret",-9.65136378237762],["hazánk",-9.651613759869964],["győzelem",-9.65170931985689],["atás",-9.651861399625908],["dob",-9.651949706169454],["intézet",-9.652087963637328],["hiába",-9.65209835705058],["harc",-9.652986095396741],["szk",-9.653049090216662],["Emellet",-9.653273419539254],["000",-9.653285832584878],["rt",-9.655907030362082],["álás",-9.656473821043782],["ner",-9.656557322243083],["for",-9.65878524835458],["érvényes",-9.659031288963575],["mellé",-9.66004742837111],["családok",-9.660152354113757],["kelet",-9.660523014430671],["tanulmány",-9.660654677368168],["beszélgetés",-9.660860520523556],["táv",-9.662017225499856],["kiváló",-9.662540094326385],["tehet",-9.662947323599198],["vitá",-9.663124997096972],["rendelet",-9.663249105638773],["old",-9.6633668524846],["látogat",-9.664129242966723],["valóság",-9.664246325776467],["tudás",-9.664552860059729],["pe",-9.664602025601475],["Mol",-9.665427820557857],["ival",-9.666092288199641],["fürdő",-9.666498596953673],["fajta",-9.66697884571304],["jén",-9.66705133450558],["32",-9.667526888133636],["alkalmaz",-9.667715801768544],["36",-9.66806728330683],["idős",-9.668468222973912],["hasonlóan",-9.668498978759839],["összege",-9.669703486889112],["révé",-9.671034845383264],["tettek",-9.671560559086545],["ros",-9.671637962961064],["Ráadás",-9.67163939898097],["tartana",-9.67206144228198],["hagyta",-9.672147234641281],["viszony",-9.673107366766368],["szomszéd",-9.675385589597177],["ügyi",-9.67574228934877],["íz",-9.676412746227792],["Tanács",-9.676749114438985],["vezeték",-9.67830938434345],["téli",-9.67867420081543],["hegy",-9.679121321566003],["folyamatos",-9.67950419499987],["kihívás",-9.679520732199588],["op",-9.680157069278735],["tizen",-9.680483951567178],["öd",-9.680978417577126],["magunk",-9.681281213789719],["könnye",-9.681467940450766],["Mari",-9.681490688862722],["'",-9.681878980731637],["benzin",-9.681913198436789],["említett",-9.682167303312012],["jegyezte",-9.683358647048395],["államfő",-9.683378432668256],["állomás",-9.683497346070597],["jelezte",-9.684657162441255],["ája",-9.684666052238786],["33",-9.684965310200624],["évtized",-9.684974161700048],["emberi",-9.685421122726758],["mag",-9.686051031535545],["ré",-9.68679719297587],["hetek",-9.686852874262913],["tökéletes",-9.687060889901378],["hétvégén",-9.6873778856402],["hallgat",-9.687906561649143],["pályán",-9.688237637865765],["menet",-9.688719396206052],["érzés",-9.688876659820679],["rezsi",-9.689264430465034],["állította",-9.689405671579],["támogató",-9.690042268096326],["mindez",-9.690483038721897],["Dél",-9.69050918640872],["meleg",-9.690820535031794],["nyári",-9.69207910082904],["fekete",-9.692364020671363],["távol",-9.692440704232038],["bejelentette",-9.692603037382515],["dolgok",-9.692757232967772],["Ja",-9.692799476921913],["okozott",-9.692866325259821],["bajnoki",-9.693000006540668],["tartozó",-9.693080362963869],["író",-9.693953328969226],["vendégek",-9.694353729141351],["katonák",-9.695232719115687],["népszerű",-9.696104180117723],["menekültek",-9.696292707931963],["Nap",-9.696349070969791],["észre",-9.69708632561847],["So",-9.69746053231254],["emelkedés",-9.697678674037338],["időjárás",-9.697778368737636],["szakértő",-9.698559689930653],["szakemberek",-9.698718153278977],["par",-9.698806395307294],["szeretne",-9.698845181855082],["menekült",-9.699496126550713],["pal",-9.699911383860094],["kiderül",-9.700005526687397],["pontot",-9.700708951415203],["sék",-9.701026422684228],["évi",-9.701772512750633],["felújítás",-9.702408686954076],["index",-9.7024758918987],["Instagram",-9.702767421221083],["probléma",-9.702767421274235],["Varg",-9.702776688871015],["ötödik",-9.702793373391536],["zajl",-9.703975334408739],["Akkor",-9.704252493887715],["zene",-9.704759974716088],["szeret",-9.706355127292237],["Ko",-9.706654091247554],["asztal",-9.707061805958716],["Év",-9.707233189266649],["Ami",-9.707323813941857],["ron",-9.707475064127646],["helyek",-9.707715506597324],["sérülés",-9.7081686811424],["szülei",-9.708281746327426],["tudju",-9.708940098110322],["engedély",-9.710802394931935],["gyermekek",-9.710810928777285],["nyilván",-9.710896497060363],["körüli",-9.710997463619535],["39",-9.711274463050433],["éven",-9.711830223037833],["fejlődés",-9.71188334524983],["csapata",-9.713054226652169],["negatív",-9.713379581653165],["fordul",-9.713448013765124],["ium",-9.713690476896506],["dolgozni",-9.716937150230434],["széles",-9.717647566221702],["pályár",-9.717732056263861],["Twitter",-9.718725658642967],["polgár",-9.719161090965565],["növek",-9.719408669062243],["változat",-9.719840347238451],["közzé",-9.720627660719481],["kéz",-9.72131746117978],["sák",-9.721349140017686],["tri",-9.721621504830223],["vitt",-9.721741918496413],["interjú",-9.721923531279064],["házi",-9.722931557987767],["kórház",-9.723801730402812],["GDP",-9.724106805868386],["külső",-9.724245288913808],["segítsége",-9.724524080328539],["gyermeke",-9.72459060202091],["azonos",-9.72482444352557],["következté",-9.725250125413996],["autók",-9.72537574696369],["diák",-9.726641088976887],["másfél",-9.727133916247919],["szándék",-9.727466886163585],["kész",-9.727915541802911],["felület",-9.728878504434489],["látott",-9.72897928255405],["Zay",-9.729787902593126],["mos",-9.729849798461757],["anyagi",-9.72994563139979],["módszer",-9.730179321928805],["nyugat",-9.730479764175943],["sokszor",-9.73190579860236],["szülő",-9.732052468108236],["igényel",-9.73301469359452],["köszön",-9.733291381869774],["nők",-9.734385913152437],["nyire",-9.734530870604374],["kapcsol",-9.734678287293324],["vál",-9.735025611259495],["tulajdonos",-9.736094160295025],["kiadás",-9.737696842259481],["húsz",-9.73775048435218],["énekes",-9.737917989152269],["kemény",-9.738946060839805],["színház",-9.739307369171406],["érkezte",-9.73947090743419],["szeretnén",-9.740385498310676],["könnyű",-9.740536430222434],["szorul",-9.741695359487332],["szerzés",-9.742040999121503],["Er",-9.742582146914202],["szakértők",-9.743287740865116],["péntek",-9.745173727287927],["modern",-9.745200751503859],["szabály",-9.745793120746903],["Tóth",-9.745901192456202],["ágazat",-9.745981245999396],["szobá",-9.745996425891242],["felső",-9.74631199199241],["szüksége",-9.74658474832848],["ber",-9.747180575223677],["menni",-9.747406072086982],["társa",-9.747442083106609],["függ",-9.747906628687765],["kísérlet",-9.748150061955654],["teremt",-9.74825117923801],["fertőzés",-9.749035292337808],["Te",-9.749175920610902],["szervezetek",-9.749529628603703],["szabályozás",-9.749737314518306],["témá",-9.75003948749066],["érze",-9.750275268482053],["helyettes",-9.751371686226422],["ütem",-9.7539039119519],["napján",-9.754959794016317],["rendelkező",-9.755067797207394],["ud",-9.755581000916575],["kov",-9.755671647697003],["Jo",-9.755930065552317],["41",-9.75595711958442],["Balázs",-9.756981549955356],["példa",-9.756981819437739],["hajtott",-9.757172063576746],["épít",-9.75885677436919],["hő",-9.7588971327026],["emmel",-9.758906016261953],["del",-9.75970828883619],["többsége",-9.759749636223543],["napokba",-9.760180776517274],["állítás",-9.760820993045694],["nekem",-9.761604939474097],["emelt",-9.76198014326188],["segíti",-9.762128416591139],["ottak",-9.76221552142167],["technológiai",-9.762364064995188],["Ilyen",-9.762580300881618],["fe",-9.762619362449353],["érezte",-9.762948768894475],["városi",-9.76298354476269],["kérdések",-9.763252455794806],["tőle",-9.763692680229878],["kezdet",-9.763820960189172],["had",-9.763937751022432],["szerezte",-9.764001656262266],["adja",-9.76431292964788],["meghalt",-9.76446999165123],["egység",-9.76470449786989],["húz",-9.765029824767984],["egymást",-9.765223363889174],["tárgyalás",-9.766531074360119],["szoros",-9.766554214494391],["áj",-9.767002025769083],["könnyebb",-9.76746937295282],["Moszkva",-9.768185789129504],["állomány",-9.768186414156723],["szabályok",-9.768558357216952],["szor",-9.768637387162485],["énekesnő",-9.76867246256046],["tánc",-9.768796466529661],["nyújtott",-9.769401621367791],["természetese",-9.770441408056758],["rakéta",-9.770537766722098],["bír",-9.770556276641205],["dolgozók",-9.770595936504542],["közeli",-9.771723860750626],["veszélyes",-9.772277285174532],["ismerős",-9.772281194311471],["lehetne",-9.772423619639296],["bemutató",-9.772837081733321],["szerencsé",-9.77371169321583],["faj",-9.7738343102743],["történelmi",-9.773860055032433],["rúg",-9.774143988457705],["sérült",-9.774237569138489],["dó",-9.774795915597366],["vezér",-9.775058541413127],["politika",-9.775105456364187],["vő",-9.775429318627292],["Hu",-9.775563675834867],["megyébe",-9.777242416760469],["déli",-9.778361180998644],["örül",-9.778724117023732],["élni",-9.778757245243655],["Debreceni",-9.778901575756283],["tört",-9.778909077117081],["intézmények",-9.778945908997446],["tény",-9.780266329783142],["Tovább",-9.780826872739127],["he",-9.781039798873373],["lom",-9.781169599758297],["tudom",-9.781644150652042],["győztes",-9.781876012485924],["Kr",-9.781922420340168],["55",-9.78245151060368],["New",-9.78251798944661],["unkat",-9.782710832104112],["sága",-9.782930193389504],["ágy",-9.783008992964074],["ismerte",-9.783665974562725],["események",-9.784794505284946],["helyzete",-9.784937539626153],["kétszer",-9.785153897980784],["&",-9.785231496034314],["olimpia",-9.785231887474023],["br",-9.785453656620998],["halt",-9.785659768123542],["esély",-9.785964125226442],["go",-9.78610842925846],["biztosítás",-9.786239643506505],["akit",-9.786628718279704],["segély",-9.786641989866128],["Ám",-9.786776993732198],["sáv",-9.787175479954142],["Szerinte",-9.787258239135848],["tevékenység",-9.787412326278657],["utat",-9.787554330182203],["szerette",-9.788455726311032],["támad",-9.78920909303896],["vehet",-9.78931442573354],["támogat",-9.78935530368399],["körébe",-9.790121216671395],["ideig",-9.79055891612628],["sofőr",-9.790737202529442],["Szijjártó",-9.790978622551853],["invázió",-9.790978622677738],["Fontos",-9.79098072187054],["hírügynökség",-9.791086475268697],["48",-9.791509619878955],["aink",-9.793462840842318],["közt",-9.794189687685826],["számú",-9.795312018771885],["hozzájárul",-9.796257161947988],["udvar",-9.796691103928504],["csapadék",-9.79675949685861],["49",-9.79685549105057],["ánál",-9.79733417485241],["bizony",-9.797336946469166],["elme",-9.798010873029419],["növény",-9.79839881389702],["rendszeres",-9.79840736761583],["fut",-9.7993086013856],["vevő",-9.799768241821418],["kereszt",-9.799974366396711],["cserél",-9.800960228657587],["sincs",-9.802622828630987],["hete",-9.802628924617796],["Lo",-9.802993477549194],["karácsony",-9.80376085696113],["szombat",-9.804459715169587],["immár",-9.80471623234893],["enként",-9.805066086681965],["edett",-9.805159073748527],["gondolkod",-9.805574155253424],["drágulás",-9.806558112920815],["helyzetbe",-9.80673736799556],["nyerte",-9.806801312829535],["melyik",-9.807056757282652],["értékű",-9.807200388670648],["hajt",-9.807636409713124],["országgyűlési",-9.80842401450143],["hajlandó",-9.808436811846304],["levele",-9.808980069530072],["távo",-9.809619957544397],["eink",-9.809911618644753],["édesanyj",-9.81024669625648],["idegen",-9.810263002449958],["fia",-9.810485379957601],["érdeklődés",-9.810694804800555],["szab",-9.810881268548666],["est",-9.810964097557715],["vásárol",-9.811859103421074],["jogszabály",-9.812033196845263],["gyógyszer",-9.813665967804392],["lakossági",-9.813704147504783],["törés",-9.81380463780689],["olni",-9.814014546962458],["Ti",-9.814135583314611],["platform",-9.814236286490466],["testület",-9.8143079870585],["sajtótájékoztató",-9.814351228079344],["csap",-9.814623556104584],["levél",-9.815174029992905],["ájá",-9.815277215551536],["tük",-9.815491736187218],["órák",-9.81723875471539],["vezetők",-9.817501215915687],["pro",-9.817730335103173],["Mindez",-9.819498353928028],["alkotó",-9.819820299997149],["találni",-9.819891384707617],["tárgyalások",-9.82016536882576],["tisztelet",-9.820220714644197],["vita",-9.82032972504254],["véletlen",-9.820387658355893],["segíteni",-9.820424079633073],["kifejezett",-9.820512481005697],["ezre",-9.821518635468442],["nyilatkozta",-9.821909573408123],["fordult",-9.82250079879999],["védelem",-9.823846888531346],["ígér",-9.824575476491109],["építés",-9.82589646176337],["kizárólag",-9.826173606883836],["gyanúsított",-9.826231713862565],["alacsonyabb",-9.826347699524327],["mezőny",-9.826379225388425],["Anna",-9.826381616416077],["izmus",-9.827133896767046],["körben",-9.827479066809328],["legutóbbi",-9.827825672087162],["ellenzéki",-9.82892800691502],["bőr",-9.830433918528456],["kezdeményezés",-9.830593428704107],["szenved",-9.83201219877413],["szolgál",-9.832080788979361],["előzetes",-9.83216126946656],["gazdag",-9.832602035421662],["kezdete",-9.83292828018282],["juttat",-9.833673100282773],["adatokat",-9.835010542427089],["ub",-9.835044691945061],["tényleg",-9.835422130184252],["teljesít",-9.837221666235104],["kiemelt",-9.837362362128186],["némi",-9.837402279261262],["akad",-9.837984052753123],["Nemzetközi",-9.838206235109713],["Biden",-9.838220717733051],["mesélte",-9.838289133765418],["minke",-9.838537569187672],["számított",-9.839108882067517],["politiká",-9.839237621044827],["ikat",-9.839309961885792],["akarta",-9.839824750201501],["beszámolt",-9.840393513800077],["Du",-9.841533811704359],["her",-9.842013957967986],["pu",-9.842415623792228],["kormányzati",-9.84288004184588],["szánt",-9.84291820191967],["Val",-9.84292346978941],["bűn",-9.843098114143928],["eredmények",-9.843906188693378],["Kovács",-9.844246044220107],["zenekar",-9.844457194666372],["utak",-9.844549960411697],["Co",-9.845064877436537],["Sport",-9.845154075234962],["odott",-9.846300235459058],["büntetés",-9.847143684392348],["ff",-9.847198897174682],["láz",-9.84901421962935],["sze",-9.849306678710168],["ítő",-9.850525097987422],["bővít",-9.850929817693949],["jelentett",-9.851056457593677],["motor",-9.85258943436521],["mutatta",-9.853382531437516],["má",-9.853435469399404],["uc",-9.854178993427094],["PC",-9.854405068408038],["emiatt",-9.854511116958232],["alkot",-9.854688057150742],["élvez",-9.854767791500201],["vonatkoz",-9.854875703070874],["választások",-9.854927023758545],["növel",-9.855151219658666],["vásárolt",-9.85523384548561],["elismerés",-9.855257983241692],["Ch",-9.855356882027557],["vág",-9.855775391682556],["tartalék",-9.856480276680205],["csatorná",-9.856497976504123],["ítél",-9.856650820180064],["figyelmeztet",-9.85665669742486],["fűtés",-9.856739869984096],["Olyan",-9.857270361654415],["téve",-9.857370976302127],["energiaárak",-9.85752555487238],["időre",-9.858629055749518],["kori",-9.860980828857716],["atív",-9.86194047493994],["választó",-9.862155046819137],["terjed",-9.86224989297078],["történtek",-9.862264222059554],["Franciaország",-9.862652863595578],["rendező",-9.862946382557148],["üzenet",-9.866644939350426],["futó",-9.86758373193771],["neheze",-9.867961358262555],["tévé",-9.868158027260769],["emlékez",-9.868345885865809],["tol",-9.868728346542408],["ásával",-9.868896704914977],["56",-9.869112307843903],["sportoló",-9.870388768944743],["teljesítmény",-9.870936930982726],["lelki",-9.871130829414607],["hány",-9.87150892346928],["Duna",-9.871998076994192],["találat",-9.872370833165945],["Össze",-9.872534313977981],["egészséges",-9.873091302494359],["SE",-9.873652244799507],["vonul",-9.874496341761663],["reggeli",-9.874729332438807],["hónapok",-9.87476058531826],["ry",-9.874769547487851],["derült",-9.875198461351074],["itthon",-9.875719279160785],["lehető",-9.875780847341929],["hideg",-9.87597600781347],["listá",-9.875982413000639],["mindenképp",-9.87658525916952],["Rendőr",-9.876816242741517],["irányul",-9.87725974431588],["szűk",-9.877726538346025],["versenyző",-9.878012412090223],["esetleg",-9.878995221706994],["csúsz",-9.879013151324088],["43",-9.88017881143146],["fér",-9.880596687789723],["bármi",-9.881394852032926],["Erzsébet",-9.881401354203891],["finom",-9.88155310720169],["Nép",-9.881688734309524],["Királyság",-9.88188792179716],["szeg",-9.88197615883579],["ács",-9.882373635877293],["induló",-9.8824940641943],["származó",-9.882643224407438],["ingyenes",-9.883282146801019],["sose",-9.88357550484122],["védelme",-9.883803350520814],["hatékony",-9.883940395219476],["fejtette",-9.884620689965358],["diákok",-9.884757476333556],["und",-9.88496425102009],["ler",-9.885899272297218],["kategóriá",-9.88616678549366],["vád",-9.88618886945483],["szavaz",-9.886436732639659],["Európá",-9.886978517757154],["íg",-9.887269400136322],["árstop",-9.887734245218418],["Katalin",-9.887747020657596],["hozni",-9.887983757413648],["öv",-9.888856708832424],["íteni",-9.889270914860894],["eladás",-9.88977688493549],["oper",-9.889953872032946],["fogad",-9.890216409152274],["fáj",-9.890246882664089],["lu",-9.892014214199808],["ív",-9.892255607689076],["Ber",-9.89225909631989],["front",-9.892492100491214],["mell",-9.893152421598842],["dollárra",-9.893257065866395],["játékosok",-9.89373699034902],["generáció",-9.894100510065172],["híd",-9.894110148737209],["zett",-9.894443227453149],["légi",-9.894487977298365],["ajándék",-9.894743791884729],["Igaz",-9.894745469713365],["Ház",-9.89475951785311],["remény",-9.894947693848689],["nyomá",-9.894991700370433],["hős",-9.895753816907138],["helyezett",-9.895841238028618],["For",-9.8963864162106],["kulturális",-9.896923213862824],["akart",-9.896971649852105],["erősít",-9.897001911774865],["fogadta",-9.89711597301234],["alapú",-9.897149326390494],["munkatársai",-9.897625372966743],["tartós",-9.897800519120437],["ellenzék",-9.89801120335115],["Erre",-9.898554013982885],["tulajdon",-9.899176667561136],["felhő",-9.89928715595742],["Pál",-9.899326836401173],["állni",-9.899507626569738],["Me",-9.900137810816657],["dönt",-9.900282621379972],["Föld",-9.900517821062007],["felhasználók",-9.901036415424315],["nettó",-9.901078264566928],["esebb",-9.90109765248485],["velük",-9.901182659317834],["apró",-9.901799781478145],["részén",-9.901805930483285],["végez",-9.902331180589782],["határozat",-9.902635161583122],["Sch",-9.902791276629346],["ismeret",-9.902970851239076],["cseh",-9.903167567384145],["lövés",-9.90357221800817],["ásra",-9.903881536288054],["jünk",-9.904274427334414],["zárás",-9.90427640229269],["kijelentette",-9.904817941242936],["65",-9.90545133199532],["stratégiai",-9.906250637845506],["elől",-9.906284497533045],["súly",-9.906779724180883],["szólt",-9.906799379116897],["Brüsszel",-9.906961780946531],["Világ",-9.906961819280756],["biztosított",-9.906972350143175],["állítólag",-9.907007840277736],["értelmé",-9.90701891754479],["állandó",-9.907366991399218],["alkalmas",-9.907609293878018],["távú",-9.907723150187696],["megszűn",-9.908160097995687],["hirdetés",-9.908223732264018],["vélemény",-9.908604085026322],["olj",-9.908831568532833],["félidő",-9.908940936655931],["pá",-9.909406175996768],["igazság",-9.90959968329159],["kedves",-9.909663816784063],["szembe",-9.910003781553002],["részvények",-9.910490146806396],["kerület",-9.910577372416324],["hamar",-9.910837639059887],["múlv",-9.9111526421456],["Kor",-9.912845064148442],["pálya",-9.91312315358819],["képviselői",-9.913189944827593],["virág",-9.913530359037223],["Sajn",-9.913601955076395],["Csaba",-9.913737766789522],["képvisel",-9.914333900722212],["vetett",-9.914522936003223],["adomány",-9.914793943261461],["szállít",-9.91676465250506],["szerző",-9.91743456179304],["létrehoz",-9.917550919463622],["fejezte",-9.918590854504831],["árul",-9.918744583729804],["reg",-9.918808697703138],["felje",-9.920016982703602],["lánc",-9.921052065786093],["záró",-9.921528358600915],["illető",-9.922394322690227],["ker",-9.922543708608021],["foly",-9.923411230875615],["szívese",-9.924254659119882],["ersze",-9.924302743287914],["felhasználás",-9.924637625403198],["szolgáltatások",-9.925166330934793],["támadások",-9.925328192434474],["nincsen",-9.925651708258325],["érdeklődők",-9.925716178096188],["képesség",-9.925914218240129],["idők",-9.925958682674574],["amilyen",-9.926145409204636],["szlovák",-9.926553860371364],["produkció",-9.926570165806018],["fizikai",-9.92657061373982],["kerülhet",-9.926768041830288],["jelentése",-9.927015484132633],["ügyészség",-9.927067185870134],["Idé",-9.927706735186572],["küldött",-9.927738577873576],["Arra",-9.927833708437907],["tüntet",-9.929143230128837],["tél",-9.929157296968405],["tárgyal",-9.929397941861172],["zárta",-9.930575019411956],["ellenes",-9.930665319530886],["dor",-9.93082236082417],["bűncselekmény",-9.931310322538629],["biztonságos",-9.931746390685959],["kezelő",-9.931757803634916],["szeretet",-9.932266449625875],["mérték",-9.932575791558492],["stabil",-9.93286575922226],["Kis",-9.933059511426993],["igyeksz",-9.93322660384297],["becsül",-9.933361353602393],["szokás",-9.933603749375111],["létez",-9.934048979249564],["javít",-9.934104164215313],["nyomozás",-9.934124187092179],["külföld",-9.934385848962208],["napot",-9.93452265589605],["lé",-9.935104022747112],["utazás",-9.935364714139439],["csal",-9.935570700146634],["tölt",-9.935590840745594],["hö",-9.935686433045525],["váltott",-9.935936871136226],["tar",-9.935975577015878],["igénybe",-9.93611467709508],["esetek",-9.936297011536611],["Su",-9.936309638579868],["koz",-9.93673744143525],["fővárosi",-9.937776643456235],["ger",-9.938236893674116],["vadász",-9.938303613281022],["vasút",-9.938759150153844],["pozíció",-9.938973749623194],["egyszerre",-9.939045568681141],["észak",-9.939692651585517],["Ü",-9.939859307921864],["társadalmi",-9.93985968200355],["fekvő",-9.939862623051763],["irodá",-9.939890509561952],["feletti",-9.940195724468104],["rendszert",-9.94020864635282],["idejé",-9.94101681334524],["erejé",-9.941331845534913],["dollárt",-9.941753346861553],["részvétel",-9.942027609822084],["végezte",-9.942141115208358],["úsz",-9.942153392725547],["ukránok",-9.942208631522625],["eurót",-9.943082104584736],["ajtó",-9.943194490935003],["évet",-9.943315424077118],["cikk",-9.943845809751886],["megpróbál",-9.943910173989902],["kerek",-9.944069695711832],["járművek",-9.944093757705868],["600",-9.94412220085096],["hús",-9.944301526866383],["bázis",-9.9448954901791],["Budapesti",-9.945425620471394],["Eh",-9.946107978305301],["nélküli",-9.946109464954539],["USA",-9.946549461980815],["hulladék",-9.946571078560206],["Jelenleg",-9.946857177332985],["iket",-9.946876350726871],["össz",-9.947030481362681],["mostan",-9.947058183828528],["név",-9.947890816571526],["baloldali",-9.948778449876716],["tele",-9.94883634279571],["tus",-9.949400200649938],["lep",-9.949905859182266],["szóvivőj",-9.950889603547843],["élelmiszerek",-9.952062343526375],["rendkívüli",-9.952222772215281],["építésé",-9.952426329457108],["köd",-9.953267962010134],["börtön",-9.953273712514209],["társadalom",-9.953327690867066],["var",-9.953448430302512],["org",-9.95365062463297],["ej",-9.953755353552172],["áért",-9.954619920798653],["vad",-9.954731578103399],["édesapj",-9.955457623288257],["avat",-9.955673856730229],["zajló",-9.95598439743448],["északi",-9.956516451943852],["rendszerek",-9.95718160250771],["szabadság",-9.957437824372452],["országi",-9.957719509295966],["lej",-9.958147341740489],["land",-9.958262000251093],["szerep",-9.95940042905634],["Balaton",-9.960134432476487],["hirtelen",-9.960141317415248],["belőle",-9.960202734088456],["csapás",-9.96102179594023],["függő",-9.962285486340907],["szóvivő",-9.96259087974769],["vezette",-9.962756141554104],["Miskolc",-9.963526813522932],["nyit",-9.963892320852548],["pályá",-9.965483657440572],["Man",-9.965860293647454],["játékok",-9.96611159550002],["sértett",-9.96617565151941],["ötlet",-9.966706144583497],["főkapitányság",-9.966979909800035],["Tavaly",-9.966980883157198],["típusú",-9.96754624714546],["megelőző",-9.967589719113732],["programok",-9.967958514534494],["hozzátett",-9.967986653237897],["alakít",-9.968266130656986],["színésznő",-9.968384151577467],["fejlőd",-9.968647787641903],["étel",-9.968747129928065],["mentés",-9.968770472890156],["hatósági",-9.968816520613185],["közleményébe",-9.968959893550316],["ismeretlen",-9.969051807316792],["állítani",-9.969455075369703],["figyelembe",-9.970039444872953],["részlet",-9.970259060605823],["tikus",-9.97040091919838],["okozhat",-9.97042034839963],["használni",-9.970860104637387],["Pi",-9.971078411739544],["munkahely",-9.971446319673891],["erőszak",-9.973483711754078],["érhet",-9.973877998954237],["rezsicsökkentés",-9.973883446280862],["lá",-9.973910816305612],["tárca",-9.974009051301426],["nyúl",-9.974051536524822],["Tibor",-9.974120451956203],["hozam",-9.974789746328064],["osztott",-9.975009439039697],["értékesítés",-9.975139914986487],["tapasztalat",-9.975475011267385],["beszélget",-9.9761154563917],["akarja",-9.976983027449617],["kaphat",-9.976991395973759],["korlátozás",-9.97724737248806],["férje",-9.977550995638847],["számok",-9.977774600058325],["elárulta",-9.978224895648719],["címe",-9.978334938338433],["Bal",-9.979852212093054],["nukleáris",-9.980820549489305],["Miklós",-9.980820792854555],["meglepetés",-9.980821036887697],["rendelkezésre",-9.980960695997533],["oogle",-9.98108408269729],["cel",-9.981347934401605],["szel",-9.981598825153835],["folyt",-9.98178953957267],["ügyfelek",-9.981926771697605],["hónapja",-9.98225392025616],["órakor",-9.983204336474994],["rosszul",-9.984348009209686],["központi",-9.985712355856194],["polgármestere",-9.986065526285113],["csütörtök",-9.986242445837684],["zza",-9.986667157388524],["tartottak",-9.986802460782387],["fogyasztók",-9.987842257338823],["kibocsátás",-9.987849854674272],["tényező",-9.98800620446276],["ésével",-9.990505375984265],["rendelt",-9.990508237403787],["elérni",-9.99068949428305],["órás",-9.991328340186303],["győz",-9.991341219207142],["társai",-9.991554719051113],["küzd",-9.992434992248645],["ségi",-9.992653242354265],["ij",-9.993179503932392],["járás",-9.993607317335828],["partner",-9.993705142877257],["funkció",-9.994856483966496],["Győr",-9.99502416010694],["terem",-9.995756999678434],["alatti",-9.99602057567245],["só",-9.997964060092109],["semmit",-9.99826149405879],["tartózkod",-9.999336663578699],["tekintett",-9.99970922083503],["Természetes",-9.999927980342349],["zük",-10.000327214828879],["terén",-10.000958554075343],["amire",-10.00115319851681],["alkalmazott",-10.001391335401983],["Hivatal",-10.001948130526802],["spanyol",-10.001948238872984],["konkrét",-10.001949495720702],["labdá",-10.001957349015637],["meghatározó",-10.00196001238176],["gu",-10.001998455355796],["technológiá",-10.002071230426278],["fiók",-10.002753467786789],["meglepő",-10.002926248585256],["értek",-10.003093385792255],["betegek",-10.003207578531148],["kéri",-10.003869677053826],["történeté",-10.003962827502514],["ítélet",-10.004226479848793],["beszéd",-10.00498964034759],["férfiak",-10.005282850841859],["vonta",-10.005427708329044],["érdek",-10.0055428233901],["áremelkedés",-10.00555868068226],["erősítette",-10.00828857180342],["iroda",-10.008719675399266],["idézte",-10.0088168934676],["rém",-10.00882822668763],["Hajdú",-10.008989842075948],["Szeged",-10.009090921491897],["Blikk",-10.009109891598339],["hétfő",-10.00985738827713],["királynő",-10.01015630867579],["kapcsolód",-10.011578573369231],["harmad",-10.011840727949178],["kilátás",-10.01333297975377],["veszteség",-10.013998727178691],["nyilatkozat",-10.014025568339104],["Nyíregyház",-10.014042465783113],["jutni",-10.01406389475478],["rajz",-10.014646008467363],["sír",-10.014869775543538],["megegyez",-10.015465140479135],["47",-10.016048105965766],["kőolaj",-10.016357444075444],["szed",-10.016501177026072],["Románia",-10.016597388894835],["kamerá",-10.016752555540213],["műszaki",-10.016879553077054],["köztársaság",-10.017134484965005],["felől",-10.017253110779611],["ekhez",-10.017633792786519],["lőtt",-10.017755219930434],["zené",-10.018648747741317],["idéz",-10.018697285802983],["orvosi",-10.019031454014447],["Leg",-10.019352986018458],["kedvezmény",-10.019840814387614],["esik",-10.019893368272893],["egyedi",-10.020529158186863],["osság",-10.020939426230742],["rd",-10.021344113765728],["Vagy",-10.021615713474102],["bíró",-10.021671644448073],["Egyesület",-10.022414225239547],["Krisztián",-10.023531485101083],["Gulyás",-10.023531575073363],["szeres",-10.023575532322507],["gondoskod",-10.023579947342375],["jöhet",-10.023581356536798],["vív",-10.02416678184763],["idősebb",-10.024976454504404],["hátra",-10.025284336464408],["dy",-10.026606199055715],["aránya",-10.027274529768004],["nünk",-10.027914700927667],["esetleges",-10.02826657977728],["vesztette",-10.028352799294723],["150",-10.028999691060545],["pad",-10.02938116348174],["tengeri",-10.029448507250766],["termelő",-10.029511789262312],["Pro",-10.030822163746265],["egyesület",-10.030841079259968],["sebesség",-10.030842817806548],["Kíná",-10.030872702929331],["holland",-10.031043529911056],["ítj",-10.031136252015724],["kisfiú",-10.03197393860743],["Ön",-10.0320482003236],["említ",-10.032230286908586],["Hol",-10.03266992156697],["felhasználó",-10.03271416039204],["rájuk",-10.032752808796033],["fegyveres",-10.033384909607232],["áldozatok",-10.033748467448506],["hatott",-10.0344056679779],["din",-10.034770084172997],["házak",-10.034991836251429],["látás",-10.035572046971913],["tárgy",-10.035766888369299],["ssa",-10.036218177803477],["részvény",-10.036524542003065],["csillag",-10.036878380331082],["száj",-10.037298247843768],["élők",-10.037992139035659],["+",-10.038183696327621],["intenzív",-10.038183698021186],["módosítás",-10.038488606232928],["támadó",-10.038566460244537],["ezett",-10.039828791473795],["vidéki",-10.039910317918611],["világbajnok",-10.040596999398083],["nevet",-10.041135809393545],["kiemelkedő",-10.041202994354409],["téri",-10.041907934519362],["napra",-10.042260094747679],["fejlesztő",-10.042643259513074],["kék",-10.042807676406735],["többség",-10.044294681777227],["ou",-10.044557061252942],["amik",-10.044938166415083],["szerepelt",-10.045055223424594],["Azon",-10.045382098240863],["kritikus",-10.04559215394433],["Kreml",-10.045592664705374],["Volod",-10.045782240791304],["lassan",-10.045940206824124],["imir",-10.046302464755788],["távoz",-10.046310036260527],["lépni",-10.046618148356611],["elte",-10.04672120504797],["Par",-10.046776173754857],["kivétel",-10.046917024684927],["fizető",-10.047092087885774],["pol",-10.047223781038188],["bankok",-10.047536922103294],["rendezett",-10.04760416298597],["kérdez",-10.048151227048415],["hagyomány",-10.04885203334364],["top",-10.048898718753659],["folytatott",-10.049216715900336],["las",-10.049303857098245],["42",-10.049469321928001],["nom",-10.049934407043622],["dísz",-10.04999222432275],["profit",-10.050275546660313],["szavazat",-10.050777908743845],["Bu",-10.050956610551243],["tulajdonosa",-10.051039288307038],["anyagok",-10.051601843140684],["Vár",-10.052971144893702],["Szombat",-10.053053961471043],["Isten",-10.053122691864306],["írtá",-10.053840025527041],["reagált",-10.054228052193672],["táj",-10.054305022029649],["zsi",-10.05451719375707],["fektet",-10.055166597006615],["katona",-10.05560066264313],["érintő",-10.055724426372034],["vállalkozó",-10.056267840594627],["Bor",-10.056589156356555],["háttér",-10.056664739015734],["irányítás",-10.057300713972722],["harcol",-10.058220671812638],["néző",-10.05886963375456],["fele",-10.058895892279917],["részletes",-10.058977600721022],["vitte",-10.05910898836063],["Soka",-10.059869166700263],["korosztály",-10.06027146885964],["robbanás",-10.0602856261903],["útvonal",-10.060428309121438],["alkohol",-10.060572818850918],["Első",-10.060648063137165],["török",-10.060783375226311],["fedez",-10.060804339678779],["adhat",-10.060973370618102],["háló",-10.061219620829203],["idény",-10.061249259993247],["telep",-10.061808119193552],["győzelme",-10.062193532729552],["elkövető",-10.062472783653188],["nézni",-10.06302152491534],["nyíl",-10.06409399259259],["tapasztal",-10.064326759141405],["döntést",-10.064388265468262],["műsorvezető",-10.065575658381896],["fegyverek",-10.066701755466866],["beruházások",-10.066719957046466],["lakos",-10.066769336594644],["gyűjtés",-10.067272883461236],["nehezebb",-10.068077783489038],["Lajos",-10.068149245370599],["ológus",-10.068197910147603],["valójá",-10.069045180976033],["ép",-10.06922338691028],["fül",-10.06952617366148],["bármilyen",-10.06988364654784],["részletek",-10.070247676485668],["páros",-10.070569642661724],["magyarázta",-10.070812977224064],["rab",-10.070857522145953],["san",-10.071062428037866],["57",-10.072177143966181],["problémá",-10.072746511830529],["látványos",-10.073136760176395],["gő",-10.073365481407034],["állatok",-10.073553200523754],["jég",-10.073814514277522],["tájékoztat",-10.075015276074467],["hadi",-10.075151211722332],["története",-10.075205142088919],["válaszolt",-10.07540647561493],["mindennap",-10.07543333961807],["energiá",-10.07556238622148],["köbméter",-10.075782009609133],["kereskedelem",-10.07589641366311],["fed",-10.07598591657512],["zék",-10.075996218536504],["jelez",-10.076255409103847],["családja",-10.076539743833681],["fagy",-10.07818117419613],["segítő",-10.079238325291437],["költ",-10.079287540749114],["VI",-10.079549125665382],["közzétett",-10.080814907179317],["gé",-10.080837403162912],["fogás",-10.081187186398845],["mutatkoz",-10.081350891816474],["vetés",-10.082133743720044],["ozni",-10.08233248060546],["miskolci",-10.08347424140247],["aktuális",-10.083474260213569],["aggód",-10.083493588806359],["teher",-10.083559169619807],["atom",-10.083779168857411],["edzés",-10.083824571729568],["Végül",-10.083886523152179],["ku",-10.084333142931467],["mezőgazdasági",-10.084429704292269],["növeked",-10.085014495102833],["művelet",-10.08515041128684],["NSZ",-10.0851758157536],["szólal",-10.08528824438789],["forintr",-10.08546108595442],["bárki",-10.086044387347062],["FT",-10.08648285735407],["szál",-10.087080822814535],["Volt",-10.087132241633224],["kötelezettség",-10.087188516107581],["világbajnokság",-10.087217943162207],["árfolyama",-10.087776877337124],["bán",-10.088024770205942],["mérkőzésen",-10.088503022053061],["imp",-10.088972833632301],["négyzetméter",-10.089280226756271],["internet",-10.089513706614417],["múl",-10.090590577687006],["üveg",-10.091142293275396],["szociális",-10.091226839921111],["Károly",-10.09122777912277],["körzet",-10.091260730225759],["katasztrófavédel",-10.091506238900301],["évtizedek",-10.091795527892408],["ox",-10.092633337357867],["várakozás",-10.092735988347055],["kelt",-10.093649552568145],["tív",-10.094225252241586],["Tar",-10.094760312675778],["gólt",-10.09546218341872],["elfog",-10.096087439364986],["érinti",-10.096152257051129],["PS",-10.096801459119096],["dolláros",-10.097065158068606],["úti",-10.097643020678333],["pihen",-10.098708777192215],["fenn",-10.09888588930022],["PlayStation",-10.0990386783335],["Intézet",-10.09903867942365],["Mihály",-10.099038683078124],["beavatkozás",-10.099038683386897],["stílus",-10.099038700815246],["Moszkvá",-10.099038743362495],["Ku",-10.099043462902472],["elegendő",-10.09905246134419],["sötét",-10.099091962415832],["őrizetbe",-10.099109492359135],["messze",-10.099235404475625],["nánk",-10.099593049116072],["fellépés",-10.100160642660146],["He",-10.10030146651186],["kérés",-10.100817399389296],["terjeszt",-10.100888108889357],["tűnt",-10.101169345857748],["segíthet",-10.101431269226556],["enge",-10.1034156018863],["FC",-10.10341815271572],["tej",-10.103590720038493],["irat",-10.105575047848713],["városok",-10.105952095104723],["évad",-10.106737153447657],["védelmé",-10.106835247649098],["honlapján",-10.106912835994446],["számukra",-10.106928961920719],["Kiss",-10.10694031381042],["szuper",-10.106943009047914],["vallott",-10.107438724732152],["utcai",-10.108502937688248],["kerülni",-10.10860813649356],["önkéntes",-10.108653620297517],["álltak",-10.109607461938923],["állítása",-10.110019235445812],["ológiai",-10.110991560967893],["andó",-10.111304424872646],["fenyeget",-10.111326322462887],["befolyás",-10.111391997005654],["sikerül",-10.11189906589738],["helye",-10.111953715535655],["tve",-10.112183217766297],["ilyenkor",-10.112318881204022],["érdekes",-10.11242805434081],["szavazás",-10.11280465653965],["orvosok",-10.11382033880292],["Ádám",-10.114850666238159],["dolgo",-10.115251752686053],["szempontjá",-10.115831506895383],["vb",-10.116040378320031],["Ped",-10.116154979769536],["biztosító",-10.1166062577595],["eurós",-10.116685188675476],["védekezés",-10.116698237841378],["zenei",-10.117636003498994],["Benc",-10.11783576341984],["úszó",-10.11800577913888],["cent",-10.118664573454856],["nőt",-10.119753622949776],["ajánl",-10.12064925211352],["területe",-10.122197339907238],["brüsszeli",-10.1228492022633],["Xbox",-10.122849424487885],["Apple",-10.122850692471076],["technológia",-10.123141806365748],["felel",-10.123305568275502],["esse",-10.123923033511414],["ölt",-10.124533242539908],["nyertes",-10.124959879200379],["ajánlott",-10.124991397636338],["Car",-10.125337206156006],["szerezni",-10.125342505222143],["terjedt",-10.126881673067402],["tanú",-10.127169156764861],["kezdve",-10.127374168915166],["buli",-10.1275050344267],["miként",-10.127689298436842],["DK",-10.127728054492222],["község",-10.128060290768886],["szervező",-10.128705410680318],["Ukrajnát",-10.129064148526389],["szervezők",-10.129066079479248],["foglalt",-10.129305839233002],["hallott",-10.129634460959736],["vári",-10.129770123532607],["kutatók",-10.12978964278215],["értesül",-10.12979508997035],["beszélni",-10.129891206418355],["tehetség",-10.130546807056993],["harminc",-10.130913718815286],["kénytelen",-10.130917092137665],["omikron",-10.130924654580962],["fejlesztésé",-10.131265015371401],["válaszol",-10.13127704941076],["Kelet",-10.131374131286517],["Jan",-10.131925999181725],["kialakult",-10.132351461432153],["vonás",-10.132639842223705],["tagállamok",-10.133033749201193],["programo",-10.13312315879995],["kapcsolódó",-10.133207458184424],["komp",-10.133444571492884],["drágul",-10.133491620814086],["helyezés",-10.133806331457222],["valamit",-10.133965092592074],["hivatáso",-10.134018072795214],["gyógy",-10.134200676604564],["tervei",-10.134849051784755],["mutatni",-10.135164620473208],["hiányz",-10.135613964405064],["ard",-10.136019022072269],["kapcsolatot",-10.136308543037774],["vendége",-10.136502994049524],["sszel",-10.137474940294421],["Pl",-10.137739450767668],["akkumulátor",-10.139043799447968],["pandémi",-10.139043804319673],["Szabolcs",-10.139043807983523],["illegális",-10.139043876624495],["hektár",-10.139066925739007],["pénteki",-10.139359913082078],["szerv",-10.139391331963557],["problémát",-10.139918947351521],["00",-10.140013467058102],["jába",-10.14017923079042],["Fő",-10.140276022624434],["Po",-10.14061489602572],["itás",-10.141497257163103],["58",-10.141646845062818],["zák",-10.142202151186527],["típus",-10.142210427196662],["épül",-10.142657947990443],["közelmúlt",-10.14302277622719],["mindenkit",-10.143561133550879],["800",-10.144912821404388],["szigorú",-10.145692509748109],["milliárdos",-10.145805845504094],["váli",-10.145819572126705],["Három",-10.14717696230112],["svájci",-10.14724052447745],["Korábban",-10.147240981240891],["gyakorol",-10.147244234380395],["japán",-10.147325688645706],["legjobba",-10.147419034423745],["üres",-10.14745011142464],["lehetőségek",-10.147626655779366],["panasz",-10.147649872069547],["120",-10.147670517391],["büntető",-10.147810231947268],["67",-10.148300316814963],["határidő",-10.148495478925234],["tonna",-10.148729345434194],["gyanúj",-10.148743108247476],["köré",-10.14886446433211],["fogy",-10.149123191970004],["barátai",-10.149189098973743],["valamennyi",-10.14925953777789],["csoda",-10.149333092348627],["tervezés",-10.15091410117197],["szex",-10.15094555839567],["esített",-10.151946308385025],["gazdá",-10.152024030522838],["eredményei",-10.152398924750372],["ugrott",-10.153230930793875],["vállalás",-10.153784708487185],["fer",-10.153805397029117],["hirdet",-10.154430387250965],["85",-10.155222362922844],["lakások",-10.155315200565772],["szoftver",-10.155504997577804],["érzékeny",-10.155508240276546],["piros",-10.15571838765864],["szabadul",-10.155773965349422],["46",-10.156209619278155],["éjszaka",-10.156284599603708],["ung",-10.156494303326888],["Város",-10.157591522444084],["körű",-10.157815359762349],["sük",-10.157877873719187],["káros",-10.158421372720348],["pedagógus",-10.158500753659897],["határozott",-10.159518660119561],["képpen",-10.15968974963491],["vásárló",-10.159838143858467],["villamos",-10.160170999223292],["búcsúz",-10.160461949834193],["kereste",-10.161525827001203],["okos",-10.1616322766945],["olvasó",-10.163002093251357],["látogatás",-10.16300503859737],["jelzés",-10.163078009442842],["kapitány",-10.163357637962676],["osabb",-10.163637340814498],["riz",-10.163832930557188],["múzeum",-10.163838317080685],["mesterséges",-10.163842414235404],["átmeneti",-10.163906192913192],["brut",-10.163979157657447],["összecsapás",-10.164451714291896],["vize",-10.164607421878204],["játékot",-10.164622285905974],["okba",-10.16540164279182],["lista",-10.165749085287345],["tevékenysége",-10.16578953816845],["izgalmas",-10.165813760608906],["hasznos",-10.166225988767644],["szolgáló",-10.166511157457137],["tragédi",-10.16664001135975],["tartalmaz",-10.167215879487532],["ps",-10.167236002005048],["befektetők",-10.167477259135048],["telt",-10.16794137046936],["hass",-10.1681379870181],["ötven",-10.16830297494294],["ünnepi",-10.16883634199246],["pedagógusok",-10.169204522508444],["előadó",-10.169380619038439],["ákat",-10.169683352694447],["közleked",-10.169969656810203],["futam",-10.170827657170996],["esté",-10.1715306062695],["repülőgép",-10.17209745168102],["Imre",-10.172441892684459],["alól",-10.172925896595999],["bejegyzés",-10.17323006796575],["2016",-10.173668485969909],["komment",-10.174777770165637],["javítás",-10.17586531081497],["életük",-10.176194946522031],["híres",-10.176420610976493],["Tud",-10.177344157664182],["tudatos",-10.177349172072347],["állampolgár",-10.178381084548667],["osz",-10.178550406256708],["Or",-10.178704663872127],["mozi",-10.178774429680473],["Pal",-10.179250978179512],["megerősített",-10.179862299944013],["’",-10.18071625451833],["Alapítvány",-10.180716255097416],["ideiglenes",-10.180716680041778],["mozog",-10.180717457997941],["szerkezet",-10.180718853014849],["hölgy",-10.180719193195964],["viszonylag",-10.181073451194537],["tudomány",-10.18129074842934],["Borsod",-10.181381501712224],["számítani",-10.18176651009875],["töltés",-10.1825280102709],["próbálta",-10.182824994556384],["különös",-10.18501524852978],["alaposa",-10.185047903741077],["létesítmény",-10.185183054512237],["hatásai",-10.185374920439866],["energiát",-10.185569198358865],["főz",-10.18578226844062],["félre",-10.186560771952974],["Zs",-10.18714531012009],["tűzoltó",-10.187271330112939],["ellátási",-10.188327169589027],["tervezi",-10.188656141026176],["tanul",-10.189189157185993],["csarnok",-10.189263452297801],["Ter",-10.189496778203623],["hor",-10.189711370302817],["váratlan",-10.190120758543078],["vereség",-10.190161308734215],["óval",-10.190183626434596],["energetikai",-10.190436054256198],["óriás",-10.190687991335455],["munkálatok",-10.190870870573228],["forgat",-10.190961923874317],["megtakarítás",-10.191397847313102],["fertőzöttek",-10.19163413040982],["Kon",-10.191720743576901],["66",-10.192037664711743],["háztartás",-10.192565808533319],["Ukrajnából",-10.192625838489285],["rokon",-10.19310437864178],["Har",-10.193183785181798],["árát",-10.193202681497706],["rendelés",-10.193311706621037],["kapcsolatok",-10.193829114581604],["készülék",-10.19472193499097],["hazaiak",-10.195748673627703],["csodá",-10.196284218167392],["elnöki",-10.197423659218668],["művészeti",-10.197525117164849],["Gyurcsány",-10.197883952742533],["horvát",-10.197888766473787],["endőrkapitányság",-10.197938445850024],["vin",-10.197965419905278],["osztrák",-10.198026264722117],["Máté",-10.19818385420993],["kulcs",-10.198293684843883],["környékén",-10.198426953655213],["ügyvéd",-10.19856519672458],["speciális",-10.19865914653679],["hallgató",-10.198743332007622],["beszámoló",-10.198969218456917],["kölcsön",-10.199266221302912],["hajnal",-10.199344007270232],["ció",-10.200178261972857],["képviselője",-10.200237487253673],["esélye",-10.200325610859837],["osztotta",-10.20080088947386],["ódott",-10.200829265593622],["ics",-10.202171211270278],["gyilkos",-10.202295056587255],["írják",-10.202502259009758],["oktatási",-10.20258406214047],["hívás",-10.20305247144739],["59",-10.203236412695995],["karácsonyi",-10.203419210079304],["pan",-10.20399996098514],["javasolt",-10.204355645476513],["hy",-10.206022097794273],["települések",-10.20657095154576],["bizalm",-10.206585265257097],["összefüggés",-10.206589492341463],["Péntek",-10.206596051483864],["hatodik",-10.20722589001452],["nevelés",-10.207240812285391],["250",-10.20729300552637],["eleme",-10.207318356659798],["ack",-10.207363906453605],["foglal",-10.208015940654086],["felek",-10.208058073499139],["rák",-10.208205343073482],["időpont",-10.208309098325516],["internete",-10.208563328666065],["szankció",-10.209059921206697],["képtelen",-10.209193539773997],["század",-10.209422847774078],["szület",-10.209769637944555],["kaland",-10.210638952458286],["vásárlók",-10.210899391976346],["földi",-10.211515442076216],["jelenthet",-10.211553916843625],["klíma",-10.211721138580877],["technikai",-10.211830002981836],["hova",-10.21195391748741],["mondhat",-10.2130536323218],["lehetetlen",-10.213761538721249],["gépek",-10.213976716969661],["hátrány",-10.214650223972864],["szök",-10.215036863702846],["stúdió",-10.215351547321514],["zápor",-10.215355603323612],["észlel",-10.215446902710257],["Fu",-10.215463411733856],["fordított",-10.215657160182687],["néven",-10.215836501206972],["órán",-10.21606031243807],["szervezett",-10.216952122820993],["Nemzet",-10.217336632326042],["valódi",-10.218262206603839],["viz",-10.218446637455349],["51",-10.219185284192449],["javul",-10.219212746127726],["vásárolni",-10.21923306810164],["valós",-10.219716780091339],["húzta",-10.220297109359867],["fölé",-10.220483733327598],["Talá",-10.22066174071155],["testvér",-10.220944803709926],["Szer",-10.221106102397727],["számát",-10.221426675882743],["tiltott",-10.22281880071988],["ragad",-10.223344479669015],["ozta",-10.223981557443025],["magyaráz",-10.224078873291393],["gyönyörű",-10.224201092241865],["tranzakció",-10.224201101404937],["botrány",-10.224201522370427],["rögtön",-10.224206272616822],["mekkor",-10.224294902085717],["egyeztetés",-10.224310307874969],["rajt",-10.224331482061439],["nyilvános",-10.224434833896268],["tanít",-10.22469477430005],["dar",-10.224770345692953],["Ho",-10.224849899253684],["önálló",-10.225175672663845],["keresés",-10.225339619471129],["52",-10.225917026387446],["távolság",-10.225986849985208],["réteg",-10.226035080333332],["részesül",-10.226126634872386],["változások",-10.226295419651938],["kód",-10.226582818922243],["ismeri",-10.22666266928448],["rét",-10.227364016788385],["tőke",-10.227544590192302],["őszi",-10.228661122015309],["látó",-10.228752339416852],["ődött",-10.229680368554572],["repülő",-10.229810644796206],["világos",-10.230030523752143],["szerződést",-10.230420888463955],["liter",-10.230505533468325],["mértékű",-10.230627437940836],["bocsát",-10.231322955991612],["ülő",-10.232238055543693],["résztvevők",-10.232442870821636],["lop",-10.232501299448757],["néha",-10.232730508253924],["kontinens",-10.233129664421504],["egyensúly",-10.233170459507786],["Gyula",-10.23323160542597],["robot",-10.23346324205272],["eladó",-10.233528649518519],["újságíró",-10.233591690983332],["katoná",-10.233758304924464],["változtat",-10.233873024604067],["dokumentum",-10.233967332255745],["csütörtöki",-10.234570068562068],["ajánlat",-10.23504584160476],["szerb",-10.235455528674983],["zenész",-10.235506661097395],["ablak",-10.235607452421338],["legutóbb",-10.235929099752312],["Ru",-10.235980154766107],["epsiszentgyörgyi",-10.236115079492317],["díjas",-10.236621447495438],["hatalm",-10.237109907584793],["honna",-10.237159542519144],["frakció",-10.237249639899986],["kedés",-10.237677043933534],["gondolta",-10.23770348718427],["68",-10.237884096973673],["járta",-10.238049300531873],["finanszírozás",-10.238727235414176],["kém",-10.238904860603004],["rin",-10.239383023501292],["62",-10.239619365040156],["érdeke",-10.239867271905123],["ob",-10.240547158974309],["töltő",-10.241375188864884],["hagyni",-10.241415889704761],["gondolat",-10.24146894737041],["alul",-10.24182543612029],["piacok",-10.241932063885152],["büszke",-10.242138675947672],["elképesztő",-10.24213867607159],["sztrájk",-10.242138679334563],["Ekkor",-10.242254074333157],["divat",-10.242310210305458],["településen",-10.242566767029603],["biztosítani",-10.242909761293483],["történelem",-10.243060131153026],["port",-10.243137869543101],["the",-10.244566947553963],["Wi",-10.24490398397181],["54",-10.245548291424992],["hin",-10.245582491217965],["nyitó",-10.245750179942675],["IT",-10.246425330582808],["atott",-10.246526231495238],["érdemel",-10.246667361929067],["hová",-10.247163288136967],["érdem",-10.24731938748793],["halála",-10.24737867609239],["felfedez",-10.24781565303725],["szerelem",-10.247979345501316],["kodás",-10.248122324260782],["tanuló",-10.248351308416954],["területeke",-10.248500798209601],["tudományos",-10.248696291240279],["akadály",-10.248763845416791],["mány",-10.250228759032908],["mérkőzést",-10.250257988131786],["ham",-10.250339745943819],["betét",-10.250350667550407],["parti",-10.250469184038103],["egységes",-10.25120685030789],["forgatókönyv",-10.25123021716011],["minimum",-10.251230437188664],["műtét",-10.25135275573588],["hatalom",-10.25141388275107],["színvonal",-10.251434676720176],["energiaválság",-10.252213391897332],["olcsóbb",-10.252747836768812],["megoldások",-10.253072558585346],["gyenge",-10.253198954384224],["53",-10.253567862021583],["Miskolci",-10.253833646920679],["szálló",-10.25468818316305],["lezárás",-10.254893985131321],["épült",-10.2553100109522],["futott",-10.255564195363998],["vizsgál",-10.255624520954768],["méteres",-10.25635977266686],["nézők",-10.256422195322937],["azonnali",-10.256811693478],["késő",-10.257123736775723],["emlékeztetet",-10.257539016742175],["költségei",-10.257563046004261],["akkori",-10.258697921853157],["ponton",-10.259698667109904],["célpont",-10.25972834306124],["szöveg",-10.260021076797258],["közút",-10.260174126868074],["jellegű",-10.260405472251268],["York",-10.260415795088733],["beszédé",-10.260890171751509],["lov",-10.260894080024737],["chip",-10.261131129017379],["területé",-10.261170377806051],["mellék",-10.261493285620169],["képp",-10.261981281147785],["Szerencsé",-10.262910436444574],["alapanyag",-10.263498849422154],["ight",-10.263509734361616],["munkatársa",-10.26381797063782],["berendezés",-10.264032630987007],["ügyfél",-10.264036213761804],["folyamán",-10.264398963059605],["hamis",-10.264846495391177],["száraz",-10.264960853061961],["bő",-10.26519248959688],["izáció",-10.265226067456046],["ápol",-10.265302482677285],["elkezd",-10.265629970828567],["eljárást",-10.26574095419619],["álni",-10.267895599960664],["megosztott",-10.268097409604227],["Ker",-10.268399117894283],["munkaerő",-10.268702673024425],["agrár",-10.269566422752575],["Nincs",-10.269671148761123],["édesanya",-10.269700934640317],["küzdött",-10.270019665237818],["szorít",-10.270355751545623],["említette",-10.270609807948484],["következet",-10.270947365196298],["Amennyi",-10.271015439273558],["házasság",-10.271238725614236],["növekedést",-10.272024719145815],["kapus",-10.272117166019155],["képviselők",-10.272287798684486],["létszám",-10.272713193362947],["99",-10.272772109999604],["zajlott",-10.27299047897079],["indulás",-10.273052886259435],["elemzés",-10.273494265822265],["vízi",-10.273766277844912],["tartotta",-10.274110769185064],["engedélyez",-10.274333649318578],["inter",-10.275109497968536],["jutottak",-10.275200489827888],["forgalmi",-10.27547148766503],["járműve",-10.275504733072697],["ációs",-10.27553936460983],["kezel",-10.275934757873394],["terhel",-10.276956866290124],["terel",-10.277275865583118],["építése",-10.278169137870918],["esek",-10.278660994013475],["blokk",-10.27875102598119],["gabona",-10.2790113244709],["emelet",-10.279369000111096],["Márton",-10.279533066677416],["vezérigazgatój",-10.280208351082837],["érő",-10.280353808626126],["másodperc",-10.280717995335678],["elkövetet",-10.281053363597776],["jelenség",-10.28146494091921],["tapasztalt",-10.281933285054563],["drón",-10.282099083979425],["szűr",-10.282685928991004],["lenné",-10.28269946618342],["alakulat",-10.283330721437473],["tech",-10.28347207446281],["maradhat",-10.28374674365871],["ugyanaz",-10.283853483982757],["ric",-10.28490717590321],["voltunk",-10.28500748186743],["2000",-10.28502171534707],["fontosabb",-10.285178904034417],["feleségé",-10.285194811129795],["költöz",-10.285357614607781],["harcok",-10.285636339786299],["utol",-10.285919118296349],["robbant",-10.286477901541996],["irányába",-10.28723835756799],["foci",-10.28830744249462],["eget",-10.288346336554138],["számítás",-10.288349551174854],["klasszikus",-10.288442911617413],["Utóbbi",-10.288442925735588],["szexuális",-10.288442966452934],["alakítás",-10.288486727485473],["terror",-10.288549330145809],["felkészülés",-10.288607141589347],["küzdelem",-10.28865315247962],["Ér",-10.289563444922745],["igazolt",-10.290022811628683],["húzód",-10.290310849783527],["felügyelet",-10.29084119957344],["komolyabb",-10.291728649315223],["dás",-10.292272962300466],["előtte",-10.29240476007063],["Elmondta",-10.292630547780057],["megváltoz",-10.293350729011792],["kedvenc",-10.293662377607344],["fejlesztések",-10.293672244526158],["fogyasztói",-10.294528726208659],["vizsgált",-10.294540017929624],["csoportok",-10.294561082615463],["munkavállaló",-10.294990975659125],["bejelentett",-10.295114340743797],["kever",-10.295625276695189],["veszélyeztet",-10.295884274726667],["hall",-10.296153261748822],["kerékpár",-10.296177753626495],["követte",-10.296208808947346],["herceg",-10.296436842521807],["válás",-10.297254415422351],["árulta",-10.297917043396243],["Microsoft",-10.29796671916813],["doboz",-10.297972046940266],["kihasznál",-10.297994031565265],["döntetlen",-10.298075125145111],["indokolt",-10.298124305280915],["Szó",-10.298551251436065],["illeti",-10.298640388747794],["szerez",-10.298731077717024],["közelebb",-10.298836415447404],["Ni",-10.299222433473503],["nálunk",-10.299553745767259],["kamatemelés",-10.299572557661527],["Ben",-10.299721160369913],["Alap",-10.300053179022434],["birtok",-10.300158666974234],["ülésén",-10.300970420986605],["formájá",-10.301916169550616],["döntése",-10.30208654829358],["kette",-10.303300625451325],["életbe",-10.303412296065733],["követi",-10.303468693594908],["reagál",-10.303636617349124],["százalékuk",-10.304618857907432],["folytatj",-10.304640055474433],["vezethet",-10.304966782799244],["gyorsabb",-10.305806488077437],["külügy",-10.305939165028827],["kényszer",-10.306089980199477],["jegyez",-10.306136810487022],["erőmű",-10.306845336697721],["kihívások",-10.307100892775203],["imád",-10.30748090035381],["Múzeum",-10.307582103828171],["mérnök",-10.307588965334805],["éjjel",-10.307590313233927],["rádió",-10.30767358068508],["hétköznap",-10.30771112082905],["elemző",-10.307759440536376],["gárda",-10.30778881872041],["elfogad",-10.308322225831512],["rang",-10.308542346193978],["áló",-10.308607946441851],["gazdálkodás",-10.308627759889625],["fenyegetés",-10.309323808882244],["járul",-10.309333963043034],["világháború",-10.30960018917293],["katolikus",-10.309745717272076],["családjá",-10.310560969142289],["mentők",-10.310752217417216],["gyűjt",-10.311098864435898],["éles",-10.311533460743343],["fizetési",-10.311661179573294],["testvére",-10.31171956987665],["feje",-10.311949136473158],["száll",-10.312000471359301],["edik",-10.31217689891911],["fenti",-10.31258877219421],["képez",-10.31261352141865],["Andre",-10.313166434904707],["többlet",-10.313560315216321],["maradás",-10.313575672231014],["alitás",-10.313944092753225],["folytatta",-10.314011055044027],["órát",-10.314099532934033],["kérdése",-10.315241487425853],["ellenfél",-10.315878789223486],["futball",-10.316354036792422],["állhat",-10.316461965801992],["feladatok",-10.316570323138341],["támasz",-10.317038962748118],["up",-10.317217235766805],["tojás",-10.31729695582966],["Musk",-10.317416608280748],["ügynökség",-10.318320649174234],["méretű",-10.318407844339887],["fékez",-10.318427125160614],["szombati",-10.318589793380447],["Éppen",-10.318630065103758],["forma",-10.32021578506705],["95",-10.320354770770265],["üzemeltető",-10.320709534719445],["közleménye",-10.321104187611109],["személyi",-10.321786146619868],["várni",-10.322226089728517],["utcában",-10.322227635091359],["növekedése",-10.322981919164848],["hiba",-10.323334769502821],["iskolai",-10.323476815353047],["cukor",-10.323784424713702],["viszonyít",-10.325605717452763],["Ju",-10.32605877831177],["kedvező",-10.326559195883789],["Mariupol",-10.327094878634965],["felszerelés",-10.32721680110047],["közgyűlés",-10.327282336897355],["hamarabb",-10.327462730881575],["előfordul",-10.327983892021763],["ünnepség",-10.327998349199497],["ellenőriz",-10.328251775492115],["nyitva",-10.328551371201945],["tagállam",-10.328599892075385],["Ex",-10.329895451177107],["fenntartás",-10.329970140861086],["EP",-10.330089321756368],["San",-10.331634386515216],["72",-10.332595017900694],["személyiség",-10.333549279935497],["700",-10.333778478249753],["sági",-10.333953427601791],["igyekez",-10.333981557667297],["suk",-10.334198344862319],["szereplés",-10.334772146351531],["fős",-10.334827951376363],["emelkedése",-10.33487773673661],["gondolja",-10.336320556382484],["végleges",-10.336330722054242],["ellenfele",-10.336561316851892],["gondo",-10.336705511801892],["MV",-10.336742694865421],["mesél",-10.33681797174123],["táblá",-10.336993122248199],["ă",-10.336995752640433],["korrupció",-10.336995753400636],["alapítvány",-10.336995758072563],["garantál",-10.336995844566719],["ezüst",-10.337038190541634],["főnök",-10.337043116040013],["Közép",-10.337123951531359],["fölött",-10.337185040655214],["különféle",-10.337299719334975],["bizonyíték",-10.337837372283024],["óvodá",-10.338197815472551],["burg",-10.338205096117001],["legfrisse",-10.338495557620602],["teli",-10.34008364401469],["kedd",-10.340728831176738],["közbeszerzés",-10.340836861165837],["79",-10.341617708387368],["fenntartható",-10.342624227977575],["szankciós",-10.343103569298847],["vihar",-10.343665089264832],["hasonlít",-10.343861707386235],["olcsó",-10.344611806066967],["menő",-10.344925155789573],["Mark",-10.34556919529232],["tion",-10.34581558815034],["egységek",-10.346047044194009],["!”",-10.34606980131512],["Szolgálat",-10.346995753293498],["Parlament",-10.34699579077553],["Néhány",-10.346996225933445],["legnépszerűbb",-10.346996677815358],["reklám",-10.34699726334943],["diplomácia",-10.347005226904407],["újdonság",-10.347017235586751],["negyven",-10.347026715271799],["végső",-10.347043128319468],["tartomány",-10.34716516286463],["iparág",-10.347274966456133],["egyebek",-10.347284099708215],["elégedett",-10.347332770242037],["bizonyult",-10.347471374708928],["Színház",-10.34802437298729],["Újabb",-10.348093508767494],["iába",-10.348122682586425],["vizsgálj",-10.348634879391764],["uralkodó",-10.348702640877821],["tekinteté",-10.348844678298587],["ságát",-10.349009402383793],["vo",-10.349065298443744],["szokásos",-10.349190559975973],["bar",-10.350252548780384],["szava",-10.350786336441754],["Vas",-10.350944993037515],["fertőzött",-10.350952802642112],["jelzi",-10.351531700704928],["következik",-10.352200671511955],["költségvetési",-10.352613374402885],["To",-10.35327346913003],["vegye",-10.353637753091292],["97",-10.354466714810354],["Ú",-10.355654321463577],["színpad",-10.356205951697437],["́",-10.357096763384057],["Eddig",-10.357096834608218],["Később",-10.35709709079086],["figyelme",-10.357185425117269],["ciklus",-10.35747575379682],["önmagá",-10.35831374477707],["voks",-10.358551633170627],["alakított",-10.358597782279094],["felmerül",-10.35891035173588],["hibáz",-10.35921520837908],["kedv",-10.359278197020878],["maradtak",-10.359599773935372],["érve",-10.360356755646835],["War",-10.360640072428584],["Központi",-10.360888322696344],["kiegészítő",-10.361319884253088],["származ",-10.361451263771729],["személyek",-10.361854033885836],["64",-10.362192595853884],["Vaj",-10.362225441576907],["számla",-10.363396527952357],["szavai",-10.363651701831024],["jei",-10.365007179520589],["fokozatosa",-10.365249216729556],["Star",-10.36571873135911],["tünetek",-10.366426098564297],["érdekelt",-10.36664950581473],["konferenciá",-10.367300845039162],["Kossuth",-10.367300845049773],["Zemplén",-10.36730084530485],["Dávid",-10.367300847111025],["jelentkezett",-10.367304763966104],["vélhető",-10.367304797398358],["Szatmár",-10.367331314668782],["Erdély",-10.367910179400349],["Mert",-10.368086096032421],["kezdeményez",-10.368190828246172],["folyamatok",-10.368261191916206],["hallgatás",-10.369340978027257],["eredményt",-10.36955015307349],["bizonytalanság",-10.369741504488108],["tájékoztatta",-10.370038450441783],["átalakítás",-10.370283792031337],["cu",-10.370614693712028],["fogadás",-10.370626360675182],["raktár",-10.370648086255283],["bizonyít",-10.370912235977395],["illetékes",-10.371582090398004],["63",-10.37201155334504],["egyetemi",-10.372466391254065],["vádol",-10.373496066972681],["nehézségek",-10.37388788415219],["svéd",-10.374197607295901],["hivatalosa",-10.37457838195225],["78",-10.3747500909448],["civilek",-10.37482321047047],["nyugodt",-10.375122658246635],["hatása",-10.375174524309525],["szintjé",-10.375522977551109],["RT",-10.375607428277647],["lemez",-10.376383177787769],["látogatók",-10.377118444423777],["Air",-10.377179619412814],["gyűjtött",-10.377413863020145],["Karácsony",-10.377610123891383],["mínusz",-10.377610180240833],["koncentrál",-10.377610200607325],["kutya",-10.377616775547894],["Viszon",-10.377624600060685],["Fekete",-10.377815668372637],["visszaesés",-10.37840901693055],["készítés",-10.379419471307225],["jú",-10.379647984676993],["rendelte",-10.38065508004],["óv",-10.382379544118804],["helyén",-10.383241480981605],["személyautó",-10.383311977297208],["rajongók",-10.383434714143554],["segített",-10.383669916565033],["válogat",-10.383962933858387],["képek",-10.383986000871982],["álom",-10.384168437844501],["veszített",-10.386008264830318],["fent",-10.386626725452386],["NP",-10.386681122481198],["rendezés",-10.387013561300222],["69",-10.387514786416245],["hatásár",-10.387628690769706],["TK",-10.387866599062384],["app",-10.387990080982613],["Trump",-10.388028220873343],["migráció",-10.388033656557809],["dohány",-10.38818635229993],["óvatos",-10.388287058442149],["keze",-10.388300062730778],["világban",-10.388696782977465],["hívott",-10.389021688914356],["hid",-10.389539015934094],["emelkedő",-10.389667340525975],["seb",-10.389989255523329],["lélek",-10.390150104876533],["Vég",-10.390464972652993],["tekinthető",-10.390895115489979],["Se",-10.391246746897792],["napjá",-10.392209986515688],["közvetít",-10.392252480526853],["hajtás",-10.392270466072269],["csere",-10.392359548943244],["foglalkozó",-10.392613768090618],["művészet",-10.392814963885781],["amel",-10.392908905581969],["hassa",-10.393056601212496],["iskolák",-10.39318471207262],["DA",-10.393397595999101],["tagad",-10.393650632302894],["bűntett",-10.393774944493256],["lad",-10.394633524715776],["fű",-10.39504633050477],["bizonytalan",-10.396239062034965],["bál",-10.396324975427351],["minősít",-10.396503120327434],["Szu",-10.396612194198916],["dőlt",-10.396699802959],["feltételek",-10.396848405479075],["ová",-10.397090771285251],["gyász",-10.397093019965478],["tanácsadó",-10.397836073869357],["alsó",-10.398469796700663],["Horváth",-10.398553105865364],["innováció",-10.39855313790551],["vakciná",-10.398553266645376],["zászló",-10.398553748724554],["bennünk",-10.398565079042047],["füst",-10.39858671633731],["bőve",-10.398836830977386],["Kiemelte",-10.398974114847395],["mértéke",-10.39938813564515],["láng",-10.399529291730481],["Törökország",-10.400316274315374],["erőteljes",-10.400841821938245],["kettős",-10.401607195554785],["ssé",-10.40167304362193],["Ott",-10.402510585174683],["kilométeres",-10.40257000303238],["mail",-10.403177828724207],["árbevétel",-10.403331084597065],["bot",-10.403645952008958],["lényeges",-10.40364744891625],["pártok",-10.403747750779178],["véve",-10.403756828290984],["játszotta",-10.404662452835709],["következményei",-10.40478622603715],["párhuzamos",-10.40511025115357],["képzel",-10.405404303834004],["Sepsiszentgyörgy",-10.405648234977598],["ügyek",-10.405839250846007],["lányok",-10.406775752185847],["eredményez",-10.407137788318025],["hozza",-10.407526203975252],["kiber",-10.407664366779896],["vitel",-10.408030214182144],["tűnő",-10.408617223743725],["KB",-10.408930444701404],["agresszió",-10.409191403903272],["szovjet",-10.409191527179406],["viadal",-10.40926463314021],["pénzügyminiszter",-10.409311697889677],["szépség",-10.409359616561776],["parkoló",-10.40940318582442],["fém",-10.409495457522222],["Emm",-10.410293475064172],["fogadja",-10.410544014759624],["számot",-10.411093031742977],["csalás",-10.411258478468113],["76",-10.41142508121059],["környék",-10.41161501196909],["futás",-10.411748492657413],["Ferencváros",-10.411919193393205],["jelek",-10.412128130948128],["Ők",-10.412177424538022],["ered",-10.412595523034469],["Öt",-10.41260351754724],["tudhat",-10.41262171948242],["elv",-10.413342720660765],["Joe",-10.41531093494126],["jöttek",-10.415331462540905],["elérte",-10.415605489532007],["maradni",-10.415948440620987],["kezdő",-10.416315953505755],["nyugdíjas",-10.416638770604084],["pat",-10.416667722882142],["kilométerre",-10.417317593397996],["intéz",-10.417842758244738],["Ver",-10.418092129952699],["könyve",-10.418160959481527],["indította",-10.418186561651035],["használható",-10.418499730300493],["atomerőmű",-10.41860736755768],["helyét",-10.418807720295533],["vélt",-10.419199648869654],["veszélye",-10.419203318626323],["torná",-10.419377317573579],["Orosz",-10.419577668589044],["készülő",-10.4196653102777],["méltó",-10.419784780784864],["itárius",-10.419823624679278],["Minisztérium",-10.419944091868864],["maximum",-10.419944091887615],["kancellár",-10.419944101029563],["luxus",-10.41994430264732],["Négy",-10.41995158086113],["pattan",-10.420047861841555],["küzdelme",-10.420058972424126],["szóba",-10.420210471798459],["human",-10.420436257965829],["figyelem",-10.420567351126472],["övé",-10.420889240809023],["utcá",-10.421367241521915],["hette",-10.421646754641865],["szavazó",-10.422079257896094],["vizsgá",-10.422148768345943],["hull",-10.422150246205046],["kereső",-10.42222626611504],["vállalta",-10.422517637302915],["kop",-10.422531934725338],["Dan",-10.422943709673838],["szellemi",-10.42296467202298],["királyi",-10.42376073507335],["fejé",-10.423860798843464],["megállapított",-10.423862422125353],["használja",-10.423957057256203],["látvány",-10.424157336694336],["felelősség",-10.424735388881917],["Ár",-10.42527262347633],["SH",-10.4252788007783],["otthonába",-10.425304810161087],["televízió",-10.425397119777159],["Lu",-10.425493168337432],["halott",-10.425739879169143],["vezetőjé",-10.425797773102794],["médiá",-10.425843072583547],["megtesz",-10.42610826243336],["Mat",-10.426797620125669],["Tan",-10.42686250124476],["öltöz",-10.426979906146569],["sorozatban",-10.427287865375519],["osztás",-10.42739582892649],["eltűnt",-10.427443087972456],["nnál",-10.427556748403505],["További",-10.428322027657174],["élénk",-10.428487758822488],["ovics",-10.42920114719185],["áruház",-10.429851650705771],["őriz",-10.42992870804487],["orr",-10.43017720795363],["autós",-10.430236158680575],["rdély",-10.430740670785044],["variáns",-10.430814664030319],["rivális",-10.430815102388774],["növeli",-10.430848105165854],["pápa",-10.430940735555009],["koreai",-10.43096278056223],["Párt",-10.431050877173366],["mikro",-10.431122283481155],["fejleszt",-10.431792571899049],["Sztár",-10.431881393017576],["forgatás",-10.431949174141883],["épületek",-10.431962299863539],["szög",-10.432219659691514],["árd",-10.432296642191995],["Pár",-10.432325600021542],["tüntetés",-10.43320641115513],["anti",-10.434453207169899],["szán",-10.434508897206236],["apa",-10.434545074323475],["évtizede",-10.435072464292308],["változtatás",-10.435100458566023],["műanyag",-10.43621662306862],["baba",-10.437233035305685],["próbált",-10.437242336335622],["megint",-10.437346596160829],["fennáll",-10.43789362042609],["ránk",-10.437989372024708],["erősebb",-10.43848789241204],["szabadít",-10.438516569597532],["gyűjtő",-10.43862746671244],["sejt",-10.438668763727264],["tárgyak",-10.43871460030263],["veszte",-10.439377658443437],["hírt",-10.440083419187685],["Állam",-10.440217934013145],["milliós",-10.440281477990668],["számolni",-10.440632660295297],["fogva",-10.440822542033235],["gyanús",-10.440870107894705],["próbálja",-10.441233978879529],["előd",-10.441794552639465],["kultúrá",-10.441795352668695],["Herszon",-10.441806728973068],["legfő",-10.441828066578253],["temető",-10.44186084182743],["megkérdez",-10.441891862052508],["igazolás",-10.44220938738582],["téma",-10.442268607674144],["bányá",-10.442280178366127],["innen",-10.442400080346076],["figyelmé",-10.442450451345582],["remél",-10.44285848012472],["amp",-10.442987713816713],["vir",-10.443026371125569],["ock",-10.443084588503616],["színű",-10.443454850233213],["etlenül",-10.443542109992496],["tartozás",-10.443855890837828],["Csehország",-10.444443583706903],["Tisza",-10.444448046436165],["fest",-10.444682951577857],["térségébe",-10.444741094023211],["fizetett",-10.444768804895508],["cal",-10.444768811613566],["lic",-10.445628342605556],["eredményes",-10.445837789279006],["végzi",-10.446013912336578],["játszó",-10.446626966517432],["hatékonyság",-10.447023397181571],["zták",-10.447183594417993],["korlátozások",-10.44767094480149],["várjá",-10.447878217405927],["gomb",-10.447974495570701],["velünk",-10.448523692294053],["valósul",-10.448786903909124],["eltelt",-10.449844969684701],["erősíti",-10.450094800567136],["spórol",-10.450298364408468],["gyakori",-10.451583477013735],["fogyaszt",-10.451636869512376],["emlékeztet",-10.452305564855106],["81",-10.452645906763536],["ünnepel",-10.452655298286711],["ionális",-10.452665641341596],["szomorú",-10.45291378498953],["ritka",-10.452926901653743],["Johnson",-10.453026747197491],["multi",-10.45316984599899],["értelmez",-10.453191713074354],["Abaúj",-10.45336899035563],["előfordulhat",-10.454437311719033],["égett",-10.454510729349442],["teret",-10.454578457717751],["közlekedő",-10.455415360149777],["jelentene",-10.4560337003755],["com",-10.456391034245302],["Gu",-10.456699561251398],["hangsúly",-10.456737681018142],["helyes",-10.456777385922123],["megsérült",-10.456836478231283],["lezárt",-10.457058021699922],["tisztáz",-10.457086150219773],["károk",-10.457200576565072],["zseb",-10.457299470033984],["Főváros",-10.457676989264328],["hazá",-10.457970400597649],["kiló",-10.45811246456405],["Inter",-10.459032701430116],["befejez",-10.459063309005654],["repülőtér",-10.459173552674997],["számítana",-10.459938563082716],["ültet",-10.460526261118412],["háztartások",-10.460599276026862],["övezet",-10.460700397834836],["sétál",-10.461464873640228],["hónapos",-10.461589505833258],["bol",-10.46171556107803],["építeni",-10.46178214625797],["ellentét",-10.461862268097008],["gyengült",-10.46210773259985],["rejt",-10.462310850142302],["emlékezet",-10.46240213564061],["versenyt",-10.462467539512492],["bio",-10.462661025600145],["életem",-10.462897773751955],["mérő",-10.463141366636313],["megvéd",-10.463271656857458],["rosszabb",-10.46378658815393],["Gazprom",-10.464149856863356],["görög",-10.46415008097784],["vörös",-10.464150181307065],["megújuló",-10.464150361131587],["Novák",-10.464161788904526],["kávé",-10.464193783899796],["aszály",-10.46428128638834],["eltérő",-10.464346783863526],["keresztény",-10.46437710111454],["töltötte",-10.464408660969509],["életünk",-10.464649310843754],["Edin",-10.465258610043914],["értékek",-10.465783475798716],["ismerked",-10.466803919386967],["Élet",-10.467014775591139],["tartalma",-10.467254327601864],["ideg",-10.467744174560044],["our",-10.46775905901158],["Magyarországr",-10.46781461831318],["elmélet",-10.467903555730373],["Pest",-10.468164374608294],["felejt",-10.468496483774864],["megszokott",-10.46928629926757],["mennyisége",-10.469445721484103],["mindegyik",-10.469654141522017],["merül",-10.470050014737886],["rakéták",-10.470070734239705],["szállt",-10.471845648221157],["irányba",-10.472015796975661],["Szám",-10.472932679700557],["inket",-10.473496347217235],["megszüntet",-10.473533529916303],["romlott",-10.4752141033198],["infrastruktúrá",-10.475513370782497],["Borítókép",-10.47551338713949],["ázsiai",-10.475514113303982],["részesedés",-10.475514194527602],["vallomás",-10.475533193433456],["alpolgármester",-10.475557244370256],["működtet",-10.475627315544589],["készlet",-10.47576758850781],["elvárás",-10.475844301297954],["sokak",-10.476018594744126],["ányi",-10.476315173826505],["bevezetésé",-10.47650479332912],["közvélemény",-10.476576342711965],["termés",-10.476857086244545],["hessen",-10.477157224616654],["szemét",-10.477190364231017],["színes",-10.478132577244523],["talaj",-10.47833372366864],["szeretett",-10.479038733627316],["tölti",-10.48015598617083],["csatlakozás",-10.480189777785249],["mező",-10.480538926582224],["keddi",-10.480575817562276],["gyilkosság",-10.480689161868918],["visz",-10.480849568176755],["kikötő",-10.48094594658988],["lezár",-10.481422983333566],["folytatni",-10.481621326564596],["felhív",-10.481660124420436],["szokta",-10.481763906984407],["Per",-10.482143923364113],["tanárok",-10.482149791976338],["utó",-10.482458293793101],["77",-10.48247285999625],["fogyasztó",-10.482502901663349],["beszéde",-10.482604274717879],["politikusok",-10.483389628601536],["foglalás",-10.48391551651974],["öltözött",-10.485175457362903],["Do",-10.485592910963263],["koalíció",-10.487007623498233],["monetáris",-10.48700763855614],["Példá",-10.487007686479538],["minimális",-10.487008033547273],["zsűri",-10.487008878240069],["Japán",-10.487012580378732],["kulcsfontosságú",-10.487021699499428],["Macron",-10.487048852879294],["Általános",-10.487059156157265],["tárlat",-10.487191532976397],["törzs",-10.487257321424822],["képző",-10.487370322277712],["érem",-10.48748947188106],["cipő",-10.487497815977473],["játszani",-10.487543651916269],["minőségű",-10.48757654871903],["nyilvánvaló",-10.487851331054431],["minőség",-10.4880571676583],["váltó",-10.488383776731556],["tüzet",-10.488845115130875],["együttműköd",-10.48887958474217],["vény",-10.48921300453117],["négyzetméteres",-10.489905435059399],["repül",-10.490223967807367],["Her",-10.490450376508498],["megelőzés",-10.490801980995979],["túlél",-10.49159360498763],["újság",-10.491764351885703],["azonosított",-10.49176794238251],["bánt",-10.492397569099642],["jegyzet",-10.492537186609312],["hű",-10.492575080340139],["kísér",-10.492677340062823],["nagykövet",-10.493239966669663],["profi",-10.493597198873594],["On",-10.493802510064551],["jegyzése",-10.494300099962327],["segítette",-10.494350351142245],["szólított",-10.494647647148039],["tonná",-10.495046126596165],["font",-10.495110812563691],["Fed",-10.495407604311202],["számító",-10.495661620399611],["89",-10.495677437003852],["korán",-10.495856913589284],["Ső",-10.496395773120714],["titkos",-10.496526005426366],["ügyvezető",-10.496528297523394],["dán",-10.49696051578238],["elmondás",-10.497552707641422],["írni",-10.497716636454577],["kereskedés",-10.49778533476032],["vegyes",-10.497834994299591],["megbetegedés",-10.498635646427728],["Telekom",-10.498641626174177],["tartóztat",-10.498643845425722],["DEA",-10.49895460183283],["sportág",-10.499304503184213],["terve",-10.499538835915958],["88",-10.499618707655877],["villany",-10.499920722508957],["pici",-10.499943083475898],["észeti",-10.500278253038822],["folt",-10.50041659779359],["vezetést",-10.500559892259595],["mindannyi",-10.500759735440766],["Ö",-10.5008985116784],["hajrá",-10.500938423815294],["érhető",-10.502148942062357],["szabott",-10.502278999713287],["jelöltje",-10.502337637467782],["üzenete",-10.502577715261559],["elhagy",-10.502711847101095],["tölteni",-10.503740329374642],["fu",-10.504113125415273],["lényegé",-10.504782741177532],["szakmá",-10.505597277839232],["kutyá",-10.505842400021326],["74",-10.50641325525334],["US",-10.506492796392356],["végi",-10.50655741865728],["szakaszá",-10.507833304564098],["Kup",-10.508379011630133],["pos",-10.508572005725792],["mann",-10.508865031932057],["csó",-10.509292546364092],["lor",-10.509436074575621],["készen",-10.509494822979788],["vasárnapi",-10.510013938299236],["magár",-10.510070080448422],["várta",-10.510259611291197],["véleménye",-10.510302440217405],["éjszaká",-10.510317512255654],["Miniszterelnök",-10.510400236453439],["recesszió",-10.510400236673064],["elsődleges",-10.51040041270395],["táplál",-10.510405049979017],["sárga",-10.510450871730681],["nyújtani",-10.511034094922566],["ügyfelei",-10.511346327780235],["legrosszabb",-10.51148122808949],["Dor",-10.511833519212535],["projektek",-10.511850841486423],["lépte",-10.511852780769292],["ET",-10.512473992044049],["meglévő",-10.512660369037064],["vonulta",-10.513426710386137],["egyet",-10.513621026433714],["Molná",-10.513958275331124],["utcán",-10.514062026678996],["foglalkozás",-10.514603592650591],["MSZ",-10.515280185859904],["filmek",-10.515424282830496],["csőd",-10.516034500967155],["zintén",-10.516166352847357],["gépjármű",-10.516314636997443],["84",-10.51639619638798],["építő",-10.516455759746236],["szövetséges",-10.516787932243325],["szereplők",-10.517013202329961],["kerülő",-10.51732064119917],["székhely",-10.51739743288799],["vetít",-10.51829832976267],["többé",-10.518305127495001],["listájá",-10.518652224255778],["keletkez",-10.518908848507078],["süt",-10.52072469365687],["beszámolój",-10.520894391182726],["kevese",-10.520965985985676],["hétvég",-10.521336516087892],["állampolgárok",-10.521771163099954],["hétfői",-10.521773469074937],["TE",-10.521783556323838],["lángok",-10.521804797825752],["Kárpát",-10.522296582855732],["kábítószer",-10.522304998257145],["nyíregyházi",-10.522305001737994],["feltétlen",-10.52230505828819],["Vasárnap",-10.522306455225976],["verzió",-10.522306463178879],["brazil",-10.522307352407722],["megmenteni",-10.522311422008443],["árnyék",-10.522313325126063],["show",-10.522320834051452],["esküvő",-10.522341093593894],["képernyő",-10.522374706448911],["gépkocsi",-10.52249118084272],["megbeszélés",-10.522692844278662],["videót",-10.52282777086584],["csökkentett",-10.52288836906996],["kultúra",-10.522926337074763],["ence",-10.523071771052777],["egyike",-10.523467827620955],["fejlesztése",-10.523694203020533],["kiadó",-10.524700608855252],["megtalált",-10.52480828608168],["tudós",-10.525380254175102],["legendás",-10.52584196921341],["kötvény",-10.525938459327588],["megkezd",-10.52597493091235],["fordulat",-10.526022131035742],["rövidebb",-10.526417643359393],["megjelenés",-10.527637615517374],["üzemeltetés",-10.527781519592079],["felhívás",-10.528555524710985],["odik",-10.529003016961614],["fejlesztett",-10.529261022356486],["mesélt",-10.529604335923306],["okok",-10.529729835397852],["Nyír",-10.530626808500486],["felhívta",-10.531439626838319],["tárol",-10.53149059844733],["ster",-10.531654810465],["Pri",-10.53168555253797],["tavasz",-10.531689122315829],["érintettek",-10.531805114961125],["díjak",-10.531896716424143],["juthat",-10.53193021209891],["kezelésé",-10.532418700792224],["nénk",-10.533469855377701],["John",-10.534256815898084],["š",-10.534353191013587],["Washington",-10.534353191013675],["izraeli",-10.534353649653639],["mandátum",-10.53445824947871],["huszon",-10.534459779229099],["népszavazás",-10.53454200014798],["utánpótlás",-10.534861097239443],["maszk",-10.534880788571398],["számunk",-10.534891770632385],["halaszt",-10.534998001771942],["szár",-10.535059153574135],["tankol",-10.535149623741397],["alapított",-10.535400143848923],["ezred",-10.535485017745216],["rendel",-10.535561032902795],["együnk",-10.535729024416712],["regisztrált",-10.535989650579968],["belváros",-10.536278992300126],["étterem",-10.53636500643526],["túrá",-10.536430910209411],["hagyja",-10.536678736381317],["hangz",-10.536941334821103],["rögzít",-10.537024874648106],["drog",-10.537080219440783],["váltak",-10.537436805942486],["költsége",-10.5379034014551],["Go",-10.538566115102135],["meccse",-10.539211934890643],["oldalú",-10.539564815570316],["találkozón",-10.539816407314882],["részletei",-10.540174595138485],["ingatlanok",-10.54038395811082],["célba",-10.540537575296735],["Con",-10.540802055413694],["Papp",-10.541192572071402],["befektető",-10.541282390924206],["épülete",-10.541657793097187],["szakszervezet",-10.541790658319583],["csinálni",-10.542218529321627],["Berki",-10.542541237139787],["akadt",-10.542630043371465],["kór",-10.543567261035204],["rov",-10.5435755232754],["rögzített",-10.543936476712009],["légvédelm",-10.544274652389063],["korú",-10.54466417337923],["szárny",-10.54536432761074],["kiegészít",-10.54538171151786],["selejtező",-10.546548331781775],["Árpád",-10.546548483498446],["karbantartás",-10.54655265174869],["Majd",-10.5465527502372],["Országgyűlés",-10.546559409172659],["véleked",-10.54655994157968],["szállodá",-10.546603179227555],["SC",-10.546681050733326],["ettek",-10.546732137397818],["dönteni",-10.546737098637042],["egyenlő",-10.546762328104059],["küldetés",-10.546804556774152],["gyereke",-10.546845178400917],["közi",-10.546865119947089],["Hétfő",-10.546951690852051],["személyzet",-10.54696093298358],["változatlan",-10.547093031607828],["mérleg",-10.547153333353537],["87",-10.547187684357255],["tudná",-10.547301395608699],["61",-10.547332709743447],["érthető",-10.547662625524747],["ézve",-10.547963584198879],["tervezet",-10.548421111421497],["képessége",-10.548784051561043],["házat",-10.548841251170337],["keresni",-10.548893407341746],["fejlett",-10.548944439310489],["kötelez",-10.549459481145448],["cső",-10.549483849953946],["dolgozta",-10.549660323091622],["életébe",-10.549714725853224],["terjedő",-10.550013275030398],["háborút",-10.550413515056915],["zöldség",-10.550515926499347],["perces",-10.55088045458494],["Pho",-10.551782003355012],["próbá",-10.551823960503793],["hatékonyabb",-10.55189678207365],["korszak",-10.55191405512323],["figyelni",-10.552056013595159],["működését",-10.5528885399437],["Mindenki",-10.552923642287247],["barátja",-10.552986103618245],["Lát",-10.553272748425517],["ütés",-10.55383584958977],["megállapodást",-10.554589739443957],["szintet",-10.554748308712089],["Teh",-10.554795468440451],["zárult",-10.554858953787347],["építési",-10.55489217681584],["érni",-10.554937827516307],["zuhant",-10.5554991140466],["szurkolók",-10.556171199224522],["közep",-10.556437718071056],["kötet",-10.557636070961797],["tervező",-10.558182896981192],["ital",-10.5583059652195],["tesztel",-10.55832105400619],["afrikai",-10.558894000710616],["fideszes",-10.558894056444059],["Hasonló",-10.558894575823711],["kabinet",-10.558895958733277],["Jobbik",-10.558897425367533],["Jakab",-10.558898445040047],["sűrű",-10.558914280776651],["irodalom",-10.558994718921863],["Fotó",-10.559030443884602],["együttese",-10.559031671121318],["óvoda",-10.559099418513558],["végzés",-10.559133052591928],["cseré",-10.559193895237676],["tempó",-10.559460614038219],["irodalm",-10.559598855868973],["közlése",-10.55977768203473],["hetedik",-10.55978914013836],["támogatott",-10.559943609669453],["jele",-10.560343166513752],["szerelmes",-10.560521478267761],["Tra",-10.560553374594587],["gázolaj",-10.560865021045341],["kötőd",-10.56130535624012],["támadta",-10.561666744696055],["apja",-10.561920470995052],["teljesített",-10.562258033988346],["drágább",-10.56283201123368],["százalékpont",-10.563153232165842],["kezdődő",-10.563647957142763],["fotót",-10.563759838476996],["juttatás",-10.564114701140348],["abbak",-10.564285410929237],["turisztikai",-10.564365231273538],["megvalósul",-10.56546047869848],["sorol",-10.565871876092906],["Olaszország",-10.565887072297517],["ételek",-10.566251124711343],["modellek",-10.5670416376378],["biztonságá",-10.567564307207418],["küldte",-10.567879027787814],["terhelés",-10.567972513443442],["takarít",-10.567996492637214],["szellem",-10.568005445338141],["96",-10.568036053935831],["felét",-10.568479096548256],["terep",-10.56868523188939],["finanszíroz",-10.568743813265819],["kiemel",-10.569569962073144],["csendes",-10.569794048560272],["szakértői",-10.57056896616433],["fiatalabb",-10.570724642286399],["tarthat",-10.57082904390497],["Sepsi",-10.571388983512865],["Bihar",-10.571395195245483],["Judit",-10.571405446151719],["kijevi",-10.571410534499124],["háromszéki",-10.57141616069748],["ural",-10.571443994390345],["rendszerese",-10.57160396204578],["sztori",-10.571706457840724],["házaspár",-10.572230731393365],["csökkenteni",-10.572285410018083],["összefogás",-10.572340086123157],["örökség",-10.572362529491471],["stáb",-10.572627454474432],["támogatások",-10.572720147309267],["mentális",-10.572796050394],["ser",-10.572812497479548],["összességé",-10.573074656672784],["fák",-10.573235581757174],["élte",-10.57375552846046],["kereskedők",-10.573861915379027],["Lehet",-10.573964296879401],["tudatta",-10.574388104475968],["okozó",-10.57529179471937],["százezer",-10.575365168072608],["pályás",-10.575522761037575],["építkezés",-10.575605349821114],["fertőzötte",-10.57571119261066],["tájékoztató",-10.576057445768939],["léptek",-10.57612724823576],["többségé",-10.576403235858463],["sör",-10.577026297528556],["Sp",-10.578434319799806],["esztendő",-10.578553425415166],["nőttek",-10.578647374925767],["megvan",-10.579188313571414],["hunyt",-10.579421458015677],["torna",-10.579603278880128],["láttá",-10.579896593748833],["helyezte",-10.580041041295456],["bírál",-10.580179510046392],["bővülés",-10.580304184257031],["DVS",-10.580692439667601],["megfelel",-10.581206234266464],["felszín",-10.58169942772317],["ítélte",-10.58187941342954],["kitért",-10.582780358931656],["tatta",-10.583117985506316],["viselkedés",-10.583675628676758],["1000",-10.583857306332504],["sark",-10.583858395396945],["londo",-10.584023435430794],["kártyá",-10.584045367934067],["Spanyolország",-10.584052219953133],["Horvátország",-10.58405222013779],["informatika",-10.584052545369916],["tüzérség",-10.584052655025747],["bolygó",-10.584053061555105],["Farkas",-10.584055107479994],["völgy",-10.584056468152042],["posztjá",-10.584193980117252],["pap",-10.584549410780845],["Béla",-10.585042418503795],["szörnyű",-10.585122874036148],["járni",-10.585189850799171],["öreg",-10.585259718855994],["tizenkét",-10.586803936078729],["omat",-10.586877893739459],["polc",-10.5872292428764],["foglaló",-10.588300260919823],["szolgáltatók",-10.588426949830414],["feltételez",-10.588522272682276],["kedvelt",-10.589409010163408],["megyé",-10.589559151634145],["kodó",-10.58957922504268],["nappali",-10.58968776187698],["versenyzők",-10.590119795700637],["hatvan",-10.590307928623396],["legkisebb",-10.590318711892102],["pri",-10.5903719816378],["sikert",-10.590898752379585],["programja",-10.591623456320903],["körbe",-10.591636353807122],["sorra",-10.591720837877176],["erőforrás",-10.5918371017946],["utalás",-10.592778041748264],["bátor",-10.59290877524938],["erőt",-10.593254547418862],["Sto",-10.59423272747146],["adományoz",-10.5942376119999],["segítse",-10.594444057884218],["éjszakai",-10.595662227373369],["kezdté",-10.59656964476645],["szerződések",-10.596614528097072],["č",-10.596872732565412],["Reuters",-10.596872736343183],["Puskás",-10.596872820087835],["Richter",-10.596872846688344],["tragikus",-10.59687398087107],["Érdem",-10.596892067663655],["sújtott",-10.596959255905292],["hozhat",-10.596960922266131],["meglehetős",-10.59696571140508],["weboldal",-10.597012720556688],["merült",-10.597236690314936],["szembesül",-10.597361118128884],["roham",-10.597612375831467],["lőtte",-10.59785239854883],["aláírás",-10.59794273697106],["kupa",-10.59794974775335],["tudtu",-10.598112830517525],["megközelít",-10.59898680383511],["vezeti",-10.599115882604313],["védett",-10.599263904787666],["készpénz",-10.599724386233909],["elismerte",-10.600038196557705],["Gal",-10.600290865454117],["készülni",-10.600480139996293],["Petr",-10.600902979001365],["nyereség",-10.601136067802212],["arch",-10.601351955649951],["kivitel",-10.60197333542283],["ruha",-10.602817939362485],["alternatív",-10.603197843945555],["pénzek",-10.603275666343666],["kedvezményes",-10.603454794035239],["nagyszerű",-10.603955501438428],["tanév",-10.6042605832358],["szokott",-10.604579765104397],["198",-10.604752133516742],["megelőz",-10.60493690350151],["szert",-10.605276890432265],["kívánt",-10.60543879928008],["vész",-10.605619019333297],["KD",-10.60587118781135],["73",-10.606188730173393],["alakulhat",-10.606192533263437],["védekez",-10.607020708179085],["termel",-10.607163026188395],["nyerni",-10.607165150258304],["autót",-10.607483983183357],["hónapokba",-10.60749109619141],["álja",-10.607559808561883],["mehet",-10.607572847338183],["jal",-10.60784330233852],["jegyzés",-10.608005966658911],["csont",-10.608206322238075],["71",-10.608525330578498],["önkormányzatok",-10.609081487965042],["Fehér",-10.609084315458691],["Por",-10.609573760312255],["indulhat",-10.609600801304271],["Szlovákia",-10.609859746387578],["Hungary",-10.609859749859737],["Program",-10.609859833879812],["óceán",-10.609872195300714],["jelentkező",-10.609885768693776],["transz",-10.609913224326213],["főtitkár",-10.610118453926871],["Szak",-10.610259068635626],["borult",-10.610322685271933],["dátum",-10.610457301510568],["szereti",-10.610834366235423],["kapunk",-10.611188708171877],["reform",-10.611369451775037],["legalacsonyabb",-10.612115987705991],["oktató",-10.612208628858987],["melletti",-10.612547661767014],["legyőz",-10.612581963968836],["államok",-10.612629060711953],["üs",-10.612877160675461],["szett",-10.612892223941213],["kategóriába",-10.613087482533755],["Romániá",-10.61327079244652],["kezdés",-10.613335853428735],["kint",-10.614273651149519],["vásár",-10.61443259400114],["elért",-10.614954493022974],["léphet",-10.615436928523211],["lépése",-10.615499670109845],["Való",-10.615557598468625],["elmarad",-10.616722807589742],["ugr",-10.616902099458953],["stratégiá",-10.617800346090679],["magasság",-10.618086616831974],["szegény",-10.619261750551257],["megakadályoz",-10.619273796046649],["parancsnok",-10.619848962408287],["lehetőségét",-10.62033555511903],["meccsen",-10.620782228728434],["értékes",-10.621809097653822],["résztvevő",-10.622262221196362],["kötés",-10.62266641701609],["érje",-10.622824041357529],["alábbi",-10.622964464457851],["nyaralás",-10.623019843246897],["deviza",-10.623135163059953],["tizenegy",-10.623157787079288],["lépcső",-10.623184920818122],["Tesl",-10.623252240301895],["Buda",-10.623404411411375],["feldolgozás",-10.62342694466657],["béremelés",-10.623494229946452],["hírportál",-10.623549734906218],["születésnapjá",-10.624126959719577],["kamera",-10.62417921694215],["büntetőeljárás",-10.624309237912765],["tetsz",-10.624823202368741],["föl",-10.624914500555722],["adag",-10.625360279320832],["Liga",-10.62549287104137],["anyá",-10.625601138145875],["vajo",-10.625698482176665],["elkezdte",-10.625726544911476],["csend",-10.625974983238006],["belépő",-10.626099632275434],["kedve",-10.626282678951434],["térít",-10.626612202434494],["cikke",-10.626674112341039],["munkavállalók",-10.627154170761864],["területi",-10.627701585752861],["hőség",-10.627956439412625],["ellene",-10.62876185212507],["elképzelés",-10.628766058153765],["meghaladj",-10.629037553299517],["elmond",-10.629254508391035],["82",-10.629467143376832],["párti",-10.629769420879661],["újjá",-10.629840953197881],["ismertett",-10.630043122606873],["bevezetet",-10.630262802807442],["terme",-10.630527362526891],["rendelő",-10.631036870830725],["kutak",-10.631192462695903],["béké",-10.633182861028526],["ebbe",-10.633501049874084],["ereszt",-10.634330620570019],["ebbé",-10.635183915688938],["közlés",-10.635688804236114],["idősek",-10.635731539925105],["egészségügy",-10.635735081641567],["veresége",-10.63611726676601],["helikopter",-10.636278260261118],["cselekmény",-10.636297918019686],["Teljes",-10.636354132314738],["riasztott",-10.636356391503206],["Szabad",-10.636359118671818],["Egyéb",-10.63637371036652],["!\"",-10.636418936522581],["kreatív",-10.636439609038236],["okostelefon",-10.636555245384152],["augusztusban",-10.637248860488839],["felhős",-10.637267161016805],["beleér",-10.637285407509188],["lakók",-10.637531054916412],["legközelebb",-10.637794324858103],["váltani",-10.638033763723119],["teherautó",-10.638232514248624],["akarat",-10.638424019804818],["vezettek",-10.638438461002263],["főút",-10.638815778964652],["vallás",-10.639008097551066],["kereskedő",-10.639754114778237],["támogatta",-10.640072537442745],["bél",-10.640783817933904],["télen",-10.640850386727031],["vinni",-10.641122462092126],["elfogadott",-10.642984451682468],["üze",-10.64404610311123],["igyekezet",-10.64443316364472],["kérdezte",-10.645519977776669],["Ger",-10.645870016909564],["bont",-10.645989372286696],["céljá",-10.646091661990885],["ezelőtti",-10.647014964018926],["kormányzat",-10.647400183370149],["szakad",-10.648426508448523],["ígérete",-10.64845489750234],["várakozások",-10.64905622907548],["vonzó",-10.64954512056926],["értékelés",-10.649607665377403],["utáni",-10.64964749124254],["agresszív",-10.649864525646244],["hibrid",-10.649864541195303],["furcsa",-10.649864808610218],["Robert",-10.649871060997146],["megalapozott",-10.649877636560271],["gyűrű",-10.649878848621407],["kellemetlen",-10.649888831360462],["jelentkezés",-10.649898475628833],["csatorna",-10.649901323541542],["brutális",-10.650058662454782],["termeszt",-10.650086014836154],["Bereg",-10.650226539756277],["kézzel",-10.650370865349814],["kockázato",-10.650540245728756],["egyetért",-10.650623180110333],["változó",-10.650643675187577],["Németh",-10.650693459998415],["református",-10.650697005006581],["aligha",-10.652036414873736],["karakter",-10.652322970057655],["átállás",-10.652378909070517],["tavas",-10.652782385491491],["törő",-10.652938586859758],["kétharmad",-10.6530166312374],["elejé",-10.653114488962586],["Irán",-10.653499953028305],["adóz",-10.653506289141998],["Tor",-10.653788494067236],["valah",-10.653924517242924],["keletkezet",-10.653944098775066],["BC",-10.654016205880598],["Dániel",-10.65445224529083],["kormánypárt",-10.654454683461612],["márká",-10.65496046380617],["pénztár",-10.65546750199796],["vágás",-10.655564441767847],["helyezked",-10.655660295642633],["északkeleti",-10.656275156701494],["odafigyel",-10.656756466796415],["kezdeni",-10.656779554767809],["pek",-10.656979891051284],["biztosítj",-10.657283431034756],["irányított",-10.657474721562448],["Sal",-10.657716582189899],["vezetőedző",-10.658154148817651],["listán",-10.658780606414686],["hango",-10.659024726199473],["megold",-10.659431106866187],["Col",-10.65984342967198],["sikere",-10.659866685120427],["rangsor",-10.660133261628431],["emelni",-10.660666339061173],["támogatását",-10.660732986409995],["vizsgálatok",-10.661594528732548],["nyomozók",-10.662523155978505],["töm",-10.662608065741821],["enyhít",-10.662941653870508],["Park",-10.662964882587147],["lök",-10.663481316084981],["megvalósítás",-10.66352425607069],["Szilágyi",-10.663563117681596],["incidens",-10.663563117750407],["közigazgatás",-10.663563155734625],["bonyolít",-10.663563180303555],["immun",-10.663569136530871],["Amerika",-10.66357303606824],["turizmus",-10.66357831340428],["adósság",-10.66364994093313],["bűnös",-10.663901236126737],["kíváncsi",-10.663943223490353],["befolyásolj",-10.663973786583943],["menjen",-10.663984600918646],["továbbiak",-10.664119924441792],["cska",-10.66472150140601],["segítene",-10.664736528631089],["köze",-10.665282110786523],["UX",-10.66528370162617],["nevelő",-10.66540022580943],["művek",-10.66597352581782],["fokozott",-10.665988612680621],["hitte",-10.666271308863735],["94",-10.666337810946825],["magabiztos",-10.667285930221043],["felismer",-10.668047952822956],["inform",-10.668472233853958],["tanulás",-10.669187422112273],["barátság",-10.669245194511037],["bejelentése",-10.669850408152492],["számom",-10.67034363661369],["bővült",-10.670978028944713],["gazdák",-10.671268031704233],["bevételek",-10.671994505999912],["adód",-10.673094687630048],["ritkán",-10.673891375344665],["érzékel",-10.674349185611435],["termelők",-10.674747970129298],["Romániába",-10.675094709443036],["verte",-10.67514392759597],["tudomás",-10.675195048451762],["tároló",-10.67617248561831],["betegségek",-10.676316358491794],["helyzetek",-10.676499009226324],["bizonyított",-10.677388781878665],["lapot",-10.677408922308555],["Veszprém",-10.677452006425138],["automatikus",-10.677452014487244],["Hangsúlyozt",-10.677452020840384],["Group",-10.67745220923885],["belügyminiszter",-10.67745224659598],["moszkva",-10.677452481973729],["Klub",-10.677458712510411],["dolga",-10.677462791170086],["kímél",-10.67747017707243],["válaszadók",-10.677473258555208],["rapper",-10.677479083503378],["drága",-10.67749920209943],["madár",-10.67751071252789],["nyersanyag",-10.677526556623112],["fagyaszt",-10.677577125319418],["semleges",-10.677743020381886],["légitársaság",-10.677763757128307],["forró",-10.677777920087607],["fárad",-10.677887599301016],["NAV",-10.67811958200692],["mindkette",-10.67812969534755],["üldöz",-10.678163908509177],["felnőttek",-10.67833731945872],["elítél",-10.678432882944042],["bil",-10.678442958062572],["születés",-10.678710784891756],["Mc",-10.679199707490998],["lus",-10.679313185998502],["Egyes",-10.679533971804506],["Számos",-10.6795342789912],["térkép",-10.680065284075171],["lakói",-10.680152429742504],["húzódó",-10.680284291133578],["nyitás",-10.68035282508557],["boldogság",-10.680546434290324],["les",-10.6806472460501],["kisebbség",-10.680681855561854],["elemzők",-10.681231594907974],["kezelni",-10.681342083044553],["tisztel",-10.681582375691969],["csökkentése",-10.681862312443979],["energiaellátás",-10.682022645673891],["iskolába",-10.682153329263828],["reakció",-10.682624966089154],["ismerhet",-10.682687888170106],["lépések",-10.682791960180896],["tárcavezető",-10.683225050863136],["üzletember",-10.683606439515714],["Vol",-10.683964088478335],["mondható",-10.684596693797154],["találtá",-10.684662602857593],["Milyen",-10.685210662540012],["gyűlt",-10.685358583681424],["qu",-10.685367243178348],["Dunaújváros",-10.685702853857212],["kellő",-10.686271801658801],["Szerintem",-10.686540395117797],["létrehozásá",-10.686655478666992],["estek",-10.686661020433329],["kifejezés",-10.686846216868798],["nézett",-10.686955925723009],["bontás",-10.687176514365198],["IC",-10.688109731757606],["azonosít",-10.68812417847651],["irányít",-10.688170129588134],["elit",-10.688214252681767],["jelentő",-10.689363904297533],["Rend",-10.69001234259899],["gyanú",-10.69005017353733],["közelít",-10.690053159258749],["finn",-10.690312660069491],["gyulladás",-10.690550645157469],["indítás",-10.69062066644505],["menekül",-10.690677507112204],["szakadt",-10.690822953582344],["újságírók",-10.690883985065213],["szavak",-10.691250331436922],["babá",-10.691273749874094],["páciens",-10.691536538726396],["Mészáros",-10.691536632241952],["varázs",-10.691536912081505],["dobogó",-10.691543875333892],["hozzáférés",-10.691573428756136],["EB",-10.69163259702188],["tanult",-10.6916534926325],["időnként",-10.691737544864562],["korai",-10.691781375785045],["utalt",-10.691884573474148],["Kiderült",-10.691982364843518],["veszélyt",-10.692042238997029],["autópálya",-10.692094560651562],["Euro",-10.69218538123043],["Arany",-10.692294073915734],["római",-10.692297267735878],["Fri",-10.692366346447681],["bátra",-10.692933024882432],["ley",-10.694226711880695],["kizárt",-10.695606846468865],["foglalkoztatás",-10.696263941933951],["viharos",-10.696319355622371],["hangsúlyoz",-10.696323408843487],["világjárvány",-10.696454124017933],["Szala",-10.697073120771229],["búcsú",-10.697285761148404],["Dom",-10.69777046073102],["piacr",-10.698080894296941],["északnyugati",-10.698287988633172],["jelenlété",-10.698293665970624],["mozgat",-10.698923999236637],["vállalkozók",-10.699680620461843],["apság",-10.700339731992912],["döntések",-10.700651930703739],["használhat",-10.700749464999738],["ugrás",-10.700834075808853],["ellátó",-10.700926960964473],["elveszít",-10.701306849567187],["86",-10.70149900439716],["jelző",-10.701628013337311],["pillanatok",-10.7017204502556],["férjé",-10.701756775126192],["ezze",-10.701918134350283],["ES",-10.702385610136703],["délkelet",-10.702589019831837],["Közel",-10.70275549957376],["találkozás",-10.703001038814307],["MI",-10.70313081183534],["mezőgazdaság",-10.704661931427147],["összeköt",-10.704708327666108],["terhe",-10.705555895063817],["szerencsés",-10.705701072823254],["labda",-10.705753281103892],["jövedelm",-10.705819277016513],["»",-10.70582222757031],["gyengébb",-10.705822232316189],["Nyilván",-10.705822232601752],["fájdalom",-10.705822513245751],["stadion",-10.705822709096443],["Zsófi",-10.705823899431476],["IM",-10.705905931701889],["frank",-10.705907947516188],["fúj",-10.706138170975745],["hajók",-10.706265205596782],["felfüggesztett",-10.706386927611605],["egyedülálló",-10.706560950616609],["ping",-10.706956386711497],["csatá",-10.707054758274644],["emleget",-10.707073872250012],["Minde",-10.707271630848783],["maximális",-10.70739222474853],["idézi",-10.707513760273185],["viszi",-10.70761917808036],["lehessen",-10.708143651915965],["programjá",-10.708249403487873],["nyomozó",-10.708306715988241],["fokozat",-10.708712094119356],["másod",-10.70897970986259],["Games",-10.709486094059084],["Antal",-10.70967054730924],["Ör",-10.709978660354992],["normális",-10.710286210210159],["Hír",-10.710367283521112],["minőségi",-10.711059888700404],["nyelvű",-10.711073446735474],["kapni",-10.711084458019176],["márka",-10.712636662247306],["békés",-10.71305081746971],["hitelek",-10.713482430083506],["elindult",-10.713602428310363],["pontjá",-10.7139787783461],["Tom",-10.71446037286335],["védeni",-10.714935367703475],["DV",-10.715020982493424],["berg",-10.715090324839199],["tényleges",-10.71517813322841],["motoros",-10.7159660061253],["kérni",-10.71623246549563],["tilt",-10.716573583888156],["hangos",-10.718050529501777],["szerelme",-10.71850172080141],["ütött",-10.718779437579848],["pontok",-10.718819304229221],["tőzsde",-10.7190383873759],["Op",-10.719258973209481],["szögezte",-10.71939000672459],["Tele",-10.719878649703018],["hajtó",-10.71993097752082],["fűzte",-10.720185464356101],["Kovászna",-10.720314983613576],["bicikli",-10.720315050651973],["horgász",-10.720315882745702],["TikTok",-10.720316044039052],["küszöb",-10.720316404954787],["Finnország",-10.720317815645789],["liberális",-10.720320108009423],["húsvét",-10.72032388836633],["Hazánk",-10.720326572971514],["humor",-10.720335330694397],["enyhe",-10.720339102760441],["Csütörtökön",-10.720449162953017],["őrző",-10.720536408134162],["Bukarest",-10.720708328396995],["megbízható",-10.72074619216303],["szervezés",-10.720843455169986],["szakított",-10.721520377662781],["Korea",-10.722001123198325],["népszerűség",-10.72235311207977],["160",-10.722354966740372],["egyenlített",-10.722680586370009],["sült",-10.72277251577701],["értelembe",-10.723251644246577],["fiúk",-10.723594107555748],["tartalmazó",-10.723794318753743],["építőipar",-10.723984577749734],["tevő",-10.724384161652411],["tulajdonosok",-10.724513537565537],["juss",-10.724686078308501],["felvételek",-10.724798288766252],["kezdi",-10.72504370042264],["oroszország",-10.72507992882267],["életmód",-10.72574019426117],["megjelenése",-10.725881496433455],["rendezvények",-10.726047674972833],["vezetni",-10.726294434152667],["utasítás",-10.726466787605002],["válhat",-10.726525601833025],["kárt",-10.726641370162472],["fenntarthatóság",-10.726699670740405],["támogatni",-10.726860784321167],["párja",-10.727028253243535],["érvénybe",-10.727107224638978],["alakulásá",-10.727130225632179],["keresett",-10.727708162550485],["foglalkozni",-10.728368831911384],["alelnöke",-10.728870710265738],["98",-10.729408960151916],["alapító",-10.72990901586924],["bbá",-10.73015721495928],["ebbek",-10.730818877186893],["bővül",-10.731462837662383],["tagok",-10.73168363168374],["versenyen",-10.731876579328961],["ugyanez",-10.73199487244223],["követői",-10.73238806303205],["regisztrál",-10.733024729299988],["feszültség",-10.733168397370878],["mentek",-10.733172759318911],["pótol",-10.73325377491664],["zóná",-10.733880725068651],["munkás",-10.734164512181366],["Ezút",-10.734555844946776],["Ó",-10.734778301210522],["Akadémia",-10.73502086378139],["kilogramm",-10.735021324818172],["Rádió",-10.735021412614358],["kenyér",-10.735022131033713],["Alexandr",-10.735030557839746],["video",-10.735037903113003],["szlovén",-10.735038763016355],["szigorítás",-10.735083113736664],["kártya",-10.73511176704188],["megyeszékhely",-10.735124641737798],["Háromszék",-10.735149464217667],["kerítés",-10.735245350251745],["indok",-10.735276769106097],["Mond",-10.73543316097745],["Max",-10.735649858505404],["Bajnokok",-10.735839444964157],["közti",-10.736233059226585],["Dar",-10.736874490254685],["másképp",-10.736904507694035],["sorolta",-10.737001188809078],["könyvtár",-10.737091637455094],["előnye",-10.737295384924208],["borít",-10.737650614721382],["eszközt",-10.737928697124852],["korszerű",-10.73819356520648],["elsejé",-10.738290674693154],["szabályai",-10.738613955351564],["Szerdá",-10.738627784676385],["szolgálja",-10.739446734422291],["ER",-10.7401033488252],["kényelmes",-10.740183397772856],["kapja",-10.74032266822646],["földön",-10.74137571466406],["lejt",-10.741385150260216],["szeretettel",-10.741407215731321],["szintje",-10.741871523809978],["vesztés",-10.74199296417433],["villamosenergi",-10.742186456657326],["határoz",-10.742772735633382],["megkapta",-10.742971016866058],["emeli",-10.74404607237219],["fontol",-10.74427041243249],["gyermekük",-10.744609110154784],["találja",-10.74476064725814],["szelet",-10.744868402045554],["nagyot",-10.744871104002371],["fejlesztők",-10.744986794951743],["régen",-10.745381479329016],["összetett",-10.74578856902723],["gyengülés",-10.746162497892742],["ölte",-10.746447442154565],["kollégá",-10.747632204242578],["szabályoz",-10.748084225592347],["magyarság",-10.748493578354351],["vetette",-10.748994758223017],["csomago",-10.749052042827792],["gyerekei",-10.749097088021749],["partnerek",-10.749656617156337],["off",-10.749656777083224],["technológiák",-10.749685945172505],["portfólió",-10.749946236683183],["kritiká",-10.749946334922049],["Izrael",-10.749947543984586],["elengedhetetlen",-10.749948350649547],["mögé",-10.749950810496951],["bronz",-10.749954437781653],["megkérdezettek",-10.749993598136047],["tartalom",-10.74999635079472],["Pécs",-10.75001495958972],["Ákos",-10.750025391768412],["számon",-10.750031548343088],["vendéglátó",-10.750087458067064],["elkötelezett",-10.750088146832681],["hódít",-10.750202206800562],["valamelyik",-10.750336574288273],["készíteni",-10.750394344963265],["Dmitr",-10.750635883505112],["pihenő",-10.75063847386999],["jegyek",-10.750828235420766],["Kedd",-10.750873870267743],["eltávolít",-10.75089350636122],["vezetése",-10.75135312546747],["napirend",-10.751819024429988],["alapkamat",-10.751884501471313],["emléke",-10.75192614439309],["ává",-10.7522088962798],["feltűn",-10.752882442098993],["ülése",-10.75494669052504],["kiadások",-10.754973396511144],["látogatott",-10.755368862798274],["átadás",-10.755390486622403],["fénykép",-10.755707552497093],["végezni",-10.756406527389567],["fizette",-10.75643309562305],["mérés",-10.75656255840439],["fordulójá",-10.757078460669959],["csapódot",-10.757428548715055],["végeredmény",-10.757850258630038],["vevők",-10.758783864178096],["baráti",-10.758910761104401],["egyenes",-10.759933955463383],["mozdul",-10.760394255537488],["kormányzó",-10.761143048478893],["főpolgármester",-10.761921549195794],["nézte",-10.762245896181398],["csok",-10.762908353433016],["útra",-10.763389905869543],["utóbb",-10.763694155183838],["boltok",-10.763735588758468],["ázta",-10.764063140913393],["ozzák",-10.764215065891268],["gondolkodás",-10.764529456225066],["sürget",-10.765097778137958],["jövedelem",-10.765097817573485],["Scholz",-10.765101302041128],["stressz",-10.7651124561239],["magazin",-10.765116091845215],["szokatlan",-10.765121748239695],["Svédország",-10.765133696894768],["nyolcadik",-10.765144828336009],["norvég",-10.765150563389117],["kivitelezés",-10.765181929330563],["centiméter",-10.76523489087763],["regény",-10.765236998241548],["belföldi",-10.765263201466084],["elkövetésé",-10.765339002944387],["gyermekei",-10.76542845494141],["költött",-10.765667806243076],["lopás",-10.765690533065998],["köthető",-10.766009677338971],["visszajelzés",-10.766102481568225],["helyzetét",-10.766119951704765],["ajánlás",-10.766335704230801],["rí",-10.766682091655525],["ujj",-10.766734937111039],["kitörése",-10.76679282251081],["hesse",-10.766813103156618],["javaslato",-10.766888849332403],["szakma",-10.76746087935571],["szélesebb",-10.767967490417455],["rendes",-10.768093802158878],["Bab",-10.768182083799669],["ülésen",-10.768405144832032],["bevezetése",-10.768775699662545],["összegű",-10.768889355544237],["kincs",-10.769178880423379],["taxi",-10.769381571530827],["Szlovákiába",-10.769654077573389],["áldozatai",-10.770173361463149],["készítő",-10.77037367578906],["könnyed",-10.770528829316365],["zsír",-10.770669205814167],["csoportjá",-10.770723416136349],["töröl",-10.771422892217306],["pusztít",-10.771672329223442],["ütötte",-10.772171454289285],["tavaszi",-10.77233137985907],["egyeztet",-10.772617621768589],["belépés",-10.772619345885996],["tatni",-10.77304357384073],["gólos",-10.77308305630041],["drámai",-10.773361868394879],["Bod",-10.774695678456485],["épülő",-10.774725912708892],["szemlé",-10.775893091280956],["közeled",-10.776087111181388],["csökkentésé",-10.776114084486501],["karrier",-10.7766113616583],["előbbi",-10.77680807104893],["jogok",-10.777042452702734],["ejtett",-10.777174721793784],["termékei",-10.777982356891368],["elnököt",-10.778006030332582],["gyűlés",-10.77832707444941],["vonni",-10.779257937590796],["hord",-10.779426719399233],["talp",-10.779498986820137],["83",-10.779734735520798],["Gimnázium",-10.780482367217006],["menedzser",-10.780482367944439],["megállapítás",-10.780482370239397],["Donald",-10.780483092150568],["vigyáz",-10.780483173063992],["Szolnok",-10.78048333490247],["extrém",-10.78048683392438],["techniká",-10.780495989965953],["folyosó",-10.780498005893708],["tönkre",-10.780502155453217],["megnöveked",-10.780514560386868],["próba",-10.78053277964569],["vékony",-10.78059114333882],["bánya",-10.780975456565795],["címvédő",-10.78101075862698],["Honvédség",-10.781324048506244],["magad",-10.781640407139689],["leinte",-10.781983992390053],["frissítés",-10.782027001458225],["méh",-10.782323096201457],["lóg",-10.782736991577508],["ittas",-10.7829247142501],["rajongó",-10.783216021874253],["hajl",-10.783350942032861],["élvonal",-10.783520866148859],["körülményei",-10.783963400697655],["valószínűség",-10.784574608181629],["összeállítás",-10.784862400991265],["holnap",-10.784898805226145],["cser",-10.784947961293527],["ezres",-10.785452518314688],["jóvá",-10.785554553016109],["irányító",-10.785619846404398],["web",-10.785852381749564],["odás",-10.785997472656287],["használó",-10.786049607531783],["látogató",-10.787670287191865],["kutat",-10.788507985784484],["panel",-10.789875073516495],["versenyek",-10.789876414614493],["táncos",-10.790341255163556],["tapasztalatai",-10.791379331037952],["képzett",-10.791393367474896],["zsák",-10.791420376946476],["oszl",-10.79159976446354],["lelkes",-10.79195104678659],["kiskereskedelm",-10.792733631903168],["rop",-10.793435297573872],["családtag",-10.793935964582973],["mérkőzésé",-10.793943423714646],["cserébe",-10.794026545208403],["kedő",-10.79486415544514],["mozg",-10.795674551401952],["diplomá",-10.79609277255966],["gimnázium",-10.79610736721745],["Svájc",-10.796107380847285],["daganat",-10.796107630517225],["elektronikus",-10.796107822211905],["Jövő",-10.796108382679853],["ábrázol",-10.796131845497758],["rutin",-10.796150586184478],["oszlop",-10.796255908812572],["páncél",-10.796270560110893],["szálloda",-10.796379121552167],["elnevezés",-10.796526383072411],["konzervatív",-10.796838794934994],["City",-10.796873700399946],["felkészült",-10.797068852219113],["utód",-10.797149377971241],["Ligája",-10.797324559107395],["eleje",-10.797477743442052],["párbeszéd",-10.7983828166713],["visszavonul",-10.798833994194906],["aratot",-10.79929937690881],["nézzü",-10.799590486618975],["kerékpáros",-10.799638605648415],["ellenállás",-10.799796115898065],["büntet",-10.800168603795147],["Hét",-10.80039920755003],["zivatar",-10.800495888072511],["felszólal",-10.800532370686689],["tiltás",-10.800647134126368],["színpadr",-10.80101482834182],["NN",-10.801422212041214],["szurkoló",-10.801599667993688],["változtatni",-10.802008419742263],["patak",-10.80388322117315],["forintnyi",-10.804772411432083],["sérülések",-10.805123572047803],["kifogás",-10.805159701597486],["elárul",-10.806046187323112],["tisztség",-10.806698489297762],["vil",-10.806929151096096],["heves",-10.806973444142184],["utasok",-10.807562903033213],["fontosságá",-10.80837861583849],["gyártók",-10.808673804921433],["alelnök",-10.809064899856569],["háromszor",-10.809315364411097],["bukkan",-10.809851889216048],["duplá",-10.81113688875245],["kétszeres",-10.811349299301423],["Q",-10.811539588269365],["pesti",-10.811562052613452],["telepítés",-10.811751683739658],["ovic",-10.811963390013801],["munkáltató",-10.811980387946203],["statisztiká",-10.81198039311743],["Nehéz",-10.81198039508541],["ragaszkod",-10.811980516699263],["Csoport",-10.811980631750192],["marketing",-10.81198063411243],["származású",-10.811981170567458],["strand",-10.811981973554321],["Dunántúl",-10.811982996635003],["kudarc",-10.811984197085188],["Remél",-10.81199887656687],["palack",-10.81209785051379],["megélhetés",-10.812124941102274],["finomító",-10.81214967053368],["személygépkocsi",-10.812187178978359],["rubel",-10.812480673126426],["zati",-10.812579241132362],["tőzsdei",-10.813378649058759],["polgárok",-10.813626804508896],["formál",-10.8136957285669],["titok",-10.813811781808706],["Erst",-10.813865645520304],["túra",-10.813988756154107],["esél",-10.814402225308024],["kereset",-10.814880295774252],["mostaná",-10.8151209743952],["mélypont",-10.815256318554814],["Nos",-10.81528486526168],["kutatások",-10.815910660635046],["2008",-10.815974304891029],["sértő",-10.816100533443509],["vásárolhat",-10.81705647255184],["jutás",-10.817199312507068],["pályafutás",-10.817881911225724],["ígérte",-10.817973429568124],["kérelme",-10.81808843713792],["elvi",-10.81811700490389],["hálás",-10.818280413619686],["naptár",-10.818362487952978],["csuk",-10.818556096394563],["ságú",-10.818919996818206],["körök",-10.819268622138406],["adózás",-10.81927869076513],["főszereplő",-10.819612628978168],["BK",-10.819753519563054],["pályáz",-10.819980516478056],["megfogalmaz",-10.820758619465222],["tüzel",-10.821025384193307],["szülés",-10.821293758909711],["adatot",-10.821301308664143],["háziorvos",-10.82137089832024],["teljesítményé",-10.821691374574636],["elfoglalt",-10.821878317090171],["mondtá",-10.82189741611165],["ity",-10.821943698467367],["állapított",-10.822245437509665],["halálát",-10.822351423546131],["hatály",-10.82258778771929],["korlát",-10.822994266313714],["készítette",-10.82338959361228],["szavazta",-10.823718732092571],["Art",-10.82414493444411],["Közölt",-10.824324928471718],["élhet",-10.824397167120017],["Jog",-10.824573348488785],["helyiség",-10.824746771904556],["feltétel",-10.82530882256927],["Emlékeztet",-10.8254297416543],["cher",-10.825629517635079],["egyenlít",-10.825817584161678],["Kom",-10.8265922808115],["Király",-10.826857364181066],["megmutatta",-10.827552042538423],["kamatok",-10.827623214748947],["YouTube",-10.828109415348212],["intelligencia",-10.82810941535654],["kastély",-10.828109429037555],["vakcina",-10.828109522264329],["fellebbez",-10.828111579855634],["szülött",-10.828118240223311],["párizsi",-10.828118370709305],["szivárg",-10.82811939544623],["napsütés",-10.828120277848162],["sodor",-10.828199219818195],["zsidó",-10.828247465756185],["Alex",-10.828312536995433],["nagykövetség",-10.82851987537141],["Bak",-10.828569008459219],["kontroll",-10.828607768691569],["Gond",-10.828616742413448],["vesztesége",-10.828736454424044],["erősíteni",-10.828895841552164],["számtalan",-10.829389958445837],["rendezte",-10.829393347504942],["távoli",-10.82955517789718],["határozz",-10.829629877143084],["reményked",-10.82986814497704],["növelte",-10.830447196369445],["függőség",-10.830578513267643],["ME",-10.830579652872077],["infrastruktúra",-10.83165505168743],["ózsa",-10.83186388160455],["mieink",-10.832242187496789],["cská",-10.832558559930913],["Tény",-10.832913692165086],["ápolás",-10.832936465353658],["bocsátott",-10.833026260437286],["hotel",-10.833674390150305],["Zene",-10.834222040471925],["utazási",-10.834647185234383],["kiesés",-10.835155027910425],["medencé",-10.835272920798038],["foglaltak",-10.83541995288277],["megtartott",-10.835548580217406],["repülés",-10.835561516844642],["ütköz",-10.83675913192872],["búj",-10.837019008796492],["megvalósít",-10.837097500071561],["fizetőeszköz",-10.837504254551366],["maradj",-10.837875197105273],["elfogadta",-10.837988103213808],["felhasznál",-10.838457891799187],["cikkek",-10.838928735814587],["Rá",-10.839125836237635],["hárma",-10.839285243504289],["eredményeke",-10.839330836699965],["keresked",-10.839354785504915],["rád",-10.839740934369043],["Gar",-10.839789842823642],["jelöl",-10.839867925367571],["zivatarok",-10.839917512601955],["Szeret",-10.84014928324667],["érdemi",-10.840314541824345],["menekülő",-10.840708709943804],["viszonyok",-10.841429611582756],["menetrend",-10.843109644998151],["álma",-10.843187704413586],["fogadtá",-10.843597370064007],["kivel",-10.843897421917362],["mértéké",-10.843920761251596],["kapható",-10.844088416287008],["versenyez",-10.844143659336023],["munkájuk",-10.844361808132916],["székely",-10.844425946172173],["professzor",-10.844502858221007],["Szeptember",-10.844502859251484],["Iskola",-10.844502911376352],["drasztikus",-10.844502960826713],["megmérettetés",-10.844503659838292],["sláger",-10.844503763563118],["Bálint",-10.844504329194514],["turisták",-10.844505770565997],["csepp",-10.844509274602983],["recept",-10.84451071305643],["Peking",-10.844529485159782],["romániai",-10.844600118802603],["választókerület",-10.844639875100118],["Tizen",-10.844646031872806],["Iroda",-10.84465095299192],["Elmondás",-10.844678093783958],["korlátozott",-10.844687847295987],["Roland",-10.844724294138755],["helyreállítási",-10.84477199637326],["felirat",-10.844833468920182],["extra",-10.844858245468608],["oltott",-10.844882882911767],["lovag",-10.84493965113114],["Qu",-10.844958427995774],["Igen",-10.844996209404323],["köröz",-10.84511194312525],["tárolás",-10.845343828340392],["belga",-10.845538992151724],["megvizsgál",-10.84569377620917],["mindennapjai",-10.845836084166635],["ausztrál",-10.84655289850774],["gyalogos",-10.847003805518817],["szalag",-10.847042287524182],["évszázad",-10.847059040175406],["DSZ",-10.847127683039144],["vezérigazgató",-10.847169939653792],["Will",-10.84729806375562],["fázis",-10.847936106852696],["meghaladt",-10.848839890805543],["szemet",-10.84884324943297],["játszhat",-10.84889068032027],["felvonás",-10.84891954871732],["vágta",-10.848926243070757],["közepes",-10.849190610050591],["igazgatóság",-10.850298882984347],["kitermelés",-10.850658964833775],["levő",-10.850753313800933],["kutyák",-10.850925329296205],["félév",-10.851771858926712],["vezetésé",-10.851843899517473],["érme",-10.852090063841857],["világítás",-10.8521371822255],["kényszerül",-10.853660569533066],["emelkedésé",-10.853775635232232],["Erik",-10.854245704126946],["szervezésé",-10.854492631486895],["igazságügy",-10.855125119980938],["érezz",-10.855190107355508],["bérleti",-10.855303446425415],["halmoz",-10.855346648306357],["édesap",-10.856487514665869],["szólv",-10.856835335484353],["helyiek",-10.857149862572818],["Kör",-10.857179386256835],["gatás",-10.857407125237266],["napvilág",-10.858050956133127],["járhat",-10.85842298850568],["temetés",-10.858495949630907],["gyalog",-10.85863606033087],["Com",-10.859028524903614],["sorozatot",-10.859408747776872],["Hold",-10.859450073980796],["ajándéko",-10.859478674881473],["megállapod",-10.859886366814598],["volumene",-10.86079284369578],["alkotmány",-10.860888813654006],["demokrat",-10.861080417485532],["konstrukció",-10.861169524637681],["tevékenyked",-10.86116952464036],["Meteorológia",-10.861169528040001],["Kristóf",-10.861169528829482],["epizód",-10.861169531110331],["süllyed",-10.861169533414106],["minimálbér",-10.861169535853278],["Fejleszt",-10.861169566974539],["Szergej",-10.861169850926899],["menedék",-10.861169905172092],["Ismét",-10.861170268749017],["gyűjtemény",-10.861170684244291],["Tajvan",-10.86117245246394],["misszió",-10.861175083098937],["vidám",-10.861175382102877],["népesség",-10.861191088838886],["Vissza",-10.861192850578183],["Endre",-10.861194986828815],["Csilla",-10.861291863185961],["szoba",-10.86137957305025],["tartózkodás",-10.861510372486949],["hetven",-10.861543233246369],["határszakaszo",-10.861608496428243],["elérésé",-10.861667553757584],["Hely",-10.861669334403242],["alvás",-10.862039955842157],["figyelmeztetés",-10.862146625117717],["megkezdte",-10.862256496942678],["szakítás",-10.862365067837278],["alapítás",-10.862457938071714],["törvényjavaslat",-10.862659943730407],["eleve",-10.862864436574608],["utasított",-10.8630529097946],["termébe",-10.863143718397119],["lassul",-10.86342729784734],["amerikaiak",-10.863507674201623],["pályázato",-10.86387179656504],["Emlék",-10.863940160140045],["MW",-10.86397011233234],["számítógép",-10.86408689292421],["ügylet",-10.864368187459931],["minősítés",-10.864452184467416],["Gyermek",-10.864520346945287],["sugár",-10.864708491034161],["eger",-10.86534872170235],["költő",-10.865353940499784],["előállított",-10.865693759414599],["bin",-10.865702042646724],["profil",-10.865756070840021],["mozdulat",-10.866324406329452],["Annyi",-10.866567493639469],["veszít",-10.866964808689758],["mese",-10.866964910431374],["Alig",-10.867424005183402],["telefono",-10.867517382692167],["%)",-10.868045391891258],["növelni",-10.868219602529884],["teljesítménye",-10.86827601343601],["építész",-10.868331614211876],["fájdalma",-10.869003179810143],["érdeklőd",-10.87041701074866],["elismert",-10.870612925086201],["nyolcvan",-10.87136547713739],["elemzése",-10.871508949523465],["liga",-10.87184385815001],["hangzott",-10.871877900886094],["ED",-10.872119422055853],["tragédiá",-10.87242010600605],["encia",-10.873080912443715],["velem",-10.874301069439634],["ügyébe",-10.874301375388974],["célra",-10.875788880025812],["gyümölcs",-10.875813321006957],["korláto",-10.876496037344108],["készség",-10.87679313867152],["posta",-10.877228142901416],["Netflix",-10.878118677185284],["menedzsment",-10.878118677220655],["Bulgári",-10.878118682573911],["karantén",-10.878118878493119],["medence",-10.878120953429079],["covid",-10.87812115327268],["biztat",-10.878122205581395],["bútor",-10.878131008583232],["ifjúsági",-10.87815472536743],["sereg",-10.8782225833972],["töreksz",-10.878461381132588],["űrhajó",-10.878516054759633],["férj",-10.878525452959135],["pánik",-10.878532775888107],["buda",-10.878549292981798],["vastag",-10.878682748614253],["fordítani",-10.878805687633388],["fölény",-10.879023358221932],["nyak",-10.879372420294398],["létrejött",-10.879703964875738],["Ipar",-10.879710909080012],["kamion",-10.879973584470822],["London",-10.880095043231602],["Hisze",-10.880423300953264],["fordulójába",-10.880734291258054],["alapjai",-10.881037570700489],["szavazók",-10.881233755033161],["szólít",-10.88137761896793],["villa",-10.881714788239666],["hozzáállás",-10.88241041058712],["stabilitás",-10.882430399661647],["OK",-10.882465875913379],["lyal",-10.882557426596977],["kísérő",-10.882584739884532],["másnap",-10.882717895348867],["telepít",-10.88274178292103],["oldalak",-10.88282116520233],["Sár",-10.882851572095115],["lato",-10.882861097019326],["őzött",-10.882882657994646],["bűncselekmények",-10.88304552529381],["vágott",-10.883084487636724],["vitamin",-10.883477669004506],["vizsgálato",-10.884652552547063],["reális",-10.884785807596744],["Andr",-10.885365913216262],["játékrész",-10.885891972060264],["dzs",-10.88607206654429],["teheti",-10.887432014039284],["törte",-10.887475983833376],["ölel",-10.887534169867557],["Jól",-10.887889510863516],["következménye",-10.88907887547007],["telek",-10.889099182691957],["tartalmak",-10.889618935454045],["terápiá",-10.890750249178755],["gyógyul",-10.890772950317565],["Mad",-10.890993417387785],["kollégái",-10.891065330505882],["tagság",-10.891632854072714],["szúr",-10.891913747001741],["megőrzés",-10.892083054830612],["útszakasz",-10.892474636557315],["dönthet",-10.89290301540754],["sebesült",-10.8929386732729],["jóváhagy",-10.893521055897699],["ényi",-10.89421549533282],["ș",-10.895360056490313],["virtuális",-10.895360058389935],["Október",-10.895360059607016],["Norbert",-10.89536007985048],["bravúr",-10.895360082213237],["szilárd",-10.89536037772164],["tükröz",-10.89536048975259],["Március",-10.895360823124538],["Csanád",-10.89536089553868],["érettségi",-10.895361452151459],["olimpiá",-10.895361960932263],["jogállamiság",-10.895363440191275],["búza",-10.895366364000548],["konzultáció",-10.895368792686334],["jobboldali",-10.895410022237025],["anyuka",-10.895437912989985],["Különös",-10.895491640902506],["börtönbüntetés",-10.89549818954876],["ebéd",-10.895633273494216],["hátteré",-10.89568150562826],["tetejé",-10.895687113899898],["nyugalm",-10.895729710496862],["tesztelés",-10.89579719916036],["hírszerzés",-10.895942305900347],["Jász",-10.896269274957504],["kedvezőbb",-10.89631290721059],["megnyerte",-10.896319990597128],["kialakításá",-10.89662347569537],["Sony",-10.896946342745808],["őrök",-10.897060248967076],["állunk",-10.897420536790161],["barátok",-10.897679668914783],["war",-10.89771681568722],["világít",-10.898386598754936],["munkáj",-10.898858224119502],["ugró",-10.899088120847555],["autósok",-10.899217670904736],["tömeges",-10.899965986695037],["viselked",-10.90061039569642],["formáció",-10.901009664205551],["rajongói",-10.90121536396041],["fogadni",-10.901319719996657],["hangoztatt",-10.901717390487994],["liszt",-10.902157284465712],["statisztikai",-10.902255452739812],["üzletek",-10.902286663905283],["hétvégé",-10.902836438937722],["Boris",-10.903133216590769],["fűz",-10.903669409115503],["hallgatók",-10.903707852173124],["alapoz",-10.904236623075404],["cikké",-10.904881301794685],["180",-10.905127052458287],["partnere",-10.905578591255178],["kísérlete",-10.906203970943505],["találkozhat",-10.9064823586509],["inger",-10.906920504284743],["hatná",-10.9069582458652],["életkor",-10.90821490961435],["Mária",-10.909012127989609],["bizonyítj",-10.90954944803444],["unoká",-10.910328834257712],["gyermekes",-10.910701772171528],["mélység",-10.911084838651625],["Él",-10.911321175223133],["Wh",-10.91181683805802],["napelem",-10.911845317494466],["engedni",-10.912646598512875],["büszké",-10.912901851139473],["dunaújvárosi",-10.912903916373573],["Manchester",-10.912903916555667],["kérdőív",-10.91290391689574],["Jézus",-10.912903921946455],["Hosszú",-10.912903961486869],["dioxid",-10.912903991037808],["konténer",-10.912904259597049],["csodálatos",-10.912904390293217],["riasztás",-10.912904832886039],["Rengeteg",-10.912905032257086],["Nintend",-10.912905408930996],["összpontosít",-10.912926323965776],["csíp",-10.912940662385742],["ikonikus",-10.912975144694713],["Idő",-10.913107032973407],["küzdeni",-10.913152909605788],["Paks",-10.913210825179712],["mobiltelefon",-10.913315088619779],["Önkormányzat",-10.913394846675],["tapasztalható",-10.913636050446208],["szerény",-10.913813454104156],["anuel",-10.913935926919311],["végző",-10.913937381854318],["szükséglet",-10.91394332107083],["dől",-10.913967347336413],["vásárhelyi",-10.914090396123536],["hála",-10.91418133268239],["jósol",-10.91426313856138],["legerősebb",-10.914568045737749],["stratégia",-10.914851042539865],["olvad",-10.915145275941475],["jogerős",-10.915155942087257],["érvény",-10.916158717836286],["alkalmazkod",-10.916200762117695],["bírság",-10.916670678157773],["értelme",-10.917704341786685],["meghaladó",-10.917962059405898],["elhangzott",-10.918114770312446],["hűl",-10.918243748985956],["útján",-10.918933928081511],["One",-10.919356850543384],["ékszer",-10.919410034871387],["gondolni",-10.919481947481753],["Dunaújvárosi",-10.920241711781197],["kialakított",-10.920530727301006],["cseng",-10.920845335269064],["övet",-10.921736504900057],["napközben",-10.92253314007325],["korona",-10.922592364075886],["viselő",-10.923893368000956],["találhat",-10.923994875955415],["dventi",-10.924311848449868],["beszerzési",-10.924337794630645],["felvásárlás",-10.924507391730213],["megvalósításá",-10.92452199702805],["művel",-10.924734861165298],["nyeresége",-10.925057764883661],["Arénába",-10.926016289772674],["érzékelő",-10.926156628608659],["megerősöd",-10.926156874554664],["gazda",-10.926784824493863],["Dal",-10.926883829822117],["országai",-10.928572436840268],["csatár",-10.928642050416837],["ültek",-10.929064272410617],["cégcsoport",-10.92945905356548],["Szo",-10.929488122339277],["ügyész",-10.930221563255085],["takarékos",-10.93051880823184],["komplex",-10.930543228042353],["Áramlat",-10.93076106488401],["mérséklőd",-10.930761078026],["Telegram",-10.93076116938099],["Róbert",-10.930761186633067],["ellensúlyoz",-10.930816021554008],["barátnőj",-10.930909006981151],["Anikó",-10.930964023592711],["jutalma",-10.931134451122864],["tudósok",-10.93117108313524],["társasház",-10.931197189547468],["kriptovalut",-10.931199408295438],["hihetetlen",-10.931505037531696],["csatol",-10.931634393936555],["tetni",-10.932025151157612],["üzent",-10.93240617645325],["folyósít",-10.932485771842195],["lelkész",-10.93250965147074],["mondat",-10.93275004510064],["Britanni",-10.933001254410303],["gyártott",-10.933007349604605],["szállítmány",-10.933067830461457],["Lili",-10.933518916204015],["veszett",-10.933866574252455],["Zo",-10.934384513164556],["Meta",-10.934855937481544],["csúcstalálkozó",-10.9350962746608],["környezetvédelmi",-10.935129799543098],["Mindezek",-10.935269669907557],["élén",-10.935276947240311],["Rég",-10.936910547846376],["Munká",-10.936938429041373],["csoportos",-10.937362552999783],["művészek",-10.937383794393387],["sérülése",-10.938173391126128],["Kol",-10.938297468308772],["Akik",-10.938809342172696],["jönni",-10.939468347823208],["példány",-10.939496380432306],["terjesztett",-10.93957692374618],["Fog",-10.939591699893374],["IN",-10.940199760681054],["éltek",-10.940673544872896],["sérültek",-10.941332002919712],["állításá",-10.942190048994242],["ötlete",-10.942195566119333],["Luc",-10.94235403524652],["igazod",-10.942384799062916],["megyék",-10.94258970088984],["rög",-10.94276833468201],["növelésé",-10.94323042750939],["ring",-10.94323559942773],["meghatározott",-10.943552566858024],["jutó",-10.943636319124517],["értékelte",-10.94452210810745],["szerkesztő",-10.944602173651251],["zárni",-10.944877953207532],["gumi",-10.945421137948518],["bérek",-10.946018420826814],["váll",-10.946151567274553],["lelke",-10.946511419846296],["Red",-10.946918274697277],["mérte",-10.946976738458176],["tájak",-10.947532279400944],["csúcso",-10.947832481313679],["bizon",-10.947842346845107],["többiek",-10.94852673138669],["püspök",-10.948922565966779],["ifjú",-10.948923577327061],["Augusztus",-10.94894287718875],["Csongrád",-10.948942879624486],["igazolvány",-10.948943232970255],["Május",-10.948944196639847],["November",-10.948946177899632],["hidrogén",-10.948946267485406],["MÁV",-10.94894784068371],["turista",-10.948949698194678],["streaming",-10.948999502745407],["ébred",-10.948999577295748],["opció",-10.949082575147646],["Wall",-10.949112615846314],["kimenetel",-10.949187501528941],["őszintén",-10.949197940010503],["születése",-10.949221028718995],["nemzetiség",-10.949346916659824],["javítani",-10.949442131608118],["kosár",-10.949492299866334],["emészt",-10.949649268559654],["konyhá",-10.949707298370537],["pénzintézet",-10.949752684653188],["tűzijáték",-10.949912850382336],["célzó",-10.950458684538308],["rezsim",-10.950473957716309],["izom",-10.950475497480815],["haderő",-10.950819432044106],["balti",-10.950987840632674],["gyakoribb",-10.951259947822276],["javasol",-10.951871533257782],["pártja",-10.952235467981328],["szenvedély",-10.952244788270226],["csomagolás",-10.95238113423181],["létesít",-10.952626161416717],["városvezetés",-10.953969500710794],["wit",-10.954129402243524],["felsőoktatás",-10.954302229082824],["megpróbálta",-10.954391040845943],["édes",-10.954544430484907],["Legutóbb",-10.954777941930724],["nyug",-10.95534128867055],["filmes",-10.955409135595561],["eléri",-10.956122616631406],["lényeg",-10.957451221379607],["ápoló",-10.958159579498725],["elnökség",-10.958533876853938],["előrelépés",-10.958619301215542],["5G",-10.958721319594627],["Cser",-10.958861376458575],["dokumentumok",-10.959199346843155],["partnerei",-10.960448210299196],["véleményé",-10.961160910981551],["wei",-10.961188581047555],["hívja",-10.961482414616983],["trón",-10.962139144455701],["ítélték",-10.96218902404287],["ígéret",-10.962467943624432],["teljesítő",-10.963023165310686],["Donyeck",-10.963448843967118],["isten",-10.96385791614906],["érezhet",-10.964393157476257],["far",-10.964945462168638],["hallhat",-10.965067221862295],["versenyképes",-10.965338974124275],["útjá",-10.965878862952598],["ellátott",-10.966164594274316],["álmod",-10.966242565922592],["cske",-10.966835494786682],["ütő",-10.967215997920304],["ajánlato",-10.967341665148474],["Katasztrófavédel",-10.967461395697004],["Samsung",-10.96746139946195],["Celsius",-10.967461400855854],["produkál",-10.967461430857819],["Fesztivál",-10.96746143484603],["törekvés",-10.967461667180748],["kanadai",-10.967461721391814],["Köszön",-10.96746233837678],["gerinc",-10.967463311595004],["indiai",-10.967464771037815],["generál",-10.967466380440676],["cáfol",-10.967467973393969],["Értéktőzsd",-10.967468312822081],["Ember",-10.967471071265319],["Messi",-10.96747668604149],["Gáspár",-10.96747702076837],["felhőzet",-10.96748122634919],["Series",-10.967489523572063],["edd",-10.96749371747645],["figurá",-10.967498447604392],["Jár",-10.967502704679216],["ereje",-10.967514264392989],["Film",-10.967519317402473],["szőlő",-10.967524782264665],["Gergő",-10.96752973401731],["India",-10.967570997678061],["tulajdonképpen",-10.967580729057147],["Szervezet",-10.967651177331758],["klímaváltozás",-10.967706632486385],["megnyugtat",-10.967799747580667],["bukott",-10.96780272222333],["törlés",-10.967823054140629],["lökések",-10.967869963591898],["örökös",-10.968182124739567],["panaszkod",-10.968339601948177],["NG",-10.96844243727326],["mozgósítás",-10.968479245553237],["lakosok",-10.968927795061342],["iráni",-10.969089384766418],["folyam",-10.969419490309562],["Víz",-10.96956850451303],["nézhet",-10.969846274995762],["Tíz",-10.96998294919078],["bármelyik",-10.970970817234008],["essék",-10.971612764896072],["jövőjé",-10.972855836643605],["potenciális",-10.972868497052362],["leány",-10.972997710014052],["tagjá",-10.973387464572308],["szervek",-10.97366361981554],["tízezer",-10.973859855600669],["tartózkodó",-10.973973324718807],["bírságo",-10.974132827386171],["sségébe",-10.974237473735673],["útja",-10.974632866924038],["kijelölt",-10.974676438743767],["Összese",-10.975192565254792],["ítik",-10.975704556687745],["tartom",-10.975983159732424],["kedvence",-10.975996575514003],["korszerűsít",-10.97660089361311],["televíziós",-10.976793974427526],["szerződ",-10.976945787595618],["Pol",-10.977024165497053],["feszül",-10.977043295201671],["Székely",-10.977156115867926],["140",-10.979518248971642],["házas",-10.979536409348826],["okozza",-10.97988833302784],["elvesztette",-10.97997320037189],["elutasít",-10.980335010339868],["határai",-10.981335215287894],["szenvedte",-10.981489967188176],["ölni",-10.981533274358242],["fogadott",-10.981665922578554],["telepített",-10.981955666553205],["megjelenésé",-10.98279746401222],["beton",-10.982805386596187],["használatát",-10.983284369475342],["szállítani",-10.983465204848079],["frissít",-10.984016503551254],["jelképe",-10.984333642189402],["almá",-10.985794482861394],["gondolatai",-10.985845777399526],["berendezések",-10.986092386798106],["lövöldöz",-10.986329320225357],["abszolút",-10.98632932099727],["tájékozód",-10.98632932350973],["applikáció",-10.986329330219437],["türelm",-10.986330019584894],["jelentkezik",-10.986330294022316],["Lázár",-10.986330675260731],["tüdő",-10.986330937109106],["kártérítés",-10.986331048238153],["Hajnal",-10.986332004519207],["túlnyomó",-10.986334897221342],["nyeremény",-10.986340721227265],["bronzérme",-10.986355193165629],["Krím",-10.986364917402927],["dízel",-10.98637426185074],["Equi",-10.986379764056617],["besorolás",-10.986381999596077],["gyöker",-10.986459680685337],["következtetés",-10.986525833526706],["átfogó",-10.986529513700102],["kellemes",-10.986649542533808],["munkavégzés",-10.986681633084888],["haszon",-10.986705361357432],["szabálytalan",-10.986710639718456],["euróövezet",-10.986712006161028],["vonulás",-10.986717030582113],["megbízás",-10.986779865043944],["gondozás",-10.987207859931292],["választani",-10.987430439195824],["tizenöt",-10.987558165173834],["gyümölcsö",-10.987722122096688],["Művészet",-10.98785371477335],["felülvizsgál",-10.988265430733188],["kíséri",-10.988377061338152],["helyettese",-10.988532449072936],["értékesített",-10.989148623816602],["rejtély",-10.989710304210547],["450",-10.989731073071232],["bevonásá",-10.990372491528303],["szélső",-10.990430933579416],["elege",-10.990545340500312],["munkatárs",-10.990561365263588],["lőszer",-10.99103538453288],["bevallás",-10.991048508384742],["terek",-10.99110970379553],["szigetek",-10.991203555395996],["tagadta",-10.991240419572508],["ősök",-10.991374844734821],["téved",-10.992336052822914],["gyógyszerek",-10.992396737387764],["hold",-10.992452239001004],["csomópont",-10.992580247187139],["tanulni",-10.99281736136485],["háromszoros",-10.992992103674235],["távozás",-10.99339623143837],["kéne",-10.993623724528973],["lügyminisztérium",-10.994632903016157],["módosít",-10.994984264257091],["zaj",-10.995155358484475],["Kal",-10.996165593807845],["indexe",-10.996389642609625],["medi",-10.996766487536608],["feltétele",-10.998950684163551],["hatását",-10.99899208325892],["bemutatott",-10.999464154310866],["ingyen",-10.999896927283363],["növények",-11.000157862691363],["Mac",-11.000655547451206],["érvel",-11.001107913483434],["siet",-11.001169823338232],["ilyet",-11.001216033760699],["das",-11.001221451027638],["autóbusz",-11.001827113250744],["fordulás",-11.002513908653063],["350",-11.003129835437413],["Újra",-11.003159531384052],["ütközés",-11.003427967869579],["támogatásár",-11.003430914020619],["rendszerét",-11.004111817132781],["titko",-11.004483097324284],["lény",-11.004521776811808],["lépő",-11.00484161773512],["tünet",-11.005368124522718],["tucat",-11.005494311995252],["Széchenyi",-11.005560089459127],["Kolozsvár",-11.005560089480632],["mechanizmus",-11.005560089483058],["koncepció",-11.005560089509352],["bevándorló",-11.005560089619372],["burkolat",-11.005560089852116],["forradalom",-11.0055600913085],["korrekció",-11.005560152079873],["evakuál",-11.00556029120677],["Kórház",-11.005560988699152],["segéd",-11.005561378515893],["Zöld",-11.005564197701025],["Benedek",-11.005575137660284],["Tünd",-11.005577459955543],["kóstol",-11.005623053505976],["kattint",-11.005643203676495],["katari",-11.005654113180857],["Harry",-11.005684348987018],["Együtt",-11.005705436561843],["Szinte",-11.005721113422616],["műhold",-11.005749372933003],["mosoly",-11.005784888338665],["szemtanú",-11.005957380366008],["tenisz",-11.006091338694787],["hosszabbítás",-11.006242208381845],["Újpest",-11.00634713725271],["szórakoztató",-11.006737994583046],["Szép",-11.0067447804335],["hátrányos",-11.007114005678238],["Zala",-11.00722096945153],["felügyelő",-11.008009548791907],["játékosai",-11.008015311283453],["győzelmé",-11.008310081248506],["felelőssége",-11.008528830818292],["erőszakos",-11.00878282053084],["fókuszál",-11.009098377843113],["gazdálkodó",-11.009132807640949],["tisztán",-11.00967986471119],["bombáz",-11.009776402216403],["gráf",-11.01003350056228],["Hódmezővásárhely",-11.010335713840243],["tulajdonába",-11.010672732817937],["szegénység",-11.011410980428266],["hármas",-11.011987068711951],["hordoz",-11.012603496344706],["emelté",-11.013138316666685],["díszít",-11.013619095920209],["kevered",-11.014116146265636],["gyengül",-11.014453919724325],["alkalmazottak",-11.014571764937859],["kórházak",-11.015079297087224],["kezeli",-11.015220203432376],["médiába",-11.015253102243628],["munkaerőpiac",-11.016192310276258],["megszállt",-11.0168711376512],["vetni",-11.017178970552683],["finálé",-11.017823142810744],["kedvel",-11.017898788587608],["vizek",-11.01861953807813],["rohant",-11.01887713729814],["szerezhet",-11.018889578043341],["alku",-11.01916102643732],["oldalár",-11.019316454839641],["Dáni",-11.019787376419984],["próbálkoz",-11.020021555986107],["Cor",-11.020548749002852],["zuhan",-11.020869296832688],["úszás",-11.021010962898462],["váló",-11.02106290055352],["Pont",-11.0211334071926],["vonz",-11.022450597069078],["Egész",-11.022722447549485],["pszich",-11.02301948557057],["tisztába",-11.023029984698525],["Kap",-11.023364518793866],["sajt",-11.023396353983832],["djon",-11.024242565777998],["ünnepek",-11.024402409369662],["rakétá",-11.024649721345046],["érdekeit",-11.02480204173456],["szag",-11.024982037586046],["migránsok",-11.025087657628937],["Külön",-11.02513389328006],["szolidaritás",-11.025167932594185],["Székesfehérvár",-11.025167932595744],["depresszió",-11.025167932598295],["kárpátaljai",-11.025167932619182],["Igazgatóság",-11.025167932784354],["gyilkol",-11.025168099045906],["bizalom",-11.02516817115448],["mérsékelt",-11.025168224823378],["éghajlat",-11.025168315023816],["Ágnes",-11.025168508579249],["koszorú",-11.025169108460307],["Jelentős",-11.025169580079965],["státusz",-11.025170652043931],["Szerbia",-11.025170894660745],["Tegnap",-11.025177994713891],["alátámaszt",-11.025181408512655],["édesanyá",-11.025202686543736],["fenyő",-11.025216858975176],["étkezés",-11.025221099080763],["vacsorá",-11.025229697771199],["Levent",-11.025234992577555],["Sziget",-11.025241123574222],["bomba",-11.025277020946831],["hadművelet",-11.025324021705641],["visszaélés",-11.025336485479013],["megoldani",-11.025431857652297],["Berlin",-11.025432806810944],["megemlékezés",-11.025444236731083],["készletek",-11.025723593000796],["kering",-11.025879463842255],["lassít",-11.026351444340587],["partján",-11.026392049013406],["megfigyelés",-11.026954355209792],["alapuló",-11.027064602259994],["csata",-11.027117791317746],["munkanélküliség",-11.027183440747416],["legyőzte",-11.027608588191072],["Hollandi",-11.027707735657756],["ázás",-11.028798729969354],["liget",-11.028807819437077],["beszerzésé",-11.02916863661173],["Hozzátett",-11.029574878503905],["megkönnyít",-11.029669039936508],["műsorába",-11.030075117923172],["hibás",-11.030346914485236],["kezdetét",-11.030368185689904],["terjedésé",-11.030531848462553],["készülhet",-11.031349164175994],["látom",-11.03142836046775],["intézkedéseke",-11.031586065780585],["Ellen",-11.031720129069821],["világbajnokságo",-11.03175925320382],["Mal",-11.031879083956145],["escu",-11.03206089349299],["holttesté",-11.033081317890645],["célú",-11.034310135693953],["részvénypiac",-11.035054331721664],["átalakulás",-11.035456603506587],["ostrom",-11.036175694748838],["edzője",-11.037024745201567],["megosztás",-11.037113213650473],["hivatás",-11.037465913373781],["Párizs",-11.037661947812115],["feljelentés",-11.038403425626738],["elemzőj",-11.039445914015351],["veszteségek",-11.040327715632293],["helyettesít",-11.041057911134283],["isztikus",-11.041206463617598],["hirdetett",-11.041325483202456],["Nemrég",-11.04166911533521],["becslések",-11.042020920376165],["vizes",-11.042541956096557],["rip",-11.042836402827042],["négyszer",-11.043384550961436],["fokos",-11.043714929523032],["q",-11.044455227378572],["emlékezetes",-11.044593883904096],["prémium",-11.045084496152063],["Ügynökség",-11.045167932602247],["Cristian",-11.04516793279007],["Petőfi",-11.045168006885635],["identitás",-11.045168055200882],["tilalom",-11.045169722047007],["Polgár",-11.045171951244086],["zaklat",-11.045172997609768],["legszebb",-11.045187376766407],["torony",-11.045211127377659],["fokozód",-11.045216557864563],["Ronald",-11.04521938291002],["Leyen",-11.045226962424836],["tilos",-11.045233048507837],["Martin",-11.045255530501311],["aranyérme",-11.045286085579608],["összhangba",-11.045326090529892],["kamara",-11.045337048426585],["tábornok",-11.045358134622166],["klip",-11.045419772400106],["parkolás",-11.045549296754299],["rablás",-11.045572185601866],["bizonyítani",-11.045791832873151],["Brent",-11.045960007563597],["előírások",-11.045960183317442],["vehető",-11.046954581679655],["teljesíteni",-11.047117446871553],["Tánc",-11.047143858775081],["szállítmányok",-11.047666913273034],["gramm",-11.04771942915773],["formáj",-11.048063382976256],["halász",
[...]
