{"version":"1.0","truncation":null,"padding":null,"added_tokens":[{"id":0,"special":true,"content":"<UNK>","single_word":false,"lstrip":false,"rstrip":false,"normalized":false},{"id":1,"special":true,"content":"<SEP>","single_word":false,"lstrip":false,"rstrip":false,"normalized":false},{"id":2,"special":true,"content":"<MASK>","single_word":false,"lstrip":false,"rstrip":false,"normalized":false},{"id":3,"special":true,"content":"<CLS>","single_word":false,"lstrip":false,"rstrip":false,"normalized":false}],"normalizer":null,"pre_tokenizer":{"type":"Whitespace"},"post_processor":null,"decoder":null,"model":{"type":"WordPiece","unk_token":"<UNK>","continuing_subword_prefix":"##","max_input_chars_per_word":100,"vocab":{"<UNK>":0,"<SEP>":1,"<MASK>":2,"<CLS>":3,"!":4,"\"":5,"$":6,"%":7,"&":8,"'":9,"(":10,")":11,"*":12,"+":13,",":14,"-":15,".":16,"/":17,"0":18,"1":19,"2":20,"3":21,"4":22,"5":23,"6":24,"7":25,"8":26,"9":27,":":28,";":29,"<":30,">":31,"?":32,"A":33,"B":34,"C":35,"D":36,"E":37,"F":38,"G":39,"H":40,"I":41,"J":42,"K":43,"L":44,"M":45,"N":46,"O":47,"P":48,"Q":49,"R":50,"S":51,"T":52,"U":53,"V":54,"W":55,"X":56,"Y":57,"Z":58,"a":59,"b":60,"c":61,"d":62,"e":63,"f":64,"g":65,"h":66,"i":67,"j":68,"k":69,"l":70,"m":71,"n":72,"o":73,"p":74,"q":75,"r":76,"s":77,"t":78,"u":79,"v":80,"w":81,"x":82,"y":83,"z":84,"~":85,"§":86,"«":87,"®":88,"°":89,"²":90,"³":91,"´":92,"µ":93,"·":94,"»":95,"Á":96,"Ä":97,"Å":98,"Ç":99,"È":100,"É":101,"Í":102,"Ó":103,"Õ":104,"Ö":105,"×":106,"Ø":107,"Ú":108,"Ü":109,"à":110,"á":111,"â":112,"ã":113,"ä":114,"å":115,"ç":116,"è":117,"é":118,"ë":119,"í":120,"î":121,"ï":122,"ð":123,"ñ":124,"ò":125,"ó":126,"ô":127,"õ":128,"ö":129,"ø":130,"ú":131,"û":132,"ü":133,"ý":134,"ā":135,"ă":136,"Ć":137,"ć":138,"Č":139,"č":140,"Ď":141,"ď":142,"Đ":143,"đ":144,"ę":145,"ě":146,"ğ":147,"Ľ":148,"ľ":149,"ł":150,"ń":151,"ň":152,"Ő":153,"ő":154,"ř":155,"Ş":156,"ş":157,"Š":158,"š":159,"Ţ":160,"ţ":161,"ť":162,"Ű":163,"ű":164,"Ž":165,"ž":166,"Ș":167,"ș":168,"Ț":169,"ț":170,"ʼ":171,"́":172,"̈":173,"̋":174,"β":175,"μ":176,"‐":177,"‑":178,"‒":179,"–":180,"—":181,"‘":182,"’":183,"“":184,"”":185,"„":186,"†":187,"•":188,"…":189,"‼":190,"€":191,"−":192,"❗":193,"➡":194,"﷯":195,"️":196,"##l":197,"##u":198,"##s":199,"##z":200,"##e":201,"##h":202,"##t":203,"##ő":204,"##é":205,"##g":206,"##i":207,"##n":208,"##k":209,"##o":210,"##c":211,"##a":212,"##p":213,"##r":214,"##á":215,"##m":216,"##d":217,"##j":218,"##ö":219,"##y":220,"##v":221,"##ó":222,"##b":223,"##f":224,"##ü":225,"##í":226,"##ú":227,"##-":228,"##9":229,"##3":230,"##8":231,"##ű":232,"##́":233,"##B":234,"##C":235,"##2":236,"##0":237,"##O":238,"##L":239,"##U":240,"##T":241,"##I":242,"##N":243,"##S":244,"##D":245,"##w":246,"##7":247,"##R":248,"##x":249,"##q":250,"##K":251,"##A":252,"##”":253,"##,":254,"##Z":255,"##X":256,"##G":257,"##Y":258,"##6":259,"##ę":260,"##ș":261,"##J":262,"##1":263,"##H":264,"##V":265,"##ć":266,"##E":267,"##Ö":268,"##Q":269,"##ý":270,"##P":271,"##M":272,"##W":273,"##đ":274,"##É":275,"##.":276,"##\"":277,"##5":278,"##?":279,"##)":280,"##F":281,"##ľ":282,"##4":283,"##ă":284,"##â":285,"##č":286,"##š":287,"##ñ":288,"##ë":289,"##…":290,"##ť":291,"##è":292,"##Ü":293,"##ç":294,"##«":295,"##ã":296,"##õ":297,"##Á":298,"##̈":299,"##û":300,"##ł":301,"##!":302,"##ě":303,"##†":304,"##~":305,"##Í":306,"##ž":307,"##ň":308,"##ř":309,"##–":310,"##î":311,"##Ó":312,"##Ú":313,"##ț":314,"##’":315,"##'":316,"##Ț":317,"##„":318,"##:":319,"##ä":320,"##Ű":321,"##ď":322,"##Ľ":323,"##ń":324,"##à":325,"##ş":326,"##ţ":327,"##ô":328,"##ò":329,"##Ő":330,"##̋":331,"##/":332,"##ð":333,"##❗":334,"##å":335,"##ʼ":336,"##*":337,"##;":338,"##ø":339,"##+":340,"##“":341,"##>":342,"##<":343,"##ï":344,"##ğ":345,"##ā":346,"##(":347,"##et":348,"##el":349,"##en":350,"##sz":351,"##gy":352,"##er":353,"##at":354,"##an":355,"##ek":356,"##al":357,"az":358,"sz":359,"##ár":360,"##ak":361,"##on":362,"##or":363,"##ás":364,"##eg":365,"##in":366,"##em":367,"##ol":368,"##án":369,"##ál":370,"##tt":371,"##es":372,"##ok":373,"##ez":374,"##és":375,"el":376,"##ég":377,"##ik":378,"##ar":379,"##os":380,"##én":381,"##bb":382,"és":383,"##ér":384,"##ett":385,"##ül":386,"ho":387,"##ít":388,"is":389,"##át":390,"meg":391,"##ág":392,"egy":393,"##ap":394,"##ék":395,"kö":396,"hogy":397,"##oz":398,"##ban":399,"##ét":400,"##ed":401,"##él":402,"##agy":403,"##int":404,"##ott":405,"##ra":406,"##ben":407,"##szt":408,"##is":409,"##it":410,"##il":411,"##ta":412,"##ség":413,"##om":414,"##ad":415,"##ni":416,"##cs":417,"nem":418,"##ól":419,"##ul":420,"##re":421,"##ák":422,"##ja":423,"cs":424,"##áz":425,"##nk":426,"fel":427,"##og":428,"ki":429,"##ely":430,"köz":431,"szer":432,"##ig":433,"##aj":434,"##ai":435,"##nak":436,"##ent":437,"##ány":438,"##ság":439,"##am":440,"##ény":441,"le":442,"am":443,"##ám":444,"##ész":445,"##het":446,"##ag":447,"Az":448,"##ép":449,"##az":450,"##iz":451,"##nek":452,"ez":453,"##ot":454,"tö":455,"##ut":456,"##lt":457,"##olt":458,"##ny":459,"ak":460,"##ell":461,"ér":462,"al":463,"be":464,"##ci":465,"##ől":466,"##as":467,"##end":468,"min":469,"##us":470,"##ll":471,"##ért":472,"##hat":473,"##unk":474,"##ök":475,"##ro":476,"##ont":477,"##szág":478,"##ön":479,"##uk":480,"gy":481,"év":482,"##szer":483,"##art":484,"##áll":485,"##ók":486,"ny":487,"##egy":488,"##ud":489,"##od":490,"in":491,"##ött":492,"##ált":493,"jel":494,"##ond":495,"##av":496,"##ük":497,"##len":498,"kor":499,"volt":500,"de":501,"mind":502,"##ró":503,"##ov":504,"id":505,"##ert":506,"##vet":507,"##kö":508,"##vel":509,"##ább":510,"leg":511,"##agyar":512,"##ezet":513,"már":514,"##ában":515,"elő":516,"áll":517,"##att":518,"##rt":519,"szerint":520,"##áb":521,"es":522,"for":523,"##ep":524,"##erül":525,"##ly":526,"em":527,"##ab":528,"nagy":529,"##ej":530,"több":531,"##ént":532,"##ők":533,"##kal":534,"##te":535,"##ber":536,"mi":537,"##ős":538,"##ében":539,"##kez":540,"##ev":541,"##ív":542,"szám":543,"hely":544,"Sz":545,"ut":546,"##eket":547,"rend":548,"##olg":549,"20":550,"ad":551,"##atás":552,"##ia":553,"##elm":554,"##ill":555,"##ette":556,"##let":557,"val":558,"##val":559,"##koz":560,"er":561,"##ára":562,"##ország":563,"##ssz":564,"##okat":565,"száz":566,"##kor":567,"##asz":568,"##éz":569,"kap":570,"##oly":571,"lehet":572,"még":573,"##est":574,"azt":575,"##id":576,"##eszt":577,"tud":578,"van":579,"kell":580,"##iszt":581,"##áj":582,"ter":583,"##ció":584,"##alék":585,"##zet":586,"##rosz":587,"mint":588,"##éd":589,"##ítás":590,"százalék":591,"##ály":592,"##ése":593,"amely":594,"hi":595,"ar":596,"##esz":597,"##ják":598,"##ajd":599,"##hoz":600,"vagy":601,"##um":602,"##elő":603,"ped":604,"##ld":605,"##ünk":606,"más":607,"vég":608,"tart":609,"##aszt":610,"fog":611,"mag":612,"##ín":613,"##ony":614,"##ír":615,"új":616,"##mény":617,"pedig":618,"##ei":619,"##ély":620,"csak":621,"biz":622,"##öv":623,"##ról":624,"##árt":625,"##obb":626,"sem":627,"##ba":628,"##alm":629,"##ebb":630,"jelent":631,"##ést":632,"##mány":633,"tel":634,"##be":635,"Ez":636,"össz":637,"##ód":638,"##ve":639,"##ör":640,"hat":641,"##ió":642,"##ított":643,"nap":644,"##ked":645,"##ának":646,"##ort":647,"magyar":648,"kép":649,"##ást":650,"minden":651,"##ző":652,"ellen":653,"két":654,"kül":655,"át":656,"en":657,"##abb":658,"##ső":659,"vár":660,"##na":661,"##ére":662,"##ost":663,"##tet":664,"##nál":665,"##uró":666,"szem":667,"##da":668,"##nök":669,"##eh":670,"rész":671,"##nap":672,"azon":673,"hoz":674,"##ult":675,"##ások":676,"##ém":677,"ig":678,"or":679,"##ád":680,"##eres":681,"vál":682,"##őr":683,"orosz":684,"Egy":685,"majd":686,"mill":687,"kez":688,"##gyan":689,"##ható":690,"##leg":691,"##tek":692,"##ös":693,"##ug":694,"##esen":695,"mond":696,"követ":697,"##ték":698,"kör":699,"##im":700,"##ása":701,"##eny":702,"##alál":703,"##ós":704,"lesz":705,"##áció":706,"után":707,"##köz":708,"##ani":709,"##ovább":710,"ami":711,"##va":712,"##ház":713,"##ót":714,"fi":715,"mű":716,"##ilág":717,"##zés":718,"##ális":719,"ha":720,"##szak":721,"tám":722,"##ával":723,"##tak":724,"idő":725,"##isz":726,"##iv":727,"sok":728,"ár":729,"##hez":730,"##tat":731,"##ről":732,"##rán":733,"forint":734,"munk":735,"él":736,"vis":737,"Magyar":738,"foly":739,"##ch":740,"##íz":741,"ország":742,"##öz":743,"##dés":744,"##év":745,"tovább":746,"így":747,"##port":748,"lát":749,"##enn":750,"elm":751,"##ének":752,"##emény":753,"##osan":754,"##vezet":755,"##je":756,"alap":757,"##ikai":758,"202":759,"miatt":760,"##lyan":761,"bel":762,"##ból":763,"##atok":764,"##ült":765,"##mű":766,"##ki":767,"kormány":768,"##jel":769,"vezet":770,"között":771,"han":772,"ját":773,"##ur":774,"szak":775,"##kel":776,"##ölt":777,"úgy":778,"##uróp":779,"##for":780,"##eni":781,"##ján":782,"első":783,"kis":784,"olyan":785,"ember":786,"ugyan":787,"##lan":788,"an":789,"világ":790,"bizt":791,"##any":792,"jár":793,"##ogy":794,"##enek":795,"##állal":796,"tört":797,"ah":798,"uk":799,"ép":800,"##ir":801,"##utat":802,"##sági":803,"##önt":804,"aki":805,"most":806,"sor":807,"hét":808,"##vez":809,"##árs":810,"##erg":811,"##ből":812,"##ábor":813,"##ési":814,"##fel":815,"##ember":816,"##ügy":817,"##ként":818,"##atal":819,"##hető":820,"##eb":821,"##nyi":822,"##elt":823,"##öld":824,"##00":825,"##ási":826,"##erm":827,"##ület":828,"##őt":829,"élet":830,"kezd":831,"azonban":832,"vissz":833,"##old":834,"érd":835,"akkor":836,"##etlen":837,"##ontos":838,"hozz":839,"fej":840,"int":841,"##erült":842,"##raj":843,"##ellett":844,"valam":845,"##vény":846,"eset":847,"##úl":848,"##ász":849,"telj":850,"Nem":851,"##csol":852,"##ram":853,"##ikus":854,"##ikor":855,"##új":856,"kész":857,"##egít":858,"kér":859,"né":860,"##ór":861,"##ossz":862,"tan":863,"##kol":864,"##gész":865,"##fi":866,"##ések":867,"egyik":868,"ind":869,"##elmi":870,"##ob":871,"vált":872,"jó":873,"ism":874,"##pont":875,"##vár":876,"besz":877,"csap":878,"##st":879,"##eti":880,"##gat":881,"##juk":882,"##őz":883,"term":884,"mert":885,"##árom":886,"##adás":887,"##ló":888,"##árd":889,"##hely":890,"##étel":891,"##esít":892,"lak":893,"##áv":894,"##ind":895,"egész":896,"##ers":897,"##ével":898,"##eng":899,"segít":900,"##óz":901,"##ati":902,"##ták":903,"mondta":904,"##ját":905,"Magyarország":906,"##lő":907,"##ltal":908,"jelen":909,"igaz":910,"arra":911,"##elem":912,"##ank":913,"ukrán":914,"##últ":915,"szint":916,"pro":917,"##tö":918,"##azda":919,"##iszter":920,"külön":921,"csal":922,"ill":923,"ker":924,"##eked":925,"talál":926,"támog":927,"##aton":928,"szab":929,"##őség":930,"elnök":931,"##ökk":932,"##asznál":933,"ügy":934,"való":935,"vállal":936,"##sal":937,"##ütt":938,"##árm":939,"kapcsol":940,"állam":941,"dönt":942,"dolg":943,"saj":944,"##ezett":945,"üz":946,"##űn":947,"##ata":948,"fér":949,"##ekt":950,"##áború":951,"ok":952,"éves":953,"által":954,"##énz":955,"közös":956,"##arad":957,"##ásár":958,"##tel":959,"##erület":960,"nagyon":961,"játék":962,"visz":963,"előtt":964,"korább":965,"ol":966,"##nok":967,"fő":968,"emel":969,"##zel":970,"ott":971,"ezt":972,"##fog":973,"mellett":974,"##iárd":975,"##oló":976,"Európ":977,"har":978,"##vány":979,"##ri":980,"sik":981,"##ün":982,"##ező":983,"hal":984,"haz":985,"három":986,"##ink":987,"együtt":988,"##and":989,"millió":990,"19":991,"##dig":992,"ben":993,"##ették":994,"##ács":995,"érdek":996,"##úly":997,"##ését":998,"##oll":999,"men":1000,"gond":1001,"Cs":1002,"##utó":1003,"akik":1004,"háború":1005,"nő":1006,"##izet":1007,"család":1008,"Uk":1009,"##jár":1010,"##atot":1011,"##atkoz":1012,"##kod":1013,"##után":1014,"##un":1015,"##ából":1016,"alatt":1017,"##lát":1018,"##erek":1019,"energ":1020,"ered":1021,"kom":1022,"##ába":1023,"mér":1024,"##op":1025,"##szerű":1026,"cég":1027,"##ván":1028,"##emel":1029,"alkal":1030,"milliárd":1031,"ked":1032,"cél":1033,"amikor":1034,"##incs":1035,"Ukraj":1036,"##olit":1037,"##ezte":1038,"kon":1039,"##anak":1040,"pénz":1041,"##ors":1042,"##lal":1043,"közel":1044,"bet":1045,"##gg":1046,"ezer":1047,"fél":1048,"##tó":1049,"##ettek":1050,"##rog":1051,"érték":1052,"ed":1053,"vol":1054,"##éter":1055,"ír":1056,"##inek":1057,"##észt":1058,"##kép":1059,"##tam":1060,"érkez":1061,"##jelent":1062,"re":1063,"hang":1064,"pél":1065,"##up":1066,"megt":1067,"##séges":1068,"##ozás":1069,"csökk":1070,"nek":1071,"##ic":1072,"ért":1073,"történ":1074,"##vis":1075,"##usz":1076,"következ":1077,"##szín":1078,"illet":1079,"##ító":1080,"helyzet":1081,"össze":1082,"##kül":1083,"##ran":1084,"##ozott":1085,"hó":1086,"##iai":1087,"##dő":1088,"figy":1089,"keres":1090,"##ily":1091,"szeret":1092,"szerep":1093,"##amat":1094,"vesz":1095,"hisz":1096,"##véd":1097,"##ip":1098,"##alom":1099,"Orosz":1100,"véd":1101,"város":1102,"számára":1103,"választ":1104,"##form":1105,"szük":1106,"ház":1107,"per":1108,"##enc":1109,"##eken":1110,"##ac":1111,"##erseny":1112,"An":1113,"old":1114,"tör":1115,"terület":1116,"biztos":1117,"##zs":1118,"##fl":1119,"lép":1120,"##ségi":1121,"von":1122,"##izs":1123,"miniszter":1124,"##rány":1125,"ahol":1126,"##gel":1127,"szolg":1128,"másod":1129,"##ilyen":1130,"##tatás":1131,"##oh":1132,"##leszt":1133,"péld":1134,"##omb":1135,"##lyen":1136,"százalékkal":1137,"arról":1138,"valamint":1139,"##oszt":1140,"##alán":1141,"vezető":1142,"te":1143,"megy":1144,"jöv":1145,"én":1146,"hónap":1147,"##ását":1148,"gazda":1149,"Oroszország":1150,"##enne":1151,"vissza":1152,"##fő":1153,"##nél":1154,"nev":1155,"jog":1156,"##lat":1157,"##le":1158,"##ozó":1159,"##ozat":1160,"##öl":1161,"##dul":1162,"##ing":1163,"tár":1164,"##esség":1165,"##ium":1166,"##íg":1167,"##omány":1168,"intéz":1169,"dél":1170,"szín":1171,"erős":1172,"##ően":1173,"felh":1174,"amit":1175,"##almaz":1176,"közölt":1177,"személy":1178,"beszél":1179,"ment":1180,"rendszer":1181,"tag":1182,"##ög":1183,"nemzet":1184,"10":1185,"201":1186,"##uszt":1187,"négy":1188,"bal":1189,"Ha":1190,"költ":1191,"##ermek":1192,"marad":1193,"rendőr":1194,"körül":1195,"##enni":1196,"nyug":1197,"volna":1198,"##város":1199,"pár":1200,"##okban":1201,"hozzá":1202,"##rend":1203,"##ekben":1204,"##bl":1205,"határ":1206,"kil":1207,"##ciók":1208,"##rogram":1209,"ne":1210,"kapcsolat":1211,"haj":1212,"Or":1213,"út":1214,"eredmény":1215,"mely":1216,"közl":1217,"hiszen":1218,"rá":1219,"tav":1220,"Mi":1221,"nyil":1222,"hiv":1223,"Gy":1224,"cí":1225,"fontos":1226,"##ari":1227,"##lék":1228,"óta":1229,"polit":1230,"Nagy":1231,"ilyen":1232,"pont":1233,"műkö":1234,"lét":1235,"##úz":1236,"##tart":1237,"viszont":1238,"ugyanis":1239,"##jabb":1240,"##elet":1241,"##ául":1242,"legn":1243,"##űz":1244,"ezért":1245,"tér":1246,"##ec":1247,"##út":1248,"##akor":1249,"15":1250,"kerül":1251,"##tól":1252,"kev":1253,"##élkül":1254,"illetve":1255,"##éb":1256,"száll":1257,"verseny":1258,"alkalm":1259,"##ekkel":1260,"##ítani":1261,"ma":1262,"##iac":1263,"##udap":1264,"szó":1265,"kar":1266,"Mind":1267,"##rób":1268,"##izsg":1269,"##udapest":1270,"öt":1271,"##aly":1272,"Am":1273,"növ":1274,"neh":1275,"##osz":1276,"##nő":1277,"férfi":1278,"hagy":1279,"##ket":1280,"##hon":1281,"##oport":1282,"##sége":1283,"jelenleg":1284,"társ":1285,"lehetőség":1286,"##ája":1287,"kiv":1288,"##érték":1289,"hanem":1290,"hír":1291,"pály":1292,"##ajnok":1293,"nincs":1294,"##ügg":1295,"mutat":1296,"##ször":1297,"##sel":1298,"##ítés":1299,"##dött":1300,"túl":1301,"annak":1302,"elmúlt":1303,"##pen":1304,"gáz":1305,"st":1306,"lett":1307,"magas":1308,"In":1309,"alak":1310,"második":1311,"szól":1312,"jövő":1313,"##osság":1314,"##ezés":1315,"Köz":1316,"használ":1317,"##ívül":1318,"##séget":1319,"nyom":1320,"emelked":1321,"kit":1322,"##ogat":1323,"##ológ":1324,"##ügyi":1325,"jav":1326,"##esebb":1327,"bizony":1328,"képvis":1329,"##só":1330,"##jük":1331,"##tört":1332,"##epül":1333,"##ocs":1334,"##fej":1335,"##szám":1336,"##ne":1337,"##alak":1338,"itt":1339,"például":1340,"támogatás":1341,"##essz":1342,"gyermek":1343,"##lag":1344,"eddig":1345,"##otta":1346,"táv":1347,"##ant":1348,"mód":1349,"##ített":1350,"##ottak":1351,"##ozz":1352,"##ester":1353,"jobb":1354,"##erikai":1355,"irány":1356,"##íj":1357,"##elés":1358,"akár":1359,"##ef":1360,"jelentős":1361,"közölte":1362,"##adó":1363,"program":1364,"euró":1365,"##övet":1366,"##ason":1367,"##ang":1368,"megh":1369,"akar":1370,"elmond":1371,"saját":1372,"##agyobb":1373,"br":1374,"##fél":1375,"##émet":1376,"nélkül":1377,"par":1378,"##zett":1379,"##ttal":1380,"legnagyobb":1381,"csapat":1382,"rég":1383,"##üz":1384,"nagyobb":1385,"okoz":1386,"##bbi":1387,"gondol":1388,"##sor":1389,"ör":1390,"megsz":1391,"hossz":1392,"azért":1393,"##ással":1394,"##elnök":1395,"amerikai":1396,"##min":1397,"vél":1398,"##eli":1399,"kés":1400,"százalékos":1401,"##ass":1402,"##őv":1403,"korábban":1404,"El":1405,"vannak":1406,"##ához":1407,"##áról":1408,"##mad":1409,"jól":1410,"##észet":1411,"ór":1412,"vid":1413,"##ította":1414,"fiatal":1415,"mindig":1416,"tiszt":1417,"kérdés":1418,"történt":1419,"ban":1420,"doll":1421,"esz":1422,"szabad":1423,"##dik":1424,"néh":1425,"katon":1426,"##nal":1427,"##föld":1428,"foglal":1429,"##ásra":1430,"##tár":1431,"##bben":1432,"rendel":1433,"tavaly":1434,"elh":1435,"##okkal":1436,"##újt":1437,"##mér":1438,"##tal":1439,"##arát":1440,"során":1441,"##ess":1442,"##egyed":1443,"any":1444,"szemben":1445,"##ter":1446,"##jt":1447,"reg":1448,"vas":1449,"##eztet":1450,"##iség":1451,"2022":1452,"érint":1453,"##esült":1454,"##üntet":1455,"csökkent":1456,"körny":1457,"megv":1458,"hazai":1459,"##almas":1460,"fejleszt":1461,"12":1462,"##atlan":1463,"##anyag":1464,"##éről":1465,"néz":1466,"teljes":1467,"##uty":1468,"újra":1469,"##ex":1470,"dolgoz":1471,"##ull":1472,"##előtt":1473,"részt":1474,"bizton":1475,"##súly":1476,"En":1477,"##tor":1478,"amelyek":1479,"##chn":1480,"##közi":1481,"legy":1482,"##oknak":1483,"alapján":1484,"##all":1485,"##ism":1486,"De":1487,"idén":1488,"Er":1489,"jegy":1490,"##vétel":1491,"folyamat":1492,"perc":1493,"##ck":1494,"bef":1495,"Szer":1496,"##egyv":1497,"##izsgál":1498,"##uár":1499,"elér":1500,"##urópai":1501,"Ny":1502,"szav":1503,"##ris":1504,"infl":1505,"időszak":1506,"vel":1507,"##ékoz":1508,"európai":1509,"másik":1510,"##ói":1511,"felt":1512,"figyelm":1513,"nép":1514,"uta":1515,"autó":1516,"##eit":1517,"fizet":1518,"##jában":1519,"találkoz":1520,"gyerek":1521,"##von":1522,"##őbb":1523,"##nn":1524,"##ekre":1525,"kín":1526,"##pr":1527,"##ánt":1528,"##ésre":1529,"forg":1530,"vásár":1531,"##itk":1532,"gyors":1533,"30":1534,"víz":1535,"közül":1536,"Al":1537,"##cia":1538,"újabb":1539,"##itel":1540,"##ogyaszt":1541,"##öt":1542,"fok":1543,"egyre":1544,"kam":1545,"oszt":1546,"##ord":1547,"##zal":1548,"##ment":1549,"egym":1550,"##állítás":1551,"hatás":1552,"##ója":1553,"##ájékoz":1554,"##acs":1555,"##ilm":1556,"kereszt":1557,"##ics":1558,"##ekint":1559,"adat":1560,"Meg":1561,"ál":1562,"Budapest":1563,"##etem":1564,"tűz":1565,"##író":1566,"##csak":1567,"18":1568,"elv":1569,"játsz":1570,"emlék":1571,"folytat":1572,"moz":1573,"készül":1574,"került":1575,"lenne":1576,"Ukrajn":1577,"jut":1578,"adott":1579,"önk":1580,"##ációs":1581,"beteg":1582,"##ay":1583,"##bban":1584,"energia":1585,"negyed":1586,"##jai":1587,"dr":1588,"hason":1589,"##zék":1590,"ezzel":1591,"kellett":1592,"##ti":1593,"harmad":1594,"##ején":1595,"##eknek":1596,"elt":1597,"##óság":1598,"##rec":1599,"##erős":1600,"##írus":1601,"átlag":1602,"szolgált":1603,"utol":1604,"további":1605,"##ern":1606,"##gyel":1607,"Európai":1608,"míg":1609,"##ub":1610,"tervez":1611,"hivatal":1612,"rendelkez":1613,"##ón":1614,"egyéb":1615,"##ütört":1616,"##ütörtök":1617,"tesz":1618,"kösz":1619,"Már":1620,"##pl":1621,"##eset":1622,"dollár":1623,"Em":1624,"##ottság":1625,"##inak":1626,"##ulajd":1627,"voltak":1628,"##blém":1629,"##kot":1630,"tett":1631,"##mal":1632,"##ral":1633,"##kész":1634,"##di":1635,"megold":1636,"##ulajdon":1637,"megfel":1638,"föld":1639,"néhány":1640,"piac":1641,"gyakor":1642,"##hatnak":1643,"ám":1644,"kih":1645,"támogat":1646,"tölt":1647,"##elen":1648,"pént":1649,"semm":1650,"##lott":1651,"szél":1652,"##ezni":1653,"##omán":1654,"##rat":1655,"##okon":1656,"##aság":1657,"##róbál":1658,"növeked":1659,"25":1660,"##eség":1661,"megk":1662,"##ákat":1663,"##évő":1664,"továbbra":1665,"szervezet":1666,"követően":1667,"kl":1668,"ön":1669,"Nemzet":1670,"csat":1671,"elmondta":1672,"szükség":1673,"teljesít":1674,"problém":1675,"##ították":1676,"had":1677,"##ánk":1678,"##ásokat":1679,"halál":1680,"##vas":1681,"győz":1682,"termék":1683,"lég":1684,"##zi":1685,"##ong":1686,"##ür":1687,"11":1688,"mik":1689,"munka":1690,"polg":1691,"##leges":1692,"##ha":1693,"közt":1694,"##des":1695,"##erő":1696,"ber":1697,"kid":1698,"Ukrajna":1699,"veszély":1700,"##ukat":1701,"ennek":1702,"szület":1703,"##azd":1704,"tárgy":1705,"aut":1706,"##nnep":1707,"##ókat":1708,"milyen":1709,"azzal":1710,"##eget":1711,"súly":1712,"##ika":1713,"megáll":1714,"függ":1715,"raj":1716,"##áló":1717,"##ark":1718,"gazdasági":1719,"tekint":1720,"##ormány":1721,"nehéz":1722,"képviselő":1723,"##nny":1724,"##ítása":1725,"alkalmaz":1726,"Áll":1727,"Azt":1728,"mivel":1729,"belül":1730,"13":1731,"##ih":1732,"##atív":1733,"szen":1734,"##mel":1735,"##uló":1736,"##jegy":1737,"rendez":1738,"tette":1739,"test":1740,"##rel":1741,"szeretn":1742,"ink":1743,"csoport":1744,"ismert":1745,"korábbi":1746,"##endég":1747,"kapott":1748,"##uház":1749,"##olni":1750,"elég":1751,"##vezető":1752,"szabály":1753,"eszköz":1754,"##lás":1755,"szül":1756,"ezek":1757,"14":1758,"ünnep":1759,"##akat":1760,"##akkor":1761,"##lés":1762,"##alt":1763,"##orv":1764,"elfog":1765,"következő":1766,"kór":1767,"##őzés":1768,"##ete":1769,"##árnap":1770,"alá":1771,"Egyesült":1772,"uni":1773,"bejelent":1774,"komoly":1775,"költség":1776,"igény":1777,"otthon":1778,"##ítja":1779,"csütörtök":1780,"képest":1781,"sport":1782,"##ept":1783,"iskol":1784,"##éhez":1785,"##bán":1786,"szank":1787,"felad":1788,"##szik":1789,"##áját":1790,"őket":1791,"##ánd":1792,"inkább":1793,"##gal":1794,"eng":1795,"teh":1796,"##ítette":1797,"inform":1798,"barát":1799,"tal":1800,"##ánc":1801,"felel":1802,"##műv":1803,"##ene":1804,"azok":1805,"erő":1806,"16":1807,"bajnok":1808,"emberek":1809,"im":1810,"helyi":1811,"tulajdon":1812,"##of":1813,"##talan":1814,"könny":1815,"vide":1816,"megfelelő":1817,"vendég":1818,"miniszterelnök":1819,"utolsó":1820,"Mint":1821,"##itt":1822,"különb":1823,"tíz":1824,"##ános":1825,"##amar":1826,"egyes":1827,"lap":1828,"oldal":1829,"fordul":1830,"Magyarországon":1831,"kat":1832,"##átt":1833,"száma":1834,"##ári":1835,"magát":1836,"2021":1837,"##uh":1838,"##ús":1839,"koron":1840,"aján":1841,"bár":1842,"##éssel":1843,"##olc":1844,"változ":1845,"##követ":1846,"di":1847,"fenn":1848,"##jobb":1849,"##ésére":1850,"as":1851,"rossz":1852,"utc":1853,"##ormányz":1854,"üzlet":1855,"foglalkoz":1856,"##oldal":1857,"zár":1858,"sikerült":1859,"##ron":1860,"hasonló":1861,"##élet":1862,"helyszín":1863,"##álat":1864,"ellát":1865,"##ságot":1866,"fogyaszt":1867,"elem":1868,"##assz":1869,"várható":1870,"els":1871,"köt":1872,"mintegy":1873,"##gyű":1874,"Ar":1875,"part":1876,"épít":1877,"Orbán":1878,"##ármester":1879,"##sér":1880,"techn":1881,"##gr":1882,"megb":1883,"köszön":1884,"hát":1885,"##sék":1886,"energi":1887,"nyilván":1888,"harmadik":1889,"ismét":1890,"Péter":1891,"##nai":1892,"##öm":1893,"##óta":1894,"Ki":1895,"édes":1896,"legjobb":1897,"cím":1898,"fegyv":1899,"tájékoz":1900,"vizsgál":1901,"érdekében":1902,"##előre":1903,"infláció":1904,"szív":1905,"##lam":1906,"##úg":1907,"##ellem":1908,"##őket":1909,"tűn":1910,"##érium":1911,"legal":1912,"enged":1913,"##haj":1914,"szomb":1915,"##ották":1916,"nemzetközi":1917,"mérték":1918,"##usban":1919,"##ka":1920,"szervez":1921,"##szab":1922,"lány":1923,"##jon":1924,"##ektet":1925,"##iskol":1926,"hiány":1927,"segítség":1928,"bűn":1929,"neki":1930,"utó":1931,"##rás":1932,"lévő":1933,"válasz":1934,"szavaz":1935,"számít":1936,"##eteg":1937,"##ügymin":1938,"mérk":1939,"hív":1940,"állap":1941,"esemény":1942,"fogalmaz":1943,"Állam":1944,"##jának":1945,"##ezt":1946,"##utatás":1947,"hétfő":1948,"bank":1949,"érdem":1950,"ára":1951,"##úcs":1952,"elleni":1953,"később":1954,"szerző":1955,"##izt":1956,"erre":1957,"##aszn":1958,"kórház":1959,"##hetnek":1960,"##ehér":1961,"vasárnap":1962,"##inál":1963,"##ist":1964,"zs":1965,"##ógy":1966,"##okra":1967,"hol":1968,"közösségi":1969,"törvény":1970,"évben":1971,"##üket":1972,"##nem":1973,"200":1974,"épület":1975,"nyit":1976,"egészség":1977,"uniós":1978,"kik":1979,"##ista":1980,"##nia":1981,"ismer":1982,"tap":1983,"##iában":1984,"##rom":1985,"##SZ":1986,"##lov":1987,"##ens":1988,"párt":1989,"évvel":1990,"##úr":1991,"hosszú":1992,"éve":1993,"MT":1994,"Puty":1995,"##mények":1996,"természet":1997,"önkormányz":1998,"mit":1999,"vállalkoz":2000,"mod":2001,"##ock":2002,").":2003,"17":2004,"##ségek":2005,"##abd":2006,"című":2007,"ap":2008,"német":2009,"##szolg":2010,"Ist":2011,"##nyv":2012,"##ovember":2013,"helyett":2014,"##asztal":2015,"##lak":2016,"##tag":2017,"tanul":2018,"##öző":2019,"létre":2020,"járvány":2021,"vád":2022,"##áig":2023,"##adásul":2024,"##színű":2025,"közlemény":2026,"##erj":2027,"miután":2028,"megállap":2029,"##átette":2030,"sokkal":2031,"szintén":2032,"Vik":2033,"##áp":2034,"##ékeny":2035,"##ozta":2036,"amelyet":2037,"##hetően":2038,"kí":2039,"##kívül":2040,"lev":2041,"##földi":2042,"##edett":2043,"végül":2044,"üt":2045,"##özben":2046,"teljesen":2047,"nyilatkoz":2048,"fert":2049,"film":2050,"##avírus":2051,"##olta":2052,"##bert":2053,"##enet":2054,"jelentette":2055,"##övid":2056,"ukraj":2057,"ellenére":2058,"ukrajnai":2059,"##lin":2060,"képes":2061,"##kkor":2062,"##éseket":2063,"##elmiszer":2064,"keresztül":2065,"Ezt":2066,"24":2067,"##lik":2068,"üzem":2069,"nőtt":2070,"tem":2071,"biztonság":2072,"Putyin":2073,"múlt":2074,"előre":2075,"kisebb":2076,"##ásban":2077,"lel":2078,"án":2079,"##foly":2080,"##ébe":2081,"##hetetlen":2082,"),":2083,"##isztérium":2084,"környezet":2085,"##eptember":2086,"abban":2087,"##elni":2088,"##áltak":2089,"összeg":2090,"koronavírus":2091,"része":2092,"játékos":2093,"50":2094,"bőv":2095,"mell":2096,"##mond":2097,"áld":2098,"közép":2099,"dec":2100,"sp":2101,"##jából":2102,"számos":2103,"##fit":2104,"##szor":2105,"##riss":2106,"gól":2107,"megl":2108,"##encs":2109,"##heti":2110,"sér":2111,"tény":2112,"gyárt":2113,"form":2114,"intézked":2115,"”.":2116,"szig":2117,"települ":2118,"##nyire":2119,"rak":2120,"vez":2121,"este":2122,"2020":2123,"##tóber":2124,"oldalán":2125,"reggel":2126,"felelős":2127,"##ászló":2128,"Bal":2129,"##meg":2130,"helyen":2131,"##ait":2132,"végén":2133,"legyen":2134,"ex":2135,"küz":2136,"##áros":2137,"##ezték":2138,"szerd":2139,"élelmiszer":2140,"Mar":2141,"##engyel":2142,"végre":2143,"állt":2144,"##ától":2145,"##per":2146,"##nyit":2147,"héten":2148,"##telen":2149,"gép":2150,"##adt":2151,"éppen":2152,"javas":2153,"##ettel":2154,"##országi":2155,"fot":2156,"baleset":2157,"##ői":2158,"nyújt":2159,"vállalat":2160,"gazdaság":2161,"kapcsolatban":2162,"vonatkoz":2163,"november":2164,"##től":2165,"##átor":2166,"részlet":2167,"december":2168,"##díj":2169,"Ennek":2170,"het":2171,"##hogy":2172,"olaj":2173,"100":2174,"fin":2175,"olt":2176,"##ására":2177,"##iaci":2178,"anyag":2179,"utaz":2180,"legalább":2181,"kötel":2182,"ide":2183,"fogad":2184,"##uguszt":2185,"től":2186,"##get":2187,"hall":2188,"felhasznál":2189,"közleked":2190,"nyert":2191,"##ejt":2192,"ebben":2193,"##üt":2194,"##ized":2195,"katonai":2196,"egyébként":2197,"Fer":2198,"##af":2199,"##pal":2200,"szor":2201,"MTI":2202,"##den":2203,"##ilis":2204,"##igaz":2205,"bem":2206,"kívül":2207,"##öbb":2208,"évek":2209,"százaléka":2210,"Európa":2211,"érkezett":2212,"hangsúly":2213,"##acsony":2214,"##ékony":2215,"csökken":2216,"tárgyal":2217,"40":2218,"menek":2219,"##ion":2220,"##elek":2221,"szép":2222,"##álták":2223,"arány":2224,"##mag":2225,"felé":2226,"műsor":2227,"EU":2228,"észak":2229,"szövet":2230,"legf":2231,"keret":2232,"keresked":2233,"veszt":2234,"ének":2235,"egyelőre":2236,"Br":2237,"írta":2238,"legtö":2239,"bér":2240,"rendőrség":2241,"Kr":2242,"rövid":2243,"##ítő":2244,"szakember":2245,"And":2246,"előző":2247,"írja":2248,"beszélt":2249,"Most":2250,"esetében":2251,"szükséges":2252,"NA":2253,"##utt":2254,"##enger":2255,"##ágy":2256,"szeptember":2257,"mindenki":2258,"szenv":2259,"pill":2260,"álló":2261,"##lament":2262,"##örgy":2263,"hatóság":2264,"szolgáltatás":2265,"súlyos":2266,"##rd":2267,"egyen":2268,"gyű":2269,"kezdő":2270,"Viktor":2271,"##őleg":2272,"orv":2273,"##rancia":2274,"Deb":2275,"kény":2276,"##ört":2277,"##ezs":2278,"##adék":2279,"##ulás":2280,"kir":2281,"ezen":2282,"##endő":2283,"először":2284,"próbál":2285,"##jét":2286,"##íts":2287,"##csap":2288,"kevesebb":2289,"##ogatott":2290,"brit":2291,"terv":2292,"vagyok":2293,"október":2294,"délután":2295,"##városi":2296,"##eccs":2297,"forintot":2298,"ahogy":2299,"##énk":2300,"##két":2301,"elnöke":2302,"fogalmazott":2303,"kialak":2304,"##hatja":2305,"harc":2306,"hitel":2307,"##íteni":2308,"esetben":2309,"##gatlan":2310,"valószínű":2311,"polgármester":2312,"fut":2313,"##ebr":2314,"utóbbi":2315,"Zs":2316,"haszn":2317,"hogyan":2318,"St":2319,"##övel":2320,"##sze":2321,"Debrec":2322,"szinte":2323,"konc":2324,"##védelmi":2325,"##polg":2326,"##ereg":2327,"##határ":2328,"Ugyan":2329,"tev":2330,"##éből":2331,"szok":2332,"kéz":2333,"megm":2334,"##itás":2335,"##ünet":2336,"drág":2337,"##úttal":2338,"akt":2339,"ford":2340,"ugyanakkor":2341,"##ológiai":2342,"kiemel":2343,"megyei":2344,"idei":2345,"##országban":2346,"azonnal":2347,"szakért":2348,"##efon":2349,"László":2350,"zaj":2351,"nyolc":2352,"támad":2353,"Nemzeti":2354,"tehát":2355,"##őben":2356,"##land":2357,"olvas":2358,"beruház":2359,"##orban":2360,"##nyiség":2361,"##gép":2362,"alkot":2363,"bék":2364,"##zése":2365,"poz":2366,"##ője":2367,"vet":2368,"##ítják":2369,"kifej":2370,"orvos":2371,"auguszt":2372,"##he":2373,"##úsz":2374,"elején":2375,"idej":2376,"repül":2377,"##űt":2378,"##álni":2379,"rendkívül":2380,"szakm":2381,"21":2382,"hál":2383,"ezelőtt":2384,"szankciók":2385,"ip":2386,"pénteken":2387,"bárm":2388,"kív":2389,"írt":2390,"Úgy":2391,"##gazda":2392,"##oha":2393,"kevés":2394,"egyszer":2395,"##omag":2396,"hamar":2397,"egyszerű":2398,"##óban":2399,"viszony":2400,"##ismer":2401,"##fizet":2402,"korlát":2403,"##úli":2404,"siker":2405,"mérkőzés":2406,"##ebruár":2407,"tevékeny":2408,"benne":2409,"díj":2410,"fr":2411,"eljár":2412,"közben":2413,"##attal":2414,"bele":2415,"politikai":2416,"vele":2417,"Hozz":2418,"##érte":2419,"gyan":2420,"áram":2421,"##ner":2422,"##ációk":2423,"érdemes":2424,"tapasztal":2425,"hon":2426,"##tunk":2427,"##szk":2428,"rendőrök":2429,"bíró":2430,"##hi":2431,"##ulat":2432,"intézmény":2433,"Minden":2434,"megjel":2435,"Szab":2436,"##ekv":2437,"##rod":2438,"történet":2439,"Bár":2440,"óra":2441,"cik":2442,"éj":2443,"egyed":2444,"##almi":2445,"kedv":2446,"fenntart":2447,"gyógy":2448,"miközben":2449,"István":2450,"##uta":2451,"iz":2452,"ingatlan":2453,"tenger":2454,"##uz":2455,"##arab":2456,"egyetlen":2457,"növel":2458,"##tized":2459,"##vég":2460,"##elte":2461,"mozg":2462,"csütörtökön":2463,"rem":2464,"tudja":2465,"részvény":2466,"döntött":2467,"##ilag":2468,"##izen":2469,"##ultak":2470,"tanács":2471,"folyamatosan":2472,"Ferenc":2473,"őr":2474,"##hhez":2475,"##rag":2476,"mindent":2477,"##atták":2478,"gazd":2479,"on":2480,"kics":2481,"közvet":2482,"érdeklő":2483,"Ezek":2484,"proj":2485,"politikus":2486,"##össz":2487,"##ím":2488,"##ítottak":2489,"##gyek":2490,"##anuár":2491,"##ina":2492,"annyi":2493,"at":2494,"##itány":2495,"alkalom":2496,"jobban":2497,"pillan":2498,"sokat":2499,"##enz":2500,"elkövet":2501,"kísér":2502,"bor":2503,"hav":2504,"##írt":2505,"nemcsak":2506,"##őként":2507,"tartott":2508,"maga":2509,"fal":2510,"labd":2511,"##ennyi":2512,"adatok":2513,"Több":2514,"##ítvány":2515,"##kori":2516,"legtöbb":2517,"##enci":2518,"##ontosabb":2519,"igazgat":2520,"meccs":2521,"##ileg":2522,"különböző":2523,"felv":2524,"hatalmas":2525,"##ow":2526,"##jára":2527,"évtized":2528,"##folyam":2529,"pl":2530,"##ültek":2531,"gyeng":2532,"##ügyminiszter":2533,"Kis":2534,"látható":2535,"jelenlegi":2536,"befektet":2537,"kr":2538,"elekt":2539,"nyí":2540,"márci":2541,"##kezd":2542,"ellenőr":2543,"##műkö":2544,"kedvez":2545,"színész":2546,"22":2547,"Német":2548,"alacsony":2549,"jelentkez":2550,"##ódott":2551,"különös":2552,"állapot":2553,"Uni":2554,"jött":2555,"kett":2556,"##mun":2557,"amelynek":2558,"mennyiség":2559,"módon":2560,"##vonal":2561,"kamat":2562,"##ib":2563,"##né":2564,"##nev":2565,"##ox":2566,"hő":2567,"Így":2568,"##oszk":2569,"Biz":2570,"dí":2571,"##ésével":2572,"terj":2573,"##ácsony":2574,"hagyomány":2575,"friss":2576,"vezetője":2577,"magasabb":2578,"oda":2579,"##har":2580,"##kap":2581,"##éves":2582,"##íti":2583,"23":2584,"február":2585,"máj":2586,"román":2587,"vit":2588,"##keres":2589,"##óg":2590,"##árak":2591,"##álló":2592,"##atos":2593,"##ésben":2594,"élő":2595,"készült":2596,"hétfőn":2597,"Mik":2598,"##lép":2599,"##szint":2600,"közep":2601,"beszám":2602,"szerdán":2603,"##ese":2604,"megerős":2605,"##nie":2606,"kérd":2607,"##str":2608,"kilom":2609,"kíván":2610,"mező":2611,"ról":2612,"##szerzés":2613,"állami":2614,"kutatás":2615,"##gaz":2616,"##íció":2617,"##ozni":2618,"##hatatlan":2619,"szempont":2620,"Ország":2621,"valak":2622,"szóló":2623,"##prilis":2624,"##elv":2625,"##ásával":2626,"##eztek":2627,"aztán":2628,"igen":2629,"vill":2630,"##olaj":2631,"előny":2632,"jellem":2633,"mély":2634,"rezs":2635,"##alap":2636,"##orn":2637,"érvény":2638,"visszat":2639,"##eként":2640,"parlament":2641,"küzd":2642,"port":2643,"És":2644,"##lom":2645,"##si":2646,"##úni":2647,"##ésének":2648,"elérhető":2649,"január":2650,"##éig":2651,"többi":2652,"##lovák":2653,"megjelen":2654,"összesen":2655,"együttműkö":2656,"##zik":2657,"##eleg":2658,"közötti":2659,"nehez":2660,"figyelmet":2661,"zen":2662,"##eik":2663,"##oci":2664,"indul":2665,"mai":2666,"##érd":2667,"napon":2668,"2023":2669,"kormányz":2670,"kedden":2671,"##line":2672,"Sok":2673,"bír":2674,"##áson":2675,"##ebo":2676,"régió":2677,"király":2678,"##una":2679,"válogatott":2680,"forintos":2681,"fény":2682,"##bizt":2683,"esetén":2684,"##jával":2685,"##árul":2686,"##álaszt":2687,"tudni":2688,"vagyunk":2689,"sorozat":2690,"pályáz":2691,"augusztus":2692,"\".":2693,"##ah":2694,"##onban":2695,"##bank":2696,"##éli":2697,"felett":2698,"##fordul":2699,"független":2700,"##uny":2701,"##íp":2702,"##olja":2703,"##hetik":2704,"édesany":2705,"##ockáz":2706,"Ol":2707,"vett":2708,"##észeti":2709,"támadás":2710,"sokan":2711,"ráadásul":2712,"Kor":2713,"rek":2714,"ít":2715,"##tuk":2716,"##arg":2717,"##igit":2718,"tudják":2719,"##ájuk":2720,"Rend":2721,"##TO":2722,"szom":2723,"##adott":2724,"jármű":2725,"kiderült":2726,"büntet":2727,"##elj":2728,"hib":2729,"született":2730,"diák":2731,"megállapod":2732,"bemutat":2733,"igyek":2734,"piaci":2735,"##ecs":2736,"feleség":2737,"##nos":2738,"években":2739,"lakosság":2740,"csatlak":2741,"Fac":2742,"hull":2743,"sen":2744,"tizen":2745,"ész":2746,"##sd":2747,"##esek":2748,"idős":2749,"##ódik":2750,"feltétel":2751,"őt":2752,"##uc":2753,"##élt":2754,"##ségét":2755,"akad":2756,"##róf":2757,"adó":2758,"let":2759,"##uális":2760,"##függ":2761,"##akt":2762,"agg":2763,"óv":2764,"##mus":2765,"kult":2766,"##janak":2767,"központ":2768,"eml":2769,"##féle":2770,"tűnik":2771,"til":2772,"##szki":2773,"##imp":2774,"##imir":2775,"##lap":2776,"##vá":2777,"##ató":2778,"fejlő":2779,"valami":2780,"működ":2781,"bi":2782,"mög":2783,"zöld":2784,"##son":2785,"##tr":2786,"azóta":2787,"##ozik":2788,"kapcs":2789,"rakét":2790,"júli":2791,"kár":2792,"##gáz":2793,"##arúg":2794,"##ázs":2795,"##hatunk":2796,"##ítási":2797,"semmi":2798,"##engeteg":2799,"hivatalos":2800,"ők":2801,"##bajnok":2802,"számolt":2803,"legfontosabb":2804,"Facebo":2805,"##rész":2806,"##elmet":2807,"##ármaz":2808,"alakul":2809,"Bar":2810,"pr":2811,"tet":2812,"##állt":2813,"##ősorban":2814,"Kín":2815,"látt":2816,"##egnap":2817,"##ratég":2818,"vonatkozó":2819,"Bizottság":2820,"##bből":2821,"köszönhetően":2822,"szombaton":2823,"ég":2824,"többet":2825,"addig":2826,"jelenti":2827,"##ivil":2828,"munkat":2829,"rendezvény":2830,"27":2831,"##enes":2832,"műv":2833,"##nőtt":2834,"bek":2835,"teszt":2836,"##viv":2837,"elkép":2838,"##ente":2839,"többször":2840,"Le":2841,"med":2842,"ra":2843,"egyetem":2844,"##oldog":2845,"kockáz":2846,"##ikt":2847,"mégis":2848,"Egyetem":2849,"kapcsolatos":2850,"35":2851,"feny":2852,"Új":2853,"április":2854,"##lob":2855,"##erc":2856,"azaz":2857,"##aként":2858,"##óknak":2859,"indult":2860,"##őzött":2861,"emelkedett":2862,"tűzolt":2863,"köztük":2864,"Bank":2865,"íg":2866,"##űr":2867,"csúcs":2868,"lem":2869,"##ián":2870,"##elik":2871,"lehetett":2872,"külföldi":2873,"távol":2874,"alig":2875,"##ocsát":2876,"település":2877,"##szi":2878,"##osabb":2879,"arany":2880,"##upán":2881,"térség":2882,"örök":2883,"irán":2884,"##vált":2885,"életét":2886,"társaság":2887,"júni":2888,"talán":2889,"##sa":2890,"árak":2891,"kínai":2892,"kal":2893,"##tató":2894,"döntés":2895,"Bors":2896,"tur":2897,"##eum":2898,"##akar":2899,"##hatják":2900,"hétvég":2901,"baloldal":2902,"online":2903,"méd":2904,"##za":2905,"##ver":2906,"##erem":2907,"##ülés":2908,"##sága":2909,"##idesz":2910,"maradt":2911,"Hozzátette":2912,"lez":2913,"mes":2914,"megs":2915,"forr":2916,"küld":2917,"##ársa":2918,"Államok":2919,"kapcsán":2920,"Zrt":2921,"lakás":2922,"kelet":2923,"##pály":2924,"##már":2925,"elk":2926,"##izál":2927,"vagyis":2928,"ahhoz":2929,"##obil":2930,"célja":2931,"értelm":2932,"szolgál":2933,"##jev":2934,"##eleti":2935,"érintett":2936,"gyakorlat":2937,"meglep":2938,"lenni":2939,"nál":2940,"sőt":2941,"##ft":2942,"származ":2943,"##ázis":2944,"azonos":2945,"##áris":2946,"telefon":2947,"társad":2948,"eszközök":2949,"NATO":2950,"##dönt":2951,"megny":2952,"##éteres":2953,"##ereség":2954,"Ed":2955,"Román":2956,"hid":2957,"##olás":2958,"Ezzel":2959,"##házi":2960,"lakos":2961,"található":2962,"vezér":2963,"digit":2964,"fehér":2965,"##elmű":2966,"árfolyam":2967,"feladat":2968,"János":2969,"föl":2970,"##ái":2971,"szék":2972,"kihív":2973,"elsősorban":2974,"Két":2975,"lass":2976,"vér":2977,"##pány":2978,"##elők":2979,"##állam":2980,"kutat":2981,"##li":2982,"##mill":2983,"esély":2984,"időszakban":2985,"költségvet":2986,"tulajdonos":2987,"darab":2988,"##kos":2989,"##áért":2990,"##csoport":2991,"csupán":2992,"erők":2993,"##ung":2994,"pénzügyi":2995,"##beli":2996,"26":2997,"civil":2998,"poszt":2999,"sta":3000,"Szent":3001,"kellene":3002,"ellenzék":3003,"##pár":3004,"##vállal":3005,"##ikat":3006,"##ítése":3007,"##rad":3008,"végzett":3009,"nemzeti":3010,"énekes":3011,"magán":3012,"##össze":3013,"##eink":3014,"##ná":3015,"többek":3016,"lesznek":3017,"alkalommal":3018,"##avar":3019,"##helyi":3020,"teljesítmény":3021,"labdarúg":3022,"##rég":3023,"##jj":3024,"közz":3025,"##almat":3026,"világbajnok":3027,"stratég":3028,"osztály":3029,"##jen":3030,"##jut":3031,"##óm":3032,"##ivál":3033,"egészségügyi":3034,"hangsúlyozta":3035,"dob":3036,"##lány":3037,"##étől":3038,"kiz":3039,"nyugati":3040,"##ismert":3041,"##ándor":3042,"március":3043,"fiz":3044,"várt":3045,"zárt":3046,"óri":3047,"##lét":3048,"szerencs":3049,"##kör":3050,"válság":3051,"Ak":3052,"Att":3053,"francia":3054,"##var":3055,"védelmi":3056,"Nagyon":3057,"töltött":3058,"fegyver":3059,"budapest":3060,"járt":3061,"##fer":3062,"főváros":3063,"Központ":3064,"projekt":3065,"28":3066,"##org":3067,"megp":3068,"bevezet":3069,"miért":3070,"##ájában":3071,"üzemanyag":3072,"budapesti":3073,"60":3074,"##eged":3075,"##ítva":3076,"tudott":3077,"##őzsd":3078,"Ma":3079,"Moszk":3080,"jön":3081,"##esül":3082,"##ila":3083,"csomag":3084,"##ódó":3085,"kezdemény":3086,"hatóságok":3087,"gyűjt":3088,"##ce":3089,"##pt":3090,"##éki":3091,"##ogatás":3092,"jelölt":3093,"egészen":3094,"oktatás":3095,"régi":3096,"biztonsági":3097,"valaki":3098,"név":3099,"os":3100,"##óval":3101,"##bel":3102,"azokat":3103,"ezeket":3104,"becs":3105,"##értelmű":3106,"##ései":3107,"napokban":3108,"oroszok":3109,"nyugdíj":3110,"működés":3111,"##mérsék":3112,"Fel":3113,"tém":3114,"##éri":3115,"megelő":3116,"##csi":3117,"##hetett":3118,"rengeteg":3119,"##ezz":3120,"egykori":3121,"ezúttal":3122,"kampány":3123,"modell":3124,"Ne":3125,"agr":3126,"##ású":3127,"megval":3128,"##ellát":3129,"##ítást":3130,"szerepel":3131,"tagja":3132,"karácsony":3133,"jutott":3134,"tegnap":3135,"##ezik":3136,"##ólag":3137,"##ukt":3138,"nappal":3139,"jelentősen":3140,"Kar":3141,"kont":3142,"lengyel":3143,"##la":3144,"szár":3145,"##inte":3146,"feld":3147,"közé":3148,"##ünket":3149,"technológ":3150,"megvalós":3151,"boldog":3152,"##óra":3153,"##ásnak":3154,"##eznek":3155,"##ényeg":3156,"##unkat":3157,"napi":3158,"népszerű":3159,"betegség":3160,"különösen":3161,"baj":3162,"##bil":3163,"##orú":3164,"##ezer":3165,"##apír":3166,"##oltak":3167,"alk":3168,"deb":3169,"állás":3170,"##tatta":3171,"országban":3172,"igazán":3173,"forgalom":3174,"##mérséklet":3175,"Val":3176,"húz":3177,"##etet":3178,"##szem":3179,"szez":3180,"megjelent":3181,"##adta":3182,"időt":3183,"##ekvő":3184,"Még":3185,"vegy":3186,"minél":3187,"országok":3188,"##orvát":3189,"II":3190,"glob":3191,"##sereg":3192,"##olog":3193,"felnőtt":3194,"kim":3195,"akinek":3196,"##ast":3197,"##álisan":3198,"199":3199,"Ch":3200,"Tam":3201,"koll":3202,"rög":3203,"”,":3204,"##tette":3205,"##ca":3206,"##agóg":3207,"##evő":3208,"összes":3209,"##iós":3210,"##nökség":3211,"persze":3212,"nevű":3213,"##ocsi":3214,"fertőzött":3215,"seb":3216,"##etett":3217,"tartóz":3218,"mostani":3219,"együttes":3220,"##romos":3221,"ideig":3222,".”":3223,"Miskol":3224,"dok":3225,"soha":3226,"esett":3227,"tudjuk":3228,"fogja":3229,"hatékony":3230,"##osztály":3231,"szenved":3232,"##ípus":3233,"Kár":3234,"Sp":3235,"Zolt":3236,"##érkez":3237,"##ítását":3238,"pontosan":3239,"##eztetett":3240,"május":3241,"mot":3242,"tenni":3243,"##iát":3244,"##kit":3245,"##üssz":3246,"##nyal":3247,"magyaráz":3248,"felhív":3249,"hajt":3250,"Mivel":3251,"teszi":3252,"##igazgat":3253,"31":3254,"##zott":3255,"##őd":3256,"csod":3257,"idején":3258,"országos":3259,"szerződés":3260,"szakmai":3261,"Ad":3262,"Kir":3263,"élt":3264,"##rá":3265,"##van":3266,"##vásár":3267,"##ásának":3268,"meghatár":3269,"kijelent":3270,"##játék":3271,"2019":3272,"-,":3273,"eny":3274,"##észség":3275,"##ózs":3276,"családi":3277,"engedély":3278,"áldoz":3279,"vi":3280,"##einek":3281,"##rál":3282,"##őknek":3283,"százalékát":3284,"szakasz":3285,"##ökkent":3286,"önkormányzat":3287,"cikk":3288,"pillanat":3289,"%-":3290,"löv":3291,"##ma":3292,"##jas":3293,"folyam":3294,"cégek":3295,"róla":3296,"mögött":3297,"múl":3298,"##tad":3299,"cser":3300,"szinten":3301,"földgáz":3302,"jellemző":3303,"##száz":3304,"##akció":3305,"##ttól":3306,"ell":3307,"##ákkal":3308,"helyre":3309,"női":3310,"vélemény":3311,"utas":3312,"ideje":3313,"hálóz":3314,"Bor":3315,"konfl":3316,"konflikt":3317,"egyértelmű":3318,"minőség":3319,"sikeres":3320,"tehet":3321,"befoly":3322,"mértékben":3323,"##gazdasági":3324,"egyedül":3325,"vad":3326,"##zó":3327,"##ancs":3328,"##árok":3329,"##áns":3330,"##itív":3331,"felvétel":3332,"gyak":3333,"##lenül":3334,"ideg":3335,"legutó":3336,"részét":3337,"időben":3338,"reag":3339,"környék":3340,"elektromos":3341,"##unyt":3342,"##rét":3343,"##anács":3344,"felkész":3345,"mindössze":3346,"éjszak":3347,"Zoltán":3348,"Gerg":3349,"ehhez":3350,"##oss":3351,"felmér":3352,"kislány":3353,"29":3354,"Ber":3355,"információ":3356,"Duna":3357,"##oc":3358,"közön":3359,"idéz":3360,"##közben":3361,"##ővé":3362,"Min":3363,"##jön":3364,"##ansz":3365,"##entum":3366,"##szervezet":3367,"nyár":3368,"erősö":3369,"Debrecen":3370,"##ekről":3371,"##inc":3372,"megn":3373,"##élte":3374,"hird":3375,"csaknem":3376,"##andó":3377,"figyelem":3378,"##oft":3379,"##ker":3380,"elé":3381,"##ársaság":3382,"bíróság":3383,"##oni":3384,"##egór":3385,"Ezért":3386,"kommun":3387,"érkezik":3388,"segítségével":3389,"kilométer":3390,"##piac":3391,"##ener":3392,"##regy":3393,"felül":3394,"akció":3395,"utal":3396,"tudnak":3397,"##abban":3398,"##forg":3399,"Európában":3400,"##rendszer":3401,"jövőben":3402,"##magas":3403,"##itányság":3404,"lényeg":3405,"##éve":3406,"##akoz":3407,"gyorsan":3408,"természetesen":3409,"senki":3410,"bíz":3411,"##onn":3412,"érzék":3413,"végig":3414,"telep":3415,"##ivatal":3416,"július":3417,"80":3418,"Megy":3419,"Tovább":3420,"##hess":3421,"##edik":3422,"erről":3423,"##asztróf":3424,"férfit":3425,"##hajt":3426,"havi":3427,"Facebook":3428,"lő":3429,"##titk":3430,"##éért":3431,"##részt":3432,"##intéz":3433,"érte":3434,"##esztivál":3435,"tartja":3436,"##inkább":3437,"péntek":3438,"várhatóan":3439,"keretében":3440,"terjed":3441,"##agógus":3442,"fáj":3443,"##vét":3444,"##20":3445,"##széd":3446,"##emelt":3447,"##éni":3448,"minim":3449,"sajtó":3450,"benz":3451,"Mol":3452,"##úra":3453,"könyv":3454,"##olták":3455,"bevétel":3456,"kilenc":3457,"Budapesten":3458,"hadsereg":3459,"globális":3460,"##izmus":3461,"embert":3462,"különleges":3463,"##ozza":3464,"Attila":3465,"Sándor":3466,"mobil":3467,"megszer":3468,"kib":3469,"##ekete":3470,"épp":3471,"szereplő":3472,"szóviv":3473,"fed":3474,"vette":3475,"akit":3476,"munkav":3477,"közösség":3478,"partner":3479,"szomszéd":3480,"június":3481,"Saj":3482,"felúj":3483,"##általán":3484,"##ovid":3485,"jóval":3486,"krit":3487,"Kov":3488,"pan":3489,"##ard":3490,"szerzett":3491,"beszéd":3492,"##szolgált":3493,"Országos":3494,"digitális":3495,"konfliktus":3496,"##etés":3497,"ügyfel":3498,"Amikor":3499,"hosszabb":3500,"visszatér":3501,"Rá":3502,"hí":3503,"##atott":3504,"tartó":3505,"továbbá":3506,"##felé":3507,"érkező":3508,"meghal":3509,"tanulmány":3510,"hőmérséklet":3511,"Kft":3512,"irod":3513,"újság":3514,"államtitk":3515,"haza":3516,"bizonyos":3517,"Alap":3518,"tájékoztatás":3519,"##szabály":3520,"##anszír":3521,"70":3522,"##atát":3523,"kezdett":3524,"visszav":3525,"videó":3526,"Rendőr":3527,"Vl":3528,"##iatt":3529,"##séggel":3530,"mindkét":3531,"halad":3532,"sziget":3533,"tartózkod":3534,"dolog":3535,"tor":3536,"##pad":3537,"##50":3538,"leginkább":3539,"hozott":3540,"Emellett":3541,"##ándék":3542,"Unió":3543,"##szkij":3544,"ekkor":3545,"trag":3546,"##zést":3547,"##olják":3548,"elsz":3549,"##hatjuk":3550,"állít":3551,"##ajdú":3552,"##dí":3553,"koncert":3554,"Gábor":3555,"fűt":3556,"##lus":3557,"##ven":3558,"elind":3559,"tömeg":3560,"minisztérium":3561,"##belül":3562,"Fidesz":3563,"Van":3564,"of":3565,"remény":3566,"tév":3567,"##hetünk":3568,"forin":3569,"élmény":3570,"látogat":3571,"hozzáj":3572,"##osszabb":3573,"állampolg":3574,"sajt":3575,"konz":3576,"értékesít":3577,"nekik":3578,"beszélget":3579,"hamarosan":3580,"debrec":3581,"gyakran":3582,"dem":3583,"titk":3584,"##őj":3585,"##man":3586,"##ítik":3587,"tudta":3588,"maguk":3589,"##ebben":3590,"külügyminiszter":3591,"forintra":3592,"eddigi":3593,"öröm":3594,"gyerekek":3595,"együttműködés":3596,"kért":3597,"méter":3598,"vitt":3599,"megf":3600,"##csó":3601,"lehetővé":3602,"##ivat":3603,"olasz":3604,"##fejleszt":3605,"támogatást":3606,"Zelen":3607,"##ítették":3608,"##omat":3609,"##ulcs":3610,"állat":3611,"nagyjából":3612,"közelében":3613,"területen":3614,"negyedév":3615,"##iak":3616,"##vér":3617,"##ságban":3618,"nyelv":3619,"##aba":3620,"tudom":3621,"##isztikai":3622,"véget":3623,"##úti":3624,"abb":3625,"egyáltalán":3626,"##ozók":3627,"##ságú":3628,"mennyire":3629,"nevel":3630,"sérül":3631,"András":3632,"##ennyiben":3633,"debreceni":3634,"Itt":3635,"Leg":3636,"mon":3637,"tran":3638,"##lési":3639,"##eri":3640,"##ésében":3641,"egyet":3642,"##urkol":3643,"pénzt":3644,"területén":3645,"Re":3646,"venni":3647,"##oj":3648,"##polit":3649,"##viz":3650,"##üst":3651,"felsz":3652,"valós":3653,"üzemel":3654,"Nyug":3655,"adatai":3656,"szob":3657,"akart":3658,"##ártó":3659,"##alma":3660,"mindennap":3661,"##urális":3662,"ang":3663,"prod":3664,"##foglal":3665,"##iplom":3666,"negyedik":3667,"üzleti":3668,"helyszínen":3669,"Tamás":3670,"Elő":3671,"hu":3672,"##öny":3673,"##bé":3674,"##attak":3675,"általában":3676,"##emelked":3677,"György":3678,"##ihar":3679,"információk":3680,"kollég":3681,"##besz":3682,"##atta":3683,"fellép":3684,"amíg":3685,"előbb":3686,"forrás":3687,"kapu":3688,"##idő":3689,"Csak":3690,"percben":3691,"stabil":3692,"forinttal":3693,"Vol":3694,"kárt":3695,"##gatás":3696,"nemrég":3697,"intern":3698,"hallgat":3699,"##utas":3700,"atom":3701,"fenyeget":3702,"bü":3703,"ebből":3704,"ülés":3705,"##jenek":3706,"##faj":3707,"##áni":3708,"##ánál":3709,"##ülő":3710,"##közel":3711,"módos":3712,"Sch":3713,"attól":3714,"##világ":3715,"##fr":3716,"fognak":3717,"##ektől":3718,"biztosít":3719,"lehetőséget":3720,"Ukrajnában":3721,"kötött":3722,"ipar":3723,"500":3724,"Id":3725,"Mari":3726,"##méter":3727,"##onal":3728,"##edig":3729,"csinál":3730,"tartalmaz":3731,"magyarországi":3732,"##lex":3733,"résztv":3734,"dokum":3735,"mester":3736,"pontos":3737,"Észak":3738,"##őző":3739,"##ezi":3740,"##iket":3741,"##edt":3742,"erd":3743,"##ásáról":3744,"##övetség":3745,"ajánl":3746,"valószínűleg":3747,"gyanús":3748,"Nap":3749,"##SA":3750,"##eml":3751,"Ezen":3752,"##urcs":3753,"igazi":3754,"úton":3755,"tervezett":3756,"klub":3757,"létrehoz":3758,"##nevezett":3759,"labdarúgó":3760,"##dést":3761,"##bev":3762,"##györgy":3763,"##ukció":3764,"többen":3765,"amelyben":3766,"kétszer":3767,"index":3768,"##atait":3769,"okozta":3770,"rajong":3771,"Vlagy":3772,"Zelenszkij":3773,"Tr":3774,"változat":3775,"##képpen":3776,"négyzet":3777,"egymást":3778,"Kriszt":3779,"elképzel":3780,"Is":3781,"benn":3782,"##ogyan":3783,"szándék":3784,"megrend":3785,"dolgozó":3786,"olimp":3787,"##ölcs":3788,"tavalyi":3789,"##plom":3790,"munkatárs":3791,"internet":3792,"főleg":3793,"kuty":3794,"ver":3795,"##junk":3796,"##ttel":3797,"##isták":3798,"inn":3799,"Ins":3800,"növekedés":3801,"kategór":3802,"pozitív":3803,"Más":3804,"prób":3805,"vág":3806,"##hagy":3807,"##men":3808,"##üv":3809,"##cselek":3810,"legk":3811,"magukat":3812,"fiú":3813,"csapatok":3814,"általános":3815,"körülbelül":3816,"finanszír":3817,"tr":3818,"##hass":3819,"felső":3820,"##usk":3821,"látszik":3822,"belső":3823,"vásárl":3824,"Hogy":3825,"Tör":3826,"tánc":3827,"tőzsd":3828,"##pp":3829,"elkezd":3830,"##ékes":3831,"##enti":3832,"kormányfő":3833,"hozzátette":3834,"előtti":3835,"lépett":3836,"veszteség":3837,"Vlagyimir":3838,"átad":3839,"##áng":3840,"##entgyörgy":3841,"tagállam":3842,"Kijev":3843,"Vég":3844,"vak":3845,"ül":3846,"##pát":3847,"megoszt":3848,"##állás":3849,"követő":3850,"úgynevezett":3851,"##helyzet":3852,"egymás":3853,"halálos":3854,"kicsit":3855,"diplom":3856,"##ball":3857,"##szó":3858,"##álás":3859,"száml":3860,"magyarok":3861,"indított":3862,"lakó":3863,"házas":3864,"működik":3865,"##úzeum":3866,"elkerül":3867,"Lengyel":3868,"Pl":3869,"assz":3870,"derül":3871,"hátt":3872,"ét":3873,"##zők":3874,"##xim":3875,"##ilt":3876,"##amos":3877,"##odik":3878,"pedagógus":3879,"bizottság":3880,"belép":3881,"megtalál":3882,"Pr":3883,"főt":3884,"mer":3885,"mikor":3886,"meleg":3887,"sért":3888,"##ráció":3889,"kiad":3890,"érz":3891,"##odott":3892,"##avéd":3893,"szerinte":3894,"##abda":3895,"magam":3896,"##kedő":3897,"alapvet":3898,"##anyol":3899,"segítséget":3900,"valóban":3901,"vállalatok":3902,"üzenet":3903,"háborús":3904,"kereslet":3905,"41":3906,"keleti":3907,"ötö":3908,"##lós":3909,"szoci":3910,"kiállítás":3911,"amelyeket":3912,"kínál":3913,"##szabad":3914,"Ugyanakkor":3915,"gyógyszer":3916,"rekord":3917,"Király":3918,"300":3919,"Te":3920,"rom":3921,"ös":3922,"legmagas":3923,"adomány":3924,"terh":3925,"részben":3926,"##ásokkal":3927,"##latform":3928,"alakult":3929,"Gergely":3930,"34":3931,"Né":3932,"ere":3933,"##olnak":3934,"##eps":3935,"sajnos":3936,"##ence":3937,"hivatkoz":3938,"megoldás":3939,"kórházba":3940,"kevésbé":3941,"annyira":3942,"36":3943,"Ahogy":3944,"Fő":3945,"##fra":3946,"##hatott":3947,"##rón":3948,"ennél":3949,"történő":3950,"bűncselek":3951,"típus":3952,"##pon":3953,"##úd":3954,"szű":3955,"kisz":3956,"##hetjük":3957,"mostan":3958,"védelm":3959,"leveg":3960,"plusz":3961,"óriási":3962,"legmagasabb":3963,"Im":3964,"Józs":3965,"Term":3966,"se":3967,"seg":3968,"##ttől":3969,"##ula":3970,"végéig":3971,"kezel":3972,"##évén":3973,"indok":3974,"##ektor":3975,"megvált":3976,"forduló":3977,"##strukt":3978,"kommunik":3979,"Lig":3980,"Tud":3981,"Össz":3982,"##se":3983,"adta":3984,"##urg":3985,"kezdet":3986,"##vári":3987,"késő":3988,"játszott":3989,"elfogad":3990,"kísérlet":3991,"feldolg":3992,"et":3993,"##álta":3994,"##niuk":3995,"ezr":3996,"lehetnek":3997,"fogják":3998,"munkát":3999,"edző":4000,"37":4001,"láb":4002,"##kinek":4003,"##cz":4004,"##fal":4005,"tök":4006,"##nyug":4007,"korr":4008,"##zetes":4009,"##émi":4010,"emberi":4011,"megyében":4012,"tagjai":4013,"módszer":4014,"használt":4015,"nyílt":4016,"Megyei":4017,"robb":4018,"##dal":4019,"##újabb":4020,"##aszkod":4021,"közösen":4022,"helyzetben":4023,"megbíz":4024,"József":4025,"##úgy":4026,"##encia":4027,"##orm":4028,"##átum":4029,"ingy":4030,"állnak":4031,"látvány":4032,"délelőtt":4033,"megfelelően":4034,"##mód":4035,"##váz":4036,"##DP":4037,"eleg":4038,"##ötte":4039,"körülmények":4040,"elhunyt":4041,"oldalon":4042,"Németország":4043,"##epsisz":4044,"Mát":4045,"Per":4046,"faj":4047,"##uzs":4048,"##bor":4049,"évre":4050,"visel":4051,"csapata":4052,"##esszió":4053,"repülő":4054,"hideg":4055,"Igaz":4056,"szór":4057,"##okból":4058,"##szerte":4059,"klím":4060,"nyilvánosság":4061,"édesap":4062,"ellent":4063,"üzemeltet":4064,"38":4065,"Ebben":4066,"Kl":4067,"gar":4068,"##tem":4069,"##párt":4070,"##áci":4071,"##issz":4072,"arc":4073,"biztosan":4074,"szezon":4075,"##ásában":4076,"lehetséges":4077,"##ájának":4078,"fiatalok":4079,"katasztróf":4080,"Zsolt":4081,"remek":4082,"##epsiszentgyörgy":4083,"75":4084,"ruh":4085,"##lcs":4086,"##hang":4087,"##álkod":4088,"elismer":4089,"nyer":4090,"legújabb":4091,"Egyes":4092,"megtart":4093,"##orvos":4094,"honlap":4095,"33":4096,"Kat":4097,"Kül":4098,"list":4099,"##höz":4100,"##if":4101,"##yás":4102,"felf":4103,"##hatók":4104,"##velet":4105,"##áján":4106,"vezetett":4107,"##enged":4108,"létesít":4109,"##gyűlés":4110,"kötelező":4111,"kiemelte":4112,"érdeklőd":4113,"##bizton":4114,"befolyás":4115,"OT":4116,"##autó":4117,"##vé":4118,"##akad":4119,"##apán":4120,"százalékot":4121,"vége":4122,"tartanak":4123,"##ipari":4124,"gondolkod":4125,"találtak":4126,"aktív":4127,"enyh":4128,"közönség":4129,"angol":4130,"Covid":4131,"Hol":4132,"Én":4133,"ölt":4134,"szex":4135,"megúj":4136,"tartják":4137,"várja":4138,"folytatás":4139,"interj":4140,"finom":4141,"\",":4142,"bl":4143,"##hol":4144,"##nunk":4145,"##22":4146,"##ésnek":4147,"##omás":4148,"háztart":4149,"nevezte":4150,"##örtön":4151,"ígér":4152,"Mag":4153,"Tw":4154,"Vas":4155,"dal":4156,"hord":4157,"platform":4158,"##br":4159,"##fogyaszt":4160,"sztár":4161,"##egész":4162,"##éken":4163,"körében":4164,"hazánk":4165,"jegybank":4166,"termékek":4167,"Szabó":4168,"hagyományos":4169,"Pet":4170,"mar":4171,"rep":4172,"ritk":4173,"vírus":4174,"##eci":4175,"##adók":4176,"##ákban":4177,"mire":4178,"átalak":4179,"járó":4180,"maxim":4181,"szankció":4182,"lelk":4183,"export":4184,"írták":4185,"tevékenység":4186,"hullám":4187,"Bl":4188,"kő":4189,"kan":4190,"vették":4191,"##lel":4192,"##fér":4193,"##ere":4194,"##ork":4195,"##okk":4196,"napja":4197,"##émia":4198,"##irág":4199,"hozzát":4200,"##ack":4201,"Nyí":4202,"##keresked":4203,"90":4204,"The":4205,"hit":4206,"##NB":4207,"##esett":4208,"Szil":4209,"százalékra":4210,"kisfi":4211,"védek":4212,"hónapban":4213,"hasonlóan":4214,"szenvedett":4215,"kényszer":4216,"##hiány":4217,"dokumentum":4218,"takar":4219,"##don":4220,"kapac":4221,"str":4222,"Int":4223,"rajta":4224,"ajánd":4225,"áldozat":4226,"tűzoltók":4227,"##frastrukt":4228,"44":4229,"400":4230,"bolt":4231,"##tan":4232,"##iába":4233,"##ónak":4234,"szerk":4235,"készít":4236,"igazság":4237,"működő":4238,"növény":4239,"győzelem":4240,"észre":4241,"Par":4242,"Tanács":4243,"bázis":4244,"gener":4245,"hum":4246,"vágy":4247,"##onz":4248,"megjegy":4249,"##egyen":4250,"előadás":4251,"est":4252,"helyet":4253,"terem":4254,"##ítására":4255,"képesség":4256,"mondja":4257,"körüli":4258,"futball":4259,"Ráadásul":4260,"39":4261,"neg":4262,"##ezést":4263,"##ítók":4264,"##apcsol":4265,"emellett":4266,"tudós":4267,"##ásokra":4268,"mutatja":4269,"munkaerő":4270,"tényleg":4271,"ipari":4272,"akadály":4273,"munkavállal":4274,"Auszt":4275,"Go":4276,"Nép":4277,"buk":4278,"pót":4279,"téli":4280,"vereség":4281,"##jének":4282,"##éket":4283,"##elleg":4284,"amivel":4285,"dolgozik":4286,"bejelentette":4287,"bajnokság":4288,"lapunk":4289,"Joh":4290,"révén":4291,"##met":4292,"csill":4293,"szerelm":4294,"##azon":4295,"##ábban":4296,"##óth":4297,"időjár":4298,"##tatott":4299,"jövőre":4300,"okozott":4301,"##tagram":4302,"hétvégén":4303,"OTP":4304,"Akkor":4305,"Hajdú":4306,"kin":4307,"rang":4308,"##ga":4309,"##arc":4310,"##zések":4311,"##ford":4312,"változás":4313,"hangulat":4314,"Ami":4315,"regiszt":4316,"átlagos":4317,"szövetség":4318,"igazgatója":4319,"Kína":4320,"Instagram":4321,".\"":4322,"Három":4323,"fesz":4324,"elkö":4325,"bejegy":4326,"nyar":4327,"##esztő":4328,"hiába":4329,"##ügynökség":4330,"következmény":4331,"személyes":4332,"tökélet":4333,"Hat":4334,"##szav":4335,"##erv":4336,"##ásos":4337,"##éséhez":4338,"##ukra":4339,"Szlovák":4340,"tartani":4341,"olcsó":4342,"történik":4343,"szerepet":4344,"jogos":4345,"2018":4346,"##száml":4347,"kiderül":4348,"##gyűlési":4349,"olvasható":4350,"eljárás":4351,"lemond":4352,"sajtót":4353,"negatív":4354,"32":4355,"Varg":4356,"kemény":4357,"láng":4358,"##gazd":4359,"##ainak":4360,"szünet":4361,"##ozást":4362,"##aival":4363,"##örög":4364,"dolgozott":4365,"##ölgy":4366,"pályára":4367,"önként":4368,"templom":4369,"megmutat":4370,"büszk":4371,"Twitt":4372,"GDP":4373,"##ich":4374,"##váj":4375,"##akon":4376,"##ona":4377,"elárul":4378,"##aránt":4379,"##oskod":4380,"nyári":4381,"##ikusan":4382,"méret":4383,"nekem":4384,"következt":4385,"Zay":4386,"börtön":4387,"tették":4388,"##jú":4389,"szén":4390,"egyaránt":4391,"##nyel":4392,"Mindez":4393,"talált":4394,"parlamenti":4395,"45":4396,"MNB":4397,"rag":4398,"ve":4399,"##bér":4400,"szeg":4401,"szöv":4402,"évi":4403,"##rtok":4404,"##zési":4405,"sokszor":4406,"belől":4407,"döntő":4408,"folyamatos":4409,"##enzív":4410,"lezár":4411,"szlovák":4412,"##átus":4413,"##sztön":4414,"felk":4415,"##iget":4416,"minős":4417,"##ukor":4418,"kaptak":4419,"összet":4420,"várják":4421,"##ációt":4422,"színpad":4423,"vádlott":4424,"végrehajt":4425,"következtében":4426,"fők":4427,"fest":4428,"jutt":4429,"tünet":4430,"##ubl":4431,"##enként":4432,"##alk":4433,"##esed":4434,"##ságát":4435,"látni":4436,"kamer":4437,"ütköz":4438,"Tóth":4439,"agy":4440,"fu":4441,"mél":4442,"pih":4443,"Érd":4444,"##ettem":4445,"##niük":4446,"kiemelt":4447,"emiatt":4448,"oka":4449,"kilát":4450,"melyek":4451,"bizonytalan":4452,"véli":4453,"##művek":4454,"##ofőr":4455,"közepén":4456,"##millió":4457,"Miskolc":4458,"Nyíregy":4459,"Horvát":4460,"húsz":4461,"##ota":4462,"##co":4463,"##rop":4464,"mintha":4465,"198":4466,"##árólag":4467,"kereskedelmi":4468,"##erceg":4469,"ötödik":4470,"Dr":4471,"kulcs":4472,"papír":4473,"tü":4474,"tábor":4475,"##ítanak":4476,"köv":4477,"Szi":4478,"másfél":4479,"kezdte":4480,"ismerős":4481,"Márki":4482,"munkahely":4483,"import":4484,"ajándék":4485,"Jelen":4486,"jelleg":4487,"ural":4488,"áp":4489,"##hal":4490,"##űv":4491,"elej":4492,"##ítható":4493,"##ítások":4494,"##takar":4495,"##elemben":4496,"városban":4497,"ötlet":4498,"Elmond":4499,"rendelkezik":4500,"megkap":4501,"születés":4502,"erőszak":4503,"tőle":4504,"Debreceni":4505,"asszony":4506,"kérte":4507,"vizsg":4508,"##term":4509,"##ered":4510,"szét":4511,"elől":4512,"##osok":4513,"minket":4514,"jelezte":4515,"##iaszt":4516,"##eivel":4517,"átv":4518,"versenyző":4519,"megkérd":4520,"könnyen":4521,"izg":4522,"óvod":4523,"Twitter":4524,"Dél":4525,"eszt":4526,"jég":4527,"Ám":4528,"##qu":4529,"befej":4530,"##szerep":4531,"Szám":4532,"##élyes":4533,"szeretnék":4534,"gazdag":4535,"villamos":4536,"említett":4537,"tragéd":4538,"zavar":4539,"##kett":4540,"##rák":4541,"##ya":4542,"##bi":4543,"##ikát":4544,"lej":4545,"évet":4546,"évente":4547,"többség":4548,"##örös":4549,"esetleg":4550,"##ezetten":4551,"szeretne":4552,"déli":4553,"##ozzák":4554,"tervek":4555,"szakértők":4556,"portál":4557,"felesége":4558,"fejlődés":4559,"gyakorlatilag":4560,"lakossági":4561,"Szijj":4562,"Har":4563,"Jó":4564,"Man":4565,"mig":4566,"viz":4567,"##sp":4568,"##gond":4569,"##ke":4570,"##verseny":4571,"##ezése":4572,"megtört":4573,"##ozási":4574,"kifizet":4575,"kiegész":4576,"tartozik":4577,"válik":4578,"kezelés":4579,"ügyben":4580,"államfő":4581,"jogszabály":4582,"források":4583,"Moszkva":4584,"államtitkár":4585,"Fontos":4586,"##sem":4587,"##ros":4588,"##energ":4589,"##ekhez":4590,"##akban":4591,"##emet":4592,"elkész":4593,"meggy":4594,"egyéni":4595,"##oznak":4596,"inváz":4597,"csapadék":4598,"mened":4599,"akiknek":4600,"nyomán":4601,"vállalkozások":4602,"művész":4603,"New":4604,"Szijjártó":4605,"Francia":4606,"ágaz":4607,"megd":4608,"kölcs":4609,"##szerint":4610,"többsége":4611,"hivatás":4612,"kivitel":4613,"szabadság":4614,"támogatja":4615,"immár":4616,"száraz":4617,"Ár":4618,"ült":4619,"##sé":4620,"##pénz":4621,"##munk":4622,"##öd":4623,"##enő":4624,"##áshoz":4625,"##ezhető":4626,"##ity":4627,"##ajon":4628,"aminek":4629,"##ova":4630,"számító":4631,"Szövetség":4632,"adtak":4633,"##enekar":4634,"konk":4635,"hajland":4636,"Erzs":4637,"probléma":4638,"győzt":4639,"előrejel":4640,"Bel":4641,"Pár":4642,"sofőr":4643,"##iák":4644,"##nék":4645,"##nák":4646,"##ozása":4647,"napig":4648,"országgyűlési":4649,"látja":4650,"kerék":4651,"közeli":4652,"##képp":4653,"történelmi":4654,"eltűn":4655,"könnyű":4656,"utca":4657,"sajtótájékoz":4658,"Varga":4659,"aszt":4660,"nők":4661,"rejt":4662,"sincs":4663,"##osem":4664,"infrastrukt":4665,"mások":4666,"ellenfel":4667,"##aradt":4668,"##ipar":4669,"találkozó":4670,"intézkedések":4671,"Balázs":4672,"legutóbbi":4673,"##díjas":4674,"invázió":4675,"Bid":4676,"messz":4677,"–,":4678,"##ea":4679,"##háború":4680,"##fok":4681,"szurkol":4682,"##okba":4683,"##énnyel":4684,"erőt":4685,"komp":4686,"hajnal":4687,"véletlen":4688,"órától":4689,"iskola":4690,"kedvezmény":4691,"vezérigazgat":4692,"kizárólag":4693,"fogy":4694,"fekete":4695,"lek":4696,"lit":4697,"##ss":4698,"##rid":4699,"##mik":4700,"##elnek":4701,"##annyi":4702,"##emben":4703,"egyház":4704,"##ékek":4705,"##evíz":4706,"tudomány":4707,"annyit":4708,"##figyel":4709,"dollárt":4710,"Szerinte":4711,"autók":4712,"szeretnénk":4713,"vizsgálat":4714,"képesek":4715,"ellenzéki":4716,"motor":4717,"Sh":4718,"Tav":4719,"kert":4720,"étel":4721,"íz":4722,"ösztön":4723,"##elték":4724,"##ítést":4725,"##adik":4726,"évig":4727,"idők":4728,"élete":4729,"##ezettek":4730,"választás":4731,"szüksége":4732,"vezetői":4733,"melynek":4734,"eurót":4735,"elvég":4736,"szeretné":4737,"menekült":4738,"egyszerűen":4739,"fenntartható":4740,"énekesnő":4741,"rögz":4742,"fájd":4743,"Ilyen":4744,"búcs":4745,"##akkal":4746,"##okról":4747,"##ozs":4748,"felm":4749,"eső":4750,"külső":4751,"folyó":4752,"valójában":4753,"emelte":4754,"Nemzetközi":4755,"bajnoki":4756,"kormányzati":4757,"hivatkozva":4758,"Fehér":4759,"vettek":4760,"##iban":4761,"##jék":4762,"##yel":4763,"azoknak":4764,"megőr":4765,"egység":4766,"##app":4767,"##nként":4768,"tudták":4769,"vagyon":4770,"amire":4771,"##tatni":4772,"valóság":4773,"érkeztek":4774,"téren":4775,"tisztelet":4776,"dolgoznak":4777,"széles":4778,"szakemberek":4779,"közzét":4780,"benzin":4781,"Kovács":4782,"Természet":4783,"segély":4784,"Hung":4785,"Olyan":4786,"ko":4787,"mos":4788,"puszt":4789,"stat":4790,"##ázott":4791,"leáll":4792,"##roda":4793,"esti":4794,"forgat":4795,"##eszköz":4796,"##ódi":4797,"áron":4798,"kiváló":4799,"##ológus":4800,"elhagy":4801,"##ügyminisztérium":4802,"anyagi":4803,"rezsics":4804,"birtok":4805,"43":4806,"48":4807,"Sport":4808,"sür":4809,"##aik":4810,"##jebb":4811,"##jait":4812,"felszer":4813,"tartós":4814,"küldött":4815,"sokáig":4816,"sors":4817,"##stop":4818,"helyzetet":4819,"örül":4820,"Erd":4821,"átlagosan":4822,"mellé":4823,"szakértő":4824,"front":4825,"hálózat":4826,"Katal":4827,"hús":4828,"rám":4829,"##zák":4830,"##énél":4831,"##avatkoz":4832,"##rtelen":4833,"mondott":4834,"segíteni":4835,"megye":4836,"mentő":4837,"hírügynökség":4838,"meghalt":4839,"figyelmeztet":4840,"rendelkező":4841,"javaslat":4842,"világbajnokság":4843,"John":4844,"rezsicsökkent":4845,"##jet":4846,"##ine":4847,"egyben":4848,"##szakasz":4849,"látott":4850,"összefügg":4851,"itthon":4852,"##gyűjt":4853,"technológiai":4854,"nyitott":4855,"kezdődött":4856,"ítélet":4857,"megpróbál":4858,"résztvev":4859,"web":4860,"##társ":4861,"szellem":4862,"##ásai":4863,"##emlék":4864,"##okhoz":4865,"##ésen":4866,"##ita":4867,"felügy":4868,"részéről":4869,"##őzést":4870,"nekünk":4871,"nélküli":4872,"Budapesti":4873,"##ürdő":4874,"autós":4875,"kifejezetten":4876,"Erzséb":4877,"Ád":4878,"##veszt":4879,"##ana":4880,"##olcs":4881,"elb":4882,"##oztak":4883,"gyil":4884,"összeh":4885,"külföld":4886,"menet":4887,"eredeti":4888,"rec":4889,"szerepl":4890,"semmit":4891,"Balaton":4892,"funk":4893,"##zás":4894,"##ax":4895,"##víz":4896,"##ust":4897,"előfordul":4898,"##ird":4899,"jogi":4900,"Erre":4901,"közleményében":4902,"menekültek":4903,"pozíció":4904,"keletkez":4905,"származó":4906,"felszól":4907,"Persze":4908,"Biden":4909,"Föld":4910,"fesztivál":4911,"nett":4912,"ür":4913,"##vesz":4914,"##álja":4915,"cseh":4916,"##ová":4917,"##erte":4918,"legfel":4919,"##örny":4920,"képet":4921,"##szaki":4922,"##ítésére":4923,"szempontból":4924,"kulturális":4925,"kijelentette":4926,"lőtt":4927,"kibocsát":4928,"bűncselekmény":4929,"kölcsön":4930,"55":4931,"tél":4932,"Ép":4933,"##hull":4934,"##nünk":4935,"##nának":4936,"##pontos":4937,"##önyv":4938,"##ík":4939,"##AC":4940,"megkezd":4941,"##adni":4942,"##elyik":4943,"##kezdő":4944,"kapnak":4945,"végére":4946,"hozta":4947,"árul":4948,"fővárosi":4949,"komment":4950,"reform":4951,"pályán":4952,"megszűn":4953,"önmag":4954,"szombat":4955,"temet":4956,"Brüssz":4957,"nyáron":4958,"állítólag":4959,"Ház":4960,"Tib":4961,"bot":4962,"mért":4963,"sosem":4964,"##ou":4965,"Szak":4966,"lehetne":4967,"tartozó":4968,"##ugár":4969,"Magyarországra":4970,"mérsék":4971,"megtud":4972,"katonák":4973,"piacon":4974,"múlva":4975,"idegen":4976,"vakc":4977,"herceg":4978,"##ko":4979,"##ann":4980,"##ania":4981,"##ora":4982,"rendelet":4983,"majdnem":4984,"készített":4985,"rendszeresen":4986,"parkol":4987,"velük":4988,"Lengyelország":4989,"Erzsébet":4990,"PC":4991,"alt":4992,"bra":4993,"heti":4994,"nuk":4995,"pal":4996,"étt":4997,"##zár":4998,"##jött":4999,"##elést":5000,"kip":5001,"##amb":5002,"##eiben":5003,"időre":5004,"valamilyen":5005,"jóvá":5006,"egymással":5007,"berend":5008,"Arra":5009,"speci":5010,"reggeli":5011,"rendkívüli":5012,"beszámolt":5013,"büntető":5014,"közzé":5015,"nettó":5016,"Gul":5017,"derült":5018,"##náz":5019,"##ves":5020,"##fjú":5021,"##ersz":5022,"érzi":5023,"állítja":5024,"##esti":5025,"##háza":5026,"##helyen":5027,"jöved":5028,"semmilyen":5029,"testület":5030,"önkormányzati":5031,"modern":5032,"beszámoló":5033,"Nyugat":5034,"busz":5035,"rát":5036,"##ix":5037,"##par":5038,"##olikus":5039,"##ilván":5040,"beavatkoz":5041,"mindez":5042,"##ovics":5043,"összek":5044,"ható":5045,"napra":5046,"részén":5047,"termelés":5048,"197":5049,"távon":5050,"fizetni":5051,"energiaárak":5052,"##biztos":5053,"##függeszt":5054,"egyértelműen":5055,"##bevétel":5056,"főkap":5057,"Katalin":5058,"DV":5059,"Ehhez":5060,"Nov":5061,"TV":5062,"ab":5063,"met":5064,"sáv":5065,"tüz":5066,"ugr":5067,"##vi":5068,"##ókkal":5069,"mindegy":5070,"legend":5071,"Csaba":5072,"voltam":5073,"kiterj":5074,"kínálat":5075,"hatással":5076,"csatorn":5077,"szigorú":5078,"hasznos":5079,"egyszerre":5080,"megelőző":5081,"Jelenleg":5082,"Kon":5083,"asz":5084,"ev":5085,"oly":5086,"tők":5087,"űr":5088,"##ux":5089,"szent":5090,"##álság":5091,"##ezár":5092,"megért":5093,"megközel":5094,"éven":5095,"##való":5096,"kapta":5097,"##napos":5098,"mennyi":5099,"eltér":5100,"teszik":5101,"elemző":5102,"társadalmi":5103,"szóvivője":5104,"szűk":5105,"levegő":5106,"Aki":5107,"Hét":5108,"USA":5109,"Világ":5110,"hány":5111,"riaszt":5112,"##ham":5113,"##cel":5114,"##atokat":5115,"##ulása":5116,"hirtelen":5117,"##irk":5118,"##iros":5119,"választások":5120,"##ességében":5121,"erősen":5122,"Szerencs":5123,"fokozat":5124,"tekintet":5125,"aránya":5126,"baloldali":5127,"tranz":5128,"Idén":5129,"nukle":5130,"Laj":5131,"Rich":5132,"tit":5133,"##hív":5134,"##tér":5135,"##jével":5136,"##etes":5137,"##erh":5138,"elhely":5139,"megr":5140,"megél":5141,"##ellig":5142,"nagykövet":5143,"amelyen":5144,"mindenkit":5145,"##ádió":5146,"##utató":5147,"##ésekkel":5148,"prof":5149,"hónapokban":5150,"Mih":5151,"problémák":5152,"szülők":5153,"vendégek":5154,"sérült":5155,"közvetlen":5156,"falu":5157,"alacsonyabb":5158,"robban":5159,"Tavaly":5160,"For":5161,"Tisz":5162,"Vagy":5163,"eg":5164,"tüntet":5165,"vihar":5166,"##zük":5167,"##kum":5168,"##pót":5169,"##ror":5170,"##etek":5171,"##atban":5172,"##alan":5173,"hom":5174,"##adja":5175,"##ulátor":5176,"lef":5177,"korszerű":5178,"##ovjet":5179,"állandó":5180,"adni":5181,"##kora":5182,"##éseit":5183,"utána":5184,"időpont":5185,"lépés":5186,"pontot":5187,"alkalmas":5188,"parancs":5189,"északi":5190,"érdeklődés":5191,"állampolgár":5192,"##lám":5193,"##latot":5194,"##uni":5195,"##ászt":5196,"##SC":5197,"##ekszik":5198,"##olva":5199,"##íték":5200,"egyeztet":5201,"köny":5202,"##ash":5203,"##unkra":5204,"##eim":5205,"##forr":5206,"közölték":5207,"hírek":5208,"gyermekek":5209,"órakor":5210,"elveszt":5211,"rendelkezésre":5212,"##művész":5213,"ismeretlen":5214,"apró":5215,"nyilatkozta":5216,"Miklós":5217,"megállapodás":5218,"iránt":5219,"hirdet":5220,"csillag":5221,"elárulta":5222,"nukleáris":5223,"000":5224,"Dun":5225,"##áit":5226,"##ogle":5227,"##nyom":5228,"deviz":5229,"hatály":5230,"munkáját":5231,"egészséges":5232,"kivétel":5233,"inflációs":5234,"adatokat":5235,"zajló":5236,"állapotban":5237,"##2022":5238,"Play":5239,"típusú":5240,"repülőgép":5241,"lél":5242,"##kert":5243,"##ff":5244,"##üm":5245,"##ttest":5246,"##okrat":5247,"##ettünk":5248,"##ülni":5249,"megegy":5250,"megment":5251,"##köt":5252,"##ájára":5253,"##eiről":5254,"##ódnak":5255,"##jelölt":5256,"döntést":5257,"sikert":5258,"eredet":5259,"##szerűen":5260,"szállod":5261,"hívta":5262,"zajlik":5263,"mezőny":5264,"társadalom":5265,"stratégiai":5266,"Kárpát":5267,"főkapitányság":5268,"49":5269,"Blik":5270,"Gr":5271,"Hivatal":5272,"oper":5273,"átt":5274,"##sért":5275,"##film":5276,"##eltek":5277,"##gyal":5278,"megakad":5279,"##élemény":5280,"felfüggeszt":5281,"ezután":5282,"Szín":5283,"##élyi":5284,"##kedik":5285,"tanár":5286,"házi":5287,"felhő":5288,"kerültek":5289,"mutatott":5290,"megvásár":5291,"Ukrajnának":5292,"hasonl":5293,"##erőmű":5294,"automat":5295,"igénybe":5296,"kötelezett":5297,"##polgármester":5298,"értelmében":5299,"##ferenci":5300,"##önyör":5301,"##fajta":5302,"konkrét":5303,"##pro":5304,"##box":5305,"##30":5306,"##olók":5307,"##ozták":5308,"##aján":5309,"bevon":5310,"Szeged":5311,"tudunk":5312,"##ünkre":5313,"##öveked":5314,"napján":5315,"áremelked":5316,"családok":5317,"védő":5318,"##prom":5319,"kettő":5320,"függetlenül":5321,"Olasz":5322,"központi":5323,"Mac":5324,"mut":5325,"##dor":5326,"fell":5327,"##hetők":5328,"nyers":5329,"##ásait":5330,"amiért":5331,"##ript":5332,"értesít":5333,"török":5334,"##minc":5335,"fejlesztés":5336,"köszönt":5337,"Emlék":5338,"szívesen":5339,"##eztem":5340,"kedves":5341,"érvényes":5342,"feletti":5343,"álláspont":5344,"##beszéd":5345,"gyanúsított":5346,"innov":5347,"Török":5348,"kőolaj":5349,"Google":5350,"Tibor":5351,".,":5352,"Hon":5353,"Iz":5354,"jö":5355,"roh":5356,"##her":5357,"##ton":5358,"##ébb":5359,"##ry":5360,"##jén":5361,"##barát":5362,"elismert":5363,"##apor":5364,"felület":5365,"##idéz":5366,"tartottak":5367,"körben":5368,"életet":5369,"##újvárosi":5370,"##uhan":5371,"kiköt":5372,"spanyol":5373,"koncent":5374,"gyanú":5375,"figyelembe":5376,"hozzájárul":5377,"cent":5378,"rájuk":5379,"##rem":5380,"##aknak":5381,"##onna":5382,"##emm":5383,"köb":5384,"amik":5385,"Azonban":5386,"##ellyel":5387,"##erületi":5388,"televíz":5389,"látsz":5390,"embereket":5391,"##ávol":5392,"ügyfél":5393,"alatti":5394,"hagyta":5395,"szólt":5396,"klassz":5397,"fegyveres":5398,"őrizet":5399,"Egyesület":5400,"Intéz":5401,"teremt":5402,"regisztr":5403,"Gulyás":5404,"Blikk":5405,"Ben":5406,"Jo":5407,"Márt":5408,"bőr":5409,"kelt":5410,"nak":5411,"tettek":5412,"##biz":5413,"##szék":5414,"##gyors":5415,"##eknél":5416,"##ásuk":5417,"##emes":5418,"##ítél":5419,"kiáll":5420,"tudtak":5421,"nyugat":5422,"ellenőrzés":5423,"árfolyama":5424,"áldozatok":5425,"Külön":5426,"belőle":5427,"uralkod":5428,"Természetesen":5429,"log":5430,"sújt":5431,"##iben":5432,"##atart":5433,"szup":5434,"##inél":5435,"elvár":5436,"##ulnak":5437,"szerb":5438,"állította":5439,"erdő":5440,"##járól":5441,"Miután":5442,"150":5443,"elérni":5444,"Aztán":5445,"helyszínre":5446,"hátrány":5447,"holland":5448,"##onnan":5449,"Volod":5450,"Brüsszel":5451,"megakadály":5452,"bar":5453,"bab":5454,"opt":5455,"##ikó":5456,"##ítettek":5457,"##adást":5458,"ezüst":5459,"korosztály":5460,"Szomb":5461,"hitt":5462,"műszaki":5463,"élvez":5464,"valamit":5465,"ukránok":5466,"Győr":5467,"karri":5468,"elvesz":5469,"folytatott":5470,"légi":5471,"gólt":5472,"intézkedés":5473,"Románia":5474,"lassan":5475,"##ivatar":5476,"olimpiai":5477,"hivatásos":5478,"Ex":5479,"Kom":5480,"fekvő":5481,"hős":5482,"káros":5483,"me":5484,"tól":5485,"üd":5486,"##éttel":5487,"##ésőbb":5488,"##ázó":5489,"leb":5490,"amennyiben":5491,"alelnök":5492,"##rov":5493,"##által":5494,"számított":5495,"##onyec":5496,"mindenkinek":5497,"intellig":5498,"változott":5499,"nevet":5500,"politik":5501,"megoldást":5502,"képviselői":5503,"természetes":5504,"biztonságos":5505,"felelősség":5506,"tengeri":5507,"részvények":5508,"Moszkv":5509,"katasztrófavéd":5510,"App":5511,"Fin":5512,"mad":5513,"##tünk":5514,"##őre":5515,"##választ":5516,"szektor":5517,"##ítését":5518,"megnyit":5519,"megérkez":5520,"##ányi":5521,"##sággal":5522,"előzetes":5523,"jelenlét":5524,"körülmény":5525,"tavasz":5526,"akarja":5527,"Ukrajnát":5528,"szolgáltató":5529,"fertőzés":5530,"##perc":5531,"közlekedési":5532,"##energia":5533,"győztes":5534,"Mat":5535,"ler":5536,"miskol":5537,"sár":5538,"##ie":5539,"##mes":5540,"##del":5541,"##alog":5542,"##onc":5543,"##ásról":5544,"##hattak":5545,"idény":5546,"##ősen":5547,"napot":5548,"mondani":5549,"##ölte":5550,"##ramm":5551,"gondoskod":5552,"összecsap":5553,"hónapja":5554,"nyugdíjas":5555,"megszok":5556,"béke":5557,"bármilyen":5558,"mezőgazdasági":5559,"hulladék":5560,"alkoh":5561,"Krisztián":5562,"alapvető":5563,"##biztonsági":5564,"EN":5565,"Fi":5566,"NB":5567,"Pál":5568,"fagy":5569,"kript":5570,"##használ":5571,"##ky":5572,"##vid":5573,"##orok":5574,"##ezve":5575,"megvéd":5576,"miszerint":5577,"##központ":5578,"##tation":5579,"##özött":5580,"intenzív":5581,"##szerűbb":5582,"területeken":5583,"rendszert":5584,"utcai":5585,"Kreml":5586,"kedvenc":5587,"színésznő":5588,"média":5589,"fizikai":5590,"meghatározó":5591,"Végül":5592,"nyaral":5593,"születésnap":5594,"hajlandó":5595,"miskolci":5596,"42":5597,"Ott":5598,"kocsi":5599,"nőt":5600,"sét":5601,"##rág":5602,"##jog":5603,"##íl":5604,"##Station":5605,"szim":5606,"fele":5607,"felek":5608,"##uth":5609,"##cion":5610,"utat":5611,"vall":5612,"várakoz":5613,"részvétel":5614,"##imnáz":5615,"kezdete":5616,"##ésekre":5617,"##und":5618,"energet":5619,"##upl":5620,"eurós":5621,"##nnan":5622,"##ötét":5623,"közleményben":5624,"vesztette":5625,"polgármestere":5626,"aktuális":5627,"dísz":5628,"iránti":5629,"Károly":5630,"Sajnos":5631,"Volodimir":5632,"##imnázium":5633,"47":5634,"Alex":5635,"bul":5636,"gab":5637,"norm":5638,"pand":5639,"rob":5640,"zenekar":5641,"árt":5642,"##io":5643,"##kan":5644,"##aink":5645,"##mit":5646,"##száll":5647,"##ekből":5648,"##árda":5649,"##arnok":5650,"##ozások":5651,"##építés":5652,"utáni":5653,"segíti":5654,"elnöki":5655,"családja":5656,"melyet":5657,"dolláros":5658,"miként":5659,"alkalmazott":5660,"rosszul":5661,"##szolgál":5662,"helyettes":5663,"vezette":5664,"nehezen":5665,"ítél":5666,"háttér":5667,"felfed":5668,"legfeljebb":5669,"Mihály":5670,"PlayStation":5671,"ham":5672,"od":5673,"##zen":5674,"##hettek":5675,"##hivatal":5676,"##cél":5677,"##pedig":5678,"##elése":5679,"##szön":5680,"##ezr":5681,"megte":5682,"##uss":5683,"gyönyör":5684,"kora":5685,"##őkép":5686,"Szolg":5687,"##almak":5688,"élni":5689,"##ává":5690,"veszi":5691,"régióban":5692,"viselked":5693,"sürg":5694,"51":5695,"abl":5696,"un":5697,"ágy":5698,"##hír":5699,"##cell":5700,"##aliz":5701,"##onta":5702,"##ásba":5703,"##ételt":5704,"##entő":5705,"évad":5706,"számukra":5707,"##onyol":5708,"jelentés":5709,"ennyi":5710,"##tekint":5711,"ügyészség":5712,"sikerül":5713,"##külön":5714,"ilyenkor":5715,"brüssz":5716,"veszélyes":5717,"elfoglal":5718,"imád":5719,"Kiss":5720,"diákok":5721,"szociális":5722,"nyilvánosságra":5723,"##vájci":5724,"Ádám":5725,"hatósági":5726,"ENSZ":5727,"Xbox":5728,"hekt":5729,"hete":5730,"kop":5731,"ud":5732,"vb":5733,"##tön":5734,"sztr":5735,"##akozás":5736,"##ásához":5737,"megtakar":5738,"##csal":5739,"##ajt":5740,"évfordul":5741,"előkész":5742,"##őkkel":5743,"##eszél":5744,"választási":5745,"Oroszországgal":5746,"120":5747,"hivatalosan":5748,"problémát":5749,"teher":5750,"kórházban":5751,"levél":5752,"lelki":5753,"fordult":5754,"##harc":5755,"szempontjából":5756,"költségvetés":5757,"##hessen":5758,"##nyugati":5759,"ingyenes":5760,"Mic":5761,"font":5762,"hegy":5763,"omik":5764,"var":5765,"##kl":5766,"##kocsi":5767,"##part":5768,"szal":5769,"##csomag":5770,"##ulni":5771,"befog":5772,"##artóz":5773,"##egyű":5774,"##ükben":5775,"esk":5776,"##kozott":5777,"##árták":5778,"művel":5779,"induló":5780,"2017":5781,"használat":5782,"dolgozók":5783,"gyakorl":5784,"szervezetek":5785,"halála":5786,"Államokban":5787,"felhasználók":5788,"szoros":5789,"tárgyalások":5790,"bejegyzés":5791,"Apple":5792,"65":5793,"Fej":5794,"Ig":5795,"bánt":5796,"ik":5797,"##ey":5798,"##huz":5799,"##tatták":5800,"##nének":5801,"##dése":5802,"##II":5803,"##SE":5804,"azután":5805,"##ozg":5806,"nyereség":5807,"adóz":5808,"##elmúlt":5809,"jelentőség":5810,"esetleges":5811,"igazol":5812,"illeg":5813,"kapcsolódó":5814,"halt":5815,"példa":5816,"##upa":5817,"##upol":5818,"városi":5819,"2010":5820,"emelkedik":5821,"##sorozat":5822,"##árius":5823,"műsorvezető":5824,"kialakult":5825,"közvetlenül":5826,"megerősítette":5827,"jellemzően":5828,"reagált":5829,"honlapján":5830,"futam":5831,"Lajos":5832,"##ümölcs":5833,"brüsszeli":5834,"Gam":5835,"Vár":5836,"bomb":5837,"japán":5838,"trend":5839,"##iás":5840,"##jába":5841,"##erny":5842,"##álják":5843,"kimond":5844,"közelmúlt":5845,"beszerzés":5846,"tartotta":5847,"##eire":5848,"fejl":5849,"fejezte":5850,"Cseh":5851,"értéke":5852,"szolgálat":5853,"eredménye":5854,"autópály":5855,"álm":5856,"ünnepi":5857,"zárta":5858,"igazgató":5859,"##harmad":5860,"Korábban":5861,"négyzetméter":5862,"tökéletes":5863,"önkéntes":5864,"56":5865,"Város":5866,"svájci":5867,"zivatar":5868,"őszint":5869,"##hál":5870,"##hány":5871,"##terület":5872,"##vad":5873,"##busz":5874,"##ínek":5875,"##ini":5876,"##éshez":5877,"elad":5878,"##ítve":5879,"megfog":5880,"##berg":5881,"##őtér":5882,"##figy":5883,"kapcsolatot":5884,"mérleg":5885,"szerepelt":5886,"Amer":5887,"nincsenek":5888,"kérdésre":5889,"legyenek":5890,"közülük":5891,"nyilatkozott":5892,"gyártó":5893,"formában":5894,"szövetséges":5895,"orvosi":5896,"Szabolcs":5897,"##szich":5898,"felmérés":5899,"ellentét":5900,"szöveg":5901,"őrizetbe":5902,"600":5903,"Met":5904,"##ain":5905,"##rak":5906,"##szállítás":5907,"##ekkora":5908,"##ettük":5909,"##itárius":5910,"csend":5911,"akkum":5912,"##kező":5913,"terén":5914,"összeget":5915,"világon":5916,"kezdve":5917,"##védő":5918,"2016":5919,"melyik":5920,"férfiak":5921,"programot":5922,"meghív":5923,"feltölt":5924,"hatása":5925,"igényel":5926,"édesanyja":5927,"magyarázta":5928,"híd":5929,"elegendő":5930,"létesítmény":5931,"##kereskedelmi":5932,"feszült":5933,"Egész":5934,"din":5935,"kos":5936,"táj":5937,"tétel":5938,"szil":5939,"##ezési":5940,"##ikán":5941,"##ary":5942,"##éld":5943,"##ámadás":5944,"alól":5945,"##szerző":5946,"lehető":5947,"újdon":5948,"##almát":5949,"##vezetés":5950,"##ebek":5951,"##index":5952,"értékű":5953,"hozzáfér":5954,"politika":5955,"érintő":5956,"##íróság":5957,"testvér":5958,"szülő":5959,"találták":5960,"nyújtott":5961,"##eremt":5962,"vadász":5963,"##urcsány":5964,"##epsiszentgyörgyi":5965,"omikron":5966,"57":5967,"DK":5968,"káb":5969,"kab":5970,"sk":5971,"##han":5972,"##écs":5973,"##ij":5974,"##kar":5975,"##jünk":5976,"##ségben":5977,"##omp":5978,"kif":5979,"##ájával":5980,"##hozatal":5981,"##ump":5982,"tartalék":5983,"##emelte":5984,"##lehet":5985,"tárca":5986,"bronz":5987,"mozog":5988,"különbség":5989,"energiav":5990,"extr":5991,"viszonylag":5992,"mérkőzésen":5993,"##kapitányság":5994,"##eiket":5995,"Borsod":5996,"mesélte":5997,"Alapítvány":5998,"munkatársai":5999,"lapunknak":6000,"Fr":6001,"rák":6002,"sír":6003,"süt":6004,"tonna":6005,"Által":6006,"##zon":6007,"##nánk":6008,"##aw":6009,"##mező":6010,"##méteres":6011,"##gyárt":6012,"##esi":6013,"felől":6014,"közbe":6015,"gyümölcs":6016,"##abizt":6017,"##umot":6018,"árstop":6019,"látogatás":6020,"##keleti":6021,"Ind":6022,"meghosszabb":6023,"##terj":6024,"Ukrajnából":6025,"legjobban":6026,"##szolgálat":6027,"játékosok":6028,"szövetségi":6029,"##uttó":6030,"Star":6031,"egyedi":6032,"aggod":6033,"ideiglen":6034,"Imre":6035,"Dem":6036,"War":6037,"beny":6038,"horvát":6039,"lánc":6040,"por":6041,"virág":6042,"elenged":6043,"##ítmány":6044,"kore":6045,"rendező":6046,"vala":6047,"tartották":6048,"##házban":6049,"alaposan":6050,"2014":6051,"irányuló":6052,"park":6053,"osztrák":6054,"tekintve":6055,"kezdődik":6056,"tiltak":6057,"látta":6058,"pénteki":6059,"tájékoztatása":6060,"abból":6061,".)":6062,"46":6063,"Mad":6064,"Míg":6065,"Pént":6066,"fa":6067,"némi":6068,"tegy":6069,"Ügy":6070,"##ler":6071,"##ápl":6072,"##alíció":6073,"szoft":6074,"##ítési":6075,"megalap":6076,"##önny":6077,"##öntet":6078,"adnak":6079,"országot":6080,"harminc":6081,"196":6082,"visszaes":6083,"Gyurcsány":6084,"kitör":6085,"távú":6086,"bruttó":6087,"dolgozni":6088,"megkeres":6089,"nyerte":6090,"díjat":6091,"frakció":6092,"eljárást":6093,"kutatók":6094,"oktatási":6095,"kontin":6096,"sebesség":6097,"környékén":6098,"éjszaka":6099,"##onald":6100,"59":6101,"54":6102,"Co":6103,"Un":6104,"Volt":6105,"der":6106,"fia":6107,"ily":6108,"káv":6109,"piros":6110,"rokon":6111,"##lása":6112,"##húz":6113,"##néz":6114,"##mer":6115,"##menet":6116,"##ílus":6117,"szög":6118,"megsér":6119,"##iság":6120,"##ama":6121,"gyalog":6122,"számú":6123,"tudat":6124,"mindenképpen":6125,"váratlan":6126,"fiók":6127,"vezetés":6128,"világszerte":6129,"ügyvéd":6130,"határozott":6131,"##úton":6132,"##ernatív":6133,"fogyasztók":6134,"szervezők":6135,"azonnali":6136,"beruházás":6137,"##gazdaság":6138,"kezdeményezés":6139,"karácsonyi":6140,"fertőzöttek":6141,"##ponttal":6142,"korrup":6143,"elkötel":6144,"Air":6145,"Ebből":6146,"Mit":6147,"Péld":6148,"fű":6149,"lenn":6150,"vajon":6151,"##ein":6152,"##aut":6153,"##óc":6154,"##fontos":6155,"##elési":6156,"felében":6157,"felaján":6158,"##állom":6159,"voltunk":6160,"mindkett":6161,"##ábl":6162,"többnyire":6163,"számítani":6164,"##olyg":6165,"##ításra":6166,"műt":6167,"ugyanaz":6168,"életében":6169,"kezdtek":6170,"##védelem":6171,"párhuz":6172,"eredmények":6173,"energiát":6174,"tűnt":6175,"szervezett":6176,"fotó":6177,"##csapat":6178,"működtet":6179,"##elikop":6180,"rögtön":6181,"megnéz":6182,"Techn":6183,"menedzs":6184,"Intézet":6185,"illegális":6186,"##fontosságú":6187,"Bra":6188,"Bence":6189,"Jel":6190,"ch":6191,"ifjú":6192,"onnan":6193,"órán":6194,"üv":6195,"##ődés":6196,"##úk":6197,"##olható":6198,"megismer":6199,"amellyel":6200,"##ella":6201,"##ellenes":6202,"##öket":6203,"##epp":6204,"Szat":6205,"magára":6206,"munkan":6207,"embernek":6208,"Anna":6209,"beszélni":6210,"drám":6211,"kihasznál":6212,"szabályok":6213,"spór":6214,"mennyiségű":6215,"letartóz":6216,"technológia":6217,"negyedévben":6218,"produkció":6219,"mesterséges":6220,"későbbi":6221,"ütközött":6222,"asztal":6223,"köbméter":6224,"52":6225,"DE":6226,"Ekkor":6227,"Haz":6228,"bát":6229,"ital":6230,"sepsiszentgyörgyi":6231,"##sen":6232,"##ste":6233,"##égy":6234,"##oy":6235,"szel":6236,"##orosz":6237,"##inni":6238,"##ola":6239,"eljut":6240,"##élly":6241,"##csk":6242,"bevet":6243,"számol":6244,"Szék":6245,"Egyelőre":6246,"##köznap":6247,"2024":6248,"annál":6249,"játékot":6250,"195":6251,"háborút":6252,"##jármű":6253,"##tatási":6254,"intézmények":6255,"Amennyiben":6256,"akarnak":6257,"##mentes":6258,"otthonában":6259,"mérkőzést":6260,"támadások":6261,"királynő":6262,"kaland":6263,"Miskolci":6264,"legutóbb":6265,"erősödött":6266,"méltó":6267,"speciális":6268,"Gab":6269,"Hang":6270,"Sőt":6271,"Utó":6272,"bán":6273,"páp":6274,"vív":6275,"vers":6276,"##hont":6277,"##akra":6278,"##emi":6279,"##ákon":6280,"felvon":6281,"##agan":6282,"töm":6283,"valódi":6284,"magának":6285,"jelentett":6286,"ügyvezető":6287,"akiket":6288,"félid":6289,"##ica":6290,"választók":6291,"legnép":6292,"gázt":6293,"Inter":6294,"megvan":6295,"emlékeztetett":6296,"szeretnének":6297,"##orvég":6298,"egyesület":6299,"bárki":6300,"Isten":6301,"remél":6302,"nehezebb":6303,"##ársasági":6304,"helyreállítás":6305,"##údió":6306,"##szavaz":6307,"alternatív":6308,"energetikai":6309,"gyönyörű":6310,"58":6311,"Jobb":6312,"Nek":6313,"husz":6314,"lov":6315,"tol":6316,"tük":6317,"unok":6318,"vevő":6319,"##társaság":6320,"##ővel":6321,"##kelő":6322,"##kosság":6323,"##dtek":6324,"##ikában":6325,"##ara":6326,"##adal":6327,"kiber":6328,"##aim":6329,"mára":6330,"esik":6331,"rendben":6332,"tudok":6333,"fogunk":6334,"alapanyag":6335,"##ászati":6336,"##órium":6337,"szintű":6338,"férje":6339,"előtte":6340,"melletti":6341,"háromszor":6342,"összefog":6343,"szeretet":6344,"250":6345,"képviselője":6346,"bankok":6347,"szerződést":6348,"mellék":6349,"##afut":6350,"idősebb":6351,"meglepő":6352,"##eredmény":6353,"##hullám":6354,"akkumulátor":6355,"Med":6356,"Nor":6357,"Nincs":6358,"Pedig":6359,"mak":6360,"múzeum":6361,"nél":6362,"őszi":6363,"##kér":6364,"##óját":6365,"##ésről":6366,"##osi":6367,"##omra":6368,"cselek":6369,"szerv":6370,"szerda":6371,"##izni":6372,"értek":6373,"alsó":6374,"##könyv":6375,"legr":6376,"legsz":6377,"emelt":6378,"összegyű":6379,"##ódni":6380,"szemb":6381,"árát":6382,"világháború":6383,"neve":6384,"nyugod":6385,"páros":6386,"kiválaszt":6387,"köztársasági":6388,"rajt":6389,"ellátás":6390,"építő":6391,"##lovén":6392,"tanácsadó":6393,"településen":6394,"szerencsére":6395,"néven":6396,"folyamán":6397,"izgalmas":6398,"##éllyel":6399,"Pro":6400,"av":6401,"főként":6402,"##lánc":6403,"##ht":6404,"##top":6405,"##papír":6406,"##öp":6407,"##vizsgál":6408,"##gyakor":6409,"##álatok":6410,"##ezések":6411,"##ésük":6412,"##ázni":6413,"##ellel":6414,"##unkban":6415,"##ukban":6416,"gyár":6417,"tudtam":6418,"##ivár":6419,"ahogyan":6420,"készen":6421,"kapcsolatok":6422,"otthont":6423,"személyi":6424,"használni":6425,"legyőz":6426,"Szerb":6427,"győzelm":6428,"szabályozás":6429,"aláír":6430,"költségek":6431,"élelmiszerek":6432,"hetekben":6433,"édesanya":6434,"kritikus":6435,"##szolgáltatás":6436,"atomerőmű":6437,"kapacit":6438,"85":6439,"Rob":6440,"ot":6441,"##program":6442,"##piaci":6443,"##özés":6444,"##empl":6445,"##sztikus":6446,"érez":6447,"##költ":6448,"százalékuk":6449,"##ehez":6450,"részeként":6451,"##icc":6452,"##ítója":6453,"fontosabb":6454,"növekvő":6455,"mutató":6456,"anyuk":6457,"betegek":6458,"dollárra":6459,"##eteor":6460,"csütörtöki":6461,"holttest":6462,"szerdai":6463,"fogadta":6464,"elkövetett":6465,"székely":6466,"Debrecenben":6467,"Máté":6468,"közzétett":6469,"53":6470,"döntet":6471,"fenti":6472,"kol":6473,"keny":6474,"lux":6475,"sötét":6476,"##kov":6477,"##ood":6478,"##vai":6479,"##széki":6480,"##atikus":6481,"felép":6482,"##igény":6483,"##aira":6484,"##ellen":6485,"előáll":6486,"2000":6487,"##jukat":6488,"##vándor":6489,"##ohány":6490,"alkalmából":6491,"mutatta":6492,"kitart":6493,"történtek":6494,"hatására":6495,"támogató":6496,"Sokan":6497,"##milliárd":6498,"Franciaország":6499,"tudományos":6500,"sztráj":6501,"Micros":6502,"közelmúltban":6503,"Ked":6504,"La":6505,"Múzeum":6506,"Th":6507,"York":6508,"kerület":6509,"zene":6510,"##leked":6511,"##büntet":6512,"##alizál":6513,"##ori":6514,"##ánik":6515,"##ozatot":6516,"##edző":6517,"##ilabda":6518,"felb":6519,"##endszer":6520,"adja":6521,"##elmes":6522,"##ódás":6523,"hatodik":6524,"##kedett":6525,"##ádi":6526,"##alálkoz":6527,"##portál":6528,"##adását":6529,"főszerep":6530,"célpont":6531,"biztosítani":6532,"nyomás":6533,"képviselők":6534,"találkozott":6535,"fogyasztói":6536,"szigor":6537,"novemberben":6538,"kiemelkedő":6539,"gazdálkod":6540,"kamatemel":6541,"nálunk":6542,"##fejlesztési":6543,"időjárás":6544,"Elmondta":6545,"optim":6546,"Székely":6547,"68":6548,"Jak":6549,"aj":6550,"kre":6551,"kegy":6552,"lop":6553,"ri":6554,"tó":6555,"vok":6556,"Ért":6557,"Ön":6558,"író":6559,"##ze":6560,"##tud":6561,"##fa":6562,"##üsz":6563,"##erd":6564,"##atórium":6565,"szánt":6566,"##aktor":6567,"##emp":6568,"elutas":6569,"##raf":6570,"szerette":6571,"##hatta":6572,"##ókusz":6573,"állatok":6574,"##eje":6575,"század":6576,"##aszk":6577,"jelentése":6578,"napelem":6579,"ellenfél":6580,"körzet":6581,"áruház":6582,"hétköznap":6583,"##felvétel":6584,"általa":6585,"##járó":6586,"tárc":6587,"lehetősége":6588,"anya":6589,"##egyven":6590,"készülnek":6591,"kidolg":6592,"veszélyeztet":6593,"vállalkozás":6594,"szépség":6595,"Brit":6596,"egyenl":6597,"orvosok":6598,"elektron":6599,"Németországban":6600,"##oxid":6601,"igyekszik":6602,"medenc":6603,"fővárosban":6604,"egyetért":6605,"védekezés":6606,"messze":6607,"forgatók":6608,"Éppen":6609,"botrány":6610,"Honvéd":6611,"klasszikus":6612,"Márton":6613,"!”":6614,"67":6615,"800":6616,"Pat":6617,"Rem":6618,"Tes":6619,"Visz":6620,"hev":6621,"pszich":6622,"tét":6623,"Ör":6624,"##lése":6625,"##nár":6626,"##kezet":6627,"##etáris":6628,"##alkot":6629,"elért":6630,"##osta":6631,"meglát":6632,"##ulást":6633,"lep":6634,"##velt":6635,"állomány":6636,"Szal":6637,"##örg":6638,"napos":6639,"##évé":6640,"##kir":6641,"Magyarországot":6642,"másodperc":6643,"##asonl":6644,"érinti":6645,"hazaiak":6646,"##allgat":6647,"ellátási":6648,"Andre":6649,"térségében":6650,"költségvetési":6651,"Akad":6652,"##intézet":6653,"kisfiú":6654,"tragédia":6655,"Árp":6656,"##ashing":6657,"Car":6658,"Kol":6659,"Lond":6660,"Mel":6661,"hez":6662,"héttel":6663,"##hette":6664,"##écsi":6665,"##fesz":6666,"##ereket":6667,"##éséről":6668,"##éti":6669,"érzés":6670,"##illa":6671,"képzés":6672,"élők":6673,"visszaj":6674,"valamennyi":6675,"érdekes":6676,"közelebb":6677,"helyzetbe":6678,"eredményt":6679,"eredményeket":6680,"pályafut":6681,"Közép":6682,"bizonyíték":6683,"##esszív":6684,"katona":6685,"játszik":6686,"##arkas":6687,"utóbb":6688,"közleménye":6689,"ütem":6690,"legfriss":6691,"Központi":6692,"felkészül":6693,"újságíró":6694,"szankciós":6695,"korrupció":6696,"párhuzam":6697,"Microsoft":6698,"Be":6699,"drón":6700,"ep":6701,"ettől":6702,"hű":6703,"torn":6704,"Év":6705,"Újabb":6706,"##zió":6707,"##hitel":6708,"##ménnyel":6709,"##elep":6710,"##anni":6711,"##áron":6712,"##ettet":6713,"##cser":6714,"szerelem":6715,"gyász":6716,"##óként":6717,"##ősebb":6718,"különféle":6719,"2015":6720,"határon":6721,"vásárol":6722,"utcában":6723,"egyensúly":6724,"kultúr":6725,"Borsnak":6726,"megprób":6727,"##ezzük":6728,"vigy":6729,"##forgalom":6730,"iparág":6731,"Néhány":6732,"kommunikációs":6733,"édesapja":6734,"garant":6735,"Parlament":6736,"jellegű":6737,"búcsúz":6738,"legnépszerűbb":6739,"legfrissebb":6740,"At":6741,"Bu":6742,"Kéz":6743,"Koss":6744,"Ok":6745,"Talán":6746,"kur":6747,"lend":6748,"svéd":6749,"tend":6750,"##hő":6751,"##három":6752,"##cég":6753,"##mar":6754,"##vélemény":6755,"##ené":6756,"##aték":6757,"##eking":6758,"szörny":6759,"##olid":6760,"##ánnyal":6761,"##októl":6762,"##ezését":6763,"##bantart":6764,"gyerm":6765,"##szeres":6766,"előz":6767,"##hatóság":6768,"##ektív":6769,"betart":6770,"érkeznek":6771,"##prém":6772,"sportoló":6773,"##asszal":6774,"megbeszél":6775,"címet":6776,"fegyverek":6777,"küzdött":6778,"legalábbis":6779,"szeptemberben":6780,"beruházások":6781,"éjjel":6782,"Eddig":6783,"fölé":6784,"technológi":6785,"panasz":6786,"szórakoz":6787,"##ervatív":6788,"sajtótájékoztat":6789,"Cl":6790,"Dáv":6791,"Gal":6792,"Gaz":6793,"Később":6794,"Mon":6795,"Mert":6796,"Zempl":6797,"furcs":6798,"gárda":6799,"hárm":6800,"hírt":6801,"mand":6802,"záp":6803,"##uel":6804,"##őn":6805,"##rum":6806,"##jak":6807,"##vére":6808,"##óján":6809,"##szent":6810,"##anta":6811,"##oros":6812,"##ülnek":6813,"##edő":6814,"##ények":6815,"##agn":6816,"előír":6817,"forintért":6818,"életben":6819,"##ésekor":6820,"kedd":6821,"írják":6822,"Oroszországot":6823,"létszám":6824,"mutatják":6825,"növekedése":6826,"önálló":6827,"feladatok":6828,"építkez":6829,"lánya":6830,"számítanak":6831,"környezetben":6832,"oltás":6833,"szokásos":6834,"vakcin":6835,"jóváhagy":6836,"fokozatosan":6837,"tekintetében":6838,"hamis":6839,"Kossuth":6840,"Dávid":6841,"64":6842,"BU":6843,"Haj":6844,"Mil":6845,"kony":6846,"mín":6847,"rász":6848,"sim":6849,"toj":6850,"##beteg":6851,"##TE":6852,"##atra":6853,"##one":6854,"##étert":6855,"##rab":6856,"##nyék":6857,"##hatták":6858,"##sszel":6859,"kapus":6860,"támadó":6861,"kormányt":6862,"illeti":6863,"találta":6864,"találni":6865,"vonal":6866,"kivált":6867,"stílus":6868,"euróval":6869,"akarják":6870,"gondolom":6871,"megszól":6872,"megszüntet":6873,"növekedést":6874,"bejelentés":6875,"komolyan":6876,"feladata":6877,"Karácsony":6878,"pillanatban":6879,"szóvivő":6880,"ügyfelek":6881,"Rendőrkapitányság":6882,"ülésén":6883,"Királyság":6884,"##ítókép":6885,"vezérigazgatója":6886,"Szerencsére":6887,"pandémia":6888,"ablak":6889,"62":6890,"Bél":6891,"Fekete":6892,"Musk":6893,"jót":6894,"mekkora":6895,"pot":6896,"úsz":6897,"##jaként":6898,"##VI":6899,"##enisz":6900,"##ekbe":6901,"##onikus":6902,"##ezők":6903,"megmér":6904,"egyebek":6905,"##ulhat":6906,"mielőtt":6907,"helysz":6908,"##ünkben":6909,"élnek":6910,"akkori":6911,"integ":6912,"lakások":6913,"##ozását":6914,"házig":6915,"pálya":6916,"gyermeke":6917,"egymill":6918,"szolgáltat":6919,"ismertette":6920,"Arról":6921,"szombati":6922,"##ionális":6923,"##örtén":6924,"márciusban":6925,"kettős":6926,"naponta":6927,"##ecsk":6928,"rakéta":6929,"megsért":6930,"fölött":6931,"##személy":6932,"interjú":6933,"szerkeszt":6934,"parancsnok":6935,"Utóbbi":6936,"Ge":6937,"Mak":6938,"ejt":6939,"fűz":6940,"tápl":6941,"##lást":6942,"##gl":6943,"##íni":6944,"##gyil":6945,"szán":6946,"##aiban":6947,"##udit":6948,"##avezet":6949,"szerintem":6950,"##korú":6951,"tartomány":6952,"magunk":6953,"telt":6954,"alapítvány":6955,"világot":6956,"milliárdos":6957,"##ítószer":6958,"szerepe":6959,"személyesen":6960,"Miért":6961,"ponton":6962,"fizetés":6963,"vendéglát":6964,"foglalkozó":6965,"mértékű":6966,"bőven":6967,"aktiv":6968,"kedvező":6969,"zenei":6970,"kutató":6971,"tulajdonosa":6972,"érzékeny":6973,"Érdek":6974,"Horváth":6975,"statiszt":6976,"udvar":6977,"energiaválság":6978,"Aba":6979,"Pal":6980,"Párt":6981,"SZ":6982,"dohány":6983,"lettek":6984,"zav":6985,"##uj":6986,"##sh":6987,"##áf":6988,"##div":6989,"##ekció":6990,"##okr":6991,"eldönt":6992,"közúti":6993,"##izált":6994,"alul":6995,"beszer":6996,"##usi":6997,"##értve":6998,"##ötték":6999,"nagym":7000,"Ezután":7001,"szeml":7002,"hozni":7003,"ugyancsak":7004,"okos":7005,"mentén":7006,"kivon":7007,"régóta":7008,"Szerint":7009,"forgalma":7010,"készülék":7011,"tesznek":7012,"szélső":7013,"kötvény":7014,"megbeteg":7015,"közlekedés":7016,"sikerrel":7017,"egyetemi":7018,"További":7019,"transz":7020,"Trump":7021,"erőtelj":7022,"hajnalban":7023,"katasztrófavédelem":7024,"##hálóz":7025,"bes":7026,"kék":7027,"riv":7028,"vari":7029,"##SH":7030,"##emmel":7031,"##oknál":7032,"##ésbe":7033,"megint":7034,"##edek":7035,"##adása":7036,"##csökkent":7037,"level":7038,"számát":7039,"adag":7040,"lehetetlen":7041,"terve":7042,"##asztó":7043,"##ósság":7044,"járnak":7045,"##ózis":7046,"profit":7047,"érdekelt":7048,"illetően":7049,"Oroszországban":7050,"nevezett":7051,"színház":7052,"Mich":7053,"működött":7054,"szállás":7055,"versenyt":7056,"##tárban":7057,"győzelmet":7058,"polgári":7059,"könnyebb":7060,"nyertes":7061,"reklám":7062,"fertőzöttet":7063,"Minisztérium":7064,"minimum":7065,"megváltoz":7066,"büszke":7067,"##fokú":7068,"liter":7069,"Joe":7070,"kontinens":7071,"chip":7072,"voks":7073,"Zemplén":7074,"Bizt":7075,"FC":7076,"Lev":7077,"Ste":7078,"Ver":7079,"cig":7080,"man":7081,"ost":7082,"rab":7083,"##gent":7084,"##kó":7085,"##dni":7086,"##űkö":7087,"szovjet":7088,"##ákra":7089,"csin":7090,"felszabad":7091,"##iga":7092,"##épület":7093,"alább":7094,"##odó":7095,"tudás":7096,"##ástól":7097,"részesed":7098,"##ugál":7099,"ant":7100,"kéri":7101,"##helyett":7102,"##játsz":7103,"ügyében":7104,"személyiség":7105,"költsége":7106,"kerülnek":7107,"szállították":7108,"karbantart":7109,"piacra":7110,"videót":7111,"Kiemelte":7112,"szankciókat":7113,"##politikai":7114,"pedagógusok":7115,"szexuális":7116,"alkohol":7117,"robot":7118,"üveg":7119,"Ah":7120,"Bék":7121,"Eközben":7122,"Hersz":7123,"Tel":7124,"pak":7125,"pap":7126,"sel":7127,"vész":7128,"##ura":7129,"##hy":7130,"##iber":7131,"##NP":7132,"##elhető":7133,"##atikai":7134,"##eksz":7135,"##onstr":7136,"##omi":7137,"##észek":7138,"mégsem":7139,"tudtuk":7140,"hatalom":7141,"várnak":7142,"##ásoknak":7143,"élett":7144,"kerek":7145,"##telenek":7146,"családtag":7147,"##ice":7148,"következik":7149,"vesznek":7150,"nevét":7151,"maradnak":7152,"ötven":7153,"gondolja":7154,"vélhetően":7155,"órát":7156,"velünk":7157,"autót":7158,"ajánlat":7159,"eseményen":7160,"települések":7161,"jelentkezett":7162,"terjeszt":7163,"Romániában":7164,"agresszió":7165,"Mariupol":7166,"Iskol":7167,"Négy":7168,"kancell":7169,"szegény":7170,"Szolgálat":7171,"koreai":7172,"##király":7173,"rivális":7174,"Gu":7175,"Hogyan":7176,"Sam":7177,"Tim":7178,"bocsát":7179,"mult":7180,"tab":7181,"vét":7182,"##urt":7183,"##zil":7184,"##dnek":7185,"##elve":7186,"##orna":7187,"##áss":7188,"##ésű":7189,"elrend":7190,"elérte":7191,"##ikk":7192,"##bbe":7193,"meglehet":7194,"##omin":7195,"amint":7196,"##ámogatás":7197,"##ódtak":7198,"hozam":7199,"mondják":7200,"munkálatok":7201,"elmarad":7202,"##atokkal":7203,"akivel":7204,"##újváros":7205,"szintet":7206,"Csütörtök":7207,"volum":7208,"területek":7209,"szóba":7210,"hagyott":7211,"emelkedése":7212,"vidék":7213,"vidéki":7214,"##allgatás":7215,"feltét":7216,"vásárló":7217,"rosszabb":7218,"köszönhető":7219,"mértéke":7220,"események":7221,"fotót":7222,"##ítsák":7223,"májusban":7224,"##váltás":7225,"reagál":7226,"human":7227,"TV2":7228,"gyanúja":7229,"megbeteged":7230,"66":7231,"Dan":7232,"EP":7233,"Telek":7234,"fürdő":7235,"ge":7236,"hölgy":7237,"negyven":7238,"the":7239,"##lon":7240,"##láb":7241,"##süt":7242,"##tett":7243,"##ger":7244,"##ervez":7245,"##olása":7246,"megfigyel":7247,"##utak":7248,"világban":7249,"##utatott":7250,"inter":7251,"egyike":7252,"keddi":7253,"##essége":7254,"határid":7255,"stúdió":7256,"nyomozás":7257,"programok":7258,"akarta":7259,"óráig":7260,"nézve":7261,"folytatja":7262,"eltelt":7263,"rendezik":7264,"ajánlott":7265,"kilométeres":7266,"tilt":7267,"júliusban":7268,"alkat":7269,"visszavon":7270,"abba":7271,"mindennapi":7272,"erdélyi":7273,"ezren":7274,"##párti":7275,"kapacitás":7276,"Novák":7277,"Szatmár":7278,"Gazprom":7279,"mínusz":7280,"Abaúj":7281,"Fed":7282,"Kan":7283,"Kelet":7284,"Munk":7285,"Sim":7286,"Teh":7287,"Vesz":7288,"auszt":7289,"bezár":7290,"disz":7291,"fül":7292,"fős":7293,"görög":7294,"les":7295,"tra":7296,"##lók":7297,"##tör":7298,"##éj":7299,"##ibb":7300,"##park":7301,"##dán":7302,"##öbben":7303,"##óhely":7304,"##szob":7305,"##atni":7306,"##ségbe":7307,"közvélemény":7308,"##udvar":7309,"többé":7310,"helyezett":7311,"##ításában":7312,"ennyire":7313,"##tetés":7314,"mondták":7315,"amiben":7316,"##irat":7317,"történelem":7318,"biztosított":7319,"##ciókat":7320,"Közben":7321,"emelkedtek":7322,"irányába":7323,"##övetkez":7324,"jutottak":7325,"tervezi":7326,"légit":7327,"tekintettel":7328,"##ágyi":7329,"mozgás":7330,"esélye":7331,"Való":7332,"Borítókép":7333,"tagállamok":7334,"sértett":7335,"funkció":7336,"##divásár":7337,"Bud":7338,"Dáni":7339,"Sw":7340,"Sepsiszentgyörgy":7341,"ba":7342,"füst":7343,"mel":7344,"Ők":7345,"##ue":7346,"##hord":7347,"##kák":7348,"##kam":7349,"##our":7350,"##szül":7351,"##anci":7352,"##ala":7353,"##akter":7354,"##arch":7355,"egységes":7356,"kiadott":7357,"amiket":7358,"évesen":7359,"##ovi":7360,"##abor":7361,"##kezelő":7362,"Szint":7363,"##ításának":7364,"##ításával":7365,"hiba":7366,"végső":7367,"műanyag":7368,"##chan":7369,"vezetést":7370,"##enie":7371,"dolgok":7372,"hallott":7373,"menni":7374,"konferenci":7375,"pénzügyminiszter":7376,"védett":7377,"útvonal":7378,"túlél":7379,"szembeni":7380,"forgatás":7381,"barátság":7382,"##talanul":7383,"tájékoztatta":7384,"vasárnapi":7385,"bérlet":7386,"szolgáltatások":7387,"Zsuzs":7388,"sorozatban":7389,"szomorú":7390,"megelőz":7391,"csoda":7392,"monetáris":7393,"négyzetméteres":7394,"diplomáci":7395,"olcsóbb":7396,"kulcsfontosságú":7397,"eredetileg":7398,"megszokott":7399,"forgatókönyv":7400,"99":7401,"Bajnok":7402,"Neh":7403,"Reg":7404,"hűt":7405,"jók":7406,"tej":7407,"##nes":7408,"##kő":7409,"##AR":7410,"elf":7411,"##ikum":7412,"##arm":7413,"##érmes":7414,"##raeli":7415,"##ream":7416,"##ázta":7417,"kiegyen":7418,"##otó":7419,"bevándor":7420,"##asi":7421,"##szervez":7422,"előfizet":7423,"##epsi":7424,"helyét":7425,"##ítással":7426,"##ugr":7427,"követi":7428,"vezetők":7429,"ugyanúgy":7430,"##irány":7431,"##esített":7432,"##ation":7433,"háborúban":7434,"betölt":7435,"megtám":7436,"##viselő":7437,"szeretett":7438,"használják":7439,"##ney":7440,"okozhat":7441,"jegyban":7442,"Ukrajnába":7443,"katolikus":7444,"tényező":7445,"megállapodást":7446,"megnyug":7447,"##ómai":7448,"##ellátás":7449,"titkos":7450,"kategóriában":7451,"fordulójában":7452,"ingyen":7453,"megújuló":7454,"##kezdődött":7455,"árulta":7456,"aszály":7457,"##reműkö":7458,"Viszont":7459,"potenci":7460,"Telekom":7461,"Hab":7462,"Ill":7463,"Jár":7464,"Net":7465,"bátor":7466,"fár":7467,"mez":7468,"méteres":7469,"Ág":7470,"ázs":7471,"##kat":7472,"##ach":7473,"##bíróság":7474,"##ető":7475,"##atér":7476,"##ektek":7477,"##emb":7478,"##oki":7479,"megemlék":7480,"##ségeket":7481,"##adások":7482,"csom":7483,"felidéz":7484,"##techn":7485,"szembe":7486,"##kelet":7487,"elsőd":7488,"világos":7489,"##ászat":7490,"tanú":7491,"indítvány":7492,"##iszterelnök":7493,"döntése":7494,"okost":7495,"edzés":7496,"hónappal":7497,"intézet":7498,"Inn":7499,"##esszük":7500,"vasúti":7501,"vásárolni":7502,"##ratul":7503,"sportág":7504,"diagn":7505,"hátra":7506,"hiánya":7507,"meglévő":7508,"formájában":7509,"##igazgatás":7510,"szépen":7511,"beleértve":7512,"februárban":7513,"kérdést":7514,"villany":7515,"csatlakozott":7516,"megsemm":7517,"eszközöket":7518,"##ossá":7519,"Miniszterelnök":7520,"lényegében":7521,"##frikai":7522,"érdeklődők":7523,"hozzátéve":7524,"pihen":7525,"számítógép":7526,"Johnson":7527,"mindegyik":7528,"##okratikus":7529,"Alexand":7530,"legrosszabb":7531,"megsemmis":7532,"61":7533,"95":7534,"Donyec":7535,"Fl":7536,"Jan":7537,"Kris":7538,"MV":7539,"RT":7540,"cukor":7541,"ősszel":7542,"##cu":7543,"##ct":7544,"##fia":7545,"##KB":7546,"##eljár":7547,"##gyermek":7548,"szök":7549,"##aku":7550,"##artam":7551,"##ségre":7552,"##ulását":7553,"##ográ":7554,"##ényi":7555,"Azóta":7556,"érezte":7557,"bejár":7558,"##értek":7559,"##oda":7560,"máris":7561,"elődönt":7562,"##hozz":7563,"várni":7564,"várakozás":7565,"látják":7566,"alapú":7567,"épül":7568,"halott":7569,"rendszeres":7570,"határát":7571,"Gyula":7572,"##oszl":7573,"néha":7574,"elhúz":7575,"fizető":7576,"emlékeztet":7577,"folytatta":7578,"súlyosan":7579,"szülei":7580,"komolyabb":7581,"Arén":7582,"nyilvánvaló":7583,"intézkedéseket":7584,"kevesebbet":7585,"viszonyítva":7586,"tapasztalat":7587,"nyíregy":7588,"pályázat":7589,"székhely":7590,"Spanyol":7591,"minőségű":7592,"kilométerre":7593,"##vételt":7594,"benzink":7595,"Molnár":7596,"Először":7597,"alapvetően":7598,"Vasárnap":7599,"maximum":7600,"Ausztri":7601,"kerékpár":7602,"megmenteni":7603,"DEAC":7604,"tükr":7605,"gyermeket":7606,"Szintén":7607,"ázsiai":7608,"nyíregyházi":7609,"63":7610,"81":7611,"Di":7612,"Gro":7613,"Kö":7614,"Ker":7615,"Papp":7616,"Washing":7617,"cip":7618,"div":7619,"eb":7620,"ir":7621,"publ":7622,"sh":7623,"Öt":7624,"ás":7625,"##ube":7626,"##jához":7627,"##aná":7628,"##olási":7629,"megind":7630,"csúsz":7631,"##ságok":7632,"Azért":7633,"bev":7634,"korában":7635,"mindannyi":7636,"előrel":7637,"adják":7638,"adták":7639,"##ításához":7640,"##tatja":7641,"járműv":7642,"járművek":7643,"##irend":7644,"életbe":7645,"##órum":7646,"##ipp":7647,"##főbb":7648,"vasút":7649,"érintettek":7650,"nézők":7651,"figyelmét":7652,"##tian":7653,"kihagy":7654,"##oldalú":7655,"válaszolt":7656,"hétfői":7657,"vonatkozik":7658,"menekül":7659,"drágulás":7660,"##ucat":7661,"munkatársa":7662,"meglepet":7663,"folyamatok":7664,"##kereszt":7665,"érzem":7666,"megjegyezte":7667,"brazil":7668,"legendás":7669,"Például":7670,"összegyűjt":7671,"párhuzamosan":7672,"selejt":7673,"Eu":7674,"Eszt":7675,"Majd":7676,"Műv":7677,"Port":7678,"dics":7679,"horg":7680,"km":7681,"rét":7682,"ránk":7683,"sugár":7684,"vev":7685,"Élet":7686,"##kr":7687,"##jöv":7688,"##bolt":7689,"##szal":7690,"##gyógy":7691,"##inet":7692,"##olnok":7693,"elny":7694,"##itást":7695,"##ségének":7696,"szerezte":7697,"jelzi":7698,"többlet":7699,"##letek":7700,"terror":7701,"##őrök":7702,"##tékony":7703,"idővel":7704,"szakszervezet":7705,"##lanul":7706,"épült":7707,"beszáll":7708,"férj":7709,"célba":7710,"hangoz":7711,"##icik":7712,"házban":7713,"személyautó":7714,"létezik":7715,"emelkedő":7716,"bizonyult":7717,"Erről":7718,"elsőként":7719,"álltak":7720,"októberben":7721,"kifejtette":7722,"repülőtér":7723,"izraeli":7724,"gyenge":7725,"küzdelem":7726,"januárban":7727,"médiában":7728,"##jevi":7729,"működését":7730,"újságír":7731,"Ism":7732,"vásárlók":7733,"hátter":7734,"##fogyasztás":7735,"kiny":7736,"tüzet":7737,"Párizs":7738,"infrastruktúr":7739,"rezsicsökkentés":7740,"##szakaszon":7741,"absz":7742,"Színház":7743,"bántalmaz":7744,"kábítószer":7745,"luxus":7746,"Árpád":7747,"mandátum":7748,"Buk":7749,"Had":7750,"IT":7751,"KSH":7752,"Rom":7753,"bont":7754,"bonyol":7755,"fidesz":7756,"fókusz":7757,"iv":7758,"iroda":7759,"kocs":7760,"láz":7761,"ront":7762,"sűr":7763,"vörös":7764,"##fehér":7765,"##szel":7766,"##szünet":7767,"##are":7768,"##itch":7769,"beép":7770,"szerinti":7771,"napok":7772,"Egyre":7773,"##őtlen":7774,"##inkat":7775,"##kodott":7776,"megteremt":7777,"##ozására":7778,"következtet":7779,"##ace":7780,"biztosító":7781,"vonz":7782,"hónapos":7783,"költöz":7784,"határozat":7785,"fontosnak":7786,"gázolaj":7787,"##esebben":7788,"Első":7789,"órákban":7790,"feltűn":7791,"forgalmaz":7792,"vásárolt":7793,"folytatni":7794,"hadi":7795,"iskolai":7796,"erőfesz":7797,"változások":7798,"elemzés":7799,"##eztük":7800,"##telenül":7801,"arányban":7802,"kezdődő":7803,"Országgyűlés":7804,"hajtott":7805,"cserél":7806,"##őjében":7807,"vereséget":7808,"korszerűs":7809,"Macron":7810,"esküv":7811,"elkötelezett":7812,"##elikopter":7813,"munkanélkül":7814,"Jobbik":7815,"Bog":7816,"Bereg":7817,"Foly":7818,"Japán":7819,"Pusk":7820,"fent":7821,"gomb":7822,"küsz":7823,"rap":7824,"rúg":7825,"tonn":7826,"vétel":7827,"vizet":7828,"##hold":7829,"##éh":7830,"##gé":7831,"##nan":7832,"##kóz":7833,"##gyull":7834,"##ore":7835,"##okrá":7836,"elj":7837,"##ozva":7838,"csú":7839,"felét":7840,"kijevi":7841,"##airól":7842,"##izz":7843,"érett":7844,"állított":7845,"számok":7846,"számunkra":7847,"rendezett":7848,"##ettebb":7849,"##kozik":7850,"ellene":7851,"körű":7852,"életüket":7853,"##ászok":7854,"indít":7855,"termelő":7856,"##jától":7857,"jelenik":7858,"##ünd":7859,"milliós":7860,"##járvány":7861,"##icit":7862,"Annak":7863,"példát":7864,"vezetőedző":7865,"híres":7866,"##ezésére":7867,"használja":7868,"fejlesztési":7869,"influ":7870,"népszavaz":7871,"találkozón":7872,"folytatódik":7873,"megoldások":7874,"barátja":7875,"záró":7876,"fogyasztás":7877,"energiat":7878,"inflációt":7879,"bővül":7880,"szorg":7881,"##ítsa":7882,"mozgós":7883,"Ferencváros":7884,"befektetők":7885,"díjas":7886,"vita":7887,"##szerzési":7888,"zenész":7889,"tizenkét":7890,"Facebookon":7891,"mesélt":7892,"##vállalkoz":7893,"óriás":7894,"felhívta":7895,"éjszakai":7896,"migrán":7897,"résztvevők":7898,"tüzér":7899,"Olaszország":7900,"Törökország":7901,"humanitárius":7902,"diplomáciai":7903,"72":7904,"Bi":7905,"Bod":7906,"Judit":7907,"Kal":7908,"Kid":7909,"Mész":7910,"PS":7911,"afrikai":7912,"lond":7913,"pon":7914,"##elég":7915,"szót":7916,"##álm":7917,"elev":7918,"##éria":7919,"##isebb":7920,"##adót":7921,"##ogó":7922,"kies":7923,"kiadás":7924,"kifog":7925,"közreműkö":7926,"##amp":7927,"alpolgármester":7928,"legfőbb":7929,"kapitány":7930,"kellem":7931,"végleg":7932,"végeztek":7933,"tele":7934,"összességében":7935,"oroszországi":7936,"##ösen":7937,"##újtó":7938,"háromszéki":7939,"illetékes":7940,"színvonal":7941,"melyben":7942,"karakter":7943,"osztott":7944,"##uhant":7945,"utcán":7946,"címmel":7947,"nyitva":7948,"pártok":7949,"részletes":7950,"1000":7951,"zajlott":7952,"frank":7953,"döntöttek":7954,"kicsi":7955,"érvényben":7956,"Berki":7957,"idézte":7958,"Vannak":7959,"##közelebb":7960,"legkisebb":7961,"blokk":7962,"##fordult":7963,"megtesz":7964,"Általános":7965,"Pénteken":7966,"megsérült":7967,"Jakab":7968,"londoni":7969,"!\"":7970,"76":7971,"Hiába":7972,"KD":7973,"Mező":7974,"Sta":7975,"bő":7976,"fém":7977,"lök":7978,"pat":7979,"pol":7980,"tür":7981,"##találkoz":7982,"##éje":7983,"##ge":7984,"##nénk":7985,"##kát":7986,"##ác":7987,"##jal":7988,"##óni":7989,"##üsp":7990,"##BC":7991,"ist":7992,"kötet":7993,"##itása":7994,"##adi":7995,"##jav":7996,"##izzs":7997,"##uters":7998,"##öttek":7999,"korszak":8000,"##ide":8001,"##ájukat":8002,"terep":8003,"##ításokat":8004,"végi":8005,"magunkat":8006,"##írta":8007,"utánpót":8008,"művelet":8009,"árbevétel":8010,"kissé":8011,"sorra":8012,"##nyira":8013,"készpénz":8014,"##osszú":8015,"következett":8016,"lépést":8017,"visszafog":8018,"2013":8019,"maradtak":8020,"kilép":8021,"Mindig":8022,"véleked":8023,"órás":8024,"elhang":8025,"folyamatban":8026,"légvédelmi":8027,"partn":8028,"önkormányzatok":8029,"decemberben":8030,"utazott":8031,"borz":8032,"befektetési":8033,"elképesztő":8034,"telefonon":8035,"információkat":8036,"ritka":8037,"esztend":8038,"összehasonl":8039,"Richter":8040,"benyújt":8041,"huszon":8042,"ponttal":8043,"Ap":8044,"Farkas":8045,"Gazda":8046,"Hely":8047,"Mark":8048,"Program":8049,"Sal":8050,"Sepsi":8051,"fak":8052,"fran":8053,"finál":8054,"foc":8055,"hód":8056,"háló":8057,"pre":8058,"úr":8059,"##zus":8060,"##nagy":8061,"##pari":8062,"##mozg":8063,"##fin":8064,"##árult":8065,"megcs":8066,"leány":8067,"##öngy":8068,"##ősök":8069,"vallom":8070,"##övezet":8071,"átmen":8072,"részében":8073,"prop":8074,"##eződés":8075,"megtan":8076,"rendszerek":8077,"kerülhet":8078,"társas":8079,"emelkedés":8080,"##esszor":8081,"brut":8082,"##essé":8083,"csökkenteni":8084,"fejlesztések":8085,"keresztény":8086,"##jaiban":8087,"eltávol":8088,"termékeket":8089,"elégedett":8090,"legalacsony":8091,"legtöbben":8092,"augusztusban":8093,"bármikor":8094,"projektek":8095,"igyekeznek":8096,"júniusban":8097,"bevezetett":8098,"nappali":8099,"szomszédos":8100,"Kovász":8101,"vitték":8102,"Reuters":8103,"látványos":8104,"Hungary":8105,"télen":8106,"televízió":8107,"sürgős":8108,"letartóztatás":8109,"Hangsúly":8110,"##eteorológiai":8111,"döntetlen":8112,"Tehát":8113,"elsődleges":8114,"KDNP":8115,"legalacsonyabb":8116,"Cel":8117,"Dav":8118,"Vi":8119,"fektet":8120,"hőség":8121,"kup":8122,"sejt":8123,"tenn":8124,"vont":8125,"óce":8126,"##lót":8127,"##hették":8128,"##gő":8129,"##ian":8130,"##reg":8131,"##rád":8132,"##dre":8133,"##elefon":8134,"##enny":8135,"##álnak":8136,"##esnek":8137,"##ise":8138,"##ázás":8139,"kiszám":8140,"##állomány":8141,"előadó":8142,"állítása":8143,"állomás":8144,"##ever":8145,"adót":8146,"##onyi":8147,"újj":8148,"szemét":8149,"részére":8150,"hoztak":8151,"##eresked":8152,"árat":8153,"Nemcsak":8154,"kérdő":8155,"kerest":8156,"dolgot":8157,"194":8158,"félre":8159,"erősebb":8160,"hajó":8161,"kever":8162,"lehetőségét":8163,"használnak":8164,"elmondása":8165,"néző":8166,"osztotta":8167,"rajz":8168,"nyilvános":8169,"hetedik":8170,"díja":8171,"térségben":8172,"turisztikai":8173,"kontr":8174,"résztvevő":8175,"mostanra":8176,"méretű":8177,"eltűnt":8178,"büntetőeljár":8179,"DVSC":8180,"elismerte":8181,"szuper":8182,"félidőben":8183,"sajtótájékoztatón":8184,"rászor":8185,"##avezető":8186,"kancellár":8187,"Puskás":8188,"84":8189,"Kaz":8190,"Mc":8191,"Telj":8192,"dur":8193,"iP":8194,"kaz":8195,"kosz":8196,"sar":8197,"top":8198,"##sük":8199,"##zat":8200,"##páros":8201,"##ikák":8202,"##ikáció":8203,"##edi":8204,"bevásár":8205,"##odás":8206,"legközelebb":8207,"##attan":8208,"##korlát":8209,"kapunk":8210,"kaptam":8211,"##eszi":8212,"tartalm":8213,"magával":8214,"##őről":8215,"Egyéb":8216,"leszek":8217,"árs":8218,"visszak":8219,"szakad":8220,"esetet":8221,"Magyarországnak":8222,"dolgokat":8223,"sajnál":8224,"játékok":8225,"##ico":8226,"vonat":8227,"szolgáló":8228,"eredményeként":8229,"közlése":8230,"hírportál":8231,"irányba":8232,"szabadon":8233,"állapota":8234,"nőttek":8235,"javasl":8236,"béremel":8237,"harcok":8238,"felvásár":8239,"##kapcsol":8240,"Miközben":8241,"bemutató":8242,"bekövetkez":8243,"áprilisban":8244,"nála":8245,"szárny":8246,"##piacon":8247,"Liga":8248,"követte":8249,"##gondol":8250,"megtörtén":8251,"ágazat":8252,"keletkezett":8253,"##aporizzs":8254,"Finn":8255,"Béla":8256,"meglehetősen":8257,"feltétlenül":8258,"##hozzá":8259,"##üspök":8260,"Bul":8261,"Barát":8262,"Mű":8263,"MO":8264,"búz":8265,"bolyg":8266,"dupl":8267,"ebbe":8268,"mat":8269,"vir":8270,"úszó":8271,"##sá":8272,"##tra":8273,"##dob":8274,"##vöz":8275,"##fut":8276,"##fegyv":8277,"##embert":8278,"##olvas":8279,"##ezd":8280,"##éppen":8281,"inci":8282,"##attól":8283,"helyén":8284,"tudatta":8285,"amelyre":8286,"##örök":8287,"hatvan":8288,"kétharmad":8289,"átlát":8290,"részesül":8291,"amiről":8292,"folyik":8293,"miatti":8294,"kezdték":8295,"jótékony":8296,"csapatot":8297,"vállalati":8298,"értékben":8299,"mentők":8300,"tavasszal":8301,"szállító":8302,"támogatását":8303,"tiszta":8304,"##esetre":8305,"belüli":8306,"északkeleti":8307,"kézzel":8308,"szakma":8309,"ciklus":8310,"stratégi":8311,"jönnek":8312,"tehetség":8313,"bennünket":8314,"főtitk":8315,"Fővárosi":8316,"külföldön":8317,"református":8318,"Hétfő":8319,"##különb":8320,"kabinet":8321,"##mezővásár":8322,"megalapozott":8323,"kreatív":8324,"lendület":8325,"alkatrész":8326,"ausztrál":8327,"kellemetlen":8328,"74":8329,"700":8330,"Ab":8331,"Ell":8332,"FT":8333,"Fotó":8334,"Hason":8335,"Mart":8336,"bölcs":8337,"fék":8338,"moszk":8339,"ék":8340,"ősz":8341,"##lo":8342,"##lések":8343,"##senek":8344,"##gól":8345,"##fól":8346,"##IF":8347,"##ital":8348,"##itási":8349,"kiro":8350,"közigazgatás":8351,"beval":8352,"##hatékony":8353,"##állap":8354,"jelek":8355,"##ród":8356,"fogva":8357,"magabizt":8358,"jelentették":8359,"hozták":8360,"folyt":8361,"építés":8362,"kérik":8363,"tank":8364,"tanév":8365,"segítő":8366,"##opp":8367,"félidő":8368,"választott":8369,"##hone":8370,"kitért":8371,"tisztség":8372,"banki":8373,"##esse":8374,"Nyír":8375,"találkozót":8376,"eltör":8377,"Emiatt":8378,"veszélye":8379,"bűnös":8380,"kikép":8381,"csökkenés":8382,"ezelőtti":8383,"évtizedek":8384,"gyengült":8385,"Németh":8386,"igencsak":8387,"kultúra":8388,"civilek":8389,"agresszív":8390,"Továbbra":8391,"beszédében":8392,"verzió":8393,"innen":8394,"próbált":8395,"védelme":8396,"háztartások":8397,"szellemi":8398,"étterem":8399,"uralkodó":8400,"zápor":8401,"csomó":8402,"fideszes":8403,"Hasonló":8404,"97":8405,"CO":8406,"Kér":8407,"Kap":8408,"MÁ":8409,"Tar":8410,"Ut":8411,"gör":8412,"ném":8413,"pil":8414,"rov":8415,"tucat":8416,"##nom":8417,"##jében":8418,"##SK":8419,"##ekért":8420,"sztor":8421,"##ária":8422,"eladó":8423,"megérd":8424,"egyúttal":8425,"##itását":8426,"##csarnok":8427,"##rei":8428,"##áknak":8429,"szerezni":8430,"éri":8431,"##ükkel":8432,"korai":8433,"állítják":8434,"végez":8435,"határt":8436,"képerny":8437,"árnyék":8438,"országokban":8439,"tanárok":8440,"segíthet":8441,"profi":8442,"##ipt":8443,"törleszt":8444,"személyek":8445,"személyzet":8446,"játszani":8447,"dollárral":8448,"szeretném":8449,"elfogadott":8450,"technikai":8451,"számíthatunk":8452,"NAV":8453,"támadást":8454,"politikusok":8455,"kérdése":8456,"hibrid":8457,"##aktív":8458,"Lehet":8459,"agrár":8460,"tegnapi":8461,"vegyes":8462,"vitte":8463,"produk":8464,"Északi":8465,"Szilágyi":8466,"Szlovákia":8467,"nyersanyag":8468,"ellentétben":8469,"ideiglenes":8470,"szörnyű":8471,"Szerintem":8472,"okostelefon":8473,"partnerek":8474,"69":8475,"78":8476,"71":8477,"Bál":8478,"Eb":8479,"Hal":8480,"Koll":8481,"Milyen":8482,"Rák":8483,"leny":8484,"páci":8485,"római":8486,"tized":8487,"öl":8488,"##nel":8489,"##kutatás":8490,"##öb":8491,"##fáj":8492,"szed":8493,"##áld":8494,"##apság":8495,"##ozata":8496,"##itmus":8497,"##ada":8498,"##jaik":8499,"csel":8500,"csecs":8501,"feláll":8502,"felszám":8503,"felgyors":8504,"##air":8505,"##amin":8506,"leh":8507,"##odni":8508,"##avált":8509,"számomra":8510,"végző":8511,"##asztalt":8512,"##ményt":8513,"képző":8514,"kezelni":8515,"amihez":8516,"vezeték":8517,"világjárvány":8518,"fejtette":8519,"esetek":8520,"találat":8521,"mérnök":8522,"személygép":8523,"##keting":8524,"##essék":8525,"regionális":8526,"fizetési":8527,"mozdul":8528,"támogatott":8529,"növekedési":8530,"polgár":8531,"Arany":8532,"lányok":8533,"északnyugati":8534,"fordított":8535,"bármi":8536,"havonta":8537,"jöttek":8538,"igyekezett":8539,"vártnál":8540,"Chris":8541,"csinálni":8542,"interneten":8543,"internetes":8544,"hazánkban":8545,"ritkán":8546,"Ausztrál":8547,"Számos":8548,"sajtótájékoztató":8549,"komplex":8550,"előfordulhat":8551,"áremelkedés":8552,"Szombaton":8553,"autópálya":8554,"pápa":8555,"Robert":8556,"visszajel":8557,"furcsa":8558,"légitársaság":8559,"Group":8560,"migráns":8561,"Mészáros":8562,"moszkvai":8563,"00":8564,"79":8565,"BK":8566,"Os":8567,"Sa":8568,"Svéd":8569,"Tik":8570,"You":8571,"Zsó":8572,"bány":8573,"duna":8574,"dátum":8575,"null":8576,"rádió":8577,"vezettek":8578,"Éva":8579,"##gor":8580,"##ival":8581,"##kun":8582,"##bal":8583,"##étek":8584,"##edes":8585,"##csat":8586,"felment":8587,"közgyűlés":8588,"alv":8589,"nyak":8590,"##odtak":8591,"nagyot":8592,"##isztán":8593,"másnap":8594,"##becs":8595,"időnként":8596,"##őtől":8597,"jelenség":8598,"##alommal":8599,"Ant":8600,"hónapok":8601,"hónapig":8602,"visszaél":8603,"rendőrségi":8604,"mail":8605,"elhal":8606,"Nyilván":8607,"##ántúl":8608,"iskolában":8609,"barátnő":8610,"talaj":8611,"változik":8612,"hiányzik":8613,"válaszadók":8614,"egészségügy":8615,"részleteket":8616,"kívüli":8617,"próbálta":8618,"##alapú":8619,"királyi":8620,"##részben":8621,"lezárták":8622,"virt":8623,"Dunaújváros":8624,"tragikus":8625,"kommunikáció":8626,"szerkezet":8627,"véletlenül":8628,"##veszély":8629,"tranzakció":8630,"##források":8631,"gyakorlati":8632,"újdonság":8633,"Kiderült":8634,"Lát":8635,"Pak":8636,"Park":8637,"Taj":8638,"fát":8639,"gum":8640,"maszk":8641,"vicc":8642,"##uver":8643,"##hét":8644,"##tük":8645,"##téri":8646,"##bány":8647,"##ero":8648,"megítél":8649,"##iss":8650,"csőd":8651,"kiép":8652,"kirán":8653,"szerte":8654,"amúgy":8655,"##ámp":8656,"##aza":8657,"ezáltal":8658,"forrad":8659,"helyez":8660,"végleges":8661,"jelentenek":8662,"képzel":8663,"##őri":8664,"forintról":8665,"##vezetők":8666,"belügyminiszter":8667,"kiskereskedelmi":8668,"embereknek":8669,"ahonnan":8670,"életmód":8671,"pénztár":8672,"helyzete":8673,"lépéseket":8674,"kilog":8675,"nyomozók":8676,"fiatalabb":8677,"megválaszt":8678,"##export":8679,"megkönny":8680,"szenny":8681,"elemzők":8682,"##hajtó":8683,"fogadja":8684,"műsorban":8685,"szokott":8686,"pillanatok":8687,"Kisvár":8688,"tizenegy":8689,"prot":8690,"mesél":8691,"kihívás":8692,"kihívások":8693,"##einket":8694,"##astély":8695,"enyhe":8696,"megnöveked":8697,"figyelemmel":8698,"házaspár":8699,"Klub":8700,"színpadra":8701,"húsvét":8702,"recesszió":8703,"beszámolója":8704,"ugrott":8705,"gabona":8706,"Hazánk":8707,"Herszon":8708,"Bukar":8709,"Hangsúlyozta":8710,"Egyébként":8711,"TikT":8712,"Bihar":8713,"Hír":8714,"Hód":8715,"Jász":8716,"Mond":8717,"Tor":8718,"futó":8719,"graf":8720,"prog":8721,"##ret":8722,"##rációs":8723,"##jei":8724,"##vit":8725,"##TV":8726,"##EC":8727,"##MD":8728,"##ennyire":8729,"##enko":8730,"##sziget":8731,"##gyár":8732,"##olf":8733,"megköt":8734,"egységek":8735,"egyfajta":8736,"##ozdul":8737,"##omba":8738,"felejt":8739,"##ami":8740,"##azin":8741,"##hattunk":8742,"##állást":8743,"nyúl":8744,"jelkép":8745,"mindezt":8746,"százalékról":8747,"amelyből":8748,"##eszék":8749,"##asztott":8750,"külgazdasági":8751,"várost":8752,"Egyik":8753,"amiből":8754,"##lanak":8755,"tankol":8756,"választó":8757,"területére":8758,"megyeszék":8759,"maradni":8760,"párja":8761,"térkép":8762,"##eck":8763,"versenykép":8764,"versenyzők":8765,"##értékű":8766,"Közel":8767,"##ogató":8768,"meghird":8769,"tisztában":8770,"néhol":8771,"fokozott":8772,"készülő":8773,"utoljára":8774,"tölti":8775,"##oldali":8776,"fogyasztó":8777,"fotóz":8778,"felhasználó":8779,"rövidebb":8780,"kénytelen":8781,"növeli":8782,"kockázat":8783,"médi":8784,"motiv":8785,"megszervez":8786,"nemrégiben":8787,"tartalmazó":8788,"##avédelmi":8789,"Érdemes":8790,"előrejelzés":8791,"kedvezményes":8792,"gyilkos":8793,"üres":8794,"kiterjeszt":8795,"jöhet":8796,"Games":8797,"kosár":8798,"mindketten":8799,"Akadémia":8800,"BUX":8801,"##okrata":8802,"ostrom":8803,"Csütörtökön":8804,"Washington":8805,"73":8806,"Agr":8807,"Bo":8808,"BM":8809,"Dmit":8810,"Hark":8811,"Jöv":8812,"Kev":8813,"US":8814,"hab":8815,"kód":8816,"pad":8817,"##sk":8818,"##ski":8819,"##segít":8820,"##haszn":8821,"##gan":8822,"##ous":8823,"##TK":8824,"##ásból":8825,"elnev":8826,"##osak":8827,"##javas":8828,"lehessen":8829,"tönk":8830,"helye":8831,"helyiség":8832,"méghozzá":8833,"végeredmény":8834,"Ezeket":8835,"napirend":8836,"valamelyik":8837,"váltak":8838,"váltott":8839,"segítenek":8840,"elnökkel":8841,"értelemben":8842,"helyzetét":8843,"választották":8844,"biztosítja":8845,"jogállam":8846,"##ley":8847,"felhős":8848,"hajr":8849,"lehetőségeket":8850,"képvisel":8851,"támogatása":8852,"##iségi":8853,"fejlesztése":8854,"dolgoztak":8855,"jegyezte":8856,"fokoz":8857,"##dion":8858,"töltő":8859,"ünnepség":8860,"bejelentett":8861,"bejelentést":8862,"fennáll":8863,"üzletember":8864,"tájékoztatott":8865,"bűntett":8866,"biztonságát":8867,"gépjármű":8868,"nyújtani":8869,"próbálja":8870,"drágább":8871,"Hozzát":8872,"Szabad":8873,"##utaz":8874,"láthatóan":8875,"ellenőriz":8876,"járművet":8877,"említette":8878,"tűzoltó":8879,"doboz":8880,"kizár":8881,"töltötte":8882,"jártak":8883,"áldozata":8884,"egyedülálló":8885,"állampolgárok":8886,"rajongók":8887,"juttatás":8888,"koalíció":8889,"gyilkosság":8890,"olykor":8891,"karrier":8892,"alelnöke":8893,"elengedhetetlen":8894,"tárcavezető":8895,"Tesla":8896,"Dániel":8897,"Bajnokok":8898,"rapper":8899,"átmeneti":8900,"Kovászna":8901,"újjá":8902,"iPhone":8903,"Bab":8904,"Dob":8905,"EB":8906,"Irán":8907,"Kupa":8908,"Mess":8909,"On":8910,"Pa":8911,"Ró":8912,"Som":8913,"foci":8914,"lista":8915,"norvég":8916,"op":8917,"passz":8918,"rug":8919,"start":8920,"területi":8921,"Ákos":8922,"ábr":8923,"##lág":8924,"##tlen":8925,"##őnek":8926,"##éf":8927,"##kán":8928,"##kárt":8929,"##aikat":8930,"##dens":8931,"##íd":8932,"##elések":8933,"##ate":8934,"##alált":8935,"##akciók":8936,"##egészség":8937,"##ülly":8938,"##íthető":8939,"##ítjuk":8940,"##íthatatlan":8941,"megfizet":8942,"megtekint":8943,"##ili":8944,"éreztem":8945,"##odor":8946,"##ükön":8947,"##epl":8948,"nagyszerű":8949,"adók":8950,"kaptunk":8951,"mást":8952,"Ezúttal":8953,"mondjuk":8954,"##iméter":8955,"##óst":8956,"##chester":8957,"##özpont":8958,"##rajz":8959,"lakást":8960,"szintre":8961,"hangul":8962,"értesül":8963,"Antal":8964,"##ozói":8965,"úti":8966,"hagyják":8967,"ittas":8968,"vélte":8969,"újraind":8970,"emlékezet":8971,"negyedéves":8972,"továbbiakban":8973,"veszélyt":8974,"függően":8975,"##vezetője":8976,"baráti":8977,"könnyed":8978,"foglalkoztat":8979,"fegyvert":8980,"vizsgálatot":8981,"fertőző":8982,"középiskol":8983,"sérülés":8984,"műsorában":8985,"megmarad":8986,"szakértői":8987,"korlátozás":8988,"pályázati":8989,"valamivel":8990,"világbajnoki":8991,"minimális":8992,"államtitkára":8993,"Schol":8994,"fiúk":8995,"megváltozott":8996,"robbant":8997,"generáció":8998,"##gazdálkod":8999,"Miskolcon":9000,"megkérdezettek":9001,"villamosenergia":9002,"megelőzően":9003,"Tisza":9004,"Vagyis":9005,"fellebb":9006,"megfogalmaz":9007,"valaha":9008,"Érték":9009,"Georg":9010,"incidens":9011,"kilogramm":9012,"88":9013,"Dor":9014,"Gimnázium":9015,"Hát":9016,"Hisz":9017,"Maj":9018,"Mod":9019,"Nik":9020,"Pest":9021,"Ter":9022,"dek":9023,"hor":9024,"hig":9025,"rub":9026,"takt":9027,"##zum":9028,"##hid":9029,"##mos":9030,"##dolg":9031,"##ennyit":9032,"##gyártó":9033,"##anunk":9034,"szokat":9035,"szekt":9036,"##olást":9037,"eladás":9038,"##érmet":9039,"##üld":9040,"megad":9041,"megism":9042,"egyez":9043,"köd":9044,"##életi":9045,"##radi":9046,"##uli":9047,"felvet":9048,"lejt":9049,"Szolnok":9050,"2030":9051,"##letet":9052,"összhang":9053,"napsüt":9054,"képeket":9055,"átmenet":9056,"várta":9057,"##házán":9058,"##ótól":9059,"élénk":9060,"belföldi":9061,"##anyar":9062,"vállalta":9063,"férf":9064,"##rogén":9065,"keresik":9066,"##alomra":9067,"törzs":9068,"##ességet":9069,"színes":9070,"Gyermek":9071,"eszm":9072,"befizet":9073,"forgalmi":9074,"vásárlás":9075,"támogatta":9076,"##ürd":9077,"mikro":9078,"informatikai":9079,"160":9080,"immun":9081,"fordulóban":9082,"foglalkozik":9083,"segítségét":9084,"holnap":9085,"kikap":9086,"ismeret":9087,"##hetetlenül":9088,"összege":9089,"középpont":9090,"balesetben":9091,"tőlük":9092,"##ítse":9093,"drága":9094,"alkotmány":9095,"##összeg":9096,"labdát":9097,"díját":9098,"észlel":9099,"mögé":9100,"Edina":9101,"magánszemély":9102,"##ferencia":9103,"működési":9104,"sikeresen":9105,"információt":9106,"##szolgáltat":9107,"##beszél":9108,"##világot":9109,"Tudomány":9110,"munkavállalók":9111,"megtörtént":9112,"kipróbál":9113,"extrém":9114,"konyh":9115,"táplál":9116,"##iberális":9117,"Veszprém":9118,"jegybanki":9119,"előrelép":9120,"Scholz":9121,"Cr":9122,"Rol":9123,"bicik":9124,"tért":9125,"##megy":9126,"##űri":9127,"##anna":9128,"szür":9129,"szlovén":9130,"szolid":9131,"szuver":9132,"##árgyal":9133,"##onnyal":9134,"##onpro":9135,"##álbér":9136,"##oktatás":9137,"elszám":9138,"meghoz":9139,"egyrészt":9140,"##edék":9141,"##ite":9142,"##jaink":9143,"kiír":9144,"szerez":9145,"amin":9146,"amilyen":9147,"##hetes":9148,"Azon":9149,"##ükre":9150,"rendre":9151,"rendszám":9152,"##édia":9153,"százalékponttal":9154,"aratott":9155,"fogok":9156,"##kedés":9157,"magyarság":9158,"##iszony":9159,"##ivi":9160,"munkált":9161,"##jelző":9162,"épített":9163,"##ermelés":9164,"életre":9165,"segített":9166,"városában":9167,"felhábor":9168,"párbeszéd":9169,"szállítás":9170,"szólva":9171,"##ezésű":9172,"##ológia":9173,"régen":9174,"megszület":9175,"órában":9176,"gyorsabb":9177,"készültek":9178,"vizsgálatok":9179,"szavazók":9180,"kikapcsol":9181,"tapasztalt":9182,"nyilatkozat":9183,"bővült":9184,"balesetet":9185,"finn":9186,"idejére":9187,"meccset":9188,"kíváncsi":9189,"mélypont":9190,"fénykép":9191,"tető":9192,"fenyeg":9193,"konzol":9194,"konzult":9195,"##mann":9196,"létrehozott":9197,"tőzsdei":9198,"étkez":9199,"Ligája":9200,"Nyíregyházi":9201,"összeköt":9202,"Jelent":9203,"drámai":9204,"##ivárg":9205,"kenyér":9206,"sztrájk":9207,"egymillió":9208,"zavart":9209,"show":9210,"ársap":9211,"##fólió":9212,"páciens":9213,"83":9214,"87":9215,"Bet":9216,"Dis":9217,"Eur":9218,"Fran":9219,"Jog":9220,"Kult":9221,"Noha":9222,"Pénz":9223,"Teleg":9224,"fen":9225,"has":9226,"isz":9227,"kud":9228,"kata":9229,"ob":9230,"pet":9231,"rut":9232,"ről":9233,"tábl":9234,"##lási":9235,"##ean":9236,"##hegy":9237,"##ria":9238,"##mi":9239,"##jekt":9240,"##óv":9241,"##szövetség":9242,"##alista":9243,"##ásán":9244,"##inf":9245,"##eser":9246,"##oson":9247,"megfigy":9248,"##itco":9249,"felte":9250,"felsor":9251,"##épp":9252,"ezeknek":9253,"bejut":9254,"##udi":9255,"számon":9256,"számolni":9257,"Szerg":9258,"Szövet":9259,"##olyan":9260,"##ájú":9261,"napról":9262,"éles":9263,"élvonal":9264,"##ennel":9265,"sorban":9266,"##etlenül":9267,"##váron":9268,"főbb":9269,"harci":9270,"mennek":9271,"gondot":9272,"nőnek":9273,"mérg":9274,"kedvel":9275,"célt":9276,"érthető":9277,"összeállítás":9278,"figyelni":9279,"keresni":9280,"Oroszországból":9281,"párizs":9282,"szállított":9283,"Közös":9284,"használható":9285,"csökkentése":9286,"népi":9287,"gyerekeket":9288,"forgalmat":9289,"halálát":9290,"tekinthető":9291,"##asszony":9292,"számíthat":9293,"zseb":9294,"2008":9295,"javaslatot":9296,"anyagok":9297,"egyenlő":9298,"futott":9299,"meccsen":9300,"kormányzat":9301,"tetsz":9302,"távoli":9303,"##pályás":9304,"származású":9305,"##vállalat":9306,"stratégia":9307,"fegyvereket":9308,"becsül":9309,"látogatók":9310,"forrásból":9311,"megosztott":9312,"erej":9313,"megbízható":9314,"öltöz":9315,"hozzátart":9316,"rangsor":9317,"jogosult":9318,"ragaszkod":9319,"bizonytalanság":9320,"eleje":9321,"meggyőző":9322,"evaku":9323,"eltérő":9324,"megélhet":9325,"Izra":9326,"roham":9327,"mechan":9328,"üdvöz":9329,"tavaszi":9330,"normális":9331,"szoftver":9332,"műtét":9333,"Honvédség":9334,"házigazd":9335,"variáns":9336,"Nehéz":9337,"MVM":9338,"utánpótlás":9339,"Bulg":9340,"##onprofit":9341,"77":9342,"96":9343,"94":9344,"Gond":9345,"Kormány":9346,"Li":9347,"dra":9348,"divat":9349,"fl":9350,"gát":9351,"hajdú":9352,"merül":9353,"tenisz":9354,"Ázs":9355,"##lett":9356,"##zött":9357,"##rált":9358,"##áh":9359,"##üh":9360,"##NS":9361,"##erni":9362,"##anád":9363,"aznap":9364,"szik":9365,"szűr":9366,"##iny":9367,"##bbant":9368,"megalak":9369,"##omentum":9370,"##adai":9371,"##rep":9372,"csepp":9373,"kiadó":9374,"közti":9375,"##ságra":9376,"lefoglal":9377,"##hattuk":9378,"##ókon":9379,"jelöl":9380,"számtalan":9381,"Sztárban":9382,"admin":9383,"jelenthet":9384,"összpontos":9385,"##ódhat":9386,"##enyi":9387,"munkás":9388,"élén":9389,"épülő":9390,"változó":9391,"vállalt":9392,"##fogó":9393,"Csong":9394,"mérföld":9395,"értékes":9396,"##ick":9397,"összeom":9398,"lépcs":9399,"##városban":9400,"kerülni":9401,"használata":9402,"támogatásával":9403,"fejlesztő":9404,"Erste":9405,"perccel":9406,"energiahord":9407,"növekedett":9408,"problémákat":9409,"győzött":9410,"ismerte":9411,"eléged":9412,"köthető":9413,"##eztette":9414,"biztonsága":9415,"extra":9416,"Marg":9417,"hallg":9418,"szolgáltatást":9419,"egyenesen":9420,"próbálkoz":9421,"nyolcadik":9422,"olvasó":9423,"korlátozások":9424,"látták":9425,"szolgálja":9426,"##ezze":9427,"húzta":9428,"szezonban":9429,"III":9430,"lövöld":9431,"meghaladja":9432,"konzervatív":9433,"érzelm":9434,"megmutatta":9435,"kiegészítő":9436,"menetrend":9437,"szereplők":9438,"jövedelem":9439,"léleg":9440,"kötelezettség":9441,"sárga":9442,"Egészség":9443,"fizetőeszköz":9444,"YouT":9445,"Aut":9446,"Art":9447,"Afr":9448,"Bak":9449,"Csal":9450,"Hold":9451,"Ko":9452,"Luk":9453,"Nos":9454,"Pont":9455,"Rádió":9456,"acél":9457,"bors":9458,"dró":9459,"hasz":9460,"jós":9461,"pánc":9462,"pinc":9463,"sereg":9464,"ur":9465,"velem":9466,"##les":9467,"##him":9468,"##ijáték":9469,"##ném":9470,"##ácsol":9471,"##fürdő":9472,"##okol":9473,"##ésért":9474,"##égzés":9475,"##ozd":9476,"##itu":9477,"##tabb":9478,"feles":9479,"leír":9480,"ezekben":9481,"##utal":9482,"alud":9483,"évszáz":9484,"##avaz":9485,"##erty":9486,"##erték":9487,"állom":9488,"állást":9489,"eséllyel":9490,"emleg":9491,"számítás":9492,"##ájába":9493,"amelyik":9494,"mindenhol":9495,"##tető":9496,"mondom":9497,"forintnyi":9498,"2025":9499,"belga":9500,"kormánynak":9501,"vezeti":9502,"##landi":9503,"hozzájuk":9504,"##óri":9505,"##esítő":9506,"##ármest":9507,"kapcsolata":9508,"főpolgármester":9509,"##ünt":9510,"együttese":9511,"veszik":9512,"Angel":9513,"##flix":9514,"##ományi":9515,"2012":9516,"szállítmány":9517,"hagyja":9518,"támogatási":9519,"tisztáz":9520,"gyorsabban":9521,"rendelkeznek":9522,"támogatják":9523,"szükségük":9524,"bejelentése":9525,"változtatás":9526,"foglalkozni":9527,"címvédő":9528,"vizsgálja":9529,"zsid":9530,"épületet":9531,"ütemben":9532,"javasolt":9533,"közlekedő":9534,"alkotó":9535,"békét":9536,"hamarabb":9537,"##szky":9538,"Mindenki":9539,"romániai":9540,"##álltak":9541,"rendezvényen":9542,"##akarék":9543,"lennie":9544,"bevezetése":9545,"jelöltje":9546,"minőségi":9547,"terjedő":9548,"##szolgáltató":9549,"beszélgetés":9550,"szobr":9551,"hordó":9552,"esztendő":9553,"koord":9554,"Erdély":9555,"megkezdte":9556,"Dunántúl":9557,"regisztráltak":9558,"Igen":9559,"dinam":9560,"ajtó":9561,"Kristó":9562,"abszol":9563,"tüzérségi":9564,"Hétfőn":9565,"kirándul":9566,"Roland":9567,"YouTube":9568,"%)":9569,"91":9570,"Bart":9571,"Dzs":9572,"Kam":9573,"No":9574,"Ry":9575,"Vásár":9576,"kastély":9577,"net":9578,"##lav":9579,"##lev":9580,"##sák":9581,"##őbe":9582,"##növeked":9583,"megér":9584,"egyből":9585,"felszín":9586,"##entrum":9587,"##izód":9588,"##oltan":9589,"érzik":9590,"all":9591,"##ukkal":9592,"##állomás":9593,"mindaz":9594,"előd":9595,"helyes":9596,"százalékban":9597,"magad":9598,"határa":9599,"átlép":9600,"##émium":9601,"válogat":9602,"##iri":9603,"visszam":9604,"hozza":9605,"tanús":9606,"egészében":9607,"mondtam":9608,"elnököt":9609,"főre":9610,"mennyit":9611,"területet":9612,"léptek":9613,"stáb":9614,"stream":9615,"Inform":9616,"kitölt":9617,"kitüntet":9618,"öreg":9619,"Endre":9620,"perces":9621,"Szerdán":9622,"Megjegy":9623,"Budapestre":9624,"játszottak":9625,"szélesebb":9626,"csoportos":9627,"otthoni":9628,"könnyebben":9629,"érdemi":9630,"kórházi":9631,"törvényjavas":9632,"temp":9633,"góllal":9634,"ketten":9635,"megjelenik":9636,"turisták":9637,"náluk":9638,"cserébe":9639,"információi":9640,"bízik":9641,"demokrá":9642,"##hasson":9643,"folytatásban":9644,"igazságügyi":9645,"##vájc":9646,"Nyíregyháza":9647,"háziorvos":9648,"varázs":9649,"Fejleszt":9650,"Csehország":9651,"helyreállítási":9652,"##ecskem":9653,"RTL":9654,"Bálint":9655,"ábráz":9656,"Szergej":9657,"adminiszt":9658,"Kristóf":9659,"Abban":9660,"Col":9661,"He":9662,"Meteorológiai":9663,"Peking":9664,"Seri":9665,"Svájc":9666,"Tan":9667,"bent":9668,"drog":9669,"far":9670,"fegy":9671,"labor":9672,"méh":9673,"rém":9674,"zászló":9675,"Áram":9676,"Önk":9677,"##zanak":9678,"##po":9679,"##venti":9680,"##bö":9681,"##bázis":9682,"##áram":9683,"##éka":9684,"##intend":9685,"##itor":9686,"feljelent":9687,"##aiból":9688,"lejár":9689,"##oval":9690,"##attint":9691,"szerintük":9692,"##epció":9693,"nagyban":9694,"##ításáról":9695,"mindenképp":9696,"munkak":9697,"továbbjut":9698,"látjuk":9699,"##vezeték":9700,"alapító":9701,"közöttük":9702,"##kelt":9703,"ahová":9704,"sorolta":9705,"visszasz":9706,"segítik":9707,"szabott":9708,"##ökken":9709,"193":9710,"komb":9711,"##ozásra":9712,"története":9713,"vonzó":9714,"erősítette":9715,"beszélg":9716,"maradhat":9717,"határidő":9718,"karant":9719,"nincsen":9720,"##ítéssel":9721,"támogatására":9722,"csökkenti":9723,"jegyzett":9724,"támogatni":9725,"öngyil":9726,"testi":9727,"zsar":9728,"apa":9729,"helyenként":9730,"Maros":9731,"oltást":9732,"fogadták":9733,"kereskedelem":9734,"hálás":9735,"elkövető":9736,"aligha":9737,"meglepetés":9738,"nyelvű":9739,"legkev":9740,"blok":9741,"megkapta":9742,"Twitteren":9743,"mosoly":9744,"viharos":9745,"intelligencia":9746,"##cionális":9747,"##család":9748,"lennének":9749,"ifjúsági":9750,"Gabri":9751,"riport":9752,"Netflix":9753,"finálé":9754,"Auguszt":9755,"Bef":9756,"Dec":9757,"Ettől":9758,"Gi":9759,"Hi":9760,"Jól":9761,"Kór":9762,"Ph":9763,"Sony":9764,"Stat":9765,"TA":9766,"Ur":9767,"U1":9768,"Vissz":9769,"Vörös":9770,"Will":9771,"ajt":9772,"dar":9773,"főz":9774,"hár":9775,"kint":9776,"nar":9777,"ráj":9778,"si":9779,"seh":9780,"vacs":9781,"vékony":9782,"övezet":9783,"##uck":9784,"##tőzsd":9785,"##éch":9786,"##negyed":9787,"##drág":9788,"##üd":9789,"##RF":9790,"##ele":9791,"##env":9792,"##eráció":9793,"##olna":9794,"##álog":9795,"##ülést":9796,"##áték":9797,"megkö":9798,"felold":9799,"feltár":9800,"szert":9801,"##ukk":9802,"jelzés":9803,"mieink":9804,"számban":9805,"utód":9806,"rendelt":9807,"százezer":9808,"##idej":9809,"másképp":9810,"magában":9811,"magazin":9812,"külügyminisztérium":9813,"országból":9814,"##forrás":9815,"sorsa":9816,"indítottak":9817,"lakók":9818,"Csoport":9819,"megtiszt":9820,"védelmet":9821,"választáson":9822,"nevében":9823,"kerülő":9824,"alakulat":9825,"##ezéssel":9826,"használta":9827,"euróra":9828,"gondolta":9829,"Els":9830,"kérdések":9831,"megvizsgál":9832,"gyerekeknek":9833,"Alig":9834,"kamion":9835,"Márci":9836,"gyakori":9837,"erőmű":9838,"vizsgálják":9839,"2009":9840,"raktár":9841,"##díjat":9842,"oltási":9843,"nyolcvan":9844,"bírósági":9845,"növelte":9846,"parlamentben":9847,"küzdelm":9848,"megjelenése":9849,"kormányzó":9850,"hibát":9851,"téma":9852,"##érkező":9853,"engedélyt":9854,"viadal":9855,"minimálbér":9856,"mobiltel":9857,"házasság":9858,"börtönbüntet":9859,"szurkolók":9860,"brav":9861,"űrhaj":9862,"Kárpátal":9863,"koncentrál":9864,"##ődési":9865,"Norbert":9866,"epizód":9867,"megpróbált":9868,"diagnoszt":9869,"réteg":9870,"eljutt":9871,"Finnország":9872,"##gólos":9873,"cseleked":9874,"virtuális":9875,"jogállamiság":9876,"##egészségügyi":9877,"rutin":9878,"89":9879,"82":9880,"Besz":9881,"Cris":9882,"Char":9883,"Gre":9884,"Hosszú":9885,"Jéz":9886,"Lap":9887,"Nintend":9888,"Pi":9889,"Red":9890,"Tok":9891,"Tur":9892,"covid":9893,"ger":9894,"kérték":9895,"maj":9896,"rö":9897,"rett":9898,"slág":9899,"zuhan":9900,"zuhant":9901,"ág":9902,"##ucs":9903,"##nám":9904,"##pest":9905,"##fesztivál":9906,"##IM":9907,"##60":9908,"##elését":9909,"##ergy":9910,"##aki":9911,"##inform":9912,"##olását":9913,"##ikával":9914,"##ítések":9915,"##tass":9916,"##ázár":9917,"gyök":9918,"legerős":9919,"adatait":9920,"tudtunk":9921,"##isztert":9922,"teráp":9923,"fogjuk":9924,"újonnan":9925,"teli":9926,"napközben":9927,"ellensúly":9928,"kezét":9929,"##ációja":9930,"sokak":9931,"árakat":9932,"##che":9933,"elment":9934,"elmaradt":9935,"szakkép":9936,"##rajzi":9937,"csapódott":9938,"jelenet":9939,"##rij":9940,"Csanád":9941,"célra":9942,"házat":9943,"jogerős":9944,"##ességét":9945,"határszakaszon":9946,"eredményei":9947,"Mindkét":9948,"##assa":9949,"vidám":9950,"nézni":9951,"percig":9952,"egymásra":9953,"##ikailag":9954,"eszközt":9955,"videóban":9956,"##amara":9957,"változást":9958,"tájékoztat":9959,"létrejött":9960,"kényelm":9961,"##argó":9962,"rakétat":9963,"meddig":9964,"teljesítményt":9965,"Akik":9966,"Dunaújvárosi":9967,"meghaladó":9968,"tájékoztatást":9969,"elindult":9970,"remekül":9971,"Katasztróf":9972,"##biztonság":9973,"strand":9974,"győzelemmel":9975,"észrev":9976,"Szlovákiában":9977,"Franciaországban":9978,"mérséklő":9979,"Szombat":9980,"elektronikus":9981,"Remél":9982,"fűzte":9983,"besor":9984,"alábbi":9985,"Békés":9986,"Iskola":9987,"ebéd":9988,"Ismét":9989,"dunaújvárosi":9990,"kudarc":9991,"párizsi":9992,"Önkormányz":9993,"All":9994,"Na":9995,"Rég":9996,"Sop":9997,"Tom":9998,"ből":9999,"ek":10000,"gimnázium":10001,"gratul":10002,"kén":10003,"kincs":10004,"pánik":10005,"rej":10006,"tok":10007,"tax":10008,"ős":10009,"##éc":10010,"##oba":10011,"##ojt":10012,"##puszt":10013,"##fest":10014,"##NA":10015,"##erre":10016,"szelet":10017,"##esültek":10018,"elr":10019,"elterj":10020,"##osa":10021,"##éleszt":10022,"kiszab":10023,"##ight":10024,"##oty":10025,"##nyújt":10026,"##cional":10027,"##szerkezet":10028,"##ókban":10029,"##udai":10030,"ing":10031,"##avi":10032,"forró":10033,"Szeptember":10034,"Széch":10035,"összetett":10036,"##kedni":10037,"szemmel":10038,"részleg":10039,"kezelő":10040,"folyós":10041,"elmenek":10042,"vezethet":10043,"fejét":10044,"tanuló":10045,"igazolt":10046,"üzen":10047,"oktat":10048,"##ácsi":10049,"cégcsoport":10050,"értékek":10051,"keresnek":10052,"szeretettel":10053,"védelem":10054,"gazdaságot":10055,"hagyni":10056,"képviselet":10057,"vélik":10058,"regény":10059,"másikra":10060,"rendezték":10061,"eléggé":10062,"##művészeti":10063,"tulajdonában":10064,"oldalára":10065,"kötő":10066,"##eztünk":10067,"ismeri":10068,"vállalkozó":10069,"oltó":10070,"kénytelenek":10071,"békés":10072,"kívánt":10073,"díjak":10074,"növelni":10075,"közepes":10076,"Korea":10077,"##trágy":10078,"csúcstalálkoz":10079,"magánélet":10080,"meghatározott":10081,"Továbbá":10082,"fűtési":10083,"élményt":10084,"örömmel":10085,"kárty":10086,"Horvátország":10087,"Manchester":10088,"kerékpáros":10089,"infrastruktúra":10090,"felmerül":10091,"madár":10092,"kriptoval":10093,"gabon":10094,"fejlett":10095,"felajánl":10096,"Kolozs":10097,"interjúban":10098,"publik":10099,"közigazgatási":10100,"Telegram":10101,"legerősebb":10102,"City":10103,"Don":10104,"Equ":10105,"Kit":10106,"Máj":10107,"Var":10108,"bed":10109,"ból":10110,"des":10111,"deleg":10112,"fák":10113,"gr":10114,"kv":10115,"pop":10116,"tú":10117,"váll":10118,"zász":10119,"##unak":10120,"##zavar":10121,"##hamar":10122,"##kutató":10123,"##pan":10124,"##por":10125,"##rez":10126,"##áinak":10127,"##dhet":10128,"##jére":10129,"##eret":10130,"száj":10131,"##orld":10132,"##ésből":10133,"##ülek":10134,"##íthatja":10135,"egybe":10136,"##apiac":10137,"##rav":10138,"##its":10139,"##ilabd":10140,"kiszolg":10141,"kijelölt":10142,"község":10143,"szereti":10144,"##igur":10145,"levelet":10146,"Azok":10147,"érő":10148,"##unknak":10149,"##odi":10150,"nagyság":10151,"utalt":10152,"##olgár":10153,"mégpedig":10154,"tartoznak":10155,"bizonnyal":10156,"##ártól":10157,"##éstől":10158,"összej":10159,"##ásaik":10160,"alapon":10161,"világra":10162,"járul":10163,"##órás":10164,"segítette":10165,"ügyet":10166,"államok":10167,"Európába":10168,"harm":10169,"megtér":10170,"##viselők":10171,"összevet":10172,"törekv":10173,"példány":10174,"alkalmával":10175,"szóval":10176,"##üzem":10177,"##essen":10178,"vastag":10179,"időszakában":10180,"népesség":10181,"autóval":10182,"egymásnak":10183,"tűzijáték":10184,"jutni":10185,"nehézségek":10186,"alkalmazkod":10187,"elfogták":10188,"feladatot":10189,"engem":10190,"##műves":10191,"épületek":10192,"környezetvédelmi":10193,"összegű":10194,"játékosa":10195,"utazási":10196,"hangsúlyt":10197,"korlátozott":10198,"gyengül":10199,"rezsim":10200,"károkat":10201,"számoltak":10202,"kihívást":10203,"Akár":10204,"sérüléseket":10205,"Legutó":10206,"##üveg":10207,"Lengyelországban":10208,"Királyságban":10209,"##falu":10210,"marketing":10211,"takarék":10212,"ragad":10213,"vezérigazgató":10214,"rámutatott":10215,"világbajnokságon":10216,"felügyelet":10217,"mértek":10218,"parkoló":10219,"elemzője":10220,"titok":10221,"megrong":10222,"##bizony":10223,"ikonikus":10224,"váratlanul":10225,"bátran":10226,"főszereplő":10227,"##hálózat":10228,"##divásárhelyi":10229,"selejtező":10230,"hangoztatta":10231,"MÁV":10232,"##hasznos":10233,"Izrael":10234,"évszázad":10235,"karantén":10236,"5G":10237,"Film":10238,"Gás":10239,"Hamar":10240,"Júli":10241,"Lit":10242,"M1":10243,"Mold":10244,"NF":10245,"November":10246,"One":10247,"Tíz":10248,"Tizen":10249,"bút":10250,"bocs":10251,"fanta":10252,"gal":10253,"kém":10254,"veh":10255,"##ure":10256,"##tattak":10257,"##iek":10258,"##nőt":10259,"##kocs":10260,"##ps":10261,"##pat":10262,"##óba":10263,"##burg":10264,"##IA":10265,"##ED":10266,"##szeg":10267,"##erk":10268,"szú":10269,"##ins":10270,"##álasz":10271,"##álása":10272,"##arány":10273,"##edv":10274,"##edni":10275,"##ilit":10276,"##aid":10277,"##nya":10278,"alát":10279,"gyereket":10280,"évről":10281,"depr":10282,"##ovic":10283,"##köl":10284,"Szem":10285,"##korong":10286,"tudatos":10287,"##uma":10288,"másrészt":10289,"##almú":10290,"##abbak":10291,"##iver":10292,"munkája":10293,"##ízis":10294,"országszerte":10295,"elmes":10296,"##ügyészség":10297,"tanítvány":10298,"indiai":10299,"##indulat":10300,"prov":10301,"ügynökség":10302,"##üttes":10303,"okok":10304,"félév":10305,"figyel":10306,"szerepét":10307,"##tatása":10308,"##ességgel":10309,"ötször":10310,"##penz":10311,"##terem":10312,"Energ":10313,"percet":10314,"fizetett":10315,"180":10316,"Mária":10317,"klin":10318,"iskolák":10319,"építési":10320,"energiak":10321,"vádat":10322,"kím":10323,"hetek":10324,"drágul":10325,"hála":10326,"őriz":10327,"odafigyel":10328,"##sius":10329,"hétvégi":10330,"megnyerte":10331,"feladatokat":10332,"teljesítménye":10333,"várták":10334,"felülvizsgál":10335,"off":10336,"megfont":10337,"##politika":10338,"kártér":10339,"rajongó":10340,"bűncselekmények":10341,"feldolgozó":10342,"Igazgat":10343,"klímavált":10344,"Pető":10345,"kanadai":10346,"stressz":10347,"Elmondása":10348,"##munka":10349,"vakcina":10350,"őszintén":10351,"##awatt":10352,"Október":10353,"Ahhoz":10354,"Sams":10355,"Arénában":10356,"Celsius":10357,"személygépkocsi":10358,"megnövekedett":10359,"Értéktőzsd":10360,"##itcoin":10361,"Gáspár":10362,"Ba":10363,"Bern":10364,"Con":10365,"Görög":10366,"Hun":10367,"Kör":10368,"LM":10369,"Lav":10370,"Lázár":10371,"Oper":10372,"Part":10373,"Vám":10374,"Vajon":10375,"baba":10376,"díz":10377,"fázis":10378,"készt":10379,"rel":10380,"tar":10381,"táp":10382,"ult":10383,"##lad":10384,"##uha":10385,"##ruh":10386,"##mod":10387,"##yen":10388,"##folt":10389,"##ER":10390,"##atja":10391,"szől":10392,"elit":10393,"elítél":10394,"##íthat":10395,"##ítheti":10396,"##ítania":10397,"megép":10398,"##apro":10399,"##ith":10400,"##tas":10401,"##uld":10402,"csek":10403,"felp":10404,"állítani":10405,"állították":10406,"napvilágot":10407,"képtelen":10408,"hoznak":10409,"##ásokon":10410,"##őrinc":10411,"műtrágy":10412,"##ivát":10413,"folyos":10414,"anélkül":10415,"hétre":10416,"##felhasznál":10417,"kérnek":10418,"tanult":10419,"főút":10420,"összefoglal":10421,"hiszem":10422,"tárlat":10423,"2011":10424,"eredményes":10425,"##ecz":10426,"nyomon":10427,"bizonyítja":10428,"##történ":10429,"euróövezet":10430,"amerikaiak":10431,"jegyző":10432,"Szervezet":10433,"tervezik":10434,"Ember":10435,"földi":10436,"tízezer":10437,"dioxid":10438,"zsűri":10439,"mellette":10440,"Krím":10441,"szolgáltatásokat":10442,"súlyosb":10443,"próbálják":10444,"délutáni":10445,"tevékenységét":10446,"ingatlant":10447,"elérhetővé":10448,"lakosságot":10449,"kárpát":10450,"művészet":10451,"művészeti":10452,"bekapcsol":10453,"##változás":10454,"Max":10455,"##rác":10456,"áldozatot":10457,"panaszkod":10458,"meghaladta":10459,"Törvény":10460,"Összesen":10461,"Összességében":10462,"fajta":10463,"nyerni":10464,"érdeklődőket":10465,"ígéret":10466,"kinev":10467,"következményei":10468,"hajnali":10469,"statisztikai":10470,"##veszélyes":10471,"tőke":10472,"automatikusan":10473,"mutatták":10474,"televíziós":10475,"##ília":10476,"Hajnal":10477,"erőteljes":10478,"kontroll":10479,"ékszer":10480,"Bukarest":10481,"Róbert":10482,"szolidar":10483,"Csongrád":10484,"abszolút":10485,"Jézus":10486,"alátám":10487,"Samsung":10488,"Ac":10489,"Jam":10490,"Könyv":10491,"Nic":10492,"Nonprofit":10493,"Od":10494,"SE":10495,"Sik":10496,"Víz":10497,"Wal":10498,"Zöld":10499,"kb":10500,"kond":10501,"mor":10502,"musz":10503,"plet":10504,"ráv":10505,"tri":10506,"##lők":10507,"##lottak":10508,"##lettel":10509,"##sy":10510,"##kai":10511,"##oom":10512,"##cal":10513,"##cast":10514,"##fik":10515,"##TA":10516,"##NG":10517,"##ásért":10518,"elhatár":10519,"##rai":10520,"felkeres":10521,"szerény":10522,"##hetőleg":10523,"ezekre":10524,"##aster":10525,"gyülek":10526,"##ókra":10527,"##egyetem":10528,"##köves":10529,"előbbi":10530,"elősegít":10531,"##attart":10532,"Székes":10533,"magáról":10534,"szemtan":10535,"kezében":10536,"mondhat":10537,"követelm":10538,"leszög":10539,"forintba":10540,"olyanok":10541,"ugyanez":10542,"and":10543,"járni":10544,"hozzánk":10545,"Nemrég":10546,"kérni":10547,"kérelm":10548,"termelők":10549,"##helyek":10550,"##esítette":10551,"jelenl":10552,"##ármin":10553,"döntések":10554,"okból":10555,"általuk":10556,"korábbinál":10557,"érdekeit":10558,"##emelés":10559,"értékelte":10560,"megtenni":10561,"városok":10562,"oldalak":10563,"mentek":10564,"társa":10565,"túlnyom":10566,"használatát":10567,"kitett":10568,"akartam":10569,"kérdésekre":10570,"fejlesztők":10571,"figyelmeztetett":10572,"hatását":10573,"##ubil":10574,"önt":10575,"csoportkör":10576,"140":10577,"unió":10578,"bajnokságban":10579,"tulajdonképpen":10580,"katari":10581,"tűnő":10582,"szervező":10583,"törvényt":10584,"ismerik":10585,"lelkész":10586,"gyűl":10587,"bármit":10588,"bármelyik":10589,"történetét":10590,"ingatlanok":10591,"nyílik":10592,"jelentkezik":10593,"közepette":10594,"büntetés":10595,"bemutatott":10596,"tizenöt":10597,"idősek":10598,"Kínában":10599,"égett":10600,"távolság":10601,"turizmus":10602,"megseb":10603,"##radó":10604,"modellek":10605,"csodálat":10606,"múlik":10607,"véleményét":10608,"idézi":10609,"##hessenek":10610,"lőszer":10611,"tartózkodó":10612,"tartózkodik":10613,"kétszeres":10614,"kategóri":10615,"Kijevben":10616,"üzenetet":10617,"mostanában":10618,"tökéletesen":10619,"pihenő":10620,"Harry":10621,"önmagában":10622,"Meta":10623,"szoftv":10624,"szórakoztató":10625,"megszólal":10626,"volumene":10627,"sűrű":10628,"##ereskedelmi":10629,"Hódmezővásár":10630,"rugalmas":10631,"Hiszen":10632,"allerg":10633,"Series":10634,"Nintendo":10635,"450":10636,"86":10637,"Bot":10638,"Com":10639,"Gar":10640,"Hot":10641,"Op":10642,"Rad":10643,"Rengeteg":10644,"Sy":10645,"Sha":10646,"Tegnap":10647,"gaszt":10648,"halm":10649,"hunyt":10650,"pod":10651,"ret":10652,"rand":10653,"stag":10654,"##sik":10655,"##zan":10656,"##ire":10657,"##iával":10658,"##no":10659,"##cím":10660,"##ré":10661,"##rű":10662,"##vani":10663,"##órán":10664,"##ítt":10665,"##IC":10666,"##MA":10667,"##etni":10668,"##erdő":10669,"##aljai":10670,"eleget":10671,"elkap":10672,"##arap":10673,"megugr":10674,"##ilap":10675,"##omoly":10676,"kivet":10677,"##uti":10678,"becsap":10679,"korán":10680,"##ovas":10681,"állni":10682,"mielő":10683,"Szovjet":10684,"adás":10685,"##illant":10686,"kapni":10687,"##ünknek":10688,"tartom":10689,"jelentek":10690,"##ióta":10691,"képen":10692,"átfogó":10693,"##abbá":10694,"hozhat":10695,"árának":10696,"alapuló":10697,"##anya":10698,"soron":10699,"akkora":10700,"ügynök":10701,"##andós":10702,"191":10703,"célzó":10704,"konsz":10705,"hangot":10706,"##zsák":10707,"Oroszországnak":10708,"útra":10709,"útján":10710,"támogatások":10711,"gondolják":10712,"##assák":10713,"Szeret":10714,"autóbusz":10715,"találkozik":10716,"##tion":10717,"teljesített":10718,"hadmű":10719,"nehézség":10720,"nyilvántart":10721,"számíthatnak":10722,"hívták":10723,"apja":10724,"járványügyi":10725,"novemberi":10726,"szeptemberi":10727,"polgármesteri":10728,"fordítani":10729,"vetett":10730,"történetében":10731,"igazgatóság":10732,"éghaj":10733,"bekerül":10734,"Újra":10735,"iráni":10736,"fehérorosz":10737,"kontén":10738,"kimenet":10739,"1990":10740,"##iósgy":10741,"élte":10742,"véleménye":10743,"torna":10744,"demonstr":10745,"ülésen":10746,"indokolta":10747,"##isszió":10748,"összetart":10749,"Fehérorosz":10750,"##zárkóz":10751,"várakozások":10752,"hektár":10753,"igazolvány":10754,"kitörése":10755,"##óczi":10756,"anyuka":10757,"##VID":10758,"bérleti":10759,"felidézte":10760,"eleve":10761,"rubel":10762,"átmenetileg":10763,"mechanizmus":10764,"Áramlat":10765,"Befektet":10766,"##RFK":10767,"kéne":10768,"Széchenyi":10769,"kárpátaljai":10770,"plety":10771,"Székesfehér":10772,"Da":10773,"Ham":10774,"Hajd":10775,"Qu":10776,"Ronald":10777,"Tünd":10778,"bez":10779,"dán":10780,"dagan":10781,"fil":10782,"kattint":10783,"méz":10784,"massz":10785,"rád":10786,"sm":10787,"sülly":10788,"tég":10789,"véve":10790,"##sugár":10791,"##hát":10792,"##iG":10793,"##ies":10794,"##ccs":10795,"##jan":10796,"##bem":10797,"##fát":10798,"##Wh":10799,"##atják":10800,"##ezhet":10801,"##ésén":10802,"eladott":10803,"##ítenek":10804,"megmond":10805,"##agyaszt":10806,"##ilenc":10807,"##jain":10808,"##jainak":10809,"felismer":10810,"##aihoz":10811,"ezeken":10812,"##utatták":10813,"érhető":10814,"beolt":10815,"##szered":10816,"##üknek":10817,"mindhárom":10818,"ident":10819,"estek":10820,"##kezelés":10821,"helyezték":10822,"Szép":10823,"tervezet":10824,"máshol":10825,"képek":10826,"##ásokban":10827,"##ugor":10828,"##házak":10829,"műhold":10830,"országba":10831,"emberiség":10832,"életének":10833,"valamely":10834,"lakott":10835,"főigazgat":10836,"ottani":10837,"közeljöv":10838,"értékeket":10839,"kereste":10840,"Angl":10841,"vonultak":10842,"##főnök":10843,"Gyul":10844,"szállít":10845,"lehetőségek":10846,"kivizsgál":10847,"##ítésre":10848,"stát":10849,"##nevel":10850,"okozó":10851,"gondolat":10852,"tisztán":10853,"nézzük":10854,"időszakot":10855,"feltör":10856,"népszáml":10857,"##mentesen":10858,"játszó":10859,"rendelkezésére":10860,"megoldani":10861,"haláleset":10862,"130":10863,"elfogadta":10864,"helyiek":10865,"videók":10866,"változtatni":10867,"hívott":10868,"vállalkozók":10869,"filmet":10870,"gépek":10871,"Brent":10872,"szokás":10873,"tapasztalható":10874,"honvédelmi":10875,"fenntartása":10876,"gazdák":10877,"elkövetkező":10878,"megjelenő":10879,"feltételek":10880,"láttam":10881,"megsegít":10882,"szolgálatot":10883,"származik":10884,"témában":10885,"technológiák":10886,"felkészült":10887,"megnehez":10888,"megfék":10889,"##politik":10890,"tőzsde":10891,"kiadások":10892,"kamera":10893,"Olaszországban":10894,"választókerület":10895,"legszebb":10896,"szembesül":10897,"legyőzte":10898,"Szerbia":10899,"Andrea":10900,"Ágnes":10901,"csomópont":10902,"Tajvan":10903,"TikTok":10904,"Hozzátették":10905,"szokatlan":10906,"streaming":10907,"megköszön":10908,"mobiltelefon":10909,"Cristian":10910,"##ubileum":10911,"4iG":10912,"Donald":10913,"Ev":10914,"Ele":10915,"Kép":10916,"Kiv":10917,"MI":10918,"Maz":10919,"OM":10920,"Raj":10921,"VI":10922,"West":10923,"Wind":10924,"gárd":10925,"jén":10926,"rózs":10927,"trón":10928,"Édes":10929,"ébr":10930,"##list":10931,"##étt":10932,"##iából":10933,"##nán":10934,"##kul":10935,"##űg":10936,"##atosan":10937,"##ekord":10938,"##okért":10939,"elít":10940,"##ardi":10941,"hotel":10942,"egyén":10943,"##ékben":10944,"##edés":10945,"##ottan":10946,"##ild":10947,"##adtak":10948,"##ogh":10949,"Azzal":10950,"beind":10951,"##usok":10952,"előállítás":10953,"előadást":10954,"##őke":10955,"##őkben":10956,"számot":10957,"számának":10958,"helyben":10959,"Szinte":10960,"Sziget":10961,"adventi":10962,"valah":10963,"kapható":10964,"##ájáról":10965,"magához":10966,"magatart":10967,"kétségbe":10968,"##imit":10969,"forinton":10970,"országnak":10971,"##özők":10972,"alapk":10973,"kezdeni":10974,"készlet":10975,"##koló":10976,"##obor":10977,"##gatni":10978,"dolga":10979,"főnök":10980,"harck":10981,"##ric":10982,"##riai":10983,"##ünn":10984,"halaszt":10985,"Csík":10986,"írás":10987,"##jelentősebb":10988,"összeáll":10989,"választásokat":10990,"töreked":10991,"erősíti":10992,"rendszerben":10993,"maradék":10994,"Mindezt":10995,"Amíg":10996,"növekszik":10997,"##szörmény":10998,"nyomozást":10999,"megszab":11000,"Elkép":11001,"kérdésére":11002,"környező":11003,"##atlanul":11004,"újrahasznos":11005,"kamatok":11006,"kamatot":11007,"184":11008,"haderő":11009,"veszélyhelyzet":11010,"csoportok":11011,"laptop":11012,"elemzése":11013,"Kifej":11014,"lányt":11015,"törvényhoz":11016,"nyitó":11017,"nyertek":11018,"tárgyalásokat":11019,"##ítson":11020,"tervei":11021,"koncepció":11022,"megmaradt":11023,"éjfél":11024,"legtöbbet":11025,"évtizede":11026,"mennyiséget":11027,"rezsi":11028,"észl":11029,"letölt":11030,"tilos":11031,"vonatkozóan":11032,"350":11033,"döntéshoz":11034,"becslések":11035,"beszédet":11036,"nevelő":11037,"Legal":11038,"trük":11039,"##hassa":11040,"kezdetben":11041,"humor":11042,"lángokat":11043,"színpadon":11044,"##ublikán":11045,"jégkorong":11046,"fogyaték":11047,"megőriz":11048,"ítéletet":11049,"felszólal":11050,"beszámoltunk":11051,"##irkóz":11052,"robbanás":11053,"##ásztor":11054,"Emlékeztetett":11055,"Benedek":11056,"Brüsszelben":11057,"elfoglalt":11058,"bombáz":11059,"fejlemény":11060,"csendes":11061,"szögezte":11062,"London":11063,"Köszön":11064,"küszöb":11065,"szorgalmaz":11066,"vélekedett":11067,"brutális":11068,"David":11069,"Disney":11070,"Igazgatóság":11071,",.":11072,"92":11073,"Bíró":11074,"Ft":11075,"Lőrinc":11076,"Oszt":11077,"Palk":11078,"buz":11079,"feket":11080,"fórum":11081,"gam":11082,"geszt":11083,"kg":11084,"kul":11085,"krón":11086,"polc":11087,"sör":11088,"zak":11089,"zón":11090,"élen":11091,"##eis":11092,"##rát":11093,"##vegy":11094,"##vari":11095,"##bej":11096,"##etű":11097,"##etve":11098,"##eld":11099,"##errel":11100,"szett":11101,"szimp":11102,"##akozó":11103,"##onként":11104,"##orozat":11105,"##egen":11106,"elfel":11107,"##arak":11108,"##etta":11109,"##ítsék":11110,"egyházi":11111,"##ségű":11112,"##omban":11113,"##adrág":11114,"nemi":11115,"##ule":11116,"##ságának":11117,"gyull":11118,"jelezték":11119,"legény":11120,"legjelentősebb":11121,"állhat":11122,"##ejét":11123,"helyeken":11124,"teret":11125,"##tetni":11126,"##ugró":11127,"##köztársaság":11128,"amiatt":11129,"munkák":11130,"##enné":11131,"##ölték":11132,"akkoriban":11133,"##etlenség":11134,"##ational":11135,"##eződött":11136,"családot":11137,"kompenz":11138,"céget":11139,"féle":11140,"##dőlt":11141,"keresi":11142,"Anikó":11143,"lépni":11144,"hónapra":11145,"délnyugati":11146,"tagország":11147,"hajlam":11148,"szállítási":11149,"versenyen":11150,"##oszló":11151,"Közl":11152,"gyermekét":11153,"##eléssel":11154,"programja":11155,"programokat":11156,"okozza":11157,"órával":11158,"fokos":11159,"hatást":11160,"emlékezett":11161,"eltilt":11162,"tárgyalt":11163,"testvére":11164,"video":11165,"zárult":11166,"partján":11167,"eseményeket":11168,"zsák":11169,"helyettesít":11170,"középső":11171,"fotók":11172,"nyújtanak":11173,"fogadott":11174,"kereskedők":11175,"kialakított":11176,"sikere":11177,"tevékenysége":11178,"évtizedben":11179,"Kiskun":11180,"vitamin":11181,"##szintű":11182,"előnyt":11183,"mélyen":11184,"senkit":11185,"Leyen":11186,"kockázatot":11187,"ígért":11188,"esélyt":11189,"##ismertebb":11190,"debüt":11191,"szakaszon":11192,"Gergő":11193,"Berlin":11194,"akciót":11195,"lényegesen":11196,"hozzájárult":11197,"akartak":11198,"Csakhogy":11199,"kutya":11200,"trén":11201,"pluszban":11202,"Szilárd":11203,"szerelmes":11204,"tünetek":11205,"##spir":11206,"Grand":11207,"##szállítmány":11208,"##kluz":11209,"zivatarok":11210,"visszaesés":11211,"nyugodt":11212,"heves":11213,"fáradt":11214,"Spanyolország":11215,"mindannyian":11216,"vevők":11217,"Gazdasági":11218,"progn":11219,"páncél":11220,"##indulatú":11221,"BL":11222,"Bíz":11223,"Bács":11224,"Fül":11225,"Halál":11226,"Koz":11227,"Pint":11228,"Sup":11229,"Tak":11230,"Verseny":11231,"af":11232,"com":11233,"cuk":11234,"liberális":11235,"pi":11236,"radik":11237,"srác":11238,"tin":11239,"Át":11240,"Április":11241,"Él":11242,"Óri":11243,"##had":11244,"##tiszt":11245,"##őtt":11246,"##nab":11247,"##kerül":11248,"##pel":11249,"##me":11250,"##más":11251,"##marad":11252,"##dve":11253,"##venes":11254,"##ónia":11255,"##szól":11256,"##era":11257,"##eközben":11258,"##alg":11259,"szál":11260,"szapor":11261,"szégy":11262,"##olhat":11263,"##etty":11264,"megszak":11265,"megnőtt":11266,"megemelked":11267,"egykor":11268,"##ilatkoz":11269,"##adták":11270,"##ázat":11271,"felfelé":11272,"kielég":11273,"lecs":11274,"bevételt":11275,"jelz":11276,"állunk":11277,"többfelé":11278,"helyt":11279,"Szóval":11280,"##illag":11281,"kapták":11282,"kellemes":11283,"##előny":11284,"naptár":11285,"magyarul":11286,"leszünk":11287,"hack":11288,"időn":11289,"látom":11290,"##atokban":11291,"kormánya":11292,"vezetésével":11293,"életem":11294,"indultak":11295,"egészségi":11296,"szintje":11297,"kering":11298,"döntéseket":11299,"okot":11300,"gondolt":11301,"értéket":11302,"történelm":11303,"szeretem":11304,"házak":11305,"mentális":11306,"hírül":11307,"mutatnak":11308,"##ezésre":11309,"gondoltam":11310,"Elon":11311,"kérdéseket":11312,"##mérk":11313,"csökkentette":11314,"nézett":11315,"##súlyozott":11316,"eléri":11317,"időszakához":11318,"folytatódott":11319,"alkalmazottak":11320,"szabályokat":11321,"oldalról":11322,"parti":11323,"építeni":11324,"##iskola":11325,"szavazat":11326,"hívja":11327,"2004":11328,"épületben":11329,"appl":11330,"biztonságban":11331,"hetet":11332,"utazás":11333,"hallani":11334,"szorul":11335,"##ítsuk":11336,"kézilabda":11337,"beruházási":11338,"mennyisége":11339,"visszatért":11340,"portugál":11341,"portfólió":11342,"feleségét":11343,"csatlakoz":11344,"működnek":11345,"károk":11346,"lemez":11347,"küldet":11348,"digitaliz":11349,"stadion":11350,"kizárt":11351,"szerepelnek":11352,"szenvedtek":11353,"##forgalmi":11354,"kértek":11355,"megrendezett":11356,"üzemeltető":11357,"befolyásolja":11358,"interjút":11359,"hitelt":11360,"lángok":11361,"többségében":11362,"migráció":11363,"elkészült":11364,"megdupl":11365,"rögzített":11366,"felszerelt":11367,"külföldre":11368,"megtudtuk":11369,"##parancs":11370,"riasztották":11371,"##térbe":11372,"hasonlít":11373,"logisztikai":11374,"##szolgálati":11375,"Ügynökség":11376,"Intern":11377,"Londonban":11378,"helyszínek":11379,"cigány":11380,"manapság":11381,"Habár":11382,"##gyermekes":11383,"influenz":11384,"főtitkár":11385,"COVID":11386,"forradalom":11387,"Harkiv":11388,"opció":11389,"hangulatot":11390,"nagyságrend":11391,"klímaváltozás":11392,"Petőfi":11393,"Befektetési":11394,"Legalább":11395,"Palkovics":11396,"Fut":11397,"Február":11398,"Iroda":11399,"MSZ":11400,"Mentő":11401,"Pécs":11402,"Rész":11403,"Sc":11404,"Sen":11405,"fek":11406,"ij":11407,"ká":11408,"picit":11409,"sert":11410,"túlt":11411,"tari":11412,"zöm":11413,"##ual":11414,"##hár":11415,"##íciók":11416,"##űk":11417,"##wood":11418,"##EK":11419,"##MI":11420,"##etik":11421,"##els":11422,"##eljük":11423,"##enünk":11424,"##szál":11425,"##gye":11426,"##áraz":11427,"##onóm":11428,"##olhatja":11429,"##álok":11430,"##tté":11431,"##éséért":11432,"elkezdődött":11433,"##ikkal":11434,"##arvas":11435,"##arendszer":11436,"##énkül":11437,"megeml":11438,"##apasztal":11439,"##otthon":11440,"##adalmas":11441,"felmond":11442,"közgazd":11443,"##izáció":11444,"##otor":11445,"akadt":11446,"gyerty":11447,"##aver":11448,"márka":11449,"##atty":11450,"utakon":11451,"adósság":11452,"kaphat":11453,"tudjon":11454,"kellő":11455,"újból":11456,"jelentő":11457,"##kednek":11458,"válhat":11459,"##ósok":11460,"##közlési":11461,"támaszt":11462,"vezetése":11463,"kezdi":11464,"esetekben":11465,"készíteni":11466,"természeti":11467,"lakásban":11468,"ügyész":11469,"emelni":11470,"hard":11471,"Ukrán":11472,"##olitikai":11473,"konv":11474,"betét":11475,"megtilt":11476,"értesült":11477,"keresett":11478,"biztosítása":11479,"színű":11480,"személyében":11481,"költözött":11482,"melyen":11483,"Gyöngy":11484,"kevesen":11485,"Amint":11486,"lehetőségük":11487,"##ozzon":11488,"csapatnak":11489,"megszáll":11490,"megszállt":11491,"megszavaz":11492,"elhár":11493,"újraéleszt":11494,"autóban":11495,"vásárhelyi":11496,"vízbe":11497,"Emman":11498,"gyakorolt":11499,"semmis":11500,"szervezete":11501,"vendégeként":11502,"elsej":11503,"hátsó":11504,"szívvel":11505,"zsír":11506,"pártja":11507,"##ütköz":11508,"beruházást":11509,"béket":11510,"történetet":11511,"borult":11512,"frissen":11513,"előnye":11514,"előnyét":11515,"pályázatot":11516,"senkinek":11517,"prémium":11518,"##jjebb":11519,"zárták":11520,"hirdetett":11521,"könyvtár":11522,"fűtés":11523,"tömeges":11524,"biztosítanak":11525,"változatlan":11526,"elképzelhető":11527,"##hassanak":11528,"mostantól":11529,"segéd":11530,"ellentmond":11531,"strukt":11532,"estére":11533,"tudósok":11534,"##gazdag":11535,"##űvös":11536,"időkben":11537,"fájdalom":11538,"Ilyenkor":11539,"felmerült":11540,"weboldal":11541,"összehang":11542,"felszólította":11543,"berendezés":11544,"DVTK":11545,"elvesztette":11546,"kivételével":11547,"felhőzet":11548,"védőolt":11549,"idényben":11550,"Madrid":11551,"Technológiai":11552,"tömör":11553,"##lekedési":11554,"napelemes":11555,"drónt":11556,"szerkesztőség":11557,"Biztos":11558,"##gentin":11559,"Switch":11560,"##ARS":11561,"határátkelő":11562,"sajtótájékoztatóján":11563,"Svédország":11564,"összhangban":11565,"szuveren":11566,"drónok":11567,"vacsor":11568,"bravúr":11569,"Lavrov":11570,"Szovjetuni":11571,"közeljövőben":11572,"##kluzív":11573,"Emmanuel":11574,"98":11575,"Bay":11576,"Fesztivál":11577,"Kup":11578,"Kereskedelmi":11579,"Ren":11580,"San":11581,"Tiszt":11582,"dug":11583,"fürd":11584,"kinek":11585,"labda":11586,"post":11587,"püspök":11588,"tál":11589,"##uci":11590,"##einte":11591,"##tál":11592,"##őrt":11593,"##éjét":11594,"##ivel":11595,"##kes":11596,"##yt":11597,"##vend":11598,"##bo":11599,"##falt":11600,"##szög":11601,"##alálták":11602,"##olására":11603,"eleinte":11604,"##érzék":11605,"egyhetes":11606,"csont":11607,"felfog":11608,"##ságokat":11609,"##ságosan":11610,"##nyik":11611,"##nyolc":11612,"legismertebb":11613,"##tev":11614,"##teszt":11615,"számolnak":11616,"utólag":11617,"rendes":11618,"##ida":11619,"terhet":11620,"végeznek":11621,"##ménye":11622,"jelentik":11623,"áru":11624,"elnökének":11625,"emelték":11626,"hazug":11627,"komprom":11628,"reál":11629,"reakció":11630,"területeket":11631,"lépnek":11632,"hónapon":11633,"nevezték":11634,"beszélünk":11635,"rendszereket":11636,"##tartó":11637,"kerüljön":11638,"szállítani":11639,"Közölte":11640,"nyomást":11641,"##essziós":11642,"irányadó":11643,"programban":11644,"##minőség":11645,"történteket":11646,"fejlesztését":11647,"##rist":11648,"figyelmen":11649,"##mentő":11650,"álom":11651,"betegségek":11652,"##dionban":11653,"csatorna":11654,"veszélyben":11655,"alkalmazása":11656,"ismerték":11657,"sportol":11658,"üzletág":11659,"##ronóm":11660,"szíve":11661,"levő":11662,"gépkocsi":11663,"olajat":11664,"NASA":11665,"szankciókkal":11666,"felvételt":11667,"nyíl":11668,"##kapitány":11669,"fényében":11670,"óvatos":11671,"örökre":11672,"turista":11673,"forrásokat":11674,"gyűjtött":11675,"megelőzés":11676,"##ezzen":11677,"éltek":11678,"Boris":11679,"felújítás":11680,"##front":11681,"##mennyiség":11682,"elkezdett":11683,"rekordot":11684,"Össze":11685,"kezdetét":11686,"szabadságharc":11687,"motoros":11688,"bevonásával":11689,"Szegedi":11690,"regisztrált":11691,"szilárd":11692,"ilyet":11693,"tudatosan":11694,"fűző":11695,"Kedden":11696,"Portugál":11697,"sürgősségi":11698,"rászorul":11699,"Martin":11700,"görd":11701,"némileg":11702,"sztori":11703,"Zsófi":11704,"meghirdetett":11705,"kosárl":11706,"Megjegyezte":11707,"Katasztrófavédelmi":11708,"Litván":11709,"fantasztikus":11710,"##aprofit":11711,"túlnyomó":11712,"csodálatos":11713,"podcast":11714,"##ünnep":11715,"Bun":11716,"Ci":11717,"Júni":11718,"King":11719,"Los":11720,"Mikor":11721,"Norvég":11722,"Tény":11723,"Tart":11724,"Virág":11725,"Zen":11726,"aukció":11727,"bossz":11728,"burkol":11729,"eközben":11730,"gig":11731,"hur":11732,"hűvös":11733,"jubileum":11734,"kalap":11735,"ló":11736,"lik":11737,"lámp":11738,"neked":11739,"pontosabb":11740,"sark":11741,"tobor":11742,"usz":11743,"ülő":11744,"##lem":11745,"##sort":11746,"##ssó":11747,"##zenek":11748,"##kány":11749,"##out":11750,"##cing":11751,"##jeként":11752,"##yag":11753,"##barc":11754,"##erb":11755,"##ator":11756,"##atlon":11757,"##ancia":11758,"színek":11759,"##áró":11760,"##ásbíróság":11761,"##ezvény":11762,"##ágó":11763,"##edagógus":11764,"##ségnek":11765,"##omor":11766,"##csemp":11767,"##ákról":11768,"feled":11769,"felro":11770,"felzárkóz":11771,"##ign":11772,"##entúl":11773,"lejjebb":11774,"amellett":11775,"amennyit":11776,"##asem":11777,"márk":11778,"többféle":11779,"##tebb":11780,"##ívó":11781,"Szlovén":11782,"kaphatnak":11783,"argentin":11784,"##eszik":11785,"##hozott":11786,"##ményeket":11787,"##eiből":11788,"##ebbi":11789,"összev":11790,"összesz":11791,"élőben":11792,"folyadék":11793,"embere":11794,"emberekkel":11795,"##anyi":11796,"életük":11797,"termel":11798,"csalód":11799,"céljából":11800,"biztosítják":11801,"vonul":11802,"beszélve":11803,"hajók":11804,"útjára":11805,"legnehez":11806,"Indi":11807,"javítani":11808,"##üzd":11809,"Elég":11810,"tisztel":11811,"##essenek":11812,"csökkentek":11813,"##súlyosabb":11814,"Nyom":11815,"időszakra":11816,"##icsap":11817,"Meghan":11818,"negyeddönt":11819,"tekinti":11820,"##jegyű":11821,"talp":11822,"##uhász":11823,"ellátást":11824,"hátul":11825,"##szabású":11826,"anyagot":11827,"tapasztalata":11828,"reméli":11829,"tanácskoz":11830,"kívánja":11831,"Rendkívül":11832,"hibáz":11833,"csatlakozás":11834,"tetszik":11835,"gyakorlatban":11836,"eszközökkel":11837,"dobog":11838,"gyűjtemény":11839,"felnőttek":11840,"##incbarc":11841,"kommunista":11842,"ekkora":11843,"Reform":11844,"Truss":11845,"ezres":11846,"elismerést":11847,"Katar":11848,"republikán":11849,"időjárási":11850,"következménye":11851,"szlovákiai":11852,"erőszakos":11853,"óvoda":11854,"leköt":11855,"ösztönöz":11856,"fájdalmas":11857,"autósok":11858,"megszűnt":11859,"jövedelm":11860,"megélénkül":11861,"lélek":11862,"áttör":11863,"fellend":11864,"felelősségre":11865,"extraprofit":11866,"kávé":11867,"tojás":11868,"Levente":11869,"Guardi":11870,"Valószínű":11871,"Reggel":11872,"esztendős":11873,"elhalaszt":11874,"Messi":11875,"Ryan":11876,"December":11877,"majom":11878,"bocsán":11879,"alátámaszt":11880,"MSZP":11881,"07":11882,"Ag":11883,"BBC":11884,"Dom":11885,"EL":11886,"Ipari":11887,"Kálm":11888,"Liszt":11889,"Loki":11890,"Mal":11891,"Matt":11892,"Sár":11893,"dzs":11894,"na":11895,"néni":11896,"ox":11897,"osz":11898,"Áron":11899,"##hird":11900,"##iának":11901,"##ifor":11902,"##rik":11903,"##szél":11904,"##anák":11905,"szeged":11906,"##ake":11907,"##olv":11908,"##oljuk":11909,"##ánia":11910,"##ikációs":11911,"##érzet":11912,"##íthatják":11913,"megismert":11914,"##águld":11915,"##eddig":11916,"##ilor":11917,"köze":11918,"szereztek":11919,"##ament":11920,"beáll":11921,"behozatal":11922,"bebizony":11923,"##usa":11924,"##rof":11925,"##udományi":11926,"##odást":11927,"inspir":11928,"jeles":11929,"előtérbe":11930,"##abeli":11931,"számokat":11932,"helyezte":11933,"Száz":11934,"adhat":11935,"vallott":11936,"kapja":11937,"##ításban":11938,"##almuk":11939,"napilap":11940,"##kedtek":11941,"ellenáll":11942,"követett":11943,"##import":11944,"támaszkod":11945,"időközben":11946,"viselő":11947,"belef":11948,"##műt":11949,"kism":11950,"termés":11951,"##esítése":11952,"##ávú":11953,"emelet":11954,"##inket":11955,"##andr":11956,"háborúval":11957,"##oper":11958,"betekint":11959,"edz":11960,"##képvis":11961,"hangzott":11962,"##ítói":11963,"kereső":11964,"miniszteri":11965,"mentés":11966,"balaton":11967,"rendőri":11968,"Amit":11969,"férfival":11970,"mutatkozott":11971,"javult":11972,"##üzenet":11973,"##földön":11974,"foglalt":11975,"dolgozunk":11976,"jegyzése":11977,"másikat":11978,"osztalék":11979,"##állítása":11980,"hatásai":11981,"játszanak":11982,"folytatják":11983,"energiahatékony":11984,"tölteni":11985,"növekedését":11986,"szükségünk":11987,"teljesíteni":11988,"terméket":11989,"lapnak":11990,"##roncs":11991,"bankkárt":11992,"németek":11993,"előrehal":11994,"tényleges":11995,"Balogh":11996,"exkluzív":11997,"javasolja":11998,"utazik":11999,"gyűlt":12000,"áramot":12001,"tengeren":12002,"láttak":12003,"lakáshitel":12004,"forgalomban":12005,"híján":12006,"akarták":12007,"produc":12008,"kutyák":12009,"indokolt":12010,"elegáns":12011,"listán":12012,"háztartási":12013,"maximális":12014,"tüdő":12015,"vizsgált":12016,"vizes":12017,"megdöbb":12018,"elhagyta":12019,"megpróbálta":12020,"megkezdték":12021,"ráta":12022,"választásokon":12023,"kikötő":12024,"megérkezett":12025,"háttérben":12026,"jelentősége":12027,"közbeszerzés":12028,"ideiglenesen":12029,"Demokratikus":12030,"Unit":12031,"határozottan":12032,"menedzsment":12033,"lovag":12034,"háromszoros":12035,"vigyáz":12036,"helyszíni":12037,"szélsőséges":12038,"##gentín":12039,"óceán":12040,"választópolg":12041,"##ouse":12042,"könnyedén":12043,"Kulturális":12044,"drasztikus":12045,"Margit":12046,"Sopron":12047,"Május":12048,"Legutóbb":12049,"provok":12050,"Értéktőzsde":12051,"Református":12052,".-":12053,"93":12054,"?”":12055,"Cap":12056,"Drag":12057,"EKB":12058,"Fre":12059,"Fog":12060,"Hu":12061,"Hí":12062,"Han":12063,"Ir":12064,"Ka":12065,"Kész":12066,"Kocs":12067,"Kecskem":12068,"Nav":12069,"Rog":12070,"Soha":12071,"Tánc":12072,"Vad":12073,"Vélemény":12074,"Zaporizzs":12075,"cel":12076,"cirk":12077,"düh":12078,"helikopter":12079,"kanyar":12080,"mal":12081,"mem":12082,"máig":12083,"mélt":12084,"roll":12085,"rock":12086,"tek":12087,"táb":12088,"##lent":12089,"##sanak":12090,"##sula":12091,"##hős":12092,"##halom":12093,"##őlt":12094,"##car":12095,"##ael":12096,"##meccs":12097,"##de":12098,"##yal":12099,"##vers":12100,"##vatart":12101,"##bír":12102,"##enék":12103,"##anu":12104,"##alatt":12105,"azokkal":12106,"szállt":12107,"szitu":12108,"száguld":12109,"##ásáért":12110,"##escu":12111,"eloszt":12112,"##osnak":12113,"##ítők":12114,"egyipt":12115,"##élő":12116,"##ottsági":12117,"##csökken":12118,"##ulva":12119,"csarnok":12120,"##aját":12121,"##aidő":12122,"##észett":12123,"érzése":12124,"##ökkel":12125,"gyújt":12126,"##egyes":12127,"kortárs":12128,"leggy":12129,"utak":12130,"adatot":12131,"százalékának":12132,"végzi":12133,"kétszáz":12134,"átállás":12135,"válnak":12136,"##ösi":12137,"követői":12138,"körbe":12139,"##zését":12140,"##ivált":12141,"##özi":12142,"látva":12143,"szakos":12144,"##öltöz":12145,"úgyhogy":12146,"életkor":12147,"##kolta":12148,"##éseken":12149,"##oboszló":12150,"csapatt":12151,"lakhat":12152,"államban":12153,"dönteni":12154,"menjen":12155,"célzott":12156,"beton":12157,"##icz":12158,"##viselés":12159,"szeretik":12160,"városvezetés":12161,"területre":12162,"tech":12163,"teheti":12164,"jövőt":12165,"hónapot":12166,"személyt":12167,"beszélnek":12168,"hajlék":12169,"eredményeit":12170,"szállítottak":12171,"Amazon":12172,"##ítésének":12173,"túlságosan":12174,"gázszállítás":12175,"gyermekük":12176,"távozott":12177,"jobboldali":12178,"irányt":12179,"akárcsak":12180,"megszor":12181,"kérdésben":12182,"jegyében":12183,"fokot":12184,"szükséglet":12185,"polgármest":12186,"alkalmazás":12187,"csoportban":12188,"költségeket":12189,"azokra":12190,"ellátott":12191,"Argentín":12192,"köszönetet":12193,"hátral":12194,"hiányzott":12195,"ütött":12196,"gyártók":12197,"részletek":12198,"részletesen":12199,"hitelek":12200,"valószínűséggel":12201,"kézműves":12202,"tapasztalatok":12203,"##rodalom":12204,"történetének":12205,"kicsik":12206,"##ows":12207,"évtizedes":12208,"Bizony":12209,"kutatások":12210,"többiek":12211,"ítélte":12212,"tesztet":12213,"bevezetését":12214,"tehetséges":12215,"felvételen":12216,"lényege":12217,"sajtóban":12218,"kilencedik":12219,"felújított":12220,"tévés":12221,"hallgató":12222,"próbálták":12223,"megtalálható":12224,"védelmét":12225,"Holland":12226,"metró":12227,"mutattak":12228,"innováció":12229,"innovatív":12230,"Különösen":12231,"sújtotta":12232,"lebonyol":12233,"intelligenci":12234,"ítélték":12235,"levélben":12236,"##III":12237,"##terjeszt":12238,"valahogy":12239,"hármas":12240,"kiegyensúlyozott":12241,"Ausztriában":12242,"Eszter":12243,"Párizsban":12244,"közreműködés":12245,"jótékonysági":12246,"kirobban":12247,"megérdemelt":12248,"bicikl":12249,"energiahordozók":12250,"hordónként":12251,"Dunántúlon":12252,"Statisztikai":12253,"Ursula":12254,"Pintér":12255,"Guardian":12256,"Baj":12257,"Es":12258,"Ger":12259,"Géz":12260,"Hagy":12261,"Kih":12262,"Konz":12263,"Mér":12264,"Mozg":12265,"Rövid":12266,"Vel":12267,"Vit":12268,"Vivi":12269,"gramm":12270,"led":12271,"noha":12272,"sej":12273,"taj":12274,"túr":12275,"tróf":12276,"##tok":12277,"##gium":12278,"##pul":12279,"##rot":12280,"##mát":12281,"##járt":12282,"##jéről":12283,"##yn":12284,"##24":12285,"##40":12286,"##erán":12287,"##erét":12288,"##ane":12289,"##annia":12290,"##éses":12291,"##arat":12292,"##élked":12293,"##ras":12294,"##sztár":12295,"##uljon":12296,"csok":12297,"felir":12298,"##ogan":12299,"kihely":12300,"kijár":12301,"szerettem":12302,"##ságában":12303,"lefoly":12304,"##azar":12305,"minap":12306,"##ukon":12307,"leggyors":12308,"legsúlyosabb":12309,"emészt":12310,"helyére":12311,"##esztően":12312,"tudjanak":12313,"##isztikus":12314,"amelyekkel":12315,"##hozni":12316,"végezte":12317,"újonc":12318,"##eihez":12319,"##veit":12320,"kétoldalú":12321,"válassz":12322,"Egyház":12323,"leszám":12324,"##házy":12325,"műfaj":12326,"időz":12327,"árus":12328,"látunk":12329,"láthatjuk":12330,"játssz":12331,"ugyanolyan":12332,"##árstop":12333,"##felület":12334,"##ermék":12335,"hozzák":12336,"##úló":12337,"##ászár":12338,"##esítés":12339,"proc":12340,"döntését":12341,"üzent":12342,"##ünch":12343,"haltak":12344,"halottak":12345,"érdeke":12346,"érdekel":12347,"nővér":12348,"megtalálták":12349,"Andi":12350,"hónapjában":12351,"##ásától":12352,"##level":12353,"tagadta":12354,"kilow":12355,"Amerikai":12356,"##értékben":12357,"##értékelő":12358,"híresség":12359,"##ossággal":12360,"Köztársaság":12361,"használó":12362,"emelkednek":12363,"akarok":12364,"akarjuk":12365,"csapatának":12366,"órára":12367,"##tárgy":12368,"##anyagok":12369,"Ennél":12370,"fizetnek":12371,"Márk":12372,"veszélybe":12373,"függőség":12374,"iskolába":12375,"erővel":12376,"különbséget":12377,"diadalmas":12378,"foglalkozott":12379,"építése":12380,"nyilvánosan":12381,"hívják":12382,"bankszáml":12383,"##abdarúg":12384,"vádolta":12385,"élelmiszerárak":12386,"javasolta":12387,"bemutatás":12388,"használták":12389,"kifejleszt":12390,"honfit":12391,"részvénypiac":12392,"kísérő":12393,"megerősö":12394,"mezőgazdaság":12395,"megjelenés":12396,"##érdek":12397,"Sokszor":12398,"bírságot":12399,"Olaf":12400,"bemutatta":12401,"tilalom":12402,"alakulhat":12403,"Egyetemen":12404,"Újpest":12405,"lakosok":12406,"##körű":12407,"üzemanyagot":12408,"időtartam":12409,"hatékonyan":12410,"##érkezett":12411,"lényeges":12412,"irodalom":12413,"##őjének":12414,"Real":12415,"Ezenkívül":12416,"egymástól":12417,"elképzelhetetlen":12418,"bennem":12419,"##hassák":12420,"veszteséget":12421,"elfogadhatatlan":12422,"nyeremény":12423,"bajnokságon":12424,"lemondott":12425,"vehetnek":12426,"fuvar":12427,"migrációs":12428,"felszerelés":12429,"rezsicsökkentést":12430,"összefüggésben":12431,"recept":12432,"étterm":12433,"könyvel":12434,"köszöntötte":12435,"##uhanszki":12436,"centiméter":12437,"születésnapját":12438,"bejegyzésében":12439,"Game":12440,"őszinte":12441,"##vadász":12442,"Frank":12443,"India":12444,"Stars":12445,"eljutott":12446,"Nekem":12447,"összefogás":12448,"Britannia":12449,"garantált":12450,"szemlélet":12451,"ivó":12452,"##gyulladt":12453,"elhangzott":12454,"franci":12455,"##mozgás":12456,"díjaz":12457,"Kollég":12458,"Paks":12459,"elnevezésű":12460,"szektorban":12461,"##böszörmény":12462,"sehol":12463,"Equilor":12464,"Törvényszék":12465,"hadművelet":12466,"Cristiano":12467,"alapkamat":12468,"krónikus":12469,"Bundes":12470,"likvid":12471,"majomhim":12472,"Kálmán":12473,"01":12474,"DA":12475,"Hor":12476,"Il":12477,"Jenő":12478,"Kim":12479,"Luc":12480,"Múlt":12481,"Momentum":12482,"Nat":12483,"Néz":12484,"OP":12485,"Open":12486,"Pol":12487,"Ram":12488,"Réka":12489,"Si":12490,"Seb":12491,"Súly":12492,"Vod":12493,"Veres":12494,"XX":12495,"fúj":12496,"kánik":12497,"ly":12498,"láss":12499,"meny":12500,"pof":12501,"peking":12502,"sí":12503,"tipp":12504,"with":12505,"öz":12506,"üld":12507,"##uf":12508,"##iára":12509,"##válság":12510,"##ísér":12511,"##úv":12512,"##ellt":12513,"##gyerek":12514,"##atú":12515,"##atik":12516,"sza":12517,"##álva":12518,"megvis":12519,"##ségesen":12520,"##csoly":12521,"##reszt":12522,"felelő":12523,"lefelé":12524,"##épett":12525,"##öngész":12526,"##uknak":12527,"évében":12528,"##együttes":12529,"##odród":12530,"##róba":12531,"előr":12532,"állítottak":12533,"nagyváros":12534,"##ívis":12535,"helyek":12536,"Szav":12537,"tervet":12538,"végzik":12539,"##almakat":12540,"jelentettek":12541,"telek":12542,"##bef":12543,"mindenesetre":12544,"küls":12545,"részvét":12546,"##ásokról":12547,"élünk":12548,"országa":12549,"elmélet":12550,"alapított":12551,"##műsor":12552,"kormánypárti":12553,"járunk":12554,"esetről":12555,"indította":12556,"indulás":12557,"##gató":12558,"##adással":12559,"lakót":12560,"##ózsa":12561,"különleg":12562,"okokból":12563,"##rior":12564,"hazud":12565,"háromnegyed":12566,"családoknak":12567,"pénzügy":12568,"közelgő":12569,"betör":12570,"betilt":12571,"félt":12572,"hangos":12573,"##ohár":12574,"jogsért":12575,"##ölni":12576,"nemzetbiztonsági":12577,"költött":12578,"kapcsolatba":12579,"Orig":12580,"Gyógy":12581,"létező":12582,"##tartás":12583,"kard":12584,"jövője":12585,"eddiginél":12586,"##antikus":12587,"##efont":12588,"hosszas":12589,"hosszút":12590,"vidéken":12591,"fiatalokat":12592,"érintik":12593,"fejlesztésére":12594,"Eng":12595,"szavait":12596,"vízzel":12597,"kereszteződés":12598,"Márpedig":12599,"megoldásokat":12600,"földre":12601,"szennyv":12602,"##off":12603,"záráshoz":12604,"hiányában":12605,"segítségnyújt":12606,"eseményt":12607,"érdemben":12608,"aprop":12609,"németországi":12610,"temetés":12611,"gyártási":12612,"hetven":12613,"kirúg":12614,"harcot":12615,"zajlanak":12616,"##úszoboszló":12617,"tevékenységet":12618,"honvéd":12619,"honnan":12620,"izom":12621,"kedvezőbb":12622,"megerősítették":12623,"támadásban":12624,"Kore":12625,"társaságában":12626,"fölény":12627,"lassú":12628,"##vállalatok":12629,"szerencsét":12630,"csomagot":12631,"felder":12632,"megjelentek":12633,"szenvedély":12634,"szakaszán":12635,"környéken":12636,"erősödik":12637,"telephely":12638,"munkavégzés":12639,"fűtő":12640,"ajánlatot":12641,"táncos":12642,"ereje":12643,"megtartott":12644,"bázisponttal":12645,"nyarán":12646,"Hatalmas":12647,"Mindezek":12648,"##bérlet":12649,"Nyíregyházán":12650,"tábornok":12651,"eleji":12652,"előrejelzése":12653,"ellenfele":12654,"##iparban":12655,"ételek":12656,"kibocsátás":12657,"Szakszervezet":12658,"nyersolaj":12659,"karrierj":12660,"Figy":12661,"megtakarítás":12662,"Fejér":12663,"beszerzési":12664,"##indexe":12665,"skál":12666,"báty":12667,"##cskán":12668,"holttestét":12669,"##ellenőr":12670,"kegyetlen":12671,"hétköznapi":12672,"pályafutása":12673,"megmérett":12674,"Alexandra":12675,"nyilvánvalóan":12676,"Művészeti":12677,"Teljesen":12678,"Ellen":12679,"Kérdés":12680,"nulla":12681,"Kisvárda":12682,"##MDSZ":12683,"##beszélget":12684,"haszon":12685,"##hamarabb":12686,"kimenetel":12687,"buzd":12688,"radikális":12689,"Óriási":12690,"megdupláz":12691,"pekingi":12692,"06":12693,"Bárm":12694,"Curt":12695,"Et":12696,"Fort":12697,"Fradi":12698,"G7":12699,"Hszi":12700,"Ifjú":12701,"Január":12702,"Mus":12703,"Mutat":12704,"Merc":12705,"Ros":12706,"RMDSZ":12707,"So":12708,"Wall":12709,"cáf":12710,"del":12711,"dőlt":12712,"figur":12713,"gon":12714,"gőz":12715,"kem":12716,"kút":12717,"káp":12718,"kukor":12719,"kutak":12720,"mág":12721,"ró":12722,"éh":12723,"éd":12724,"##zuk":12725,"##iók":12726,"##növ":12727,"##rus":12728,"##főt":12729,"##OSZ":12730,"##PS":12731,"##szenny":12732,"##ereszt":12733,"##eráp":12734,"szek":12735,"##áruház":12736,"##akadt":12737,"##álunk":12738,"##oktatási":12739,"##ezzék":12740,"elcs":12741,"elolt":12742,"##ülése":12743,"##ékkel":12744,"##edtek":12745,"##élni":12746,"##itz":12747,"felmel":12748,"##agand":12749,"Azov":12750,"érezni":12751,"##usson":12752,"##hatom":12753,"##roham":12754,"gyarap":12755,"##uda":12756,"##odox":12757,"legdrág":12758,"##lywood":12759,"nagyrészt":12760,"him":12761,"##ünkön":12762,"mindenben":12763,"ellenséges":12764,"mondván":12765,"##ásaink":12766,"##ósa":12767,"##tatják":12768,"munkálat":12769,"belváros":12770,"emberöl":12771,"##ársai":12772,"##felügy":12773,"életünk":12774,"életveszélyes":12775,"hozzász":12776,"valamikor":12777,"##ória":12778,"váltani":12779,"##pontot":12780,"##várost":12781,"##őzik":12782,"termeszt":12783,"##étele":12784,"##játok":12785,"különben":12786,"ügylet":12787,"játékkal":12788,"emelés":12789,"Cser":12790,"célú":12791,"célokat":12792,"pénzintézet":12793,"reális":12794,"védi":12795,"választotta":12796,"törekszik":12797,"lépések":12798,"vonult":12799,"vonattal":12800,"1500":12801,"Mindent":12802,"##osságot":12803,"emelkedést":12804,"##jüket":12805,"csapatát":12806,"foglaltak":12807,"érintette":12808,"biztonságot":12809,"jegyek":12810,"találkoztak":12811,"vízben":12812,"hatásait":12813,"beteget":12814,"átlagban":12815,"tervezték":12816,"megkér":12817,"autonóm":12818,"ünnepek":12819,"oldala":12820,"eleme":12821,"tájékoztató":12822,"válaszul":12823,"szavazás":12824,"2006":12825,"nyitotta":12826,"apuk":12827,"környezeti":12828,"környezetet":12829,"anyagokat":12830,"évekig":12831,"csökkenése":12832,"tárgyalás":12833,"kényelmes":12834,"próbálnak":12835,"októberi":12836,"kialakítása":12837,"orvoshoz":12838,"repülőt":12839,"bármely":12840,"mozgást":12841,"mozgalom":12842,"állapotát":12843,"Unióban":12844,"kettőt":12845,"mennyiségben":12846,"valakinek":12847,"januári":12848,"zenét":12849,"csatlakozik":12850,"feltételeket":12851,"biológiai":12852,"kalkul":12853,"telefonszám":12854,"##léti":12855,"boldogság":12856,"betegségben":12857,"kimarad":12858,"szerződések":12859,"utasok":12860,"hálózati":12861,"vadon":12862,"reagálni":12863,"kislánya":12864,"##intézked":12865,"partnere":12866,"torony":12867,"##díja":12868,"maguknak":12869,"nyelven":12870,"hallgatók":12871,"dokument":12872,"finanszírozás":12873,"veszteségeket":12874,"kezelése":12875,"Hollandi":12876,"reprez":12877,"keményen":12878,"ápoló":12879,"versenyzője":12880,"kivitelező":12881,"480":12882,"##veszter":12883,"megszűnik":12884,"profil":12885,"professz":12886,"##unior":12887,"sikertelen":12888,"szálloda":12889,"innovációs":12890,"koncentráció":12891,"látszott":12892,"hátrányos":12893,"szimb":12894,"vallotta":12895,"kihasználva":12896,"spórol":12897,"előállították":12898,"Britanni":12899,"medencében":12900,"cigar":12901,"határidős":12902,"kiegyenl":12903,"csúszott":12904,"Europ":12905,"Mezőköves":12906,"kérdőív":12907,"MOL":12908,"Rákóczi":12909,"migránsok":12910,"BMW":12911,"objekt":12912,"feltehetően":12913,"Egészségügyi":12914,"laboratórium":12915,"legkevesebb":12916,"Augusztus":12917,"jogállamisági":12918,"Hamarosan":12919,"depresszió":12920,"dízel":12921,"harckocs":12922,"megszabad":12923,"Fülöp":12924,"legnehezebb":12925,"szegedi":12926,"United":12927,"Vodaf":12928,"legdrágább":12929,"reprezent":12930,"Digit":12931,"Fal":12932,"Fél":12933,"Fanni":12934,"Glob":12935,"IM":12936,"Lil":12937,"Labdarúg":12938,"Sar":12939,"Test":12940,"Tri":12941,"Vilm":12942,"World":12943,"cívis":12944,"fossz":12945,"gál":12946,"jutó":12947,"kuk":12948,"parad":12949,"prec":12950,"rács":12951,"rept":12952,"tes":12953,"vinni":12954,"Ír":12955,"éget":12956,"##kincs":12957,"##káni":12958,"##áik":12959,"##vak":12960,"##viszony":12961,"##fiz":12962,"##úszt":12963,"##űek":12964,"##OS":12965,"##HO":12966,"##elvény":12967,"##eki":12968,"széria":12969,"##ement":12970,"##embe":12971,"##ezon":12972,"elszabad":12973,"hova":12974,"##ítót":12975,"megemel":12976,"megbecs":12977,"megawatt":12978,"egyharmad":12979,"##apt":12980,"hogyha":12981,"##rac":12982,"##iter":12983,"##ségük":12984,"##adat":12985,"##nim":12986,"nemes":12987,"kivezet":12988,"##ajtó":12989,"##hetne":12990,"érv":12991,"##odr":12992,"jelzett":12993,"##agyaráz":12994,"##attant":12995,"nagyszabású":12996,"##teher":12997,"tartalom":12998,"magány":12999,"##örvény":13000,"##teti":13001,"Együtt":13002,"követik":13003,"látnak":13004,"belek":13005,"belát":13006,"belesz":13007,"embercsemp":13008,"jócskán":13009,"termelési":13010,"##esíti":13011,"elnökválaszt":13012,"állampapír":13013,"haladék":13014,"##andin":13015,"190":13016,"akikkel":13017,"családokat":13018,"céllal":13019,"konstr":13020,"pénzből":13021,"értékpapír":13022,"##rangl":13023,"veszített":13024,"védeni":13025,"biztosította":13026,"##osztás":13027,"rendszerét":13028,"rendőrséget":13029,"párharc":13030,"párkapcsol":13031,"útnak":13032,"eredményét":13033,"kerülne":13034,"lehetőséggel":13035,"híreket":13036,"stb":13037,"##alakat":13038,"akarunk":13039,"nélkülöz":13040,"szembenéz":13041,"Erős":13042,"percre":13043,"figyelmeztette":13044,"fizetnie":13045,"Aleksz":13046,"energiaellát":13047,"terveznek":13048,"hadgyakor":13049,"légkör":13050,"elfogadás":13051,"vendége":13052,"fordulat":13053,"rosszindulatú":13054,"##grád":13055,"válaszolta":13056,"árad":13057,"önkormányzata":13058,"koronavírusos":13059,"balesetek":13060,"olajemb":13061,"egyenruh":13062,"##ulásának":13063,"kialakítani":13064,"kézdivásárhelyi":13065,"korlátoz":13066,"beleegy":13067,"érdeklődő":13068,"gyengébb":13069,"indulhat":13070,"kormányzója":13071,"##unytak":13072,"Olimp":13073,"igyekeztek":13074,"aggály":13075,"működni":13076,"rakéták":13077,"alakulnak":13078,"kockázatok":13079,"ígérte":13080,"csúcsot":13081,"fizettek":13082,"szerencsés":13083,"##éseire":13084,"sebesült":13085,"hatékonyabb":13086,"ellop":13087,"utalva":13088,"bízom":13089,"Sajtó":13090,"értékesítési":13091,"valósul":13092,"elkezdte":13093,"étrend":13094,"erejét":13095,"Főügyészség":13096,"##módos":13097,"interjúj":13098,"bukkan":13099,"Instagramon":13100,"elkölt":13101,"pozíciót":13102,"mérsékelt":13103,"kiterjed":13104,"állandóan":13105,"##okraták":13106,"légierő":13107,"Moszkvában":13108,"spórolni":13109,"székelyföldi":13110,"simán":13111,"Érdekes":13112,"Innov":13113,"Flor":13114,"##oszlop":13115,"bekövetkezett":13116,"kétharmada":13117,"átlátható":13118,"##különböz":13119,"csecsem":13120,"Dmitrij":13121,"fennak":13122,"tetszett":13123,"Gondol":13124,"felesleges":13125,"Angeles":13126,"koordin":13127,"##levél":13128,"demokrácia":13129,"feljelentést":13130,"visszaszor":13131,"Március":13132,"gerinc":13133,"kompromissz":13134,"hajléktalan":13135,"kilowatt":13136,"Vodafone":13137,"900":13138,"ATV":13139,"Bán":13140,"Call":13141,"Dani":13142,"Jók":13143,"Jack":13144,"Lin":13145,"MA":13146,"Rock":13147,"Sem":13148,"Soros":13149,"Történ":13150,"gomoly":13151,"jétől":13152,"pék":13153,"pezs":13154,"rad":13155,"sug":13156,"teng":13157,"téve":13158,"völgy":13159,"##löv":13160,"##lását":13161,"##zunk":13162,"##hor":13163,"##őny":13164,"##gar":13165,"##my":13166,"##dai":13167,"##jává":13168,"##baj":13169,"##fül":13170,"##így":13171,"##RA":13172,"##eneg":13173,"##enst":13174,"##aty":13175,"##ásakor":13176,"##ásmód":13177,"##egély":13178,"##emellett":13179,"##ésszel":13180,"##iként":13181,"##énak":13182,"megírta":13183,"megkülönböz":13184,"egyeztetett":13185,"##ékot":13186,"##edve":13187,"##itól":13188,"##ségére":13189,"##reet":13190,"csíp":13191,"kiind":13192,"leendő":13193,"amennyi":13194,"##utakon":13195,"##szert":13196,"előterjeszt":13197,"##attuk":13198,"##kalm":13199,"Szél":13200,"adata":13201,"kapják":13202,"##estek":13203,"##hozam":13204,"##umok":13205,"végezni":13206,"fogom":13207,"##ebbé":13208,"hatalm":13209,"átáll":13210,"várandós":13211,"részleges":13212,"válságot":13213,"##ásainak":13214,"árult":13215,"munkab":13216,"munkájuk":13217,"alapja":13218,"bels":13219,"kormánypárt":13220,"kisb":13221,"hétben":13222,"egyikük":13223,"elnöknek":13224,"közösséget":13225,"főúton":13226,"családjával":13227,"cégnek":13228,"célunk":13229,"kongr":13230,"félelm":13231,"szereplés":13232,"területét":13233,"lépése":13234,"megyünk":13235,"délkeleti":13236,"kiló":13237,"Gyakor":13238,"téri":13239,"##ítéseket":13240,"##ítésével":13241,"##ítéséhez":13242,"alakja":13243,"támogatással":13244,"##esszus":13245,"##elésére":13246,"elmondták":13247,"##zettel":13248,"órák":13249,"tisztviselők":13250,"katonát":13251,"legyünk":13252,"##allg":13253,"Deák":13254,"elvitt":13255,"mozgat":13256,"##jaira":13257,"piacán":13258,"halálra":13259,"szabálysért":13260,"erőforr":13261,"változtat":13262,"helyszínt":13263,"fogyasztási":13264,"ismételt":13265,"címét":13266,"segítségre":13267,"2007":13268,"nyitottak":13269,"tanulni":13270,"megállapította":13271,"megállapították":13272,"filmek":13273,"filmben":13274,"sérültek":13275,"intézkedést":13276,"vezény":13277,"küzdő":13278,"szorong":13279,"csökkenő":13280,"tárgyalni":13281,"Mostan":13282,"írtunk":13283,"gyanúj":13284,"áramtalan":13285,"tengerpart":13286,"növelése":13287,"felvenni":13288,"##szinten":13289,"kérdezte":13290,"villám":13291,"##eljen":13292,"##eljék":13293,"örökös":13294,"##ezzenek":13295,"felhívja":13296,"cikke":13297,"folyamatot":13298,"földgázt":13299,"felvételi":13300,"megszerzett":13301,"Rácz":13302,"visszavág":13303,"koncertet":13304,"sérülést":13305,"Nyugati":13306,"Másrészt":13307,"finanszírozási":13308,"ülést":13309,"lakóház":13310,"lakóhely":13311,"elfogadni":13312,"edzője":13313,"##ormon":13314,"Mátyás":13315,"szexi":13316,"megújult":13317,"előadásában":13318,"Ausztria":13319,"szerelme":13320,"##azonos":13321,"változásokat":13322,"kiemelten":13323,"kezelésére":13324,"szárazföldi":13325,"Erdélyi":13326,"Erdogan":13327,"elbocsát":13328,"értesítette":13329,"Blikknek":13330,"katasztrófavédelmi":13331,"buli":13332,"ártatlan":13333,"Index":13334,"Ügyészség":13335,"cselekv":13336,"tanácsadója":13337,"felbont":13338,"Érdekesség":13339,"statisztik":13340,"##helyettes":13341,"elrendelte":13342,"Dancing":13343,"geop":13344,"Kanada":13345,"elfogy":13346,"Járásbíróság":13347,"##kategór":13348,"##ográfi":13349,"székhelyű":13350,"horgász":13351,"hátterében":13352,"Folytat":13353,"police":13354,"türelm":13355,"bölcsőd":13356,"lenyűg":13357,"kikapott":13358,"fenyegeti":13359,"##ivárgott":13360,"Liu":13361,"Család":13362,"beszélgettünk":13363,"muszáj":13364,"szemtanú":13365,"követelmény":13366,"valamelyest":13367,"páncélozott":13368,"##mérkőzés":13369,"közgazdász":13370,"Kocsis":13371,"hátralévő":13372,"ivóvíz":13373,"hozzászól":13374,"08":13375,"ES":13376,"Eger":13377,"Idő":13378,"Juhász":13379,"Katon":13380,"Kics":13381,"Keleti":13382,"Mont":13383,"Pen":13384,"Pesz":13385,"Ro":13386,"Rossz":13387,"Stor":13388,"Túl":13389,"Tay":13390,"Vis":13391,"bok":13392,"bill":13393,"cit":13394,"domin":13395,"fekszik":13396,"kok":13397,"posta":13398,"ron":13399,"tás":13400,"tesszük":13401,"ujj":13402,"##lig":13403,"##lök":13404,"##zor":13405,"##hu":13406,"##hosszabb":13407,"##gu":13408,"##cukor":13409,"##pa":13410,"##pap":13411,"##rúg":13412,"##mai":13413,"##múl":13414,"##dög":13415,"##jós":13416,"##vát":13417,"##vent":13418,"##vizsg":13419,"##fény":13420,"##úrt":13421,"##KI":13422,"##szünk":13423,"##széken":13424,"##erben":13425,"##ásnál":13426,"##olin":13427,"##olcsó":13428,"##esk":13429,"##esés":13430,"elgondol":13431,"##énes":13432,"##ítőt":13433,"##átok":13434,"megij":13435,"##tabil":13436,"felcs":13437,"felbor":13438,"##entin":13439,"##ote":13440,"érvel":13441,"érezzük":13442,"alb":13443,"begyűjt":13444,"##cip":13445,"##cium":13446,"nyel":13447,"koránt":13448,"legolcsó":13449,"##berend":13450,"helyette":13451,"Sza":13452,"lehetünk":13453,"minta":13454,"##édelmi":13455,"vagyont":13456,"##umb":13457,"másként":13458,"napokon":13459,"kétéves":13460,"igent":13461,"orr":13462,"köré":13463,"##ima":13464,"fix":13465,"munkával":13466,"viseli":13467,"##évők":13468,"alapul":13469,"belev":13470,"##urk":13471,"##urd":13472,"járat":13473,"sorozatot":13474,"##vezér":13475,"##felúj":13476,"##eltem":13477,"kezdeti":13478,"fejezet":13479,"kérésére":13480,"váltotta":13481,"csapattal":13482,"##ávon":13483,"##enget":13484,"segítettek":13485,"##elemmel":13486,"szintjén":13487,"##telj":13488,"játéka":13489,"hallat":13490,"családban":13491,"családnak":13492,"##kodás":13493,"célkit":13494,"##képzés":13495,"##ical":13496,"érti":13497,"választást":13498,"választani":13499,"vonni":13500,"színművész":13501,"költő":13502,"##úzió":13503,"versenyben":13504,"ötszáz":13505,"mutatni":13506,"alakultak":13507,"nyomozó":13508,"irányító":13509,"csapatokat":13510,"gondolni":13511,"foglalja":13512,"elhanyag":13513,"megvit":13514,"##almasabb":13515,"##anyagot":13516,"nézet":13517,"Nyrt":13518,"kínált":13519,"##állítási":13520,"készülni":13521,"Ukrajnával":13522,"##ratív":13523,"csatár":13524,"##arkt":13525,"alkalmazások":13526,"szabálytalan":13527,"aláírt":13528,"otthonról":13529,"barátok":13530,"magától":13531,"foglalkoztatás":13532,"inflációval":13533,"kikerül":13534,"##úrta":13535,"##lini":13536,"fotós":13537,"ideális":13538,"Ugyancsak":13539,"idejét":13540,"egyszeri":13541,"egyszerűbb":13542,"legtöbbször":13543,"jelentkező":13544,"terjesz":13545,"februári":13546,"kutatása":13547,"rezsik":13548,"##ahagy":13549,"zöldség":13550,"prakt":13551,"megnyilván":13552,"fehérek":13553,"posztolt":13554,"posztjában":13555,"népszerűs":13556,"forgalomba":13557,"cikkében":13558,"bevételek":13559,"demokratikus":13560,"megfert":13561,"tartalmazza":13562,"változatlanul":13563,"bennük":13564,"olimpia":13565,"vágott":13566,"megtalálni":13567,"##nyugat":13568,"nyíltan":13569,"hidegebb":13570,"generációs":13571,"vehet":13572,"##enkénti":13573,"előrejelzések":13574,"megőrzése":13575,"tiszteletben":13576,"birtokában":13577,"örülök":13578,"elbír":13579,"metaver":13580,"Richárd":13581,"operatív":13582,"Szegeden":13583,"látszólag":13584,"ezüstérmes":13585,"körülményeit":13586,"Amerikában":13587,"tájakon":13588,"közbeszerzési":13589,"tegye":13590,"makói":13591,"kiválasztott":13592,"pályafutását":13593,"csinos":13594,"potenciális":13595,"Donyeck":13596,"ásvány":13597,"energiatakarék":13598,"propagand":13599,"büntetőeljárást":13600,"bolygó":13601,"tizedik":13602,"##goritmus":13603,"karrierje":13604,"Paul":13605,"emlékezetes":13606,"George":13607,"házigazdák":13608,"röpl":13609,"offenzív":13610,"Odessz":13611,"leszögezte":13612,"Ronaldo":13613,"International":13614,"felrobbant":13615,"felelőtlen":13616,"szennyvíz":13617,"megmérettetés":13618,"Av":13619,"Ass":13620,"Cél":13621,"Ep":13622,"FI":13623,"Ford":13624,"Hid":13625,"Ján":13626,"Kelem":13627,"Kop":13628,"Kulcs":13629,"Lesz":13630,"Mór":13631,"MKB":13632,"Sol":13633,"Smit":13634,"UN":13635,"We":13636,"anim":13637,"bol":13638,"bitcoin":13639,"böngész":13640,"genet":13641,"hül":13642,"katás":13643,"land":13644,"mulat":13645,"prior":13646,"ro":13647,"tort":13648,"teny":13649,"ök":13650,"##lán":13651,"##lop":13652,"##sw":13653,"##sünk":13654,"##hit":13655,"##helikopter":13656,"##cent":13657,"##áink":13658,"##mens":13659,"##dzs":13660,"##vin":13661,"##volt":13662,"##óna":13663,"##úvár":13664,"##xt":13665,"##etét":13666,"##szár":13667,"##szönt":13668,"##ater":13669,"##anc":13670,"##ale":13671,"##alát":13672,"##ánsz":13673,"elzár":13674,"elkülön":13675,"elpuszt":13676,"##éta":13677,"##edet":13678,"##rabban":13679,"##adósság":13680,"felkel":13681,"##amer":13682,"##izm":13683,"bevez":13684,"##ukkan":13685,"##odnak":13686,"jelző":13687,"##avas":13688,"korabeli":13689,"leggyakor":13690,"előírt":13691,"előfordult":13692,"állva":13693,"többségi":13694,"##őkre":13695,"##eves":13696,"Szend":13697,"Szív":13698,"##ciós":13699,"százalékon":13700,"amelyekben":13701,"végét":13702,"##tetett":13703,"részének":13704,"Egyszer":13705,"Egyrészt":13706,"kezelt":13707,"##ációval":13708,"##dését":13709,"vezetni":13710,"##öltött":13711,"##lanti":13712,"világossá":13713,"##osszolg":13714,"józan":13715,"döntenek":13716,"##telep":13717,"játékokat":13718,"viszik":13719,"előttünk":13720,"Európát":13721,"##ványos":13722,"##rigy":13723,"haladt":13724,"hazatér":13725,"##inka":13726,"menü":13727,"Csilla":13728,"háborúnak":13729,"cége":13730,"kedvelt":13731,"pénzek":13732,"hangszer":13733,"##színház":13734,"veszít":13735,"városrész":13736,"területe":13737,"vezetőjét":13738,"jogok":13739,"maradvány":13740,"túlzott":13741,"##ossága":13742,"kitűz":13743,"##ogatni":13744,"##esebbé":13745,"irányítást":13746,"régebbi":13747,"okoztak":13748,"örvend":13749,"tisztes":13750,"kérdéses":13751,"katonákat":13752,"##ext":13753,"##exik":13754,"elérése":13755,"elvileg":13756,"játszót":13757,"piacok":13758,"piacot":13759,"légicsap":13760,"110":13761,"##ándok":13762,"bajnokságot":13763,"utcára":13764,"mértékét":13765,"segítségére":13766,"##asznált":13767,"pártelnök":13768,"Vikt":13769,"tényezők":13770,"forma":13771,"felelősséget":13772,"fogadni":13773,"felhasználói":13774,"##afon":13775,"Zsig":13776,"Ugyanis":13777,"megmozdul":13778,"drágulása":13779,"támadta":13780,"kifejezés":13781,"Többek":13782,"előnyös":13783,"érvényesül":13784,"indulnak":13785,"támadásokat":13786,"feltételezett":13787,"tetej":13788,"hidrogén":13789,"##áival":13790,"##egedű":13791,"becsült":13792,"becslése":13793,"technológiát":13794,"hajtottak":13795,"idézett":13796,"megszerezte":13797,"tudomás":13798,"monitor":13799,"valósult":13800,"szobor":13801,"elképzelni":13802,"felsőoktatási":13803,"vásárlási":13804,"elkerülni":13805,"merész":13806,"játszottunk":13807,"kísérleti":13808,"feldolgozott":13809,"garanci":13810,"elismerés":13811,"napjaink":13812,"készítettek":13813,"önkéntesek":13814,"szegmens":13815,"minősül":13816,"megkérdezett":13817,"Belgium":13818,"tartósan":13819,"fronton":13820,"lőttek":13821,"éttermek":13822,"##ambol":13823,"tekintetben":13824,"professzor":13825,"##bizottság":13826,"##onyecki":13827,"évforduló":13828,"kávéz":13829,"Brassó":13830,"##aganda":13831,"ügyvezetője":13832,"szervek":13833,"csinált":13834,"reagálva":13835,"elteltével":13836,"Sepsiszentgyörgyön":13837,"baja":13838,"elhúzódó":13839,"Kereszt":13840,"dicsér":13841,"érettség":13842,"kifogás":13843,"megtanul":13844,"pilót":13845,"rovar":13846,"Somogy":13847,"Szövetsége":13848,"##erniz":13849,"törvényjavaslat":13850,
[...]
