{"version":"1.0","truncation":null,"padding":null,"added_tokens":[{"id":0,"special":true,"content":"<UNK>","single_word":false,"lstrip":false,"rstrip":false,"normalized":false},{"id":1,"special":true,"content":"<SEP>","single_word":false,"lstrip":false,"rstrip":false,"normalized":false},{"id":2,"special":true,"content":"<MASK>","single_word":false,"lstrip":false,"rstrip":false,"normalized":false},{"id":3,"special":true,"content":"<CLS>","single_word":false,"lstrip":false,"rstrip":false,"normalized":false}],"normalizer":null,"pre_tokenizer":{"type":"Whitespace"},"post_processor":null,"decoder":null,"model":{"type":"Unigram","unk_id":0,"vocab":[["<UNK>",0.0],["<SEP>",0.0],["<MASK>",0.0],["<CLS>",0.0],["a",-2.691773888443681],[",",-3.253432143512267],["t",-3.432938423509869],[".",-3.6693887160438283],["i",-3.6873276489022686],["az",-4.214344321783399],["és",-4.335013577092104],["n",-4.343491585925058],["k",-4.355513906789286],["e",-4.562182460318262],["A",-4.591226267625277],["s",-4.641060404555821],["-",-4.745762547248525],["is",-4.854756684186569],["el",-4.904901917658599],["hogy",-4.966882300986526],["en",-5.0123053031365785],["z",-5.01684389984351],["m",-5.047437047879017],["meg",-5.0662248086191255],["g",-5.101595711376282],["ok",-5.2409418481368775],["ek",-5.261431843004553],["egy",-5.266477671422042],["et",-5.325800555962951],["ó",-5.358798477603408],["r",-5.363748326414608],["ki",-5.395895013596855],["on",-5.3981021453127465],["ő",-5.401059482557866],["ban",-5.429377113532331],["ni",-5.438895611439779],["nem",-5.453585643873918],["l",-5.464793492072436],["sz",-5.514775977990725],["d",-5.51836820787474],["ben",-5.534401194715706],["re",-5.540166519053578],["ra",-5.555320863477371],["nak",-5.574676503630803],["es",-5.5836446072057235],["be",-5.61897509163988],["b",-5.621450934996686],["p",-5.704720676450956],["nek",-5.734887108732076],["Az",-5.758960770580847],["ik",-5.821394559745414],["fel",-5.822963391923196],["át",-5.826003933482099],["os",-5.85600641720108],["ja",-5.902345038976687],["h",-5.915065915290404],["j",-5.917499031870555],["ez",-5.9433777594727335],["ott",-6.008662648732907],["f",-6.057865336071899],["le",-6.097905405846793],["ás",-6.10451108139122],["ot",-6.114823177823176],["de",-6.118000111299434],["M",-6.122892639883679],["y",-6.1652519806141655],["–",-6.1823431655849035],["é",-6.192538702841912],["S",-6.206707352602914],["án",-6.210440196804926],["ul",-6.210567788719446],["K",-6.212195749619992],["er",-6.240403016868715],["á",-6.253301167035506],["ol",-6.268754283849441],["ét",-6.269412501256703],["v",-6.270384560756183],["te",-6.303904772683486],["T",-6.319432353358957],["szerint",-6.351284203181789],["már",-6.368537603018133],["P",-6.37040520939653],["volt",-6.37871694473262],["leg",-6.378755421221259],[":",-6.418146197494336],["mi",-6.426921037042771],["B",-6.443398146499311],["ár",-6.449332367367829],["ha",-6.481579511797049],["20",-6.484315572840934],["o",-6.494306382621508],["cs",-6.499040231185912],["ség",-6.5030557073958075],["ért",-6.5199371196098],["c",-6.527889206888418],["több",-6.539741019583365],["ú",-6.544855794264706],["ve",-6.563654550501353],["van",-6.576467721474586],["év",-6.582479556391265],["hat",-6.5947138361919055],["om",-6.599865429249526],["nagy",-6.61570907639128],["ék",-6.631499724757623],["még",-6.636724565856889],["én",-6.637126627236961],["V",-6.638195063121614],["\"",-6.641230986346148],["or",-6.649016438890616],["ál",-6.64983436502464],["u",-6.650503377489775],["ett",-6.65256501019581],["F",-6.657020058000816],["csak",-6.657282911142056],["él",-6.671852286388564],["mint",-6.674182764415834],["unk",-6.676924760568021],["hoz",-6.6824844032146835],["ság",-6.6852890161017395],["ba",-6.689268274387459],["ed",-6.699252775281977],["het",-6.726583648452854],["D",-6.726933401031234],["E",-6.7305304640620065],["eket",-6.734727878516441],["gy",-6.741342310748866],["vagy",-6.743413727696337],["vel",-6.745305533176927],["3",-6.745984541237235],["ében",-6.757606870845374],["okat",-6.7623420061474615],["em",-6.767914650195133],["ünk",-6.781283044116664],["5",-6.782068239244785],["va",-6.784014120506962],["al",-6.789531684470443],["pedi",-6.796454784912621],["ják",-6.798628913124958],["4",-6.806857505976746],["H",-6.811193730927895],["rá",-6.81470090412369],["kor",-6.841066426932306],["nap",-6.850757201387584],["ák",-6.852393090358312],["ül",-6.854861362891162],["két",-6.858625614242028],["C",-6.867195810414458],["új",-6.871535910635432],["uk",-6.877720862690598],["R",-6.881104180613244],["N",-6.885531811194207],["(",-6.887883465574012],["I",-6.89265982958549],[")",-6.9030371839355595],["lehet",-6.9116054511043075],["kell",-6.912383598859124],["ny",-6.913689191673768],["1",-6.914209808923374],["ad",-6.9180594350732285],["ük",-6.924383723487317],["ű",-6.929443239869764],["sem",-6.935348233376677],["tak",-6.9402195237234885],["ig",-6.940311565410363],["százalék",-6.946418180471264],["G",-6.953124466004613],["ában",-6.955958423843505],["val",-6.962797230409134],["után",-6.965768484903281],["ként",-6.972022463375483],["első",-6.992764043850421],["amely",-7.001238680854401],["orosz",-7.01649631926608],["ami",-7.025478076289687],["ter",-7.025651774810871],["ból",-7.027562772631917],["je",-7.037347886475844],["ér",-7.0440910734397075],["ták",-7.050007779340259],["í",-7.061972501917852],["magyar",-7.065098184817586],["od",-7.065392942101633],["kat",-7.067552353553907],["majd",-7.070235424803961],["lesz",-7.0775535177978615],["”",-7.077778432289463],["6",-7.080362055696863],["ról",-7.084351608413936],["minden",-7.084552149761372],["tud",-7.089931414471083],["7",-7.095743267607682],["ről",-7.106195574143511],["2",-7.131915229826783],["Sz",-7.13371661035575],["ának",-7.136877127517119],["8",-7.141946046843207],["azt",-7.146486709406815],["miatt",-7.151861511377486],["elő",-7.152147395038554],["fog",-7.154110558246746],["L",-7.15652734838716],["Ez",-7.168672665098532],["köz",-7.171550692023235],["idő",-7.174824573325404],["di",-7.179000729622581],["tek",-7.211306120493006],["világ",-7.218807599555561],["így",-7.226890254731149],["úgy",-7.236654512353372],["között",-7.243326214027171],["us",-7.245067053023743],["fő",-7.252917762723382],["vi",-7.257233449308576],["O",-7.263052858670431],["ének",-7.267488849940029],["ország",-7.271342913490486],["ügy",-7.271450337935344],["sok",-7.278109796748105],["ellen",-7.28148304407472],["vár",-7.283048188873921],["lát",-7.287502295821988],["áll",-7.2882310435546],["olyan",-7.30291040917311],["9",-7.321490011820426],["ne",-7.3247428315423075],["más",-7.328479902575626],["jár",-7.335380918571827],["ház",-7.336038859948154],["ü",-7.342042150703471],["ur",-7.361747526558053],["tól",-7.37204018460264],["most",-7.373099379006957],["nál",-7.3746685139860695],["élet",-7.376643565336557],["li",-7.377180139238108],["forint",-7.382350001674613],["kal",-7.387254808615748],["össze",-7.38841381023952],["ők",-7.391063755763733],["től",-7.393857680636153],["jó",-7.401628490946876],["hez",-7.4029017303538245],["ember",-7.40532109915546],["ből",-7.405692758648676],["ön",-7.423540304178457],["„",-7.426754640097546],["akkor",-7.434091043547808],["tal",-7.436615920209658],["Ha",-7.4409980168680905],["0",-7.451878617642231],["jelent",-7.458515933416468],["um",-7.45918675519998],["ro",-7.46013853781498],["azonba",-7.462249528020763],["éves",-7.462954248927144],["hét",-7.467620712479287],["kormány",-7.481040025621777],["juk",-7.4817263024873055],["tart",-7.482591192479525],["szám",-7.482871408070223],["bb",-7.489028690071536],["egyik",-7.4906555638817265],["Egy",-7.494474988069071],["ch",-7.497246586585251],["ók",-7.499453456886965],["ci",-7.50068115477229],["mellett",-7.505587739216935],["ezt",-7.508810803626583],["mondta",-7.515069344186145],["szer",-7.528776071923461],["?",-7.531280080849625],["ára",-7.5327639340322206],["fél",-7.535372293845841],["vissza",-7.536768860747055],["eset",-7.539028051075842],["város",-7.540546235877597],["mert",-7.543091658122371],["tovább",-7.550425446011483],["olt",-7.55642821241797],["adó",-7.5564408173363935],["ebb",-7.558278427922252],["ték",-7.558980052661628],["ov",-7.569889093610409],["!",-7.571178342041585],["arra",-7.576892917276077],["előtt",-7.577776507742188],["tette",-7.5798026241183605],["ére",-7.582253724652451],["pont",-7.588181486011399],["millió",-7.594278483317811],["aki",-7.598786335877196],["hely",-7.610860188836752],["J",-7.614552292550895],["abb",-7.620512258280403],["ukrán",-7.622153628353155],["vezető",-7.62341216749127],["hozzá",-7.626511374468106],["tér",-7.6288476892401915],["által",-7.62940230824419],["való",-7.630386129994783],["ök",-7.630901397989386],["ö",-7.63504311781474],["nél",-7.6379045031802955],["tár",-7.659645395535542],["ír",-7.660253537570232],["nő",-7.66080077060768],["óta",-7.662281795573467],["vég",-7.666725773005018],["alap",-7.667080865452747],["háború",-7.670791650624362],["se",-7.6737043054026355],["sal",-7.67423745953073],["og",-7.674784456761443],["ezer",-7.676856598781408],["három",-7.6835016898511],["csapat",-7.689146390531074],["ött",-7.689580169901689],["öl",-7.690826215244847],["ám",-7.709173966073202],["19",-7.710252788996548],["kerül",-7.7203250908835885],["sor",-7.724272064693604],["segít",-7.726886838690333],["teljes",-7.728324275403336],["milliárd",-7.731844781543073],["ör",-7.733339757911613],["nyi",-7.7365730971008695],["helyzet",-7.744869561031537],["mind",-7.747812754172051],["hető",-7.7478710927016525],["ös",-7.7492140827046105],["család",-7.751315832252097],["út",-7.752101193097734],["alatt",-7.759958800581095],["mutat",-7.762381975403298],["autó",-7.769015748610746],["ló",-7.771455657654281],["ját",-7.77241606896335],["rendszer",-7.779084639553244],["közel",-7.7821149762518536],["fi",-7.7821501188565305],["tett",-7.791829375208774],["öt",-7.7952626983338575],["Nem",-7.8004812144832325],["akik",-7.803367000627761],["and",-7.8119912858496665],["szak",-7.820886490892021],["elnök",-7.830234176121452],["amikor",-7.8337468636196155],["ment",-7.837990046741871],["ével",-7.838038118991291],["kel",-7.847138339616774],["10",-7.866228322200995],["kap",-7.867077492839299],["ával",-7.868142504319572],["22",-7.869636847656983],["tör",-7.870694624109689],["mér",-7.873171168369973],["Mi",-7.874045397495047],["igaz",-7.874759341481093],["ítás",-7.878284397404526],["vesz",-7.880308595800486],["játék",-7.882725405996533],["tó",-7.886083587820193],["akar",-7.889003069229951],["ikus",-7.88982315787769],["férfi",-7.892365635137115],["fej",-7.89681523632371],["W",-7.897574917218872],["rend",-7.901069209079978],["áció",-7.9016831752909304],["zár",-7.906943895806599],["rról",-7.909167505240489],["ható",-7.9101066022941104],["pár",-7.914043377555208],["jel",-7.914300411023969],["lap",-7.916617766692755],["erő",-7.919711169182085],["cél",-7.923437782625668],["un",-7.929384595233005],["pénz",-7.931931204808547],["lett",-7.938854107404261],["w",-7.9402677291959005],["számár",-7.945346694289724],["tor",-7.946298486417686],["elem",-7.9479461544045344],["követ",-7.955430009174715],["op",-7.9556825055931135],["ce",-7.956690151859629],["szó",-7.9579419689392],["véd",-7.960569256059568],["Cs",-7.962044362018901],["ut",-7.962708991942139],["int",-7.962942359026729],["kör",-7.965002231105203],["ális",-7.967424583239043],["jog",-7.974948110563731],["cég",-7.980658349167607],["hi",-7.981101902824401],["használ",-7.981918431014773],["túl",-7.982233858491305],["valamin",-7.989131703331927],["lo",-7.989632247186765],["ény",-7.993930859290678],["ahol",-7.994036466935831],["Z",-7.995190955108251],["Oroszország",-7.996572666349357],["kapcsolat",-8.000834830775986],["ján",-8.001369898202428],["ilyen",-8.003420066980087],["ekkel",-8.006910869945944],["annak",-8.008275351123697],["ing",-8.011724068119102],["példá",-8.012653794768369],["lás",-8.013668785142352],["bor",-8.013783115953409],["néz",-8.015351916042965],["ver",-8.01661720869831],["energia",-8.01685106116738],["Magyarország",-8.017131472572332],["dolgoz",-8.017133787123928],["ása",-8.018468611320312],["előre",-8.019100275032777],["ított",-8.019581310129094],["Európa",-8.019624002812106],["őr",-8.020321863906176],["ill",-8.02066221855798],["esz",-8.02244811211462],["U",-8.023045549792757],["hisze",-8.024033684099052],["marad",-8.025995834796653],["vá",-8.026610365165023],["El",-8.028842340120264],["aszt",-8.031948158670762],["kon",-8.032006316133554],["ly",-8.032161924583809],["mond",-8.034598103201603],["közben",-8.034806645915864],["milyen",-8.035720975096684],["hát",-8.036107142425205],["hír",-8.037757996897357],["vé",-8.044564055425532],["érték",-8.055792578179927],["voln",-8.060213991745957],["kép",-8.060980490789955],["mely",-8.063764014371444],["hang",-8.064010142877638],["követő",-8.066331276713576],["mű",-8.068488163813457],["egész",-8.068580469627015],["ró",-8.069351989200264],["fontos",-8.06983623212864],["ismer",-8.071477435710541],["számít",-8.07230874212237],["kis",-8.073393085384208],["Á",-8.07803872496309],["osan",-8.080546761032853],["15",-8.083614844759754],["kér",-8.08412971441744],["bár",-8.084418371136337],["okkal",-8.087199720883994],["szem",-8.09189580854391],["szi",-8.092608689510023],["gáz",-8.096344137790336],["elmúlt",-8.097142727960161],["hónap",-8.10041127118948],["Nagy",-8.10081059771979],["állam",-8.101032243247108],["hal",-8.101426671351692],["viszont",-8.104766267649538],["von",-8.105648231080444],["talál",-8.106350366840495],["alma",-8.10681346305877],["De",-8.11101540236669],["határ",-8.11105115538706],["kérdés",-8.11425611389322],["ég",-8.116389560694548],["jelentős",-8.117832406297346],["ugyanis",-8.118866830369125],["alá",-8.123874541167641],["eddig",-8.131455275736506],["köt",-8.132419456609405],["szervezet",-8.132934874054424],["x",-8.13314264497663],["illetve",-8.133972379325451],["nélkül",-8.137479455074004],["lő",-8.13783747265719],["program",-8.140959955455928],["piac",-8.146407978388883],["É",-8.147482388325272],["anyag",-8.148657965401178],["hol",-8.149228333630916],["keres",-8.150521159084013],["ését",-8.152944689932829],["itt",-8.162425941079057],["hanem",-8.162452541442248],["usz",-8.163442172617966],["adott",-8.163936877404275],["órá",-8.164080686420139],["lép",-8.16473517203595],["víz",-8.166674416999214],["nincs",-8.167144802370336],["jában",-8.169757747124702],["ást",-8.171959288868637],["vezet",-8.173021392696757],["21",-8.173041723073435],["személy",-8.179231374004477],["támogatás",-8.18018876672483],["ozás",-8.181248042196696],["nyom",-8.181571041443608],["második",-8.184004296579232],["terület",-8.184271525968434],["tag",-8.184760335686343],["négy",-8.185337971012695],["ások",-8.188710982680815],["vált",-8.18882931046047],["állás",-8.190635506862076],["amit",-8.191589053252057],["né",-8.192271928063201],["esen",-8.193861785369243],["ász",-8.19635013496162],["éve",-8.198283249176825],["üt",-8.199923957178623],["jük",-8.200863654319992],["zal",-8.201286171621916],["része",-8.201615828293217],["őket",-8.203033485801456],["csoport",-8.203423651117326],["míg",-8.205309983292477],["amelyek",-8.208437549305444],["elme",-8.210456141641572],["verseny",-8.211551070820239],["30",-8.212511378328795],["oldal",-8.213471927852034],["ezek",-8.217840266699486],["jobb",-8.220060224529124],["szín",-8.221246566174964],["újabb",-8.221560135884996],["zó",-8.223207613610196],["álló",-8.224254665388106],["cse",-8.232157553999798],["szól",-8.232889171834376],["vállalat",-8.233023795719678],["pi",-8.235402768290577],["ából",-8.235659663118938],["szor",-8.238874994568388],["készül",-8.239838048140557],["került",-8.239843872252637],["ll",-8.241147801964129],["közölte",-8.24195781654478],["saját",-8.242603277041582],["adás",-8.243333364649434],["jegy",-8.246283460573856],["18",-8.24959780705855],["bban",-8.250639797171567],["munka",-8.252126196376587],["euró",-8.25250513762537],["perc",-8.256099541422648],["ását",-8.258407561307866],["gazdasági",-8.260274272897504],["ko",-8.260701358189976],["mény",-8.26178878688522],["működ",-8.267013921746457],["gyors",-8.271125338095521],["nagyobb",-8.274357017610559],["kar",-8.275203868708829],["idén",-8.275936064340435],["százalékos",-8.27624112947332],["amerikai",-8.278070854568647],["korábba",-8.279274222634662],["gondol",-8.279642757620966],["legnagyobb",-8.279787670074061],["akár",-8.283610482936265],["kár",-8.284052962924495],["díj",-8.284490583570904],["öz",-8.28545077833154],["sége",-8.288372144295224],["próbál",-8.289810451632768],["jelentette",-8.291472330103874],["50",-8.291479715833841],["eit",-8.291811915202832],["tiszt",-8.293090953731978],["együtt",-8.293698485878444],["helyi",-8.293998465483643],["lak",-8.296081401713309],["vál",-8.296240540499362],["történt",-8.296969408491629],["ozott",-8.299812612090783],["fiatal",-8.30054964508985],["munká",-8.301187007560346],["alakul",-8.30141260461837],["csökkent",-8.3019118438149],["maga",-8.302372214270466],["mennyi",-8.303382249297368],["tűz",-8.305520444815315],["okra",-8.306955236764637],["szabály",-8.312893656893358],["jól",-8.313934141342497],["újra",-8.319327818260032],["ítés",-8.320692424180585],["dollár",-8.323698285329073],["gal",-8.324196309682081],["miniszter",-8.326595536478248],["ozó",-8.327252867410799],["szabad",-8.330956045079603],["hív",-8.331829279915912],["ic",-8.333095854906329],["ába",-8.333263950101893],["részt",-8.335280059731582],["tavaly",-8.3361099085696],["biztosít",-8.338299607740314],["oknak",-8.339651503353391],["során",-8.341313899429466],["lag",-8.343389793379693],["ugyan",-8.343542334109358],["ber",-8.344477499066098],["szükség",-8.346134041022673],["felé",-8.347405971656286],["tűn",-8.347722580583905],["sel",-8.348329628086503],["történ",-8.349012609617555],["ág",-8.349295833444712],["do",-8.34956576709526],["lom",-8.351545689984126],["ru",-8.351756760665644],["tekint",-8.35273257787123],["ették",-8.353908917239513],["Már",-8.355501329948204],["tem",-8.356868854665397],["kezd",-8.359250273588271],["szemben",-8.359251376781598],["áról",-8.359858017669286],["föld",-8.360676001999106],["évek",-8.363060006645043],["rész",-8.365817973878404],["jövő",-8.366709022370033],["emberek",-8.366806199116843],["mar",-8.367045307466244],["Magyar",-8.368980670263081],["biztos",-8.370745726452306],["ált",-8.373409527973157],["szinte",-8.375034008470257],["mal",-8.376398325840372],["időszak",-8.37661465689651],["figyel",-8.376702299789546],["hazai",-8.376932209329134],["erős",-8.377951785031735],["Le",-8.379396854521094],["olaj",-8.379879171802726],["azért",-8.379996974079848],["hagy",-8.383115269399273],["alapján",-8.387172467231604],["ink",-8.392836288568656],["érdek",-8.395008811986541],["öv",-8.397074535579806],["rég",-8.397196522509265],["jelen",-8.400030559319859],["oló",-8.400348907082716],["gép",-8.400653344127736],["folytat",-8.400867283725283],["tartott",-8.404328869338613],["száz",-8.404727634308717],["ített",-8.405115745348464],["európai",-8.407948495444515],["mel",-8.41089538207564],["rendez",-8.4109919138117],["ud",-8.411572229552272],["ette",-8.412159003828911],["gyermek",-8.413338735402034],["közös",-8.414379034002359],["lépés",-8.421358700424145],["hatás",-8.421923677934725],["másik",-8.429227017411499],["etlen",-8.430503729592422],["mo",-8.431068521667683],["támogat",-8.432497857701595],["lét",-8.434736371715555],["indul",-8.43575005196964],["Ki",-8.438176505696326],["tam",-8.438337039103809],["közül",-8.439553515230411],["haj",-8.441758067691087],["nyer",-8.443449204132396],["dr",-8.445731734132771],["otthon",-8.44735936091724],["dik",-8.448985499669117],["képviselő",-8.45091872283156],["Egyesül",-8.451335054697328],["ismert",-8.4530265155692],["Gy",-8.45369402741416],["barát",-8.460437384321299],["ésére",-8.462736414066931],["Budapest",-8.463315332596922],["lenne",-8.464243944831793],["12",-8.464511650952481],["Meg",-8.465121367503212],["ány",-8.467440979656939],["oszt",-8.470526873614052],["ezzel",-8.47057022084001],["döntés",-8.470739175146171],["ex",-8.473151763849568],["talan",-8.473193057317353],["választás",-8.47445152860538],["Mar",-8.476487468913188],["óra",-8.47685242268398],["összes",-8.477706447466417],["14",-8.478301995080232],["oda",-8.479377704160987],["hiány",-8.479608716931775],["23",-8.48186733013615],["fejlesztés",-8.484480937899388],["ős",-8.489819587391946],["infláció",-8.491572742747698],["zás",-8.491960220051403],["lévő",-8.49353513721773],["Ukrajná",-8.494068060141927],["halál",-8.49716822583535],["okoz",-8.499366901930646],["eredmény",-8.499687089440009],["ási",-8.500287960938394],["16",-8.50141787111344],["kellett",-8.50220769728281],["szint",-8.503677796014713],["sport",-8.504643138095185],["igény",-8.504842478429374],["rendelkez",-8.50664086064597],["jon",-8.509842504989889],["ához",-8.510801124104335],["tartó",-8.511858190962894],["következő",-8.514259181301636],["25",-8.516804629525438],["korábbi",-8.518089606834138],["pályá",-8.523214201021696],["zsi",-8.523584227269751],["dal",-8.525237590882433],["voltak",-8.525580088627475],["id",-8.526219443158013],["támadás",-8.527606828630711],["annyi",-8.527782322840213],["tölt",-8.528828414793214],["13",-8.529993903438083],["por",-8.530432476072853],["körül",-8.53193594636166],["állítás",-8.53333359490964],["árak",-8.534089282669054],["ré",-8.534753685593625],["elég",-8.535020063764742],["párt",-8.537919619994895],["egyre",-8.539141885362074],["Köz",-8.540771444670316],["néhány",-8.54286045122417],["ottak",-8.544370202985025],["érte",-8.545711529918574],["mindenki",-8.546558193332123],["for",-8.546678307749477],["örök",-8.547941770270093],["heti",-8.54897923786173],["szavaz",-8.551892652685378],["In",-8.552408673871188],["séget",-8.553087496609509],["kapott",-8.553389613004551],["ekre",-8.553930657643063],["fok",-8.557907015458731],["éről",-8.560175860583684],["pro",-8.561133761334437],["jut",-8.561293336676439],["rossz",-8.561716985342281],["ná",-8.562189324168454],["fordul",-8.56221252011785],["enek",-8.562838976440021],["kkal",-8.56342075956185],["vezetés",-8.564279301703104],["harc",-8.567550040468845],["később",-8.569284041908091],["magas",-8.569506809755566],["helyszín",-8.569976782553312],["per",-8.570118551746578],["17",-8.572669603267075],["ünnep",-8.57333055028318],["film",-8.574784845052672],["atlan",-8.576200310108522],["ült",-8.577147180006886],["bér",-8.577324625002404],["elmondta",-8.5779899708139],["részé",-8.57955385192706],["további",-8.580446342892081],["irány",-8.580884338086104],["ennek",-8.580974515742954],["külön",-8.580985197990657],["gazdaság",-8.581259323705684],["formá",-8.583029232015562],["siker",-8.585436971046038],["szív",-8.587507894133575],["végén",-8.587628316121426],["hu",-8.587952363708945],["fegyver",-8.589713485930538],["bele",-8.589971795089989],["éppen",-8.590499374863345],["mai",-8.590606956435694],["belül",-8.590661575248642],["vány",-8.590767440307339],["Ukrajna",-8.591066095209342],["képes",-8.593617009630385],["lel",-8.594490596927468],["indig",-8.594671003850468],["összeg",-8.59790616511475],["egymás",-8.59848035866782],["fut",-8.604115247896669],["helyez",-8.604509115829892],["oly",-8.608142962860008],["olás",-8.6084900677136],["mer",-8.608781278618146],["ezér",-8.609287674535478],["jelenleg",-8.611781951635038],["társaság",-8.611784664946184],["szeretné",-8.613450424364796],["unió",-8.613567792202057],["ismét",-8.613895133270514],["bo",-8.617077646300922],["inkáb",-8.617246622777774],["nehéz",-8.617567093339588],["gel",-8.618071089679294],["biztonság",-8.61930062643902],["állt",-8.621115690018446],["11",-8.623933709155446],["veszély",-8.624624943101313],["szék",-8.62466849999985],["lehetőség",-8.624767236532078],["24",-8.626130456852884],["alkalm",-8.629189342785628],["zott",-8.630274839533048],["sorozat",-8.630369628631083],["200",-8.632755181888868],["utolsó",-8.633236971072616],["ellátás",-8.635370750549011],["tervez",-8.637108500991655],["orvos",-8.637593935055381],["kezdet",-8.639972941524963],["lány",-8.640239163947474],["épület",-8.640577024966277],["űr",-8.642878232909467],["nyújt",-8.643612721083846],["erre",-8.644205876356036],["komoly",-8.644217258878047],["tunk",-8.647126041372331],["ció",-8.647643420105654],["zik",-8.648342680066058],["védelmi",-8.64838982257195],["utóbbi",-8.648464451874357],["kész",-8.649097216764027],["vendég",-8.649156293179251],["növekedés",-8.649175089277003],["met",-8.649411531607672],["ító",-8.653615693017576],["tétel",-8.656885475405609],["ották",-8.657424440321883],["fizet",-8.658088804042034],["megfelelő",-8.65840304887819],["ebben",-8.658527018940806],["várható",-8.66093770393497],["cím",-8.661687398739645],["polgármester",-8.663872386990004],["hitel",-8.664502005885556],["üzlet",-8.664852080048542],["SZ",-8.66630604470403],["ására",-8.66910323008611],["magá",-8.670464205175422],["küld",-8.671083281101383],["mit",-8.671255201208261],["semmi",-8.671392861325657],["kamat",-8.674345846225307],["írta",-8.675504980203389],["fogalmaz",-8.675848811544594],["okon",-8.680379947795005],["tíz",-8.682509568641375],["miniszterelnök",-8.684706230574466],["képest",-8.685864466739234],["ob",-8.686351792180089],["legyen",-8.689257690266043],["Mint",-8.690462143944856],["hasonló",-8.69086074317216],["itás",-8.691062494424994],["lan",-8.691313773117377],["ád",-8.692752863250465],["törvény",-8.695763189173832],["választ",-8.696022306623503],["adat",-8.6969870962538],["lakás",-8.698883265037868],["csökken",-8.699404349504459],["Péter",-8.700089644766937],["halad",-8.700941963986018],["járvány",-8.703832083187597],["Magyarországon",-8.704450916755132],["helyen",-8.705865470238106],["élő",-8.706715862311098],["este",-8.707760349839425],["jött",-8.708062103019788],["fa",-8.711598163173946],["jai",-8.712192759429815],["man",-8.712198813217846],["fogad",-8.713004744775699],["endő",-8.713042648270715],["foglal",-8.713821250879198],["Orbán",-8.713937874246152],["sikerült",-8.714610185987294],["rom",-8.716435282553608],["idei",-8.71831912092924],["múlt",-8.718689870632154],["mérkőzés",-8.720182900129952],["szintén",-8.72070753849012],["derül",-8.721474469032657],["súlyos",-8.721551053060264],["megoldás",-8.72189368727178],["tartás",-8.722195107072238],["jön",-8.723019873541467],["ell",-8.72337345201856],["40",-8.724004472824955],["ket",-8.724723974444098],["szervez",-8.725961708999336],["költség",-8.726051894485968],["harmadik",-8.726417675794139],["hon",-8.727437846466447],["éhez",-8.727636652862499],["esemény",-8.728152886756927],["ülés",-8.73001560004635],["nemzetközi",-8.734386847821087],["szk",-8.734945439012535],["győz",-8.735551815600466],["edett",-8.736207586737972],["folyamat",-8.737030843773308],["egyes",-8.738659450406814],["kisebb",-8.739035331941881],["hosszú",-8.739156064763346],["60",-8.740423626638547],["előző",-8.74245875398698],["függ",-8.745343249140657],["/",-8.74556092107628],["old",-8.74663041064929],["bel",-8.747627829732275],["dél",-8.748202060618377],["magasabb",-8.749218524299549],["magát",-8.749539689732865],["lu",-8.75324545446215],["legjobb",-8.753302065048066],["gól",-8.753752561048529],["telen",-8.75459538235122],["kívül",-8.754885846994052],["tárgyal",-8.755272055572355],["adta",-8.755989016579345],["nyug",-8.756682929960537],["úr",-8.757192496105716],["csi",-8.759669608519744],["X",-8.760123939151143],["Er",-8.760452662227742],["terv",-8.76218990665125],["épít",-8.764189672560068],["nőtt",-8.765797148562148],["osztály",-8.768313794622108],["videó",-8.768414400262799],["rendőrség",-8.773060838949817],["nyilatkoz",-8.773249995360954],["son",-8.774676886765718],["vasárnap",-8.774904823396836],["társa",-8.778155935019324],["szolgáltatás",-8.7782228159266],["Re",-8.778270722202329],["játékos",-8.778458814166044],["állít",-8.781993368104088],["módo",-8.782384938560336],["küzd",-8.783212663181384],["ral",-8.78405100872286],["mikor",-8.784293698611629],["alkot",-8.78443844649653],["német",-8.785316679089526],["hetetlen",-8.785589165034914],["közösségi",-8.78679050779156],["Mind",-8.787174409394947],["érkezett",-8.789534099252714],["sokkal",-8.789897054049952],["fér",-8.79043475870972],["Li",-8.790570936894277],["ztán",-8.792756782064224],["megjelen",-8.793986117251231],["Be",-8.794883560796045],["szolgál",-8.797659932057233],["beszél",-8.797791752250005],["igazgató",-8.798331831904003],["szél",-8.801388967751409],["intézmény",-8.80179650417805],["ítani",-8.801919844113094],["vétel",-8.803035070036032],["eknek",-8.803872903835089],["műsor",-8.804449935604449],["szerű",-8.804502704248641],["atás",-8.805153210394487],["par",-8.807813733287428],["Szer",-8.809584341689769],["nép",-8.810110639712669],["történet",-8.810991261681671],["gyerek",-8.813482855846921],["vonal",-8.814121314373674],["politikai",-8.814396504469599],["közlemény",-8.815417836941233],["önkormányzat",-8.819176341726749],["Putyin",-8.820596097707359],["táv",-8.821687342555432],["játsz",-8.823978699064314],["tartoz",-8.824248143788965],["Jo",-8.825369638866775],["információ",-8.825804513469429],["bír",-8.82640773835748],["ájá",-8.826552120134451],["című",-8.828705266349047],["80",-8.83066494732396],["problémá",-8.83104004629024],["gyűjt",-8.831044718807092],["száma",-8.831536681495447],["létre",-8.831930969075225],["ítél",-8.834537335867472],["központ",-8.834628267399],["üket",-8.835377847071157],["baleset",-8.836774282705456],["arc",-8.836920164046816],["látogat",-8.839855723138104],["enged",-8.840305901542642],["akad",-8.840886490180186],["jármű",-8.840896210032227],["visel",-8.84130181986572],["vette",-8.843826400959575],["közép",-8.84542348055763],["pontos",-8.847368667562705],["készít",-8.847427317642754],["elnöke",-8.847850839662598],["oldalán",-8.848232376286838],["test",-8.84825776611104],["feladat",-8.848288085089393],["arány",-8.848418549951141],["végül",-8.850328474194814],["ránt",-8.850492779210505],["koz",-8.851844593497162],["reggel",-8.85232176794641],["miután",-8.853418361736749],["település",-8.855924502543015],["vág",-8.858370772794261],["tív",-8.858801456355863],["ukrajnai",-8.859435914625875],["részlet",-8.85980091330125],["fenn",-8.860881658797899],["vállal",-8.86102885151574],["TI",-8.863253213806424],["pl",-8.863268160766586],["keresztül",-8.863774939485678],["mány",-8.86461479906004],["állított",-8.864944723728483],["döntő",-8.865110861298662],["beteg",-8.866766940870507],["up",-8.868703167457685],["bank",-8.869722013088193],["Ko",-8.869822705059565],["művész",-8.87253190630167],["íz",-8.872733643244594],["adatok",-8.87549603073814],["írja",-8.876991242704161],["tanács",-8.879464220117592],["lakosság",-8.87946923281924],["határoz",-8.879631710540735],["koronavírus",-8.881274959647579],["felelős",-8.881621915855991],["számos",-8.881916809982917],["szövetség",-8.883116573950806],["készült",-8.884395172737221],["bu",-8.88515183873896],["kedv",-8.887119115382816],["könyv",-8.888667265244427],["vény",-8.889546170964369],["változ",-8.890427528665857],["vezetője",-8.891971976087193],["élelmiszer",-8.892375823745132],["rel",-8.892380524814879],["bajnok",-8.892954067425864],["jelentés",-8.893386872438802],["végre",-8.896506955126972],["fizetés",-8.896859500066313],["építés",-8.89742802965688],["szenved",-8.899867295967677],["környezet",-8.901986482968587],["hor",-8.902908518904042],["elleni",-8.903968546781334],["eredménye",-8.90457517194611],["érkez",-8.904988689008624],["zárt",-8.906177965782245],["kevesebb",-8.90926193983147],["szerez",-8.910703906402668],["kapcs",-8.913571539069057],["november",-8.91688934770727],["válság",-8.91828856236008],["co",-8.9185692708017],["bé",-8.919445212339511],["friss",-8.922606481644223],["fotó",-8.92303689119779],["beszélt",-8.923863318861791],["állapot",-8.924527711282565],["igen",-8.925566111264502],["katonai",-8.928414712243367],["forduló",-8.928896738372359],["december",-8.930310324127563],["cz",-8.930563343252043],["zel",-8.930952901667062],["változás",-8.935005293663867],["100",-8.935229911938706],["rövid",-8.93611154592389],["ezen",-8.936407633120218],["Ezek",-8.93785516462641],["legalább",-8.93805707317837],["foly",-8.940162204502053],["számol",-8.940825962721991],["Államok",-8.941956925689578],["átlag",-8.943764029712764],["gyakorlat",-8.94391390030321],["nyolc",-8.943935665635138],["zene",-8.94539676701985],["neve",-8.94564621501765],["viszony",-8.94587494057405],["tanul",-8.946176199594152],["látható",-8.948679407245677],["vásárol",-8.948877541825269],["Í",-8.949807784247447],["bíz",-8.95032008624741],["valami",-8.950722459082805],["hallgat",-8.95183323677687],["termék",-8.952095279526581],["eljárás",-8.954108179057423],["emelés",-8.954252913219396],["EU",-8.954818113474303],["méter",-8.954839155810037],["Enne",-8.958952837321602],["maguk",-8.960202449203319],["ásra",-8.96078367899069],["egyébkén",-8.961229754517845],["szeptember",-8.961700905070366],["fer",-8.961829910335076],["számolt",-8.96214426425019],["észak",-8.96280928737299],["szakember",-8.964277941388794],["Viktor",-8.965710774215793],["maradt",-8.965783321758911],["szép",-8.966030895809],["egészség",-8.966327684164355],["nyilván",-8.967688093292143],["mező",-8.967823911659599],["bizony",-8.968057916966307],["der",-8.970337736815491],["vett",-8.975423924267222],["szakasz",-8.977275546882753],["telefon",-8.977782237311878],["kéz",-8.97891236797685],["szükséges",-8.985363111829368],["Most",-8.985814364802588],["nyár",-8.987750210581064],["kutatás",-8.988143189443912],["bajnokság",-8.989472415093054],["emelkedés",-8.99058668675393],["állat",-8.991251673826712],["távol",-8.991565257317005],["László",-8.992068428096054],["nyugdíj",-8.99238792988958],["előszö",-8.992597343213216],["Bár",-8.993542160446193],["járó",-8.995310930040425],["áldozat",-8.996187092299621],["főváros",-8.997226418109499],["délután",-8.997463098112654],["október",-8.998259619929806],["brit",-9.000464212770215],["of",-9.00060963373851],["dolgozó",-9.002841086126052],["egyetlen",-9.003224925030562],["Minden",-9.003823815598704],["Ö",-9.004427480025022],["szerzés",-9.00560723410544],["áram",-9.008607305611019],["valószínű",-9.008649321830681],["meccs",-9.008650487893249],["piaci",-9.008766423690627],["találkoz",-9.008827724034802],["bevétel",-9.008836031228922],["kevés",-9.010770155312464],["kínál",-9.010801036607269],["tudja",-9.01160539844947],["ságot",-9.012433420108035],["kapta",-9.013258540365701],["király",-9.014952535477665],["társ",-9.015892799204554],["iskolá",-9.017111456608601],["indít",-9.01956583017464],["szolgálat",-9.019987032769254],["döntött",-9.021736526968485],["teszi",-9.02228822031277],["szerződés",-9.023420872572139],["érintett",-9.02405816748557],["szakértő",-9.025665008726286],["egyszerű",-9.026576033115923],["jutott",-9.027422687723078],["70",-9.0277104898867],["növel",-9.028196361644817],["gond",-9.028854148211721],["tenger",-9.029405600354277],["eszköz",-9.03007604302742],["érint",-9.031690898734142],["jelölt",-9.032017575624518],["fogyaszt",-9.032428268902054],["találkozó",-9.033241629688021],["dob",-9.034927344206118],["Nemzeti",-9.036195259423614],["ugyanakkor",-9.037379584531564],["Debrecen",-9.038342907025676],["azonnal",-9.038356463636276],["uc",-9.03858429517222],["forrás",-9.039199466341795],["együttes",-9.039839354654234],["vizsgálat",-9.040597211980089],["indult",-9.040692083267286],["Bar",-9.04110848118685],["Ny",-9.04161770204621],["kíván",-9.042699624912892],["áig",-9.044852653955815],["emelked",-9.04492252021522],["betegség",-9.045237216525132],["szerepel",-9.047591810826304],["végez",-9.048498242540779],["foglalkoz",-9.048528936726548],["megyei",-9.049233163698627],["sokat",-9.052482306184881],["elején",-9.053545494710775],["szereplő",-9.053933252177277],["ingatlan",-9.05407931213296],["könnye",-9.055844212764804],["állami",-9.056080966945675],["beruházás",-9.057909705839533],["hivatal",-9.0587250597039],["kezel",-9.059321917803263],["felvétel",-9.059584344633436],["írás",-9.062036903452132],["rendkívül",-9.062815516324608],["augusztus",-9.064516690337289],["pénteken",-9.064706442839562],["Új",-9.065276319584907],["tudta",-9.065896337491278],["hivatalos",-9.068125003181233],["minisztérium",-9.068946374589487],["színész",-9.069165830084035],["bűn",-9.069376800154185],["mennyiség",-9.069647065636648],["kezdte",-9.069845155750476],["legtöbb",-9.07025044651214],["haza",-9.070516678166168],["akció",-9.071144205489091],["Több",-9.071173806872498],["Úgy",-9.071428977935469],["öm",-9.073511560887937],["egyszer",-9.074538448711973],["álás",-9.076313048254786],["ezelőtt",-9.076358043496807],["lehetősége",-9.077905035805962],["dönt",-9.078334630935599],["benne",-9.07853355142655],["vér",-9.080346739730029],["rendőrök",-9.080355150557406],["mély",-9.080502823587363],["zajl",-9.080590000273695],["vállalkozás",-9.082363246881874],["részvény",-9.082632620553017],["vas",-9.083385327765505],["fehér",-9.084607524605179],["terjed",-9.084666274381933],["fal",-9.08479169117832],["jával",-9.085517643727865],["köszönhető",-9.087302145414892],["érdemes",-9.08759989295141],["anya",-9.088166598691085],["ipar",-9.090101525035145],["köszön",-9.090954376355722],["csomag",-9.091406806593765],["menet",-9.092293376410915],["támad",-9.092314897525734],["nyugati",-9.093742300259873],["erősít",-9.093982105434929],["mód",-9.09558556331367],["projekt",-9.095947099495001],["végé",-9.096458215914247],["helyett",-9.096478902971596],["ától",-9.101431781213059],["számlá",-9.102663264570477],["bíróság",-9.10282070808629],["szankciók",-9.103187444120717],["politikus",-9.105108520143247],["Ro",-9.105346263677482],["keresked",-9.105377064741349],["kocsi",-9.105753638315708],["István",-9.107412996950043],["előny",-9.11146971476184],["országban",-9.111834492385778],["csütörtökön",-9.112396599186589],["Ferenc",-9.114357508179005],["las",-9.118276966295156],["tar",-9.118953285816595],["ukat",-9.12059327127935],["ellenér",-9.121148121617791],["érdeklőd",-9.121381436136355],["Mo",-9.122888311269598],["had",-9.123992084029947],["biztonsági",-9.125509616907959],["szállítás",-9.125512323195638],["ásával",-9.127872121027073],["ítő",-9.12887064090916],["különböző",-9.133114983695549],["pillanat",-9.133115003043137],["éből",-9.133149458505747],["régió",-9.133637022520553],["alkalom",-9.135498213115376],["emlék",-9.139366397198522],["line",-9.139790444712176],["miért",-9.13992207795702],["fény",-9.14049612492883],["hatalmas",-9.140530266357622],["kérdez",-9.142933975947784],["féle",-9.143769727572488],["lakó",-9.143960354796501],["part",-9.14439832815213],["teszt",-9.145744536961207],["kapu",-9.146267155110127],["országok",-9.146741389520571],["szóló",-9.149376817248449],["hirdet",-9.14982794981548],["idéz",-9.14992761988093],["évtized",-9.154647006642858],["darab",-9.15476195996543],["töltött",-9.155598754225956],["hosszabb",-9.157068493786436],["oktatás",-9.157428927408802],["park",-9.157833197991357],["született",-9.163200428038536],["január",-9.164368231075496],["március",-9.164374521812476],["öd",-9.164923141926566],["ow",-9.164946832124542],["einek",-9.166335290497011],["február",-9.166812493272332],["emelt",-9.167671802313317],["hatóság",-9.168827331398147],["Y",-9.169263473340578],["kilométer",-9.16926593345684],["bal",-9.169596457798676],["érdeké",-9.171184919565896],["hétfőn",-9.17177263030522],["utal",-9.175485996147588],["enge",-9.175551242385566],["ipari",-9.176486103685495],["elérhető",-9.176682189495894],["válogatott",-9.179127926408533],["esebb",-9.180533609187606],["27",-9.180884441476673],["épp",-9.183065112948647],["található",-9.185221565717546],["légi",-9.185724206105952],["du",-9.185736506943627],["román",-9.185819610632015],["baj",-9.186221867429438],["beszéd",-9.18669898585592],["népszerű",-9.186813248645908],["súly",-9.186919719960377],["egyetem",-9.189897938547958],["tevékenység",-9.191596896360979],["magán",-9.192227925945485],["lég",-9.193163143115312],["forgalom",-9.194110327511186],["szerdán",-9.19415265662868],["hús",-9.19644290614362],["segítségé",-9.197187804836739],["mentő",-9.197468773978436],["fordít",-9.197491904750876],["elfogad",-9.198716002473116],["iskola",-9.199488274841924],["Ber",-9.199660801690872],["őriz",-9.199714775134264],["ard",-9.200727545696445],["figyelmet",-9.201090732135043],["tizen",-9.201305321986807],["vásárlás",-9.204508578011932],["ráadás",-9.20465993114998],["“",-9.206767849254103],["valaki",-9.206921341950926],["indított",-9.207114315301277],["nyíl",-9.207329072640908],["vonul",-9.207967261442512],["válasz",-9.208266784913071],["hatatlan",-9.209466578845635],["szülő",-9.209634072144233],["térség",-9.21071970403252],["fejleszt",-9.211624480099779],["parlament",-9.21187657662486],["És",-9.212016221924266],["tilt",-9.21325847642074],["hall",-9.214129322493422],["tudni",-9.21453564228659],["többször",-9.214576370326597],["rendezvény",-9.217321922658819],["rajt",-9.21885056499611],["hány",-9.219940567719819],["eszközök",-9.220196379240216],["hő",-9.220333322609001],["gyerekek",-9.221621947713832],["képe",-9.22214089227362],["napon",-9.222404200692011],["tulajdonos",-9.2249474183762],["Eb",-9.225043330778522],["független",-9.227713607934248],["szab",-9.228613957723235],["%",-9.229964752825799],["modell",-9.22999649066817],["kereszt",-9.232205067073982],["tenni",-9.233933852878554],["vélemény",-9.235195623091602],["teljesít",-9.235221631499638],["felett",-9.236900162802227],["talán",-9.237579226277507],["cégek",-9.23771059847892],["hálózat",-9.237818195622673],["május",-9.23781842494612],["többség",-9.239825502613716],["csatlakoz",-9.240450137231203],["sziget",-9.241102338794303],["csúcs",-9.243122748904943],["kedden",-9.243849184545379],["zöld",-9.243911527093365],["húz",-9.244654263308906],["növek",-9.245865386918814],["fejlőd",-9.245895373223725],["cikk",-9.247920743149876],["szerep",-9.248321945794432],["láb",-9.248336114132785],["gyár",-9.249786444673425],["emelkedett",-9.2501616502912],["egészségügyi",-9.253735748109463],["repül",-9.25420434586933],["esetén",-9.25455345572211],["diák",-9.255504682076275],["26",-9.255932844597123],["alakít",-9.25792245102682],["vád",-9.259160670750394],["kiderült",-9.259344237108714],["keret",-9.259743877316676],["II",-9.260281009671989],["addig",-9.264570875818281],["forintos",-9.265122475921986],["irányít",-9.266996285885073],["szempont",-9.26765704856085],["tulajdon",-9.26967094388576],["életét",-9.269983277603068],["fogyasztás",-9.271922032547266],["természet",-9.272471919575377],["használat",-9.273031208442436],["ígér",-9.273596752412407],["közösség",-9.273860153995688],["venni",-9.274118807340498],["ákat",-9.275615654960902],["javaslat",-9.278038919082213],["kezelés",-9.27833119468036],["ítj",-9.27900500999736],["senki",-9.27900684144441],["olvas",-9.280093831230786],["hatékony",-9.280778155410333],["kicsi",-9.282264230135869],["arany",-9.286782769700267],["szeg",-9.288053023634685],["nyerte",-9.290395488583151],["nevez",-9.290554204604025],["öltöz",-9.291299923424178],["gyermeke",-9.292660110751612],["szület",-9.293803507153129],["partner",-9.294760052807309],["kutató",-9.294858193150699],["baloldal",-9.294939070351074],["hajó",-9.295868525337042],["vonatkozó",-9.2996119609709],["alig",-9.299815717716864],["július",-9.300168990805282],["Br",-9.300780813540829],["ozta",-9.301478555494143],["nyelv",-9.301570071013636],["adatai",-9.30176183242047],["íteni",-9.302082904832478],["utas",-9.302510341204076],["legfontosabb",-9.30297323406646],["javít",-9.30443574564343],["Facebook",-9.305779079132725],["hibá",-9.305779826236295],["termelés",-9.305832903147877],["menekül",-9.306298188369375],["zavar",-9.306933253021416],["származ",-9.308639347943712],["edző",-9.309686650242735],["árfolyam",-9.309774778140401],["Bizottság",-9.311421050280444],["közlekedés",-9.311647342575906],["erősöd",-9.311719365244137],["szombaton",-9.312134668866275],["termékek",-9.31389211130055],["magyaráz",-9.314390720130474],["profi",-9.314724008240463],["célja",-9.314965852193524],["jelzés",-9.315067650536541],["ács",-9.31602082102928],["35",-9.316154749412082],["index",-9.317100073159352],["poszt",-9.317137554050163],["gazdá",-9.317589700162833],["végzett",-9.317936911821864],["emlékez",-9.319586393671585],["Bank",-9.320235771306365],["mesél",-9.32045587897277],["csinál",-9.321449022913642],["előbb",-9.321839950296978],["90",-9.322427942486375],["osztott",-9.32288497830006],["Unió",-9.322908890222823],["kezé",-9.323815707065378],["bizonyít",-9.325570059402217],["utcá",-9.326657810352042],["hangsúlyozt",-9.328540087668129],["kettő",-9.328644773514021],["érkező",-9.328879893390534],["kapcsolatos",-9.32970049750582],["hatóságok",-9.330559577273192],["listá",-9.330985873454296],["János",-9.331453529698397],["költ",-9.331894863393735],["köztü",-9.33275090306405],["28",-9.333841232563708],["Egyetem",-9.334525828909694],["nevezett",-9.336174067952864],["április",-9.337210261239939],["vidék",-9.34017394406085],["beszélget",-9.34313916463261],["épül",-9.34383621282327],["terhe",-9.344344240976298],["védő",-9.34539300033368],["meleg",-9.346194718696097],["különöse",-9.346992475440722],["kínai",-9.348892006555474],["üzem",-9.351064446522606],["csup",-9.35141739482021],["gyűl",-9.351928097386313],["június",-9.354780349697512],["hatj",-9.356519751365425],["rang",-9.35654324454596],["pal",-9.35657167501669],["teljesítmény",-9.358034336252235],["Hozzátette",-9.360869924374823],["Bors",-9.36093686205411],["bolt",-9.361730919432741],["lenni",-9.364440573229256],["szezon",-9.364592299782231],["komp",-9.365062595261936],["neheze",-9.36601330703525],["felhő",-9.366510278111658],["óriás",-9.366723460538324],["kezdőd",-9.369597010454616],["visszatér",-9.371375853740108],["500",-9.371613849080589],["oltás",-9.372124291191252],["Zr",-9.372557307927906],["rengeteg",-9.372664671488515],["esély",-9.373464316730328],["fenyeget",-9.375676507140675],["pénzügyi",-9.375749852737297],["képzel",-9.376498791596585],["kellene",-9.376571890431352],["Szent",-9.378188255440053],["papír",-9.378704671467059],["kórházba",-9.379648359255288],["NATO",-9.381728074448143],["utca",-9.382221953331014],["tri",-9.383070013034416],["játszott",-9.385188196356392],["Ch",-9.388934094421653],["napokba",-9.391854902449047],["forinto",-9.393079514891852],["csal",-9.393710116146163],["minőség",-9.39401408612946],["ugr",-9.396380546071324],["költségvetés",-9.397020528181468],["Ő",-9.400105144855939],["kockázat",-9.400105145135457],["ellenzék",-9.400188181663712],["gyártó",-9.40126283626812],["táj",-9.40143048827953],["megállapodás",-9.403201124564497],["soha",-9.403534488990537],["találta",-9.40419639996439],["sajtó",-9.404506128339452],["sérült",-9.406332214742985],["civil",-9.409457968588429],["NB",-9.410303517313224],["negyedév",-9.41162181498342],["megye",-9.411915862912018],["odás",-9.41413457195064],["kampány",-9.41568182121205],["üzemanyag",-9.415994218563082],["ox",-9.417343148999127],["közzé",-9.419417896302013],["üze",-9.420075160333507],["francia",-9.421981061126083],["Hogy",-9.422018622065238],["negyed",-9.423145493396646],["gyógy",-9.424754003173206],["szakmai",-9.426156511083148],["29",-9.427324588410421],["szolgáltató",-9.428323543894338],["boldog",-9.428323834410044],["mértékbe",-9.428688989298479],["onnan",-9.42951346582415],["iroda",-9.429528007547978],["folyó",-9.433126214097067],["nappal",-9.43314443389513],["busz",-9.433886321784797],["Németország",-9.434699810110851],["gyakra",-9.434754177144598],["csapás",-9.434915366599142],["bejelentés",-9.435320191281312],["közé",-9.43609477052248],["mellé",-9.436497912721007],["érkezik",-9.438472771808307],["Központ",-9.439466476182456],["különleges",-9.441174102397364],["ideje",-9.442726047848911],["kötött",-9.442989815500788],["tájékoztat",-9.443060319952417],["szent",-9.444342836431346],["budapesti",-9.444346129866679],["kezdeményez",-9.444346161032977],["nevű",-9.444364203779234],["képzés",-9.44516827395922],["tanár",-9.445594970291793],["utat",-9.445782240524931],["Val",-9.445908068655395],["vitt",-9.44647022014439],["000",-9.44707288491589],["állomás",-9.447769818396928],["kísér",-9.450466957713244],["hullám",-9.450829604684486],["környék",-9.450835504277881],["sérülés",-9.450854496494344],["nyitott",-9.452255718367805],["ruhá",-9.455135897467454],["tető",-9.456519574494806],["péntek",-9.45713796737164],["kereskedelmi",-9.457373522061756],["klub",-9.457530216315643],["lépett",-9.459351695472808],["ezút",-9.45980426387197],["karácsony",-9.460633127382241],["szerzett",-9.461780221850947],["technológia",-9.463922885174004],["előadás",-9.466958139520393],["lengyel",-9.467229527743061],["szerepe",-9.467261644092016],["közönség",-9.467268993035795],["szava",-9.467429465806891],["területek",-9.468224009789957],["tegnap",-9.468534639017243],["képesség",-9.470414612454634],["portál",-9.471325267701989],["említett",-9.47237011764263],["változtat",-9.472471880124617],["kórház",-9.472814202439945],["jellemző",-9.47385645932616],["források",-9.476013069643681],["édes",-9.47782072327859],["szeretet",-9.479920217037591],["kihívás",-9.480792718729353],["sajn",-9.483416103754704],["koncert",-9.48389097427059],["pályázat",-9.483927774658298],["egyéb",-9.484289039762317],["területén",-9.48530736956096],["látsz",-9.485547037567297],["üzenet",-9.48745791109124],["tapasztal",-9.489335540642536],["fertőzött",-9.490635343750915],["bizottság",-9.490636405177263],["engedély",-9.490642209988081],["kapcsolód",-9.490653269697814],["intézkedés",-9.490742978557687],["kormányzat",-9.493521040094645],["hőmérséklet",-9.49402517343485],["szóvivő",-9.49402520582978],["drágul",-9.494027677511575],["Még",-9.496433138799304],["persze",-9.49714091594764],["forgalma",-9.497432654059386],["típus",-9.498562979393181],["hívta",-9.499405525915972],["felnőtt",-9.500273585887093],["felhasználó",-9.50118417175333],["izmus",-9.501663413429146],["Miskolc",-9.504264234021043],["hadsereg",-9.50426984967594],["tartani",-9.506558089014252],["szünet",-9.507704284206977],["Zoltán",-9.507705987519133],["együttműködés",-9.508052452744622],["ódott",-9.508144828839697],["élmény",-9.508711797174566],["átlagos",-9.511126489210477],["mögött",-9.51114898349658],["kilenc",-9.511162185361709],["tömeg",-9.51244527500075],["tüntet",-9.514641860759363],["erdő",-9.517327850570599],["fedez",-9.518233198984234],["bizonyos",-9.521061559835237],["nevé",-9.521304842440674],["sikeres",-9.522557231917283],["Európába",-9.522862009664214],["végig",-9.525513530987439],["jegybank",-9.526571068352332],["mindössze",-9.528222461074595],["kább",-9.528550814347417],["tábor",-9.528913533032448],["app",-9.53014596554753],["gyanú",-9.532107359478273],["mobil",-9.532197588578718],["mondott",-9.53248408086284],["földgáz",-9.533079369601069],["elektromos",-9.535625598240118],["harmad",-9.535737859713926],["értékű",-9.53664956234757],["Tamás",-9.536784157823586],["konfliktus",-9.539171683592064],["egyértelmű",-9.539171962457136],["labdarúgó",-9.53917207865025],["vették",-9.5409290987796],["globális",-9.542730461657094],["szerencsé",-9.542763560563625],["egyedül",-9.542827749386166],["reagál",-9.542863011746352],["érdem",-9.543199705136406],["gyártás",-9.543888266486626],["kislány",-9.547452201727214],["alkalmazás",-9.54766821687067],["mondás",-9.548516304214784],["lényeg",-9.549889405849596],["nyomás",-9.552164274785177],["vizsgá",-9.55272634578221],["versenyző",-9.55830790823292],["képvisel",-9.558803875821482],["öröm",-9.559702673455448],["tánc",-9.560560798519745],["stabil",-9.560717214294755],["aktív",-9.561913457030617],["export",-9.561920517105087],["szombat",-9.563438270761946],["fáj",-9.566321463949016],["ozni",-9.566728676891078],["polgár",-9.567649028099233],["Ju",-9.569228429375974],["értékesít",-9.569624082336201],["mozgás",-9.571226030235433],["melyik",-9.57509050300845],["Sándor",-9.575342363819669],["labda",-9.57535077912476],["vezér",-9.577593567216152],["készített",-9.578536730080911],["nemzet",-9.58006696393712],["zené",-9.581673056050729],["digitális",-9.582735730668762],["közvetlen",-9.582740153943625],["falu",-9.583090279672293],["tartj",-9.586426488018466],["benzin",-9.589000609828714],["Országos",-9.590184508949132],["Tovább",-9.5901845302166],["okozta",-9.593745128359405],["bázis",-9.593934936567283],["természetese",-9.594104631367706],["energiá",-9.59768450267493],["érvényes",-9.597701483624455],["hangulat",-9.59771076906188],["ock",-9.598040692062533],["figyelmeztet",-9.60146544462085],["tanulmány",-9.60174070761488],["merül",-9.604127512167816],["szomszéd",-9.60525069188124],["Attila",-9.605251769922653],["tájékoztatás",-9.606762569204736],["szabadság",-9.606785404186233],["pálya",-9.60905820525688],["válaszol",-9.610266572346415],["Gábor",-9.612878713105406],["külügyminiszter",-9.616701216349359],["vásárló",-9.617166835024435],["mutatta",-9.620320804621239],["Ü",-9.620547335587585],["András",-9.620548724016317],["telep",-9.622838826652973],["közepé",-9.624443493809476],["befolyás",-9.624451233232325],["államtitkár",-9.628284343875256],["körülmények",-9.628312686408918],["kodó",-9.628669212462512],["választott",-9.628893386700843],["szerző",-9.63104587083269],["felmérés",-9.632672425710204],["finanszíroz",-9.636081609031102],["csütörtök",-9.63939364888814],["Fidesz",-9.64000997215333],["tartózkod",-9.640063420683905],["tapasztalat",-9.641514579785936],["eredeti",-9.643947128732025],["dolog",-9.644010242030355],[";",-9.647892754695919],["rúg",-9.648735225536035],["művek",-9.648966055636372],["veszteség",-9.651985172665391],["kedés",-9.652043231489976],["politiká",-9.655845146695622],["hamarosan",-9.659847057696865],["Kijev",-9.659856620560532],["állampolgár",-9.660177353910381],["szokás",-9.66096003355354],["alakítás",-9.662495849615937],["fesztivál",-9.663861218617074],["témá",-9.665565118614456],["Ugyan",-9.667320008402704],["ápol",-9.668360211575907],["rekord",-9.66866585001357],["ajtó",-9.669309808685956],["alacsony",-9.669429287300549],["import",-9.669881875865375],["juttat",-9.671924127199738],["debreceni",-9.671941978696344],["szándék",-9.67194292959747],["közölt",-9.672487187353777],["tudomány",-9.676015096315957],["Szerinte",-9.676079152844627],["kezdődött",-9.676838991195979],["alacsonyabb",-9.678536345355472],["elhunyt",-9.680092562239636],["lánc",-9.68068191945081],["szerda",-9.682452690395007],["asszony",-9.684187599577477],["bővít",-9.684210722732898],["nagyjá",-9.688187637668285],["ellenőrzés",-9.688303267000249],["kereslet",-9.69001657775592],["rendelt",-9.694527602494736],["György",-9.696585644882301],["terjeszt",-9.696599469750325],["vírus",-9.696627702407392],["szektor",-9.696758094166942],["pedagógus",-9.700750513688956],["kényszer",-9.701669343118557],["keretébe",-9.703315307854337],["vize",-9.704088373010874],["kísérlet",-9.705486934619397],["béke",-9.70844426015406],["Zelenszkij",-9.709136294796874],["finom",-9.709283885439486],["tanú",-9.711872335904928],["gondolkod",-9.712332253677854],["magyarországi",-9.713599744761758],["takarít",-9.71614482455292],["résztvevő",-9.717847893991035],["tényleg",-9.71790740314052],["gyilkos",-9.721848396095602],["kategóriá",-9.721849468253444],["korlátozás",-9.722269296361025],["Észak",-9.724140854951528],["vásár",-9.725791532543406],["pozitív",-9.726121880282406],["üzemeltet",-9.726216606931303],["mondani",-9.727805307364946],["jegyezte",-9.728048703495876],["utasít",-9.729560389933557],["hesse",-9.729844711569367],["motor",-9.732351216294632],["adomány",-9.734776235891232],["háztartás",-9.740994227943071],["érzés",-9.741584337425559],["korláto",-9.742035284881922],["hideg",-9.74239258029623],["lato",-9.743100498632067],["oszl",-9.743212795550551],["Vlagyimir",-9.743400836361008],["udvar",-9.74453493274731],["körülbelül",-9.748401801355607],["szankció",-9.751430940338654],["…",-9.752153613496207],["Szövetség",-9.752153711454117],["média",-9.752179170443467],["indok",-9.752677157660958],["mozg",-9.752983409214103],["angol",-9.753382415292599],["hass",-9.757531878220515],["hajtott",-9.758703165957826],["felesége",-9.75923702192177],["elemző",-9.762328844998937],["növény",-9.765460814361138],["különbség",-9.765530681264288],["akadályoz",-9.769892530214438],["utóbb",-9.77204042563438],["gazdag",-9.774379343960995],["templom",-9.774381753667006],["plusz",-9.775278777371007],["gyógyszer",-9.775469311916938],["kapacitás",-9.778881462399308],["tisztelet",-9.782709091277392],["interjú",-9.783406591774476],["kötelező",-9.783409123093094],["Ugyanakkor",-9.784073653630124],["Gergely",-9.78795157691946],["bővül",-9.787955230420035],["megvalósít",-9.788017243219137],["módszer",-9.789140471102463],["The",-9.790836962991861],["hivatkoz",-9.792517853944865],["rajongó",-9.792519815230087],["alapvető",-9.792519978803949],["Nyugat",-9.79710496182452],["levegő",-9.797107302104617],["igyekez",-9.797117502015595],["ajándék",-9.801717855275998],["felújítás",-9.80173462463112],["testvér",-9.802563798351088],["tárca",-9.802632948352008],["négyzetméter",-9.80634287232892],["kedvezmény",-9.806344587912832],["sáv",-9.806650831190343],["édesanyj",-9.811004747277785],["javasol",-9.811063019312368],["Megyei",-9.815722262374967],["Össze",-9.815778926292818],["vadász",-9.815789100400021],["titko",-9.81703471967375],["futball",-9.817451246897061],["kommunikáció",-9.82036236923446],["hasonlít",-9.820363857946635],["hozzájárul",-9.820376045292182],["Kína",-9.820389542523584],["rajz",-9.822049257056388],["stratégia",-9.825078728184895],["József",-9.825078739353074],["platform",-9.825078767710636],["Zsolt",-9.825114483297762],["vitá",-9.826036697483367],["kemény",-9.826394447140075],["közleked",-9.8294489949043],["front",-9.830142114585438],["tanít",-9.831236603098759],["érzi",-9.833642472279836],["egyeztet",-9.834545172274204],["bűncselekmény",-9.834579968286782],["befektetés",-9.834621917891848],["érze",-9.838703071918182],["észeti",-9.839310999615588],["forgat",-9.839871695711713],["technológiá",-9.844172349548783],["Lengyelország",-9.844172359711706],["fürdő",-9.844172362267269],["nyilvánosság",-9.844207704104637],["lehetséges",-9.844339893022198],["vádlott",-9.844345948397212],["gyengül",-9.846070008103244],["börtön",-9.85385820028418],["ológiai",-9.853858341749529],["becsül",-9.854173879491867],["láng",-9.854909848350067],["kultúr",-9.858741005850224],["modern",-9.858772286454416],["kedvező",-9.858773685076278],["teher",-9.859592451905783],["foglalkoztat",-9.86207338869007],["vállalkozó",-9.86365367851054],["szűk",-9.867811046564928],["várakozás",-9.868571721416115],["védekez",-9.868671370320431],["munkájá",-9.873117612145709],["Covid",-9.873517490726051],["sofőr",-9.873529705878251],["befektető",-9.873816769488236],["mester",-9.874231870188124],["emlékeztet",-9.876116697570039],["Szabó",-9.878506810242367],["ötlet",-9.878795984080355],["tatta",-9.87963020298411],["dokumentum",-9.883489373897142],["hazánk",-9.883589509829644],["beszámoló",-9.883606565715684],["bocsát",-9.888412555356737],["éjszaka",-9.888517396703183],["labdá",-9.8885246160741],["azonosít",-9.888836232831128],["következménye",-9.893565482085398],["színpad",-9.8935920893639],["kiváló",-9.893693876433225],["jelezte",-9.893857092756745],["rendelet",-9.893965143462996],["ődött",-9.895905892790482],["csodá",-9.897661416247265],["minke",-9.898212060189206],["magunk",-9.898706257278391],["folytatód",-9.901723069175194],["szlovák",-9.903744026833795],["Ráadás",-9.903753189005009],["támasz",-9.904150788417782],["idegen",-9.905168087056229],["kollégá",-9.90887420736279],["Tanács",-9.908875155724992],["pihen",-9.909043951643842],["'",-9.914026031650742],["tökéletes",-9.91921178418227],["alkalmazott",-9.922300486864856],["Nép",-9.924627008372315],["fekete",-9.925721879792805],["vereség",-9.927974935376318],["Hajdú",-9.929651518390244],["búcsú",-9.929652103321931],["ügyészség",-9.929654826105462],["időjárás",-9.929731522291373],["probléma",-9.934914472208277],["Instagram",-9.934914472510005],["pozíció",-9.934914480670194],["ötödik",-9.93491859347394],["Három",-9.934971782354598],["Varg",-9.935036082497495],["rdély",-9.936289441162323],["ajánlat",-9.94034913447874],["tudju",-9.94184294746973],["lövés",-9.942214245213787],["szülei",-9.942471707276216],["klíma",-9.94552504416925],["negatív",-9.945525662757174],["béké",-9.946424348848037],["elismerés",-9.948314467434997],["Twitter",-9.950872256796613],["birtok",-9.956252910733001],["következté",-9.956265999738378],["szurkol",-9.956267539006099],["külső",-9.95628279146285],["GDP",-9.95629003392724],["dísz",-9.956772922707778],["hagyomány",-9.95899051781118],["segély",-9.961654207390174],["láz",-9.963704763285378],["kötelezettség",-9.97255323563098],["könnyű",-9.972553399288863],["újságíró",-9.972553485096716],["Tóth",-9.978063303019972],["ágazat",-9.978243483868049],["fektet",-9.980132510268966],["tartana",-9.980493083568206],["szobá",-9.980662456649437],["kölcsön",-9.983572720638463],["munkavállaló",-9.983589886386534],["művelet",-9.98384541466898],["kiegészít",-9.984568939119344],["felhasználás",-9.984608086388231],["érezte",-9.988097116151312],["Nyíregyház",-9.989128159959822],["Balázs",-9.989130343302161],["példa",-9.989152582340948],["tragédi",-9.99471490096435],["Ilyen",-9.994783217245391],["politika",-9.99803337039558],["Moszkva",-10.000333466184124],["állomány",-10.000343273127019],["énekesnő",-10.000364497132061],["húzód",-10.004663400867372],["minősít",-10.005996399255663],["történelmi",-10.006052812281155],["New",-10.011748602797121],["híd",-10.015273781696525],["&",-10.017378546953418],["olimpia",-10.017378708536526],["fölé",-10.022519388756097],["Szijjártó",-10.023125673793917],["invázió",-10.023125676284053],["Fontos",-10.023137886080075],["vizsgált",-10.026035223634372],["csapadék",-10.028908395743368],["szellem",-10.029047412090083],["Emellet",-10.02948064654247],["hajtás",-10.032026247299333],["mindenképp",-10.033382576077306],["ajánlott",-10.034794779973762],["sincs",-10.035088418579583],["hajlandó",-10.040568139868004],["herceg",-10.040568307873475],["országgyűlési",-10.040568379336364],["valósul",-10.040796185257019],["vihar",-10.046435392413418],["sajtótájékoztató",-10.046451089555692],["testület",-10.046474277786752],["levél",-10.046666626584136],["hajnal",-10.046728970614641],["vegye",-10.047417691962497],["kerékpár",-10.052368563980615],["véletlen",-10.052387905528565],["fenntartható",-10.05242361798711],["önkéntes",-10.052435310472195],["telepít",-10.056537850967656],["kizárólag",-10.058319940063445],["gyanúsított",-10.058325517423054],["befejez",-10.058769574198616],["vizsgálj",-10.06227253749497],["előzetes",-10.06431453373926],["Ó",-10.070331940910265],["Nemzetközi",-10.070331947131336],["hátrány",-10.070349261882436],["zuhan",-10.070356669895816],["Biden",-10.070447648688805],["rögzít",-10.07639268252389],["Kovács",-10.076397129023793],["ológus",-10.076422804974795],["Fehér",-10.082490834309766],["csúsz",-10.083051713656326],["közelébe",-10.08390517269089],["csatorná",-10.088626575762525],["Balaton",-10.088629521638694],["csillag",-10.08863542747847],["tartalék",-10.088653185734756],["Olyan",-10.089034045616003],["Franciaország",-10.094797917422033],["létesítmény",-10.10100909712612],["robbanás",-10.10106307519575],["mozdul",-10.10725957574055],["repülőgép",-10.107261559715319],["munkatársai",-10.10730217420646],["üveg",-10.107437887499067],["körébe",-10.109578718364777],["Erzsébet",-10.113548405146666],["Királyság",-10.113548411583068],["szigorú",-10.113548704248341],["ingyenes",-10.11355045114685],["kedvenc",-10.113778897238465],["erejé",-10.11690058362517],["tudatos",-10.118031394961204],["Katalin",-10.119879356815161],["keletkez",-10.11988086229017],["árstop",-10.119881885072509],["irodá",-10.120322528010623],["külföld",-10.120580116238873],["generáció",-10.12624768178853],["intéz",-10.131259826700603],["érzékel",-10.132682266302922],["Föld",-10.132771618579039],["Brüsszel",-10.139108815599855],["Világ",-10.139109686262536],["állítólag",-10.139113830250118],["állapított",-10.1391140752713],["megszűn",-10.139123632414309],["foci",-10.13919663098574],["értelmé",-10.139631354321068],["virág",-10.145753860394088],["Sajn",-10.14637658669886],["reform",-10.147300439779086],["olcsóbb",-10.152160209673434],["médiá",-10.15238338296739],["produkció",-10.158717222049791],["fizikai",-10.158721352310307],["szöveg",-10.158749833900497],["édesapj",-10.158756454413556],["fejezte",-10.165098254528488],["ă",-10.165339733197893],["regisztrál",-10.16533973326772],["igyeksz",-10.16562179581443],["figyelembe",-10.165843506432413],["idejé",-10.167968546587446],["kapitány",-10.17200443012712],["társadalmi",-10.172008024676966],["fekvő",-10.172009498351503],["hulladék",-10.178717812728367],["Romániá",-10.178718480797492],["Jelenleg",-10.178718943857707],["társadalom",-10.185476136907909],["hirtelen",-10.192285189252267],["televízió",-10.199126621530887],["főkapitányság",-10.199128078070515],["Tavaly",-10.199134598656723],["kutyá",-10.199165810993872],["rezsicsökkentés",-10.206023242921404],["sugár",-10.206027849895197],["elárulta",-10.206076911155368],["gyakori",-10.206082293110903],["hordoz",-10.206308391733401],["Q",-10.2129675983428],["nukleáris",-10.212967609392628],["meglepetés",-10.212967783622997],["Miklós",-10.212969297412823],["oogle",-10.213023328905583],["veszélyeztet",-10.213182951524036],["meglepő",-10.214860745304359],["hárít",-10.215177417024826],["Európá",-10.21735936617995],["tényező",-10.220019856049552],["kibocsátás",-10.220127572589403],["áruház",-10.220482789851333],["Természetes",-10.22700285886946],["Kárpát",-10.227003832564549],["funkció",-10.227018197781664],["szívese",-10.234002021194303],["Hivatal",-10.234095694119036],["spanyol",-10.23409571829882],["konkrét",-10.234097159550092],["Szeged",-10.241239892877505],["igazá",-10.247495657670953],["Románia",-10.248432399375947],["Emlék",-10.24843336029265],["ezüst",-10.248555958775288],["kamerá",-10.24939772329431],["Krisztián",-10.255678536060072],["Gulyás",-10.255678820120938],["karrier",-10.255680475192264],["gondoskod",-10.255690542686505],["következet",-10.2556972533497],["jöhet",-10.25579265080695],["hivatáso",-10.26297914908789],["sebesség",-10.2629845175556],["lendül",-10.263165776587947],["Kíná",-10.263192548241427],["szuper",-10.263486451912266],["+",-10.270330747246724],["intenzív",-10.27033081446392],["látványos",-10.270518995675122],["említ",-10.273487708473692],["kritikus",-10.277739233309573],["Kreml",-10.277745672142023],["lassan",-10.278403087991974],["Szombat",-10.285202474402755],["atomerőmű",-10.2852061252918],["katasztrófavédel",-10.292719638240317],["spórol",-10.292719935645813],["alkohol",-10.292723042151582],["szerkezet",-10.292724247173226],["tőzsde",-10.300295941708788],["Lajos",-10.300307295855252],["köbméter",-10.307929063613027],["egyenlít",-10.308498235290902],["miskolci",-10.315621321132284],["aktuális",-10.31562167484233],["Olaszország",-10.31562783279351],["Végül",-10.315634629847857],["táblá",-10.315661501108472],["blokk",-10.315662964151624],["aggód",-10.315711526137617],["szociális",-10.323373268136333],["PlayStation",-10.3311857292526],["beavatkozás",-10.331185731037774],["stílus",-10.331185770820722],["Intézet",-10.331185774582883],["Mihály",-10.33118585112766],["Moszkvá",-10.331186550983968],["Dunaújváros",-10.331186608519928],["védelmé",-10.331234127905262],["bizalm",-10.331252908353905],["honlapján",-10.339060564052257],["brüsszeli",-10.354996252939765],["zivatar",-10.354997311654225],["Xbox",-10.354997942815272],["Apple",-10.35501367795184],["harminc",-10.363060777970732],["akkumulátor",-10.371190850369285],["Szabolcs",-10.371190871020662],["kripto",-10.371190881782606],["pandémi",-10.371190994731739],["megszüntet",-10.371191093776888],["illegális",-10.371193094658388],["svájci",-10.37938772990694],["Korábban",-10.379390278276738],["gyakorol",-10.379410625921022],["duplá",-10.379491167682632],["érzékeny",-10.387652044065325],["tőzsdé",-10.387652161867024],["szoftver",-10.387652230154128],["drágább",-10.387652251118],["villamos",-10.391182555711218],["múzeum",-10.395985379723035],["izgalmas",-10.395985462048003],["itárius",-10.396006076131844],["feszít",-10.396934003798798],["’",-10.412863305437433],["gyümölcs",-10.412863305711408],["Alapítvány",-10.412863306070015],["ideiglenes",-10.41286334382876],["Szerencsé",-10.412876374527611],["energetikai",-10.421410314062697],["csarnok",-10.421413388242836],["Gyurcsány",-10.43003100517498],["speciális",-10.430031006066177],["endőrkapitányság",-10.430034011228962],["stratégiá",-10.447498591419423],["stúdió",-10.447499567150256],["nehezít",-10.447885910219487],["gyönyörű",-10.456348143190926],["rögtön",-10.45634815173198],["tranzakció",-10.456348189453005],["botrány",-10.456349237083193],["feleségé",-10.456610040223019],["kontinens",-10.465276725157835],["epsiszentgyörgyi",-10.467941218578414],["alternatív",-10.47428572969135],["elképesztő",-10.47428579008184],["büszke",-10.474285905761077],["sztrájk",-10.474286015341258],["táplál",-10.474287277193252],["helikopter",-10.4833766336139],["minimum",-10.483377742847694],["kommun",-10.492551557502683],["vezérigazgatój",-10.492570752426756],["éjszaká",-10.501818117651986],["következte",-10.50184003799234],["kártyá",-10.511291439755787],["č",-10.520589960531243],["szexuális",-10.52058997875396],["klasszikus",-10.520590047447833],["Utóbbi",-10.520590052213628],["pusztít",-10.520678687722636],["Microsoft",-10.530113770058447],["Hozzá",-10.53919697854074],["Múzeum",-10.539729159279116],["gazdálkodás",-10.539729171785474],["Székely",-10.539729984287693],["ügynökség",-10.549112343543673],["feszültség",-10.549437985493533],["Éppen",-10.549438707319991],["Mariupol",-10.559241911194286],["korrupció",-10.569142816174228],["szerkesztő",-10.56914282991896],["alapítvány",-10.569142905348984],["garantál",-10.569142968400282],["óvodá",-10.570097257908802],["Szolgálat",-10.579142805228539],["Parlament",-10.579142806505747],["Színház",-10.579143037746153],["enyhít",-10.57929797465691],["Ú",-10.584578328354045],["́",-10.589243814303163],["onzervatív",-10.58924381632578],["Kossuth",-10.599447898824376],["Zemplén",-10.599447899588107],["konferenciá",-10.599447902362567],["Dávid",-10.599448206921931],["volumen",-10.599448644222253],["illetékes",-10.599448963367665],["Karácsony",-10.609757174439029],["koncentrál",-10.609757174468282],["párhuzamos",-10.609757176944452],["Horváth",-10.630700159268848],["innováció",-10.630700189480919],["vakciná",-10.630701081514445],["Sepsiszentgyörgy",-10.638170260334048],["sürgős",-10.641338456377095],["agresszió",-10.641338458499337],["Minisztérium",-10.652091142789615],["kancellár",-10.65209114310286],["maximum",-10.652091143287432],["medencé",-10.662961497254805],["infrastruktúrá",-10.707660421524183],["kulcsfontosságú",-10.719154674398755],["koalíció",-10.71915467719464],["Általános",-10.719154714368184],["jövedelm",-10.730783249375566],["könnyít",-10.730792407975647],["Miniszterelnök",-10.742547287410762],["recesszió",-10.74254729487308],["potenciál",-10.74254735655408],["kábítószer",-10.75445204989357],["nyíregyházi",-10.754452051000754],["szórakoztat",-10.754452075155498],["š",-10.76650024193269],["Washington",-10.766500241934239],["Országgyűlés",-10.77869536388409],["selejtező",-10.778695375796172],["turisztikai",-10.791041042924828],["fertőződ",-10.803541389312485],["informatika",-10.816199270754364],["Spanyolország",-10.816199271188026],["Horvátország",-10.816199279536407],["tüzérség",-10.816199283873907],["Hungary",-10.842006796631285],["Szlovákia",-10.842006798469846],["Érdekes",-10.842006811306266],["incidens",-10.895710174240508],["bonyolít",-10.895712231994308],["Veszprém",-10.909599057386982],["Hangsúlyozt",-10.909599057531915],["»",-10.937969278489415],["portfólió",-10.982093287623574],["Gimnázium",-11.012629418136196],["menedzser",-11.012629421050306],["ș",-11.028254418136003],["gimnázium",-11.028254418137266],["örnyezetvédelmi",-11.04187395062436],["infrastruktúra",-11.060256466267084],["YouTube",-11.060256466267198],["intelligencia",-11.060256466293028],["tevékenyked",-11.093316575562763],["konstrukció",-11.093316575568803],["Meteorológia",-11.093316603350528],["Katasztrófavédel",-11.199608446617],["Értéktőzsd",-11.199608593326495],["Hódmezővásárhely",-11.237707140375202],["q",-11.275892587365277],["Kézdivásárhely",-11.31855648011234],["Technológia",-11.318556502880396],["ć",-11.339833075855667],["ajdúböszörmény",-11.477977282911763],["«",-11.609738902824912],["ý",-11.698025126405252],["ä",-11.794866524254715],["è",-11.794866524254715],["Š",-11.86506356858969],["Ű",-11.940562144088265],["Ľ",-11.940562144088265],["*",-11.940562144088265],["Č",-11.94056214408827],["ț",-12.022228810754932],["â",-12.022228810754932],["õ",-12.20878066469809],["Ș",-12.208780664698093],["°",-12.26141224364546],["•",-12.316967799201016],["î",-12.375791328612785],["ž",-12.438291328612788],["—",-12.576386566708054],["ş",-12.576386566708056],["ľ",-12.653309643631173],["à",-12.653309643631173],["û",-12.73664297696461],["̋",-12.73664297696461],["ł",-12.82755206787397],["ď",-12.927552067874743],["−",-13.03866317898833],["ţ",-13.03866317898833],["ë",-13.03866317898833],["ř",-13.163663178997432],["ç",-13.306520321894537],["×",-13.306520321894537],["Ž",-13.473186988521244],["ě",-13.473186988561203],["ğ",-13.473186988561203],["å",-13.673186988521248],["️",-13.673186988561204],["$",-13.923186988561204],["‘",-13.923186988561204],["‐",-13.923186988561204],["~",-13.923186988561204],["®",-13.923186988561204],["❗",-13.923186988561204],["μ",-13.923186988561204],[">",-13.923186988561204],["ę",-14.256520321894529],["ā",-14.25652032189453],["³",-14.256520321894536],["ô",-14.256520321894536],["Ç",-14.256520321894536],["Ț",-14.256520321894536],["ť",-14.256520321894536],["Ä",-14.756520321894532],["Å",-14.756520321894538],["‒",-14.756520321894538],["‑",-14.756520321894538],["ð",-14.756520321894538],["ï",-14.756520321894538],["€",-14.756520321894538],["ñ",-14.756520321894538],["ʼ",-14.756520321894538],["²",-14.756520321894538],["ã",-14.756520321894538],["<",-14.756520321894538],["·",-14.756520321894538],["đ",-15.756020321894535],["ň",-15.756120321894535],["Đ",-15.756220321894537],["̈",-15.756320321894536],["Ď",-15.756420321894536],["Ş",-15.756520321854588],["Ć",-15.7565203218546],["ń",-15.756520321894536],["†",-15.756520321894536],["‼",-15.756520321894536],["µ",-15.756520321894536],["﷯",-15.756520321894536],["§",-15.756520321894536],["Ţ",-15.756520321894536],["Ø",-15.756520321894536],["β",-15.756520321894536],["ò",-15.756520321894536],["ø",-15.756520321894536],["´",-15.756520321894536],["➡",-15.756520321894536],["Õ",-15.756520321894536],["È",-15.756520321894536]]}}