{"version":"1.0","truncation":null,"padding":null,"added_tokens":[{"id":0,"special":true,"content":"<UNK>","single_word":false,"lstrip":false,"rstrip":false,"normalized":false},{"id":1,"special":true,"content":"<SEP>","single_word":false,"lstrip":false,"rstrip":false,"normalized":false},{"id":2,"special":true,"content":"<MASK>","single_word":false,"lstrip":false,"rstrip":false,"normalized":false},{"id":3,"special":true,"content":"<CLS>","single_word":false,"lstrip":false,"rstrip":false,"normalized":false}],"normalizer":null,"pre_tokenizer":{"type":"Whitespace"},"post_processor":null,"decoder":null,"model":{"type":"BPE","dropout":null,"unk_token":"<UNK>","continuing_subword_prefix":null,"end_of_word_suffix":null,"fuse_unk":false,"vocab":{"<UNK>":0,"<SEP>":1,"<MASK>":2,"<CLS>":3,"!":4,"\"":5,"$":6,"%":7,"&":8,"'":9,"(":10,")":11,"*":12,"+":13,",":14,"-":15,".":16,"/":17,"0":18,"1":19,"2":20,"3":21,"4":22,"5":23,"6":24,"7":25,"8":26,"9":27,":":28,";":29,"<":30,">":31,"?":32,"A":33,"B":34,"C":35,"D":36,"E":37,"F":38,"G":39,"H":40,"I":41,"J":42,"K":43,"L":44,"M":45,"N":46,"O":47,"P":48,"Q":49,"R":50,"S":51,"T":52,"U":53,"V":54,"W":55,"X":56,"Y":57,"Z":58,"a":59,"b":60,"c":61,"d":62,"e":63,"f":64,"g":65,"h":66,"i":67,"j":68,"k":69,"l":70,"m":71,"n":72,"o":73,"p":74,"q":75,"r":76,"s":77,"t":78,"u":79,"v":80,"w":81,"x":82,"y":83,"z":84,"~":85,"§":86,"«":87,"®":88,"°":89,"²":90,"³":91,"´":92,"µ":93,"·":94,"»":95,"Á":96,"Ä":97,"Å":98,"Ç":99,"È":100,"É":101,"Í":102,"Ó":103,"Õ":104,"Ö":105,"×":106,"Ø":107,"Ú":108,"Ü":109,"à":110,"á":111,"â":112,"ã":113,"ä":114,"å":115,"ç":116,"è":117,"é":118,"ë":119,"í":120,"î":121,"ï":122,"ð":123,"ñ":124,"ò":125,"ó":126,"ô":127,"õ":128,"ö":129,"ø":130,"ú":131,"û":132,"ü":133,"ý":134,"ā":135,"ă":136,"Ć":137,"ć":138,"Č":139,"č":140,"Ď":141,"ď":142,"Đ":143,"đ":144,"ę":145,"ě":146,"ğ":147,"Ľ":148,"ľ":149,"ł":150,"ń":151,"ň":152,"Ő":153,"ő":154,"ř":155,"Ş":156,"ş":157,"Š":158,"š":159,"Ţ":160,"ţ":161,"ť":162,"Ű":163,"ű":164,"Ž":165,"ž":166,"Ș":167,"ș":168,"Ț":169,"ț":170,"ʼ":171,"́":172,"̈":173,"̋":174,"β":175,"μ":176,"‐":177,"‑":178,"‒":179,"–":180,"—":181,"‘":182,"’":183,"“":184,"”":185,"„":186,"†":187,"•":188,"…":189,"‼":190,"€":191,"−":192,"❗":193,"➡":194,"﷯":195,"️":196,"sz":197,"el":198,"et":199,"en":200,"gy":201,"er":202,"at":203,"al":204,"an":205,"az":206,"ek":207,"és":208,"ak":209,"or":210,"ár":211,"in":212,"em":213,"on":214,"ol":215,"ál":216,"eg":217,"ás":218,"ez":219,"is":220,"es":221,"án":222,"tt":223,"ok":224,"ér":225,"ar":226,"ég":227,"ho":228,"ik":229,"én":230,"egy":231,"os":232,"kö":233,"bb":234,"cs":235,"át":236,"ül":237,"ett":238,"am":239,"ít":240,"él":241,"meg":242,"ág":243,"ap":244,"hogy":245,"ék":246,"ban":247,"ét":248,"ed":249,"int":250,"ad":251,"ben":252,"ott":253,"szer":254,"agy":255,"il":256,"szt":257,"oz":258,"it":259,"ra":260,"ut":261,"ki":262,"om":263,"re":264,"ség":265,"ta":266,"nem":267,"köz":268,"ny":269,"ig":270,"fel":271,"ni":272,"tö":273,"ól":274,"ja":275,"ul":276,"le":277,"ák":278,"áz":279,"áll":280,"ell":281,"be":282,"ép":283,"og":284,"ely":285,"nk":286,"as":287,"aj":288,"hat":289,"ai":290,"nak":291,"ent":292,"ész":293,"ány":294,"ám":295,"het":296,"év":297,"ény":298,"ért":299,"nek":300,"kor":301,"elő":302,"Az":303,"iz":304,"id":305,"val":306,"olt":307,"ag":308,"ot":309,"te":310,"ind":311,"mi":312,"ci":313,"ság":314,"leg":315,"uk":316,"end":317,"jel":318,"ter":319,"us":320,"vez":321,"ől":322,"kez":323,"ált":324,"for":325,"od":326,"unk":327,"ont":328,"szág":329,"art":330,"ön":331,"ország":332,"hoz":333,"hely":334,"ud":335,"ír":336,"oly":337,"ös":338,"de":339,"ve":340,"ber":341,"szám":342,"ók":343,"ne":344,"nagy":345,"ök":346,"ond":347,"nap":348,"volt":349,"ha":350,"vet":351,"ill":352,"ük":353,"rend":354,"már":355,"mind":356,"ker":357,"ov":358,"több":359,"att":360,"ább":361,"szerint":362,"ők":363,"agyar":364,"ur":365,"20":366,"áb":367,"ában":368,"kal":369,"új":370,"öl":371,"sza":372,"vár":373,"tel":374,"ént":375,"elm":376,"ej":377,"ében":378,"fog":379,"ült":380,"Sz":381,"ív":382,"osz":383,"pr":384,"tart":385,"eket":386,"úl":387,"hi":388,"ött":389,"ős":390,"ára":391,"kap":392,"olg":393,"mű":394,"vezet":395,"száz":396,"ások":397,"van":398,"jelent":399,"vel":400,"ette":401,"ia":402,"ked":403,"tud":404,"azt":405,"éd":406,"ember":407,"lehet":408,"ert":409,"kép":410,"éz":411,"tör":412,"ját":413,"fi":414,"vég":415,"kül":416,"szak":417,"még":418,"len":419,"kell":420,"ció":421,"más":422,"csak":423,"iszt":424,"alék":425,"ör":426,"jár":427,"mag":428,"mint":429,"zet":430,"biz":431,"amely":432,"ba":433,"százalék":434,"ep":435,"után":436,"ály":437,"vál":438,"ebb":439,"ped":440,"ása":441,"ir":442,"ése":443,"vagy":444,"ást":445,"ják":446,"ajd":447,"aszt":448,"koz":449,"tal":450,"ház":451,"össz":452,"ról":453,"est":454,"vis":455,"ünk":456,"sem":457,"pedig":458,"nál":459,"tat":460,"um":461,"ület":462,"ony":463,"két":464,"érd":465,"ügy":466,"mény":467,"obb":468,"ély":469,"ezt":470,"okat":471,"min":472,"áj":473,"öv":474,"ód":475,"szem":476,"na":477,"mány":478,"ső":479,"ést":480,"Ez":481,"ellen":482,"ami":483,"ható":484,"tak":485,"tár":486,"rész":487,"ió":488,"ított":489,"magyar":490,"ának":491,"vi":492,"követ":493,"abb":494,"fő":495,"né":496,"elt":497,"ző":498,"minden":499,"mond":500,"tan":501,"mill":502,"pont":503,"ei":504,"lát":505,"ort":506,"han":507,"azon":508,"old":509,"ór":510,"ére":511,"foly":512,"kör":513,"hal":514,"őr":515,"gyan":516,"uró":517,"ín":518,"sor":519,"let":520,"ver":521,"orosz":522,"hez":523,"ád":524,"va":525,"je":526,"ug":527,"alm":528,"Egy":529,"idő":530,"ási":531,"majd":532,"bel":533,"fej":534,"sok":535,"vil":536,"esen":537,"any":538,"élet":539,"im":540,"ének":541,"eny":542,"utat":543,"tám":544,"ogat":545,"op":546,"kel":547,"áció":548,"eset":549,"lesz":550,"nök":551,"ab":552,"ult":553,"alap":554,"munk":555,"st":556,"ism":557,"véd":558,"ovább":559,"nő":560,"vált":561,"íz":562,"aki":563,"ost":564,"akkor":565,"raj":566,"kezd":567,"zés":568,"bizt":569,"kész":570,"ával":571,"árt":572,"emel":573,"ót":574,"ob":575,"ális":576,"forint":577,"világ":578,"ós":579,"üz":580,"men":581,"így":582,"Magyar":583,"yen":584,"úgy":585,"miatt":586,"között":587,"tovább":588,"von":589,"ból":590,"tört":591,"aság":592,"emény":593,"lak":594,"ikai":595,"osan":596,"olyan":597,"atok":598,"tet":599,"kormány":600,"ítás":601,"lan":602,"eni":603,"előtt":604,"tek":605,"csap":606,"ről":607,"város":608,"ési":609,"Or":610,"eng":611,"azd":612,"első":613,"szín":614,"érték":615,"kis":616,"uróp":617,"di":618,"ilyen":619,"ugyan":620,"kol":621,"szab":622,"hol":623,"mell":624,"hét":625,"mér":626,"asz":627,"00":628,"zs":629,"har":630,"fél":631,"rán":632,"hasz":633,"ből":634,"elnök":635,"út":636,"állal":637,"elem":638,"ün":639,"ések":640,"dön":641,"öz":642,"ábor":643,"ként":644,"igaz":645,"nél":646,"vállal":647,"gat":648,"eszt":649,"hető":650,"hozz":651,"atal":652,"telj":653,"erg":654,"gazd":655,"nyi":656,"eb":657,"vas":658,"miniszt":659,"jelen":660,"esz":661,"term":662,"utó":663,"ink":664,"202":665,"azonban":666,"ani":667,"seg":668,"ch":669,"szint":670,"vény":671,"szél":672,"egész":673,"kapcs":674,"egyik":675,"lő":676,"ták":677,"Nem":678,"vezető":679,"ikus":680,"par":681,"ikor":682,"dolg":683,"ász":684,"éves":685,"gyer":686,"talál":687,"ev":688,"által":689,"oszt":690,"étel":691,"ló":692,"árd":693,"szen":694,"elmi":695,"hár":696,"ment":697,"adás":698,"alak":699,"lt":700,"etlen":701,"jó":702,"segít":703,"per":704,"juk":705,"mert":706,"ma":707,"föl":708,"erős":709,"játék":710,"fér":711,"19":712,"csal":713,"külön":714,"való":715,"esít":716,"mondta":717,"ével":718,"ran":719,"port":720,"szolg":721,"kat":722,"nagyobb":723,"mellett":724,"dig":725,"ati":726,"arra":727,"most":728,"mar":729,"bet":730,"haj":731,"össze":732,"száll":733,"Magyarország":734,"millió":735,"pol":736,"ján":737,"ukrán":738,"oldal":739,"font":740,"kapcsol":741,"hábor":742,"pl":743,"enek":744,"vol":745,"saj":746,"köd":747,"támogat":748,"ökk":749,"sal":750,"últ":751,"ését":752,"őség":753,"éter":754,"form":755,"visz":756,"tó":757,"hang":758,"un":759,"óta":760,"eked":761,"keres":762,"használ":763,"ezer":764,"tag":765,"ütt":766,"ásár":767,"ered":768,"közös":769,"sik":770,"gond":771,"lép":772,"miniszter":773,"rá":774,"énz":775,"valam":776,"három":777,"av":778,"eti":779,"közel":780,"érkez":781,"ém":782,"korább":783,"cél":784,"vesz":785,"energ":786,"nagyon":787,"csökk":788,"mes":789,"milli":790,"fiz":791,"ram":792,"választ":793,"öt":794,"ata":795,"adó":796,"haz":797,"dolgoz":798,"állam":799,"határ":800,"együtt":801,"ező":802,"cég":803,"gazdaság":804,"vány":805,"Európ":806,"milliárd":807,"figy":808,"érdek":809,"pénz":810,"tött":811,"pár":812,"zel":813,"ását":814,"ács":815,"dönt":816,"ettek":817,"ford":818,"űn":819,"család":820,"őz":821,"ették":822,"jobb":823,"kérd":824,"kon":825,"alatt":826,"fontos":827,"háború":828,"viz":829,"hagy":830,"helyzet":831,"dr":832,"változ":833,"hon":834,"úly":835,"vissza":836,"terület":837,"kom":838,"akik":839,"ekt":840,"oló":841,"nok":842,"kod":843,"társ":844,"íg":845,"dí":846,"tér":847,"Uk":848,"ván":849,"atkoz":850,"atot":851,"súly":852,"ából":853,"történ":854,"biztos":855,"jegy":856,"pia":857,"szerep":858,"ába":859,"Cs":860,"siker":861,"éld":862,"alkal":863,"működ":864,"rendszer":865,"folyam":866,"eml":867,"bal":868,"amikor":869,"lal":870,"ri":871,"erő":872,"szerű":873,"incs":874,"lét":875,"Ukraj":876,"ors":877,"nyug":878,"intéz":879,"kív":880,"következ":881,"hozzá":882,"szük":883,"10":884,"fü":885,"hó":886,"hív":887,"vers":888,"gáz":889,"észt":890,"inek":891,"mek":892,"szeret":893,"marad":894,"péld":895,"vásár":896,"eh":897,"séges":898,"emelked":899,"beszél":900,"illet":901,"ító":902,"ogy":903,"óz":904,"szó":905,"pály":906,"szól":907,"jog":908,"mutat":909,"ic":910,"fl":911,"usz":912,"kön":913,"polit":914,"anak":915,"jöv":916,"Orosz":917,"eken":918,"megy":919,"okoz":920,"számára":921,"tá":922,"anyag":923,"baj":924,"ahol":925,"hír":926,"enc":927,"személy":928,"kit":929,"An":930,"ko":931,"leszt":932,"fizet":933,"ségi":934,"der":935,"gal":936,"épít":937,"gel":938,"magas":939,"itt":940,"ing":941,"ex":942,"másod":943,"egyed":944,"omb":945,"arról":946,"hiv":947,"kam":948,"15":949,"százalékkal":950,"oll":951,"ezte":952,"valamint":953,"mely":954,"br":955,"verseny":956,"hónap":957,"ssz":958,"osság":959,"onság":960,"ac":961,"eredmény":962,"tól":963,"növ":964,"Oroszország":965,"közl":966,"kil":967,"közöl":968,"nyil":969,"rég":970,"foglal":971,"négy":972,"iai":973,"kar":974,"esség":975,"dél":976,"ogram":977,"ide":978,"Ha":979,"gyak":980,"iskol":981,"lap":982,"ismer":983,"lett":984,"and":985,"adott":986,"omány":987,"ezett":988,"vétel":989,"ően":990,"rendőr":991,"amit":992,"cí":993,"nemzet":994,"nyom":995,"ülés":996,"felelő":997,"őt":998,"kapcsolat":999},"merges":["s z","e l","e t","e n","g y","e r","a t","a l","a n","a z","e k","é s","a k","o r","á r","i n","e m","o n","o l","á l","e g","á s","e z","i s","e s","á n","t t","o k","é r","a r","é g","h o","i k","é n","e gy","o s","k ö","b b","c s","á t","ü l","et t","a m","í t","é l","m eg","á g","a p","ho gy","é k","b an","é t","e d","in t","a d","b en","o tt","sz er","a gy","i l","sz t","o z","i t","r a","u t","k i","o m","r e","s ég","t a","n em","kö z","n y","i g","f el","n i","t ö","ó l","j a","u l","l e","á k","á z","ál l","el l","b e","é p","o g","el y","n k","a s","a j","h at","a i","n ak","en t","é sz","án y","á m","h et","é v","én y","ér t","n ek","k or","el ő","A z","i z","i d","v al","ol t","a g","o t","t e","in d","m i","c i","s ág","l eg","u k","en d","j el","t er","u s","v ez","ő l","k ez","ál t","f or","o d","u nk","on t","sz ág","ar t","ö n","or szág","ho z","h ely","u d","í r","ol y","ö s","d e","v e","b er","sz ám","ó k","n e","n agy","ö k","on d","n ap","v olt","h a","v et","il l","ü k","r end","m ár","m ind","k er","o v","tö bb","at t","á bb","szer int","ő k","agy ar","u r","2 0","á b","á ban","k al","ú j","ö l","sz a","v ár","t el","én t","el m","e j","é ben","f og","ül t","S z","í v","o sz","p r","t art","ek et","ú l","h i","ö tt","ő s","ár a","k ap","ol g","m ű","vez et","sz áz","ás ok","v an","jel ent","v el","ett e","i a","k ed","t ud","az t","é d","em ber","le het","er t","k ép","é z","tö r","j át","f i","v ég","k ül","sz ak","m ég","l en","k ell","ci ó","m ás","cs ak","i szt","al ék","ö r","j ár","m ag","m int","z et","b iz","am ely","b a","száz alék","e p","ut án","ál y","v ál","e bb","p ed","ás a","i r","és e","v agy","ás t","j ák","aj d","a szt","k oz","t al","h áz","ös sz","r ól","es t","v is","ü nk","s em","ped ig","n ál","t at","u m","ül et","on y","k ét","ér d","ü gy","m ény","o bb","él y","ez t","ok at","m in","á j","ö v","ó d","sz em","n a","m ány","s ő","és t","E z","ell en","am i","hat ó","t ak","t ár","r ész","i ó","ít ott","m agyar","án ak","v i","kö vet","a bb","f ő","n é","el t","z ő","mind en","m ond","t an","m ill","p ont","e i","l át","or t","h an","az on","ol d","ó r","ér e","f oly","kö r","h al","ő r","gy an","ur ó","í n","s or","l et","v er","or osz","h ez","á d","v a","j e","u g","al m","E gy","id ő","ás i","m ajd","b el","f ej","s ok","v il","es en","an y","él et","i m","én ek","en y","ut at","t ám","og at","o p","k el","á ció","es et","le sz","n ök","a b","ul t","al ap","m unk","s t","is m","v éd","ov ább","n ő","v ált","í z","ak i","os t","ak kor","ra j","kez d","z és","biz t","k ész","á val","ár t","em el","ó t","o b","ál is","for int","vil ág","ó s","ü z","m en","í gy","M agyar","y en","ú gy","mi att","köz ött","t ovább","v on","b ól","tör t","as ág","em ény","l ak","ik ai","os an","oly an","at ok","t et","kor mány","ít ás","l an","en i","elő tt","t ek","cs ap","r ől","vár os","és i","O r","en g","az d","el ső","sz ín","ért ék","k is","uró p","d i","il yen","u gyan","k ol","sza b","h ol","m ell","h ét","m ér","a sz","0 0","z s","h ar","f él","r án","ha sz","b ől","el nök","ú t","áll al","el em","ü n","és ek","d ön","ö z","áb or","k ént","ig az","n él","v állal","g at","e szt","het ő","hoz z","at al","tel j","er g","g azd","ny i","e b","v as","min iszt","jel en","e sz","ter m","ut ó","in k","20 2","azon ban","an i","s eg","c h","sz int","v ény","sz él","eg ész","kap cs","egy ik","l ő","t ák","N em","vezet ő","ik us","p ar","ik or","d olg","á sz","év es","gy er","tal ál","e v","ált al","o szt","ét el","l ó","ár d","sz en","el mi","h ár","m ent","ad ás","al ak","l t","et len","j ó","seg ít","p er","j uk","m ert","m a","f öl","er ős","ját ék","f ér","1 9","cs al","kül ön","val ó","es ít","mond ta","év el","r an","p ort","sz olg","k at","nagy obb","mell ett","d ig","at i","ar ra","m ost","m ar","b et","h aj","össz e","sz áll","Magyar ország","mill ió","p ol","j án","uk rán","old al","f ont","kapcs ol","h ábor","p l","en ek","v ol","s aj","kö d","tám ogat","ök k","s al","úl t","és ét","ő ség","ét er","for m","vi sz","t ó","han g","u n","ó ta","ek ed","ker es","hasz nál","ez er","ta g","ü tt","ás ár","er ed","köz ös","s ik","g ond","l ép","miniszt er","r á","én z","val am","hár om","a v","et i","köz el","ér kez","é m","kor ább","c él","ve sz","en erg","nagy on","cs ökk","m es","mill i","f iz","r am","vál aszt","ö t","at a","ad ó","h az","dolg oz","áll am","hat ár","egy ütt","ez ő","c ég","gazd aság","v ány","E uróp","milli árd","fi gy","érd ek","p énz","tö tt","p ár","z el","ás át","á cs","dön t","ett ek","for d","ű n","csal ád","ő z","ett ék","j obb","k érd","k on","al att","font os","hábor ú","v iz","h agy","hely zet","d r","vált oz","h on","úl y","vis sza","ter ület","k om","ak ik","ek t","ol ó","n ok","k od","tár s","í g","d í","t ér","U k","v án","at koz","at ot","s úly","áb ól","tört én","bizt os","j egy","p ia","szer ep","áb a","C s","sik er","él d","al kal","mű köd","rend szer","foly am","em l","b al","am ikor","l al","r i","er ő","szer ű","in cs","l ét","Uk raj","or s","ny ug","int éz","k ív","követ kez","hozz á","sz ük","1 0","f ü","h ó","h ív","ver s","g áz","é szt","in ek","m ek","szer et","mar ad","p éld","v ásár","e h","ség es","emel ked","be szél","ill et","ít ó","o gy","ó z","sz ó","p ály","sz ól","j og","m utat","i c","f l","u sz","kö n","pol it","an ak","j öv","Or osz","ek en","m egy","ok oz","szám ára","t á","any ag","b aj","a hol","h ír","en c","szem ély","k it","A n","k o","le szt","fiz et","ség i","d er","g al","ép ít","g el","mag as","i tt","in g","e x","más od","egy ed","om b","ar ról","hi v","k am","1 5","százalék kal","ol l","ez te","valam int","m ely","b r","vers eny","hó nap","s sz","os ság","on ság","a c","ered mény","t ól","n öv","Orosz ország","köz l","k il","köz öl","ny il","r ég","fog lal","né gy","i ai","k ar","es ség","d él","og ram","id e","H a","gy ak","is kol","l ap","ism er","l ett","an d","ad ott","om ány","ez ett","v étel","ő en","rend őr","am it","c í","nem zet","ny om","ül és","fel elő","ő t","kapcsol at"]}}