{"version":"1.0","truncation":null,"padding":null,"added_tokens":[{"id":0,"special":true,"content":"<UNK>","single_word":false,"lstrip":false,"rstrip":false,"normalized":false},{"id":1,"special":true,"content":"<SEP>","single_word":false,"lstrip":false,"rstrip":false,"normalized":false},{"id":2,"special":true,"content":"<MASK>","single_word":false,"lstrip":false,"rstrip":false,"normalized":false},{"id":3,"special":true,"content":"<CLS>","single_word":false,"lstrip":false,"rstrip":false,"normalized":false}],"normalizer":null,"pre_tokenizer":{"type":"Whitespace"},"post_processor":null,"decoder":null,"model":{"type":"BPE","dropout":null,"unk_token":"<UNK>","continuing_subword_prefix":null,"end_of_word_suffix":null,"fuse_unk":false,"vocab":{"<UNK>":0,"<SEP>":1,"<MASK>":2,"<CLS>":3,"!":4,"\"":5,"$":6,"%":7,"&":8,"'":9,"(":10,")":11,"*":12,"+":13,",":14,"-":15,".":16,"/":17,"0":18,"1":19,"2":20,"3":21,"4":22,"5":23,"6":24,"7":25,"8":26,"9":27,":":28,";":29,"<":30,">":31,"?":32,"A":33,"B":34,"C":35,"D":36,"E":37,"F":38,"G":39,"H":40,"I":41,"J":42,"K":43,"L":44,"M":45,"N":46,"O":47,"P":48,"Q":49,"R":50,"S":51,"T":52,"U":53,"V":54,"W":55,"X":56,"Y":57,"Z":58,"a":59,"b":60,"c":61,"d":62,"e":63,"f":64,"g":65,"h":66,"i":67,"j":68,"k":69,"l":70,"m":71,"n":72,"o":73,"p":74,"q":75,"r":76,"s":77,"t":78,"u":79,"v":80,"w":81,"x":82,"y":83,"z":84,"~":85,"§":86,"«":87,"®":88,"°":89,"²":90,"³":91,"´":92,"µ":93,"·":94,"»":95,"Á":96,"Ä":97,"Å":98,"Ç":99,"È":100,"É":101,"Í":102,"Ó":103,"Õ":104,"Ö":105,"×":106,"Ø":107,"Ú":108,"Ü":109,"à":110,"á":111,"â":112,"ã":113,"ä":114,"å":115,"ç":116,"è":117,"é":118,"ë":119,"í":120,"î":121,"ï":122,"ð":123,"ñ":124,"ò":125,"ó":126,"ô":127,"õ":128,"ö":129,"ø":130,"ú":131,"û":132,"ü":133,"ý":134,"ā":135,"ă":136,"Ć":137,"ć":138,"Č":139,"č":140,"Ď":141,"ď":142,"Đ":143,"đ":144,"ę":145,"ě":146,"ğ":147,"Ľ":148,"ľ":149,"ł":150,"ń":151,"ň":152,"Ő":153,"ő":154,"ř":155,"Ş":156,"ş":157,"Š":158,"š":159,"Ţ":160,"ţ":161,"ť":162,"Ű":163,"ű":164,"Ž":165,"ž":166,"Ș":167,"ș":168,"Ț":169,"ț":170,"ʼ":171,"́":172,"̈":173,"̋":174,"β":175,"μ":176,"‐":177,"‑":178,"‒":179,"–":180,"—":181,"‘":182,"’":183,"“":184,"”":185,"„":186,"†":187,"•":188,"…":189,"‼":190,"€":191,"−":192,"❗":193,"➡":194,"﷯":195,"️":196,"sz":197,"el":198,"et":199,"en":200,"gy":201,"er":202,"at":203,"al":204,"an":205,"az":206,"ek":207,"és":208,"ak":209,"or":210,"ár":211,"in":212,"em":213,"on":214,"ol":215,"ál":216,"eg":217,"ás":218,"ez":219,"is":220,"es":221,"án":222,"tt":223,"ok":224,"ér":225,"ar":226,"ég":227,"ho":228,"ik":229,"én":230,"egy":231,"os":232,"kö":233,"bb":234,"cs":235,"át":236,"ül":237,"ett":238,"am":239,"ít":240,"él":241,"meg":242,"ág":243,"ap":244,"hogy":245,"ék":246,"ban":247,"ét":248,"ed":249,"int":250,"ad":251,"ben":252,"ott":253,"szer":254,"agy":255,"il":256,"szt":257,"oz":258,"it":259,"ra":260,"ut":261,"ki":262,"om":263,"re":264,"ség":265,"ta":266,"nem":267,"köz":268,"ny":269,"ig":270,"fel":271,"ni":272,"tö":273,"ól":274,"ja":275,"ul":276,"le":277,"ák":278,"áz":279,"áll":280,"ell":281,"be":282,"ép":283,"og":284,"ely":285,"nk":286,"as":287,"aj":288,"hat":289,"ai":290,"nak":291,"ent":292,"ész":293,"ány":294,"ám":295,"het":296,"év":297,"ény":298,"ért":299,"nek":300,"kor":301,"elő":302,"Az":303,"iz":304,"id":305,"val":306,"olt":307,"ag":308,"ot":309,"te":310,"ind":311,"mi":312,"ci":313,"ság":314,"leg":315,"uk":316,"end":317,"jel":318,"ter":319,"us":320,"vez":321,"ől":322,"kez":323,"ált":324,"for":325,"od":326,"unk":327,"ont":328,"szág":329,"art":330,"ön":331,"ország":332,"hoz":333,"hely":334,"ud":335,"ír":336,"oly":337,"ös":338,"de":339,"ve":340,"ber":341,"szám":342,"ók":343,"ne":344,"nagy":345,"ök":346,"ond":347,"nap":348,"volt":349,"ha":350,"vet":351,"ill":352,"ük":353,"rend":354,"már":355,"mind":356,"ker":357,"ov":358,"több":359,"att":360,"ább":361,"szerint":362,"ők":363,"agyar":364,"ur":365,"20":366,"áb":367,"ában":368,"kal":369,"új":370,"öl":371,"sza":372,"vár":373,"tel":374,"ént":375,"elm":376,"ej":377,"ében":378,"fog":379,"ült":380,"Sz":381,"ív":382,"osz":383,"pr":384,"tart":385,"eket":386,"úl":387,"hi":388,"ött":389,"ős":390,"ára":391,"kap":392,"olg":393,"mű":394,"vezet":395,"száz":396,"ások":397,"van":398,"jelent":399,"vel":400,"ette":401,"ia":402,"ked":403,"tud":404,"azt":405,"éd":406,"ember":407,"lehet":408,"ert":409,"kép":410,"éz":411,"tör":412,"ját":413,"fi":414,"vég":415,"kül":416,"szak":417,"még":418,"len":419,"kell":420,"ció":421,"más":422,"csak":423,"iszt":424,"alék":425,"ör":426,"jár":427,"mag":428,"mint":429,"zet":430,"biz":431,"amely":432,"ba":433,"százalék":434,"ep":435,"után":436,"ály":437,"vál":438,"ebb":439,"ped":440,"ása":441,"ir":442,"ése":443,"vagy":444,"ást":445,"ják":446,"ajd":447,"aszt":448,"koz":449,"tal":450,"ház":451,"össz":452,"ról":453,"est":454,"vis":455,"ünk":456,"sem":457,"pedig":458,"nál":459,"tat":460,"um":461,"ület":462,"ony":463,"két":464,"érd":465,"ügy":466,"mény":467,"obb":468,"ély":469,"ezt":470,"okat":471,"min":472,"áj":473,"öv":474,"ód":475,"szem":476,"na":477,"mány":478,"ső":479,"ést":480,"Ez":481,"ellen":482,"ami":483,"ható":484,"tak":485,"tár":486,"rész":487,"ió":488,"ított":489,"magyar":490,"ának":491,"vi":492,"követ":493,"abb":494,"fő":495,"né":496,"elt":497,"ző":498,"minden":499,"mond":500,"tan":501,"mill":502,"pont":503,"ei":504,"lát":505,"ort":506,"han":507,"azon":508,"old":509,"ór":510,"ére":511,"foly":512,"kör":513,"hal":514,"őr":515,"gyan":516,"uró":517,"ín":518,"sor":519,"let":520,"ver":521,"orosz":522,"hez":523,"ád":524,"va":525,"je":526,"ug":527,"alm":528,"Egy":529,"idő":530,"ási":531,"majd":532,"bel":533,"fej":534,"sok":535,"vil":536,"esen":537,"any":538,"élet":539,"im":540,"ének":541,"eny":542,"utat":543,"tám":544,"ogat":545,"op":546,"kel":547,"áció":548,"eset":549,"lesz":550,"nök":551,"ab":552,"ult":553,"alap":554,"munk":555,"st":556,"ism":557,"véd":558,"ovább":559,"nő":560,"vált":561,"íz":562,"aki":563,"ost":564,"akkor":565,"raj":566,"kezd":567,"zés":568,"bizt":569,"kész":570,"ával":571,"árt":572,"emel":573,"ót":574,"ob":575,"ális":576,"forint":577,"világ":578,"ós":579,"üz":580,"men":581,"így":582,"Magyar":583,"yen":584,"úgy":585,"miatt":586,"között":587,"tovább":588,"von":589,"ból":590,"tört":591,"aság":592,"emény":593,"lak":594,"ikai":595,"osan":596,"olyan":597,"atok":598,"tet":599,"kormány":600,"ítás":601,"lan":602,"eni":603,"előtt":604,"tek":605,"csap":606,"ről":607,"város":608,"ési":609,"Or":610,"eng":611,"azd":612,"első":613,"szín":614,"érték":615,"kis":616,"uróp":617,"di":618,"ilyen":619,"ugyan":620,"kol":621,"szab":622,"hol":623,"mell":624,"hét":625,"mér":626,"asz":627,"00":628,"zs":629,"har":630,"fél":631,"rán":632,"hasz":633,"ből":634,"elnök":635,"út":636,"állal":637,"elem":638,"ün":639,"ések":640,"dön":641,"öz":642,"ábor":643,"ként":644,"igaz":645,"nél":646,"vállal":647,"gat":648,"eszt":649,"hető":650,"hozz":651,"atal":652,"telj":653,"erg":654,"gazd":655,"nyi":656,"eb":657,"vas":658,"miniszt":659,"jelen":660,"esz":661,"term":662,"utó":663,"ink":664,"202":665,"azonban":666,"ani":667,"seg":668,"ch":669,"szint":670,"vény":671,"szél":672,"egész":673,"kapcs":674,"egyik":675,"lő":676,"ták":677,"Nem":678,"vezető":679,"ikus":680,"par":681,"ikor":682,"dolg":683,"ász":684,"éves":685,"gyer":686,"talál":687,"ev":688,"által":689,"oszt":690,"étel":691,"ló":692,"árd":693,"szen":694,"elmi":695,"hár":696,"ment":697,"adás":698,"alak":699,"lt":700,"etlen":701,"jó":702,"segít":703,"per":704,"juk":705,"mert":706,"ma":707,"föl":708,"erős":709,"játék":710,"fér":711,"19":712,"csal":713,"külön":714,"való":715,"esít":716,"mondta":717,"ével":718,"ran":719,"port":720,"szolg":721,"kat":722,"nagyobb":723,"mellett":724,"dig":725,"ati":726,"arra":727,"most":728,"mar":729,"bet":730,"haj":731,"össze":732,"száll":733,"Magyarország":734,"millió":735,"pol":736,"ján":737,"ukrán":738,"oldal":739,"font":740,"kapcsol":741,"hábor":742,"pl":743,"enek":744,"vol":745,"saj":746,"köd":747,"támogat":748,"ökk":749,"sal":750,"últ":751,"ését":752,"őség":753,"éter":754,"form":755,"visz":756,"tó":757,"hang":758,"un":759,"óta":760,"eked":761,"keres":762,"használ":763,"ezer":764,"tag":765,"ütt":766,"ásár":767,"ered":768,"közös":769,"sik":770,"gond":771,"lép":772,"miniszter":773,"rá":774,"énz":775,"valam":776,"három":777,"av":778,"eti":779,"közel":780,"érkez":781,"ém":782,"korább":783,"cél":784,"vesz":785,"energ":786,"nagyon":787,"csökk":788,"mes":789,"milli":790,"fiz":791,"ram":792,"választ":793,"öt":794,"ata":795,"adó":796,"haz":797,"dolgoz":798,"állam":799,"határ":800,"együtt":801,"ező":802,"cég":803,"gazdaság":804,"vány":805,"Európ":806,"milliárd":807,"figy":808,"érdek":809,"pénz":810,"tött":811,"pár":812,"zel":813,"ását":814,"ács":815,"dönt":816,"ettek":817,"ford":818,"űn":819,"család":820,"őz":821,"ették":822,"jobb":823,"kérd":824,"kon":825,"alatt":826,"fontos":827,"háború":828,"viz":829,"hagy":830,"helyzet":831,"dr":832,"változ":833,"hon":834,"úly":835,"vissza":836,"terület":837,"kom":838,"akik":839,"ekt":840,"oló":841,"nok":842,"kod":843,"társ":844,"íg":845,"dí":846,"tér":847,"Uk":848,"ván":849,"atkoz":850,"atot":851,"súly":852,"ából":853,"történ":854,"biztos":855,"jegy":856,"pia":857,"szerep":858,"ába":859,"Cs":860,"siker":861,"éld":862,"alkal":863,"működ":864,"rendszer":865,"folyam":866,"eml":867,"bal":868,"amikor":869,"lal":870,"ri":871,"erő":872,"szerű":873,"incs":874,"lét":875,"Ukraj":876,"ors":877,"nyug":878,"intéz":879,"kív":880,"következ":881,"hozzá":882,"szük":883,"10":884,"fü":885,"hó":886,"hív":887,"vers":888,"gáz":889,"észt":890,"inek":891,"mek":892,"szeret":893,"marad":894,"péld":895,"vásár":896,"eh":897,"séges":898,"emelked":899,"beszél":900,"illet":901,"ító":902,"ogy":903,"óz":904,"szó":905,"pály":906,"szól":907,"jog":908,"mutat":909,"ic":910,"fl":911,"usz":912,"kön":913,"polit":914,"anak":915,"jöv":916,"Orosz":917,"eken":918,"megy":919,"okoz":920,"számára":921,"tá":922,"anyag":923,"baj":924,"ahol":925,"hír":926,"enc":927,"személy":928,"kit":929,"An":930,"ko":931,"leszt":932,"fizet":933,"ségi":934,"der":935,"gal":936,"épít":937,"gel":938,"magas":939,"itt":940,"ing":941,"ex":942,"másod":943,"egyed":944,"omb":945,"arról":946,"hiv":947,"kam":948,"15":949,"százalékkal":950,"oll":951,"ezte":952,"valamint":953,"mely":954,"br":955,"verseny":956,"hónap":957,"ssz":958,"osság":959,"onság":960,"ac":961,"eredmény":962,"tól":963,"növ":964,"Oroszország":965,"közl":966,"kil":967,"közöl":968,"nyil":969,"rég":970,"foglal":971,"négy":972,"iai":973,"kar":974,"esség":975,"dél":976,"ogram":977,"ide":978,"Ha":979,"gyak":980,"iskol":981,"lap":982,"ismer":983,"lett":984,"and":985,"adott":986,"omány":987,"ezett":988,"vétel":989,"ően":990,"rendőr":991,"amit":992,"cí":993,"nemzet":994,"nyom":995,"ülés":996,"felelő":997,"őt":998,"kapcsolat":999,"túl":1000,"ög":1001,"szor":1002,"uszt":1003,"egyen":1004,"mód":1005,"őket":1006,"adat":1007,"állap":1008,"volna":1009,"has":1010,"annak":1011,"olgár":1012,"ször":1013,"rendel":1014,"ób":1015,"ekkel":1016,"körül":1017,"elmúlt":1018,"kerül":1019,"lat":1020,"uló":1021,"lam":1022,"hiszen":1023,"szabad":1024,"ásokat":1025,"okban":1026,"tor":1027,"ésre":1028,"fejleszt":1029,"met":1030,"hát":1031,"ciók":1032,"sel":1033,"Nagy":1034,"ekben":1035,"úz":1036,"űz":1037,"rom":1038,"úja":1039,"áltat":1040,"maz":1041,"Gy":1042,"viszont":1043,"csökkent":1044,"ugyanis":1045,"ezért":1046,"előre":1047,"ec":1048,"részt":1049,"ául":1050,"sér":1051,"bár":1052,"fr":1053,"sg":1054,"jövő":1055,"bar":1056,"költ":1057,"autó":1058,"hány":1059,"Mi":1060,"polgár":1061,"állít":1062,"illetve":1063,"eddig":1064,"hanem":1065,"ással":1066,"ró":1067,"ru":1068,"sége":1069,"néz":1070,"lehetőség":1071,"udap":1072,"gyermek":1073,"férfi":1074,"Mind":1075,"bizony":1076,"biztonság":1077,"gg":1078,"só":1079,"udapest":1080,"ank":1081,"csapat":1082,"pen":1083,"almaz":1084,"of":1085,"program":1086,"jut":1087,"mel":1088,"jelenleg":1089,"irány":1090,"ium":1091,"nincs":1092,"nyit":1093,"oport":1094,"képvis":1095,"moz":1096,"mad":1097,"kev":1098,"ti":1099,"energia":1100,"In":1101,"fogy":1102,"tiszt":1103,"munka":1104,"valy":1105,"akar":1106,"esebb":1107,"második":1108,"30":1109,"vizsg":1110,"vő":1111,"ásra":1112,"prób":1113,"vél":1114,"víz":1115,"Köz":1116,"függ":1117,"ügyi":1118,"eség":1119,"ésére":1120,"gyű":1121,"18":1122,"séget":1123,"zár":1124,"jelentős":1125,"kívül":1126,"lag":1127,"őd":1128,"2022":1129,"amer":1130,"El":1131,"ói":1132,"kés":1133,"milyen":1134,"akár":1135,"újabb":1136,"si":1137,"ven":1138,"csoport":1139,"gondol":1140,"jük":1141,"például":1142,"tem":1143,"ottak":1144,"tette":1145,"rd":1146,"orv":1147,"díj":1148,"otta":1149,"bír":1150,"ték":1151,"ája":1152,"piac":1153,"kí":1154,"szav":1155,"folytat":1156,"saját":1157,"került":1158,"bajnok":1159,"műv":1160,"perc":1161,"ológ":1162,"szervezet":1163,"történt":1164,"reg":1165,"közölte":1166,"szik":1167,"euró":1168,"atlan":1169,"elmond":1170,"beteg":1171,"százalékos":1172,"nélkül":1173,"szolgáltat":1174,"ítani":1175,"zett":1176,"gyors":1177,"tett":1178,"legnagyobb":1179,"vannak":1180,"ttal":1181,"ros":1182,"övet":1183,"teljes":1184,"korábban":1185,"nép":1186,"gazdasági":1187,"gép":1188,"azért":1189,"bbi":1190,"mester":1191,"lég":1192,"amerikai":1193,"helyi":1194,"jól":1195,"bán":1196,"bank":1197,"fiatal":1198,"emlék":1199,"esült":1200,"mit":1201,"észet":1202,"emberek":1203,"szabály":1204,"ához":1205,"ította":1206,"belül":1207,"től":1208,"mindig":1209,"azok":1210,"doll":1211,"katon":1212,"ef":1213,"50":1214,"rec":1215,"gató":1216,"nal":1217,"inkább":1218,"érint":1219,"éb":1220,"ellát":1221,"találkoz":1222,"oztat":1223,"tavaly":1224,"tő":1225,"jelentette":1226,"során":1227,"lőd":1228,"ozz":1229,"körny":1230,"szön":1231,"szemben":1232,"lány":1233,"kereszt":1234,"kér":1235,"ülő":1236,"iség":1237,"abban":1238,"üntet":1239,"harmad":1240,"kl":1241,"tiz":1242,"almas":1243,"hazai":1244,"kár":1245,"12":1246,"szolgál":1247,"ham":1248,"hivatal":1249,"olaj":1250,"telep":1251,"védelmi":1252,"En":1253,"uty":1254,"szi":1255,"ezek":1256,"nőtt":1257,"újra":1258,"vit":1259,"éről":1260,"infl":1261,"ített":1262,"enn":1263,"közi":1264,"föld":1265,"De":1266,"amelyek":1267,"folyamat":1268,"időszak":1269,"chn":1270,"Szer":1271,"alapján":1272,"oda":1273,"ull":1274,"idén":1275,"kutat":1276,"ására":1277,"álló":1278,"növeked":1279,"negyed":1280,"nö":1281,"gyerek":1282,"ess":1283,"forr":1284,"hason":1285,"14":1286,"aton":1287,"európ":1288,"éssel":1289,"eztet":1290,"ord":1291,"Ny":1292,"európai":1293,"Mar":1294,"figyelm":1295,"üzem":1296,"enged":1297,"ant":1298,"tervez":1299,"másik":1300,"zi":1301,"ozott":1302,"jában":1303,"ka":1304,"elér":1305,"ződ":1306,"gyakor":1307,"16":1308,"vizsgál":1309,"őbb":1310,"alom":1311,"Ál":1312,"fut":1313,"ozó":1314,"ozat":1315,"nevez":1316,"zal":1317,"éve":1318,"ájék":1319,"up":1320,"közül":1321,"veszély":1322,"idej":1323,"cia":1324,"egyre":1325,"hatóság":1326,"mos":1327,"tam":1328,"ub":1329,"ánd":1330,"eit":1331,"köszön":1332,"fogyaszt":1333,"képviselő":1334,"ezet":1335,"csi":1336,"veszt":1337,"készül":1338,"hit":1339,"eszköz":1340,"termék":1341,"míg":1342,"uni":1343,"csat":1344,"ottság":1345,"tűz":1346,"ennek":1347,"gyal":1348,"Meg":1349,"ezzel":1350,"mik":1351,"árak":1352,"fogad":1353,"rendez":1354,"Budapest":1355,"nyer":1356,"had":1357,"mer":1358,"okkal":1359,"dar":1360,"fek":1361,"zék":1362,"vá":1363,"str":1364,"önk":1365,"hiány":1366,"mai":1367,"ón":1368,"egyes":1369,"mal":1370,"lenne":1371,"alk":1372,"Ukrajn":1373,"szív":1374,"átlag":1375,"ációs":1376,"átt":1377,"utol":1378,"fil":1379,"kellett":1380,"13":1381,"hall":1382,"igény":1383,"kő":1384,"barát":1385,"Ki":1386,"fegy":1387,"rendelkez":1388,"szület":1389,"írus":1390,"obl":1391,"lév":1392,"árs":1393,"ásban":1394,"további":1395,"tekint":1396,"ck":1397,"voltak":1398,"Európai":1399,"part":1400,"teljesít":1401,"dollár":1402,"elég":1403,"etem":1404,"bor":1405,"ismert":1406,"Már":1407,"egyéb":1408,"törtö":1409,"ütörtö":1410,"lel":1411,"felé":1412,"számít":1413,"17":1414,"őv":1415,"inak":1416,"megold":1417,"ay":1418,"hu":1419,"győz":1420,"ulajd":1421,"nev":1422,"újt":1423,"telen":1424,"rak":1425,"hatnak":1426,"jai":1427,"sp":1428,"szervez":1429,"ass":1430,"iss":1431,"probl":1432,"néhány":1433,"pént":1434,"halál":1435,"rel":1436,"játsz":1437,"oj":1438,"aut":1439,"tit":1440,"leges":1441,"szükség":1442,"ánt":1443,"vend":1444,"könny":1445,"országban":1446,"ákat":1447,"továbbra":1448,"otthon":1449,"követően":1450,"test":1451,"Nemzet":1452,"párt":1453,"koron":1454,"költség":1455,"elmondta":1456,"évben":1457,"következő":1458,"szár":1459,"ekre":1460,"ünne":1461,"kór":1462,"ították":1463,"rit":1464,"asztal":1465,"végén":1466,"nov":1467,"atív":1468,"hossz":1469,"különb":1470,"Ar":1471,"ebben":1472,"összeg":1473,"ipar":1474,"ájékoztat":1475,"inform":1476,"héz":1477,"mivel":1478,"lov":1479,"azzal":1480,"egymás":1481,"ulajdon":1482,"fin":1483,"mod":1484,"ro":1485,"Ukrajna":1486,"ika":1487,"elés":1488,"techn":1489,"ukat":1490,"napi":1491,"keresked":1492,"sport":1493,"ókat":1494,"óra":1495,"kapott":1496,"25":1497,"Er":1498,"lás":1499,"ezés":1500,"szavaz":1501,"ron":1502,"alá":1503,"érte":1504,"nehéz":1505,"vissz":1506,"ormány":1507,"alkalmaz":1508,"Azt":1509,"ala":1510,"lévő":1511,"korábbi":1512,"próbál":1513,"olni":1514,"lik":1515,"bér":1516,"száma":1517,"bo":1518,"nyilván":1519,"helyen":1520,"éhez":1521,"els":1522,"méter":1523,"rep":1524,"helyett":1525,"pal":1526,"zen":1527,"szank":1528,"heti":1529,"Egyesült":1530,"utolsó":1531,"csütörtö":1532,"hő":1533,"ozás":1534,"épület":1535,"indul":1536,"képest":1537,"okon":1538,"talan":1539,"vendég":1540,"pi":1541,"gyárt":1542,"eknek":1543,"ezni":1544,"megfelelő":1545,"magát":1546,"harc":1547,"utc":1548,"fenn":1549,"hál":1550,"SZ":1551,"közben":1552,"fal":1553,"vide":1554,"üt":1555,"gó":1556,"polgármester":1557,"orvos":1558,"szig":1559,"szerd":1560,"Al":1561,"köny":1562,"óri":1563,"alakul":1564,"lott":1565,"csú":1566,"mérték":1567,"tíz":1568,"kötel":1569,"értelm":1570,"készít":1571,"foglalkoz":1572,"11":1573,"ismét":1574,"üzlet":1575,"Mint":1576,"fegyver":1577,"igazgató":1578,"uház":1579,"jú":1580,"úr":1581,"érdem":1582,"Magyarországon":1583,"infláció":1584,"elej":1585,"erre":1586,"tap":1587,"alább":1588,"előző":1589,"2021":1590,"kik":1591,"utóbbi":1592,"tulajdon":1593,"oknak":1594,"várható":1595,"széd":1596,"assz":1597,"vállalkoz":1598,"egészség":1599,"szék":1600,"járvány":1601,"ános":1602,"ormányz":1603,"akad":1604,"Orbán":1605,"ús":1606,"erősít":1607,"sikerült":1608,"lab":1609,"fogalmaz":1610,"tartott":1611,"hasonló":1612,"áról":1613,"szintén":1614,"felt":1615,"ept":1616,"nai":1617,"szomb":1618,"neki":1619,"ang":1620,"harmadik":1621,"esemény":1622,"200":1623,"mintegy":1624,"törvény":1625,"ahogy":1626,"éj":1627,"ölt":1628,"később":1629,"ly":1630,"sze":1631,"hétfő":1632,"ist":1633,"kisebb":1634,"kórház":1635,"fert":1636,"sék":1637,"ítása":1638,"Péter":1639,"szok":1640,"édes":1641,"fok":1642,"öld":1643,"ür":1644,"képes":1645,"éseket":1646,"legjobb":1647,"bűn":1648,"óság":1649,"érdekében":1650,"gól":1651,"áld":1652,"színű":1653,"jon":1654,"gyel":1655,"földi":1656,"40":1657,"rem":1658,"ellem":1659,"vállalat":1660,"nemzetközi":1661,"annyi":1662,"kir":1663,"usban":1664,"állt":1665,"tanul":1666,"üzd":1667,"osztály":1668,"társaság":1669,"elet":1670,"éppen":1671,"segítség":1672,"jön":1673,"szül":1674,"áját":1675,"szabb":1676,"válasz":1677,"városi":1678,"vasár":1679,"olc":1680,"vér":1681,"özben":1682,"helyszín":1683,"aján":1684,"küld":1685,"talált":1686,"komoly":1687,").":1688,"se":1689,"var":1690,"fordul":1691,"nyilatkoz":1692,"jának":1693,"ral":1694,"ine":1695,"miniszterelnök":1696,"üket":1697,"elleni":1698,"érkezett":1699,"hitel":1700,"ánc":1701,"),":1702,"24":1703,"rag":1704,"évvel":1705,"ehér":1706,"öbb":1707,"köt":1708,"hetnek":1709,"írta":1710,"haszn":1711,"vád":1712,"ánk":1713,"kider":1714,"készült":1715,"közösségi":1716,"MT":1717,"ógy":1718,"javas":1719,"intézmény":1720,"magasabb":1721,"ern":1722,"teljesen":1723,"ékony":1724,"támad":1725,"uniós":1726,"hosszú":1727,"kett":1728,"nia":1729,"jt":1730,"olta":1731,"szövet":1732,"természet":1733,"közlemény":1734,"keret":1735,"kezdőd":1736,"elni":1737,"Puty":1738,"li":1739,"intézked":1740,"önkormányz":1741,"áig":1742,"eli":1743,"csom":1744,"megállap":1745,"sokkal":1746,"ári":1747,"játékos":1748,"létre":1749,"so":1750,"című":1751,"német":1752,"atos":1753,"tölt":1754,"csökken":1755,"Ist":1756,"ista":1757,"este":1758,"jött":1759,"etés":1760,"ékeny":1761,"jav":1762,"adásul":1763,"miután":1764,"tárgyal":1765,"átette":1766,"közép":1767,"felhasznál":1768,"táv":1769,"Állam":1770,"Vik":1771,"amelyet":1772,"bem":1773,"küzd":1774,"öm":1775,"végül":1776,"része":1777,"eptember":1778,"tűn":1779,"köl":1780,"számolt":1781,"hetően":1782,"alkot":1783,"ved":1784,"esetben":1785,"fot":1786,"mikor":1787,"arány":1788,"tani":1789,"oldalán":1790,"avírus":1791,"érium":1792,"szk":1793,"központ":1794,"ideg":1795,"ukraj":1796,"múlt":1797,"áv":1798,"ennyi":1799,"ozta":1800,"övid":1801,"ellenére":1802,"ukrajnai":1803,"húz":1804,"anu":1805,"elnöke":1806,"súlyos":1807,"rossz":1808,"részlet":1809,"elmiszer":1810,"keresztül":1811,"olvas":1812,"Ezt":1813,"igen":1814,"tény":1815,"ségek":1816,"közleked":1817,"Putyin":1818,"Kr":1819,"sen":1820,"her":1821,"műsor":1822,"utaz":1823,"számos":1824,"NA":1825,"ene":1826,"valós":1827,"fa":1828,"lakosság":1829,"koronavírus":1830,"100":1831,"ébe":1832,"végre":1833,"drág":1834,"okra":1835,"dec":1836,"halad":1837,"tóber":1838,"vét":1839,"problém":1840,"akció":1841,"adatok":1842,"utas":1843,"jából":1844,"élelmiszer":1845,"nyel":1846,"kos":1847,"űr":1848,"”.":1849,"ászló":1850,"kérdés":1851,"ünnep":1852,"cik":1853,"mec":1854,"tunk":1855,"akt":1856,"ásával":1857,"ezték":1858,"mennyi":1859,"politikai":1860,"reggel":1861,"pill":1862,"legyen":1863,"2020":1864,"szenved":1865,"tanács":1866,"héten":1867,"hajt":1868,"tük":1869,"eljár":1870,"menek":1871,"történet":1872,"kapcsolatban":1873,"válság":1874,"kevesebb":1875,"Bal":1876,"hull":1877,"ner":1878,"írja":1879,"vezetője":1880,"nie":1881,"mező":1882,"élő":1883,"szerződ":1884,"korlát":1885,"november":1886,"tájékoztat":1887,"gyógy":1888,"átor":1889,"fektet":1890,"felelős":1891,"ától":1892,"vonatkoz":1893,"friss":1894,"da":1895,"esett":1896,"hetetlen":1897,"tapasztal":1898,"öző":1899,"akat":1900,"december":1901,"környezet":1902,"ah":1903,"szinte":1904,"Ennek":1905,"vasárnap":1906,"állás":1907,"ezen":1908,"legalább":1909,"gyűl":1910,"egyház":1911,"forgal":1912,"országi":1913,"uguszt":1914,"katonai":1915,"oktat":1916,"ítja":1917,"nyolc":1918,"évek":1919,"maga":1920,"viszony":1921,"egyébként":1922,"Fer":1923,"rövid":1924,"csony":1925,"film":1926,"den":1927,"bele":1928,"tized":1929,"EU":1930,"ket":1931,"bejelent":1932,"sorozat":1933,"hamar":1934,"cser":1935,"enger":1936,"MTI":1937,"rek":1938,"ésével":1939,"szent":1940,"százaléka":1941,"Európa":1942,"jed":1943,"hogyan":1944,"szeptember":1945,"ilis":1946,"kény":1947,"elen":1948,"energi":1949,"technológ":1950,"bíz":1951,"ion":1952,"son":1953,"elek":1954,"fogalmazott":1955,"egyelőre":1956,"áram":1957,"eget":1958,"konc":1959,"rendőrség":1960,"Biz":1961,"ves":1962,"legtöbb":1963,"jármű":1964,"land":1965,"szükséges":1966,"he":1967,"vett":1968,"ották":1969,"hangsúly":1970,"alacsony":1971,"válogat":1972,"esetében":1973,"bajnokság":1974,"büntet":1975,"fed":1976,"tev":1977,"kéz":1978,"poz":1979,"mindenki":1980,"baleset":1981,"utt":1982,"encs":1983,"menny":1984,"lament":1985,"inál":1986,"először":1987,"vonal":1988,"kőzés":1989,"emelte":1990,"cím":1991,"egyetlen":1992,"piaci":1993,"Viktor":1994,"ésének":1995,"ingat":1996,"október":1997,"beruház":1998,"száml":1999,"örgy":2000,"rancia":2001,"mérkőzés":2002,"sért":2003,"vagyok":2004,"délután":2005,"szakért":2006,"brit":2007,"Deb":2008,"II":2009,"öd":2010,"szép":2011,"nehez":2012,"beszélt":2013,"Bár":2014,"bék":2015,"forintot":2016,"valószínű":2017,"hatja":2018,"endő":2019,"ünet":2020,"essz":2021,"idei":2022,"indult":2023,"ésben":2024,"jét":2025,"vette":2026,"egyszerű":2027,"lep":2028,"plom":2029,"Debrec":2030,"énk":2031,"szállít":2032,"király":2033,"Ugyan":2034,"Zs":2035,"éből":2036,"kevés":2037,"ándék":2038,"zaj":2039,"úttal":2040,"döntött":2041,"megyei":2042,"ugyanakkor":2043,"efon":2044,"ten":2045,"azonnal":2046,"mérsék":2047,"fontosabb":2048,"kín":2049,"ton":2050,"szeretn":2051,"Nemzeti":2052,"László":2053,"rez":2054,"tehát":2055,"meccs":2056,"iv":2057,"igy":2058,"forduló":2059,"szankciók":2060,"faj":2061,"egyszer":2062,"idős":2063,"bőv":2064,"erd":2065,"áni":2066,"zése":2067,"émi":2068,"élt":2069,"nyert":2070,"tevékeny":2071,"ingatlan":2072,"gyeng":2073,"forg":2074,"elején":2075,"telefon":2076,"vele":2077,"mények":2078,"ebru":2079,"kamat":2080,"auguszt":2081,"növel":2082,"pénteken":2083,"60":2084,"ereg":2085,"kori":2086,"rendkívül":2087,"ezelőtt":2088,"látogat":2089,"mennyiség":2090,"hos":2091,"kísér":2092,"sokat":2093,"ellenőr":2094,"rt":2095,"Úgy":2096,"döntő":2097,"Bar":2098,"Több":2099,"nyújt":2100,"adék":2101,"emelt":2102,"rendőrök":2103,"Most":2104,"St":2105,"tuk":2106,"benne":2107,"óg":2108,"bemutat":2109,"Hozz":2110,"részvény":2111,"vid":2112,"orban":2113,"biztonsági":2114,"könyv":2115,"érdemes":2116,"közvet":2117,"befektet":2118,"állapot":2119,"csomag":2120,"za":2121,"kedvez":2122,"biztosít":2123,"nyugati":2124,"elekt":2125,"ens":2126,"Szab":2127,"ódott":2128,"látható":2129,"pillan":2130,"sa":2131,"előny":2132,"80":2133,"áson":2134,"ettel":2135,"proj":2136,"úli":2137,"alkalm":2138,"ke":2139,"miközben":2140,"István":2141,"tenger":2142,"ong":2143,"állítás":2144,"szakasz":2145,"politikus":2146,"Minden":2147,"bi":2148,"til":2149,"vad":2150,"ólag":2151,"bíróság":2152,"kifej":2153,"csütörtökön":2154,"fenntart":2155,"gl":2156,"ina":2157,"dob":2158,"minisztérium":2159,"mozg":2160,"ca":2161,"dal":2162,"töl":2163,"tesz":2164,"érdeklőd":2165,"folyamatosan":2166,"Ferenc":2167,"23":2168,"ásának":2169,"mindent":2170,"atták":2171,"maradt":2172,"színész":2173,"művész":2174,"fehér":2175,"ítette":2176,"Ezek":2177,"hird":2178,"ítottak":2179,"émet":2180,"jobban":2181,"Br":2182,"fény":2183,"mun":2184,"ilag":2185,"jelentkez":2186,"kínál":2187,"különböző":2188,"ítő":2189,"itány":2190,"tudja":2191,"alkalom":2192,"fű":2193,"tur":2194,"vill":2195,"nemcsak":2196,"hatalmas":2197,"terv":2198,"attal":2199,"kelet":2200,"jára":2201,"ítvány":2202,"bevétel":2203,"óv":2204,"enet":2205,"Rom":2206,"pap":2207,"eként":2208,"megjelen":2209,"enget":2210,"állami":2211,"évtized":2212,"idéz":2213,"gar":2214,"ázs":2215,"napon":2216,"hosszabb":2217,"ügyminiszter":2218,"Jó":2219,"máj":2220,"féle":2221,"hagyomány":2222,"jelenlegi":2223,"janu":2224,"lem":2225,"ója":2226,"márci":2227,"ültek":2228,"ebruár":2229,"Német":2230,"különös":2231,"kilom":2232,"bocs":2233,"Uni":2234,"szom":2235,"amelynek":2236,"módon":2237,"erm":2238,"pontos":2239,"imi":2240,"Így":2241,"érvény":2242,"terem":2243,"22":2244,"vág":2245,"együttes":2246,"hétfőn":2247,"tr":2248,"ítés":2249,"kíván":2250,"szóló":2251,"visszat":2252,"mély":2253,"olcs":2254,"követő":2255,"ácsony":2256,"született":2257,"izál":2258,"oszk":2259,"népszerű":2260,"egyetem":2261,"adta":2262,"szerzés":2263,"ációk":2264,"éig":2265,"teszt":2266,"őként":2267,"eztek":2268,"távol":2269,"szerdán":2270,"utal":2271,"Mik":2272,"közep":2273,"pályáz":2274,"forgalom":2275,"jellem":2276,"adt":2277,"feny":2278,"zik":2279,"árul":2280,"szempont":2281,"régi":2282,"21":2283,"íció":2284,"úsz":2285,"hatatlan":2286,"Ország":2287,"feltétel":2288,"válogatott":2289,"Em":2290,"por":2291,"veg":2292,"felett":2293,"prilis":2294,"tudni":2295,"román":2296,"aztán":2297,"összesen":2298,"éli":2299,"ságot":2300,"kock":2301,"tizen":2302,"TO":2303,"mus":2304,"rendezvény":2305,"eik":2306,"pus":2307,"kora":2308,"parlament":2309,"olja":2310,"És":2311,"jutott":2312,"bek":2313,"tab":2314,"beli":2315,"független":2316,"figyelmet":2317,"elérhető":2318,"27":2319,"una":2320,"időben":2321,"látt":2322,"felvétel":2323,"többi":2324,"együttműköd":2325,"line":2326,"ná":2327,"közötti":2328,"kormányz":2329,"régió":2330,"vélemény":2331,"áron":2332,"inc":2333,"forintos":2334,"hálóz":2335,"Sok":2336,"lez":2337,"seb":2338,"kedden":2339,"2023":2340,"töltött":2341,"báz":2342,"fokoz":2343,"csatlak":2344,"elte":2345,"nyí":2346,"hozott":2347,"vagyunk":2348,"település":2349,"kilométer":2350,"ait":2351,"takar":2352,"életét":2353,"esetén":2354,"csúcs":2355,"megállapod":2356,"\".":2357,"kult":2358,"számol":2359,"támadás":2360,"alakult":2361,"emelkedett":2362,"augusztus":2363,"ga":2364,"jával":2365,"feleség":2366,"tudják":2367,"igyek":2368,"Rend":2369,"szí":2370,"szki":2371,"ásos":2372,"hetik":2373,"fejlőd":2374,"édesany":2375,"eleg":2376,"ódik":2377,"sokan":2378,"diák":2379,"ráadásul":2380,"modell":2381,"egészségügyi":2382,"ebo":2383,"all":2384,"ású":2385,"addig":2386,"években":2387,"vásárl":2388,"gyakorlat":2389,"kiderült":2390,"ájuk":2391,"található":2392,"Fac":2393,"megsz":2394,"városban":2395,"mot":2396,"ete":2397,"Le":2398,"beszéd":2399,"azonos":2400,"kockáz":2401,"jen":2402,"becs":2403,"Kor":2404,"nos":2405,"zöld":2406,"ségét":2407,"hatékony":2408,"örök":2409,"imir":2410,"Ti":2411,"február":2412,"mög":2413,"rál":2414,"vezér":2415,"janak":2416,"sziget":2417,"tűnik":2418,"Ol":2419,"méd":2420,"oci":2421,"valami":2422,"rakét":2423,"ián":2424,"legy":2425,"mon":2426,"rét":2427,"esek":2428,"Ak":2429,"fit":2430,"pan":2431,"poszt":2432,"baloldal":2433,"uális":2434,"zárt":2435,"azóta":2436,"agg":2437,"júli":2438,"hatunk":2439,"hivatalos":2440,"darú":2441,"nan":2442,"legfontosabb":2443,"darab":2444,"engeteg":2445,"get":2446,"sereg":2447,"munkat":2448,"fertőz":2449,"Facebo":2450,"étt":2451,"ikt":2452,"irod":2453,"szombaton":2454,"vonatkozó":2455,"35":2456,"árfolyam":2457,"többször":2458,"ősorban":2459,"jelenti":2460,"fiú":2461,"erősöd":2462,"repülő":2463,"Bizottság":2464,"atég":2465,"észak":2466,"írt":2467,"köszönhetően":2468,"org":2469,"index":2470,"többet":2471,"semmi":2472,"eszközök":2473,"70":2474,"Bank":2475,"fáj":2476,"elkép":2477,"szakember":2478,"óban":2479,"alig":2480,"ozik":2481,"döntés":2482,"Új":2483,"ark":2484,"ente":2485,"elmet":2486,"végzett":2487,"magán":2488,"tulajdonos":2489,"man":2490,"úton":2491,"venni":2492,"ipari":2493,"Pr":2494,"etet":2495,"lenül":2496,"talán":2497,"oldog":2498,"avar":2499,"mégis":2500,"Egyetem":2501,"lakás":2502,"kapcsolatos":2503,"hallgat":2504,"fer":2505,"április":2506,"azaz":2507,"aként":2508,"köztük":2509,"óknak":2510,"sőt":2511,"énekes":2512,"tűzolt":2513,"partner":2514,"január":2515,"Il":2516,"lass":2517,"uc":2518,"ői":2519,"enci":2520,"szereplő":2521,"26":2522,"terjed":2523,"lehetett":2524,"külföldi":2525,"Ne":2526,"arc":2527,"arany":2528,"bocsát":2529,"med":2530,"elik":2531,"online":2532,"eged":2533,"csup":2534,"ozni":2535,"tagja":2536,"célja":2537,"térség":2538,"ft":2539,"gen":2540,"pót":2541,"ileg":2542,"Andr":2543,"júni":2544,"kínai":2545,"szez":2546,"feladat":2547,"idesz":2548,"álták":2549,"származ":2550,"ásai":2551,"cselek":2552,"hatják":2553,"keleti":2554,"struk":2555,"Bors":2556,"szal":2557,"jelölt":2558,"kapcsán":2559,"betegség":2560,"huny":2561,"Hozzátette":2562,"Ebb":2563,"Jo":2564,"épp":2565,"társad":2566,"Államok":2567,"Zrt":2568,"dok":2569,"akinek":2570,"vagyis":2571,"obil":2572,"erők":2573,"meglep":2574,"eszti":2575,"érintett":2576,"ahhoz":2577,"múl":2578,"vitt":2579,"kamp":2580,"név":2581,"adni":2582,"tön":2583,"időszakban":2584,"áris":2585,"esély":2586,"napokban":2587,"halt":2588,"akadály":2589,"NATO":2590,"teljesítmény":2591,"Ezzel":2592,"magyaráz":2593,"NB":2594,"kan":2595,"teg":2596,"enz":2597,"itás":2598,"kihív":2599,"ulás":2600,"portál":2601,"digit":2602,"nevezett":2603,"28":2604,"János":2605,"löv":2606,"ezr":2607,"minőség":2608,"nyugdíj":2609,"elsősorban":2610,"Két":2611,"pad":2612,"azokat":2613,"inter":2614,"stratég":2615,"költségvet":2616,"90":2617,"Ma":2618,"ésében":2619,"csit":2620,"ellenzék":2621,"ce":2622,"onban":2623,"ulat":2624,"tartó":2625,"pénzügyi":2626,"nemzeti":2627,"igazgatója":2628,"csupán":2629,"szob":2630,"tudott":2631,"kezdett":2632,"szinten":2633,"élte":2634,"civil":2635,"áltak":2636,"Szent":2637,"kellene":2638,"bl":2639,"helyez":2640,"ezeket":2641,"országok":2642,"helyre":2643,"almat":2644,"lesznek":2645,"érkező":2646,"üzemanyag":2647,"megerősít":2648,"közz":2649,"többek":2650,"prof":2651,"irt":2652,"labdarú":2653,"hangsúlyozta":2654,"alkalommal":2655,"edző":2656,"úti":2657,"jövőben":2658,"munkatárs":2659,"kampány":2660,"ódó":2661,"ógus":2662,"Ed":2663,"rány":2664,"íteni":2665,"nyal":2666,"esti":2667,"projekt":2668,"boldog":2669,"szerencs":2670,"érkezik":2671,"március":2672,"pon":2673,"állom":2674,"bevezet":2675,"valaki":2676,"fogja":2677,"menet":2678,"pálya":2679,"hatóságok":2680,"vidék":2681,"Att":2682,"Kar":2683,"francia":2684,"áért":2685,"akit":2686,"érzék":2687,"ikat":2688,"járó":2689,"órak":2690,"haza":2691,"cégek":2692,"Nagyon":2693,"budapest":2694,"vették":2695,"tehet":2696,"Központ":2697,"miért":2698,"oroszok":2699,"ideje":2700,"mértékben":2701,"budapesti":2702,"hű":2703,"elnö":2704,"éri":2705,"kezdemény":2706,"Moszk":2707,"ip":2708,"lény":2709,"rat":2710,"agr":2711,"éjszak":2712,"hullám":2713,"ágy":2714,"vall":2715,"egészen":2716,"kont":2717,"vat":2718,"”,":2719,"elfog":2720,"attól":2721,"vivő":2722,"környék":2723,"értelmű":2724,"hí":2725,"rengeteg":2726,"szerzett":2727,"közön":2728,"nappal":2729,"kedv":2730,"ájában":2731,"karácsony":2732,"nevű":2733,"tenni":2734,"eink":2735,"kul":2736,"rák":2737,"vak":2738,"atát":2739,"ezúttal":2740,"egykori":2741,"teszi":2742,"Tam":2743,"rög":2744,"almi":2745,"értek":2746,"tartóz":2747,"ügynök":2748,"jeszt":2749,"29":2750,"láb":2751,"etett":2752,"ila":2753,"jelentősen":2754,"if":2755,"ox":2756,"akart":2757,"megvalós":2758,"inte":2759,"közé":2760,"deb":2761,"lengyel":2762,"ünket":2763,"sajtó":2764,"tőzs":2765,"Bor":2766,"fesz":2767,"iről":2768,"kereskedelmi":2769,"buk":2770,"zó":2771,"íti":2772,"női":2773,"ítását":2774,"igazán":2775,"romos":2776,"mérséklet":2777,"különösen":2778,"ecs":2779,"ow":2780,"meghatár":2781,"hetett":2782,"tudjuk":2783,"áldoz":2784,"Még":2785,"oc":2786,"felúj":2787,"felhív":2788,"Val":2789,"kárt":2790,"rád":2791,"zott":2792,"kezel":2793,"napja":2794,"bizottság":2795,"minél":2796,"részét":2797,"álisan":2798,"orvát":2799,"engedély":2800,"glob":2801,"fertőzött":2802,"SA":2803,"üd":2804,"olog":2805,"megjelent":2806,"felnőtt":2807,"sága":2808,"védelem":2809,"Kár":2810,"bolt":2811,"orú":2812,"felül":2813,"unkat":2814,"szakmai":2815,"epsi":2816,"ései":2817,"összes":2818,"persze":2819,"ideig":2820,".”":2821,"Fel":2822,"ics":2823,"álni":2824,"pontosan":2825,"változtat":2826,"cikk":2827,"papír":2828,"Miskol":2829,"dik":2830,"hord":2831,"ípus":2832,"befoly":2833,"terh":2834,"ásokkal":2835,"díja":2836,"idején":2837,"mostani":2838,"soha":2839,"Zolt":2840,"elé":2841,"ellett":2842,"havi":2843,"őriz":2844,"szóvivő":2845,"eztetett":2846,"hőmérséklet":2847,"május":2848,"krit":2849,"üssz":2850,"szír":2851,"ítják":2852,"felmér":2853,"részben":2854,"általán":2855,"kilenc":2856,"Mivel":2857,"ásnak":2858,"országos":2859,"2019":2860,"üzenet":2861,"ehhez":2862,"jellemző":2863,"la":2864,"elkövet":2865,"végig":2866,"-,":2867,"töz":2868,"védő":2869,"ológiai":2870,"ajánl":2871,"tabil":2872,"Kis":2873,"ái":2874,"erről":2875,"éni":2876,"százalékát":2877,"róla":2878,"önkormányzat":2879,"%-":2880,"Kir":2881,"inf":2882,"esül":2883,"étől":2884,"észség":2885,"elők":2886,"szerepel":2887,"információ":2888,"mögött":2889,"Ber":2890,"lakó":2891,"családi":2892,"földgáz":2893,"óval":2894,"gyil":2895,"őknek":2896,"ancs":2897,"egyértelmű":2898,"reag":2899,"házi":2900,"minim":2901,"kezdte":2902,"közösség":2903,"konfl":2904,"ándor":2905,"konflikt":2906,"einek":2907,"hess":2908,"tév":2909,"vevő":2910,"ejt":2911,"egyedül":2912,"robb":2913,"szeg":2914,"itív":2915,"kislány":2916,"kommun":2917,"elektromos":2918,"Duna":2919,"Tan":2920,"elismer":2921,"atom":2922,"tömeg":2923,"mindössze":2924,"időt":2925,"hunyt":2926,"Zoltán":2927,"Gerg":2928,"pp":2929,"csinál":2930,"tartja":2931,"tudta":2932,"pénzt":2933,"módos":2934,"gyorsan":2935,"élmény":2936,"gyűjt":2937,"előbb":2938,"kateg":2939,"területén":2940,"bizonyos":2941,"mennyire":2942,"visszatér":2943,"lényeg":2944,"lán":2945,"öny":2946,"elj":2947,"ető":2948,"emi":2949,"eznek":2950,"szerte":2951,"entum":2952,"oltak":2953,"Min":2954,"ij":2955,"csaknem":2956,"vonul":2957,"értékesít":2958,"ásáról":2959,"aktív":2960,"Debrecen":2961,"500":2962,"ler":2963,"napos":2964,"járt":2965,"házas":2966,"figyelem":2967,"oft":2968,"koncert":2969,"dem":2970,"uz":2971,"maguk":2972,"Ezért":2973,"Európában":2974,"hadsereg":2975,"segítségével":2976,"pillanat":2977,"bé":2978,"busz":2979,"tudnak":2980,"lenni":2981,"senki":2982,"itányság":2983,"péntek":2984,"természetesen":2985,"tánc":2986,"benz":2987,"ákkal":2988,"ővé":2989,"július":2990,"Tovább":2991,"szünet":2992,"felső":2993,"bert":2994,"újság":2995,"asztró":2996,"iós":2997,"vállalatok":2998,"férfit":2999,"területen":3000,"kocsi":3001,"Ig":3002,"Megy":3003,"éért":3004,"ötö":3005,"kötött":3006,"állat":3007,"agógus":3008,"prod":3009,"várhatóan":3010,"keretében":3011,"Facebook":3012,"esztivál":3013,"Mol":3014,"mobil":3015,"ekről":3016,"áshoz":3017,"ekete":3018,"előtti":3019,"Budapesten":3020,"globális":3021,"31":3022,"Re":3023,"Sándor":3024,"szlov":3025,"elfogad":3026,"észeti":3027,"íregyház":3028,"alma":3029,"különleges":3030,"szomszéd":3031,"Attila":3032,"Har":3033,"áki":3034,"esed":3035,"klub":3036,"növekedés":3037,"iak":3038,"kán":3039,"ásában":3040,"ovid":3041,"ügyfel":3042,"források":3043,"június":3044,"Saj":3045,"jóval":3046,"hős":3047,"lus":3048,"szel":3049,"oka":3050,"gyanús":3051,"videó":3052,"tanulmány":3053,"Országos":3054,"digitális":3055,"konfliktus":3056,"Amikor":3057,"Fő":3058,"jenek":3059,"zavar":3060,"éma":3061,"úra":3062,"helyet":3063,"ebből":3064,"imp":3065,"államtit":3066,"uttat":3067,"Rendőr":3068,"Kft":3069,"kinek":3070,"áros":3071,"sztár":3072,"eltek":3073,"továbbá":3074,"utóbb":3075,"Alap":3076,"Kov":3077,"cz":3078,"anszír":3079,"megoszt":3080,"adók":3081,"ast":3082,"vezetés":3083,"embert":3084,"konz":3085,"használt":3086,"rezsi":3087,"Rá":3088,"váz":3089,"kapu":3090,"csapata":3091,"finanszír":3092,"szövetség":3093,"bázis":3094,"Vl":3095,"pá":3096,"trag":3097,"olják":3098,"egyet":3099,"izmus":3100,"mindkét":3101,"andó":3102,"tartózkod":3103,"Emellett":3104,"dolog":3105,"kuty":3106,"ítél":3107,"ítást":3108,"tök":3109,"leginkább":3110,"magam":3111,"sérült":3112,"meleg":3113,"szolgálat":3114,"gyerekek":3115,"Unió":3116,"szkij":3117,"75":3118,"zést":3119,"gyen":3120,"lex":3121,"hatjuk":3122,"vezeték":3123,"ajdú":3124,"oldalon":3125,"lépett":3126,"remény":3127,"sák":3128,"erej":3129,"kialak":3130,"téren":3131,"veszteség":3132,"Gábor":3133,"eső":3134,"adtak":3135,"hib":3136,"támogatást":3137,"Fidesz":3138,"isz":3139,"tes":3140,"vegy":3141,"séggel":3142,"hetünk":3143,"nekik":3144,"forin":3145,"öröm":3146,"gyakran":3147,"Kije":3148,"hamarosan":3149,"debrec":3150,"stabil":3151,"tran":3152,"okból":3153,"tudom":3154,"külügyminiszter":3155,"forintra":3156,"szoros":3157,"adatai":3158,"eddigi":3159,"fest":3160,"éséhez":3161,"olasz":3162,"ezik":3163,"amik":3164,"állnak":3165,"olták":3166,"lehetővé":3167,"háborús":3168,"negyedik":3169,"labdarúgó":3170,"Len":3171,"Var":3172,"Zelen":3173,"tették":3174,"uhan":3175,"nagyjából":3176,"véget":3177,"kormányfő":3178,"közelében":3179,"információk":3180,"fertő":3181,"stag":3182,"szándék":3183,"oni":3184,"sági":3185,"isztikai":3186,"199":3187,"kezdődött":3188,"Ad":3189,"zük":3190,"egyáltalán":3191,"indított":3192,"visel":3193,"kollég":3194,"politik":3195,"percben":3196,"korlátoz":3197,"debreceni":3198,"Itt":3199,"Leg":3200,"pát":3201,"intern":3202,"ball":3203,"lehetőséget":3204,"üzemelt":3205,"tervezett":3206,"asszony":3207,"helyszínen":3208,"eum":3209,"omat":3210,"várak":3211,"forrás":3212,"Nyug":3213,"bör":3214,"szekt":3215,"adi":3216,"utak":3217,"urkol":3218,"Szlov":3219,"belép":3220,"üzleti":3221,"árulta":3222,"Elő":3223,"onal":3224,"attak":3225,"általában":3226,"György":3227,"vir":3228,"amíg":3229,"ítási":3230,"feldolgoz":3231,"pontot":3232,"Csak":3233,"termékek":3234,"Tamás":3235,"forinttal":3236,"34":3237,"Per":3238,"bú":3239,"edik":3240,"várt":3241,"fognak":3242,"kétszer":3243,"csapatok":3244,"szeretné":3245,"annyira":3246,"András":3247,"dokum":3248,"Te":3249,"ánál":3250,"író":3251,"kötelezett":3252,"ügynökség":3253,"kategóri":3254,"típus":3255,"kert":3256,"védelm":3257,"helyzetben":3258,"vitel":3259,"csator":3260,"Ukrajnában":3261,"36":3262,"Vol":3263,"rum":3264,"olás":3265,"kizár":3266,"ságú":3267,"jelöl":3268,"többen":3269,"képesség":3270,"magyarországi":3271,"támogatás":3272,"kereslet":3273,"hagyta":3274,"gondolkod":3275,"bajnoki":3276,"finom":3277,"kevésbé":3278,"300":3279,"Id":3280,"Észak":3281,"évi":3282,"urcs":3283,"Ezen":3284,"ugr":3285,"valószínűleg":3286,"szezon":3287,"Nap":3288,"Szövet":3289,"képpen":3290,"vége":3291,"diplom":3292,"méret":3293,"igazi":3294,"mentő":3295,"okozta":3296,"export":3297,"pozitív":3298,"internet":3299,"zenek":3300,"györgy":3301,"árom":3302,"fellép":3303,"ula":3304,"amelyben":3305,"látszik":3306,"biztosan":3307,"ozza":3308,"játszott":3309,"Vlagy":3310,"Zelenszkij":3311,"bő":3312,"hideg":3313,"tém":3314,"ozók":3315,"tartalmaz":3316,"pedagógus":3317,"belső":3318,"plat":3319,"sajt":3320,"ektől":3321,"négyzet":3322,"Kriszt":3323,"rekord":3324,"elképzel":3325,"junk":3326,"művel":3327,"magukat":3328,"háztart":3329,"fizetni":3330,"tavalyi":3331,"44":3332,"nor":3333,"tét":3334,"emellett":3335,"áló":3336,"adomány":3337,"hatott":3338,"főleg":3339,"tegnap":3340,"Vlagyimir":3341,"Más":3342,"Sp":3343,"ossz":3344,"beszerzés":3345,"ölcs":3346,"járul":3347,"ásait":3348,"általános":3349,"körülbelül":3350,"piacon":3351,"nevel":3352,"védek":3353,"iskola":3354,"Józs":3355,"Hogy":3356,"Tör":3357,"csill":3358,"ítva":3359,"ital":3360,"évre":3361,"hozzátette":3362,"jegyzés":3363,"halálos":3364,"kísérlet":3365,"38":3366,"zők":3367,"ína":3368,"tanár":3369,"munkát":3370,"közönség":3371,"Vég":3372,"apcs":3373,"kicsit":3374,"alapvet":3375,"úgynevezett":3376,"kórházba":3377,"szentgyörgy":3378,"Is":3379,"hátt":3380,"puszt":3381,"tábor":3382,"úg":3383,"szoci":3384,"érz":3385,"megbíz":3386,"fogják":3387,"kapta":3388,"állampolgár":3389,"működik":3390,"olcsó":3391,"Kijev":3392,"ráció":3393,"vé":3394,"xim":3395,"úd":3396,"etek":3397,"ennél":3398,"ekkor":3399,"élni":3400,"képzés":3401,"magyarok":3402,"növény":3403,"alacsonyabb":3404,"produk":3405,"Lengyel":3406,"TV":3407,"mut":3408,"eres":3409,"atosan":3410,"ésű":3411,"inn":3412,"amos":3413,"írták":3414,"szerinte":3415,"tartani":3416,"anyol":3417,"gazdag":3418,"segítséget":3419,"valóban":3420,"rang":3421,"választás":3422,"pályán":3423,"kiter":3424,"gyógyszer":3425,"hálózat":3426,"asztrófa":3427,"Pl":3428,"mis":3429,"csod":3430,"odik":3431,"amelyeket":3432,"elték":3433,"körében":3434,"mutatja":3435,"Ugyanakkor":3436,"gener":3437,"Király":3438,"kommunik":3439,"fők":3440,"vári":3441,"ciós":3442,"látvány":3443,"atait":3444,"helyettes":3445,"kötelező":3446,"eljárás":3447,"teremt":3448,"Gergely":3449,"Né":3450,"fesztivál":3451,"vírus":3452,"egység":3453,"enyh":3454,"stop":3455,"sajnos":3456,"szerepl":3457,"ence":3458,"hivatkoz":3459,"szabadság":3460,"hasonl":3461,"Ahogy":3462,"Hun":3463,"kiad":3464,"ásokra":3465,"végéig":3466,"zetes":3467,"váló":3468,"mondja":3469,"tagjai":3470,"történő":3471,"szerepet":3472,"fürd":3473,"mostan":3474,"bűncselek":3475,"37":3476,"Lig":3477,"jének":3478,"kó":3479,"lék":3480,"nák":3481,"ria":3482,"gyár":3483,"okos":3484,"felad":3485,"leveg":3486,"ajándék":3487,"hetjük":3488,"legmagasabb":3489,"várja":3490,"plusz":3491,"létesít":3492,"módszer":3493,"körülmények":3494,"késő":3495,"ellátás":3496,"vágy":3497,"óriási":3498,"Kat":3499,"OT":3500,"mél":3501,"rát":3502,"dolgozott":3503,"Mari":3504,"DP":3505,"Im":3506,"Tud":3507,"lós":3508,"atta":3509,"isták":3510,"emberi":3511,"lehetnek":3512,"figyel":3513,"történik":3514,"hivat":3515,"találkozó":3516,"szenvedett":3517,"strukt":3518,"cent":3519,"fagy":3520,"fent":3521,"Össz":3522,"üszk":3523,"szű":3524,"ölgy":3525,"ígér":3526,"megyében":3527,"templom":3528,"fűt":3529,"lezár":3530,"cu":3531,"kért":3532,"kot":3533,"mire":3534,"tagállam":3535,"Megyei":3536,"szu":3537,"szén":3538,"tartják":3539,"aszkod":3540,"közösen":3541,"nyelv":3542,"József":3543,"bont":3544,"hen":3545,"lo":3546,"umi":3547,"ingyen":3548,"álta":3549,"ellent":3550,"indok":3551,"kapac":3552,"megfelelően":3553,"39":3554,"45":3555,"Term":3556,"höz":3557,"mások":3558,"pa":3559,"ers":3560,"járműv":3561,"tárca":3562,"életet":3563,"front":3564,"hasznos":3565,"menekült":3566,"Németország":3567,"négyzetméter":3568,"Mát":3569,"iában":3570,"kelt":3571,"nék":3572,"nünk":3573,"elhunyt":3574,"udvar":3575,"főváros":3576,"derül":3577,"klí":3578,"autók":3579,"találtak":3580,"esszió":3581,"jebb":3582,"oss":3583,"vezetett":3584,"tudomány":3585,"ügyben":3586,"úzeum":3587,"vizsgálat":3588,"nyilvánosság":3589,"falu":3590,"angol":3591,"édesap":3592,"remek":3593,"fenyeget":3594,"Igaz":3595,"Ch":3596,"fia":3597,"megkérd":3598,"urg":3599,"tartanak":3600,"fordult":3601,"erőmű":3602,"motor":3603,"Ebben":3604,"Kl":3605,"szex":3606,"niuk":3607,"telt":3608,"lehetséges":3609,"ésekre":3610,"honlap":3611,"fiatalok":3612,"futball":3613,"Zsolt":3614,"epsiszentgyörgy":3615,"Kül":3616,"Nov":3617,"osok":3618,"legújabb":3619,"urális":3620,"elmes":3621,"Egyes":3622,"platform":3623,"Vil":3624,"lek":3625,"yás":3626,"álkod":3627,"átum":3628,"kiemelte":3629,"level":3630,"hatók":3631,"odott":3632,"áján":3633,"mondott":3634,"kezdet":3635,"személyes":3636,"munkaerő":3637,"nevezte":3638,"megoldás":3639,"szakértő":3640,"\",":3641,"aba":3642,"kérte":3643,"megúj":3644,"apán":3645,"edett":3646,"lej":3647,"százalékot":3648,"jegybank":3649,"jogos":3650,"láng":3651,"Covid":3652,"Par":3653,"sé":3654,"Én":3655,"ésnek":3656,"kiemelt":3657,"jelzés":3658,"kerék":3659,"örül":3660,"ájának":3661,"parancs":3662,"maxim":3663,"vállalkozások":3664,"javaslat":3665,"tevékenység":3666,"hagyományos":3667,"400":3668,"Go":3669,"Mag":3670,"hum":3671,"nunk":3672,"vettek":3673,"ápol":3674,"ágaz":3675,"ural":3676,"változott":3677,"technológi":3678,"Szabó":3679,"Tw":3680,"Vas":3681,"co":3682,"kin":3683,"rév":3684,"ya":3685,"vagyon":3686,"foglalkoztat":3687,"Ami":3688,"Hat":3689,"cel":3690,"lánc":3691,"nének":3692,"vezetői":3693,"jegyezte":3694,"kölcs":3695,"befolyás":3696,"dokumentum":3697,"eci":3698,"list":3699,"szöv":3700,"felügy":3701,"Szil":3702,"import":3703,"színpad":3704,"hozzát":3705,"emelkedő":3706,"pályára":3707,"kettő":3708,"sofő":3709,"émia":3710,"vadász":3711,"The":3712,"ónak":3713,"elkerül":3714,"észre":3715,"évente":3716,"ontos":3717,"hiába":3718,"százalékra":3719,"igazság":3720,"jogi":3721,"hónapban":3722,"hasonlóan":3723,"áldozat":3724,"börtön":3725,"Be":3726,"kü":3727,"lám":3728,"vert":3729,"berend":3730,"várják":3731,"rajta":3732,"erőszak":3733,"kamer":3734,"önként":3735,"győzelem":3736,"kényszer":3737,"fajta":3738,"nyílt":3739,"fájd":3740,"tűzoltók":3741,"tökélet":3742,"jén":3743,"kemény":3744,"neg":3745,"nyar":3746,"napján":3747,"oper":3748,"mened":3749,"ítására":3750,"működő":3751,"lapunk":3752,"körüli":3753,"olvasható":3754,"Tanács":3755,"jell":3756,"téli":3757,"érez":3758,"évet":3759,"elől":3760,"vev":3761,"amivel":3762,"hétvégén":3763,"helyzetet":3764,"megye":3765,"melyik":3766,"munkavállal":3767,"gyűlés":3768,"Ráadásul":3769,"büszk":3770,"kőz":3771,"lél":3772,"ork":3773,"hom":3774,"szólal":3775,"okozott":3776,"gyártó":3777,"tényleg":3778,"Auszt":3779,"Eg":3780,"Kon":3781,"Nép":3782,"lit":3783,"amennyi":3784,"kiegész":3785,"bejelentette":3786,"usk":3787,"látni":3788,"vereség":3789,"óth":3790,"dolgozik":3791,"jövőre":3792,"ponttal":3793,"32":3794,"Hi":3795,"tünet":3796,"felhő":3797,"időjár":3798,"érkeztek":3799,"változás":3800,"sikeres":3801,"regiszt":3802,"egymást":3803,"infra":3804,"OTP":3805,"révén":3806,"Hajdú":3807,"Három":3808,"Kína":3809,"bot":3810,"du":3811,"öszt":3812,"ülést":3813,"ékes":3814,"nyári":3815,"előd":3816,"járól":3817,"minős":3818,"következmény":3819,"versenyző":3820,"Instag":3821,"átlagos":3822,"elnöki":3823,"ötödik":3824,"Instagram":3825,".\"":3826,"hn":3827,"váj":3828,"akk":3829,"hozta":3830,"élete":3831,"közeli":3832,"államfő":3833,"bizonytalan":3834,"nyerte":3835,"lemond":3836,"Ro":3837,"qu":3838,"szol":3839,"szét":3840,"álás":3841,"bban":3842,"ítése":3843,"szerző":3844,"ákban":3845,"2018":3846,"összet":3847,"ötlet":3848,"ruh":3849,"kiderül":3850,"gyűlési":3851,"negatív":3852,"Stat":3853,"erem":3854,"nekem":3855,"ukra":3856,"hangulat":3857,"kutatás":3858,"Twitt":3859,"jelleg":3860,"GDP":3861,"bul":3862,"jék":3863,"nők":3864,"aránt":3865,"átus":3866,"ikusan":3867,"valóság":3868,"következt":3869,"kilát":3870,"kulcs":3871,"díjas":3872,"államtitkár":3873,"Zay":3874,"enként":3875,"egyaránt":3876,"kaptak":3877,"ésekkel":3878,"mozd":3879,"parlamenti":3880,"33":3881,"MNB":3882,"Ta":3883,"gör":3884,"Érd":3885,"oskod":3886,"oznak":3887,"fejlesztési":3888,"folyamatos":3889,"vádlott":3890,"villamos":3891,"dor":3892,"dre":3893,"megelő":3894,"ultak":3895,"számú":3896,"kerület":3897,"képp":3898,"nőt":3899,"park":3900,"dolgozó":3901,"mutatta":3902,"ellenőrzés":3903,"sajtót":3904,"következtében":3905,"Tóth":3906,"jég":3907,"tél":3908,"uzs":3909,"ítik":3910,"kibocsát":3911,"jelezte":3912,"időre":3913,"világbajnokság":3914,"melyek":3915,"Oly":3916,"ceg":3917,"húsz":3918,"rám":3919,"sug":3920,"ütem":3921,"fele":3922,"előadás":3923,"teher":3924,"számító":3925,"minket":3926,"sors":3927,"ációt":3928,"000":3929,"véli":3930,"légi":3931,"utca":3932,"erdő":3933,"közepén":3934,"Miskolc":3935,"emiatt":3936,"Miniszt":3937,"levegő":3938,"Horvát":3939,"ori":3940,"adja":3941,"ozási":3942,"mintha":3943,"válik":3944,"házban":3945,"ügyészség":3946,"látja":3947,"folyó":3948,"ismerős":3949,"zsé":3950,"rand":3951,"közelebb":3952,"hazánk":3953,"említett":3954,"növek":3955,"Nyíregyház":3956,"vételt":3957,"szakértők":3958,"55":3959,"af":3960,"birt":3961,"ülni":3962,"felület":3963,"tern":3964,"számoló":3965,"másfél":3966,"körben":3967,"veszélyes":3968,"rendelkezik":3969,"Márki":3970,"Ilyen":3971,"48":3972,"Jelen":3973,"SE":3974,"mig":3975,"pir":3976,"vész":3977,"onnan":3978,"okba":3979,"megtalál":3980,"iden":3981,"képet":3982,"nyugat":3983,"emelkedés":3984,"déli":3985,"délelőtt":3986,"tőle":3987,"vesztette":3988,"könnyen":3989,"Debreceni":3990,"kedvezmény":3991,"tervek":3992,"Román":3993,"robban":3994,"kölcsön":3995,"Erd":3996,"Sc":3997,"hús":3998,"kes":3999,"lu":4000,"lop":4001,"mat":4002,"táb":4003,"ele":4004,"ezi":4005,"felszer":4006,"állomány":4007,"intézet":4008,"hívta":4009,"beszélget":4010,"probléma":4011,"Akkor":4012,"sofőr":4013,"Dél":4014,"rov":4015,"sos":4016,"zák":4017,"ásról":4018,"kiállítás":4019,"kivitel":4020,"állította":4021,"befej":4022,"forgat":4023,"Szám":4024,"sokszor":4025,"páros":4026,"szeretne":4027,"száraz":4028,"szeretnék":4029,"felesége":4030,"New":4031,"tragéd":4032,"Szlováki":4033,"ge":4034,"gr":4035,"ota":4036,"ráj":4037,"Ám":4038,"többség":4039,"ábban":4040,"Szij":4041,"esetleg":4042,"avatkoz":4043,"fizetés":4044,"ezetten":4045,"rosszabb":4046,"azoknak":4047,"lakossági":4048,"hirdet":4049,"gyakorlatilag":4050,"ösztön":4051,"Fontos":4052,"Man":4053,"ainak":4054,"kov":4055,"tettek":4056,"vaj":4057,"szurkol":4058,"annyit":4059,"inváz":4060,"tartozik":4061,"jártó":4062,"mondani":4063,"készített":4064,"akiknek":4065,"rip":4066,"jogszabály":4067,"politika":4068,"szolgáltató":4069,"képesek":4070,"Moszkva":4071,"Twitter":4072,"Szijjártó":4073,"Pár":4074,"szellem":4075,"ekhez":4076,"egyéni":4077,"vezetők":4078,"értékű":4079,"használat":4080,"veszi":4081,"nyomán":4082,"állítja":4083,"káros":4084,"büntető":4085,"John":4086,"Francia":4087,"Ri":4088,"sár":4089,"sim":4090,"uj":4091,"köztársaság":4092,"izg":4093,"többsége":4094,"tudták":4095,"szakemberek":4096,"immár":4097,"támogatja":4098,"beszélg":4099,"tisztelet":4100,"küldött":4101,"Am":4102,"funk":4103,"sk":4104,"vélet":4105,"elkezd":4106,"aminek":4107,"ozs":4108,"kiváló":4109,"nemrég":4110,"állított":4111,"idők":4112,"országot":4113,"eltűn":4114,"hajland":4115,"történelmi":4116,"fogyasztás":4117,"könnyű":4118,"javasl":4119,"Szövetség":4120,"Hol":4121,"del":4122,"des":4123,"hegy":4124,"jót":4125,"stat":4126,"ze":4127,"adnak":4128,"országgyűlési":4129,"napig":4130,"kedves":4131,"végére":4132,"eltér":4133,"rajong":4134,"gazdálkod":4135,"segély":4136,"hajnal":4137,"díjat":4138,"hatósági":4139,"Balázs":4140,"Varga":4141,"sajtótájékoztat":4142,"invázió":4143,"49":4144,"AC":4145,"fekete":4146,"juttat":4147,"sincs":4148,"tüz":4149,"benn":4150,"legutóbbi":4151,"terve":4152,"csapadék":4153,"lőtt":4154,"szállító":4155,"fejlesztés":4156,"szervezetek":4157,"technológiai":4158,"ellenzéki":4159,"Mic":4160,"náz":4161,"ocs":4162,"tünk":4163,"–,":4164,"atokat":4165,"énnyel":4166,"örös":4167,"órától":4168,"erősen":4169,"lépés":4170,"hírek":4171,"mezőny":4172,"énekesnő":4173,"kizárólag":4174,"PC":4175,"log":4176,"nának":4177,"ráz":4178,"sür":4179,"erült":4180,"beszámolt":4181,"hatással":4182,"hozni":4183,"almak":4184,"anya":4185,"esztő":4186,"eződ":4187,"konk":4188,"melynek":4189,"ack":4190,"nyitott":4191,"Szerinte":4192,"szülők":4193,"szeretnénk":4194,"rögz":4195,"56":4196,"Mű":4197,"Van":4198,"do":4199,"kék":4200,"rász":4201,"tol":4202,"áns":4203,"adik":4204,"ity":4205,"levél":4206,"évig":4207,"elmar":4208,"külső":4209,"amire":4210,"evíz":4211,"segíteni":4212,"szüksége":4213,"távon":4214,"hátrány":4215,"eurót":4216,"szolgáltatás":4217,"dollárt":4218,"kutató":4219,"egyszerűen":4220,"impiai":4221,"jö":4222,"yel":4223,"Ár":4224,"eri":4225,"ara":4226,"intenz":4227,"reform":4228,"prom":4229,"mérkőz":4230,"elemben":4231,"valójában":4232,"jöved":4233,"Nemzetközi":4234,"pihen":4235,"idegen":4236,"kormányzati":4237,"Kovács":4238,"hivatkozva":4239,"riaszt":4240,"Fehér":4241,"hor":4242,"jet":4243,"ari":4244,"ódi":4245,"vihar":4246,"eivel":4247,"mellé":4248,"katasztrófa":4249,"dolgoznak":4250,"anyagi":4251,"közzét":4252,"Természet":4253,"zsébet":4254,"SC":4255,"hid":4256,"sáv":4257,"szög":4258,"app":4259,"aival":4260,"kezelés":4261,"verz":4262,"világot":4263,"tető":4264,"rendszert":4265,"energiaárak":4266,"gyűj":4267,"testület":4268,"szerződés":4269,"pozíció":4270,"benzin":4271,"főkap":4272,"Amer":4273,"Kín":4274,"Nor":4275,"Sport":4276,"aik":4277,"bez":4278,"ea":4279,"gárd":4280,"ettem":4281,"ítanak":4282,"legend":4283,"napra":4284,"tartós":4285,"hitt":4286,"látott":4287,"sokáig":4288,"termelés":4289,"tötte":4290,"biztonságos":4291,"átlagosan":4292,"rendelkező":4293,"szombat":4294,"találták":4295,"közleményében":4296,"csillag":4297,"Her":4298,"Katal":4299,"fran":4300,"rog":4301,"tra":4302,"ébb":4303,"egyben":4304,"meghalt":4305,"ilab":4306,"rezsicsökkent":4307,"Bi":4308,"bőr":4309,"sét":4310,"tők":4311,"web":4312,"ásához":4313,"ezést":4314,"ságát":4315,"széles":4316,"összefügg":4317,"itthon":4318,"nélküli":4319,"orvosi":4320,"herceg":4321,"tőzsde":4322,"ein":4323,"fék":4324,"lig":4325,"szülő":4326,"egyű":4327,"feljebb":4328,"nekünk":4329,"részén":4330,"részéről":4331,"emelés":4332,"igazol":4333,"termel":4334,"vásárol":4335,"gyakorl":4336,"Budapesti":4337,"szigorú":4338,"kifejezetten":4339,"repülőgép":4340,"múlva":4341,"szektor":4342,"bát":4343,"ásuk":4344,"esik":4345,"megpróbál":4346,"nyúj":4347,"Szak":4348,"semmit":4349,"szintű":4350,"eredeti":4351,"vásárhelyi":4352,"hírügynökség":4353,"speci":4354,"Balaton":4355,"keletkez":4356,"származó":4357,"blok":4358,"Persze":4359,"Ház":4360,"cell":4361,"lend":4362,"nett":4363,"ona":4364,"érzi":4365,"beavatkoz":4366,"teszik":4367,"század":4368,"szaki":4369,"ügyminisztérium":4370,"parkol":4371,"komment":4372,"katonák":4373,"készülék":4374,"Erre":4375,"Erzsébet":4376,"szokott":4377,"szempontból":4378,"profit":4379,"For":4380,"din":4381,"oha":4382,"vív":4383,"szórak":4384,"ese":4385,"cseh":4386,"ita":4387,"kijelentette":4388,"hir":4389,"kapnak":4390,"törek":4391,"alapú":4392,"értéke":4393,"Int":4394,"aránya":4395,"idézte":4396,"kulturális":4397,"bűncselekmény":4398,"szűk":4399,"Bel":4400,"Ho":4401,"jében":4402,"Ép":4403,"álja":4404,"egyeztet":4405,"ozást":4406,"nyáron":4407,"beszámoló":4408,"ókkal":4409,"jelentés":4410,"velük":4411,"fővárosi":4412,"ismerte":4413,"állítólag":4414,"születés":4415,"Brüssz":4416,"média":4417,"vakc":4418,"szóvivője":4419,"Királyság":4420,"Világ":4421,"41":4422,"Biden":4423,"mas":4424,"rob":4425,"süt":4426,"top":4427,"zás":4428,"szán":4429,"eknél":4430,"éven":4431,"korszerű":4432,"előfordul":4433,"mára":4434,"tartozó":4435,"lehetne":4436,"végi":4437,"jóvá":4438,"Magyarországra":4439,"egyensúly":4440,"kerültek":4441,"oktatási":4442,"sosem":4443,"sanak":4444,"csik":4445,"csend":4446,"megszer":4447,"meghalad":4448,"terjeszt":4449,"ásokon":4450,"iránt":4451,"majdnem":4452,"elemző":4453,"szenny":4454,"rendszeresen":4455,"figyelmeztet":4456,"győztes":4457,"mozgás":4458,"tranz":4459,"nuk":4460,"árstop":4461,"banki":4462,"nként":4463,"írás":4464,"ung":4465,"valamilyen":4466,"vásárlás":4467,"kitör":4468,"függeszt":4469,"Arra":4470,"egymással":4471,"ketten":4472,"problémák":4473,"reggeli":4474,"eljárást":4475,"rendkívüli":4476,"állapotban":4477,"feletti":4478,"közzé":4479,"nettó":4480,"EN":4481,"Eh":4482,"Gul":4483,"pat":4484,"ard":4485,"adós":4486,"induló":4487,"napot":4488,"voltam":4489,"összek":4490,"semmilyen":4491,"földön":4492,"komp":4493,"derült":4494,"önkormányzati":4495,"alkalmas":4496,"baloldali":4497,"híd":4498,"demok":4499,"Nyugat":4500,"DV":4501,"Dr":4502,"Hiv":4503,"Ped":4504,"Tal":4505,"USA":4506,"VI":4507,"etében":4508,"ini":4509,"olikus":4510,"rejt":4511,"északi":4512,"kerek":4513,"munkál":4514,"hagyott":4515,"hozzájárul":4516,"ozzák":4517,"box":4518,"hajtott":4519,"kínálat":4520,"egyértelműen":4521,"infrastrukt":4522,"Katalin":4523,"Aki":4524,"pán":4525,"ris":4526,"okhoz":4527,"okról":4528,"amin":4529,"megelőző":4530,"oztak":4531,"helyezett":4532,"éseit":4533,"Csaba":4534,"mutatott":4535,"adatokat":4536,"sérülés":4537,"állítása":4538,"intézkedések":4539,"hulladék":4540,"nehezebb":4541,"egyszerre":4542,"Románi":4543,"búcs":4544,"Jelenleg":4545,"Ehhez":4546,"65":4547,"Hét":4548,"tüntet":4549,"megközel":4550,"minc":4551,"klassz":4552,"települ":4553,"automat":4554,"társadalmi":4555,"apcsol":4556,"47":4557,"Mat":4558,"Pet":4559,"üveg":4560,"ítók":4561,"élkül":4562,"niük":4563,"kezelő":4564,"hozam":4565,"soroz":4566,"198":4567,"eredet":4568,"választott":4569,"alatti":4570,"épített":4571,"ességében":4572,"gyermekek":4573,"inflációs":4574,"fekvő":4575,"közvetlen":4576,"fertőzés":4577,"Idén":4578,"dupl":4579,"hirtelen":4580,"nukle":4581,"Laj":4582,"ror":4583,"zuhan":4584,"íték":4585,"megért":4586,"szerk":4587,"közt":4588,"felel":4589,"hatása":4590,"nagykövet":4591,"televíz":4592,"amelyen":4593,"ódnak":4594,"főbb":4595,"mindenkit":4596,"opt":4597,"egészséges":4598,"szállás":4599,"dísz":4600,"szólt":4601,"hónapokban":4602,"igénybe":4603,"vendégek":4604,"ütközött":4605,"megszűn":4606,"Tavaly":4607,"Olyan":4608,"Vagy":4609,"rop":4610,"tü":4611,"szim":4612,"élvez":4613,"állandó":4614,"ovics":4615,"utána":4616,"munkáját":4617,"hajó":4618,"döntést":4619,"fontosságú":4620,"ismeretlen":4621,"igényel":4622,"szlovák":4623,"típusú":4624,"Play":4625,"birtok":4626,"43":4627,"aink":4628,"belő":4629,"hály":4630,"hettek":4631,"les":4632,"ík":4633,"elárulta":4634,"adták":4635,"felek":4636,"unkra":4637,"deviz":4638,"akkori":4639,"rajz":4640,"közölték":4641,"nyomás":4642,"rendelkezésre":4643,"modern":4644,"nyilatkozta":4645,"kezdődik":4646,"központi":4647,"rosszul":4648,"drágul":4649,"árfolyama":4650,"társadalom":4651,"stratégiai":4652,"órakor":4653,"fürdő":4654,"főkapitányság":4655,"nukleáris":4656,"Ben":4657,"Mac":4658,"kem":4659,"ítették":4660,"kiber":4661,"kivétel":4662,"ogle":4663,"hatály":4664,"tudtuk":4665,"pontja":4666,"ablak":4667,"segíti":4668,"anyagok":4669,"polgármestere":4670,"közlekedési":4671,"királynő":4672,"zajló":4673,"vevők":4674,"ana":4675,"akor":4676,"ttest":4677,"énél":4678,"ettől":4679,"megegy":4680,"apró":4681,"vezette":4682,"helyszí":4683,"nevet":4684,"rendben":4685,"igazgat":4686,"Győr":4687,"értelmében":4688,"labd":4689,"költöz":4690,"koncent":4691,"zajlik":4692,"Kárpát":4693,"önyör":4694,"virág":4695,"uralkod":4696,"Blik":4697,"hek":4698,"suk":4699,"etikai":4700,"ésen":4701,"emes":4702,"onz":4703,"ezután":4704,"ítést":4705,"apor":4706,"ust":4707,"újvárosi":4708,"tartalék":4709,"tudunk":4710,"embereket":4711,"élyi":4712,"eztem":4713,"színház":4714,"szállítás":4715,"családok":4716,"területeken":4717,"állítani":4718,"futam":4719,"Ukrajnának":4720,"intézkedés":4721,"Miklós":4722,"ferenci":4723,"Google":4724,"konkrét":4725,"Hivatal":4726,"Ró":4727,"jével":4728,"me":4729,"akban":4730,"áruház":4731,"innov":4732,"ülnek":4733,"ettünk":4734,"adást":4735,"ily":4736,"ányi":4737,"értesít":4738,"ovjet":4739,"Szeged":4740,"tartotta":4741,"tudós":4742,"irán":4743,"ünkre":4744,"amiért":4745,"150":4746,"fotó":4747,"érvényes":4748,"függetlenül":4749,"Olasz":4750,"gyanúsított":4751,"kapacit":4752,".,":4753,"Dun":4754,"Hon":4755,"kr":4756,"ry":4757,"enő":4758,"ania":4759,"ezü":4760,"intell":4761,"felől":4762,"bevon":4763,"hetők":4764,"Szín":4765,"tartottak":4766,"lehető":4767,"választási":4768,"építő":4769,"programot":4770,"atlanul":4771,"nyers":4772,"szívesen":4773,"kőolaj":4774,"szerda":4775,"kiköt":4776,"Emlék":4777,"megállapodás":4778,"Tibor":4779,"rakéta":4780,"Lengyelország":4781,"Brüsszel":4782,"Ex":4783,"Iz":4784,"fűz":4785,"krip":4786,"to":4787,"köb":4788,"terén":4789,"hip":4790,"fiók":4791,"ájára":4792,"gondoskod":4793,"vándor":4794,"emelkedik":4795,"sérül":4796,"Szerencs":4797,"spanyol":4798,"béke":4799,"idősebb":4800,"tengeri":4801,"kedvenc":4802,"gyilk":4803,"figyelembe":4804,"bány":4805,"rájuk":4806,"tétel":4807,"etbe":4808,"olimpiai":4809,"szerelm":4810,"ilt":4811,"tava":4812,"ulátor":4813,"ellyel":4814,"előzetes":4815,"Azonban":4816,"tudtak":4817,"járat":4818,"ügyfél":4819,"mentes":4820,"mutató":4821,"munkahely":4822,"huz":4823,"csütörtök":4824,"kórházban":4825,"létrehoz":4826,"színésznő":4827,"meghatározó":4828,"viselked":4829,"Egyesület":4830,"Intéz":4831,"Gulyás":4832,"Blikk":4833,"App":4834,"Eur":4835,"Márt":4836,"dán":4837,"po":4838,"erek":4839,"anélkül":4840,"érzés":4841,"kifizet":4842,"állították":4843,"bejegyzés":4844,"számított":4845,"viselő":4846,"órás":4847,"honnan":4848,"körülmény":4849,"próbált":4850,"ársaság":4851,"különbség":4852,"gólt":4853,"feszült":4854,"áldozatok":4855,"Külön":4856,"Természetesen":4857,"belőle":4858,"Co":4859,"bomb":4860,"övezet":4861,"üm":4862,"ője":4863,"elvég":4864,"akciók":4865,"emet":4866,"megment":4867,"megakadály":4868,"adót":4869,"állni":4870,"valamit":4871,"eredménye":4872,"karri":4873,"rendelet":4874,"Miután":4875,"elérni":4876,"egyesület":4877,"Aztán":4878,"helyszínre":4879,"óvod":4880,"Volod":4881,"57":4882,"Kom":4883,"Li":4884,"kop":4885,"áit":4886,"ekből":4887,"olnak":4888,"arat":4889,"csin":4890,"korosztály":4891,"idény":4892,"Szomb":4893,"műszaki":4894,"nyire":4895,"jelenlét":4896,"ukránok":4897,"hónapja":4898,"folytatott":4899,"ellátási":4900,"nyereség":4901,"távú":4902,"felelősség":4903,"éttel":4904,"lassan":4905,"hivatásos":4906,"nyaral":4907,"menedzs":4908,"Románia":4909,"Di":4910,"gab":4911,"enni":4912,"alko":4913,"szerkez":4914,"ozása":4915,"izs":4916,"amelyik":4917,"onyec":4918,"mindenkinek":4919,"órán":4920,"stí":4921,"háborút":4922,"használni":4923,"szerűen":4924,"képviselői":4925,"megoldást":4926,"alkalmazott":4927,"természetes":4928,"közleményben":4929,"látta":4930,"sebesség":4931,"tőzsd":4932,"szuper":4933,"klíma":4934,"szöveg":4935,"amennyiben":4936,"sugár":4937,"fe":4938,"miskol":4939,"szűr":4940,"encia":4941,"éshez":4942,"megtakar":4943,"adása":4944,"tas":4945,"állást":4946,"termelő":4947,"erősebb":4948,"fizikai":4949,"bármilyen":4950,"férfiak":4951,"akarja":4952,"Ukrajnát":4953,"bérlet":4954,"zene":4955,"tartották":4956,"részvények":4957,"kever":4958,"zenekar":4959,"Krisztián":4960,"intelligen":4961,"FT":4962,"aw":4963,"bony":4964,"futó":4965,"hette":4966,"pand":4967,"ront":4968,"sej":4969,"sújt":4970,"elvesz":4971,"erv":4972,"ann":4973,"szert":4974,"hattak":4975,"cion":4976,"napok":4977,"semmis":4978,"tanú":4979,"váltás":4980,"összecsap":4981,"dolgozók":4982,"egyenl":4983,"spór":4984,"Kreml":4985,"tanácsadó":4986,"mezőgazdasági":4987,"alapvető":4988,"Alex":4989,"Baj":4990,"Pál":4991,"burg":4992,"fát":4993,"kab":4994,"gyönyör":4995,"osabb":4996,"cső":4997,"megnyit":4998,"felfed":4999,"miszerint":5000,"ősen":5001,"utáni":5002,"játékot":5003,"családja":5004,"testvér":5005,"utcai":5006,"aktuális":5007,"menekültek":5008,"szakaszon":5009,"felmérés":5010,"hessen":5011,"Végül":5012,"hajlandó":5013,"sürg":5014,"miskolci":5015,"FC":5016,"Ott":5017,"bes":5018,"dám":5019,"jünk":5020,"láz":5021,"alizál":5022,"esés":5023,"üld":5024,"megél":5025,"rab":5026,"hozatal":5027,"imád":5028,"imnáz":5029,"kezdete":5030,"ötét":5031,"melyet":5032,"eurós":5033,"dolláros":5034,"mérkőzésen":5035,"Károly":5036,"Sajnos":5037,"Station":5038,"iránti":5039,"Volodimir":5040,"Föld":5041,"Kiss":5042,"cc":5043,"fül":5044,"kára":5045,"kóz":5046,"gyull":5047,"erny":5048,"arnok":5049,"átalak":5050,"megvéd":5051,"adal":5052,"illeg":5053,"állatok":5054,"ason":5055,"hatás":5056,"legfeljebb":5057,"rendezett":5058,"ellenes":5059,"körzet":5060,"életében":5061,"formában":5062,"dolgozni":5063,"határoz":5064,"szerepelt":5065,"Mihály":5066,"szabályok":5067,"miként":5068,"lelki":5069,"nehezen":5070,"diákok":5071,"Moszkv":5072,"kritikus":5073,"szegény":5074,"háttér":5075,"PlayStation":5076,"46":5077,"DK":5078,"kup":5079,"pot":5080,"óján":5081,"elv":5082,"elenged":5083,"ésük":5084,"inni":5085,"szerez":5086,"szeres":5087,"felfüggeszt":5088,"ash":5089,"Szolg":5090,"jelentése":5091,"irat":5092,"részvétel":5093,"abba":5094,"készlet":5095,"mérleg":5096,"vásárló":5097,"brüssz":5098,"ológus":5099,"összeget":5100,"oktatás":5101,"energiát":5102,"tilt":5103,"régióban":5104,"interjú":5105,"újságír":5106,"norm":5107,"szociális":5108,"cukor":5109,"58":5110,"far":5111,"ou":5112,"Ádám":5113,"szil":5114,"elfoglal":5115,"adják":5116,"uth":5117,"omik":5118,"töm":5119,"entő":5120,"hete":5121,"évad":5122,"korú":5123,"számukra":5124,"fejezte":5125,"ilyenkor":5126,"holland":5127,"pari":5128,"mesélte":5129,"hivatalosan":5130,"halála":5131,"orvosok":5132,"problémát":5133,"fenyeg":5134,"vidéki":5135,"nyilvánosságra":5136,"vájci":5137,"ENSZ":5138,"Xbox":5139,"káb":5140,"vb":5141,"akkal":5142,"számát":5143,"2017":5144,"ölte":5145,"kapitányság":5146,"embernek":5147,"umot":5148,"ponton":5149,"kapcsolatot":5150,"Oroszországgal":5151,"zárta":5152,"zivat":5153,"fegyveres":5154,"felhasználók":5155,"szempontjából":5156,"létesítmény":5157,"ingyenes":5158,"120":5159,"pör":5160,"sho":5161,"upol":5162,"zá":5163,"one":5164,"megismer":5165,"adások":5166,"artóz":5167,"kapitány":5168,"kozott":5169,"tárgy":5170,"almát":5171,"példa":5172,"gyalog":5173,"Államokban":5174,"technológia":5175,"magyarázta":5176,"reagált":5177,"önkéntes":5178,"regisztr":5179,"Apple":5180,"zivatar":5181,"Fej":5182,"Hal":5183,"Vár":5184,"dől":5185,"sír":5186,"szór":5187,"etes":5188,"ere":5189,"alsó":5190,"azután":5191,"áru":5192,"ítható":5193,"kialakult":5194,"közelmúlt":5195,"berg":5196,"neve":5197,"2010":5198,"jelentőség":5199,"szembe":5200,"esetleges":5201,"világon":5202,"harminc":5203,"ebek":5204,"kapcsolódó":5205,"érintő":5206,"ünnepi":5207,"árius":5208,"közvetlenül":5209,"népszerűbb":5210,"eiket":5211,"megerősítette":5212,"jellemzően":5213,"honlapján":5214,"akkum":5215,"Lajos":5216,"hektár":5217,"köbméter":5218,"bonyol":5219,"brüsszeli":5220,"DE":5221,"Kés":5222,"Tr":5223,"War":5224,"japán":5225,"mak":5226,"mand":5227,"sá":5228,"teni":5229,"tatták":5230,"ává":5231,"szánt":5232,"alan":5233,"kös":5234,"izált":5235,"helye":5236,"rendező":5237,"újd":5238,"tele":5239,"tató":5240,"kezdték":5241,"beszélni":5242,"rup":5243,"költségek":5244,"ajánlott":5245,"szövetséges":5246,"nyújtott":5247,"Korábban":5248,"legyenek":5249,"kontin":5250,"olcsóbb":5251,"produkció":5252,"tökéletes":5253,"búcsúz":5254,"ümölcs":5255,"Gam":5256,"Met":5257,"Város":5258,"hold":5259,"svájci":5260,"őre":5261,"akti":5262,"olit":5263,"álat":5264,"rav":5265,"épül":5266,"rendelt":5267,"iroda":5268,"körű":5269,"kezdve":5270,"szállt":5271,"kérdésre":5272,"Cseh":5273,"hozzáfér":5274,"Mindez":5275,"nincsenek":5276,"közülük":5277,"lelk":5278,"nyilatkozott":5279,"Szabolcs":5280,"őrizetbe":5281,"Hungar":5282,"ellentét":5283,"42":5284,"67":5285,"Bl":5286,"Ham":5287,"bátor":5288,"jak":5289,"jába":5290,"nánk":5291,"ret":5292,"rúg":5293,"szoft":5294,"éséről":5295,"álják":5296,"itárius":5297,"nyár":5298,"2016":5299,"kedik":5300,"abból":5301,"vonat":5302,"adását":5303,"ötven":5304,"határozott":5305,"sikerül":5306,"nyugod":5307,"extr":5308,"résztvevő":5309,"fogyasztók":5310,"titkos":5311,"szerződést":5312,"projek":5313,"édesanyja":5314,"elegendő":5315,"izgalmas":5316,"Volt":5317,"ste":5318,"Ügy":5319,"szed":5320,"alól":5321,"árát":5322,"lehetetlen":5323,"vigy":5324,"lakos":5325,"drám":5326,"vásárolt":5327,"eredményt":5328,"növekedést":5329,"ublik":5330,"fogadta":5331,"szervezők":5332,"remél":5333,"támadások":5334,"játékosok":5335,"Star":5336,"becsl":5337,"erősödött":5338,"állomás":5339,"éjszaka":5340,"urcsány":5341,"epsiszentgyörgyi":5342,"Rich":5343,"gyilkosság":5344,"omikron":5345,"PS":5346,"kur":5347,"sötét":5348,"trend":5349,"tájék":5350,"erület":5351,"ésbe":5352,"ikát":5353,"amint":5354,"ítások":5355,"megőr":5356,"forgató":5357,"öltöz":5358,"órát":5359,"életben":5360,"vonta":5361,"támogató":5362,"bronz":5363,"frakció":5364,"mozog":5365,"szolgáltatások":5366,"kutatók":5367,"szervezett":5368,"csúsz":5369,"szövetségi":5370,"mennyiben":5371,"viszonylag":5372,"beruházás":5373,"tonna":5374,"Borsod":5375,"munkatársai":5376,"ideiglen":5377,"Alapítvány":5378,"lapunknak":5379,"ezüst":5380,"imnázium":5381,"59":5382,"Péld":5383,"Sch":5384,"hölgy":5385,"keny":5386,"tegy":5387,"szett":5388,"etben":5389,"gyümölcs":5390,"csarnok":5391,"meghosszabb":5392,"beny":5393,"álltak":5394,"kore":5395,"korrup":5396,"fogás":5397,"eim":5398,"eire":5399,"kapcsolatok":5400,"egyedi":5401,"Ukrajnából":5402,"csütörtöki":5403,"legjobban":5404,"aggod":5405,"pénteki":5406,"Imre":5407,"piros":5408,"intenzív":5409,"mérkőzést":5410,"Air":5411,"aho":5412,"fős":5413,"ger":5414,"horvát":5415,"ká":5416,"iket":5417,"megkeres":5418,"bevet":5419,"oltás":5420,"számítani":5421,"mindez":5422,"2014":5423,"aztak":5424,"magában":5425,"magára":5426,"opter":5427,"alaposan":5428,"kezdtek":5429,"osztrák":5430,"kérdések":5431,"téri":5432,"Anna":5433,"Gyurcsány":5434,"irányuló":5435,"növekedett":5436,"tekintve":5437,"tájékoztatása":5438,"mennyiségű":5439,"tiltak":5440,"tesznek":5441,"Ek":5442,"Mad":5443,"Míg":5444,"Pént":5445,"ky":5446,"kre":5447,"tom":5448,"táj":5449,"vent":5450,"elhagy":5451,"alíció":5452,"ezd":5453,"issz":5454,"élnek":5455,"megalap":5456,"meghív":5457,"szerb":5458,"felkészül":5459,"cip":5460,"ükben":5461,"hisz":5462,"ájával":5463,"némi":5464,"und":5465,"energetikai":5466,"milliárdos":5467,"brutt":5468,"eredmények":5469,"lehetősége":5470,"könnyebb":5471,"néven":5472,"környékén":5473,"várakoz":5474,"Techn":5475,"parancsnok":5476,"ternatív":5477,"bruttó":5478,"Kup":5479,"Mit":5480,"TA":5481,"Un":5482,"husz":5483,"kony":5484,"ura":5485,"óba":5486,"ásba":5487,"ama":5488,"ítettek":5489,"élők":5490,"rej":5491,"jabb":5492,"voltunk":5493,"jelentett":5494,"török":5495,"ellenfel":5496,"mindenképpen":5497,"eiben":5498,"világszerte":5499,"gondolt":5500,"helyzetbe":5501,"vásárolni":5502,"roham":5503,"fokú":5504,"kötvény":5505,"azonnali":5506,"karácsonyi":5507,"fertőzöttek":5508,"akkumulátor":5509,"Car":5510,"Ver":5511,"lök":5512,"tró":5513,"annál":5514,"ezése":5515,"iság":5516,"ester":5517,"egyven":5518,"amb":5519,"megnéz":5520,"nyű":5521,"felében":5522,"hatodik":5523,"többnyire":5524,"kaland":5525,"Szék":5526,"háza":5527,"előtte":5528,"mellék":5529,"párhuz":5530,"gyakori":5531,"győzelm":5532,"tűnt":5533,"forgalmi":5534,"medenc":5535,"elikopter":5536,"Ebből":5537,"ezren":5538,"érzékeny":5539,"rögtön":5540,"későbbi":5541,"vajon":5542,"beszélgetés":5543,"gyönyörű":5544,"illegális":5545,"66":5546,"Bence":5547,"Haz":5548,"Jel":5549,"boly":5550,"döbb":5551,"mez":5552,"mét":5553,"ons":5554,"amellyel":5555,"megkap":5556,"adion":5557,"ella":5558,"évforduló":5559,"írják":5560,"Szat":5561,"him":5562,"kedvel":5563,"végez":5564,"magának":5565,"halaszt":5566,"letartóz":5567,"hajtó":5568,"előrejelzés":5569,"betegek":5570,"mesterséges":5571,"bankok":5572,"negyedévben":5573,"ajánlat":5574,"intézmények":5575,"ifjú":5576,"méltó":5577,"ágazat":5578,"botrány":5579,"növekvő":5580,"250":5581,"600":5582,"Amennyiben":5583,"Dem":5584,"Hang":5585,"La":5586,"kák":5587,"sepsiszentgyörgyi":5588,"Ér":5589,"szö":5590,"ermek":5591,"alternatív":5592,"sztráj":5593,"legutóbb":5594,"számok":5595,"fogunk":5596,"tudtam":5597,"Egyelőre":5598,"anyuk":5599,"2024":5600,"jutni":5601,"akarnak":5602,"piacra":5603,"szolgáló":5604,"autót":5605,"otthonában":5606,"zenei":5607,"szigor":5608,"mértékű":5609,"élelmiszerek":5610,"együttműködés":5611,"településen":5612,"Miskolci":5613,"speciális":5614,"BU":5615,"Nek":5616,"Sőt":5617,"Utó":5618,"hód":5619,"pak":5620,"áci":5621,"őszi":5622,"űnő":5623,"eleti":5624,"ekint":5625,"eskü":5626,"osi":5627,"omra":5628,"hatalom":5629,"valódi":5630,"önálló":5631,"pro":5632,"ört":5633,"ástól":5634,"ódni":5635,"ném":5636,"mondták":5637,"útvonal":5638,"szintet":5639,"férje":5640,"akiket":5641,"karak":5642,"bárki":5643,"energiaválság":5644,"övetkez":5645,"emlékeztetett":5646,"hamis":5647,"képviselője":5648,"székely":5649,"ahogyan":5650,"szállítmány":5651,"szeretnének":5652,"agrár":5653,"údió":5654,"zápor":5655,"68":5656,"Fi":5657,"Hír":5658,"IT":5659,"Jobb":5660,"főként":5661,"helikopter":5662,"iát":5663,"nán":5664,"vont":5665,"zon":5666,"elind":5667,"ítélet":5668,"tudok":5669,"házak":5670,"sorban":5671,"kisfiú":5672,"osztott":5673,"197":5674,"melletti":5675,"unok":5676,"érkeznek":5677,"személyi":5678,"hazaiak":5679,"Által":5680,"ennyire":5681,"művészeti":5682,"költségvetés":5683,"szerencsére":5684,"oxid":5685,"atomerőmű":5686,"optim":5687,"karrier":5688,"Gab":5689,"Med":5690,"Nincs":5691,"Pal":5692,"káv":5693,"gyász":5694,"azil":5695,"esszor":5696,"csok":5697,"edzés":5698,"adag":5699,"jait":5700,"sággal":5701,"összegyű":5702,"tárol":5703,"készen":5704,"határon":5705,"folyamán":5706,"szeretet":5707,"kerülnek":5708,"záró":5709,"széki":5710,"lyel":5711,"legyőz":5712,"üzemeltet":5713,"ugrott":5714,"jellegű":5715,"köztársasági":5716,"Pedig":5717,"Sa":5718,"TE":5719,"Tok":5720,"mán":5721,"múzeum":5722,"özés":5723,"elvár":5724,"alul":5725,"esi":5726,"éket":5727,"sztikus":5728,"igh":5729,"ázó":5730,"épült":5731,"hetekben":5732,"számot":5733,"2000":5734,"műtét":5735,"epp":5736,"ódás":5737,"részeként":5738,"elemzés":5739,"betét":5740,"történtek":5741,"hadi":5742,"vállalkozás":5743,"Isten":5744,"végrehajt":5745,"édesanya":5746,"gyilkos":5747,"minimum":5748,"szoftver":5749,"51":5750,"Ir":5751,"Zem":5752,"hy":5753,"mért":5754,"red":5755,"toj":5756,"zus":5757,"szic":5758,"ikon":5759,"csoda":5760,"unkban":5761,"helyek":5762,"illa":5763,"százalékuk":5764,"alapító":5765,"holttest":5766,"vizet":5767,"drón":5768,"biztosítani":5769,"mutatják":5770,"versenyt":5771,"iskolai":5772,"dollárra":5773,"szerdai":5774,"küzdött":5775,"közlekedés":5776,"drágább":5777,"beruházások":5778,"Sokan":5779,"elkövetett":5780,"Debrecenben":5781,"lux":5782,"közzétett":5783,"stílus":5784,"közelmúltban":5785,"MA":5786,"masz":5787,"tar":5788,"ökor":5789,"ola":5790,"meghal":5791,"hatására":5792,"izz":5793,"hibáz":5794,"tudás":5795,"örö":5796,"világos":5797,"világban":5798,"döntet":5799,"ászati":5800,"jukat":5801,"szállod":5802,"pénztár":5803,"emelkedése":5804,"hírt":5805,"személyek":5806,"kitart":5807,"fizetési":5808,"készülnek":5809,"óriás":5810,"ellenőriz":5811,"elektron":5812,"alkalmából":5813,"fenti":5814,"járművek":5815,"tudományos":5816,"Micros":5817,"ilabda":5818,"Fran":5819,"Ked":5820,"Pat":5821,"York":5822,"roll":5823,"vok":5824,"vai":5825,"ené":5826,"alg":5827,"éllyel":5828,"kiemelkedő":5829,"helyén":5830,"helyét":5831,"várost":5832,"vezetést":5833,"kedő":5834,"kedett":5835,"baba":5836,"estek":5837,"nálunk":5838,"ellenfél":5839,"időpont":5840,"esetet":5841,"értékel":5842,"hétköz":5843,"ésekor":5844,"találta":5845,"katolikus":5846,"választások":5847,"címet":5848,"Elmondta":5849,"gépkocsi":5850,"katona":5851,"érinti":5852,"találkozott":5853,"növekedése":5854,"fogyasztói":5855,"nevét":5856,"telenül":5857,"párti":5858,"méteres":5859,"közleménye":5860,"tárgyalások":5861,"műsorvezető":5862,"novemberben":5863,"III":5864,"Máté":5865,"kerékpár":5866,"időjárás":5867,"gárda":5868,"klasszikus":5869,"Ekkor":5870,"Székely":5871,"ökország":5872,"Brit":5873,"Jak":5874,"MV":5875,"Ste":5876,"fár":5877,"furcs":5878,"ie":5879,"kát":5880,"noszt":5881,"vére":5882,"Ön":5883,"écs":5884,"elutas":5885,"aték":5886,"onc":5887,"ezhető":5888,"ikó":5889,"szerette":5890,"igazd":5891,"ulni":5892,"hatta":5893,"jelző":5894,"napelem":5895,"prémi":5896,"játszik":5897,"ügyvéd":5898,"fővárosban":5899,"látsz":5900,"fejtette":5901,"esetre":5902,"általa":5903,"játékok":5904,"szállították":5905,"messze":5906,"figyelni":5907,"területek":5908,"szerepe":5909,"fizető":5910,"ington":5911,"technikai":5912,"utcában":5913,"Németországban":5914,"igyekszik":5915,"arkas":5916,"Éppen":5917,"Honvéd":5918,"Márton":5919,"EP":5920,"KB":5921,"Visz":5922,"chip":5923,"nár":5924,"rokon":5925,"tend":5926,"uh":5927,"szebb":5928,"etáris":5929,"inél":5930,"ezési":5931,"kivált":5932,"ségben":5933,"felmer":5934,"ellel":5935,"izáció":5936,"helyiség":5937,"ókusz":5938,"magunk":5939,"ításra":5940,"találni":5941,"Magyarországot":5942,"személyiség":5943,"Andre":5944,"építkez":5945,"másodperc":5946,"eredményeket":5947,"jutottak":5948,"ütköz":5949,"hamarabb":5950,"nyertes":5951,"pályázat":5952,"térségében":5953,"költségvetési":5954,"Központi":5955,"vallom":5956,"kommunikációs":5957,"tragédia":5958,"DN":5959,"Dáni":5960,"Kol":5961,"Lond":5962,"MI":5963,"héttel":5964,"éh":5965,"eking":5966,"megbeszél":5967,"ozták":5968,"kialakul":5969,"nyék":5970,"feladatok":5971,"évesen":5972,"korában":5973,"tej":5974,"legfriss":5975,"uss":5976,"országba":5977,"óként":5978,"kapus":5979,"támadó":5980,"zsák":5981,"fölött":5982,"milliós":5983,"érdekes":5984,"említette":5985,"mekkora":5986,"karban":5987,"költsége":5988,"állítási":5989,"néző":5990,"nézve":5991,"bizonyíték":5992,"programok":5993,"Közép":5994,"szivár":5995,"képviselők":5996,"rendezik":5997,"sportoló":5998,"visszaj":5999,"szankció":6000,"szankciós":6001,"húzta":6002,"garant":6003,"meglepő":6004,"vitték":6005,"pályafut":6006,"csodál":6007,"bezár":6008,"alkohol":6009,"párhuzam":6010,"karakter":6011,"Microsoft":6012,"52":6013,"99":6014,"Múzeum":6015,"Rem":6016,"Tes":6017,"ménnyel":6018,"negyven":6019,"rap":6020,"sít":6021,"úszó":6022,"szon":6023,"elért":6024,"osta":6025,"integ":6026,"szerelem":6027,"kijelent":6028,"legnépszerűbb":6029,"2015":6030,"végső":6031,"házat":6032,"tatta":6033,"élyes":6034,"esetek":6035,"védett":6036,"lakások":6037,"egyike":6038,"fölé":6039,"különféle":6040,"betart":6041,"valamennyi":6042,"történelem":6043,"biztosító":6044,"működtet":6045,"galom":6046,"találkozón":6047,"iparág":6048,"események":6049,"bejelentés":6050,"szépség":6051,"naponta":6052,"panasz":6053,"Borsnak":6054,"Néhány":6055,"édesapja":6056,"Parlament":6057,"települések":6058,"újdonság":6059,"legfrissebb":6060,"Kéz":6061,"Koss":6062,"RT":6063,"sük":6064,"Év":6065,"Újabb":6066,"ávol":6067,"elveszt":6068,"alkat":6069,"ásán":6070,"otth":6071,"szerv":6072,"raf":6073,"évé":6074,"előkészít":6075,"illeti":6076,"őkép":6077,"várnak":6078,"Szal":6079,"hiba":6080,"tanak":6081,"alapítvány":6082,"asági":6083,"háborúban":6084,"polgári":6085,"lánya":6086,"földre":6087,"számítanak":6088,"autós":6089,"informat":6090,"zenész":6091,"szombati":6092,"éjjel":6093,"szokásos":6094,"környezetben":6095,"legalábbis":6096,"szeptemberben":6097,"sértett":6098,"bemutató":6099,"fenntartható":6100,"nyíl":6101,"Eddig":6102,"egyetért":6103,"kötelezettség":6104,"Talán":6105,"Intézet":6106,"ervatív":6107,"85":6108,"Dáv":6109,"Gaz":6110,"Haj":6111,"MO":6112,"Mert":6113,"Ok":6114,"Su":6115,"Trum":6116,"bu":6117,"lin":6118,"lettek":6119,"mín":6120,"Ör":6121,"árat":6122,"szerezni":6123,"indít":6124,"ovi":6125,"asztó":6126,"házigazd":6127,"iméter":6128,"rajt":6129,"forintért":6130,"menni":6131,"volum":6132,"vesznek":6133,"választók":6134,"maradnak":6135,"ica":6136,"anyagot":6137,"építés":6138,"Oroszországot":6139,"ülésén":6140,"gyermeke":6141,"akarják":6142,"gondolja":6143,"tekintetében":6144,"cserél":6145,"forgalma":6146,"egyetemi":6147,"fokozatosan":6148,"robbant":6149,"ügyfelek":6150,"méretű":6151,"véletlen":6152,"ashington":6153,"Később":6154,"Szatmár":6155,"Zempl":6156,"Kossuth":6157,"Dávid":6158,"Bél":6159,"Gazd":6160,"Ker":6161,"tok":6162,"győ":6163,"olva":6164,"esszív":6165,"ikában":6166,"ettük":6167,"megbeteg":6168,"hatták":6169,"értve":6170,"tartomány":6171,"ásoknak":6172,"képtelen":6173,"szakad":6174,"segítő":6175,"avart":6176,"komolyan":6177,"gondolom":6178,"euróval":6179,"hallg":6180,"reklám":6181,"megszüntet":6182,"vezérigazgatója":6183,"tulajdonosa":6184,"Karácsony":6185,"pillanatban":6186,"Rendőrkapitányság":6187,"feladata":6188,"vakcin":6189,"ítókép":6190,"Szerencsére":6191,"pandémia":6192,"tájékoz":6193,"54":6194,"Fr":6195,"Fekete":6196,"Ge":6197,"Mer":6198,"Musk":6199,"hev":6200,"jós":6201,"jaként":6202,"pszic":6203,"elve":6204,"egyebek":6205,"ras":6206,"ajt":6207,"valut":6208,"mielőtt":6209,"járnak":6210,"ünkben":6211,"részesed":6212,"stúdió":6213,"választó":6214,"sikerrel":6215,"gázt":6216,"kéri":6217,"ismertette":6218,"raktár":6219,"Arról":6220,"rong":6221,"kettős":6222,"márciusban":6223,"transz":6224,"dohány":6225,"otthont":6226,"!”":6227,"69":6228,"SH":6229,"cig":6230,"ff":6231,"meket":6232,"anni":6233,"ekbe":6234,"inet":6235,"olim":6236,"ezések":6237,"megvan":6238,"kiemel":6239,"omin":6240,"közúti":6241,"ukban":6242,"udit":6243,"szerintem":6244,"bab":6245,"ódtak":6246,"mondják":6247,"idővel":6248,"szélső":6249,"folyamatok":6250,"ózis":6251,"tápl":6252,"személyesen":6253,"Miért":6254,"vendéglát":6255,"videót":6256,"foglalkozó":6257,"eseményen":6258,"tényező":6259,"doboz":6260,"lezárt":6261,"elnököt":6262,"bőven":6263,"pedagógusok":6264,"Törökország":6265,"Érdek":6266,"számítógép":6267,"Horváth":6268,"Franciaország":6269,"statiszt":6270,"katasztrófavédelem":6271,"Utóbbi":6272,"53":6273,"62":6274,"800":6275,"Aba":6276,"Mak":6277,"ix":6278,"kincs":6279,"tál":6280,"véve":6281,"wit":6282,"ezve":6283,"megsért":6284,"ákon":6285,"aim":6286,"prop":6287,"tudat":6288,"Ezután":6289,"enie":6290,"ugyancsak":6291,"mentén":6292,"hangzott":6293,"használják":6294,"érdekelt":6295,"változat":6296,"építése":6297,"régóta":6298,"Szerint":6299,"barátság":6300,"győzelmet":6301,"feltét":6302,"nyilatkozat":6303,"intézkedéseket":6304,"királyi":6305,"befektetők":6306,"hirdetett":6307,"kilométeres":6308,"Tisza":6309,"Akad":6310,"eszközöket":6311,"Joe":6312,"vitte":6313,"interj":6314,"További":6315,"funkció":6316,"hajnalban":6317,"munkálatok":6318,"szerkeszt":6319,"Gu":6320,"Mil":6321,"Sam":6322,"Vi":6323,"gent":6324,"öszön":6325,"szál":6326,"ennyit":6327,"andr":6328,"aknak":6329,"orok":6330,"esnek":6331,"csem":6332,"megint":6333,"apr":6334,"edt":6335,"felszól":6336,"felszabad":6337,"ázott":6338,"aira":6339,"előz":6340,"ova":6341,"telenek":6342,"velünk":6343,"ügyében":6344,"lani":6345,"városában":6346,"színvonal":6347,"zsa":6348,"működött":6349,"emelkedtek":6350,"illetően":6351,"Oroszországban":6352,"állítják":6353,"influ":6354,"pártok":6355,"kereskedelem":6356,"jelentkezett":6357,"fertőzöttet":6358,"szexuális":6359,"human":6360,"büszke":6361,"robot":6362,"Zemplén":6363,"Bo":6364,"Bék":6365,"Ci":6366,"Dan":6367,"Kan":6368,"Párt":6369,"fak":6370,"horg":6371,"szé":6372,"meglehet":6373,"ákra":6374,"aiban":6375,"számolni":6376,"iac":6377,"ugál":6378,"ránk":6379,"döntése":6380,"térkép":6381,"rivál":6382,"következik":6383,"közölt":6384,"akarta":6385,"Közl":6386,"szabályozás":6387,"Kiemelte":6388,"komolyabb":6389,"varián":6390,"csökkenés":6391,"szankciókat":6392,"kedvező":6393,"sebesült":6394,"agresszió":6395,"tagállamok":6396,"liter":6397,"Minisztérium":6398,"forgatókönyv":6399,"Eközben":6400,"Net":6401,"So":6402,"Sem":6403,"kelő":6404,"lés":6405,"nénk":6406,"ood":6407,"the":6408,"elep":6409,"győr":6410,"eközben":6411,"érmes":6412,"bejár":6413,"ográ":6414,"várni":6415,"Sztár":6416,"mégsem":6417,"leny":6418,"jevi":6419,"sikert":6420,"konferenci":6421,"biztosított":6422,"rendszerek":6423,"szeretett":6424,"maradtak":6425,"vélhetően":6426,"vásárlók":6427,"kancell":6428,"reagál":6429,"kategóriában":6430,"Iskol":6431,"TV2":6432,"Mariupol":6433,"Romániában":6434,"Szolgálat":6435,"koreai":6436,"megbeteged":6437,".)":6438,"Mel":6439,"auszt":6440,"mult":6441,"patt":6442,"elérte":6443,"atart":6444,"érem":6445,"érett":6446,"ítve":6447,"nyúl":6448,"ulnak":6449,"hetek":6450,"hetes":6451,"odó":6452,"ney":6453,"viadal":6454,"halott":6455,"gyanúja":6456,"akivel":6457,"mérg":6458,"határát":6459,"Csütörtö":6460,"erőt":6461,"szóba":6462,"negyedév":6463,"köszönhető":6464,"borz":6465,"mértéke":6466,"fotót":6467,"sorozatban":6468,"Bizt":6469,"döntőben":6470,"érdeklődés":6471,"májusban":6472,"szomorú":6473,"művelet":6474,"Négy":6475,"Hogyan":6476,"Trump":6477,"mínusz":6478,"Bud":6479,"Fil":6480,"Mos":6481,"Telek":6482,"fól":6483,"fór":6484,"jal":6485,"nes":6486,"rö":6487,"szek":6488,"szót":6489,"szovjet":6490,"eltelt":6491,"kötet":6492,"nyak":6493,"keddi":6494,"mindennapi":6495,"óráig":6496,"őrök":6497,"váltak":6498,"kormányt":6499,"aszály":6500,"osztotta":6501,"kérdést":6502,"díját":6503,"brid":6504,"hónapos":6505,"Gyula":6506,"kívüli":6507,"folytatja":6508,"keresztény":6509,"szülei":6510,"vasárnapi":6511,"kevesebbet":6512,"erdélyi":6513,"becsül":6514,"júliusban":6515,"esélye":6516,"Novák":6517,"Gazprom":6518,"Abaúj":6519,"78":6520,"Fed":6521,"Jár":6522,"Ko":6523,"Kelet":6524,"Munk":6525,"Pa":6526,"Teh":6527,"fém":6528,"hették":6529,"vörös":6530,"ászt":6531,"ápi":6532,"elnek":6533,"alv":6534,"oros":6535,"orit":6536,"ezettek":6537,"ttől":6538,"ülése":6539,"megjegy":6540,"ozását":6541,"közvélemény":6542,"leány":6543,"többé":6544,"amiben":6545,"főnök":6546,"órium":6547,"kisfi":6548,"diag":6549,"dolgok":6550,"gyermeket":6551,"következtet":6552,"építeni":6553,"fejlesztő":6554,"irányába":6555,"Közben":6556,"regény":6557,"légit":6558,"bántal":6559,"tervezi":6560,"Áll":6561,"unió":6562,"tekintettel":6563,"talanul":6564,"járművet":6565,"ázsiai":6566,"ágyi":6567,"Borítókép":6568,"Való":6569,"diplomáci":6570,"beszerzési":6571,"görög":6572,"DA":6573,"Sepsiszentgyörgy":6574,"Vesz":6575,"afr":6576,"dur":6577,"folt":6578,"git":6579,"holt":6580,"km":6581,"lon":6582,"mát":6583,"pet":6584,"sűr":6585,"Ők":6586,"érezte":6587,"egységes":6588,"csor":6589,"élett":6590,"megtart":6591,"megmutat":6592,"megszokott":6593,"apja":6594,"kiadott":6595,"hozták":6596,"helyeken":6597,"Szint":6598,"kedd":6599,"látják":6600,"folyt":6601,"veszik":6602,"pénzügyminiszter":6603,"csoportos":6604,"szembeni":6605,"szolgálati":6606,"hiánya":6607,"nyilvánvaló":6608,"tájékoztatta":6609,"álláspont":6610,"Zsuzs":6611,"érdeklődők":6612,"bekövetkez":6613,"csatlakozott":6614,"kultúr":6615,"monetáris":6616,"minőségű":6617,"stratégi":6618,"amiket":6619,"kulcsfontosságú":6620,"megelőz":6621,"eredetileg":6622,"luxus":6623,"rivális":6624,"Reg":6625,"SK":6626,"bic":6627,"hai":6628,"pil":6629,"sü":6630,"áp":6631,"űköd":6632,"érő":6633,"égett":6634,"átmen":6635,"szerezte":6636,"raeli":6637,"ségbe":6638,"bevándor":6639,"indítvány":6640,"terror":6641,"hoztak":6642,"napját":6643,"hab":6644,"mindannyi":6645,"ősök":6646,"iról":6647,"követi":6648,"halmoz":6649,"oroszországi":6650,"életbe":6651,"életüket":6652,"értékben":6653,"ugyanúgy":6654,"szabott":6655,"ránd":6656,"market":6657,"használja":6658,"adóz":6659,"változások":6660,"területi":6661,"okozhat":6662,"koalíció":6663,"essége":6664,"képviselet":6665,"folytatta":6666,"Ukrajnába":6667,"sportág":6668,"reműköd":6669,"jöttek":6670,"alkotó":6671,"utazott":6672,"kosár":6673,"ciklus":6674,"fordulójában":6675,"gyenge":6676,"villany":6677,"megállapodást":6678,"februárban":6679,"médiában":6680,"kezdeményezés":6681,"négyzetméteres":6682,"megújuló":6683,"szolid":6684,"Árp":6685,"televízió":6686,"Bajnok":6687,"potenci":6688,"Viszont":6689,"Telekom":6690,"Kam":6691,"Lu":6692,"Mon":6693,"MSZ":6694,"fan":6695,"fáz":6696,"gomb":6697,"nel":6698,"nát":6699,"rág":6700,"óni":6701,"aku":6702,"emben":6703,"oknál":6704,"kök":6705,"megemlék":6706,"meglévő":6707,"megsemmis":6708,"ream":6709,"feltölt":6710,"befog":6711,"legrosszabb":6712,"többlet":6713,"magával":6714,"tárgyak":6715,"ításával":6716,"elsőd":6717,"útra":6718,"vasúti":6719,"formájában":6720,"célpont":6721,"változik":6722,"rendszeres":6723,"hónappal":6724,"hátra":6725,"selejt":6726,"Ind":6727,"gyorsabban":6728,"érintettek":6729,"harmada":6730,"vita":6731,"filmek":6732,"Arén":6733,"labda":6734,"válaszolt":6735,"készültek":6736,"beleértve":6737,"címmel":6738,"szépen":6739,"bővít":6740,"forgalmaz":6741,"ratul":6742,"ratikus":6743,"kárty":6744,"lényegében":6745,"benzink":6746,"maximum":6747,"hozzátéve":6748,"Miniszter":6749,"Johnson":6750,"letartóztat":6751,"63":6752,"Bu":6753,"Donyec":6754,"Fot":6755,"Gro":6756,"Lev":6757,"No":6758,"On":6759,"Tor":6760,"eiről":6761,"gát":6762,"jához":6763,"kód":6764,"lic":6765,"ps":6766,"Ág":6767,"elést":6768,"atú":6769,"árnyék":6770,"ongó":6771,"nyíregyház":6772,"ogó":6773,"előadó":6774,"Azóta":6775,"jelzi":6776,"országból":6777,"máris":6778,"őkkel":6779,"öltö":6780,"ősszel":6781,"szakma":6782,"utánpót":6783,"szemb":6784,"néha":6785,"emelést":6786,"ításában":6787,"mérő":6788,"súlyosan":6789,"építési":6790,"nézők":6791,"találkozót":6792,"Nyil":6793,"futott":6794,"játszani":6795,"utcán":6796,"viszonyítva":6797,"kilométerre":6798,"meglepet":6799,"Molnár":6800,"Először":6801,"Spanyol":6802,"alapvetően":6803,"hátter":6804,"Vasár":6805,"Ausztri":6806,"rámutat":6807,"Műv":6808,"megmenteni":6809,"kábító":6810,"dőlt":6811,"DEAC":6812,"karbantart":6813,"Szintén":6814,"77":6815,"Jan":6816,"Papp":6817,"sí":6818,"senek":6819,"tlen":6820,"Öt":6821,"szök":6822,"embar":6823,"megb":6824,"megjegyezte":6825,"étkez":6826,"kicsi":6827,"felhős":6828,"hatvan":6829,"előrel":6830,"Azért":6831,"számon":6832,"kerest":6833,"teli":6834,"Szol":6835,"ettebb":6836,"ításának":6837,"oldalú":6838,"célba":6839,"kodott":6840,"működését":6841,"személyautó":6842,"brazil":6843,"résztvevők":6844,"tian":6845,"jelentősebb":6846,"temet":6847,"folytatni":6848,"népszavaz":6849,"fiatalabb":6850,"figyelmét":6851,"moder":6852,"hétfői":6853,"töltő":6854,"műsorban":6855,"vonatkozik":6856,"rövidebb":6857,"beszédében":6858,"médi":6859,"ucat":6860,"utakon":6861,"érzem":6862,"kiny":6863,"bizonytalanság":6864,"javaslatot":6865,"legendás":6866,"rezsicsökkentés":6867,"tüzet":6868,"fűzte":6869,"Például":6870,"huszon":6871,"párhuzamosan":6872,"bántalmaz":6873,"Buk":6874,"EC":6875,"FI":6876,"Gal":6877,"Hason":6878,"KSH":6879,"Majd":6880,"Tu":6881,"US":6882,"dag":6883,"fidesz":6884,"kosz":6885,"pre":6886,"pic":6887,"svéd":6888,"Élet":6889,"óc":6890,"elhúz":6891,"olható":6892,"istá":6893,"érmet":6894,"megváltoztat":6895,"felét":6896,"korszak":6897,"izraeli":6898,"jelek":6899,"teret":6900,"vei":6901,"szerinti":6902,"ebbe":6903,"eztük":6904,"szeml":6905,"ellene":6906,"Egyre":6907,"vonz":6908,"ításához":6909,"dics":6910,"vasszal":6911,"létezik":6912,"maradni":6913,"nyomozás":6914,"egyenlő":6915,"bizonyult":6916,"véleked":6917,"Első":6918,"művek":6919,"perces":6920,"emlékeztet":6921,"mosoly":6922,"termékeket":6923,"hallgató":6924,"tekinthető":6925,"megoldások":6926,"Erről":6927,"elsőként":6928,"harcok":6929,"kötőd":6930,"küzdelem":6931,"arányban":6932,"ünnepség":6933,"energiat":6934,"októberben":6935,"forgalmat":6936,"telefonon":6937,"kifejtette":6938,"régiben":6939,"januárban":6940,"Párizs":6941,"tüzér":6942,"szórakoztat":6943,"Hétfő":6944,"voks":6945,"alkatrész":6946,"Árpád":6947,"64":6948,"Com":6949,"Kal":6950,"Kul":6951,"Neh":6952,"bak":6953,"fókusz":6954,"kaz":6955,"lav":6956,"nom":6957,"sar":6958,"alud":6959,"felejt":6960,"aid":6961,"hetedik":6962,"értesül":6963,"vetett":6964,"műanyag":6965,"jelentették":6966,"képzel":6967,"részében":6968,"eltávol":6969,"tanult":6970,"hany":6971,"órákban":6972,"folyós":6973,"alapanyag":6974,"munkanélkül":6975,"nőnek":6976,"jelenik":6977,"férj":6978,"oldali":6979,"lépést":6980,"fontosnak":6981,"erőfesz":6982,"gázolaj":6983,"illetékes":6984,"híres":6985,"Annak":6986,"melyben":6987,"fejlesztések":6988,"tisztség":6989,"művészet":6990,"gyorsabb":6991,"nőttek":6992,"Nyír":6993,"vizsgálják":6994,"veszélyeztet":6995,"hallott":6996,"ársap":6997,"jönnek":6998,"önkormányzatok":6999,"ionális":7000,"számla":7001,"étterem":7002,"irodalom":7003,"ezred":7004,"nappali":7005,"látványos":7006,"levelet":7007,"vereséget":7008,"mozdul":7009,"adósság":7010,"Macron":7011,"show":7012,"Jobbik":7013,"diplomáciai":7014,"afrikai":7015,"Bog":7016,"Bereg":7017,"Eszt":7018,"Foly":7019,"Japán":7020,"Kid":7021,"MÁ":7022,"Vaj":7023,"Washington":7024,"gé":7025,"rett":7026,"alpolgármester":7027,"ttel":7028,"októl":7029,"csepp":7030,"megmér":7031,"edék":7032,"kijevi":7033,"számunkra":7034,"százezer":7035,"képeket":7036,"kellem":7037,"magunkat":7038,"kozik":7039,"munkás":7040,"csapatot":7041,"esztend":7042,"jelenség":7043,"vezetőedző":7044,"mail":7045,"választáson":7046,"nyugdíjas":7047,"példát":7048,"ace":7049,"bíró":7050,"folytatódik":7051,"barátja":7052,"inflációt":7053,"tapasztalat":7054,"döntöttek":7055,"mozgós":7056,"kultúra":7057,"Facebookon":7058,"tehetség":7059,"éjszakai":7060,"felhívta":7061,"információkat":7062,"fertőződ":7063,"kiterjed":7064,"Hiába":7065,"migrán":7066,"Bihar":7067,"koncentrál":7068,"mandátum":7069,"humanitárius":7070,"Bod":7071,"Judit":7072,"Mész":7073,"Mező":7074,"Rád":7075,"Vannak":7076,"ey":7077,"fák":7078,"jei":7079,"lond":7080,"tür":7081,"anci":7082,"ésről":7083,"árbevétel":7084,"áremelkedés":7085,"arch":7086,"ikum":7087,"egyez":7088,"csel":7089,"csőd":7090,"megsérült":7091,"község":7092,"közreműköd":7093,"feled":7094,"ényi":7095,"izzs":7096,"legkisebb":7097,"legfőbb":7098,"tervezet":7099,"mindegyik":7100,"fogva":7101,"tartalm":7102,"törleszt":7103,"végleg":7104,"végeztek":7105,"összességében":7106,"ítással":7107,"mentők":7108,"támogatását":7109,"hangul":7110,"háromszéki":7111,"állapota":7112,"szörnyű":7113,"nyitva":7114,"árakat":7115,"elégedett":7116,"finál":7117,"sportol":7118,"aláír":7119,"részletes":7120,"1000":7121,"zajlott":7122,"Ferencváros":7123,"érvényben":7124,"Berki":7125,"csinálni":7126,"onald":7127,"Színház":7128,"sürgős":7129,"projektek":7130,"Pénteken":7131,"Általános":7132,"Jakab":7133,"londoni":7134,"CO":7135,"Had":7136,"Port":7137,"Pusk":7138,"Sepsi":7139,"já":7140,"kun":7141,"net":7142,"pinc":7143,"zat":7144,"üsp":7145,"elit":7146,"erül":7147,"atórium":7148,"orológiai":7149,"álom":7150,"egységek":7151,"követte":7152,"csí":7153,"uters":7154,"kihasznál":7155,"rei":7156,"vezettek":7157,"öngy":7158,"berális":7159,"számban":7160,"kereset":7161,"2013":7162,"végzés":7163,"szemét":7164,"folyik":7165,"sorra":7166,"kissé":7167,"hard":7168,"vállalta":7169,"vállalati":7170,"esített":7171,"összehasonl":7172,"határozat":7173,"következett":7174,"kilép":7175,"Mindig":7176,"esebben":7177,"szolgáltatást":7178,"légvédelmi":7179,"kérik":7180,"folyamatban":7181,"fogadja":7182,"ritka":7183,"próbálta":7184,"csomó":7185,"fotóz":7186,"decemberben":7187,"befektetési":7188,"turisztikai":7189,"tizenkét":7190,"elképesztő":7191,"elismerte":7192,"rászor":7193,"jöhet":7194,"komplex":7195,"Richter":7196,"Béla":7197,"79":7198,"Farkas":7199,"Hely":7200,"KK":7201,"KDN":7202,"Na":7203,"Tar":7204,"búz":7205,"bölcs":7206,"foc":7207,"io":7208,"tucat":7209,"éje":7210,"óce":7211,"elhár":7212,"elkészít":7213,"ásból":7214,"ezők":7215,"megfigy":7216,"apa":7217,"felvon":7218,"legalacsonyabb":7219,"usi":7220,"rendre":7221,"kaptam":7222,"talaj":7223,"részére":7224,"főtit":7225,"rajongó":7226,"atokkal":7227,"félre":7228,"hozza":7229,"inkat":7230,"találat":7231,"támogatott":7232,"használnak":7233,"választották":7234,"társas":7235,"személyzet":7236,"brut":7237,"közlése":7238,"kerülhet":7239,"csökkenteni":7240,"bármikor":7241,"tiszta":7242,"tisztáz":7243,"díjak":7244,"emlékezet":7245,"parti":7246,"jaiban":7247,"nyilvános":7248,"épületet":7249,"akadt":7250,"labor":7251,"súlyosabb":7252,"tükr":7253,"legtöbben":7254,"augusztusban":7255,"távolság":7256,"igyekeznek":7257,"réteg":7258,"Program":7259,"júniusban":7260,"jelöltje":7261,"bevezetett":7262,"Reuters":7263,"szomszédos":7264,"Kovász":7265,"télen":7266,"verzió":7267,"frank":7268,"Dunán":7269,"kabinet":7270,"Hungary":7271,"Hangsúly":7272,"profi":7273,"maszk":7274,"döntetlen":7275,"Tehát":7276,"elsődleges":7277,"KDNP":7278,"!\"":7279,"Ba":7280,"RS":7281,"fik":7282,"hőség":7283,"lista":7284,"vös":7285,"ómi":7286,"eltör":7287,"alát":7288,"emleg":7289,"ezent":7290,"éria":7291,"élénk":7292,"megteremt":7293,"előbbi":7294,"terep":7295,"dei":7296,"játszó":7297,"ájukat":7298,"támog":7299,"félidőben":7300,"Nemcsak":7301,"dolgot":7302,"dolgokat":7303,"tötték":7304,"fordít":7305,"kérdése":7306,"ektív":7307,"erővel":7308,"szeretettel":7309,"hírportál":7310,"lehetőségét":7311,"elmondása":7312,"veszélyt":7313,"spir":7314,"drágulás":7315,"büntetés":7316,"gyengült":7317,"növeli":7318,"beszédet":7319,"térségben":7320,"védelme":7321,"védekezés":7322,"mutatták":7323,"mostanra":7324,"Liga":7325,"eltűnt":7326,"sajtótájékoztatón":7327,"DVSC":7328,"propag":7329,"kancellár":7330,"Puskás":7331,"95":7332,"Bul":7333,"Cel":7334,"Finn":7335,"Kaz":7336,"LE":7337,"Mc":7338,"Nik":7339,"Ter":7340,"Telj":7341,"ahonnan":7342,"cit":7343,"gár":7344,"iP":7345,"ih":7346,"kolt":7347,"rug":7348,"szúr":7349,"oki":7350,"megnyug":7351,"kiadás":7352,"határt":7353,"air":7354,"korr":7355,"oltást":7356,"legközelebb":7357,"ösen":7358,"számítás":7359,"havonta":7360,"szava":7361,"kapunk":7362,"képek":7363,"visszak":7364,"nála":7365,"vicc":7366,"Egyéb":7367,"leszek":7368,"zési":7369,"szintre":7370,"Magyarországnak":7371,"sajnál":7372,"hangoztat":7373,"lépni":7374,"avat":7375,"mesélt":7376,"hagyja":7377,"hagyják":7378,"működési":7379,"ice":7380,"eredményeként":7381,"szabadon":7382,"off":7383,"irányba":7384,"nyitó":7385,"elsej":7386,"támadást":7387,"meccsen":7388,"Szabad":7389,"Miközben":7390,"áprilisban":7391,"elfogadott":7392,"rádió":7393,"fagyaszt":7394,"keletkezett":7395,"aporizzs":7396,"kreatív":7397,"győződ":7398,"feltétlenül":7399,"meglehetősen":7400,"nyíregyházi":7401,"61":7402,"Bet":7403,"Gr":7404,"ME":7405,"Mart":7406,"bin":7407,"com":7408,"graf":7409,"jére":7410,"vöz":7411,"ósok":7412,"elindul":7413,"ise":7414,"amiről":7415,"adalom":7416,"szerel":7417,"tavasszal":7418,"feltár":7419,"országokban":7420,"nagyot":7421,"prot":7422,"hibrid":7423,"jelentést":7424,"tudatta":7425,"külföldön":7426,"amelyre":7427,"tanuló":7428,"oldalak":7429,"órában":7430,"miatti":7431,"divat":7432,"plik":7433,"kérdő":7434,"hagyni":7435,"ico":7436,"iskolában":7437,"fejlesztése":7438,"belüli":7439,"vizsgálatot":7440,"borult":7441,"fegyverek":7442,"kikép":7443,"drága":7444,"kézzel":7445,"Barát":7446,"északkeleti":7447,"ezres":7448,"házasság":7449,"Fővárosi":7450,"osszú":7451,"sárga":7452,"jótékony":7453,"bennünket":7454,"református":7455,"lendület":7456,"uralkodó":7457,"megalapozott":7458,"ausztrál":7459,"Vasárnap":7460,"fideszes":7461,"kellemetlen":7462,"As":7463,"Cl":7464,"Du":7465,"Emiatt":7466,"Milyen":7467,"Pro":7468,"Tim":7469,"fúj":7470,"kai":7471,"lása":7472,"mában":7473,"moszk":7474,"pok":7475,"rot":7476,"ski":7477,"eladó":7478,"elkövető":7479,"gyújt":7480,"arend":7481,"ikák":7482,"megszólal":7483,"ada":7484,"ségének":7485,"közigazgat":7486,"lebb":7487,"észek":7488,"észlel":7489,"előír":7490,"forma":7491,"képerny":7492,"törzs":7493,"járult":7494,"ügyvezető":7495,"követel":7496,"védelmet":7497,"váltott":7498,"lépéseket":7499,"dolgoztak":7500,"dönteni":7501,"fordított":7502,"hone":7503,"pályás":7504,"kitért":7505,"fizetett":7506,"szorg":7507,"Inter":7508,"próbálták":7509,"temető":7510,"lányok":7511,"vitat":7512,"essé":7513,"veszélye":7514,"assa":7515,"szárny":7516,"repül":7517,"bűnös":7518,"igencsak":7519,"Kris":7520,"ezelőtti":7521,"politikusok":7522,"évtizedek":7523,"Németh":7524,"fokozott":7525,"kihívás":7526,"civilek":7527,"Továbbra":7528,"pápa":7529,"innen":7530,"kommunikáció":7531,"szellemi":7532,"kontinens":7533,"Fotó":7534,"Hasonló":7535,"propagand":7536,"81":7537,"Ah":7538,"BB":7539,"Da":7540,"Gör":7541,"Kap":7542,"Sim":7543,"duna":7544,"ian":7545,"iban":7546,"null":7547,"sl":7548,"vegyes":7549,"völgy":7550,"zál":7551,"elhelyez":7552,"aná":7553,"ora":7554,"egyúttal":7555,"felh":7556,"ley":7557,"hatást":7558,"ámogat":7559,"korai":7560,"kezelni":7561,"urt":7562,"telek":7563,"fogó":7564,"ória":7565,"életmód":7566,"készülő":7567,"világbajnok":7568,"kereste":7569,"balesetben":7570,"kamatot":7571,"versenyen":7572,"csoportok":7573,"embereknek":7574,"klin":7575,"vizsgálatok":7576,"tűzi":7577,"utoljára":7578,"filmet":7579,"dollárral":7580,"számíthatunk":7581,"ritkán":7582,"NAV":7583,"akciót":7584,"balesetet":7585,"szakértői":7586,"tegnapi":7587,"tragikus":7588,"szeretném":7589,"Északi":7590,"háztartások":7591,"tanárok":7592,"jogosult":7593,"Szilágyi":7594,"Szlovákia":7595,"rajongók":7596,"tőke":7597,"ellentétben":7598,"ideiglenes":7599,"Szerintem":7600,"légitársaság":7601,"Group":7602,"88":7603,"97":7604,"Ac":7605,"Bál":7606,"EB":7607,"Koll":7608,"Rák":7609,"Zsó":7610,"bud":7611,"dra":7612,"ned":7613,"oid":7614,"pas":7615,"virt":7616,"áf":7617,"atikus":7618,"ezésére":7619,"csecs":7620,"éles":7621,"apság":7622,"közti":7623,"felgyors":7624,"ámadás":7625,"idens":7626,"helyes":7627,"számomra":7628,"várta":7629,"jától":7630,"amihez":7631,"mondjuk":7632,"látjuk":7633,"stáb":7634,"világjárvány":7635,"landi":7636,"zsű":7637,"vasút":7638,"segíthet":7639,"szálló":7640,"párja":7641,"helyzete":7642,"nyomozók":7643,"autóval":7644,"autópálya":7645,"római":7646,"biztonságát":7647,"madár":7648,"regionális":7649,"növekedési":7650,"essék":7651,"vizsgálja":7652,"fogadták":7653,"Arany":7654,"gyártók":7655,"fegyvereket":7656,"hitelek":7657,"olvasó":7658,"műsorában":7659,"szállítási":7660,"meccset":7661,"igyekezett":7662,"erősödik":7663,"északnyugati":7664,"Dunaúj":7665,"vonultak":7666,"páci":7667,"vártnál":7668,"interneten":7669,"internetes":7670,"okostelefon":7671,"kapacitás":7672,"tárcavezető":7673,"ossá":7674,"felügyelet":7675,"Ausztrál":7676,"Robert":7677,"hazánkban":7678,"Számos":7679,"gyakorlati":7680,"előfordulhat":7681,"Szombaton":7682,"gabona":7683,"furcsa":7684,"visszajel":7685,"Mészáros":7686,"moszkvai":7687,"FK":7688,"IC":7689,"IM":7690,"Os":7691,"Svéd":7692,"Tik":7693,"Vál":7694,"You":7695,"asza":7696,"dátum":7697,"fu":7698,"foci":7699,"hig":7700,"lást":7701,"ser":7702,"xis":7703,"zanak":7704,"zavart":7705,"Éva":7706,"écsi":7707,"ükön":7708,"csek":7709,"megítél":7710,"hattunk":7711,"nagyszerű":7712,"ükkel":7713,"vezeti":7714,"szakadt":7715,"uma":7716,"őről":7717,"időnként":7718,"fejl":7719,"anyar":7720,"világháború":7721,"lakók":7722,"elemzők":7723,"támogatási":7724,"keresni":7725,"változó":7726,"területére":7727,"társa":7728,"jegyzett":7729,"Antal":7730,"hónapok":7731,"hónapig":7732,"rendőrségi":7733,"őtlen":7734,"romlott":7735,"lehetőségeket":7736,"gyűr":7737,"zárkóz":7738,"esse":7739,"eszközt":7740,"hiányzik":7741,"barátnő":7742,"válaszadók":7743,"részleteket":7744,"gyengébb":7745,"Lehet":7746,"fiúk":7747,"indexe":7748,"agresszív":7749,"figyelemmel":7750,"generáció":7751,"szereplők":7752,"fájdalom":7753,"véletlenül":7754,"Belg":7755,"labdát":7756,"Games":7757,"ahová":7758,"esküvő":7759,"lezárták":7760,"Nyilván":7761,"Kiderült":7762,"Lát":7763,"Tom":7764,"Taj":7765,"aha":7766,"bors":7767,"fen":7768,"gő":7769,"jub":7770,"kond":7771,"lent":7772,"lót":7773,"rata":7774,"zón":7775,"szokat":7776,"szür":7777,"ore":7778,"ezáltal":7779,"arab":7780,"hova":7781,"ettet":7782,"amúgy":7783,"éltek":7784,"felvet":7785,"áknak":7786,"beszámol":7787,"ajtó":7788,"érthető":7789,"legény":7790,"odás":7791,"mindketten":7792,"elmélet":7793,"prog":7794,"vezetése":7795,"jelentenek":7796,"végleges":7797,"jártak":7798,"amiből":7799,"főz":7800,"tankol":7801,"belügyminiszter":7802,"immun":7803,"enyhe":7804,"forintról":7805,"csapódott":7806,"színes":7807,"kiskereskedelmi":7808,"elnökkel":7809,"vállalt":7810,"eszék":7811,"kereső":7812,"változást":7813,"területet":7814,"jegyzése":7815,"füst":7816,"kilogram":7817,"ülésen":7818,"nézni":7819,"szervezete":7820,"recesszió":7821,"eléged":7822,"összege":7823,"tölti":7824,"felhasználó":7825,"mezőgazdaság":7826,"csomagot":7827,"pillanatok":7828,"Országgyűlés":7829,"labdarúg":7830,"Kisvár":7831,"astély":7832,"forrásból":7833,"csatorna":7834,"színpadra":7835,"lélek":7836,"léleg":7837,"Érdemes":7838,"kedvezményes":7839,"húsvét":7840,"Herszon":7841,"beszámolója":7842,"korrupció":7843,"Hazánk":7844,"Bukar":7845,"Hangsúlyozta":7846,"Egyébként":7847,"At":7848,"BM":7849,"Eb":7850,"Hód":7851,"Jász":7852,"Mond":7853,"Nic":7854,"Pak":7855,"Vir":7856,"dek":7857,"maj":7858,"ohan":7859,"ping":7860,"rém":7861,"rációs":7862,"trá":7863,"ím":7864,"száj":7865,"azin":7866,"árult":7867,"álmod":7868,"egyfajta":7869,"ítési":7870,"ozva":7871,"kiránd":7872,"nemrégiben":7873,"állása":7874,"határa":7875,"értelemben":7876,"oltó":7877,"írni":7878,"mindezt":7879,"újjá":7880,"prov":7881,"prém":7882,"kedés":7883,"külgazdasági":7884,"mást":7885,"isztán":7886,"amelyből":7887,"százalékról":7888,"obban":7889,"néhol":7890,"mondom":7891,"sorolta":7892,"Egyik":7893,"életre":7894,"lanak":7895,"városok":7896,"zsar":7897,"chester":7898,"keresik":7899,"biztosítja":7900,"megyeszék":7901,"kocs":7902,"versenyzők":7903,"tisztában":7904,"Közel":7905,"gépek":7906,"gépjármű":7907,"iségi":7908,"baráti":7909,"ismerték":7910,"rohan":7911,"próbálja":7912,"gyártás":7913,"erősítette":7914,"bűntett":7915,"javul":7916,"bejelentést":7917,"kénytelen":7918,"fordulóban":7919,"láthatóan":7920,"látták":7921,"kormányzat":7922,"töltötte":7923,"zárták":7924,"áldozata":7925,"információt":7926,"egyedülálló":7927,"házaspár":7928,"konzol":7929,"üzemeltető":7930,"tartalmazó":7931,"kiterjeszt":7932,"nyelvű":7933,"rogén":7934,"nyújtani":7935,"kripto":7936,"szöb":7937,"BUX":7938,"ight":7939,"rapper":7940,"informatikai":7941,"Akadémia":7942,"influen":7943,"győri":7944,"Csütörtökön":7945,"bicik":7946,"átmeneti":7947,"72":7948,"Afr":7949,"Agr":7950,"Dor":7951,"Dob":7952,"Dmit":7953,"Hab":7954,"Jöv":7955,"TK":7956,"bit":7957,"ct":7958,"fig":7959,"publik":7960,"sül":7961,"sch":7962,"öp":7963,"őben":7964,"alelnöke":7965,"amilyen":7966,"meghallgat":7967,"megőriz":7968,"megfigyel":7969,"kiadó":7970,"kiszolgál":7971,"fellebb":7972,"lehessen":7973,"hatásai":7974,"ident":7975,"valamelyik":7976,"odor":7977,"olykor":7978,"napról":7979,"kaptunk":7980,"tudatos":7981,"méghozzá":7982,"Ezeket":7983,"részesül":7984,"körbe":7985,"világbajnoki":7986,"mennek":7987,"lakást":7988,"szintje":7989,"ászok":7990,"segítenek":7991,"támogatta":7992,"támogatások":7993,"támogatása":7994,"hangot":7995,"tagok":7996,"helyzetét":7997,"nyugdíja":7998,"okozó":7999,"ismeri":8000,"ellátást":8001,"160":8002,"fegyvert":8003,"különböz":8004,"épületek":8005,"vállalkozó":8006,"tájékoztatott":8007,"bejelentett":8008,"tonn":8009,"bővült":8010,"kamatemel":8011,"emelték":8012,"Hozzát":8013,"fejlődés":8014,"mann":8015,"élményt":8016,"korlátozások":8017,"érzelm":8018,"szuver":8019,"kiegészítő":8020,"ristian":8021,"elengedhetetlen":8022,"kenyér":8023,"Érték":8024,"prémium":8025,"Tesla":8026,"csemp":8027,"Bajnokok":8028,"Rádió":8029,"Kovászna":8030,"iPhone":8031,"700":8032,"ER":8033,"Irán":8034,"Mo":8035,"Moz":8036,"Maj":8037,"San":8038,"Som":8039,"To":8040,"Tel":8041,"acél":8042,"lok":8043,"start":8044,"tért":8045,"Ákos":8046,"áh":8047,"úrá":8048,"szelet":8049,"elnevez":8050,"érzik":8051,"éreztem":8052,"ikán":8053,"csuk":8054,"megváltozott":8055,"megdöbb":8056,"étert":8057,"ilit":8058,"kiáll":8059,"real":8060,"felszín":8061,"felment":8062,"felhábor":8063,"tönk":8064,"ázni":8065,"beszer":8066,"épülő":8067,"valaha":8068,"önt":8069,"vebb":8070,"öket":8071,"2030":8072,"öreg":8073,"tatott":8074,"Ezúttal":8075,"mondtam":8076,"vacsor":8077,"belföldi":8078,"stream":8079,"ótól":8080,"vonzó":8081,"félidő":8082,"segített":8083,"hajók":8084,"szállított":8085,"oldalára":8086,"hívták":8087,"emelkedést":8088,"ittas":8089,"régen":8090,"kerülni":8091,"meleged":8092,"vélte":8093,"függően":8094,"negyedéves":8095,"továbbiakban":8096,"számítva":8097,"könnyed":8098,"összegű":8099,"lovas":8100,"Alek":8101,"igazgatóság":8102,"feltűn":8103,"üres":8104,"gólos":8105,"nyolcadik":8106,"pályázati":8107,"valamivel":8108,"szezonban":8109,"kihívások":8110,"minőségi":8111,"minimális":8112,"államtitkára":8113,"kutya":8114,"csatorn":8115,"norvég":8116,"állampolgárok":8117,"megkérdezettek":8118,"munkavállalók":8119,"villamosenergia":8120,"Miskolcon":8121,"Schol":8122,"gyűjtő":8123,"infrastruktúr":8124,"megelőzően":8125,"Vagyis":8126,"Kupa":8127,"Dániel":8128,"Kézdi":8129,"Georg":8130,"táplál":8131,"utánpótlás":8132,"szokatlan":8133,"84":8134,"Col":8135,"Donald":8136,"Hu":8137,"Hát":8138,"Kult":8139,"LM":8140,"Lak":8141,"Mod":8142,"Mete":8143,"NN":8144,"Pest":8145,"Sh":8146,"bed":8147,"burkol":8148,"gom":8149,"hur":8150,"ku":8151,"kén":8152,"kérték":8153,"mor":8154,"nar":8155,"rut":8156,"téma":8157,"yal":8158,"zan":8159,"zászló":8160,"szit":8161,"orl":8162,"ánus":8163,"are":8164,"éner":8165,"ítélte":8166,"élen":8167,"rabban":8168,"izen":8169,"izsi":8170,"országnak":8171,"magazin":8172,"tatni":8173,"tatlan":8174,"takt":8175,"elten":8176,"folyos":8177,"stadion":8178,"zsid":8179,"szélesebb":8180,"ászat":8181,"portfól":8182,"léptek":8183,"jegybanki":8184,"sikeresen":8185,"koord":8186,"foglalt":8187,"kerülő":8188,"Gyermek":8189,"bármi":8190,"biztonsága":8191,"mozgat":8192,"tőlük":8193,"ellátó":8194,"gyerekeket":8195,"Mark":8196,"idejére":8197,"nyerni":8198,"játszottak":8199,"nehézség":8200,"próbálkoz":8201,"foglalkozik":8202,"segítségét":8203,"alkotmány":8204,"idézi":8205,"utalt":8206,"kockázat":8207,"mögé":8208,"ferencia":8209,"tűzoltó":8210,"stratégia":8211,"Edina":8212,"konzult":8213,"Tudomány":8214,"Klub":8215,"jövedelem":8216,"zuhant":8217,"aratott":8218,"szerkezet":8219,"extrém":8220,"Veszprém":8221,"előrelép":8222,"Szolnok":8223,"Scholz":8224,"76":8225,"Akár":8226,"Besz":8227,"City":8228,"Gimnázium":8229,"Rol":8230,"ivel":8231,"kud":8232,"lor":8233,"lim":8234,"sort":8235,"sző":8236,"alja":8237,"olf":8238,"álnak":8239,"álbér":8240,"egymillió":8241,"egyrészt":8242,"csont":8243,"éleszt":8244,"közgyűlés":8245,"felszólal":8246,"felvételt":8247,"Azon":8248,"odr":8249,"ábráz":8250,"fogok":8251,"fogott":8252,"kapták":8253,"százalékponttal":8254,"ásaik":8255,"onyi":8256,"magyarság":8257,"munkáltat":8258,"kata":8259,"oldala":8260,"használata":8261,"gondot":8262,"háromszor":8263,"hívott":8264,"szólva":8265,"szorul":8266,"sérültek":8267,"programja":8268,"függőség":8269,"Elmond":8270,"temp":8271,"olajat":8272,"forrásokat":8273,"fogyasztó":8274,"halálát":8275,"könnyebben":8276,"finn":8277,"varázs":8278,"létrehozott":8279,"középpont":8280,"utazási":8281,"problémákat":8282,"mechan":8283,"menekül":8284,"címvédő":8285,"kíváncsi":8286,"rendezvényen":8287,"incidens":8288,"einket":8289,"szlovén":8290,"Ligája":8291,"Nyíregyházi":8292,"jövedelm":8293,"tőzsdei":8294,"besor":8295,"normális":8296,"drámai":8297,"benyújt":8298,"Jelent":8299,"sztrájk":8300,"kábítószer":8301,"89":8302,"Dis":8303,"Gar":8304,"Jog":8305,"Kev":8306,"Lab":8307,"MD":8308,"NG":8309,"Noha":8310,"Pénz":8311,"Park":8312,"Teleg":8313,"hajdú":8314,"rid":8315,"vékony":8316,"zött":8317,"ütött":8318,"elrendel":8319,"elterjed":8320,"enko":8321,"gyök":8322,"anád":8323,"ekkora":8324,"onnyal":8325,"onprofit":8326,"ezését":8327,"ánnyal":8328,"köves":8329,"átalakul":8330,"élén":8331,"élvonal":8332,"megrendel":8333,"megtörtént":8334,"adhat":8335,"utód":8336,"kidolgoz":8337,"tabb":8338,"feles":8339,"ükre":8340,"váron":8341,"Szig":8342,"Szerg":8343,"jelenthet":8344,"összpontos":8345,"tárlat":8346,"abbá":8347,"főpolgármester":8348,"világra":8349,"tetej":8350,"értékes":8351,"harci":8352,"igazolt":8353,"termeszt":8354,"evaku":8355,"segítik":8356,"összeom":8357,"kapcsolata":8358,"szóval":8359,"jogállam":8360,"kamatok":8361,"Oroszországból":8362,"iskolák":8363,"ismeret":8364,"csökkentése":8365,"rón":8366,"Közös":8367,"perccel":8368,"szolgálatot":8369,"ezeknek":8370,"Szerbi":8371,"figyelmezt":8372,"számíthat":8373,"győzött":8374,"korong":8375,"eleje":8376,"kikap":8377,"2008":8378,"ragaszkod":8379,"javasolt":8380,"küzdelm":8381,"könyvtár":8382,"távoli":8383,"származású":8384,"vallotta":8385,"bukkan":8386,"üdvöz":8387,"hordó":8388,"megosztott":8389,"eresked":8390,"hozzátart":8391,"Egészség":8392,"szurkolók":8393,"parkoló":8394,"ismertebb":8395,"Izra":8396,"tavaszi":8397,"bombáz":8398,"megélhet":8399,"MVM":8400,"Honvédség":8401,"Nehéz":8402,"Dunántúl":8403,"Aut":8404,"Char":8405,"Gond":8406,"Kormány":8407,"Lil":8408,"Vis":8409,"bia":8410,"iben":8411,"lia":8412,"pest":8413,"pesti":8414,"tot":8415,"Ázs":8416,"üh":8417,"eladás":8418,"elkötelezett":8419,"anunk":8420,"ekért":8421,"akon":8422,"átmenet":8423,"megmutatta":8424,"adai":8425,"sztori":8426,"omentum":8427,"hattuk":8428,"odtak":8429,"számtalan":8430,"napsüt":8431,"rendezték":8432,"váratlan":8433,"Szé":8434,"oszlop":8435,"képző":8436,"ügyet":8437,"ódhat":8438,"enyi":8439,"forintnyi":8440,"mennyit":8441,"esztendő":8442,"termelők":8443,"evő":8444,"etlenül":8445,"betöl":8446,"hajr":8447,"támogatásával":8448,"Csong":8449,"maradhat":8450,"Ang":8451,"extra":8452,"egyenesen":8453,"irányító":8454,"energiahord":8455,"szolgáltatók":8456,"szolgálja":8457,"nevelő":8458,"ünnepl":8459,"Erste":8460,"szavazó":8461,"könyvet":8462,"góllal":8463,"köthető":8464,"kezdődő":8465,"közlekedő":8466,"kényelm":8467,"jétől":8468,"biztosítási":8469,"bírósági":8470,"takarék":8471,"vásárlási":8472,"információi":8473,"konzervatív":8474,"növekszik":8475,"eltérő":8476,"gyűjtött":8477,"blokk":8478,"meghaladja":8479,"infrastruktúra":8480,"páncél":8481,"Olaszország":8482,"Demok":8483,"Sztárban":8484,"selejtező":8485,"tüzérségi":8486,"YouTu":8487,"trágy":8488,"Csal":8489,"Dec":8490,"Hold":8491,"Igen":8492,"KI":8493,"Kál":8494,"Nos":8495,"Peking":8496,"Tizen":8497,"Vers":8498,"cast":8499,"kastély":8500,"püsp":8501,"tin":8502,"vinni":8503,"ác":8504,"óját":8505,"szo":8506,"gyert":8507,"atér":8508,"ezekben":8509,"eséllyel":8510,"köv":8511,"ítsák":8512,"megszervez":8513,"megtesz":8514,"megkezdte":8515,"bent":8516,"nya":8517,"felismer":8518,"felajánl":8519,"évszázad":8520,"2012":8521,"Szeptember":8522,"hiszem":8523,"velem":8524,"szakszervezet":8525,"lennie":8526,"százalékban":8527,"összhang":8528,"főre":8529,"mindenhol":8530,"tanús":8531,"pontra":8532,"verte":8533,"belga":8534,"abszol":8535,"vonalak":8536,"kormánynak":8537,"értékek":8538,"mérnök":8539,"mérföld":8540,"hozzájuk":8541,"nyira":8542,"2025":8543,"támogatják":8544,"formáció":8545,"használható":8546,"célra":8547,"párizsi":8548,"flix":8549,"Angel":8550,"torn":8551,"akarék":8552,"rendelkeznek":8553,"szükségük":8554,"otthoni":8555,"lovag":8556,"foglalkozni":8557,"érdemi":8558,"szky":8559,"bejelentése":8560,"békét":8561,"ingatlanok":8562,"növelte":8563,"Mindenki":8564,"együttese":8565,"romániai":8566,"nyílik":8567,"színe":8568,"terjedő":8569,"munkatársa":8570,"bevezetése":8571,"felújítás":8572,"engedélyt":8573,"hibát":8574,"centiméter":8575,"ígéret":8576,"ütemben":8577,"Erdély":8578,"elmarad":8579,"cionális":8580,"interjúban":8581,"regisztráltak":8582,"választókerület":8583,"variáns":8584,"marketing":8585,"dagan":8586,"Hétfőn":8587,"Kristó":8588,"Roland":8589,"YouTube":8590,"Bart":8591,"He":8592,"Han":8593,"Kit":8594,"Kór":8595,"Luk":8596,"Pi":8597,"Qu":8598,"Ra":8599,"Ry":8600,"Seri":8601,"Tény":8602,"Vásár":8603,"Will":8604,"gott":8605,"jus":8606,"kv":8607,"kint":8608,"nit":8609,"rad":8610,"sejt":8611,"vés":8612,"etik":8613,"gyar":8614,"aktor":8615,"eger":8616,"okk":8617,"okok":8618,"érhető":8619,"egyből":8620,"megkezd":8621,"megenged":8622,"adminiszt":8623,"ségre":8624,"állhat":8625,"bevételt":8626,"asi":8627,"hetven":8628,"izód":8629,"indítottak":8630,"ukkal":8631,"forró":8632,"forgó":8633,"számának":8634,"tartalom":8635,"lennének":8636,"epizód":8637,"náluk":8638,"ugor":8639,"alapon":8640,"strand":8641,"vastag":8642,"egészében":8643,"betör":8644,"hajlam":8645,"támogatni":8646,"célt":8647,"államok":8648,"gazdaságot":8649,"drog":8650,"ígért":8651,"kitüntet":8652,"gyakrabban":8653,"túlél":8654,"hasson":8655,"fejlesztők":8656,"csökkenti":8657,"gondolta":8658,"díjaz":8659,"folytatásban":8660,"kérő":8661,"Endre":8662,"Szerdán":8663,"essen":8664,"Budapestre":8665,"testi":8666,"kereskedők":8667,"visszam":8668,"helyenként":8669,"helyettesít":8670,"Alig":8671,"vállalkozók":8672,"kórházi":8673,"liberális":8674,"története":8675,"nyolcvan":8676,"cserébe":8677,"bízik":8678,"döntőbe":8679,"Barna":8680,"vidám":8681,"turisták":8682,"megjelenik":8683,"allerg":8684,"hatékonyság":8685,"lövöld":8686,"helyreállítási":8687,"vidéken":8688,"iptom":8689,"Ismét":8690,"megbízható":8691,"feladatot":8692,"igazságügyi":8693,"felhőzet":8694,"Nyíregyháza":8695,"robbanás":8696,"csendes":8697,"tranzakció":8698,"demokrá":8699,"intelligencia":8700,"Fejleszt":8701,"csúszott":8702,"Remél":8703,"RTL":8704,"diagnoszt":8705,"fázis":8706,"embargó":8707,"slág":8708,"Bálint":8709,"páciens":8710,"Szergej":8711,"71":8712,"87":8713,"Akik":8714,"Abban":8715,"BA":8716,"Bak":8717,"Don":8718,"Ele":8719,"Ford":8720,"Jól":8721,"Lit":8722,"Pont":8723,"Red":8724,"Sváj":8725,"Tur":8726,"auk":8727,"kami":8728,"nózis":8729,"pul":8730,"zünk":8731,"Áram":8732,"Önk":8733,"íciók":8734,"elindult":8735,"gyül":8736,"ate":8737,"árának":8738,"ítésére":8739,"megkapta":8740,"intend":8741,"adatait":8742,"felsor":8743,"hatását":8744,"odni":8745,"helyt":8746,"helyezték":8747,"nagyban":8748,"naptár":8749,"napokon":8750,"márka":8751,"mindegy":8752,"ová":8753,"szerintük":8754,"fogjuk":8755,"Szem":8756,"vezethet":8757,"embere":8758,"járni":8759,"ügylet":8760,"ájú":8761,"szemmel":8762,"mindenképp":8763,"sokak":8764,"munkak":8765,"emelni":8766,"obj":8767,"közöttük":8768,"zseb":8769,"útján":8770,"fölény":8771,"támogatására":8772,"használta":8773,"visszaél":8774,"jegyző":8775,"Csoport":8776,"anyagokat":8777,"karant":8778,"nyomoz":8779,"gyermekes":8780,"nincsen":8781,"vizsgálták":8782,"csoportban":8783,"piacok":8784,"kérelm":8785,"gyerekeknek":8786,"Maros":8787,"szervező":8788,"videók":8789,"üzletember":8790,"békés":8791,"megjelenése":8792,"kormányzó":8793,"modellek":8794,"vezérigazgató":8795,"aligha":8796,"cselekmény":8797,"szalag":8798,"meglepetés":8799,"teljesítményt":8800,"ereje":8801,"coin":8802,"Twitteren":8803,"viharos":8804,"verzum":8805,"sorozatot":8806,"bérleti":8807,"venti":8808,"Gabri":8809,"Netflix":8810,"Miniszterelnök":8811,"gária":8812,"Agrár":8813,"Meteorológiai":8814,"rutin":8815,"portfólió":8816,"Ab":8817,"Auguszt":8818,"Dav":8819,"Ettől":8820,"OP":8821,"One":8822,"Sony":8823,"Teg":8824,"Ut":8825,"Vörös":8826,"bus":8827,"brav":8828,"car":8829,"katt":8830,"pop":8831,"tus":8832,"üv":8833,"szar":8834,"eld":8835,"etni":8836,"alista":8837,"áraz":8838,"ítsa":8839,"megtiszt":8840,"éka":8841,"szered":8842,"ozására":8843,"felold":8844,"oltási":8845,"mieink":8846,"odi":8847,"ásokban":8848,"tudtunk":8849,"másnap":8850,"másképp":8851,"részleg":8852,"sorsa":8853,"támaszt":8854,"kezdő":8855,"készpénz":8856,"vonult":8857,"zsír":8858,"gazdák":8859,"ebéd":8860,"mentek":8861,"ation":8862,"fordítani":8863,"térbe":8864,"Csanád":8865,"rendszerben":8866,"erőteljes":8867,"euróra":8868,"kérni":8869,"Márci":8870,"nevében":8871,"próbálják":8872,"hálás":8873,"2009":8874,"létrejött":8875,"pillant":8876,"hetetlenül":8877,"forgalm":8878,"látogatók":8879,"kedvezőbb":8880,"forgalomban":8881,"Emm":8882,"parlamentben":8883,"minimálbér":8884,"gyűjtemény":8885,"újságíró":8886,"fűtési":8887,"győzelemmel":8888,"kiegészít":8889,"elődési":8890,"tábl":8891,"báty":8892,"pánik":8893,"kemét":8894,"kikötő":8895,"Szombat":8896,"tenisz":8897,"Október":8898,"volumene":8899,"cseleked":8900,"finálé":8901,"virtuális":8902,"jogállamiság":8903,"Kristóf":8904,"Bab":8905,"Cent":8906,"Dzs":8907,"FA":8908,"Fin":8909,"Gre":8910,"Hosszú":8911,"Jéz":8912,"Lap":8913,"Nintend":8914,"Vél":8915,"bö":8916,"bol":8917,"covid":8918,"hú":8919,"jéről":8920,"jeként":8921,"készt":8922,"laz":8923,"meddig":8924,"nám":8925,"pál":8926,"vát":8927,"váll":8928,"we":8929,"zak":8930,"őnek":8931,"ővel":8932,"aljai":8933,"árus":8934,"árgyal":8935,"olása":8936,"ezéssel":8937,"áték":8938,"edek":8939,"szerény":8940,"jaink":8941,"airól":8942,"észen":8943,"kezét":8944,"napközben":8945,"rendelő":8946,"újonnan":8947,"vára":8948,"elment":8949,"kapni":8950,"jelentek":8951,"ellensúly":8952,"fejlett":8953,"életének":8954,"rajzi":8955,"dioxid":8956,"hétre":8957,"cher":8958,"keresnek":8959,"mesél":8960,"ötször":8961,"határszakaszon":8962,"ácsi":8963,"szerepét":8964,"kívánt":8965,"mutatni":8966,"eredményei":8967,"ességet":8968,"előrejel":8969,"Mindkét":8970,"180":8971,"Els":8972,"gondolják":8973,"percig":8974,"szolgáltatásokat":8975,"ellátása":8976,"károkat":8977,"Energ":8978,"testvére":8979,"egymásra":8980,"roncs":8981,"videóban":8982,"alábbi":8983,"inevez":8984,"játékosa":8985,"költött":8986,"számoltak":8987,"fotók":8988,"anuel":8989,"tájékoztatást":8990,"rezsim":8991,"professzor":8992,"hessenek":8993,"Dunaújvárosi":8994,"kitermel":8995,"remekül":8996,"berendezés":8997,"Szlovákiában":8998,"Manchester":8999,"Franciaországban":9000,"elmaradt":9001,"dupláz":9002,"ikonikus":9003,"meghaladó":9004,"elektronikus":9005,"olimpi":9006,"Békés":9007,"Iskola":9008,"sűrű":9009,"dunaújvárosi":9010,"Svájc":9011,"Önkormányz":9012,"82":9013,"Mes":9014,"Part":9015,"Rég":9016,"deleg":9017,"eumi":9018,"gratul":9019,"jók":9020,"ké":9021,"rk":9022,"túr":9023,"szag":9024,"szapor":9025,"aznap":9026,"érni":9027,"ítjuk":9028,"ítését":9029,"megtámad":9030,"szerelmes":9031,"itor":9032,"itását":9033,"kielég":9034,"kiszámít":9035,"kimenet":9036,"tex":9037,"cional":9038,"legerősebb":9039,"terápi":9040,"use":9041,"kező":9042,"váró":9043,"elmenek":9044,"tartás":9045,"szakos":9046,"összetett":9047,"ügyész":9048,"ájába":9049,"főt":9050,"főszereplő":9051,"fejét":9052,"munkája":9053,"váltani":9054,"értéket":9055,"diszk":9056,"gyereket":9057,"segítette":9058,"maradás":9059,"összefoglal":9060,"rác":9061,"mese":9062,"cégcsoport":9063,"jogok":9064,"hírszerzés":9065,"kitett":9066,"kitűz":9067,"magasság":9068,"ismerik":9069,"torna":9070,"vélik":9071,"kérnek":9072,"ezekre":9073,"időszakában":9074,"másikra":9075,"idejű":9076,"teljesített":9077,"eléggé":9078,"Mária":9079,"assák":9080,"titok":9081,"ikailag":9082,"tulajdonában":9083,"vádat":9084,"utazás":9085,"szerződések":9086,"kénytelenek":9087,"mérséklőd":9088,"növelni":9089,"előnyt":9090,"lemez":9091,"közepes":9092,"Korea":9093,"feladatokat":9094,"teljesítménye":9095,"meghatározott":9096,"Továbbá":9097,"erejét":9098,"örömmel":9099,"Katasztrófa":9100,"motoros":9101,"Norbert":9102,"vakcina":9103,"jóváhagy":9104,"elemzője":9105,"összeköt":9106,"költözött":9107,"gabon":9108,"tőzsdén":9109,"egyenlített":9110,"anyuka":9111,"Kolozs":9112,"pszichol":9113,"közigazgatási":9114,"kriptovalut":9115,"Telegram":9116,"Széch":9117,"kamion":9118,"karantén":9119,"96":9120,"Bef":9121,"Equ":9122,"IV":9123,"Júli":9124,"Koz":9125,"Köny":9126,"Mor":9127,"Máj":9128,"OR":9129,"bál":9130,"bút":9131,"mam":9132,"méz":9133,"mértek":9134,"sek":9135,"szől":9136,"elhalaszt":9137,"alelnök":9138,"ezésre":9139,"ülhet":9140,"megtér":9141,"megrong":9142,"apiac":9143,"szereti":9144,"kiválaszt":9145,"állítottak":9146,"hetet":9147,"évről":9148,"Azok":9149,"valót":9150,"vallott":9151,"hoznak":9152,"számokat":9153,"nagyság":9154,"váratlanul":9155,"elmény":9156,"tartoznak":9157,"kedni":9158,"mégpedig":9159,"magad":9160,"magáról":9161,"bizonnyal":9162,"összej":9163,"viselők":9164,"eztünk":9165,"követelmény":9166,"ádi":9167,"ízel":9168,"engem":9169,"holnap":9170,"hajtani":9171,"összevet":9172,"célzó":9173,"céget":9174,"Európába":9175,"jegyek":9176,"példány":9177,"foglaltak":9178,"szabadult":9179,"autósok":9180,"lehetőségek":9181,"csapatának":9182,"mozi":9183,"műves":9184,"betegségek":9185,"népesség":9186,"140":9187,"filmes":9188,"szükséglet":9189,"egymásnak":9190,"napirend":9191,"nehézségek":9192,"alkalmazkod":9193,"ragad":9194,"tájékoztatás":9195,"környezetvédelmi":9196,"csere":9197,"hangsúlyt":9198,"szállítások":9199,"rezs":9200,"mennyiséget":9201,"alkalmával":9202,"vágott":9203,"feltételek":9204,"láttam":9205,"kihívást":9206,"elfogták":9207,"kártya":9208,"tévé":9209,"ítélték":9210,"Lengyelországban":9211,"kerékpáros":9212,"Háromszék":9213,"buli":9214,"világbajnokságon":9215,"ilabd":9216,"bátran":9217,"Királyságban":9218,"sérüléseket":9219,"menedzsment":9220,"Hamar":9221,"gyakoribb":9222,"ifjúsági":9223,"fizetőeszköz":9224,"Arénában":9225,"rámutatott":9226,"MÁV":9227,"hangoztatta":9228,"Tajvan":9229,"orld":9230,"Izrael":9231,"Csongrád":9232,"Áramlat":9233,"5G":9234,"Gás":9235,"Köszön":9236,"Láz":9237,"Oper":9238,"Pető":9239,"Seg":9240,"Sik":9241,"Tíz":9242,"Víz":9243,"cuk":9244,"dög":9245,"gaszt":9246,"gimnázium":9247,"lob":9248,"mem":9249,"musz":9250,"sung":9251,"tri":9252,"tűnő":9253,"zász":9254,"ébr":9255,"ütötte":9256,"őn":9257,"őszintén":9258,"szünk":9259,"elad":9260,"anti":9261,"emészt":9262,"onként":9263,"ítélt":9264,"megfont":9265,"megnyerte":9266,"megnövekedett":9267,"edz":9268,"itást":9269,"tasztikus":9270,"ázás":9271,"izom":9272,"tech":9273,"indiai":9274,"tere":9275,"unknak":9276,"országszerte":9277,"depr":9278,"ókban":9279,"várták":9280,"Szu":9281,"vezetésével":9282,"képen":9283,"külügyminisztérium":9284,"másrészt":9285,"iráni":9286,"mondhat":9287,"tanítvány":9288,"órával":9289,"soron":9290,"időn":9291,"munkák":9292,"obosz":9293,"világítás":9294,"továbbjut":9295,"ításáról":9296,"hétvégi":9297,"hetőleg":9298,"minisztert":9299,"jelenet":9300,"eszm":9301,"játéka":9302,"keresi":9303,"használatát":9304,"lépcső":9305,"családot":9306,"személygépkocsi":9307,"kamara":9308,"andós":9309,"nyomást":9310,"bármelyik":9311,"bizonyítja":9312,"ődött":9313,"sius":9314,"percet":9315,"tervezik":9316,"stressz":9317,"ojt":9318,"épületben":9319,"hála":9320,"tízezer":9321,"kikapcsol":9322,"székhely":9323,"korlátozott":9324,"energiak":9325,"turizmus":9326,"Ember":9327,"panaszkod":9328,"kanadai":9329,"szerencsés":9330,"áldozatot":9331,"kártér":9332,"üzenetet":9333,"demon":9334,"szektorban":9335,"kiadások":9336,"bűncselekmények":9337,"Igazgató":9338,"November":9339,"igazolvány":9340,"awatt":9341,"spórol":9342,"Meta":9343,"kedvelt":9344,"Samsung":9345,"Celsius":9346,"Ahhoz":9347,"zsűri":9348,"kudarc":9349,"Elmondása":9350,"Series":9351,"Gáspár":9352,"450":9353,"Bot":9354,"EL":9355,"Mold":9356,"Sy":9357,"Sen":9358,"Sha":9359,"Ur":9360,"Vám":9361,"Wal":9362,"bű":9363,"buz":9364,"fon":9365,"iek":9366,"kb":9367,"kegy":9368,"lé":9369,"lottak":9370,"mász":9371,"plet":9372,"ré":9373,"tű":9374,"tort":9375,"tüd":9376,"éséért":9377,"arak":9378,"egybe":9379,"átadás":9380,"átfogó":9381,"applik":9382,"itási":9383,"kiv":9384,"állunk":9385,"évében":9386,"értesült":9387,"öng":9388,"hozhat":9389,"helyezte":9390,"napvilágot":9391,"hac":9392,"attart":9393,"2011":9394,"tudósok":9395,"azták":9396,"válni":9397,"házba":9398,"őrinc":9399,"ugró":9400,"ízis":9401,"értékelte":9402,"mellette":9403,"hétvég":9404,"mentesen":9405,"peri":9406,"szolgált":9407,"döntések":9408,"ígérte":9409,"ric":9410,"létszám":9411,"megyék":9412,"eredményes":9413,"andra":9414,"nyomon":9415,"rubel":9416,"biztonságot":9417,"vizsgált":9418,"gondolat":9419,"euróövezet":9420,"amerikaiak":9421,"emlékezett":9422,"kárpát":9423,"ennel":9424,"időszakot":9425,"Szervezet":9426,"nyeremény":9427,"ársa":9428,"lelkész":9429,"indultak":9430,"kettőt":9431,"súlyosb":9432,"lakosságot":9433,"történetét":9434,"tapasztalt":9435,"bajnokságban":9436,"délutáni":9437,"idősek":9438,"tevékenységét":9439,"érdeklődőket":9440,"elérhetővé":9441,"felvételi":9442,"véleményét":9443,"repülőtér":9444,"Max":9445,"profil":9446,"kontroll":9447,"bukott":9448,"pászt":9449,"Törvény":9450,"képzési":9451,"Összesen":9452,"Összességében":9453,"fűtés":9454,"listán":9455,"kamera":9456,"következményei":9457,"megelőzés":9458,"statisztikai":9459,"hajnali":9460,"meghaladta":9461,"automatikusan":9462,"televíziós":9463,"helyszínek":9464,"ilyet":9465,"vigyáz":9466,"csodálatos":9467,"Hajnal":9468,"szolidar":9469,"Vajon":9470,"alátám":9471,"Görög":9472,"Bukarest":9473,"abszolút":9474,"Jézus":9475,"Lázár":9476,"74":9477,"Bern":9478,"Cam":9479,"Dig":9480,"Ger":9481,"Holl":9482,"Nonprofit":9483,"Tün":9484,"Wh":9485,"Zen":9486,"beg":9487,"bok":9488,"cal":9489,"ever":9490,"fekt":9491,"fokon":9492,"jutó":9493,"ken":9494,"kegyetlen":9495,"pod":9496,"passz":9497,"vig":9498,"elismert":9499,"aty":9500,"ésből":9501,"árok":9502,"oli":9503,"érvel":9504,"érzet":9505,"éghaj":9506,"csir":9507,"etta":9508,"megkönny":9509,"felkészít":9510,"becsap":9511,"ajta":9512,"aiból":9513,"előfizet":9514,"vallás":9515,"jelezték":9516,"kezében":9517,"önmagában":9518,"helyben":9519,"Székes":9520,"tartom":9521,"műhold":9522,"válnak":9523,"abbak":9524,"Együtt":9525,"életük":9526,"leszög":9527,"akkora":9528,"forintba":9529,"olyanok":9530,"értékeket":9531,"hozzánk":9532,"általuk":9533,"rangl":9534,"oldalról":9535,"tagadta":9536,"háromszoros":9537,"korábbinál":9538,"érdekeit":9539,"jobboldali":9540,"kérdésekre":9541,"visszaes":9542,"lettel":9543,"túlnyom":9544,"bármit":9545,"autóban":9546,"penz":9547,"tisztán":9548,"csoportot":9549,"ológia":9550,"helyiek":9551,"kutatások":9552,"forradalom":9553,"figyelmeztetett":9554,"alomra":9555,"veszélyben":9556,"kereskedő":9557,"harcot":9558,"tulajdonképpen":9559,"egészségügy":9560,"történetében":9561,"filmben":9562,"koncep":9563,"nyertek":9564,"tevékenysége":9565,"bemutatott":9566,"jelentkezik":9567,"bevételek":9568,"közepette":9569,"tizenegy":9570,"véleménye":9571,"Újra":9572,"múlik":9573,"akartam":9574,"Harry":9575,"tartózkodó":9576,"tartózkodik":9577,"vegye":9578,"kétszeres":9579,"Kijevben":9580,"helyettese":9581,"mostanában":9582,"Össze":9583,"indokolta":9584,"tökéletesen":9585,"Hiszen":9586,"kibocsátás":9587,"eződött":9588,"Kínában":9589,"kitörése":9590,"VID":9591,"gyulladás":9592,"várakozások":9593,"konyh":9594,"himlő":9595,"csíp":9596,"rugalmas":9597,"zálog":9598,"Hódmező":9599,"figur":9600,"sülly":9601,"mechanizmus":9602,"ereskedelmi":9603,"gyülek":9604,"Nintendo":9605,"350":9606,"73":9607,"Hor":9608,"Hot":9609,"IA":9610,"Kör":9611,"Lav":9612,"M1":9613,"Ros":9614,"Rengeteg":9615,"Wind":9616,"Zöld":9617,"gon":9618,"ijed":9619,"jan":9620,"kg":9621,"kinevez":9622,"lad":9623,"no":9624,"polg":9625,"pof":9626,"stan":9627,"tattak":9628,"íd":9629,"ítt":9630,"ónia":9631,"ősz":9632,"eladott":9633,"eleget":9634,"ató":9635,"ésén":9636,"ezeti":9637,"okot":9638,"ardi":9639,"csk":9640,"amellett":9641,"megáll":9642,"megszáll":9643,"megköszön":9644,"reális":9645,"felte":9646,"felidézte":9647,"uli":9648,"ulást":9649,"leáll":9650,"levő":9651,"lejt":9652,"korán":9653,"korrek":9654,"cirk":9655,"terhet":9656,"helyezés":9657,"kering":9658,"ovic":9659,"Szovjet":9660,"prezent":9661,"műtrágy":9662,"képzett":9663,"ünknek":9664,"éstől":9665,"látom":9666,"életem":9667,"alapuló":9668,"stát":9669,"lakott":9670,"tetési":9671,"félig":9672,"elemzése":9673,"hozzák":9674,"che":9675,"mentés":9676,"1990":9677,"célú":9678,"ásától":9679,"rendszerét":9680,"rendszereket":9681,"kital":9682,"Oroszországnak":9683,"ességgel":9684,"körülött":9685,"fejlesztését":9686,"találkozik":9687,"károk":9688,"vitás":9689,"Szeret":9690,"hiányt":9691,"számíthatnak":9692,"ritk":9693,"szavazat":9694,"polgármesteri":9695,"alakulat":9696,"járványügyi":9697,"erősíti":9698,"törvényt":9699,"szokás":9700,"fokos":9701,"javítani":9702,"haladt":9703,"novemberi":9704,"tapasztalható":9705,"szeptemberi":9706,"büntetést":9707,"sértés":9708,"közvetít":9709,"hirdetés":9710,"érvényesít":9711,"tesztet":9712,"rekordot":9713,"generációs":9714,"technológiák":9715,"színpadon":9716,"küszöb":9717,"összetart":9718,"eleve":9719,"tragédi":9720,"Fehérorosz":9721,"csinált":9722,"gyulladt":9723,"aktivis":9724,"Ügynök":9725,"fáradt":9726,"brutális":9727,"Dunaújváros":9728,"fuvar":9729,"streaming":9730,"kéne":9731,"átmenetileg":9732,"kattint":9733,"Széchenyi":9734,"Befek":9735,"plety":9736,"kárpátaljai":9737,"Székesfehér":9738,"130":9739,"83":9740,"Cristian":9741,"Hajd":9742,"IS":9743,"Los":9744,"Op":9745,"Polgár":9746,"bom":9747,"ean":9748,"iG":9749,"kism":9750,"kanyar":9751,"sy":9752,"ty":9753,"tég":9754,"ual":9755,"ure":9756,"yt":9757,"áinak":9758,"elkövetkező":9759,"ener":9760,"ergy":9761,"iny":9762,"álok":9763,"ásért":9764,"ezeken":9765,"érzése":9766,"egyén":9767,"köre":9768,"átlép":9769,"ításokat":9770,"megnehez":9771,"megfék":9772,"adatot":9773,"ottani":9774,"its":9775,"uti":9776,"kihagy":9777,"kipróbál":9778,"omi":9779,"omp":9780,"nemi":9781,"felkészült":9782,"jaik":9783,"beolt":9784,"előadást":9785,"valamely":9786,"legszebb":9787,"jelkép":9788,"tervet":9789,"helyről":9790,"mindhárom":9791,"kalkul":9792,"újtó":9793,"ölték":9794,"Szép":9795,"édia":9796,"emberiség":9797,"máshol":9798,"magához":9799,"tanév":9800,"körök":9801,"halász":9802,"utató":9803,"obor":9804,"csapás":9805,"dolga":9806,"ászár":9807,"játékkal":9808,"katari":9809,"hangos":9810,"lépések":9811,"választásokat":9812,"kérdez":9813,"honvédelmi":9814,"visszaesés":9815,"területe":9816,"területeket":9817,"térben":9818,"hívja":9819,"maradék":9820,"mutatnak":9821,"kocsit":9822,"kocsik":9823,"ességét":9824,"szörmény":9825,"autóbusz":9826,"polgárok":9827,"nézett":9828,"nézzük":9829,"ofit":9830,"vízben":9831,"bírság":9832,"bírságot":9833,"népszáml":9834,"vitamin":9835,"Szerbia":9836,"ződik":9837,"fogyasztása":9838,"rendelkezésére":9839,"megoldani":9840,"alkalmazottak":9841,"video":9842,"eseményeket":9843,"használták":9844,"javult":9845,"egyházi":9846,"magabiztos":9847,"egyszerűbb":9848,"előnyét":9849,"fenntartása":9850,"Brent":9851,"megjelenő":9852,"lemar":9853,"tizenöt":9854,"kockázatot":9855,"rakétat":9856,"organ":9857,"hallgatók":9858,"származik":9859,"tehetséges":9860,"változtatni":9861,"szlováki":9862,"elfogadta":9863,"hibás":9864,"várakozás":9865,"témában":9866,"humor":9867,"kerületi":9868,"Róbert":9869,"Olaszországban":9870,"trón":9871,"legyőzte":9872,"Andrea":9873,"witch":9874,"interjút":9875,"határátkelő":9876,"szembesül":9877,"főtitkár":9878,"TikTok":9879,"Hozzátették":9880,"szoba":9881,"4iG":9882,"86":9883,"94":9884,"Amíg":9885,"Ft":9886,"If":9887,"KA":9888,"Kép":9889,"Kecs":9890,"Maz":9891,"Mas":9892,"Mot":9893,"Pen":9894,"Ser":9895,"West":9896,"acs":9897,"düh":9898,"geszt":9899,"ies":9900,"kértek":9901,"krón":9902,"sör":9903,"Él":9904,"Édes":9905,"íj":9906,"szimp":9907,"elszámol":9908,"olást":9909,"olna":9910,"ikával":9911,"amat":9912,"ítéletet":9913,"megmarad":9914,"megmaradt":9915,"adventi":9916,"ilap":9917,"illesz":9918,"kijelölt":9919,"közgazd":9920,"ulása":9921,"befagyaszt":9922,"hatalm":9923,"Azzal":9924,"indította":9925,"kerülés":9926,"fogadott":9927,"Szinte":9928,"kapható":9929,"töreked":9930,"magatart":9931,"irkóz":9932,"kétségbe":9933,"amiatt":9934,"mindennap":9935,"pontokat":9936,"órára":9937,"gyanú":9938,"kezdeni":9939,"forinton":9940,"szabású":9941,"harang":9942,"chel":9943,"egészségi":9944,"vezetőt":9945,"összefog":9946,"szállítani":9947,"keresett":9948,"kérdésére":9949,"dró":9950,"történhet":9951,"Csík":9952,"működés":9953,"rendszere":9954,"említ":9955,"okozza":9956,"táp":9957,"inger":9958,"nyomozást":9959,"hassa":9960,"Mindezt":9961,"csapatnak":9962,"programokat":9963,"Indi":9964,"fogyaték":9965,"vízzel":9966,"szabályokat":9967,"környező":9968,"újrahasznos":9969,"kutatása":9970,"terméket":9971,"haderő":9972,"partján":9973,"törvényhoz":9974,"szülött":9975,"tölteni":9976,"tárgyalásokat":9977,"legtöbbet":9978,"ingatlant":9979,"mennyisége":9980,"tilos":9981,"fenntarthatóság":9982,"évtizede":9983,"trük":9984,"pályázatot":9985,"moti":9986,"becsült":9987,"irodalmi":9988,"vonatkozóan":9989,"eszközökkel":9990,"döntéshoz":9991,"menetrend":9992,"eljuttat":9993,"politikát":9994,"háztartási":9995,"kezdetben":9996,"lángokat":9997,"befolyásol":9998,"felügyelő":9999,"fájdalmas":10000,"Horvátország":10001,"migráció":10002,"felszerel":10003,"tervei":10004,"beszámoltunk":10005,"szögezte":10006,"Benedek":10007,"nyersanyag":10008,"Emlékeztetett":10009,"Brüsszelben":10010,"feszültség":10011,"elfoglalt":10012,"zivatarok":10013,"ublikánus":10014,"becslések":10015,"gerinc":10016,"lökések":10017,"összegyűj":10018,"hibázott":10019,"London":10020,"fórum":10021,"bevándorl":10022,"Ágnes":10023,"vélekedett":10024,"hanyag":10025,"fejlemény":10026,"szuveren":10027,"Disney":10028,"Sziget":10029,"David":10030,"Tegnap":10031,",.":10032,"ES":10033,"Fül":10034,"Gi":10035,"Kérd":10036,"Lőrinc":10037,"Oszt":10038,"Palk":10039,"Rad":10040,"Wall":10041,"bossz":10042,"ced":10043,"cing":10044,"dug":10045,"gig":10046,"jek":10047,"máig":10048,"méh":10049,"nad":10050,"tün":10051,"tulajd":10052,"yű":10053,"zöm":10054,"íli":10055,"úri":10056,"eloszt":10057,"hotel":10058,"megtekint":10059,"meggyőződ":10060,"szerek":10061,"ozásra":10062,"kiszolgáltat":10063,"kicsik":10064,"teh":10065,"legjelentősebb":10066,"helyére":10067,"helyezni":10068,"udi":10069,"őke":10070,"vezetni":10071,"végeredmény":10072,"ciót":10073,"bizalom":10074,"estére":10075,"hallani":10076,"ismétel":10077,"ostrom":10078,"kormánya":10079,"városvezetés":10080,"haszon":10081,"gazda":10082,"ational":10083,"veszít":10084,"pénzügy":10085,"jegyű":10086,"sikere":10087,"működnek":10088,"hozzájárult":10089,"kitölt":10090,"Anikó":10091,"exkl":10092,"hónapra":10093,"délnyugati":10094,"laptop":10095,"kerüljön":10096,"csökkentette":10097,"fogyott":10098,"zárult":10099,"kutatást":10100,"kutatási":10101,"idejét":10102,"fogadni":10103,"indulatú":10104,"háló":10105,"fokot":10106,"középső":10107,"részletek":10108,"senkit":10109,"szenvedtek":10110,"történetet":10111,"Balog":10112,"bajnokságon":10113,"ivó":10114,"kísérő":10115,"előnye":10116,"óvoda":10117,"évtizedben":10118,"mélyen":10119,"színek":10120,"szíve":10121,"Leyen":10122,"esélyt":10123,"akartak":10124,"debüt":10125,"Kiskun":10126,"Gergő":10127,"lényegesen":10128,"kialakított":10129,"Csakhogy":10130,"kertben":10131,"rangsor":10132,"hasonlít":10133,"pluszban":10134,"Szilárd":10135,"tünetek":10136,"felszerelés":10137,"logisztikai":10138,"nyújtanak":10139,"akkoriban":10140,"nyugodt":10141,"gondoltam":10142,"Gazdasági":10143,"hallgatták":10144,"heves":10145,"Biztos":10146,"mindannyian":10147,"püspök":10148,"zaklat":10149,"Könyv":10150,"Petőfi":10151,"alátámaszt":10152,"BL":10153,"Bíz":10154,"Bács":10155,"Es":10156,"Jam":10157,"Mentő":10158,"Pint":10159,"Ric":10160,"Tak":10161,"dzs":10162,"feket":10163,"gumi":10164,"kány":10165,"kutak":10166,"lelt":10167,"radik":10168,"Át":10169,"Április":10170,"Óri":10171,"elkészült":10172,"eges":10173,"megtudtuk":10174,"megrendezett":10175,"adalmas":10176,"utakat":10177,"kiállít":10178,"kimer":10179,"kiegyensúly":10180,"reál":10181,"felkész":10182,"felfelé":10183,"uld":10184,"ákról":10185,"neked":10186,"idék":10187,"tevő":10188,"teheti":10189,"vehető":10190,"üknek":10191,"rendű":10192,"többfelé":10193,"őkben":10194,"Szóval":10195,"áraszt":10196,"kaphat":10197,"műve":10198,"jelentő":10199,"külföldre":10200,"kellemes":10201,"magyarul":10202,"tany":10203,"látás":10204,"letölt":10205,"ációja":10206,"esetekben":10207,"leszünk":10208,"vonni":10209,"lakásban":10210,"disz":10211,"koló":10212,"termés":10213,"even":10214,"mentális":10215,"portugál":10216,"betű":10217,"összeállítás":10218,"döntéseket":10219,"kérdéseket":10220,"vizes":10221,"területre":10222,"Ukrán":10223,"történelm":10224,"biztosítása":10225,"szeretem":10226,"pályát":10227,"hírül":10228,"híreket":10229,"versenyben":10230,"régebb":10231,"biztonságban":10232,"Intern":10233,"próbáltak":10234,"vízbe":10235,"Elon":10236,"Ellen":10237,"folytatódott":10238,"népi":10239,"jólét":10240,"földről":10241,"időszakához":10242,"eléri":10243,"gyakorolt":10244,"nevezték":10245,"szívvel":10246,"áttör":10247,"pártja":10248,"költségeket":10249,"2004":10250,"tárgyalt":10251,"valósul":10252,"kézilabda":10253,"beruházást":10254,"beruházási":10255,"bővülés":10256,"Stadion":10257,"kecs":10258,"visszatért":10259,"felvételen":10260,"csúcsot":10261,"feleségét":10262,"elegáns":10263,"zöldség":10264,"indexek":10265,"manapság":10266,"partnerek":10267,"struktur":10268,"digital":10269,"sajtóban":10270,"papírok":10271,"szerepelnek":10272,"Berlin":10273,"uzív":10274,"mobiltelefon":10275,"Harkiv":10276,"kutyák":10277,"Legalább":10278,"finomító":10279,"ráta":10280,"ellentmond":10281,"lángok":10282,"befolyásolja":10283,"operatív":10284,"Rock":10285,"jégkorong":10286,"teherautó":10287,"keser":10288,"felszerelt":10289,"többségében":10290,"skál":10291,"időkben":10292,"rögzített":10293,"riasztották":10294,"dinam":10295,"tavasz":10296,"tanácsadója":10297,"szilárd":10298,"Londonban":10299,"cigány":10300,"hangulatot":10301,"COVID":10302,"rászorul":10303,"majom":10304,"provok":10305,"Habár":10306,"Verseny":10307,"Törvényszék":10308,"Befektetési":10309,"Palkovics":10310,"AN":10311,"Amint":10312,"Bír":10313,"Bay":10314,"Február":10315,"Pécs":10316,"Ren":10317,"Rész":10318,"Switch":10319,"begyű":10320,"cáf":10321,"gál":10322,"kút":10323,"kém":10324,"led":10325,"nik":10326,"ock":10327,"pel":10328,"post":10329,"res":10330,"sd":10331,"sert":10332,"srác":10333,"vin":10334,"vért":10335,"wood":10336,"úni":10337,"szüntet":10338,"elkezdődött":10339,"elvesztette":10340,"atosság":10341,"ásakor":10342,"tté":10343,"ttól":10344,"érve":10345,"argent":10346,"etty":10347,"íthatja":10348,"megfizet":10349,"szereket":10350,"rai":10351,"kizárt":10352,"nemű":10353,"leh":10354,"aihoz":10355,"ságok":10356,"legesen":10357,"jeles":10358,"újból":10359,"fogalm":10360,"priv":10361,"proc":10362,"olgat":10363,"kednek":10364,"tudjon":10365,"kellő":10366,"válhat":10367,"viseli":10368,"főút":10369,"életkor":10370,"kezdi":10371,"lakosok":10372,"természeti":10373,"ételek":10374,"lói":10375,"hármas":10376,"játékban":10377,"esítő":10378,"beton":10379,"összehang":10380,"hangzik":10381,"közeljövőben":10382,"célzott":10383,"ramm":10384,"választást":10385,"háborúval":10386,"változatlan":10387,"személyében":10388,"Ant":10389,"melyen":10390,"közlési":10391,"iskolába":10392,"hassanak":10393,"fejlesztésére":10394,"mete":10395,"hátsó":10396,"Gyöngy":10397,"sérülést":10398,"lehetőségük":10399,"gyermekét":10400,"csapatát":10401,"programban":10402,"kevesen":10403,"Inn":10404,"tisztel":10405,"függő":10406,"gondolni":10407,"kís":10408,"azokkal":10409,"kereszteződ":10410,"telepít":10411,"újraéleszt":10412,"Meghan":10413,"alkalmazása":10414,"zenét":10415,"indulhat":10416,"vendége":10417,"vendégeként":10418,"orvoshoz":10419,"üzletág":10420,"éjét":10421,"tanulni":10422,"senkinek":10423,"utazik":10424,"drágult":10425,"nyelven":10426,"ünnepel":10427,"frissen":10428,"gyűlöl":10429,"béket":10430,"szállítást":10431,"biztosítanak":10432,"fényében":10433,"keleten":10434,"óvatos":10435,"kívánja":10436,"bekapcsol":10437,"számolnak":10438,"hatékonyabb":10439,"örökre":10440,"szobában":10441,"érzékelő":10442,"Boris":10443,"kommunista":10444,"tömeges":10445,"táncos":10446,"elképzelhető":10447,"mostantól":10448,"verték":10449,"erőszakos":10450,"Ilyenkor":10451,"sajtótájékoztatóján":10452,"DVTK":10453,"kivételével":10454,"idényben":10455,"Halál":10456,"olitikai":10457,"megőrzés":10458,"Madrid":10459,"Technológiai":10460,"bolygó":10461,"Iroda":10462,"tojás":10463,"napelemes":10464,"felmerült":10465,"szerkesztőség":10466,"felszólította":10467,"picit":10468,"óczi":10469,"esztendős":10470,"Martin":10471,"szorgalmaz":10472,"gyűrű":10473,"December":10474,"összhangban":10475,"Emmanuel":10476,"kimenetel":10477,"túlnyomó":10478,"Lavrov":10479,"drónok":10480,"ET":10481,"Fesztivál":10482,"Kereskedelmi":10483,"OK":10484,"Rep":10485,"SM":10486,"Tiszt":10487,"bó":10488,"echn":10489,"febru":10490,"gőz":10491,"ival":10492,"néni":10493,"ren":10494,"reked":10495,"rof":10496,"sunk":10497,"sünk":10498,"work":10499,"szeged":10500,"elkezdett":10501,"enünk":10502,"anna":10503,"ancia":10504,"álása":10505,"ásáért":10506,"érv":10507,"érezni":10508,"egyhetes":10509,"cska":10510,"amennyit":10511,"ítania":10512,"megsegít":10513,"megtenni":10514,"megszállt":10515,"meghirdetett":10516,"megdupláz":10517,"adva":10518,"szereztek":10519,"ozhat":10520,"itása":10521,"ray":10522,"utólag":10523,"kig":10524,"kivizsgál":10525,"nyik":10526,"felzárkóz":10527,"leír":10528,"behozatal":10529,"előr":10530,"oltották":10531,"ságosan":10532,"legismertebb":10533,"jelzett":10534,"száguld":10535,"rendes":10536,"várandós":10537,"ősi":10538,"kapja":10539,"jelentik":10540,"tudatosan":10541,"fiát":10542,"végeznek":10543,"örvend":10544,"viselt":10545,"részesít":10546,"eltilt":10547,"látva":10548,"folyadék":10549,"haltak":10550,"alapja":10551,"munkával":10552,"eménye":10553,"tetszik":10554,"városa":10555,"városokban":10556,"elnökének":10557,"útjára":10558,"játékokat":10559,"plab":10560,"viszik":10561,"használó":10562,"lépnek":10563,"hazug":10564,"komprom":10565,"beszélve":10566,"beszélünk":10567,"jövőt":10568,"hónapon":10569,"iskolás":10570,"lapnak":10571,"meta":10572,"Gyul":10573,"irányadó":10574,"mozgalom":10575,"tion":10576,"tisztviselő":10577,"vízi":10578,"Közölte":10579,"temetés":10580,"piacot":10581,"folytatják":10582,"történteket":10583,"lányt":10584,"növekedését":10585,"essenek":10586,"Nyom":10587,"figyelmen":10588,"Megjegyezte":10589,"rock":10590,"alkalmazás":10591,"palack":10592,"gyártási":10593,"könyvel":10594,"készíteni":10595,"NASA":10596,"essziós":10597,"szankciókkal":10598,"biztosítják":10599,"tilalom":10600,"fűtő":10601,"turista":10602,"felvételek":10603,"gyakorlatban":10604,"boldogság":10605,"hűt":10606,"hűvös":10607,"akarták":10608,"kilencedik":10609,"ajánlatot":10610,"védelmét":10611,"háztartás":10612,"járműveket":10613,"kezdetét":10614,"eleinte":10615,"hidrogén":10616,"liga":10617,"korszerűs":10618,"Szegedi":10619,"bevonásával":10620,"tőzsdék":10621,"regisztrált":10622,"Csehország":10623,"némileg":10624,"Kedden":10625,"aprofit":10626,"fantasztikus":10627,"sürgősségi":10628,"Portugál":10629,"jubil":10630,"szitu":10631,"Litván":10632,"bravúr":10633,"Messi":10634,"Katasztrófavédelmi":10635,"podcast":10636,"Ügynökség":10637,"Bun":10638,"Dom":10639,"Fü":10640,"Fog":10641,"Júni":10642,"King":10643,"Mikor":10644,"Pri":10645,"SD":10646,"Tart":10647,"Török":10648,"Vit":10649,"bél":10650,"bill":10651,"búj":10652,"bély":10653,"dy":10654,"kasz":10655,"liszt":10656,"mélt":10657,"nád":10658,"stö":10659,"tás":10660,"tenn":10661,"tobor":10662,"Ír":10663,"ököl":10664,"atlon":10665,"olig":10666,"álm":10667,"álunk":10668,"ásbíróság":10669,"arát":10670,"énkül":10671,"átállás":10672,"megnőtt":10673,"edő":10674,"szerettem":10675,"rac":10676,"kivon":10677,"köze":10678,"fellend":10679,"állva":10680,"hatások":10681,"kortárs":10682,"tebb":10683,"dex":10684,"ókra":10685,"többféle":10686,"kalap":10687,"Száz":10688,"pri":10689,"tartalmak":10690,"kaphatnak":10691,"kedtek":10692,"emberekkel":10693,"járatok":10694,"epl":10695,"iri":10696,"mindennapja":10697,"ima":10698,"ációban":10699,"védi":10700,"zések":10701,"emelet":10702,"inket":10703,"osztalék":10704,"csalód":10705,"katasztró":10706,"céljából":10707,"hazud":10708,"pénzből":10709,"változatos":10710,"honos":10711,"kompenz":10712,"biztosította":10713,"illető":10714,"személyt":10715,"építését":10716,"hátul":10717,"csökkentek":10718,"róf":10719,"Mindezek":10720,"tipp":10721,"tisztviselők":10722,"Elég":10723,"nélkülöz":10724,"azokra":10725,"érintette":10726,"kérésére":10727,"időszakra":10728,"tekinti":10729,"játszanak":10730,"Argent":10731,"szavazás":10732,"republikánus":10733,"reméli":10734,"válaszol":10735,"fordulat":10736,"kezdődtek":10737,"tanácskoz":10738,"élőben":10739,"tapasztalata":10740,"áramot":10741,"tevékenységet":10742,"szakaszán":10743,"bocsán":10744,"hatatlanul":10745,"incbar":10746,"partnere":10747,"betegségben":10748,"felnőttek":10749,"elismerést":10750,"értékesítési":10751,"produc":10752,"Reform":10753,"finanszírozási":10754,"Tört":10755,"kóst":10756,"lejjebb":10757,"időjárási":10758,"következménye":10759,"ösztönöz":10760,"funkciók":10761,"levélben":10762,"hátrányos":10763,"patak":10764,"felelősségre":10765,"megélénkül":10766,"farag":10767,"Truss":10768,"extraprofit":10769,"ideiglenesen":10770,"uhász":10771,"rassó":10772,"szélsőséges":10773,"Guardi":10774,"Sopr":10775,"Valószínű":10776,"Reggel":10777,"MSZP":10778,"Levente":10779,"csomópont":10780,"óceán":10781,"Finnország":10782,"drasztikus":10783,"Virág":10784,"nyugdíjasok":10785,"Ryan":10786,"böszörmény":10787,"szlovákiai":10788,"exkluzív":10789,"argentin":10790,"Amit":10791,"Con":10792,"Drag":10793,"Fut":10794,"Hit":10795,"Hall":10796,"Ipari":10797,"Liszt":10798,"Loki":10799,"Mal":10800,"NS":10801,"Soha":10802,"don":10803,"dúl":10804,"full":10805,"gu":10806,"gam":10807,"ifor":10808,"kuk":10809,"lők":10810,"mered":10811,"pe":10812,"sula":10813,"yn":10814,"Áron":10815,"öc":10816,"szur":10817,"elhagyta":10818,"erán":10819,"erdei":10820,"áruk":10821,"inz":10822,"inspir":10823,"érnek":10824,"hová":10825,"egykor":10826,"csa":10827,"ament":10828,"megfel":10829,"megvizsgál":10830,"megérdem":10831,"megszok":10832,"megérkezett":10833,"megráz":10834,"megtilt":10835,"megkezdték":10836,"ilor":10837,"ited":10838,"taj":10839,"közbeszerzés":10840,"felir":10841,"korcs":10842,"előtérbe":10843,"jelez":10844,"országa":10845,"vehetnek":10846,"számlát":10847,"vető":10848,"márk":10849,"Sza":10850,"kapják":10851,"százan":10852,"végezte":10853,"végzi":10854,"tatás":10855,"ezteti":10856,"követett":10857,"látó":10858,"időközben":10859,"életünk":10860,"támaszkod":10861,"ogató":10862,"váltotta":10863,"csapott":10864,"cht":10865,"szenz":10866,"alakja":10867,"férf":10868,"különben":10869,"betekint":10870,"összefogás":10871,"szállítottak":10872,"milliót":10873,"oldalt":10874,"miniszteri":10875,"választotta":10876,"választásokon":10877,"dolgozunk":10878,"államban":10879,"döntését":10880,"kongr":10881,"változásokat":10882,"biztosítás":10883,"jegyet":10884,"balaton":10885,"mutatkozott":10886,"bajban":10887,"építésére":10888,"hónapot":10889,"rendőri":10890,"férfival":10891,"óipari":10892,"szabálytalan":10893,"Margit":10894,"másikat":10895,"barátok":10896,"parton":10897,"teljesíteni":10898,"problé":10899,"szükségünk":10900,"információs":10901,"ronómi":10902,"eseményt":10903,"isten":10904,"osztályú":10905,"küldet":10906,"küldte":10907,"vádolta":10908,"javasolja":10909,"németek":10910,"csökkenést":10911,"olvasni":10912,"tényleges":10913,"utasok":10914,"kérdésben":10915,"vettem":10916,"kézdi":10917,"ógiai":10918,"tengeren":10919,"láttak":10920,"vittek":10921,"szerencsét":10922,"híre":10923,"híján":10924,"vezetéken":10925,"Legutóbb":10926,"hidegebb":10927,"mutattak":10928,"missz":10929,"fesztiválon":10930,"Katar":10931,"indokolt":10932,"maximális":10933,"mezőnyben":10934,"megpróbálta":10935,"megszűnt":10936,"helyszíni":10937,"koncentráció":10938,"spórolni":10939,"háttérben":10940,"fenyegetés":10941,"jelentősége":10942,"határozottan":10943,"pattan":10944,"szórakoztató":10945,"Eszter":10946,"tükröz":10947,"BBC":10948,"Értéktőzsde":10949,"könnyedén":10950,"Kulturális":10951,"gyöker":10952,"Demokratikus":10953,"gyerty":10954,"előrejelzése":10955,"Május":10956,"demonstr":10957,"Igazgatóság":10958,"buzd":10959,"nadrág":10960,"Balogh":10961,"felkészülés":10962,"Református":10963,"kongressz":10964,".-":10965,"360":10966,"92":10967,"Blo":10968,"CA":10969,"EKB":10970,"Res":10971,"Ram":10972,"Rog":10973,"Rövid":10974,"Sár":10975,"Sar":10976,"Tánc":10977,"Vad":10978,"XX":10979,"Zaporizzs":10980,"aikat":10981,"belől":10982,"falak":10983,"jam":10984,"kok":10985,"mág":10986,"meny":10987,"őtt":10988,"eljut":10989,"elárul":10990,"gye":10991,"ator":10992,"ésért":10993,"árral":10994,"emmel":10995,"cse":10996,"cseng":10997,"megfogalmaz":10998,"megtalálható":10999,"ékot":11000,"ozások":11001,"kies":11002,"lebonyol":11003,"évét":11004,"valahogy":11005,"vezény":11006,"ösi":11007,"napilap":11008,"atty":11009,"fogni":11010,"Szav":11011,"tudjanak":11012,"szakaszt":11013,"szakítás":11014,"százalékának":11015,"ásaink":11016,"házy":11017,"mini":11018,"szemet":11019,"részvét":11020,"vics":11021,"köröz":11022,"haladó":11023,"őrség":11024,"esetről":11025,"váltó":11026,"üzent":11027,"menjen":11028,"úgyhogy":11029,"vonattal":11030,"tetés":11031,"ításban":11032,"csapatt":11033,"csapást":11034,"ugyanaz":11035,"mérnö":11036,"eleme":11037,"különleg":11038,"polc":11039,"érdeke":11040,"párbeszéd":11041,"hagyták":11042,"ektor":11043,"jegyében":11044,"Cser":11045,"füred":11046,"hívják":11047,"szeretik":11048,"emelkednek":11049,"beszélnek":11050,"megyünk":11051,"fizetnek":11052,"fizetnie":11053,"eredményeit":11054,"nyomozó":11055,"túlságosan":11056,"torl":11057,"fejlesztett":11058,"hátral":11059,"gyermekük":11060,"munkavégzés":11061,"akarok":11062,"akarjuk":11063,"Köztársaság":11064,"akárcsak":11065,"piacán":11066,"bánt":11067,"ellátott":11068,"negyede":11069,"veszélybe":11070,"köszönetet":11071,"fogyasztási":11072,"hitelt":11073,"hiányzott":11074,"születik":11075,"megoldásokat":11076,"különbséget":11077,"iparban":11078,"szavazatok":11079,"nyilvánosan":11080,"fennáll":11081,"bűnöz":11082,"csökkenése":11083,"távozott":11084,"részletesen":11085,"szenvedély":11086,"történetének":11087,"frissít":11088,"tapasztalatok":11089,"Bizony":11090,"kézműves":11091,"valószínűséggel":11092,"kínált":11093,"döntőjében":11094,"dobog":11095,"bevétele":11096,"évtizedes":11097,"feltételeket":11098,"beker":11099,"többiek":11100,"hálózati":11101,"csatlakozás":11102,"hatékonyan":11103,"strukció":11104,"szobor":11105,"edzője":11106,"állomáson":11107,"bevezetését":11108,"vatart":11109,"felújított":11110,"kezelése":11111,"tévés":11112,"módosítás":11113,"lényege":11114,"Real":11115,"veszteséget":11116,"búcsú":11117,"tábornok":11118,"megbízott":11119,"szabadságharc":11120,"faluban":11121,"szexi":11122,"Statisztikai":11123,"görd":11124,"migrációs":11125,"Amazon":11126,"Holland":11127,"pihenő":11128,"törekv":11129,"törekvő":11130,"innovatív":11131,"bejegyzésében":11132,"Különösen":11133,"intelligenci":11134,"sújtotta":11135,"tömör":11136,"pörg":11137,"Stars":11138,"kávé":11139,"örökös":11140,"hétköznapi":11141,"garantált":11142,"Ausztriában":11143,"Párizsban":11144,"fertőződött":11145,"migránsok":11146,"búza":11147,"jótékonysági":11148,"Zsófi":11149,"hordónként":11150,"Dunántúlon":11151,"energiahordozók":11152,"gyarap":11153,"Ursula":11154,"Pintér":11155,"régebbi":11156,"Bíróság":11157,"Guardian":11158,"Adr":11159,"Cap":11160,"Do":11161,"Far":11162,"Géz":11163,"Hagy":11164,"Janu":11165,"Kocs":11166,"Luhan":11167,"Mus":11168,"Pol":11169,"RA":11170,"Stud":11171,"Vel":11172,"World":11173,"Zal":11174,"böl":11175,"gan":11176,"mo":11177,"noha":11178,"paz":11179,"pez":11180,"put":11181,"plak":11182,"rik":11183,"romb":11184,"sark":11185,"vám":11186,"wal":11187,"úny":11188,"őszinte":11189,"elh":11190,"eljutott":11191,"elhangzott":11192,"alt":11193,"annia":11194,"álma":11195,"egyiptom":11196,"élünk":11197,"megír":11198,"megszor":11199,"megrendez":11200,"megtalálták":11201,"adásokat":11202,"bennem":11203,"omban":11204,"felder":11205,"felszámol":11206,"felvonul":11207,"értem":11208,"odást":11209,"számmal":11210,"számjegyű":11211,"ókon":11212,"kerti":11213,"fogom":11214,"műfaj":11215,"amelyekkel":11216,"válás":11217,"viselés":11218,"viselte":11219,"kétoldalú":11220,"minap":11221,"tároló":11222,"viv":11223,"eltem":11224,"látog":11225,"látunk":11226,"láthatjuk":11227,"halottak":11228,"Egyed":11229,"Egyház":11230,"időz":11231,"időtart":11232,"vileg":11233,"ogatott":11234,"nővér":11235,"ártól":11236,"csapattal":11237,"diadalmas":11238,"ugyanolyan":11239,"útnak":11240,"ünch":11241,"segéd":11242,"Nemrég":11243,"etlenség":11244,"190":11245,"hajlék":11246,"szálloda":11247,"formát":11248,"viszi":11249,"célokat":11250,"választani":11251,"érdekel":11252,"helyzetek":11253,"honfit":11254,"visszavág":11255,"létező":11256,"maradjon":11257,"jogerős":11258,"híresség":11259,"Andi":11260,"kamasz":11261,"hónapjában":11262,"kilow":11263,"hassák":11264,"torony":11265,"barna":11266,"nézet":11267,"bizonyítani":11268,"iumban":11269,"ődik":11270,"kím":11271,"ellátásban":11272,"Ennél":11273,"köszöntő":11274,"köszöntötte":11275,"készülni":11276,"unior":11277,"egymástól":11278,"likvid":11279,"bérek":11280,"alakulhat":11281,"foglalkozott":11282,"eleji":11283,"kirobban":11284,"sehol":11285,"javasolta":11286,"intézkedést":11287,"küzdő":11288,"alkotás":11289,"élelmiszerárak":11290,"válságot":11291,"környezetet":11292,"fedett":11293,"vonalon":11294,"gyengülés":11295,"bemutatta":11296,"állapotát":11297,"művészek":11298,"megjelenés":11299,"tesztel":11300,"támadásban":11301,"Olaf":11302,"monitor":11303,"Újpest":11304,"Egyetemen":11305,"lassú":11306,"üzemanyagot":11307,"hűtő":11308,"lényeges":11309,"koncertet":11310,"festmény":11311,"Ezenkívül":11312,"elképzelhetetlen":11313,"Eger":11314,"Konz":11315,"lemondott":11316,"rájött":11317,"Amerikai":11318,"franci":11319,"rezsicsökkentést":11320,"összefüggésben":11321,"születésnapját":11322,"sorozata":11323,"innováció":11324,"Europ":11325,"Game":11326,"csarnokban":11327,"Nekem":11328,"Britannia":11329,"látszott":11330,"Vivi":11331,"India":11332,"erőfeszít":11333,"ársapka":11334,"Kollég":11335,"budai":11336,"Paks":11337,"elnevezésű":11338,"Kálmán":11339,"Equilor":11340,"Cristiano":11341,"krónikus":11342,"tulajdonság":11343,"Bundes":11344,"91":11345,"AR":11346,"Figy":11347,"Ja":11348,"Jenő":11349,"Ka":11350,"Múlt":11351,"Momentum":11352,"Nat":11353,"Néz":11354,"Open":11355,"Raj":11356,"Réka":11357,"Si":11358,"Seb":11359,"Súly":11360,"Stor":11361,"fol":11362,"fojt":11363,"hé":11364,"lini":11365,"out":11366,"pu":11367,"prec":11368,"pant":11369,"peking":11370,"rált":11371,"teng":11372,"ue":11373,"ww":11374,"zuk":11375,"útt":11376,"úszt":11377,"űg":11378,"űek":11379,"ater":11380,"alj":11381,"aláz":11382,"ésszel":11383,"ésünkre":11384,"olvad":11385,"okokból":11386,"ikációs":11387,"osak":11388,"cskán":11389,"ülve":11390,"íthat":11391,"megtartott":11392,"apuk":11393,"aprop":11394,"hogyha":11395,"ild":11396,"ozd":11397,"iti":11398,"kiír":11399,"reakció":11400,"reaktor":11401,"reprezent":11402,"ségesen":11403,"nemes":11404,"feljelentést":11405,"lefelé":11406,"ellop":11407,"hetente":11408,"értünk":11409,"korban":11410,"cic":11411,"ukon":11412,"helyeket":11413,"vehet":11414,"vetél":11415,"ültet":11416,"ívis":11417,"ásokról":11418,"jelentettek":11419,"játok":11420,"fix":11421,"végzik":11422,"isztikus":11423,"járunk":11424,"járók":11425,"magány":11426,"válassz":11427,"ásainak":11428,"ellenfele":11429,"ellenkező":11430,"mindenesetre":11431,"alapított":11432,"alapkamat":11433,"atokban":11434,"tetszett":11435,"kormánypárti":11436,"Orig":11437,"kolta":11438,"éseken":11439,"mari":11440,"szállítása":11441,"lépése":11442,"közelgő":11443,"cége":11444,"cégnek":11445,"családban":11446,"családoknak":11447,"kérdezte":11448,"kombin":11449,"jegyezték":11450,"léti":11451,"vásárhely":11452,"exik":11453,"nemzetbiztonsági":11454,"kapcsolatba":11455,"Gyógy":11456,"ecz":11457,"jövője":11458,"eddiginél":11459,"lehetőséggel":11460,"záráshoz":11461,"díjakat":11462,"beteget":11463,"légkör":11464,"fiatalokat":11465,"recept":11466,"érintik":11467,"Eng":11468,"odaf":11469,"antikus":11470,"tervezték":11471,"feküd":11472,"hiányában":11473,"teljesítő":11474,"boros":11475,"Márk":11476,"Márpedig":11477,"auton":11478,"hosszas":11479,"hosszút":11480,"béremel":11481,"érdemben":11482,"kirúg":11483,"társaságában":11484,"segítségnyújt":11485,"németországi":11486,"cikke":11487,"korlátozás":11488,"gyógyászati":11489,"viszonyok":11490,"zajlanak":11491,"mennyiségben":11492,"előnyös":11493,"állítását":11494,"biológiai":11495,"fehérorosz":11496,"idézett":11497,"úszobosz":11498,"Sokszor":11499,"Kore":11500,"tulajdonosok":11501,"pótolni":11502,"megerősítették":11503,"elfogadás":11504,"környéken":11505,"megjelentek":11506,"boltok":11507,"kilencven":11508,"kánik":11509,"szelvény":11510,"finanszírozás":11511,"bázisponttal":11512,"veszteségeket":11513,"tesszük":11514,"dokument":11515,"centrum":11516,"Hatalmas":11517,"vadászat":11518,"nyarán":11519,"Nyíregyházán":11520,"állománya":11521,"kivitelező":11522,"termelési":11523,"Alexandra":11524,"Fejér":11525,"medencében":11526,"Híradó":11527,"alapítója":11528,"holttestét":11529,"pályafutása":11530,"cigar":11531,"with":11532,"interjúj":11533,"nyilvánvalóan":11534,"Művészeti":11535,"megmérett":11536,"Teljesen":11537,"szavait":11538,"nulla":11539,"Kisvárda":11540,"csempész":11541,"MDSZ":11542,"objekt":11543,"Hamarosan":11544,"tüdő":11545,"öngész":11546,"Kecskemét":11547,"radikális":11548,"Óriási":11549,"sertés":11550,"pekingi":11551,"480":11552,"93":11553,"?”":11554,"BT":11555,"Bán":11556,"Bur":11557,"EA":11558,"Fu":11559,"Fal":11560,"G7":11561,"GO":11562,"Grand":11563,"HO":11564,"Hop":11565,"Hszi":11566,"IP":11567,"Kön":11568,"Mutat":11569,"OS":11570,"Pap":11571,"RMDSZ":11572,"Sal":11573,"Test":11574,"Veres":11575,"dízel":11576,"fás":11577,"ks":11578,"kant":11579,"lis":11580,"lése":11581,"mart":11582,"pék":11583,"pra":11584,"posta":11585,"téve":11586,"vaz":11587,"zem":11588,"zar":11589,"zunk":11590,"áik":11591,"ájáról":11592,"őző":11593,"széria":11594,"enék":11595,"akaszt":11596,"orozat":11597,"álva":11598,"áskor":11599,"esk":11600,"esben":11601,"arca":11602,"csáb":11603,"megtud":11604,"megismert":11605,"megszavaz":11606,"megfelel":11607,"adata":11608,"uta":11609,"oma":11610,"felbont":11611,"ulhat":11612,"hatásait":11613,"előterjeszt":11614,"előállították":11615,"Azov":11616,"valakinek":11617,"oty":11618,"legnehezebb":11619,"legdrágább":11620,"ender":11621,"odox":11622,"nagyrészt":11623,"máról":11624,"jelentések":11625,"emberöl":11626,"összesz":11627,"érdemel":11628,"szemtanú":11629,"ellenséges":11630,"részesült":11631,"iót":11632,"követik":11633,"mindenben":11634,"mondván":11635,"látnak":11636,"órák":11637,"életveszélyes":11638,"védeni":11639,"ósa":11640,"elnöknek":11641,"ünkön":11642,"szintjén":11643,"mentősök":11644,"adásban":11645,"erősített":11646,"tagság":11647,"közösséget":11648,"valamikor":11649,"céllal":11650,"fizettek":11651,"határidős":11652,"pénzek":11653,"pénzintézet":11654,"családokat":11655,"rij":11656,"riai":11657,"jogát":11658,"jogot":11659,"építész":11660,"ossággal":11661,"kiló":11662,"foglalja":11663,"iskolát":11664,"rendőrséget":11665,"kerülne":11666,"szabadságot":11667,"költő":11668,"ruhát":11669,"Mindent":11670,"csapatokat":11671,"nyitotta":11672,"akarat":11673,"piacokon":11674,"találkoztak":11675,"környezeti":11676,"forrást":11677,"tervező":11678,"veszter":11679,"csatár":11680,"átlagban":11681,"próbálnak":11682,"magától":11683,"2006":11684,"jönni":11685,"válaszul":11686,"válaszolta":11687,"helyszínt":11688,"fordulhat":11689,"tárgyalás":11690,"Krím":11691,"évekig":11692,"filmje":11693,"címét":11694,"októberi":11695,"befektető":11696,"előnyben":11697,"vadon":11698,"kifejezés":11699,"dobott":11700,"fénykép":11701,"januári":11702,"Unióban":11703,"forgalomba":11704,"csatlakozik":11705,"kockázatok":11706,"rakéták":11707,"egedű":11708,"ezret":11709,"raták":11710,"ows":11711,"rádi":11712,"éseire":11713,"reagálni":11714,"kislánya":11715,"értékesítés":11716,"maguknak":11717,"melegebb":11718,"kialakítása":11719,"műveleti":11720,"locs":11721,"berendezések":11722,"keményen":11723,"versenyzője":11724,"simán":11725,"tiszteletben":11726,"Hollandi":11727,"hormon":11728,"törekszik":11729,"tranzit":11730,"tranzakciók":11731,"Peter":11732,"megszűnik":11733,"innovációs":11734,"klímaváltozás":11735,"kontinen":11736,"United":11737,"Britanni":11738,"vallomást":11739,"MOL":11740,"Fradi":11741,"Film":11742,"keresték":11743,"istája":11744,"Folytat":11745,"Mezőköves":11746,"kihasználva":11747,"Rákóczi":11748,"Svédország":11749,"BMW":11750,"gomoly":11751,"kukor":11752,"Egészségügyi":11753,"Augusztus":11754,"jogállamisági":11755,"depresszió":11756,"feltehetően":11757,"Ifjú":11758,"Fülöp":11759,"kiegyensúlyozott":11760,"szegedi":11761,"korcsoly":11762,"Január":11763,"Bus":11764,"Cor":11765,"Call":11766,"Curt":11767,"Dar":11768,"Fanni":11769,"Flor":11770,"Glob":11771,"IF":11772,"Lo":11773,"Sw":11774,"Vill":11775,"Vodaf":11776,"bon":11777,"cívis":11778,"mulat":11779,"rok":11780,"térd":11781,"vaszt":11782,"óm":11783,"elkezdte":11784,"alb":11785,"anim":11786,"akra":11787,"akezd":11788,"ártatlan":11789,"olását":11790,"ezzük":11791,"amű":11792,"ítéssel":11793,"megrend":11794,"megawatt":11795,"adjuk":11796,"adjon":11797,"kiszab":11798,"kijelző":11799,"feltöltött":11800,"jain":11801,"beszállító":11802,"ogan":11803,"évő":11804,"érti":11805,"legkevesebb":11806,"udomány":11807,"nagyszabású":11808,"vetette":11809,"uri":11810,"újonc":11811,"ültem":11812,"jelentésében":11813,"édi":11814,"minta":11815,"baja":11816,"vagyont":11817,"kétharmada":11818,"obbant":11819,"eiből":11820,"hallat":11821,"jesz":11822,"almakat":11823,"belek":11824,"belát":11825,"alapul":11826,"munkájuk":11827,"stb":11828,"menő":11829,"tetni":11830,"színházi":11831,"értékelés":11832,"hétben":11833,"aszfal":11834,"félelm":11835,"hozzáj":11836,"hozzász":11837,"eszi":11838,"termelt":11839,"inka":11840,"egyikük":11841,"hárman":11842,"józan":11843,"jócskán":11844,"támogatással":11845,"hangz":11846,"veszített":11847,"dolgozói":11848,"ványos":11849,"családtag":11850,"családjával":11851,"honvéd":11852,"akikkel":11853,"működni":11854,"rigy":11855,"erőművek":11856,"maradvány":11857,"szólag":11858,"1500":11859,"eredményét":11860,"ideális":11861,"andin":11862,"szorult":11863,"romlás":11864,"programját":11865,"Inf":11866,"Innov":11867,"akarunk":11868,"zárva":11869,"díjjal":11870,"művelődési":11871,"percre":11872,"zettel":11873,"gépet":11874,"szembenéz":11875,"újraind":11876,"terveznek":11877,"veszélyhelyzet":11878,"hiányosság":11879,"szárnyal":11880,"Art":11881,"Erős":11882,"szavazók":11883,"palot":11884,"indulnak":11885,"harcol":11886,"könyve":11887,"alakulnak":11888,"támadásokat":11889,"önkormányzata":11890,"javítása":11891,"felhasználás":11892,"központjában":11893,"rosszindulatú":11894,"közlekedést":11895,"utazni":11896,"koronavírusos":11897,"kényelmes":11898,"bízom":11899,"büntetésre":11900,"balesetek":11901,"számláló":11902,"mérkőzésén":11903,"látogatott":11904,"bíróságon":11905,"villám":11906,"távolabb":11907,"utalva":11908,"kormányzója":11909,"számolva":11910,"igyekeztek":11911,"szigeten":11912,"posztolt":11913,"aggály":11914,"hunytak":11915,"cikkében":11916,"felsőbb":11917,"elfogadhatatlan":11918,"Sajtó":11919,"Főügyészség":11920,"kialakítani":11921,"jelöltek":11922,"gondolkodás":11923,"rangú":11924,"bontak":11925,"technológiát":11926,"Instagramon":11927,"szerzője":11928,"rovar":11929,"News":11930,"hegyi":11931,"pozíciót":11932,"legenda":11933,"állandóan":11934,"helyszíne":11935,"Moszkvában":11936,"gyalogos":11937,"ezüstérmes":11938,"ahova":11939,"székelyföldi":11940,"algorit":11941,"szervek":11942,"Érdekes":11943,"Dancing":11944,"horgász":11945,"Közleked":11946,"multi":11947,"bekövetkezett":11948,"sütő":11949,"energiatakarék":11950,"türelm":11951,"feledkez":11952,"szerelvény":11953,"kérdőív":11954,"tűzijáték":11955,"csecsem":11956,"fennak":11957,"Dmitrij":11958,"Aleksz":11959,"Labdarú":11960,"felesleges":11961,"figyelmeztette":11962,"Gondol":11963,"Angli":11964,"demokrácia":11965,"sláger":11966,"Március":11967,"Green":11968,"koncepció":11969,"kompromissz":11970,"kézdivásárhelyi":11971,"hajléktalan":11972,"kilowatt":11973,"Vodafone":11974,"ATV":11975,"BR":11976,"DL":11977,"Dani":11978,"Fél":11979,"Fór":11980,"Jack":11981,"Ku":11982,"Kop":11983,"Lov":11984,"Mér":11985,"Soros":11986,"We":11987,"büd":11988,"dai":11989,"eba":11990,"jává":11991,"káni":11992,"mol":11993,"tág":11994,"ília":11995,"elhető":11996,"elbír":11997,"elbocsát":11998,"elítél":11999,"etn":12000,"errel":12001,"azz":12002,"orr":12003,"árai":12004,"ins":12005,"escu":12006,"érik":12007,"ike":12008,"énak":12009,"egyeztetett":12010,"átlát":12011,"átvétel":12012,"ülését":12013,"ítheti":12014,"íthatják":12015,"megköt":12016,"megírta":12017,"megnyert":12018,"megszerzett":12019,"megkülönböz":12020,"ételt":12021,"utaztak":12022,"kihallgat":12023,"omer":12024,"reet":12025,"igent":12026,"felkelt":12027,"jainak":12028,"leendő":12029,"hatású":12030,"évhez":12031,"idáig":12032,"legsúlyosabb":12033,"uknak":12034,"terjesz":12035,"kezelt":12036,"írtunk":12037,"kerítés":12038,"attuk":12039,"fogtak":12040,"próba":12041,"műhely":12042,"végezni":12043,"éseik":12044,"viselni":12045,"umok":12046,"tárc":12047,"részes":12048,"részleges":12049,"főúton":12050,"mondható":12051,"eihez":12052,"gyanúj":12053,"anyja":12054,"munkában":12055,"ismerő":12056,"csapások":12057,"városba":12058,"értékét":12059,"útját":12060,"termében":12061,"évesek":12062,"találgat":12063,"menti":12064,"csalás":12065,"esítése":12066,"police":12067,"célunk":12068,"határidő":12069,"cégeket":12070,"céggel":12071,"gazdaságban":12072,"területét":12073,"folyamatot":12074,"emelkedéssel":12075,"ossági":12076,"eredményez":12077,"kard":12078,"délkeleti":12079,"szorong":12080,"metró":12081,"bármely":12082,"irányt":12083,"irányítás":12084,"irányítást":12085,"nyitottak":12086,"Index":12087,"atlanti":12088,"elmondták":12089,"szolgáltatási":12090,"katonát":12091,"ellátását":12092,"Deák":12093,"odafigyel":12094,"engedték":12095,"csics":12096,"fekszik":12097,"igénye":12098,"születése":12099,"halálra":12100,"játszotta":12101,"titka":12102,"alkalmazások":12103,"fegyverekkel":12104,"taps":12105,"2007":12106,"segítségre":12107,"küldetés":12108,"nyilatkozatot":12109,"megállapította":12110,"megállapították":12111,"csökkenő":12112,"tárgyalni":12113,"húzódó":12114,"utasította":12115,"hajtottak":12116,"áramtalan":12117,"vesszük":12118,"bajnokságot":12119,"Zsig":12120,"tennie":12121,"növelése":12122,"kedvezőtlen":12123,"dobogó":12124,"enetes":12125,"fenyő":12126,"örökség":12127,"legyünk":12128,"éttermek":12129,"doktor":12130,"enzív":12131,"felújítási":12132,"kezelésére":12133,"földgázt":12134,"elfogadni":12135,"Rácz":12136,"Nyugati":12137,"adicsom":12138,"képességét":12139,"bővebb":12140,"Másrészt":12141,"gazdagabb":12142,"Mátyás":12143,"fenyegető":12144,"megújult":12145,"kiemelten":12146,"Hatóság":12147,"érezzük":12148,"Ausztria":12149,"előadásában":12150,"Erdélyi":12151,"szárazföldi":12152,"geop":12153,"beszélgettünk":12154,"lőttek":12155,"katasztrófavédelmi":12156,"szigorúbb":12157,"korszerűsít":12158,"értesítette":12159,"szerelme":12160,"Blikknek":12161,"pohár":12162,"körülményeit":12163,"Liu":12164,"csinos":12165,"óránként":12166,"kupa":12167,"fenyegeti":12168,"Ügyészség":12169,"drónt":12170,"szivárgott":12171,"Érdekesség":12172,"statisztik":12173,"Kanada":12174,"lenyűg":12175,"Mostan":12176,"Járásbíróság":12177,"hátterében":12178,"hardver":12179,"koordin":12180,"elrendelte":12181,"kikapott":12182,"páncélozott":12183,"Család":12184,"muszáj":12185,"székhelyű":12186,"valamelyest":12187,"strukturális":12188,"Történ":12189,"hátralévő":12190,"Kocsis":12191,"pazar":12192,"hozzászól":12193,"110":12194,"98":12195,"AP":12196,"BI":12197,"BK":12198,"Blu":12199,"Fan":12200,"Jer":12201,"Juhász":12202,"Kil":12203,"Katon":12204,"Keleti":12205,"Mir":12206,"MKB":12207,"NO":12208,"Ph":12209,"Pesz":12210,"Ronal":12211,"Sol":12212,"Th":12213,"Túl":12214,"Tay":12215,"by":12216,"böngész":12217,"domin":12218,"fész":12219,"gur":12220,"genet":12221,"hül":12222,"pert":12223,"vest":12224,"úk":12225,"széri":12226,"elöl":12227,"elhanyag":12228,"eneg":12229,"gyom":12230,"alép":12231,"anák":12232,"ásvány":12233,"ásából":12234,"ánia":12235,"iként":12236,"énes":12237,"egységet":12238,"megöl":12239,"megváltoz":12240,"megszabad":12241,"megnyilván":12242,"megsebesült":12243,"ága":12244,"étrend":12245,"ili":12246,"itól":12247,"kifog":12248,"kiválasztott":12249,"ségű":12250,"közbeszerzési":12251,"nyír":12252,"felén":12253,"felvenni":12254,"álljon":12255,"bevall":12256,"koránt":12257,"izgat":12258,"tehetnek":12259,"cium":12260,"ságban":12261,"helyette":12262,"elmozd":12263,"fogták":12264,"tartály":12265,"lehetünk":12266,"képe":12267,"másként":12268,"százalékon":12269,"kétéves":12270,"kétharmad":12271,"hatóan":12272,"részének":12273,"főorvos":12274,"látszólag":12275,"ortodox":12276,"köré":12277,"sora":12278,"anyi":12279,"életi":12280,"munkára":12281,"kezdeti":12282,"menü":12283,"félelmet":12284,"eszter":12285,"esztően":12286,"segítettek":12287,"play":12288,"eredménnyel":12289,"gondok":12290,"léphet":12291,"célok":12292,"veszett":12293,"döntős":12294,"családnak":12295,"háborúnak":12296,"változatlanul":12297,"visszavonul":12298,"súlyú":12299,"illeték":12300,"ick":12301,"icz":12302,"ical":12303,"bajba":12304,"építettek":12305,"anda":12306,"felelőtlen":12307,"fejlesztést":12308,"programmal":12309,"irányította":12310,"emlékez":12311,"katonákat":12312,"Nyrt":12313,"Mars":12314,"gyakorol":12315,"merész":12316,"Ukrajnával":12317,"lévők":12318,"telenség":12319,"jaira":12320,"spor":12321,"otthonról":12322,"korona":12323,"utcára":12324,"alakultak":12325,"értelme":12326,"inflációval":12327,"alkotók":12328,"kérdéses":12329,"ünnepek":12330,"szerződéseket":12331,"tizedik":12332,"legtöbbször":12333,"Ugyancsak":12334,"rezsik":12335,"egyszeri":12336,"Többek":12337,"fehérek":12338,"jelentkező":12339,"keletre":12340,"garáz":12341,"mélyebb":12342,"feltétele":12343,"hálózatot":12344,"vezérkar":12345,"posztjában":12346,"tagjainak":12347,"konténer":12348,"közönséget":12349,"napjaink":12350,"boltokban":12351,"szegmen":12352,"forrásokból":12353,"vezetékes":12354,"politikája":12355,"üzemeltetés":12356,"játszottunk":12357,"tartalmazza":12358,"örülök":12359,"láncok":12360,"enkénti":12361,"légierő":12362,"megtalálni":12363,"büntetőeljárást":12364,"bennük":12365,"sürget":12366,"szöglet":12367,"Amerikában":12368,"demokratikus":12369,"szerkesztő":12370,"birtokában":12371,"Szegeden":12372,"termelői":12373,"szeresére":12374,"készletek":12375,"makói":12376,"Richárd":12377,"megőrzése":12378,"tegye":12379,"tájakon":12380,"karrierje":12381,"elektronikai":12382,"pályafutását":12383,"nyíltan":12384,"házigazdák":12385,"olimpia":12386,"érettség":12387,"röplab":12388,"Paul":12389,"potenciális":12390,"emlékezetes":12391,"offenzív":12392,"szürke":12393,"influenza":12394,"George":12395,"ötszörös":12396,"leszögezte":12397,"International":12398,"februári":12399,"pezsg":12400,"megmérettetés":12401,"Curtis":12402,"algoritmus":12403,"Ronaldo":12404,"900":12405,"Bat":12406,"Bre":12407,"Brassó":12408,"Cél":12409,"Fre":12410,"Ju":12411,"Ján":12412,"Kelem":12413,"Me":12414,"Ment":12415,"Mór":12416,"OSK":12417,"Smit":12418,"Tat":12419,"VH":12420,"Vic":12421,"bur":12422,"con":12423,"futtat":12424,"gás":12425,"muzs":12426,"ratív":12427,"ster":12428,"teny":12429,"zong":12430,"övez":12431,"öder":12432,"szülés":12433,"szka":12434,"elkülön":12435,"elpuszt":12436,"elvileg":12437,"ance":12438,"ekig":12439,"ésem":12440,"árver":12441,"énia":12442,"átjár":12443,"átutal":12444,"ítse":12445,"éta":12446,"edet":12447,"iter":12448,"kiigaz":12449,"bec":12450,"entin":12451,"észett":12452,"előfordult":12453,"izációs":12454,"legolcsóbb":12455,"leggyakoribb":12456,"jele":12457,"vezették":12458,"írtak":12459,"berbank":12460,"berlini":12461,"számában":12462,"napokat":12463,"többségi":12464,"prakt":12465,"vani":12466,"kedve":12467,"emberre":12468,"töröl":12469,"fiam":12470,"végét":12471,"szakított":12472,"örg":12473,"amelyekben":12474,"kétség":12475,"kétszáz":12476,"ügyintéz":12477,"ügyvezetője":12478,"ódása":12479,"szeme":12480,"követni":12481,"pontján":12482,"Egyszer":12483,"Egyrészt":12484,"fejezet":12485,"alapok":12486,"emeli":12487,"világa":12488,"világossá":12489,"vonala":12490,"előttünk":12491,"harmon":12492,"félelem":12493,"éseknek":12494,"jelennek":12495,"eszik":12496,"vezetőjét":12497,"eves":12498,"betilt":12499,"szállítását":12500,"formája":12501,"minisztere":12502,"avra":12503,"célokra":12504,"cégeknek":12505,"Európát":12506,"pártel":12507,"döntenek":12508,"kérdeztük":12509,"kodás":12510,"történész":12511,"Csilla":12512,"vásárhelyen":12513,"megyek":12514,"okoztak":12515,"hírű":12516,"ingad":12517,"lapot":12518,"címer":12519,"kapcsolatokat":12520,"túlzott":12521,"metsz":12522,"ruha":12523,"jutnak":12524,"irányítja":12525,"energiaellátás":12526,"tisztes":12527,"esebbé":12528,"vízió":12529,"lagos":12530,"kísért":12531,"szavak":12532,"szavai":12533,"tettem":12534,"ross":12535,"bankszáml":12536,"hivatalban":12537,"viteli":12538,"essük":12539,"Nyolc":12540,"elérése":12541,"ződött":12542,"mikro":12543,"tekintetben":12544,"nevén":12545,"költségei":12546,"nyilvántart":12547,"épülete":12548,"gyártott":12549,"harcos":12550,"harcolni":12551,"mértékét":12552,"köteles":12553,"készítettek":12554,"assziszt":12555,"feltüntet":12556,"törvényjavaslat":12557,"segítségére":12558,"születtek":12559,"ajánlás":12560,"küldeni":12561,"támadta":12562,"felhasználói":12563,"arányos":12564,"tényezők":12565,"valósult":12566,"űrhaj":12567,"felelősséget":12568,"oktatásban":12569,"beruházásokat":12570,"Ugyanis":12571,"befektetés":12572,"fehérvári":12573,"fényes":12574,"garanci":12575,"egyetemen":12576,"feltételezett":12577,"rendezvények":12578,"korabeli":12579,"csúcson":12580,"darabot":12581,"medence":12582,"hűl":12583,"felhívja":12584,"cikkek":12585,"áival":12586,"háziorvos":12587,"felsőoktatási":12588,"tudomás":12589,"Varsó":12590,"Adó":12591,"Szövetsége":12592,"mentőhelikopter":12593,"elképzelni":12594,"kísérleti":12595,"létesítmények":12596,"fronton":12597,"megkérdezett":12598,"elkerülni":12599,"önkéntesek":12600,"regisztrál":12601,"que":12602,"tartósan":12603,"hitte":12604,"megszerezte":12605,"figyelmeztetést":12606,"drágulása":12607,"tudósító":12608,"onyecki":12609,"lelkesed":12610,"ambol":12611,"Media":12612,"kávéz":12613,"összegyűjt":12614,"településeken":12615,"Kereszt":12616,"szakadár":12617,"reagálva":12618,"elteltével":12619,"Sepsiszentgyörgyön":12620,"pilót":12621,"Donyeck":12622,"öltöző":12623,"moderni":12624,"elhúzódó":12625,"ünnepségen":12626,"Kulcs":12627,"ezredes":12628,"retteg":12629,"prognózis":12630,"kilogramm":12631,"bitcoin":12632,"Somogy":12633,"Remélem":12634,"szőlő":12635,"pásztor":12636,"Hotel":12637,"Mazsi":12638,"közgazdász":12639,"digitalizáció":12640,"béketárgyal":12641,"jubileumi":12642,"incbarc":12643,"bűnözők":12644,"Hollandia":12645,"Géza":12646,"egyiptomi":12647,"Peszkov":12648,"%)":12649,"112":12650,"AF":12651,"Bir":12652,"Bíró":12653,"DC":12654,"Des":12655,"Domin":12656,"Et":12657,"Föl":12658,"Gor":12659,"Gál":12660,"Ide":12661,"Jók":12662,"Játék":12663,"Lind":12664,"Lesz":12665,"Mely":12666,"Mont":12667,"RE":12668,"Sky":12669,"Sberbank":12670,"Tran":12671,"Társ":12672,"Vissz":12673,"Zala":12674,"bik":12675,"cer":12676,"diós":12677,"donyecki":12678,"fus":12679,"fossz":12680,"gán":12681,"ijeszt":12682,"kál":12683,"kas":12684,"lád":12685,"lusban":12686,"nó":12687,"nod":12688,"pos":12689,"riz":12690,"tim":12691,"uel":12692,"elhelyezett":12693,"ekul":12694,"emok":12695,"íthető":12696,"megérkez":12697,"megnyer":12698,"megtanul":12699,"megpróbált":12700,"ágai":12701,"apt":12702,"edve":12703,"ozói":12704,"kiált":12705,"kiemelked":12706,"kifogás":12707,"kigyulladt":12708,"ommal":12709,"közre":12710,"feltörekvő":12711,"lejárt":12712,"beoszt":12713,"hatod":12714,"entől":12715,"évekkel":12716,"izm":12717,"valakit":12718,"odnak":12719,"nevezet":12720,"vetni":12721,"illik":12722,"rendbe":12723,"ovai":12724,"többe":12725,"elmegy":12726,"Szend":12727,"vezetnek":12728,"külügyi":12729,"örvény":12730,"jártunk":12731,"semleg":12732,"tatja":12733,"tatási":12734,"ügyek":12735,"ellenség":12736,"vic":12737,"milliméter":12738,"folynak":12739,"őrült":12740,"abort":12741,"munkások":12742,"védte":12743,"rajtuk":12744,"kezdik":12745,"ótér":12746,"üzen":12747,"elsőre":12748,"értékpapír":12749,"kiskorú":12750,"zser":12751,"harag":12752,"igazából":12753,"eszkal":12754,"chise":12755,"lőszer":12756,"találja":12757,"peres":12758,"1956":12759,"választása":12760,"konv":12761,"fontosságát":12762,"hagyó":12763,"druk":12764,"területének":12765,"társai":12766,"Csill":12767,"Csab":12768,"működése":12769,"szerető":12770,"szólította":12771,"mutatkozik":12772,"magasabban":12773,"másodszor":12774,"kileg":12775,"foglalta":12776,"négyszer":12777,"nyoma":12778,"túlzás":12779,"egyenes":12780,"egyenruh":12781,"adatbázis":12782,"rendeletet":12783,"Michel":12784,"almazott":12785,"programsorozat":12786,"képvisel":12787,"képviselt":12788,"Inform":12789,"vízilabda":12790,"gyűlt":12791,"zárja":12792,"Elkép":12793,"klip":12794,"hivatali":12795,"Enik":12796,"amelyeknek":12797,"Állat":12798,"köszönt":12799,"rendeznek":12800,"hadit":12801,"hadművelet":12802,"egyesek":12803,"átlagot":12804,"neves":12805,"Albert":12806,"Alkot":12807,"tulajdonú":12808,"áldemok":12809,"vállalatokat":12810,"távközlési":12811,"küzdeni":12812,"központban":12813,"utazó":12814,"végrehajtani":12815,"környezetében":12816,"ahszt":12817,"álláspontja":12818,"bejelentették":12819,"kézi":12820,"számlák":12821,"bővül":12822,"telefonos":12823,"ellenőrzése":12824,"Mindenesetre":12825,"óvó":12826,"teremben":12827,"vágta":12828,"töltötték":12829,"modellt":12830,"monoxid":12831,"magánszemély":12832,"medve":12833,"erőkkel":12834,"márciusi":12835,"bizottsági":12836,"terhelés":12837,"téved":12838,"elismerés":12839,"eljék":12840,"1998":12841,"belépők":12842,"csatornák":12843,"Volán":12844,"keresletet":12845,"szabadságveszt":12846,"Hunor":12847,"kiadása":12848,"ajándékot":12849,"börtönben":12850,"tünetei":12851,"Erdogan":12852,"lopás":12853,"horror":12854,"bezárt":12855,"franchise":12856,"beavatkozás":12857,"vívó":12858,"vívott":12859,"masszív":12860,"klasszis":12861,"Komoly":12862,"megtakarítás":12863,"újságírók":12864,"telefont":12865,"nyugodtan":12866,"felkészülési":12867,"későbbiekben":12868,"Gabi":12869,"betéti":12870,"Franc":12871,"tendenci":12872,"költségeit":12873,"Super":12874,"vendéglátó":12875,"kincstár":12876,"konferencián":12877,"borzalmas":12878,"mínuszban":12879,"Buda":12880,"Állami":12881,"Spanyolország":12882,"szemlélet":12883,"mozgósítás":12884,"törlesztő":12885,"LED":12886,"Times":12887,"propaganda":12888,"Simon":12889,"startup":12890,"zsidó":12891,"szőny":12892,"hajrában":12893,"adminisztráció":12894,"lövöldözés":12895,"Fejlesztési":12896,"olimpián":12897,"bútor":12898,"gasztronómi":12899,"periód":12900,"megyékben":12901,"gonosz":12902,"Szovjetunió":12903,"státusz":12904,"gesztus":12905,"ivóvíz":12906,"majomhimlő":12907,"metaverzum":12908,"Valószínűleg":12909,"tajvani":12910,"betekintést":12911,"Konzervatív":12912,"Vivien":12913,"zaránd":12914,"hozzájut":12915,"Kelemen":12916,"Ag":12917,"Bra":12918,"Bert":12919,"Gold":12920,"Köv":12921,"Kezd":12922,"Lass":12923,"ON":12924,"Peti":12925,"Pass":12926,"Rob":12927,"Sil":12928,"Sokat":12929,"Spar":12930,"Thom":12931,"comb":12932,"cerem":12933,"dikt":12934,"gári":12935,"iás":12936,"lását":12937,"mold":12938,"rény":12939,"radó":12940,"smin":12941,"via":12942,"well":12943,"zaporizzs":12944,"úttest":12945,"szin":12946,"szőr":12947,"elhatár":12948,"eleven":12949,"atban":12950,"anap":12951,"azelőtt":12952,"inős":12953,"ement":12954,"egi":12955,"egekbe":12956,"ezekkel":12957,"ítsuk":12958,"megalakul":12959,"megszerzés":12960,"megkezdődött":12961,"megugr":12962,"kiab":12963,"kimarad":12964,"ign":12965,"javára":12966,"lec":12967,"befizet":12968,"hatom":12969,"hetne":12970,"ida":12971,"agen":12972,"oter":12973,"ságában":12974,"ságokat":12975,"legkésőbb":12976,"jelzálog":12977,"kezeli":12978,"olyat":12979,"számítottak":12980,"nehogy":12981,"rendészeti":12982,"mindkettő":12983,"attunk":12984,"2050":12985,"vártak":12986,"telik":12987,"premi":12988,"hihetetlen":12989,"tudást":12990,"végző":12991,"szakosztály":12992,"ebbek":12993,"kozó":12994,"ájából":12995,"mindenféle":12996,"halált":12997,"fejében":12998,"opció":12999,"ációval":13000,"váltást":13001,"világrangl":13002,"lakói":13003,"koll":13004,"kolozs":13005,"hétig":13006,"zsú":13007,"zseni":13008,"félnek":13009,"elemek":13010,"vállalata":13011,"szélén":13012,"1980":13013,"csalók":13014,"Magyarországgal":13015,"támogatásra":13016,"ésétől":13017,"használati":13018,"lépő":13019,"együttest":13020,"együttesen":13021,"érdekli":13022,"párharc":13023,"vizs":13024,"vizuális":13025,"helyzetről":13026,"változata":13027,"visszavon":13028,"társul":13029,"térium":13030,"balti":13031,"riport":13032,"hívó":13033,"gázár":13034,"szóltak":13035,"megyénk":13036,"kamata":13037,"melyeket":13038,"versenyre":13039,"karambol":13040,"délelőtti":13041,"kapcsolatuk":13042,"túli":13043,"módot":13044,"szörny":13045,"latban":13046,"eck":13047,"résztvev":13048,"autópályán":13049,"Mindeközben":13050,"tip":13051,"zártak":13052,"csoportja":13053,"csoportkör":13054,"szavaztak":13055,"sajátos":13056,"ológi":13057,"szervezetet":13058,"betegséget":13059,"ezekből":13060,"tervezés":13061,"vizsgálati":13062,"átlagkereset":13063,"filozó":13064,"partra":13065,"szerveznek":13066,"ritmus":13067,"kereskedelemben":13068,"Erika":13069,"bérbe":13070,"méteren":13071,"falvak":13072,"foglalkoznak":13073,"Mintegy":13074,"vállalkozásokat":13075,"törvények":13076,"szoktak":13077,"keretet":13078,"bemut":13079,"végrehajtott":13080,"hajtású":13081,"eljárásban":13082,"menekülő":13083,"nyolcad":13084,"beleegy":13085,"energiával":13086,"döntötte":13087,"bővítés":13088,"kamatstop":13089,"kíséri":13090,"fenntartani":13091,"érdeklődő":13092,"Braz":13093,"engeteget":13094,"pontosabban":13095,"érvényesül":13096,"Mikolaj":13097,"régiós":13098,"hálózatok":13099,"fejlődött":13100,"motiv":13101,"aggód":13102,"esztivált":13103,"blog":13104,"üzemanyagok":13105,"boldogan":13106,"kezdeményezte":13107,"zóna":13108,"felújítása":13109,"boltban":13110,"elkövetésének":13111,"gyűjtés":13112,"visszatérő":13113,"ötöd":13114,"Főleg":13115,"sztárja":13116,"czky":13117,"hibák":13118,"olaszok":13119,"virradó":13120,"enyhébb":13121,"méltatta":13122,"fenyegetőz":13123,"Vilmos":13124,"leküzd":13125,"ápoló":13126,"technológiával":13127,"Vasas":13128,"felügyeleti":13129,"munkavállaló":13130,"Népköztársaság":13131,"Hajdúböszörmény":13132,"matem":13133,"szurkoló":13134,"gazdálkodási":13135,"tüzelő":13136,"sütemény":13137,"szimból":13138,"hatályba":13139,"nyersolaj":13140,"CoV":13141,"sugárral":13142,"fáty":13143,"becslése":13144,"öltözött":13145,"trófe":13146,"bolyg":13147,"évfordulója":13148,"előrejelzések":13149,"örtén":13150,"mánnyal":13151,"ellenőrizni":13152,"építkezés":13153,"ütközés":13154,"Szalai":13155,"ovič":13156,"házigazda":13157,"volumen":13158,"vakcinák":13159,"holtan":13160,"pilóta":13161,"befogadó":13162,"mosolyog":13163,"Kuleba":13164,"Nikol":13165,"IMF":13166,"Oscar":13167,"csekély":13168,"lélegeztet":13169,"Majka":13170,"limit":13171,"Jelentős":13172,"színeiben":13173,"Önkormányzat":13174,"energiakölt":13175,"privát":13176,"kísérte":13177,"iforni":13178,"Zaporizzsja":13179,"Mutatjuk":13180,"rezsikölt":13181,"szegmens":13182,"Smith":13183,"fosszilis":13184,"Boldog":13185,"CC":13186,"Dud":13187,"GVH":13188,"Hort":13189,"Kő":13190,"Kra":13191,"MM":13192,"NFT":13193,"Oli":13194,"Po":13195,"Pir":13196,"Pfiz":13197,"Rai":13198,"Rám":13199,"Rec":13200,"Stan":13201,"Tus":13202,"UN":13203,"Véd":13204,"fokkal":13205,"gél":13206,"ib":13207,"ire":13208,"jutt":13209,"kaj":13210,"link":13211,"lati":13212,"latot":13213,"my":13214,"mani":13215,"nusz":13216,"pécsi":13217,"rol":13218,"sak":13219,"som":13220,"sang":13221,"sodor":13222,"tú":13223,"tát":13224,"vag":13225,"vegyen":13226,"ye":13227,"zug":13228,"Észt":13229,"ápia":13230,"ötött":13231,"űen":13232,"szja":13233,"szink":13234,"szűn":13235,"elhunytak":13236,"ero":13237,"ermel":13238,"atott":13239,"ander":13240,"áras":13241,"árnyal":13242,"olin":13243,"ána":13244,"ary":13245,"osa":13246,"kött":13247,"csík":13248,"élére":13249,"mega":13250,"megtör":13251,"megtapasztal":13252,"szerver":13253,"ite":13254,"kiszolgáló":13255,"ségnek":13256,"közismert":13257,"igén":13258,"felmeleged":13259,"bevásárló":13260,"beszé":13261,"hetsz":13262,"előírt":13263,"termin":13264,"odáig":13265,"öntö":13266,"öngyilkosság":13267,"összer":13268,"számott":13269,"ókép":13270,"rendeztek":13271,"rendeltek":13272,"márkák":13273,"elme":13274,"Szív":13275,"műsort":13276,"velin":13277,"tudsz":13278,"tudna":13279,"tudná":13280,"fiai":13281,"öreged":13282,"ördög":13283,"bizak":13284,"házában":13285,"pontok":13286,"őrző":13287,"időközi":13288,"sokféle":13289,"stru":13290,"védők":13291,"emelése":13292,"világnak":13293,"színművész":13294,"kisfia":13295,"méreg":13296,"zsin":13297,"zsugor":13298,"ránt":13299,"vállalás":13300,"paradicsom":13301,"evol":13302,"adásában":13303,"adással":13304,"alakított":13305,"segítsen":13306,"millióan":13307,"plán":13308,"közösségek":13309,"miniszterelnököt":13310,"választják":13311,"adózott":13312,"hazatér":13313,"gazdaságok":13314,"figyelt":13315,"háborúba":13316,"visszaszor":13317,"visszaesett":13318,"társak":13319,"emelkedhet":13320,"emelkedését":13321,"beszéltek":13322,"ings":13323,"szabadtéri":13324,"Gyors":13325,"jövőbeli":13326,"gyermekeket":13327,"bizonyára":13328,"irányított":13329,"munkahelyi":13330,"kívülről":13331,"gondolata":13332,"elmondható":13333,"fiataloknak":13334,"találkozás":13335,"találkozni":13336,"ozzon":13337,"gyerekekkel":13338,"Marvel":13339,"üzembe":13340,"vizsgáló":13341,"vesztették":13342,"hitelm":13343,"merény":13344,"merült":13345,"hiányos":13346,"Kifejtette":13347,"győzni":13348,"testét":13349,"technika":13350,"repülés":13351,"palota":13352,"falusi":13353,"All":13354,"ismétlőd":13355,"lyuk":13356,"válaszolva":13357,"részletezte":13358,"kosar":13359,"cikket":13360,"decemberi":13361,"Ferr":13362,"fedél":13363,"mérkőzését":13364,"egyszerűs":13365,"mérsékelt":13366,"emeltek":13367,"Street":13368,"Hozzá":13369,"befektetések":13370,"csomagol":13371,"tengerent":13372,"szakaszban":13373,"óvatosan":13374,"pályázatok":13375,"véleményt":13376,"augusztusi":13377,"azonosították":13378,"kockázati":13379,"panel":13380,"repülőtéren":13381,"elképesztően":13382,"döntéshozatal":13383,"áprilisi":13384,"Ildik":13385,"teljesítményét":13386,"magyarázza":13387,"Edit":13388,"Mégis":13389,"kezelést":13390,"üzenetében":13391,"módosítása":13392,"kategória":13393,"bécsi":13394,"szünetben":13395,"kötöttek":13396,"Saját":13397,"kapuba":13398,"bázispontos":13399,"vegyék":13400,"festő":13401,"1997":13402,"korlátozást":13403,"korlátozásokat":13404,"búvár":13405,"Tech":13406,"Napi":13407,"diplomat":13408,"témája":13409,"Space":13410,"nevelési":13411,"növényi":13412,"csodás":13413,"enyhén":13414,"lezárás":13415,"udvari":13416,"Chris":13417,"futballista":13418,"szakértője":13419,"kinéz":13420,"celeb":13421,"dokumentumok":13422,"listáján":13423,"menedék":13424,"munkavállalói":13425,"összetétel":13426,"erdőben":13427,"afon":13428,"beszélgetést":13429,"Micha":13430,"Amerika":13431,"Forma":13432,"elemzői":13433,"kiberbiztonsági":13434,"hatálya":13435,"Kárpátal":13436,"konkrétan":13437,"gyanúsítottként":13438,"kopors":13439,"alkoholt":13440,"fejel":13441,"sejtek":13442,"összecsapás":13443,"Otthon":13444,"normál":13445,"tömb":13446,"búcsúzott":13447,"projektet":13448,"korrupciós":13449,"Nekünk":13450,"vonták":13451,"tárolók":13452,"küzdöttek":13453,"Frank":13454,"tendencia":13455,"Moson":13456,"szekrény":13457,"élettart":13458,"népszavazás":13459,"baktérium":13460,"példátlan":13461,"bölcső":13462,"óceáni":13463,"Kazahszt":13464,"korrekt":13465,"Club":13466,"zavartalan":13467,"beszámolók":13468,"húsvéti":13469,"Jövő":13470,"identitás":13471,"megélhetési":13472,"Miniszterelnökséget":13473,"pszichológus":13474,"Vámhivatal":13475,"éghajlat":13476,"megköszönte":13477,"korrekció":13478,"Master":13479,"Ryanair":13480,"plakát":13481,"diadalmaskodott":13482,"honfitárs":13483,"Súlyos":13484,"korántsem":13485,"zaporizzsjai":13486,"beszéde":13487,"BO":13488,"Bűn":13489,"Bécs":13490,"Dénes":13491,"Fico":13492,"GB":13493,"Ipar":13494,"Jim":13495,"Lid":13496,"LNG":13497,"Nas":13498,"Posta":13499,"Rez":13500,"Rap":13501,"Rét":13502,"ST":13503,"Sokkal":13504,"Tűz":13505,"Társaság":13506,"VE":13507,"XV":13508,"bolgár":13509,"evan":13510,"fú":13511,"fur":13512,"gá":13513,"hajd":13514,"hettünk":13515,"kád":13516,"ning":13517,"pól":13518,"radi":13519,"tomb":13520,"vo":13521,"vul":13522,"Éj":13523,"Óz":13524,"ereszt":13525,"alag":13526,"alált":13527,"akviz":13528,"onai":13529,"ezlet":13530,"esszi":13531,"ánként":13532,"ánkat":13533,"ikkal":13534,"ikából":13535,"átkelő":13536,"ítsék":13537,"meglátogat":13538,"megszületett":13539,"megijed":13540,"ade":13541,"szerelő":13542,"szertart":13543,"szerették":13544,"ozással":13545,"kiment":13546,"kiszűr":13547,"omlott":13548,"ségük":13549,"taxis":13550,"nyán":13551,"felvett":13552,"felajánlott":13553,"felrobbant":13554,"felhalmoz":13555,"ulását":13556,"beik":13557,"asen":13558,"értük":13559,"előállítás":13560,"izni":13561,"mielőbb":13562,"napjára":13563,"rendszerint":13564,"fogadó":13565,"tartoz":13566,"tudod":13567,"szakm":13568,"járta":13569,"járhat":13570,"járási":13571,"járőrök":13572,"amelyről":13573,"asztrof":13574,"esty":13575,"semmik":13576,"tatása":13577,"ügye":13578,"ményt":13579,"nacional":13580,"ellenében":13581,"főzés":13582,"mindenek":13583,"tanára":13584,"órészt":13585,"halom":13586,"vereked":13587,"belev":13588,"sokk":13589,"alapos":13590,"emelik":13591,"világpiaci":13592,"enisz":13593,"értékelt":13594,"div":13595,"ugyanezt":13596,"2027":13597,"osztották":13598,"alakú":13599,"játékrészben":13600,"esítette":13601,"szállni":13602,"hangja":13603,"ezerrel":13604,"rávilág":13605,"émon":13606,"Európának":13607,"döntőt":13608,"hagyjuk":13609,"erőműv":13610,"gázvezeték":13611,"joga":13612,"okoznak":13613,"személyre":13614,"itteni":13615,"négyes":13616,"iskolások":13617,"nemzetiség":13618,"módja":13619,"úzió":13620,"Gyakor":13621,"Mire":13622,"rózsa":13623,"Mindössze":13624,"bizonyította":13625,"irányban":13626,"képviseli":13627,"mozgó":13628,"keveset":13629,"Ins":13630,"jüket":13631,"bírja":13632,"bírálta":13633,"szavakat":13634,"perckor":13635,"szabályozási":13636,"tőlünk":13637,"recep":13638,"ellátásra":13639,"ozzuk":13640,"települést":13641,"vitát":13642,"forrásai":13643,"elérheti":13644,"vizsgálata":13645,"termékekre":13646,"átlagnál":13647,"szervezésében":13648,"technik":13649,"alkalmazni":13650,"vendégeket":13651,"pici":13652,"készítette":13653,"2002":13654,"2005":13655,"szoktam":13656,"osztályon":13657,"társaságok":13658,"véres":13659,"helyszínről":13660,"MTK":13661,"intézményben":13662,"támadtak":13663,"természetvédelmi":13664,"keretein":13665,"fotós":13666,"problémákkal":13667,"utasokat":13668,"tájékoztató":13669,"émiai":13670,"nyújtottak":13671,"jelentkeznek":13672,"jelentkeztek":13673,"kínálnak":13674,"terveket":13675,"rendezvényt":13676,"megszün":13677,"becsület":13678,"többszörös":13679,"semmiféle":13680,"szakemberei":13681,"pótló":13682,"betegséggel":13683,"névre":13684,"megvalósítása":13685,"lengyelek":13686,"felhívás":13687,"SARS":13688,"hordoz":13689,"eljünk":13690,"koncerten":13691,"Igor":13692,"esedett":13693,"júniusi":13694,"tartózkodott":13695,"magamnak":13696,"Adat":13697,"olcsóbban":13698,"gyógyszert":13699,"Tudom":13700,"tudományi":13701,"jogosultak":13702,"parancsot":13703,"elkerülhetetlen":13704,"lámp":13705,"minősítette":13706,"parkban":13707,"tábla":13708,"ujj":13709,"elkezdtek":13710,"elkezdték":13711,"lőtte":13712,"szerződéses":13713,"Norvég":13714,"Belügyminisztérium":13715,"ainkat":13716,"hatályos":13717,"ilyes":13718,"kript":13719,"jelenléte":13720,"sújtja":13721,"rablás":13722,"fenyegette":13723,"jelentőségű":13724,"bonyolult":13725,"Csehországban":13726,"ellentétes":13727,"Black":13728,"résztvevői":13729,"kurzus":13730,"kérdésekben":13731,"métert":13732,"iparági":13733,"tartományban":13734,"Biztonság":13735,"főnöke":13736,"Zsuzsa":13737,"kosárlabda":13738,"Spanyolországban":13739,"sportolók":13740,"tisztázatlan":13741,"Beth":13742,"lendületet":13743,"képernyő":13744,"higi":13745,"rohant":13746,"bedob":13747,"benyújtott":13748,"tinéd":13749,"mérföldkő":13750,"Willi":13751,"Gabriella":13752,"szarvas":13753,"ébred":13754,"Botond":13755,"Holly":13756,"gyülekezet":13757,"Windows":13758,"összegyűjtött":13759,"Könyvtár":13760,"Nyomozó":13761,"Sopron":13762,"misszió":13763,"kongresszus":13764,"Bloom":13765,"belőlük":13766,"Szavai":13767,"udományi":13768,"geopolitikai":13769,"Enikő":13770,"kolozsvári":13771,"AI":13772,"Bit":13773,"DS":13774,"Dj":13775,"Del":13776,"Dal":13777,"Evelin":13778,"Gir":13779,"Hum":13780,"Husz":13781,"Jos":13782,"Kim":13783,"Lán":13784,"Lett":13785,"Od":13786,"Pod":13787,"Pozs":13788,"Rossz":13789,"SW":13790,"Se":13791,"Sho":13792,"Sió":13793,"Sun":13794,"WHO":13795,"bí":13796,"bás":13797,"báb":13798,"bácsi":13799,"dér":13800,"domb":13801,"fant":13802,"ffe":13803,"keszt":13804,"katal":13805,"kassz":13806,"mil":13807,"pik":13808,"péter":13809,"ragy":13810,"tum":13811,"áink":13812,"óan":13813,"óúj":13814,"üs":13815,"szesz":13816,"elsziget":13817,"álódott":13818,"ásig":13819,"okmány":13820,"aresti":13821,"éna":13822,"cson":13823,"áti":13824,"átvész":13825,"ülük":13826,"éllovas":13827,"megható":13828,"megállt":13829,"megalkot":13830,"megéri":13831,"megzavar":13832,"band":13833,"edi":13834,"szerves":13835,"kiírt":13836,"kimondott":13837,"tax":13838,"lebont":13839,"ázta":13840,"beállt":13841,"ámat":13842,"előzet":13843,"kezet":13844,"helyeztek":13845,"összt":13846,"vehetik":13847,"ökkel":13848,"attam":13849,"várom":13850,"ejtett":13851,"Szoci":13852,"tartva":13853,"tartjuk":13854,"tartalma":13855,"emberként":13856,"fiút":13857,"fice":13858,"külföldről":13859,"tank":13860,"órákat":13861,"sorok":13862,"belet":13863,"feje":13864,"támadott":13865,"abroncs":13866,"alapot":13867,"munkába":13868,"munkaid":13869,"kezdenek":13870,"óti":13871,"lang":13872,"engés":13873,"ugyanazt":13874,"holott":13875,"zsi":13876,"vállalni":13877,"vállalatot":13878,"alakít":13879,"jánál":13880,"hangját":13881,"tagú":13882,"messzi":13883,"fontosság":13884,"változása":13885,"kodik":13886,"társulat":13887,"történhetett":13888,"jegyzék":13889,"jegyeztek":13890,"Csuti":13891,"rendszerváltás":13892,"balkáni":13893,"okozni":13894,"fizetést":13895,"ext":13896,"ossága":13897,"amitől":13898,"állapította":13899,"csökkentik":13900,"rótt":13901,"ruház":13902,"csapatban":13903,"csapatkapitány":13904,"próbára":13905,"Közülük":13906,"zárni":13907,"ődő":13908,"gondolatait":13909,"díjra":13910,"emlékmű":13911,"olajembargó":13912,"időszaka":13913,"növekedni":13914,"negyedét":13915,"orda":13916,"Market":13917,"üzemben":13918,"vizsgálni":13919,"futás":13920,"ubor":13921,"tűzszünet":13922,"igényl":13923,"barátai":13924,"lelkileg":13925,"Nemzetek":13926,"kórus":13927,"összegét":13928,"összegzés":13929,"egymáshoz":13930,"szavazattal":13931,"méterről":13932,"pih":13933,"videón":13934,"elejétől":13935,"2001":13936,"istály":13937,"kórházak":13938,"bűnügyi":13939,"osztályának":13940,"használtak":13941,"vádolják":13942,"sohas":13943,"csökkenéssel":13944,"központot":13945,"húzott":13946,"húzódik":13947,"részletet":13948,"részleteit":13949,"haladék":13950,"vétellel":13951,"menekülni":13952,"vonatkoznak":13953,"esettel":13954,"oktatást":13955,"viszonyt":13956,"cserélni":13957,"fajták":13958,"kísérik":13959,"mozgott":13960,"fényt":13961,"munikációs":13962,"ültekint":13963,"kilométert":13964,"mélypont":13965,"izálni":13966,"kockázata":13967,"Olek":13968,"magánszemélyek":13969,"januárjában":13970,"szereplője":13971,"lövedék":13972,"márciusában":13973,"értekezlet":13974,"lábát":13975,"bukaresti":13976,"felhívni":13977,"éseivel":13978,"cikkben":13979,"hessék":13980,"egyedüli":13981,"gyűjtést":13982,"értékesített":13983,"lerohan":13984,"stagnál":13985,"szándékosan":13986,"feldolgozni":13987,"védelmére":13988,"Krisztina":13989,"italok":13990,"teremteni":13991,"Hungária":13992,"levegőt":13993,"módszertan":13994,"módszerrel":13995,"megkérdő":13996,"érezhető":13997,"Egészen":13998,"tüneteket":13999,"felületen":14000,"tábláz":14001,"Délután":14002,"kovács":14003,"büntetőeljárás":14004,"sima":14005,"kiválóan":14006,"javaslatok":14007,"jöj":14008,"Fehérvár":14009,"nyújtó":14010,"Háza":14011,"szennyezés":14012,"kompet":14013,"nagykövetség":14014,"krém":14015,"krízis":14016,"építőipari":14017,"bánya":14018,"bejegyzésben":14019,"elvégezni":14020,"nyereséget":14021,"menedzser":14022,"sebességgel":14023,"FTC":14024,"rontott":14025,"határozatot":14026,"aktivit":14027,"cipő":14028,"TASZ":14029,"paksi":14030,"Általában":14031,"értékelése":14032,"Merced":14033,"ajtót":14034,"Valójában":14035,"koszor":14036,"Folyam":14037,"közreműködésével":14038,"tartalmú":14039,"Bulgári":14040,"Teljes":14041,"temetőben":14042,"Ausztrália":14043,"barátnője":14044,"tempó":14045,"Szerbiában":14046,"hozzátartozó":14047,"napsütés":14048,"jusson":14049,"aukció":14050,"Agrárminisztérium":14051,"szeredai":14052,"Lapunk":14053,"Véleménye":14054,"Senki":14055,"cirkusz":14056,"dinamikus":14057,"Június":14058,"interjújában":14059,"Global":14060,"aszfalt":14061,"zarándok":14062,"Mikolajiv":14063,"fedélzet":14064,"Af":14065,"Ap":14066,"Any":14067,"Atom":14068,"CI":14069,"Cy":14070,"DAC":14071,"Fo":14072,"Fér":14073,"Gratul":14074,"Hern":14075,"Iván":14076,"Jon":14077,"Kur":14078,"Kata":14079,"Mez":14080,"Mobil":14081,"OSZ":14082,"OMSZ":14083,"Pan":14084,"Pay":14085,"Polit":14086,"Shan":14087,"Tri":14088,"V4":14089,"Vállal":14090,"ahelyett":14091,"bis":14092,"begy":14093,"bért":14094,"bón":14095,"birkóz":14096,"dir":14097,"dand":14098,"gum":14099,"hám":14100,"kval":14101,"kei":14102,"kendő":14103,"kkv":14104,"mati":14105,"rozs":14106,"sam":14107,"salak":14108,"tészt":14109,"ys":14110,
[...]
