{"version":"1.0","truncation":null,"padding":null,"added_tokens":[{"id":0,"special":true,"content":"<UNK>","single_word":false,"lstrip":false,"rstrip":false,"normalized":false},{"id":1,"special":true,"content":"<SEP>","single_word":false,"lstrip":false,"rstrip":false,"normalized":false},{"id":2,"special":true,"content":"<MASK>","single_word":false,"lstrip":false,"rstrip":false,"normalized":false},{"id":3,"special":true,"content":"<CLS>","single_word":false,"lstrip":false,"rstrip":false,"normalized":false}],"normalizer":null,"pre_tokenizer":{"type":"Whitespace"},"post_processor":null,"decoder":null,"model":{"type":"BPE","dropout":null,"unk_token":"<UNK>","continuing_subword_prefix":null,"end_of_word_suffix":null,"fuse_unk":false,"vocab":{"<UNK>":0,"<SEP>":1,"<MASK>":2,"<CLS>":3,"!":4,"\"":5,"$":6,"%":7,"&":8,"'":9,"(":10,")":11,"*":12,"+":13,",":14,"-":15,".":16,"/":17,"0":18,"1":19,"2":20,"3":21,"4":22,"5":23,"6":24,"7":25,"8":26,"9":27,":":28,";":29,"<":30,">":31,"?":32,"A":33,"B":34,"C":35,"D":36,"E":37,"F":38,"G":39,"H":40,"I":41,"J":42,"K":43,"L":44,"M":45,"N":46,"O":47,"P":48,"Q":49,"R":50,"S":51,"T":52,"U":53,"V":54,"W":55,"X":56,"Y":57,"Z":58,"a":59,"b":60,"c":61,"d":62,"e":63,"f":64,"g":65,"h":66,"i":67,"j":68,"k":69,"l":70,"m":71,"n":72,"o":73,"p":74,"q":75,"r":76,"s":77,"t":78,"u":79,"v":80,"w":81,"x":82,"y":83,"z":84,"~":85,"§":86,"«":87,"®":88,"°":89,"²":90,"³":91,"´":92,"µ":93,"·":94,"»":95,"Á":96,"Ä":97,"Å":98,"Ç":99,"È":100,"É":101,"Í":102,"Ó":103,"Õ":104,"Ö":105,"×":106,"Ø":107,"Ú":108,"Ü":109,"à":110,"á":111,"â":112,"ã":113,"ä":114,"å":115,"ç":116,"è":117,"é":118,"ë":119,"í":120,"î":121,"ï":122,"ð":123,"ñ":124,"ò":125,"ó":126,"ô":127,"õ":128,"ö":129,"ø":130,"ú":131,"û":132,"ü":133,"ý":134,"ā":135,"ă":136,"Ć":137,"ć":138,"Č":139,"č":140,"Ď":141,"ď":142,"Đ":143,"đ":144,"ę":145,"ě":146,"ğ":147,"Ľ":148,"ľ":149,"ł":150,"ń":151,"ň":152,"Ő":153,"ő":154,"ř":155,"Ş":156,"ş":157,"Š":158,"š":159,"Ţ":160,"ţ":161,"ť":162,"Ű":163,"ű":164,"Ž":165,"ž":166,"Ș":167,"ș":168,"Ț":169,"ț":170,"ʼ":171,"́":172,"̈":173,"̋":174,"β":175,"μ":176,"‐":177,"‑":178,"‒":179,"–":180,"—":181,"‘":182,"’":183,"“":184,"”":185,"„":186,"†":187,"•":188,"…":189,"‼":190,"€":191,"−":192,"❗":193,"➡":194,"﷯":195,"️":196,"sz":197,"el":198,"et":199,"en":200,"gy":201,"er":202,"at":203,"al":204,"an":205,"az":206,"ek":207,"és":208,"ak":209,"or":210,"ár":211,"in":212,"em":213,"on":214,"ol":215,"ál":216,"eg":217,"ás":218,"ez":219,"is":220,"es":221,"án":222,"tt":223,"ok":224,"ér":225,"ar":226,"ég":227,"ho":228,"ik":229,"én":230,"egy":231,"os":232,"kö":233,"bb":234,"cs":235,"át":236,"ül":237,"ett":238,"am":239,"ít":240,"él":241,"meg":242,"ág":243,"ap":244,"hogy":245,"ék":246,"ban":247,"ét":248,"ed":249,"int":250,"ad":251,"ben":252,"ott":253,"szer":254,"agy":255,"il":256,"szt":257,"oz":258,"it":259,"ra":260,"ut":261,"ki":262,"om":263,"re":264,"ség":265,"ta":266,"nem":267,"köz":268,"ny":269,"ig":270,"fel":271,"ni":272,"tö":273,"ól":274,"ja":275,"ul":276,"le":277,"ák":278,"áz":279,"áll":280,"ell":281,"be":282,"ép":283,"og":284,"ely":285,"nk":286,"as":287,"aj":288,"hat":289,"ai":290,"nak":291,"ent":292,"ész":293,"ány":294,"ám":295,"het":296,"év":297,"ény":298,"ért":299,"nek":300,"kor":301,"elő":302,"Az":303,"iz":304,"id":305,"val":306,"olt":307,"ag":308,"ot":309,"te":310,"ind":311,"mi":312,"ci":313,"ság":314,"leg":315,"uk":316,"end":317,"jel":318,"ter":319,"us":320,"vez":321,"ől":322,"kez":323,"ált":324,"for":325,"od":326,"unk":327,"ont":328,"szág":329,"art":330,"ön":331,"ország":332,"hoz":333,"hely":334,"ud":335,"ír":336,"oly":337,"ös":338,"de":339,"ve":340,"ber":341,"szám":342,"ók":343,"ne":344,"nagy":345,"ök":346,"ond":347,"nap":348,"volt":349,"ha":350,"vet":351,"ill":352,"ük":353,"rend":354,"már":355,"mind":356,"ker":357,"ov":358,"több":359,"att":360,"ább":361,"szerint":362,"ők":363,"agyar":364,"ur":365,"20":366,"áb":367,"ában":368,"kal":369,"új":370,"öl":371,"sza":372,"vár":373,"tel":374,"ént":375,"elm":376,"ej":377,"ében":378,"fog":379,"ült":380,"Sz":381,"ív":382,"osz":383,"pr":384,"tart":385,"eket":386,"úl":387,"hi":388,"ött":389,"ős":390,"ára":391,"kap":392,"olg":393,"mű":394,"vezet":395,"száz":396,"ások":397,"van":398,"jelent":399,"vel":400,"ette":401,"ia":402,"ked":403,"tud":404,"azt":405,"éd":406,"ember":407,"lehet":408,"ert":409,"kép":410,"éz":411,"tör":412,"ját":413,"fi":414,"vég":415,"kül":416,"szak":417,"még":418,"len":419,"kell":420,"ció":421,"más":422,"csak":423,"iszt":424,"alék":425,"ör":426,"jár":427,"mag":428,"mint":429,"zet":430,"biz":431,"amely":432,"ba":433,"százalék":434,"ep":435,"után":436,"ály":437,"vál":438,"ebb":439,"ped":440,"ása":441,"ir":442,"ése":443,"vagy":444,"ást":445,"ják":446,"ajd":447,"aszt":448,"koz":449,"tal":450,"ház":451,"össz":452,"ról":453,"est":454,"vis":455,"ünk":456,"sem":457,"pedig":458,"nál":459,"tat":460,"um":461,"ület":462,"ony":463,"két":464,"érd":465,"ügy":466,"mény":467,"obb":468,"ély":469,"ezt":470,"okat":471,"min":472,"áj":473,"öv":474,"ód":475,"szem":476,"na":477,"mány":478,"ső":479,"ést":480,"Ez":481,"ellen":482,"ami":483,"ható":484,"tak":485,"tár":486,"rész":487,"ió":488,"ított":489,"magyar":490,"ának":491,"vi":492,"követ":493,"abb":494,"fő":495,"né":496,"elt":497,"ző":498,"minden":499,"mond":500,"tan":501,"mill":502,"pont":503,"ei":504,"lát":505,"ort":506,"han":507,"azon":508,"old":509,"ór":510,"ére":511,"foly":512,"kör":513,"hal":514,"őr":515,"gyan":516,"uró":517,"ín":518,"sor":519,"let":520,"ver":521,"orosz":522,"hez":523,"ád":524,"va":525,"je":526,"ug":527,"alm":528,"Egy":529,"idő":530,"ási":531,"majd":532,"bel":533,"fej":534,"sok":535,"vil":536,"esen":537,"any":538,"élet":539,"im":540,"ének":541,"eny":542,"utat":543,"tám":544,"ogat":545,"op":546,"kel":547,"áció":548,"eset":549,"lesz":550,"nök":551,"ab":552,"ult":553,"alap":554,"munk":555,"st":556,"ism":557,"véd":558,"ovább":559,"nő":560,"vált":561,"íz":562,"aki":563,"ost":564,"akkor":565,"raj":566,"kezd":567,"zés":568,"bizt":569,"kész":570,"ával":571,"árt":572,"emel":573,"ót":574,"ob":575,"ális":576,"forint":577,"világ":578,"ós":579,"üz":580,"men":581,"így":582,"Magyar":583,"yen":584,"úgy":585,"miatt":586,"között":587,"tovább":588,"von":589,"ból":590,"tört":591,"aság":592,"emény":593,"lak":594,"ikai":595,"osan":596,"olyan":597,"atok":598,"tet":599,"kormány":600,"ítás":601,"lan":602,"eni":603,"előtt":604,"tek":605,"csap":606,"ről":607,"város":608,"ési":609,"Or":610,"eng":611,"azd":612,"első":613,"szín":614,"érték":615,"kis":616,"uróp":617,"di":618,"ilyen":619,"ugyan":620,"kol":621,"szab":622,"hol":623,"mell":624,"hét":625,"mér":626,"asz":627,"00":628,"zs":629,"har":630,"fél":631,"rán":632,"hasz":633,"ből":634,"elnök":635,"út":636,"állal":637,"elem":638,"ün":639,"ések":640,"dön":641,"öz":642,"ábor":643,"ként":644,"igaz":645,"nél":646,"vállal":647,"gat":648,"eszt":649,"hető":650,"hozz":651,"atal":652,"telj":653,"erg":654,"gazd":655,"nyi":656,"eb":657,"vas":658,"miniszt":659,"jelen":660,"esz":661,"term":662,"utó":663,"ink":664,"202":665,"azonban":666,"ani":667,"seg":668,"ch":669,"szint":670,"vény":671,"szél":672,"egész":673,"kapcs":674,"egyik":675,"lő":676,"ták":677,"Nem":678,"vezető":679,"ikus":680,"par":681,"ikor":682,"dolg":683,"ász":684,"éves":685,"gyer":686,"talál":687,"ev":688,"által":689,"oszt":690,"étel":691,"ló":692,"árd":693,"szen":694,"elmi":695,"hár":696,"ment":697,"adás":698,"alak":699,"lt":700,"etlen":701,"jó":702,"segít":703,"per":704,"juk":705,"mert":706,"ma":707,"föl":708,"erős":709,"játék":710,"fér":711,"19":712,"csal":713,"külön":714,"való":715,"esít":716,"mondta":717,"ével":718,"ran":719,"port":720,"szolg":721,"kat":722,"nagyobb":723,"mellett":724,"dig":725,"ati":726,"arra":727,"most":728,"mar":729,"bet":730,"haj":731,"össze":732,"száll":733,"Magyarország":734,"millió":735,"pol":736,"ján":737,"ukrán":738,"oldal":739,"font":740,"kapcsol":741,"hábor":742,"pl":743,"enek":744,"vol":745,"saj":746,"köd":747,"támogat":748,"ökk":749,"sal":750,"últ":751,"ését":752,"őség":753,"éter":754,"form":755,"visz":756,"tó":757,"hang":758,"un":759,"óta":760,"eked":761,"keres":762,"használ":763,"ezer":764,"tag":765,"ütt":766,"ásár":767,"ered":768,"közös":769,"sik":770,"gond":771,"lép":772,"miniszter":773,"rá":774,"énz":775,"valam":776,"három":777,"av":778,"eti":779,"közel":780,"érkez":781,"ém":782,"korább":783,"cél":784,"vesz":785,"energ":786,"nagyon":787,"csökk":788,"mes":789,"milli":790,"fiz":791,"ram":792,"választ":793,"öt":794,"ata":795,"adó":796,"haz":797,"dolgoz":798,"állam":799,"határ":800,"együtt":801,"ező":802,"cég":803,"gazdaság":804,"vány":805,"Európ":806,"milliárd":807,"figy":808,"érdek":809,"pénz":810,"tött":811,"pár":812,"zel":813,"ását":814,"ács":815,"dönt":816,"ettek":817,"ford":818,"űn":819,"család":820,"őz":821,"ették":822,"jobb":823,"kérd":824,"kon":825,"alatt":826,"fontos":827,"háború":828,"viz":829,"hagy":830,"helyzet":831,"dr":832,"változ":833,"hon":834,"úly":835,"vissza":836,"terület":837,"kom":838,"akik":839,"ekt":840,"oló":841,"nok":842,"kod":843,"társ":844,"íg":845,"dí":846,"tér":847,"Uk":848,"ván":849,"atkoz":850,"atot":851,"súly":852,"ából":853,"történ":854,"biztos":855,"jegy":856,"pia":857,"szerep":858,"ába":859,"Cs":860,"siker":861,"éld":862,"alkal":863,"működ":864,"rendszer":865,"folyam":866,"eml":867,"bal":868,"amikor":869,"lal":870,"ri":871,"erő":872,"szerű":873,"incs":874,"lét":875,"Ukraj":876,"ors":877,"nyug":878,"intéz":879,"kív":880,"következ":881,"hozzá":882,"szük":883,"10":884,"fü":885,"hó":886,"hív":887,"vers":888,"gáz":889,"észt":890,"inek":891,"mek":892,"szeret":893,"marad":894,"péld":895,"vásár":896,"eh":897,"séges":898,"emelked":899,"beszél":900,"illet":901,"ító":902,"ogy":903,"óz":904,"szó":905,"pály":906,"szól":907,"jog":908,"mutat":909,"ic":910,"fl":911,"usz":912,"kön":913,"polit":914,"anak":915,"jöv":916,"Orosz":917,"eken":918,"megy":919,"okoz":920,"számára":921,"tá":922,"anyag":923,"baj":924,"ahol":925,"hír":926,"enc":927,"személy":928,"kit":929,"An":930,"ko":931,"leszt":932,"fizet":933,"ségi":934,"der":935,"gal":936,"épít":937,"gel":938,"magas":939,"itt":940,"ing":941,"ex":942,"másod":943,"egyed":944,"omb":945,"arról":946,"hiv":947,"kam":948,"15":949,"százalékkal":950,"oll":951,"ezte":952,"valamint":953,"mely":954,"br":955,"verseny":956,"hónap":957,"ssz":958,"osság":959,"onság":960,"ac":961,"eredmény":962,"tól":963,"növ":964,"Oroszország":965,"közl":966,"kil":967,"közöl":968,"nyil":969,"rég":970,"foglal":971,"négy":972,"iai":973,"kar":974,"esség":975,"dél":976,"ogram":977,"ide":978,"Ha":979,"gyak":980,"iskol":981,"lap":982,"ismer":983,"lett":984,"and":985,"adott":986,"omány":987,"ezett":988,"vétel":989,"ően":990,"rendőr":991,"amit":992,"cí":993,"nemzet":994,"nyom":995,"ülés":996,"felelő":997,"őt":998,"kapcsolat":999,"túl":1000,"ög":1001,"szor":1002,"uszt":1003,"egyen":1004,"mód":1005,"őket":1006,"adat":1007,"állap":1008,"volna":1009,"has":1010,"annak":1011,"olgár":1012,"ször":1013,"rendel":1014,"ób":1015,"ekkel":1016,"körül":1017,"elmúlt":1018,"kerül":1019,"lat":1020,"uló":1021,"lam":1022,"hiszen":1023,"szabad":1024,"ásokat":1025,"okban":1026,"tor":1027,"ésre":1028,"fejleszt":1029,"met":1030,"hát":1031,"ciók":1032,"sel":1033,"Nagy":1034,"ekben":1035,"úz":1036,"űz":1037,"rom":1038,"úja":1039,"áltat":1040,"maz":1041,"Gy":1042,"viszont":1043,"csökkent":1044,"ugyanis":1045,"ezért":1046,"előre":1047,"ec":1048,"részt":1049,"ául":1050,"sér":1051,"bár":1052,"fr":1053,"sg":1054,"jövő":1055,"bar":1056,"költ":1057,"autó":1058,"hány":1059,"Mi":1060,"polgár":1061,"állít":1062,"illetve":1063,"eddig":1064,"hanem":1065,"ással":1066,"ró":1067,"ru":1068,"sége":1069,"néz":1070,"lehetőség":1071,"udap":1072,"gyermek":1073,"férfi":1074,"Mind":1075,"bizony":1076,"biztonság":1077,"gg":1078,"só":1079,"udapest":1080,"ank":1081,"csapat":1082,"pen":1083,"almaz":1084,"of":1085,"program":1086,"jut":1087,"mel":1088,"jelenleg":1089,"irány":1090,"ium":1091,"nincs":1092,"nyit":1093,"oport":1094,"képvis":1095,"moz":1096,"mad":1097,"kev":1098,"ti":1099,"energia":1100,"In":1101,"fogy":1102,"tiszt":1103,"munka":1104,"valy":1105,"akar":1106,"esebb":1107,"második":1108,"30":1109,"vizsg":1110,"vő":1111,"ásra":1112,"prób":1113,"vél":1114,"víz":1115,"Köz":1116,"függ":1117,"ügyi":1118,"eség":1119,"ésére":1120,"gyű":1121,"18":1122,"séget":1123,"zár":1124,"jelentős":1125,"kívül":1126,"lag":1127,"őd":1128,"2022":1129,"amer":1130,"El":1131,"ói":1132,"kés":1133,"milyen":1134,"akár":1135,"újabb":1136,"si":1137,"ven":1138,"csoport":1139,"gondol":1140,"jük":1141,"például":1142,"tem":1143,"ottak":1144,"tette":1145,"rd":1146,"orv":1147,"díj":1148,"otta":1149,"bír":1150,"ték":1151,"ája":1152,"piac":1153,"kí":1154,"szav":1155,"folytat":1156,"saját":1157,"került":1158,"bajnok":1159,"műv":1160,"perc":1161,"ológ":1162,"szervezet":1163,"történt":1164,"reg":1165,"közölte":1166,"szik":1167,"euró":1168,"atlan":1169,"elmond":1170,"beteg":1171,"százalékos":1172,"nélkül":1173,"szolgáltat":1174,"ítani":1175,"zett":1176,"gyors":1177,"tett":1178,"legnagyobb":1179,"vannak":1180,"ttal":1181,"ros":1182,"övet":1183,"teljes":1184,"korábban":1185,"nép":1186,"gazdasági":1187,"gép":1188,"azért":1189,"bbi":1190,"mester":1191,"lég":1192,"amerikai":1193,"helyi":1194,"jól":1195,"bán":1196,"bank":1197,"fiatal":1198,"emlék":1199,"esült":1200,"mit":1201,"észet":1202,"emberek":1203,"szabály":1204,"ához":1205,"ította":1206,"belül":1207,"től":1208,"mindig":1209,"azok":1210,"doll":1211,"katon":1212,"ef":1213,"50":1214,"rec":1215,"gató":1216,"nal":1217,"inkább":1218,"érint":1219,"éb":1220,"ellát":1221,"találkoz":1222,"oztat":1223,"tavaly":1224,"tő":1225,"jelentette":1226,"során":1227,"lőd":1228,"ozz":1229,"körny":1230,"szön":1231,"szemben":1232,"lány":1233,"kereszt":1234,"kér":1235,"ülő":1236,"iség":1237,"abban":1238,"üntet":1239,"harmad":1240,"kl":1241,"tiz":1242,"almas":1243,"hazai":1244,"kár":1245,"12":1246,"szolgál":1247,"ham":1248,"hivatal":1249,"olaj":1250,"telep":1251,"védelmi":1252,"En":1253,"uty":1254,"szi":1255,"ezek":1256,"nőtt":1257,"újra":1258,"vit":1259,"éről":1260,"infl":1261,"ített":1262,"enn":1263,"közi":1264,"föld":1265,"De":1266,"amelyek":1267,"folyamat":1268,"időszak":1269,"chn":1270,"Szer":1271,"alapján":1272,"oda":1273,"ull":1274,"idén":1275,"kutat":1276,"ására":1277,"álló":1278,"növeked":1279,"negyed":1280,"nö":1281,"gyerek":1282,"ess":1283,"forr":1284,"hason":1285,"14":1286,"aton":1287,"európ":1288,"éssel":1289,"eztet":1290,"ord":1291,"Ny":1292,"európai":1293,"Mar":1294,"figyelm":1295,"üzem":1296,"enged":1297,"ant":1298,"tervez":1299,"másik":1300,"zi":1301,"ozott":1302,"jában":1303,"ka":1304,"elér":1305,"ződ":1306,"gyakor":1307,"16":1308,"vizsgál":1309,"őbb":1310,"alom":1311,"Ál":1312,"fut":1313,"ozó":1314,"ozat":1315,"nevez":1316,"zal":1317,"éve":1318,"ájék":1319,"up":1320,"közül":1321,"veszély":1322,"idej":1323,"cia":1324,"egyre":1325,"hatóság":1326,"mos":1327,"tam":1328,"ub":1329,"ánd":1330,"eit":1331,"köszön":1332,"fogyaszt":1333,"képviselő":1334,"ezet":1335,"csi":1336,"veszt":1337,"készül":1338,"hit":1339,"eszköz":1340,"termék":1341,"míg":1342,"uni":1343,"csat":1344,"ottság":1345,"tűz":1346,"ennek":1347,"gyal":1348,"Meg":1349,"ezzel":1350,"mik":1351,"árak":1352,"fogad":1353,"rendez":1354,"Budapest":1355,"nyer":1356,"had":1357,"mer":1358,"okkal":1359,"dar":1360,"fek":1361,"zék":1362,"vá":1363,"str":1364,"önk":1365,"hiány":1366,"mai":1367,"ón":1368,"egyes":1369,"mal":1370,"lenne":1371,"alk":1372,"Ukrajn":1373,"szív":1374,"átlag":1375,"ációs":1376,"átt":1377,"utol":1378,"fil":1379,"kellett":1380,"13":1381,"hall":1382,"igény":1383,"kő":1384,"barát":1385,"Ki":1386,"fegy":1387,"rendelkez":1388,"szület":1389,"írus":1390,"obl":1391,"lév":1392,"árs":1393,"ásban":1394,"további":1395,"tekint":1396,"ck":1397,"voltak":1398,"Európai":1399,"part":1400,"teljesít":1401,"dollár":1402,"elég":1403,"etem":1404,"bor":1405,"ismert":1406,"Már":1407,"egyéb":1408,"törtö":1409,"ütörtö":1410,"lel":1411,"felé":1412,"számít":1413,"17":1414,"őv":1415,"inak":1416,"megold":1417,"ay":1418,"hu":1419,"győz":1420,"ulajd":1421,"nev":1422,"újt":1423,"telen":1424,"rak":1425,"hatnak":1426,"jai":1427,"sp":1428,"szervez":1429,"ass":1430,"iss":1431,"probl":1432,"néhány":1433,"pént":1434,"halál":1435,"rel":1436,"játsz":1437,"oj":1438,"aut":1439,"tit":1440,"leges":1441,"szükség":1442,"ánt":1443,"vend":1444,"könny":1445,"országban":1446,"ákat":1447,"továbbra":1448,"otthon":1449,"követően":1450,"test":1451,"Nemzet":1452,"párt":1453,"koron":1454,"költség":1455,"elmondta":1456,"évben":1457,"következő":1458,"szár":1459,"ekre":1460,"ünne":1461,"kór":1462,"ították":1463,"rit":1464,"asztal":1465,"végén":1466,"nov":1467,"atív":1468,"hossz":1469,"különb":1470,"Ar":1471,"ebben":1472,"összeg":1473,"ipar":1474,"ájékoztat":1475,"inform":1476,"héz":1477,"mivel":1478,"lov":1479,"azzal":1480,"egymás":1481,"ulajdon":1482,"fin":1483,"mod":1484,"ro":1485,"Ukrajna":1486,"ika":1487,"elés":1488,"techn":1489,"ukat":1490,"napi":1491,"keresked":1492,"sport":1493,"ókat":1494,"óra":1495,"kapott":1496,"25":1497,"Er":1498,"lás":1499,"ezés":1500,"szavaz":1501,"ron":1502,"alá":1503,"érte":1504,"nehéz":1505,"vissz":1506,"ormány":1507,"alkalmaz":1508,"Azt":1509,"ala":1510,"lévő":1511,"korábbi":1512,"próbál":1513,"olni":1514,"lik":1515,"bér":1516,"száma":1517,"bo":1518,"nyilván":1519,"helyen":1520,"éhez":1521,"els":1522,"méter":1523,"rep":1524,"helyett":1525,"pal":1526,"zen":1527,"szank":1528,"heti":1529,"Egyesült":1530,"utolsó":1531,"csütörtö":1532,"hő":1533,"ozás":1534,"épület":1535,"indul":1536,"képest":1537,"okon":1538,"talan":1539,"vendég":1540,"pi":1541,"gyárt":1542,"eknek":1543,"ezni":1544,"megfelelő":1545,"magát":1546,"harc":1547,"utc":1548,"fenn":1549,"hál":1550,"SZ":1551,"közben":1552,"fal":1553,"vide":1554,"üt":1555,"gó":1556,"polgármester":1557,"orvos":1558,"szig":1559,"szerd":1560,"Al":1561,"köny":1562,"óri":1563,"alakul":1564,"lott":1565,"csú":1566,"mérték":1567,"tíz":1568,"kötel":1569,"értelm":1570,"készít":1571,"foglalkoz":1572,"11":1573,"ismét":1574,"üzlet":1575,"Mint":1576,"fegyver":1577,"igazgató":1578,"uház":1579,"jú":1580,"úr":1581,"érdem":1582,"Magyarországon":1583,"infláció":1584,"elej":1585,"erre":1586,"tap":1587,"alább":1588,"előző":1589,"2021":1590,"kik":1591,"utóbbi":1592,"tulajdon":1593,"oknak":1594,"várható":1595,"széd":1596,"assz":1597,"vállalkoz":1598,"egészség":1599,"szék":1600,"járvány":1601,"ános":1602,"ormányz":1603,"akad":1604,"Orbán":1605,"ús":1606,"erősít":1607,"sikerült":1608,"lab":1609,"fogalmaz":1610,"tartott":1611,"hasonló":1612,"áról":1613,"szintén":1614,"felt":1615,"ept":1616,"nai":1617,"szomb":1618,"neki":1619,"ang":1620,"harmadik":1621,"esemény":1622,"200":1623,"mintegy":1624,"törvény":1625,"ahogy":1626,"éj":1627,"ölt":1628,"később":1629,"ly":1630,"sze":1631,"hétfő":1632,"ist":1633,"kisebb":1634,"kórház":1635,"fert":1636,"sék":1637,"ítása":1638,"Péter":1639,"szok":1640,"édes":1641,"fok":1642,"öld":1643,"ür":1644,"képes":1645,"éseket":1646,"legjobb":1647,"bűn":1648,"óság":1649,"érdekében":1650,"gól":1651,"áld":1652,"színű":1653,"jon":1654,"gyel":1655,"földi":1656,"40":1657,"rem":1658,"ellem":1659,"vállalat":1660,"nemzetközi":1661,"annyi":1662,"kir":1663,"usban":1664,"állt":1665,"tanul":1666,"üzd":1667,"osztály":1668,"társaság":1669,"elet":1670,"éppen":1671,"segítség":1672,"jön":1673,"szül":1674,"áját":1675,"szabb":1676,"válasz":1677,"városi":1678,"vasár":1679,"olc":1680,"vér":1681,"özben":1682,"helyszín":1683,"aján":1684,"küld":1685,"talált":1686,"komoly":1687,").":1688,"se":1689,"var":1690,"fordul":1691,"nyilatkoz":1692,"jának":1693,"ral":1694,"ine":1695,"miniszterelnök":1696,"üket":1697,"elleni":1698,"érkezett":1699,"hitel":1700,"ánc":1701,"),":1702,"24":1703,"rag":1704,"évvel":1705,"ehér":1706,"öbb":1707,"köt":1708,"hetnek":1709,"írta":1710,"haszn":1711,"vád":1712,"ánk":1713,"kider":1714,"készült":1715,"közösségi":1716,"MT":1717,"ógy":1718,"javas":1719,"intézmény":1720,"magasabb":1721,"ern":1722,"teljesen":1723,"ékony":1724,"támad":1725,"uniós":1726,"hosszú":1727,"kett":1728,"nia":1729,"jt":1730,"olta":1731,"szövet":1732,"természet":1733,"közlemény":1734,"keret":1735,"kezdőd":1736,"elni":1737,"Puty":1738,"li":1739,"intézked":1740,"önkormányz":1741,"áig":1742,"eli":1743,"csom":1744,"megállap":1745,"sokkal":1746,"ári":1747,"játékos":1748,"létre":1749,"so":1750,"című":1751,"német":1752,"atos":1753,"tölt":1754,"csökken":1755,"Ist":1756,"ista":1757,"este":1758,"jött":1759,"etés":1760,"ékeny":1761,"jav":1762,"adásul":1763,"miután":1764,"tárgyal":1765,"átette":1766,"közép":1767,"felhasznál":1768,"táv":1769,"Állam":1770,"Vik":1771,"amelyet":1772,"bem":1773,"küzd":1774,"öm":1775,"végül":1776,"része":1777,"eptember":1778,"tűn":1779,"köl":1780,"számolt":1781,"hetően":1782,"alkot":1783,"ved":1784,"esetben":1785,"fot":1786,"mikor":1787,"arány":1788,"tani":1789,"oldalán":1790,"avírus":1791,"érium":1792,"szk":1793,"központ":1794,"ideg":1795,"ukraj":1796,"múlt":1797,"áv":1798,"ennyi":1799,"ozta":1800,"övid":1801,"ellenére":1802,"ukrajnai":1803,"húz":1804,"anu":1805,"elnöke":1806,"súlyos":1807,"rossz":1808,"részlet":1809,"elmiszer":1810,"keresztül":1811,"olvas":1812,"Ezt":1813,"igen":1814,"tény":1815,"ségek":1816,"közleked":1817,"Putyin":1818,"Kr":1819,"sen":1820,"her":1821,"műsor":1822,"utaz":1823,"számos":1824,"NA":1825,"ene":1826,"valós":1827,"fa":1828,"lakosság":1829,"koronavírus":1830,"100":1831,"ébe":1832,"végre":1833,"drág":1834,"okra":1835,"dec":1836,"halad":1837,"tóber":1838,"vét":1839,"problém":1840,"akció":1841,"adatok":1842,"utas":1843,"jából":1844,"élelmiszer":1845,"nyel":1846,"kos":1847,"űr":1848,"”.":1849,"ászló":1850,"kérdés":1851,"ünnep":1852,"cik":1853,"mec":1854,"tunk":1855,"akt":1856,"ásával":1857,"ezték":1858,"mennyi":1859,"politikai":1860,"reggel":1861,"pill":1862,"legyen":1863,"2020":1864,"szenved":1865,"tanács":1866,"héten":1867,"hajt":1868,"tük":1869,"eljár":1870,"menek":1871,"történet":1872,"kapcsolatban":1873,"válság":1874,"kevesebb":1875,"Bal":1876,"hull":1877,"ner":1878,"írja":1879,"vezetője":1880,"nie":1881,"mező":1882,"élő":1883,"szerződ":1884,"korlát":1885,"november":1886,"tájékoztat":1887,"gyógy":1888,"átor":1889,"fektet":1890,"felelős":1891,"ától":1892,"vonatkoz":1893,"friss":1894,"da":1895,"esett":1896,"hetetlen":1897,"tapasztal":1898,"öző":1899,"akat":1900,"december":1901,"környezet":1902,"ah":1903,"szinte":1904,"Ennek":1905,"vasárnap":1906,"állás":1907,"ezen":1908,"legalább":1909,"gyűl":1910,"egyház":1911,"forgal":1912,"országi":1913,"uguszt":1914,"katonai":1915,"oktat":1916,"ítja":1917,"nyolc":1918,"évek":1919,"maga":1920,"viszony":1921,"egyébként":1922,"Fer":1923,"rövid":1924,"csony":1925,"film":1926,"den":1927,"bele":1928,"tized":1929,"EU":1930,"ket":1931,"bejelent":1932,"sorozat":1933,"hamar":1934,"cser":1935,"enger":1936,"MTI":1937,"rek":1938,"ésével":1939,"szent":1940,"százaléka":1941,"Európa":1942,"jed":1943,"hogyan":1944,"szeptember":1945,"ilis":1946,"kény":1947,"elen":1948,"energi":1949,"technológ":1950,"bíz":1951,"ion":1952,"son":1953,"elek":1954,"fogalmazott":1955,"egyelőre":1956,"áram":1957,"eget":1958,"konc":1959,"rendőrség":1960,"Biz":1961,"ves":1962,"legtöbb":1963,"jármű":1964,"land":1965,"szükséges":1966,"he":1967,"vett":1968,"ották":1969,"hangsúly":1970,"alacsony":1971,"válogat":1972,"esetében":1973,"bajnokság":1974,"büntet":1975,"fed":1976,"tev":1977,"kéz":1978,"poz":1979,"mindenki":1980,"baleset":1981,"utt":1982,"encs":1983,"menny":1984,"lament":1985,"inál":1986,"először":1987,"vonal":1988,"kőzés":1989,"emelte":1990,"cím":1991,"egyetlen":1992,"piaci":1993,"Viktor":1994,"ésének":1995,"ingat":1996,"október":1997,"beruház":1998,"száml":1999,"örgy":2000,"rancia":2001,"mérkőzés":2002,"sért":2003,"vagyok":2004,"délután":2005,"szakért":2006,"brit":2007,"Deb":2008,"II":2009,"öd":2010,"szép":2011,"nehez":2012,"beszélt":2013,"Bár":2014,"bék":2015,"forintot":2016,"valószínű":2017,"hatja":2018,"endő":2019,"ünet":2020,"essz":2021,"idei":2022,"indult":2023,"ésben":2024,"jét":2025,"vette":2026,"egyszerű":2027,"lep":2028,"plom":2029,"Debrec":2030,"énk":2031,"szállít":2032,"király":2033,"Ugyan":2034,"Zs":2035,"éből":2036,"kevés":2037,"ándék":2038,"zaj":2039,"úttal":2040,"döntött":2041,"megyei":2042,"ugyanakkor":2043,"efon":2044,"ten":2045,"azonnal":2046,"mérsék":2047,"fontosabb":2048,"kín":2049,"ton":2050,"szeretn":2051,"Nemzeti":2052,"László":2053,"rez":2054,"tehát":2055,"meccs":2056,"iv":2057,"igy":2058,"forduló":2059,"szankciók":2060,"faj":2061,"egyszer":2062,"idős":2063,"bőv":2064,"erd":2065,"áni":2066,"zése":2067,"émi":2068,"élt":2069,"nyert":2070,"tevékeny":2071,"ingatlan":2072,"gyeng":2073,"forg":2074,"elején":2075,"telefon":2076,"vele":2077,"mények":2078,"ebru":2079,"kamat":2080,"auguszt":2081,"növel":2082,"pénteken":2083,"60":2084,"ereg":2085,"kori":2086,"rendkívül":2087,"ezelőtt":2088,"látogat":2089,"mennyiség":2090,"hos":2091,"kísér":2092,"sokat":2093,"ellenőr":2094,"rt":2095,"Úgy":2096,"döntő":2097,"Bar":2098,"Több":2099,"nyújt":2100,"adék":2101,"emelt":2102,"rendőrök":2103,"Most":2104,"St":2105,"tuk":2106,"benne":2107,"óg":2108,"bemutat":2109,"Hozz":2110,"részvény":2111,"vid":2112,"orban":2113,"biztonsági":2114,"könyv":2115,"érdemes":2116,"közvet":2117,"befektet":2118,"állapot":2119,"csomag":2120,"za":2121,"kedvez":2122,"biztosít":2123,"nyugati":2124,"elekt":2125,"ens":2126,"Szab":2127,"ódott":2128,"látható":2129,"pillan":2130,"sa":2131,"előny":2132,"80":2133,"áson":2134,"ettel":2135,"proj":2136,"úli":2137,"alkalm":2138,"ke":2139,"miközben":2140,"István":2141,"tenger":2142,"ong":2143,"állítás":2144,"szakasz":2145,"politikus":2146,"Minden":2147,"bi":2148,"til":2149,"vad":2150,"ólag":2151,"bíróság":2152,"kifej":2153,"csütörtökön":2154,"fenntart":2155,"gl":2156,"ina":2157,"dob":2158,"minisztérium":2159,"mozg":2160,"ca":2161,"dal":2162,"töl":2163,"tesz":2164,"érdeklőd":2165,"folyamatosan":2166,"Ferenc":2167,"23":2168,"ásának":2169,"mindent":2170,"atták":2171,"maradt":2172,"színész":2173,"művész":2174,"fehér":2175,"ítette":2176,"Ezek":2177,"hird":2178,"ítottak":2179,"émet":2180,"jobban":2181,"Br":2182,"fény":2183,"mun":2184,"ilag":2185,"jelentkez":2186,"kínál":2187,"különböző":2188,"ítő":2189,"itány":2190,"tudja":2191,"alkalom":2192,"fű":2193,"tur":2194,"vill":2195,"nemcsak":2196,"hatalmas":2197,"terv":2198,"attal":2199,"kelet":2200,"jára":2201,"ítvány":2202,"bevétel":2203,"óv":2204,"enet":2205,"Rom":2206,"pap":2207,"eként":2208,"megjelen":2209,"enget":2210,"állami":2211,"évtized":2212,"idéz":2213,"gar":2214,"ázs":2215,"napon":2216,"hosszabb":2217,"ügyminiszter":2218,"Jó":2219,"máj":2220,"féle":2221,"hagyomány":2222,"jelenlegi":2223,"janu":2224,"lem":2225,"ója":2226,"márci":2227,"ültek":2228,"ebruár":2229,"Német":2230,"különös":2231,"kilom":2232,"bocs":2233,"Uni":2234,"szom":2235,"amelynek":2236,"módon":2237,"erm":2238,"pontos":2239,"imi":2240,"Így":2241,"érvény":2242,"terem":2243,"22":2244,"vág":2245,"együttes":2246,"hétfőn":2247,"tr":2248,"ítés":2249,"kíván":2250,"szóló":2251,"visszat":2252,"mély":2253,"olcs":2254,"követő":2255,"ácsony":2256,"született":2257,"izál":2258,"oszk":2259,"népszerű":2260,"egyetem":2261,"adta":2262,"szerzés":2263,"ációk":2264,"éig":2265,"teszt":2266,"őként":2267,"eztek":2268,"távol":2269,"szerdán":2270,"utal":2271,"Mik":2272,"közep":2273,"pályáz":2274,"forgalom":2275,"jellem":2276,"adt":2277,"feny":2278,"zik":2279,"árul":2280,"szempont":2281,"régi":2282,"21":2283,"íció":2284,"úsz":2285,"hatatlan":2286,"Ország":2287,"feltétel":2288,"válogatott":2289,"Em":2290,"por":2291,"veg":2292,"felett":2293,"prilis":2294,"tudni":2295,"román":2296,"aztán":2297,"összesen":2298,"éli":2299,"ságot":2300,"kock":2301,"tizen":2302,"TO":2303,"mus":2304,"rendezvény":2305,"eik":2306,"pus":2307,"kora":2308,"parlament":2309,"olja":2310,"És":2311,"jutott":2312,"bek":2313,"tab":2314,"beli":2315,"független":2316,"figyelmet":2317,"elérhető":2318,"27":2319,"una":2320,"időben":2321,"látt":2322,"felvétel":2323,"többi":2324,"együttműköd":2325,"line":2326,"ná":2327,"közötti":2328,"kormányz":2329,"régió":2330,"vélemény":2331,"áron":2332,"inc":2333,"forintos":2334,"hálóz":2335,"Sok":2336,"lez":2337,"seb":2338,"kedden":2339,"2023":2340,"töltött":2341,"báz":2342,"fokoz":2343,"csatlak":2344,"elte":2345,"nyí":2346,"hozott":2347,"vagyunk":2348,"település":2349,"kilométer":2350,"ait":2351,"takar":2352,"életét":2353,"esetén":2354,"csúcs":2355,"megállapod":2356,"\".":2357,"kult":2358,"számol":2359,"támadás":2360,"alakult":2361,"emelkedett":2362,"augusztus":2363,"ga":2364,"jával":2365,"feleség":2366,"tudják":2367,"igyek":2368,"Rend":2369,"szí":2370,"szki":2371,"ásos":2372,"hetik":2373,"fejlőd":2374,"édesany":2375,"eleg":2376,"ódik":2377,"sokan":2378,"diák":2379,"ráadásul":2380,"modell":2381,"egészségügyi":2382,"ebo":2383,"all":2384,"ású":2385,"addig":2386,"években":2387,"vásárl":2388,"gyakorlat":2389,"kiderült":2390,"ájuk":2391,"található":2392,"Fac":2393,"megsz":2394,"városban":2395,"mot":2396,"ete":2397,"Le":2398,"beszéd":2399,"azonos":2400,"kockáz":2401,"jen":2402,"becs":2403,"Kor":2404,"nos":2405,"zöld":2406,"ségét":2407,"hatékony":2408,"örök":2409,"imir":2410,"Ti":2411,"február":2412,"mög":2413,"rál":2414,"vezér":2415,"janak":2416,"sziget":2417,"tűnik":2418,"Ol":2419,"méd":2420,"oci":2421,"valami":2422,"rakét":2423,"ián":2424,"legy":2425,"mon":2426,"rét":2427,"esek":2428,"Ak":2429,"fit":2430,"pan":2431,"poszt":2432,"baloldal":2433,"uális":2434,"zárt":2435,"azóta":2436,"agg":2437,"júli":2438,"hatunk":2439,"hivatalos":2440,"darú":2441,"nan":2442,"legfontosabb":2443,"darab":2444,"engeteg":2445,"get":2446,"sereg":2447,"munkat":2448,"fertőz":2449,"Facebo":2450,"étt":2451,"ikt":2452,"irod":2453,"szombaton":2454,"vonatkozó":2455,"35":2456,"árfolyam":2457,"többször":2458,"ősorban":2459,"jelenti":2460,"fiú":2461,"erősöd":2462,"repülő":2463,"Bizottság":2464,"atég":2465,"észak":2466,"írt":2467,"köszönhetően":2468,"org":2469,"index":2470,"többet":2471,"semmi":2472,"eszközök":2473,"70":2474,"Bank":2475,"fáj":2476,"elkép":2477,"szakember":2478,"óban":2479,"alig":2480,"ozik":2481,"döntés":2482,"Új":2483,"ark":2484,"ente":2485,"elmet":2486,"végzett":2487,"magán":2488,"tulajdonos":2489,"man":2490,"úton":2491,"venni":2492,"ipari":2493,"Pr":2494,"etet":2495,"lenül":2496,"talán":2497,"oldog":2498,"avar":2499,"mégis":2500,"Egyetem":2501,"lakás":2502,"kapcsolatos":2503,"hallgat":2504,"fer":2505,"április":2506,"azaz":2507,"aként":2508,"köztük":2509,"óknak":2510,"sőt":2511,"énekes":2512,"tűzolt":2513,"partner":2514,"január":2515,"Il":2516,"lass":2517,"uc":2518,"ői":2519,"enci":2520,"szereplő":2521,"26":2522,"terjed":2523,"lehetett":2524,"külföldi":2525,"Ne":2526,"arc":2527,"arany":2528,"bocsát":2529,"med":2530,"elik":2531,"online":2532,"eged":2533,"csup":2534,"ozni":2535,"tagja":2536,"célja":2537,"térség":2538,"ft":2539,"gen":2540,"pót":2541,"ileg":2542,"Andr":2543,"júni":2544,"kínai":2545,"szez":2546,"feladat":2547,"idesz":2548,"álták":2549,"származ":2550,"ásai":2551,"cselek":2552,"hatják":2553,"keleti":2554,"struk":2555,"Bors":2556,"szal":2557,"jelölt":2558,"kapcsán":2559,"betegség":2560,"huny":2561,"Hozzátette":2562,"Ebb":2563,"Jo":2564,"épp":2565,"társad":2566,"Államok":2567,"Zrt":2568,"dok":2569,"akinek":2570,"vagyis":2571,"obil":2572,"erők":2573,"meglep":2574,"eszti":2575,"érintett":2576,"ahhoz":2577,"múl":2578,"vitt":2579,"kamp":2580,"név":2581,"adni":2582,"tön":2583,"időszakban":2584,"áris":2585,"esély":2586,"napokban":2587,"halt":2588,"akadály":2589,"NATO":2590,"teljesítmény":2591,"Ezzel":2592,"magyaráz":2593,"NB":2594,"kan":2595,"teg":2596,"enz":2597,"itás":2598,"kihív":2599,"ulás":2600,"portál":2601,"digit":2602,"nevezett":2603,"28":2604,"János":2605,"löv":2606,"ezr":2607,"minőség":2608,"nyugdíj":2609,"elsősorban":2610,"Két":2611,"pad":2612,"azokat":2613,"inter":2614,"stratég":2615,"költségvet":2616,"90":2617,"Ma":2618,"ésében":2619,"csit":2620,"ellenzék":2621,"ce":2622,"onban":2623,"ulat":2624,"tartó":2625,"pénzügyi":2626,"nemzeti":2627,"igazgatója":2628,"csupán":2629,"szob":2630,"tudott":2631,"kezdett":2632,"szinten":2633,"élte":2634,"civil":2635,"áltak":2636,"Szent":2637,"kellene":2638,"bl":2639,"helyez":2640,"ezeket":2641,"országok":2642,"helyre":2643,"almat":2644,"lesznek":2645,"érkező":2646,"üzemanyag":2647,"megerősít":2648,"közz":2649,"többek":2650,"prof":2651,"irt":2652,"labdarú":2653,"hangsúlyozta":2654,"alkalommal":2655,"edző":2656,"úti":2657,"jövőben":2658,"munkatárs":2659,"kampány":2660,"ódó":2661,"ógus":2662,"Ed":2663,"rány":2664,"íteni":2665,"nyal":2666,"esti":2667,"projekt":2668,"boldog":2669,"szerencs":2670,"érkezik":2671,"március":2672,"pon":2673,"állom":2674,"bevezet":2675,"valaki":2676,"fogja":2677,"menet":2678,"pálya":2679,"hatóságok":2680,"vidék":2681,"Att":2682,"Kar":2683,"francia":2684,"áért":2685,"akit":2686,"érzék":2687,"ikat":2688,"járó":2689,"órak":2690,"haza":2691,"cégek":2692,"Nagyon":2693,"budapest":2694,"vették":2695,"tehet":2696,"Központ":2697,"miért":2698,"oroszok":2699,"ideje":2700,"mértékben":2701,"budapesti":2702,"hű":2703,"elnö":2704,"éri":2705,"kezdemény":2706,"Moszk":2707,"ip":2708,"lény":2709,"rat":2710,"agr":2711,"éjszak":2712,"hullám":2713,"ágy":2714,"vall":2715,"egészen":2716,"kont":2717,"vat":2718,"”,":2719,"elfog":2720,"attól":2721,"vivő":2722,"környék":2723,"értelmű":2724,"hí":2725,"rengeteg":2726,"szerzett":2727,"közön":2728,"nappal":2729,"kedv":2730,"ájában":2731,"karácsony":2732,"nevű":2733,"tenni":2734,"eink":2735,"kul":2736,"rák":2737,"vak":2738,"atát":2739,"ezúttal":2740,"egykori":2741,"teszi":2742,"Tam":2743,"rög":2744,"almi":2745,"értek":2746,"tartóz":2747,"ügynök":2748,"jeszt":2749,"29":2750,"láb":2751,"etett":2752,"ila":2753,"jelentősen":2754,"if":2755,"ox":2756,"akart":2757,"megvalós":2758,"inte":2759,"közé":2760,"deb":2761,"lengyel":2762,"ünket":2763,"sajtó":2764,"tőzs":2765,"Bor":2766,"fesz":2767,"iről":2768,"kereskedelmi":2769,"buk":2770,"zó":2771,"íti":2772,"női":2773,"ítását":2774,"igazán":2775,"romos":2776,"mérséklet":2777,"különösen":2778,"ecs":2779,"ow":2780,"meghatár":2781,"hetett":2782,"tudjuk":2783,"áldoz":2784,"Még":2785,"oc":2786,"felúj":2787,"felhív":2788,"Val":2789,"kárt":2790,"rád":2791,"zott":2792,"kezel":2793,"napja":2794,"bizottság":2795,"minél":2796,"részét":2797,"álisan":2798,"orvát":2799,"engedély":2800,"glob":2801,"fertőzött":2802,"SA":2803,"üd":2804,"olog":2805,"megjelent":2806,"felnőtt":2807,"sága":2808,"védelem":2809,"Kár":2810,"bolt":2811,"orú":2812,"felül":2813,"unkat":2814,"szakmai":2815,"epsi":2816,"ései":2817,"összes":2818,"persze":2819,"ideig":2820,".”":2821,"Fel":2822,"ics":2823,"álni":2824,"pontosan":2825,"változtat":2826,"cikk":2827,"papír":2828,"Miskol":2829,"dik":2830,"hord":2831,"ípus":2832,"befoly":2833,"terh":2834,"ásokkal":2835,"díja":2836,"idején":2837,"mostani":2838,"soha":2839,"Zolt":2840,"elé":2841,"ellett":2842,"havi":2843,"őriz":2844,"szóvivő":2845,"eztetett":2846,"hőmérséklet":2847,"május":2848,"krit":2849,"üssz":2850,"szír":2851,"ítják":2852,"felmér":2853,"részben":2854,"általán":2855,"kilenc":2856,"Mivel":2857,"ásnak":2858,"országos":2859,"2019":2860,"üzenet":2861,"ehhez":2862,"jellemző":2863,"la":2864,"elkövet":2865,"végig":2866,"-,":2867,"töz":2868,"védő":2869,"ológiai":2870,"ajánl":2871,"tabil":2872,"Kis":2873,"ái":2874,"erről":2875,"éni":2876,"százalékát":2877,"róla":2878,"önkormányzat":2879,"%-":2880,"Kir":2881,"inf":2882,"esül":2883,"étől":2884,"észség":2885,"elők":2886,"szerepel":2887,"információ":2888,"mögött":2889,"Ber":2890,"lakó":2891,"családi":2892,"földgáz":2893,"óval":2894,"gyil":2895,"őknek":2896,"ancs":2897,"egyértelmű":2898,"reag":2899,"házi":2900,"minim":2901,"kezdte":2902,"közösség":2903,"konfl":2904,"ándor":2905,"konflikt":2906,"einek":2907,"hess":2908,"tév":2909,"vevő":2910,"ejt":2911,"egyedül":2912,"robb":2913,"szeg":2914,"itív":2915,"kislány":2916,"kommun":2917,"elektromos":2918,"Duna":2919,"Tan":2920,"elismer":2921,"atom":2922,"tömeg":2923,"mindössze":2924,"időt":2925,"hunyt":2926,"Zoltán":2927,"Gerg":2928,"pp":2929,"csinál":2930,"tartja":2931,"tudta":2932,"pénzt":2933,"módos":2934,"gyorsan":2935,"élmény":2936,"gyűjt":2937,"előbb":2938,"kateg":2939,"területén":2940,"bizonyos":2941,"mennyire":2942,"visszatér":2943,"lényeg":2944,"lán":2945,"öny":2946,"elj":2947,"ető":2948,"emi":2949,"eznek":2950,"szerte":2951,"entum":2952,"oltak":2953,"Min":2954,"ij":2955,"csaknem":2956,"vonul":2957,"értékesít":2958,"ásáról":2959,"aktív":2960,"Debrecen":2961,"500":2962,"ler":2963,"napos":2964,"járt":2965,"házas":2966,"figyelem":2967,"oft":2968,"koncert":2969,"dem":2970,"uz":2971,"maguk":2972,"Ezért":2973,"Európában":2974,"hadsereg":2975,"segítségével":2976,"pillanat":2977,"bé":2978,"busz":2979,"tudnak":2980,"lenni":2981,"senki":2982,"itányság":2983,"péntek":2984,"természetesen":2985,"tánc":2986,"benz":2987,"ákkal":2988,"ővé":2989,"július":2990,"Tovább":2991,"szünet":2992,"felső":2993,"bert":2994,"újság":2995,"asztró":2996,"iós":2997,"vállalatok":2998,"férfit":2999,"területen":3000,"kocsi":3001,"Ig":3002,"Megy":3003,"éért":3004,"ötö":3005,"kötött":3006,"állat":3007,"agógus":3008,"prod":3009,"várhatóan":3010,"keretében":3011,"Facebook":3012,"esztivál":3013,"Mol":3014,"mobil":3015,"ekről":3016,"áshoz":3017,"ekete":3018,"előtti":3019,"Budapesten":3020,"globális":3021,"31":3022,"Re":3023,"Sándor":3024,"szlov":3025,"elfogad":3026,"észeti":3027,"íregyház":3028,"alma":3029,"különleges":3030,"szomszéd":3031,"Attila":3032,"Har":3033,"áki":3034,"esed":3035,"klub":3036,"növekedés":3037,"iak":3038,"kán":3039,"ásában":3040,"ovid":3041,"ügyfel":3042,"források":3043,"június":3044,"Saj":3045,"jóval":3046,"hős":3047,"lus":3048,"szel":3049,"oka":3050,"gyanús":3051,"videó":3052,"tanulmány":3053,"Országos":3054,"digitális":3055,"konfliktus":3056,"Amikor":3057,"Fő":3058,"jenek":3059,"zavar":3060,"éma":3061,"úra":3062,"helyet":3063,"ebből":3064,"imp":3065,"államtit":3066,"uttat":3067,"Rendőr":3068,"Kft":3069,"kinek":3070,"áros":3071,"sztár":3072,"eltek":3073,"továbbá":3074,"utóbb":3075,"Alap":3076,"Kov":3077,"cz":3078,"anszír":3079,"megoszt":3080,"adók":3081,"ast":3082,"vezetés":3083,"embert":3084,"konz":3085,"használt":3086,"rezsi":3087,"Rá":3088,"váz":3089,"kapu":3090,"csapata":3091,"finanszír":3092,"szövetség":3093,"bázis":3094,"Vl":3095,"pá":3096,"trag":3097,"olják":3098,"egyet":3099,"izmus":3100,"mindkét":3101,"andó":3102,"tartózkod":3103,"Emellett":3104,"dolog":3105,"kuty":3106,"ítél":3107,"ítást":3108,"tök":3109,"leginkább":3110,"magam":3111,"sérült":3112,"meleg":3113,"szolgálat":3114,"gyerekek":3115,"Unió":3116,"szkij":3117,"75":3118,"zést":3119,"gyen":3120,"lex":3121,"hatjuk":3122,"vezeték":3123,"ajdú":3124,"oldalon":3125,"lépett":3126,"remény":3127,"sák":3128,"erej":3129,"kialak":3130,"téren":3131,"veszteség":3132,"Gábor":3133,"eső":3134,"adtak":3135,"hib":3136,"támogatást":3137,"Fidesz":3138,"isz":3139,"tes":3140,"vegy":3141,"séggel":3142,"hetünk":3143,"nekik":3144,"forin":3145,"öröm":3146,"gyakran":3147,"Kije":3148,"hamarosan":3149,"debrec":3150,"stabil":3151,"tran":3152,"okból":3153,"tudom":3154,"külügyminiszter":3155,"forintra":3156,"szoros":3157,"adatai":3158,"eddigi":3159,"fest":3160,"éséhez":3161,"olasz":3162,"ezik":3163,"amik":3164,"állnak":3165,"olták":3166,"lehetővé":3167,"háborús":3168,"negyedik":3169,"labdarúgó":3170,"Len":3171,"Var":3172,"Zelen":3173,"tették":3174,"uhan":3175,"nagyjából":3176,"véget":3177,"kormányfő":3178,"közelében":3179,"információk":3180,"fertő":3181,"stag":3182,"szándék":3183,"oni":3184,"sági":3185,"isztikai":3186,"199":3187,"kezdődött":3188,"Ad":3189,"zük":3190,"egyáltalán":3191,"indított":3192,"visel":3193,"kollég":3194,"politik":3195,"percben":3196,"korlátoz":3197,"debreceni":3198,"Itt":3199,"Leg":3200,"pát":3201,"intern":3202,"ball":3203,"lehetőséget":3204,"üzemelt":3205,"tervezett":3206,"asszony":3207,"helyszínen":3208,"eum":3209,"omat":3210,"várak":3211,"forrás":3212,"Nyug":3213,"bör":3214,"szekt":3215,"adi":3216,"utak":3217,"urkol":3218,"Szlov":3219,"belép":3220,"üzleti":3221,"árulta":3222,"Elő":3223,"onal":3224,"attak":3225,"általában":3226,"György":3227,"vir":3228,"amíg":3229,"ítási":3230,"feldolgoz":3231,"pontot":3232,"Csak":3233,"termékek":3234,"Tamás":3235,"forinttal":3236,"34":3237,"Per":3238,"bú":3239,"edik":3240,"várt":3241,"fognak":3242,"kétszer":3243,"csapatok":3244,"szeretné":3245,"annyira":3246,"András":3247,"dokum":3248,"Te":3249,"ánál":3250,"író":3251,"kötelezett":3252,"ügynökség":3253,"kategóri":3254,"típus":3255,"kert":3256,"védelm":3257,"helyzetben":3258,"vitel":3259,"csator":3260,"Ukrajnában":3261,"36":3262,"Vol":3263,"rum":3264,"olás":3265,"kizár":3266,"ságú":3267,"jelöl":3268,"többen":3269,"képesség":3270,"magyarországi":3271,"támogatás":3272,"kereslet":3273,"hagyta":3274,"gondolkod":3275,"bajnoki":3276,"finom":3277,"kevésbé":3278,"300":3279,"Id":3280,"Észak":3281,"évi":3282,"urcs":3283,"Ezen":3284,"ugr":3285,"valószínűleg":3286,"szezon":3287,"Nap":3288,"Szövet":3289,"képpen":3290,"vége":3291,"diplom":3292,"méret":3293,"igazi":3294,"mentő":3295,"okozta":3296,"export":3297,"pozitív":3298,"internet":3299,"zenek":3300,"györgy":3301,"árom":3302,"fellép":3303,"ula":3304,"amelyben":3305,"látszik":3306,"biztosan":3307,"ozza":3308,"játszott":3309,"Vlagy":3310,"Zelenszkij":3311,"bő":3312,"hideg":3313,"tém":3314,"ozók":3315,"tartalmaz":3316,"pedagógus":3317,"belső":3318,"plat":3319,"sajt":3320,"ektől":3321,"négyzet":3322,"Kriszt":3323,"rekord":3324,"elképzel":3325,"junk":3326,"művel":3327,"magukat":3328,"háztart":3329,"fizetni":3330,"tavalyi":3331,"44":3332,"nor":3333,"tét":3334,"emellett":3335,"áló":3336,"adomány":3337,"hatott":3338,"főleg":3339,"tegnap":3340,"Vlagyimir":3341,"Más":3342,"Sp":3343,"ossz":3344,"beszerzés":3345,"ölcs":3346,"járul":3347,"ásait":3348,"általános":3349,"körülbelül":3350,"piacon":3351,"nevel":3352,"védek":3353,"iskola":3354,"Józs":3355,"Hogy":3356,"Tör":3357,"csill":3358,"ítva":3359,"ital":3360,"évre":3361,"hozzátette":3362,"jegyzés":3363,"halálos":3364,"kísérlet":3365,"38":3366,"zők":3367,"ína":3368,"tanár":3369,"munkát":3370,"közönség":3371,"Vég":3372,"apcs":3373,"kicsit":3374,"alapvet":3375,"úgynevezett":3376,"kórházba":3377,"szentgyörgy":3378,"Is":3379,"hátt":3380,"puszt":3381,"tábor":3382,"úg":3383,"szoci":3384,"érz":3385,"megbíz":3386,"fogják":3387,"kapta":3388,"állampolgár":3389,"működik":3390,"olcsó":3391,"Kijev":3392,"ráció":3393,"vé":3394,"xim":3395,"úd":3396,"etek":3397,"ennél":3398,"ekkor":3399,"élni":3400,"képzés":3401,"magyarok":3402,"növény":3403,"alacsonyabb":3404,"produk":3405,"Lengyel":3406,"TV":3407,"mut":3408,"eres":3409,"atosan":3410,"ésű":3411,"inn":3412,"amos":3413,"írták":3414,"szerinte":3415,"tartani":3416,"anyol":3417,"gazdag":3418,"segítséget":3419,"valóban":3420,"rang":3421,"választás":3422,"pályán":3423,"kiter":3424,"gyógyszer":3425,"hálózat":3426,"asztrófa":3427,"Pl":3428,"mis":3429,"csod":3430,"odik":3431,"amelyeket":3432,"elték":3433,"körében":3434,"mutatja":3435,"Ugyanakkor":3436,"gener":3437,"Király":3438,"kommunik":3439,"fők":3440,"vári":3441,"ciós":3442,"látvány":3443,"atait":3444,"helyettes":3445,"kötelező":3446,"eljárás":3447,"teremt":3448,"Gergely":3449,"Né":3450,"fesztivál":3451,"vírus":3452,"egység":3453,"enyh":3454,"stop":3455,"sajnos":3456,"szerepl":3457,"ence":3458,"hivatkoz":3459,"szabadság":3460,"hasonl":3461,"Ahogy":3462,"Hun":3463,"kiad":3464,"ásokra":3465,"végéig":3466,"zetes":3467,"váló":3468,"mondja":3469,"tagjai":3470,"történő":3471,"szerepet":3472,"fürd":3473,"mostan":3474,"bűncselek":3475,"37":3476,"Lig":3477,"jének":3478,"kó":3479,"lék":3480,"nák":3481,"ria":3482,"gyár":3483,"okos":3484,"felad":3485,"leveg":3486,"ajándék":3487,"hetjük":3488,"legmagasabb":3489,"várja":3490,"plusz":3491,"létesít":3492,"módszer":3493,"körülmények":3494,"késő":3495,"ellátás":3496,"vágy":3497,"óriási":3498,"Kat":3499,"OT":3500,"mél":3501,"rát":3502,"dolgozott":3503,"Mari":3504,"DP":3505,"Im":3506,"Tud":3507,"lós":3508,"atta":3509,"isták":3510,"emberi":3511,"lehetnek":3512,"figyel":3513,"történik":3514,"hivat":3515,"találkozó":3516,"szenvedett":3517,"strukt":3518,"cent":3519,"fagy":3520,"fent":3521,"Össz":3522,"üszk":3523,"szű":3524,"ölgy":3525,"ígér":3526,"megyében":3527,"templom":3528,"fűt":3529,"lezár":3530,"cu":3531,"kért":3532,"kot":3533,"mire":3534,"tagállam":3535,"Megyei":3536,"szu":3537,"szén":3538,"tartják":3539,"aszkod":3540,"közösen":3541,"nyelv":3542,"József":3543,"bont":3544,"hen":3545,"lo":3546,"umi":3547,"ingyen":3548,"álta":3549,"ellent":3550,"indok":3551,"kapac":3552,"megfelelően":3553,"39":3554,"45":3555,"Term":3556,"höz":3557,"mások":3558,"pa":3559,"ers":3560,"járműv":3561,"tárca":3562,"életet":3563,"front":3564,"hasznos":3565,"menekült":3566,"Németország":3567,"négyzetméter":3568,"Mát":3569,"iában":3570,"kelt":3571,"nék":3572,"nünk":3573,"elhunyt":3574,"udvar":3575,"főváros":3576,"derül":3577,"klí":3578,"autók":3579,"találtak":3580,"esszió":3581,"jebb":3582,"oss":3583,"vezetett":3584,"tudomány":3585,"ügyben":3586,"úzeum":3587,"vizsgálat":3588,"nyilvánosság":3589,"falu":3590,"angol":3591,"édesap":3592,"remek":3593,"fenyeget":3594,"Igaz":3595,"Ch":3596,"fia":3597,"megkérd":3598,"urg":3599,"tartanak":3600,"fordult":3601,"erőmű":3602,"motor":3603,"Ebben":3604,"Kl":3605,"szex":3606,"niuk":3607,"telt":3608,"lehetséges":3609,"ésekre":3610,"honlap":3611,"fiatalok":3612,"futball":3613,"Zsolt":3614,"epsiszentgyörgy":3615,"Kül":3616,"Nov":3617,"osok":3618,"legújabb":3619,"urális":3620,"elmes":3621,"Egyes":3622,"platform":3623,"Vil":3624,"lek":3625,"yás":3626,"álkod":3627,"átum":3628,"kiemelte":3629,"level":3630,"hatók":3631,"odott":3632,"áján":3633,"mondott":3634,"kezdet":3635,"személyes":3636,"munkaerő":3637,"nevezte":3638,"megoldás":3639,"szakértő":3640,"\",":3641,"aba":3642,"kérte":3643,"megúj":3644,"apán":3645,"edett":3646,"lej":3647,"százalékot":3648,"jegybank":3649,"jogos":3650,"láng":3651,"Covid":3652,"Par":3653,"sé":3654,"Én":3655,"ésnek":3656,"kiemelt":3657,"jelzés":3658,"kerék":3659,"örül":3660,"ájának":3661,"parancs":3662,"maxim":3663,"vállalkozások":3664,"javaslat":3665,"tevékenység":3666,"hagyományos":3667,"400":3668,"Go":3669,"Mag":3670,"hum":3671,"nunk":3672,"vettek":3673,"ápol":3674,"ágaz":3675,"ural":3676,"változott":3677,"technológi":3678,"Szabó":3679,"Tw":3680,"Vas":3681,"co":3682,"kin":3683,"rév":3684,"ya":3685,"vagyon":3686,"foglalkoztat":3687,"Ami":3688,"Hat":3689,"cel":3690,"lánc":3691,"nének":3692,"vezetői":3693,"jegyezte":3694,"kölcs":3695,"befolyás":3696,"dokumentum":3697,"eci":3698,"list":3699,"szöv":3700,"felügy":3701,"Szil":3702,"import":3703,"színpad":3704,"hozzát":3705,"emelkedő":3706,"pályára":3707,"kettő":3708,"sofő":3709,"émia":3710,"vadász":3711,"The":3712,"ónak":3713,"elkerül":3714,"észre":3715,"évente":3716,"ontos":3717,"hiába":3718,"százalékra":3719,"igazság":3720,"jogi":3721,"hónapban":3722,"hasonlóan":3723,"áldozat":3724,"börtön":3725,"Be":3726,"kü":3727,"lám":3728,"vert":3729,"berend":3730,"várják":3731,"rajta":3732,"erőszak":3733,"kamer":3734,"önként":3735,"győzelem":3736,"kényszer":3737,"fajta":3738,"nyílt":3739,"fájd":3740,"tűzoltók":3741,"tökélet":3742,"jén":3743,"kemény":3744,"neg":3745,"nyar":3746,"napján":3747,"oper":3748,"mened":3749,"ítására":3750,"működő":3751,"lapunk":3752,"körüli":3753,"olvasható":3754,"Tanács":3755,"jell":3756,"téli":3757,"érez":3758,"évet":3759,"elől":3760,"vev":3761,"amivel":3762,"hétvégén":3763,"helyzetet":3764,"megye":3765,"melyik":3766,"munkavállal":3767,"gyűlés":3768,"Ráadásul":3769,"büszk":3770,"kőz":3771,"lél":3772,"ork":3773,"hom":3774,"szólal":3775,"okozott":3776,"gyártó":3777,"tényleg":3778,"Auszt":3779,"Eg":3780,"Kon":3781,"Nép":3782,"lit":3783,"amennyi":3784,"kiegész":3785,"bejelentette":3786,"usk":3787,"látni":3788,"vereség":3789,"óth":3790,"dolgozik":3791,"jövőre":3792,"ponttal":3793,"32":3794,"Hi":3795,"tünet":3796,"felhő":3797,"időjár":3798,"érkeztek":3799,"változás":3800,"sikeres":3801,"regiszt":3802,"egymást":3803,"infra":3804,"OTP":3805,"révén":3806,"Hajdú":3807,"Három":3808,"Kína":3809,"bot":3810,"du":3811,"öszt":3812,"ülést":3813,"ékes":3814,"nyári":3815,"előd":3816,"járól":3817,"minős":3818,"következmény":3819,"versenyző":3820,"Instag":3821,"átlagos":3822,"elnöki":3823,"ötödik":3824,"Instagram":3825,".\"":3826,"hn":3827,"váj":3828,"akk":3829,"hozta":3830,"élete":3831,"közeli":3832,"államfő":3833,"bizonytalan":3834,"nyerte":3835,"lemond":3836,"Ro":3837,"qu":3838,"szol":3839,"szét":3840,"álás":3841,"bban":3842,"ítése":3843,"szerző":3844,"ákban":3845,"2018":3846,"összet":3847,"ötlet":3848,"ruh":3849,"kiderül":3850,"gyűlési":3851,"negatív":3852,"Stat":3853,"erem":3854,"nekem":3855,"ukra":3856,"hangulat":3857,"kutatás":3858,"Twitt":3859,"jelleg":3860,"GDP":3861,"bul":3862,"jék":3863,"nők":3864,"aránt":3865,"átus":3866,"ikusan":3867,"valóság":3868,"következt":3869,"kilát":3870,"kulcs":3871,"díjas":3872,"államtitkár":3873,"Zay":3874,"enként":3875,"egyaránt":3876,"kaptak":3877,"ésekkel":3878,"mozd":3879,"parlamenti":3880,"33":3881,"MNB":3882,"Ta":3883,"gör":3884,"Érd":3885,"oskod":3886,"oznak":3887,"fejlesztési":3888,"folyamatos":3889,"vádlott":3890,"villamos":3891,"dor":3892,"dre":3893,"megelő":3894,"ultak":3895,"számú":3896,"kerület":3897,"képp":3898,"nőt":3899,"park":3900,"dolgozó":3901,"mutatta":3902,"ellenőrzés":3903,"sajtót":3904,"következtében":3905,"Tóth":3906,"jég":3907,"tél":3908,"uzs":3909,"ítik":3910,"kibocsát":3911,"jelezte":3912,"időre":3913,"világbajnokság":3914,"melyek":3915,"Oly":3916,"ceg":3917,"húsz":3918,"rám":3919,"sug":3920,"ütem":3921,"fele":3922,"előadás":3923,"teher":3924,"számító":3925,"minket":3926,"sors":3927,"ációt":3928,"000":3929,"véli":3930,"légi":3931,"utca":3932,"erdő":3933,"közepén":3934,"Miskolc":3935,"emiatt":3936,"Miniszt":3937,"levegő":3938,"Horvát":3939,"ori":3940,"adja":3941,"ozási":3942,"mintha":3943,"válik":3944,"házban":3945,"ügyészség":3946,"látja":3947,"folyó":3948,"ismerős":3949,"zsé":3950,"rand":3951,"közelebb":3952,"hazánk":3953,"említett":3954,"növek":3955,"Nyíregyház":3956,"vételt":3957,"szakértők":3958,"55":3959,"af":3960,"birt":3961,"ülni":3962,"felület":3963,"tern":3964,"számoló":3965,"másfél":3966,"körben":3967,"veszélyes":3968,"rendelkezik":3969,"Márki":3970,"Ilyen":3971,"48":3972,"Jelen":3973,"SE":3974,"mig":3975,"pir":3976,"vész":3977,"onnan":3978,"okba":3979,"megtalál":3980,"iden":3981,"képet":3982,"nyugat":3983,"emelkedés":3984,"déli":3985,"délelőtt":3986,"tőle":3987,"vesztette":3988,"könnyen":3989,"Debreceni":3990,"kedvezmény":3991,"tervek":3992,"Román":3993,"robban":3994,"kölcsön":3995,"Erd":3996,"Sc":3997,"hús":3998,"kes":3999,"lu":4000,"lop":4001,"mat":4002,"táb":4003,"ele":4004,"ezi":4005,"felszer":4006,"állomány":4007,"intézet":4008,"hívta":4009,"beszélget":4010,"probléma":4011,"Akkor":4012,"sofőr":4013,"Dél":4014,"rov":4015,"sos":4016,"zák":4017,"ásról":4018,"kiállítás":4019,"kivitel":4020,"állította":4021,"befej":4022,"forgat":4023,"Szám":4024,"sokszor":4025,"páros":4026,"szeretne":4027,"száraz":4028,"szeretnék":4029,"felesége":4030,"New":4031,"tragéd":4032,"Szlováki":4033,"ge":4034,"gr":4035,"ota":4036,"ráj":4037,"Ám":4038,"többség":4039,"ábban":4040,"Szij":4041,"esetleg":4042,"avatkoz":4043,"fizetés":4044,"ezetten":4045,"rosszabb":4046,"azoknak":4047,"lakossági":4048,"hirdet":4049,"gyakorlatilag":4050,"ösztön":4051,"Fontos":4052,"Man":4053,"ainak":4054,"kov":4055,"tettek":4056,"vaj":4057,"szurkol":4058,"annyit":4059,"inváz":4060,"tartozik":4061,"jártó":4062,"mondani":4063,"készített":4064,"akiknek":4065,"rip":4066,"jogszabály":4067,"politika":4068,"szolgáltató":4069,"képesek":4070,"Moszkva":4071,"Twitter":4072,"Szijjártó":4073,"Pár":4074,"szellem":4075,"ekhez":4076,"egyéni":4077,"vezetők":4078,"értékű":4079,"használat":4080,"veszi":4081,"nyomán":4082,"állítja":4083,"káros":4084,"büntető":4085,"John":4086,"Francia":4087,"Ri":4088,"sár":4089,"sim":4090,"uj":4091,"köztársaság":4092,"izg":4093,"többsége":4094,"tudták":4095,"szakemberek":4096,"immár":4097,"támogatja":4098,"beszélg":4099,"tisztelet":4100,"küldött":4101,"Am":4102,"funk":4103,"sk":4104,"vélet":4105,"elkezd":4106,"aminek":4107,"ozs":4108,"kiváló":4109,"nemrég":4110,"állított":4111,"idők":4112,"országot":4113,"eltűn":4114,"hajland":4115,"történelmi":4116,"fogyasztás":4117,"könnyű":4118,"javasl":4119,"Szövetség":4120,"Hol":4121,"del":4122,"des":4123,"hegy":4124,"jót":4125,"stat":4126,"ze":4127,"adnak":4128,"országgyűlési":4129,"napig":4130,"kedves":4131,"végére":4132,"eltér":4133,"rajong":4134,"gazdálkod":4135,"segély":4136,"hajnal":4137,"díjat":4138,"hatósági":4139,"Balázs":4140,"Varga":4141,"sajtótájékoztat":4142,"invázió":4143,"49":4144,"AC":4145,"fekete":4146,"juttat":4147,"sincs":4148,"tüz":4149,"benn":4150,"legutóbbi":4151,"terve":4152,"csapadék":4153,"lőtt":4154,"szállító":4155,"fejlesztés":4156,"szervezetek":4157,"technológiai":4158,"ellenzéki":4159,"Mic":4160,"náz":4161,"ocs":4162,"tünk":4163,"–,":4164,"atokat":4165,"énnyel":4166,"örös":4167,"órától":4168,"erősen":4169,"lépés":4170,"hírek":4171,"mezőny":4172,"énekesnő":4173,"kizárólag":4174,"PC":4175,"log":4176,"nának":4177,"ráz":4178,"sür":4179,"erült":4180,"beszámolt":4181,"hatással":4182,"hozni":4183,"almak":4184,"anya":4185,"esztő":4186,"eződ":4187,"konk":4188,"melynek":4189,"ack":4190,"nyitott":4191,"Szerinte":4192,"szülők":4193,"szeretnénk":4194,"rögz":4195,"56":4196,"Mű":4197,"Van":4198,"do":4199,"kék":4200,"rász":4201,"tol":4202,"áns":4203,"adik":4204,"ity":4205,"levél":4206,"évig":4207,"elmar":4208,"külső":4209,"amire":4210,"evíz":4211,"segíteni":4212,"szüksége":4213,"távon":4214,"hátrány":4215,"eurót":4216,"szolgáltatás":4217,"dollárt":4218,"kutató":4219,"egyszerűen":4220,"impiai":4221,"jö":4222,"yel":4223,"Ár":4224,"eri":4225,"ara":4226,"intenz":4227,"reform":4228,"prom":4229,"mérkőz":4230,"elemben":4231,"valójában":4232,"jöved":4233,"Nemzetközi":4234,"pihen":4235,"idegen":4236,"kormányzati":4237,"Kovács":4238,"hivatkozva":4239,"riaszt":4240,"Fehér":4241,"hor":4242,"jet":4243,"ari":4244,"ódi":4245,"vihar":4246,"eivel":4247,"mellé":4248,"katasztrófa":4249,"dolgoznak":4250,"anyagi":4251,"közzét":4252,"Természet":4253,"zsébet":4254,"SC":4255,"hid":4256,"sáv":4257,"szög":4258,"app":4259,"aival":4260,"kezelés":4261,"verz":4262,"világot":4263,"tető":4264,"rendszert":4265,"energiaárak":4266,"gyűj":4267,"testület":4268,"szerződés":4269,"pozíció":4270,"benzin":4271,"főkap":4272,"Amer":4273,"Kín":4274,"Nor":4275,"Sport":4276,"aik":4277,"bez":4278,"ea":4279,"gárd":4280,"ettem":4281,"ítanak":4282,"legend":4283,"napra":4284,"tartós":4285,"hitt":4286,"látott":4287,"sokáig":4288,"termelés":4289,"tötte":4290,"biztonságos":4291,"átlagosan":4292,"rendelkező":4293,"szombat":4294,"találták":4295,"közleményében":4296,"csillag":4297,"Her":4298,"Katal":4299,"fran":4300,"rog":4301,"tra":4302,"ébb":4303,"egyben":4304,"meghalt":4305,"ilab":4306,"rezsicsökkent":4307,"Bi":4308,"bőr":4309,"sét":4310,"tők":4311,"web":4312,"ásához":4313,"ezést":4314,"ságát":4315,"széles":4316,"összefügg":4317,"itthon":4318,"nélküli":4319,"orvosi":4320,"herceg":4321,"tőzsde":4322,"ein":4323,"fék":4324,"lig":4325,"szülő":4326,"egyű":4327,"feljebb":4328,"nekünk":4329,"részén":4330,"részéről":4331,"emelés":4332,"igazol":4333,"termel":4334,"vásárol":4335,"gyakorl":4336,"Budapesti":4337,"szigorú":4338,"kifejezetten":4339,"repülőgép":4340,"múlva":4341,"szektor":4342,"bát":4343,"ásuk":4344,"esik":4345,"megpróbál":4346,"nyúj":4347,"Szak":4348,"semmit":4349,"szintű":4350,"eredeti":4351,"vásárhelyi":4352,"hírügynökség":4353,"speci":4354,"Balaton":4355,"keletkez":4356,"származó":4357,"blok":4358,"Persze":4359,"Ház":4360,"cell":4361,"lend":4362,"nett":4363,"ona":4364,"érzi":4365,"beavatkoz":4366,"teszik":4367,"század":4368,"szaki":4369,"ügyminisztérium":4370,"parkol":4371,"komment":4372,"katonák":4373,"készülék":4374,"Erre":4375,"Erzsébet":4376,"szokott":4377,"szempontból":4378,"profit":4379,"For":4380,"din":4381,"oha":4382,"vív":4383,"szórak":4384,"ese":4385,"cseh":4386,"ita":4387,"kijelentette":4388,"hir":4389,"kapnak":4390,"törek":4391,"alapú":4392,"értéke":4393,"Int":4394,"aránya":4395,"idézte":4396,"kulturális":4397,"bűncselekmény":4398,"szűk":4399,"Bel":4400,"Ho":4401,"jében":4402,"Ép":4403,"álja":4404,"egyeztet":4405,"ozást":4406,"nyáron":4407,"beszámoló":4408,"ókkal":4409,"jelentés":4410,"velük":4411,"fővárosi":4412,"ismerte":4413,"állítólag":4414,"születés":4415,"Brüssz":4416,"média":4417,"vakc":4418,"szóvivője":4419,"Királyság":4420,"Világ":4421,"41":4422,"Biden":4423,"mas":4424,"rob":4425,"süt":4426,"top":4427,"zás":4428,"szán":4429,"eknél":4430,"éven":4431,"korszerű":4432,"előfordul":4433,"mára":4434,"tartozó":4435,"lehetne":4436,"végi":4437,"jóvá":4438,"Magyarországra":4439,"egyensúly":4440,"kerültek":4441,"oktatási":4442,"sosem":4443,"sanak":4444,"csik":4445,"csend":4446,"megszer":4447,"meghalad":4448,"terjeszt":4449,"ásokon":4450,"iránt":4451,"majdnem":4452,"elemző":4453,"szenny":4454,"rendszeresen":4455,"figyelmeztet":4456,"győztes":4457,"mozgás":4458,"tranz":4459,"nuk":4460,"árstop":4461,"banki":4462,"nként":4463,"írás":4464,"ung":4465,"valamilyen":4466,"vásárlás":4467,"kitör":4468,"függeszt":4469,"Arra":4470,"egymással":4471,"ketten":4472,"problémák":4473,"reggeli":4474,"eljárást":4475,"rendkívüli":4476,"állapotban":4477,"feletti":4478,"közzé":4479,"nettó":4480,"EN":4481,"Eh":4482,"Gul":4483,"pat":4484,"ard":4485,"adós":4486,"induló":4487,"napot":4488,"voltam":4489,"összek":4490,"semmilyen":4491,"földön":4492,"komp":4493,"derült":4494,"önkormányzati":4495,"alkalmas":4496,"baloldali":4497,"híd":4498,"demok":4499,"Nyugat":4500,"DV":4501,"Dr":4502,"Hiv":4503,"Ped":4504,"Tal":4505,"USA":4506,"VI":4507,"etében":4508,"ini":4509,"olikus":4510,"rejt":4511,"északi":4512,"kerek":4513,"munkál":4514,"hagyott":4515,"hozzájárul":4516,"ozzák":4517,"box":4518,"hajtott":4519,"kínálat":4520,"egyértelműen":4521,"infrastrukt":4522,"Katalin":4523,"Aki":4524,"pán":4525,"ris":4526,"okhoz":4527,"okról":4528,"amin":4529,"megelőző":4530,"oztak":4531,"helyezett":4532,"éseit":4533,"Csaba":4534,"mutatott":4535,"adatokat":4536,"sérülés":4537,"állítása":4538,"intézkedések":4539,"hulladék":4540,"nehezebb":4541,"egyszerre":4542,"Románi":4543,"búcs":4544,"Jelenleg":4545,"Ehhez":4546,"65":4547,"Hét":4548,"tüntet":4549,"megközel":4550,"minc":4551,"klassz":4552,"települ":4553,"automat":4554,"társadalmi":4555,"apcsol":4556,"47":4557,"Mat":4558,"Pet":4559,"üveg":4560,"ítók":4561,"élkül":4562,"niük":4563,"kezelő":4564,"hozam":4565,"soroz":4566,"198":4567,"eredet":4568,"választott":4569,"alatti":4570,"épített":4571,"ességében":4572,"gyermekek":4573,"inflációs":4574,"fekvő":4575,"közvetlen":4576,"fertőzés":4577,"Idén":4578,"dupl":4579,"hirtelen":4580,"nukle":4581,"Laj":4582,"ror":4583,"zuhan":4584,"íték":4585,"megért":4586,"szerk":4587,"közt":4588,"felel":4589,"hatása":4590,"nagykövet":4591,"televíz":4592,"amelyen":4593,"ódnak":4594,"főbb":4595,"mindenkit":4596,"opt":4597,"egészséges":4598,"szállás":4599,"dísz":4600,"szólt":4601,"hónapokban":4602,"igénybe":4603,"vendégek":4604,"ütközött":4605,"megszűn":4606,"Tavaly":4607,"Olyan":4608,"Vagy":4609,"rop":4610,"tü":4611,"szim":4612,"élvez":4613,"állandó":4614,"ovics":4615,"utána":4616,"munkáját":4617,"hajó":4618,"döntést":4619,"fontosságú":4620,"ismeretlen":4621,"igényel":4622,"szlovák":4623,"típusú":4624,"Play":4625,"birtok":4626,"43":4627,"aink":4628,"belő":4629,"hály":4630,"hettek":4631,"les":4632,"ík":4633,"elárulta":4634,"adták":4635,"felek":4636,"unkra":4637,"deviz":4638,"akkori":4639,"rajz":4640,"közölték":4641,"nyomás":4642,"rendelkezésre":4643,"modern":4644,"nyilatkozta":4645,"kezdődik":4646,"központi":4647,"rosszul":4648,"drágul":4649,"árfolyama":4650,"társadalom":4651,"stratégiai":4652,"órakor":4653,"fürdő":4654,"főkapitányság":4655,"nukleáris":4656,"Ben":4657,"Mac":4658,"kem":4659,"ítették":4660,"kiber":4661,"kivétel":4662,"ogle":4663,"hatály":4664,"tudtuk":4665,"pontja":4666,"ablak":4667,"segíti":4668,"anyagok":4669,"polgármestere":4670,"közlekedési":4671,"királynő":4672,"zajló":4673,"vevők":4674,"ana":4675,"akor":4676,"ttest":4677,"énél":4678,"ettől":4679,"megegy":4680,"apró":4681,"vezette":4682,"helyszí":4683,"nevet":4684,"rendben":4685,"igazgat":4686,"Győr":4687,"értelmében":4688,"labd":4689,"költöz":4690,"koncent":4691,"zajlik":4692,"Kárpát":4693,"önyör":4694,"virág":4695,"uralkod":4696,"Blik":4697,"hek":4698,"suk":4699,"etikai":4700,"ésen":4701,"emes":4702,"onz":4703,"ezután":4704,"ítést":4705,"apor":4706,"ust":4707,"újvárosi":4708,"tartalék":4709,"tudunk":4710,"embereket":4711,"élyi":4712,"eztem":4713,"színház":4714,"szállítás":4715,"családok":4716,"területeken":4717,"állítani":4718,"futam":4719,"Ukrajnának":4720,"intézkedés":4721,"Miklós":4722,"ferenci":4723,"Google":4724,"konkrét":4725,"Hivatal":4726,"Ró":4727,"jével":4728,"me":4729,"akban":4730,"áruház":4731,"innov":4732,"ülnek":4733,"ettünk":4734,"adást":4735,"ily":4736,"ányi":4737,"értesít":4738,"ovjet":4739,"Szeged":4740,"tartotta":4741,"tudós":4742,"irán":4743,"ünkre":4744,"amiért":4745,"150":4746,"fotó":4747,"érvényes":4748,"függetlenül":4749,"Olasz":4750,"gyanúsított":4751,"kapacit":4752,".,":4753,"Dun":4754,"Hon":4755,"kr":4756,"ry":4757,"enő":4758,"ania":4759,"ezü":4760,"intell":4761,"felől":4762,"bevon":4763,"hetők":4764,"Szín":4765,"tartottak":4766,"lehető":4767,"választási":4768,"építő":4769,"programot":4770,"atlanul":4771,"nyers":4772,"szívesen":4773,"kőolaj":4774,"szerda":4775,"kiköt":4776,"Emlék":4777,"megállapodás":4778,"Tibor":4779,"rakéta":4780,"Lengyelország":4781,"Brüsszel":4782,"Ex":4783,"Iz":4784,"fűz":4785,"krip":4786,"to":4787,"köb":4788,"terén":4789,"hip":4790,"fiók":4791,"ájára":4792,"gondoskod":4793,"vándor":4794,"emelkedik":4795,"sérül":4796,"Szerencs":4797,"spanyol":4798,"béke":4799,"idősebb":4800,"tengeri":4801,"kedvenc":4802,"gyilk":4803,"figyelembe":4804,"bány":4805,"rájuk":4806,"tétel":4807,"etbe":4808,"olimpiai":4809,"szerelm":4810,"ilt":4811,"tava":4812,"ulátor":4813,"ellyel":4814,"előzetes":4815,"Azonban":4816,"tudtak":4817,"járat":4818,"ügyfél":4819,"mentes":4820,"mutató":4821,"munkahely":4822,"huz":4823,"csütörtök":4824,"kórházban":4825,"létrehoz":4826,"színésznő":4827,"meghatározó":4828,"viselked":4829,"Egyesület":4830,"Intéz":4831,"Gulyás":4832,"Blikk":4833,"App":4834,"Eur":4835,"Márt":4836,"dán":4837,"po":4838,"erek":4839,"anélkül":4840,"érzés":4841,"kifizet":4842,"állították":4843,"bejegyzés":4844,"számított":4845,"viselő":4846,"órás":4847,"honnan":4848,"körülmény":4849,"próbált":4850,"ársaság":4851,"különbség":4852,"gólt":4853,"feszült":4854,"áldozatok":4855,"Külön":4856,"Természetesen":4857,"belőle":4858,"Co":4859,"bomb":4860,"övezet":4861,"üm":4862,"ője":4863,"elvég":4864,"akciók":4865,"emet":4866,"megment":4867,"megakadály":4868,"adót":4869,"állni":4870,"valamit":4871,"eredménye":4872,"karri":4873,"rendelet":4874,"Miután":4875,"elérni":4876,"egyesület":4877,"Aztán":4878,"helyszínre":4879,"óvod":4880,"Volod":4881,"57":4882,"Kom":4883,"Li":4884,"kop":4885,"áit":4886,"ekből":4887,"olnak":4888,"arat":4889,"csin":4890,"korosztály":4891,"idény":4892,"Szomb":4893,"műszaki":4894,"nyire":4895,"jelenlét":4896,"ukránok":4897,"hónapja":4898,"folytatott":4899,"ellátási":4900,"nyereség":4901,"távú":4902,"felelősség":4903,"éttel":4904,"lassan":4905,"hivatásos":4906,"nyaral":4907,"menedzs":4908,"Románia":4909,"Di":4910,"gab":4911,"enni":4912,"alko":4913,"szerkez":4914,"ozása":4915,"izs":4916,"amelyik":4917,"onyec":4918,"mindenkinek":4919,"órán":4920,"stí":4921,"háborút":4922,"használni":4923,"szerűen":4924,"képviselői":4925,"megoldást":4926,"alkalmazott":4927,"természetes":4928,"közleményben":4929,"látta":4930,"sebesség":4931,"tőzsd":4932,"szuper":4933,"klíma":4934,"szöveg":4935,"amennyiben":4936,"sugár":4937,"fe":4938,"miskol":4939,"szűr":4940,"encia":4941,"éshez":4942,"megtakar":4943,"adása":4944,"tas":4945,"állást":4946,"termelő":4947,"erősebb":4948,"fizikai":4949,"bármilyen":4950,"férfiak":4951,"akarja":4952,"Ukrajnát":4953,"bérlet":4954,"zene":4955,"tartották":4956,"részvények":4957,"kever":4958,"zenekar":4959,"Krisztián":4960,"intelligen":4961,"FT":4962,"aw":4963,"bony":4964,"futó":4965,"hette":4966,"pand":4967,"ront":4968,"sej":4969,"sújt":4970,"elvesz":4971,"erv":4972,"ann":4973,"szert":4974,"hattak":4975,"cion":4976,"napok":4977,"semmis":4978,"tanú":4979,"váltás":4980,"összecsap":4981,"dolgozók":4982,"egyenl":4983,"spór":4984,"Kreml":4985,"tanácsadó":4986,"mezőgazdasági":4987,"alapvető":4988,"Alex":4989,"Baj":4990,"Pál":4991,"burg":4992,"fát":4993,"kab":4994,"gyönyör":4995,"osabb":4996,"cső":4997,"megnyit":4998,"felfed":4999,"miszerint":5000,"ősen":5001,"utáni":5002,"játékot":5003,"családja":5004,"testvér":5005,"utcai":5006,"aktuális":5007,"menekültek":5008,"szakaszon":5009,"felmérés":5010,"hessen":5011,"Végül":5012,"hajlandó":5013,"sürg":5014,"miskolci":5015,"FC":5016,"Ott":5017,"bes":5018,"dám":5019,"jünk":5020,"láz":5021,"alizál":5022,"esés":5023,"üld":5024,"megél":5025,"rab":5026,"hozatal":5027,"imád":5028,"imnáz":5029,"kezdete":5030,"ötét":5031,"melyet":5032,"eurós":5033,"dolláros":5034,"mérkőzésen":5035,"Károly":5036,"Sajnos":5037,"Station":5038,"iránti":5039,"Volodimir":5040,"Föld":5041,"Kiss":5042,"cc":5043,"fül":5044,"kára":5045,"kóz":5046,"gyull":5047,"erny":5048,"arnok":5049,"átalak":5050,"megvéd":5051,"adal":5052,"illeg":5053,"állatok":5054,"ason":5055,"hatás":5056,"legfeljebb":5057,"rendezett":5058,"ellenes":5059,"körzet":5060,"életében":5061,"formában":5062,"dolgozni":5063,"határoz":5064,"szerepelt":5065,"Mihály":5066,"szabályok":5067,"miként":5068,"lelki":5069,"nehezen":5070,"diákok":5071,"Moszkv":5072,"kritikus":5073,"szegény":5074,"háttér":5075,"PlayStation":5076,"46":5077,"DK":5078,"kup":5079,"pot":5080,"óján":5081,"elv":5082,"elenged":5083,"ésük":5084,"inni":5085,"szerez":5086,"szeres":5087,"felfüggeszt":5088,"ash":5089,"Szolg":5090,"jelentése":5091,"irat":5092,"részvétel":5093,"abba":5094,"készlet":5095,"mérleg":5096,"vásárló":5097,"brüssz":5098,"ológus":5099,"összeget":5100,"oktatás":5101,"energiát":5102,"tilt":5103,"régióban":5104,"interjú":5105,"újságír":5106,"norm":5107,"szociális":5108,"cukor":5109,"58":5110,"far":5111,"ou":5112,"Ádám":5113,"szil":5114,"elfoglal":5115,"adják":5116,"uth":5117,"omik":5118,"töm":5119,"entő":5120,"hete":5121,"évad":5122,"korú":5123,"számukra":5124,"fejezte":5125,"ilyenkor":5126,"holland":5127,"pari":5128,"mesélte":5129,"hivatalosan":5130,"halála":5131,"orvosok":5132,"problémát":5133,"fenyeg":5134,"vidéki":5135,"nyilvánosságra":5136,"vájci":5137,"ENSZ":5138,"Xbox":5139,"káb":5140,"vb":5141,"akkal":5142,"számát":5143,"2017":5144,"ölte":5145,"kapitányság":5146,"embernek":5147,"umot":5148,"ponton":5149,"kapcsolatot":5150,"Oroszországgal":5151,"zárta":5152,"zivat":5153,"fegyveres":5154,"felhasználók":5155,"szempontjából":5156,"létesítmény":5157,"ingyenes":5158,"120":5159,"pör":5160,"sho":5161,"upol":5162,"zá":5163,"one":5164,"megismer":5165,"adások":5166,"artóz":5167,"kapitány":5168,"kozott":5169,"tárgy":5170,"almát":5171,"példa":5172,"gyalog":5173,"Államokban":5174,"technológia":5175,"magyarázta":5176,"reagált":5177,"önkéntes":5178,"regisztr":5179,"Apple":5180,"zivatar":5181,"Fej":5182,"Hal":5183,"Vár":5184,"dől":5185,"sír":5186,"szór":5187,"etes":5188,"ere":5189,"alsó":5190,"azután":5191,"áru":5192,"ítható":5193,"kialakult":5194,"közelmúlt":5195,"berg":5196,"neve":5197,"2010":5198,"jelentőség":5199,"szembe":5200,"esetleges":5201,"világon":5202,"harminc":5203,"ebek":5204,"kapcsolódó":5205,"érintő":5206,"ünnepi":5207,"árius":5208,"közvetlenül":5209,"népszerűbb":5210,"eiket":5211,"megerősítette":5212,"jellemzően":5213,"honlapján":5214,"akkum":5215,"Lajos":5216,"hektár":5217,"köbméter":5218,"bonyol":5219,"brüsszeli":5220,"DE":5221,"Kés":5222,"Tr":5223,"War":5224,"japán":5225,"mak":5226,"mand":5227,"sá":5228,"teni":5229,"tatták":5230,"ává":5231,"szánt":5232,"alan":5233,"kös":5234,"izált":5235,"helye":5236,"rendező":5237,"újd":5238,"tele":5239,"tató":5240,"kezdték":5241,"beszélni":5242,"rup":5243,"költségek":5244,"ajánlott":5245,"szövetséges":5246,"nyújtott":5247,"Korábban":5248,"legyenek":5249,"kontin":5250,"olcsóbb":5251,"produkció":5252,"tökéletes":5253,"búcsúz":5254,"ümölcs":5255,"Gam":5256,"Met":5257,"Város":5258,"hold":5259,"svájci":5260,"őre":5261,"akti":5262,"olit":5263,"álat":5264,"rav":5265,"épül":5266,"rendelt":5267,"iroda":5268,"körű":5269,"kezdve":5270,"szállt":5271,"kérdésre":5272,"Cseh":5273,"hozzáfér":5274,"Mindez":5275,"nincsenek":5276,"közülük":5277,"lelk":5278,"nyilatkozott":5279,"Szabolcs":5280,"őrizetbe":5281,"Hungar":5282,"ellentét":5283,"42":5284,"67":5285,"Bl":5286,"Ham":5287,"bátor":5288,"jak":5289,"jába":5290,"nánk":5291,"ret":5292,"rúg":5293,"szoft":5294,"éséről":5295,"álják":5296,"itárius":5297,"nyár":5298,"2016":5299,"kedik":5300,"abból":5301,"vonat":5302,"adását":5303,"ötven":5304,"határozott":5305,"sikerül":5306,"nyugod":5307,"extr":5308,"résztvevő":5309,"fogyasztók":5310,"titkos":5311,"szerződést":5312,"projek":5313,"édesanyja":5314,"elegendő":5315,"izgalmas":5316,"Volt":5317,"ste":5318,"Ügy":5319,"szed":5320,"alól":5321,"árát":5322,"lehetetlen":5323,"vigy":5324,"lakos":5325,"drám":5326,"vásárolt":5327,"eredményt":5328,"növekedést":5329,"ublik":5330,"fogadta":5331,"szervezők":5332,"remél":5333,"támadások":5334,"játékosok":5335,"Star":5336,"becsl":5337,"erősödött":5338,"állomás":5339,"éjszaka":5340,"urcsány":5341,"epsiszentgyörgyi":5342,"Rich":5343,"gyilkosság":5344,"omikron":5345,"PS":5346,"kur":5347,"sötét":5348,"trend":5349,"tájék":5350,"erület":5351,"ésbe":5352,"ikát":5353,"amint":5354,"ítások":5355,"megőr":5356,"forgató":5357,"öltöz":5358,"órát":5359,"életben":5360,"vonta":5361,"támogató":5362,"bronz":5363,"frakció":5364,"mozog":5365,"szolgáltatások":5366,"kutatók":5367,"szervezett":5368,"csúsz":5369,"szövetségi":5370,"mennyiben":5371,"viszonylag":5372,"beruházás":5373,"tonna":5374,"Borsod":5375,"munkatársai":5376,"ideiglen":5377,"Alapítvány":5378,"lapunknak":5379,"ezüst":5380,"imnázium":5381,"59":5382,"Péld":5383,"Sch":5384,"hölgy":5385,"keny":5386,"tegy":5387,"szett":5388,"etben":5389,"gyümölcs":5390,"csarnok":5391,"meghosszabb":5392,"beny":5393,"álltak":5394,"kore":5395,"korrup":5396,"fogás":5397,"eim":5398,"eire":5399,"kapcsolatok":5400,"egyedi":5401,"Ukrajnából":5402,"csütörtöki":5403,"legjobban":5404,"aggod":5405,"pénteki":5406,"Imre":5407,"piros":5408,"intenzív":5409,"mérkőzést":5410,"Air":5411,"aho":5412,"fős":5413,"ger":5414,"horvát":5415,"ká":5416,"iket":5417,"megkeres":5418,"bevet":5419,"oltás":5420,"számítani":5421,"mindez":5422,"2014":5423,"aztak":5424,"magában":5425,"magára":5426,"opter":5427,"alaposan":5428,"kezdtek":5429,"osztrák":5430,"kérdések":5431,"téri":5432,"Anna":5433,"Gyurcsány":5434,"irányuló":5435,"növekedett":5436,"tekintve":5437,"tájékoztatása":5438,"mennyiségű":5439,"tiltak":5440,"tesznek":5441,"Ek":5442,"Mad":5443,"Míg":5444,"Pént":5445,"ky":5446,"kre":5447,"tom":5448,"táj":5449,"vent":5450,"elhagy":5451,"alíció":5452,"ezd":5453,"issz":5454,"élnek":5455,"megalap":5456,"meghív":5457,"szerb":5458,"felkészül":5459,"cip":5460,"ükben":5461,"hisz":5462,"ájával":5463,"némi":5464,"und":5465,"energetikai":5466,"milliárdos":5467,"brutt":5468,"eredmények":5469,"lehetősége":5470,"könnyebb":5471,"néven":5472,"környékén":5473,"várakoz":5474,"Techn":5475,"parancsnok":5476,"ternatív":5477,"bruttó":5478,"Kup":5479,"Mit":5480,"TA":5481,"Un":5482,"husz":5483,"kony":5484,"ura":5485,"óba":5486,"ásba":5487,"ama":5488,"ítettek":5489,"élők":5490,"rej":5491,"jabb":5492,"voltunk":5493,"jelentett":5494,"török":5495,"ellenfel":5496,"mindenképpen":5497,"eiben":5498,"világszerte":5499,"gondolt":5500,"helyzetbe":5501,"vásárolni":5502,"roham":5503,"fokú":5504,"kötvény":5505,"azonnali":5506,"karácsonyi":5507,"fertőzöttek":5508,"akkumulátor":5509,"Car":5510,"Ver":5511,"lök":5512,"tró":5513,"annál":5514,"ezése":5515,"iság":5516,"ester":5517,"egyven":5518,"amb":5519,"megnéz":5520,"nyű":5521,"felében":5522,"hatodik":5523,"többnyire":5524,"kaland":5525,"Szék":5526,"háza":5527,"előtte":5528,"mellék":5529,"párhuz":5530,"gyakori":5531,"győzelm":5532,"tűnt":5533,"forgalmi":5534,"medenc":5535,"elikopter":5536,"Ebből":5537,"ezren":5538,"érzékeny":5539,"rögtön":5540,"későbbi":5541,"vajon":5542,"beszélgetés":5543,"gyönyörű":5544,"illegális":5545,"66":5546,"Bence":5547,"Haz":5548,"Jel":5549,"boly":5550,"döbb":5551,"mez":5552,"mét":5553,"ons":5554,"amellyel":5555,"megkap":5556,"adion":5557,"ella":5558,"évforduló":5559,"írják":5560,"Szat":5561,"him":5562,"kedvel":5563,"végez":5564,"magának":5565,"halaszt":5566,"letartóz":5567,"hajtó":5568,"előrejelzés":5569,"betegek":5570,"mesterséges":5571,"bankok":5572,"negyedévben":5573,"ajánlat":5574,"intézmények":5575,"ifjú":5576,"méltó":5577,"ágazat":5578,"botrány":5579,"növekvő":5580,"250":5581,"600":5582,"Amennyiben":5583,"Dem":5584,"Hang":5585,"La":5586,"kák":5587,"sepsiszentgyörgyi":5588,"Ér":5589,"szö":5590,"ermek":5591,"alternatív":5592,"sztráj":5593,"legutóbb":5594,"számok":5595,"fogunk":5596,"tudtam":5597,"Egyelőre":5598,"anyuk":5599,"2024":5600,"jutni":5601,"akarnak":5602,"piacra":5603,"szolgáló":5604,"autót":5605,"otthonában":5606,"zenei":5607,"szigor":5608,"mértékű":5609,"élelmiszerek":5610,"együttműködés":5611,"településen":5612,"Miskolci":5613,"speciális":5614,"BU":5615,"Nek":5616,"Sőt":5617,"Utó":5618,"hód":5619,"pak":5620,"áci":5621,"őszi":5622,"űnő":5623,"eleti":5624,"ekint":5625,"eskü":5626,"osi":5627,"omra":5628,"hatalom":5629,"valódi":5630,"önálló":5631,"pro":5632,"ört":5633,"ástól":5634,"ódni":5635,"ném":5636,"mondták":5637,"útvonal":5638,"szintet":5639,"férje":5640,"akiket":5641,"karak":5642,"bárki":5643,"energiaválság":5644,"övetkez":5645,"emlékeztetett":5646,"hamis":5647,"képviselője":5648,"székely":5649,"ahogyan":5650,"szállítmány":5651,"szeretnének":5652,"agrár":5653,"údió":5654,"zápor":5655,"68":5656,"Fi":5657,"Hír":5658,"IT":5659,"Jobb":5660,"főként":5661,"helikopter":5662,"iát":5663,"nán":5664,"vont":5665,"zon":5666,"elind":5667,"ítélet":5668,"tudok":5669,"házak":5670,"sorban":5671,"kisfiú":5672,"osztott":5673,"197":5674,"melletti":5675,"unok":5676,"érkeznek":5677,"személyi":5678,"hazaiak":5679,"Által":5680,"ennyire":5681,"művészeti":5682,"költségvetés":5683,"szerencsére":5684,"oxid":5685,"atomerőmű":5686,"optim":5687,"karrier":5688,"Gab":5689,"Med":5690,"Nincs":5691,"Pal":5692,"káv":5693,"gyász":5694,"azil":5695,"esszor":5696,"csok":5697,"edzés":5698,"adag":5699,"jait":5700,"sággal":5701,"összegyű":5702,"tárol":5703,"készen":5704,"határon":5705,"folyamán":5706,"szeretet":5707,"kerülnek":5708,"záró":5709,"széki":5710,"lyel":5711,"legyőz":5712,"üzemeltet":5713,"ugrott":5714,"jellegű":5715,"köztársasági":5716,"Pedig":5717,"Sa":5718,"TE":5719,"Tok":5720,"mán":5721,"múzeum":5722,"özés":5723,"elvár":5724,"alul":5725,"esi":5726,"éket":5727,"sztikus":5728,"igh":5729,"ázó":5730,"épült":5731,"hetekben":5732,"számot":5733,"2000":5734,"műtét":5735,"epp":5736,"ódás":5737,"részeként":5738,"elemzés":5739,"betét":5740,"történtek":5741,"hadi":5742,"vállalkozás":5743,"Isten":5744,"végrehajt":5745,"édesanya":5746,"gyilkos":5747,"minimum":5748,"szoftver":5749,"51":5750,"Ir":5751,"Zem":5752,"hy":5753,"mért":5754,"red":5755,"toj":5756,"zus":5757,"szic":5758,"ikon":5759,"csoda":5760,"unkban":5761,"helyek":5762,"illa":5763,"százalékuk":5764,"alapító":5765,"holttest":5766,"vizet":5767,"drón":5768,"biztosítani":5769,"mutatják":5770,"versenyt":5771,"iskolai":5772,"dollárra":5773,"szerdai":5774,"küzdött":5775,"közlekedés":5776,"drágább":5777,"beruházások":5778,"Sokan":5779,"elkövetett":5780,"Debrecenben":5781,"lux":5782,"közzétett":5783,"stílus":5784,"közelmúltban":5785,"MA":5786,"masz":5787,"tar":5788,"ökor":5789,"ola":5790,"meghal":5791,"hatására":5792,"izz":5793,"hibáz":5794,"tudás":5795,"örö":5796,"világos":5797,"világban":5798,"döntet":5799,"ászati":5800,"jukat":5801,"szállod":5802,"pénztár":5803,"emelkedése":5804,"hírt":5805,"személyek":5806,"kitart":5807,"fizetési":5808,"készülnek":5809,"óriás":5810,"ellenőriz":5811,"elektron":5812,"alkalmából":5813,"fenti":5814,"járművek":5815,"tudományos":5816,"Micros":5817,"ilabda":5818,"Fran":5819,"Ked":5820,"Pat":5821,"York":5822,"roll":5823,"vok":5824,"vai":5825,"ené":5826,"alg":5827,"éllyel":5828,"kiemelkedő":5829,"helyén":5830,"helyét":5831,"várost":5832,"vezetést":5833,"kedő":5834,"kedett":5835,"baba":5836,"estek":5837,"nálunk":5838,"ellenfél":5839,"időpont":5840,"esetet":5841,"értékel":5842,"hétköz":5843,"ésekor":5844,"találta":5845,"katolikus":5846,"választások":5847,"címet":5848,"Elmondta":5849,"gépkocsi":5850,"katona":5851,"érinti":5852,"találkozott":5853,"növekedése":5854,"fogyasztói":5855,"nevét":5856,"telenül":5857,"párti":5858,"méteres":5859,"közleménye":5860,"tárgyalások":5861,"műsorvezető":5862,"novemberben":5863,"III":5864,"Máté":5865,"kerékpár":5866,"időjárás":5867,"gárda":5868,"klasszikus":5869,"Ekkor":5870,"Székely":5871,"ökország":5872,"Brit":5873,"Jak":5874,"MV":5875,"Ste":5876,"fár":5877,"furcs":5878,"ie":5879,"kát":5880,"noszt":5881,"vére":5882,"Ön":5883,"écs":5884,"elutas":5885,"aték":5886,"onc":5887,"ezhető":5888,"ikó":5889,"szerette":5890,"igazd":5891,"ulni":5892,"hatta":5893,"jelző":5894,"napelem":5895,"prémi":5896,"játszik":5897,"ügyvéd":5898,"fővárosban":5899,"látsz":5900,"fejtette":5901,"esetre":5902,"általa":5903,"játékok":5904,"szállították":5905,"messze":5906,"figyelni":5907,"területek":5908,"szerepe":5909,"fizető":5910,"ington":5911,"technikai":5912,"utcában":5913,"Németországban":5914,"igyekszik":5915,"arkas":5916,"Éppen":5917,"Honvéd":5918,"Márton":5919,"EP":5920,"KB":5921,"Visz":5922,"chip":5923,"nár":5924,"rokon":5925,"tend":5926,"uh":5927,"szebb":5928,"etáris":5929,"inél":5930,"ezési":5931,"kivált":5932,"ségben":5933,"felmer":5934,"ellel":5935,"izáció":5936,"helyiség":5937,"ókusz":5938,"magunk":5939,"ításra":5940,"találni":5941,"Magyarországot":5942,"személyiség":5943,"Andre":5944,"építkez":5945,"másodperc":5946,"eredményeket":5947,"jutottak":5948,"ütköz":5949,"hamarabb":5950,"nyertes":5951,"pályázat":5952,"térségében":5953,"költségvetési":5954,"Központi":5955,"vallom":5956,"kommunikációs":5957,"tragédia":5958,"DN":5959,"Dáni":5960,"Kol":5961,"Lond":5962,"MI":5963,"héttel":5964,"éh":5965,"eking":5966,"megbeszél":5967,"ozták":5968,"kialakul":5969,"nyék":5970,"feladatok":5971,"évesen":5972,"korában":5973,"tej":5974,"legfriss":5975,"uss":5976,"országba":5977,"óként":5978,"kapus":5979,"támadó":5980,"zsák":5981,"fölött":5982,"milliós":5983,"érdekes":5984,"említette":5985,"mekkora":5986,"karban":5987,"költsége":5988,"állítási":5989,"néző":5990,"nézve":5991,"bizonyíték":5992,"programok":5993,"Közép":5994,"szivár":5995,"képviselők":5996,"rendezik":5997,"sportoló":5998,"visszaj":5999,"szankció":6000,"szankciós":6001,"húzta":6002,"garant":6003,"meglepő":6004,"vitték":6005,"pályafut":6006,"csodál":6007,"bezár":6008,"alkohol":6009,"párhuzam":6010,"karakter":6011,"Microsoft":6012,"52":6013,"99":6014,"Múzeum":6015,"Rem":6016,"Tes":6017,"ménnyel":6018,"negyven":6019,"rap":6020,"sít":6021,"úszó":6022,"szon":6023,"elért":6024,"osta":6025,"integ":6026,"szerelem":6027,"kijelent":6028,"legnépszerűbb":6029,"2015":6030,"végső":6031,"házat":6032,"tatta":6033,"élyes":6034,"esetek":6035,"védett":6036,"lakások":6037,"egyike":6038,"fölé":6039,"különféle":6040,"betart":6041,"valamennyi":6042,"történelem":6043,"biztosító":6044,"működtet":6045,"galom":6046,"találkozón":6047,"iparág":6048,"események":6049,"bejelentés":6050,"szépség":6051,"naponta":6052,"panasz":6053,"Borsnak":6054,"Néhány":6055,"édesapja":6056,"Parlament":6057,"települések":6058,"újdonság":6059,"legfrissebb":6060,"Kéz":6061,"Koss":6062,"RT":6063,"sük":6064,"Év":6065,"Újabb":6066,"ávol":6067,"elveszt":6068,"alkat":6069,"ásán":6070,"otth":6071,"szerv":6072,"raf":6073,"évé":6074,"előkészít":6075,"illeti":6076,"őkép":6077,"várnak":6078,"Szal":6079,"hiba":6080,"tanak":6081,"alapítvány":6082,"asági":6083,"háborúban":6084,"polgári":6085,"lánya":6086,"földre":6087,"számítanak":6088,"autós":6089,"informat":6090,"zenész":6091,"szombati":6092,"éjjel":6093,"szokásos":6094,"környezetben":6095,"legalábbis":6096,"szeptemberben":6097,"sértett":6098,"bemutató":6099,"fenntartható":6100,"nyíl":6101,"Eddig":6102,"egyetért":6103,"kötelezettség":6104,"Talán":6105,"Intézet":6106,"ervatív":6107,"85":6108,"Dáv":6109,"Gaz":6110,"Haj":6111,"MO":6112,"Mert":6113,"Ok":6114,"Su":6115,"Trum":6116,"bu":6117,"lin":6118,"lettek":6119,"mín":6120,"Ör":6121,"árat":6122,"szerezni":6123,"indít":6124,"ovi":6125,"asztó":6126,"házigazd":6127,"iméter":6128,"rajt":6129,"forintért":6130,"menni":6131,"volum":6132,"vesznek":6133,"választók":6134,"maradnak":6135,"ica":6136,"anyagot":6137,"építés":6138,"Oroszországot":6139,"ülésén":6140,"gyermeke":6141,"akarják":6142,"gondolja":6143,"tekintetében":6144,"cserél":6145,"forgalma":6146,"egyetemi":6147,"fokozatosan":6148,"robbant":6149,"ügyfelek":6150,"méretű":6151,"véletlen":6152,"ashington":6153,"Később":6154,"Szatmár":6155,"Zempl":6156,"Kossuth":6157,"Dávid":6158,"Bél":6159,"Gazd":6160,"Ker":6161,"tok":6162,"győ":6163,"olva":6164,"esszív":6165,"ikában":6166,"ettük":6167,"megbeteg":6168,"hatták":6169,"értve":6170,"tartomány":6171,"ásoknak":6172,"képtelen":6173,"szakad":6174,"segítő":6175,"avart":6176,"komolyan":6177,"gondolom":6178,"euróval":6179,"hallg":6180,"reklám":6181,"megszüntet":6182,"vezérigazgatója":6183,"tulajdonosa":6184,"Karácsony":6185,"pillanatban":6186,"Rendőrkapitányság":6187,"feladata":6188,"vakcin":6189,"ítókép":6190,"Szerencsére":6191,"pandémia":6192,"tájékoz":6193,"54":6194,"Fr":6195,"Fekete":6196,"Ge":6197,"Mer":6198,"Musk":6199,"hev":6200,"jós":6201,"jaként":6202,"pszic":6203,"elve":6204,"egyebek":6205,"ras":6206,"ajt":6207,"valut":6208,"mielőtt":6209,"járnak":6210,"ünkben":6211,"részesed":6212,"stúdió":6213,"választó":6214,"sikerrel":6215,"gázt":6216,"kéri":6217,"ismertette":6218,"raktár":6219,"Arról":6220,"rong":6221,"kettős":6222,"márciusban":6223,"transz":6224,"dohány":6225,"otthont":6226,"!”":6227,"69":6228,"SH":6229,"cig":6230,"ff":6231,"meket":6232,"anni":6233,"ekbe":6234,"inet":6235,"olim":6236,"ezések":6237,"megvan":6238,"kiemel":6239,"omin":6240,"közúti":6241,"ukban":6242,"udit":6243,"szerintem":6244,"bab":6245,"ódtak":6246,"mondják":6247,"idővel":6248,"szélső":6249,"folyamatok":6250,"ózis":6251,"tápl":6252,"személyesen":6253,"Miért":6254,"vendéglát":6255,"videót":6256,"foglalkozó":6257,"eseményen":6258,"tényező":6259,"doboz":6260,"lezárt":6261,"elnököt":6262,"bőven":6263,"pedagógusok":6264,"Törökország":6265,"Érdek":6266,"számítógép":6267,"Horváth":6268,"Franciaország":6269,"statiszt":6270,"katasztrófavédelem":6271,"Utóbbi":6272,"53":6273,"62":6274,"800":6275,"Aba":6276,"Mak":6277,"ix":6278,"kincs":6279,"tál":6280,"véve":6281,"wit":6282,"ezve":6283,"megsért":6284,"ákon":6285,"aim":6286,"prop":6287,"tudat":6288,"Ezután":6289,"enie":6290,"ugyancsak":6291,"mentén":6292,"hangzott":6293,"használják":6294,"érdekelt":6295,"változat":6296,"építése":6297,"régóta":6298,"Szerint":6299,"barátság":6300,"győzelmet":6301,"feltét":6302,"nyilatkozat":6303,"intézkedéseket":6304,"királyi":6305,"befektetők":6306,"hirdetett":6307,"kilométeres":6308,"Tisza":6309,"Akad":6310,"eszközöket":6311,"Joe":6312,"vitte":6313,"interj":6314,"További":6315,"funkció":6316,"hajnalban":6317,"munkálatok":6318,"szerkeszt":6319,"Gu":6320,"Mil":6321,"Sam":6322,"Vi":6323,"gent":6324,"öszön":6325,"szál":6326,"ennyit":6327,"andr":6328,"aknak":6329,"orok":6330,"esnek":6331,"csem":6332,"megint":6333,"apr":6334,"edt":6335,"felszól":6336,"felszabad":6337,"ázott":6338,"aira":6339,"előz":6340,"ova":6341,"telenek":6342,"velünk":6343,"ügyében":6344,"lani":6345,"városában":6346,"színvonal":6347,"zsa":6348,"működött":6349,"emelkedtek":6350,"illetően":6351,"Oroszországban":6352,"állítják":6353,"influ":6354,"pártok":6355,"kereskedelem":6356,"jelentkezett":6357,"fertőzöttet":6358,"szexuális":6359,"human":6360,"büszke":6361,"robot":6362,"Zemplén":6363,"Bo":6364,"Bék":6365,"Ci":6366,"Dan":6367,"Kan":6368,"Párt":6369,"fak":6370,"horg":6371,"szé":6372,"meglehet":6373,"ákra":6374,"aiban":6375,"számolni":6376,"iac":6377,"ugál":6378,"ránk":6379,"döntése":6380,"térkép":6381,"rivál":6382,"következik":6383,"közölt":6384,"akarta":6385,"Közl":6386,"szabályozás":6387,"Kiemelte":6388,"komolyabb":6389,"varián":6390,"csökkenés":6391,"szankciókat":6392,"kedvező":6393,"sebesült":6394,"agresszió":6395,"tagállamok":6396,"liter":6397,"Minisztérium":6398,"forgatókönyv":6399,"Eközben":6400,"Net":6401,"So":6402,"Sem":6403,"kelő":6404,"lés":6405,"nénk":6406,"ood":6407,"the":6408,"elep":6409,"győr":6410,"eközben":6411,"érmes":6412,"bejár":6413,"ográ":6414,"várni":6415,"Sztár":6416,"mégsem":6417,"leny":6418,"jevi":6419,"sikert":6420,"konferenci":6421,"biztosított":6422,"rendszerek":6423,"szeretett":6424,"maradtak":6425,"vélhetően":6426,"vásárlók":6427,"kancell":6428,"reagál":6429,"kategóriában":6430,"Iskol":6431,"TV2":6432,"Mariupol":6433,"Romániában":6434,"Szolgálat":6435,"koreai":6436,"megbeteged":6437,".)":6438,"Mel":6439,"auszt":6440,"mult":6441,"patt":6442,"elérte":6443,"atart":6444,"érem":6445,"érett":6446,"ítve":6447,"nyúl":6448,"ulnak":6449,"hetek":6450,"hetes":6451,"odó":6452,"ney":6453,"viadal":6454,"halott":6455,"gyanúja":6456,"akivel":6457,"mérg":6458,"határát":6459,"Csütörtö":6460,"erőt":6461,"szóba":6462,"negyedév":6463,"köszönhető":6464,"borz":6465,"mértéke":6466,"fotót":6467,"sorozatban":6468,"Bizt":6469,"döntőben":6470,"érdeklődés":6471,"májusban":6472,"szomorú":6473,"művelet":6474,"Négy":6475,"Hogyan":6476,"Trump":6477,"mínusz":6478,"Bud":6479,"Fil":6480,"Mos":6481,"Telek":6482,"fól":6483,"fór":6484,"jal":6485,"nes":6486,"rö":6487,"szek":6488,"szót":6489,"szovjet":6490,"eltelt":6491,"kötet":6492,"nyak":6493,"keddi":6494,"mindennapi":6495,"óráig":6496,"őrök":6497,"váltak":6498,"kormányt":6499,"aszály":6500,"osztotta":6501,"kérdést":6502,"díját":6503,"brid":6504,"hónapos":6505,"Gyula":6506,"kívüli":6507,"folytatja":6508,"keresztény":6509,"szülei":6510,"vasárnapi":6511,"kevesebbet":6512,"erdélyi":6513,"becsül":6514,"júliusban":6515,"esélye":6516,"Novák":6517,"Gazprom":6518,"Abaúj":6519,"78":6520,"Fed":6521,"Jár":6522,"Ko":6523,"Kelet":6524,"Munk":6525,"Pa":6526,"Teh":6527,"fém":6528,"hették":6529,"vörös":6530,"ászt":6531,"ápi":6532,"elnek":6533,"alv":6534,"oros":6535,"orit":6536,"ezettek":6537,"ttől":6538,"ülése":6539,"megjegy":6540,"ozását":6541,"közvélemény":6542,"leány":6543,"többé":6544,"amiben":6545,"főnök":6546,"órium":6547,"kisfi":6548,"diag":6549,"dolgok":6550,"gyermeket":6551,"következtet":6552,"építeni":6553,"fejlesztő":6554,"irányába":6555,"Közben":6556,"regény":6557,"légit":6558,"bántal":6559,"tervezi":6560,"Áll":6561,"unió":6562,"tekintettel":6563,"talanul":6564,"járművet":6565,"ázsiai":6566,"ágyi":6567,"Borítókép":6568,"Való":6569,"diplomáci":6570,"beszerzési":6571,"görög":6572,"DA":6573,"Sepsiszentgyörgy":6574,"Vesz":6575,"afr":6576,"dur":6577,"folt":6578,"git":6579,"holt":6580,"km":6581,"lon":6582,"mát":6583,"pet":6584,"sűr":6585,"Ők":6586,"érezte":6587,"egységes":6588,"csor":6589,"élett":6590,"megtart":6591,"megmutat":6592,"megszokott":6593,"apja":6594,"kiadott":6595,"hozták":6596,"helyeken":6597,"Szint":6598,"kedd":6599,"látják":6600,"folyt":6601,"veszik":6602,"pénzügyminiszter":6603,"csoportos":6604,"szembeni":6605,"szolgálati":6606,"hiánya":6607,"nyilvánvaló":6608,"tájékoztatta":6609,"álláspont":6610,"Zsuzs":6611,"érdeklődők":6612,"bekövetkez":6613,"csatlakozott":6614,"kultúr":6615,"monetáris":6616,"minőségű":6617,"stratégi":6618,"amiket":6619,"kulcsfontosságú":6620,"megelőz":6621,"eredetileg":6622,"luxus":6623,"rivális":6624,"Reg":6625,"SK":6626,"bic":6627,"hai":6628,"pil":6629,"sü":6630,"áp":6631,"űköd":6632,"érő":6633,"égett":6634,"átmen":6635,"szerezte":6636,"raeli":6637,"ségbe":6638,"bevándor":6639,"indítvány":6640,"terror":6641,"hoztak":6642,"napját":6643,"hab":6644,"mindannyi":6645,"ősök":6646,"iról":6647,"követi":6648,"halmoz":6649,"oroszországi":6650,"életbe":6651,"életüket":6652,"értékben":6653,"ugyanúgy":6654,"szabott":6655,"ránd":6656,"market":6657,"használja":6658,"adóz":6659,"változások":6660,"területi":6661,"okozhat":6662,"koalíció":6663,"essége":6664,"képviselet":6665,"folytatta":6666,"Ukrajnába":6667,"sportág":6668,"reműköd":6669,"jöttek":6670,"alkotó":6671,"utazott":6672,"kosár":6673,"ciklus":6674,"fordulójában":6675,"gyenge":6676,"villany":6677,"megállapodást":6678,"februárban":6679,"médiában":6680,"kezdeményezés":6681,"négyzetméteres":6682,"megújuló":6683,"szolid":6684,"Árp":6685,"televízió":6686,"Bajnok":6687,"potenci":6688,"Viszont":6689,"Telekom":6690,"Kam":6691,"Lu":6692,"Mon":6693,"MSZ":6694,"fan":6695,"fáz":6696,"gomb":6697,"nel":6698,"nát":6699,"rág":6700,"óni":6701,"aku":6702,"emben":6703,"oknál":6704,"kök":6705,"megemlék":6706,"meglévő":6707,"megsemmis":6708,"ream":6709,"feltölt":6710,"befog":6711,"legrosszabb":6712,"többlet":6713,"magával":6714,"tárgyak":6715,"ításával":6716,"elsőd":6717,"útra":6718,"vasúti":6719,"formájában":6720,"célpont":6721,"változik":6722,"rendszeres":6723,"hónappal":6724,"hátra":6725,"selejt":6726,"Ind":6727,"gyorsabban":6728,"érintettek":6729,"harmada":6730,"vita":6731,"filmek":6732,"Arén":6733,"labda":6734,"válaszolt":6735,"készültek":6736,"beleértve":6737,"címmel":6738,"szépen":6739,"bővít":6740,"forgalmaz":6741,"ratul":6742,"ratikus":6743,"kárty":6744,"lényegében":6745,"benzink":6746,"maximum":6747,"hozzátéve":6748,"Miniszter":6749,"Johnson":6750,"letartóztat":6751,"63":6752,"Bu":6753,"Donyec":6754,"Fot":6755,"Gro":6756,"Lev":6757,"No":6758,"On":6759,"Tor":6760,"eiről":6761,"gát":6762,"jához":6763,"kód":6764,"lic":6765,"ps":6766,"Ág":6767,"elést":6768,"atú":6769,"árnyék":6770,"ongó":6771,"nyíregyház":6772,"ogó":6773,"előadó":6774,"Azóta":6775,"jelzi":6776,"országból":6777,"máris":6778,"őkkel":6779,"öltö":6780,"ősszel":6781,"szakma":6782,"utánpót":6783,"szemb":6784,"néha":6785,"emelést":6786,"ításában":6787,"mérő":6788,"súlyosan":6789,"építési":6790,"nézők":6791,"találkozót":6792,"Nyil":6793,"futott":6794,"játszani":6795,"utcán":6796,"viszonyítva":6797,"kilométerre":6798,"meglepet":6799,"Molnár":6800,"Először":6801,"Spanyol":6802,"alapvetően":6803,"hátter":6804,"Vasár":6805,"Ausztri":6806,"rámutat":6807,"Műv":6808,"megmenteni":6809,"kábító":6810,"dőlt":6811,"DEAC":6812,"karbantart":6813,"Szintén":6814,"77":6815,"Jan":6816,"Papp":6817,"sí":6818,"senek":6819,"tlen":6820,"Öt":6821,"szök":6822,"embar":6823,"megb":6824,"megjegyezte":6825,"étkez":6826,"kicsi":6827,"felhős":6828,"hatvan":6829,"előrel":6830,"Azért":6831,"számon":6832,"kerest":6833,"teli":6834,"Szol":6835,"ettebb":6836,"ításának":6837,"oldalú":6838,"célba":6839,"kodott":6840,"működését":6841,"személyautó":6842,"brazil":6843,"résztvevők":6844,"tian":6845,"jelentősebb":6846,"temet":6847,"folytatni":6848,"népszavaz":6849,"fiatalabb":6850,"figyelmét":6851,"moder":6852,"hétfői":6853,"töltő":6854,"műsorban":6855,"vonatkozik":6856,"rövidebb":6857,"beszédében":6858,"médi":6859,"ucat":6860,"utakon":6861,"érzem":6862,"kiny":6863,"bizonytalanság":6864,"javaslatot":6865,"legendás":6866,"rezsicsökkentés":6867,"tüzet":6868,"fűzte":6869,"Például":6870,"huszon":6871,"párhuzamosan":6872,"bántalmaz":6873,"Buk":6874,"EC":6875,"FI":6876,"Gal":6877,"Hason":6878,"KSH":6879,"Majd":6880,"Tu":6881,"US":6882,"dag":6883,"fidesz":6884,"kosz":6885,"pre":6886,"pic":6887,"svéd":6888,"Élet":6889,"óc":6890,"elhúz":6891,"olható":6892,"istá":6893,"érmet":6894,"megváltoztat":6895,"felét":6896,"korszak":6897,"izraeli":6898,"jelek":6899,"teret":6900,"vei":6901,"szerinti":6902,"ebbe":6903,"eztük":6904,"szeml":6905,"ellene":6906,"Egyre":6907,"vonz":6908,"ításához":6909,"dics":6910,"vasszal":6911,"létezik":6912,"maradni":6913,"nyomozás":6914,"egyenlő":6915,"bizonyult":6916,"véleked":6917,"Első":6918,"művek":6919,"perces":6920,"emlékeztet":6921,"mosoly":6922,"termékeket":6923,"hallgató":6924,"tekinthető":6925,"megoldások":6926,"Erről":6927,"elsőként":6928,"harcok":6929,"kötőd":6930,"küzdelem":6931,"arányban":6932,"ünnepség":6933,"energiat":6934,"októberben":6935,"forgalmat":6936,"telefonon":6937,"kifejtette":6938,"régiben":6939,"januárban":6940,"Párizs":6941,"tüzér":6942,"szórakoztat":6943,"Hétfő":6944,"voks":6945,"alkatrész":6946,"Árpád":6947,"64":6948,"Com":6949,"Kal":6950,"Kul":6951,"Neh":6952,"bak":6953,"fókusz":6954,"kaz":6955,"lav":6956,"nom":6957,"sar":6958,"alud":6959,"felejt":6960,"aid":6961,"hetedik":6962,"értesül":6963,"vetett":6964,"műanyag":6965,"jelentették":6966,"képzel":6967,"részében":6968,"eltávol":6969,"tanult":6970,"hany":6971,"órákban":6972,"folyós":6973,"alapanyag":6974,"munkanélkül":6975,"nőnek":6976,"jelenik":6977,"férj":6978,"oldali":6979,"lépést":6980,"fontosnak":6981,"erőfesz":6982,"gázolaj":6983,"illetékes":6984,"híres":6985,"Annak":6986,"melyben":6987,"fejlesztések":6988,"tisztség":6989,"művészet":6990,"gyorsabb":6991,"nőttek":6992,"Nyír":6993,"vizsgálják":6994,"veszélyeztet":6995,"hallott":6996,"ársap":6997,"jönnek":6998,"önkormányzatok":6999,"ionális":7000,"számla":7001,"étterem":7002,"irodalom":7003,"ezred":7004,"nappali":7005,"látványos":7006,"levelet":7007,"vereséget":7008,"mozdul":7009,"adósság":7010,"Macron":7011,"show":7012,"Jobbik":7013,"diplomáciai":7014,"afrikai":7015,"Bog":7016,"Bereg":7017,"Eszt":7018,"Foly":7019,"Japán":7020,"Kid":7021,"MÁ":7022,"Vaj":7023,"Washington":7024,"gé":7025,"rett":7026,"alpolgármester":7027,"ttel":7028,"októl":7029,"csepp":7030,"megmér":7031,"edék":7032,"kijevi":7033,"számunkra":7034,"százezer":7035,"képeket":7036,"kellem":7037,"magunkat":7038,"kozik":7039,"munkás":7040,"csapatot":7041,"esztend":7042,"jelenség":7043,"vezetőedző":7044,"mail":7045,"választáson":7046,"nyugdíjas":7047,"példát":7048,"ace":7049,"bíró":7050,"folytatódik":7051,"barátja":7052,"inflációt":7053,"tapasztalat":7054,"döntöttek":7055,"mozgós":7056,"kultúra":7057,"Facebookon":7058,"tehetség":7059,"éjszakai":7060,"felhívta":7061,"információkat":7062,"fertőződ":7063,"kiterjed":7064,"Hiába":7065,"migrán":7066,"Bihar":7067,"koncentrál":7068,"mandátum":7069,"humanitárius":7070,"Bod":7071,"Judit":7072,"Mész":7073,"Mező":7074,"Rád":7075,"Vannak":7076,"ey":7077,"fák":7078,"jei":7079,"lond":7080,"tür":7081,"anci":7082,"ésről":7083,"árbevétel":7084,"áremelkedés":7085,"arch":7086,"ikum":7087,"egyez":7088,"csel":7089,"csőd":7090,"megsérült":7091,"község":7092,"közreműköd":7093,"feled":7094,"ényi":7095,"izzs":7096,"legkisebb":7097,"legfőbb":7098,"tervezet":7099,"mindegyik":7100,"fogva":7101,"tartalm":7102,"törleszt":7103,"végleg":7104,"végeztek":7105,"összességében":7106,"ítással":7107,"mentők":7108,"támogatását":7109,"hangul":7110,"háromszéki":7111,"állapota":7112,"szörnyű":7113,"nyitva":7114,"árakat":7115,"elégedett":7116,"finál":7117,"sportol":7118,"aláír":7119,"részletes":7120,"1000":7121,"zajlott":7122,"Ferencváros":7123,"érvényben":7124,"Berki":7125,"csinálni":7126,"onald":7127,"Színház":7128,"sürgős":7129,"projektek":7130,"Pénteken":7131,"Általános":7132,"Jakab":7133,"londoni":7134,"CO":7135,"Had":7136,"Port":7137,"Pusk":7138,"Sepsi":7139,"já":7140,"kun":7141,"net":7142,"pinc":7143,"zat":7144,"üsp":7145,"elit":7146,"erül":7147,"atórium":7148,"orológiai":7149,"álom":7150,"egységek":7151,"követte":7152,"csí":7153,"uters":7154,"kihasznál":7155,"rei":7156,"vezettek":7157,"öngy":7158,"berális":7159,"számban":7160,"kereset":7161,"2013":7162,"végzés":7163,"szemét":7164,"folyik":7165,"sorra":7166,"kissé":7167,"hard":7168,"vállalta":7169,"vállalati":7170,"esített":7171,"összehasonl":7172,"határozat":7173,"következett":7174,"kilép":7175,"Mindig":7176,"esebben":7177,"szolgáltatást":7178,"légvédelmi":7179,"kérik":7180,"folyamatban":7181,"fogadja":7182,"ritka":7183,"próbálta":7184,"csomó":7185,"fotóz":7186,"decemberben":7187,"befektetési":7188,"turisztikai":7189,"tizenkét":7190,"elképesztő":7191,"elismerte":7192,"rászor":7193,"jöhet":7194,"komplex":7195,"Richter":7196,"Béla":7197,"79":7198,"Farkas":7199,"Hely":7200,"KK":7201,"KDN":7202,"Na":7203,"Tar":7204,"búz":7205,"bölcs":7206,"foc":7207,"io":7208,"tucat":7209,"éje":7210,"óce":7211,"elhár":7212,"elkészít":7213,"ásból":7214,"ezők":7215,"megfigy":7216,"apa":7217,"felvon":7218,"legalacsonyabb":7219,"usi":7220,"rendre":7221,"kaptam":7222,"talaj":7223,"részére":7224,"főtit":7225,"rajongó":7226,"atokkal":7227,"félre":7228,"hozza":7229,"inkat":7230,"találat":7231,"támogatott":7232,"használnak":7233,"választották":7234,"társas":7235,"személyzet":7236,"brut":7237,"közlése":7238,"kerülhet":7239,"csökkenteni":7240,"bármikor":7241,"tiszta":7242,"tisztáz":7243,"díjak":7244,"emlékezet":7245,"parti":7246,"jaiban":7247,"nyilvános":7248,"épületet":7249,"akadt":7250,"labor":7251,"súlyosabb":7252,"tükr":7253,"legtöbben":7254,"augusztusban":7255,"távolság":7256,"igyekeznek":7257,"réteg":7258,"Program":7259,"júniusban":7260,"jelöltje":7261,"bevezetett":7262,"Reuters":7263,"szomszédos":7264,"Kovász":7265,"télen":7266,"verzió":7267,"frank":7268,"Dunán":7269,"kabinet":7270,"Hungary":7271,"Hangsúly":7272,"profi":7273,"maszk":7274,"döntetlen":7275,"Tehát":7276,"elsődleges":7277,"KDNP":7278,"!\"":7279,"Ba":7280,"RS":7281,"fik":7282,"hőség":7283,"lista":7284,"vös":7285,"ómi":7286,"eltör":7287,"alát":7288,"emleg":7289,"ezent":7290,"éria":7291,"élénk":7292,"megteremt":7293,"előbbi":7294,"terep":7295,"dei":7296,"játszó":7297,"ájukat":7298,"támog":7299,"félidőben":7300,"Nemcsak":7301,"dolgot":7302,"dolgokat":7303,"tötték":7304,"fordít":7305,"kérdése":7306,"ektív":7307,"erővel":7308,"szeretettel":7309,"hírportál":7310,"lehetőségét":7311,"elmondása":7312,"veszélyt":7313,"spir":7314,"drágulás":7315,"büntetés":7316,"gyengült":7317,"növeli":7318,"beszédet":7319,"térségben":7320,"védelme":7321,"védekezés":7322,"mutatták":7323,"mostanra":7324,"Liga":7325,"eltűnt":7326,"sajtótájékoztatón":7327,"DVSC":7328,"propag":7329,"kancellár":7330,"Puskás":7331,"95":7332,"Bul":7333,"Cel":7334,"Finn":7335,"Kaz":7336,"LE":7337,"Mc":7338,"Nik":7339,"Ter":7340,"Telj":7341,"ahonnan":7342,"cit":7343,"gár":7344,"iP":7345,"ih":7346,"kolt":7347,"rug":7348,"szúr":7349,"oki":7350,"megnyug":7351,"kiadás":7352,"határt":7353,"air":7354,"korr":7355,"oltást":7356,"legközelebb":7357,"ösen":7358,"számítás":7359,"havonta":7360,"szava":7361,"kapunk":7362,"képek":7363,"visszak":7364,"nála":7365,"vicc":7366,"Egyéb":7367,"leszek":7368,"zési":7369,"szintre":7370,"Magyarországnak":7371,"sajnál":7372,"hangoztat":7373,"lépni":7374,"avat":7375,"mesélt":7376,"hagyja":7377,"hagyják":7378,"működési":7379,"ice":7380,"eredményeként":7381,"szabadon":7382,"off":7383,"irányba":7384,"nyitó":7385,"elsej":7386,"támadást":7387,"meccsen":7388,"Szabad":7389,"Miközben":7390,"áprilisban":7391,"elfogadott":7392,"rádió":7393,"fagyaszt":7394,"keletkezett":7395,"aporizzs":7396,"kreatív":7397,"győződ":7398,"feltétlenül":7399,"meglehetősen":7400,"nyíregyházi":7401,"61":7402,"Bet":7403,"Gr":7404,"ME":7405,"Mart":7406,"bin":7407,"com":7408,"graf":7409,"jére":7410,"vöz":7411,"ósok":7412,"elindul":7413,"ise":7414,"amiről":7415,"adalom":7416,"szerel":7417,"tavasszal":7418,"feltár":7419,"országokban":7420,"nagyot":7421,"prot":7422,"hibrid":7423,"jelentést":7424,"tudatta":7425,"külföldön":7426,"amelyre":7427,"tanuló":7428,"oldalak":7429,"órában":7430,"miatti":7431,"divat":7432,"plik":7433,"kérdő":7434,"hagyni":7435,"ico":7436,"iskolában":7437,"fejlesztése":7438,"belüli":7439,"vizsgálatot":7440,"borult":7441,"fegyverek":7442,"kikép":7443,"drága":7444,"kézzel":7445,"Barát":7446,"északkeleti":7447,"ezres":7448,"házasság":7449,"Fővárosi":7450,"osszú":7451,"sárga":7452,"jótékony":7453,"bennünket":7454,"református":7455,"lendület":7456,"uralkodó":7457,"megalapozott":7458,"ausztrál":7459,"Vasárnap":7460,"fideszes":7461,"kellemetlen":7462,"As":7463,"Cl":7464,"Du":7465,"Emiatt":7466,"Milyen":7467,"Pro":7468,"Tim":7469,"fúj":7470,"kai":7471,"lása":7472,"mában":7473,"moszk":7474,"pok":7475,"rot":7476,"ski":7477,"eladó":7478,"elkövető":7479,"gyújt":7480,"arend":7481,"ikák":7482,"megszólal":7483,"ada":7484,"ségének":7485,"közigazgat":7486,"lebb":7487,"észek":7488,"észlel":7489,"előír":7490,"forma":7491,"képerny":7492,"törzs":7493,"járult":7494,"ügyvezető":7495,"követel":7496,"védelmet":7497,"váltott":7498,"lépéseket":7499},"merges":["s z","e l","e t","e n","g y","e r","a t","a l","a n","a z","e k","é s","a k","o r","á r","i n","e m","o n","o l","á l","e g","á s","e z","i s","e s","á n","t t","o k","é r","a r","é g","h o","i k","é n","e gy","o s","k ö","b b","c s","á t","ü l","et t","a m","í t","é l","m eg","á g","a p","ho gy","é k","b an","é t","e d","in t","a d","b en","o tt","sz er","a gy","i l","sz t","o z","i t","r a","u t","k i","o m","r e","s ég","t a","n em","kö z","n y","i g","f el","n i","t ö","ó l","j a","u l","l e","á k","á z","ál l","el l","b e","é p","o g","el y","n k","a s","a j","h at","a i","n ak","en t","é sz","án y","á m","h et","é v","én y","ér t","n ek","k or","el ő","A z","i z","i d","v al","ol t","a g","o t","t e","in d","m i","c i","s ág","l eg","u k","en d","j el","t er","u s","v ez","ő l","k ez","ál t","f or","o d","u nk","on t","sz ág","ar t","ö n","or szág","ho z","h ely","u d","í r","ol y","ö s","d e","v e","b er","sz ám","ó k","n e","n agy","ö k","on d","n ap","v olt","h a","v et","il l","ü k","r end","m ár","m ind","k er","o v","tö bb","at t","á bb","szer int","ő k","agy ar","u r","2 0","á b","á ban","k al","ú j","ö l","sz a","v ár","t el","én t","el m","e j","é ben","f og","ül t","S z","í v","o sz","p r","t art","ek et","ú l","h i","ö tt","ő s","ár a","k ap","ol g","m ű","vez et","sz áz","ás ok","v an","jel ent","v el","ett e","i a","k ed","t ud","az t","é d","em ber","le het","er t","k ép","é z","tö r","j át","f i","v ég","k ül","sz ak","m ég","l en","k ell","ci ó","m ás","cs ak","i szt","al ék","ö r","j ár","m ag","m int","z et","b iz","am ely","b a","száz alék","e p","ut án","ál y","v ál","e bb","p ed","ás a","i r","és e","v agy","ás t","j ák","aj d","a szt","k oz","t al","h áz","ös sz","r ól","es t","v is","ü nk","s em","ped ig","n ál","t at","u m","ül et","on y","k ét","ér d","ü gy","m ény","o bb","él y","ez t","ok at","m in","á j","ö v","ó d","sz em","n a","m ány","s ő","és t","E z","ell en","am i","hat ó","t ak","t ár","r ész","i ó","ít ott","m agyar","án ak","v i","kö vet","a bb","f ő","n é","el t","z ő","mind en","m ond","t an","m ill","p ont","e i","l át","or t","h an","az on","ol d","ó r","ér e","f oly","kö r","h al","ő r","gy an","ur ó","í n","s or","l et","v er","or osz","h ez","á d","v a","j e","u g","al m","E gy","id ő","ás i","m ajd","b el","f ej","s ok","v il","es en","an y","él et","i m","én ek","en y","ut at","t ám","og at","o p","k el","á ció","es et","le sz","n ök","a b","ul t","al ap","m unk","s t","is m","v éd","ov ább","n ő","v ált","í z","ak i","os t","ak kor","ra j","kez d","z és","biz t","k ész","á val","ár t","em el","ó t","o b","ál is","for int","vil ág","ó s","ü z","m en","í gy","M agyar","y en","ú gy","mi att","köz ött","t ovább","v on","b ól","tör t","as ág","em ény","l ak","ik ai","os an","oly an","at ok","t et","kor mány","ít ás","l an","en i","elő tt","t ek","cs ap","r ől","vár os","és i","O r","en g","az d","el ső","sz ín","ért ék","k is","uró p","d i","il yen","u gyan","k ol","sza b","h ol","m ell","h ét","m ér","a sz","0 0","z s","h ar","f él","r án","ha sz","b ől","el nök","ú t","áll al","el em","ü n","és ek","d ön","ö z","áb or","k ént","ig az","n él","v állal","g at","e szt","het ő","hoz z","at al","tel j","er g","g azd","ny i","e b","v as","min iszt","jel en","e sz","ter m","ut ó","in k","20 2","azon ban","an i","s eg","c h","sz int","v ény","sz él","eg ész","kap cs","egy ik","l ő","t ák","N em","vezet ő","ik us","p ar","ik or","d olg","á sz","év es","gy er","tal ál","e v","ált al","o szt","ét el","l ó","ár d","sz en","el mi","h ár","m ent","ad ás","al ak","l t","et len","j ó","seg ít","p er","j uk","m ert","m a","f öl","er ős","ját ék","f ér","1 9","cs al","kül ön","val ó","es ít","mond ta","év el","r an","p ort","sz olg","k at","nagy obb","mell ett","d ig","at i","ar ra","m ost","m ar","b et","h aj","össz e","sz áll","Magyar ország","mill ió","p ol","j án","uk rán","old al","f ont","kapcs ol","h ábor","p l","en ek","v ol","s aj","kö d","tám ogat","ök k","s al","úl t","és ét","ő ség","ét er","for m","vi sz","t ó","han g","u n","ó ta","ek ed","ker es","hasz nál","ez er","ta g","ü tt","ás ár","er ed","köz ös","s ik","g ond","l ép","miniszt er","r á","én z","val am","hár om","a v","et i","köz el","ér kez","é m","kor ább","c él","ve sz","en erg","nagy on","cs ökk","m es","mill i","f iz","r am","vál aszt","ö t","at a","ad ó","h az","dolg oz","áll am","hat ár","egy ütt","ez ő","c ég","gazd aság","v ány","E uróp","milli árd","fi gy","érd ek","p énz","tö tt","p ár","z el","ás át","á cs","dön t","ett ek","for d","ű n","csal ád","ő z","ett ék","j obb","k érd","k on","al att","font os","hábor ú","v iz","h agy","hely zet","d r","vált oz","h on","úl y","vis sza","ter ület","k om","ak ik","ek t","ol ó","n ok","k od","tár s","í g","d í","t ér","U k","v án","at koz","at ot","s úly","áb ól","tört én","bizt os","j egy","p ia","szer ep","áb a","C s","sik er","él d","al kal","mű köd","rend szer","foly am","em l","b al","am ikor","l al","r i","er ő","szer ű","in cs","l ét","Uk raj","or s","ny ug","int éz","k ív","követ kez","hozz á","sz ük","1 0","f ü","h ó","h ív","ver s","g áz","é szt","in ek","m ek","szer et","mar ad","p éld","v ásár","e h","ség es","emel ked","be szél","ill et","ít ó","o gy","ó z","sz ó","p ály","sz ól","j og","m utat","i c","f l","u sz","kö n","pol it","an ak","j öv","Or osz","ek en","m egy","ok oz","szám ára","t á","any ag","b aj","a hol","h ír","en c","szem ély","k it","A n","k o","le szt","fiz et","ség i","d er","g al","ép ít","g el","mag as","i tt","in g","e x","más od","egy ed","om b","ar ról","hi v","k am","1 5","százalék kal","ol l","ez te","valam int","m ely","b r","vers eny","hó nap","s sz","os ság","on ság","a c","ered mény","t ól","n öv","Orosz ország","köz l","k il","köz öl","ny il","r ég","fog lal","né gy","i ai","k ar","es ség","d él","og ram","id e","H a","gy ak","is kol","l ap","ism er","l ett","an d","ad ott","om ány","ez ett","v étel","ő en","rend őr","am it","c í","nem zet","ny om","ül és","fel elő","ő t","kapcsol at","t úl","ö g","sz or","u szt","egy en","m ód","ők et","ad at","áll ap","vol na","h as","an nak","olg ár","sz ör","rend el","ó b","ek kel","kör ül","elm últ","ker ül","l at","ul ó","l am","hi szen","szab ad","ások at","ok ban","t or","és re","fej leszt","m et","h át","ci ók","s el","N agy","ek ben","ú z","ű z","r om","ú ja","ált at","m az","G y","visz ont","csökk ent","ugyan is","ez ért","elő re","e c","r észt","á ul","s ér","b ár","f r","s g","jöv ő","b ar","kö lt","a utó","h ány","M i","p olgár","áll ít","illet ve","ed dig","han em","ás sal","r ó","r u","ség e","n éz","lehet őség","ud ap","gyer mek","fér fi","M ind","biz ony","bizt onság","g g","s ó","udap est","an k","csap at","p en","alm az","o f","pr ogram","j ut","m el","jelen leg","ir ány","i um","n incs","ny it","op ort","kép vis","m oz","m ad","k ev","t i","energ ia","I n","f ogy","t iszt","munk a","val y","ak ar","es ebb","másod ik","3 0","viz sg","v ő","ás ra","pr ób","v él","v íz","K öz","fü gg","ügy i","es ég","és ére","gy ű","1 8","ség et","z ár","jelent ős","kív ül","l ag","ő d","202 2","am er","E l","ó i","k és","m ilyen","ak ár","úja bb","s i","v en","cs oport","gond ol","j ük","péld ául","t em","ott ak","t ette","r d","or v","dí j","ott a","b ír","t ék","á ja","pia c","k í","sza v","foly tat","saj át","ker ült","baj nok","mű v","per c","oló g","szer vezet","tört ént","r eg","közöl te","sz ik","e uró","at lan","elm ond","bet eg","százalék os","nél kül","szolg áltat","ít ani","z ett","gy ors","t ett","leg nagyobb","van nak","tt al","r os","ö vet","telj es","korább an","n ép","gazdaság i","g ép","az ért","bb i","mes ter","l ég","amer ikai","hely i","j ól","b án","ban k","fi atal","eml ék","es ült","m it","ész et","ember ek","szab ály","á hoz","ított a","bel ül","t ől","mind ig","az ok","d oll","kat on","e f","5 0","re c","gat ó","n al","ink ább","ér int","é b","ell át","talál koz","oz tat","ta valy","t ő","jelent ette","sor án","lő d","oz z","kör ny","sz ön","szem ben","l ány","ker eszt","k ér","ül ő","is ég","abb an","ün tet","har mad","k l","t iz","alm as","haz ai","k ár","1 2","szolg ál","h am","hiv atal","ol aj","tel ep","véd elmi","E n","ut y","sz i","ez ek","nő tt","új ra","v it","ér ől","in fl","ít ett","en n","köz i","föl d","D e","amely ek","folyam at","idő szak","ch n","Sz er","alap ján","od a","ul l","id én","k utat","ás ára","áll ó","növ eked","n egyed","n ö","gyer ek","es s","for r","has on","1 4","at on","e uróp","és sel","ezt et","or d","N y","európ ai","M ar","figy elm","üz em","eng ed","an t","ter vez","más ik","z i","oz ott","j ában","k a","el ér","ző d","gyak or","1 6","vizsg ál","ő bb","al om","Á l","f ut","oz ó","oz at","ne vez","z al","év e","áj ék","u p","köz ül","vesz ély","id ej","ci a","egy re","ható ság","m os","t am","u b","án d","e it","kö szön","fogy aszt","képvis elő","ez et","cs i","ve szt","kész ül","h it","esz köz","term ék","m íg","u ni","cs at","ott ság","t űz","en nek","gy al","M eg","ez zel","m ik","ár ak","fog ad","rend ez","B udapest","ny er","h ad","m er","ok kal","d ar","f ek","z ék","v á","st r","ö nk","hi ány","m ai","ó n","egy es","m al","len ne","al k","Ukraj n","sz ív","át lag","áció s","á tt","ut ol","f il","kell ett","1 3","hal l","ig ény","k ő","bar át","K i","f egy","rendel kez","sz ület","ír us","ob l","l év","ár s","ás ban","tovább i","tek int","c k","volt ak","Európ ai","p art","telj esít","doll ár","el ég","et em","b or","ism ert","M ár","egy éb","tör tö","ü törtö","l el","fel é","szám ít","1 7","ő v","in ak","meg old","a y","h u","gy őz","ul ajd","ne v","új t","tel en","r ak","hat nak","ja i","s p","szer vez","as s","is s","pr obl","né hány","p ént","hal ál","r el","ját sz","o j","a ut","t it","leg es","szük ség","án t","v end","kön ny","ország ban","ák at","tovább ra","ott hon","követ ően","t est","Nem zet","p árt","kor on","költ ség","elmond ta","év ben","következ ő","sz ár","ek re","ün ne","k ór","ított ák","r it","aszt al","vég én","n ov","at ív","ho ssz","külön b","A r","ebb en","össz eg","i par","ájék oztat","in form","h éz","mi vel","l ov","az zal","egy más","ulajd on","f in","m od","r o","Ukraj na","ik a","el és","te chn","uk at","nap i","keres ked","s port","ók at","ó ra","kap ott","2 5","E r","l ás","ez és","szav az","r on","al á","ért e","ne héz","vis sz","or mány","alkal maz","Az t","al a","lév ő","korább i","prób ál","ol ni","l ik","b ér","szám a","b o","nyil ván","hely en","é hez","el s","m éter","re p","hely ett","p al","z en","sz ank","het i","Egy esült","utol só","cs ütörtö","h ő","oz ás","ép ület","ind ul","kép est","ok on","tal an","vend ég","p i","gy árt","ek nek","ez ni","meg felelő","mag át","har c","ut c","f enn","h ál","S Z","köz ben","f al","v ide","ü t","g ó","polgár mester","orv os","sz ig","szer d","A l","kö ny","ór i","alak ul","l ott","cs ú","m érték","t íz","kö tel","ért elm","kész ít","foglal koz","1 1","ism ét","üz let","M int","fegy ver","igaz gató","u ház","j ú","ú r","érd em","Magyarország on","infl áció","el ej","er re","t ap","al ább","elő ző","202 1","k ik","utó bbi","t ulajdon","ok nak","vár ható","sz éd","as sz","vállal koz","egész ség","sz ék","jár vány","án os","ormány z","ak ad","Or bán","ú s","erős ít","siker ült","l ab","fog almaz","tart ott","hason ló","ár ól","szint én","fel t","ep t","n ai","sz omb","nek i","an g","harmad ik","es emény","20 0","mint egy","tör vény","a hogy","é j","öl t","kés őbb","l y","sz e","hét fő","is t","kis ebb","kór ház","f ert","s ék","ít ása","P éter","sz ok","éd es","f ok","öl d","ü r","kép es","és eket","leg jobb","b űn","ó ság","érdek ében","g ól","ál d","szín ű","j on","gy el","föl di","4 0","r em","ell em","vállal at","nemzet közi","an nyi","ki r","us ban","áll t","tan ul","üz d","oszt ály","társ aság","el et","ép pen","segít ség","j ön","sz ül","á ját","sza bb","vál asz","város i","vas ár","ol c","v ér","öz ben","hely szín","aj án","kül d","tal ált","kom oly",") .","s e","v ar","ford ul","nyil atkoz","j ának","r al","in e","miniszter elnök","ük et","ellen i","érkez ett","hit el","án c",") ,","2 4","ra g","év vel","eh ér","ö bb","kö t","het nek","ír ta","hasz n","v ád","án k","ki der","kész ült","közös ségi","M T","ó gy","ja vas","intéz mény","magas abb","er n","telj esen","ék ony","tám ad","uni ós","hossz ú","k ett","ni a","j t","ol ta","sz övet","term észet","közl emény","ker et","kezd őd","el ni","P uty","l i","intéz ked","önk ormányz","á ig","el i","cs om","meg állap","sok kal","ár i","játék os","lét re","s o","cí mű","né met","at os","tö lt","csökk en","I st","is ta","es te","j ött","et és","ék eny","ja v","adás ul","mi után","tár gyal","át ette","köz ép","fel használ","tá v","Ál lam","V ik","amely et","b em","k üzd","ö m","vég ül","rész e","ept ember","t űn","kö l","szám olt","hető en","alk ot","v ed","eset ben","f ot","m ikor","ar ány","tan i","oldal án","av írus","ér ium","sz k","köz pont","id eg","uk raj","m últ","á v","en nyi","oz ta","öv id","ellen ére","ukraj nai","h úz","an u","elnök e","súly os","ros sz","rész let","elmi szer","kereszt ül","ol vas","Ez t","ig en","t ény","ség ek","közl eked","Puty in","K r","s en","h er","mű sor","ut az","szám os","N A","en e","val ós","f a","lak osság","koron avírus","1 00","é be","vég re","dr ág","ok ra","de c","hal ad","tó ber","v ét","probl ém","ak ció","ad atok","ut as","j ából","él elmiszer","ny el","k os","ű r","” .","ász ló","kérd és","ünne p","c ik","m ec","t unk","ak t","ás ával","ezt ék","men nyi","polit ikai","reg gel","p ill","l egyen","20 20","szen ved","tan ács","hét en","haj t","t ük","el jár","men ek","történ et","kapcsolat ban","vál ság","kev esebb","B al","h ull","n er","ír ja","vezető je","ni e","m ező","él ő","szer ződ","kor lát","nov ember","t ájékoztat","gy ógy","át or","fek tet","felelő s","át ól","von atkoz","fr iss","d a","es ett","het etlen","tap asztal","ö ző","ak at","dec ember","körny ezet","a h","szint e","En nek","vasár nap","áll ás","ez en","leg alább","gyű l","egy ház","for gal","ország i","ug uszt","katon ai","ok tat","ít ja","ny olc","év ek","mag a","visz ony","egyéb ként","F er","r övid","cs ony","fil m","d en","bel e","tiz ed","E U","k et","be jelent","sor ozat","ham ar","cs er","eng er","MT I","r ek","és ével","sz ent","százalék a","Európ a","j ed","hogy an","sz eptember","il is","k ény","el en","energ i","techn ológ","b íz","i on","s on","el ek","fogalmaz ott","egy előre","ár am","eg et","kon c","rendőr ség","B iz","v es","leg több","jár mű","lan d","szük séges","h e","v ett","ott ák","hang súly","ala csony","vál ogat","eset ében","bajnok ság","b üntet","f ed","te v","k éz","p oz","minden ki","bal eset","u tt","en cs","men ny","lam ent","in ál","elő ször","von al","kő zés","emel te","cí m","egy etlen","pia ci","Vik tor","és ének","in gat","ok tóber","ber uház","szám l","ör gy","ran cia","mér kőzés","s ért","vagy ok","dél után","szak ért","br it","D eb","I I","ö d","sz ép","ne hez","beszél t","B ár","b ék","forint ot","való színű","hat ja","end ő","ün et","es sz","id ei","ind ult","és ben","j ét","v ette","egy szerű","le p","pl om","Deb rec","én k","száll ít","kir ály","U gyan","Z s","é ből","kev és","ánd ék","z aj","ú ttal","dön tött","megy ei","ugyan akkor","ef on","t en","azon nal","mér sék","fontos abb","k ín","t on","szeret n","Nemzet i","L ászló","r ez","te hát","mec cs","i v","i gy","ford uló","szank ciók","f aj","egy szer","id ős","b őv","er d","án i","z ése","é mi","él t","ny ert","tev ékeny","ingat lan","gy eng","for g","elej én","tel efon","vel e","mény ek","eb ru","kam at","a uguszt","nö vel","pént eken","6 0","er eg","kor i","rend kívül","ez előtt","lát ogat","menny iség","ho s","kí sér","s okat","ellen őr","r t","Ú gy","dönt ő","B ar","T öbb","ny újt","ad ék","em elt","rendőr ök","M ost","S t","t uk","ben ne","ó g","bem utat","H ozz","rész vény","v id","or ban","biztonság i","köny v","érdem es","köz vet","be fektet","állap ot","csom ag","z a","ked vez","biztos ít","nyug ati","el ekt","en s","Sz ab","ód ott","lát ható","pill an","s a","elő ny","8 0","ás on","ett el","pr oj","úl i","alkal m","k e","mik özben","Ist ván","t enger","on g","áll ítás","szak asz","polit ikus","Mind en","b i","t il","v ad","ól ag","bír óság","ki fej","csütörtö kön","fenn tart","g l","in a","d ob","miniszt érium","moz g","c a","d al","tö l","te sz","érdek lőd","folyamat osan","Fer enc","2 3","ás ának","mind ent","att ák","marad t","szín ész","műv ész","f ehér","ít ette","Ez ek","hi rd","ított ak","ém et","jobb an","B r","f ény","m un","il ag","jelent kez","kí nál","különb öző","ít ő","it ány","tud ja","alkal om","f ű","t ur","v ill","nem csak","hat almas","ter v","att al","kel et","j ára","ít vány","be vétel","ó v","en et","R om","p ap","ek ént","meg jelen","eng et","áll ami","év tized","id éz","g ar","áz s","nap on","hos szabb","ügy miniszter","J ó","m áj","fél e","hagy omány","jelenleg i","j anu","l em","ó ja","már ci","ült ek","ebru ár","N émet","külön ös","kil om","bo cs","U ni","sz om","amely nek","mód on","er m","pont os","i mi","Í gy","ér vény","ter em","2 2","v ág","együtt es","hétfő n","t r","ít és","kív án","szól ó","vissz at","m ély","ol cs","követ ő","ács ony","szület ett","iz ál","osz k","nép szerű","egy etem","ad ta","szer zés","á ciók","é ig","te szt","ők ént","ezt ek","tá vol","szerd án","ut al","M ik","köz ep","pály áz","forgal om","j ellem","ad t","f eny","z ik","ár ul","szem pont","rég i","2 1","í ció","ú sz","hat atlan","Or szág","felt étel","válogat ott","E m","p or","v eg","fel ett","pr ilis","tud ni","rom án","azt án","össz esen","él i","ság ot","ko ck","tiz en","T O","m us","rendez vény","e ik","p us","kor a","par lament","ol ja","É s","jut ott","b ek","ta b","bel i","függ etlen","figyelm et","elér hető","2 7","u na","idő ben","l átt","fel vétel","több i","együtt működ","l ine","n á","között i","kormány z","rég ió","vél emény","ár on","in c","forint os","hál óz","S ok","l ez","s eb","ked den","202 3","töl tött","b áz","f okoz","csat lak","el te","ny í","hoz ott","vagy unk","telep ülés","kilom éter","a it","tak ar","élet ét","eset én","csú cs","megállap od","\" .","k ult","szám ol","tám adás","alak ult","emelked ett","auguszt us","g a","j ával","fel eség","tud ják","igy ek","R end","sz í","sz ki","ás os","het ik","fej lőd","édes any","el eg","ód ik","sok an","di ák","rá adásul","mod ell","egészség ügyi","eb o","al l","ás ú","ad dig","év ekben","vásár l","gyakor lat","kider ült","áj uk","talál ható","F ac","meg sz","város ban","m ot","et e","L e","be széd","azon os","kock áz","j en","be cs","K or","n os","z öld","ség ét","hat ékony","ör ök","imi r","T i","f ebruár","m ög","r ál","vez ér","j anak","szig et","tűn ik","O l","m éd","o ci","val ami","rak ét","i án","l egy","m on","r ét","es ek","A k","f it","p an","p oszt","bal oldal","u ális","z árt","az óta","ag g","j úli","hat unk","hivatal os","dar ú","n an","leg fontosabb","dar ab","enget eg","g et","s ereg","munk at","fert őz","Fac ebo","é tt","ik t","ir od","szomb aton","vonatkoz ó","3 5","ár folyam","több ször","ős orban","jelent i","fi ú","erős öd","rep ülő","Biz ottság","at ég","ész ak","ír t","köszön hetően","or g","ind ex","több et","sem mi","eszköz ök","7 0","B ank","f áj","el kép","szak ember","ó ban","al ig","oz ik","dönt és","Ú j","ar k","ent e","elm et","vég zett","mag án","tulajdon os","m an","út on","ven ni","ipar i","P r","et et","len ül","tal án","old og","av ar","még is","Egy etem","lak ás","kapcsolat os","hall gat","f er","á prilis","az az","ak ént","köz tük","ók nak","ső t","ének es","tűz olt","part ner","janu ár","I l","l ass","u c","ő i","en ci","szerep lő","2 6","ter jed","lehet ett","kül földi","N e","ar c","ar any","bocs át","m ed","el ik","on line","eg ed","cs up","oz ni","tag ja","cél ja","tér ség","f t","g en","p ót","il eg","An dr","jú ni","kín ai","sz ez","fel adat","id esz","ált ák","szár maz","ás ai","cs elek","hat ják","kel eti","str uk","B ors","sz al","jel ölt","kapcs án","beteg ség","hu ny","Hozz átette","E bb","J o","ép p","társ ad","Állam ok","Z rt","d ok","ak inek","vagy is","ob il","er ők","meg lep","eszt i","érint ett","ah hoz","m úl","vi tt","kam p","n év","ad ni","tö n","időszak ban","ár is","es ély","nap okban","hal t","akad ály","NA TO","teljesít mény","Ez zel","magyar áz","N B","k an","t eg","en z","it ás","ki hív","ul ás","port ál","dig it","nevez ett","2 8","J ános","l öv","ez r","min őség","nyug díj","els ősorban","K ét","p ad","az okat","int er","str atég","költség vet","9 0","M a","és ében","cs it","ellen zék","c e","on ban","ul at","tart ó","pénz ügyi","nemzet i","igazgató ja","csup án","sz ob","tud ott","kezd ett","szint en","él te","ci vil","ált ak","Sz ent","kell ene","b l","hely ez","ez eket","ország ok","hely re","alm at","lesz nek","érkez ő","üzem anyag","meg erősít","köz z","több ek","pr of","ir t","lab darú","hangsúly ozta","alkalom mal","ed ző","út i","jövő ben","munkat árs","kamp ány","ód ó","óg us","E d","r ány","ít eni","ny al","est i","proj ekt","b oldog","szer encs","érkez ik","márci us","p on","áll om","be vezet","val aki","fog ja","men et","pály a","hatóság ok","vid ék","A tt","K ar","f rancia","á ért","ak it","ér zék","ik at","jár ó","ór ak","haz a","cég ek","Nagy on","b udapest","v ették","te het","Köz pont","mi ért","orosz ok","idej e","mérték ben","budapest i","h ű","el nö","ér i","kezd emény","M oszk","i p","l ény","r at","ag r","éj szak","hull ám","á gy","val l","egész en","k ont","v at","” ,","el fog","att ól","vi vő","körny ék","értelm ű","h í","r engeteg","szer zett","köz ön","nap pal","ked v","áj ában","kar ácsony","nev ű","ten ni","e ink","k ul","r ák","v ak","at át","ez úttal","egy kori","te szi","T am","r ög","al mi","ért ek","tart óz","ügy nök","je szt","2 9","l áb","et ett","il a","jelentős en","i f","o x","ak art","meg valós","int e","köz é","de b","len gyel","ünk et","saj tó","tő zs","B or","f esz","ir ől","keresked elmi","b uk","z ó","ít i","nő i","ítás át","igaz án","rom os","mérsék let","különös en","e cs","o w","meg határ","het ett","tud juk","áld oz","M ég","o c","fel új","fel hív","V al","k árt","r ád","z ott","kez el","nap ja","biz ottság","min él","rész ét","ális an","orv át","enged ély","gl ob","fertőz ött","S A","ü d","ol og","meg jelent","fel nőtt","ság a","véd elem","K ár","b olt","or ú","fel ül","unk at","szak mai","ep si","ése i","össz es","per sze","ide ig",". ”","F el","i cs","ál ni","pont osan","változ tat","cik k","pap ír","M iskol","d ik","h ord","í pus","be foly","ter h","ások kal","dí ja","idej én","mos tani","so ha","Z olt","el é","ell ett","ha vi","őr iz","szó vivő","eztet ett","hő mérséklet","máj us","k rit","ü ssz","sz ír","ít ják","fel mér","rész ben","által án","kil enc","Mi vel","ás nak","ország os","20 19","üz enet","eh hez","jellem ző","l a","el követ","vég ig","- ,","tö z","véd ő","ológ iai","aján l","tab il","K is","á i","er ről","én i","százalék át","ról a","önkormányz at","% -","K ir","in f","es ül","ét ől","ész ség","elő k","szerep el","inform áció","mög ött","B er","lak ó","család i","föld gáz","ó val","gy il","ők nek","an cs","egy értelmű","re ag","ház i","min im","kezd te","közös ség","kon fl","ánd or","konfl ikt","e inek","h ess","t év","ve vő","ej t","egyed ül","r obb","sz eg","it ív","kis lány","kom mun","elekt romos","D una","T an","el ismer","at om","tö meg","mind össze","idő t","huny t","Zolt án","G erg","p p","cs inál","tart ja","tud ta","pénz t","mód os","gyors an","él mény","gyű jt","elő bb","kat eg","terület én","bizony os","mennyi re","visszat ér","lény eg","l án","ö ny","el j","et ő","em i","ez nek","szer te","ent um","olt ak","M in","i j","csak nem","von ul","érték esít","ásár ól","akt ív","Debrec en","5 00","l er","nap os","jár t","ház as","figy elem","of t","konc ert","d em","u z","mag uk","Ez ért","Európ ában","had sereg","segítség ével","pillan at","b é","b usz","tud nak","len ni","sen ki","itány ság","pént ek","természet esen","t ánc","ben z","ák kal","őv é","júli us","T ovább","sz ünet","fel ső","ber t","új ság","aszt ró","ió s","vállal atok","fér fit","terület en","ko csi","I g","M egy","é ért","ö tö","kö tött","áll at","ag ógus","pr od","várható an","keret ében","Facebo ok","eszti vál","M ol","m obil","ek ről","ás hoz","eket e","előtt i","Budapest en","glob ális","3 1","R e","S ándor","sz lov","el fogad","ész eti","ír egyház","alm a","külön leges","szom széd","Att ila","H ar","á ki","es ed","kl ub","növeked és","i ak","k án","ás ában","ov id","ügy fel","forr ások","júni us","S aj","jó val","h ős","l us","sz el","ok a","gyan ús","vide ó","tanul mány","Ország os","digit ális","konflikt us","A mikor","F ő","j enek","z avar","é ma","ú ra","hely et","ebb ől","im p","állam tit","utt at","Rend őr","K ft","k inek","ár os","szt ár","elt ek","tovább á","utó bb","A lap","K ov","c z","an szír","meg oszt","ad ók","as t","vezet és","ember t","kon z","haszn ált","rez si","R á","v áz","kap u","csap ata","fin anszír","szövet ség","báz is","V l","p á","t rag","ol ják","egy et","iz mus","mind két","and ó","tartóz kod","E mellett","d olog","k uty","ít él","ít ást","tö k","leg inkább","mag am","sér ült","mel eg","szolgál at","gyerek ek","Uni ó","szki j","7 5","z ést","gy en","le x","hat juk","vezet ék","ajd ú","oldal on","lép ett","r emény","s ák","er ej","ki alak","tér en","veszt eség","G ábor","es ő","ad tak","hi b","támogat ást","F idesz","i sz","t es","v egy","ség gel","het ünk","nek ik","for in","ör öm","gyak ran","Ki je","hamar osan","deb rec","s tabil","t ran","ok ból","tud om","kül ügyminiszter","forint ra","szor os","adat ai","eddig i","f est","és éhez","ol asz","ez ik","am ik","áll nak","olt ák","lehet ővé","háború s","negyed ik","labdarú gó","L en","V ar","Z elen","t ették","u han","nagy jából","vég et","kormány fő","közel ében","inform ációk","fert ő","s tag","sz ándék","on i","ság i","iszt ikai","19 9","kezdőd ött","A d","z ük","egy általán","ind ított","vis el","kol lég","polit ik","perc ben","korlát oz","debrec eni","I tt","L eg","p át","int ern","bal l","lehetőség et","üzem elt","tervez ett","assz ony","helyszín en","e um","om at","vár ak","forr ás","Ny ug","b ör","sz ekt","ad i","ut ak","ur kol","Sz lov","bel ép","üzlet i","árul ta","E lő","on al","att ak","által ában","Gy örgy","v ir","am íg","ít ási","fel dolgoz","pont ot","Cs ak","termék ek","Tam ás","forin ttal","3 4","P er","b ú","ed ik","vár t","fog nak","két szer","csap atok","szeret né","annyi ra","Andr ás","dok um","T e","án ál","ír ó","kötel ezett","ügynök ség","kateg óri","t ípus","ker t","véd elm","helyzet ben","vit el","csat or","Ukrajn ában","3 6","V ol","r um","ol ás","ki zár","ság ú","jel öl","több en","kép esség","magyar országi","támogat ás","keres let","hagy ta","gondol kod","bajnok i","fin om","kevés bé","3 00","I d","É szak","év i","ur cs","Ez en","ug r","valószínű leg","szez on","N ap","Sz övet","kép pen","vég e","di plom","mér et","igaz i","ment ő","okoz ta","ex port","poz itív","intern et","z enek","gy örgy","ár om","fel lép","ul a","amely ben","lát szik","bizt osan","ozz a","játsz ott","Vl agy","Zelen szkij","b ő","h ideg","t ém","oz ók","tart almaz","ped agógus","bel ső","pl at","saj t","ekt ől","négy zet","Kr iszt","rek ord","elkép zel","j unk","mű vel","mag ukat","ház tart","fizet ni","tavaly i","4 4","n or","t ét","em ellett","ál ó","ad omány","hat ott","fő leg","teg nap","Vlagy imir","M ás","S p","os sz","be szerzés","öl cs","jár ul","ása it","által ános","körül belül","piac on","ne vel","véd ek","iskol a","Jó zs","H ogy","T ör","cs ill","ít va","it al","év re","hozz átette","jegy zés","halál os","kísér let","3 8","z ők","í na","tan ár","munk át","közön ség","V ég","ap cs","ki csit","alap vet","úgy nevezett","kórház ba","szent györgy","I s","h átt","p uszt","t ábor","ú g","sz oci","ér z","meg bíz","fog ják","kap ta","állam polgár","működ ik","olcs ó","Kije v","r áció","v é","x im","ú d","et ek","en nél","ek kor","él ni","kép zés","magyar ok","növ ény","alacsony abb","prod uk","Len gyel","T V","m ut","er es","at osan","és ű","in n","am os","ír ták","szerint e","tart ani","any ol","gazd ag","segít séget","való ban","ran g","választ ás","pály án","kit er","gyógy szer","hálóz at","asztró fa","P l","m is","cs od","od ik","amely eket","elt ék","kör ében","mutat ja","Ugyan akkor","gen er","Kir ály","kommun ik","f ők","vár i","ció s","lát vány","ata it","helyett es","kötel ező","eljár ás","terem t","Gerg ely","N é","f esztivál","v írus","egy ség","eny h","st op","saj nos","szerep l","enc e","hiv atkoz","szabad ság","hason l","A hogy","H un","ki ad","ások ra","vég éig","zet es","vál ó","mond ja","tag jai","történ ő","szerep et","fü rd","mos tan","bűn cselek","3 7","L ig","j ének","k ó","l ék","n ák","r ia","gy ár","ok os","fel ad","le veg","aj ándék","het jük","leg magasabb","vár ja","pl usz","lét esít","mód szer","körül mények","kés ő","ellát ás","vá gy","óri ási","K at","O T","m él","r át","dolgoz ott","Mar i","D P","I m","T ud","l ós","at ta","is ták","ember i","lehet nek","figy el","történ ik","hiv at","találkoz ó","szenved ett","struk t","c ent","f agy","f ent","Ö ssz","ü szk","sz ű","öl gy","íg ér","megy ében","tem plom","fű t","lez ár","c u","k ért","k ot","mi re","tag állam","Megy ei","sz u","sz én","tart ják","asz kod","közös en","nyel v","Józs ef","b ont","h en","l o","u mi","in gyen","ál ta","ell ent","ind ok","kap ac","megfelelő en","3 9","4 5","T erm","h öz","m ások","p a","er s","jár műv","tár ca","élet et","fr ont","haszn os","menek ült","Német ország","négyzet méter","M át","i ában","k elt","n ék","n ünk","el hunyt","ud var","fő város","der ül","kl í","aut ók","talált ak","essz ió","j ebb","os s","vezet ett","tud omány","ügy ben","úz eum","vizsgál at","nyilván osság","fal u","ang ol","édes ap","rem ek","feny eget","Ig az","C h","f ia","meg kérd","ur g","tart anak","ford ult","erő mű","mot or","Ebb en","K l","sz ex","ni uk","tel t","lehet séges","ések re","hon lap","fiatal ok","fut ball","Zs olt","epsi szentgyörgy","K ül","N ov","os ok","leg újabb","ur ális","elm es","Egy es","plat form","V il","l ek","y ás","ál kod","át um","ki emelte","le vel","hat ók","od ott","áj án","mond ott","kezd et","személy es","munka erő","nevez te","megold ás","szakért ő","\" ,","a ba","k érte","meg új","ap án","ed ett","le j","százalék ot","jegy bank","jog os","lán g","C ovid","P ar","s é","É n","és nek","ki emelt","jel zés","ker ék","ör ül","áj ának","par ancs","ma xim","vállalkoz ások","javas lat","tevékeny ség","hagyomány os","4 00","G o","M ag","h um","n unk","v ettek","á pol","ág az","ur al","változ ott","technológ i","Szab ó","T w","V as","c o","k in","r év","y a","vagy on","foglalkoz tat","A mi","H at","c el","l ánc","n ének","vezető i","jegy ezte","köl cs","befoly ás","dokum entum","e ci","l ist","sz öv","fel ügy","Sz il","im port","szín pad","hozz át","emelked ő","pály ára","kett ő","so fő","émi a","vad ász","T he","ó nak","el kerül","ész re","év ente","ont os","hi ába","százalék ra","igaz ság","jog i","hónap ban","hasonló an","áld ozat","bör tön","B e","k ü","l ám","v ert","ber end","vár ják","raj ta","erő szak","kam er","önk ént","győz elem","kény szer","faj ta","nyí lt","fáj d","tűzolt ók","tök élet","j én","k emény","n eg","ny ar","nap ján","op er","men ed","ítás ára","működ ő","lap unk","körül i","olvas ható","Tan ács","j ell","t éli","ér ez","év et","elő l","ve v","ami vel","hét végén","helyzet et","megy e","mely ik","munka vállal","gyűl és","Rá adásul","b üszk","k őz","l él","or k","ho m","szól al","okoz ott","gyárt ó","tény leg","A uszt","E g","K on","N ép","l it","am ennyi","ki egész","be jelentette","us k","lát ni","ver eség","ót h","dolgoz ik","jövő re","pon ttal","3 2","H i","t ünet","fel hő","idő jár","érkez tek","változ ás","siker es","reg iszt","egymás t","inf ra","OT P","rév én","H ajdú","H árom","K ína","b ot","d u","ö szt","ül ést","ék es","ny ári","elő d","jár ól","min ős","következ mény","verseny ző","In stag","átlag os","elnö ki","ötö dik","Instag ram",". \"","h n","v áj","ak k","hoz ta","élet e","közel i","állam fő","bizony talan","nyer te","lem ond","R o","q u","sz ol","sz ét","ál ás","bb an","ít ése","szer ző","ák ban","20 18","össz et","öt let","ru h","kider ül","gyűl ési","neg atív","S tat","er em","nek em","uk ra","hang ulat","kutat ás","Tw itt","jell eg","G DP","b ul","j ék","n ők","ar ánt","át us","ikus an","való ság","következ t","kil át","kul cs","díja s","államtit kár","Z ay","en ként","egy aránt","kap tak","ések kel","moz d","parlament i","3 3","M NB","T a","g ör","É rd","os kod","oz nak","fejleszt ési","folyamat os","vád lott","vill amos","d or","d re","meg elő","ul tak","szám ú","ker ület","kép p","nő t","par k","dolgoz ó","mutat ta","ellenőr zés","sajt ót","következt ében","T óth","j ég","t él","u zs","ít ik","ki bocsát","jel ezte","idő re","világ bajnokság","mely ek","O ly","c eg","h úsz","r ám","s ug","ü tem","fel e","elő adás","te her","szám ító","min ket","sor s","áció t","00 0","vél i","lég i","utc a","erd ő","közep én","Miskol c","emi att","Min iszt","leveg ő","H orvát","or i","ad ja","oz ási","mint ha","vál ik","ház ban","ügy észség","lát ja","foly ó","ism erős","zs é","ran d","közel ebb","haz ánk","eml ített","növ ek","Ny íregyház","vét elt","szakért ők","5 5","a f","b irt","ül ni","fel ület","ter n","szám oló","más fél","kör ben","veszély es","rendelkez ik","Már ki","Il yen","4 8","J elen","S E","m ig","p ir","v ész","on nan","ok ba","meg talál","id en","kép et","nyug at","emelked és","dél i","dél előtt","tő le","veszt ette","könny en","Debrec eni","kedvez mény","terv ek","Rom án","robb an","kölcs ön","E rd","S c","h ús","k es","l u","l op","m at","t áb","el e","ez i","fel szer","áll omány","intéz et","hív ta","beszél get","probl éma","Ak kor","sofő r","D él","r ov","s os","z ák","ás ról","ki állítás","ki vitel","áll ította","be fej","for gat","Sz ám","sok szor","pár os","szeret ne","szár az","szeretn ék","feleség e","Ne w","trag éd","Szlov áki","g e","g r","o ta","r áj","Á m","több ség","ább an","Sz ij","eset leg","av atkoz","fizet és","ezett en","ros szabb","azok nak","lakosság i","hird et","gyakorlat ilag","öszt ön","F ontos","M an","a inak","k ov","t ettek","v aj","sz urkol","an nyit","in váz","tart ozik","jár tó","mond ani","kész ített","akik nek","ri p","jog szabály","polit ika","szolgáltat ó","képes ek","Moszk va","Twitt er","Szij jártó","P ár","sz ellem","ek hez","egy éni","vezet ők","érték ű","használ at","vesz i","nyom án","állít ja","kár os","büntet ő","Jo hn","F rancia","R i","s ár","s im","u j","köz társaság","iz g","több sége","tud ták","szak emberek","im már","támogat ja","beszél g","tiszt elet","küld ött","A m","f unk","s k","v élet","el kezd","am inek","oz s","ki váló","nem rég","áll ított","id ők","ország ot","elt űn","haj land","történ elmi","fogyaszt ás","könny ű","javas l","Szövet ség","H ol","d el","d es","h egy","j ót","s tat","z e","ad nak","ország gyűlési","nap ig","ked ves","vég ére","elt ér","raj ong","gazd álkod","seg ély","haj nal","díj at","hatóság i","Bal ázs","Var ga","sajtót ájékoztat","inváz ió","4 9","A C","f ekete","j uttat","s incs","t üz","ben n","leg utóbbi","ter ve","csap adék","lő tt","száll ító","fejleszt és","szervezet ek","technológ iai","ellenzék i","M ic","n áz","o cs","t ünk","– ,","at okat","én nyel","ör ös","ór ától","erős en","lép és","hír ek","mező ny","énekes nő","kizár ólag","P C","l og","n ának","r áz","s ür","er ült","be számolt","hat ással","hoz ni","alm ak","any a","eszt ő","ező d","kon k","mely nek","ac k","nyit ott","Szer inte","szül ők","szeretn énk","rög z","5 6","M ű","V an","d o","k ék","r ász","t ol","án s","ad ik","it y","le vél","év ig","elm ar","kül ső","ami re","ev íz","segít eni","szük sége","tá von","hát rány","euró t","szolgáltat ás","doll árt","kutat ó","egyszerű en","imp iai","j ö","y el","Á r","er i","ar a","int enz","re form","pr om","mér kőz","elem ben","való jában","jöv ed","Nemzet közi","pi hen","ideg en","kormányz ati","Kov ács","hivatkoz va","ria szt","F ehér","h or","j et","ar i","ód i","vi har","ei vel","mell é","kat asztrófa","dolgoz nak","anyag i","közz ét","Term észet","zsé bet","S C","h id","s áv","sz ög","ap p","ai val","kez elés","ver z","világ ot","tet ő","rendszer t","energia árak","gyű j","test ület","szerződ és","poz íció","benz in","fők ap","A mer","K ín","N or","S port","a ik","b ez","e a","g árd","ett em","ít anak","leg end","nap ra","tart ós","hi tt","lát ott","sok áig","term elés","tött e","biztonság os","átlag osan","rendelkez ő","szomb at","talált ák","közlemény ében","csill ag","H er","K atal","f ran","r og","t ra","é bb","egy ben","meg halt","il ab","rezsi csökkent","B i","b őr","s ét","t ők","w eb","ás ához","ez ést","ság át","szél es","össze függ","itt hon","nélkül i","orvos i","her ceg","tőzs de","e in","f ék","l ig","sz ülő","egy ű","fel jebb","nek ünk","rész én","rész éről","emel és","igaz ol","term el","vásár ol","gyakor l","Budapest i","szig orú","kifej ezetten","repülő gép","múl va","szekt or","b át","ás uk","es ik","meg próbál","ny új","Sz ak","sem mit","szint ű","ered eti","vásár helyi","hír ügynökség","sp eci","Bal aton","kelet kez","származ ó","bl ok","Per sze","H áz","c ell","l end","n ett","on a","ér zi","be avatkoz","te szik","száz ad","szak i","ügy minisztérium","par kol","kom ment","katon ák","készül ék","Er re","Er zsébet","szok ott","szempont ból","prof it","F or","d in","o ha","v ív","sz órak","es e","cs eh","it a","ki jelentette","hi r","kap nak","tör ek","alap ú","érték e","In t","arány a","idéz te","kult urális","bűncselek mény","szű k","B el","H o","j ében","É p","ál ja","egy eztet","oz ást","ny áron","be számoló","ók kal","jelent és","vel ük","fő városi","ismer te","állít ólag","szület és","Br üssz","méd ia","vak c","szóvivő je","Király ság","Vil ág","4 1","B iden","m as","r ob","s üt","t op","z ás","sz án","ek nél","év en","kor szerű","elő fordul","már a","tart ozó","lehet ne","vég i","jó vá","Magyarország ra","egyen súly","került ek","oktat ási","sos em","s anak","cs ik","cs end","meg szer","meg halad","ter jeszt","ások on","ir ánt","majd nem","elem ző","szen ny","rendszer esen","figyelm eztet","győz tes","mozg ás","tran z","n uk","ár stop","ban ki","nk ént","ír ás","un g","valam ilyen","vásár lás","kit ör","függ eszt","Ar ra","egymás sal","kett en","problém ák","reggel i","eljár ást","rendkívül i","állapot ban","felett i","közz é","nett ó","E N","E h","G ul","p at","ar d","ad ós","ind uló","nap ot","volt am","össz ek","sem milyen","föl dön","kom p","der ült","önkormányz ati","alkalm as","baloldal i","hí d","dem ok","Nyug at","D V","D r","H iv","P ed","T al","U SA","V I","et ében","in i","ol ikus","re jt","ész aki","ker ek","munk ál","hagy ott","hozzá járul","ozz ák","bo x","hajt ott","kínál at","egyértelmű en","infra strukt","Katal in","A ki","p án","r is","ok hoz","ok ról","am in","meg előző","oz tak","hely ezett","ése it","Cs aba","mutat ott","adat okat","sér ülés","állít ása","intézked ések","hull adék","nehez ebb","egyszer re","Rom áni","bú cs","Jelen leg","Eh hez","6 5","H ét","t üntet","meg közel","min c","kl assz","telep ül","aut omat","társad almi","apcs ol","4 7","M at","P et","ü veg","ít ók","él kül","ni ük","kez elő","hoz am","sor oz","19 8","ered et","választ ott","alatt i","épít ett","esség ében","gyermek ek","infl ációs","fek vő","közvet len","fertő zés","Id én","du pl","hir telen","nuk le","L aj","r or","z uhan","ít ék","meg ért","szer k","köz t","fel el","hat ása","nagy követ","tel evíz","amely en","ód nak","fő bb","minden kit","op t","egész séges","száll ás","dí sz","szól t","hónap okban","igény be","vendég ek","üt között","megsz űn","Ta valy","Oly an","V agy","r op","t ü","sz im","él vez","áll andó","ov ics","után a","munk áját","haj ó","dönt ést","fontos ságú","ismer etlen","igény el","szlov ák","típus ú","Pl ay","birt ok","4 3","a ink","b elő","h ály","h ettek","l es","í k","el árulta","ad ták","fel ek","unk ra","de viz","akkor i","raj z","közöl ték","nyom ás","rendelkez ésre","mod ern","nyilatkoz ta","kezdőd ik","központ i","rossz ul","drág ul","árfolyam a","társad alom","stratég iai","órak or","fürd ő","főkap itányság","nukle áris","B en","M ac","k em","ít ették","ki ber","ki vétel","og le","hat ály","tud tuk","pont ja","ab lak","segít i","anyag ok","polgármester e","közleked ési","király nő","zaj ló","vev ők","an a","ak or","tt est","én él","ett ől","meg egy","ap ró","vez ette","hely szí","ne vet","rend ben","igaz gat","Gy őr","értelm ében","lab d","köl töz","konc ent","zaj lik","Kár pát","öny ör","vir ág","ural kod","B lik","h ek","s uk","et ikai","és en","em es","on z","ez után","ít ést","ap or","us t","új városi","tart alék","tud unk","ember eket","ély i","ezt em","szín ház","száll ítás","család ok","terület eken","állít ani","fut am","Ukrajn ának","intézked és","Mik lós","fer enci","Go ogle","konk rét","Hiv atal","R ó","j ével","m e","ak ban","ár uház","in nov","ül nek","ett ünk","ad ást","il y","ány i","ért esít","ov jet","Sz eged","tart otta","tud ós","ir án","ünk re","ami ért","15 0","fot ó","érvény es","független ül","Ol asz","gyanús ított","kapac it",". ,","D un","H on","k r","r y","en ő","an ia","ez ü","int ell","fel ől","be von","het ők","Sz ín","tart ottak","lehet ő","választ ási","épít ő","program ot","atlan ul","nyer s","szív esen","kő olaj","szerd a","kik öt","Em lék","megállapod ás","Ti bor","rakét a","Lengyel ország","Brüssz el","E x","I z","f űz","k rip","t o","kö b","ter én","hi p","fi ók","áj ára","gond oskod","ván dor","emelked ik","sér ül","Szer encs","sp anyol","bék e","idős ebb","tenger i","kedv enc","gyil k","figyelem be","b ány","r ájuk","t étel","et be","ol impiai","szer elm","il t","ta va","ul átor","ell yel","elő zetes","Az onban","tud tak","jár at","ügy fél","ment es","mutat ó","munka hely","hu z","csütörtö k","kórház ban","létre hoz","színész nő","meghatár ozó","visel ked","Egyes ület","Int éz","Gul yás","Blik k","A pp","E ur","M árt","d án","p o","er ek","an élkül","ér zés","ki fizet","áll ították","be jegyzés","szám ított","vis elő","ór ás","hon nan","körül mény","prób ált","árs aság","különb ség","gól t","fesz ült","áldoz atok","Kül ön","Természet esen","belő le","C o","b omb","ö vezet","ü m","ő je","el vég","ak ciók","em et","meg ment","meg akadály","ad ót","áll ni","valam it","eredmény e","kar ri","rendel et","Mi után","elér ni","egyes ület","Azt án","helyszín re","óv od","Vol od","5 7","K om","L i","k op","á it","ek ből","ol nak","ar at","cs in","kor osztály","id ény","Sz omb","mű szaki","nyi re","jelen lét","ukrán ok","hónap ja","folytat ott","ellát ási","nyer eség","táv ú","felelős ség","étt el","lass an","hivat ásos","nyar al","mened zs","Román ia","D i","g ab","en ni","al ko","szer kez","oz ása","iz s","amely ik","ony ec","minden kinek","ór án","st í","hábor út","használ ni","szerű en","képviselő i","megold ást","alkalmaz ott","természet es","közlemény ben","látt a","seb esség","tőzs d","szu per","klí ma","szöv eg","amennyi ben","sug ár","f e","m iskol","sz űr","en cia","és hez","meg takar","ad ása","ta s","áll ást","term elő","erős ebb","fiz ikai","bár milyen","férfi ak","akar ja","Ukrajn át","bér let","zen e","tartott ák","részvény ek","ke ver","zenek ar","Kriszt ián","intell igen","F T","a w","b ony","f utó","h ette","p and","r ont","s ej","s újt","el vesz","er v","an n","szer t","hat tak","ci on","nap ok","sem mis","tan ú","vált ás","össze csap","dolgoz ók","egyen l","sp ór","Kr eml","tanács adó","mező gazdasági","alapvet ő","A lex","B aj","P ál","b urg","f át","k ab","gy önyör","os abb","cs ő","meg nyit","fel fed","mi szerint","ős en","után i","játék ot","család ja","test vér","utc ai","akt uális","menek ültek","szakasz on","felmér és","hess en","Vég ül","hajland ó","sür g","miskol ci","F C","O tt","b es","d ám","j ünk","l áz","al izál","es és","ül d","meg él","ra b","hoz atal","im ád","im náz","kezd ete","öt ét","mely et","euró s","dollár os","mérkőzés en","Kár oly","Saj nos","Stat ion","irán ti","Volod imir","F öld","K iss","c c","f ül","k ára","k óz","gy ull","er ny","ar nok","át alak","meg véd","ad al","il leg","áll atok","as on","hat ás","leg feljebb","rend ezett","ellen es","kör zet","élet ében","form ában","dolgoz ni","határ oz","szerep elt","Mi hály","szabály ok","mik ént","lel ki","nehez en","diák ok","Moszk v","krit ikus","szeg ény","hátt ér","Play Station","4 6","D K","k up","p ot","ó ján","el v","el enged","és ük","in ni","szer ez","szer es","fel függeszt","as h","Sz olg","jelent ése","ir at","rész vétel","abb a","kész let","mér leg","vásár ló","br üssz","ológ us","összeg et","oktat ás","energi át","til t","régió ban","inter jú","újság ír","nor m","szoci ális","cu kor","5 8","f ar","o u","Á dám","sz il","el foglal","ad ják","ut h","om ik","tö m","ent ő","het e","év ad","kor ú","szám ukra","fej ezte","ilyen kor","hol land","par i","mes élte","hivatal osan","halál a","orvos ok","problém át","feny eg","vidék i","nyilvánosság ra","váj ci","EN SZ","X box","k áb","v b","ak kal","szám át","20 17","öl te","kap itányság","ember nek","um ot","pont on","kapcsol atot","Oroszország gal","zár ta","zi vat","fegyver es","felhasznál ók","szempont jából","létesít mény","ingyen es","1 20","p ör","s ho","u pol","z á","on e","meg ismer","ad ások","art óz","kap itány","koz ott","tár gy","alm át","péld a","gyal og","Állam okban","technológ ia","magyaráz ta","reag ált","önként es","regiszt r","App le","zivat ar","F ej","H al","V ár","d ől","s ír","sz ór","et es","er e","al só","az után","ár u","ít ható","ki alakult","köz elmúlt","ber g","ne ve","20 10","jelent őség","szem be","eset leges","világ on","har minc","eb ek","kapcsol ódó","érint ő","ünne pi","ári us","közvet lenül","népszerű bb","eik et","megerősít ette","jellemző en","honlap ján","akk um","Laj os","hek tár","köb méter","bony ol","brüssz eli","D E","K és","T r","W ar","j apán","m ak","m and","s á","t eni","t atták","á vá","sz ánt","al an","kö s","iz ált","hely e","rend ező","új d","tel e","tat ó","kezd ték","beszél ni","ru p","költség ek","aján lott","szövet séges","nyújt ott","Kor ábban","legy enek","kont in","olcsó bb","produk ció","tökélet es","búcs úz","üm ölcs","G am","M et","V áros","h old","s vájci","ő re","ak ti","ol it","ál at","ra v","ép ül","rend elt","ir oda","kör ű","kezd ve","száll t","kérd ésre","Cs eh","hozzá fér","Mind ez","nincs enek","közül ük","lel k","nyilatkoz ott","Szab olcs","őriz etbe","Hun gar","ellent ét","4 2","6 7","B l","H am","b átor","j ak","j ába","n ánk","r et","r úg","sz oft","és éről","ál ják","it árius","ny ár","20 16","ked ik","abb ól","von at","adás át","öt ven","határ ozott","siker ül","nyug od","ex tr","részt vevő","fogyaszt ók","tit kos","szerződ ést","proj ek","édesany ja","eleg endő","izg almas","V olt","s te","Ü gy","sz ed","al ól","ár át","lehet etlen","vi gy","lak os","dr ám","vásár olt","eredmény t","növeked ést","ub lik","fogad ta","szervez ők","rem él","támad ások","játékos ok","St ar","becs l","erősöd ött","állom ás","éjszak a","urcs ány","epsiszentgyörgy i","Ri ch","gyilk osság","omik ron","P S","k ur","s ötét","t rend","t ájék","er ület","és be","ik át","am int","ít ások","meg őr","for gató","öl töz","ór át","élet ben","von ta","támogat ó","br onz","fr akció","moz og","szolgáltat ások","kutat ók","szervez ett","csú sz","szövet ségi","mennyi ben","viszony lag","beruház ás","ton na","Bors od","munkatárs ai","ideig len","Alap ítvány","lapunk nak","ezü st","imnáz ium","5 9","P éld","S ch","h ölgy","k eny","t egy","sz ett","et ben","gy ümölcs","cs arnok","meg hosszabb","ben y","áll tak","kor e","kor rup","fog ás","ei m","ei re","kapcsol atok","egyed i","Ukrajn ából","csütörtö ki","legjobb an","agg od","péntek i","Im re","pir os","intenz ív","mérkőz ést","A ir","a ho","f ős","g er","h orvát","k á","ik et","meg keres","be vet","olt ás","szám ítani","mind ez","20 14","azt ak","mag ában","mag ára","op ter","alap osan","kezd tek","oszt rák","kérd ések","tér i","An na","Gy urcsány","irány uló","növeked ett","tekint ve","tájékoztat ása","mennyiség ű","til tak","tesz nek","E k","M ad","M íg","P ént","k y","k re","t om","t áj","v ent","el hagy","al íció","ez d","is sz","él nek","meg alap","meg hív","szer b","fel készül","ci p","ük ben","hi sz","áj ával","né mi","un d","energ etikai","milliárd os","br utt","eredmény ek","lehetőség e","könny ebb","név en","környék én","várak oz","Te chn","parancs nok","tern atív","brutt ó","K up","M it","T A","U n","h usz","k ony","u ra","ó ba","ás ba","am a","ít ettek","él ők","re j","ja bb","volt unk","jelent ett","tör ök","ellen fel","minden képpen","ei ben","világ szerte","gond olt","helyzet be","vásár olni","ro ham","fok ú","köt vény","azonnal i","karácsony i","fertőzött ek","akkum ulátor","C ar","V er","l ök","t ró","an nál","ez ése","is ág","es ter","egy ven","am b","meg néz","ny ű","fel ében","hat odik","több nyire","kal and","Sz ék","ház a","előtt e","mell ék","pár huz","gyakor i","győz elm","tűn t","forgal mi","med enc","elik opter","Ebb ől","ezr en","érzék eny","rög tön","késő bbi","vaj on","beszélg etés","gyönyör ű","illeg ális","6 6","B ence","H az","J el","b oly","d öbb","m ez","m ét","on s","am ellyel","meg kap","ad ion","ell a","év forduló","ír ják","Sz at","hi m","ked vel","vég ez","mag ának","hal aszt","let artóz","haj tó","előre jelzés","beteg ek","mester séges","bank ok","negyed évben","aján lat","intézmény ek","if jú","mél tó","ágaz at","bot rány","növek vő","2 50","6 00","A mennyiben","D em","H ang","L a","k ák","s epsiszentgyörgyi","É r","sz ö","er mek","al ternatív","szt ráj","leg utóbb","szám ok","fog unk","tud tam","Egy előre","any uk","202 4","jut ni","akar nak","piac ra","szolgál ó","aut ót","otthon ában","zen ei","szig or","mérték ű","élelmiszer ek","együttműköd és","település en","Miskol ci","speci ális","B U","N ek","S őt","U tó","h ód","p ak","á ci","ő szi","ű nő","el eti","ek int","es kü","os i","om ra","hat alom","val ódi","ön álló","pr o","ör t","ást ól","ód ni","né m","mond ták","út vonal","szint et","fér je","akik et","kar ak","bár ki","energia válság","övet kez","emlék eztetett","ham is","képviselő je","szék ely","ahogy an","szállít mány","szeretn ének","agr ár","úd ió","zá por","6 8","F i","H ír","I T","J obb","f őként","h elikopter","i át","n án","v ont","z on","el ind","ít élet","tud ok","ház ak","sor ban","kis fiú","oszt ott","19 7","mellett i","un ok","érkez nek","személy i","hazai ak","Ál tal","ennyi re","művész eti","költségvet és","szerencs ére","ox id","atom erőmű","opt im","karri er","G ab","M ed","N incs","P al","k áv","gy ász","az il","es szor","cs ok","ed zés","ad ag","ja it","ság gal","össz egyű","tár ol","kész en","határ on","folyam án","szeret et","kerül nek","zár ó","szék i","ly el","legy őz","üzemelt et","ugr ott","jelleg ű","köztársaság i","Ped ig","S a","T E","T ok","m án","m úzeum","ö zés","el vár","al ul","es i","ék et","szt ikus","ig h","áz ó","ép ült","het ekben","szám ot","20 00","mű tét","ep p","ód ás","rész eként","elem zés","bet ét","történt ek","had i","vállalkoz ás","Ist en","végre hajt","édesany a","gyil kos","minim um","szoft ver","5 1","I r","Z em","h y","m ért","r ed","t oj","z us","sz ic","ik on","cs oda","unk ban","hely ek","ill a","százalék uk","alap ító","hol ttest","viz et","dr ón","biztos ítani","mutat ják","verseny t","iskol ai","dollár ra","szerd ai","küzd ött","közleked és","drág ább","beruház ások","Sok an","elkövet ett","Debrecen ben","lu x","közzét ett","stí lus","közelmúlt ban","M A","m asz","t ar","ö kor","ol a","meg hal","hat ására","iz z","hi báz","tud ás","ör ö","világ os","világ ban","dön tet","ász ati","juk at","száll od","pénz tár","emelked ése","hír t","személy ek","kit art","fizet ési","készül nek","óri ás","ellenőr iz","elekt ron","alkalm ából","fent i","járműv ek","tudomány os","Mic ros","ilab da","F ran","K ed","P at","Y ork","r oll","v ok","v ai","en é","al g","él lyel","ki emelkedő","hely én","hely ét","vár ost","vezet ést","ked ő","ked ett","ba ba","est ek","nál unk","ellen fél","idő pont","eset et","érték el","hét köz","ések or","talál ta","kat olikus","választ ások","cí met","El mondta","gép kocsi","katon a","érint i","találkoz ott","növeked ése","fogyaszt ói","nev ét","telen ül","párt i","méter es","közlemény e","tárgyal ások","műsor vezető","november ben","II I","Mát é","kerék pár","időjár ás","gárd a","klassz ikus","Ek kor","Szék ely","ökor szág","B rit","J ak","M V","S te","f ár","f urcs","i e","k át","n oszt","v ére","Ö n","é cs","el utas","at ék","on c","ez hető","ik ó","szer ette","ig azd","ul ni","hat ta","jel ző","nap elem","pr émi","ját szik","ügy véd","fő városban","lát sz","fej tette","eset re","által a","játék ok","száll ították","mes sze","figy elni","terület ek","szerep e","fizet ő","ing ton","techn ikai","utc ában","Német országban","igyek szik","ark as","Ép pen","Hon véd","Márt on","E P","K B","V isz","c hip","n ár","r okon","t end","u h","sz ebb","et áris","in él","ez ési","ki vált","ség ben","fel mer","ell el","iz áció","hely iség","ók usz","mag unk","ítás ra","talál ni","Magyarország ot","személy iség","An dre","épít kez","másod perc","eredmény eket","jut ottak","üt köz","hamar abb","nyert es","pályáz at","térség ében","költségvet ési","Központ i","vall om","kommunik ációs","tragéd ia","D N","D áni","K ol","L ond","M I","h éttel","é h","ek ing","meg beszél","oz ták","ki alakul","ny ék","fel adatok","év esen","kor ában","te j","leg friss","us s","ország ba","ók ént","kap us","tám adó","zs ák","föl ött","millió s","érdek es","eml ítette","mek kora","kar ban","költ sége","állít ási","néz ő","néz ve","bizony íték","program ok","Köz ép","szi vár","képviselő k","rendez ik","sport oló","vissz aj","szank ció","szank ciós","húz ta","gar ant","meglep ő","vitt ék","pálya fut","csod ál","bez ár","alko hol","párhuz am","karak ter","Micros oft","5 2","9 9","M úzeum","R em","T es","m énnyel","n egyven","r ap","s ít","ú szó","sz on","el ért","os ta","int eg","szer elem","ki jelent","leg népszerűbb","20 15","vég ső","ház at","tat ta","ély es","eset ek","véd ett","lak ások","egyik e","föl é","külön féle","bet art","valam ennyi","történ elem","biztos ító","működ tet","gal om","találkoz ón","ipar ág","esemény ek","bejelent és","szép ség","napon ta","pan asz","Bors nak","Né hány","édesap ja","Par lament","települ ések","újd onság","legfriss ebb","K éz","K oss","R T","s ük","É v","Ú jabb","á vol","el veszt","al kat","ás án","ott h","szer v","ra f","év é","elő készít","ill eti","ők ép","vár nak","Sz al","hi ba","tan ak","alap ítvány","aság i","háború ban","polgár i","lány a","föld re","számít anak","aut ós","inform at","zen ész","szomb ati","éj jel","szok ásos","környezet ben","legalább is","szeptember ben","sért ett","bemutat ó","fenntart ható","nyí l","Ed dig","egyet ért","kötelezett ség","Tal án","Intéz et","erv atív","8 5","D áv","G az","H aj","M O","M ert","O k","S u","T rum","b u","l in","l ettek","m ín","Ö r","ár at","szer ezni","ind ít","ov i","aszt ó","ház igazd","im éter","raj t","forint ért","men ni","vol um","vesz nek","választ ók","marad nak","ic a","anyag ot","épít és","Oroszország ot","ülés én","gyermek e","akar ják","gondol ja","tekint etében","cser él","forg alma","egyetem i","fokoz atosan","robb ant","ügyfel ek","méret ű","vélet len","ash ington","Kés őbb","Szat már","Zem pl","Koss uth","Dáv id","B él","G azd","K er","t ok","gy ő","ol va","es szív","ik ában","ett ük","meg beteg","hat ták","ért ve","tart omány","ások nak","kép telen","szak ad","segít ő","av art","kom olyan","gondol om","euró val","hall g","rek lám","megsz üntet","vezér igazgatója","tulajdonos a","Kar ácsony","pillanat ban","Rendőr kapitányság","felad ata","vakc in","ítók ép","Szerencs ére","pand émia","tájék oz","5 4","F r","F ekete","G e","M er","M usk","h ev","j ós","j aként","p szic","el ve","egy ebek","ra s","aj t","val ut","mi előtt","jár nak","ünk ben","rész esed","st údió","választ ó","siker rel","gáz t","kér i","ismert ette","rak tár","Ar ról","ron g","kett ős","márci usban","tran sz","do hány","otth ont","! ”","6 9","S H","c ig","f f","m eket","an ni","ek be","in et","ol im","ez ések","meg van","ki emel","om in","köz úti","uk ban","ud it","szerint em","ba b","ód tak","mond ják","idő vel","szél ső","folyam atok","óz is","tá pl","személy esen","Mi ért","vendég lát","vide ót","foglalkoz ó","esemény en","tény ező","dob oz","lez árt","elnö köt","bő ven","pedagógus ok","Tör ökország","Érd ek","számító gép","Horvát h","Francia ország","stat iszt","katasztrófa védelem","Utó bbi","5 3","6 2","8 00","A ba","M ak","i x","k incs","t ál","v éve","w it","ez ve","meg sért","ák on","ai m","pr op","tud at","Ez után","eni e","ugyan csak","ment én","hang zott","használ ják","érdek elt","változ at","épít ése","rég óta","Szer int","barát ság","győz elmet","felt ét","nyilatkoz at","intézked éseket","király i","befektet ők","hird etett","kilométer es","Ti sza","Ak ad","eszközök et","Jo e","vitt e","inter j","Tovább i","funk ció","hajnal ban","munkál atok","szerk eszt","G u","M il","S am","V i","g ent","ö szön","sz ál","en nyit","an dr","ak nak","or ok","es nek","cs em","meg int","ap r","ed t","fel szól","fel szabad","áz ott","ai ra","elő z","ov a","tel enek","vel ünk","ügy ében","lan i","város ában","szín vonal","zs a","működ ött","emelked tek","illet ően","Oroszország ban","állít ják","infl u","párt ok","keresked elem","jelentkez ett","fertőzött et","szex uális","hum an","büszk e","rob ot","Zempl én","B o","B ék","C i","D an","K an","P árt","f ak","h org","sz é","meg lehet","ák ra","ai ban","szám olni","ia c","ug ál","rán k","dönt ése","tér kép","ri vál","következ ik","közöl t","akar ta","Köz l","szabály ozás","Ki emelte","komoly abb","var ián","csökken és","szankciók at","kedvez ő","seb esült","agr esszió","tagállam ok","lit er","Miniszt érium","forgató könyv","E közben","N et","S o","S em","k elő","l és","n énk","o od","t he","el ep","gy őr","ek özben","ér mes","be jár","og rá","vár ni","Sz tár","még sem","len y","je vi","sik ert","kon ferenci","biztos ított","rendszer ek","szeret ett","marad tak","vél hetően","vásárl ók","kan cell","reag ál","kategóri ában","Is kol","TV 2","Mari upol","Románi ában","Szolg álat","kore ai","megbeteg ed",". )","M el","a uszt","m ult","p att","el érte","at art","ér em","ér ett","ít ve","ny úl","ul nak","het ek","het es","od ó","ne y","vi adal","hal ott","gyan úja","aki vel","mér g","határ át","Cs ütörtö","erő t","szó ba","negyed év","köszön hető","bor z","mérték e","fot ót","sorozat ban","Biz t","döntő ben","érdeklőd és","máj usban","szom orú","művel et","Né gy","Ho gyan","Trum p","mín usz","B ud","F il","M os","T elek","f ól","f ór","j al","n es","r ö","sz ek","sz ót","sz ovjet","el telt","kö tet","ny ak","ked di","minden napi","ór áig","őr ök","vált ak","kormány t","asz ály","oszt otta","kérd ést","dí ját","br id","hónap os","Gy ula","kívül i","folytat ja","kereszt ény","szül ei","vasár napi","kevesebb et","erd élyi","becs ül","júli usban","esély e","Nov ák","Gaz prom","Aba új","7 8","F ed","J ár","K o","K elet","M unk","P a","T eh","f ém","h ették","v örös","á szt","á pi","el nek","al v","or os","or it","ez ettek","tt ől","ül ése","meg jegy","oz ását","köz vélemény","le ány","több é","ami ben","fő nök","ór ium","kis fi","di ag","dolg ok","gyer meket","következ tet","épít eni","fejleszt ő","irány ába","Köz ben","reg ény","lég it","bán tal","tervez i","Ál l","uni ó","tekint ettel","talan ul","jármű vet","ázs iai","ágy i","Bor ítókép","Val ó","diplom áci","beszerzés i","gör ög","D A","S epsiszentgyörgy","V esz","a fr","d ur","f olt","g it","h olt","k m","l on","m át","p et","s űr","Ő k","ér ezte","egy séges","cs or","él ett","meg tart","meg mutat","meg szokott","ap ja","ki adott","hoz ták","hely eken","Sz int","ked d","lát ják","foly t","vesz ik","pénz ügyminiszter","csoport os","szemben i","szolgál ati","hiány a","nyilván való","tájékoztat ta","állás pont","Zs uzs","érdeklőd ők","bek övetkez","csatlak ozott","kult úr","mon etáris","minőség ű","stratég i","amik et","kulcs fontosságú","megelő z","eredet ileg","lux us","rivál is","R eg","S K","b ic","h ai","p il","s ü","á p","ű köd","ér ő","ég ett","át men","szer ezte","ra eli","ség be","be vándor","ind ítvány","ter ror","hoz tak","nap ját","ha b","mind annyi","ős ök","ir ól","követ i","hal moz","orosz országi","élet be","élet üket","érték ben","ugyan úgy","szab ott","rán d","mar ket","használ ja","adó z","változ ások","terület i","okoz hat","ko alíció","esség e","képvis elet","folytat ta","Ukrajn ába","sport ág","rem űköd","jött ek","alkot ó","utaz ott","kos ár","cik lus","forduló jában","gyeng e","vill any","megállapod ást","február ban","méd iában","kezdemény ezés","négyzetméter es","megúj uló","szol id","Ár p","televíz ió","Baj nok","pot enci","Visz ont","Telek om","K am","L u","M on","M SZ","f an","f áz","g omb","n el","n át","r ág","ó ni","ak u","em ben","ok nál","kö k","meg emlék","meg lévő","meg semmis","re am","fel tölt","be fog","leg rosszabb","több let","mag ával","tár gyak","ítás ával","első d","út ra","vas úti","form ájában","cél pont","változ ik","rendszer es","hónap pal","hát ra","sel ejt","In d","gyors abban","érint ettek","harmad a","vit a","fil mek","Ar én","lab da","válasz olt","készült ek","bele értve","cím mel","szép en","bőv ít","forg almaz","rat ul","rat ikus","kárt y","lényeg ében","benz ink","maxim um","hozzát éve","Miniszt er","John son","letartóz tat","6 3","B u","D onyec","F ot","G ro","L ev","N o","O n","T or","e iről","g át","j ához","k ód","l ic","p s","Á g","el ést","at ú","ár nyék","on gó","ny íregyház","og ó","elő adó","Az óta","jel zi","ország ból","már is","ők kel","öl tö","ős szel","szak ma","után pót","szem b","né ha","emel ést","ítás ában","mér ő","súly osan","épít ési","néz ők","találkoz ót","Ny il","fut ott","játsz ani","utc án","viszony ítva","kilométer re","meglep et","Mol nár","Elő ször","Sp anyol","alapvet ően","hátt er","Vas ár","Auszt ri","rám utat","Mű v","megment eni","káb ító","dől t","DE AC","karban tart","Szint én","7 7","J an","P app","s í","s enek","t len","Ö t","sz ök","em bar","meg b","meg jegyezte","ét kez","ki csi","fel hős","hat van","elő rel","Az ért","szám on","ker est","tel i","Sz ol","ette bb","ítás ának","oldal ú","cél ba","kod ott","működ ését","személy autó","br azil","részt vevők","ti an","jelentős ebb","tem et","folytat ni","nép szavaz","fiatal abb","figyelm ét","mod er","hétfő i","tölt ő","műsor ban","vonatkoz ik","rövid ebb","beszéd ében","méd i","uc at","utak on","érz em","kin y","bizonytalan ság","javasl atot","legend ás","rezsicsökkent és","tü zet","fűz te","Péld ául","husz on","párhuzam osan","bántal maz","B uk","E C","F I","G al","H ason","K SH","M ajd","T u","U S","d ag","f idesz","k osz","p re","p ic","s véd","É let","ó c","el húz","ol ható","is tá","ér met","meg változtat","fel ét","kor szak","iz raeli","jel ek","ter et","ve i","szerint i","ebb e","ezt ük","szem l","ellen e","Egy re","von z","ítás ához","di cs","vas szal","lét ezik","marad ni","nyom ozás","egyen lő","bizony ult","vél eked","El ső","műv ek","perc es","emlék eztet","mos oly","termék eket","hall gató","tekint hető","megold ások","Er ről","els őként","harc ok","köt őd","küzd elem","arány ban","ünnep ség","energi at","október ben","forg almat","telefon on","kifej tette","régi ben","január ban","Pár izs","tüz ér","szórak oztat","Hét fő","vok s","alkat rész","Árp ád","6 4","C om","K al","K ul","N eh","b ak","f ókusz","k az","l av","n om","s ar","al ud","fel ejt","ai d","het edik","ért esül","vet ett","mű anyag","jelent ették","kép zel","rész ében","elt ávol","tan ult","han y","ór ákban","foly ós","alap anyag","munk anélkül","nő nek","jelen ik","fér j","oldal i","lép ést","fontos nak","erő fesz","gáz olaj","illet ékes","hír es","An nak","mely ben","fejleszt ések","tiszt ség","műv észet","gyors abb","nőtt ek","Ny ír","vizsgál ják","veszély eztet","hall ott","árs ap","jön nek","önkormányz atok","ion ális","száml a","étt erem","irod alom","ezr ed","nappal i","látvány os","level et","vereség et","mozd ul","adós ság","Mac ron","sho w","Jobb ik","diplomáci ai","afr ikai","B og","B ereg","E szt","F oly","J apán","K id","M Á","V aj","W ashington","g é","r ett","al polgármester","tt el","ok tól","cs epp","meg mér","ed ék","ki jevi","szám unkra","száz ezer","kép eket","kell em","mag unkat","koz ik","munk ás","csap atot","eszt end","jelen ség","vezető edző","ma il","választ áson","nyug díjas","péld át","ac e","bír ó","folytat ódik","barát ja","infláció t","tapasztal at","döntött ek","mozg ós","kult úra","Facebo okon","tehet ség","éjszak ai","felhív ta","információk at","fertő ződ","kiter jed","Hi ába","mig rán","Bi har","koncent rál","mand átum","human itárius","B od","J udit","M ész","M ező","R ád","V annak","e y","f ák","j ei","l ond","t ür","an ci","és ről","ár bevétel","ár emelkedés","ar ch","ik um","egy ez","cs el","cs őd","meg sérült","köz ség","köz reműköd","fel ed","ény i","iz zs","leg kisebb","leg főbb","ter vezet","mind egyik","fog va","tart alm","tör leszt","vég leg","vég eztek","össz ességében","ítás sal","ment ők","támogat ását","hang ul","három széki","állap ota","ször nyű","nyit va","árak at","elég edett","fin ál","sport ol","alá ír","részlet es","100 0","zaj lott","Ferenc város","érvény ben","Ber ki","csinál ni","onal d","Szín ház","sürg ős","projek tek","Pént eken","Által ános","Jak ab","lond oni","C O","H ad","P ort","P usk","S epsi","j á","k un","n et","p inc","z at","ü sp","el it","er ül","at órium","or ológiai","ál om","egy ségek","kö vette","cs í","ut ers","ki használ","re i","vez ettek","ön gy","ber ális","szám ban","ker eset","20 13","vég zés","szem ét","foly ik","sor ra","kis sé","har d","vállal ta","vállal ati","esít ett","össze hasonl","határ ozat","következ ett","kil ép","Mind ig","esebb en","szolgáltat ást","lég védelmi","kér ik","folyamat ban","fogad ja","rit ka","próbál ta","csom ó","fot óz","december ben","befektet ési","tur isztikai","tizen két","elkép esztő","elismer te","rász or","jö het","komp lex","Rich ter","Bél a","7 9","F arkas","H ely","K K","K DN","N a","T ar","b úz","b ölcs","f oc","i o","t ucat","é je","ó ce","el hár","el készít","ás ból","ez ők","meg figy","ap a","fel von","leg alacsonyabb","us i","rend re","kap tam","tal aj","rész ére","fő tit","raj ongó","atok kal","fél re","hozz a","ink at","talál at","támogat ott","használ nak","választ ották","társ as","személy zet","br ut","közl ése","kerül het","csökkent eni","bár mikor","tiszt a","tiszt áz","díj ak","emlék ezet","part i","jai ban","nyilván os","épület et","akad t","lab or","súlyos abb","tük r","legtöbb en","auguszt usban","távol ság","igyek eznek","rét eg","Pr ogram","júni usban","jelölt je","bevezet ett","Re uters","szomszéd os","Kov ász","tél en","verz ió","fran k","Dun án","kab inet","Hungar y","Hang súly","pro fi","masz k","döntet len","Teh át","elsőd leges","KDN P","! \"","B a","R S","f ik","h őség","l ista","v ös","ó mi","el tör","al át","em leg","ez ent","ér ia","él énk","meg teremt","elő bbi","ter ep","de i","ját szó","áj ukat","tám og","fél időben","Nem csak","dolg ot","dolg okat","tött ék","ford ít","kérd ése","ekt ív","erő vel","szeret ettel","hír portál","lehetőség ét","elmond ása","veszély t","sp ir","drág ulás","büntet és","gyeng ült","növel i","beszéd et","térség ben","védelm e","védek ezés","mut atták","mostan ra","Lig a","eltűn t","sajtótájékoztat ón","DV SC","prop ag","kancell ár","Pusk ás","9 5","B ul","C el","F inn","K az","L E","M c","N ik","T er","T elj","a honnan","c it","g ár","i P","i h","k olt","r ug","sz úr","ok i","meg nyug","ki adás","hat árt","ai r","kor r","olt ást","leg közelebb","ös en","szám ítás","ha vonta","sza va","kap unk","kép ek","vis szak","nál a","vi cc","Egy éb","lesz ek","zés i","szint re","Magyarország nak","saj nál","hang oztat","lép ni","av at","mes élt","hagy ja","hagy ják","működ ési","ic e","eredmény eként","szabad on","of f","irány ba","nyit ó","els ej","támad ást","meccs en","Szab ad","Mik özben","április ban","elfog adott","rád ió","fagy aszt","keletkez ett","apor izzs","kre atív","győ ződ","feltét lenül","meglehet ősen","nyíregyház i","6 1","B et","G r","M E","M art","b in","c om","g raf","j ére","v öz","ó sok","el indul","is e","am iről","ad alom","szer el","ta vasszal","fel tár","ország okban","nagy ot","pr ot","hi brid","jelent ést","tud atta","kül földön","amely re","tan uló","old alak","ór ában","miatt i","di vat","pl ik","kérd ő","hagy ni","ic o","iskol ában","fejleszt ése","belül i","vizsgál atot","bor ult","fegyver ek","kik ép","drág a","kéz zel","Bar át","észak keleti","ezr es","házas ság","Fő városi","ossz ú","sár ga","jót ékony","benn ünket","reform átus","lend ület","uralkod ó","megalap ozott","auszt rál","Vasár nap","fidesz es","kellem etlen","A s","C l","D u","E miatt","M ilyen","P ro","T im","f új","k ai","l ása","m ában","m oszk","p ok","r ot","s ki","el adó","el követő","gy újt","ar end","ik ák","meg szólal","ad a","ség ének","köz igazgat","le bb","ész ek","ész lel","elő ír","for ma","kép erny","tör zs","jár ult","ügy vezető","követ el","véd elmet","vált ott","lép éseket"]}}