{"version":"1.0","truncation":null,"padding":null,"added_tokens":[{"id":0,"special":true,"content":"<UNK>","single_word":false,"lstrip":false,"rstrip":false,"normalized":false},{"id":1,"special":true,"content":"<SEP>","single_word":false,"lstrip":false,"rstrip":false,"normalized":false},{"id":2,"special":true,"content":"<MASK>","single_word":false,"lstrip":false,"rstrip":false,"normalized":false},{"id":3,"special":true,"content":"<CLS>","single_word":false,"lstrip":false,"rstrip":false,"normalized":false}],"normalizer":null,"pre_tokenizer":{"type":"Whitespace"},"post_processor":null,"decoder":null,"model":{"type":"Unigram","unk_id":0,"vocab":[["<UNK>",0.0],["<SEP>",0.0],["<MASK>",0.0],["<CLS>",0.0],["a",-2.682952745017557],[",",-3.122047268746771],[".",-3.538003841278332],["t",-3.617765284347332],["i",-3.9228282369127196],["az",-4.119629189799909],["és",-4.358117407679382],["n",-4.409626624408965],["k",-4.4775655823119855],["A",-4.502961838987549],["-",-4.6143776724830285],["e",-4.773397445225482],["is",-4.7813377224117595],["hogy",-4.835506389936931],["s",-4.925282815021552],["el",-5.065652017305707],["meg",-5.065903880408383],["en",-5.126178771412372],["egy",-5.248634913338025],["ban",-5.288297585391774],["nem",-5.333266637521318],["m",-5.362933957223428],["ben",-5.374434872399508],["nak",-5.395689794918567],["ok",-5.430638689761221],["ek",-5.443000106255738],["g",-5.445881471049763],["ki",-5.4575047885925905],["et",-5.459017190500333],["z",-5.508667466525971],["on",-5.554087451806318],["re",-5.6110965012034715],["ra",-5.614412863022562],["Az",-5.622460973557656],["nek",-5.627077767402547],["ni",-5.630656897966457],["be",-5.6816498012405106],["ik",-5.760402853098112],["át",-5.814761082660775],["ó",-5.819556648521976],["l",-5.876018588052624],["ő",-5.88843001252067],["es",-5.895714163801214],["fel",-5.937364618794096],["d",-5.958236928870646],["r",-5.98462863686944],["–",-6.050958290819407],["ja",-6.0986548658844],["sz",-6.122830361248537],["ot",-6.132928566453543],["de",-6.136524829213892],["p",-6.148848136737286],["os",-6.2026148724556975],["le",-6.212426848373127],["ez",-6.246249498742889],["volt",-6.246928694312091],["szerint",-6.247570345194358],["b",-6.257107683949695],["ott",-6.260667013960681],["M",-6.285466751026144],[":",-6.2867613227288395],["már",-6.288012194567116],["20",-6.3728608944678555],["S",-6.38909000423148],["ha",-6.401937395003856],["y",-6.406521959936633],["ul",-6.434426946073277],["van",-6.442824657516562],["ét",-6.451541033903267],["K",-6.4542313383779515],["án",-6.467209398806277],["mi",-6.499078627224819],["nagy",-6.500677195574593],["\"",-6.509846111580652],["csak",-6.525397306121894],["év",-6.537883946280488],["ért",-6.540586290127102],["mint",-6.5423098437888285],["több",-6.550468309635853],["f",-6.552367249495328],["még",-6.56569194483588],["ás",-6.611396954052733],["h",-6.613604984654231],["P",-6.623981420257158],["ba",-6.625947520830648],["B",-6.6604608876058435],["pedi",-6.664795114554041],["j",-6.684196371342454],["okat",-6.715992163451006],["leg",-6.7168502835574735],["hoz",-6.72045670021398],["unk",-6.722454120491564],["vagy",-6.735232463957672],["(",-6.756498590808516],["T",-6.766706132619943],["ve",-6.770307314294763],["ünk",-6.770323510287053],[")",-6.771652309170063],["ják",-6.772139850347088],["két",-6.776067448398177],["v",-6.782714645697762],["kell",-6.798335017551183],["é",-6.800368094854296],["eket",-6.807265043810808],["hat",-6.8128531083506445],["százalék",-6.816019387338619],["te",-6.82143742528579],["sem",-6.830979774301541],["ig",-6.831743146302303],["vel",-6.8324102261998405],["om",-6.837355205853088],["új",-6.854193138143691],["után",-6.856947078555745],["o",-6.859465714271391],["ból",-6.869233087498735],["amely",-6.871751671120398],["ség",-6.881625407248279],["1",-6.889026941553755],["c",-6.889041623785175],["ék",-6.894495771884603],["én",-6.896499866368435],["ár",-6.9127220045759685],["cs",-6.914872621034677],["ról",-6.917547770979972],["azt",-6.91917974999291],["E",-6.920545989777521],["ként",-6.9324511538908595],["majd",-6.938846227453093],["ami",-6.940069899965923],["”",-6.946393557523967],["ák",-6.949122172122511],["ről",-6.949596330884081],["va",-6.96012026157438],["ában",-6.967508056658232],["lehet",-6.969532606739522],["val",-6.976097402504017],["D",-6.980156269450182],["ú",-6.98413710026718],["C",-6.988459078581323],["R",-6.992723069087779],["ol",-6.995478976310915],["orosz",-6.999117611827506],["lesz",-7.001772250088232],["magyar",-7.006961342837295],["ük",-7.013107443534686],["er",-7.0149625203765265],["uk",-7.015816961506999],["miatt",-7.020389162891924],["rá",-7.037578580241728],["ták",-7.042212452253414],["G",-7.056242726116013],["á",-7.062078451642011],["tak",-7.071370244346799],["így",-7.094707424589508],["ében",-7.103035779674156],["úgy",-7.103739824346573],["5",-7.107634676793441],["I",-7.114400463811679],["Ez",-7.117272998436324],["H",-7.120580261512594],["2",-7.129867432660005],["első",-7.131874987432597],["minden",-7.1359837032917675],["het",-7.136970901628761],["ett",-7.13828028404266],["ának",-7.142047317774821],["je",-7.143143025432272],["em",-7.146122366211862],["V",-7.149058987225312],["kor",-7.150759335571716],["F",-7.160405624090467],["olyan",-7.175989661034925],["gy",-7.20868359872168],["ság",-7.208831743873635],["tól",-7.21231917685483],["ű",-7.220255761981772],["fog",-7.220282851145675],["3",-7.223446537870822],["él",-7.225501088251639],["ből",-7.229870997980553],["ed",-7.231322372028825],["kal",-7.235397935194301],["or",-7.239211962058557],["között",-7.2435791730171415],["forint",-7.245034825292302],["elő",-7.2478755183106855],["L",-7.259769778729597],["tud",-7.266567758031402],["4",-7.2784630757146855],["N",-7.279349534486395],["jó",-7.2868923746526875],["„",-7.29536976533205],["nál",-7.299278336688847],["8",-7.300775167715197],["akkor",-7.301974705377606],["világ",-7.3086761655106525],["től",-7.312570259249974],["hez",-7.315860023799008],["7",-7.322593414435993],["éves",-7.33063387685522],["kat",-7.3479086011381884],["kormány",-7.349605690344207],["egyik",-7.356529486045656],["ál",-7.358237376222487],["tal",-7.361132417079778],["ad",-7.364491345211491],["ének",-7.365729553159375],["u",-7.371414560293775],["6",-7.374247909583937],["mellett",-7.3755633220441],["fő",-7.380655351227703],["aki",-7.385019502920441],["ára",-7.390568094721217],["Egy",-7.396764427685478],["?",-7.399895206084129],["sok",-7.401785447376751],["mert",-7.405122182706721],["ül",-7.410284939245154],["tek",-7.414668995159757],["ny",-7.418314454278423],["juk",-7.427786284301301],["mondta",-7.4349435261311285],["!",-7.439793467276089],["ne",-7.439799213671257],["össze",-7.4411135593782065],["vissza",-7.449857647593456],["arra",-7.449895791768746],["ték",-7.45196000351681],["más",-7.452202204311754],["millió",-7.4628929318782],["9",-7.4631842615140105],["azonba",-7.465127001041309],["Ha",-7.467982162552389],["most",-7.4703552979013494],["nél",-7.478135833978851],["ellen",-7.479890952740839],["al",-7.489284411522307],["O",-7.492331374437831],["ér",-7.500645208343794],["élet",-7.50389590679335],["ezt",-7.505479162378379],["ország",-7.524679792777729],["sal",-7.526462317897039],["ön",-7.529412527502293],["hozzá",-7.537067058077976],["ezer",-7.537311455519885],["nap",-7.538301884521541],["bb",-7.541656922975425],["í",-7.544272302196173],["előtt",-7.553940057083352],["tovább",-7.560854897290352],["Sz",-7.561415686167644],["0",-7.561508726646177],["ukrán",-7.569880930255238],["ember",-7.575058596426856],["19",-7.578643936331014],["ére",-7.596199614341754],["három",-7.597551890510299],["milliárd",-7.600459905896488],["áll",-7.61328730637807],["helyzet",-7.613418909406494],["vár",-7.619191495409562],["által",-7.623728825754746],["alatt",-7.628508158431008],["adó",-7.650334935035849],["od",-7.663007359882954],["ur",-7.663260457334465],["li",-7.664633653121712],["teljes",-7.671052939111299],["hét",-7.672229976784853],["akik",-7.677670221562799],["vi",-7.68135836116156],["di",-7.693099547342072],["amikor",-7.698732602168527],["ügy",-7.699219626584362],["elnök",-7.700874883528028],["ját",-7.704012316528225],["óta",-7.731610970443042],["ával",-7.731687650214314],["10",-7.7349390042004],["háború",-7.737956569092036],["22",-7.74024497863462],["Nem",-7.740736996579624],["J",-7.756171484243062],["fél",-7.761029888222261],["Mi",-7.767686386420233],["rról",-7.7760321879871235],["lett",-7.793790359689423],["ment",-7.794740006706126],["ü",-7.794772380930207],["ám",-7.7963316527417055],["us",-7.802098555995973],["való",-7.804050079447305],["ci",-7.805726619804445],["rendszer",-7.806874654755186],["számár",-7.807923374181907],["város",-7.819989708959036],["csapat",-7.824462497567271],["mind",-7.831586797166319],["szám",-7.833438621807849],["pont",-7.8371205020123345],["cég",-7.848645234671658],["ahol",-7.851154038132157],["hely",-7.8556440333895345],["öt",-7.857414991506001],["valamin",-7.85892734384979],["Oroszország",-7.865321129056731],["autó",-7.871651149574687],["eset",-7.876954296127305],["út",-7.880299267065986],["példá",-7.881268144829623],["Európa",-7.888239125863347],["közben",-7.89856765448662],["olt",-7.901315515740375],["szó",-7.90617679284623],["kap",-7.906392710266771],["ház",-7.910883889263769],["W",-7.91261009540852],["ök",-7.915393088854139],["kerül",-7.916041320830439],["sor",-7.919140963191778],["voln",-7.928723128894342],["rend",-7.929320996960271],["egész",-7.933796782246228],["hető",-7.946468311949758],["og",-7.946797608361769],["cél",-7.947545755462416],["Magyarország",-7.956095929477232],["annak",-7.956103332266513],["jár",-7.958176516612542],["ható",-7.958266066642354],["tette",-7.958438224049961],["ro",-7.958456093534768],["ló",-7.95847970750977],["gáz",-7.964069380407278],["idő",-7.965389506489723],["vezető",-7.966967443047294],["köz",-7.968500157711719],["Nagy",-7.969257461872555],["kapcsolat",-7.9708600354201256],["viszont",-7.9733801445197185],["nő",-7.974014607621626],["ilyen",-7.975676678599152],["ével",-7.980351882104283],["U",-7.980852623149707],["tart",-7.987108844056379],["ugyanis",-7.987858227439782],["alap",-7.989051959610121],["játék",-7.9973298312539995],["szer",-7.9982559045588655],["hisze",-7.9983149690294155],["ekkel",-8.000312335459292],["illetve",-8.002582793128358],["kis",-8.007364959204134],["tett",-8.008860228698294],["15",-8.009557802070539],["milyen",-8.010957105570963],["De",-8.011109652739302],["jelentős",-8.02408004745252],["ők",-8.024202787001352],["adott",-8.024310438735084],["előre",-8.025405417383281],["okkal",-8.025416703423893],["túl",-8.02572067009788],["hanem",-8.030914899204197],["amit",-8.034133239618725],["pár",-8.038187824668787],["érték",-8.038562457869563],["ing",-8.040049898666698],["21",-8.045890368386765],["ter",-8.046614814735285],["elmúlt",-8.047553650218857],["um",-8.047776828677161],["jük",-8.049095245533444],["második",-8.053156265956387],["négy",-8.053187063269283],["férfi",-8.05352819191759],["szak",-8.067593771446473],["akar",-8.069168398777473],["w",-8.071892656562401],["csoport",-8.072038655782984],["lap",-8.07313642069493],["míg",-8.074699553210722],["30",-8.079685370335444],["verseny",-8.080324887189462],["került",-8.081447020592062],["jelent",-8.088277131448466],["ebb",-8.088771329507697],["fontos",-8.088950393639786],["amelyek",-8.096244810971552],["tér",-8.103760686191379],["ezek",-8.109881344348917],["közölte",-8.109969220158384],["saját",-8.110915620537991],["hónap",-8.112946658803338],["sel",-8.116871961863911],["öl",-8.120048685201185],["euró",-8.120954492904751],["se",-8.121414109380357],["akár",-8.123474957175105],["18",-8.12749220937851],["ött",-8.134835614281561],["piac",-8.138757368126194],["százalékos",-8.141136362996],["nagyobb",-8.143458250036346],["kérdés",-8.14364436372627],["amerikai",-8.146685834164195],["család",-8.147078321457766],["korábba",-8.147763078495995],["legnagyobb",-8.147910407847863],["tor",-8.148821172174138],["közel",-8.151692435309037],["keres",-8.151844010029716],["mely",-8.154407772309959],["bban",-8.171392603483405],["jól",-8.175040109096551],["nincs",-8.181273553364722],["marad",-8.182131921042867],["itt",-8.183540957821837],["munka",-8.18540453880064],["zó",-8.187456035280928],["felé",-8.187746711962948],["ch",-8.188995261729685],["zal",-8.191424240967887],["ös",-8.19251737921392],["részt",-8.19782205290356],["pénz",-8.19895320932793],["oldal",-8.202597204274708],["energia",-8.205869591653627],["bor",-8.206643317899179],["kér",-8.20737460184807],["ugyan",-8.211550083678508],["során",-8.212240644580092],["újra",-8.21528982417548],["őket",-8.218468074539189],["szinte",-8.22112944240704],["határ",-8.224513638237795],["abb",-8.225088926400385],["évek",-8.225991685979945],["nélkül",-8.226459736190273],["gal",-8.229878696981316],["lás",-8.231090341086837],["vált",-8.231579421450434],["jövő",-8.234646415519261],["perc",-8.235306110302133],["ö",-8.23594651352942],["Magyar",-8.23769586286728],["azért",-8.239988344217032],["helyi",-8.242612952898186],["ör",-8.243079630895291],["időszak",-8.244279511282507],["emberek",-8.24561796072705],["fi",-8.246285028225289],["hagy",-8.24819101178834],["ll",-8.25211518533667],["hol",-8.253511874896219],["program",-8.254296072044674],["ítás",-8.254775477060976],["alapján",-8.255303362930686],["szervezet",-8.25642925527108],["együtt",-8.259080868671603],["gazdasági",-8.261675565290163],["idén",-8.261978735110123],["ver",-8.263418353205417],["álló",-8.265262364296902],["fej",-8.265589642530633],["néz",-8.266104355863012],["kel",-8.26794794007273],["része",-8.26924943525562],["szemben",-8.269508445181646],["eddig",-8.270721438702846],["ók",-8.270911711469637],["európai",-8.276560415317217],["támogatás",-8.279189921468758],["jog",-8.283494715984059],["víz",-8.28421982094974],["hát",-8.287276484732367],["mal",-8.28959280032895],["szem",-8.296602727042043],["másik",-8.297959591631301],["állás",-8.299085910656371],["újabb",-8.304584230201074],["közül",-8.305310794280771],["ill",-8.305578623161644],["eit",-8.310799606579934],["történt",-8.316781314075298],["tó",-8.320115285965466],["nyi",-8.32023245294545],["mond",-8.320944277909922],["hi",-8.322412760849286],["Z",-8.331171791769146],["Budapest",-8.331930716764337],["ása",-8.333229898521322],["döntés",-8.333934633153845],["hír",-8.336407273396627],["lenne",-8.337315936175097],["ut",-8.339235015533578],["tűn",-8.341867716967887],["ró",-8.343001535465742],["12",-8.344835102751121],["ég",-8.347195527268187],["ezzel",-8.348463049739326],["lát",-8.34882590494008],["esz",-8.349397611534439],["x",-8.349980611339781],["személy",-8.351172056517388],["áról",-8.352534169042547],["ír",-8.35291829504176],["ezér",-8.354180833686293],["jában",-8.356054527793166],["50",-8.356346078722853],["infláció",-8.360187869707367],["lévő",-8.361788915742256],["tartott",-8.36362998091548],["lag",-8.366398582414153],["kellett",-8.367925929218966],["ából",-8.36817170687115],["23",-8.369745569171474],["bár",-8.375528874519834],["vá",-8.375832437891834],["történ",-8.376036708591917],["El",-8.376257066850838],["ális",-8.38040296781432],["hazai",-8.380670260714083],["következő",-8.38373485633159],["követ",-8.384729760313583],["korábbi",-8.386704604147567],["14",-8.387355620588462],["alá",-8.38768305531467],["miniszter",-8.387931986419638],["egyre",-8.392004074478102],["csökkent",-8.392708336164699],["Meg",-8.39274969794453],["voltak",-8.393353481907521],["zás",-8.397465424609305],["párt",-8.399400587102868],["vállalat",-8.399963265020746],["gyermek",-8.401312800384115],["né",-8.405804559377177],["állam",-8.406292667207296],["mindenki",-8.410702450946678],["néhány",-8.411377896917875],["Már",-8.413002892919826],["Cs",-8.413637008557824],["kör",-8.415177031359057],["já",-8.41565525447555],["otthon",-8.416438934799707],["bele",-8.417031802390074],["kapott",-8.420142162667464],["sége",-8.422383718313128],["ce",-8.424197985247481],["szükség",-8.42580508946533],["használ",-8.426208226844366],["további",-8.428540451398385],["készül",-8.429166505165277],["ított",-8.431496739864809],["magas",-8.43340482050597],["ennek",-8.436722429702296],["később",-8.437976798659136],["helyszín",-8.438208475754177],["ény",-8.438314649731208],["13",-8.438814006995738],["elmondta",-8.442835598977275],["film",-8.443326453894993],["tag",-8.44429607057456],["25",-8.446848739642753],["mai",-8.452163172023546],["olaj",-8.454161078038716],["hatás",-8.454869810671418],["ket",-8.456310772207562],["összes",-8.457773859418216],["mű",-8.45795029633124],["éppen",-8.458444192980211],["belül",-8.458509914861832],["Ukrajna",-8.459681220291351],["erős",-8.4598805963528],["fejlesztés",-8.464263070468286],["17",-8.465311479036938],["éve",-8.466832349470568],["gel",-8.467803251163659],["eredmény",-8.468537064981259],["usz",-8.470545623262161],["gondol",-8.470966877369047],["ették",-8.476074445571395],["figyel",-8.478141723779007],["kép",-8.47944373202187],["ru",-8.47952728490359],["pi",-8.48112802856613],["ismét",-8.48225990407725],["kon",-8.483744409196706],["jelenleg",-8.484325364675987],["képes",-8.487429130355565],["vé",-8.488177999219214],["fok",-8.48900176162793],["tervez",-8.489159561705812],["jel",-8.489959661990754],["hiány",-8.489965901148949],["lehetőség",-8.491007353520832],["tavaly",-8.49476775518352],["indig",-8.496904082198096],["erre",-8.49878077156838],["sorozat",-8.498984592342314],["Egyesül",-8.499389277861548],["órá",-8.500619403349598],["utolsó",-8.501865862293373],["lány",-8.503290947482604],["osan",-8.50353660051212],["11",-8.505443283200734],["ellátás",-8.505835375200592],["épület",-8.508693892007695],["24",-8.509482740155535],["lépés",-8.510096054060556],["védelmi",-8.510795911779876],["ához",-8.511349127902214],["kar",-8.51165670938627],["ált",-8.514859519425968],["okra",-8.516546117296318],["száz",-8.519704541514955],["szint",-8.526087421992603],["kkal",-8.526264417804633],["növekedés",-8.526341283492275],["anyag",-8.526408048265726],["megfelelő",-8.526972399812152],["jon",-8.52717158461154],["jelen",-8.52884969247187],["erő",-8.5301341321039],["zár",-8.533116605616257],["üzlet",-8.533176533321388],["szabad",-8.5341967396821],["ebben",-8.537664719227498],["elég",-8.538084784239398],["dolgoz",-8.539712096701717],["lo",-8.540166620785168],["követő",-8.541510655060948],["este",-8.54206441368125],["örök",-8.543189896982852],["ján",-8.543564421260793],["tiszt",-8.54396426594778],["tíz",-8.544018502341714],["éről",-8.54407042610595],["fogalmaz",-8.544412621200877],["Ki",-8.546778243285619],["képest",-8.54761245175299],["unió",-8.547828726100716],["lép",-8.548976676935386],["mit",-8.553025958035484],["inkáb",-8.553117562449746],["miniszterelnök",-8.553436617580711],["választás",-8.553946496306896],["lakás",-8.555658490736324],["Mint",-8.555685404153678],["azon",-8.55609196902078],["legyen",-8.556976833491218],["gazdaság",-8.557236120414865],["dollár",-8.557374580031235],["mutat",-8.559307447744452],["közös",-8.560039833326243],["igaz",-8.560959954848023],["16",-8.561058260901927],["ink",-8.563274260238579],["törvény",-8.56410822539424],["ly",-8.56570036779576],["ást",-8.567569464740888],["szív",-8.568421194412863],["Péter",-8.56865784603644],["ését",-8.569679671994933],["véd",-8.570329996087857],["Magyarországon",-8.571185029897716],["jött",-8.571552778387499],["járvány",-8.572010457352043],["mennyi",-8.574547229264184],["ette",-8.574784265715213],["siker",-8.576278122518822],["élő",-8.58038262840299],["ko",-8.58112390604046],["hitel",-8.581387574089277],["szól",-8.581949595271215],["ását",-8.5819934107434],["Orbán",-8.582580311882609],["óra",-8.583457221791],["ná",-8.584615809450854],["dal",-8.587023605290394],["egyes",-8.587517229380975],["sikerült",-8.588277275806895],["lak",-8.590164926885022],["szintén",-8.590321902314816],["írta",-8.591300849937738],["per",-8.591917368689167],["ov",-8.592903240855382],["megoldás",-8.593598296644634],["mér",-8.594623527235644],["40",-8.5948074348514],["harmadik",-8.595150126156025],["fiatal",-8.598974455906582],["200",-8.600955257567477],["rész",-8.602979531956226],["nemzetközi",-8.602996763860713],["jelentette",-8.60536429496257],["súlyos",-8.605458624993254],["kisebb",-8.606974041303344],["hosszú",-8.60777094212226],["heti",-8.608156353707326],["hang",-8.608217829782426],["ába",-8.611313098306166],["maga",-8.6115507682212],["tár",-8.612743242066138],["/",-8.614176046310781],["mény",-8.614908856916927],["támadás",-8.615501357384328],["semmi",-8.616558800509477],["jön",-8.616901141577188],["oknak",-8.619083280435575],["nyom",-8.620115875443732],["In",-8.621741656418347],["szi",-8.621925163718561],["harc",-8.622747743923302],["mel",-8.623125668965368],["legjobb",-8.623215942455642],["kívül",-8.623502817024267],["hív",-8.623913921878314],["gól",-8.625535320780195],["X",-8.628739269574494],["föld",-8.629039253034769],["száma",-8.630907837917736],["nőtt",-8.631425627030012],["árak",-8.635062431768123],["őr",-8.636039677929794],["szín",-8.636536832046096],["videó",-8.63696283113626],["tunk",-8.637457683654805],["Le",-8.638547431607789],["lő",-8.639448264735773],["magát",-8.639553137423727],["nehéz",-8.639893541231801],["vég",-8.64139409492984],["rendőrség",-8.641627717562034],["próbál",-8.642062343836667],["múlt",-8.642457734638764],["Mar",-8.64268941579417],["vál",-8.643227861259113],["vasárnap",-8.643523216277199],["ic",-8.644060638130687],["ésére",-8.645906988671834],["adat",-8.645990557238518],["rel",-8.646344840807604],["vezetés",-8.649491742692629],["Köz",-8.649656034067121],["kezd",-8.650319090213427],["közösségi",-8.652308938266255],["helyen",-8.653506158814487],["német",-8.653730609633314],["állt",-8.654579479178274],["érkezett",-8.657401324883427],["ztán",-8.660308660043793],["bo",-8.662583207073133],["adás",-8.668344139010461],["szerű",-8.668576063966665],["tekint",-8.670408136121088],["fa",-8.674001102951593],["tam",-8.674139821506571],["vezet",-8.676132883732738],["talan",-8.676366043746274],["jut",-8.67637667142211],["biztos",-8.676754070047004],["gyerek",-8.677419821326584],["komoly",-8.677768050440852],["ekre",-8.677805640668941],["sokkal",-8.678290158059554],["öv",-8.67845016141032],["munká",-8.68120536891145],["politikai",-8.681424257250761],["terület",-8.68144949745686],["ozás",-8.682622496940613],["elem",-8.684214080755844],["ítés",-8.684268064925766],["dr",-8.684510105663108],["kár",-8.6882296063875],["ismert",-8.688508926501997],["Putyin",-8.689211216481691],["önkormányzat",-8.689575886366242],["jobb",-8.689912692294651],["köt",-8.690479851769968],["esen",-8.693840631752721],["mo",-8.696473972676024],["című",-8.696853635183771],["rendez",-8.6969861727369],["képviselő",-8.697564112338481],["központ",-8.697601901831021],["vesz",-8.698728564509665],["vette",-8.699261279203274],["halál",-8.704287745075849],["üt",-8.704722075399268],["baleset",-8.705893916894118],["áció",-8.70600012800786],["ült",-8.706716579307022],["von",-8.706849518598908],["elnöke",-8.710567823234149],["gyors",-8.712489233793669],["közép",-8.713409870800877],["kamat",-8.714189276026296],["szél",-8.7150100565677],["végül",-8.716181326124977],["arány",-8.716217484970883],["mikor",-8.71716610755485],["miután",-8.72043183912325],["talál",-8.720671296344909],["elleni",-8.72157459390471],["készült",-8.72309005124486],["oda",-8.723223347849391],["TI",-8.724814296659297],["ukrajnai",-8.728051038488434],["keresztül",-8.731931327168223],["érdeké",-8.731980628004084],["írja",-8.73653698245614],["barát",-8.737296202060223],["művész",-8.740954345108207],["cím",-8.741216458818656],["összeg",-8.743183842563885],["oldalán",-8.743402233929794],["számos",-8.744824668093916],["Á",-8.744941070705444],["jai",-8.745180578372352],["egymás",-8.745589221853432],["SZ",-8.74623890452387],["sport",-8.746263589641643],["ozó",-8.74652004207616],["tem",-8.748854134813428],["vány",-8.74919548818605],["koronavírus",-8.749890028292548],["fizetés",-8.75101870302491],["éhez",-8.752465835542209],["ral",-8.753500370250492],["feladat",-8.75516986284764],["int",-8.756474667019726],["könyv",-8.757279207027484],["halad",-8.758865839653009],["Be",-8.759794852272833],["foglal",-8.760738130433886],["tűz",-8.761523394211693],["végén",-8.762574143050305],["környezet",-8.76784766487236],["napi",-8.77283331680096],["beszélt",-8.773107997610959],["oly",-8.774577299058404],["kevesebb",-8.778033134811203],["működ",-8.778311675353047],["mar",-8.77852872167463],["met",-8.781968402169666],["öz",-8.785101649441046],["november",-8.785487202443994],["ikus",-8.786041033923038],["indul",-8.787735867912913],["vezetője",-8.787896140247756],["atlan",-8.788779059731503],["körül",-8.789554499551947],["fotó",-8.791358225305364],["állapot",-8.793134618680778],["utóbbi",-8.794213846908082],["csi",-8.795038532141279],["december",-8.7989222332548],["Ezek",-8.798928697489625],["változás",-8.799286633429391],["100",-8.80067971485447],["katonai",-8.802082116913503],["érte",-8.803258071125166],["szeretné",-8.803910957227409],["der",-8.80495605363307],["ezen",-8.806663928787437],["legalább",-8.806699785217596],["Gy",-8.808033264748046],["üket",-8.808367758791928],["azok",-8.808901270228116],["for",-8.810276100534722],["íz",-8.810444263594547],["mérkőzés",-8.812018793867116],["látható",-8.81414951279932],["termék",-8.817701447873638],["Í",-8.818422909481953],["Államok",-8.818428745161818],["döntő",-8.81999749136882],["előző",-8.82004340054086],["EU",-8.82268830138225],["Enne",-8.822924133795594],["enged",-8.82745295929869],["végre",-8.828765211735622],["valami",-8.828924684512074],["szeptember",-8.83031601531313],["zárt",-8.831587373387933],["egyébkén",-8.832578071615842],["vett",-8.833994457893873],["Viktor",-8.83431763140161],["telen",-8.837973161969785],["séget",-8.840545277163908],["átlag",-8.842039388228315],["nyer",-8.842464507626257],["zott",-8.842785600496093],["zel",-8.843115476219738],["maguk",-8.844719389533896],["test",-8.845848461941236],["Li",-8.846235907941825],["ány",-8.847071977593838],["Bár",-8.851427695300506],["díj",-8.852833324374702],["Most",-8.853359795093525],["szükséges",-8.8538079900169],["annyi",-8.854799439196803],["ására",-8.855872497264944],["kutatás",-8.856688747678945],["indult",-8.857680725638875],["őt",-8.857804546561066],["áram",-8.859454531442267],["piaci",-8.85975890425438],["maradt",-8.860019018265746],["László",-8.860682966949843],["po",-8.864685690263652],["délután",-8.865637918575716],["kapta",-8.866378559726204],["enek",-8.866560028201159],["október",-8.866869798040948],["esett",-8.867527531806832],["Minden",-8.86829199019441],["társ",-8.868696069959988],["úr",-8.868797856969687],["brit",-8.869451075198215],["oszt",-8.86973697111629],["ág",-8.870964778672134],["külön",-8.87136970378787],["veszély",-8.871771749564019],["tudja",-8.872210550816744],["egyetlen",-8.87253123331443],["ünnep",-8.872935892794281],["and",-8.873992489911306],["tartó",-8.876489089090427],["meccs",-8.877269002998547],["valószínű",-8.877382173007721],["számít",-8.878136105087187],["találkoz",-8.878968016059863],["Ezt",-8.879045887959895],["visel",-8.879219156761476],["kevés",-8.879366145860711],["tesz",-8.882092816406677],["osztály",-8.88486080580828],["iskolá",-8.88505829772893],["aszt",-8.8856952681151],["un",-8.886386671041524],["érintett",-8.88889986161382],["ász",-8.8892031484481],["idei",-8.889271958970955],["bér",-8.890029156581097],["döntött",-8.890058322363267],["szolgál",-8.890632434898418],["járó",-8.890814180375559],["szerződés",-8.89202201135409],["tenger",-8.893437834135348],["60",-8.893556769492854],["alma",-8.894073826377685],["Re",-8.894650068011273],["egyszerű",-8.894843267701283],["társaság",-8.897973367845443],["cz",-8.898416453146638],["találkozó",-8.899289484649668],["tudta",-8.900306309622401],["mer",-8.900358105988325],["rendelkez",-8.901697508396364],["együttes",-8.903534503851926],["eszköz",-8.904265588283215],["Ukrajná",-8.90464202142807],["ugyanakkor",-8.906161000796786],["azonnal",-8.907146940494581],["emelked",-8.90924754250368],["Nemzeti",-8.90962592204783],["igény",-8.910112706017896],["megyei",-8.910789428361596],["betegség",-8.911316867444452],["szerepel",-8.912950990153732],["vér",-8.913569843862868],["tör",-8.914697512733712],["hasonló",-8.914771097284241],["érdek",-8.915330827509258],["esemény",-8.915551290553058],["foglalkoz",-8.916578499947345],["hivatalos",-8.917392813077042],["fegyver",-8.917702891263824],["jelölt",-8.918297977444228],["vele",-8.919854183163991],["formá",-8.920239609892452],["szereplő",-8.92231593290221],["adatok",-8.922403150511595],["ingatlan",-8.92251378564655],["igen",-8.922608143732203],["man",-8.92296716560432],["elején",-8.924399900287561],["ülés",-8.924723892700282],["öm",-8.925113728945409],["vág",-8.925726890496058],["felvétel",-8.925895829054237],["legtöbb",-8.927691802472403],["bé",-8.927935491185835],["haza",-8.92995861875258],["biztonság",-8.930485535150806],["augusztus",-8.933131815567187],["pénteken",-8.933267665859379],["mennyiség",-8.934640105418762],["olás",-8.93694911447372],["id",-8.93805278885553],["szolgáltatás",-8.938844304633749],["akció",-8.938958888607402],["Több",-8.939785224153816],["arc",-8.939824326472579],["Úgy",-8.939948083785659],["fal",-8.94128868315157],["díja",-8.941752164732343],["hu",-8.943879314365855],["magá",-8.944250130606239],["végé",-8.944537098329954],["Bar",-8.945239665120397],["játékos",-8.945378620991232],["benne",-8.945577293334324],["hivatal",-8.946880880302285],["település",-8.948004586888224],["teszi",-8.948444810609821],["tartás",-8.948773505082887],["mély",-8.948827967808516],["ezelőtt",-8.948867811168633],["rendőrök",-8.948984326068633],["had",-8.949496718303868],["közlemény",-8.950419539401873],["nyolc",-8.950962178083262],["irány",-8.952922516075088],["polgármester",-8.953045007048132],["szállítás",-8.953543517110129],["lehetősége",-8.953930929497018],["do",-8.954026838305488],["érdemes",-8.954796094022887],["ellenér",-8.95579730888037],["köszönhető",-8.955834315186603],["köszön",-8.95965250923696],["hon",-8.959681378900694],["csomag",-8.960013407161181],["folyamat",-8.961508679631805],["építés",-8.963717675718705],["szankciók",-8.964069149424759],["ási",-8.964464345473893],["projekt",-8.96456021618798],["atás",-8.965658831685897],["ukat",-8.967353771728032],["vizsgálat",-8.967440353602495],["épp",-8.968554668456589],["80",-8.968831375025882],["szor",-8.968964407686915],["ció",-8.96917659883905],["ád",-8.969279807370029],["bu",-8.969787121337438],["követőe",-8.970170130449517],["éri",-8.972193067036448],["politikus",-8.973724871414152],["alakul",-8.974574709202894],["biztonsági",-8.974764983605287],["eknek",-8.974949543708782],["helyett",-8.975483881755238],["előny",-8.975619882664155],["István",-8.976027875327805],["bank",-8.976818589076045],["mány",-8.97761018917862],["ismer",-8.977635372105478],["koz",-8.98022601396616],["dik",-8.980699753178975],["csütörtökön",-8.980971055269592],["rom",-8.981405365915965],["rövid",-8.982321332643664],["országok",-8.984076935793333],["son",-8.984705896837028],["Er",-8.984856829937694],["értéke",-8.985586395905557],["várható",-8.985680169576895],["eljárás",-8.987435112625182],["jegy",-8.988277570819173],["ások",-8.98840842677955],["kezdte",-8.989040839967984],["szk",-8.98942565650572],["számol",-8.989845036015689],["ító",-8.990897430661047],["part",-8.991472872983836],["Ko",-8.99216571381027],["vas",-8.992424170428556],["ották",-8.995355895573944],["kapu",-8.995763589174835],["sokat",-8.995981248143321],["választ",-8.996057030766679],["áig",-8.996731260373359],["lakó",-8.997744990424291],["miért",-8.997914227620353],["bal",-8.997999726012317],["tétel",-8.999322632606816],["jobba",-8.999980727387289],["pillanat",-9.001730110699187],["különböző",-9.002272468941172],["kész",-9.003755433061013],["alkalom",-9.00410478529818],["fény",-9.004218103280895],["co",-9.005105401241131],["növel",-9.005517707484533],["régió",-9.006666827186223],["indít",-9.008061356421962],["szövetség",-9.008180199670758],["emlék",-9.008366852382974],["hatalmas",-9.00906487773165],["eredménye",-9.009360355964088],["tív",-9.009638001052302],["szóló",-9.009997339254138],["old",-9.011042197723153],["telefon",-9.011270309348111],["neki",-9.011873741949772],["írt",-9.014003362585715],["Ro",-9.014965826558381],["válság",-9.015880159637081],["elme",-9.017276605963954],["folyamatosa",-9.019429178202003],["line",-9.02265798992008],["töltött",-9.023570064584316],["darab",-9.023591941438777],["intézmény",-9.024145510889344],["hosszabb",-9.025683403915918],["szolgálat",-9.025746809840665],["oktatás",-9.025867731729967],["ber",-9.027368880629648],["utal",-9.028735128164922],["lég",-9.029507681809326],["hal",-9.03062836065884],["op",-9.030910417930201],["forrás",-9.030934563159569],["született",-9.031348183386697],["oló",-9.0327479120641],["január",-9.032982779416681],["március",-9.03298537058836],["És",-9.034115291276251],["ottak",-9.035061152172997],["február",-9.035427618523833],["kilométer",-9.037899291625678],["erősít",-9.039117936418808],["mentő",-9.039579864970381],["eb",-9.040679155123371],["jelenlegi",-9.040729495319972],["műsor",-9.041209139843925],["lin",-9.04407940204499],["pe",-9.044729222161244],["eken",-9.046131376862242],["jával",-9.046464972751092],["elérhető",-9.046952028920003],["hétfőn",-9.047132066463787],["gép",-9.047405753949516],["okon",-9.04767299988318],["válogatott",-9.048807756264132],["magán",-9.051526736835193],["állítás",-9.051681399700474],["tanul",-9.05222780726959],["tanács",-9.052292239273289],["található",-9.05321071843884],["tizen",-9.053271976184295],["állami",-9.053324366186185],["ob",-9.053998717498327],["magasabb",-9.055396323164207],["reggel",-9.055549277057183],["küld",-9.058539655996785],["mód",-9.058588910475663],["indított",-9.058600166702158],["tevékenység",-9.060212021573319],["forgalom",-9.062724992611486],["szerdán",-9.062736358259343],["napon",-9.063090929236532],["lan",-9.06375889313431],["orvos",-9.06490021085066],["Eb",-9.065879153180536],["dó",-9.066249524087077],["terjed",-9.067359032712373],["27",-9.06743172406722],["iskola",-9.067986193269544],["tudni",-9.06816766865607],["por",-9.070144979525047],["ráadás",-9.071684703893105],["vásárlás",-9.07297155947099],["“",-9.075382974488607],["fehér",-9.075385036507695],["figyelmet",-9.075395708745361],["valaki",-9.075416996075774],["előszö",-9.077760970172768],["élelmiszer",-9.078311074477249],["du",-9.0795989852453],["É",-9.080209157572634],["parlament",-9.080491614104279],["számlá",-9.081575398968287],["rossz",-9.081772706355522],["jutott",-9.082431388523172],["kíván",-9.082866330729022],["soka",-9.08503132975477],["neve",-9.085476044893541],["rendezvény",-9.085746674642062],["fordul",-9.085993312048805],["biztosít",-9.088324305399215],["eszközök",-9.088663213998785],["módo",-9.088788871634012],["nép",-9.089254654155543],["haj",-9.089812716240473],["bíz",-9.090798313671964],["többször",-9.091604368974862],["tulajdonos",-9.092747624916353],["baj",-9.094624018917724],["gyerekek",-9.096157382030917],["éből",-9.09650921024256],["tenni",-9.096810788088867],["gyár",-9.096900361067236],["sí",-9.097667732066158],["%",-9.098579878060303],["modell",-9.098590283485176],["fizet",-9.098700928011272],["változ",-9.099542379263728],["eh",-9.102634892221824],["beli",-9.102635309252223],["bevétel",-9.104024876998416],["forduló",-9.10410736905277],["ker",-9.104290455550833],["cégek",-9.10589845002066],["május",-9.106434682643279],["hálózat",-9.106492786599468],["utaz",-9.107175513917804],["pályá",-9.10802354328738],["ós",-9.108931959312933],["sziget",-9.109418076616011],["zik",-9.109884079289332],["független",-9.110381118581632],["csúcs",-9.111711764687001],["hetetlen",-9.111787589195863],["zöld",-9.111983923485477],["kedden",-9.112138701692995],["cikk",-9.114587359270955],["emelkedett",-9.11814120117305],["etlen",-9.118510962121793],["bíróság",-9.120121115286294],["dél",-9.120676923734864],["elte",-9.121839371380428],["jelentés",-9.122161839979903],["egészségügyi",-9.122405963762684],["tölt",-9.122428862659703],["lakosság",-9.122930422361382],["járt",-9.123622993686919],["okoz",-9.12498561398621],["beszél",-9.125230663052392],["nemzeti",-9.12592490461921],["forintos",-9.126273904720122],["adta",-9.127540290645898],["láb",-9.128989577533627],["esetén",-9.129862762958382],["bel",-9.130804908489083],["Mind",-9.132737930638623],["zsi",-9.132810292577616],["fogyasztás",-9.132828608722003],["addig",-9.133103230070393],["megjelen",-9.13335272917851],["szép",-9.13402218725167],["ho",-9.13515954760995],["szeret",-9.13559626352537],["par",-9.135707261020599],["használat",-9.136003275165322],["egyetem",-9.136374359054493],["tulajdon",-9.139138969378699],["információ",-9.139368862856784],["II",-9.141135831850388],["venni",-9.141935691574666],["hajó",-9.142508877045657],["hatatlan",-9.142927803493428],["ától",-9.142928795863494],["közösség",-9.143467852965136],["jelenti",-9.143854820978563],["kiderült",-9.143860283819357],["cse",-9.145334907447221],["senki",-9.145939202026582],["javaslat",-9.146653538255382],["kicsi",-9.147218241229421],["70",-9.148570986875463],["lel",-9.148722586175936],["26",-9.149708408598077],["nyugati",-9.149946418080523],["arany",-9.151273891174966],["lét",-9.151620543810584],["készít",-9.151887883978876],["ács",-9.1525872854209],["ságot",-9.153430725101384],["szakasz",-9.154550424285699],["kedv",-9.155024194569137],["életét",-9.155055705696146],["hatj",-9.156143414196737],["osztott",-9.156324667573374],["csökken",-9.156802319708888],["ex",-9.156824049405547],["jára",-9.157531008281989],["Fel",-9.158862103175096],["keret",-9.159596625617398],["épít",-9.159800281244403],["szik",-9.159967394687389],["állat",-9.160170720383858],["einek",-9.16184289055792],["partner",-9.16350608986762],["játsz",-9.16409455819304],["orban",-9.16480183552785],["szület",-9.165009126590729],["vonatkozó",-9.167391367125262],["problémá",-9.167636174951198],["szal",-9.167999171452015],["július",-9.16878409632994],["rég",-9.169106458571454],["jét",-9.169536573964173],["Sok",-9.169584636683592],["legfontosabb",-9.171953968430872],["zavar",-9.172973853709683],["Facebook",-9.174394203523342],["társa",-9.174720777241728],["érkez",-9.175209826252079],["látsz",-9.175545526303091],["nyelv",-9.175876062589634],["adatai",-9.17638586584058],["ős",-9.178018374422374],["kkel",-9.178135936974282],["árfolyam",-9.17881598690638],["közlekedés",-9.179373933520711],["Bizottság",-9.180036031708278],["erősöd",-9.180167442491998],["szombaton",-9.180216520784235],["elfogad",-9.180345475190624],["ipari",-9.181172948116718],["termelés",-9.18189370053835],["szerel",-9.1819571815424],["alig",-9.182168812799357],["célja",-9.182388609607393],["zene",-9.182841296571622],["számolt",-9.183230284874512],["ré",-9.183588525570135],["est",-9.185232739049653],["gó",-9.185431858233185],["hatóságok",-9.185483182374334],["index",-9.185712944856343],["végzett",-9.185871461244702],["működés",-9.185899564904432],["kérdez",-9.186032557376208],["termékek",-9.18676910821802],["talán",-9.187155714754576],["segít",-9.187769021561909],["védő",-9.187857156324968],["érkező",-9.187967709155966],["Bank",-9.188732960848196],["előbb",-9.188985732236898],["csinál",-9.189862545231364],["lu",-9.190086733605806],["áldozat",-9.190196131056005],["kapcsolatos",-9.190980939741682],["Unió",-9.191471075052856],["tünk",-9.191685763377766],["írás",-9.194064282381117],["ezre",-9.194112250727816],["oltás",-9.194317640916594],["utcá",-9.194629195691471],["sé",-9.195231865639045],["90",-9.195338753540039],["kettő",-9.195493900150542],["tuk",-9.195859720283675],["nyújt",-9.19641595408695],["mindent",-9.197540630977883],["endő",-9.198800939669152],["utas",-9.199441146889285],["támogat",-9.199648143550759],["János",-9.20004995685795],["mat",-9.200462701580733],["létre",-9.201471363660803],["helyez",-9.20158744835646],["minisztérium",-9.202249487678827],["Bo",-9.202482595444184],["Egyetem",-9.203111374148165],["35",-9.203174903394892],["ell",-9.203271605994413],["nevezett",-9.20387440247999],["szab",-9.203879673854587],["kapcs",-9.20465917233011],["nyugdíj",-9.20500532481525],["folytat",-9.205093620911601],["április",-9.205825349209533],["ozott",-9.206325866291774],["emelkedés",-9.206429761082735],["ud",-9.206548055022338],["költ",-9.206914881680095],["esti",-9.20785329002938],["üzem",-9.208589795561977],["vidék",-9.208747570999652],["külföldi",-9.20920422944991],["meleg",-9.213154826810008],["felelős",-9.213308811670885],["28",-9.213335328136774],["eink",-9.214346060136124],["pl",-9.214672105808226],["hangsúlyozt",-9.216160232829537],["szabály",-9.21618692464928],["román",-9.216300959470662],["ron",-9.216548895893176],["kínai",-9.217505318551009],["esebb",-9.217679101565029],["fogad",-9.217702635565432],["vonal",-9.217923085197409],["csup",-9.218148363711348],["játszott",-9.218874557347396],["épül",-9.2191086504751],["pal",-9.220914592186517],["rang",-9.221643836204859],["június",-9.22339534402938],["sák",-9.224810175707528],["egykor",-9.225410567280283],["akad",-9.225493538767246],["teljesítmény",-9.226509401118694],["gond",-9.226865207679882],["egészség",-9.227785314879796],["Ferenc",-9.228576083190825],["Ber",-9.228706062527241],["Hozzátette",-9.229437119134474],["tikus",-9.230812753028413],["lenni",-9.231378654869047],["So",-9.232530540327119],["szezon",-9.233487497939393],["házi",-9.233573632509271],["állít",-9.236469119567339],["Mo",-9.236547388077962],["fenn",-9.237226905237968],["ségi",-9.237246980363228],["közötti",-9.23784498853431],["Zr",-9.23837387400127],["kezdőd",-9.238625668067085],["azóta",-9.23957221819744],["sőt",-9.240991411916745],["rengeteg",-9.241279598336224],["Ch",-9.241785461701909],["szakember",-9.242386337722934],["kább",-9.24351812941606],["zni",-9.243732360572714],["fenyeget",-9.244291604144285],["pénzügyi",-9.244541232920671],["kellene",-9.245295555971744],["adni",-9.247170726390419],["ium",-9.247181836932688],["papír",-9.247320427669976],["kert",-9.247756166539542],["ített",-9.248564930348158],["úton",-9.250123654855141],["NATO",-9.250343094760481],["utca",-9.250524893128635],["szerzés",-9.252704161096183],["oroszok",-9.254229700529802],["időben",-9.256491223999236],["történet",-9.256755443153438],["találta",-9.256785827480972],["főváros",-9.257003313645594],["nappal",-9.257520598638187],["visszatér",-9.2585082571933],["zon",-9.262231045118272],["tartoz",-9.26230230631519],["országban",-9.263210836206504],["emelés",-9.26467616242791],["használt",-9.264720907542685],["erők",-9.264799253802305],["rt",-9.264969572286528],["költségvetés",-9.265679205042055],["kórházba",-9.266888804715848],["Szer",-9.267078156561734],["500",-9.26741441627216],["foly",-9.267527077563676],["beteg",-9.267953363291516],["ájá",-9.268392819790876],["NB",-9.268663667551653],["Ő",-9.268720270090443],["kockázat",-9.268720271186552],["gyártó",-9.269276641946416],["sajtó",-9.269485185889586],["beruházás",-9.269500537104639],["látogat",-9.270121205268236],["elé",-9.271741223574484],["megállapodás",-9.271832649908056],["soha",-9.2719723200603],["sérült",-9.274930595229758],["vállal",-9.277062925251608],["negyed",-9.280157541154008],["féle",-9.280286844405255],["kampány",-9.28429750844769],["üzemanyag",-9.284511047995297],["mos",-9.287747895678748],["pontos",-9.28793748522455],["zett",-9.2885994424615],["élete",-9.288918053632003],["Két",-9.289224464850045],["táv",-9.289703662335814],["tudott",-9.28972933330589],["busz",-9.289788979857114],["Val",-9.289919804942189],["költség",-9.290134563783974],["ásra",-9.290180589343482],["Szent",-9.29040372682],["Jo",-9.290498626540755],["francia",-9.290900700934419],["Hogy",-9.291153165558807],["Br",-9.29218019702724],["dob",-9.292285923131061],["részé",-9.292584459328225],["fogyaszt",-9.293147955523322],["szervez",-9.29343762504924],["ec",-9.293530775536974],["köztü",-9.293665900423804],["negyedév",-9.294199198495877],["mértékbe",-9.294368864976358],["szakmai",-9.294507442050447],["tük",-9.29587250896669],["boldog",-9.296936217593004],["szolgáltató",-9.29693655912535],["területek",-9.297667271386963],["végez",-9.298290362745611],["közé",-9.299030572186524],["segítség",-9.301354284045217],["ítő",-9.301633399616295],["gyorsa",-9.302074412500373],["régi",-9.303030731947146],["ítél",-9.303073629611086],["Németország",-9.303314895979568],["szerepe",-9.303799159589172],["beszéd",-9.303968313292751],["érkezik",-9.303970172887066],["29",-9.304019923682393],["jövőben",-9.304424136537346],["élt",-9.3048789435662],["vonul",-9.305646723558556],["fogja",-9.306164528082558],["Központ",-9.306569191400666],["ítani",-9.307546789936204],["képe",-9.307568031743832],["kezdett",-9.307980252715556],["of",-9.308270053184568],["hozott",-9.308350107904563],["lal",-9.309007054155128],["Ny",-9.30956603057729],["különleges",-9.30976509918725],["kötött",-9.310359906979622],["terv",-9.310382657167715],["ideje",-9.310818803671758],["gyakra",-9.311479283193478],["kezelés",-9.31251825253075],["Jó",-9.312693943346504],["budapesti",-9.31296130429071],["nevű",-9.312967622269205],["képzés",-9.31322763999596],["br",-9.314410281719262],["űr",-9.314472784096651],["jármű",-9.315222327828929],["forinto",-9.315452024438647],["állomás",-9.316258016301752],["bajnokság",-9.31664271472778],["válasz",-9.317288885999023],["vendég",-9.317781846471672],["napok",-9.318713475318216],["nyilván",-9.318865759519067],["kísér",-9.318987636273423],["sérülés",-9.31945118882187],["hullám",-9.319570920927498],["tanár",-9.319998016414878],["gazdá",-9.320243517753276],["ezút",-9.320318107881373],["utat",-9.320349502938893],["lej",-9.320413820255755],["rendkívül",-9.323320503851651],["térség",-9.324649448275835],["lépett",-9.324687781301463],["ségét",-9.324742581226886],["Fi",-9.32544861630992],["kórház",-9.325678949036257],["péntek",-9.325790543704693],["klub",-9.326052496985094],["átlagos",-9.327819213457765],["hor",-9.328654804394695],["király",-9.32866141107331],["színész",-9.328748435098044],["karácsony",-9.329248248699312],["szerzett",-9.329611256646357],["pu",-9.330519715945686],["mégis",-9.331007119473725],["edett",-9.33288659069054],["nyitott",-9.333099370583366],["egyszer",-9.333192011398799],["előadás",-9.334117498484671],["eseté",-9.334174346415496],["sék",-9.33561921616431],["lengyel",-9.335840257052478],["közönség",-9.335854545572818],["többi",-9.336053636635016],["tegnap",-9.33647353063111],["tagjai",-9.337174987051663],["park",-9.337946289570597],["mellé",-9.33832140701761],["szeretet",-9.340507902408357],["említett",-9.341485036886478],["segítségé",-9.341901663175488],["Új",-9.342391188433417],["jellemző",-9.342471569490558],["népszerű",-9.342696695786092],["ruhá",-9.343216915317392],["ébe",-9.344521702198644],["nevez",-9.344864565245668],["bejelentés",-9.345206621813194],["kezel",-9.345575605177618],["friss",-9.34734725327943],["idején",-9.348002812155412],["többek",-9.348386712580169],["intézkedés",-9.348539701028983],["havi",-9.348588105241504],["Y",-9.349138185851247],["ner",-9.34939558482169],["szállít",-9.349983056014349],["bír",-9.350188387986588],["sajn",-9.350983598270536],["vagyis",-9.351117787508631],["koncert",-9.352505320726987],["pályázat",-9.352926554345615],["bán",-9.35312777552878],["állított",-9.353868795723514],["álás",-9.353880553572873],["pontosa",-9.355838467807168],["területén",-9.355912200556496],["üzenet",-9.355952653460864],["képesség",-9.356313048235648],["tapasztal",-9.356938432643144],["bizottság",-9.35925073300758],["var",-9.360221839633764],["országos",-9.360278687006856],["személyes",-9.360287749438239],["Még",-9.361029867591089],["mostani",-9.361334914542056],["hőmérséklet",-9.362640298672638],["méter",-9.364189585782139],["ája",-9.365559082126225],["vélemény",-9.365691624583706],["forgalma",-9.36604416269704],["persze",-9.36611054770385],["részvény",-9.366297520002838],["csatlakoz",-9.366606309483345],["távol",-9.366887569224335],["ször",-9.36810821411628],["felnőtt",-9.368191433598277],["küzd",-9.36875040963736],["Miskolc",-9.372879308509557],["hadsereg",-9.372924973214312],["alkalm",-9.373400095340493],["tartani",-9.373921177812173],["élmény",-9.374441306062929],["jen",-9.374617438943078],["viszony",-9.375223725465283],["légi",-9.375385352978498],["járat",-9.375439052873006],["szünet",-9.376316594801878],["Zoltán",-9.37631742321198],["bizonyos",-9.377246248569275],["ard",-9.37786032990172],["Co",-9.378180039687617],["mire",-9.378935959311338],["várt",-9.37919121743031],["szakértő",-9.379234148390667],["pénzt",-9.379410534437664],["mögött",-9.379764009053456],["kilenc",-9.379766477292854],["Debrecen",-9.379809678443603],["szava",-9.380019445739242],["tömeg",-9.380323291345707],["ipar",-9.381908000058718],["ván",-9.382555492914722],["részben",-9.382809522228477],["napja",-9.383058569091482],["erdő",-9.383872446026956],["együttműködés",-9.384007708431767],["Ol",-9.384153478427633],["sikeres",-9.384606659357091],["sztár",-9.384720516189944],["mondás",-9.385496281542189],["hő",-9.385711781444556],["győz",-9.38610148360829],["Ne",-9.386985362200065],["kocsi",-9.387161457988547],["No",-9.388358249932399],["fordít",-9.388631742541776],["nevé",-9.388871335785286],["mentes",-9.389138144343665],["végig",-9.389201219895845],["kéz",-9.389550248205033],["pro",-9.389787441043286],["vezetet",-9.390505036634828],["ger",-9.391058254838153],["mondott",-9.393233978884531],["hisz",-9.3942465885322],["évtized",-9.394422406099014],["iránt",-9.394827423268207],["jegybank",-9.394996100779828],["mindössze",-9.3962050625618],["tábor",-9.397312266001228],["követel",-9.398732455554013],["szent",-9.400843605856185],["mobil",-9.400853000900337],["földgáz",-9.401458416053128],["hit",-9.402185505945997],["dolgozó",-9.402289741615348],["teljesít",-9.402645315139615],["részét",-9.403435153030689],["utak",-9.403681568266027],["harmad",-9.404091081667733],["elektromos",-9.404240713865587],["nyomás",-9.4044125671525],["Tamás",-9.404804179877464],["vették",-9.405533029979866],["mutatott",-9.406282997121831],["konfliktus",-9.40778680881375],["labdarúgó",-9.407786910891055],["egyértelmű",-9.407786942388462],["szerte",-9.40893552776139],["tehet",-9.409119761695049],["talált",-9.409755025814544],["helyettes",-9.4101436014397],["globális",-9.411345539858987],["szerencsé",-9.411358201758707],["egyedül",-9.411374806306512],["reagál",-9.41145875799348],["gyártás",-9.412019781259286],["nal",-9.414050421966989],["tartj",-9.414323939083499],["fiú",-9.415065639231571],["ásával",-9.415654320835358],["kislány",-9.416066843297589],["fizetni",-9.41655593052896],["női",-9.42083652741951],["könnye",-9.421060489669152],["egyéb",-9.42207553382287],["export",-9.422698966977851],["ővé",-9.42384002877442],["tagja",-9.42387249424329],["hall",-9.424460895859735],["szel",-9.425367545574126],["odás",-9.426199308442916],["versenyző",-9.426310741617215],["képvisel",-9.426385020040906],["land",-9.426678174327023],["vény",-9.426921971985475],["öröm",-9.427451255259854],["tánc",-9.428187522671653],["lik",-9.428607441052133],["aktív",-9.429606783399944],["ente",-9.430810972302845],["Európába",-9.430995840753548],["alkalmazás",-9.431351337858203],["mu",-9.431821493674224],["elsős",-9.431916216375527],["31",-9.432596262020844],["szombat",-9.432736646225171],["források",-9.432909638042954],["edző",-9.433043769912913],["poszt",-9.433640067369932],["mozgás",-9.435033389240566],["ésével",-9.435705254572827],["polgár",-9.436341965953961],["készített",-9.436442838911168],["nyal",-9.43713366184993],["felső",-9.44012756130818],["eddigi",-9.441116771975404],["gyermeke",-9.441461454147003],["okozta",-9.442654438148757],["vezér",-9.44312818416297],["kül",-9.443935069421126],["Sándor",-9.443958901959407],["csökkenés",-9.444553449728968],["irat",-9.445100021075572],["fű",-9.44604606627901],["nyár",-9.446322349421212],["ekkor",-9.446755413088704],["mutatta",-9.448132427564882],["választott",-9.449636117907449],["igazgató",-9.449962171068716],["gyakorlat",-9.450208220646035],["digitális",-9.45135082675862],["közvetlen",-9.4514852063135],["megjelent",-9.452435982345992],["nemzet",-9.452520859414584],["anya",-9.453516985442064],["idős",-9.454490241071866],["íteni",-9.456210510827134],["vállalatok",-9.456225830721266],["benzin",-9.456519954034583],["mutatj",-9.45723598353991],["Tovább",-9.4587997371985],["Országos",-9.460240520212682],["ügyi",-9.460428968316375],["családi",-9.46056865975007],["területen",-9.460682465899295],["fér",-9.460766101438727],["szempont",-9.46167658801588],["199",-9.46219553638538],["tető",-9.462986596489184],["ismerte",-9.463302865688409],["tört",-9.463881737034566],["menet",-9.465781518176184],["energiá",-9.466306365039781],["hangulat",-9.46631157611348],["érvényes",-9.466322153522082],["gyógy",-9.466476391119699],["hívta",-9.466780976676858],["szabadság",-9.467008685291319],["las",-9.467317267160112],["húz",-9.467421343172525],["nyert",-9.467875850841395],["vétel",-9.46980579438445],["figyelmeztet",-9.470147180340462],["tanulmány",-9.470271168786681],["tájékoztatás",-9.470653876902057],["áj",-9.471706466762871],["kínál",-9.471884627283178],["pol",-9.4724137762543],["szerep",-9.4737955187203],["szomszéd",-9.473865814306134],["Attila",-9.473866195092878],["válaszol",-9.475183875438876],["pan",-9.475642754407511],["szenved",-9.476748428716611],["pálya",-9.477641713243006],["bizonyít",-9.477741606982097],["lyel",-9.478357085439463],["hibá",-9.47870866498683],["hetett",-9.479644775344777],["uc",-9.479846967714586],["zák",-9.480273346265452],["ack",-9.480564182919714],["bolt",-9.480720913486856],["Gábor",-9.481487525456139],["ide",-9.48425735402746],["általán",-9.484914545556496],["külügyminiszter",-9.485406281055305],["vásárló",-9.48554844454976],["széles",-9.485875697570712],["ív",-9.486715107262071],["hű",-9.486867029922468],["ígér",-9.487699636426106],["András",-9.48916302216995],["függ",-9.490939096331914],["ler",-9.49127268506112],["szerző",-9.492829585523843],["fogy",-9.49350304328],["árul",-9.493615503882669],["váltás",-9.493719989748055],["olni",-9.493856175706245],["alakult",-9.496664561198653],["államtitkár",-9.496899442430065],["körülmények",-9.49691612678543],["teszt",-9.497512368929119],["felmérés",-9.500957324102266],["továbbá",-9.501904165793862],["idéz",-9.502033238028133],["ránt",-9.50213485919831],["fiatalok",-9.502853165544183],["telep",-9.50298500593837],["örül",-9.503635975329315],["Elő",-9.503968592137578],["természetes",-9.505093458893551],["csütörtök",-9.50807766486286],["általános",-9.50842747580267],["Fidesz",-9.508628704687847],["tartózkod",-9.508640515579124],["tri",-9.508956006605441],["szoros",-9.509072294045284],["napos",-9.509562322782639],["dolgozott",-9.511047231262248],["tapasztalat",-9.511312819291817],["intézet",-9.511981264325136],["dolog",-9.512569919117725],["eredeti",-9.512623303673585],["szék",-9.51324797355484],["falu",-9.515109804228352],["dönt",-9.515463168015577],["gu",-9.515593750338596],["Kor",-9.516024416425774],[";",-9.516507879930423],["lé",-9.517230930269001],["negyedik",-9.517963097760687],["vezeték",-9.51888792716989],["ítj",-9.519272265827542],["országi",-9.520625195793588],["mindkét",-9.520835022280743],["vizsgá",-9.521336574110585],["Kf",-9.522610060487573],["biztosa",-9.522812448100003],["hagyta",-9.522832209960303],["okozott",-9.523396517339322],["tervezett",-9.523539427525904],["politiká",-9.524460434319698],["veszteség",-9.524617266615119],["For",-9.524733816165861],["go",-9.524926532077075],["kormányfő",-9.526034727218233],["ápol",-9.52777359998624],["Kijev",-9.528465137620215],["hamarosan",-9.528586111177308],["000",-9.528693064825342],["állampolgár",-9.528705963215694],["olasz",-9.530152586613728],["magam",-9.531952344231957],["kiadás",-9.532296484043247],["fesztivál",-9.532476276119855],["csap",-9.533285107570034],["melyek",-9.533499965049264],["várhatóa",-9.53423853037982],["import",-9.534435521980445],["különöse",-9.53454397547537],["Ugyan",-9.535839520501145],["közepé",-9.53681048591519],["rekord",-9.537144110434216],["intézkedések",-9.537276441959111],["keretébe",-9.537549287814068],["közt",-9.538005819621048],["alacsony",-9.538036304583152],["kereszt",-9.539938628030264],["mondja",-9.540366040382818],["juttat",-9.54044223954433],["mutató",-9.540534234756848],["debreceni",-9.540557103253533],["szándék",-9.540557292965076],["kérte",-9.541213769242475],["véget",-9.541388630305605],["tol",-9.541711354161631],["olvas",-9.541913787991469],["rezsi",-9.542069394673216],["közölt",-9.542482242864274],["tudom",-9.543629340958438],["Szerinte",-9.544639690534854],["teremt",-9.544990861524699],["áron",-9.545123011685448],["kezdődött",-9.545951824661007],["ágy",-9.54609964075409],["támogatást",-9.546231518321765],["75",-9.5464228406899],["mag",-9.546766852683806],["listá",-9.546968572963031],["alacsonyabb",-9.547159628501518],["ákat",-9.547595004807189],["tar",-9.54806555374476],["lánc",-9.548789614552682],["nyel",-9.549054616923993],["szerda",-9.549543127943416],["nagyjá",-9.550724596633296],["elhunyt",-9.550751501504028],["seb",-9.551357900806078],["ival",-9.551955484503114],["asszony",-9.552802274148052],["bővít",-9.55280639057094],["kiállítás",-9.553118715848415],["vize",-9.55408952734784],["ellenőrzés",-9.556917582321319],["folyó",-9.558534110982325],["kereslet",-9.558672765672593],["kereskedelmi",-9.558729963747453],["nyílt",-9.559707472258065],["hatóság",-9.560344567918854],["Itt",-9.561623101852486],["eső",-9.561937573521174],["terem",-9.56303174103034],["György",-9.56519939677504],["terjeszt",-9.565202614632222],["vírus",-9.565204899391524],["szektor",-9.565258779012192],["igazá",-9.565824574996574],["legin",-9.565887031469899],["irányít",-9.565964438941299],["lom",-9.56642797509694],["gyakorlati",-9.56648093553078],["300",-9.567497421911252],["ow",-9.567516979288063],["helyre",-9.567794325935889],["sors",-9.568475043411578],["gyűjt",-9.568498503278557],["felett",-9.569030522912952],["vásárol",-9.569042322771786],["megy",-9.56955418630736],["hó",-9.570038667104448],["fer",-9.570152075864184],["belső",-9.571436492202393],["író",-9.571844291201717],["Csak",-9.57207058208746],["megye",-9.572253057677521],["hallgat",-9.572672593962185],["minőség",-9.572934538955263],["sá",-9.573863639036409],["kísérlet",-9.574175903424901],["vevő",-9.57498132265714],["béke",-9.575159116089505],["Zelenszkij",-9.577751420015769],["gyűl",-9.577798807852073],["finom",-9.577807166750679],["odott",-9.579092881809586],["gondolkod",-9.580176679795589],["tárgyal",-9.580243153836404],["tanú",-9.580650955139568],["rendszeres",-9.580701121963525],["Ho",-9.58164253702692],["ódott",-9.5817835394704],["magyarországi",-9.583083973530083],["magyarok",-9.584552031847393],["TV",-9.584729482694868],["vagyon",-9.58547230897079],["kutató",-9.585986069018979],["tavalyi",-9.586049173306275],["résztvevő",-9.586493944578244],["tényleg",-9.587183799831799],["Más",-9.588689256069525],["véli",-9.590072028889601],["korlátozás",-9.590770463647413],["kezdet",-9.59108825712574],["Észak",-9.59114265260507],["vád",-9.591894543771026],["áló",-9.5922585835157],["ros",-9.592956864636218],["számíthat",-9.593414277657939],["változat",-9.593420268690618],["vállalkozások",-9.593560562973531],["vonat",-9.59459017655983],["pozitív",-9.594736961557647],["csapatok",-9.595337336275204],["rakéta",-9.595369685679646],["mondani",-9.595675133285823],["ép",-9.596529634724018],["látott",-9.59690332418738],["felül",-9.598676666013379],["motor",-9.599975940878707],["felhő",-9.60005718228744],["emberi",-9.602320546238474],["igazgatója",-9.605012060926818],["emelt",-9.605707220018232],["láthat",-9.606147503984957],["nevezte",-9.607292925875168],["halálos",-9.607452746653346],["biztosítás",-9.607876368244987],["érzés",-9.608178173010582],["háztartás",-9.60840755986178],["szállás",-9.608919401343524],["hideg",-9.608922356575501],["látni",-9.608934803487113],["helyet",-9.609856839317652],["zza",-9.610672079092591],["látta",-9.610689689779086],["férfit",-9.611109156306135],["kiemelte",-9.611771131893912],["Vlagyimir",-9.612015961832023],["érze",-9.612716031835614],["fejlődés",-9.612728186922398],["korláto",-9.613436623409573],["melyik",-9.613844404551772],["körülbelül",-9.616872145078158],["vő",-9.616965043877617],["témá",-9.617123503458501],["városban",-9.61811229855606],["téren",-9.618603042544963],["…",-9.62076873873071],["Szövetség",-9.62076877567112],["média",-9.620775608500995],["kov",-9.621125459642604],["igazi",-9.621294805369182],["kelet",-9.622158539817812],["nyerte",-9.623226893400094],["vad",-9.623395191208896],["org",-9.624782826340958],["hagyományos",-9.625318605164864],["nyilatkoz",-9.625888120136624],["ock",-9.62671075427988],["felesége",-9.626996681416337],["36",-9.628388887650146],["természet",-9.62963419697257],["elemző",-9.62986536962018],["időt",-9.629871113670252],["ennyi",-9.630646476465717],["határoz",-9.630706279242478],["38",-9.631483049373323],["top",-9.63174789414586],["vágy",-9.632374524541408],["alkot",-9.632535388240605],["tartalmaz",-9.63273647174236],["Nap",-9.633356994117651],["adtak",-9.63339031514127],["Van",-9.633765976048489],["növény",-9.634054210292174],["különbség",-9.634076812369607],["dás",-9.6346145374144],["szankció",-9.635002247522454],["Ti",-9.63505728343156],["hétfő",-9.635192194972447],["37",-9.637002690397374],["hass",-9.63744860448626],["háborús",-9.638299571897939],["hozta",-9.639044213214191],["derül",-9.639664633757175],["civil",-9.639935769057569],["rendőr",-9.639982658211725],["Har",-9.639985775889805],["angol",-9.639991322460324],["szakad",-9.640575804829936],["keleti",-9.642508007281748],["templom",-9.642992680081083],["plusz",-9.64335847034172],["gyógyszer",-9.644360465229756],["szavaz",-9.64461783756374],["gazdag",-9.644815814243557],["tervek",-9.644868099293845],["szerez",-9.645393746601673],["tartják",-9.645755868171708],["ációs",-9.645836339674304],["Ezen",-9.64659269190523],["kapacitás",-9.647496405763047],["kétszer",-9.647499942205974],["tűzoltók",-9.647731117887076],["épített",-9.64786343243499],["büntetés",-9.647996910025654],["portál",-9.648970317811212],["álni",-9.649061511938616],["junk",-9.649262778246909],["hajtott",-9.649626731862043],["bűn",-9.649698255460045],["magyaráz",-9.650022010233705],["veszélyes",-9.650283397274535],["működő",-9.650366818614213],["interjú",-9.65202756557537],["Ugyanakkor",-9.652781882894695],["vége",-9.65372814209152],["Mindez",-9.655142132632317],["faj",-9.655478718649547],["pályán",-9.655845005710109],["kezé",-9.656260253132618],["helyek",-9.656521707950652],["Gergely",-9.65656668980131],["bővül",-9.6565677727586],["áru",-9.656958487004776],["tisztelet",-9.657509047016958],["45",-9.657524691988774],["módszer",-9.657588372786503],["egyház",-9.658369091251064],["nemrég",-9.658733941667045],["megpróbál",-9.658762507999361],["legmagasabb",-9.658801990391044],["diák",-9.66062501956544],["hivatkoz",-9.661132920917932],["alapvető",-9.661133447387655],["rajongó",-9.661134808371877],["tettek",-9.66192432093875],["400",-9.662722753773927],["fut",-9.662898061745551],["nunk",-9.663492560521899],["néző",-9.663538315312369],["Ukrajnába",-9.663922964652999],["kötelező",-9.66410199703219],["Par",-9.665667763039261],["Nyugat",-9.665720058046634],["levegő",-9.665720839666061],["igyekez",-9.665748719912578],["közelébe",-9.666768319968433],["nyújtott",-9.66694849708724],["óriási",-9.667099264247149],["lehetet",-9.667619559606292],["érzi",-9.668150156193096],["Bors",-9.668326120943874],["ajándék",-9.670329617711161],["felújítás",-9.670372084105807],["34",-9.672777331657038],["cel",-9.673363287702294],["állította",-9.673578299286957],["jék",-9.673617812145238],["The",-9.6740579286062],["vitá",-9.674864667472189],["négyzetméter",-9.674958399574162],["kedvezmény",-9.674958586609891],["várja",-9.675192818268208],["Dr",-9.675417583999558],["támad",-9.675536159281638],["szenvedett",-9.67607877129263],["OT",-9.677848272964379],["szén",-9.678192253668463],["Mol",-9.678460324232761],["tudás",-9.678704402466945],["Bor",-9.679296787057217],["édesanyj",-9.679613482596015],["javasol",-9.679649827105324],["csal",-9.679802294970333],["nyugat",-9.680354838774624],["ff",-9.680382738200542],["sáv",-9.680791575460944],["pontot",-9.681870659146234],["ütem",-9.68344332770594],["alakít",-9.684173900635283],["Össze",-9.68429786694114],["Megyei",-9.684308672218675],["vadász",-9.684661865283147],["vezette",-9.685261643539826],["tanít",-9.685402800713714],["igazság",-9.685606856055454],["asztal",-9.68566799560725],["problémák",-9.686207149674324],["39",-9.686371686462758],["kínálat",-9.68680456386435],["munkát",-9.687167395282206],["észak",-9.68784798235038],["emlékez",-9.688091757259254],["fent",-9.68869712463758],["hozzájárul",-9.688982735045558],["kommunikáció",-9.688986240359416],["Kína",-9.688988070814538],["ekhez",-9.689220835378599],["rajz",-9.689508151938808],["vehet",-9.6901500793903],["up",-9.69078470202859],["Po",-9.690922578417858],["szállított",-9.691838594653582],["szállító",-9.692158986437153],["Kar",-9.692304147001337],["ozta",-9.692333376011486],["bont",-9.692509544201862],["tájékoztat",-9.692856464639442],["embert",-9.693109516016094],["baloldal",-9.693472579780405],["József",-9.69369385537408],["platform",-9.693693868318881],["Zsolt",-9.694066543123803],["kemény",-9.694251827797835],["remek",-9.696787065386967],["tartozó",-9.697597137819415],["front",-9.69850373959865],["udvar",-9.698952642384125],["emmel",-9.699235345878437],["közleked",-9.699586543036116],["vállalkozás",-9.699743431259328],["rajta",-9.699940075763791],["veszi",-9.699995744803815],["délelőtt",-9.700286571673006],["nyilatkozat",-9.700493278416152],["komp",-9.701278699090132],["44",-9.701422384882358],["utazás",-9.702144470390632],["látj",-9.702714706639174],["bűncselekmény",-9.703218118768806],["befektetés",-9.703227814982966],["egyeztet",-9.703575341613696],["Lu",-9.705026167764592],["szét",-9.705815925716816],["közösen",-9.707792693513639],["függő",-9.708163349258472],["bajnok",-9.70891705005883],["annyir",-9.709748513700152],["ezett",-9.710322813885846],["fia",-9.710464698421337],["javít",-9.711043479411394],["hírek",-9.71105976549697],["technológiá",-9.712787474795526],["fürdő",-9.712787476022438],["Lengyelország",-9.71278747752094],["vádlott",-9.712844864758114],["lehetséges",-9.712861324398688],["gyengül",-9.714248988879202],["nyilvánosság",-9.714962097739983],["lapunk",-9.715772079032458],["öd",-9.716646026580271],["munkaerő",-9.71861336119555],["To",-9.71922082478089],["vita",-9.719705464713083],["azonos",-9.720020682610484],["ugr",-9.72030012345126],["érhet",-9.721180912424067],["információk",-9.721425400246137],["börtön",-9.722472882177506],["becsül",-9.722612628757227],["láng",-9.722823780054465],["alkalmaz",-9.722971886984162],["érint",-9.723779035986588],["munkájá",-9.72379800113784],["del",-9.726303613420859],["termelő",-9.726682392972354],["lőtt",-9.72704578454217],["ológiai",-9.72725775573657],["modern",-9.727367318002209],["egyéni",-9.729488971589667],["költségek",-9.73037669611679],["foglalkoztat",-9.731378117376169],["előtti",-9.731481095935067],["vállalkozó",-9.732257824955864],["legújabb",-9.732446647488697],["sír",-9.732547861731263],["jén",-9.7329336474233],["folytatás",-9.733285347938745],["munkahely",-9.734421274884152],["földi",-9.734779374597545],["szűk",-9.735234310568616],["tudós",-9.735309274712145],["tárgyalások",-9.735686457912447],["profit",-9.736874258839203],["várakozás",-9.737181493548222],["olvasható",-9.737613058535025],["szülők",-9.739203133466495],["emelte",-9.741127062552629],["téve",-9.74122261876453],["mester",-9.741235623588476],["Covid",-9.74213195985871],["sofőr",-9.742251017501632],["lep",-9.742701174284258],["onnan",-9.744100764495396],["fejlesztő",-9.744342106109476],["vezetői",-9.744732045981063],["felelősség",-9.744978755034282],["változtat",-9.745090951577431],["Szabó",-9.747107916575061],["ötlet",-9.747215496255093],["alkotás",-9.747323407404025],["Én",-9.748107977720668],["állítj",-9.748460978426191],["mások",-9.748633160720551],["nekik",-9.749613992452787],["32",-9.749889512324877],["Év",-9.749986409924954],["enként",-9.750445379442311],["észre",-9.750522353058873],["jogi",-9.7519721293345],["ánál",-9.751982815916666],["dokumentum",-9.752104498977502],["Hu",-9.752283865367728],["hazánk",-9.752380052202266],["hiába",-9.752618828327055],["kerek",-9.75268248971711],["győzelem",-9.753129604385066],["mindennap",-9.75328600958155],["Lo",-9.75342992436963],["ub",-9.754167317964543],["folytatód",-9.755399879407115],["Mag",-9.756399311376406],["megyé",-9.756508224246808],["hős",-9.756519386509794],["bocsát",-9.757064445621836],["éjszaka",-9.757130163894217],["súly",-9.759656006558565],["osság",-9.759717791907581],["33",-9.760177093364405],["minke",-9.760300646283767],["kért",-9.761046039431015],["Su",-9.76175141297577],["beszélgetés",-9.761859104480937],["következménye",-9.762180141932856],["kiváló",-9.76223307959916],["színpad",-9.762338293151423],["rendelet",-9.76243118350532],["erősítette",-9.762651382848535],["cu",-9.76380220275577],["esített",-9.763933392132785],["Duna",-9.764727750342345],["fogás",-9.765340471869756],["jelezte",-9.766690341572929],["labdá",-9.767273119447463],["fajta",-9.767383386148556],["erőszak",-9.768435786937125],["íg",-9.768537005042468],["hasonlóan",-9.769219054689906],["mell",-9.769357218994365],["téli",-9.769804560616215],["fáj",-9.77048609826195],["ssa",-9.771062943667904],["fizető",-9.771474888997417],["szlovák",-9.77236034018942],["Ráadás",-9.772360760290137],["und",-9.772638200293606],["valóság",-9.772875865086514],["nyug",-9.774272083604632],["méret",-9.774824279522186],["oper",-9.775003261898302],["Zs",-9.775122780649436],["kihívás",-9.775651605246548],["révé",-9.776176647608303],["sága",-9.776457503477378],["kollégá",-9.777487747226711],["Tanács",-9.777488587549549],["enge",-9.77751383128156],["szeretnén",-9.777549286976818],["pihen",-9.777569926563224],["mindez",-9.77861683017079],["vetett",-9.779187354553164],["nyire",-9.780474171408935],["színház",-9.781113222714922],["családok",-9.781507083079447],["csapás",-9.781568760606618],["szeg",-9.781683519395077],["szerv",-9.782605059105663],["'",-9.782641156885246],["folyamatos",-9.782989334119755],["ikat",-9.783041433088007],["magunk",-9.783247756162927],["edik",-9.784179522803846],["idegen",-9.784195310164797],["hétvégén",-9.784637741507868],["növeked",-9.784749418808586],["államfő",-9.785155060752848],["hány",-9.785718871661778],["dolgok",-9.786568718509812],["Leg",-9.786704752479636],["tökéletes",-9.787824583904115],["hetek",-9.788029681425098],["fogadta",-9.789001368941513],["jelentése",-9.789661742336278],["védelem",-9.78973953199906],["zajl",-9.79136509668998],["úsz",-9.791425425430607],["béké",-9.791551658555756],["48",-9.792574898842474],["jegyezte",-9.792839742466683],["fekete",-9.793333111196628],["Nép",-9.793932255562634],["szólal",-9.79440952640411],["din",-9.794451576738116],["katonák",-9.795048048574802],["vereség",-9.795107556095054],["környék",-9.795244552582421],["bejelentette",-9.795479359530946],["támogató",-9.796192360715605],["nyári",-9.796768041897563],["kiderül",-9.796966162115023],["ügyészség",-9.798267391442408],["időjárás",-9.798531346515619],["menekültek",-9.798798687812287],["létez",-9.798918403882276],["esély",-9.799417822462829],["Dél",-9.799864563251592],["bajnoki",-9.799877734270037],["édes",-9.800208508296112],["vesztette",-9.800228881633672],["növek",-9.802338503190828],["vendégek",-9.80293280058191],["táj",-9.803236813001062],["tartana",-9.80327510776313],["Instagram",-9.803529597479976],["probléma",-9.803529597539832],["pozíció",-9.80352959895257],["ötödik",-9.803531350254904],["Varg",-9.803557031984896],["Or",-9.804000122633198],["remény",-9.805030238777316],["köd",-9.805276184628042],["Akkor",-9.805349214439598],["Du",-9.80540518785474],["vasút",-9.806126993255049],["bázis",-9.806450600690496],["elismerés",-9.806458696386382],["szakemberek",-9.80691921224448],["osabb",-9.80823496934579],["kedd",-9.809482952054474],["szülei",-9.809619979145154],["lövés",-9.809950546186272],["ajánlat",-9.810100691614588],["szeretne",-9.811368187034269],["állítani",-9.81307711686193],["klíma",-9.814139849420343],["negatív",-9.814140219513288],["engedély",-9.815223364975314],["bizony",-9.815965745846052],["vitt",-9.816896013095384],["tőle",-9.818524698810217],["közzé",-9.81862682357714],["vész",-9.819076111107723],["Twitter",-9.819487364942033],["menekült",-9.819511094815322],["fejtette",-9.821496070442578],["dolgozni",-9.82255247319984],["Bu",-9.82278065334544],["terhel",-9.823393570761755],["lakos",-9.82406708240259],["áért",-9.82437204762987],["Fő",-9.824433515242873],["befolyás",-9.824463169541957],["birtok",-9.824864514303583],["jelzés",-9.824868559620281],["szurkol",-9.824878102695637],["GDP",-9.824883224716014],["külső",-9.825036024872606],["alkalmazott",-9.825071172358312],["rúg",-9.82602048616149],["száraz",-9.826253387340154],["következté",-9.826515117331788],["szembe",-9.82656827953834],["ülő",-9.826602620114555],["gyermekek",-9.82674372877551],["elől",-9.82782251617475],["másfél",-9.828871452614308],["napokba",-9.829380365439391],["támogatj",-9.829529298841063],["segély",-9.830269141689076],["Zay",-9.830771899169584],["her",-9.831794295524514],["körüli",-9.83208199156763],["felület",-9.832359002772705],["Mari",-9.83273466993176],["ozni",-9.834754850058339],["lehetne",-9.83509809388702],["szülő",-9.835260960148219],["hagyomány",-9.835526864962329],["sokszor",-9.835638603526004],["kapcsol",-9.837408353443326],["mesél",-9.838043366645518],["részlet",-9.838463361205278],["húsz",-9.840564312905625],["könnyű",-9.841168410686423],["újságíró",-9.841169424335275],["körben",-9.841292794112974],["távoz",-9.841799633328389],["járművek",-9.84358179259322],["igényel",-9.843809417426431],["41",-9.844873006934968],["szorul",-9.845111359239812],["láz",-9.845539944758256],["Tóth",-9.846665156752312],["ágazat",-9.846778806347947],["napján",-9.847130266093382],["küldött",-9.847334429825509],["szobá",-9.8473415499558],["tion",-9.848163449478633],["kaphat",-9.849121716311636],["fertőzés",-9.850178972015213],["menni",-9.850228528791078],["énekes",-9.85078620142587],["49",-9.851358771962436],["ítélet",-9.851525726422217],["látó",-9.851704795973241],["világbajnokság",-9.851969580683956],["kölcsön",-9.852187762919165],["munkavállaló",-9.85219399341492],["művelet",-9.852303921536869],["felhasználás",-9.852539130353467],["szabályozás",-9.852581993343026],["kerület",-9.852631973675736],["szakértők",-9.853086823339325],["érezte",-9.854299349726965],["vonás",-9.855390018302234],["megelőz",-9.855682572870808],["összege",-9.857203823841452],["Balázs",-9.857744363215929],["példa",-9.857748442506233],["Nyíregyház",-9.857779918550367],["ismerős",-9.858276238934808],["segítsége",-9.859443305642014],["közelebb",-9.859481145539247],["Ö",-9.860296581743263],["szervezetek",-9.860359423978183],["rendelkező",-9.860372564806141],["hangz",-9.861513577965567],["fertőzött",-9.861932881601799],["rajt",-9.862605579432273],["tragédi",-9.86332990181646],["menekül",-9.863333970432457],["Ilyen",-9.863356658661235],["55",-9.86480662479901],["könnyebb",-9.865023679401261],["szavazat",-9.865751159480604],["technológiai",-9.86591790045857],["mozg",-9.86598694984215],["meghalt",-9.86602316867521],["kedés",-9.866250507877005],["Pro",-9.866535475388694],["tudju",-9.866693447952397],["vegye",-9.867937946868546],["hango",-9.86796781723363],["anyagi",-9.868784673978503],["Moszkva",-9.868948173560515],["állomány",-9.868951088043847],["énekesnő",-9.869358301949362],["többsége",-9.869774206738406],["segíti",-9.87016329766109],["mutatkoz",-9.870745021408204],["kedves",-9.870802711631951],["pályár",-9.871371533115823],["politika",-9.871850968078489],["terhe",-9.87203822603826],["húzód",-9.872482777930998],["bemutató",-9.87384420473936],["minősít",-9.874602407503076],["történelmi",-9.874642661181547],["dor",-9.875928675681417],["nekem",-9.876028660740786],["szüksége",-9.87688386497063],["szerezte",-9.877222252191793],["tatta",-9.877257372631597],["zék",-9.877733840546915],["adja",-9.878911795772702],["nők",-9.879099630683452],["tárgyalás",-9.880334435814635],["győztes",-9.880662810649369],["New",-9.880846027960112],["nehezebb",-9.88104594984803],["híd",-9.881214842319642],["Emellet",-9.882234556381686],["szeres",-9.882309324936319],["fedez",-9.88291542156196],["határozott",-9.883348775025722],["intézmények",-9.884065976183612],["század",-9.884311167565645],["unkat",-9.884963287593521],["dolgozók",-9.885235333652588],["Debreceni",-9.885917878273931],["&",-9.885993672187922],["olimpia",-9.885994803598624],["Ver",-9.887700599800581],["szánt",-9.887989369187535],["bejegyzés",-9.889089100704586],["kötelezettség",-9.88914415107012],["üze",-9.88934660074014],["többség",-9.890425339125692],["Szijjártó",-9.891740798732592],["invázió",-9.891740799116306],["Fontos",-9.89174566488666],["kiemelt",-9.891839051552022],["hírügynökség",-9.891882700101444],["kérdések",-9.892333887307892],["fölé",-9.892546591952293],["kivétel",-9.892913431168385],["érdem",-9.893421198872897],["déli",-9.893466749446981],["ideig",-9.894780929861671],["Ám",-9.894957790382644],["ajtó",-9.895276243621979],["káros",-9.896917948450492],["érkezte",-9.897008079760163],["hasonlít",-9.897513891930513],["Ü",-9.897521145395075],["csapadék",-9.897522419522454],["szellem",-9.89776609275176],["események",-9.897811106356393],["körébe",-9.899603517280347],["számú",-9.899803149575412],["Anna",-9.900443940398468],["esse",-9.900571522061455],["cserél",-9.900605063774412],["mindenképp",-9.901775207306397],["Bal",-9.903320377953442],["sincs",-9.903480975550803],["állni",-9.90394309988582],["kerülhet",-9.903954756720148],["vitel",-9.904058740531244],["köztársaság",-9.904293884280333],["remél",-9.905322721137605],["kapcsolód",-9.9053893464117],["szerette",-9.905436457104463],["hallgató",-9.90548856825891],["ionális",-9.906471810018813],["immár",-9.906789630883825],["élni",-9.907358034064998],["országgyűlési",-9.909183242156212],["hajlandó",-9.909184342357577],["herceg",-9.909185010982277],["valósul",-9.909282795147497],["értékű",-9.909370916024912],["drágulás",-9.909396995237005],["tehetség",-9.90961890455739],["ox",-9.910233966539348],["királynő",-9.91024803477218],["telepít",-9.91125950417764],["hajtás",-9.911439497596271],["töltő",-9.911934943626946],["akarta",-9.913136329103374],["levele",-9.913234368330048],["adatokat",-9.913770048361638],["jogszabály",-9.914327036984094],["vihar",-9.914433908535436],["sajtótájékoztató",-9.915065823936697],["testület",-9.915075344932362],["ellenes",-9.915190400901132],["hajnal",-9.915364547815578],["levél",-9.915948551167697],["záró",-9.916178154947353],["gyanú",-9.917345850655455],["Hol",-9.917429506741016],["biztonságos",-9.918481980519541],["ajánlott",-9.920051600813093],["érő",-9.920687251715753],["kerékpár",-9.921003998214726],["önkéntes",-9.921021839156268],["fenntartható",-9.921237838356449],["segíteni",-9.921298135296102],["Sch",-9.921500989086526],["véletlen",-9.921676275289208],["kifejezett",-9.92191259681049],["lakossági",-9.923164076369915],["nyilatkozta",-9.923389690088761],["tilt",-9.924239196111804],["szabályok",-9.924683462668346],["alkotó",-9.925735866929493],["eget",-9.926515997208709],["kizárólag",-9.926936050898586],["gyanúsított",-9.92693654264578],["mezőny",-9.92739726407051],["ung",-9.927552546546597],["bőr",-9.928032385483903],["izmus",-9.928244975739881],["találni",-9.928660058524237],["érdeklődés",-9.92872198319218],["értékesítés",-9.929101545014031],["mesélte",-9.93157281789738],["legutóbbi",-9.931947685458667],["hirdet",-9.93242010185796],["előzetes",-9.932924953402022],["pad",-9.93319951035516],["előrejelzés",-9.93329218292983],["elemzés",-9.933330981682957],["ellenzéki",-9.933427598291265],["kever",-9.933500692051691],["56",-9.934718826023683],["SE",-9.937025973189009],["Nemzetközi",-9.938951795257806],["hátrány",-9.938952101749246],["zuhan",-9.93895248911749],["vezetők",-9.9389844876255],["43",-9.938994816858234],["Biden",-9.939020471990082],["esetek",-9.940422512813768],["némi",-9.941023369073212],["kényszer",-9.941095975028727],["szokott",-9.941605471696906],["beszámolt",-9.941873726529202],["jelez",-9.94462875544314],["Kovács",-9.945009267607427],["ológus",-9.945021569104433],["Sport",-9.9452141755946],["zenekar",-9.94549590763171],["hozzátett",-9.945523252748057],["szabadul",-9.945563716536817],["mondhat",-9.945768895886891],["bármi",-9.94593107539957],["kormányzati",-9.946976328186325],["kezdeményezés",-9.950540087747207],["merül",-9.9509686814404],["PC",-9.952034408086954],["gondolat",-9.953070573677845],["andó",-9.954409412962601],["vonatkoz",-9.954752785012815],["érdekes",-9.954923225595778],["hesse",-9.955957562532808],["napra",-9.956537646463946],["törés",-9.957177161556892],["csillag",-9.957244531115547],["tartalék",-9.957247474743578],["csatorná",-9.957295186258666],["dollárra",-9.957526869917697],["fűtés",-9.958195730913015],["energiaárak",-9.95848304181326],["csúsz",-9.959220783777972],["Olyan",-9.95978427163995],["időre",-9.959862322409357],["őriz",-9.959877964184123],["védelme",-9.960667796718894],["Franciaország",-9.963416464779367],["ersze",-9.963442442792044],["berendezés",-9.963579403418485],["nézni",-9.96448316335719],["választások",-9.96479419232169],["kezdete",-9.965723983520096],["készülék",-9.968228865458304],["neheze",-9.968933147401103],["robbanás",-9.969643877434407],["létesítmény",-9.969683718489811],["sportoló",-9.970059280986167],["futó",-9.971413942116243],["látás",-9.971746255533954],["rendező",-9.972378913750333],["számított",-9.973967514924343],["választó",-9.9743881756512],["használni",-9.974772004397671],["mozdul",-9.97587437071424],["kedvező",-9.975884392876388],["üveg",-9.975937805486229],["Rendőr",-9.975963216315897],["találat",-9.976077334400223],["munkatársai",-9.976168029775117],["lelki",-9.97628000722824],["itthon",-9.976745424110902],["történtek",-9.976778946966894],["repülőgép",-9.977232554846815],["élvez",-9.979043343129561],["zené",-9.97985485779074],["tevő",-9.980048890033865],["idézte",-9.980259114984054],["esetleg",-9.980368648472066],["tartós",-9.980451341998709],["irányul",-9.980561176400279],["tévé",-9.981433919885045],["olj",-9.982049736967554],["Erzsébet",-9.98216353061919],["szigorú",-9.982163579043466],["ingyenes",-9.982164252344738],["kedvenc",-9.982268254636804],["hatékony",-9.982394838557735],["Királyság",-9.982914009888287],["erejé",-9.983942207144576],["másod",-9.98426649413716],["cseré",-9.984476256296906],["65",-9.98471150248352],["származó",-9.984763581820907],["tudatos",-9.984869015846613],["rin",-9.985128989513179],["híres",-9.986438417004303],["támadások",-9.987268898317017],["kategóriá",-9.98791209074826],["iroda",-9.988096016875403],["egészséges",-9.988424907512792],["Katalin",-9.988493940734932],["árstop",-9.988503650190127],["irodá",-9.988596076722441],["komment",-9.98861140963567],["600",-9.98886637444197],["induló",-9.98894300535386],["keletkez",-9.9891090409253],["vonta",-9.989210469214413],["múlv",-9.989780296239662],["vív",-9.990445806657394],["vásár",-9.991522761778985],["módosítás",-9.991568263327826],["jegyzés",-9.991673023643113],["ődött",-9.99192720498181],["Ju",-9.993163295045814],["külföld",-9.994279726658764],["próbálta",-9.99431080731275],["diákok",-9.994537423958484],["generáció",-9.994863963898242],["Ház",-9.99492655454415],["ellenzék",-9.995026819973628],["Igaz",-9.996133877675687],["létrehoz",-9.997298147911572],["Pál",-9.997347323210855],["helyezett",-9.997598863183608],["tartalma",-9.9977552216242],["kulturális",-9.998002425368092],["Föld",-10.001300607915088],["érzékel",-10.001326440695344],["javul",-10.001365304974527],["felhasználók",-10.001477451306581],["közlés",-10.001636510522173],["intéz",-10.002138724201352],["alapú",-10.00217029949227],["nettó",-10.002411546514725],["apró",-10.002640542205079],["imp",-10.002917840058926],["csend",-10.003163838734599],["velük",-10.003318877412344],["anti",-10.003634224236261],["eladás",-10.003791931068903],["Szak",-10.004720707734489],["47",-10.004793627471877],["Erre",-10.005235487105313],["kijelentette",-10.006757221979058],["cseh",-10.00735780824447],["vetés",-10.00769802774769],["Brüsszel",-10.007723970460408],["Világ",-10.007724077337956],["állapított",-10.007725254799624],["állítólag",-10.007725741512369],["megszűn",-10.007729035660926],["foci",-10.007751647486513],["értelmé",-10.00788641588574],["állandó",-10.008266471123076],["befejez",-10.008382496642323],["stratégiai",-10.0084748886326],["alkalmas",-10.00865611105033],["játékosok",-10.008786737066462],["jelentett",-10.008956338807508],["távú",-10.009604266179561],["megvalósít",-10.009821559146928],["Tud",-10.010344126303975],["rém",-10.010472548764007],["ismeret",-10.01076884512728],["Európá",-10.011237457405002],["adomány",-10.011546895681843],["jünk",-10.012069064775293],["hamar",-10.013378125689757],["hatalm",-10.013944401789715],["virág",-10.014261968289006],["drón",-10.01460142952357],["Csaba",-10.014731584272637],["Sajn",-10.014765769920164],["készítés",-10.015204536994736],["mostan",-10.018501680005903],["természetese",-10.02008007910933],["hirdetés",-10.02028761722475],["irányítás",-10.020527723521706],["érdeklődők",-10.022009131310568],["szolgáltatások",-10.023539158243876],["illető",-10.023609763396353],["sose",-10.024117987761034],["keresked",-10.025191873997137],["produkció",-10.027332342830896],["fizikai",-10.027333432658423],["szöveg",-10.027343458307769],["édesapj",-10.0273480150091],["termel",-10.028522120149802],["tüntet",-10.028858591937537],["szed",-10.029196093018427],["alakított",-10.029267518481522],["Arra",-10.02971429988646],["félidő",-10.030262206873733],["Idé",-10.031167489227732],["dől",-10.031918273171627],["biztosított",-10.03221957126194],["területe",-10.032642214563275],["ságú",-10.03371129703893],["részvények",-10.033785545288936],["idejé",-10.033903445468098],["stabil",-10.033913598147317],["ă",-10.033954858432399],["regisztrál",-10.033954858444027],["igyeksz",-10.03406199079786],["lépte",-10.034131810112527],["figyelembe",-10.03442102763413],["nyomozás",-10.034656146055518],["erősebb",-10.034699580171788],["zárás",-10.035877413495633],["szokás",-10.03639209177784],["nincsen",-10.03656303753113],["egyszerre",-10.03754272862847],["nyíl",-10.038443346117548],["rendelt",-10.038529407895684],["kezelő",-10.039213183373882],["napot",-10.039861708727917],["profi",-10.040229619014532],["kapitány",-10.040564656002015],["társadalmi",-10.040622316888655],["fekvő",-10.040631751072304],["USA",-10.040768007359826],["részvétel",-10.040937909155263],["szerelme",-10.041394921199412],["javítás",-10.04297822971313],["szavazó",-10.043071962358987],["hús",-10.043692359828029],["férje",-10.044068961697317],["kereskedő",-10.044236190983003],["hívás",-10.044663123276019],["határozat",-10.044917263289364],["Jelenleg",-10.04733339342655],["hulladék",-10.047333449253237],["tavasz",-10.047651837382478],["fejezte",-10.048027302644797],["repül",-10.04938375372713],["lelke",-10.049389387164403],["fogyasztók",-10.0495016347829],["ric",-10.050159680163386],["lista",-10.051445588557101],["össz",-10.052461358296704],["szóvivőj",-10.053095323441106],["fejlőd",-10.053564724485765],["közep",-10.053887749904735],["társadalom",-10.05409027703862],["számítás",-10.056423072079035],["típus",-10.056628316913262],["zajló",-10.058132541264332],["házak",-10.058810339782214],["megközelít",-10.059879186115154],["igénybe",-10.060569057583802],["olcsóbb",-10.060885075284261],["hirtelen",-10.060894714700687],["Balaton",-10.060905394376704],["belőle",-10.06106488350921],["gépkocsi",-10.061126730694252],["szóvivő",-10.06189486727532],["szívese",-10.062984357584767],["Eh",-10.06450093891587],["ou",-10.065887662090805],["élelmiszerek",-10.066727889998194],["televízió",-10.067742474918386],["főkapitányság",-10.067742631359039],["Tavaly",-10.06774495753485],["kutyá",-10.067758928613689],["közvetít",-10.06802170011105],["sértett",-10.068210701884253],["kezdeményez",-10.068377317331198],["támasz",-10.068718698196385],["típusú",-10.068777570861169],["színésznő",-10.069015881520547],["ismeretlen",-10.070304951149248],["itás",-10.070757755711238],["hárít",-10.071596881237737],["bál",-10.071658553763054],["cent",-10.071992992455094],["szűr",-10.072071481918314],["megelőző",-10.072562615140356],["lemez",-10.072610935538385],["tárca",-10.072717350285451],["bőve",-10.072745297394365],["okozhat",-10.073209380256472],["hónapokba",-10.073780247478432],["végezte",-10.074140018573068],["költöz",-10.074185447961716],["Hajdú",-10.074550952069202],["sugár",-10.074639646412477],["rezsicsökkentés",-10.074647017337139],["gyakori",-10.074657481539177],["nyúl",-10.075155133359463],["beszélget",-10.075163249250608],["Tibor",-10.075227602223213],["elkezd",-10.075401589495204],["Vagy",-10.075594220097585],["Ku",-10.075682924038324],["avat",-10.075801993896466],["dar",-10.077224278726229],["hozam",-10.07730113548015],["lor",-10.078351140992766],["egyedi",-10.078619478858126],["vádol",-10.079400007150564],["elárulta",-10.079403730179042],["tartottak",-10.080757598335932],["nukleáris",-10.081582728150813],["Miklós",-10.08158356436541],["meglepetés",-10.081583812320819],["oogle",-10.081612145123808],["150",-10.08168858792876],["veszélyeztet",-10.081724911634353],["rendelkezésre",-10.081737294048574],["játszó",-10.08175030631243],["gyűjtött",-10.082157152925564],["váltott",-10.082206606359009],["ügyfelek",-10.08399030932646],["utasít",-10.085298752495147],["órakor",-10.085375702812609],["hö",-10.085661673706541],["akarja",-10.085964231377343],["rosszul",-10.085985961650742],["Ex",-10.087223787767318],["múl",-10.08736209018154],["hatály",-10.088613982693953],["riz",-10.088649560155291],["kibocsátás",-10.08867953909044],["tényező",-10.088750308759352],["robbant",-10.088802974678952],["elérni",-10.088915573227695],["nyomozó",-10.089268766695874],["ablak",-10.089705461995774],["tanácsadó",-10.089967376866582],["hónapja",-10.091374711151971],["jába",-10.094096662929603],["övezet",-10.094918181263635],["funkció",-10.095623301202298],["esélye",-10.095752427905262],["Győr",-10.096305367667343],["nyugdíjas",-10.09834630727342],["időpont",-10.100735592041573],["meglepő",-10.102453308100122],["kiber",-10.102512472566698],["Hivatal",-10.102710450527635],["konkrét",-10.102710656069405],["spanyol",-10.102710921858403],["meghatározó",-10.102753241762858],["futam",-10.103480458552653],["fiók",-10.104821795346712],["csodá",-10.104841217446822],["Természetes",-10.105007364645568],["áremelkedés",-10.105177675752033],["férfiak",-10.105400073095868],["Ru",-10.107000109426572],["betegek",-10.10702795253274],["áruház",-10.107326100877511],["nyitó",-10.107361306505645],["terén",-10.108776862379964],["Szeged",-10.1098534168589],["Blikk",-10.109893759778526],["értesül",-10.110911068011742],["tesztel",-10.112221731678316],["Volt",-10.113455523541134],["száj",-10.113649592762002],["hette",-10.114573012420935],["rov",-10.114590965702114],["Star",-10.114636754401278],["útjá",-10.114666135749797],["tekintett",-10.11502167028404],["kodó",-10.115258262394587],["kilátás",-10.11534236561593],["vizsgálj",-10.116078243644024],["megegyez",-10.117008602403306],["Románia",-10.117047373158849],["műszaki",-10.11709115153469],["kőolaj",-10.117212413109424],["győzelme",-10.117357794843468],["qu",-10.117537610042618],["kamerá",-10.117603922359244],["képzel",-10.118072003190463],["készlet",-10.118262794610446],["emlékezet",-10.118502221812335],["felől",-10.119755358873611],["színű",-10.11987530107234],["helyezés",-10.121347361490095],["Krisztián",-10.124293661317502],["Gulyás",-10.124293740831176],["karrier",-10.124294573405537],["labda",-10.124298612588852],["gondoskod",-10.124308286701524],["jöhet",-10.124419662996731],["látogatás",-10.12450608820777],["idősebb",-10.124934573576585],["rejt",-10.125265030215317],["Benc",-10.125327565746598],["bérlet",-10.125697386355265],["jutni",-10.12598782196342],["57",-10.125998434995786],["finanszírozás",-10.127782457651126],["észeti",-10.128017722566852],["pontjá",-10.128061538701836],["rájuk",-10.128561763961267],["osztás",-10.128713379184674],["járás",-10.129527604728604],["futball",-10.129762302066416],["Egyesület",-10.129809156706372],["bíró",-10.130757028857694],["esetleges",-10.130982472563083],["felhasználó",-10.131405533757079],["hivatáso",-10.131593284806272],["egyesület",-10.131608925985313],["sebesség",-10.131644931189836],["lendül",-10.131652173542165],["szuper",-10.131671912079574],["Kíná",-10.131690780424789],["ragad",-10.131946507365551],["repülő",-10.132048093238122],["holland",-10.132127968061802],["kisfiú",-10.132551450887284],["Dan",-10.132659742378088],["buli",-10.133440584250035],["említ",-10.133579484966646],["világbajnok",-10.134764284921253],["bin",-10.135167891071454],["fegyveres",-10.135574245323983],["ügyfél",-10.136460270682829],["tárgy",-10.137827357515308],["+",-10.13894587248123],["intenzív",-10.13894588153317],["Külön",-10.138981243843684],["kiemelkedő",-10.138997056565593],["viselked",-10.139315734060888],["tudomány",-10.139501983532892],["Ter",-10.140029587465099],["közleményébe",-10.140755526855497],["anyá",-10.142343540491865],["támadó",-10.142567450640215],["szerb",-10.145857352827775],["kritikus",-10.146356653357032],["Kreml",-10.146358457255621],["Volod",-10.14636211272181],["fellépés",-10.146384733510782],["fenntartás",-10.146695549321805],["lassan",-10.14680807891537],["internet",-10.147074059495289],["távo",-10.147779467627384],["ütött",-10.147878064113872],["imir",-10.148349637640631],["dísz",-10.1488168464603],["vállalás",-10.14883988196972],["csapód",-10.149300754758926],["műsorvezető",-10.149501574986392],["áldozatok",-10.149529803293092],["liter",-10.149635048030664],["megakadályoz",-10.15046967114338],["rendezett",-10.150881805358452],["Vas",-10.153015861327894],["folytatott",-10.153305717514701],["vizsgált",-10.153314820046852],["katona",-10.15356456125264],["Szombat",-10.1538165365866],["atomerőmű",-10.15388333476745],["Isten",-10.153894982011956],["útvonal",-10.154119799919524],["nyereség",-10.154282717693064],["végzés",-10.154711102475284],["burg",-10.155257870430024],["páros",-10.155936930195944],["fektet",-10.156321685603423],["korosztály",-10.156659030736549],["öltöz",-10.156693641102873],["gondo",-10.157229772138727],["megyébe",-10.157274322257344],["lépni",-10.157796303730924],["érintő",-10.15810218521807],["VI",-10.158209754330336],["származ",-10.158351210884462],["háttér",-10.158394764265601],["tagad",-10.159382366544692],["spórol",-10.161334869359713],["alkohol",-10.161335865112692],["szerkezet",-10.161360172211538],["Első",-10.161504663092334],["kikötő",-10.162489447645543],["ideg",-10.16296439675589],["üzemeltet",-10.1632282936638],["háló",-10.16364410279645],["Vár",-10.164849991770744],["szólított",-10.16490945645821],["idény",-10.165831900304013],["bírál",-10.166914712701118],["tőzsde",-10.168908651909256],["Lajos",-10.16891360246866],["nánk",-10.169297992251888],["Euro",-10.169768597463317],["szög",-10.170583642065985],["szorít",-10.170816266023255],["bármilyen",-10.170945720861555],["alsó",-10.170984714490555],["részletes",-10.171030552472375],["fegyverek",-10.172723157553708],["tárol",-10.172955576093297],["sejt",-10.173237997790826],["magyarázta",-10.173922132325739],["fagy",-10.174165814175065],["mérleg",-10.174929384415087],["oszl",-10.175496495750608],["köbméter",-10.176544253478223],["egyenlít",-10.176806572368825],["kereskedelem",-10.176938137053458],["Ár",-10.177473190578993],["Máté",-10.177595669163448],["történeté",-10.1776967873758],["közzétett",-10.178455518577287],["látványos",-10.180414848415758],["jég",-10.18089048921034],["számot",-10.180892885609637],["segítő",-10.182718274542225],["családja",-10.183130527213386],["vitte",-10.183572008374357],["lic",-10.183846755767801],["fül",-10.184166444169795],["miskolci",-10.18423642273476],["aktuális",-10.184236497897317],["Olaszország",-10.184239100418493],["táblá",-10.184244135505828],["blokk",-10.184245595069012],["aggód",-10.184295435444986],["Végül",-10.1846889874219],["katasztrófavédel",-10.185342978553823],["edzés",-10.185519432306283],["teher",-10.18557158497999],["pri",-10.186069628690703],["NSZ",-10.187131860917866],["800",-10.187159348532603],["hétvég",-10.189149312470374],["szociális",-10.191988360557135],["Károly",-10.191994885613806],["frakció",-10.192000813832388],["körzet",-10.192101244594502],["imád",-10.192306109697604],["tervei",-10.192432536610287],["cukor",-10.193276103074687],["képző",-10.194117781176924],["bil",-10.195093780970318],["címe",-10.195267481735453],["részletek",-10.195430585205582],["álltak",-10.196109078674215],["Kiss",-10.198466471825993],["esztendő",-10.19967301272392],["védelmé",-10.199763628848014],["PlayStation",-10.199800854487105],["stílus",-10.199800860721314],["Intézet",-10.199800865451419],["beavatkozás",-10.19980086775835],["Mihály",-10.199800874724495],["Moszkvá",-10.199801152629007],["Dunaújváros",-10.199806741967759],["bizalm",-10.19981420952881],["elegendő",-10.199829233330863],["sötét",-10.199925893443375],["őrizetbe",-10.199940333715332],["messze",-10.200057337005092],["távolság",-10.200082040503652],["szegény",-10.200150417542861],["kötvény",-10.200176718759273],["jelző",-10.200258223326365],["Tar",-10.200325484327449],["feltételek",-10.201382691790833],["segíthet",-10.201944106089353],["dolláros",-10.202448606164614],["maradás",-10.20282311529862],["harcol",-10.203392613045796],["legyőz",-10.204444512446504],["honlapján",-10.20767519654438],["számukra",-10.207711300739668],["teljesített",-10.208960690744211],["Ott",-10.208977905963975],["vallott",-10.209472787585595],["torná",-10.210010933398184],["ajánl",-10.210203360951528],["nyomá",-10.21041586113661],["sikerül",-10.211837302418008],["története",-10.213589202766396],["etlenül",-10.21363581061157],["off",-10.21433358047583],["ilyenkor",-10.215143475458383],["kultúr",-10.215605439273581],["Ádám",-10.2156160429248],["bátor",-10.217193570360728],["szempontjá",-10.2172257398164],["lato",-10.217448241137626],["Talá",-10.218745053012862],["technológia",-10.219913544783438],["szépség",-10.220421928486449],["szavazás",-10.221501392319043],["67",-10.222098679745336],["Ó",-10.223611370731216],["brüsszeli",-10.22361137899605],["zivatar",-10.223611616174026],["Xbox",-10.223612056942237],["Apple",-10.223617882079168],["gyalog",-10.223618659464357],["War",-10.22381789445086],["mező",-10.223842262629145],["app",-10.224100214017792],["hajtó",-10.225258398516054],["ellentét",-10.225633847626018],["úszó",-10.22630805470014],["biztosító",-10.228967914007773],["vesztés",-10.2295090380773],["méltó",-10.229772725038094],["szerezni",-10.23051707611446],["drágul",-10.231382256976879],["Q",-10.231675894298712],["harminc",-10.231675896739727],["kénytelen",-10.231687661071796],["omikron",-10.231696908357733],["kezdve",-10.232055007037067],["Kelet",-10.23293096704872],["kialakult",-10.233862973588076],["tagállamok",-10.23439208110861],["kapcsolódó",-10.236032877326796],["szervező",-10.23630005483442],["lezárt",-10.238586316825891],["veszített",-10.239278838809144],["akkumulátor",-10.239805975601882],["Szabolcs",-10.239805978093692],["pandémi",-10.239806000310145],["megszüntet",-10.239806053072845],["illegális",-10.239806466567313],["hektár",-10.23987489310342],["indok",-10.239952962742038],["írtá",-10.240642106501102],["gyorsabb",-10.240829413174954],["község",-10.240884603729647],["Car",-10.24198610791075],["szövetséges",-10.242124026972437],["tonna",-10.244317432610956],["közelmúlt",-10.244399616840262],["kór",-10.247663811804516],["Három",-10.247951942159078],["svájci",-10.248002728929379],["Korábban",-10.248004156460524],["gyakorol",-10.248012996120796],["munkálatok",-10.248024609532457],["hasznos",-10.248209875064061],["japán",-10.248221172236715],["üres",-10.248627290074854],["panasz",-10.249144497252924],["esté",-10.249240327199084],["határidő",-10.249418445892545],["valamennyi",-10.249855705230775],["büntető",-10.250531219174448],["frissít",-10.250704948989931],["kifejez",-10.251025328547911],["takarít",-10.253163280975096],["csoda",-10.253349900669619],["szex",-10.25518633800861],["tőzsdé",-10.256267125857935],["érzékeny",-10.256267197006537],["drágább",-10.256267197605403],["szoftver",-10.256267203440416],["Ausztri",-10.256272340160667],["bombá",-10.256295160550234],["menő",-10.256404383250473],["piros",-10.256864045086466],["dolgo",-10.256920140924366],["fékez",-10.25741121679237],["pedagógus",-10.257421904345101],["Man",-10.258214662754579],["Város",-10.258558542121744],["járműve",-10.260310167360448],["villamos",-10.260666296347186],["körű",-10.260926974594689],["életük",-10.262423141983646],["halott",-10.26394849500453],["múzeum",-10.264600494424457],["izgalmas",-10.264600503880104],["itárius",-10.264602287976196],["mesterséges",-10.264611237053511],["bronz",-10.264666592874434],["átmeneti",-10.264733155390584],["gomb",-10.265186040788578],["brut",-10.265426518001814],["összecsapás",-10.265568443135384],["búcsúz",-10.266619861137208],["Tisza",-10.266951173997732],["szárny",-10.26706969936447],["olvasó",-10.267632185347361],["ötven",-10.269479643538887],["csatá",-10.271559877982103],["ugrott",-10.271583170324593],["pedagógusok",-10.2718309864282],["hallott",-10.271998498765186],["gyilkosság",-10.27243837930342],["becslés",-10.2730090560601],["Imre",-10.273411899714901],["hatásai",-10.274508390627465],["gyász",-10.27473888156835],["titkos",-10.275100886581662],["előadó",-10.275149888229057],["rendelés",-10.275529961964633],["alól",-10.275551330675878],["szolgáló",-10.276343684656851],["tudtu",-10.277366324921942],["finanszíroz",-10.277411198997253],["barátai",-10.278978232207503],["Game",-10.280071095599881],["’",-10.281478430671939],["gyümölcs",-10.281478430698744],["Alapítvány",-10.28147843090305],["ideiglenes",-10.281479251296272],["Szerencsé",-10.281483338592173],["mozog",-10.281485726681861],["hölgy",-10.281489941243283],["viszonylag",-10.282056885666929],["Borsod",-10.282376299649435],["számítani",-10.283577167982521],["tetsz",-10.284292380971909],["forgat",-10.285372101238774],["mozi",-10.285566229220708],["óriás",-10.287472301392004],["tűzoltó",-10.289586091932641],["energetikai",-10.290025439235084],["csarnok",-10.29002622871722],["megtakarítás",-10.290088453781163],["roham",-10.290486016906808],["Gyula",-10.29051597831376],["képtelen",-10.291103006812232],["testvér",-10.291496530797394],["beszámoló",-10.29153065077892],["váratlan",-10.292259424130549],["alakulásá",-10.293286937223513],["Ukrajnából",-10.294052844178259],["környékén",-10.29499111957019],["hazaiak",-10.296939049630723],["Gyurcsány",-10.298646129177886],["speciális",-10.298646132221101],["forgalmi",-10.298648288815158],["horvát",-10.298672030763733],["osztrák",-10.298698466777996],["tiltakoz",-10.298701222625532],["Air",-10.298710423693304],["endőrkapitányság",-10.298719469518277],["gyilkos",-10.299226658247004],["kulcs",-10.299269555322477],["rokon",-10.299387793979532],["forma",-10.299419139167107],["kém",-10.300937972970445],["ügyvéd",-10.301248635556696],["250",-10.302025168326718],["képviselője",-10.302668017554373],["Ér",-10.304064569574638],["ütköz",-10.304632031102336],["borít",-10.306061700519493],["tároló",-10.30658540169575],["Fehér",-10.30733689180619],["pszich",-10.307347707749457],["összefüggés",-10.307358871596492],["parancsnok",-10.307371123598623],["Péntek",-10.30738690714059],["hatodik",-10.307402106298833],["működtet",-10.307581567673004],["kávé",-10.307685023191848],["akadály",-10.307994482219497],["nevelés",-10.308332426101877],["Rend",-10.309028669448999],["lehetetlen",-10.310713346173445],["hova",-10.311263773156508],["válás",-10.311883699055375],["kaland",-10.312502673911263],["gyanúj",-10.312690509927641],["honna",-10.313642215576186],["kereste",-10.314180507684362],["Nemzet",-10.31426790237911],["stratégiá",-10.316113711672969],["stúdió",-10.316113801897075],["zászló",-10.316130701190563],["zápor",-10.316131029461207],["feltételez",-10.316338905811199],["észlel",-10.316382717938712],["extra",-10.316448106047329],["nehezít",-10.316457714576977],["érdekelt",-10.320672887533888],["hová",-10.32069549750636],["Kup",-10.32205146067982],["valódi",-10.322484849800905],["tőke",-10.32406987627164],["gyönyörű",-10.32496326839933],["tranzakció",-10.324963288590197],["botrány",-10.32496353185924],["rögtön",-10.324974056384292],["hárma",-10.325158007914268],["részesül",-10.325215188851361],["költségei",-10.325258737919725],["réteg",-10.325675150740592],["feleségé",-10.3260087655427],["önálló",-10.327349671413645],["értékelés",-10.327547892902825],["húzta",-10.328048396209951],["kód",-10.328346080521637],["építésé",-10.328833118247083],["egységes",-10.329556433341743],["legutóbb",-10.333285272583066],["jelöl",-10.333706647649402],["kontinens",-10.333891842381593],["egyensúly",-10.333947930946835],["lényeg",-10.334161320117392],["robot",-10.334202572166559],["erőmű",-10.334215194890552],["halaszt",-10.334465172957167],["alitás",-10.33458636264974],["valójá",-10.335305930470708],["epsiszentgyörgyi",-10.336264398556029],["zenész",-10.337353603780551],["katoná",-10.338885190072858],["ajánlás",-10.340099679113091],["maszk",-10.34236845720216],["alternatív",-10.342900849639026],["elképesztő",-10.342900864492368],["büszke",-10.342900880727479],["sztrájk",-10.342900891070617],["táplál",-10.342901345749704],["Ekkor",-10.343179719320723],["divat",-10.34343704284041],["eltűnt",-10.343833352383697],["közút",-10.343990228674873],["biztosítani",-10.344294633196952],["alapító",-10.344342631816545],["történelem",-10.34449990932398],["alapanyag",-10.345103487765083],["lezárás",-10.345959127026216],["felfedez",-10.347159809590988],["keze",-10.348395542319388],["utóbb",-10.348963276468972],["vetít",-10.350983636021152],["tudományos",-10.351647817889138],["szerelem",-10.351703692796942],["helikopter",-10.351991758099874],["minimum",-10.351992148549037],["forgatókönyv",-10.351992255906922],["műtét",-10.352286810420196],["hatalom",-10.352291935343832],["színvonal",-10.352550553272971],["energiaválság",-10.353045945484432],["betét",-10.353502749311504],["gyenge",-10.354801955205726],["fordított",-10.357163666233909],["szemlé",-10.359386893077417],["internete",-10.36034787758783],["kommun",-10.361148841753613],["jellegű",-10.361172090255355],["tünetek",-10.36117307656335],["York",-10.361196871832018],["emlékeztetet",-10.361900355941636],["Ör",-10.362364870227676],["chip",-10.362575872460482],["vezérigazgatój",-10.363392893454664],["gondolta",-10.365633427069836],["árulta",-10.366526856357513],["ight",-10.366669496876906],["folyamán",-10.366930997491606],["tiltott",-10.36699972371534],["futott",-10.367823434820476],["engedélyez",-10.368545031423972],["lenné",-10.369088601135427],["támogatott",-10.37021895135188],["agrár",-10.37037568269081],["éjszaká",-10.37042672944793],["fájdalma",-10.370426745035548],["Nincs",-10.370430873117463],["házasság",-10.37045073228871],["pótol",-10.37048865696477],["édesanya",-10.370571210518417],["célpont",-10.371239516928032],["küzdött",-10.371317641917777],["következte",-10.372044638532943],["védett",-10.372207518458904],["fontosabb",-10.37223433381241],["700",-10.374562440055994],["hiányz",-10.374727337686146],["létszám",-10.37536026921078],["érdeklőd",-10.375401347054058],["programo",-10.37641188457475],["jutottak",-10.376525222615395],["izáció",-10.377018787556668],["gabona",-10.37977856140644],["karakter",-10.379794903637933],["kártyá",-10.379820613275776],["másodperc",-10.380171317870179],["Márton",-10.380546697187729],["emelet",-10.380618241409438],["művek",-10.380934472728631],["elkövetet",-10.381348552561342],["inter",-10.382428122768413],["2000",-10.384723390261746],["alaposa",-10.38674836797501],["zajlott",-10.386836035138348],["alakulat",-10.387231020767961],["utol",-10.388633949266325],["klasszikus",-10.38920509673439],["Utóbbi",-10.389205129736679],["szexuális",-10.38920525670764],["felügyelet",-10.389206368518643],["pusztít",-10.389246608361717],["Andre",-10.389277681227803],["terror",-10.38944455092915],["felkészülés",-10.389547580862818],["komolyabb",-10.38979061884386],["küzdelem",-10.389833892683288],["következet",-10.391259356999125],["igazolt",-10.39348101699241],["Elmondta",-10.393685089334618],["látogatók",-10.394154952586566],["jelenség",-10.396146102833484],["Kárpát",-10.398713811498045],["Microsoft",-10.398728895294752],["jogosult",-10.398737988219178],["doboz",-10.398747516259464],["döntetlen",-10.39901179837986],["kamatemelés",-10.399243227291144],["indokolt",-10.399265142206554],["adósság",-10.399439319479892],["fárad",-10.399611493968976],["ellenőriz",-10.399617129172231],["foglalás",-10.399814675746555],["illeti",-10.400067791460323],["indulás",-10.400759441577954],["ülésén",-10.401896730147318],["alakítás",-10.401932031018198],["nyilvános",-10.404494646904006],["azonosít",-10.406170614597572],["Hozzá",-10.407969739416142],["Múzeum",-10.408344280521213],["gazdálkodás",-10.408344287642343],["katolikus",-10.408347719301965],["gárda",-10.408369117469661],["normál",-10.408369127515103],["mérnök",-10.408372958587313],["lassul",-10.408376371741369],["éjjel",-10.408380470651725],["állapod",-10.408444480857536],["rádió",-10.408446279413228],["hétköznap",-10.408829110691912],["irányába",-10.41160086095394],["formájá",-10.412610265198014],["barátság",-10.41648866455111],["ügynökség",-10.41781315572116],["Éppen",-10.418053133529432],["tojás",-10.418069112012532],["elképzelés",-10.418172916711981],["feszültség",-10.418197190803],["Musk",-10.418350602117155],["méretű",-10.419486397245912],["egyetért",-10.420645878279414],["külügy",-10.421372886886573],["többlet",-10.423249996790908],["előfordul",-10.42338674299058],["Pri",-10.424879006940278],["székely",-10.427837078108954],["Mariupol",-10.427857299275658],["közgyűlés",-10.427867466396691],["végleges",-10.428050851771173],["felszerelés",-10.428100877627994],["szereplés",-10.428236561409502],["hamarabb",-10.428321031458413],["személyiség",-10.428995974333295],["fontol",-10.42989148224119],["nyitva",-10.430102420188863],["folytatta",-10.430105482633646],["tagállam",-10.431757901570911],["bio",-10.433943883563192],["ellenfele",-10.434071480687617],["veszít",-10.434454092929203],["korrupció",-10.437757931528825],["szerkesztő",-10.437757933464624],["alapítvány",-10.43775795729205],["garantál",-10.437758072552446],["London",-10.43775932562912],["fölött",-10.437762330000382],["bukkan",-10.437764509460564],["ezüst",-10.4377830916733],["pályafutás",-10.437833071542524],["főnök",-10.43785863893467],["szabadít",-10.437921961350558],["közbeszerzés",-10.438043610973693],["óvodá",-10.438129145913987],["Közép",-10.43818779701086],["különféle",-10.438237505422086],["nehézségek",-10.439700053041811],["legfrisse",-10.439862550425266],["viszonyít",-10.44024341406708],["bizonyíték",-10.440423272512],["újít",-10.440634860056354],["kincs",-10.441162590167545],["formáció",-10.442552007574118],["ünnepség",-10.442696579428027],["Szolgálat",-10.447757929526716],["Parlament",-10.447758101064082],["Színház",-10.447758145861295],["uralkodó",-10.44775856211932],["Néhány",-10.44775941109394],["újdonság",-10.447759511372915],["legnépszerűbb",-10.447759933571568],["reklám",-10.4477600709926],["tartomány",-10.447761328267147],["diplomácia",-10.447776466604834],["enyhít",-10.447803972872933],["negyven",-10.44780487097382],["transz",-10.44792604413884],["végső",-10.447935369174214],["egyebek",-10.448123783480144],["iparág",-10.448194412139664],["elégedett",-10.448375854127082],["bizonyult",-10.448438979110527],["bányá",-10.449283826346715],["Újabb",-10.449369670612464],["vezethet",-10.452154831626807],["tekinteté",-10.45232255142911],["médiá",-10.452677143614594],["érezhet",-10.454125766111757],["utasított",-10.454252508068205],["Ú",-10.455722545190174],["kezdté",-10.457268000877363],["́",-10.457858939537665],["onzervatív",-10.45785893998367],["Eddig",-10.457859382023079],["ciklus",-10.457859647518312],["Később",-10.457859978135092],["olcsó",-10.457979942162527],["következik",-10.458523090481052],["zati",-10.458842638054687],["öreg",-10.459249970393506],["kiegészítő",-10.460140764643175],["jelzi",-10.460302010459543],["cská",-10.46041546352851],["voks",-10.461113661535261],["figyelme",-10.462527092808223],["önmagá",-10.4637052913342],["kedő",-10.46770823460562],["konferenciá",-10.468063021344287],["Kossuth",-10.468063021519333],["Zemplén",-10.46806302197043],["Dávid",-10.468063059661276],["volumen",-10.468063123016819],["illetékes",-10.468064772104622],["jelentkezett",-10.468071191659572],["szögezte",-10.468075123273255],["vélhető",-10.468080319164065],["nyugodt",-10.468091749283762],["jóváhagy",-10.468114064818625],["Szatmár",-10.4681262004741],["Erdély",-10.468996709644841],["unoká",-10.469660129021328],["Mert",-10.469722076338293],["raktár",-10.46973414907145],["fokozatosa",-10.470329891061063],["bizonytalanság",-10.471567207178545],["fejlesztésé",-10.472334709146235],["számla",-10.473989990772886],["párhuzamos",-10.47837229997307],["Karácsony",-10.478372301424123],["koncentrál",-10.47837231129791],["mínusz",-10.478372530391201],["kutya",-10.478385527964114],["Viszon",-10.478403116362365],["csomó",-10.478571361395602],["tájékoztatta",-10.478629520874403],["Fekete",-10.478752661898472],["hordoz",-10.478758732183152],["használható",-10.478944975074846],["szintjé",-10.479281934441122],["visszaesés",-10.480118538219255],["vélt",-10.48058841478849],["vezetőjé",-10.482253759528675],["Vaj",-10.483157236570346],["válogat",-10.484360665552376],["hallgatás",-10.487193917939523],["hasznosít",-10.48855419193151],["Trump",-10.488789128972392],["migráció",-10.488793492200813],["dohány",-10.489064342804216],["óvatos",-10.489139125930025],["hirdetett",-10.490416734885416],["tekinthető",-10.491017341881346],["bűntett",-10.494244709235787],["bizonytalan",-10.496062954824879],["sereg",-10.496143694264346],["lélek",-10.497275280801063],["módosít",-10.498074206987264],["Horváth",-10.499315282323797],["innováció",-10.499315359250199],["vakciná",-10.499315662659985],["számítógép",-10.499330679871385],["Törökország",-10.499343803352957],["füst",-10.499385551310151],["Kiemelte",-10.499823740998053],["mikro",-10.500324739385272],["ígérete",-10.501063163922],["titko",-10.50293346139148],["őrök",-10.503984872880947],["ozzák",-10.506706242591132],["Sepsiszentgyörgy",-10.507131618952874],["tized",-10.50907688061897],["sürgős",-10.50995357999685],["agresszió",-10.509953580513201],["szovjet",-10.509954071680857],["pénzügyminiszter",-10.50995462966446],["takarékos",-10.509974193061154],["duplá",-10.510178578706771],["viadal",-10.51018995906624],["parkoló",-10.510366954875066],["érhető",-10.510807000238174],["fém",-10.510910084888165],["töröl",-10.511502571179413],["találtá",-10.511791527433413],["Emm",-10.512367636812941],["Ferencváros",-10.512640514216368],["fejleszt",-10.512667268818632],["gépjármű",-10.517153032370551],["élénk",-10.517829298552993],["Székely",-10.5204764897714],["Minisztérium",-10.520706268026498],["maximum",-10.520706268127498],["kancellár",-10.52070626816025],["luxus",-10.520706641646768],["pattan",-10.520727035069527],["Négy",-10.52073718465714],["rongál",-10.520975406076984],["küzdelme",-10.521193934352624],["human",-10.521425182001778],["tenisz",-10.52166090983036],["Orosz",-10.522266522305108],["hull",-10.52691277987978],["térkép",-10.529195883915293],["medencé",-10.531575988468216],["sebesült",-10.531577447767212],["variáns",-10.531578610579189],["rivális",-10.531579088921493],["pápa",-10.531585638483175],["rdély",-10.531663828237516],["koreai",-10.531947698366602],["műanyag",-10.533201952859525],["forgatás",-10.537893757007163],["tárgyak",-10.54089390121139],["Állam",-10.54256558186432],["Csehország",-10.542572577145226],["Herszon",-10.542577394384889],["tisztviselő",-10.542650962302442],["értelmez",-10.542713772825097],["temető",-10.542740993621873],["feszít",-10.54295493162309],["téma",-10.54330357362105],["innen",-10.543411342065244],["regény",-10.54345090271541],["emlékeztet",-10.543753709292833],["igazolás",-10.54376370279028],["hatékonyság",-10.543864539941778],["napjá",-10.544420793749115],["figyelmé",-10.544667770287258],["gazda",-10.548220759535944],["hangsúly",-10.549265912815146],["együttműköd",-10.551855852311714],["túrá",-10.552683547142276],["értékesít",-10.553571905524944],["szomorú",-10.553676014703893],["megőrzés",-10.553685812076926],["ritka",-10.553714876224083],["alkatrész",-10.553740216834782],["rosszabb",-10.553780657750043],["Johnson",-10.553819782652049],["multi",-10.554163413561362],["Abaúj",-10.554334823164542],["számítana",-10.558158950185934],["Főváros",-10.559563252554234],["sétál",-10.559712086766194],["tisztáz",-10.560144999545736],["repülőtér",-10.560234003076229],["Gazprom",-10.56491227941354],["görög",-10.564913052359877],["megújuló",-10.564913518453036],["vörös",-10.564915086805248],["Novák",-10.564929718367138],["köteles",-10.56503233885886],["romlott",-10.565081453533939],["aszály",-10.565087209350292],["végzi",-10.565334472454929],["eltérő",-10.565465942369599],["érvénybe",-10.565504672768771],["keresztény",-10.565524510885329],["Élet",-10.565658557845078],["építeni",-10.566559010001175],["bevezetésé",-10.568631872165813],["ismerked",-10.56922386145771],["elmélet",-10.569502375958294],["beszédé",-10.574228411769148],["infrastruktúrá",-10.57627554719882],["Borítókép",-10.576275610286096],["részesedés",-10.576278077315418],["fókusz",-10.57627924022741],["ázsiai",-10.57628066599295],["vallomás",-10.576309788311363],["elvárás",-10.577236547418103],["közvélemény",-10.577453675386815],["termés",-10.578798403174396],["talaj",-10.581132771934392],["felejt",-10.58236508399576],["hazá",-10.585412803448019],["mondtá",-10.585978010786246],["tisztít",-10.586435778800041],["Nyír",-10.586552160747157],["koalíció",-10.587769800031372],["kulcsfontosságú",-10.5877698181168],["Általános",-10.587769819489225],["monetáris",-10.587769847829852],["minimális",-10.587770063520104],["Példá",-10.587770207638039],["Macron",-10.587770366209508],["komplex",-10.587771682648265],["zsűri",-10.58777354925222],["Japán",-10.587773639278254],["térségébe",-10.588428380661181],["tárlat",-10.588498602736365],["törzs",-10.588649012261177],["kosár",-10.58873829749217],["játszani",-10.588870824848893],["tüzet",-10.589213413128338],["cipő",-10.589682012871366],["csőd",-10.589761983424133],["dzs",-10.592992081644045],["Magyarországr",-10.593776515620977],["szokta",-10.595734730196753],["öltözött",-10.596340788696434],["tonná",-10.597298480658047],["jövedelm",-10.599397775265205],["megbetegedés",-10.599397935912293],["villany",-10.599399480942983],["könnyít",-10.599401853642833],["tartóztat",-10.599406043316357],["deviza",-10.599409083115951],["Telekom",-10.599413162447792],["DEA",-10.599806297041576],["tölteni",-10.600051790113085],["sportág",-10.600328321933983],["halmoz",-10.600459687418814],["stáb",-10.601609660072743],["ázta",-10.60164185701198],["jegyzet",-10.60285254070821],["székhely",-10.6035133931369],["ózsa",-10.60558523149847],["Molná",-10.607485322785996],["fennáll",-10.60786840875317],["szakmá",-10.610250997305094],["Miniszterelnök",-10.611162412517803],["recesszió",-10.611162413816313],["potenciál",-10.611162429152696],["Párizs",-10.611162456585705],["elsődleges",-10.611162927056073],["fűzte",-10.611198462528701],["sárga",-10.611250212588693],["nyújtani",-10.612237620446649],["zintén",-10.613082176535443],["ügyfelei",-10.61468010150619],["végző",-10.619635693883065],["büntet",-10.619669377392572],["különböz",-10.620329049343436],["jelentene",-10.620753801943344],["kevese",-10.622156124084992],["kábítószer",-10.623067174519555],["nyíregyházi",-10.623067185312394],["szórakoztat",-10.623067188065765],["Donyec",-10.623067201842836],["képernyő",-10.623067252897709],["feltétlen",-10.6230673672792],["Vasárnap",-10.62306996714901],["verzió",-10.623073653939523],["brazil",-10.623074023531085],["megmenteni",-10.623083487957263],["árnyék",-10.623093198213986],["show",-10.62310579684447],["esküvő",-10.62314558391374],["tankol",-10.6232955559212],["elsejé",-10.623406810026703],["megbeszélés",-10.623552986878895],["londo",-10.623779100992698],["temetés",-10.625737608819641],["ejtett",-10.626302247528837],["rög",-10.627111848042233],["ételek",-10.630647014036018],["gráf",-10.633834246436553],["Sto",-10.634115204228737],["John",-10.635023130541772],["š",-10.635115367167193],["Washington",-10.635115367167588],["embargó",-10.635115383134544],["statisztika",-10.635115391932882],["migráns",-10.635116127134014],["izraeli",-10.635116980064806],["mandátum",-10.635244010675255],["népszavazás",-10.635291820856956],["fagyaszt",-10.635349688365629],["rögzít",-10.635361723375553],["huszon",-10.635381221573482],["Mező",-10.63553561251885],["köves",-10.636355340464878],["fordulójába",-10.636355886619572],["akadályoz",-10.639648886501837],["befektető",-10.641258136196413],["emokratikus",-10.644675512348304],["részletei",-10.645117147810296],["listájá",-10.645279781066096],["zárult",-10.645542987934913],["selejtező",-10.6473104920452],["Árpád",-10.64731094225834],["Országgyűlés",-10.647310959581402],["büszké",-10.647311194519327],["karbantartás",-10.647318054017862],["Majd",-10.647326995729587],["Hétfő",-10.647344921382611],["véleked",-10.647348346900133],["DVS",-10.647472541122664],["esszü",-10.64750159006547],["szállodá",-10.647578103420681],["egyenlő",-10.64768925623179],["kiegészít",-10.647721607849679],["dönteni",-10.64777424814628],["emelni",-10.647817472446395],["küldetés",-10.647820187411167],["tudatta",-10.648654781030384],["személyzet",-10.649533612320777],["terep",-10.65113221820384],["hatékonyabb",-10.65162273857879],["próbá",-10.654072008741554],["légvédelm",-10.659116268344288],["turisztikai",-10.659656168136042],["afrikai",-10.659656214461961],["fideszes",-10.659656397107128],["ársapk",-10.65965734185832],["Hasonló",-10.65965770189569],["Jakab",-10.659658693144419],["kabinet",-10.65966217195173],["Jobbik",-10.659663930362186],["óvoda",-10.659688363764714],["sűrű",-10.659689775248104],["tempó",-10.659743733812906],["drága",-10.659760285075057],["irodalom",-10.65979947452028],["Fotó",-10.659962481671698],["otthonába",-10.660184346660259],["irodalm",-10.660749720647193],["kötelez",-10.66493402019768],["vicc",-10.670505848607624],["bölcs",-10.67204159517937],["Britanni",-10.67215617517698],["Sepsi",-10.672156384540795],["korszerűsít",-10.672157240166648],["építkezés",-10.672159933978016],["Bihar",-10.672160874418498],["házaspár",-10.672167786873189],["csepp",-10.672181258302203],["háromszéki",-10.672189414289338],["mozgósít",-10.67219019483975],["Judit",-10.672193274073692],["kijevi",-10.672230475743419],["Bereg",-10.672431263802286],["sztori",-10.673528770506518],["csökkenteni",-10.673645520390714],["kötőd",-10.673893719572764],["összességé",-10.675166386154078],["sark",-10.676615625945223],["Zene",-10.678397255200409],["hunyt",-10.67885462012224],["elszámolás",-10.679511798145853],["területé",-10.684259441935662],["Spanyolország",-10.684814396094376],["Horvátország",-10.684814397791676],["tüzérség",-10.684814402296459],["Farkas",-10.684814436098808],["informatika",-10.684814792517233],["prémium",-10.684814844977915],["szörnyű",-10.684816186564351],["bolygó",-10.684817552809108],["Egész",-10.684819903792057],["völgy",-10.684825296882849],["kultúrá",-10.684849337344637],["tucat",-10.684980883423336],["közreműköd",-10.685062270826378],["közelít",-10.688433545354666],["reform",-10.689173703097255],["férjé",-10.690748335417249],["weboldal",-10.694745663927941],["č",-10.69763490878507],["Reuters",-10.69763492947397],["Richter",-10.697634990509673],["gyulladás",-10.69763523894898],["Puskás",-10.697635279701098],["tragikus",-10.69763795457758],["Érdem",-10.69765981318328],["szembesül",-10.697677000308786],["letartóztatás",-10.697684884236303],["meglehetős",-10.697777387124336],["sújtott",-10.697858848504856],["adományoz",-10.703008929921861],["védekez",-10.706446596093055],["ereszt",-10.709883971127908],["Szlovákia",-10.710621923919064],["Hungary",-10.710621930261695],["főtitkár",-10.71062200947237],["Érdekes",-10.710622094819097],["Program",-10.71062211016924],["jelentkező",-10.710659233327934],["óceán",-10.710671075910371],["finálé",-10.710718487113585],["stabilitás",-10.710723476300515],["devizá",-10.710786178702884],["Hely",-10.71152184427969],["borult",-10.711705137114912],["kategóriába",-10.711819219398663],["oktató",-10.712704631567119],["ujj",-10.713220195236104],["Petr",-10.715503489615728],["fertőződ",-10.72142745083229],["dátum",-10.722438454286028],["étterm",-10.72299153743814],["alábbi",-10.723685319305831],["Emlék",-10.723759846899672],["nyaralás",-10.723786191426154],["zárkóz",-10.72379731577615],["lépcső",-10.723833139685091],["születésnapjá",-10.723845093949906],["konzol",-10.723909334794186],["büntetőeljárás",-10.723982835273352],["Tesl",-10.72433532453418],["feldolgozás",-10.72459468632489],["Buda",-10.724609233046962],["belépő",-10.725054686184798],["kamera",-10.725701006354488],["villá",-10.725960479796875],["mehet",-10.728288473696237],["meghaladj",-10.73411451549724],["Romániá",-10.735677992329101],["cselekmény",-10.737048685028968],["jótékony",-10.737113285715708],["Teljes",-10.73712600287005],["kreatív",-10.73712940360986],["Szabad",-10.737130217304234],["riasztott",-10.737143222380578],["okostelefon",-10.737163386309],["Egyéb",-10.737172720017558],["jelenlété",-10.737258100758762],["biztonságá",-10.739379667738824],["folyósít",-10.739691735568961],["győződ",-10.742139699729968],["vajo",-10.742295783201943],["kormányzat",-10.744195214100188],["lényegé",-10.748239460581543],["kényszerít",-10.748993232306178],["elejé",-10.750623044337559],["Németh",-10.750626686246367],["agresszív",-10.750626750729795],["ausztrál",-10.750626809953516],["hibrid",-10.750626917176593],["csatorna",-10.750627480873707],["furcsa",-10.750628764069752],["Hollandi",-10.750630562410176],["terápiá",-10.750632114718094],["megalapozott",-10.750646059053508],["gyűrű",-10.750647433054768],["Robert",-10.750648009543607],["kellemetlen",-10.75066592978747],["jelentkezés",-10.750666812765322],["északkeleti",-10.750821377069913],["termeszt",-10.75099440271467],["Romániába",-10.752083868984815],["Irán",-10.757527827637436],["hálá",-10.758862770083853],["helyezked",-10.759247156337798],["inform",-10.76059740856781],["szólít",-10.763314967982062],["incidens",-10.764325295143845],["Szilágyi",-10.764325295529131],["közigazgatás",-10.764325295586175],["bonyolít",-10.764325756159872],["ritkán",-10.764336158233714],["immun",-10.764339856026389],["Amerika",-10.764342556714137],["turizmus",-10.76435441716927],["menjen",-10.764970631138308],["befolyásolj",-10.765426172504581],["márká",-10.76701124872812],["lügyminisztérium",-10.767420244914836],["mértéké",-10.772904588142644],["hangsúlyoz",-10.775413247436992],["szakaszá",-10.776832464495111],["franc",-10.777068874628299],["Hangsúlyozt",-10.778214182476027],["Veszprém",-10.778214183399044],["automatikus",-10.77821418857858],["belügyminiszter",-10.778214801262084],["Group",-10.778215151069784],["moszkva",-10.77821578206769],["nyersanyag",-10.778224072494975],["Klub",-10.778242335329502],["kímél",-10.778245905360222],["válaszadók",-10.778249945109412],["dolga",-10.77826543370324],["rapper",-10.778292670909696],["madár",-10.778386210062537],["NAV",-10.778501137863625],["semleges",-10.778692768393283],["üldöz",-10.780151927608578],["képeke",-10.783247597604028],["segítene",-10.786296911508682],["búcsú",-10.788886171086936],["páciens",-10.792298691723122],["diploma",-10.792299168587691],["Mészáros",-10.792299176640267],["varázs",-10.792300083023946],["dobogó",-10.792324137122687],["terme",-10.792365686873175],["hozzáférés",-10.792366064494546],["időnként",-10.79250122862005],["térít",-10.795518865338359],["létrehozásá",-10.800441249113065],["babá",-10.800666292672929],["többségé",-10.801424396048553],["fokozat",-10.803427236977504],["»",-10.80658440372392],["gyengébb",-10.806584404796356],["Nyilván",-10.806584425689344],["felfüggesztett",-10.806584449029458],["fájdalom",-10.80658502370717],["stadion",-10.806586157496316],["Zsófi",-10.806589780144488],["Ameriká",-10.806632623427848],["lehessen",-10.806812232364317],["frank",-10.806849675154735],["emleget",-10.809110978395418],["napeleme",-10.810044656916055],["ifiká",-10.810241564946573],["Ausztráli",-10.821077158911642],["küszöb",-10.821077159401103],["Kovászna",-10.821077162738405],["Gazdaság",-10.821077250463576],["bicikli",-10.821077402515606],["Bukarest",-10.821077858691389],["Finnország",-10.821079957149518],["TikTok",-10.821081007291333],["horgász",-10.821082028474489],["liberális",-10.821092782372336],["húsvét",-10.821093242035875],["Hazánk",-10.821100748009481],["humor",-10.821131851084584],["enyhe",-10.821173257681359],["megbízható",-10.821388167999313],["őrző",-10.821809502175277],["értelembe",-10.826047437724867],["juss",-10.827390971244172],["elkötelezett",-10.82770273572284],["megvizsgál",-10.83461626176842],["Akadémia",-10.835783040326218],["Rádió",-10.835783443778926],["tendenci",-10.835783666184234],["kilogramm",-10.835783878406946],["kenyér",-10.835787795613491],["Alexandr",-10.835796745704133],["kártya",-10.835812105562662],["szlovén",-10.835822819930463],["kanyar",-10.83612123059658],["riport",-10.836178293422892],["álmod",-10.836832600063673],["Szerdá",-10.83741892448522],["video",-10.837438714584428],["kezelésé",-10.839206297077602],["nézzü",-10.841410398352345],["villamosenergi",-10.842787029517602],["kripto",-10.850707884388402],["portfólió",-10.85070841283605],["kritiká",-10.85070873810107],["megkérdezettek",-10.850708832299848],["Izrael",-10.850712605220755],["elengedhetetlen",-10.850713803231212],["mögé",-10.85071610832432],["tartalom",-10.850820470862708],["Ákos",-10.850909743907593],["Pécs",-10.850972828437664],["Kedd",-10.851064116355442],["hódít",-10.851324011014057],["Dmitr",-10.852595743681476],["eltávolít",-10.852960180460624],["tüzel",-10.853484326428301],["szervezésé",-10.855427864342541],["rombol",-10.858042604030548],["megdöbben",-10.865859930759536],["jövedelem",-10.865859931368462],["sürget",-10.865860031124086],["kivitelezés",-10.86586114963657],["Scholz",-10.865871453360683],["stressz",-10.865876814740284],["magazin",-10.865895017647231],["norvég",-10.86593977544958],["nyolcadik",-10.8659404758269],["szokatlan",-10.865954480911732],["Svédország",-10.865964136737567],["centiméter",-10.865977713245783],["elkövetésé",-10.867299899620376],["kitörése",-10.86788970131087],["koroná",-10.874223055578337],["megvalósításá",-10.876351636859262],["láttá",-10.878609532485731],["Gimnázium",-10.881244543370853],["menedzser",-10.8812445457697],["megállapítás",-10.881244567242973],["Donald",-10.881244912086],["vigyáz",-10.8812450078556],["pillant",-10.881245565637176],["Szolnok",-10.881247960168015],["pusztul",-10.881248932831886],["vékony",-10.881250956274265],["extrém",-10.88125151447733],["körülményei",-10.881256249758625],["generál",-10.88125939547163],["Gyermek",-10.881263475806747],["techniká",-10.881270117441268],["tönkre",-10.881277588224014],["folyosó",-10.881314230477855],["próba",-10.881478969968155],["leinte",-10.884739754612795],["kiskereskedelm",-10.890001651967548],["diplomá",-10.896841711094591],["ș",-10.896869543370507],["gimnázium",-10.89686954337225],["elektronikus",-10.89686954407225],["ábrázol",-10.896869550904858],["Svájc",-10.89686963517501],["daganat",-10.89687313932664],["Ligája",-10.896876785445833],["Jövő",-10.896881381353236],["Eszter",-10.896910899013646],["rutin",-10.897043042925329],["páncél",-10.897057342759366],["heves",-10.89712377175554],["parancs",-10.912694322056634],["Dunántúl",-10.912742584700847],["munkáltató",-10.912742586011142],["statisztiká",-10.912742595028853],["Nehéz",-10.912742608829486],["Csoport",-10.912742635596366],["ragaszkod",-10.912742705620781],["marketing",-10.912743301539372],["származású",-10.912745207888419],["strand",-10.912747652641917],["megélhetés",-10.912748069023621],["kudarc",-10.912750606021207],["Emlékeztet",-10.912768272268302],["Szerbiá",-10.912777924751579],["Remél",-10.912800771681649],["Közölt",-10.913556759616183],["fontosságá",-10.913670866334574],["gramm",-10.914613011824965],["egyenese",-10.922050541499477],["szabályoz",-10.9268562798324],["Király",-10.926942309764982],["YouTube",-10.9288715915023],["intelligencia",-10.928871591506184],["infrastruktúra",-10.928871592065459],["kastély",-10.928871603308783],["csempész",-10.928871642204943],["kontroll",-10.92887164455324],["vakcina",-10.928871906625865],["napsütés",-10.928872069344921],["fellebbez",-10.928876357832722],["szülött",-10.928895542204064],["szivárg",-10.928907407841365],["párizsi",-10.92891056079019],["jegyző",-10.928997018255018],["sodor",-10.929034749976534],["reményked",-10.930096757186806],["demokrat",-10.932424898678676],["örnyezetvédelmi",-10.937961852992949],["professzor",-10.945265036554492],["Szeptember",-10.945265042259713],["megmérettetés",-10.94526508853204],["sláger",-10.945265523932203],["drasztikus",-10.945265529165948],["Iskola",-10.945267366555797],["fázis",-10.945267380429964],["turisták",-10.945271496825681],["Bálint",-10.945272640602102],["dventi",-10.945274361096912],["helyreállítási",-10.94527646390917],["bűnöző",-10.945285162462135],["recept",-10.945287177672654],["Peking",-10.945372700914406],["Iroda",-10.94550152772983],["csökkentésé",-10.959513774886673],["konstrukció",-10.9619317007929],["tevékenyked",-10.961931700806318],["minimálbér",-10.961931704971683],["Meteorológia",-10.961931711313536],["Fejleszt",-10.961931711837988],["Kristóf",-10.961931713353358],["süllyed",-10.961931738677897],["epizód",-10.961931798432786],["Szergej",-10.961932881941138],["menedék",-10.961932968595242],["Ismét",-10.96193424601634],["gyűjtemény",-10.96193850071847],["Endre",-10.961939342745776],["Tajvan",-10.961940683879778],["misszió",-10.961944252628793],["Angli",-10.961949240859685],["vidám",-10.96196488002369],["népesség",-10.961981187560875],["Vissza",-10.961990835247239],["határszakaszo",-10.962590565908155],["elérésé",-10.963946139962694],["alvás",-10.964986020759007],["termébe",-10.970701375871716],["bekövetkez",-10.971796812642966],["Netflix",-10.978880853389011],["menedzsment",-10.97888085350926],["Bulgári",-10.978880864232679],["Gabriel",-10.978881042532473],["medence",-10.978881148165572],["karantén",-10.978881185326166],["Biztos",-10.978888288457068],["covid",-10.97889383938559],["ifjúsági",-10.978894508008084],["biztat",-10.978901263359337],["bútor",-10.978942692929554],["töreksz",-10.979925721021337],["Hisze",-10.98264330917888],["virtuális",-10.99612223333217],["konzultáció",-10.99612223470315],["Október",-10.996122248183113],["szilárd",-10.996122335706822],["bravúr",-10.996122369989752],["Norbert",-10.996122390144354],["Csanád",-10.996124247106728],["Március",-10.996124595671326],["tükröz",-10.996124894471555],["jogállamiság",-10.996125147057748],["Vörös",-10.996125696453479],["olimpiá",-10.996128896023249],["érettségi",-10.996129871286474],["Franc",-10.996138242676118],["jobboldali",-10.996189575724607],["hajdú",-10.996197013279255],["búza",-10.99624652821425],["Arénába",-10.996312304665397],["tetejé",-10.996472799728384],["Társa",-10.996619984269717],["hátteré",-10.996971142111324],["alkalmazkod",-10.997414553083694],["kialakításá",-10.997702475809707],["nyugalm",-10.998788300778987],["megjelenésé",-11.007871692552413],["stratégia",-11.011615535551964],["dunaújvárosi",-11.01366609279254],["Manchester",-11.013666093520904],["Zsuzsa",-11.01366609677212],["kérdőív",-11.013666101651207],["Jézus",-11.013666140057595],["Rengeteg",-11.01366621758825],["Hosszú",-11.01366635494093],["dioxid",-11.013666392344568],["konténer",-11.013666969508456],["csodálatos",-11.013667256654282],["riasztás",-11.013671025538486],["Nintend",-11.01367104527905],["összpontosít",-11.013685044102683],["tárcá",-11.015840680626273],["Áramlat",-11.031523255441657],["Telegram",-11.031523380642238],["mérséklőd",-11.031523396376159],["Róbert",-11.031523868695341],["kriptovalut",-11.031523878775044],["idejű",-11.031529941314602],["pincé",-11.031542151576375],["ellensúlyoz",-11.031581306852363],["barátnőj",-11.031800923878887],["társasház",-11.032534529827679],["ifjú",-11.049692901959572],["püspök",-11.049704995654254],["Augusztus",-11.049705053379967],["Csongrád",-11.049705054250165],["streaming",-11.04970506061753],["igazolvány",-11.04970699303447],["Május",-11.049708858090945],["hidrogén",-11.049709717937043],["szenvedély",-11.049711875710022],["November",-11.04971326680082],["MÁV",-11.049719702262644],["turista",-11.049724604179325],["konyhá",-11.049734558760308],["ébred",-11.049844870676592],["Katasztrófavédel",-11.068223571850734],["Samsung",-11.068223584220865],["Celsius",-11.068223593910382],["Köszön",-11.068223664254578],["Fesztivál",-11.06822371371],["produkál",-11.068223737477567],["kanadai",-11.068224235133854],["Gergő",-11.068224261578889],["cáfol",-11.068224290192074],["határátkelő",-11.068224434198145],["utomatizá",-11.06822446470379],["törekvés",-11.068224844800868],["Értéktőzsd",-11.068228571131286],["Series",-11.068229020926998],["gerinc",-11.068230912172695],["indiai",-11.068234245585812],["lökések",-11.068246408126559],["Gáspár",-11.068247827046797],["figurá",-11.068249609306887],["megnyugtat",-11.068277474679464],["Messi",-11.068277847558132],["Válasz",-11.068306634419462],["anyuká",-11.068448348608346],["jogosít",-11.068829848806413],["panaszkod",-11.069213182485099],["feszül",-11.069602451000137],["lövöldöz",-11.087091496382346],["abszolút",-11.087091503235964],["tájékozód",-11.087091505679709],["applikáció",-11.08709153517264],["Művészet",-11.087091671909576],["jelentkezik",-11.087093279566059],["türelm",-11.087093765691048],["rejtély",-11.087095235797076],["kártérítés",-11.08709538675761],["Hajnal",-11.087097126957314],["Lázár",-11.087099578831559],["tüdő",-11.087101349738207],["túlnyomó",-11.08710295085962],["besorolás",-11.087103666081557],["Krím",-11.08712510412812],["nyeremény",-11.08712660160477],["gyöker",-11.08738589678882],["dicsér",-11.088366559294837],["bevonásá",-11.094949770245215],["létesít",-11.095501017789072],["felülvizsgál",-11.102499994984667],["Hódmezővásárhely",-11.106322265609602],["Széchenyi",-11.106322265636287],["Kolozsvár",-11.106322265639132],["mechanizmus",-11.106322265672635],["bevándorló",-11.106322266051432],["koncepció",-11.1063222666628],["burkolat",-11.10632226883504],["forradalom",-11.106322274063785],["evakuál",-11.106322319428275],["rugalmas",-11.106322331490553],["segéd",-11.106322586662426],["korrekció",-11.106322630778381],["gyülekez",-11.106322805545336],["Kórház",-11.106324864178658],["holttesté",-11.106328915022704],["Benedek",-11.10632988603933],["műhold",-11.106334587305607],["Újpest",-11.106335882547892],["Zöld",-11.106338560990887],["Tünd",-11.106370697644014],["kóstol",-11.106428685916077],["évfordulójá",-11.106525818849752],["fogadtá",-11.118270626100243],["szolidaritás",-11.125930108753408],["Székesfehérvár",-11.125930108755394],["kárpátaljai",-11.125930108761725],["depresszió",-11.12593010876557],["Igazgatóság",-11.125930109271152],["Jelentős",-11.125930112516695],["éghajlat",-11.125930119166554],["bizalom",-11.125930935239836],["gyilkol",-11.125931044293587],["Ágnes",-11.125931941808995],["mérsékelt",-11.125932098378673],["Tegnap",-11.12593247573748],["munkanélküliség",-11.12593587349905],["koszorú",-11.125936363341378],["státusz",-11.12593863977823],["Szerbia",-11.125946648250356],["fenyő",-11.125966609498985],["gárdá",-11.125995623735694],["vacsorá",-11.126033603717044],["Levent",-11.126082262571252],["lassít",-11.128822310158336],["lámpá",-11.141671994479792],["q",-11.144500673894726],["Ügynökség",-11.145930108778115],["Cristian",-11.145930109343823],["identitás",-11.145930335344746],["Petőfi",-11.145930440596667],["Polgár",-11.145930677955697],["tilalom",-11.14593470943781],["gyógyászat",-11.14594011097783],["zsarol",-11.145948309764053],["zaklat",-11.145956810482327],["Ronald",-11.14602746012426],["fokozód",-11.14604508729951],["összhangba",-11.146144763947866],["fertőz",-11.15660621406671],["fantasztikus",-11.166338272249789],["portugál",-11.166338272543616],["jégkorong",-11.166338309343748],["népszámlálás",-11.166338531633924],["gratulál",-11.16633854137493],["tartalmú",-11.16633855659907],["Stadion",-11.16633885963563],["tábla",-11.166338920746396],["Disney",-11.166338960738614],["szorgalmaz",-11.166339070808325],["ellenkező",-11.16634077029343],["kézilabda",-11.16634299095831],["David",-11.166344424277817],["fejlemény",-11.166345147252287],["illeszked",-11.16635193388868],["Fehéroroszország",-11.166353596981155],["Kézdivásárhely",-11.187171605345666],["ösztöndíj",-11.187171606736714],["podcast",-11.187171607156884],["Szilárd",-11.187171610662114],["szélsőséges",-11.187171611686333],["Technológia",-11.187171612605425],["publikál",-11.18717162109417],["Lőrinc",-11.187171671760265],["energiahordozók",-11.187171820731132],["donyeck",-11.187171828607859],["minősül",-11.187172780731085],["krízis",-11.187174249160694],["festmény",-11.187174945332611],["stabilizál",-11.187176555438995],["felesleges",-11.187176827407928],["centrum",-11.187177124861298],["pásztor",-11.187181742987718],["ć",-11.208448201090171],["szuverenitás",-11.208448201100024],["jubileum",-11.208448201176875],["Törvényszék",-11.20844820123082],["COVID",-11.20844820247708],["Február",-11.208448202749643],["Switch",-11.208448206870528],["Április",-11.208448213137647],["birkóz",-11.208448213644262],["Szlovéni",-11.208448252560597],["debütál",-11.20844878392171],["Palkovics",-11.20844915299754],["Verseny",-11.208449357271007],["Ukrán",-11.20845243396452],["elegáns",-11.208456881184986],["Legalább",-11.208482162942198],["Természet",-11.223127872265756],["Kereskedel",-11.230187331557463],["Szovjetunió",-11.23018733156365],["kereszteződés",-11.230187333071687],["aggodalom",-11.2301873332668],["kézműves",-11.230187347320134],["Lavrov",-11.23018750335515],["Madrid",-11.230187693125554],["gyakorlás",-11.230188666173893],["Truss",-11.230188898937378],["nadrág",-11.230192080610905],["sodród",-11.230217695109095],["indítványoz",-11.230236966661057],["motivál",-11.230307862538709],["észenlét",-11.230497672745042],["fejeződ",-11.239982828739926],["digitalizáció",-11.252409553905213],["koncentráció",-11.252409555014717],["művelődés",-11.25240955598119],["argentin",-11.252409556650704],["bántalmazás",-11.252409562505365],["felfüggesztés",-11.252409564566465],["Kisvárda",-11.252409653487328],["kivitelező",-11.252409742814297],["allergi",-11.252410076408635],["optimist",-11.25241010507819],["száguld",-11.252410252309662],["Litváni",-11.25241040560122],["hűvös",-11.252411408595309],["kedvezőtlen",-11.252417389183066],["örvend",-11.252506309940044],["lépéseke",-11.268590437614098],["republikánus",-11.275136826474453],["diagnosztizál",-11.275136826474455],["exkluzív",-11.27513682647757],["influenza",-11.275136826478963],["ösztönöz",-11.27513682676845],["bonyolult",-11.27513682792215],["katasztrófá",-11.275136827942191],["Görögország",-11.2751368297236],["szituáció",-11.27513694193803],["fojt",-11.275140847071388],["enyhül",-11.275146160533051],["ulturális",-11.286913910543863],["Portugáli",-11.29839264042804],["kongresszus",-11.298392640430635],["propaganda",-11.298392640469206],["producer",-11.298392667337971],["Június",-11.298392691210353],["Statisztik",-11.29839280469719],["rászorulók",-11.29839419903061],["Kérdés",-11.29839494083361],["szaporod",-11.298410171117629],["üdvözöl",-11.322202164241881],["Argentín",-11.322202164248019],["Kecskemét",-11.322202164254882],["Guardian",-11.322202164301615],["innovatív",-11.322202164647223],["hordónként",-11.322202175121749],["szürke",-11.322202197031622],["aktivitás",-11.322202204784622],["Bizony",-11.322202556379828],["Kálmán",-11.322202766703061],["mérgezés",-11.322203842263237],["kapaszkod",-11.32220804506058],["jelentkezte",-11.322292550769657],["fűződ",-11.32230034725182],["majomhimlő",-11.346592408139907],["laboratórium",-11.346592408139966],["diadalmaskod",-11.34659240815119],["ajdúböszörmény",-11.346592408171833],["bitcoin",-11.346592419675012],["egyiptomi",-11.346592419728747],["kilowatt",-11.346592424906689],["Óriási",-11.346592431011281],["szennyezés",-11.34659243576413],["World",-11.346592564235273],["dinamikus",-11.346592703352153],["krónikus",-11.34659286219543],["oszovó",-11.346597815034656],["honfitárs",-11.34662974332252],["ozdít",-11.349850589396137],["Technolog",-11.371592408141542],["intelligenciá",-11.3715924081589],["demokrácia",-11.371592408269336],["Fülöp",-11.371592431744627],["Norvégi",-11.3715926200031],["tranzit",-11.371592639225625],["hosszas",-11.371592735035302],["feküd",-11.371592990170159],["autonóm",-11.371593143631767],["ákóczi",-11.371593190028596],["buzdít",-11.371598509116284],["felderít",-11.373931370845764],["regisztráció",-11.397233433800565],["Vodafone",-11.397233434435277],["objektum",-11.397233435035139],["hajléktalan",-11.397233440226803],["kockáztat",-11.397233479357412],["Épít",-11.397674892149478],["demonstráció",-11.423549223256732],["kompromisszum",-11.423549223259112],["kézdivásárhelyi",-11.423549223303835],["ollywood",-11.42354922355122],["kritizál",-11.423549224222569],["rosszindulatú",-11.423549225943265],["nagyszabású",-11.423549240617053],["integrál",-11.4235492523279],["pletyká",-11.423549350318996],["végrehajtani",-11.423549412538108],["ritmus",-11.42354950509607],["felelőtlen",-11.42354955337172],["George",-11.423550273881157],["Vásárhely",-11.423550751441512],["Oscar",-11.42355080433713],["erkölcs",-11.423550989516375],["csecsemő",-11.423553358790343],["trükkö",-11.444356200455573],["katasztrófa",-11.446660303483183],["prognózis",-11.450576250328343],["Ügyészség",-11.45057625047759],["kategória",-11.450576250519884],["elektronika",-11.450576252176823],["szocialist",-11.45057625452581],["Járásbíróság",-11.450576256183556],["hazugság",-11.450576275556326],["lövedék",-11.450576284385189],["Erdogan",-11.450576376436661],["terjeszked",-11.450576460171513],["hajlamos",-11.450576786501966],["Pénzügy",-11.450577034816261],["«",-11.478354028059414],["Zaporizzsja",-11.478354028059417],["Ifjúság",-11.478354028151731],["International",-11.478354028197415],["konferencia",-11.478354028365356],["kigyullad",-11.478354029280084],["Richárd",-11.47835402938366],["Véleménye",-11.478354032604706],["szilveszter",-11.478354039436258],["ortodox",-11.478354073079817],["Súlyos",-11.47835489117413],["metaverzum",-11.506925457037763],["kirándulás",-11.506925457143788],["jellegzetes",-11.506925462408597],["motiváció",-11.506925505033804],["apropójá",-11.506925511766626],["fuvaroz",-11.50692586035984],["szőnyeg",-11.506926622959025],["csábít",-11.50694192873126],["bevándorlás",-11.536337221833138],["aggodalmak",-11.536337222627584],["periódus",-11.536337226285099],["zarándok",-11.536337226605431],["kombináció",-11.536337230456835],["provokáció",-11.536337235083366],["koordinál",-11.536337239591784],["monoxid",-11.536337240838279],["ajdúnánás",-11.53680225232845],["ergiahatékonyság",-11.551227103767397],["ý",-11.566640251639756],["zaporizzsja",-11.566640251639889],["kolozsvári",-11.566640251641266],["paradicsom",-11.566640252282735],["enyhébb",-11.56664025291861],["fosszilis",-11.566640253541962],["szennyező",-11.56664025636493],["Folytatód",-11.566640256618243],["garanciá",-11.566640466741557],["nfrastrukturális",-11.597890251639756],["Windows",-11.59789025165764],["Kazahsztán",-11.59789025199026],["Ryanair",-11.597890252100076],["likviditás",-11.597890252509902],["Elképesztő",-11.597890253676324],["Mikolajiv",-11.597890262199908],["Mentőszolgálat",-11.59789026252936],["büdzsé",-11.597890378266781],["bizakod",-11.597896106015273],["integráció",-11.597961704687915],["akvizíció",-11.630148316167402],["Biztonság",-11.630148317030336],["aktivistá",-11.630148339606686],["kukorica",-11.630148483285756],["cselekedet",-11.63015077724232],["gomolyfelhő",-11.630163481274145],["ä",-11.663481649489215],["è",-11.663481649489217],["optimalizál",-11.663481649490802],["jelzáloghitel",-11.663481649493487],["influenszer",-11.663481649497585],["Bloomberg",-11.663481649506833],["asszisztens",-11.663481649554148],["zsugorod",-11.66348164962764],["Tudományegyetem",-11.66348164965487],["tinédzser",-11.663481649844812],["törlesztőrészlet",-11.663481650805007],["struktúrá",-11.663481650978241],["intelligens",-11.663481651913044],["Mercedes",-11.663481652113752],["ambíció",-11.663481654318513],["Tudományos",-11.663481664954762],["Folyamatos",-11.66348166971645],["Marosvásárhely",-11.663481684923694],["árplafon",-11.663481951493994],["gyertyá",-11.663481975321917],["Iskolá",-11.663492876791764],["rankfurt",-11.66349673106071],["Labdarúgó",-11.69796440811027],["ökoszisztém",-11.697964408504188],["konszenzus",-11.69796440878503],["Koalíció",-11.697964408878057],["kritérium",-11.697964410405014],["Matolcsy",-11.697964410614002],["erőfeszítései",-11.697964508143638],["zeretetszolgálat",-11.705792097508247],["Š",-11.733678693824196],["Volkswagen",-11.733678693824196],["reprezentatív",-11.733678693824302],["katasztrofális",-11.73367869382627],["diagnózis",-11.73367869384791],["Matovič",-11.733678693864501],["szivattyú",-11.733678694189319],["ösztönzés",-11.733678694574001],["bocsánato",-11.733678699596824],["nacionalist",-11.733678702413203],["struktúra",-11.770715729804614],["gasztronómia",-11.770715730864147],["*",-11.809177269322769],["Ű",-11.80917726932277],["Ľ",-11.80917726932277],["Č",-11.809177269322774],["Dzsudzsák",-11.809177269322973],["Hajdúszoboszló",-11.809177269323033],["diósgyőri",-11.809177269348606],["alumínium",-11.809177269372434],["szankcionál",-11.809177269392098],["integritás",-11.809177269441742],["zerbajdzsán",-11.809177269507547],["lélegeztetőgép",-11.849177269323736],["szimbolikus",-11.849177269376684],["alatonfüred",-11.849177300535569],["â",-11.890843935989434],["ț",-11.890843935989436],["Kormányinfó",-11.890843935992782],["Csíkszereda",-11.890843935999172],["gameplay",-11.890843936010144],["agglomeráció",-11.890843936012248],["rehabilitáció",-11.890843936037603],["Alekszandr",-11.890843936166805],["ceremóniá",-11.89084393687725],["gördülékeny",-11.934322196859005],["Pedagógusok",-11.934322196861622],["zökkenőmentes",-11.934322196864134],["skandináv",-11.93432219687267],["billentyű",-11.934322196881403],["karamboloz",-11.934322198223008],["Kazincbarcika",-11.979776742313547],["propagandá",-11.97977674251553],["Activision",-12.027395789933582],["Ș",-12.077395789932591],["õ",-12.077395789932595],["Tájékoztatás",-12.077395789932826],["átoraljaújhely",-12.077395789949062],["üspökladány",-12.07739595202702],["Kézilabd",-12.077395970116207],["°",-12.130027368879965],["•",-12.18558292443552],["Berettyóújfalu",-12.185582924435527],["î",-12.244406453847287],["zázhalombatta",-12.244406453951118],["ž",-12.30690645384729],["—",-12.445001691942558],["ş",-12.445001691942558],["à",-12.521924768865677],["ľ",-12.521924768865677],["̋",-12.605258102199114],["û",-12.605258102199116],["ł",-12.696167193108476],["ď",-12.796167193109248],["−",-12.907278304222833],["ţ",-12.907278304222833],["ë",-12.907278304222833],["ř",-13.032278304231937],["ç",-13.175135447089085],["×",-13.17513544712904],["Ž",-13.34180211375575],["ğ",-13.341802113795708],["ě",-13.341802113795708],["å",-13.541802113755748],["️",-13.541802113795708],["~",-13.791802113795708],[">",-13.791802113795708],["$",-13.791802113795708],["❗",-13.791802113795708],["‘",-13.791802113795708],["®",-13.791802113795708],["μ",-13.791802113795708],["‐",-13.791802113795708],["ę",-14.125135447089082],["ā",-14.125135447129034],["Ç",-14.12513544712904],["ô",-14.12513544712904],["³",-14.12513544712904],["Ț",-14.12513544712904],["ť",-14.12513544712904],["ï",-14.625135447089082],["Ä",-14.62513544708909],["ʼ",-14.625135447129031],["<",-14.62513544712904],["ð",-14.62513544712904],["€",-14.62513544712904],["Å",-14.62513544712904],["·",-14.62513544712904],["‑",-14.62513544712904],["²",-14.62513544712904],["‒",-14.62513544712904],["ñ",-14.62513544712904],["ã",-14.62513544712904],["ń",-15.62463544712904],["ň",-15.624735447129039],["Đ",-15.62483544712904],["̈",-15.62493544712904],["đ",-15.62503544712904],["Ø",-15.625135447129017],["Ć",-15.62513544712904],["†",-15.62513544712904],["ò",-15.62513544712904],["ø",-15.62513544712904],["Õ",-15.62513544712904],["µ",-15.62513544712904],["‼",-15.62513544712904],["§",-15.62513544712904],["Ď",-15.62513544712904],["´",-15.62513544712904],["È",-15.62513544712904],["﷯",-15.62513544712904],["β",-15.62513544712904],["Ş",-15.62513544712904],["➡",-15.62513544712904],["Ţ",-15.62513544712904]]}}