{"version":"1.0","truncation":null,"padding":null,"added_tokens":[{"id":0,"special":true,"content":"<UNK>","single_word":false,"lstrip":false,"rstrip":false,"normalized":false},{"id":1,"special":true,"content":"<SEP>","single_word":false,"lstrip":false,"rstrip":false,"normalized":false},{"id":2,"special":true,"content":"<MASK>","single_word":false,"lstrip":false,"rstrip":false,"normalized":false},{"id":3,"special":true,"content":"<CLS>","single_word":false,"lstrip":false,"rstrip":false,"normalized":false}],"normalizer":null,"pre_tokenizer":{"type":"Whitespace"},"post_processor":null,"decoder":null,"model":{"type":"Unigram","unk_id":0,"vocab":[["<UNK>",0.0],["<SEP>",0.0],["<MASK>",0.0],["<CLS>",0.0],["a",-2.6617267028515457],[",",-2.920297598167817],[".",-3.3362541706993785],["t",-3.8172244247926432],["az",-3.926702053721492],["n",-4.280224905898301],["i",-4.381066653292665],["és",-4.385548114319663],["A",-4.402976791906742],["-",-4.412628001904075],["hogy",-4.63531025513309],["k",-4.638136051614113],["is",-4.648834768343301],["nem",-5.135276106514985],["egy",-5.135855335915016],["nak",-5.139057773643424],["ban",-5.16440363240147],["ben",-5.1695277464991065],["nek",-5.321288925230418],["e",-5.4440712677641425],["Az",-5.457733525847129],["en",-5.459718056018152],["meg",-5.476969973819601],["re",-5.538381504361723],["s",-5.615362276711268],["ra",-5.6286629875572896],["et",-5.631531192851414],["el",-5.703170329167371],["ki",-5.788867876410961],["–",-5.849208620240454],["m",-5.869086250450815],["ik",-5.909618986269155],["on",-5.9332803128811324],["be",-6.038085919845447],["g",-6.044470522950796],["szerint",-6.053702492224584],["de",-6.059145939022818],["volt",-6.061138707417255],[":",-6.0876936311657595],["már",-6.1200138725556155],["át",-6.252847988755107],["van",-6.312336147640485],["ott",-6.319092792114494],["\"",-6.322836919343413],["csak",-6.323121996250668],["ek",-6.352318604583701],["mint",-6.352701628251186],["még",-6.362218446223453],["ez",-6.40097914266185],["több",-6.410595517246028],["ok",-6.443563808371675],["20",-6.463363703678722],["pedi",-6.464601542175721],["fel",-6.485392423876016],["vel",-6.499677092081642],["ot",-6.501500284032069],["ák",-6.502827247569833],["vagy",-6.533446426755937],["(",-6.567239179608668],["hoz",-6.5872134999463245],["ha",-6.600481872958689],[")",-6.6025375238182775],["ból",-6.605434049448146],["év",-6.606665632748729],["ról",-6.609181480744413],["sem",-6.627997834368248],["kell",-6.633353944774161],["mi",-6.636237664988126],["ért",-6.648799217827696],["ről",-6.649818148813447],["azt",-6.6606617428841535],["val",-6.664431400197536],["százalék",-6.669545223052214],["után",-6.693848306927574],["amely",-6.704808498833367],["es",-6.724069061557492],["le",-6.733822285222288],["majd",-6.737098774030381],["két",-6.7438411952053325],["unk",-6.757115972130121],["okat",-6.768395109379291],["lehet",-6.768398341891121],["”",-6.791284919289275],["nagy",-6.7915235424756375],["ő",-6.805344428865428],["ig",-6.807085465605903],["kal",-6.81601453604415],["ként",-6.816616867629881],["magyar",-6.837038508796763],["lesz",-6.850430803278701],["ami",-6.855335826016753],["ni",-6.857926100544951],["orosz",-6.858513056912783],["ul",-6.871040861847537],["miatt",-6.87511960727842],["úgy",-6.901283457905877],["így",-6.905732873109678],["ják",-6.912184999816382],["1",-6.917266054233239],["ünk",-6.91820247494378],["2",-6.918553181607778],["hez",-6.93869333943779],["ó",-6.947991277304444],["Ez",-6.954585740435686],["új",-6.960761091782948],["ből",-6.964740058137315],["M",-6.97599630108977],["minden",-6.977011899629875],["tól",-6.98039163666165],["első",-6.980856190934246],["olyan",-6.9940450577675515],["z",-7.028487133829389],["ék",-7.040980543418243],["án",-7.052478907431985],["között",-7.05362955265281],["leg",-7.087337601682859],["„",-7.0936200947530965],["aki",-7.110668637941227],["ja",-7.131065597658308],["től",-7.143181945183291],["akkor",-7.151427752654166],["ták",-7.172130409682836],["3",-7.174957499552867],["5",-7.181899555699945],["va",-7.1858092444859665],["forint",-7.200778607362686],["éves",-7.203514384988462],["mert",-7.205837689489811],["nál",-7.206469144968603],["azonba",-7.207144809467904],["os",-7.210180175476657],["?",-7.2177309881771095],["ük",-7.222427256406231],["mondta",-7.244767324324058],["nél",-7.250231543696523],["mellett",-7.253258266357775],["ve",-7.254955933942795],["d",-7.258899683055327],["egyik",-7.262631839434731],["S",-7.263670106512446],["eket",-7.265836332737941],["ba",-7.2670065026234365],["most",-7.271800382476743],["arra",-7.275876114908326],["b",-7.2770317480131785],["jó",-7.284849743969375],["én",-7.306633009771328],["uk",-7.307758576126532],["ának",-7.318368329783815],["r",-7.334811567401135],["!",-7.338010138350663],["4",-7.367245435218388],["l",-7.3703045684809885],["K",-7.371534121915199],["sal",-7.372610420146817],["ukrán",-7.374535704164275],["h",-7.390271976021698],["sok",-7.403166103531398],["ezt",-7.404120285270832],["millió",-7.41085199903905],["fog",-7.416597449929409],["más",-7.420773628491201],["által",-7.421575701280154],["Egy",-7.4313280241052775],["ában",-7.432052418140441],["előtt",-7.436075510718224],["ezer",-7.446167418809262],["19",-7.447394301169802],["kormány",-7.450504411301824],["y",-7.456166530777711],["tovább",-7.458693022150007],["akik",-7.476914723251632],["tud",-7.480230529352511],["tal",-7.484824472113395],["milliárd",-7.497997222027149],["amikor",-7.517022782276684],["hét",-7.52717590905796],["alatt",-7.530278365079889],["ét",-7.535367599754162],["óta",-7.547027950255588],["ország",-7.550108799468725],["Ha",-7.551612927917298],["hozzá",-7.555071329931291],["kat",-7.560971880837167],["három",-7.565927942513975],["ett",-7.566949580234345],["rról",-7.573181759886498],["E",-7.577988426133832],["o",-7.584035790224905],["Nem",-7.586374328787333],["P",-7.5916892622799725],["számár",-7.60089382225429],["vissza",-7.621021472751157],["ára",-7.628165789694861],["ahol",-7.634502450079306],["világ",-7.647412086320206],["6",-7.649450852939437],["7",-7.651997911428859],["kor",-7.652556461321723],["202",-7.654527693361813],["valamin",-7.662824419891975],["juk",-7.668922928713295],["ne",-7.670487520188992],["tak",-7.671294235668417],["ellen",-7.672849685058018],["háború",-7.68047865114172],["ember",-7.685249870347491],["Európa",-7.686489454859937],["Oroszország",-7.688744115261555],["10",-7.699943284251006],["rá",-7.701215634201428],["8",-7.704076192744729],["ében",-7.707103233922594],["ték",-7.709758751679087],["lett",-7.709844139366531],["B",-7.709854929904213],["hat",-7.709938001080212],["agyon",-7.714510987924395],["áll",-7.725592430673073],["voln",-7.72715898396515],["közben",-7.755520637392932],["ének",-7.7573852180112075],["teljes",-7.75787957100817],["egész",-7.759535046722444],["ával",-7.765244732594453],["mind",-7.768806721637107],["ú",-7.771365501655636],["hisze",-7.771914730615617],["viszont",-7.776836535626865],["Magyarország",-7.781347627540004],["C",-7.781394416626245],["ül",-7.783517399562813],["Mi",-7.784675795586606],["ugyanis",-7.784800736373353],["példá",-7.785908084483628],["em",-7.791879325508529],["csapat",-7.793263167005254],["illetve",-7.801088899352561],["kel",-7.803123507873145],["nap",-7.804695422037172],["é",-7.8087328005951155],["amit",-7.809531087884557],["cég",-7.818982564246439],["ű",-7.82163529768409],["annak",-7.8258265475323805],["ezek",-7.831584180045814],["0",-7.832565686094012],["való",-7.841007486268988],["elmúlt",-7.844279522560087],["fő",-7.8446162082198345],["hanem",-7.847365670797072],["második",-7.851008021109022],["15",-7.8519713607837565],["ilyen",-7.854701212785856],["sz",-7.855159475721876],["férfi",-7.856974223915664],["amelyek",-7.858247988910013],["sel",-7.866709528535136],["míg",-7.8724444991276386],["elnök",-7.872838946357343],["eset",-7.8738385997090505],["om",-7.882619773214424],["bb",-7.89075102424725],["G",-7.891824349999792],["adott",-7.901069483050151],["akár",-7.902252473169493],["9",-7.905671807950145],["közölte",-7.907108186053449],["R",-7.931006642617065],["tette",-7.940395487604836],["legnagyobb",-7.945861020471748],["százalékos",-7.946043799730085],["korábba",-7.946601196364067],["milyen",-7.947064942311268],["jelentős",-7.954437760361786],["helyzet",-7.962077022681333],["össze",-7.964683640775129],["fontos",-7.966162084489701],["elő",-7.967716503490727],["30",-7.968300511194158],["előre",-7.969097406464665],["je",-7.973601249867708],["került",-7.977844623676173],["évek",-7.9843659128112225],["nincs",-7.985724439262166],["nagyobb",-7.986461080134411],["tek",-7.986508894525399],["H",-7.987708239815485],["18",-7.988882108875363],["saját",-7.991234281210567],["De",-7.994597395683003],["te",-8.002539072299477],["felé",-8.002919601482404],["mely",-8.003632247179556],["amerikai",-8.007408627832369],["során",-8.010007935818017],["emberek",-8.012316377469936],["jól",-8.024555500095142],["azért",-8.026930295793633],["Magyar",-8.035912860195225],["idő",-8.040293014064467],["ás",-8.043890106604987],["22",-8.046558194942383],["ezér",-8.048684631889667],["F",-8.052344904374683],["alapján",-8.054200403890011],["idén",-8.060668868808971],["négy",-8.062876605775529],["ám",-8.06381276011007],["szemben",-8.070747262714427],["er",-8.07296809525258],["eddig",-8.076285907713604],["ekkel",-8.07920053544695],["zal",-8.081311516611816],["jük",-8.082115442673274],["ár",-8.084284381544236],["együtt",-8.085868516753202],["részt",-8.086063161729761],["nélkül",-8.090123526865625],["másik",-8.091887887088443],["európai",-8.096533686539928],["túl",-8.10230181996862],["újabb",-8.102315895398899],["ével",-8.105532072483744],["ad",-8.11815715519564],["gazdasági",-8.12213165715691],["p",-8.125742567888437],["játék",-8.128673146913876],["L",-8.131725423437704],["itt",-8.13521358338841],["gy",-8.139691894196435],["T",-8.140514297709824],["lenne",-8.14207404229293],["közel",-8.146702091999234],["ezzel",-8.147048367153012],["ére",-8.147302985158959],["szó",-8.148653697827502],["I",-8.154249440212354],["Nagy",-8.155927126702375],["fél",-8.160102377619538],["vezető",-8.161237178363208],["kellett",-8.164631418878567],["hazai",-8.173278783232188],["újra",-8.176876485327863],["nő",-8.178827757551339],["közül",-8.180914849646538],["hónap",-8.182424927778346],["történt",-8.187519303690928],["egyre",-8.18999208113269],["jövő",-8.191163447713244],["voltak",-8.1914454247201],["szinte",-8.192303497107739],["ön",-8.19402891603945],["őket",-8.19445743449202],["időszak",-8.202683692673967],["öt",-8.207117230786778],["c",-8.207845816682912],["néhány",-8.209594458977712],["f",-8.211600802203707],["korábbi",-8.214745255397832],["város",-8.21892005687273],["mal",-8.221398733451107],["bban",-8.225598694450003],["elmondta",-8.23394991307458],["ennek",-8.240461748482911],["kérdés",-8.242415166948863],["D",-8.246665503349298],["perc",-8.246796109023776],["következő",-8.247062989168407],["v",-8.248457364471768],["j",-8.250525648591871],["12",-8.251796040957224],["él",-8.255412496279188],["Ukrajna",-8.257931605229391],["gal",-8.260316841917735],["család",-8.260396750555628],["rendszer",-8.26337809344722],["kapott",-8.263512276367802],["belül",-8.284321143006338],["ött",-8.286800628854884],["jelenleg",-8.289341172713634],["infláció",-8.291655963646196],["tett",-8.29300724275432],["Egyesül",-8.299354291122516],["jelent",-8.300368573203606],["miniszter",-8.305576088408746],["további",-8.307748799826376],["azok",-8.31359596022504],["gel",-8.314293225544887],["tavaly",-8.314306538772758],["14",-8.314385527828769],["21",-8.315658941296917],["utolsó",-8.316609721327477],["V",-8.317911188258439],["része",-8.321018578141409],["vár",-8.33304629771715],["képest",-8.334362974090844],["ugyan",-8.337031380043875],["okkal",-8.338071343246185],["25",-8.342531583890612],["13",-8.345570078516054],["megfelelő",-8.345712892302515],["unió",-8.345878380751104],["Mint",-8.352322470875631],["lévő",-8.35881259691882],["hát",-8.359040125434241],["kap",-8.359779109039055],["euró",-8.361685373544884],["követőe",-8.364836970307008],["Péter",-8.366893278289547],["Magyarországon",-8.367000380085473],["bár",-8.36783080646228],["közös",-8.367887240657433],["kerül",-8.368704715883295],["száma",-8.374222729445915],["17",-8.376845204521693],["50",-8.377301708831688],["támogatás",-8.380508230682583],["Orbán",-8.380805984117181],["mindenki",-8.380913669446116],["sikerült",-8.385097383144828],["szükség",-8.390418496949781],["harmadik",-8.392146169284107],["helyi",-8.392759224877528],["legyen",-8.397751578674335],["pár",-8.397934186690438],["nemzetközi",-8.40125161231224],["jelentette",-8.402127029299827],["24",-8.405511178394601],["erre",-8.407348809131236],["/",-8.41242637573183],["ebben",-8.412482398178716],["11",-8.413793449036909],["éve",-8.415033184462898],["érdeké",-8.417662234691527],["tartott",-8.433862781221652],["magát",-8.435039700161335],["16",-8.43562792668247],["később",-8.441638615021748],["közösségi",-8.444311181726748],["miniszterelnök",-8.444381200279146],["mel",-8.447219542316148],["este",-8.449675278089025],["program",-8.450788132075441],["élet",-8.45374117112676],["álló",-8.453875582337702],["erős",-8.454202349458484],["érkezett",-8.457122701798053],["kis",-8.457519689010851],["ismét",-8.459943460518385],["indig",-8.461749518268661],["inkáb",-8.461848701877821],["magas",-8.467386174803067],["víz",-8.46804679167192],["vállalat",-8.468314902849087],["hosszú",-8.471194653490588],["jár",-8.475407710808492],["alá",-8.475879099787456],["mikor",-8.479623103450983],["elleni",-8.481182513068406],["Putyin",-8.487461725775692],["gáz",-8.493344444531918],["című",-8.494628519293677],["sokkal",-8.4956540565418],["autó",-8.496935959142995],["szintén",-8.498393579856767],["védelmi",-8.504763376138325],["fogalmaz",-8.505671918231243],["végül",-8.513878974170103],["sor",-8.514057212454375],["O",-8.51406239905199],["fiatal",-8.514561197487676],["miután",-8.516763188947753],["múlt",-8.517347512982052],["pont",-8.519073380556467],["ház",-8.5233239720556],["ukrajnai",-8.52630136826456],["keresztül",-8.529975816451469],["oldal",-8.540071499514848],["oldalán",-8.540386991904523],["számos",-8.542636633112611],["Már",-8.545094139934946],["helyen",-8.549866165546808],["rendőrség",-8.550676172138779],["TI",-8.551914195293048],["Ezek",-8.553357442361404],["rel",-8.555067551338212],["éppen",-8.556331360762659],["út",-8.557046543789085],["mit",-8.557193928380084],["szeretné",-8.557375477152036],["dolgoz",-8.557940315997445],["hol",-8.56044707999412],["23",-8.562198533739913],["vált",-8.567497993630337],["ügy",-8.569900985706518],["választás",-8.57152435971247],["járvány",-8.577059359393383],["végén",-8.578505108042979],["komoly",-8.581696159319382],["Budapest",-8.583090221158095],["elég",-8.584619480366769],["szabad",-8.588814981015002],["képes",-8.58944588951825],["állam",-8.590355661425377],["200",-8.590368319286195],["lag",-8.594322475044885],["írja",-8.595430096745794],["40",-8.595926653790624],["ed",-8.59771988225454],["írta",-8.597956067797199],["katonai",-8.59797099669356],["politikai",-8.602905782497373],["azon",-8.603497756569347],["legalább",-8.604927045237513],["vasárnap",-8.611208582129958],["csoport",-8.612939142542132],["szervezet",-8.614238132959098],["bele",-8.614940662414991],["EU",-8.619377245401772],["het",-8.620031643748208],["előző",-8.620441833896383],["egyes",-8.621172255047957],["koronavírus",-8.621858964587382],["ment",-8.625028975383547],["kívül",-8.62579598018402],["ezen",-8.627627757191776],["órá",-8.629776906937066],["Meg",-8.631570769829509],["beszélt",-8.631786376087337],["otthon",-8.632506066063051],["Viktor",-8.632562612122527],["óra",-8.634182102257483],["jobb",-8.634435273416909],["önkormányzat",-8.634763193826501],["gazdaság",-8.63488974746577],["elnöke",-8.635684071730871],["egyébkén",-8.638285022256948],["piac",-8.640695745491108],["nehéz",-8.641005253239939],["cél",-8.641133708139776],["baleset",-8.643145540386456],["ából",-8.643176098641183],["mennyi",-8.643493133916074],["Ezt",-8.646138856597943],["megoldás",-8.647062487418953],["marad",-8.647917007529454],["mond",-8.648586526432688],["vezetője",-8.6517792657706],["december",-8.652001736198038],["tart",-8.652577758760367],["egymás",-8.65297515900659],["jön",-8.653548798574192],["ztán",-8.655419177964706],["német",-8.656445125790178],["tíz",-8.657978115382752],["energia",-8.658852022666679],["László",-8.658933038579312],["tudja",-8.661540756747806],["Bár",-8.66207126739847],["verseny",-8.662079422959346],["biztos",-8.665722962781176],["tunk",-8.668344258961088],["vette",-8.669330835854693],["zel",-8.671580254104185],["utóbbi",-8.672568993679555],["ellenér",-8.674939139461467],["kevés",-8.678053570922318],["maguk",-8.678458821356884],["idei",-8.678767295145892],["november",-8.680057628842752],["ket",-8.683720084107618],["csökkent",-8.684057131837754],["nőtt",-8.68434301245927],["100",-8.684807213278724],["szint",-8.686704988217151],["U",-8.68784882475941],["jon",-8.688914052666707],["lehetőség",-8.689905964016994],["gyermek",-8.690373555245333],["állt",-8.691611345551216],["akar",-8.692906715945114],["Államok",-8.694269718735686],["élő",-8.69536399255121],["fok",-8.69819460768283],["üzlet",-8.700708766989742],["pénz",-8.701052081740063],["se",-8.701128069635239],["od",-8.701171713576318],["ugyanakkor",-8.704189684244925],["Nemzeti",-8.706095746507447],["tudta",-8.707298045835993],["megyei",-8.708561146673688],["dollár",-8.7099251739136],["szükséges",-8.712828196082254],["történ",-8.71649762963704],["ők",-8.720503701613254],["elején",-8.72334519194251],["neki",-8.725098924526606],["szeptember",-8.727079048629918],["legjobb",-8.727849814791723],["pénteken",-8.728840477615393],["á",-8.729255431892579],["igen",-8.729827801510838],["szankciók",-8.72983801116279],["ság",-8.730313950426808],["kapcsolat",-8.737893158056607],["Úgy",-8.738043682876745],["benne",-8.738481380663512],["október",-8.739335028178857],["legtöbb",-8.739931152086887],["rendőrök",-8.747045250941863],["Most",-8.74723682520401],["u",-8.749769833260913],["vele",-8.750369742434762],["érdemes",-8.751867688655146],["kisebb",-8.753110450587348],["köszönhető",-8.753798991418119],["áról",-8.755388730408967],["ját",-8.755527171349673],["brit",-8.757053661023653],["határ",-8.759724254172044],["működ",-8.759890689442873],["maga",-8.760587338422305],["szám",-8.760880702812592],["hasonló",-8.761170441431029],["végé",-8.761556211900462],["tűn",-8.76341574686791],["Enne",-8.763917194975889],["egyetlen",-8.765687633409772],["annyi",-8.767766611082422],["adatok",-8.768461855748203],["készült",-8.770747239219117],["teszi",-8.771223244329427],["délután",-8.772819669083653],["jelen",-8.772895681296406],["István",-8.774278109534368],["tel",-8.774818267717524],["Í",-8.774928592709994],["miért",-8.776856247386583],["magá",-8.778028346204307],["csütörtökön",-8.778998822949537],["Több",-8.779929938120324],["eseté",-8.780159694554003],["munka",-8.78074412409443],["ismert",-8.780803737808828],["vett",-8.786180007222201],["kevesebb",-8.78799375202107],["fejlesztés",-8.788874159935778],["N",-8.793311321800765],["érték",-8.798518619300754],["módo",-8.799231947631174],["különböző",-8.800215457029772],["lap",-8.801253219011858],["alkalom",-8.802350840621218],["folyamatosa",-8.80258445284386],["szóló",-8.803232073829156],["hatalmas",-8.80742554688873],["növekedés",-8.809018995485921],["ral",-8.810939975693614],["támadás",-8.811721835695302],["film",-8.812112016093725],["napi",-8.813079315001543],["esett",-8.814904867485598],["né",-8.815815491101658],["súlyos",-8.81632606273482],["sokat",-8.816498571581207],["várható",-8.818256351283413],["ség",-8.818533763282595],["line",-8.81998881721081],["készül",-8.82138326100938],["jelenlegi",-8.826137114529653],["született",-8.829430477162406],["kapcsolatba",-8.832081894419638],["állami",-8.832928747564242],["kapta",-8.834279690817208],["piaci",-8.834528721801192],["összes",-8.837104343067775],["El",-8.837822600055851],["árak",-8.838126572528534],["helyszín",-8.839320166410769],["hétfőn",-8.843456921521454],["napon",-8.846775241961874],["mai",-8.847826849677377],["helyett",-8.847889456842505],["jobba",-8.851427666318303],["sorozat",-8.853343188157734],["látható",-8.855479368847764],["indult",-8.858746761769838],["reggel",-8.861142619727232],["al",-8.86129431039112],["szerdán",-8.861902546003867],["részé",-8.864973689800408],["országok",-8.864986006931803],["gyerekek",-8.865770618929734],["szövetség",-8.86685818079265],["ráadás",-8.868682866545047],["körül",-8.868995551275928],["“",-8.873633303909653],["És",-8.874019833630582],["Z",-8.874520949266763],["adó",-8.878165788535163],["rövid",-8.881358864001019],["vesz",-8.88177692211154],["képviselő",-8.884404194191564],["figyelmet",-8.887276708851237],["alap",-8.888168267073308],["rossz",-8.888565083378438],["cégek",-8.892363917177272],["jött",-8.893098812980245],["forinto",-8.89375263083219],["jelenti",-8.895358108210017],["ették",-8.902657382551967],["kedden",-8.908458508254881],["március",-8.912361340385155],["tesz",-8.912767040347312],["száz",-8.912878897870812],["emelkedett",-8.915700652981979],["forintos",-8.916069287274151],["semmi",-8.916359300636245],["hivatalos",-8.917399647325777],["ezelőtt",-8.921249819390754],["hír",-8.922043395126504],["tudni",-8.92207352617689],["kább",-8.923289374916706],["elérhető",-8.924805069504018],["60",-8.925007716689176],["előszö",-8.926597711033612],["olaj",-8.927911237976742],["régió",-8.930293453492789],["döntött",-8.931403517806295],["esetén",-8.932996589524128],["személy",-8.933212540703794],["külön",-8.933776764499033],["kkal",-8.938076092593107],["sport",-8.938536929565135],["magasabb",-8.938551047700022],["kiderült",-8.93907134817374],["valaki",-8.940439306186514],["minisztérium",-8.940657255558898],["eszközök",-8.94133272792557],["oda",-8.946102543588376],["valószínű",-8.947754509464069],["parlament",-8.948350385548698],["szolgáltatás",-8.950129476159207],["valami",-8.952753550378917],["Minden",-8.953180839671532],["mindent",-8.953836631263826],["válogatott",-8.955974031200485],["ához",-8.958185316124396],["egészségügyi",-8.960422187535421],["párt",-8.96216767166688],["27",-8.963695386153173],["lépés",-8.963869190366912],["május",-8.964516554877536],["vonatkozó",-8.964597788706175],["legfontosabb",-8.970087255497624],["áig",-8.971826308672021],["kapcsolatos",-8.9719997817541],["addig",-8.973832789329691],["található",-8.974298760673399],["hatóságok",-8.974803438818041],["azonnal",-8.977165495245346],["szombaton",-8.977456708191795],["Bizottság",-8.978286296090419],["biztonsági",-8.980207912873997],["döntés",-8.981399731568164],["épület",-8.981617723291695],["Ki",-8.982655008873492],["február",-8.984509312217924],["hely",-8.986802459275111],["maradt",-8.98887844545062],["termékek",-8.994350596022304],["többször",-8.995601828023503],["ukat",-8.99635688350466],["szép",-8.997404426147096],["átlagos",-8.999105746778673],["augusztus",-8.999278539569252],["hangsúlyozt",-8.999873237226105],["Egyetem",-9.001233957086923],["abb",-9.001924494874423],["őt",-9.002423739989617],["lány",-9.002892661461658],["érintett",-9.003536841770662],["haza",-9.006753707358367],["kapcs",-9.006950059877301],["János",-9.00873865524284],["tér",-9.009956026938575],["ol",-9.01003858630433],["orban",-9.012163521866402],["erők",-9.013040769646622],["oroszok",-9.013085038265512],["csup",-9.015794776875495],["lakosság",-9.016755090593541],["talán",-9.018666075125973],["segítségé",-9.019447143033558],["január",-9.019744115607818],["életét",-9.020476549933484],["gyerek",-9.023591296458129],["tartó",-9.024245634696591],["Zr",-9.024803512419652],["cs",-9.027327768717953],["ál",-9.028580483464285],["közötti",-9.029611343155622],["Hozzátette",-9.030233001065902],["köztü",-9.030850411983204],["számít",-9.031988187217516],["dal",-9.033029926955894],["sőt",-9.039358346198156],["rengeteg",-9.039531715236784],["Bank",-9.03957222306958],["lenni",-9.03958987602346],["nevezett",-9.039672745889963],["kellene",-9.041575980872723],["senki",-9.041728296867316],["használ",-9.04222974653165],["július",-9.042277631883211],["kutatás",-9.042749376504638],["pénzügyi",-9.043717941893954],["jutott",-9.044333291469247],["végre",-9.044350454430578],["80",-9.046559970828042],["mutat",-9.046580245901165],["eh",-9.04792711424168],["NATO",-9.04859438412035],["azóta",-9.049755896565504],["társaság",-9.050058440798988],["számolt",-9.052363520038],["kórházba",-9.056878318013766],["Unió",-9.057179846968495],["adatai",-9.059170137927364],["szél",-9.059347943910062],["Ferenc",-9.060071093902685],["betegség",-9.061862108588699],["lehetősége",-9.062068042406658],["kínai",-9.062774339351872],["lát",-9.062830842070108],["végzett",-9.064726961113507],["%",-9.065601293754709],["követő",-9.06690915435423],["lakás",-9.067767887743821],["ing",-9.06794208693941],["II",-9.069908165637738],["kezdte",-9.069959519279214],["soha",-9.070974854822778],["rendelkez",-9.072048868603542],["néz",-9.073856974253136],["nemzeti",-9.074022590058119],["kicsi",-9.075095735865672],["70",-9.076277089545062],["érkező",-9.076984981938462],["nyugati",-9.082595962791485],["tenni",-9.083527248873429],["or",-9.084634550161006],["NB",-9.085491117096808],["hozott",-9.087225450967118],["érte",-9.087506501795442],["kezdett",-9.087515117559304],["felelős",-9.08889714780505],["francia",-9.088944893309026],["nyi",-9.089604179039913],["vé",-9.08988214093312],["mennyiség",-9.089886848067717],["polgármester",-9.091208479884067],["Ukrajná",-9.093420727515984],["Facebook",-9.093487650984228],["külföldi",-9.093550111979322],["hálózat",-9.094339350435984],["április",-9.09434665187521],["szakmai",-9.094741388963474],["gyors",-9.095457257705686],["régi",-9.095645258736557],["hu",-9.098195343379503],["hatás",-9.099082499270077],["román",-9.099966856658522],["politikus",-9.101086816562722],["Két",-9.101401998783507],["nyolc",-9.101544421427047],["többek",-9.102122406304629],["Azt",-9.103110812597205],["cím",-9.104345979395635],["adat",-9.10448056257904],["igazá",-9.107168032595983],["időben",-9.108921808273955],["26",-9.109210327913349],["szerepe",-9.110269681638016],["közé",-9.110590900408495],["gyakra",-9.110888211786836],["június",-9.111144977868921],["budapesti",-9.111213747722996],["független",-9.111251653485088],["országos",-9.111639893698213],["ezút",-9.11310626084446],["biztonság",-9.114747038105545],["termék",-9.115099897033947],["találta",-9.116194216002253],["tudott",-9.117214408312282],["forrás",-9.11915170791642],["35",-9.120437067270078],["rend",-9.121918955686933],["ideje",-9.12305550556307],["zárt",-9.12319288144282],["lép",-9.124013595391242],["nevű",-9.12410743155986],["28",-9.124272908448347],["ér",-9.125375168621815],["tünk",-9.125483619767149],["tó",-9.126080603309429],["fogja",-9.12667188995589],["szerzett",-9.127543071546416],["tartoz",-9.127814117025629],["rendkívül",-9.128259016134496],["tartj",-9.129582339792698],["közlemény",-9.129654614159302],["változás",-9.129716223810586],["pillanat",-9.130210554415559],["igaz",-9.130395467414523],["játékos",-9.13076743418073],["lépett",-9.13244638183663],["célja",-9.132701136012308],["heti",-9.132723503235834],["műsor",-9.132944890614237],["elé",-9.13425424023253],["összeg",-9.134256079288448],["tűz",-9.135175118097532],["egykor",-9.136010162536675],["környezet",-9.136712174933344],["tegnap",-9.137532425608125],["projekt",-9.138162031691293],["érkezik",-9.138391207573223],["eredmény",-9.13875161543459],["bé",-9.13980485901304],["intézmény",-9.140265482877304],["havi",-9.14139325295639],["szól",-9.142408459668367],["kép",-9.143057364618901],["személyes",-9.144826990408577],["mégis",-9.146227305812255],["esemény",-9.14639367760108],["elsős",-9.149141551906418],["élete",-9.151828376775526],["szerepel",-9.153224164874183],["mostani",-9.15409268766647],["közlekedés",-9.154191516280527],["Be",-9.154730431025072],["Még",-9.154914824116634],["folyamat",-9.155891410317398],["eb",-9.158209021576157],["országban",-9.161289780040608],["persze",-9.163089594916055],["vagyis",-9.16326071001548],["jog",-9.16342291069791],["idején",-9.1642370613245],["soka",-9.16468191853576],["siker",-9.16520231272099],["szem",-9.16687801371086],["negyedév",-9.170163679513461],["hadsereg",-9.17114061936935],["forgalom",-9.171966478982895],["venni",-9.17328857884622],["dél",-9.173578210511849],["Zoltán",-9.174566603715178],["hiány",-9.17499587902325],["bíróság",-9.176148468692745],["ebb",-9.176195916483426],["válság",-9.177766118799738],["videó",-9.18103671587949],["üket",-9.183060851490248],["bizottság",-9.18413859365704],["iránt",-9.184204109883439],["hagy",-9.187386727938879],["mindössze",-9.198947911431695],["terület",-9.199138526903331],["többi",-9.199431204177694],["vizsgálat",-9.199547274959492],["közösség",-9.199838950601704],["X",-9.200837846722713],["arány",-9.201177483627308],["elektromos",-9.202590952360428],["Tamás",-9.20261155591735],["pontosa",-9.203515284071841],["részét",-9.205613815201566],["Le",-9.205736185457717],["nyár",-9.206083059324904],["írt",-9.206788164839942],["épp",-9.207031136512668],["éről",-9.207962104743],["egyéb",-9.209300084500303],["globális",-9.209595857275975],["létre",-9.21002814818819],["emelked",-9.210155924650188],["úton",-9.210263371544375],["Európába",-9.211086575043149],["anyag",-9.211606947147802],["ír",-9.21283142755506],["29",-9.213720343722297],["jövőben",-9.215708228648229],["eljárás",-9.218895005996991],["szív",-9.219222158149382],["w",-9.221045840819162],["végig",-9.225083866675487],["különöse",-9.225743615497594],["Eb",-9.226998227605002],["összese",-9.228146309354518],["beszél",-9.228865867156145],["indul",-9.229662344408982],["vették",-9.230162005562548],["átlag",-9.230566149697554],["egyszerű",-9.230840469363416],["hőmérséklet",-9.231076807798757],["hivatal",-9.231622425173647],["indított",-9.231637501937321],["különleges",-9.231740585940667],["színész",-9.232511596743631],["adta",-9.235683708131033],["együttes",-9.237271025211783],["beli",-9.237513617689764],["tagja",-9.238608966213999],["feladat",-9.239811447577129],["90",-9.240856465265214],["Sándor",-9.24220749561501],["szak",-9.244058948605051],["bizonyos",-9.2443568890794],["mögött",-9.245337922754125],["tam",-9.245865817130024],["alig",-9.24613322718049],["beteg",-9.24679112432214],["beruházás",-9.246981095708207],["napok",-9.247590003498807],["ipari",-9.247723033883215],["lengyel",-9.248734511154662],["sikeres",-9.248770631890187],["31",-9.249210983915688],["digitális",-9.249665381301083],["közvetlen",-9.249794176624793],["okozta",-9.250273574656912],["járó",-9.250573471646991],["ővé",-9.251153397439875],["W",-9.251550185767769],["főváros",-9.25261112668721],["találkoz",-9.253650532399327],["egyszer",-9.254740618872052],["díj",-9.254929110536237],["Országos",-9.257281512066758],["térség",-9.26423953197514],["tájékoztatás",-9.265216178994581],["használt",-9.266877554036455],["ingatlan",-9.268975924110793],["történet",-9.26922468273177],["törvény",-9.27024260193864],["látj",-9.271551004619834],["Attila",-9.272116179250371],["szerte",-9.273538476272854],["járt",-9.275210592484312],["családi",-9.275676218989325],["vezetés",-9.275723315762445],["teljese",-9.277019996633648],["női",-9.277364036323817],["fiatalok",-9.277780332001317],["gól",-9.278120239288231],["Gábor",-9.279735280950113],["us",-9.281740064858631],["területen",-9.282427477121637],["ható",-9.284229210110851],["általán",-9.286349278020023],["alakult",-9.286744920018672],["klub",-9.28871518096869],["J",-9.289125079601845],["vá",-9.289970707883406],["gyorsa",-9.290613796998262],["eddigi",-9.291990587536494],["fegyver",-9.29227126048104],["Kf",-9.293642946828836],["ekkor",-9.293824932153566],["áram",-9.293945449493897],["területén",-9.294132473666469],["lehetet",-9.294409007003363],["kampány",-9.29469210287997],["továbbá",-9.296138424809783],["melyek",-9.296930033005113],["általános",-9.29814847523403],["mutatj",-9.29889705816343],["körülmények",-9.29913617263847],["tagjai",-9.299374775146937],["közepé",-9.300635467494105],["várt",-9.302250002692597],["per",-9.304157219975856],["jegybank",-9.304880481306975],["keretébe",-9.306261731260522],["Fidesz",-9.306887171116102],["500",-9.308607465163814],["dolog",-9.310805839976073],["eredeti",-9.310813041316191],["nappal",-9.311353101304928],["labdarúgó",-9.313116647103627],["ente",-9.314246925734981],[";",-9.314758209351469],["magyarok",-9.317073325700544],["legin",-9.317806018072403],["gondol",-9.317839144280217],["erő",-9.31999928445709],["közelébe",-9.322425927222508],["mindkét",-9.32327101817571],["találkozó",-9.323505041933437],["pontos",-9.324568825560835],["véget",-9.324978448231242],["tervezett",-9.325517030852046],["li",-9.326051431179824],["hamarosan",-9.326828302331439],["változ",-9.326875920562802],["Szent",-9.329370006363067],["források",-9.329735163472758],["negyedik",-9.330588777701486],["várhatóa",-9.330951474768497],["jé",-9.330963324974569],["döntő",-9.331725656792054],["ny",-9.333143087405904],["külügyminiszter",-9.335567670973383],["alacsony",-9.337206920819309],["szakember",-9.338622888336218],["András",-9.338835114886217],["támogatást",-9.338878331333698],["látsz",-9.33910426274373],["nagyjá",-9.33960191917692],["fa",-9.341598492621944],["föld",-9.342199616795911],["tartani",-9.343274963841127],["zöld",-9.344682185352681],["kezdődött",-9.34563016639376],["belső",-9.350557406378684],["vállalatok",-9.351731017196702],["Ukrajnába",-9.35258205656314],["Hogy",-9.354948699569938],["kár",-9.35510473014844],["Németország",-9.355570189236314],["kkel",-9.355593501128046],["felett",-9.356522085270795],["gyakorlati",-9.356965165156963],["együttműködés",-9.356996511520427],["ink",-9.358589405694868],["termelés",-9.358627304959306],["Sz",-9.359177120414742],["problémák",-9.360816502393149],["mértékbe",-9.361529937102095],["talált",-9.361890619799649],["kereslet",-9.362714898803222],["tavalyi",-9.36279987932665],["pénzt",-9.362837281856255],["csapatok",-9.364320420383962],["vezet",-9.365666791603344],["Csak",-9.367876932031484],["dr",-9.367903932484444],["település",-9.368671704944642],["ától",-9.37019633994592],["magam",-9.37022744004961],["játszott",-9.370260957368645],["darab",-9.370435666198006],["részben",-9.371723682397835],["adni",-9.37224049577005],["fény",-9.372287680525423],["tervez",-9.37259750220785],["közönség",-9.375811259386301],["megjelent",-9.375980323675934],["Zelenszkij",-9.376002846166779],["nyert",-9.3767159394943],["igazi",-9.378458113748199],["keres",-9.380295407463967],["magyarországi",-9.380855336909859],["véli",-9.381572032391247],["csökken",-9.38198595922885],["élelmiszer",-9.382480755851656],["szempont",-9.384624459878669],["közölt",-9.384805453060727],["férfit",-9.384931034109291],["közép",-9.386015639790527],["próbál",-9.386113640002565],["előbb",-9.388630355296078],["Észak",-9.3887962247838],["lyel",-9.38917334911755],["kiemelte",-9.38945626465565],["nyal",-9.392163182950927],["konfliktus",-9.39230338308251],["kiállítás",-9.393330537143004],["lal",-9.39389652811478],["halálos",-9.393943725534623],["mérkőzés",-9.394493475132185],["képe",-9.394764028182863],["friss",-9.396014760905317],["jellemző",-9.396318431121808],["nevezte",-9.397395288267045],["intézkedés",-9.398663128960393],["hosszabb",-9.39894518885251],["tudju",-9.399993518719105],["szezon",-9.401049248552127],["baj",-9.40166243380192],["hagyományos",-9.40347371822154],["mondott",-9.404227299323644],["ro",-9.404427382450285],["György",-9.405042375395587],["alakul",-9.40714658287538],["fizetni",-9.407645534222958],["Vlagyimir",-9.410266291029501],["endő",-9.410940304963994],["jában",-9.41362130638953],["oltás",-9.415184500250138],["kérte",-9.41532712889635],["tervek",-9.415487411696112],["körülbelül",-9.415913197945278],["előadás",-9.4161838548027],["szakasz",-9.417331719911669],["300",-9.417747249706395],["Van",-9.418194018964721],["kar",-9.418222915091992],["választ",-9.419366174298654],["élmény",-9.419437724139787],["tekint",-9.420048914464015],["Ezen",-9.420299435028069],["bank",-9.420710170206544],["bajnokság",-9.424157142358295],["információk",-9.426040576081459],["állítj",-9.426991563527636],["háborús",-9.428337096981258],["válasz",-9.42856371488871],["nal",-9.430301425831004],["tudjá",-9.431529994989173],["sajtó",-9.433483365618795],["eszköz",-9.433828055237305],["éhez",-9.434261492911],["hozta",-9.434875368093099],["tűzoltók",-9.437209271481489],["keleti",-9.437714986704844],["derül",-9.439825798853699],["érzi",-9.441044022045382],["plusz",-9.44127729826466],["munkát",-9.444235973792999],["sajn",-9.444637903141675],["kötött",-9.444968797381556],["vége",-9.445048941923229],["töltött",-9.445567146551353],["75",-9.445862159472895],["oknak",-9.445882389715182],["ször",-9.44706575870517],["biztosa",-9.447962740462106],["állapot",-9.448666085048837],["í",-9.448736068076865],["okoz",-9.448888383354568],["Ugyanakkor",-9.451027918070366],["megy",-9.451864734602175],["időt",-9.452382617132756],["természetese",-9.45243270156756],["felnőtt",-9.45247255728172],["TV",-9.45274028978989],["támogatj",-9.453391534706467],["kormányfő",-9.453940846547395],["segít",-9.454229633719194],["legmagasabb",-9.456302187923953],["Itt",-9.456777574906027],["ös",-9.457254644920406],["iskola",-9.45762521678995],["óriási",-9.458968980200279],["alapvető",-9.459383259263838],["Debrecen",-9.460408497791079],["megállapodás",-9.461422284664078],["gép",-9.461867582613],["Sok",-9.462057319215813],["Bors",-9.462291663832357],["látta",-9.46279488797342],["kereskedelmi",-9.463495427937648],["oktatás",-9.46541733617842],["mások",-9.465441594326041],["Ő",-9.46824976578323],["Gergely",-9.46857871439718],["rajta",-9.471497726835326],["szenvedett",-9.473485371807442],["tartják",-9.473564296403264],["köz",-9.473982199381217],["vállalkozások",-9.474597041731204],["jármű",-9.475585108466873],["nevé",-9.476279875256472],["debreceni",-9.476573007114885],["embert",-9.479705158082016],["lel",-9.479802728196486],["400",-9.481544806513039],["fi",-9.482333733507119],["szerda",-9.48256637815927],["szerinte",-9.483764825136731],["Kijev",-9.483937375224802],["elhunyt",-9.48564273067293],["ján",-9.48650030691045],["Kína",-9.48723496287155],["adtak",-9.487787088467142],["ló",-9.488014891461946],["eredménye",-9.488537632072234],["előtti",-9.488723665788845],["Megyei",-9.488875316829757],["költségvetés",-9.489184630286807],["Ugyan",-9.48924947413457],["bejelentés",-9.489621039709823],["segítség",-9.4897427304765],["Zsolt",-9.49195597654009],["József",-9.492029223088174],["szereplő",-9.493596885001041],["angol",-9.495998067949252],["szerződés",-9.496510688963646],["Új",-9.497320927724662],["orvos",-9.498630098332075],["olasz",-9.499565535669028],["várja",-9.500004809203134],["um",-9.500079969990178],["közösen",-9.500268521717231],["aktív",-9.501221962833256],["di",-9.501226944067632],["mondja",-9.501586871464815],["hangulat",-9.503715422139312],["nemrég",-9.504327390484256],["Emellet",-9.504871347371246],["munkájá",-9.50531544263875],["intézkedések",-9.507983174944844],["talál",-9.50902956507305],["méter",-9.51000490822321],["földgáz",-9.510497237600642],["OT",-9.510981939891753],["lehetséges",-9.51105449893987],["kötelező",-9.511524502226383],["ránt",-9.511549019570662],["nyilvánosság",-9.511894088992056],["emelte",-9.51365334874425],["igazgatója",-9.51406993016176],["Fel",-9.51413930094662],["…",-9.514682380194747],["szal",-9.518612223209342],["hivatkoz",-9.518891724088952],["bajnok",-9.519095481408058],["állat",-9.519118034913173],["napokba",-9.52142761334628],["könnye",-9.523025270982327],["kíván",-9.5244641709683],["családok",-9.525414863138922],["of",-9.5275908692312],["Én",-9.527595952083823],["The",-9.527790451866938],["akció",-9.527905050223119],["nekik",-9.52791019325287],["helyet",-9.529005891389374],["lapunk",-9.52903012454476],["legújabb",-9.529100857988512],["civil",-9.529259220576058],["34",-9.529435118258775],["bal",-9.529655465515333],["remek",-9.530322908193135],["199",-9.530626569676393],["számol",-9.530918412166415],["man",-9.531196633925362],["Központ",-9.531566649969687],["szolgálat",-9.531658456133915],["vezetet",-9.53169399100647],["mire",-9.532280538368983],["ennyi",-9.533404380589479],["ása",-9.53340877776282],["áldozat",-9.533913929300617],["számíthat",-9.534219578015305],["Mind",-9.534345504668913],["államtitkár",-9.534411787016204],["annyir",-9.535025940503608],["mondani",-9.53508623955879],["olvasható",-9.535618517475498],["éből",-9.536910153644126],["rendezvény",-9.538448695134981],["nyílt",-9.538687634708376],["kapacitás",-9.539603087731763],["Covid",-9.540384593662136],["Nagyo",-9.540575146207994],["hitel",-9.540926884320688],["test",-9.541432383277957],["eső",-9.54171512097767],["bor",-9.541892057688425],["forduló",-9.542184321546733],["45",-9.542191826440643],["baloldal",-9.542767563004436],["kért",-9.542776832465549],["meccs",-9.543235173272862],["Szabó",-9.545354972987408],["ég",-9.54683595951409],["nyel",-9.547750328957717],["onnan",-9.548362580934462],["hal",-9.549745607041984],["győzelem",-9.550414735709136],["ellátás",-9.550843557642825],["jut",-9.551209212858751],["hang",-9.552014713009392],["városban",-9.553445462240838],["fizet",-9.554809219066629],["44",-9.55511793980833],["rész",-9.555496838640995],["SZ",-9.555644745840546],["38",-9.555790027878412],["jelentés",-9.556603898228936],["jogi",-9.557036735370492],["működő",-9.557182412021929],["vállalkozás",-9.557421156406026],["különbség",-9.557762630164042],["utca",-9.557872976149108],["ter",-9.558446608036775],["helyszíne",-9.558488929094029],["terv",-9.558557107500466],["kislány",-9.559322452249113],["arany",-9.560797823451221],["segítsége",-9.561156980861764],["gyakorlat",-9.561978559394575],["x",-9.56273567679897],["áron",-9.562937542139883],["dolgok",-9.563389503613855],["ur",-9.563851499272007],["hiába",-9.563962053772636],["ná",-9.564083032002163],["hető",-9.564216838385976],["nunk",-9.565682406688719],["vendégek",-9.565852892006896],["nyomá",-9.566727390984017],["Jó",-9.56706810513851],["hasonlóan",-9.56771705045448],["gyártás",-9.568592232022365],["emberi",-9.569064660396553],["szolgáltató",-9.569815653042756],["Ráadás",-9.570614335109298],["dolgozott",-9.570885351469057],["hetek",-9.573046631885344],["fogyasztás",-9.573688985276057],["téli",-9.573767849471897],["média",-9.573983866598198],["kínálat",-9.57554118651867],["kérdések",-9.57611043623412],["katonák",-9.577035968459516],["menekültek",-9.5773167091062],["folyó",-9.57896144799623],["gyártó",-9.579622386738116],["tartana",-9.57990286273682],["'",-9.580891486306292],["pályázat",-9.58098098867526],["fej",-9.581312735333515],["révé",-9.581666982921138],["jelezte",-9.582071649726206],["amennyi",-9.582127731115833],["szakemberek",-9.582502981908604],["hétvégén",-9.585105142503167],["arc",-9.586668774224119],["bejelentette",-9.587168584646628],["vásárlás",-9.587421521929446],["felvétel",-9.58827548943057],["említett",-9.58844439703601],["okozott",-9.588486568369529],["nyári",-9.58895645772315],["hívta",-9.58918297348804],["000",-9.58968525577052],["zott",-9.589938854928688],["Szövetség",-9.591299863147507],["kínál",-9.591309156935377],["pályár",-9.591546885134166],["32",-9.593066912453036],["magán",-9.593193183519244],["természetes",-9.593413943110207],["szeretne",-9.593957951007518],["megyébe",-9.59414942374381],["évi",-9.594212940305335],["pozitív",-9.594263802526015],["látni",-9.594772132923332],["hírek",-9.595146482188195],["esti",-9.597557030889263],["időjárás",-9.597587918517883],["kiderül",-9.599452939442113],["gyár",-9.600597040889706],["állás",-9.600890383894784],["folyamatos",-9.601014260150947],["egyéni",-9.601184563932001],["körüli",-9.60156188079657],["tökéletes",-9.601777436442282],["probléma",-9.601779926779411],["évtized",-9.601814934043338],["ötödik",-9.60212752120944],["Akkor",-9.602898972260029],["szülők",-9.604181785619875],["utaz",-9.604432607870713],["egyetem",-9.604671696242086],["szét",-9.604896791210274],["36",-9.605858692319018],["index",-9.606544099662106],["zajl",-9.60745371717811],["kör",-9.608305158776602],["alkalm",-9.609531111621118],["já",-9.609663720907164],["33",-9.609932752861427],["veszi",-9.610810799141646],["mellé",-9.61157314425437],["szállított",-9.612190874565595],["negatív",-9.612391011961936],["fiú",-9.6124919228498],["erősöd",-9.612536935708466],["szállítás",-9.613700336752899],["fajta",-9.613769966008071],["téren",-9.614585611307039],["értéke",-9.616268252344302],["Varg",-9.616958144706867],["Twitter",-9.617737693157277],["Mol",-9.617758665722532],["jelölt",-9.618148464584888],["oly",-9.618777779655987],["bajnoki",-9.618940473455686],["fehér",-9.619170640906749],["magunk",-9.619623087010126],["foglalkoz",-9.619871879765231],["szektor",-9.621314071337125],["munká",-9.622196250034547],["GDP",-9.623116543248702],["következté",-9.624113249218302],["vezetői",-9.624683489009243],["okra",-9.625829814860897],["hív",-9.626247166677533],["szerű",-9.627099710027178],["felesége",-9.627337331297694],["készített",-9.627551008053207],["szik",-9.627594705898325],["der",-9.628060157891426],["vádlott",-9.628219289984873],["Zay",-9.628605584008762],["államfő",-9.629484170452532],["tanár",-9.6296984190388],["hagyta",-9.630511391890739],["jegyezte",-9.631484429634195],["tettek",-9.632764876538818],["tor",-9.632913768335403],["fekete",-9.633739131180064],["rendez",-9.634099293374705],["üzemanyag",-9.634777336855207],["üt",-9.635207390118634],["könyv",-9.636303922113065],["Instagram",-9.63749415155758],["szakértő",-9.640206745621775],["helyzetbe",-9.640765844400963],["péntek",-9.6426954151499],["Nyugat",-9.643340394055702],["öröm",-9.643866311769433],["Tóth",-9.644927906040323],["szabályozás",-9.645303038201183],["vonat",-9.6458602033784],["kelet",-9.645994819277583],["37",-9.646140352785151],["szakértők",-9.646249773611707],["természet",-9.647055826574983],["dolgozó",-9.649220941084433],["nekem",-9.649689675649665],["szüksége",-9.64992264080559],["közeli",-9.651591679161612],["szabályok",-9.652221555668659],["többsége",-9.652603372029375],["meleg",-9.652798316231822],["egymást",-9.653505052197541],["rendőr",-9.654299876416964],["Balázs",-9.656122560028944],["területek",-9.657033469790125],["modell",-9.657297705146817],["megye",-9.657468321177873],["technológiai",-9.65884940322968],["ov",-9.66021886110988],["tanulmány",-9.66029863316726],["délelőtt",-9.6635799861729],["anyagi",-9.664612308238993],["nyitott",-9.665439716508793],["ivel",-9.66573725335677],["interjú",-9.66609442431761],["csökkenés",-9.666511046278837],["Moszkva",-9.66719818824158],["hullám",-9.667252115843871],["ic",-9.667549072587587],["Debreceni",-9.667551315515226],["autók",-9.66769877175545],["kilométer",-9.667787169482745],["körébe",-9.6682175458983],["kommunikáció",-9.668786601276622],["vendég",-9.669246706275523],["meghalt",-9.66936166306547],["akit",-9.669563470834191],["szervezetek",-9.669861969322325],["fesztivál",-9.67005890524383],["sors",-9.67146245372858],["déli",-9.671763843439457],["falu",-9.672857296857348],["történelmi",-9.672859601540395],["énekesnő",-9.672985850688784],["szerencsé",-9.674654336174099],["forgalma",-9.67490297313243],["nyugdíj",-9.676402140769554],["nyerte",-9.676601323552827],["nők",-9.67746982767001],["tanács",-9.67788093398432],["Ami",-9.678911761770003],["helyzete",-9.6791763562808],["portál",-9.679782203132174],["Ám",-9.680263201902925],["gyermekek",-9.680324758857852],["tudom",-9.680559753318283],["fal",-9.680653392407702],["jára",-9.68108808304373],["fotó",-9.682362289048395],["Tovább",-9.683106467960517],["&",-9.684244001608969],["csatlakoz",-9.685747998821125],["vér",-9.686260493211527],["Tanács",-9.686303634689573],["ideig",-9.686607815118855],["Szerinte",-9.68712473588926],["tőle",-9.687320667593953],["folytatód",-9.688145033763162],["egyedül",-9.688658010046808],["48",-9.689645468368209],["Szijjártó",-9.68999112805341],["Fontos",-9.68999148906076],["hírügynökség",-9.690197327579172],["mutató",-9.690642314177868],["akart",-9.690910169721699],["ök",-9.692000877137897],["kétszer",-9.692021149621912],["költségek",-9.69215228381853],["tárgyalások",-9.69263339365897],["egyértelmű",-9.692718091664648],["lehetne",-9.69473406220763],["felmérés",-9.69487074855298],["vitt",-9.696766133893057],["Dr",-9.69736227929861],["szén",-9.697493987077628],["közt",-9.697916744228884],["mindez",-9.698248037056128],["könnyű",-9.698881218385662],["asszony",-9.699846359606479],["erdő",-9.700155305881536],["segíti",-9.70214337852142],["immár",-9.702874832779115],["lakossági",-9.703007620283836],["akarta",-9.703059515529556],["kórház",-9.70313538685536],["atlan",-9.704661175057685],["osztály",-9.704958635199823],["menni",-9.704976985476168],["felül",-9.705922803457995],["gyermeke",-9.706144056057035],["órák",-9.706539082979997],["olimpia",-9.707011886851717],["központ",-9.707434930018877],["országgyűlési",-9.70866547120454],["kezdőd",-9.709577647161506],["szeretnén",-9.709699366571765],["jelentett",-9.710199321398154],["mutatott",-9.710672988407763],["halad",-9.710889927751314],["összege",-9.711384414806254],["pontot",-9.711528105095766],["hisz",-9.71155847219481],["eit",-9.711772697243559],["pályán",-9.71194311478094],["kamat",-9.712946490395213],["nyilatkoz",-9.712987161721069],["választások",-9.713288371570501],["sajtótájékoztató",-9.71360173586096],["sokszor",-9.714481928973207],["minke",-9.7145408457354],["történtek",-9.715112351531829],["ch",-9.71548438326754],["azonos",-9.716133839941113],["41",-9.716622709147762],["érkezte",-9.71662471125538],["bíz",-9.717775812928064],["bér",-9.717776712778111],["ipar",-9.718015876233544],["Mindez",-9.718729706561797],["csomag",-9.719028668090157],["nyire",-9.719135644289501],["tulajdonos",-9.719139764239348],["húsz",-9.719190263650846],["kifejezett",-9.719376923419613],["segíteni",-9.71947995071315],["55",-9.720435718895251],["másfél",-9.720895259922923],["eredmények",-9.721354981565717],["szünet",-9.722147806165427],["jával",-9.722285820859803],["emiatt",-9.72278654745266],["Ne",-9.723664228084889],["49",-9.723841096495386],["legutóbbi",-9.723970445166255],["vírus",-9.72416044808137],["intézmények",-9.72635248820097],["kihívás",-9.727335766683098],["ellenzéki",-9.728073202034237],["mozgás",-9.730850951715029],["előzetes",-9.731175363478863],["események",-9.731285618328306],["látott",-9.731347057017299],["nyújt",-9.731379932890995],["napján",-9.731869180332566],["adatokat",-9.732166785906715],["jét",-9.732913581888418],["külső",-9.733785427923191],["kiemelt",-9.735802707809524],["kilenc",-9.736189672929573],["okon",-9.736591387644584],["Ilyen",-9.736821414772448],["Biden",-9.737208753095233],["Nemzetközi",-9.737219052121766],["díja",-9.737797631775166],["nyilatkozta",-9.738467862992803],["tényleg",-9.738827478807334],["tartozó",-9.74138973893839],["kormányzati",-9.742431311306763],["nyugat",-9.742893714983806],["Kovács",-9.743258218276534],["érezte",-9.743575399216034],["növek",-9.74477827758065],["népszerű",-9.746996566180778],["értékű",-9.747505480634384],["hajó",-9.748506840711034],["hazánk",-9.749761396829815],["rendelkező",-9.750083898957584],["export",-9.750284100288802],["állított",-9.751006709079522],["mindenképp",-9.751944807551617],["képzés",-9.75234872913493],["sérülés",-9.752765641184071],["kiváló",-9.753577251935491],["kezd",-9.753793554730208],["példa",-9.755720770182421],["energiaárak",-9.756265638186402],["beszámolt",-9.75628280231385],["király",-9.757471914072553],["ci",-9.759437460218692],["számú",-9.760846471601429],["PC",-9.761788660770193],["Franciaország",-9.762128922856041],["közzé",-9.762859067852105],["befektetés",-9.763345866196437],["templom",-9.765548453935391],["éven",-9.765876583286053],["folytatás",-9.765912274718236],["diákok",-9.766647883506558],["utat",-9.766985827983877],["mobil",-9.7676825869269],["ide",-9.768624828645311],["reggeli",-9.768878155741419],["adja",-9.769308504828263],["játékosok",-9.770513940108955],["írás",-9.771765113714244],["távo",-9.773124407676832],["napja",-9.773397030897058],["tábor",-9.773755313230712],["itthon",-9.774197706538402],["hatóság",-9.774397303494588],["ette",-9.774450162263435],["információ",-9.77562576703234],["esetleg",-9.777572360376254],["némi",-9.778138668907975],["sztár",-9.77948286999954],["edző",-9.779509577348435],["napos",-9.779539312657377],["halt",-9.780093004957621],["Erzsébet",-9.780413859736946],["Királyság",-9.78074036672864],["származó",-9.780887272588448],["ingyenes",-9.781408482498993],["derült",-9.78159207606308],["ill",-9.781945561244614],["árfolyam",-9.783413488014332],["sincs",-9.784481399523438],["Lengyelország",-9.784709627510919],["munkatársai",-9.786485081951785],["Katalin",-9.786747436790144],["levegő",-9.787158954847264],["sérült",-9.78766201469728],["félidő",-9.788253597435922],["választott",-9.78847484183866],["felhasználók",-9.789293332171365],["kemény",-9.790007376503022],["56",-9.79065742905717],["kettő",-9.790845544853045],["hete",-9.791391877755832],["felje",-9.791630839301199],["ersze",-9.791632793416824],["idős",-9.792208227244025],["egység",-9.792664755041502],["széles",-9.79266989803808],["tuk",-9.79268073983072],["alapú",-9.79423099291471],["biztonságos",-9.794779009917345],["nincsen",-9.795024317808199],["szer",-9.79515338160651],["kulturális",-9.795800422677145],["Erre",-9.796321619518181],["tárgyalás",-9.797851988637152],["énekes",-9.798396227111525],["részvények",-9.799178463697448],["velük",-9.799356673810014],["véletlen",-9.799497644788161],["kijelentette",-9.799562312608838],["nettó",-9.799809468035075],["von",-9.799816139596542],["ellenzék",-9.800015703216118],["helyettes",-9.800598910619225],["hó",-9.801123677053315],["béke",-9.801790890124716],["élt",-9.803075965967286],["stratégiai",-9.80399296446654],["múlv",-9.80557366646486],["kizárólag",-9.805962097543087],["Brüsszel",-9.805974272161546],["értelmé",-9.805991986281967],["állítólag",-9.806019894888198],["elől",-9.80647408103383],["hamar",-9.807115764881253],["Olyan",-9.809780539746267],["boldog",-9.809889026186765],["programok",-9.810186896175288],["egészséges",-9.811940877734065],["fordult",-9.812494179102263],["Csaba",-9.812497680896385],["idők",-9.813284672424405],["kert",-9.814403088724205],["téve",-9.814918335512232],["valójá",-9.815613064041342],["időre",-9.816150083251337],["Budapesti",-9.816465843196358],["rendszerek",-9.816873206361244],["láb",-9.817284070333134],["élelmiszerek",-9.820762595933177],["telefon",-9.82202486529881],["Anna",-9.8226113483102],["érdeklődők",-9.82294873176992],["életé",-9.823021700272447],["külföld",-9.823535137893973],["nélküli",-9.823992073770132],["érvényes",-9.824571160851312],["mutatta",-9.8246069487955],["váli",-9.824668367868956],["sofőr",-9.82500796647065],["No",-9.825070392391666],["co",-9.825126295735133],["évet",-9.82534208330662],["Idé",-9.825757060395087],["kér",-9.825861003125713],["39",-9.825902993205714],["Arra",-9.826125926287638],["fizikai",-9.826381292493377],["sá",-9.8264978540806],["lehető",-9.826698292381689],["ügyi",-9.826770181729291],["dollárt",-9.827186134014354],["kezelés",-9.827434266670643],["ális",-9.827582937877406],["65",-9.828087565317702],["del",-9.82831228729141],["eurót",-9.829269762112618],["unkat",-9.82951691825198],["drágulás",-9.82976398701459],["szombat",-9.830036048314188],["junk",-9.83217591504554],["híd",-9.83219250024868],["igyeksz",-9.83221214231843],["illető",-9.832387711084671],["nyomozás",-9.832514694024798],["irányul",-9.832811581102437],["javaslat",-9.833252649325239],["fűtés",-9.833439621681457],["600",-9.834162916365173],["részén",-9.835465138988198],["hajlandó",-9.836175162625402],["piaco",-9.836325534281526],["élni",-9.83663482304711],["hónapok",-9.836718592708007],["zenekar",-9.837422590555253],["bűncselekmény",-9.837851090567924],["Eh",-9.838121174366577],["társ",-9.839123157087437],["társadalmi",-9.83930919254695],["ába",-9.839460408860148],["kocsi",-9.839550413137287],["amilyen",-9.839553469365708],["alacsonyabb",-9.840213834798194],["szolgáltatások",-9.840801084858821],["követ",-9.841503781981128],["baloldali",-9.842413605560495],["Európá",-9.84277352130541],["tag",-9.843088838221407],["politika",-9.843439013270556],["USA",-9.843994378883856],["rendkívüli",-9.84444153163047],["busz",-9.84446530691911],["szóvivőj",-9.844503712970003],["Re",-9.844925416441662],["Jelenleg",-9.845762072196997],["helyre",-9.845803288677219],["induló",-9.846411841193229],["biztosít",-9.846576087115146],["park",-9.848945870388711],["gond",-9.849201219022993],["északi",-9.850284649898647],["nemzet",-9.850289854815536],["távú",-9.851222190390235],["menekült",-9.85185996346672],["társadalom",-9.85234006002933],["egyszerre",-9.852517170612849],["védelme",-9.852548040876112],["állandó",-9.852625804701404],["vevő",-9.85279279321184],["zajló",-9.853640301452726],["csinál",-9.85402898716275],["megjelen",-9.855185371765842],["veszélyes",-9.855749070383414],["dolgozók",-9.856484448369773],["tenger",-9.856827250213064],["édesanyj",-9.85692736693614],["valóság",-9.856939846349041],["Budapeste",-9.857240559333569],["ver",-9.857444600479239],["tehet",-9.857686875563367],["modern",-9.858978914821492],["belőle",-9.859165882719285],["dollárra",-9.859394020355392],["hirtelen",-9.859490388580365],["hozni",-9.859526411625701],["megelőző",-9.86021974589103],["mély",-9.86075164488511],["bizony",-9.860791560742241],["43",-9.861378447395255],["gyanúsított",-9.861871777411142],["féle",-9.862215096922343],["lej",-9.862345448017969],["küldött",-9.862742387880147],["benzin",-9.863145835328304],["győztes",-9.864198570951217],["esetek",-9.864645631158051],["tömeg",-9.864895377675914],["szólt",-9.86551313997597],["központi",-9.86565586655881],["Tavaly",-9.86599236448604],["főkapitányság",-9.866041410428355],["típusú",-9.866328458781906],["ismeretlen",-9.866735233448363],["nép",-9.866836459610127],["színésznő",-9.86721547445968],["kezdeményezés",-9.867351651424134],["alkalmas",-9.869147392521722],["akarja",-9.869284470943327],["folytat",-9.869368606825997],["igénybe",-9.871293491554898],["körben",-9.871716010127509],["import",-9.872530093181778],["ágazat",-9.872886767103267],["Tibor",-9.872933721200532],["veszély",-9.873865861645177],["rezsicsökkentés",-9.873891292597857],["koncert",-9.874203187189163],["En",-9.875089095245492],["fogyasztók",-9.877771878221374],["bázis",-9.87785050749739],["napot",-9.878000644786805],["beszélgetés",-9.878098874212352],["városi",-9.879037338370733],["kéri",-9.879366420001395],["nyomás",-9.879414905252094],["Sajn",-9.879775887870132],["nukleáris",-9.879833053657329],["Miklós",-9.879833313087518],["oogle",-9.879883219621519],["láthat",-9.879903692156311],["rendelkezésre",-9.879943492248785],["Duna",-9.880363744259437],["semmit",-9.880628886469552],["órakor",-9.881527518977766],["mostan",-9.882064460571254],["csütörtök",-9.88295207794833],["szoros",-9.883286064298222],["ügyfelek",-9.883298009020972],["elárulta",-9.884427975144042],["képviselői",-9.884514574318164],["tevékenység",-9.88454902375979],["esz",-9.884560313170743],["részletek",-9.887714762917298],["csúcs",-9.887806129831088],["tem",-9.887849613308045],["elérni",-9.888131653517785],["sose",-9.888289077789535],["son",-9.889612921795546],["rendelet",-9.89005672685928],["melyik",-9.89086735100998],["mer",-9.891630165864045],["forintr",-9.891680298520772],["állította",-9.892532424988898],["testület",-9.892989963085402],["anya",-9.894224652529289],["pal",-9.895771799098487],["Természetes",-9.89582717516598],["tartottak",-9.896883954038827],["váltás",-9.897988813224176],["apró",-9.898168994384843],["rekord",-9.899265359372059],["helyezett",-9.900608429722425],["dolgozni",-9.900767549965495],["neve",-9.900941030473657],["meghatározó",-9.90104661310929],["játékok",-9.901705283693762],["emelkedés",-9.902552365708594],["foly",-9.902929789642247],["férfiak",-9.90303550617337],["hatósági",-9.90364781081361],["kezdete",-9.903885273210314],["területeke",-9.904922116998218],["aránya",-9.905213222402843],["diák",-9.905981841687845],["fegyverek",-9.906354664488841],["vagyon",-9.90721798808023],["rég",-9.907400598615308],["versenyző",-9.907664146560245],["Szeged",-9.908103503428642],["Blikk",-9.908106488514386],["tengeri",-9.909095967852087],["közleményébe",-9.909127494934769],["függ",-9.911791067179175],["Y",-9.911822687857393],["hétfő",-9.911944583767596],["betegek",-9.912269209684322],["fejtette",-9.912479411718415],["szerezte",-9.91283359124295],["szlovák",-9.913019167887688],["Azon",-9.913076793390132],["zás",-9.913888611711084],["Nyíregyház",-9.914018113810748],["ók",-9.914317680419469],["polgármestere",-9.914390306586082],["Románia",-9.915548738828207],["esik",-9.916617251614188],["felől",-9.916626324136036],["séget",-9.916738436606437],["műszaki",-9.917076650280862],["áldozatok",-9.917475882491937],["szolgál",-9.918344576120742],["figyelembe",-9.918355946680911],["művész",-9.91892678241175],["ismer",-9.919351689167222],["fele",-9.921021648799613],["erősítette",-9.921583628732428],["szerette",-9.921718088215018],["csapadék",-9.92210617774411],["ügyészség",-9.922280716408252],["fogadta",-9.922304232372092],["keret",-9.922374007955813],["idézte",-9.922535190924679],["Balaton",-9.922536191440031],["fekvő",-9.922539113451235],["Gulyás",-9.92254401273366],["Krisztián",-9.92258729837408],["ukránok",-9.922621169540685],["írtá",-9.922728149819486],["területé",-9.923333414496712],["Dél",-9.923591181597633],["nyilván",-9.924593797162373],["működés",-9.924729803947475],["esetleges",-9.92514835156771],["47",-9.926268080152113],["ce",-9.926385213126249],["számok",-9.926452696827788],["bankok",-9.927023644442592],["fővárosi",-9.927588542491591],["amire",-9.927641613400649],["érinti",-9.928135074622087],["150",-9.928166048068462],["New",-9.928733875463386],["felhasználás",-9.928853468378065],["rájuk",-9.92897312736755],["mesélte",-9.929313334642174],["számított",-9.929597580763325],["reagált",-9.929694258165442],["vezette",-9.929788552896168],["rendszert",-9.9298970805091],["kisfiú",-9.93113387031119],["kockázat",-9.931398961111817],["kerülhet",-9.931480846266245],["beruházások",-9.932756892189138],["nyelv",-9.933028571493498],["édesapj",-9.934115169446013],["támadások",-9.934675199871787],["neheze",-9.934692315762],["og",-9.935852464816003],["+",-9.937196201902275],["invázió",-9.938017735735192],["zár",-9.93815189428395],["olt",-9.938321110106738],["világbajnok",-9.939230246745748],["vi",-9.939299618554216],["királynő",-9.939413972806937],["fordul",-9.93943689662881],["csapata",-9.939529614870356],["sé",-9.939536701501723],["kiemelkedő",-9.93957543485157],["élők",-9.94058140529436],["atív",-9.940598755506734],["győzelme",-9.94065010438022],["igazgató",-9.94071914416683],["szín",-9.94105580438419],["fizetés",-9.941186798338023],["nyújtott",-9.941511308095816],["tárca",-9.94168226599295],["stabil",-9.942001947239168],["üzem",-9.942021787481721],["cseh",-9.942303405021278],["Kreml",-9.944603762987231],["Volod",-9.944655251846527],["hideg",-9.944732318781085],["hozzátett",-9.945227693064364],["lassan",-9.945734943704409],["folytatott",-9.946793174508134],["örök",-9.946804822259322],["vég",-9.947040586851045],["szerepelt",-9.947063969887983],["Vagy",-9.947854926596303],["költség",-9.948788568762566],["Márk",-9.949300350312503],["kezé",-9.949351591360564],["orvosi",-9.94972133923741],["engedély",-9.951684277390836],["Össze",-9.951841025218002],["hány",-9.951974845556013],["jöhet",-9.952046692060893],["Isten",-9.952255869054593],["szülei",-9.952700482971938],["érintő",-9.952767250967419],["osztott",-9.952909076006542],["rendezett",-9.954109123542416],["zni",-9.954588801795804],["emelt",-9.954906451646941],["imir",-9.955000891025296],["rakéta",-9.957163959007108],["Rendőr",-9.957433271668114],["formába",-9.958304742996173],["Győr",-9.959008633006603],["harc",-9.95901063538191],["lehetőségek",-9.959032847906474],["szembe",-9.959165161345013],["zene",-9.960732618151598],["észre",-9.960995937319268],["42",-9.961236393249091],["egyedi",-9.961275247142217],["küld",-9.962503531318152],["észak",-9.96278379440034],["árfolyama",-9.964085205616362],["íg",-9.964333407277676],["vonatkoz",-9.965482010436833],["Benc",-9.965535966802285],["használni",-9.96562438107728],["járművek",-9.965784186779606],["vesztette",-9.965959174446914],["nehezebb",-9.96702340815196],["fertőzés",-9.96840538770569],["érzés",-9.968643116965886],["bármilyen",-9.968928244801345],["tudás",-9.969496202003153],["halál",-9.969536656839686],["figyelmeztet",-9.969690344700954],["szándék",-9.972747315962984],["gólt",-9.972753408368494],["döntést",-9.973056875041067],["kutató",-9.973063987573571],["vehet",-9.973084275990159],["lo",-9.973888206209168],["szervez",-9.974287626660043],["magyarázta",-9.974724740174665],["Igaz",-9.974917856540781],["ezre",-9.97566542243538],["nézni",-9.975714025691452],["felső",-9.976788957208122],["tör",-9.976913577071322],["bárki",-9.977363508294594],["többség",-9.977677067629195],["évtizedek",-9.97772962493743],["életük",-9.97824311940461],["hajtott",-9.979319762672837],["nünk",-9.979862874294529],["terén",-9.980485016953375],["mezőgazdasági",-9.981617924850529],["végezte",-9.981739443440063],["igény",-9.982091595103432],["Első",-9.982504933150938],["Végül",-9.982562034587177],["veszteség",-9.982826349855374],["kész",-9.983473327579926],["alatti",-9.98350296515197],["utal",-9.983608884260123],["NSZ",-9.984050759094398],["író",-9.984400516331927],["meglepetés",-9.984557593865912],["programo",-9.98510988564411],["aktuális",-9.985116466717606],["kon",-9.985448385527835],["fejlődés",-9.986337147954538],["zon",-9.98655762059983],["emlék",-9.986808464522074],["szeret",-9.987359426940579],["katasztrófavédel",-9.988430627039168],["hónapja",-9.990070306473305],["Lajos",-9.990238301678172],["szociális",-9.990238766180848],["Károly",-9.990269907148118],["Köz",-9.990296075512362],["hö",-9.991755240808232],["utas",-9.991941528979599],["fejezte",-9.992284573317214],["mentes",-9.992302896483363],["ly",-9.992778261543663],["dolláros",-9.992922954075972],["bemutató",-9.994192565047989],["fegyveres",-9.994792604707014],["érze",-9.995036349303605],["szabály",-9.995465536912391],["generáció",-9.995781860295473],["lelki",-9.995827150258073],["létez",-9.996257210050542],["rosszul",-9.996998791592995],["órás",-9.997461879843732],["részletes",-9.997707642306125],["PlayStation",-9.998051183926833],["Intézet",-9.99805118396755],["Mihály",-9.998051184354445],["stílus",-9.998056316065455],["elegendő",-9.998057832702724],["őrizetbe",-9.998080151256673],["kaphat",-9.999000674661863],["hivatáso",-9.999327346884781],["köztársaság",-9.999490138827593],["irány",-9.999524663793286],["szívese",-10.000147171918648],["negyed",-10.000188458768022],["mezőny",-10.000754954949379],["utcai",-10.001880945040705],["Ebbe",-10.002186502864658],["távol",-10.002351620687893],["Pál",-10.002629202253694],["idegen",-10.003767016315],["Egyesület",-10.00438700539502],["Kiss",-10.006142482861815],["eurós",-10.006395505523065],["sége",-10.006447319778971],["számukra",-10.006580093042224],["bír",-10.006935210664766],["jel",-10.008615750214755],["ült",-10.008900687724095],["napra",-10.009860655085589],["ilyenkor",-10.010237050114235],["Er",-10.01169323850884],["teszt",-10.012881992619114],["meglepő",-10.013144155396553],["vb",-10.013485445462967],["védelmé",-10.01376494344153],["Miskolc",-10.013845678290139],["Ádám",-10.013907043362376],["szempontjá",-10.014171566714111],["Elő",-10.014520752050721],["feletti",-10.015000569004538],["színház",-10.015154266943188],["tekintett",-10.016516035250428],["őr",-10.016822398462017],["enged",-10.017712228377377],["alkalmazás",-10.018069935853134],["szervezők",-10.018720602848658],["honlapján",-10.019778270275651],["Ukrajnát",-10.019954019499815],["ánál",-10.020759979143467],["tánc",-10.021057195202093],["brüsszeli",-10.021861707656448],["Xbox",-10.021873166525111],["Apple",-10.022164084171504],["tagállamok",-10.023055849226004],["várjá",-10.023887264836485],["57",-10.023909168187274],["idény",-10.024359257741743],["beszélni",-10.024555300357427],["kezdve",-10.024563627120575],["miként",-10.024977641784162],["problémát",-10.026372976112164],["orvosok",-10.026912200359417],["valamit",-10.027268172907203],["partner",-10.028113576627447],["vállal",-10.028526221931674],["mentő",-10.029145746236031],["kapcsolatot",-10.029320224234024],["kénytelen",-10.029926438709314],["omikron",-10.029930716379305],["kapcsolódó",-10.030458927104757],["mérkőzésen",-10.030879814211612],["ruhá",-10.030990255469003],["vasút",-10.031018925285846],["határidő",-10.031075517062167],["érdeklődés",-10.031460985987021],["internete",-10.031654542744587],["kialakult",-10.03168975644982],["alaposa",-10.032688018428058],["polgár",-10.033013556065313],["mindenkit",-10.033455888936885],["úr",-10.033497032094818],["férje",-10.033806484218179],["kapcsolatok",-10.03411543655005],["vonta",-10.03440632552302],["Co",-10.034962162830212],["termelő",-10.035331584816138],["kutatók",-10.035360772332794],["tető",-10.036027386348923],["FC",-10.0365418917997],["vizsgálj",-10.036672159557554],["kezdet",-10.037066553956613],["800",-10.03777968474344],["illegális",-10.038057650318894],["köbméter",-10.038140743342172],["lő",-10.038172622741097],["szánt",-10.038513347440592],["támogat",-10.038615088134863],["58",-10.040829666747872],["sziget",-10.041167759523747],["holland",-10.041681774744147],["pénteki",-10.042595346052305],["milliárdos",-10.042652292259797],["67",-10.043598495324272],["Kis",-10.043865496947323],["karácsony",-10.04482093274498],["egészség",-10.045030619280467],["tisztelet",-10.045702574390198],["papír",-10.045713977173785],["Három",-10.046222086058291],["svájci",-10.04625302647107],["japán",-10.046263356962921],["Korábban",-10.04639790946905],["csoda",-10.046659460574478],["figyel",-10.048492465490725],["valamennyi",-10.048667863417846],["cikk",-10.049053674666503],["Na",-10.049123659611297],["Volt",-10.049319748210152],["ünnepi",-10.049393904677551],["családja",-10.05076247897525],["helyez",-10.05088087785845],["felek",-10.051299909082733],["találat",-10.051409546790874],["tervezi",-10.051702276039107],["korosztály",-10.051861281669074],["utazás",-10.05239387131368],["barát",-10.052472770587496],["tele",-10.052933774449615],["közelmúlt",-10.053765315680788],["Szabolcs",-10.054564061657178],["piros",-10.054583617073007],["nevez",-10.054699776005625],["függő",-10.054824241495698],["technológia",-10.055119724913624],["címe",-10.055146328789089],["halála",-10.055950512126927],["menet",-10.056279149476005],["bevétel",-10.056588119306797],["amik",-10.057357249925396],["találni",-10.057503284708861],["vő",-10.058208622495169],["támogató",-10.058772861650596],["országi",-10.059030762443678],["miskolci",-10.059369767928072],["vezetők",-10.05940518531022],["rendszerese",-10.059555959423731],["tonna",-10.059629191728796],["folytatj",-10.059779480339675],["120",-10.059945533307673],["küzd",-10.060185530609516],["sikerül",-10.061043635106191],["ellenőrzés",-10.062299458978158],["brut",-10.062828463962703],["mesterséges",-10.063023018646089],["rendszeres",-10.063584594085782],["por",-10.063612864196845],["szabadság",-10.06394437739818],["átmeneti",-10.064491821581205],["osan",-10.064949673654018],["műsorvezető",-10.06506228076164],["lépni",-10.065147430451518],["produkció",-10.066045121510342],["fejé",-10.06674660253492],["száj",-10.067950572911709],["levél",-10.069254091368169],["intenzív",-10.069434613550834],["megerősített",-10.069943900995927],["2016",-10.070666827702366],["életbe",-10.07068206839433],["Imre",-10.071330725528757],["alól",-10.071499085731347],["végez",-10.07236211201652],["állatok",-10.07295062741052],["Ped",-10.073859397698039],["védekezés",-10.074506438156043],["segély",-10.075129715140589],["fürdő",-10.075274254053978],["lak",-10.075443717720276],["bíró",-10.075638509826307],["id",-10.077216125370771],["tragédi",-10.078413530633298],["évad",-10.078485055609626],["jünk",-10.07871172266833],["sszel",-10.07968902735361],["’",-10.079728760092983],["Alapítvány",-10.079736342651044],["viszonylag",-10.079900735459422],["számítani",-10.080015110192617],["ideiglenes",-10.080109668463656],["pedagógusok",-10.081307089293244],["ü",-10.082287909295058],["értek",-10.082731979698398],["éjszaka",-10.08320748027499],["öz",-10.08386044787504],["nőt",-10.084046160361124],["ij",-10.08410557914878],["46",-10.08430262031309],["elnöki",-10.085154363486222],["tájékoztat",-10.085806048059823],["59",-10.086135099507118],["ut",-10.086664044108428],["fertőzöttek",-10.086914783865067],["segítő",-10.087469740116635],["szóvivő",-10.088045095021833],["energiát",-10.088990620425063],["váratlan",-10.089120477905897],["tartós",-10.089285126583388],["próbálta",-10.089493053403409],["energetikai",-10.089899973668658],["építés",-10.089903014849579],["részvény",-10.090841975502283],["hátra",-10.091201647829653],["Ukrajnából",-10.091896991715037],["karácsonyi",-10.092393188045573],["hazaiak",-10.092823481062307],["mód",-10.093398248259177],["akkori",-10.093743240375062],["változások",-10.094299734910598],["ítélet",-10.094963781155796],["Más",-10.095394602459155],["85",-10.095617635155666],["Hajdú",-10.096727232075896],["Gyurcsány",-10.0968964582953],["játékot",-10.097005636790865],["kedves",-10.097208429140654],["szervezett",-10.097209028026773],["speciális",-10.09738999329721],["hajnal",-10.09757635331033],["épít",-10.098028304661568],["képviselője",-10.098050559301177],["jai",-10.099770269074138],["tartózkod",-10.100717695229287],["környékén",-10.100988910292068],["megoldások",-10.101159179891415],["sebesség",-10.10163578333642],["hatj",-10.101722725481709],["Sport",-10.102192381031104],["tűnt",-10.102293534222884],["mérték",-10.103161176778821],["vitte",-10.103548776266415],["Te",-10.104209464170456],["elem",-10.104262810289274],["teljesítmény",-10.104289630150925],["táv",-10.10495267278484],["védő",-10.105085566003229],["etlen",-10.10527948807875],["labdá",-10.105540762912678],["Péntek",-10.105596139946703],["profit",-10.10566251156023],["kőolaj",-10.105875003806645],["vásárlók",-10.105933035332349],["Hivatal",-10.106990915504213],["önkéntes",-10.107010978898924],["árát",-10.107497946974664],["esen",-10.107526219529497],["néven",-10.109146776259825],["oktatási",-10.109358928522926],["okozhat",-10.11018772824898],["álltak",-10.111313325239632],["hatodik",-10.111836537205942],["hasznos",-10.112422763751416],["követi",-10.112469440119554],["motor",-10.11276950560283],["formájá",-10.113802146443394],["asztal",-10.11385400213137],["kereskedelem",-10.114064694432694],["66",-10.114437317385935],["írják",-10.115009020342665],["valódi",-10.115204807425823],["bőr",-10.116729786254778],["jelentése",-10.117587163579213],["fölé",-10.117617541932203],["beszédé",-10.11918215686524],["jogszabály",-10.119331689136857],["szülő",-10.119482118796611],["vita",-10.119488832008031],["Nemzet",-10.119569362876247],["katona",-10.119603565324738],["szállító",-10.120583740509069],["mekkor",-10.120673414107841],["spanyol",-10.121259300014813],["terem",-10.122043056854316],["vidéki",-10.122059479349943],["gondolta",-10.122222497361008],["könnyebb",-10.122686520907166],["endőrkapitányság",-10.123058673386511],["gyönyörű",-10.123219063013451],["rögtön",-10.123282223025335],["köré",-10.124269633777331],["őszi",-10.124482349117887],["módszer",-10.125196136918522],["használat",-10.125346578403992],["résztvevők",-10.126490913431178],["lőtt",-10.126812775299019],["fejlesztések",-10.127662293385388],["mester",-10.127837769597221],["kéz",-10.127899914066308],["gyanúj",-10.128542479377973],["néha",-10.128635940852321],["villamos",-10.129065427368811],["beszélget",-10.129976296319946],["részvétel",-10.131401190480691],["Gyula",-10.132129717770855],["pálya",-10.133269572859437],["közzétett",-10.13352115953521],["poszt",-10.13353149218916],["51",-10.134650079490779],["ellátási",-10.134765902533232],["nézők",-10.135062002757511],["mértékű",-10.13664064184234],["epsiszentgyörgyi",-10.136671031463798],["csütörtöki",-10.136740146535107],["legutóbb",-10.13810000366252],["Ház",-10.138196917828287],["nyom",-10.13821876129785],["érdekes",-10.13830588113226],["török",-10.138310166255813],["közút",-10.138373348609],["határozat",-10.138604419956653],["páros",-10.13983423419742],["zenei",-10.139898711605579],["állomány",-10.140200216323002],["Szombat",-10.140266454831089],["elképesztő",-10.141151178672478],["Ekkor",-10.141215279740377],["biztosítani",-10.141316866367468],["liter",-10.141421220620604],["szerelem",-10.141622032695029],["történelem",-10.141685229878307],["értékesítés",-10.14179980976088],["szeretet",-10.141874604916325],["utak",-10.142290534630721],["ást",-10.142325114815762],["világbajnokság",-10.142363568719787],["ünnep",-10.142786959237181],["tudományos",-10.143081715885039],["250",-10.143595710742215],["adás",-10.143691319339116],["fia",-10.143757221757406],["szerződést",-10.144818760373138],["azonnali",-10.145238026320424],["hetett",-10.145258693778963],["húzta",-10.145777215859422],["harminc",-10.145824333377575],["62",-10.146707277219157],["településen",-10.146819502656603],["kritikus",-10.147105735204322],["munkálatok",-10.147266969874256],["emlékeztetet",-10.148627789233277],["képviselők",-10.148632288892275],["68",-10.148943877044996],["zárta",-10.14900257367698],["légi",-10.149136292805775],["vonal",-10.15033503509957],["vize",-10.150609676020423],["eljárást",-10.151124588457284],["energiaválság",-10.151289061795861],["jelez",-10.151677678093218],["története",-10.15242682456618],["mű",-10.152475243976664],["viszony",-10.15251720594933],["hatása",-10.152591292595936],["Föld",-10.153176235435545],["késő",-10.153345163375787],["feladatok",-10.153357155917163],["vad",-10.154476415528954],["Miskolci",-10.1548916327066],["futó",-10.155735936783314],["52",-10.15573796625023],["otthonába",-10.155778250586952],["ságot",-10.157480506909463],["említette",-10.158439916577066],["cel",-10.158665313784068],["záró",-10.158708354222842],["segíthet",-10.158964027246476],["Bo",-10.159123424343473],["jellegű",-10.159416800120923],["York",-10.159418183732537],["Máté",-10.159445601610633],["lakások",-10.159925207845106],["zajlott",-10.159954215963541],["pedagógus",-10.160131635234805],["ág",-10.160247182747517],["mérkőzést",-10.160704349308354],["állomás",-10.161459076387361],["anyagok",-10.16149123490279],["sportoló",-10.162508782492676],["vereség",-10.162674048290842],["hová",-10.162870268877029],["pandémi",-10.164036396215261],["egyértelműe",-10.164292475046787],["korlátozás",-10.16620715714052],["folyamán",-10.16681893233691],["lakos",-10.16714201730965],["Á",-10.167284683595948],["egységes",-10.167322017846633],["kori",-10.167333683865541],["valós",-10.168104205039977],["harcok",-10.16815417358399],["irányába",-10.168534608693621],["konkrét",-10.168552895899118],["édesanya",-10.168692434196444],["Nincs",-10.168699058238282],["védelem",-10.1692089855705],["vezérigazgatój",-10.16937622566007],["54",-10.170734981818764],["hiányz",-10.172067026958395],["In",-10.172278794711836],["Borsod",-10.172392582401399],["büntetés",-10.173129009425232],["tartalmaz",-10.173400363292998],["erőszak",-10.173454406930404],["étel",-10.174181133537964],["egyesület",-10.174354968933352],["Amennyi",-10.174644569627738],["Év",-10.17602583680232],["kategóriába",-10.17795076504341],["dönt",-10.178171625653846],["Márton",-10.178331728897273],["fontosabb",-10.179406861151026],["osztrák",-10.179706513836779],["mentők",-10.179809335676028],["másodperc",-10.179867793189672],["maradhat",-10.179876773293012],["előtte",-10.180656765113422],["állni",-10.181235281850642],["internet",-10.181673289889316],["hús",-10.18225206190603],["Kíná",-10.182318680914882],["lenné",-10.182801246937387],["kísérlet",-10.182964638151894],["2000",-10.183174031298378],["voltunk",-10.184193147965669],["53",-10.184538513111914],["kapu",-10.185837752780614],["elkövetet",-10.186101460634415],["finanszírozás",-10.186965268651772],["biztosított",-10.18709806775001],["befektetők",-10.187167322364038],["messze",-10.187299689434942],["ozás",-10.187354055114929],["Ön",-10.187491031220127],["klasszikus",-10.187704821416915],["part",-10.187992665626224],["szavazat",-10.18827282723533],["fogyasztói",-10.188874118698976],["üveg",-10.189994849185522],["felkészülés",-10.190529399989561],["fős",-10.190828443230275],["témá",-10.190943729187982],["kapus",-10.191157184968542],["hatatlan",-10.191400970714268],["személyi",-10.192948614393547],["összecsapás",-10.193932793415756],["Elmondta",-10.194841296629962],["esélye",-10.19492692987356],["bejelentett",-10.19497284813909],["ív",-10.196235173217275],["közelebb",-10.196951536747466],["Microsoft",-10.196980113695483],["világo",-10.197095313132689],["sértett",-10.1982895829074],["Szerencsé",-10.198634270815594],["növekedést",-10.199099832418614],["külügy",-10.199161498520226],["áremelkedés",-10.199198661062752],["zó",-10.200278650650263],["folytatta",-10.200499984030728],["százalékuk",-10.201659406360815],["személyek",-10.202199845572737],["illeti",-10.202446240066692],["városok",-10.20250143992359],["csoportok",-10.203055931998328],["munkaerő",-10.20330359658133],["tartotta",-10.204235918537812],["várni",-10.204776284877811],["visszatér",-10.205328539551711],["biztosító",-10.205744398407152],["tervei",-10.205960624951903],["éjjel",-10.206642431829392],["Ny",-10.207161561549558],["tünetek",-10.207209128209728],["ikus",-10.207704489040783],["jegy",-10.208176778805536],["virág",-10.208231443549714],["energiá",-10.208414076938979],["kül",-10.208796851055432],["the",-10.208972343836818],["nálunk",-10.209092202543808],["95",-10.209518743332914],["viszonyít",-10.210334145458196],["lan",-10.211152188831225],["ellenfél",-10.211724580098114],["világháború",-10.211859444886379],["akad",-10.212049083171824],["önálló",-10.213033849469939],["kihívások",-10.213110837021402],["99",-10.213291591027987],["szombati",-10.213451274560617],["követte",-10.213645728230054],["kiadás",-10.215091128708861],["Talá",-10.215360675419433],["Kar",-10.215675894372998],["méretű",-10.2166394422002],["Éppen",-10.217364453478115],["rt",-10.217706952522281],["jutottak",-10.217857513442482],["Musk",-10.218278033168005],["számát",-10.218335488653867],["növekedése",-10.218372389223735],["enként",-10.21945526116507],["hatásár",-10.220579271909289],["ismeri",-10.220683821084073],["ekre",-10.221424740707938],["nevet",-10.221686852848737],["gé",-10.222759731761373],["vendége",-10.223056892855151],["SE",-10.22327835239739],["szavazás",-10.224416415669515],["herceg",-10.224626261300735],["járat",-10.22511515031721],["hiba",-10.225450656845064],["gárda",-10.225452611052155],["ülésén",-10.225671561148737],["kedvező",-10.225922384468635],["méteres",-10.225969965999298],["Mariupol",-10.226107276051218],["állapotba",-10.226757047507576],["típus",-10.227130296810719],["múl",-10.228078999602157],["Mari",-10.228769963691196],["alkalmazott",-10.22912327265216],["ör",-10.229227615321346],["rendező",-10.229607491846524],["állampolgár",-10.229997732354239],["emelkedése",-10.23122909568005],["növény",-10.231663034812655],["Man",-10.233049769335356],["állít",-10.233599527274169],["700",-10.234268682277566],["izgalmas",-10.23502992747293],["közleménye",-10.235780105590802],["alapítvány",-10.236008258905562],["korrupció",-10.236008259073515],["különféle",-10.236205684148223],["legfrisse",-10.236808341534665],["hivatalosa",-10.237195351862802],["jék",-10.238394845505683],["civilek",-10.23854223492362],["szankciós",-10.238748972417627],["létszám",-10.239086090634537],["folyamatok",-10.239265100852307],["tej",-10.240446897427134],["rezsi",-10.241550762279388],["kedd",-10.241584442307639],["dob",-10.241672357838631],["hulladék",-10.24203732615445],["iskolák",-10.24268565903909],["kibocsátás",-10.242734398587821],["telefono",-10.242977916059669],["költségvetési",-10.243101723120587],["tényező",-10.244212125510783],["szavai",-10.244448331862923],["igyekez",-10.245618838212014],["űr",-10.245991302537167],["Szolgálat",-10.246008258952454],["Parlament",-10.246008261731076],["Néhány",-10.24600834249571],["végső",-10.246019298129164],["diplomácia",-10.246020355612446],["negyven",-10.246034869147687],["legnépszerűbb",-10.246199040876025],["Színház",-10.246413940872303],["!”",-10.246594437608344],["szokásos",-10.24660604209722],["ász",-10.246705545945854],["Újabb",-10.246725576878255],["uralkodó",-10.246748569325106],["lánc",-10.246836787239953],["egyebek",-10.246973138509237],["tekinteté",-10.247054711560219],["technikai",-10.247940875338184],["utcában",-10.24857500575309],["zavar",-10.250021934248116],["zik",-10.250114660931194],["bármi",-10.250270190925498],["faj",-10.250322751079509],["DK",-10.250407837814896],["zárás",-10.250642808548601],["Központi",-10.251625144485047],["gondolkod",-10.251877290259113],["nyilatkozat",-10.25205333920496],["üres",-10.25288292928105],["lányok",-10.255110679302984],["következik",-10.255255276660183],["megváltoz",-10.255735869744942],["várakozás",-10.255967292181097],["Később",-10.256164967909235],["Eddig",-10.256253655994175],["jelzi",-10.256585472784934],["növeli",-10.256805479965626],["üzenet",-10.258128896291627],["kivétel",-10.258381235505869],["tervezés",-10.258384505196155],["Fő",-10.258548900438207],["áért",-10.259739970250358],["gondolja",-10.259756401134611],["mutatkoz",-10.25977958808705],["gépek",-10.260000173651402],["szenved",-10.260183436447],["ponton",-10.260464005609737],["cz",-10.260635388104891],["okok",-10.261075019871372],["világos",-10.261904851616295],["eredményt",-10.262864274698924],["vágy",-10.263049262127414],["állhat",-10.263281770904213],["tájékoztatta",-10.264385848874573],["szigorú",-10.26453892882438],["platform",-10.265830769937814],["térségébe",-10.266078073082301],["órát",-10.266183122143454],["Kossuth",-10.266313350605834],["Dávid",-10.266313360211402],["Zemplén",-10.266324133702401],["vélhető",-10.266336779379218],["jelentkezett",-10.266440652679606],["Erdély",-10.266781591965465],["tudomány",-10.26678454594806],["iskolába",-10.266972020863843],["próbált",-10.267152462792065],["gazdag",-10.26805131506695],["Ső",-10.268064993035306],["ágy",-10.268489786891113],["bizonytalanság",-10.268534658641848],["híres",-10.268827168232601],["FT",-10.269272799664208],["tény",-10.26957991629343],["MV",-10.269710765591988],["egységek",-10.270219588718163],["IT",-10.270681211146941],["vállalkozó",-10.271535711738444],["fokozatosa",-10.271640306250557],["épül",-10.271774796825976],["Mert",-10.272178723652733],["ró",-10.272405208316716],["enek",-10.272690083805262],["kerület",-10.27337343696334],["bizonyult",-10.273953913185071],["ézve",-10.274148382995396],["forgalmi",-10.274230986723772],["szel",-10.274554326046369],["dokumentum",-10.274603565007169],["erejé",-10.275232457239788],["jelek",-10.275313474328975],["forgatókönyv",-10.2761383344044],["Soka",-10.27630539120318],["Karácsony",-10.27662263206305],["mínusz",-10.276622664082979],["Fekete",-10.27667040238035],["múzeum",-10.277034959037037],["andó",-10.277496038177471],["felhasználó",-10.277730833816758],["intézet",-10.278712104480189],["bolt",-10.278939692217762],["ellenes",-10.279160534450742],["É",-10.279393333255488],["63",-10.280124612216367],["maradtak",-10.28029302785993],["ner",-10.280486861759957],["szűk",-10.280606844770443],["mértéke",-10.280721776931802],["párhuzamos",-10.280936983333621],["tulajdon",-10.281711879277037],["személyautó",-10.281909540847673],["rajongók",-10.28223107683943],["világban",-10.282268757332524],["tál",-10.283415633843479],["feltételek",-10.283659187825585],["udvar",-10.284477006029107],["ugrott",-10.28451484754682],["komolyabb",-10.284630024884823],["hatékony",-10.284812579671584],["küzdelem",-10.28570200960509],["repülőgép",-10.285704676315103],["áru",-10.286326069025444],["hit",-10.286573937911744],["Trump",-10.287039874898063],["migráció",-10.287040630299742],["szexuális",-10.287041719802946],["emelkedő",-10.287150523964955],["sék",-10.287385924012401],["előny",-10.288440292754018],["háttér",-10.288769261509998],["foglalkozó",-10.28902139475671],["ko",-10.28916455171665],["un",-10.289308851535662],["indít",-10.289673660663926],["családjá",-10.290287018322104],["64",-10.290544029333452],["telep",-10.290775707127676],["hozza",-10.291489085124953],["támadó",-10.292367881615156],["költségei",-10.292899910183143],["ajándék",-10.293574730425291],["vág",-10.29408846067361],["jen",-10.29412986941724],["vásárolni",-10.294436445441859],["buli",-10.294519948938778],["RT",-10.294569043742328],["vál",-10.294668037707652],["fent",-10.295300229462622],["újságíró",-10.295475272978575],["irányba",-10.296005872896654],["ős",-10.296153872742883],["művelet",-10.296477056362384],["hatalom",-10.296585379753163],["Pro",-10.29688218555248],["szóba",-10.29701075632228],["látogatók",-10.297183277927761],["horvát",-10.297203008667474],["bőve",-10.29733740579907],["innováció",-10.297565664781704],["Horváth",-10.297602287705523],["bennünk",-10.29765376204547],["egyszerűe",-10.29907569645059],["Törökország",-10.29939058149934],["éri",-10.299504363370387],["egyetemi",-10.299614371829986],["KB",-10.300281226872844],["elérte",-10.300295940270509],["véve",-10.300945307727723],["Kiemelte",-10.301430330148168],["eknek",-10.301517241643312],["00",-10.301518352638285],["házak",-10.30276909760952],["Sepsiszentgyörgy",-10.302853804966244],["mag",-10.302923846136826],["dolgo",-10.30306636246854],["használja",-10.303323739714186],["Magyarországr",-10.303558477640841],["Fi",-10.30365079175295],["Joe",-10.303917472144501],["rajt",-10.306008131896537],["szor",-10.306535916301778],["ajánlott",-10.306733468484918],["EP",-10.306917825761126],["büntető",-10.307471513989489],["Közép",-10.307792088786542],["maradni",-10.308051525570459],["szovjet",-10.308203922933515],["pénzügyminiszter",-10.30835727875045],["pártok",-10.308662068676291],["Ők",-10.309187368181435],["ismerte",-10.309230338394329],["büszke",-10.309959919421509],["nehézségek",-10.310456233799552],["Ferencváros",-10.310731780734777],["jelentene",-10.311249866334151],["ütem",-10.311286887310292],["beavatkozás",-10.311512680686786],["sí",-10.31196590135463],["futball",-10.31343065872545],["tévé",-10.313600360375847],["következet",-10.313659575021727],["esély",-10.313992446723294],["biztonságá",-10.313999151133462],["ését",-10.315413913603333],["megtesz",-10.315985843616694],["dik",-10.316258557907108],["évtizede",-10.316814878954322],["fáj",-10.316850117560351],["piacok",-10.316968527917862],["vállalta",-10.316989051570822],["Leg",-10.31713932112952],["méltó",-10.31742030359446],["növeked",-10.317616464577942],["jég",-10.317684906514266],["mentés",-10.317843900439472],["órán",-10.317950193402602],["díjas",-10.31848310296505],["stúdió",-10.318776152273207],["legjobba",-10.31885478463746],["Gy",-10.318945002146071],["Minisztérium",-10.318956597454742],["Négy",-10.318957575080855],["tulajdonosa",-10.319181884982134],["human",-10.319216402159553],["megpróbál",-10.319491448639567],["épült",-10.320111675427759],["mar",-10.320183029290458],["További",-10.32111073329633],["kilométeres",-10.321326022436264],["ötven",-10.322165803375174],["ására",-10.322370677462533],["megint",-10.32255444343318],["kölcsön",-10.322799451473884],["ötlet",-10.322830351031328],["munkahely",-10.3230946813135],["töltötte",-10.323372824346393],["szék",-10.323387704337499],["met",-10.32476040053686],["csapás",-10.32527984521368],["vezér",-10.325396048296431],["okos",-10.32549519015248],["SH",-10.326237738627572],["század",-10.328465100560432],["lángok",-10.328498831043813],["kötelezettség",-10.328805565471257],["hatott",-10.329485007354425],["pápa",-10.329893262821937],["Sztár",-10.329937400639103],["kontinens",-10.33003748731365],["csúsz",-10.33016357015363],["felhő",-10.331432436097653],["számlá",-10.331457902967093],["utol",-10.331488282941535],["ását",-10.332062189256078],["adhat",-10.332861462911675],["felel",-10.332914611715221],["állítani",-10.333702166736394],["területe",-10.334140976451014],["Mar",-10.334372688081878],["árulta",-10.334764759561086],["csal",-10.334886277578494],["vásárol",-10.334977127395597],["terjed",-10.33575046484901],["ikat",-10.336195636727279],["együttese",-10.336450074342242],["nyugdíjas",-10.33658407778648],["fenntartható",-10.337118621806255],["nyer",-10.337154257108],["jelenség",-10.337931979403832],["kilométerre",-10.338472796446785],["igényel",-10.338518379906422],["háztartások",-10.338605229573567],["vetett",-10.338700275255825],["79",-10.338843468214154],["69",-10.339027686282236],["várta",-10.339039773440412],["válás",-10.339084328565264],["mindennap",-10.339111862809336],["97",-10.3394270320461],["fordított",-10.33943269505172],["épített",-10.339719841836011],["gyógyszer",-10.339860706695191],["Utóbbi",-10.339950887482974],["öl",-10.340063216617903],["tapasztalt",-10.340420753612566],["száraz",-10.340650159620184],["Herszon",-10.34081556203379],["figyelmé",-10.340912641946938],["idejé",-10.341017074676493],["innen",-10.341321089759681],["figyelem",-10.342134531538942],["vásárolt",-10.342249796949696],["számolni",-10.342570358836145],["idősebb",-10.342900334792322],["So",-10.343052753671357],["életem",-10.343557098984416],["vezeték",-10.343877420981205],["Di",-10.34402140069706],["bel",-10.34429436353794],["segítette",-10.344407822392661],["hónapokba",-10.344556652517117],["eltelt",-10.344828197431767],["felügyelet",-10.345689942868546],["települések",-10.346768576056025],["javítás",-10.346774615386675],["had",-10.346909090752005],["ex",-10.346925919016993],["itárius",-10.348018962807494],["válaszolt",-10.349431380481054],["hónapos",-10.350152411714692],["művészeti",-10.350213438540766],["sokak",-10.350392369064389],["velünk",-10.350421440266356],["erősebb",-10.350493710060674],["biztosítj",-10.351146687749896],["kereszt",-10.351379040968304],["ciklus",-10.351722920825596],["eltűnt",-10.352171062440714],["Abaúj",-10.352197260463146],["indította",-10.35227996009958],["helye",-10.35241214491099],["előfordulhat",-10.352520038440653],["Johnson",-10.352624942365571],["and",-10.353548084062258],["végi",-10.3538434775222],["gyengült",-10.353846862505652],["projektek",-10.353890335711336],["sorozatban",-10.353971167490913],["telt",-10.354584172572336],["égett",-10.355215753593995],["Főváros",-10.35596971034057],["szerb",-10.356274440770989],["életünk",-10.356274830810882],["repülőtér",-10.357703843967606],["akkumulátor",-10.357765553773065],["fizetett",-10.357859943489974],["tölti",-10.358046376327056],["kedvenc",-10.358208153121044],["kerülni",-10.359082225095015],["igazság",-10.359410632019728],["irányítás",-10.360605171072905],["néző",-10.3613049821689],["magár",-10.36140151379836],["létrehoz",-10.361511981351258],["politikusok",-10.361869404822595],["tanárok",-10.361894534495889],["rdély",-10.363023200747257],["Gazprom",-10.36316402202443],["Novák",-10.363275903247128],["megújuló",-10.363296765463282],["eltérő",-10.363471471337915],["tagállam",-10.363541356897104],["nánk",-10.363624586788063],["helyét",-10.3639963966015],["ügynökség",-10.365250095964434],["egyház",-10.365459966925751],["játszotta",-10.365508927934629],["szeretett",-10.365653669602736],["ugyanaz",-10.36647314823064],["nyertes",-10.366730092224376],["hölgy",-10.366780222302761],["megszokott",-10.36746146575528],["építeni",-10.367586387143998],["hass",-10.367950562659829],["megvan",-10.368197552172404],["közleked",-10.368391269829413],["házi",-10.36859498646946],["körű",-10.369774216386295],["usz",-10.370049041919884],["létesítmény",-10.370357596607668],["robbanás",-10.37060385229822],["alpolgármester",-10.371011063810709],["ált",-10.371097253358862],["nnál",-10.371842134257431],["számítana",-10.372680287121556],["Kelet",-10.372837281154961],["csi",-10.3733301372115],["lényegé",-10.373435579606056],["ismertett",-10.373515410653766],["szereplők",-10.373849625174778],["bejegyzés",-10.373991735646712],["mozog",-10.374017461579008],["gondolat",-10.374211194586525],["fordít",-10.374421736072321],["Borítókép",-10.374525886915453],["ázsiai",-10.374525957988375],["közvélemény",-10.374765378443954],["fertőzött",-10.374840379645068],["megsérült",-10.37500281074087],["segített",-10.376062424815629],["tanácsadó",-10.376125248629588],["keddi",-10.376179349669194],["folytatni",-10.376548342065432],["versenyt",-10.377224448364721],["do",-10.377422897939077],["abba",-10.377568951461003],["rakéták",-10.377732354427662],["gyenge",-10.378363997735182],["végleges",-10.378631609877337],["szomszéd",-10.378639864061736],["vezethet",-10.379594437653783],["felújítás",-10.380163936728614],["Múzeum",-10.38016883412196],["maximum",-10.380485695142358],["mat",-10.381101437910917],["egyike",-10.381386469611002],["profi",-10.381523898203858],["ól",-10.381947952273546],["látogatás",-10.382154988960211],["fagy",-10.383268091742572],["vélemény",-10.383308673490822],["döntetlen",-10.38377917616917],["Bor",-10.383824955198705],["Cs",-10.384090764526707],["ségét",-10.384675840147322],["alkot",-10.384728217996571],["zenész",-10.38486433360752],["felmerül",-10.385223284039565],["káros",-10.385457116389944],["kutya",-10.385942684619849],["Példá",-10.386020161217267],["minimális",-10.386020226606192],["zsűri",-10.386020240136517],["kulcsfontosságú",-10.386029803119797],["Macron",-10.386034330064886],["Általános",-10.386048950304087],["Japán",-10.386079365668808],["lehetetlen",-10.38626405707945],["készülék",-10.386265432983937],["minőségű",-10.386346043272304],["visszaesés",-10.386382467022752],["különös",-10.386428294097868],["monetáris",-10.386500959597331],["fizetési",-10.386528157491867],["nyilvánvaló",-10.386649140211215],["játszani",-10.386754784140985],["reg",-10.387005017167512],["járműve",-10.387115998466399],["négyzetméteres",-10.387232245306492],["nyíl",-10.387311828875266],["ől",-10.387482734927943],["est",-10.387536486314637],["vidék",-10.387660239359356],["autós",-10.388075569662014],["ós",-10.38819108014724],["műanyag",-10.388246698514152],["katolikus",-10.388462990593723],["hírt",-10.38854010760101],["jöttek",-10.388547730515715],["szuper",-10.389224987555373],["edzés",-10.38929098734791],["számító",-10.389965880186566],["többségé",-10.390329958546955],["vegyes",-10.390718524117846],["mennyisége",-10.390907267019013],["helyes",-10.39132218107121],["név",-10.391481063491163],["kereskedés",-10.391533376889573],["közi",-10.392304271365784],["reagál",-10.392347947451306],["ö",-10.39241371227602],["méret",-10.392619435296728],["értékek",-10.392861887273387],["öltözött",-10.392977419802602],["változat",-10.393564569060526],["fogad",-10.39358628274803],["televízió",-10.393918358687685],["ovics",-10.394164164149089],["jegyzet",-10.395881748402573],["többé",-10.396213048684634],["fotót",-10.396517970636697],["meglévő",-10.396975189629664],["tüzet",-10.396997589575761],["helyén",-10.396998964454683],["vélt",-10.39738624181968],["Viszon",-10.397614851554277],["Telekom",-10.39764922671235],["pici",-10.39776329981358],["közgyűlés",-10.398004660217744],["iskolai",-10.3980595484307],["lezárt",-10.398373978722542],["vasárnapi",-10.398514799653785],["szabott",-10.398909564603132],["gondolo",-10.399810280245237],["szemét",-10.39988850935583],["foci",-10.40012181595989],["jutni",-10.400375191026011],["ru",-10.400976704608121],["beszéd",-10.401108803945535],["pi",-10.401467272018298],["alkotás",-10.401548509884181],["íz",-10.401904269598866],["76",-10.401918939626126],["videót",-10.40195935544515],["utáni",-10.402010382563045],["többe",-10.40261090192233],["Nép",-10.40263077364196],["repülő",-10.402785646669548],["egyet",-10.403278917050145],["jelenthet",-10.403418695781081],["TK",-10.403976171783615],["keresi",-10.404367227591553],["koreai",-10.404669276703931],["háborút",-10.404701409681268],["látvány",-10.405011058855623],["iparág",-10.405992204813682],["NP",-10.406104285990253],["köt",-10.406302250012416],["veszélye",-10.40643942798087],["ssé",-10.406491600322646],["78",-10.406512872293689],["ellentét",-10.407444665737287],["iába",-10.40749593372],["szolgáló",-10.407960282910333],["kancellár",-10.40847910758509],["emelés",-10.40851924860555],["minimum",-10.408794618394495],["elsődleges",-10.409543389962439],["72",-10.409615816806221],["éles",-10.409964289127291],["érintettek",-10.410232875483011],["legrosszabb",-10.41024729579669],["ügyek",-10.410561143958013],["állampolgárok",-10.410768462956607],["olcsóbb",-10.41078730333123],["kék",-10.41087646868435],["Romániába",-10.411525947349705],["jén",-10.411852057539207],["színes",-10.412174937387416],["MSZ",-10.412338132692405],["kettős",-10.413017593229672],["szoftver",-10.41322931594901],["hova",-10.413303617894856],["tapasztalat",-10.413663918575681],["fogás",-10.413695466405716],["eladó",-10.413813964477265],["84",-10.41386286894233],["DEA",-10.414386438681632],["zintén",-10.414403655722214],["milliós",-10.414445785431974],["szorul",-10.414769769502595],["ler",-10.41517646173967],["Nap",-10.41611865866788],["berendezés",-10.416887209835512],["házasság",-10.416894213578658],["filmek",-10.416953089455802],["mail",-10.417897300348915],["Mit",-10.418356925899658],["látogat",-10.418613127064207],["iroda",-10.418678051146081],["88",-10.418698223969283],["melletti",-10.420262734821168],["hétfői",-10.420425743325076],["kultúra",-10.42069584069729],["község",-10.421268413625457],["Vasárnap",-10.421317850460923],["Szatmár",-10.421339267636558],["kevese",-10.421341190444645],["nyilvános",-10.42149174402498],["feltétlen",-10.421559436015318],["épülete",-10.42182659310778],["légvédelm",-10.422303811992776],["megmenteni",-10.422503822598962],["legendás",-10.422592415738393],["listá",-10.422811805984974],["Molná",-10.422942196046488],["modellek",-10.423043093371295],["ügyvezető",-10.4231992500455],["Bar",-10.423722707929613],["érint",-10.42378168840289],["rosszabb",-10.424083366837333],["felhívás",-10.424433164447368],["küzdött",-10.424507941241657],["Párt",-10.424574757933021],["dolgozta",-10.425494339599805],["szurkolók",-10.425976644244617],["váltott",-10.426440485552359],["jal",-10.426879933506786],["felhívta",-10.427131775001913],["helyek",-10.427736669286688],["atomerőmű",-10.428146514042126],["utcán",-10.428388766420065],["rendbe",-10.42919444274653],["tudtu",-10.430481804196578],["célba",-10.430634281404462],["hő",-10.431294350419641],["tevékenysége",-10.431676806819684],["szereti",-10.43235172382436],["végzi",-10.432878627426184],["menő",-10.433165715407075],["ránk",-10.433219220970534],["Washington",-10.433365696588526],["izraeli",-10.43336577428001],["álom",-10.433484934146204],["népszavazás",-10.433495807152248],["utánpótlás",-10.433750946537616],["étterem",-10.434110208792884],["barátai",-10.434313487670877],["csinálni",-10.435507206144024],["tél",-10.435519935618977],["elért",-10.435638167464752],["Berki",-10.435682613562289],["illetékes",-10.436245790834594],["Kup",-10.436390063283632],["sáv",-10.43651113791044],["vezetést",-10.436526445601142],["mért",-10.436704365306632],["találkozón",-10.436747259064159],["szobá",-10.436845333859086],["Ro",-10.436872312814629],["Papp",-10.437083348340373],["198",-10.437218409938332],["beszéde",-10.437272379069054],["készen",-10.437933257157711],["hozzájárul",-10.438009150575008],["részletei",-10.438215498958925],["tört",-10.438305665662355],["szellemi",-10.438365880788272],["sikert",-10.438526015323859],["számunk",-10.439264965285266],["érthető",-10.439347014822845],["kezdté",-10.439790472161654],["játszi",-10.44167620269227],["emmel",-10.441820980681703],["harmad",-10.441905371099644],["tárgyak",-10.441965249964705],["81",-10.442337363865807],["megállapodást",-10.443054347922454],["Sch",-10.44311221514588],["perces",-10.443309837517349],["vállalt",-10.443816498945118],["posztjá",-10.443816919717733],["felület",-10.443987624122828],["látványos",-10.44456186311084],["Mindenki",-10.444986501692743],["Országgyűlés",-10.445566046776328],["Árpád",-10.445567578996876],["személyzet",-10.445644719799853],["Majd",-10.445745150953087],["nyitva",-10.445799985440726],["vajo",-10.445810607147553],["Hétfő",-10.445881418450242],["mesélt",-10.446403154567049],["barátja",-10.446767177079657],["képek",-10.446805402962813],["apa",-10.447425617019721],["tojás",-10.447574396979714],["elmondás",-10.447659715634627],["távoz",-10.447862280691279],["ügyfél",-10.448458026036374],["változatlan",-10.448545835196422],["lakó",-10.449439036015715],["tudtá",-10.44959073242304],["megjelenés",-10.450321638393033],["keresni",-10.450554654407167],["alkotó",-10.45076836841464],["kiegészítő",-10.450911787937237],["olcsó",-10.45152555784702],["képese",-10.451724523144406],["elkövető",-10.452668983363665],["lőtte",-10.453166022506965],["svéd",-10.453515459008564],["hatásai",-10.453894964104244],["környék",-10.45401796971834],["hátrány",-10.454200276762844],["mo",-10.455511252298308],["igazolás",-10.456005917017272],["tudná",-10.456126460816762],["fejlőd",-10.456611094711802],["működését",-10.456656440082957],["fertőzötte",-10.456888906733319],["helyezte",-10.457105286238136],["lánya",-10.457623025559677],["gázt",-10.457851619131988],["fideszes",-10.457906502391216],["afrikai",-10.457906582275886],["Jakab",-10.457920628310928],["fogva",-10.457921542706778],["Fotó",-10.457926918347555],["aink",-10.458142634859996],["öm",-10.458254706289862],["támogatott",-10.458299690689067],["hetedik",-10.458666088125456],["Jobbik",-10.458785845626556],["gázolaj",-10.458859179937054],["fogadja",-10.458878239567582],["érvénybe",-10.459079768900619],["figyelni",-10.459586598783268],["kezelésé",-10.460243493713664],["felszerelés",-10.460253940598887],["kezdődő",-10.460271921715751],["89",-10.460396572268603],["futott",-10.460741843236022],["láttá",-10.460933439414559],["szokás",-10.461692919153261],["remél",-10.461832127457527],["következményei",-10.462109268290774],["levele",-10.462120655930173],["úti",-10.462289389263766],["műtét",-10.462774272063124],["együnk",-10.46278110332005],["börtön",-10.463173443950353],["korszak",-10.463346416199261],["turisztikai",-10.463878410720193],["téri",-10.464776279698022],["zuhant",-10.46501353324796],["osztotta",-10.46559026128454],["ád",-10.465919372457524],["parti",-10.466338529587944],["87",-10.467264576907649],["Orosz",-10.467725888230772],["társai",-10.467827739209419],["dőlt",-10.467890960298302],["újdonság",-10.468030969959301],["közlése",-10.468077046738268],["tük",-10.468165273570161],["hagyni",-10.468583650702],["hamarabb",-10.469318483766262],["Jo",-10.469729047893898],["technológiá",-10.469847769909936],["politiká",-10.470354874884796],["kijevi",-10.470424860496195],["Judit",-10.470446319430991],["gazdálkodás",-10.47048602934731],["Edin",-10.470672451492845],["csökkenteni",-10.470754439348342],["házaspár",-10.470788125928063],["variáns",-10.470860039937186],["összességé",-10.471126317232134],["lövés",-10.471198100555355],["színpad",-10.471538237995556],["összefogás",-10.471911861022061],["húz",-10.471963676081316],["szokta",-10.472658320002761],["közbeszerzés",-10.474620708637232],["tizenkét",-10.4750572572916],["csatlakozás",-10.475108195977569],["nappali",-10.47522241488588],["kezdő",-10.47557981703575],["nőttek",-10.47600977738616],["iskolá",-10.476085945871532],["kezelő",-10.477581086045268],["megszűn",-10.477639063521258],["eredményei",-10.477750193654423],["négyzetméter",-10.478425338288957],["77",-10.478663528990708],["érő",-10.478699146850857],["Szó",-10.478823484252336],["hamis",-10.479008863881702],["versenyzők",-10.479156512779173],["esztendő",-10.479310278776225],["váltak",-10.47966789228277],["legfő",-10.479719401428888],["hunyt",-10.479745723189012],["ho",-10.481142671699072],["mentális",-10.481578341790648],["érzékeny",-10.482108837720148],["divat",-10.482317676164019],["1000",-10.482497829816278],["károk",-10.482625493079585],["Sepsi",-10.483035684521512],["londo",-10.483071435649908],["tüzérség",-10.483147262039772],["önkormányzatok",-10.48326719508238],["földi",-10.48347220598232],["61",-10.483496016225228],["Horvátország",-10.483520258315032],["Spanyolország",-10.483615514826425],["tudatta",-10.483756310726095],["ási",-10.484247158803566],["gyilkosság",-10.484377910531778],["támogatások",-10.484702349091236],["Tisza",-10.48522960329884],["százalékpont",-10.48530227518481],["támad",-10.485773162870965],["Világ",-10.485887809066309],["dísz",-10.486095127541088],["ebbe",-10.486203066726825],["egyeztetés",-10.486706850861333],["eredményes",-10.487639047743723],["oszt",-10.48767099368781],["pozíció",-10.487927514025577],["ellene",-10.48796915226994],["sorra",-10.488310810893319],["éjszakai",-10.489139066705604],["szerezni",-10.489311252720597],["tőke",-10.489601908292997],["má",-10.489888880662306],["többlet",-10.489893427987397],["fejlesztésé",-10.490283708360568],["fut",-10.490704037865191],["forma",-10.491311689069228],["céljá",-10.491728446261703],["kov",-10.492215659862271],["döntések",-10.493222616628653],["körzet",-10.493399312831546],["pl",-10.49386213450006],["védett",-10.493998162956863],["Béla",-10.494138330721082],["ritka",-10.494308124700876],["írni",-10.494349215324338],["idősek",-10.494578483590793],["vihar",-10.494653947563403],["informatika",-10.49476600828946],["amel",-10.494902937938281],["KD",-10.494913509154147],["einek",-10.495344873129337],["válaszol",-10.495397347322072],["érdem",-10.49549280170233],["Reuters",-10.495885239693006],["Puskás",-10.49588525612263],["tragikus",-10.495885497458758],["véleked",-10.495887694667765],["Richter",-10.495890494296725],["Érdem",-10.495954043048314],["termés",-10.496168019961937],["meglehetős",-10.496198625085544],["elkezdte",-10.496608855945013],["ival",-10.496767652057422],["robot",-10.49677717921288],["erőteljes",-10.497644500187747],["ája",-10.49841451917012],["nagyszerű",-10.498534077344917],["talaj",-10.49884641741315],["építése",-10.499026572016062],["DVS",-10.499306758662165],["eken",-10.49970207966836],["port",-10.499726968962651],["Pho",-10.500205119390785],["und",-10.500543194083832],["munkavállalók",-10.500675193267217],["lehetőségét",-10.500687861585362],["beszámolój",-10.500939971148886],["döntése",-10.501116878094734],["kamatemelés",-10.501347321833439],["szakértői",-10.502420332631429],["alternatív",-10.502513897319428],["terve",-10.502880672696278],["ülés",-10.50291378610498],["emelni",-10.503093334443552],["teli",-10.503371402226866],["léptek",-10.503805363101204],["agresszió",-10.504354859575205],["díjak",-10.50472785896604],["hi",-10.504812111980462],["rádió",-10.505207235056284],["kedvezményes",-10.505416865848385],["fektet",-10.505968126684408],["várakozások",-10.506028692447],["ionális",-10.506487712663102],["csökkentett",-10.50700284358367],["megtakarítás",-10.507177183430654],["tartomány",-10.50725863433097],["kapunk",-10.507530574357283],["kapcsol",-10.507770962776533],["hirdet",-10.507890911047069],["Fehér",-10.508311197768254],["kitért",-10.508342520456832],["szk",-10.508526945544267],["viadal",-10.5086567840985],["Hungary",-10.508872260222457],["Program",-10.508872285114279],["Szlovákia",-10.509005023575515],["főtitkár",-10.50942947436937],["árstop",-10.509827698956528],["ép",-10.50991859626162],["úszó",-10.50996291269927],["körbe",-10.509963773260957],["szavak",-10.510032707201093],["tár",-10.5103840177635],["elismerte",-10.510444662010471],["legalacsonyabb",-10.510637230149992],["korlátozások",-10.51121076659318],["tétel",-10.511372877130757],["bevezetet",-10.512674882254215],["emlékezet",-10.512722388923338],["gő",-10.513399004934524],["Air",-10.513696318881657],["nom",-10.51389360206582],["réteg",-10.514205279632055],["katoná",-10.514253376585035],["eink",-10.515270148175427],["tölt",-10.515277744811495],["parkoló",-10.515306905940836],["fenyegetés",-10.516460605585817],["javasolt",-10.516620873581665],["sérülések",-10.517316158178893],["96",-10.518248544272549],["társa",-10.518430187186354],["kiadó",-10.518482629755379],["szent",-10.518745133045723],["tempó",-10.519345472120634],["tiszta",-10.519940646611225],["haj",-10.51998864929297],["programjá",-10.519993692813884],["vizsgált",-10.52095410131074],["otthont",-10.52172726241879],["Moszkvá",-10.521739433555009],["föl",-10.521936950581926],["Tesl",-10.522076843320754],["vallomás",-10.522247661256174],["játsz",-10.522680955736018],["fölött",-10.522771569316347],["hírportál",-10.522856485915206],["Liga",-10.523012635767904],["alsó",-10.523091742372468],["büntetőeljárás",-10.523443978579937],["Mark",-10.524173568503526],["szankció",-10.524956069290726],["képvisel",-10.525190784369615],["szokott",-10.525349149271735],["juttat",-10.525628273474233],["segítene",-10.525691050470389],["tárgy",-10.525825837207327],["származ",-10.52585789787189],["sötét",-10.525889130174207],["veresége",-10.526217754612652],["ingatlanok",-10.526462275799243],["piacr",-10.527038211872066],["com",-10.527499025158633],["menté",-10.527614782612504],["hallott",-10.528708791659557],["tanul",-10.52883076189827],["esté",-10.529181506398166],["elit",-10.529635258930803],["télen",-10.529963524169922],["bizonytalan",-10.53036101702211],["támogatta",-10.531055916480604],["utalt",-10.532039159182444],["szerez",-10.532179778925899],["fenn",-10.532678037026141],["főút",-10.53313018192616],["TE",-10.533301419906753],["ezelőtti",-10.53341797800632],["sárga",-10.534575853355099],["augusztusban",-10.53504431870838],["hagyomány",-10.535151536052801],["Bihar",-10.535363568006154],["Egyéb",-10.535369796811176],["kreatív",-10.535436210974668],["próbálja",-10.535439742837607],["gyilkos",-10.536040454510925],["elemzés",-10.536404266842116],["legközelebb",-10.536549520793148],["váltani",-10.536811412322978],["riasztott",-10.536867827934522],["kihasznál",-10.537082859446038],["véd",-10.53729104989445],["lét",-10.537612071655172],["érnek",-10.537828610997245],["kereste",-10.538025223920158],["teljesített",-10.538195039409995],["szállás",-10.538435306316945],["óvoda",-10.538488127111847],["félre",-10.539101282298425],["elfogadott",-10.53930123508118],["bő",-10.539318119337025],["!\"",-10.539323439615913],["teher",-10.539442742917512],["visz",-10.540444905972935],["autót",-10.541125960630449],["vadász",-10.541734728534545],["igyekezet",-10.54248115056108],["ügyvéd",-10.542905389337683],["egyensúly",-10.543084277045713],["keletkezet",-10.543556599220345],["aggód",-10.543589417520565],["meghaladj",-10.54369059811162],["tűzoltó",-10.543888364639496],["Star",-10.544313032174925],["épületek",-10.54445740288883],["sportág",-10.5447443119233],["doboz",-10.545133731914733],["Kárpát",-10.545193012366607],["karbantartás",-10.545557522053777],["ozó",-10.54573320423022],["beleér",-10.545995244710978],["tol",-10.546423947864486],["százezer",-10.546487640528465],["házat",-10.54661186082284],["fenti",-10.54782694050368],["hibrid",-10.54887699511998],["furcsa",-10.54887906793357],["megalapozott",-10.548880289358138],["Robert",-10.548887882581194],["ismerős",-10.548897938623751],["recesszió",-10.548905383495317],["fotók",-10.549174430234377],["református",-10.5492604043529],["tavas",-10.549267343139023],["Németh",-10.549267814212891],["rendelt",-10.549298737928105],["iket",-10.549640895114347],["elejé",-10.549749924032788],["támogatását",-10.549846198311307],["Hogya",-10.549867708946046],["aligha",-10.550354808997508],["kormányzat",-10.550631241549137],["Dániel",-10.551403987822962],["fennáll",-10.552180755896396],["land",-10.552480031736284],["élte",-10.552992414197572],["funkció",-10.553090236477633],["felnőttek",-10.553940579266627],["nevelés",-10.553963690557843],["északkeleti",-10.553985621693926],["töltő",-10.554160430183579],["viszi",-10.554233695270305],["gabona",-10.554799973086432],["betét",-10.555537909749908],["nyomozók",-10.555709079472145],["hangsúly",-10.556259391479376],["po",-10.556525168750694],["vezettek",-10.55698584575308],["gazdák",-10.55756971605981],["baba",-10.558175034184313],["lég",-10.559250545095999],["átállás",-10.560034793062982],["tekinthető",-10.560146771228805],["enge",-10.560237158816609],["for",-10.561223122009782],["továbbiak",-10.561671350147432],["turizmus",-10.562576597039502],["Amerika",-10.56258039340937],["közigazgatás",-10.562589825189928],["bővült",-10.56312842137827],["Szilágyi",-10.563208421178023],["UX",-10.56324021718057],["életébe",-10.563268328623455],["történeté",-10.563399194201263],["ásra",-10.563690585238337],["óriás",-10.563837596742244],["Lehet",-10.564108152655233],["74",-10.564141069040982],["boldogság",-10.56481901022676],["71",-10.565054773005953],["rendes",-10.566018850396665],["használható",-10.566266335217069],["pillanatok",-10.566309362138998],["újságírók",-10.567527373297526],["készülő",-10.567764586831093],["felhős",-10.56792719815924],["hitelek",-10.568196248424783],["só",-10.568453244603823],["kerülő",-10.569399779316777],["személyiség",-10.569412735783203],["nyíregyházi",-10.569528990101949],["esebb",-10.569623145638017],["kereső",-10.570148280775609],["királyi",-10.5702590747426],["hassa",-10.570337793865557],["ritkán",-10.570463246035054],["kereskedők",-10.570518206448407],["mozi",-10.57119644111119],["Közel",-10.57183594014463],["háromszéki",-10.57201506029033],["Inter",-10.5723697792365],["estek",-10.57259972864102],["elemzők",-10.573018280457497],["kulcs",-10.573144020087543],["forgatás",-10.573166534047445],["nyújtani",-10.57417488793606],["indulás",-10.574328538039511],["ablak",-10.574417754017311],["nénk",-10.574428486379212],["küldte",-10.57464891715719],["járás",-10.574774644457797],["erőt",-10.575157466539634],["készpénz",-10.575347486181531],["számom",-10.575433337355179],["feladata",-10.57558856300312],["alapanyag",-10.575786596052804],["tartalék",-10.575806376702548],["mérte",-10.57599990527098],["táj",-10.576174677046168],["show",-10.57641615593779],["törzs",-10.576460059435966],["Veszprém",-10.576464511819069],["moszkva",-10.5764659465273],["drága",-10.576486452466042],["lépcső",-10.576487231712026],["rapper",-10.576553602443798],["belügyminiszter",-10.576574872291133],["NAV",-10.576823903063929],["Számos",-10.577143370191065],["kezelni",-10.577407838774846],["cikke",-10.577637840273765],["82",-10.577880762146158],["automatikus",-10.578063799845246],["érkez",-10.578216091701663],["top",-10.578473999770235],["Hangsúlyozt",-10.578651712325417],["rivális",-10.578756947131552],["győz",-10.578765530771824],["korai",-10.578980350709212],["válaszadók",-10.579425912135594],["ajánlat",-10.579456787853704],["mu",-10.579528082174372],["energiaellátás",-10.57961061482899],["Milyen",-10.579907932763827],["Emm",-10.580144418697188],["váltó",-10.580553473480279],["Hol",-10.58084647921812],["int",-10.58100247117495],["művészet",-10.581362334848869],["pénzek",-10.581771908450056],["jelenlété",-10.583272632715872],["döntötte",-10.583447479052417],["Szerintem",-10.583454715871055],["érhető",-10.58392820579023],["tárcavezető",-10.583932795338718],["ígér",-10.585107887947485],["minőség",-10.585302280023317],["gondoskod",-10.58637289869783],["apság",-10.586729137239871],["problémá",-10.58679807620495],["Dunaújváros",-10.586883624821802],["hitte",-10.587130676358084],["szerződések",-10.587345150192531],["részlet",-10.587454797903519],["csillag",-10.587743690747294],["mindkette",-10.588283877836865],["építési",-10.588847712051354],["vas",-10.589258336978254],["jelzés",-10.589947044226294],["hagyja",-10.59041432407763],["Mészáros",-10.590549036897798],["Teljes",-10.59055060982908],["határozott",-10.59067007636365],["római",-10.590750536362243],["hallgat",-10.590858180526695],["Kiderült",-10.590861442234647],["autópálya",-10.590873683693369],["partnerek",-10.591273704878496],["időnként",-10.59132471181592],["szert",-10.591806104645002],["viharos",-10.59195201673883],["Csehország",-10.592738917485082],["ET",-10.592800463058435],["övezet",-10.592922091911595],["fejlesztése",-10.59294641155228],["megbeszélés",-10.593426379019363],["Ott",-10.593715889415499],["fogyasztó",-10.593737913017403],["világjárvány",-10.594118855800794],["kizárt",-10.594209444314096],["ozott",-10.594307293926445],["csalás",-10.594568724995337],["elmarad",-10.59485385066065],["csatá",-10.594977697979449],["üzletember",-10.595797734208592],["északnyugati",-10.595941484713187],["panasz",-10.59633770106928],["előadó",-10.597732417236397],["ételek",-10.597810208785756],["elégedett",-10.598993197028335],["fejlesztő",-10.600479609634206],["technológiák",-10.600578235382843],["területi",-10.600653639372464],["kezdeményez",-10.600657475846713],["munkatársa",-10.60097934787878],["járni",-10.601019967466097],["államok",-10.601134288233744],["fiúk",-10.601209402831323],["elismerés",-10.601315222996913],["találtá",-10.60144787162406],["befolyásolj",-10.602024059189816],["tényleges",-10.602148293531961],["aszály",-10.602395483760414],["Miniszterelnök",-10.603067283287334],["luxus",-10.603082684605262],["vörös",-10.603686881248109],["vizsgálatok",-10.6036894221076],["készít",-10.603989118177505],["frank",-10.604307183024215],["lélek",-10.604310913572853],["»",-10.604834733144965],["Zsófi",-10.604835130452894],["Németországba",-10.605096369070946],["valah",-10.605396455828297],["egyedülálló",-10.605397954031865],["betegségek",-10.605401848764108],["emleget",-10.605417014851763],["vásár",-10.60544692709379],["lehessen",-10.605882978559418],["meccse",-10.605934538608174],["Város",-10.6059662279572],["Irán",-10.606161340840416],["maximális",-10.60645729716034],["mezőgazdaság",-10.606824622343556],["megosztott",-10.606826062659842],["DV",-10.60717865243874],["Való",-10.607527980716217],["egészségügy",-10.60761576673717],["szöveg",-10.608275471961086],["73",-10.60851158036103],["márka",-10.608568563255492],["tulajdonosok",-10.60864776200494],["nyelvű",-10.609416042283172],["kívüli",-10.609427829991635],["normális",-10.609570952393321],["fellépés",-10.609944808394648],["trend",-10.610412230774296],["vinni",-10.610765385671593],["du",-10.61109236526932],["köd",-10.611359477130552],["Pár",-10.611493027358105],["megjelenése",-10.61165122694435],["meccsen",-10.612160876749082],["remény",-10.6122083144032],["párja",-10.61231336032649],["baráti",-10.612352568880322],["Vár",-10.613193736896733],["SC",-10.613800785435043],["vállalati",-10.614052723884704],["felelősség",-10.6144958799504],["téma",-10.61536999083608],["minőségi",-10.616122543458893],["hango",-10.616265701288881],["helyzetek",-10.617117444692603],["gyakori",-10.617381689299691],["kiadások",-10.617434965421634],["állítása",-10.61770917817621],["száll",-10.617850300170145],["esküvő",-10.618022399665932],["búcsú",-10.618697321805517],["tanult",-10.618873886385419],["kérés",-10.618899099994563],["enyhe",-10.619330423111368],["Hazánk",-10.619330896731501],["Finnország",-10.619352107843493],["tar",-10.619353083078824],["Kovászna",-10.619417283928088],["Csütörtökön",-10.61943745765194],["Korea",-10.619886112204174],["színvonal",-10.620044792151411],["belváros",-10.62011377608296],["tartalmazó",-10.62087549679877],["rendezi",-10.62136958152576],["támogatni",-10.621484084609696],["válhat",-10.621595035284365],["könyve",-10.622214318866405],["munkák",-10.622443550540625],["építőipar",-10.622546956509936],["foglalkozni",-10.62262957987225],["információi",-10.622640067682344],["go",-10.622803814887833],["lik",-10.623197709198827],["foglalkoztatás",-10.623227592904062],["tájékoztató",-10.623379144655157],["rövidebb",-10.623612742991174],["fenntarthatóság",-10.623933774967682],["léphet",-10.624053657874402],["alelnöke",-10.624222218651223],["csere",-10.624345743487973],["háztartás",-10.624530219980937],["futás",-10.62471510932177],["ütött",-10.624722560202805],["kérni",-10.624782614049002],["Öt",-10.625173905616826],["szomorú",-10.626078854326042],["másképp",-10.626313293494858],["tve",-10.62645999731861],["érkezne",-10.62740607273967],["Olaszország",-10.627599038463774],["ásával",-10.627608662531811],["edett",-10.628148019046062],["tárgyal",-10.628171860618444],["vezeti",-10.62845905342596],["hajtás",-10.628491430269035],["klíma",-10.628694135233015],["Debrecenbe",-10.629796827322574],["húzódó",-10.629909502982768],["finn",-10.630039466577912],["gyorsabb",-10.63115717366096],["94",-10.631363409567456],["foglal",-10.631387572461424],["fűzte",-10.631837257245689],["kezdi",-10.631911772107802],["képernyő",-10.63244341493342],["csatorná",-10.632728232631655],["kapni",-10.63285436798773],["kamera",-10.633509426063284],["ă",-10.633589459372393],["megkapta",-10.63387466539698],["Akadémia",-10.634033377877781],["szlovén",-10.634036459140333],["hetetlen",-10.634067615863469],["Bajnokok",-10.634234823062698],["tanév",-10.634260210235205],["szigorítás",-10.634293962969611],["brazil",-10.634425563886253],["újság",-10.634555876212016],["kávé",-10.634733883538738],["könyvtár",-10.63476666056912],["szállít",-10.63484600886199],["szabályai",-10.635218914434047],["Szerdá",-10.635246111936755],["bio",-10.635292111604358],["adomány",-10.635630403614973],["médiába",-10.635938091294838],["tanulás",-10.63598552505487],["Ezút",-10.636223620678066],["160",-10.636380575523852],["selejtező",-10.63644135717756],["hívott",-10.636748492772218],["jellemzőe",-10.637356047285857],["ésére",-10.637804987843824],["csökkentésé",-10.638428870951188],["szeretettel",-10.638552531849987],["későbbi",-10.639000459403523],["villamosenergi",-10.639121716215396],["elsejé",-10.639251334665746],["kód",-10.639408284613932],["elfog",-10.639519495604883],["csarnok",-10.639660744113314],["szelet",-10.640032959146092],["86",-10.64011330676949],["ital",-10.640254749776512],["sák",-10.64061134632961],["tölteni",-10.640990879734318],["tisztába",-10.641298109646215],["old",-10.641831707026032],["cal",-10.642284604206267],["magyarság",-10.642638278821373],["szintet",-10.643041951528026],["össz",-10.643101680840475],["oroszország",-10.6432605891546],["vásárló",-10.643272441031248],["hozhat",-10.643643047393997],["helyzetét",-10.643655960939816],["legkisebb",-10.643795845151924],["futam",-10.644247548135496],["Park",-10.644310814357567],["mostaná",-10.645516399341338],["számá",-10.64583764066975],["ültet",-10.646116207659613],["agresszív",-10.64620491418404],["Szlovákiába",-10.646793834841981],["értékes",-10.646797812960322],["szögezte",-10.646860974953338],["szerző",-10.646884138088364],["szi",-10.646951394002322],["ahonna",-10.64697537423725],["hős",-10.647178678176381],["hall",-10.648040028859462],["fizette",-10.648276010085258],["Farkas",-10.64894710482858],["Izrael",-10.648958929893254],["Ákos",-10.648970532618574],["nagyot",-10.649053458344435],["Dmitr",-10.649130882069871],["Pécs",-10.649165277915795],["bátra",-10.649192387886428],["elengedhetetlen",-10.649244401659072],["fejlesztők",-10.649251091823384],["Kedd",-10.649345032268608],["rámutat",-10.650443863113669],["csap",-10.650728653125572],["megkérdezettek",-10.651185490370572],["cukor",-10.651458729192322],["ugyanez",-10.652122667821235],["kábítószer",-10.652153647531795],["botrány",-10.652158717265548],["eredményeke",-10.65222868132787],["sztrájk",-10.65241169718367],["Minde",-10.652462137373805],["valamelyik",-10.652772654418154],["változó",-10.65287993485474],["bevételek",-10.653034508875896],["bán",-10.65332738083617],["gépkocsi",-10.653441075303672],["Alexandr",-10.653724521492105],["bizonyítj",-10.653835040573004],["Pest",-10.654584027658384],["ébe",-10.65519233619187],["üzenete",-10.655461289209573],["Ho",-10.655509720558463],["készítette",-10.65604751929175],["olás",-10.656260790560115],["számla",-10.656348868947536],["gondo",-10.656504854144256],["megvalósul",-10.656750089633432],["szolgálja",-10.657568524839807],["csendes",-10.657626455211759],["Kor",-10.657891404081038],["ron",-10.658120431885152],["83",-10.658556825073358],["fordulójába",-10.658557024861294],["hiánya",-10.659050900608445],["Po",-10.659202677831335],["szolgáltatók",-10.659231453411067],["fül",-10.659357427227164],["fokozott",-10.659682395366998],["alapító",-10.660026784238795],["juttatás",-10.660375529442902],["lemez",-10.66105430641727],["drágább",-10.661178516392706],["agrár",-10.661387106130968],["főpolgármester",-10.661512729518378],["komolya",-10.661891403112909],["ütötte",-10.661895955349554],["tanú",-10.662220366913772],["építkezés",-10.662351923914006],["súlyosa",-10.662938039501938],["vegye",-10.66295502402864],["fák",-10.66388416194846],["régen",-10.663966231276742],["mögé",-10.664110381887063],["Scholz",-10.664110635308656],["Svédország",-10.664115405492613],["magazin",-10.664117217121138],["stressz",-10.664123419200886],["szokatlan",-10.664144649793279],["Bereg",-10.66429992634787],["tavaszi",-10.664361996766395],["alkalmaz",-10.664498425564425],["köthető",-10.664542136260186],["hasonlít",-10.665048549674324],["reklám",-10.665293728952792],["belföldi",-10.665450931453062],["rám",-10.665536955930168],["alak",-10.665883062729396],["jelöltje",-10.665916133984297],["utóbb",-10.665964641974645],["kapitány",-10.666022003400299],["alapok",-10.666120143487626],["szélesebb",-10.666465835266344],["ülő",-10.66660983767828],["fér",-10.666637818560229],["elkövetésé",-10.666691596830592],["lapot",-10.666766302975038],["Tom",-10.666808392396078],["akadt",-10.667663101051414],["szakma",-10.667678967919207],["Antal",-10.667887026169245],["vezetése",-10.668326979761797],["rendezte",-10.668892823074952],["valószínűség",-10.669118559560394],["bevezetése",-10.669363688259978],["nyúl",-10.669397991375668],["vizsgálato",-10.670193638366776],["drámai",-10.670278276666405],["kapcsolód",-10.670410275103997],["Ko",-10.671015114503913],["kapja",-10.671890015929332],["ps",-10.6720702897362],["közlekedő",-10.672570366897931],["épülő",-10.67265237686038],["csökkentése",-10.673151083745784],["kereskedő",-10.673273533417412],["kormányzó",-10.67333204835085],["sorolta",-10.67371262858675],["tároló",-10.673939678017723],["sztori",-10.673986613637645],["csoportjá",-10.674181754503657],["közlés",-10.674700523737524],["áldozatai",-10.67479089679362],["kárt",-10.675890573098204],["hektár",-10.676041103544677],["elemző",-10.676300575559402],["inket",-10.676399230577708],["elindult",-10.676956177406218],["bejelentése",-10.67733148872847],["érhet",-10.677871806544555],["járta",-10.678996418995904],["görög",-10.679168517477002],["szervezete",-10.679204635913695],["színpadr",-10.679237431279383],["mentek",-10.679273681877604],["he",-10.67946676201403],["fájdalom",-10.679484846684318],["Gimnázium",-10.679494872791555],["Szolnok",-10.679494938174418],["veszélybe",-10.679527879934435],["megyé",-10.679553528427988],["extrém",-10.679669030805755],["Honvédség",-10.679770041728686],["cserébe",-10.679780729331373],["évé",-10.67980169002428],["DA",-10.679846023051176],["To",-10.680003573741306],["leinte",-10.680138668847047],["fém",-10.680587483380897],["körülményei",-10.680725625529064],["Ben",-10.681157973399],["építő",-10.681275983459514],["felszín",-10.682582816330626],["hirdetés",-10.682717197108706],["húzód",-10.683087925371726],["címvédő",-10.6833027690442],["idéz",-10.683507474018594],["békés",-10.683708861627757],["szomszédo",-10.683720417948194],["aratot",-10.685082467413451],["holnap",-10.685289171194459],["Nos",-10.685916704617037],["kiskereskedelm",-10.686387086266604],["árbevétel",-10.68642203971158],["ics",-10.686621791794918],["erősíti",-10.68664804182341],["tavasz",-10.687125243910105],["elmond",-10.687240088203122],["ügyébe",-10.687841857547102],["összegű",-10.68820319504945],["Teh",-10.688287852567342],["csökkenti",-10.688688421841583],["eladás",-10.688692647482611],["szerep",-10.689381307729919],["Állam",-10.689542857776289],["verzió",-10.690262616543901],["állapota",-10.690266517771889],["inflációt",-10.690289986583316],["szót",-10.690586084318268],["Ö",-10.691004261477383],["búcsúz",-10.691012434583353],["emelet",-10.69137050897655],["esél",-10.691842648619435],["elnököt",-10.692214578339179],["rendőrségi",-10.692558942433408],["adót",-10.692788264125422],["Sto",-10.69316130319125],["fiók",-10.693259272369552],["veszélyt",-10.69329171766927],["terjedő",-10.6934517416348],["információt",-10.693837570810391],["örül",-10.694298442172038],["élénk",-10.694676255049094],["kabinet",-10.694795882988249],["gimnázium",-10.695119872791569],["Svájc",-10.695119873363774],["Jövő",-10.695119956617596],["elektronikus",-10.69529390552454],["City",-10.695353527154811],["Ligája",-10.695385687575065],["eleje",-10.695497538561439],["elnevezés",-10.696266710785912],["Games",-10.697880465160697],["tiszt",-10.698551357779152],["temető",-10.69903144464626],["közülü",-10.699104145384299],["forintnyi",-10.699798343469453],["fenyeget",-10.70038929680076],["halott",-10.700929489140082],["cikké",-10.701127835752134],["ító",-10.701452061213505],["láz",-10.701468428358393],["ellenfele",-10.70275018127052],["szed",-10.703711310094079],["tiltott",-10.704618585574003],["távoli",-10.704862118939987],["határo",-10.704984649728331],["gu",-10.705121868877477],["termelők",-10.705854508864121],["műsorába",-10.705916558902134],["tőzsdei",-10.705993215570999],["fe",-10.70614894123416],["indulhat",-10.706160380405773],["elege",-10.706838823373522],["csapódot",-10.7074455418901],["beszámoló",-10.708064008718623],["feleségé",-10.708164338852677],["nyerni",-10.708435681924731],["szál",-10.708514232266788],["Éva",-10.708701568327594],["zivatar",-10.708777588830193],["színű",-10.708779704669354],["erőmű",-10.708819079943972],["ellenállás",-10.708971797429903],["megtartott",-10.709018018958822],["Egyes",-10.709358345072662],["mikro",-10.70942724007833],["Val",-10.709431891632464],["kellő",-10.709832162888787],["tartalmak",-10.710226737298786],["Alap",-10.710737363786503],["Nehéz",-10.710992889553914],["marketing",-10.710993096627776],["Remél",-10.711056082473593],["rubel",-10.711060021033134],["Dunántúl",-10.711062913440346],["származású",-10.71108187777322],["személygépkocsi",-10.711133488196726],["kézzel",-10.711299310542667],["támadást",-10.711509731690473],["Erst",-10.711716633144643],["US",-10.71181931688686],["érdekelt",-10.71185812039553],["Vaj",-10.712170381101817],["mehet",-10.712907542217494],["zük",-10.712937987121707],["Közölt",-10.7131808771354],["jegyek",-10.71335089200112],["ezres",-10.713795405577926],["ává",-10.713808155131542],["nyitás",-10.713851749874172],["Pi",-10.714588022947854],["adósság",-10.71498061158514],["képesség",-10.715070308254537],["utasok",-10.71547441898403],["kitörése",-10.715491997106437],["ruha",-10.715508277965801],["működésé",-10.715539477179941],["2008",-10.715662315060737],["hy",-10.716419018835623],["halálá",-10.716459450011996],["életre",-10.716525958665965],["hozzáférés",-10.716921895989703],["szakmá",-10.717217511519724],["vallás",-10.717340238850499],["szólv",-10.717430932617802],["használta",-10.717787436609253],["támadta",-10.718089861550398],["számot",-10.718445999864752],["rendezés",-10.71904693925866],["rajz",-10.719869680414629],["eseménye",-10.720010404572815],["véleménye",-10.720041154026507],["játszó",-10.72031115352609],["halálát",-10.720529504562624],["nyaralás",-10.72068958376073],["Me",-10.721140610709288],["Szer",-10.721197935791125],["MI",-10.721773342658478],["alakított",-10.721870282684204],["megmutatta",-10.722511278065713],["változtat",-10.72274914781018],["hatékonyság",-10.722964387776056],["megelőzés",-10.723055518755405],["vezetőjé",-10.723135960279869],["boltok",-10.723360245856295],["felhív",-10.723612108208727],["mos",-10.72371569555672],["ápol",-10.723883600731412],["lor",-10.723918263188029],["kutak",-10.724408938603505],["telen",-10.724727999099544],["kelt",-10.72473813352274],["vád",-10.724823264979594],["testi",-10.7255313684476],["multi",-10.725759585583113],["szíve",-10.72614004513813],["Klub",-10.726238378081716],["Király",-10.72628109509095],["hatály",-10.72655615543978],["tartalom",-10.72666598643631],["érdemi",-10.726727050889139],["finom",-10.726735868053769],["centiméter",-10.727045624730291],["jába",-10.727051453676012],["kenyér",-10.727114065418395],["YouTube",-10.727121929658116],["vakcina",-10.727122157598682],["párizsi",-10.727124298461906],["Rádió",-10.727127087381357],["intelligencia",-10.727143879431665],["ezüst",-10.727159741383742],["napsütés",-10.727259066481718],["számtalan",-10.72727906376926],["növelte",-10.727588389830686],["Emlékeztet",-10.728017728349581],["tanuló",-10.728101960143832],["hőség",-10.728742064364473],["mieink",-10.728865276311872],["akarat",-10.729058759341141],["zivatarok",-10.729378310395582],["vevők",-10.729880014996358],["találkozás",-10.72990140663478],["infrastruktúra",-10.729934119754272],["gyereke",-10.730021488655144],["zék",-10.73094206298051],["tartalma",-10.731477022201833],["folyt",-10.731576581461379],["helyiek",-10.731992495691134],["napirend",-10.732595732329726],["kívánt",-10.732640749667144],["pe",-10.732641663846408],["kollégái",-10.733240857610898],["láng",-10.733327818595093],["forgat",-10.73346522835698],["bűn",-10.733963100868133],["kapható",-10.734099565858843],["kérték",-10.734263656673999],["bővülés",-10.734526371603488],["by",-10.73464620277418],["munkáj",-10.734707123832404],["Du",-10.735166275313524],["összetett",-10.735169775598312],["197",-10.735170618774347],["fordulójá",-10.735467197108854],["költsége",-10.7367007639908],["versenyen",-10.736785233087323],["fizetőeszköz",-10.737322832377162],["kerékpáros",-10.738535624359365],["lakók",-10.738551228488209],["lopás",-10.738670407520136],["vív",-10.738771246127047],["rögzített",-10.738968157743443],["kus",-10.739424282064537],["fogadtá",-10.740116132679294],["váda",-10.740287260622214],["vállalkozók",-10.740878900053627],["kastély",-10.741070256840375],["koncentrál",-10.741149108277593],["rák",-10.741317731032455],["nyereség",-10.741577089833267],["madár",-10.741988048610013],["résztvevő",-10.741993122056243],["teret",-10.742460069422076],["Bukarest",-10.742727767036278],["Szeptember",-10.743515365862946],["Bálint",-10.74351543632469],["Peking",-10.743522836909865],["professzor",-10.743522853781673],["front",-10.74352631684864],["Roland",-10.74355144880888],["romániai",-10.743572539897103],["Elmondás",-10.743592544407722],["Igen",-10.743650029761941],["belga",-10.7437888778733],["keresztény",-10.743829457237819],["választókerület",-10.743888115274775],["PS",-10.744032676952388],["kutatások",-10.744142898572616],["Akár",-10.744580339940011],["extra",-10.744590856908985],["követel",-10.744752790322604],["megmérettetés",-10.744990039745982],["könnyed",-10.745578453785654],["világbajnokságo",-10.745903834319567],["mondtá",-10.746193792971262],["helyreállítási",-10.746343158670918],["levő",-10.746576515643643],["közepes",-10.746655589927268],["ellátó",-10.746670057712947],["pihenő",-10.746818846210996],["keletkez",-10.746997264696263],["véleményé",-10.747689287469049],["lin",-10.74831078687867],["teljesítménye",-10.74870526241813],["ell",-10.749063468467838],["Erik",-10.749555985581615],["kutyák",-10.74960272940219],["házba",-10.749634793480787],["igazságügy",-10.750036793240504],["ittas",-10.750159095884165],["megkezdte",-10.750211149804057],["tartózkodás",-10.750456429994667],["talan",-10.750859208000001],["gyártók",-10.750971389911133],["font",-10.75126209099121],["javaslato",-10.751744539892421],["megnöveked",-10.751826698107454],["áruház",-10.75243850513731],["időszaká",-10.752532340630346],["turisták",-10.753055973651229],["költő",-10.753524557888486],["volumene",-10.753581396706425],["kifejezés",-10.75403289300133],["emlékez",-10.754178567845806],["figyelmeztetés",-10.75446934987609],["állást",-10.754494819111844],["barátok",-10.75489628171649],["csatorna",-10.75491108519812],["zápor",-10.754945715032806],["Iskola",-10.754989213348285],["munkájuk",-10.755020491862862],["módosítás",-10.755282022202852],["közti",-10.755897513666625],["visel",-10.756376945997097],["John",-10.756407820674209],["tranzakció",-10.756454494409354],["cége",-10.757104184889684],["amerikaiak",-10.757370125454333],["szerkezet",-10.757510503842177],["kezdeni",-10.75751806082372],["elkötelezett",-10.757563866749846],["incidens",-10.757658791380312],["mérleg",-10.758004485780305],["megbízható",-10.75819088345444],["zené",-10.758264430884875],["feldolgozás",-10.758331289381388],["rab",-10.758898920767297],["játékrész",-10.759355624762312],["š",-10.759370427009673],["Ver",-10.760014068280025],["Meteorológia",-10.760182030349984],["Kristóf",-10.760182105039636],["minimálbér",-10.760182184434527],["Szergej",-10.760182267309565],["Tajvan",-10.76018249299387],["Ismét",-10.76018614423605],["Endre",-10.760190655448604],["hetven",-10.760279217800344],["DSZ",-10.760815272133515],["szerete",-10.76099823343029],["hajrá",-10.761011373313984],["tagok",-10.761045912826745],["növelni",-10.761279475193216],["követői",-10.761347011201178],["bűncselekmények",-10.762784996882328],["gyógyszerek",-10.76301865174207],["98",-10.763022447386604],["útra",-10.763244445246883],["vezérigazgató",-10.763319897256642],["súly",-10.763320010879461],["átadás",-10.763329872571614],["Annyi",-10.763476347546593],["magad",-10.76351153194664],["Jog",-10.76362036196452],["maszk",-10.763772573570794],["kivitelezés",-10.764713215917268],["Ber",-10.765118811523788],["szab",-10.765292228233449],["képpen",-10.765368583546127],["juthat",-10.765539850569397],["fordulat",-10.76638163829455],["székhely",-10.766408831144878],["igazgatóság",-10.766528310353337],["használata",-10.766607438373864],["ud",-10.766675855576711],["eszközt",-10.767235095810028],["Azok",-10.767634104704808],["%)",-10.767659728933717],["alkohol",-10.767829206461547],["távolság",-10.768350053479674],["alakulat",-10.768859712660841],["figyelme",-10.7695020571403],["helikopter",-10.769559855404353],["békét",-10.76984131646698],["üzletek",-10.770102280981932],["hétvég",-10.77033965929602],["rajongói",-10.770932326702686],["megtörtént",-10.771232925694875],["zseb",-10.771289119302018],["Bal",-10.771672379300647],["oldalak",-10.772013177837959],["szett",-10.772182873873707],["lényeges",-10.772201304861115],["formáj",-10.772537916227606],["jelző",-10.772749082354053],["ősz",-10.772765720032073],["emlékeztet",-10.773159938246938],["jegyzése",-10.773458461715348],["felét",-10.773978664839738],["bu",-10.77402051903881],["napvilág",-10.77505330364178],["elérésé",-10.775176003493684],["kényszer",-10.77603410520153],["karakter",-10.776195372323663],["gyengébb",-10.776326470148907],["tárlat",-10.776401124826519],["képeke",-10.776918701090196],["Ipar",-10.777013952030842],["menedzsment",-10.777131182760694],["Netflix",-10.7771353732734],["töreksz",-10.777212608342435],["Br",-10.777244458401814],["fordítani",-10.777261974757565],["vonulta",-10.777316268681812],["megállapított",-10.777564845877144],["ésével",-10.778093770390829],["vitamin",-10.778135226983478],["ifjúsági",-10.778347596507794],["hesse",-10.778350131876403],["pá",-10.778479003873132],["kártyá",-10.778780079916201],["szán",-10.778919962233516],["adód",-10.779366495994024],["létrehozásá",-10.77959198397669],["tetsz",-10.780061984916177],["ej",-10.780182827035706],["adatot",-10.780326894545546],["meghaladt",-10.780327538335182],["apja",-10.780334388290914],["élvonal",-10.780341685696975],["lep",-10.780449687446907],["lyal",-10.780459425575454],["omat",-10.780876511754762],["Jól",-10.781928236903553],["orr",-10.782046006290297],["autósok",-10.782449314544323],["infrastruktúrá",-10.782521426678741],["belépés",-10.782768108374565],["gyűjtött",-10.783019543428711],["bírósági",-10.783053548585041],["kíséri",-10.783367849805288],["ragaszkod",-10.783516401208583],["érdek",-10.783957893558433],["ajtó",-10.784080565954234],["üzemeltető",-10.784183406527234],["teheti",-10.78436511539761],["születésnapjá",-10.785280236007214],["tömeges",-10.785337812811758],["számon",-10.785652474928426],["alul",-10.786089282002688],["előállított",-10.786421709122482],["tikus",-10.7864671790649],["határszakaszo",-10.786468407224515],["keresett",-10.786583308035855],["felhőzet",-10.786807332559626],["idézi",-10.787073401795949],["hangoztatt",-10.787213532080031],["velem",-10.787443691497186],["tűnő",-10.787798026262173],["vágott",-10.788192343332359],["Su",-10.788405299962509],["kórházi",-10.788942233167674],["szakszervezet",-10.788960356614657],["hozzáállás",-10.790253840155792],["kevesebbe",-10.79028075447294],["gyanús",-10.790807580657535],["magasság",-10.791714444446148],["szerelme",-10.792244461202543],["ung",-10.79268120065188],["VI",-10.793068838138879],["menjen",-10.79331293264371],["egyenlő",-10.793902680391186],["heves",-10.79418700847773],["Október",-10.794372562262769],["Norbert",-10.794372585393432],["virtuális",-10.794372613364068],["Március",-10.794372697513406],["jogállamiság",-10.794373586209892],["konzultáció",-10.79437384941587],["Csanád",-10.79437702320219],["anyuka",-10.794387841908964],["Különös",-10.794437698083984],["börtönbüntetés",-10.794462356955579],["hírszerzés",-10.794500191969952],["Sony",-10.794571294516572],["lista",-10.794685478287885],["fővárosba",-10.794694267155698],["kedvezőbb",-10.795135342639883],["gyermekes",-10.795183422112126],["közep",-10.795198031820611],["fogadni",-10.79532811574755],["utazási",-10.795953124091561],["előfordul",-10.796190461356638],["adózás",-10.796217689901615],["együttműköd",-10.796606400121899],["ítés",-10.79674411869216],["dolgozói",-10.79705542166895],["percek",-10.79771224287295],["Se",-10.798255201793308],["motoros",-10.79882662735001],["hajók",-10.799730304326747],["statisztikai",-10.79983901344254],["raktár",-10.79999136645264],["előnyé",-10.800099816377806],["stadion",-10.800135549872838],["edik",-10.800145605280655],["megnyerte",-10.800415956304171],["kette",-10.800627351921129],["tagság",-10.80079496671965],["kivel",-10.800820981027535],["vágta",-10.800951698790978],["rendezvények",-10.801564272808319],["foglalkozás",-10.801996557856704],["főre",-10.80206140615054],["célpont",-10.802405140941367],["kérdése",-10.802732259251918],["ger",-10.802822054508088],["bizonyíték",-10.80283882105729],["többiek",-10.802970634665183],["igazolt",-10.803056070803777],["ülésen",-10.803204499779852],["ku",-10.8033251369372],["megélhetés",-10.803449206456603],["One",-10.803508931686434],["kerítés",-10.803745220006752],["hárma",-10.803932037016759],["előbbi",-10.803953755848582],["lépések",-10.804219897019514],["medence",-10.804294572166764],["érik",-10.804390380518049],["op",-10.804828426119261],["mann",-10.805369937929786],["sága",-10.805405968908065],["köszön",-10.80655497890491],["tulajdonába",-10.806627101369696],["temetés",-10.80675492185495],["Csoport",-10.807000033280888],["életmód",-10.807031603596682],["indokolt",-10.80710142073419],["borult",-10.807151436519067],["álás",-10.807419742098784],["eleme",-10.808056445522698],["ebbé",-10.808229365070268],["tudósok",-10.808422993870956],["kezeli",-10.808622822538426],["vezetőedző",-10.808744890827946],["ow",-10.808820529221995],["torna",-10.809126566591539],["csend",-10.809443218200135],["alapjai",-10.809559695731734],["hátteré",-10.810589280490841],["háromszor",-10.8111866484135],["alábbi",-10.811198985345715],["lehetőségei",-10.811389951970265],["béké",-10.811503875796038],["állunk",-10.81153587207541],["korszerű",-10.811575260803718],["Group",-10.811712696148682],["dán",-10.811721149049433],["alvás",-10.811754741334052],["bérleti",-10.811767952718322],["Manchester",-10.811916422322627],["dunaújvárosi",-10.811916430303883],["Jézus",-10.81191643321852],["Rengeteg",-10.811916938500971],["Nintend",-10.811919701339544],["dioxid",-10.811928504235311],["csodálatos",-10.811937428621345],["Paks",-10.812014435960208],["Arany",-10.812121933451742],["hála",-10.812174548483185],["Önkormányzat",-10.812431763027554],["tapasztalható",-10.812540102501405],["ikonikus",-10.81259587938117],["hatvan",-10.812966361628998],["jogerős",-10.813023411595186],["chip",-10.813101124747059],["frakció",-10.813230618883571],["legerősebb",-10.813266963192685],["anuel",-10.813667702679068],["robbant",-10.813730305580528],["ley",-10.813790804451845],["Hát",-10.813931628829462],["bolygó",-10.814073869051388],["szenvedte",-10.814132084361173],["működtet",-10.814156672950164],["ajánl",-10.814212599609771],["Fed",-10.814317869794888],["regisztrálta",-10.814457621647367],["verte",-10.815353642402663],["tech",-10.815484744175487],["meghaladó",-10.81558954272828],["sérültek",-10.81641138843225],["Dunaújvárosi",-10.816518891639866],["nyelve",-10.817181065692616],["szolgálato",-10.817689978820038],["Mindezek",-10.817871995293483],["csodá",-10.818273275651778],["kutyá",-10.818544499259305],["tüntetés",-10.81879899473008],["IM",-10.818929995347354],["Meta",-10.819466751839942],["mindegyik",-10.819733660234167],["biztosítás",-10.820137258647515],["London",-10.820312241529434],["Akik",-10.820430159971274],["értelembe",-10.820574021256569],["szervek",-10.820596013668661],["kialakított",-10.820618042527558],["napközben",-10.820710599895804],["teljesítményt",-10.821266326184713],["NN",-10.822038437936119],["fiatalabb",-10.822094664681256],["repülés",-10.82224380963033],["oha",-10.822627695335779],["lakói",-10.823259392039848],["nyit",-10.823458644942265],["elfogadta",-10.823545739850827],["veszteségek",-10.823702331177945],["felvásárlás",-10.824110490879239],["ított",-10.824127131263468],["Hasonló",-10.824167570618798],["hegy",-10.824245901657962],["befolyás",-10.824487384158182],["dventi",-10.8248765256981],["tri",-10.825696370596642],["útján",-10.826127134517872],["TikTok",-10.826870275941651],["mondat",-10.827666026147075],["alapított",-10.82805759934427],["viseli",-10.828088589889123],["zsidó",-10.828236375243424],["kultúrá",-10.828533864806019],["mindannyi",-10.828584968784185],["reményked",-10.828644666838628],["kezel",-10.828797516828946],["konzervatív",-10.829235522502227],["Áramlat",-10.829773565150349],["Telegram",-10.829773594160331],["Róbert",-10.829773724533723],["Anikó",-10.829873302336173],["oltást",-10.830062590353629],["gyártott",-10.83029390785618],["titok",-10.830476001465554],["nézzü",-10.83051419298106],["tárgyalt",-10.830907179733154],["időpont",-10.83096380518717],["azonosított",-10.831194912174318],["gyermekei",-10.831296840379343],["kényelmes",-10.831920964445219],["ány",-10.831962069139385],["lelkész",-10.832049948795612],["fejlődésé",-10.832511721092718],["hihetetlen",-10.832649489890374],["alelnök",-10.832695994189823],["Hisze",-10.832726772462784],["forró",-10.83274045928308],["környezetvédelmi",-10.833021987809639],["dokumentumok",-10.833343747009064],["árat",-10.833344045889628],["hetes",-10.833861963567985],["naptár",-10.834171359933334],["nyolcadik",-10.83422920995746],["180",-10.834426245641383],["szavazó",-10.834631212937271],["tartás",-10.834875266006453],["növelésé",-10.834913174205514],["Tar",-10.835056788649972],["stratégia",-10.835087622428784],["bejegyzésé",-10.835134647710564],["vállalás",-10.835313227398757],["beszerzési",-10.835464860442475],["meghatározott",-10.835501720288534],["tájak",-10.835762668151986],["sikerre",-10.835808273935587],["rezsim",-10.836370418638488],["ES",-10.836800534449239],["bo",-10.83705052450317],["mérés",-10.837230816981203],["jei",-10.83737232203047],["befektető",-10.83825030706695],["kivitel",-10.838388688383972],["cégcsoport",-10.838452762308965],["Mária",-10.838482970541042],["aláírás",-10.838527023179932],["szolgált",-10.839040767190923],["érve",-10.839269275903714],["értékelte",-10.839323785240019],["gyanú",-10.839855302105665],["szülés",-10.840112406987227],["lépése",-10.840147432989827],["vezetésé",-10.841116752255932],["tá",-10.841161346159954],["őszintén",-10.84152630489846],["vidéke",-10.842084951335393],["Ru",-10.842179342540406],["zóná",-10.84223067065999],["ített",-10.843452669231661],["programja",-10.843584223002438],["elmaradt",-10.843795055357987],["drón",-10.843896572132616],["regisztrált",-10.843927759383451],["szerzés",-10.844708018328017],["Do",-10.846354569481937],["következménye",-10.846492308511985],["ș",-10.846741215402211],["sorozatot",-10.846777035840702],["drágul",-10.847557556830436],["berendezések",-10.847603026202087],["norvég",-10.847872550436469],["Május",-10.847955451989757],["Csongrád",-10.847957172549654],["streaming",-10.847979863520944],["Augusztus",-10.847990068161172],["November",-10.848022318411806],["javítani",-10.848026585569613],["bizon",-10.848052298508037],["MÁV",-10.848103600278957],["opció",-10.848114616811376],["küldetés",-10.848144316545785],["Gyermek",-10.848182140861095],["célzó",-10.848299641811327],["füst",-10.848479537807513],["vers",-10.848607604916038],["birtok",-10.848618785230933],["gondolni",-10.84867413147057],["csomagolás",-10.848916983060255],["balti",-10.849014264444863],["készíteni",-10.849062984234486],["felvonás",-10.84925010049565],["tőzsde",-10.849416924819392],["elemzőj",-10.849758604758735],["ölt",-10.849909150742917],["gyakoribb",-10.850043746869009],["médiá",-10.851100400651864],["sír",-10.851473780072254],["Britanni",-10.851745636939224],["államtitkára",-10.851861639592975],["alakulhat",-10.85187201707015],["képtelen",-10.852053280400396],["városvezetés",-10.852170704570492],["rejt",-10.852219012184857],["tapasztal",-10.852848622464832],["Legutóbb",-10.853079089890738],["kór",-10.853138566726578],["felsőoktatás",-10.853158921106928],["Szu",-10.853235374006346],["mérő",-10.853426394684295],["szintje",-10.853579693504868],["ítélték",-10.85358804190591],["másnap",-10.854494980041313],["szerepét",-10.855038968467078],["érem",-10.855072954328685],["egymillió",-10.85553951227709],["barátság",-10.855691026180773],["keresés",-10.855954330537436],["oldalár",-10.855961641105146],["vonzó",-10.856481573527349],["támogatásár",-10.857253006300805],["kérdezte",-10.858302590719568],["romlott",-10.858505194513581],["ED",-10.858584665120864],["szerencsés",-10.858729989258435],["pártja",-10.858978944328348],["teljesít",-10.85927201493034],["Donyeck",-10.859500262549428],["tegye",-10.859553590666513],["foglalt",-10.859885126819801],["gyermekük",-10.859981225880135],["harci",-10.860004341192703],["BC",-10.860211060105195],["háló",-10.86082304316231],["felelőssége",-10.861250346441185],["építésé",-10.861285686666498],["készlet",-10.861608684765605],["jövőjé",-10.861812882628382],["zák",-10.862044493014665],["Max",-10.862315540438036],["elismert",-10.862406077133933],["telepített",-10.862751271070392],["Car",-10.862767106503263],["béremelés",-10.862775893393179],["Szak",-10.862815036930106],["minősítés",-10.863671560588733],["vízbe",-10.864038967826552],["elkezd",-10.864112048390421],["férj",-10.864223562248739],["szörnyű",-10.864522877960669],["sségébe",-10.864933873405057],["osz",-10.865075260990864],["hajnali",-10.865164824366204],["sikere",-10.86530521731092],["hidrogén",-10.865349406937241],["előrelépés",-10.865408195012026],["dönthet",-10.865607364724195],["hessen",-10.865686105909777],["Celsius",-10.866473901584945],["Fesztivál",-10.866473904112368],["Samsung",-10.866473935663903],["kanadai",-10.866474055401554],["Messi",-10.866478118666876],["Gáspár",-10.86647892482188],["India",-10.86648671635361],["Gergő",-10.866504707756503],["klímaváltozás",-10.866612429127361],["akadály",-10.86666444089651],["mozgósítás",-10.866690246144191],["győzelmé",-10.866711635069013],["üzemel",-10.866722144977278],["eleve",-10.866732993494544],["Series",-10.866791963739875],["iráni",-10.86684050091877],["indiai",-10.866857953025999],["Tíz",-10.866939131058716],["Katasztrófavédel",-10.866943133974944],["munkavállaló",-10.867179622785972],["suk",-10.867482544482785],["népesség",-10.867608031996824],["bukott",-10.867803118795965],["növel",-10.867835687805156],["partnere",-10.86793105458604],["tulajdonképpen",-10.868002453818708],["éltek",-10.868267946461211],["panaszkod",-10.868394381097165],["tartózkodó",-10.868949452016228],["vezetni",-10.869482138261853],["Összese",-10.869597165729491],["bármelyik",-10.86962467884232],["MT",-10.86995820445062],["megőrzés",-10.87023099278658],["potenciális",-10.87028099875498],["vallott",-10.870514382044083],["nyeresége",-10.870557613727788],["végeredmény",-10.870572135952685],["elhagy",-10.870892760441318],["hátrányos",-10.870898836903935],["Non",-10.871790706179366],["tízezer",-10.871913879788067],["fedez",-10.872180844493155],["televíziós",-10.872392138786974],["MW",-10.872805610567463],["brutális",-10.873194451710862],["jogok",-10.873643340764152],["pap",-10.8737660366567],["dat",-10.874288228406975],["felülete",-10.874420883661939],["viszonyok",-10.874519232223689],["Arénába",-10.87455351017277],["ügyet",-10.874997153417343],["Buda",-10.875013569869491],["vízi",-10.875240312072028],["Ger",-10.875395875397693],["nézett",-10.87547263797211],["biztosítási",-10.875826952740821],["nyitó",-10.876318692659014],["jót",-10.877439997941533],["elvi",-10.877452070531767],["sük",-10.877868984153853],["drónok",-10.877876574832987],["játszhat",-10.877883758296793],["fogadott",-10.877895474903733],["kérdésé",-10.878253733213343],["tartozás",-10.878270426670092],["stáb",-10.878713033660553],["járhat",-10.878744219459492],["labda",-10.878845172199101],["szállítani",-10.879048785647576],["javasol",-10.879093942712007],["Or",-10.879338891990994],["nyugodt",-10.879458571732162],["városába",-10.879616632902952],["Andrea",-10.880613167627292],["ünnepek",-10.880635971541246],["tizenöt",-10.88076136907613],["ígért",-10.880841836193078],["ítás",-10.880876254389344],["ker",-10.880880010828413],["gyász",-10.881103481356964],["találkozhat",-10.881375882428518],["Lo",-10.881448055662736],["kaland",-10.881582060610926],["5G",-10.881615405371456],["terápiá",-10.881843126357822],["forgalomba",-10.881940204709993],["elkészült",-10.882079036903853],["dönteni",-10.882217606420062],["kijelölt",-10.88222038349049],["elemek",-10.882551544281563],["kerek",-10.882699615773326],["okozza",-10.882906960283998],["hangzott",-10.883000796921356],["oldalú",-10.883016480670978],["tanít",-10.883189932089437],["Wall",-10.88376730388196],["kever",-10.88389752390264],["Li",-10.88436546770128],["kamatok",-10.884530436286152],["tartom",-10.884830715457744],["Ü",-10.885225446758401],["applikáció",-10.885341826009354],["Hosszú",-10.885341828767436],["Lázár",-10.88534194903287],["Hajnal",-10.885342704636116],["Krím",-10.885350011431232],["kártérítés",-10.885376445407797],["munkavégzés",-10.885425810982708],["megpróbálta",-10.885503026254693],["kellemes",-10.885537742892186],["Equi",-10.88556370065306],["euróövezet",-10.885658017685616],["irányító",-10.885768650377686],["választani",-10.885774912857137],["harcol",-10.88598659563598],["átfogó",-10.88607854373458],["élen",-10.886155932807956],["bocsátott",-10.886161924340929],["jelentkezik",-10.88632850417398],["Művészet",-10.886402203653514],["wei",-10.887106727037024],["450",-10.887344010031129],["láthatóa",-10.887466982631663],["használatát",-10.887698704053346],["átalakítás",-10.888186398041428],["növények",-10.888201204927915],["koncerte",-10.888328362415692],["következtetés",-10.888658390777909],["védi",-10.888721350313459],["abszolút",-10.88898415130432],["kéne",-10.889087716210172],["Con",-10.889097086029484],["elemzése",-10.889252146218968],["elvesztette",-10.8895384927189],["felvételek",-10.889606512377723],["gondolkodás",-10.889783934102113],["megközelítés",-10.890009650995303],["nyomon",-10.890773155448121],["hallgatók",-10.890878895323493],["okozó",-10.890979344598989],["töltés",-10.89149206276633],["érdeklőd",-10.891536694443744],["mindennapjai",-10.891639427125115],["mindegy",-10.891970343049213],["erőszakos",-10.891982612968263],["olni",-10.8921802256766],["pu",-10.892707960698111],["szállítmányok",-10.892709290006602],["értesült",-10.892865771296172],["Székely",-10.893094228909723],["váltotta",-10.893719013047763],["változtatás",-10.893834143287616],["kiemel",-10.894005771877671],["vakciná",-10.8942469203606],["kétszeres",-10.89472056057431],["bemutatott",-10.894905778935534],["viselő",-10.895080450681917],["eléri",-10.895703228549038],["lu",-10.895915953607869],["csomópont",-10.895920870100879],["megállapítás",-10.896039780055343],["összeállítás",-10.8963859785183],["korán",-10.896807391469505],["tekinti",-10.89693869523622],["kísérő",-10.897736575378087],["feltételei",-10.89777694573332],["kézi",-10.897801682132496],["állítás",-10.89789362156305],["rom",-10.89838003967417],["roham",-10.89840909031544],["érdeke",-10.898677738693127],["szervező",-10.898864551533956],["problémái",-10.899740907582657],["140",-10.89994407967494],["Újra",-10.9001463265751],["On",-10.900601217305743],["alma",-10.900924899681414],["lás",-10.90100105744608],["kerülne",-10.901104180243749],["ingyen",-10.901545146144398],["teremt",-10.901818266284248],["reméli",-10.901949663422078],["sejt",-10.902680211344308],["kodás",-10.902774118933007],["jönni",-10.9034218903071],["versenyek",-10.903487718446362],["ügyfelei",-10.903542146639829],["EB",-10.903569877340185],["kamion",-10.903642914997166],["06",-10.903719244825975],["mese",-10.903732987212498],["jelentek",-10.90395701749776],["készülni",-10.90397871939869],["forintba",-10.904177892018625],["gyakorolt",-10.90418451952616],["kétharmad",-10.904259078047446],["forradalom",-10.904572597747668],["Széchenyi",-10.904572634896814],["Kórház",-10.90457273098489],["Zöld",-10.904573002345114],["Benedek",-10.904575319041468],["Szinte",-10.904581073208245],["Harry",-10.90463563175137],["Kolozsvár",-10.904665381883408],["kötvény",-10.904723058680169],["San",-10.90480673243896],["katari",-10.9049412909035],["akarjá",-10.904955326732754],["helyezés",-10.905046514783349],["Újpest",-10.905181344845003],["erősít",-10.905438737819676],["mező",-10.905623334571146],["intézkedéseke",-10.905952342763097],["fókuszál",-10.905953614504906],["kupa",-10.906015345658545],["élén",-10.907436587482263],["ausztrál",-10.907488290155499],["Hódmezővásárhely",-10.907642483865054],["hatását",-10.90817226977984],["titkos",-10.908362965200205],["országba",-10.908878616833045],["lügyminisztérium",-10.909713666454778],["hosszabbítás",-10.909770294705284],["megszállt",-10.910317848988285],["autójá",-10.91092433511658],["berg",-10.911025325183516],["weboldal",-10.911736870980402],["németek",-10.91229460450658],["szavazók",-10.91260866675777],["kórházak",-10.912618188442424],["közvetítés",-10.912638216614038],["emel",-10.912658344171788],["értékelés",-10.912763375384216],["költött",-10.912775569938173],["megyék",-10.912866062542143],["ebéd",-10.912969923964704],["megvalósításá",-10.91375021466066],["legye",-10.91381478996066],["hiszem",-10.914091347524717],["bűntett",-10.914743540371346],["biztosította",-10.91487785036357],["birtokába",-10.914902547414972],["földön",-10.91533812935234],["feszültség",-10.915591899939226],["kezelt",-10.915686286646029],["folyosó",-10.91575411717447],["holttesté",-10.915862877117194],["testvér",-10.915958231874098],["Nek",-10.916024319884603],["helyiség",-10.916383007918155],["készülhet",-10.916901649604114],["hibák",-10.917726236639307],["92",-10.917953940137128],["migránsok",-10.918048489027154],["történetét",-10.918097706392087],["kutat",-10.918436654384156],["tehetség",-10.918713794934373],["ajánlato",-10.918719428869974],["részesül",-10.919035145609076],["hívja",-10.919373955588187],["Wh",-10.919594926916817],["tevékenységét",-10.919668336710554],["javá",-10.92081409576009],["ájá",-10.92118370670677],["terep",-10.921249897488503],["fogni",-10.921303492323979],["változtatni",-10.921358682174489],["rokon",-10.92154098496585],["igények",-10.922330255349614],["lényeg",-10.922709107804234],["Egész",-10.922883080056906],["rendel",-10.92319014647961],["Los",-10.923311730096364],["kormányt",-10.923376215974477],["szilárd",-10.923884539831839],["turista",-10.924168373296471],["kárpátaljai",-10.924180438170993],["Igazgatóság",-10.924180438235762],["Székesfehérvár",-10.924180438369731],["Ágnes",-10.924180534732546],["Jelentős",-10.924180963629476],["Szerbia",-10.92418118701481],["Tegnap",-10.924185385469833],["összeköt",-10.924279436353986],["munkanélküliség",-10.925072965956721],["alapuló",-10.925136258668097],["kezébe",-10.925223054247734],["legyőzte",-10.925301361771787],["környéke",-10.925466515236657],["hálás",-10.925518056074328],["eredményez",-10.925535018773946],["ottak",-10.925631594051698],["terhet",-10.925717937037547],["termel",-10.925755040215385],["világra",-10.925788404435501],["kedvezmény",-10.926173477022566],["megoldani",-10.926274534891602],["nézte",-10.926558798183468],["látom",-10.926757896549486],["mell",-10.927067676754408],["gyorsabba",-10.92711535767286],["Vas",-10.92749088024005],["rendszerét",-10.92753800588458],["gondolt",-10.927969318245232],["Hozzátett",-10.928321884360031],["célú",-10.928360342336637],["rendelő",-10.92839906141192],["ődött",-10.92876595809001],["kiló",-10.928897716295737],["hónapjá",-10.928902987420791],["csont",-10.928904799035527],["dolga",-10.929070858800054],["olvas",-10.930166151002377],["gumi",-10.930181492763346],["megtenni",-10.931068709118103],["Levent",-10.931292114755719],["szex",-10.931956178142844],["350",-10.932803715429836],["szeme",-10.932937933187368],["ünnepség",-10.932972897599655],["megemlékezés",-10.933253952926579],["érezz",-10.933268827254398],["ítj",-10.93380673330768],["fokos",-10.933975136927593],["bővül",-10.934157336840467],["tudat",-10.934416997562913],["használó",-10.934532403082837],["városrész",-10.934770833971545],["utcá",-10.934965534967338],["utasítás",-10.935121951895761],["fokozat",-10.93548755195516],["javult",-10.935701537917415],["válaszolta",-10.935934577992194],["párti",-10.936060712631038],["egyenese",-10.936435087264757],["szereplői",-10.936490662963859],["nevelő",-10.936633195309211],["körök",-10.936680311582222],["Alig",-10.9371037807689],["fegyvert",-10.93734470489175],["becslések",-10.937454417569036],["szavaz",-10.93771853066405],["olyanok",-10.937894692672069],["pontok",-10.9380571995904],["lakosok",-10.938285340433673],["kamato",-10.938307555206828],["telek",-10.938322465329442],["ham",-10.938730108799342],["felirat",-10.939954079862384],["mini",-10.939984736875667],["Jan",-10.940631103038896],["útjá",-10.940668646326738],["lépéseke",-10.940672580262389],["gondok",-10.940771546378057],["kockázatok",-10.940893288685558],["stratégiá",-10.940903334208961],["hirdetett",-10.941069775373283],["néni",-10.941117833926482],["lemond",-10.94148344647995],["jele",-10.941657334118322],["hatékonyabb",-10.941716404371299],["ium",-10.941898257748333],["látás",-10.94192913993151],["ötlete",-10.941972965375601],["covid",-10.94219901843631],["találja",-10.942484838350643],["érdekeit",-10.942551129839178],["mérséklőd",-10.942565557106807],["bűnös",-10.942723591580545],["hozzájárult",-10.943431079059],["megtalált",-10.94358676982131],["Donald",-10.944171046831244],["Petőfi",-10.944180489326826],["vágás",-10.944181018877288],["tilalom",-10.9441812568165],["Cristian",-10.944181573505357],["fokozód",-10.944187843373916],["identitás",-10.944188106165242],["tilos",-10.944190606248052],["Leyen",-10.94419475522277],["prémium",-10.944197708052219],["Ügynökség",-10.944204557849025],["délutáni",-10.944229375095476],["Martin",-10.94423209557402],["célt",-10.944320487575812],["Brent",-10.944324129322492],["tábornok",-10.944329511483744],["legszebb",-10.944702266873502],["alkalmazások",-10.94473125557393],["feltétel",-10.944760245212297],["teljesíteni",-10.945116483219993],["menetrend",-10.945156333423228],["vonni",-10.945622396640438],["Emlék",-10.945637328129852],["blokk",-10.945709803810276],["Andi",-10.945715578221087],["nyugdíjasok",-10.945867399485184],["villany",-10.945915291165074],["Bu",-10.946062752181804],["hagyományok",-10.946394060806035],["rejl",-10.946487655867914],["Hét",-10.94668891898228],["átalakulás",-10.946751478911862],["tenné",-10.947128056323864],["partján",-10.947209684680175],["veszélyhelyzet",-10.947715128460674],["pályafutás",-10.947726288836133],["Loki",-10.9478770149942],["kerékpár",-10.947978099890232],["javul",-10.947984431562936],["Katar",-10.94838691259469],["alkalmazottak",-10.948449118717594],["partnerei",-10.948486494140425],["hordó",-10.948530442791911],["küzdő",-10.949274559641058],["foglaltak",-10.949321454452942],["oló",-10.949423999583056],["fékez",-10.949585674675845],["fehérorosz",-10.949938930316108],["csomago",-10.950048491714192],["lejje",-10.950138650176946],["vallotta",-10.950690991875542],["patak",-10.95069808887952],["hiányá",-10.950808217093432],["Nemrég",-10.95099288559259],["tevő",-10.951697301308364],["áldozato",-10.951706218887782],["vonul",-10.951772421467426],["Lengyelországba",-10.951919750366237],["megtalál",-10.952513542063638],["emberiség",-10.952894783471525],["zárult",-10.953333884304401],["elkövetkező",-10.953746220383334],["RM",-10.953850425235894],["ry",-10.95401199938345],["szállt",-10.954203216250509],["ottani",-10.954206598512108],["130",-10.954973807883956],["pro",-10.955144045674206],["barátjá",-10.955222057496663],["Olaszországban",-10.95547889861249],["rohant",-10.955946325315065],["kellemetlen",-10.955979477210333],["rekordo",-10.95656493632685],["látogató",-10.956774751327533],["vizsgál",-10.957016495093978],["számítógép",-10.957300373288557],["zászló",-10.958386352903434],["látogatott",-10.958716199116282],["honna",-10.959275454880059],["fer",-10.959491684210207],["kialakításá",-10.959588491165215],["hadi",-10.959985679196961],["határozotta",-10.960266997737234],["célra",-10.960460251298034],["Tud",-10.960505952459684],["rendszere",-10.960686982784319],["környez",-10.960769941967506],["látó",-10.960847989642073],["helyeke",-10.960858163505675],["egyenes",-10.961407494908203],["kamara",-10.961412813397962],["előnyt",-10.961479243022257],["cikkek",-10.962269199613226],["hetet",-10.962982466309864],["búza",-10.963015038064714],["fű",-10.96308014257516],["Bab",-10.964071762322481],["Ti",-10.964244419252658],["Ó",-10.964385383509272],["ifjú",-10.96452081204372],["portugál",-10.964588603581742],["Disney",-10.964590448948107],["David",-10.96460623129909],["fantasztikus",-10.964636682917966],["Fehéroroszország",-10.964639927366745],["Harkiv",-10.96465571351314],["hallani",-10.964706689625224],["Stadion",-10.964890092574626],["konyha",-10.965032858029158],["ütközés",-10.965203168324534],["adag",-10.965415305234531],["fájdalmas",-10.965420299261108],["teljesítette",-10.965889730458054],["népszámlálás",-10.965901334820645],["éjfél",-10.96604849816049],["ották",-10.96630148225374],["logisztikai",-10.966871730883552],["osok",-10.96708833249517],["hallgató",-10.96791770886365],["rendelkezésé",-10.968353467981785],["bírságo",-10.968831512490304],["bázispont",-10.968989443406837],["szakemberei",-10.969060987302212],["járatok",-10.969164121852616],["haladó",-10.96917415447491],["alapul",-10.96928924277452],["biztosítana",-10.96954660051086],["rendelte",-10.969630401997591],["Gazdasági",-10.969756744293552],["tisztán",-10.969994206765575],["esztendős",-10.970647471984215],["Sár",-10.971151533218872],["tudatos",-10.971401416993363],["mentem",-10.97141250922981],["bármit",-10.971672992928948],["tapasztalatok",-10.971780841037766],["állampolgárság",-10.971955731079966],["félév",-10.97212509820762],["ezett",-10.972222242514096],["mondhat",-10.972340935344056],["Danc",-10.972672298591592],["ütés",-10.972820584049357],["recept",-10.97306018330255],["jobboldali",-10.973132378795539],["góljá",-10.973720856960107],["Game",-10.974291147770886],["előnye",-10.97447264693104],["buda",-10.97455486714558],["ákat",-10.974555033895548],["szellem",-10.974637365073704],["M1",-10.974809397515926],["Miskolco",-10.974826391396947],["szakadt",-10.975161385607226],["törés",-10.975362964739487],["inger",-10.975383081316672],["dátum",-10.97589425832404],["wit",-10.975910355462203],["okostelefon",-10.976230065765836],["mielőbb",-10.976476090700803],["BL",-10.978154385246789],["egyházi",-10.978315460189176],["autópályá",-10.979459689734089],["ápolás",-10.97966102726647],["vetette",-10.98000195257095],["vetni",-10.980028830721167],["Red",-10.980293432165555],["résztvevői",-10.980618317726107],["érni",-10.980727000819938],["spórol",-10.980863043315376],["háziorvos",-10.981332454555762],["tehetséges",-10.98152670186515],["cipő",-10.981659490848772],["93",-10.981820206437055],["Romániá",-10.982322715424196],["novemberi",-10.982327554056226],["900",-10.982405047961986],["dízel",-10.982548052577446],["elfogad",-10.98271501510407],["esek",-10.982777965904127],["kérésé",-10.983326680283692],["térkép",-10.983330193532833],["Q",-10.983568096016445],["őzött",-10.983632657552866],["Párizs",-10.98438298586046],["öreg",-10.984384938914916],["kudarc",-10.98441919081606],["csökkenésé",-10.984983028035105],["Nyilván",-10.98500072331293],["megegyez",-10.985360106133239],["krízis",-10.985422122841396],["Befektetés",-10.98542410899126],["Szilárd",-10.985425392926775],["mozgalom",-10.985432208477228],["Technológia",-10.985432213101848],["középső",-10.985442406718022],["íteni",-10.98572924360361],["felesleges",-10.98580231286098],["Bács",-10.98582897834018],["szélsőséges",-10.985907914010408],["sürgősségi",-10.986014895472493],["legjelentősebb",-10.986045231909282],["feltehető",-10.986047685405518],["fenntartása",-10.98660027460598],["felújított",-10.986797800979282],["Külön",-10.987275099952665],["életveszélyes",-10.987358296919039],["öv",-10.98753564774137],["tanítás",-10.987788415331256],["emeli",-10.98786545035511],["zett",-10.988105013107338],["választók",-10.988479508322069],["anyago",-10.988723397210595],["mérnök",-10.988888682719564],["kívánja",-10.988951209985803],["országai",-10.988986953869155],["megszűnt",-10.98930436725073],["egyeztet",-10.989844500070664],["vári",-10.989926061272083],["off",-10.989947101366198],["kialakulásá",-10.990023723394708],["komplex",-10.990162596353988],["tünetei",-10.990390364976232],["War",-10.990532068627427],["her",-10.990789259945686],["délnyugati",-10.991133981339948],["indokolta",-10.99122925301385],["betegsége",-10.991338444331236],["öd",-10.991450211464388],["lábá",-10.992057478272343],["látv",-10.99218872540712],["jelentősége",-10.993012396439797],["merült",-10.993749520175802],["rangsor",-10.994679279121524],["IV",-10.994729027816582],["számlák",-10.99502117315496],["stabilitás",-10.995080113992202],["tőzsdén",-10.995302779189592],["gyengülés",-10.995475984078348],["Grand",-10.995608296412291],["sör",-10.995637360006274],["energiahordozók",-10.995694975213],["állítottak",-10.995767295468545],["püspök",-10.996033815407975],["példány",-10.996044278496337],["ereje",-10.996103858059097],["művészek",-10.996229551535306],["tartalmazz",-10.996395537641305],["játékosai",-10.996401485205933],["07",-10.99671620431215],["dy",-10.99681070337236],["ké",-10.996853380449881],["közeled",-10.996963999136291],["fűz",-10.997134776408137],["bevételt",-10.997178832202666],["megtudtu",-10.997382627919944],["seb",-10.99752545168219],["gépjármű",-10.997944524699472],["szexi",-10.998163246986966],["mélyen",-10.998606873292594],["egészségi",-10.998613697048295],["szállította",-10.99890466718179],["feljelentés",-10.999116198087124],["megegyezés",-10.99931829458371],["szereplés",-11.000127015536979],["képez",-11.001035888927461],["jelentő",-11.001433277929454],["helyettese",-11.002531458881254],["útvonal",-11.002677635267588],["ajánlás",-11.002786798334881],["letartóztatás",-11.003275156850256],["bol",-11.003500911631814],["kezelése",-11.003840434055697],["vádolta",-11.003852972756405],["betű",-11.003872506227246],["polgármesteri",-11.004221556344072],["jutás",-11.004327152454323],["csökkentés",-11.004338091876761],["csatár",-11.004377843071602],["listán",-11.004872048486732],["játsza",-11.004979948742529],["szerv",-11.005044847033446],["mandátum",-11.005379766550343],["bevételei",-11.005488339961571],["tárolás",-11.005635781853522],["szeptemberi",-11.005655454674285],["légitársaság",-11.005698938520771],["előírások",-11.005820270715647],["testvére",-11.00582388447231],["tív",-11.00593690551016],["jövedelem",-11.006153701357807],["megyek",-11.006166371328877],["jóvá",-11.006296784944109],["rablás",-11.006316677027552],["lehetőségük",-11.006650800254732],["bomba",-11.006671088541138],["Eszter",-11.006695222533864],["jubileum",-11.006698530513814],["Február",-11.00669853053079],["Április",-11.006698530625568],["Törvényszék",-11.006698532602304],["COVID",-11.006698534894884],["Palkovics",-11.006698822556787],["Switch",-11.0066989215004],["elegáns",-11.006699714697309],["Legalább",-11.00670530722061],["szervezés",-11.006780335307413],["elképzelhető",-11.006787134064487],["korrekció",-11.00681250773782],["December",-11.006816879441551],["Ukrán",-11.006966430335424],["irányítj",-11.007012739702594],["megállapod",-11.00708475840567],["szőlő",-11.007120663738746],["hátsó",-11.007120882149346],["légkör",-11.007245484725438],["készülékek",-11.007289968684717],["Ker",-11.007419275578032],["riasztás",-11.007423070622934],["Bíz",-11.007527680365255],["megpróbált",-11.00762087974078],["túlnyomó",-11.007874198170857],["történhet",-11.008196361159154],["san",-11.008374717848524],["kommunista",-11.008525523447513],["szegénység",-11.008604900832552],["Bod",-11.008622673456472],["tapasztalatai",-11.008876361543376],["olvasó",-11.00888259053691],["megmaradt",-11.009503490400142],["napjá",-11.00950841971496],["vo",-11.00984201024685],["hírül",-11.01007240395306],["bevonásá",-11.01011119139406],["tesztelés",-11.010343169504768],["készletek",-11.0105141098156],["vil",-11.01059846082356],["csapott",-11.010600136210144],["Szám",-11.010970774144806],["javít",-11.011192599477518],["nyújtotta",-11.01132699240619],["hatékonya",-11.011563638798563],["ozni",-11.011767642777919],["többféle",-11.012066470700777],["hor",-11.012886153614897],["sorba",-11.013207717235499],["Mac",-11.013282048410028],["térít",-11.013768693816115],["vonás",-11.014846260430355],["babá",-11.015085076076357],["vizsgá",-11.015087665448773],["határt",-11.01584551172741],["Boris",-11.015942684459523],["Hold",-11.01700214388119],["kevered",-11.017137853105167],["felvételi",-11.01730910737135],["megtalálható",-11.017698840882339],["közösségek",-11.017989340631896],["feladato",-11.018537571672972],["ukban",-11.019350561568512],["kint",-11.020266660614311],["Go",-11.02031608757606],["kikötők",-11.020644648750718],["isten",-11.020792683451939],["tudhat",-11.02082574830911],["ilyet",-11.021398476323778],["háztartási",-11.021813561921906],["akciót",-11.022111181847873],["lov",-11.022195089819249],["91",-11.022256820279644],["tudatosa",-11.022509813375635],["Iroda",-11.023101199408206],["fejlett",-11.023114170048423],["pánik",-11.023279105591556],["hatalm",-11.023328337634759],["évszázad",-11.023619369992515],["reális",-11.024496379986147],["reakció",-11.024609174798918],["rakétá",-11.024819965397892],["hivatás",-11.024870448930521],["mellette",-11.02495888726531],["köszönte",-11.025000294079753],["elhagyta",-11.025703859292324],["számítás",-11.025734909377917],["munkatárs",-11.025802682079568],["ódott",-11.025931418148534],["ennünk",-11.026179352564988],["próba",-11.02634714629427],["életkor",-11.026645041790308],["felszólította",-11.02682228600422],["végleg",-11.027665053368745],["inter",-11.027741020058329],["Mars",-11.028109165236588],["tervezte",-11.028171322076226],["č",-11.028405994659689],["Kereskedel",-11.028437663698147],["Lavrov",-11.028437665506733],["Madrid",-11.028437703986494],["kézműves",-11.028437768484388],["Szovjetunió",-11.028461448405793],["Július",-11.028488514049513],["benzinkutak",-11.028533860355536],["Meghan",-11.028667901373513],["darabok",-11.028748968201441],["irányadó",-11.028828845028023],["Truss",-11.0290479016258],["metró",-11.029080927346818],["Lisz",-11.029171168706554],["célzott",-11.029205215376415],["övé",-11.029262019590039],["követni",-11.029356644580272],["ellátást",-11.029643593743849],["balesetek",-11.02984411905744],["Alex",-11.02996709875413],["alapkamat",-11.030130774198234],["aláírt",-11.030159488660445],["esélyt",-11.030180823150431],["koz",-11.030203080734852],["védőoltás",-11.03023132980748],["br",-11.030243782381426],["érezhető",-11.030426902799256],["bekövetkez",-11.030523035528052],["aggodalom",-11.03098751193278],["pek",-11.031139312352751],["érezni",-11.031168311721782],["ráta",-11.031298359282115],["tudomás",-11.031335779274997],["Ku",-11.031358422464857],["biológiai",-11.03171060946254],["bevezetésé",-11.03218288311044],["ness",-11.032536884173236],["kötet",-11.033051296948988],["meghirdetett",-11.033064887032346],["gyalogos",-11.033104521027658],["részvényei",-11.033211631630499],["lezár",-11.033401576325417],["kockázato",-11.033670623728748],["cska",-11.033894013833484],["feleségét",-11.033957700471149],["igazolvány",-11.03400758457338],["gyermekét",-11.034069891360678],["férjé",-11.034415664382202],["enyhít",-11.035231095881088],["lakot",-11.035403182861169],["kezdetét",-11.0356172959496],["érdeklődő",-11.03566299537892],["másod",-11.035906715830556],["valamely",-11.03624736374063],["leállás",-11.036401444488984],["ré",-11.03674442728387],["felajánlott",-11.0369012528758],["szerezhet",-11.036961159401297],["szálló",-11.037023564012117],["jegye",-11.037195069739393],["állapotá",-11.03726140374529],["Megjegyezt",-11.037619230945232],["szálloda",-11.037728208512267],["fontosságá",-11.037768775248377],["ismételte",-11.037769576046841],["eredményét",-11.038216030256816],["nyújtana",-11.03842322819181],["atom",-11.038935151282933],["várost",-11.038935898488852],["tisztviselők",-11.039041272478448],["Egyik",-11.039312694856548],["működni",-11.039984612592],["NA",-11.039997359455135],["esszü",-11.040040763447127],["beton",-11.040365186121644],["visszatért",-11.04084038474951],["embere",-11.041135751016384],["ítélte",-11.041532600958831],["élvez",-11.041627516146319],["mobiltelefon",-11.041715788303001],["mutatni",-11.04219575744354],["kezdeményezte",-11.042584709960447],["cu",-11.04390691503501],["Értéktőzsd",-11.044110462289392],["bővítés",-11.044370983833339],["képp",-11.044487026446173],["nyomást",-11.044549272431938],["rock",-11.044598623162447],["üzemeltet",-11.044667207622945],["tervező",-11.045021264763886],["bot",-11.045101080716245],["ársapk",-11.04535864617101],["kezdés",-11.045681084070393],["Mo",-11.046098485689468],["fúj",-11.046411707397072],["Idő",-11.046460117294155],["okot",-11.046941202087448],["célok",-11.0470086856619],["népi",-11.047442740111475],["hotel",-11.047926006464268],["gazda",-11.048057747895799],["hatná",-11.04809482659265],["lejt",-11.048329986639107],["tanulni",-11.048333669749523],["törvényt",-11.048378188936894],["Közbe",-11.048379044911657],["fejlesztését",-11.04853788398778],["szórakoztató",-11.048596523681507],["posztolt",-11.048676676147995],["IC",-11.048786453250635],["egekbe",-11.048975747379629],["Mostan",-11.049125301990033],["ülése",-11.049274011576543],["strand",-11.049387913419356],["részesedés",-11.049501872406289],["frissen",-11.049914471121504],["bírság",-11.050226586937772],["Köszön",-11.050495376696833],["digitalizáció",-11.05065988318421],["bántalmazás",-11.050659884068352],["Kisvárda",-11.050659939853304],["argentin",-11.050660110545843],["radikális",-11.050660337949248],["NASA",-11.050669694851159],["Fanni",-11.050709158474707],["alkalmazásá",-11.050752123509742],["forrásai",-11.050804246169555],["előtérbe",-11.050830558974459],["legismertebb",-11.050993356818045],["Élet",-11.051109708388982],["behozatal",-11.051149621463383],["kivitelező",-11.051471277244051],["túlzás",-11.051627253020428],["javasolja",-11.051629042422649],["olvasni",-11.05204113769991],["teremteni",-11.052113522127488],["őrzött",-11.052260479631578],["fát",-11.052407000922681],["teljesítő",-11.052508895277883],["látszott",-11.05293881510487],["jelentkező",-11.053009462488678],["gyulladás",-11.053017038797229],["szervezésé",-11.05305862948812],["sajátos",-11.053134157854698],["zsír",-11.05346755684807],["korú",-11.053645033620349],["honvédel",-11.054309843502313],["tűzijáték",-11.054322412057331],["színpado",-11.054335382799776],["Per",-11.054435991454783],["veszített",-11.054865205270378],["szabadságharc",-11.055572359884545],["ellátásá",-11.055773793576146],["arch",-11.055788766419097],["tizenegy",-11.05627834722969],["vidám",-11.056459003328666],["Ch",-11.05681314649635],["szolidaritás",-11.057269811676825],["Dan",-11.057486013388463],["hangos",-11.057577300929756],["növekedését",-11.058077320020027],["erdei",-11.058164711002023],["egyhetes",-11.058243514652785],["ingi",-11.058393458986579],["reform",-11.058590903855912],["tagadta",-11.058976160710895],["sson",-11.059499716961469],["járul",-11.059740811776031],["születése",-11.059993059690328],["háromszoros",-11.060220854332552],["amelyik",-11.06030098975878],["témáj",-11.060434869659499],["kérelme",-11.060739840490564],["feladatai",-11.061544159958943],["kitüntetés",-11.061949769612706],["mélyebb",-11.062111443239433],["finomító",-11.06212044511942],["platformok",-11.062148741247082],["up",-11.062174772190726],["lényege",-11.062219013389647],["portfólió",-11.062271896600883],["Londonba",-11.062587590892207],["érintette",-11.06278665129801],["változatos",-11.06349501308834],["neked",-11.063996914961798],["pel",-11.064040577940785],["ígérte",-11.064061930497111],["maradás",-11.06413984254915],["játékosa",-11.064327017970196],["találkozta",-11.064347541455506],["előrejelzés",-11.0643849497124],["alapja",-11.064396850133386],["földre",-11.06445513438586],["bérek",-11.064458408170537],["fogyott",-11.064592940684296],["elképzel",-11.065620612997504],["videók",-11.06578298862409],["so",-11.066258489634928],["örülhet",-11.06633403887464],["ságát",-11.066669637667683],["mesél",-11.066788661016702],["lassul",-11.066837712421432],["rí",-11.067490551326843],["büntet",-11.068089474107147],["számolta",-11.068096989880091],["lé",-11.068320921460103],["koalíció",-11.069032331353746],["szegény",-11.069205906001793],["vonult",-11.069404873635524],["próbálkoz",-11.069856503017899],["használhat",-11.070283342696701],["mérete",-11.070346068579983],["kilencedik",-11.070700855525423],["que",-11.071573982312128],["biztosítása",-11.071675636362382],["elindul",-11.072109751013839],["kilátás",-11.072312773483917],["ff",-11.072329908988838],["nagykövet",-11.072411466690419],["lyuk",-11.07261549132459],["mérsékelt",-11.072647332751291],["kapcsolatuk",-11.072677305792602],["Pont",-11.072888102657863],["lelkes",-11.07293162178264],["egyikük",-11.073193965845316],["ME",-11.073376467390286],["törekvő",-11.073387390985001],["Sopron",-11.07338794023453],["Virág",-11.073404256439705],["szlovákiai",-11.073422521381385],["újonc",-11.073445942055208],["hajtotta",-11.073490007328228],["részei",-11.073505448679922],["nulla",-11.0735157931619],["adminisztráció",-11.073520316752505],["exkluzív",-11.073541896717645],["Rendkívül",-11.073648412608788],["sértő",-11.07398423990179],["FK",-11.074263744891745],["munkás",-11.074301713824028],["hatályba",-11.07447761919807],["megélénkül",-11.074708404435201],["Áron",-11.074793598439364],["válni",-11.074895104617978],["fenntartás",-11.075587361169653],["részleges",-11.075688839798978],["ideg",-11.075720977717065],["vizes",-11.075737443699039],["ápoló",-11.07578424602143],["legnehezebb",-11.075956569913792],["Wi",-11.076070299866954],["végrehajtott",-11.07618675439256],["emléke",-11.07650308716951],["megerősöd",-11.076787885336959],["felfüggesztett",-11.07750291760543],["sorol",-11.07790410008731],["jutó",-11.077985907897489],["választó",-11.07812776035353],["hármas",-11.078209400972996],["King",-11.078399551601857],["készség",-11.078842310703468],["viselte",-11.078913892308488],["zünk",-11.07932783766601],["felelősségre",-11.07967300289783],["oktató",-11.08022618252663],["BB",-11.080235717028255],["IP",-11.080337222418093],["eszközei",-11.080622426422698],["számításai",-11.080627545217634],["költöz",-11.08111514285411],["360",-11.081444509135064],["zárv",-11.081789939259371],["mentette",-11.081984978222252],["Ju",-11.082188165043608],["Zs",-11.083018225524453],["becsült",-11.083096346415108],["vehető",-11.0837531629128],["kínált",-11.08396476515884],["irodalom",-11.084003083022019],["politikát",-11.084159653821072],["ellátott",-11.08417213693767],["előrejelzések",-11.084677837765094],["Szabad",-11.084923291490783],["önkéntesek",-11.08494645887146],["igyekezte",-11.085190331794434],["szállítmány",-11.085259155320681],["fizető",-11.086037941462513],["utalás",-11.086245373457809],["Mikor",-11.086725571954906],["ulturális",-11.086816163928173],["reményé",-11.087144462864368],["művelődés",-11.087492809205951],["magyarázat",-11.087533969812004],["szükségünk",-11.088137888322546],["végrehajtás",-11.08822354503788],["drágult",-11.088233909404458],["következmények",-11.08838379065415],["Har",-11.088738300365145],["ségi",-11.08985662369873],["terel",-11.089920647081776],["köze",-11.09006568912336],["Stars",-11.09013298172758],["sújtotta",-11.090172061208746],["székely",-11.090781702454237],["benyújtott",-11.090837053425382],["főnök",-11.09097313201959],["izmus",-11.091167498958336],["hódít",-11.091382068743068],["He",-11.092026313975195],["küzdeni",-11.09246135147125],["liszt",-11.09325778532238],["hajt",-11.093260528601114],["ismerked",-11.093505252449766],["ítélete",-11.093958079686164],["párbeszéd",-11.09402104801329],["fenntartásá",-11.094199221168845],["futballoz",-11.094412332882605],["leány",-11.094465365768759],["vádolj",-11.094521033741641],["karok",-11.094579748494938],["Pal",-11.094713939179002],["hette",-11.094716432798192],["karjuk",-11.094906785009229],["kilogramm",-11.094999066035257],["hangz",-11.095025935980244],["helyben",-11.095089839877017],["kézilabda",-11.095584347300482],["területre",-11.095834821952694],["eformátus",-11.09598904782272],["aszt",-11.09627914514995],["árai",-11.096433587453577],["tucat",-11.096438578096722],["bajnokságon",-11.096592785088868],["zaj",-11.096638114418436],["Június",-11.096642970138639],["Statisztik",-11.096643031117129],["lassú",-11.096644279477381],["Kérdés",-11.096647404777052],["messzi",-11.096649532417102],["elképzelhetetlen",-11.096668509991405],["Pintér",-11.096708954454831],["Balogh",-11.096709095382703],["korlátozott",-11.096767750226313],["sportolók",-11.096799349110954],["küldeni",-11.096830603795546],["íján",-11.097036219272267],["Amazon",-11.097183703657256],["megfigyelés",-11.097289247701273],["devizák",-11.097302951045968],["Eger",-11.09736754849528],["jótékonyság",-11.097439839584068],["hatást",-11.097479847609149],["élelmiszerárak",-11.097533063783684],["műfaj",-11.097731578145261],["úszás",-11.09784003027918],["félelem",-11.097936154876383],["spórolni",-11.09801650320667],["Réka",-11.098132249162706],["tetszett",-11.09822167788238],["NG",-11.098393814503758],["reagálni",-11.099115436295596],["nagyban",-11.099205918697944],["hatta",-11.099276741750828],["jelenet",-11.099708177884818],["utazók",-11.099955565526303],["drasztikus",-11.099991521527189],["propaganda",-11.1000653164008],["festés",-11.100080153557991],["hidegebb",-11.100197263042851],["emlékezetes",-11.100241803585897],["posta",-11.1003397548718],["határoz",-11.100583941753047],["szíves",-11.100846366891057],["igényei",-11.10085134754122],["tényezők",-11.101066273199422],["minősége",-11.101100689239955],["gyűjt",-11.101306471409869],["Margit",-11.101334183877626],["érdekei",-11.101434074757087],["terek",-11.101657364609967],["foglalja",-11.101664080644525],["hazatér",-11.101713470074541],["szavazta",-11.10174538593701],["ságosa",-11.102318683765503],["főt",-11.102703465864755],["elfogadni",-11.102739474466235],["Ausztriába",-11.102793474266665],["éttermek",-11.102846824492502],["napilap",-11.103192451249926],["használatá",-11.103525743753337],["képessége",-11.103561484733916],["árt",-11.104386414776833],["pad",-11.10441009747194],["láncok",-11.104679850671129],["döntését",-11.104860137216518],["videójá",-11.104983260351457],["búj",-11.104989821731177],["viselked",-11.104999561604515],["dobogó",-11.105410354852777],["megjelentek",-11.10548578120952],["törvények",-11.105680857034052],["nemzetbiztonság",-11.105685261079582],["legkevesebb",-11.106398124910182],["hagyjá",-11.106690614274685],["szépség",-11.10707317927304],["megnőtt",-11.1074612276979],["kormányzój",-11.10755637409293],["frissítés",-11.10761631195585],["valahogy",-11.107681772545362],["tudna",-11.10792054967212],["kérdez",-11.107991995587248],["bemutatta",-11.108700745492817],["elismerést",-11.108807653724273],["előrejelzése",-11.109145054857041],["ács",-11.109244240749698],["terhelés",-11.109630473157539],["jelzett",-11.109724141217315],["magatartás",-11.109813063820548],["nemzetiség",-11.109977987280129],["szabadít",-11.110442181880387],["térd",-11.110449318513304],["figyelmeztette",-11.110776061938965],["utazni",-11.110852068274998],["tengeren",-11.110875691126557],["indítás",-11.111046432775119],["megkezd",-11.111125330891156],["csata",-11.111548283079772],["újból",-11.111843160305636],["előfizetés",-11.111979043162428],["törvényjavaslat",-11.1121927300788],["függetlenség",-11.1124038805413],["adóz",-11.112611392592132],["segítse",-11.11274039564211],["szervezte",-11.112816562918654],["finálé",-11.11283663593103],["fázis",-11.113158192018075],["Ameriká",-11.113170790112715],["határozz",-11.113228617128206],["termékei",-11.11402834029669],["dó",-11.11403309610732],["becslése",-11.114204613596772],["összpontosít",-11.114280510729241],["kötni",-11.11454568048714],["menekül",-11.11472215388325],["lemondás",-11.114744969699732],["kiber",-11.114757040158535],["összhangba",-11.114899053715051],["cigány",-11.115259880883354],["Tor",-11.115275692212558],["nyomozó",-11.115523315734535],["védeni",-11.11631139077083],["papírok",-11.116892870440719],["Sziget",-11.116994216437115],["kérő",-11.117032175687198],["ox",-11.117054173174406],["szigetek",-11.117124929720099],["rászorulók",-11.117407667908713],["irodalm",-11.117566209263646],["egyenlített",-11.117576157327491],["bizonyítani",-11.117979937684467],["SD",-11.118433625372104],["kiválasztott",-11.118645220713002],["Vol",-11.119056504626945],["támadt",-11.119229295214462],["minisztere",-11.119371221184176],["ers",-11.119458036174288],["őriz",-11.119484777646633],["termébe",-11.119710327576602],["ások",-11.11987121919624],["besorolás",-11.12002444918313],["hatások",-11.12006086778839],["fehérek",-11.120061139444491],["minősül",-11.12025974477584],["Guardian",-11.120452493793334],["Kecskemét",-11.120452524420706],["Rövid",-11.120452539987067],["szegedi",-11.120454658057234],["szobor",-11.12045510024991],["Kálmán",-11.1204566109562],["érzelmi",-11.120456916091868],["szürke",-11.120458264978467],["hordónként",-11.120471075649867],["kilátások",-11.120483961955713],["gonosz",-11.120517857990123],["Fejér",-11.12096765318779],["oper",-11.121014947122275],["vásárolta",-11.121128621652616],["ellenőrzi",-11.121142360297828],["Köztársaság",-11.121143301627612],["Bíróság",-11.121162688737034],["kiegyensúlyozott",-11.121298570611124],["rsula",-11.121366217264004],["innovatív",-11.12137050406653],["hű",-11.121380351023715],["idézett",-11.12160541040422],["jegyében",-11.121628187421528],["feksz",-11.121658653777914],["utcák",-11.12173099956712],["kollégák",-11.121778046703414],["kedvelt",-11.121917494965713],["alakja",-11.122074281762432],["megbízott",-11.122164549687845],["lakhatás",-11.122189499111398],["fűződ",-11.122191925740792],["bővítésé",-11.122383513939958],["kialakítani",-11.122452134556685],["rd",-11.122561930066809],["bál",-11.12265439338102],["költ",-11.122711239360271],["mér",-11.122754564733453],["módosított",-11.122941991149997],["Paul",-11.122965746771706],["harcot",-11.123173296473196],["szakaszán",-11.123377240606372],["szeres",-11.123535826090578],["feldolgozóipar",-11.123580789556309],["cse",-11.12364063448561],["merül",-11.123793378153918],["ER",-11.123849799151747],["akadályozz",-11.123970641353047],["hirdette",-11.123984455114696],["gyártásá",-11.12401717988796],["Open",-11.12419974790686],["elment",-11.124330263810542],["választhat",-11.124464636526449],["köszöntötte",-11.12459868304896],["emelésé",-11.125203500912969],["szerződ",-11.125343872363132],["sorok",-11.12567547097842],["mondható",-11.125680794384248],["Szép",-11.125778986707473],["útszakasz",-11.12585375351413],["zenét",-11.12590867728525],["sújtj",-11.1262090546121],["Ausztri",-11.126271852062558],["politikájá",-11.126760507822524],["Ja",-11.126949045790166],["hétköznapi",-11.12700905340656],["fordulás",-11.127769224499653],["hozam",-11.12857787790201],["üzemanyagok",-11.129591549848769],["Simon",-11.130212018282855],["edzője",-11.131233532441811],["szövege",-11.13136792797099],["jogszabályok",-11.131974254411276],["státusz",-11.131980634957902],["fordulhat",-11.132034709580008],["CI",-11.132526942667742],["csúcso",-11.133028039146245],["válj",-11.133189965218719],["összegek",-11.1334853402539],["megvizsgál",-11.133576597127874],["találhat",-11.133600611182098],["pályafutásá",-11.13365985903108],["bérlet",-11.134056203036527],["fogott",-11.134642008856709],["bajba",-11.135300268496033],["javításá",-11.135362265893445],["szava",-11.135470564530948],["útjár",-11.135545704284022],["árult",-11.135573262907112],["szintjén",-11.135753548819045],["jelentkezte",-11.135950367347656],["gyártan",-11.136455986921945],["kormánypárti",-11.136459160632683],["érzékelő",-11.136590468266942],["Vissza",-11.1369165854669],["irat",-11.137128762280401],["pol",-11.137473525874181],["cső",-11.137625499153936],["tartalmú",-11.137647697967095],["befektetések",-11.137783375339577],["vizsgálni",-11.138120680791499],["zöldség",-11.13815282222001],["művek",-11.139890416855561],["hazud",-11.140216245112459],["szoba",-11.141019317028265],["Ola",-11.141107881883704],["all",-11.14140833070561],["onként",-11.141992336324947],["fogta",-11.142249893623516],["tevékenységek",-11.142350791913879],["ingatlant",-11.142542129441098],["elképzelés",-11.142770138854935],["óvatosa",-11.143141972509834],["SK",-11.143162538830762],["megvásárolt",-11.143221460382001],["Neke",-11.143295626438547],["munkába",-11.143386685867894],["polgárok",-11.143414013542769],["elhangzott",-11.143634692836063],["Ronald",-11.143832209475947],["indítvány",-11.143837259325874],["kártya",-11.144029727628995],["csoportos",-11.144227960925141],["hívás",-11.144541894450002],["szakítás",-11.144576118068885],["kiegészít",-11.144689094906347],["gyümölcs",-11.144756363038052],["egyiptomi",-11.144842737746156],["World",-11.144842737907192],["diadalmaskod",-11.144842740238477],["krónikus",-11.144842750456252],["bitcoin",-11.144842752492202],["Január",-11.144842816896798],["laboratórium",-11.144842873149173],["majomhimlő",-11.144843351678945],["Fradi",-11.144849539821447],["meredek",-11.144857249712643],["legenda",-11.144859765974617],["elfogadhatatlan",-11.144888521090582],["válassz",-11.144962646503496],["amike",-11.144981882953367],["Luhanszk",-11.145023107514465],["eleji",-11.145106414913291],["Jenő",-11.145344400849417],["Hotel",-11.145397914802679],["beruházást",-11.145416999296085],["demokratikus",-11.14557015197434],["legsúlyosabb",-11.145712051912522],["homok",-11.145845684572325],["tanácskozás",-11.145856334850961],["társulat",-11.14591321036835],["Hszi",-11.146016913725868],["továbbjutás",-11.146233868510151],["történetek",-11.146481862305205],["Óriási",-11.146590363544824],["kijelző",-11.146668763999612],["Andre",-11.14691698456206],["mechanizmus",-11.146989019910352],["érettségi",-11.147101991622488],["sehol",-11.147287146839918],["Veres",-11.147663883968509],["mérhet",-11.147680841503224],["alakította",-11.147790325260988],["döntései",-11.147850565997294],["falvak",-11.148106441365707],["létező",-11.148400435231595],["lövöldözés",-11.148511959970495],["ekhez",-11.148849984267256],["vendéglátó",-11.149677129887369],["Nyíregyházán",-11.149732153598144],["tudós",-11.149847078418974],["teherautó",-11.14999902200259],["tisztviselő",-11.150135245652136],["szület",-11.150172373600093],["vadon",-11.150234352434593],["Fejlesztés",-11.150696497709763],["juss",-11.15109421146936],["Lu",-11.151238563074376],["West",-11.15176837588893],["Sokszor",-11.151887390845637],["sejtek",-11.151966145941234],["megmarad",-11.152705099251131],["kötés",-11.152806000900581],["?”",-11.153237537413297],["horgász",-11.153503271779696],["zer",-11.153620216436543],["megkapj",-11.153958327408086],["áruk",-11.1542287177197],["üzemeltetés",-11.154264274733901],["konténer",-11.154460621975693],["mondv",-11.154802548237418],["nyitottak",-11.155327089455156],["napeleme",-11.15559555996259],["képességé",-11.155724926212374],["munkaerőpiac",-11.156076607698337],["követet",-11.156561048732492],["eljutott",-11.156561876119984],["hab",-11.156869551429818],["végző",-11.156895458849409],["pihenés",-11.156960640705973],["problémáj",-11.157192823258558],["zárja",-11.157312580320925],["ügyé",-11.157973505045014],["ric",-11.158226346807716],["összefüggésben",-11.158380223989129],["húzz",-11.158796825794223],["önmagába",-11.159157499739248],["értelme",-11.159480069964843],["szállítások",-11.159507274837306],["közönsége",-11.159938949527543],["halottak",-11.160317743137767],["emléké",-11.160963412761944],["gá",-11.161187169074406],["koncepció",-11.161504270611978],["létesítmények",-11.161527024156621],["sikeré",-11.161693023277703],["lövésé",-11.162154684817734],["javasolta",-11.162174741708604],
[...]
