{"version":"1.0","truncation":null,"padding":null,"added_tokens":[{"id":0,"special":true,"content":"<UNK>","single_word":false,"lstrip":false,"rstrip":false,"normalized":false},{"id":1,"special":true,"content":"<SEP>","single_word":false,"lstrip":false,"rstrip":false,"normalized":false},{"id":2,"special":true,"content":"<MASK>","single_word":false,"lstrip":false,"rstrip":false,"normalized":false},{"id":3,"special":true,"content":"<CLS>","single_word":false,"lstrip":false,"rstrip":false,"normalized":false}],"normalizer":null,"pre_tokenizer":{"type":"Whitespace"},"post_processor":null,"decoder":null,"model":{"type":"Unigram","unk_id":0,"vocab":[["<UNK>",0.0],["<SEP>",0.0],["<MASK>",0.0],["<CLS>",0.0],["a",-2.6517448559636954],[",",-2.893247970886776],[".",-3.3092628636077652],["t",-3.781982787301434],["az",-3.9009814719479508],["n",-4.1496628257118235],["és",-4.383138662635455],["-",-4.385578374623034],["A",-4.390834666470731],["i",-4.438082547147177],["hogy",-4.608256654854349],["k",-4.627923384648202],["is",-4.629689456166142],["nak",-5.104638294407296],["nem",-5.111676823864929],["egy",-5.1226908111862475],["ban",-5.223222897952347],["ben",-5.229370143936768],["nek",-5.290376966111973],["Az",-5.430877944863804],["e",-5.496335314990542],["re",-5.5578238855769815],["meg",-5.581971027057925],["ra",-5.668652902148068],["en",-5.693144997648222],["s",-5.705483974489757],["et",-5.800148645121485],["–",-5.822158992959412],["el",-5.841494992340154],["m",-5.903429167197695],["ki",-5.919763248449714],["ik",-5.952526536646957],["szerint",-6.026929361928431],["volt",-6.034055168898892],["on",-6.038606667825965],["de",-6.056459936302929],[":",-6.060616027648466],["már",-6.094600847590581],["g",-6.112169987774996],["be",-6.2106715924553235],["van",-6.2896849147345595],["\"",-6.295771734466543],["csak",-6.296443931467923],["ott",-6.301402494035065],["még",-6.334973772822384],["mint",-6.347568489378155],["több",-6.405671302375893],["ák",-6.416967855865028],["ez",-6.434641343754835],["pedi",-6.439236185550351],["át",-6.451130430130423],["vagy",-6.5065389567231104],["vel",-6.5110311479892005],["(",-6.540156502965697],["hoz",-6.556490101869368],["ról",-6.5689421590334724],["ek",-6.578380915528729],["ból",-6.580068285407263],[")",-6.580347107328164],["20",-6.586964907599304],["év",-6.592072902909493],["sem",-6.605460478322083],["kell",-6.60646346387545],["ről",-6.616489689978447],["val",-6.616873009442113],["fel",-6.623003093715095],["ha",-6.630913405171887],["ért",-6.641679116540779],["azt",-6.651508483985252],["mi",-6.671890813111347],["után",-6.673606972617959],["majd",-6.710050444186402],["kal",-6.723172180071931],["százalék",-6.726141847199671],["két",-6.729992877320212],["unk",-6.740348404242903],["lehet",-6.744941982894156],["”",-6.768171047395008],["ok",-6.775748434863852],["ként",-6.782863301876668],["amely",-6.785816122193754],["magyar",-6.814202601172537],["lesz",-6.832434023102736],["2",-6.834867846834727],["ami",-6.836082050042307],["orosz",-6.839456207032242],["miatt",-6.848084229575288],["okat",-6.860071967703843],["1",-6.8649351795008196],["es",-6.870365642364758],["ig",-6.870851869210571],["úgy",-6.8749187252249095],["nagy",-6.875853084390772],["így",-6.8787431009979265],["ő",-6.883411357429068],["ot",-6.886737737428051],["hez",-6.901994808019133],["ből",-6.939264516925656],["ünk",-6.943838010541915],["le",-6.944680327831169],["ul",-6.945922001730894],["minden",-6.9495259178820294],["új",-6.9508952505568935],["tól",-6.952569696514944],["első",-6.965298976620124],["olyan",-6.967209230857717],["Ez",-6.97266108589301],["ják",-6.993128957095887],["ék",-7.005372093389579],["között",-7.027822540831839],["aki",-7.044748016443339],["M",-7.059098125315898],["„",-7.066570467472055],["akkor",-7.124973024218734],["ó",-7.1262002477156905],["től",-7.133737706250982],["leg",-7.134840982155584],["azonba",-7.148767154824438],["ni",-7.164142160912498],["3",-7.169972296850373],["nál",-7.172361180702924],["mert",-7.1780516599672275],["5",-7.18863696196346],["án",-7.188779097587269],["?",-7.190654819878092],["éves",-7.190955926641385],["va",-7.205985300005625],["forint",-7.206705554602275],["mondta",-7.222030879455331],["nél",-7.222442750310007],["mellett",-7.224540574292595],["egyik",-7.237428960095362],["most",-7.244320278933375],["arra",-7.2485964977325725],["jó",-7.274401954846428],["ták",-7.282319417531461],["202",-7.309770110052336],["!",-7.314343202422293],["ve",-7.32407129452944],["ük",-7.339426219845311],["ukrán",-7.348317302444249],["sal",-7.359392780043215],["uk",-7.366775308253544],["ának",-7.3714478032619235],["én",-7.372422596772984],["sok",-7.390319878109533],["S",-7.390815171289031],["ezt",-7.390938071999995],["eket",-7.392507473307543],["által",-7.3945573171214285],["4",-7.397175646548767],["millió",-7.405359450387719],["előtt",-7.4100279797863475],["Egy",-7.415521055812661],["fog",-7.425207786211749],["más",-7.428730991445895],["z",-7.4297470633117495],["os",-7.440867851994718],["ezer",-7.441611173091469],["kormány",-7.442087848903692],["tovább",-7.4431764783034815],["l",-7.451859956581001],["akik",-7.452782300001508],["b",-7.47275743348415],["tal",-7.486409312161928],["r",-7.490061569982644],["amikor",-7.490549051777264],["ában",-7.497777497056001],["milliárd",-7.500157471069752],["alatt",-7.504706177250795],["óta",-7.522722389188598],["E",-7.526350728148905],["19",-7.537671237442274],["rról",-7.546755073118334],["tud",-7.5495332157081565],["d",-7.55205539954625],["K",-7.553553478920489],["ett",-7.554540713236408],["három",-7.555409634156987],["Nem",-7.559954537152924],["agyon",-7.562109990373921],["számár",-7.572798171592692],["h",-7.577187079680041],["hozzá",-7.579307061263645],["ja",-7.586834282361363],["ország",-7.588930414239528],["Ha",-7.590725066371125],["ahol",-7.606722344541961],["valamin",-7.636183923473695],["y",-7.648516497109978],["Európa",-7.659440094048689],["kat",-7.660941842984194],["háború",-7.6632140674724045],["7",-7.66921702959323],["ára",-7.673827208060086],["10",-7.675902064407392],["6",-7.682185968463713],["ellen",-7.68940468299027],["ében",-7.691392910362474],["voln",-7.700030088095871],["ember",-7.703969586325184],["lett",-7.705230514166073],["Oroszország",-7.706946020025217],["P",-7.713526162655524],["kor",-7.715652300987962],["o",-7.718816241509859],["8",-7.7214648693877495],["kel",-7.724390143566117],["hisze",-7.727756640686708],["közben",-7.731163788283188],["hét",-7.740635182293903],["áll",-7.743062369587317],["ával",-7.750986540756214],["viszont",-7.754893399469805],["ugyanis",-7.757756836530357],["ték",-7.7581337587232895],["világ",-7.758849007697482],["0",-7.758940027286514],["példá",-7.761645119296879],["ba",-7.76463684236657],["vissza",-7.770146116432975],["illetve",-7.774026718933882],["ét",-7.777341885859195],["amit",-7.784038637988511],["mind",-7.797720186882904],["annak",-7.807236333590314],["juk",-7.808593949909458],["ú",-7.810710300921446],["Magyarország",-7.816142215024115],["elmúlt",-7.817125187170276],["hanem",-7.82001731209643],["ének",-7.822713761126352],["második",-7.8239160516640185],["teljes",-7.82972159353802],["ilyen",-7.830913456749354],["amelyek",-7.832095465267542],["cég",-7.832435027348158],["férfi",-7.837399721708565],["B",-7.842581923272672],["míg",-7.845393102863451],["való",-7.846241593375383],["ne",-7.846828584344973],["sel",-7.848585541753344],["nap",-7.85543697165958],["Mi",-7.857088561690584],["elnök",-7.8653906191675516],["rá",-7.866680317282123],["15",-7.873107436284065],["adott",-7.874467115810457],["közölte",-7.879893963409828],["akár",-7.880493486640252],["csapat",-7.897096992936319],["em",-7.8995178847979695],["ezek",-7.901560663959956],["ű",-7.902628826205608],["egész",-7.907492365186662],["fő",-7.909811835008202],["9",-7.917263204881999],["százalékos",-7.918256251181808],["korábba",-7.91956079747877],["legnagyobb",-7.92354839210904],["ül",-7.924696537592153],["milyen",-7.92990935479464],["fontos",-7.940447195442137],["é",-7.940967544449362],["nincs",-7.955368760155164],["előre",-7.9588013782599045],["30",-7.9597115445363125],["nagyobb",-7.961967952878847],["felé",-7.97617231147459],["amerikai",-7.980490787800678],["került",-7.982753078941857],["során",-7.983398839580612],["C",-7.9839582040242245],["saját",-7.985192370341948],["ezér",-7.990674639049118],["tette",-7.990789707297736],["tak",-7.990845490879158],["bb",-7.994412997522897],["emberek",-7.996871479233512],["azért",-7.99978685676372],["jól",-8.00050475728683],["De",-8.012978175783072],["Magyar",-8.01869642303765],["18",-8.02336495935808],["alapján",-8.028053152550932],["idén",-8.033643633076341],["G",-8.035460500550162],["ével",-8.038064502869982],["szemben",-8.043055545407737],["eddig",-8.04984553351506],["helyzet",-8.055551383098834],["hat",-8.056980833807842],["zal",-8.061789489801011],["részt",-8.062515749716074],["együtt",-8.066318189765632],["idő",-8.066399955761746],["négy",-8.06722825605505],["európai",-8.069638258881543],["mely",-8.072674363447735],["újabb",-8.074854750101128],["nélkül",-8.07723176807098],["másik",-8.080433739474127],["össze",-8.08670902861207],["gazdasági",-8.10065075979643],["eset",-8.103314926367599],["jelentős",-8.108306206162062],["ám",-8.110466407334563],["itt",-8.112610298081638],["lenne",-8.114474164624415],["jük",-8.117695334158473],["ezzel",-8.118648371763484],["tek",-8.119697711118482],["közel",-8.129506082690863],["kellett",-8.137513128791046],["hazai",-8.1450597873384],["szinte",-8.145902673666878],["R",-8.146574527187163],["ekkel",-8.153726397659334],["egyre",-8.158822717935784],["elő",-8.163326758093154],["évek",-8.16356047769439],["közül",-8.167991104698956],["történt",-8.169221252406203],["voltak",-8.169548257583912],["őket",-8.175059537271755],["H",-8.182365772650911],["néhány",-8.182538055297146],["jövő",-8.18516280168891],["korábbi",-8.187756509355992],["om",-8.192581897975188],["túl",-8.198711606217735],["ennek",-8.199193556317681],["vezető",-8.200324540810694],["Nagy",-8.202484135993966],["újra",-8.204588024207794],["er",-8.204634154342099],["elmondta",-8.20576161479388],["szó",-8.20811599569993],["játék",-8.208823032199017],["F",-8.214873490975211],["hónap",-8.215775073703643],["következő",-8.220471372400407],["mal",-8.222334437706868],["te",-8.222829752399559],["kérdés",-8.223145750685429],["perc",-8.228156280436071],["azok",-8.22887176234272],["Ukrajna",-8.230881962983265],["fél",-8.232499061377176],["nő",-8.2338895387273],["kapott",-8.246395062706757],["város",-8.247244787984219],["ére",-8.247650373922212],["12",-8.247997889294492],["öt",-8.255592685034458],["belül",-8.257248367031826],["bban",-8.25818446715992],["jelenleg",-8.262778321561953],["gal",-8.264807052681757],["Egyesül",-8.272977464038174],["I",-8.27419546320661],["infláció",-8.276275390940562],["további",-8.278926316309153],["ött",-8.284211971489263],["miniszter",-8.286137971635785],["követőe",-8.287159784004672],["tavaly",-8.287878960591618],["jelent",-8.288660628130884],["utolsó",-8.28960184183412],["gel",-8.300248079169776],["képest",-8.306364017547633],["ár",-8.30788252414089],["14",-8.315388579682178],["unió",-8.318668665771149],["része",-8.318783310557244],["tett",-8.322680939274726],["gy",-8.325751115064218],["ugyan",-8.326653958435282],["Mint",-8.32821495620695],["lévő",-8.333656914536096],["indig",-8.339575490964709],["Magyarországon",-8.340813779693942],["13",-8.346402881027899],["Péter",-8.348943300786193],["ad",-8.349451587249765],["22",-8.350599254027927],["mindenki",-8.351710695563437],["közös",-8.353902029788745],["ön",-8.356549500551615],["család",-8.357109638323477],["száma",-8.358039366384128],["sikerült",-8.358077386243242],["bár",-8.361347482307227],["rendszer",-8.362646337356756],["harmadik",-8.365066690867003],["Orbán",-8.365322256108112],["helyi",-8.370998173701286],["50",-8.371215362513203],["nemzetközi",-8.374200463675576],["jelentette",-8.378552912625551],["legyen",-8.379063220697756],["25",-8.381229147231199],["támogatás",-8.381419645035379],["hát",-8.384326220318082],["/",-8.385376748450788],["sz",-8.38547110760506],["éve",-8.386606041947381],["kerül",-8.387261176908666],["erre",-8.387316644806397],["11",-8.3934763167902],["17",-8.395654462001154],["érdeké",-8.3963795625395],["euró",-8.396929895639204],["T",-8.396985864780603],["magát",-8.406398703755045],["szükség",-8.411714459255052],["mel",-8.412116623162992],["később",-8.415268688543557],["közösségi",-8.416921939308274],["ebben",-8.41916306902639],["miniszterelnök",-8.423080348640518],["él",-8.424941941970841],["je",-8.432627420043154],["24",-8.433449134830568],["érkezett",-8.440798911713074],["tartott",-8.441162877049607],["kap",-8.44189237407538],["mikor",-8.44760653229357],["hosszú",-8.450945539267089],["elleni",-8.45136302925206],["pár",-8.452783719259541],["L",-8.453877202969752],["D",-8.455653686864157],["magas",-8.45629822451101],["este",-8.45802270142973],["című",-8.467554292560408],["sokkal",-8.46813692516699],["szintén",-8.472688591729245],["ismét",-8.478494858238609],["jár",-8.48118958662496],["Putyin",-8.482785901895813],["végül",-8.486784890608206],["vár",-8.487308279513009],["védelmi",-8.488861498153373],["miután",-8.489138643168662],["vállalat",-8.492010622047685],["16",-8.496525487068652],["álló",-8.499032677005207],["ukrajnai",-8.499265624920266],["keresztül",-8.502888737977123],["fogalmaz",-8.503454009208085],["inkáb",-8.50429048377476],["21",-8.508996638881076],["oldalán",-8.512930443968937],["f",-8.513854297235547],["megfelelő",-8.515140973885632],["számos",-8.515648560591599],["Ezek",-8.52230121908044],["szeretné",-8.522528805508198],["rendőrség",-8.524172455781182],["alá",-8.524602746702724],["fiatal",-8.526110572171088],["TI",-8.52781500639117],["helyen",-8.528730266806175],["éppen",-8.528997716139521],["200",-8.536567289899814],["Már",-8.539330596444191],["program",-8.542105980729954],["múlt",-8.547230683669952],["végén",-8.547414348973774],["V",-8.548948494102286],["mit",-8.552836602273857],["okkal",-8.554423190018426],["pont",-8.562492951685638],["járvány",-8.56317337936424],["dolgoz",-8.563822972573199],["ket",-8.566939414717352],["v",-8.568704945373344],["írja",-8.569138312591575],["katonai",-8.57118814433239],["hol",-8.575041116914146],["erős",-8.577885463752514],["legalább",-8.577887882893915],["komoly",-8.580829226550144],["oldal",-8.582954712402445],["írta",-8.585471585145411],["sor",-8.585852427691414],["élet",-8.587273486813015],["választás",-8.589353685344463],["elég",-8.589874132065114],["politikai",-8.593652812709777],["előző",-8.593813553471062],["ás",-8.596305997863507],["ezen",-8.598973816094023],["koronavírus",-8.605980018368886],["kívül",-8.607086534510387],["EU",-8.608766832281175],["elnöke",-8.610723517037867],["egyébkén",-8.61097746000204],["Viktor",-8.614556705109035],["autó",-8.61531118667942],["út",-8.61537846132136],["vasárnap",-8.615569758797296],["Ezt",-8.616031538060792],["beszélt",-8.617574670709562],["ztán",-8.618708121410094],["vált",-8.62069102759771],["nehéz",-8.620923615861848],["önkormányzat",-8.621124108311015],["jobb",-8.622504887651214],["december",-8.625128166521423],["mennyi",-8.625719742590132],["j",-8.629008252998673],["egymás",-8.631877296443928],["László",-8.63188476814178],["jön",-8.63313624935069],["ából",-8.633745164910858],["német",-8.633801794022624],["40",-8.634883438972825],["tudja",-8.634992738754796],["egyes",-8.635317613522258],["megoldás",-8.635974519378047],["ellenér",-8.637240290863403],["baleset",-8.638988271600272],["ügy",-8.64102763101286],["utóbbi",-8.645757681667854],["kis",-8.646550551719915],["szabad",-8.647186310519057],["Budapest",-8.649657338526243],["idei",-8.651353087646065],["szervezet",-8.652010823538166],["tíz",-8.652771048981599],["vezetője",-8.652900155362405],["gáz",-8.653421774254696],["tart",-8.654211985308663],["tudta",-8.65469013666166],["maguk",-8.656671696901169],["100",-8.657220753547554],["óra",-8.659730069249694],["állam",-8.660517065283926],["O",-8.661535696648013],["biztos",-8.66333904922606],["nőtt",-8.664202977804042],["képes",-8.666669829308939],["kevés",-8.666965932845637],["november",-8.668257011025624],["rel",-8.668724472788227],["Bár",-8.67218392844715],["ugyanakkor",-8.677150454790704],["marad",-8.677331484885901],["Nemzeti",-8.678216277869383],["azon",-8.678659752689903],["kapcsolatba",-8.680293587041678],["megyei",-8.68119241351403],["csökkent",-8.681916742885196],["vette",-8.685360673155905],["történ",-8.692361460712533],["időszak",-8.69247377335416],["szükséges",-8.693863663652373],["otthon",-8.693898557035745],["Államok",-8.694544866460582],["lehetőség",-8.695230426882855],["állt",-8.695233724291857],["neki",-8.695733474743605],["elején",-8.6964872689369],["szankciók",-8.699720717687274],["pénteken",-8.701620026894913],["legjobb",-8.703560535610418],["benne",-8.706075971967163],["élő",-8.70724486677354],["23",-8.707338319117133],["Enne",-8.708583621716535],["igen",-8.710151971192353],["Úgy",-8.710989183732769],["október",-8.712987797445024],["dollár",-8.715481400135657],["szeptember",-8.71565057558783],["rendőrök",-8.71997333649459],["Most",-8.72078699852268],["órá",-8.721625406898],["érdemes",-8.724743851712487],["köszönhető",-8.726787370614902],["kisebb",-8.72754664573552],["vele",-8.728887923179476],["brit",-8.730968136687807],["ment",-8.732355728683622],["hasonló",-8.733263968081008],["gazdaság",-8.734792379764734],["forinto",-8.738234925309925],["egyetlen",-8.738312290297351],["cél",-8.738444750273388],["fok",-8.740133981741415],["szint",-8.744471854991758],["adatok",-8.745017567531672],["délután",-8.746457116028676],["maga",-8.748571048122951],["lag",-8.750150416063335],["ház",-8.750939750592382],["csütörtökön",-8.75193355896241],["Több",-8.752108000154323],["István",-8.753906061515213],["annyi",-8.754286211585917],["miért",-8.754552245801587],["készült",-8.754868772951031],["Í",-8.755756758364189],["tunk",-8.759701269986536],["akar",-8.760910673722039],["magá",-8.763473299798472],["energia",-8.764758385902278],["módo",-8.766344825732915],["üzlet",-8.766439094102797],["gyermek",-8.768602449248643],["fejlesztés",-8.771448170285868],["eseté",-8.772634747851566],["különböző",-8.773165501633578],["jon",-8.773692763352763],["folyamatosa",-8.774636081071105],["alkalom",-8.77530090788418],["teszi",-8.776806560043063],["hatalmas",-8.78041032987178],["esett",-8.781140120268478],["mond",-8.783197454890848],["bele",-8.784356134882962],["tűn",-8.785870897759832],["napi",-8.78731515463254],["p",-8.788567458972402],["várható",-8.790554449596709],["jelen",-8.79097275092205],["működ",-8.79339134170078],["ismert",-8.79409707630527],["kább",-8.795004469518444],["line",-8.797446472320651],["sokat",-8.797719251560572],["jelenlegi",-8.79817223361741],["ők",-8.798797010587514],["kevesebb",-8.799876279761659],["kapta",-8.800168837020543],["súlyos",-8.801573009427326],["született",-8.802281877801242],["előszö",-8.802609556787512],["tel",-8.802734832937183],["készül",-8.80570494795942],["víz",-8.810653117312455],["szóló",-8.81136787560678],["növekedés",-8.813007703359883],["hétfőn",-8.817140256715],["piac",-8.819916862553537],["helyett",-8.821144432116878],["jobba",-8.823116621505276],["verseny",-8.823130298972945],["napon",-8.824219128297095],["piaci",-8.828839516397444],["látható",-8.829659705761578],["állami",-8.831162884744824],["részé",-8.832692677850536],["gyerekek",-8.834000622221005],["szerdán",-8.834913180422248],["ráadás",-8.841573569892681],["vett",-8.843549832082157],["országok",-8.843637089063733],["reggel",-8.84468196810705],["“",-8.846583676628612],["indult",-8.846634129215772],["csoport",-8.846961556450488],["á",-8.847282194371171],["mai",-8.852080024414672],["És",-8.855705874269667],["árak",-8.866822490077407],["szám",-8.867797420301496],["áról",-8.868055750509592],["c",-8.868798238517279],["figyelmet",-8.869861162745076],["támadás",-8.877082827161832],["körül",-8.879462510937497],["kedden",-8.88116498077131],["jelenti",-8.883707624791683],["legtöbb",-8.884421934983202],["március",-8.886054554439113],["forintos",-8.888435927956102],["emelkedett",-8.888800782972547],["hivatalos",-8.888991119309235],["tudni",-8.89413881640989],["ezelőtt",-8.894625467194158],["rövid",-8.902000628172114],["cégek",-8.904683780081895],["esetén",-8.905560639455942],["képviselő",-8.90771463639405],["tesz",-8.908262750338636],["magasabb",-8.909899955011426],["kiderült",-8.912189350260016],["valaki",-8.915621921464187],["U",-8.91801411438522],["valószínű",-8.922783528464791],["Minden",-8.924162218821532],["valami",-8.925738386581894],["érték",-8.926469978191356],["összes",-8.9266714409526],["elérhető",-8.927528384383647],["sorozat",-8.927875139126124],["ral",-8.929399975314976],["döntött",-8.929486630312354],["parlament",-8.932510080843542],["jött",-8.932958615800027],["mindent",-8.933829708066224],["egészségügyi",-8.93640024490177],["vonatkozó",-8.937477260310708],["szövetség",-8.937962429449641],["május",-8.938168229782452],["rossz",-8.938771707065628],["pénz",-8.939256302878771],["eszközök",-8.939432641522748],["teljese",-8.941364271437596],["kapcsolatos",-8.943669230186691],["addig",-8.947437163593527],["található",-8.947581650123734],["helyszín",-8.948653233943432],["szombaton",-8.950208083835152],["60",-8.950578258093527],["azonnal",-8.950730567109062],["Bizottság",-8.951236706848242],["biztonsági",-8.954374149594424],["kapcsolat",-8.956358367316895],["régió",-8.958547687635914],["Meg",-8.959429638695326],["hatóságok",-8.959792665892504],["legfontosabb",-8.960744936090547],["február",-8.96091005596004],["átlagos",-8.961829779896394],["27",-8.962038875865835],["döntés",-8.963635147573067],["minisztérium",-8.966017050176916],["maradt",-8.966935013346092],["többször",-8.970681932496507],["N",-8.971235388489905],["né",-8.971637151888523],["hangsúlyozt",-8.97181796505365],["augusztus",-8.973332723615115],["Egyetem",-8.97417163189623],["orban",-8.974226818443466],["oroszok",-8.976949313130687],["érintett",-8.977679481738939],["oda",-8.978286075377083],["kapcs",-8.980289088527705],["amelye",-8.98072843596704],["szolgáltatás",-8.982971548877277],["külön",-8.98414132066504],["erők",-8.984373167113581],["válogatott",-8.985875714329447],["személy",-8.986631094000584],["film",-8.98753673043346],["munka",-8.987811575340748],["határ",-8.989244662526644],["talán",-8.991071333390284],["száz",-8.991765891833365],["köztü",-8.992894361697168],["ették",-8.993468686366572],["életét",-8.993517228813818],["áig",-8.993528690470473],["őt",-8.995926143267157],["lehetősége",-8.996114416451304],["Zr",-8.996174524472785],["közötti",-8.998048030605661],["csup",-9.000622225679443],["semmi",-9.002033401758212],["Hozzátette",-9.003116876581538],["vesz",-9.003745810696161],["január",-9.005072744160046],["épület",-9.007524916727206],["lépés",-9.007997317493903],["rengeteg",-9.012483916045795],["Bank",-9.012712711651158],["sőt",-9.013166262649232],["nevezett",-9.013252949506937],["senki",-9.013888747779884],["kellene",-9.013958560111197],["kórházba",-9.014169841796658],["János",-9.014318048934525],["lenni",-9.01546205924619],["július",-9.016079756027608],["pénzügyi",-9.016244873882389],["végre",-9.016595856193224],["se",-9.018285758738266],["lakosság",-9.020429374951089],["NATO",-9.021544869500609],["szép",-9.0223326815625],["jutott",-9.022578304043122],["azóta",-9.02452819667965],["számít",-9.02886798489994],["adatai",-9.031808817845508],["kínai",-9.035782650073337],["segítségé",-9.037091623099197],["%",-9.038521204316002],["végzett",-9.040378227245476],["II",-9.0411217845686],["eh",-9.042034061645051],["számolt",-9.042048062746389],["soha",-9.044037075853955],["nemzeti",-9.046080596921502],["kutatás",-9.047107160638813],["kezdte",-9.048410722062979],["olaj",-9.049520947774504],["Ferenc",-9.050934812891118],["hozott",-9.054857168227688],["kicsi",-9.05574426704181],["társaság",-9.056428932475155],["kezdett",-9.05749678364535],["érkező",-9.060465608169261],["igazá",-9.061707981228128],["francia",-9.061887841363351],["NB",-9.06310425113032],["Unió",-9.064021737591492],["összese",-9.064621757020618],["külföldi",-9.066576610965711],["április",-9.067989847628045],["lány",-9.068332640911446],["egykor",-9.070349288633457],["nyugati",-9.072952465006095],["többek",-9.0732589661631],["román",-9.074413000097657],["végé",-9.074798045339637],["országos",-9.076221592470429],["tartó",-9.076480560013149],["80",-9.077126393276924],["lap",-9.078956235362266],["ához",-9.080627400735539],["régi",-9.08279715432471],["gyakra",-9.083929814075784],["használ",-9.084149852947657],["június",-9.084802470906777],["mutat",-9.085333872147029],["ezút",-9.086254662205047],["politikus",-9.086286348216749],["szakmai",-9.086826847237496],["közé",-9.087175066632037],["szerepe",-9.087535061614552],["termékek",-9.08866964057334],["tudott",-9.08931304265666],["párt",-9.095893138433617],["nevű",-9.096994790177908],["időben",-9.098168040192117],["Két",-9.098942943052768],["héte",-9.100336242254908],["közlemény",-9.10038763631192],["szerzett",-9.100752540032119],["rendkívül",-9.101824630657706],["rendelkez",-9.102841570147222],["zel",-9.102993492636696],["lépett",-9.105831649169074],["tenni",-9.108251573121525],["budapesti",-9.108776620392227],["célja",-9.108843072847279],["Facebook",-9.109071501927811],["független",-9.109279846337762],["dal",-9.109501161237286],["tegnap",-9.11042814449242],["érkezik",-9.11045640788214],["fogja",-9.110738288955364],["polgármester",-9.111772729799196],["tartoz",-9.112824420803243],["találta",-9.11376238928107],["élete",-9.113899464619388],["havi",-9.113952290796963],["ukat",-9.11489614903106],["zárt",-9.115574244235408],["70",-9.115734576213708],["gyerek",-9.1172335920497],["elsős",-9.118524747305996],["felelős",-9.119554254900208],["ideje",-9.119579503139096],["Azt",-9.120082015079252],["mégis",-9.1219258786168],["mostani",-9.126632510042292],["Még",-9.127662946778704],["Európába",-9.127737616889863],["35",-9.127855439711343],["betegség",-9.128334678889082],["idején",-9.130646695727012],["országban",-9.133980708609698],["nyolc",-9.134903259742728],["ivel",-9.136225007233609],["persze",-9.137122924098769],["vagyis",-9.137743190584459],["elé",-9.138401113207044],["tartj",-9.138782600986527],["Z",-9.139162464240332],["szól",-9.139508662388137],["soka",-9.140156794920465],["vé",-9.142390588250967],["érte",-9.142914095942658],["összeg",-9.144881684384968],["közlekedés",-9.145829963759503],["mennyiség",-9.14635714430934],["u",-9.146454560080906],["Zoltán",-9.147516916150977],["od",-9.147821245932644],["szerepel",-9.14840697647926],["26",-9.14862050117852],["játékos",-9.150656026306962],["igaz",-9.151521356060378],["adó",-9.152955743925329],["projekt",-9.152987542602347],["változás",-9.153014548399494],["pillanat",-9.15335850869324],["nyi",-9.155339384975406],["eredmény",-9.155691306443254],["iránt",-9.155695145214427],["többi",-9.159701660583575],["kkal",-9.159902017214998],["hír",-9.163776684857783],["Ukrajná",-9.165230882410963],["különöse",-9.165922155932746],["intézmény",-9.167581198940656],["mindössze",-9.170281726757981],["elektromos",-9.175540721168414],["követő",-9.176554317588366],["részét",-9.177825277310095],["jövőben",-9.179250498999409],["pontosa",-9.179727552529945],["nyár",-9.179816378069763],["folyamat",-9.179954530840405],["globális",-9.182546229818257],["egyéb",-9.18289962190753],["ed",-9.182984972716206],["hu",-9.184361836085289],["hatás",-9.186739769258999],["gyors",-9.190976098819512],["haza",-9.192361202201454],["28",-9.192722559106473],["úton",-9.195333303586093],["hely",-9.199220303472252],["épp",-9.199335939071927],["vették",-9.205302589374945],["írt",-9.206994281576764],["létre",-9.208185362126951],["bíróság",-9.2123765368666],["tér",-9.212727588006306],["hivatal",-9.214041474102364],["beszél",-9.216803756967405],["alig",-9.216874479906199],["hadsereg",-9.217094559622968],["néz",-9.21886916004147],["mögött",-9.218898572702898],["különleges",-9.220029822403816],["dél",-9.220073763618853],["forrás",-9.221183627023462],["venni",-9.221364512402296],["lát",-9.221461049070582],["okozta",-9.22173650419469],["lengyel",-9.222281396368981],["digitális",-9.222594500416292],["biztonság",-9.224086674694817],["negyedév",-9.225157087487629],["eljárás",-9.225207407428837],["Sándor",-9.22600080481006],["egyszer",-9.227760938319872],["indított",-9.228031629317016],["cím",-9.228449316795949],["ing",-9.229607881119886],["Országos",-9.230134590006411],["használt",-9.23052463337602],["bizottság",-9.23054827891255],["szél",-9.230981857747498],["forgalom",-9.232860710680473],["Ki",-9.235312918615218],["fiatalok",-9.23790076600384],["üket",-9.238181283089784],["31",-9.23833475631551],["tagja",-9.23874690359304],["tűz",-9.2388046483226],["válság",-9.239672510954035],["Tamás",-9.242060678658545],["családi",-9.242914802976182],["találkoz",-9.243172269295865],["Ukrajnába",-9.244203727552106],["lép",-9.244583897197842],["lehetet",-9.244738738136386],["Attila",-9.245066553501784],["ővé",-9.245484798905043],["szerte",-9.246263166952353],["bizonyos",-9.247095060870002],["arány",-9.24714769365275],["együttes",-9.247398452010156],["tájékoztatás",-9.248479369062093],["tünk",-9.249645393964776],["várt",-9.25034104697264],["keretébe",-9.251911826878853],["női",-9.252237989599767],["alakult",-9.252450079857466],["termék",-9.252600524677248],["Gábor",-9.252685631409818],["emelked",-9.25412089981669],["mutatj",-9.25424488180552],["bé",-9.255355174528598],["vizsgálat",-9.257060261433615],["gyorsa",-9.258533903641482],["beli",-9.258635638751965],["eb",-9.260133566888836],["al",-9.26058313935264],["általán",-9.261590210874392],["29",-9.263057741497278],["területen",-9.263648360054837],["eddigi",-9.263910100056556],["ekkor",-9.264821137998908],["Kf",-9.265819639501725],["beruházás",-9.26759326975598],["melyek",-9.268230430019353],["továbbá",-9.269037497812484],["közepé",-9.27099884954886],["tudjá",-9.275609323249235],["esemény",-9.275633947070158],["magyarok",-9.275929108313864],["90",-9.276563075911511],["ipari",-9.277071774387812],["X",-9.277559786107764],["500",-9.278481521915406],["területén",-9.279640089216961],["Fidesz",-9.279832195501179],["terület",-9.28172628233725],["nappal",-9.282636440232288],["mértékbe",-9.283459071974484],["tagjai",-9.284645962656668],["abb",-9.285840872472084],["sport",-9.286078028469205],[";",-9.287708582070428],["körülmények",-9.291058676183304],["legin",-9.291523708200266],["személyes",-9.291558331353706],["adta",-9.292023602937931],["éről",-9.293711219636975],["El",-9.295332175502129],["eredeti",-9.295861333438365],["mindkét",-9.29631792448697],["közelébe",-9.296507159118926],["feladat",-9.296639300630122],["tudju",-9.296929219543035],["véget",-9.297754366878316],["egyszerű",-9.297869109418304],["rend",-9.299702419279967],["hamarosan",-9.29975056602176],["jegybank",-9.301048485440695],["várhatóa",-9.305498015481996],["találkozó",-9.30701236433068],["hálózat",-9.308080685693273],["alacsony",-9.310524252952359],["nagyjá",-9.311746992913594],["András",-9.311768962209293],["külügyminiszter",-9.311796473558353],["negyedik",-9.312833138543215],["ját",-9.314413490201492],["látsz",-9.314419867257303],["általános",-9.314520916018509],["videó",-9.315141986222152],["járt",-9.315328878938129],["tartani",-9.317276911512277],["Eb",-9.318618652917689],["kezdődött",-9.31905775799985],["vezetés",-9.320786286377025],["dolog",-9.322781760482783],["látj",-9.325502414014398],["Hogy",-9.326675962209368],["lyel",-9.327937670772643],["belső",-9.328119838633398],["lakás",-9.329194586870152],["tervezett",-9.329445062432384],["csapatok",-9.330211471319405],["támogatást",-9.330224171954798],["vállalatok",-9.331855163047567],["problémák",-9.332450083401415],["hőmérséklet",-9.332538909862311],["források",-9.333101247852184],["végig",-9.333394692692858],["tavalyi",-9.33369246520841],["szakember",-9.334327286519517],["adat",-9.33493024183209],["kép",-9.33515579295707],["változ",-9.3383298013662],["magam",-9.338608329354683],["siker",-9.339125765579876],["indul",-9.339506097103115],["játszott",-9.340856501691821],["Csak",-9.341039159379687],["műsor",-9.342949603756757],["pénzt",-9.343513223095862],["kereslet",-9.344232192416706],["tó",-9.345091217118732],["színész",-9.346685371218953],["megjelent",-9.347276337809728],["napokba",-9.347327366494643],["képe",-9.34807616233386],["Zelenszkij",-9.348953046259075],["adni",-9.3489554044525],["természetese",-9.349449295157441],["igazi",-9.349613414914069],["részben",-9.349703325776787],["labdarúgó",-9.351173121334263],["nyert",-9.351237934142347],["Nagyo",-9.351611486470937],["együttműködés",-9.352819089398922],["magyarországi",-9.353803250361096],["kiemelte",-9.353862225462105],["véli",-9.355580920915294],["hiány",-9.357953851973452],["közölt",-9.35809202247869],["szempont",-9.360348622437506],["férfit",-9.361247318232753],["közösség",-9.36156168964513],["főváros",-9.362107482691927],["helyszíne",-9.362930463518289],["klub",-9.363194266070018],["felett",-9.36375194529548],["járó",-9.36452645936184],["talált",-9.36529081015252],["halálos",-9.366583617354193],["pontos",-9.369291897399457],["előbb",-9.369323809999493],["település",-9.369364086390899],["konfliktus",-9.371741130559187],["törvény",-9.372042839467696],["nevezte",-9.372992458989298],["átlag",-9.373012925000427],["ér",-9.37407213932029],["hagyományos",-9.375059295954753],["Németország",-9.375942569320461],["esetbe",-9.376928095256307],["sikeres",-9.377208381818349],["Észak",-9.378840886732746],["Ezen",-9.38024011967843],["mondott",-9.380613886192487],["nyal",-9.381778588337923],["het",-9.382411613802025],["hosszabb",-9.38340370985266],["információk",-9.386192664813116],["friss",-9.386301703046744],["vá",-9.387988878808429],["tervek",-9.388349889250438],["körülbelül",-9.388878593693214],["napok",-9.389757445937901],["300",-9.389971369069599],["kkel",-9.391316327620359],["ingatlan",-9.391560680885476],["Van",-9.391919621613042],["heti",-9.391965612686306],["szív",-9.392175441123651],["szem",-9.393287698622487],["Vlagyimir",-9.396343141519939],["oltás",-9.396418609280103],["ente",-9.397456384419574],["ebb",-9.398575971831193],["döntő",-9.40128557835947],["György",-9.403165448453112],["intézkedés",-9.4032629598614],["Szent",-9.40440653531377],["termelés",-9.40461578477769],["Le",-9.405705982847671],["háborús",-9.40609224583017],["közvetlen",-9.406163915931588],["tűzoltók",-9.407178937570077],["darab",-9.407530117189594],["ság",-9.407593711211446],["közönség",-9.408608784429932],["történet",-9.408951640629127],["anyag",-9.4098836412354],["ától",-9.41148720058985],["támogatj",-9.411956119339006],["csökken",-9.412925291637748],["vége",-9.414598387072505],["fizetni",-9.417688091878425],["199",-9.419476103522513],["sajn",-9.419643775740866],["állítj",-9.419964248801746],["mások",-9.421078975753904],["Ugyanakkor",-9.423989612462389],["kérte",-9.424470760138249],["ír",-9.424621606702821],["látta",-9.425561797524812],["előadás",-9.42689930601765],["keleti",-9.42773565277565],["alap",-9.427892000616222],["hozta",-9.428079879133557],["mérkőzés",-9.428194254527638],["vállalkozások",-9.428988444524286],["legmagasabb",-9.429180990644337],["töltött",-9.430685997732638],["óriási",-9.431594128346863],["segítség",-9.432032246390762],["alapvető",-9.432335576880561],["szezon",-9.433165426758382],["Bors",-9.43431693034664],["TV",-9.435290108860219],["tervez",-9.437397541819045],["munkát",-9.439308874140682],["okoz",-9.439319076289712],["Gergely",-9.441532448346612],["biztosa",-9.442884914547669],["Itt",-9.44291621600944],["vezet",-9.446079463575687],["időt",-9.446152721766683],["szenvedett",-9.446666809062453],["környezet",-9.44681801171513],["szerinte",-9.44882382518648],["díj",-9.448889701632375],["400",-9.449228050956034],["tartják",-9.449908208867557],["debreceni",-9.450179298024159],["Sok",-9.45030887471629],["zöld",-9.45037631854095],["embert",-9.4519304543186],["75",-9.453385374710734],["kormányfő",-9.454720332907753],["kiállítás",-9.455059724879746],["szerda",-9.455500492681033],["választ",-9.455801387434743],["bajnokság",-9.456180981398779],["előtti",-9.456493015372775],["elhunyt",-9.458693525773905],["derül",-9.458748725813795],["rajta",-9.459087301861672],["Kína",-9.461624999206844],["Megyei",-9.461806500348658],["beteg",-9.462525344051173],["felnőtt",-9.462649594998975],["alakul",-9.46290571294453],["nevé",-9.46424720232567],["gyakorlat",-9.464285638261678],["Zsolt",-9.464898001353378],["érzi",-9.46501719448829],["eredménye",-9.465880473528074],["plusz",-9.46767376521515],["kereskedelmi",-9.46880205539027],["hagy",-9.470126200870236],["közösen",-9.470303919962499],["mondja",-9.474158682329225],["megállapodás",-9.474200296453446],["olasz",-9.474588444936131],["Ugyan",-9.475027639195558],["keres",-9.475160206612824],["várja",-9.475169066165808],["szereplő",-9.477080929755104],["közép",-9.477430993890085],["próbál",-9.480863555603044],["erő",-9.480910485080138],["Kijev",-9.48112947836004],["ennyi",-9.48128929240049],["adtak",-9.481859445078612],["megy",-9.482244724763136],["kötött",-9.483047922835489],["nemrég",-9.483248980072954],["József",-9.483542559431182],["áram",-9.48362048307423],["lehetséges",-9.484001505627692],["nyilvánosság",-9.485071771426185],["gyakorlati",-9.485267215512751],["családok",-9.487169709683617],["…",-9.487605019071303],["igazgatója",-9.487809900985132],["nekik",-9.490520584475924],["munkájá",-9.491318061068968],["endő",-9.491616700435433],["hivatkoz",-9.4920596668162],["gondol",-9.492177932919844],["mire",-9.493482951082935],["dr",-9.49487628249882],["jármű",-9.496701024649218],["Emellet",-9.499184955065497],["Debrecen",-9.499260161768545],["kötelező",-9.499706204079292],["tekint",-9.500536234984047],["legújabb",-9.5018822596744],["lel",-9.503050329917816],["bejelentés",-9.503444149293607],["emelte",-9.504971992168258],["számíthat",-9.505888509968319],["vezetet",-9.506320555435495],["OT",-9.506344917679172],["helyzetbe",-9.506459990874053],["baj",-9.507371194482726],["aktív",-9.507751357574984],["annyir",-9.508233050981787],["olvasható",-9.508494572235072],["lapunk",-9.508970084104357],["éhez",-9.509461050094771],["jellemző",-9.51089968079653],["jog",-9.511821588867692],["élelmiszer",-9.511827182280816],["segítsége",-9.512967186531492],["Én",-9.512993301402343],["Covid",-9.513332244525909],["angol",-9.513960462966224],["Szabó",-9.518305271464065],["könnye",-9.522290145421206],["megyébe",-9.522637983853357],["időszakba",-9.52270968305205],["győzelem",-9.523345308047466],["intézkedések",-9.52344889468222],["W",-9.524654183596779],["helyet",-9.525145811792395],["bajnok",-9.525960344921707],["Központ",-9.527547571374061],["kampány",-9.528748395668416],["hetek",-9.530104493943302],["civil",-9.530614717622594],["államtitkár",-9.532746488423701],["válasz",-9.532915279728897],["lal",-9.532931791067142],["The",-9.53431465682926],["emberi",-9.534408158814017],["onnan",-9.536426309343451],["SZ",-9.53678922636954],["hangulat",-9.539228663127075],["szerződés",-9.539353237574705],["működő",-9.54017411619337],["baloldal",-9.54076101475452],["hasonlóan",-9.541029311468339],["remek",-9.54114884027015],["városban",-9.54205827860736],["évi",-9.542579839212518],["Ráadás",-9.543561965742335],["dolgozott",-9.54432275621718],["kért",-9.545275345299462],["térség",-9.545830973031652],["élmény",-9.54721988983496],["jában",-9.547552753756342],["helyzete",-9.547823033596394],["amennyi",-9.548146496120822],["menekültek",-9.548343861812207],["vendégek",-9.549356212747961],["révé",-9.549809282263855],["Mind",-9.551090723576333],["mondani",-9.55115773011304],["tartana",-9.553198218511074],["orvos",-9.55340704563593],["'",-9.553841859025251],["jelezte",-9.554170266366715],["szakemberek",-9.55469094652366],["fegyver",-9.556480279187111],["számol",-9.556767312916127],["hétvégén",-9.557127317919658],["nyomá",-9.557264799819407],["Budapeste",-9.557463968191936],["pályár",-9.557871728531879],["bejelentette",-9.558563498264002],["jelentés",-9.55945916638369],["áron",-9.559487820586586],["jogi",-9.559615704648497],["Ő",-9.560491133469043],["okozott",-9.561160251481546],["utca",-9.562270441674805],["szeretne",-9.562759617818742],["nal",-9.563498462651634],["katonák",-9.564252305521372],["hírek",-9.56437525706918],["értéke",-9.564887914198557],["ránt",-9.56529337475416],["Szövetség",-9.565612709185666],["segít",-9.566645118796533],["látni",-9.567747092875305],["hiába",-9.568779595508872],["45",-9.568832312239877],["említett",-9.56884559164746],["időjárás",-9.57053426720184],["körüli",-9.57225207327479],["folyamatos",-9.573345397343239],["nyílt",-9.57354828139579],["000",-9.574536834026866],["eső",-9.575127879703494],["ötödik",-9.575291212647997],["egyéni",-9.575401583538312],["téli",-9.575941785344337],["alkalm",-9.577787449687733],["34",-9.578281994733878],["sajtó",-9.578731253676589],["körébe",-9.579221193172108],["33",-9.579808262508905],["fizet",-9.580462111956884],["esti",-9.580833756108518],["iskola",-9.581036367670807],["nyári",-9.581558728594295],["oktatás",-9.581843774011352],["földgáz",-9.582519649064814],["of",-9.582817606939983],["kiderül",-9.583535283508887],["pozitív",-9.58475718888155],["32",-9.586659692316928],["Jó",-9.587027489521754],["Mol",-9.58824616503394],["magunk",-9.588771385056663],["Varg",-9.590737262185666],["Be",-9.591943792048653],["rendezvény",-9.592340965847676],["méter",-9.594087538819242],["pályázat",-9.594142919297873],["éből",-9.5945582450947],["GDP",-9.596072803510843],["dolgok",-9.59647125257475],["mellé",-9.596966593073892],["gól",-9.597202151508249],["következté",-9.597213252328967],["kíván",-9.597575584835635],["fajta",-9.597869903022904],["kérdések",-9.59834619538721],["költségvetés",-9.601122507782222],["téren",-9.6013977116685],["Zay",-9.601524343774711],["szabályok",-9.601616857072084],["évtized",-9.60205278591101],["felesége",-9.602807353893203],["bal",-9.602990002564932],["negatív",-9.606865752512633],["arany",-9.608951381297768],["kislány",-9.60975021114885],["szüksége",-9.61098056942998],["készített",-9.612684616855603],["vállalkozás",-9.612895103444526],["szülők",-9.613721851853956],["probléma",-9.614735788821804],["Akkor",-9.61696591200154],["eszköz",-9.617786768016424],["Tóth",-9.61786827238611],["szakértők",-9.61787390488644],["zajl",-9.618668980562802],["erősöd",-9.619013410167643],["vezetői",-9.621149125757952],["közeli",-9.621638379703587],["nekem",-9.622720873775396],["többsége",-9.62323363253681],["utaz",-9.625252552011471],["egymást",-9.626624865325876],["hagyta",-9.628611287272953],["péntek",-9.628957390570235],["Balázs",-9.629060903604776],["rész",-9.629504724409173],["kínál",-9.629525524304471],["százaléká",-9.630317181148738],["index",-9.63080191029388],["foglalkoz",-9.631108522377911],["szállított",-9.63604823643644],["média",-9.636347531906763],["meghalt",-9.637967043959078],["Debreceni",-9.638465331017965],["nyerte",-9.638533792524214],["38",-9.638991644751467],["fiú",-9.639112180325906],["hívta",-9.639828506913545],["Moszkva",-9.64077215439108],["akart",-9.640987378331513],["nyitott",-9.64153931841354],["déli",-9.641643610503117],["technológiai",-9.64212820862335],["ség",-9.642331989813695],["történelmi",-9.645807821292106],["szakértő",-9.645986871340504],["állat",-9.646151888271131],["ös",-9.646391948382831],["forgalma",-9.647671654509965],["fekete",-9.648372488491301],["tettek",-9.648928989941712],["veszi",-9.650089278973812],["gyermeke",-9.651051026457088],["Ami",-9.651103171874816],["összege",-9.651890424181524],["44",-9.653198874608798],["akarta",-9.654298563362298],["tőle",-9.654323496823244],["anyagi",-9.65477243806125],["gyártás",-9.654780068602328],["bajnoki",-9.65529374314907],["Tovább",-9.656708310170494],["szervezetek",-9.656941242147685],["&",-9.657194374327927],["dolgozó",-9.657397781876522],["délelőtt",-9.657734672044285],["akit",-9.658255262915237],["segíti",-9.658403391825924],["ideig",-9.658907043498512],["Tanács",-9.659200376189649],["ször",-9.659259676737278],["kelet",-9.660093403871157],["Szerinte",-9.660130749392268],["gyermekek",-9.660428695514746],["jut",-9.66058111926723],["tudom",-9.66073805906959],["J",-9.66096052482041],["ellátás",-9.661676407052024],["folytatód",-9.662083667642158],["nők",-9.662124011842383],["Szijjártó",-9.662941500887236],["Fontos",-9.66294170526831],["állapot",-9.663166429394488],["egésze",-9.663337943961421],["Ám",-9.663934755657108],["megye",-9.664193043088371],["lehetne",-9.66449551363447],["évekbe",-9.66570784284969],["fehér",-9.666357947199874],["mindez",-9.66764515120185],["kétszer",-9.66776966341019],["kínálat",-9.671312097685972],["talál",-9.671660861043875],["szal",-9.672103281488777],["jegyezte",-9.672696974244761],["jelölt",-9.673675217503604],["lakossági",-9.673990881863178],["immár",-9.675733278777646],["36",-9.676173255583219],["tárgyalások",-9.676467286952136],["csökkenés",-9.678166820442982],["olimpia",-9.679810337834846],["felmérés",-9.68033110071735],["minke",-9.680394141844655],["közt",-9.680743799804779],["Nyugat",-9.680872744066914],["országgyűlési",-9.681551643171428],["választások",-9.68234742836279],["szolgálat",-9.682617220315395],["könnyű",-9.683481066799487],["autók",-9.68505755217847],["Új",-9.685787823682752],["egyedül",-9.685795102849081],["ható",-9.686021409163427],["sajtótájékoztató",-9.686611022417592],["nyilatkoz",-9.688554923110459],["éven",-9.68888540667746],["csatlakoz",-9.689790489683134],["modell",-9.69037546928925],["sokszor",-9.69098028549703],["kifejezett",-9.692303618644475],["segíteni",-9.692393601784925],["per",-9.692393904219617],["érkezte",-9.693399160166573],["szakasz",-9.694728290498018],["emiatt",-9.695430502857326],["legutóbbi",-9.69637188490492],["Mindez",-9.699262191876588],["intézmények",-9.69985182027336],["ellenzéki",-9.701262621166357],["mutatott",-9.701584810335119],["meccs",-9.703394670553838],["pontot",-9.705123647115226],["szeretnén",-9.705170751575139],["37",-9.7052625081701],["föld",-9.705360617466324],["szik",-9.705903769879194],["természetes",-9.706819028442524],["látott",-9.706869124135995],["kommunikáció",-9.707617120196092],["távo",-9.708167700507714],["hírügynökség",-9.708302492964098],["nyilatkozta",-9.709671481478708],["adatokat",-9.709918773514413],["Biden",-9.710157537932709],["Nemzetközi",-9.710163145883616],["Ilyen",-9.710233371264177],["pályán",-9.710495196324723],["kár",-9.710702276020553],["portál",-9.711513985298572],["piaco",-9.711868870069193],["tényleg",-9.712551492133143],["szabályozás",-9.712755094011037],["asszony",-9.714836868114983],["kihívás",-9.715127845673056],["énekesnő",-9.715373823349978],["kormányzati",-9.715745132255291],["többe",-9.717727470763851],["kiemelt",-9.71789973178342],["külső",-9.719063519371026],["hitel",-9.719336535390127],["népszerű",-9.720620803468375],["nyire",-9.720747070492045],["vádlott",-9.721091111480547],["man",-9.721219790767345],["rendelkező",-9.721278160387833],["kilenc",-9.721311900627288],["beszámolt",-9.72195717623137],["w",-9.724193266070337],["ég",-9.724700415480058],["jelentett",-9.725186424894328],["tulajdonos",-9.725329948521573],["bank",-9.725895619073782],["húsz",-9.726022184746354],["áldozat",-9.72690286918677],["kezdőd",-9.726967336331846],["kiváló",-9.727061211042585],["üt",-9.727168115775711],["hö",-9.728117365543774],["diákok",-9.728854683071944],["államfő",-9.729001607297837],["energiaárak",-9.72910408775797],["jelentőse",-9.729251651138124],["kilométer",-9.730653350102214],["játékosok",-9.730895502753913],["növek",-9.731463564102299],["szünet",-9.732080043895849],["értékű",-9.732523925350222],["meleg",-9.732877937935529],["gép",-9.733239610260133],["55",-9.73400786379141],["Kovács",-9.734600641501906],["érezte",-9.735394109807526],["halad",-9.73605217350238],["felvétel",-9.737297023477012],["másfél",-9.738986104003988],["nyel",-9.739049204535329],["gyár",-9.7393607484067],["rendez",-9.739361510636872],["48",-9.739594950278985],["példa",-9.739831516685207],["területek",-9.740487770241693],["akció",-9.74160795929473],["különbség",-9.74272731609759],["mindenképp",-9.743069874963554],["szállítás",-9.745696287293175],["PC",-9.746437526995873],["szolgáltató",-9.747343479147885],["adja",-9.747373873401507],["némi",-9.748813871480321],["történtek",-9.749113021945423],["tanulmány",-9.749257208414473],["esetleg",-9.74950115440933],["reggeli",-9.752296114927557],["fogyasztás",-9.752534163582201],["tartozó",-9.752762553751378],["üzemanyag",-9.753172805955199],["azonos",-9.753291658341283],["Erzsébet",-9.753364232454],["számú",-9.753376809712083],["származó",-9.75375406338027],["sincs",-9.755002190141083],["eredmények",-9.755272117506909],["nyújt",-9.756255109714168],["halt",-9.75675685155704],["felhasználók",-9.757098200851884],["munkatársai",-9.757573251547706],["us",-9.758236042297963],["felje",-9.75926851771351],["folytatás",-9.759964952151822],["választott",-9.760365394416464],["félidő",-9.760582045836678],["oknak",-9.760647403373381],["41",-9.76337424778952],["ersze",-9.76351324052449],["napján",-9.764118518171786],["derült",-9.764682725934566],["alapú",-9.766683885114823],["Instagram",-9.767241254700341],["részvények",-9.767757246812435],["befektetés",-9.768001168134784],["közzé",-9.768153369207253],["kulturális",-9.768811852125243],["Erre",-9.769019102813221],["énekes",-9.770101304569323],["vásárlás",-9.77056123533656],["kijelentette",-9.771035247633222],["nyugat",-9.771204112688086],["49",-9.771207846200891],["szektor",-9.771358841122172],["forintr",-9.772132508867283],["gyártó",-9.772205857982883],["nettó",-9.772711966711375],["véletlen",-9.773003458760819],["ellenzék",-9.77355045578765],["nyugdíj",-9.773778491360897],["napja",-9.773787806463748],["sérült",-9.774469422288668],["Ebbe",-9.77471888363418],["ál",-9.77480011562523],["terv",-9.775739498575144],["ingyenes",-9.77588646328627],["Twitter",-9.776951651886463],["öröm",-9.776955630364474],["nunk",-9.778377546919618],["Brüsszel",-9.778925319472226],["állítólag",-9.778953649506782],["múlv",-9.77962125537857],["hamar",-9.779663556408867],["hazánk",-9.779926671777133],["interjú",-9.780268075981642],["biztonságos",-9.780875909312163],["fordult",-9.781410485543528],["kizárólag",-9.782753220150802],["Budapesti",-9.783663739136454],["Olyan",-9.783757669613458],["egészséges",-9.783853372135201],["utat",-9.784010531817152],["természet",-9.784014840556619],["Katalin",-9.78438900953898],["területeke",-9.784778209092945],["váli",-9.784928998653644],["Csaba",-9.785450704286593],["stratégiai",-9.785577816616506],["vitt",-9.785795268257456],["boldog",-9.786022589419957],["évet",-9.787882864946294],["nincsen",-9.788375137641061],["előzetes",-9.789951855210669],["idők",-9.790580662663285],["atlan",-9.790809663431059],["velük",-9.791243424380148],["szóvivőj",-9.79213729293523],["nélküli",-9.79253771538213],["napos",-9.793197101308776],["helyettes",-9.793630227620831],["események",-9.79390691338634],["elől",-9.793956938732059],["lehető",-9.794671475170055],["valójá",-9.7947811098593],["élelmiszerek",-9.794835741590159],["ján",-9.795304187383348],["falu",-9.795530119692017],["dollárra",-9.796970243840086],["cs",-9.797032506565973],["programok",-9.797170129226913],["kettő",-9.79734532887424],["értelmé",-9.798504310929001],["itthon",-9.799136126684948],["dollárt",-9.799646504800648],["kemény",-9.7998371300225],["eurót",-9.799889481175263],["Idé",-9.800149026378266],["sors",-9.800345567280106],["érdeklődők",-9.800734705677389],["zott",-9.800908198621217],["fizikai",-9.801133760216953],["szolgáltatások",-9.801533074033168],["külföld",-9.802124418400226],["600",-9.802347617523552],["téve",-9.802537151372572],["mutatta",-9.802756964490133],["szombat",-9.803991212994477],["folyó",-9.80399768290566],["hozzátett",-9.804105790680303],["élt",-9.80506093279855],["időre",-9.805125586775862],["igyeksz",-9.80515942816675],["nyomozás",-9.805288154473043],["Arra",-9.805545005126348],["mutató",-9.80555345205023],["információ",-9.806590109634588],["hajlandó",-9.806755167316233],["tökéletes",-9.81028856483613],["Eh",-9.810467495632988],["egyértelmű",-9.81097182180472],["alacsonyabb",-9.81121233769887],["tam",-9.81137854194887],["társadalmi",-9.812229039773472],["felül",-9.81561016295007],["tanár",-9.815798837245074],["érvényes",-9.815850250603736],["USA",-9.816046744212532],["rendkívüli",-9.816047625564732],["munká",-9.816457016636608],["amilyen",-9.81665921154302],["széles",-9.817133831411404],["vírus",-9.817335272438404],["menni",-9.81789741449867],["részén",-9.818507877812552],["Jelenleg",-9.818703662205404],["tanács",-9.819791855466365],["édesanyj",-9.820481124092309],["fény",-9.821642875558727],["költségek",-9.82501487532436],["egyszerre",-9.825252343564337],["állandó",-9.825495788770947],["fesztivál",-9.825897656436492],["zajló",-9.826301079528736],["idős",-9.82740712991816],["drágulás",-9.827469064351732],["hatóság",-9.827561862893312],["esetek",-9.828629981170943],["Anna",-9.82904863624345],["fa",-9.83003452018179],["sérülés",-9.830748161168675],["bűncselekmény",-9.831133195907135],["király",-9.831256281644826],["fotó",-9.831648828082852],["megelőző",-9.831709644950713],["ide",-9.831774682341969],["modern",-9.83189575643357],["társadalom",-9.83209575538723],["belőle",-9.832118736985539],["hirtelen",-9.832262876488958],["levegő",-9.832692706069986],["vonat",-9.832694332279644],["ol",-9.832901185684985],["baloldali",-9.833863696696085],["ezeke",-9.834066102921064],["könyv",-9.83535367948338],["rendőr",-9.836616189998114],["kórház",-9.836753031025967],["megjelen",-9.837369436735127],["szén",-9.8377599000275],["Tavaly",-9.838942627690807],["főkapitányság",-9.838991227664408],["típusú",-9.839243672331136],["ismeretlen",-9.839665659622147],["egyetem",-9.840426212151858],["ől",-9.840547942628122],["dolgozók",-9.84135060187305],["központi",-9.841585461488553],["39",-9.843130191075831],["szét",-9.844373112583794],["élni",-9.84446913175568],["veszélyes",-9.844593062113423],["központ",-9.845092075714152],["sofőr",-9.845334981859],["Tibor",-9.845972426195104],["napot",-9.84623613249202],["körben",-9.846317735476184],["rezsicsökkentés",-9.846889907738197],["akarja",-9.846935246715432],["sztár",-9.846988837691562],["fogyasztók",-9.847337213151926],["semmit",-9.84875896723287],["igénybe",-9.848857169362228],["díja",-9.85064126950724],["von",-9.850872233409532],["írtá",-9.851044392619652],["mostan",-9.851320596957192],["szólt",-9.851676761201476],["65",-9.852047785538154],["Miklós",-9.8527837426961],["oogle",-9.85279703246916],["nukleáris",-9.8528480941129],["rendelkezésre",-9.853283441674265],["távú",-9.853581874696154],["fegyverek",-9.853591148970649],["órakor",-9.854276998028663],["követ",-9.855673620203154],["szoros",-9.856298819873611],["vendég",-9.856306176520363],["ügyfelek",-9.856658243410031],["Azon",-9.856916204179587],["csütörtök",-9.856940443501532],["elárulta",-9.857261610385972],["képzés",-9.859650080184963],["ügyi",-9.859758451171068],["részletek",-9.860511948761777],["elérni",-9.860826064433603],["világo",-9.861292348452004],["Lengyelország",-9.861331445015047],["jára",-9.861372512360106],["állított",-9.861591805932015],["közleményébe",-9.861747856188538],["emelkedés",-9.861896956149838],["északi",-9.862965339674282],["helyre",-9.863179876319748],["templom",-9.864066153283254],["lej",-9.864360220889356],["csapata",-9.865763025258511],["zenekar",-9.865771622163747],["irányul",-9.86646004955698],["hozni",-9.866778815409631],["Sajn",-9.866782107318073],["Természetes",-9.86820306237945],["rég",-9.869281310971637],["tartottak",-9.869852059976301],["illető",-9.870273050353152],["képviselői",-9.870801441029602],["hisz",-9.871383597313107],["szerencsé",-9.872173074040408],["dolgozni",-9.873142039988775],["kezdete",-9.873308376283578],["meghatározó",-9.873975389187393],["56",-9.874298778469303],["férfiak",-9.874784068350428],["osztály",-9.875170506331797],["folytat",-9.875833973484987],["kör",-9.876483044804809],["küldött",-9.877272067610779],["áldozatok",-9.877395710448274],["bizony",-9.878896910481348],["kar",-9.880289602986851],["hete",-9.880964506098767],["Blikk",-9.881055047293462],["Szeged",-9.881057305964141],["hétfő",-9.88143317256872],["Sz",-9.88177673065028],["várjá",-9.882042372143289],["Duna",-9.882198220960834],["szerezte",-9.882480711722948],["ink",-9.884065524466966],["alkalmas",-9.8840952484952],["43",-9.885649812546347],["láthat",-9.887610904229248],["Románia",-9.8884891368935],["forduló",-9.888514611015522],["bíz",-9.888785155124344],["híd",-9.888871130536701],["polgármestere",-9.889071281984808],["menekült",-9.889178127309265],["életé",-9.889878317866415],["felől",-9.890358544038893],["műszaki",-9.890593569397325],["figyelembe",-9.890632816878838],["kapacitás",-9.891435914960244],["hatósági",-9.892762678772167],["reagált",-9.893026029172681],["színésznő",-9.893211449218537],["kezd",-9.894289262866462],["városi",-9.894686151602677],["ügyészség",-9.895223607938757],["érinti",-9.895283165253417],["induló",-9.8953492277464],["Gulyás",-9.895494370484283],["Krisztián",-9.895532106026003],["tehet",-9.895580133320559],["védelme",-9.895729726054238],["területé",-9.895824154268698],["fővárosi",-9.895827787307558],["hullám",-9.895840195945434],["tengeri",-9.896542301544603],["kéri",-9.89654321727796],["Dél",-9.89676799255183],["ágazat",-9.89697353968618],["esetleges",-9.898036930268407],["programo",-9.898742776967541],["amire",-9.899353672098156],["valóság",-9.899520930875438],["Márk",-9.900353082271767],["számított",-9.900732828678255],["mesélte",-9.90089282743205],["150",-9.900898657936025],["győztes",-9.900948127310727],["vezette",-9.901843908935422],["támadások",-9.903004677064764],["állás",-9.903079781536624],["rendszerek",-9.903510315658295],["kisfiú",-9.903851743441802],["melyik",-9.904611108773942],["betegek",-9.905260633213729],["neheze",-9.905662449505341],["esik",-9.9058913193914],["rájuk",-9.905917713623282],["édesapj",-9.906143884236045],["apró",-9.906504932544618],["testület",-9.90721172600844],["állította",-9.907716775800424],["Nyíregyház",-9.908914015017821],["hónapok",-9.909351668690897],["szlovák",-9.90983446572343],["+",-9.910146574621233],["függ",-9.910737739670285],["fal",-9.910969744991728],["hideg",-9.912122012023717],["kiemelkedő",-9.912163968621105],["biztosít",-9.912389003810777],["fogadta",-9.915377729957257],["cseh",-9.915480924181047],["Volod",-9.917580078523361],["Kreml",-9.917605570730991],["ukránok",-9.918614783575464],["élők",-9.91901359444553],["bankok",-9.919197844373247],["tevékenység",-9.91950301405147],["folytatott",-9.919561517241519],["New",-9.920121984711624],["csapadék",-9.920551100026767],["megerősített",-9.921232153781116],["játékok",-9.922722353364897],["fekvő",-9.923392270634134],["béke",-9.923825841379347],["világbajnok",-9.924751221932954],["Vagy",-9.924789891996117],["fi",-9.924901539597201],["lassan",-9.924996533741995],["Isten",-9.925188098894672],["többség",-9.925565550644581],["működés",-9.926645301080157],["féle",-9.92702788621341],["formába",-9.927233609323167],["rendezett",-9.927475965730576],["rendszerese",-9.92758186295379],["szembe",-9.928045390332208],["imir",-9.928307779570652],["helyezett",-9.928335428840633],["ipar",-9.928337958956174],["csomag",-9.928385511138503],["aránya",-9.928765650827101],["használni",-9.930302873977816],["szívese",-9.930303481842685],["nyomás",-9.931215698464293],["gyanúsított",-9.932310131892095],["oly",-9.932317802222565],["internete",-9.9324938358413],["győzelme",-9.933474290770498],["foly",-9.934173599846499],["nyilván",-9.935136898936697],["rendelet",-9.935275655188821],["nyújtott",-9.93565285467973],["kamat",-9.937663786742348],["egyedi",-9.937833148763513],["vesztette",-9.93864688006016],["szerepelt",-9.939713517295358],["kocsi",-9.939899781286142],["nehezebb",-9.93996125946218],["Franciaország",-9.940625364601201],["bármilyen",-9.941933623189648],["Rendőr",-9.943710643810492],["sose",-9.944235667527032],["árfolyam",-9.946032338262686],["számok",-9.946120018546107],["Ne",-9.947205768789303],["Igaz",-9.947924670702545],["döntést",-9.948230136619614],["bárki",-9.948377103488816],["Győr",-9.948512187044606],["évtizedek",-9.948763311524552],["meglepő",-9.95053854703527],["gólt",-9.950631992513793],["fizetés",-9.951352461808241],["engedély",-9.95185910751346],["kezelés",-9.951872019052185],["hivatáso",-9.95233547949461],["árfolyama",-9.953351041183492],["politika",-9.953740135108907],["fej",-9.953950923845316],["kerülhet",-9.954164947147746],["mezőgazdasági",-9.954199251673824],["erdő",-9.954314891269037],["Első",-9.955445267506445],["Végül",-9.955497932369463],["NSZ",-9.955738879461606],["vevő",-9.956709968227578],["életbe",-9.95691935213138],["orvosi",-9.956932127765729],["fele",-9.9578474791277],["aktuális",-9.958142082729882],["katasztrófavédel",-9.958942803177969],["jával",-9.96060751106308],["Dr",-9.961317456349246],["stabil",-9.961413879329488],["alatti",-9.96151106224308],["hónapja",-9.961625927721428],["No",-9.962076527897974],["Lajos",-9.963188776401841],["Károly",-9.963219284991705],["szociális",-9.96330749055792],["hív",-9.963462920279866],["der",-9.963741301680322],["tárca",-9.965024379333098],["végezte",-9.965153843483183],["dolláros",-9.965195622759815],["neve",-9.9656911848865],["fejezte",-9.966093571517678],["terén",-9.966389078294629],["hó",-9.96700125421249],["fegyveres",-9.967078599178539],["szülei",-9.967846179168978],["export",-9.968537570684656],["gond",-9.968595414351768],["rosszul",-9.969272552763403],["PlayStation",-9.971001556636395],["Mihály",-9.971001568866082],["elegendő",-9.971007175846314],["Királyság",-9.971558664867203],["őrizetbe",-9.971973995145706],["íg",-9.972561889724545],["emelt",-9.973184763125332],["utcai",-9.973257820439924],["atív",-9.973445987466928],["kezdeményezés",-9.973792388691919],["Egyesület",-9.974457815575914],["kezé",-9.974490363074917],["nemzet",-9.974911971124513],["Balaton",-9.976844881667045],["eurós",-9.977285364935044],["Kiss",-9.977659896677501],["ló",-9.978258139273448],["napra",-9.978369743961789],["lehetőségek",-9.978381703997965],["érintő",-9.979214682242588],["számukra",-9.979495438563188],["szolgál",-9.979780269826286],["rendszert",-9.97978511764549],["beruházások",-9.980569970849277],["pal",-9.981268546702713],["ilyenkor",-9.982831744739952],["kész",-9.982884048904197],["magyarázta",-9.983919871248244],["vonatkoz",-9.984583774532258],["feletti",-9.986611949473335],["Ádám",-9.986858274826039],["szempontjá",-9.986961622318201],["egyértelműe",-9.98736237711098],["Fel",-9.98750938018722],["Ukrajnát",-9.987920295821539],["tagállamok",-9.990823059554408],["védelmé",-9.991058988195471],["órás",-9.991347541445133],["szervezők",-9.991989714942271],["címe",-9.992194515635514],["honlapján",-9.99271976001992],["benzin",-9.993143914339178],["Xbox",-9.994821562028974],["Apple",-9.994886114787342],["brüsszeli",-9.99500604661435],["felek",-9.99514296083984],["vb",-9.99599410343467],["miként",-9.996062006009922],["generáció",-9.99641042869856],["veszély",-9.996511423968666],["kezdve",-9.997134106239347],["kapcsolatot",-9.997909298198167],["lelki",-9.998553819842028],["problémát",-9.999172808135501],["jé",-9.999374225558924],["hal",-10.001591160173975],["fertőzés",-10.002023749373729],["jöhet",-10.002372171667425],["beszélgetés",-10.002621619605504],["tervezi",-10.0026898622759],["férje",-10.002725601928969],["kénytelen",-10.002876668292423],["omikron",-10.002879663178355],["kapcsolódó",-10.003265320529593],["valamit",-10.003399816408532],["kialakult",-10.00358048131628],["800",-10.00486118012053],["észak",-10.007413704512796],["fejtette",-10.008831295863912],["halál",-10.010239037919913],["nézni",-10.010411882348539],["mindenkit",-10.011003897635899],["illegális",-10.011007978925774],["köbméter",-10.011106334271162],["folytatj",-10.011661710102603],["invázió",-10.011707870674634],["del",-10.011794318236317],["életük",-10.011984654138438],["orvosok",-10.01218500645777],["kutatók",-10.013338659880503],["pénteki",-10.013501085869171],["ezre",-10.013847919247699],["országi",-10.015873733404831],["kapcsolatok",-10.017490652477004],["kaphat",-10.01782771672248],["Volt",-10.017998673555976],["magán",-10.018127599511558],["meglepetés",-10.01871960112689],["Három",-10.01917698932468],["japán",-10.01923579804436],["Korábban",-10.019367686016336],["köztársaság",-10.019697019696785],["hajtott",-10.021187625491084],["valamennyi",-10.021789473656487],["kutató",-10.021899886980435],["vizsgálj",-10.02297914456901],["karácsony",-10.024598382865797],["mérkőzésen",-10.024624828549879],["utal",-10.024654446887823],["javaslat",-10.02480360808541],["vasút",-10.026114602664476],["rekord",-10.026924284546364],["közelmúlt",-10.027415258850471],["120",-10.027450837782972],["Szabolcs",-10.027510827200228],["ünnepi",-10.028772209130402],["halála",-10.028954686646232],["járművek",-10.029754867464643],["mobil",-10.030276694152938],["li",-10.030590647960283],["47",-10.031709003339252],["felső",-10.032445054659163],["tonna",-10.032456641116422],["miskolci",-10.032713641995592],["Európá",-10.032988262896009],["Er",-10.033272437310622],["sá",-10.033527040386808],["beszélni",-10.033725909219793],["Intézet",-10.034126897558476],["támogató",-10.034296716373753],["unkat",-10.035206163672306],["mesterséges",-10.036008719256085],["észre",-10.036033939469064],["vehet",-10.037105601796803],["átmeneti",-10.03736596024153],["végéi",-10.037372123789831],["egyszerűe",-10.037376573650612],["Miskolc",-10.037785022030526],["Pál",-10.038091522534414],["42",-10.038221208585004],["bor",-10.039655417098581],["tenger",-10.040087602243483],["királynő",-10.040128779981789],["hang",-10.04018111522543],["kezdet",-10.040267900041659],["intenzív",-10.040470483786976],["FC",-10.040852949466696],["2016",-10.041819402330873],["figyelmeztet",-10.042192811678724],["versenyző",-10.042857393748024],["negyed",-10.043358536255905],["fordul",-10.043495766584293],["lépni",-10.043602514968834],["alól",-10.044432663830477],["polgár",-10.044937345847721],["állapotba",-10.04509306690297],["edző",-10.045116668656505],["hány",-10.045418217461084],["Ped",-10.04543146409921],["diák",-10.045688991225795],["svájci",-10.046077687182313],["ny",-10.046107713736074],["di",-10.046925108984103],["csoda",-10.047512844077621],["technológia",-10.047930730622591],["Össze",-10.048201092697742],["alaposa",-10.048627799267855],["kér",-10.049278373107056],["vő",-10.04958971985301],["szerette",-10.049841033177724],["kockázat",-10.0500510944847],["elnöki",-10.050870824024573],["ól",-10.051735506316295],["’",-10.052679132811942],["Alapítvány",-10.052685411103356],["viszonylag",-10.052807613919702],["ideiglenes",-10.05304021514539],["számítani",-10.053338973338674],["En",-10.053451747588674],["értek",-10.0535600892922],["tragédi",-10.053650317841152],["akkori",-10.054830000882825],["Benc",-10.056066178636065],["pedagógusok",-10.056270269566141],["alkalmazás",-10.056421609201383],["piros",-10.056677620653566],["éjszaka",-10.05697901171193],["energiát",-10.058361564693318],["művész",-10.058568308782121],["megoldások",-10.05899764068025],["fertőzöttek",-10.060131032983147],["osztott",-10.060435330114048],["erősítette",-10.06085910152126],["köz",-10.060926275791036],["létez",-10.061827384732187],["egység",-10.061939108054048],["váratlan",-10.062147183139098],["távol",-10.062472295627781],["energetikai",-10.063082526125886],["érzés",-10.06338260009489],["karácsonyi",-10.06418596822801],["rakéta",-10.064287092662873],["szervez",-10.064467092893523],["Ukrajnából",-10.064516865750907],["hazaiak",-10.064849582868764],["állatok",-10.065654850860968],["határidő",-10.065687529782036],["sikerül",-10.066077384290427],["Imre",-10.067808430351395],["története",-10.068996094306222],["nép",-10.069350883594947],["ális",-10.069747754912566],["Gyurcsány",-10.069846999922795],["családja",-10.069863171196396],["speciális",-10.07031978914269],["találni",-10.070783839196764],["képviselője",-10.070792325695152],["védekezés",-10.071029644493738],["árát",-10.071182159896697],["hajnal",-10.071387353716101],["hátra",-10.071437543795891],["igazgató",-10.072335521841257],["hajó",-10.072342983745585],["junk",-10.072737565613325],["46",-10.073373640331823],["követi",-10.073740580450385],["környékén",-10.075626759328959],["tájékoztat",-10.076188339621662],["függő",-10.076768458429413],["veszteség",-10.077277212862139],["gondolta",-10.077575633021649],["fejlődés",-10.077771789037431],["vitte",-10.077813191471767],["oktatási",-10.077897548309721],["amik",-10.078028765509021],["brut",-10.078313009159059],["ellenőrzés",-10.078369513523636],["Péntek",-10.078545170493719],["idegen",-10.078680687478913],["korosztály",-10.079813328261041],["vonta",-10.080236776962701],["mozgás",-10.080501664968692],["formájá",-10.08083848733876],["57",-10.081205408688783],["hatodik",-10.081326947749385],["megfelelőe",-10.082174790550619],["idézte",-10.082640260787526],["csúcs",-10.083399949827289],["örök",-10.083562582254014],["fűtés",-10.086588047800918],["tekintett",-10.087208672846817],["85",-10.087769494785764],["valódi",-10.0880778986899],["fölé",-10.088493351386166],["küzd",-10.08875004857751],["Hivatal",-10.089908276637999],["tűnt",-10.090181633910085],["otthonába",-10.090195532833661],["irány",-10.090355626501077],["írják",-10.090841032893403],["milliárdos",-10.091208838353488],["busz",-10.09151411652481],["endőrkapitányság",-10.092544598098653],["67",-10.093271379008595],["mekkor",-10.093762419869616],["játékot",-10.09393231361017],["gyanúj",-10.094189083372143],["feladatok",-10.094256665981582],["koncert",-10.094552056108398],["rögtön",-10.096224169289993],["tartózkod",-10.096403587888151],["spanyol",-10.096573068894191],["költség",-10.097477128157722],["import",-10.097555215966393],["x",-10.098462451661922],["okozhat",-10.098510978914526],["holland",-10.09857971697493],["vér",-10.098853047047132],["sszel",-10.099446303552746],["58",-10.09961647246486],["néha",-10.100462372509211],["vidéki",-10.100839059719895],["érdeklődés",-10.101147571155067],["résztvevők",-10.101348271933778],["néven",-10.101780113283107],["Y",-10.101940593317348],["önkéntes",-10.101960460212956],["vásárlók",-10.102345525000668],["végez",-10.103145658183278],["álltak",-10.103950529599398],["Hajdú",-10.10447601490381],["Gyula",-10.105041303315007],["jogszabály",-10.105131743250258],["ismer",-10.106924644101955],["ov",-10.107041635134184],["ítélet",-10.107936767105791],["fejlesztések",-10.108026794641532],["nőt",-10.108399703951868],["csütörtöki",-10.108414947979576],["Szombat",-10.109128378982415],["közút",-10.109154602979281],["szóvivő",-10.109412893745299],["kedves",-10.109571248015488],["közzétett",-10.109723279400743],["epsiszentgyörgyi",-10.109923760785433],["tömeg",-10.11108783447898],["Más",-10.111130857932391],["szervezett",-10.111516530198298],["mértékű",-10.111565050474994],["legutóbb",-10.111679728603683],["változások",-10.111910790390302],["szer",-10.112546281003294],["tartós",-10.112826075784143],["bíró",-10.11359298969986],["kereskedelem",-10.113828904030925],["gyönyörű",-10.114022562552485],["Ekkor",-10.114166567180693],["biztosítani",-10.114202330384652],["liter",-10.114593276524863],["keret",-10.11472079732362],["tudományos",-10.115176305403917],["250",-10.115963498313079],["támogat",-10.116054043775588],["azonnali",-10.11609713901473],["török",-10.117232843661045],["csinál",-10.117272081328295],["ellátási",-10.118495037910272],["emlékeztetet",-10.120482488005049],["próbálta",-10.120576382087965],["59",-10.121574226628686],["településen",-10.122894048753652],["vezetők",-10.123285766330685],["hiányz",-10.124367720663535],["eljárást",-10.124685103283921],["kategóriába",-10.124882621277902],["szak",-10.12497565233216],["barát",-10.124981348897396],["katona",-10.12584629789361],["késő",-10.126066309904296],["cikk",-10.126320418965438],["Miskolci",-10.12632339463358],["képviselők",-10.126638695678487],["zajlott",-10.12789674656226],["ná",-10.132042646046884],["jellegű",-10.132367063637222],["Máté",-10.132384935033446],["érdekes",-10.13314447617606],["küld",-10.133744528744034],["enged",-10.133829699618879],["szeret",-10.135922154690027],["őszi",-10.136400111661246],["kőolaj",-10.136609405918863],["Elő",-10.13707723625009],["nézők",-10.13748569962156],["hová",-10.13768454439357],["irányába",-10.139070659817358],["vezérigazgatój",-10.13933043918436],["kert",-10.139667070889585],["mély",-10.139739068696851],["folyamán",-10.140145467083912],["zárta",-10.140411640556195],["értékesítés",-10.14066079696516],["beszédé",-10.141502423597636],["édesanya",-10.141636516998835],["felhasználás",-10.141683398608308],["lakos",-10.14293101167438],["rendszeres",-10.144039344796262],["fia",-10.14512014002485],["Borsod",-10.14564190308939],["valós",-10.145979083519897],["előtte",-10.146590369119139],["utas",-10.146912855929454],["munkálatok",-10.147271894980754],["Amennyi",-10.148084186547589],["lakások",-10.148511680265576],["mérkőzést",-10.150092543213663],["teljesítmény",-10.150891147268084],["Márton",-10.15125014292136],["írás",-10.151397894850977],["részvétel",-10.152228854172321],["nünk",-10.152666879211836],["osztrák",-10.154453616366922],["szánt",-10.154859135778263],["hatása",-10.156084489449018],["elkövetet",-10.156124432572117],["2000",-10.15625826808216],["jünk",-10.157026548456084],["jel",-10.157327860013183],["említette",-10.158010278467529],["voltunk",-10.15842353463741],["mentes",-10.15868348568636],["hónapokba",-10.159520782696127],["telefono",-10.159713793710047],["klasszikus",-10.160657797098372],["képese",-10.160891210975905],["fogyasztói",-10.160891722176078],["konkrét",-10.161054268775118],["szerződést",-10.161151008175308],["test",-10.161308455922814],["séget",-10.162003084102485],["anyagok",-10.162126744905176],["Kis",-10.162694211742307],["pandémi",-10.163096032369836],["felkészülés",-10.163122647953362],["66",-10.164614095856823],["találat",-10.164735608623243],["személyi",-10.164973017469118],["szerű",-10.16603968502165],["városok",-10.16646800584984],["beszélget",-10.16656015174023],["Elmondta",-10.16678596766934],["bejelentett",-10.167403171916153],["szándék",-10.167591147181245],["zzel",-10.16856138248053],["ült",-10.16893905276438],["ünnep",-10.169131677006867],["kihívások",-10.169327169394304],["messze",-10.169535970059403],["közelebb",-10.169866106958443],["Microsoft",-10.16993051146996],["százaléko",-10.170118461589492],["százalékuk",-10.170735365604774],["zenei",-10.171480811516767],["figyel",-10.171640776506962],["szabadság",-10.172105347781681],["jelentése",-10.172468890955194],["mezőny",-10.173213499193249],["illeti",-10.175025245875013],["fős",-10.17574363900816],["harcok",-10.176514844030194],["egységes",-10.17732112919187],["vállal",-10.177553914037322],["vereség",-10.178256734668606],["tervei",-10.178932887100135],["éjjel",-10.179588896847624],["tünetek",-10.179746747924835],["helyez",-10.180270676256562],["folytatta",-10.180384197511165],["befektetők",-10.180890703374843],["jelez",-10.181242336155151],["érze",-10.182233281653541],["anya",-10.182667559456753],["hatásár",-10.182869616825695],["nálunk",-10.18301782629829],["világháború",-10.183505277262267],["ellenfél",-10.183699063341978],["iskolába",-10.18405045777313],["the",-10.184964293088774],["szombati",-10.1851093355809],["energiaválság",-10.185801534688629],["biztosított",-10.18580959663565],["tele",-10.186174863595856],["segíthet",-10.187701317681787],["harminc",-10.187980492671384],["jét",-10.188715320155632],["termelő",-10.18902494902829],["zene",-10.189373789513901],["méretű",-10.189473541064295],["fontosabb",-10.189544184215922],["finanszírozás",-10.189612085987886],["műsorvezető",-10.190004080080785],["Éppen",-10.190089259079942],["növekedése",-10.190301766182923],["okok",-10.190364797733348],["51",-10.190473648529172],["Magyarországr",-10.190671991801679],["maradhat",-10.19109466183169],["okra",-10.191149346557385],["sértett",-10.191181868378624],["könnyebb",-10.19118187028897],["Talá",-10.191198780028087],["hasznos",-10.191640670635362],["Nincs",-10.192343402174448],["poszt",-10.192373463768623],["órák",-10.19276643521329],["lőtt",-10.19292643479083],["zon",-10.193312692973468],["dönt",-10.193637055867178],["pedagógus",-10.194492533569676],["profit",-10.194949953594904],["témá",-10.195746920210063],["ette",-10.19649704947057],["jutottak",-10.198549840977755],["kedvező",-10.198908746274029],["vendége",-10.199082702303224],["mód",-10.19948024016936],["mentők",-10.200384791961476],["kísérlet",-10.200612293557176],["198",-10.200663699624663],["szerelem",-10.201778318952842],["számát",-10.201975621220758],["gárda",-10.201985856018503],["okon",-10.20223120766936],["700",-10.20286633909582],["ro",-10.20315158105339],["utak",-10.203359578403202],["viszony",-10.205231751390308],["nevez",-10.205528077640697],["külügy",-10.20561815442202],["méteres",-10.206278440598748],["személyek",-10.207227453892381],["közleménye",-10.20732551606556],["ülésén",-10.207892479688356],["tartotta",-10.208020838796266],["izgalmas",-10.208201029809263],["Sport",-10.208775638903791],["zár",-10.20882933029784],["növekedést",-10.208924874389682],["alapítvány",-10.208961890513741],["korrupció",-10.208984865496841],["különféle",-10.209415840155673],["legfrisse",-10.209685592528444],["állampolgár",-10.209810632130646],["hivatalosa",-10.210103928898974],["utazás",-10.210150796245156],["bemutató",-10.210383457324205],["üzem",-10.211171257887873],["szankciós",-10.21121400816716],["költségvetési",-10.211504464221408],["FT",-10.212519188501584],["sé",-10.213665963864461],["Ső",-10.213838167246124],["civilek",-10.213848821455532],["53",-10.21389362860386],["kedd",-10.214211612673552],["emelkedése",-10.214374220548564],["villamos",-10.21452243061075],["vize",-10.214681337514145],["összecsapás",-10.215871078250604],["lányok",-10.21617166042051],["önálló",-10.216473797571139],["világbajnokság",-10.216588986054981],["áremelkedés",-10.217171282964038],["54",-10.217587207181403],["Parlament",-10.218958632642643],["Néhány",-10.21896075084424],["végső",-10.218964907538744],["diplomácia",-10.21896742175117],["Szolgálat",-10.218985548845932],["legnépszerűbb",-10.219140240512873],["szokásos",-10.219336090207403],["Újabb",-10.219435053825872],["egyebek",-10.219899118580447],["!”",-10.219954771846565],["utcában",-10.22077421710975],["várni",-10.22109682999914],["állhat",-10.221946691961993],["egyet",-10.222068322178849],["szavai",-10.222479368615922],["Központi",-10.222704380679318],["technikai",-10.2230900353047],["cel",-10.223367994240938],["Szerencsé",-10.224853938460997],["igény",-10.225030662632362],["telefon",-10.225447165425143],["követte",-10.226166677734547],["tudás",-10.227491998035193],["biztonságá",-10.227903581237339],["Később",-10.229109636157768],["rendbe",-10.229109848814424],["62",-10.229117647126282],["jelzi",-10.22920990945266],["Eddig",-10.229211369210983],["részletes",-10.23033864856743],["harc",-10.230936162467804],["következik",-10.230955903525071],["gondolo",-10.232033000887656],["Ház",-10.23302690495597],["mutatkoz",-10.233480721012508],["ánál",-10.233901695452602],["tudtá",-10.234069952131446],["tényező",-10.234637522955147],["fejé",-10.235272228763858],["biztosító",-10.235317517209081],["tájékoztatta",-10.235329425486686],["eredményt",-10.235528993073817],["étel",-10.235614278490454],["bizonyult",-10.235960170783365],["herceg",-10.236636895072053],["híres",-10.23677934256006],["Ön",-10.23693223440471],["esélye",-10.237213288333272],["erőszak",-10.237344639897543],["95",-10.237724465201149],["Dávid",-10.23926372721269],["Kossuth",-10.239264042812223],["Zemplén",-10.239272098481361],["vélhető",-10.239279381878868],["jelentkezett",-10.239346434371964],["Erdély",-10.239782796995858],["bármi",-10.239839936311856],["térségébe",-10.240204226449428],["Mert",-10.242170285598881],["mérték",-10.24286989206512],["gondolja",-10.24295695358445],["fokozatosa",-10.24379096392151],["várakozás",-10.243885732123243],["Soka",-10.244127908130114],["irányba",-10.24420649415764],["egészség",-10.244357719133767],["kiadás",-10.244823563788348],["próbált",-10.244900994909973],["mértéke",-10.24643695589138],["jelek",-10.246844669969438],["tartalmaz",-10.247303691706906],["or",-10.249071110571446],["Fekete",-10.249607364373825],["ismeri",-10.25099321955448],["évad",-10.251132535353019],["ponton",-10.251282604408154],["szóba",-10.251340932747716],["rajongók",-10.251481568027106],["forgalmi",-10.251929057261314],["lángok",-10.252060280351971],["York",-10.253374099722148],["52",-10.25360007272196],["DK",-10.253668501052864],["maradtak",-10.253946978203444],["szállító",-10.255697131987496],["sebesség",-10.25637903974911],["68",-10.25645737788276],["ézve",-10.257092687868628],["hatékony",-10.257905306281586],["viszonyít",-10.258632924188225],["MV",-10.259705904489039],["Trump",-10.259990154291202],["szexuális",-10.260235744165115],["tekinteté",-10.260534018290613],["Musk",-10.260701917924017],["foglalkozó",-10.26155139761239],["ságot",-10.261611842298207],["munkaerő",-10.26217497937451],["ök",-10.26247411953985],["úr",-10.262652932231553],["kritikus",-10.263523728605815],["típus",-10.264885391728313],["elképesztő",-10.26521646362561],["író",-10.265306754512304],["szigorú",-10.265600208187164],["üres",-10.265657385710242],["gazdag",-10.2658660326171],["kül",-10.266130704558801],["vállalkozó",-10.266149678301865],["vásárolni",-10.2675051929907],["labdá",-10.26845356348022],["bennünk",-10.268464362111342],["elérte",-10.26896299046264],["vita",-10.269218233467814],["Színház",-10.269455034792529],["támadó",-10.269537236262057],["son",-10.269595131751888],["húzta",-10.26986511444218],["bőve",-10.27023415539856],["Karácsony",-10.270486456813122],["innováció",-10.270516100163917],["Horváth",-10.270546701754752],["párhuzamos",-10.270811837994069],["segítő",-10.27217905896168],["intézet",-10.272546382679291],["Föld",-10.272698832987532],["horvát",-10.27301871540124],["Kiemelte",-10.273478988546263],["kerület",-10.273936444578068],["véve",-10.27413739496398],["Sepsiszentgyörgy",-10.275449233165675],["pártok",-10.276468903776694],["nehézségek",-10.277501354679568],["IT",-10.277806228796397],["ajánlott",-10.277944747463856],["ismertett",-10.278418527634617],["várta",-10.278634792758382],["jelentene",-10.279315431145715],["SE",-10.279343759062339],["Közép",-10.280730396483229],["produkció",-10.280931953697085],["egyetemi",-10.281031933965593],["migráció",-10.281117699597488],["pénzügyminiszter",-10.281272326578044],["maradni",-10.281380560884529],["visszatér",-10.282454194925851],["Joe",-10.282710918857507],["park",-10.283347004584275],["Ők",-10.283353636623776],["bír",-10.283397056996469],["Ferencváros",-10.283681310494025],["fent",-10.284112612350155],["töltötte",-10.284524119750351],["száj",-10.28525613305871],["növeked",-10.287971862654913],["biztosítj",-10.288506513389525],["látogatók",-10.28917247782024],["abba",-10.289555961245878],["erejé",-10.290482960924138],["büszke",-10.290484596280612],["dolgo",-10.290609023675248],["színház",-10.290654019829237],["tulajdonosa",-10.29167655097645],["Minisztérium",-10.291909335134353],["SH",-10.292812549292261],["További",-10.292826119073254],["megint",-10.293293950448941],["családjá",-10.293417429401881],["beavatkozás",-10.29358975185687],["kilométeres",-10.293739995688702],["világos",-10.294411323776645],["ütem",-10.296814908144],["világban",-10.2969772855528],["partner",-10.297969827453777],["állomány",-10.298157442072295],["legjobba",-10.29872092897098],["hiba",-10.301262726585046],["kilométerre",-10.301572618066839],["segítette",-10.301766351654157],["költségei",-10.301859091387204],["magár",-10.30248134279855],["nevet",-10.302850617623704],["lenné",-10.30313684850264],["emelkedő",-10.303209823888118],["Sztár",-10.303482688215793],["egyesület",-10.30388567523671],["használja",-10.304105761348932],["háztartások",-10.304263993539834],["feltételek",-10.304903072852582],["szeretet",-10.306041503361648],["KB",-10.306106393632007],["Romániába",-10.306796415894866],["növeli",-10.307155658247428],["tárgyalás",-10.307259572235704],["tánc",-10.307382018979359],["kéz",-10.308116566572755],["igyekez",-10.3084720021571],["árulta",-10.30855642398064],["ij",-10.308671543983166],["megváltoz",-10.30880481445957],["arc",-10.309407909778571],["fenntartható",-10.310841259368697],["felel",-10.311150919557367],["történelem",-10.311814853432098],["szavazás",-10.31262991639641],["Utóbbi",-10.312960400249883],["páros",-10.313329151292415],["sokak",-10.313479361999399],["Herszon",-10.313765721647371],["figyelmé",-10.313830909087667],["bevétel",-10.31395868933457],["megvan",-10.314051834149371],["állni",-10.314232850450257],["innen",-10.314256032580737],["utol",-10.315864551809973],["idősebb",-10.316128424302061],["eltelt",-10.3168849944421],["évtizede",-10.317200867626806],["stílus",-10.317284525175904],["légi",-10.317426082802985],["szülő",-10.317433070463315],["módszer",-10.318044014440629],["tag",-10.31807010007914],["vagyon",-10.318191831134982],["csoportok",-10.318459385951908],["épült",-10.318608789910233],["velünk",-10.318663346342355],["ötven",-10.318918695000672],["ic",-10.319561046063939],["itárius",-10.320876732758105],["vajo",-10.320930270813019],["jellemzőe",-10.320977837809634],["órát",-10.321153718584789],["teszt",-10.321259940754151],["pápa",-10.321311400368995],["erősebb",-10.321319443782517],["művelet",-10.321520724422683],["tény",-10.32152745519786],["hónapos",-10.321539129219508],["méltó",-10.321566021095117],["igényel",-10.322339934441203],["hozza",-10.322488813717108],["uralkodó",-10.322514891214363],["válaszolt",-10.323297415068033],["kerülni",-10.323815656008055],["tábor",-10.324015442856654],["Év",-10.324473256011332],["ciklus",-10.324690179700077],["Abaúj",-10.325040592688627],["human",-10.325073471513136],["előfordulhat",-10.325307282824472],["Johnson",-10.325487773273622],["kapu",-10.325907329722412],["táv",-10.325943307437274],["politikusok",-10.326124362803586],["fordított",-10.326729006258784],["keresi",-10.326844588761592],["co",-10.327197453593973],["Aki",-10.328012057267129],["Főváros",-10.328276332011775],["komolyabb",-10.329009637869387],["szerb",-10.329310167369641],["pálya",-10.329772136230009],["tanárok",-10.330156380851879],["tető",-10.330457208109738],["büntetés",-10.332185218814192],["üzenet",-10.332263525207136],["mindennap",-10.332921767791365],["Négy",-10.3331732439201],["területe",-10.33347146566402],["platform",-10.335714938982221],["rdély",-10.335754159668834],["megújuló",-10.336214929031797],["Novák",-10.336222199347626],["minth",-10.336516848163281],["együttese",-10.336729336001426],["körű",-10.336907009563863],["végi",-10.337110335740078],["tudtu",-10.33750765664553],["vásárolt",-10.33763527709301],["korlátozás",-10.337648782989387],["64",-10.33802815565043],["esély",-10.338059282264922],["profi",-10.338552182284708],["szűk",-10.338662754471642],["rakéták",-10.338869236641894],["égett",-10.3391591135576],["megszokott",-10.339457843572278],["megtesz",-10.339630208079846],["enként",-10.340833795613278],["szeretett",-10.341290103521963],["egyike",-10.341517902754742],["nyugdíjas",-10.34176547880335],["munkahely",-10.34264687450789],["jelenség",-10.342678527910083],["nyertes",-10.34272517904401],["ruhá",-10.34313229003967],["házak",-10.34313757534428],["bázis",-10.344386560231975],["díjas",-10.345254446473348],["levél",-10.34527174979304],["szovjet",-10.345378200774519],["ismerte",-10.3464217868367],["Kelet",-10.346455821006966],["eltűnt",-10.346552385310527],["másodperc",-10.346818481621138],["épül",-10.346924809849302],["művészeti",-10.34731883568095],["Borítókép",-10.347476251794287],["ázsiai",-10.34750049213558],["közvélemény",-10.347612110557606],["játszi",-10.34797733164947],["rendező",-10.348180403746507],["felmerül",-10.348200080528903],["keddi",-10.348460153479838],["játszotta",-10.34860238069187],["Nemzet",-10.3488917829518],["utáni",-10.348919502884922],["folytatni",-10.349000378033686],["dolgozta",-10.349337807279378],["helyét",-10.349811553611502],["ugrott",-10.350101971579399],["hetett",-10.350440606252736],["végleges",-10.350495339000688],["személyautó",-10.35110325871534],["század",-10.351128623608862],["sorozatban",-10.352127541508],["futball",-10.352579531807763],["99",-10.352869167591564],["repülőtér",-10.353258802759466],["megsérült",-10.354009871315188],["látogatás",-10.35406255296405],["terjed",-10.354090963281806],["folyamatok",-10.35417717080864],["életébe",-10.354206725909496],["döntetlen",-10.354343234528326],["órán",-10.355348164332252],["lényegé",-10.355437227215226],["tudomány",-10.355831704466071],["negyven",-10.356253002092965],["számítana",-10.356704009448965],["Kíná",-10.357292689318534],["újságíró",-10.357377039143321],["bér",-10.357665619456684],["létszám",-10.357910906646357],["mennyisége",-10.35850197436504],["szenved",-10.358950674801193],["Példá",-10.3589705173879],["Macron",-10.35897717041842],["Általános",-10.358989674810385],["kulcsfontosságú",-10.359012643958156],["Japán",-10.359027731062085],["minimális",-10.359038276411907],["minőségű",-10.359222603325442],["bejegyzés",-10.35932411383552],["monetáris",-10.35944191409253],["akad",-10.359528031416867],["négyzetméteres",-10.359875867759351],["igazság",-10.360291855420126],["ügynökség",-10.361145758009258],["rajt",-10.361158235695218],["katolikus",-10.361471952887971],["számító",-10.362040507773742],["gyenge",-10.362968521665485],["fotót",-10.363320975786394],["hírt",-10.364503438281954],["állítani",-10.36552730658455],["lak",-10.365823816322678],["meglévő",-10.366155873486179],["jegyzet",-10.366367368543255],["többé",-10.366542726181065],["védő",-10.366796804650019],["melye",-10.366980488267814],["videót",-10.36732499493418],["sziget",-10.367623422672093],["tölti",-10.367625877148278],["vélt",-10.36803066961082],["internet",-10.368265994305418],["felújítás",-10.36869378254634],["szereti",-10.370348573625341],["Gazprom",-10.370464204168472],["nyelv",-10.370586704326861],["Telekom",-10.37059902908913],["Viszon",-10.370708230762705],["kibocsátás",-10.370818482807763],["dokumentum",-10.370949165312009],["szabott",-10.371372653708878],["fizetési",-10.37164127035511],["köré",-10.371755504253823],["többségé",-10.371981656417521],["figyelem",-10.372164770204279],["ssé",-10.372325043563663],["ába",-10.372593716859486],["vásárol",-10.372946117541971],["TK",-10.372968169424489],["alkot",-10.373098493502956],["járat",-10.373381852629292],["hölgy",-10.374477607267316],["tevékenysége",-10.374846271530934],["tagállam",-10.375391838655133],["javítás",-10.37545634372671],["EP",-10.375647382458265],["vég",-10.376865981459453],["száraz",-10.377005431889426],["állampolgárok",-10.377891999890172],["gé",-10.377924716830954],["koreai",-10.37811810158421],["ötlet",-10.378388913559755],["papír",-10.378494510640255],["jöttek",-10.378708202459055],["lezárt",-10.37882394358484],["hulladék",-10.37895511268778],["NP",-10.379213053119871],["segített",-10.37964912704685],["érvénybe",-10.379703673495708],["szel",-10.380549536707274],["melletti",-10.380899296841015],["ce",-10.381029391312271],["érintettek",-10.381049182039673],["DEA",-10.381059997003618],["fertőzötte",-10.381129474444968],["iába",-10.381248914358363],["ellentét",-10.381388556402154],["robbanás",-10.381415538992707],["olcsóbb",-10.382150334634424],["elsődleges",-10.382492812189573],["tüzet",-10.382694975709779],["nyilvánvaló",-10.382870883737224],["Co",-10.383083480883798],["legrosszabb",-10.383163226523905],["reagál",-10.38388417564341],["00",-10.385355142709152],["zintén",-10.385492682458711],["létesítmény",-10.385706580719495],["buli",-10.386104026102352],["vál",-10.386334795798154],["vágy",-10.38717186111468],["vasárnapi",-10.387294068650245],["védelem",-10.38758606333679],["faj",-10.387824277772815],["elért",-10.387925896030744],["kettős",-10.388150947975864],["indította",-10.388230388310078],["mozog",-10.388547004795981],["építeni",-10.388702759211462],["légvédelm",-10.390724968398457],["hétfői",-10.392036295299393],["jal",-10.392271650902622],["vetett",-10.39284131059598],["vezethet",-10.393680216501402],["Vasárnap",-10.394268123710908],["feltétlen",-10.394414123479285],["legendás",-10.394640658294987],["rosszabb",-10.394725248763441],["fertőzött",-10.395051954765592],["indít",-10.395185067179849],["káros",-10.395189882376657],["települések",-10.395241000419471],["helyes",-10.395243857638546],["megmenteni",-10.39532925526781],["Molná",-10.396400490606197],["következet",-10.396873375767724],["szurkolók",-10.39687389244883],["határo",-10.396880662759834],["kereskedés",-10.397013407168556],["sikert",-10.397286388612095],["megpróbál",-10.397392310133206],["repülőgép",-10.397685122928143],["szereplők",-10.39810630914107],["kapus",-10.398220805665854],["bizonytalanság",-10.39860076391015],["felhívta",-10.398844619342675],["célba",-10.399402215293954],["egységek",-10.40079389298026],["Párt",-10.40096786171999],["Te",-10.401112671680204],["atomerőmű",-10.401287569281408],["milliós",-10.401311411354099],["iskolák",-10.401472025885981],["háborút",-10.401608300551803],["jelenthet",-10.401638506075168],["vállalta",-10.401839374127125],["üveg",-10.403475481089178],["károk",-10.403768355342585],["néző",-10.40426786027327],["Na",-10.40429883390588],["ajándék",-10.404444979597569],["múzeum",-10.404593362342373],["ch",-10.405063529142865],["MSZ",-10.405069523772257],["életem",-10.405408651918908],["hető",-10.405955355986704],["épített",-10.406045410450721],["pici",-10.406273217539143],["Papp",-10.406468433000438],["69",-10.406856590534248],["kötelezettség",-10.407023532295533],["Berki",-10.407261205673644],["Törökország",-10.407815469919225],["mester",-10.408038686929586],["gyengült",-10.408514430584564],["kultúra",-10.40867311799089],["nnál",-10.408718721668574],["energiá",-10.409278101567399],["iparág",-10.40950170873598],["készen",-10.40978304522787],["hatalom",-10.40996493577663],["rezsi",-10.410182522642586],["csinálni",-10.410289548925487],["mer",-10.410790722995156],["modellek",-10.411296112049724],["részletei",-10.411311628599854],["végzi",-10.411813446620158],["járműve",-10.411848983255778],["fordít",-10.412358547508036],["63",-10.412607354665386],["házi",-10.413142648221463],["ellenes",-10.413235623100121],["lánc",-10.41353729050476],["tuk",-10.41379412198691],["perces",-10.41437874249931],["csapás",-10.415262545440982],["posztjá",-10.415277561898854],["értékek",-10.41538069991099],["játszani",-10.415968541596698],["piacok",-10.415991506134441],["találkozón",-10.416030319296542],["versenyt",-10.41618280696477],["Mindenki",-10.416203234338687],["épülete",-10.416209128163661],["közleked",-10.416658995753961],["tem",-10.417174493466163],["látványos",-10.417234161025377],["változat",-10.417930331086403],["RT",-10.417952635829968],["szavazat",-10.418026027906542],["alkalmazott",-10.418045676934119],["kék",-10.418307117831562],["menet",-10.418503007759213],["Árpád",-10.41851328293048],["Majd",-10.418623503520788],["gépek",-10.41868334497877],["Hétfő",-10.418785831713784],["zni",-10.418923368100693],["barátja",-10.419197841928632],["nyitva",-10.419220706749567],["láb",-10.419549262565564],["ránk",-10.42022495183178],["Debrecenbe",-10.420404450217445],["váltott",-10.421197554453158],["segély",-10.421229336201495],["Mit",-10.42149721939468],["79",-10.421504978704107],["maximum",-10.422254950380959],["harmad",-10.422298044861186],["helyezte",-10.423044829143354],["láttá",-10.423362167270191],["számunk",-10.423620777016712],["hatásai",-10.424498919971317],["működését",-10.424746423681],["zuhant",-10.424916089304912],["svéd",-10.425064352207887],["telt",-10.42596919301442],["éri",-10.42604514552086],["együnk",-10.42686664134941],["tudná",-10.427692625768435],["iskolai",-10.427717414532989],["megállapodást",-10.427880557847011],["Németországba",-10.428201866515277],["visszaesés",-10.429307698572782],["fideszes",-10.430856871785311],["afrikai",-10.430856910201197],["Jakab",-10.430868479483074],["támogatások",-10.430887734367015],["ugyanaz",-10.431009887956689],["hetedik",-10.43133504332847],["utcán",-10.431731432399406],["támogatott",-10.431837848040779],["küzdelem",-10.43205508156058],["szokta",-10.432137213655489],["helye",-10.432149782737284],["egyben",-10.433355636327695],["szabály",-10.433504102593623],["kezdődő",-10.43361281296017],["Fő",-10.433739027519426],["életünk",-10.434079008657434],["Köz",-10.434199874603804],["hagyni",-10.434275337172496],["idény",-10.43473165633771],["ner",-10.434802889453724],["nánk",-10.43555630025516],["Leg",-10.435628008125146],["figyelni",-10.436227853261343],["turisztikai",-10.436289897147098],["egyház",-10.436511057192385],["Kup",-10.436861879104683],["döntötte",-10.437009464698372],["autós",-10.437147399546287],["közgyűlés",-10.437314299082622],["tör",-10.437457099354301],["lehetetlen",-10.437616817410152],["szín",-10.437685731959974],["következményei",-10.43777173243852],["áért",-10.437955126851202],["előny",-10.438156638024406],["lánya",-10.438177684196773],["szomszéd",-10.438195672760017],["fogadja",-10.438204427111998],["éles",-10.439426861336713],["helyén",-10.439577665588084],["váltás",-10.439584018638552],["közlése",-10.43983739619468],["forgatókönyv",-10.440423062230476],["szolgáló",-10.440563482072704],["műanyag",-10.441282761014191],["kancellár",-10.441893310542836],["hamarabb",-10.442293618300091],["részvény",-10.442714821548442],["menté",-10.443178277009212],["kijevi",-10.44336420108677],["Judit",-10.443407695964732],["Edin",-10.443535608736326],["csökkenteni",-10.443609929203674],["76",-10.443611865490373],["házaspár",-10.44376198497597],["Mariupol",-10.443989506921366],["nappali",-10.444064238226153],["összefogás",-10.444272832814569],["hatatlan",-10.444359020587225],["nyilvános",-10.445139922712665],["mesélt",-10.44571065158549],["filmek",-10.445760932375943],["eseménye",-10.445899433098443],["nőttek",-10.446015394329756],["felhő",-10.446760556125112],["veresége",-10.446801249539373],["öltözött",-10.446819422740514],["beszéde",-10.447118855400458],["csatlakozás",-10.447186395822774],["eredményei",-10.447873348025784],["kölcsön",-10.448024230864537],["érnek",-10.448103754786437],["kezelésé",-10.448360649298365],["felügyelet",-10.449957341377907],["legfő",-10.450331381963945],["közi",-10.45037802143625],["növény",-10.45050394728582],["összességé",-10.450735476669163],["versenyzők",-10.450908511763195],["irányítás",-10.451052630006409],["fáj",-10.451818784210905],["adhat",-10.452087465453275],["gondolkod",-10.452480111839787],["um",-10.453552092910222],["Re",-10.453639335432303],["84",-10.45365612562243],["céljá",-10.454086903219785],["fürdő",-10.454391461020785],["1000",-10.455194497934466],["vállalt",-10.455914274045863],["Sepsi",-10.455983835389162],["csökkentett",-10.456012490114585],["Fotó",-10.456018099955967],["tüzérség",-10.45607032947744],["emelés",-10.456477955308442],["Horvátország",-10.456543563965113],["változatlan",-10.456570269090992],["egyeztetés",-10.456818623811685],["londo",-10.457042318390382],["építés",-10.457568277460524],["olcsó",-10.459073167533077],["nyíl",-10.459629883306631],["várakozások",-10.459756221905632],["szellemi",-10.460058416828685],["mért",-10.460302096111691],["felhasználó",-10.460432835053954],["Washington",-10.460946384752344],["éjszakai",-10.461104515362877],["okos",-10.461300064969826],["hamis",-10.462298521644552],["érint",-10.462587383618189],["Múzeum",-10.462824311438293],["elkezdte",-10.463171111619321],["vezetést",-10.463345714727371],["kezdté",-10.463722868668578],["sorra",-10.463746559180267],["önkormányzatok",-10.4637484357228],["etlen",-10.463776437901851],["dőlt",-10.464325490398497],["idősek",-10.464365109072597],["jék",-10.464828595579498],["százalékpont",-10.465164040563058],["televízió",-10.465248706419324],["97",-10.465273324200242],["KD",-10.465631229853612],["alpolgármester",-10.466061924620451],["váltak",-10.466324911515729],["Orosz",-10.466697121126405],["fogva",-10.466973561972962],["kutya",-10.467075623490123],["múl",-10.46722389481315],["különös",-10.467651083826206],["szakértői",-10.467884339889038],["informatika",-10.467930247016925],["munkavállalók",-10.467996991218014],["ritka",-10.46813489080198],["tudatta",-10.468148233731391],["beszámolój",-10.46836482931064],["izraeli",-10.468774448476115],["ügyvezető",-10.468786300159753],["Reuters",-10.468835618171667],["Richter",-10.46883781274098],["Puskás",-10.468842420524384],["erőteljes",-10.468861628023806],["Érdem",-10.468895888648387],["gyógyszer",-10.468916183089673],["keresni",-10.46909998278383],["meglehetős",-10.46915207625259],["sportoló",-10.469179057266317],["utánpótlás",-10.469367692306907],["ebbe",-10.4699346235106],["kedvenc",-10.470003381497667],["emelni",-10.470470532772186],["kevese",-10.470745963731513],["Jobbik",-10.471440018223282],["lehetőségét",-10.471952040145906],["tapasztalt",-10.472317508355196],["ügyek",-10.472340197540246],["találtá",-10.474370841855926],["illetékes",-10.474417377318176],["tizenkét",-10.474481645219303],["téri",-10.47510695356339],["mentő",-10.475160739076554],["közbeszerzés",-10.47556655180314],["nagyszerű",-10.476039065827347],["gázt",-10.476054136241054],["teli",-10.476151770783279],["vélemény",-10.476304382221945],["távoz",-10.476460449314189],["hova",-10.476706969547182],["szavak",-10.477580803643562],["javasolt",-10.477583336345617],["korlátozások",-10.477859291154545],["léptek",-10.477923390293803],["határozat",-10.477944120603738],["ellene",-10.477990010901692],["számlá",-10.478030595611688],["háttér",-10.47871872934791],["kedvezményes",-10.4794558645167],["akkumulátor",-10.479801198089406],["kapunk",-10.480081470046082],["készülék",-10.480116046743449],["döntése",-10.480195754987264],["tiszta",-10.480206691524524],["piacr",-10.48034785377926],["társ",-10.480613567744639],["hozzájárul",-10.481302310320542],["Fehér",-10.481329780516244],["Hungary",-10.481823222023396],["elismerte",-10.481896359755774],["Szlovákia",-10.481949964562581],["elmondás",-10.482276973851963],["emmel",-10.482569144275327],["kitért",-10.482809470966629],["főtitkár",-10.482856591403976],["bevezetet",-10.483066089788558],["legalacsonyabb",-10.483502679362926],["úti",-10.483809178930088],["megtakarítás",-10.484026095808773],["DVS",-10.484530925387315],["mérte",-10.485090645211455],["enek",-10.48555544577589],["döntések",-10.485638744802303],["Air",-10.485999271580463],["ko",-10.486461565478294],["asztal",-10.487226777001345],["nyilatkozat",-10.48763071061191],["jén",-10.487716864689833],["érzékeny",-10.488412684316934],["építése",-10.488704791891323],["otthont",-10.488772082982898],["környék",-10.48897134330329],["kiegészítő",-10.489899859103359],["eredményeke",-10.490019179249659],["beleér",-10.490294128729778],["zenész",-10.490718445659814],["tél",-10.491248902400475],["ionális",-10.491672391529786],["emlék",-10.492776760739464],["agresszió",-10.493061338252101],["sérülések",-10.493132155173047],["Szatmár",-10.494210110360303],["Tesl",-10.495008410618976],["gázolaj",-10.495418777322314],["Liga",-10.49560354906185],["büntetőeljárás",-10.49613207554657],["fölött",-10.496352145905547],["alternatív",-10.496908980371408],["sikerre",-10.496969549226204],["197",-10.497125636854825],["Mari",-10.497813456139117],["programjá",-10.498415171475077],["barátai",-10.498814217747169],["érthető",-10.498885921202257],["veszélye",-10.499523188924645],["segítene",-10.499810727624318],["futott",-10.50038317482468],["származ",-10.501065176681454],["elem",-10.501277382942899],["támogatta",-10.501567326542602],["fordulójába",-10.50190313702886],["mentális",-10.502212565562058],["beszéd",-10.502383162443888],["ezelőtti",-10.502693318125019],["81",-10.502693388580578],["télen",-10.502791780957445],["fizetett",-10.502952245232644],["78",-10.50391144676432],["fenn",-10.504177629060145],["ci",-10.504636724607618],["lőtte",-10.504882817851065],["tragikus",-10.505159519961285],["tervezés",-10.505850926887277],["színpad",-10.505979249546794],["augusztusban",-10.506097304156093],["Országgyűlés",-10.50632215597123],["meccse",-10.507254419965223],["Bihar",-10.508312099827226],["Egyéb",-10.50831855865949],["Pro",-10.50873324226512],["állít",-10.50903967024826],["legközelebb",-10.509442218406601],["felhívás",-10.509502537373454],["felület",-10.509812100151551],["ikus",-10.510633832306059],["igyekezet",-10.51079725899076],["közülü",-10.511069573516146],["Program",-10.51132193812419],["vizsgált",-10.511388374841744],["elfogadott",-10.511619939060527],["Béla",-10.511784421076772],["keletkezet",-10.51180804925583],["72",-10.512267737389884],["Mark",-10.51245519619782],["kereste",-10.512689749238156],["főút",-10.512911336523457],["!\"",-10.51332909434474],["kevesebbe",-10.514346455100402],["létrehoz",-10.514506039838695],["árstop",-10.51488754861947],["parti",-10.515054939883413],["terve",-10.515936742721262],["kori",-10.516581193154718],["próbálja",-10.516612986701332],["támogatását",-10.517522023507325],["emlékezet",-10.517790242074923],["elkövető",-10.517910381305613],["földi",-10.519429169931573],["fenti",-10.519902253809576],["minimum",-10.521887878430853],["Németh",-10.522099785915401],["ovics",-10.522824856518742],["gazdák",-10.522922016041342],["százezer",-10.522949803871736],["osztotta",-10.523079630161215],["aligha",-10.523364270783215],["felnőttek",-10.523445232723425],["jutni",-10.523737290433282],["meghaladj",-10.523751214172371],["tavas",-10.524001427853168],["kormányzat",-10.524142346411978],["Dániel",-10.524348557384105],["kivétel",-10.524733599417386],["recesszió",-10.524808843214753],["projektek",-10.524953339250857],["használat",-10.525791730462377],["képek",-10.525892347507554],["északkeleti",-10.526668464167265],["Hogya",-10.526827568050122],["ingatlanok",-10.527768929670483],["nyomozók",-10.5277988672634],["épületek",-10.528493350817637],["feladata",-10.529947144929793],["96",-10.531543661786408],["teljesített",-10.531592941694534],["í",-10.531605744645304],["vegyes",-10.531630679516326],["díjak",-10.531856791842834],["por",-10.532208795836723],["szorul",-10.532256204613319],["érkezne",-10.532292044090482],["levele",-10.53233633927399],["tekinthető",-10.532584753318972],["iroda",-10.533656770549442],["támad",-10.534052677806933],["továbbiak",-10.534095843381365],["ügyfél",-10.534330548152084],["partnerek",-10.534382624563614],["vezettek",-10.534400741253101],["sárga",-10.534765588167314],["őr",-10.535001503597757],["É",-10.535167958799601],["gazdálkodás",-10.535172881510125],["fennáll",-10.535188105686755],["cikke",-10.535204285515167],["szokott",-10.535337382311766],["közigazgatás",-10.535532204867822],["Amerika",-10.535692025728297],["fővárosba",-10.535974249208019],["Szilágyi",-10.536121100285179],["UX",-10.536183651811154],["autót",-10.53675153347207],["amel",-10.537190036991557],["vizsgálato",-10.537577695914218],["médiába",-10.53773008755584],["andó",-10.537992719000977],["sötét",-10.53846040409525],["zárás",-10.538674434473142],["stúdió",-10.53929856800153],["Pho",-10.53942080704784],["készülő",-10.539511230078112],["bővült",-10.539685648295748],["ügyvéd",-10.540399696533182],["újságírók",-10.54075405441767],["színes",-10.540830748395205],["küzdött",-10.541056461366924],["zavar",-10.541359995302138],["kerülő",-10.541850851260191],["hírportál",-10.542262175133324],["szerezni",-10.542486615314484],["nyíregyházi",-10.543241629126754],["fenyegetés",-10.543545376542566],["ritkán",-10.543573126282457],["hangsúly",-10.544795303349225],["Man",-10.545092856504645],["számom",-10.545378857822506],["információi",-10.545545196882617],["állomás",-10.545766948403294],["háromszéki",-10.546288950324762],["elemzők",-10.546498432517087],["reg",-10.546813214828935],["funkció",-10.547369990557222],["nyújtani",-10.54747626253408],["megalapozott",-10.548910571009785],["eltérő",-10.548976517410015],["Lehet",-10.549366757404044],["furcsa",-10.549411550158082],["Veszprém",-10.54941488470121],["moszkva",-10.54941595019585],["rapper",-10.549469598810408],["NAV",-10.549671012556074],["korai",-10.54972733679632],["véleked",-10.549833843115241],["Számos",-10.549879232100697],["automatikus",-10.551034019407023],["Hangsúlyozt",-10.551515649552357],["Szó",-10.55191562624477],["válaszadók",-10.552300694308874],["Milyen",-10.552339167043534],["mail",-10.552388977975594],["Tisza",-10.552474648183363],["eladó",-10.55256328186837],["Emm",-10.552722936725996],["megjelenés",-10.55274167827033],["vezeték",-10.553226366314025],["remél",-10.554164796775439],["áru",-10.555079661486415],["jelenlété",-10.555224713491807],["apság",-10.555609271800769],["mentés",-10.556024441898172],["Moszkvá",-10.55605434134562],["Szerintem",-10.556268411428787],["kezelni",-10.557274873950497],["tárcavezető",-10.558420833280685],["hallott",-10.558889812521794],["fejlesztése",-10.55921312745517],["számolni",-10.559357358448409],["esen",-10.559427354612405],["államok",-10.559486695445088],["Dunaújváros",-10.560627965619346],["bő",-10.56135516827378],["technológiák",-10.561766117672464],["vonal",-10.56214942172167],["fejlőd",-10.563327643390739],["rendezi",-10.563488453807766],["Mészáros",-10.563499401740604],["Teljes",-10.563500551666955],["római",-10.563577748421576],["autópálya",-10.563731000742557],["befolyásolj",-10.563939001994846],["Ny",-10.563979783469058],["viharos",-10.564212804763367],["időnként",-10.564273528479042],["országo",-10.56431144105211],["óriás",-10.564576099929827],["Kiderült",-10.564857193213502],["drága",-10.565609698530112],["kezdi",-10.565611146445672],["büntető",-10.56603689328514],["Ott",-10.566512434182894],["világjárvány",-10.566654682665018],["DV",-10.566752123704983],["tulajdon",-10.566763718983488],["területi",-10.567545637723684],["élte",-10.56794447432595],["északnyugati",-10.568338796931116],["négyzetméter",-10.568833193180582],["pillanatok",-10.56952696808527],["apa",-10.569790187085994],["bizonytalan",-10.570638864913123],["Star",-10.571329273703578],["kreatív",-10.573007203868197],["tényleges",-10.573393255842742],["hagyja",-10.573523257206514],["87",-10.573669743839758],["tulajdonosok",-10.573758059157148],["kiadások",-10.574867128428888],["eit",-10.575042308695506],["tojás",-10.575250227553123],["tapasztalat",-10.575555579773605],["munkatársa",-10.57563654869027],["vállalati",-10.575823515379234],["körzet",-10.57667568417461],["hitelek",-10.576822596675903],["tétel",-10.577752013736273],["»",-10.577785105863924],["Zsófi",-10.577785315490937],["jég",-10.577902096388433],["maximális",-10.57804086891596],["egyedülálló",-10.578310490548624],["betegségek",-10.578642916260073],["legtöbbe",-10.5788341501001],["adás",-10.578947488654844],["77",-10.57912531248708],["korszak",-10.579201595054485],["alapanyag",-10.580336489296126],["mezőgazdaság",-10.58040451984067],["újdonság",-10.580630694468056],["megosztott",-10.580713528378576],["veszélybe",-10.580958779520007],["mínusz",-10.580972476358307],["ügyébe",-10.581234384486383],["egészségügy",-10.58125223932495],["SC",-10.581477652456993],["szomszédo",-10.581496162126921],["párja",-10.58199671285649],["királyi",-10.582050189628392],["ter",-10.58252877633086],["normális",-10.582604417883793],["elismerés",-10.582832715811342],["rámutat",-10.582936928196123],["hús",-10.583093244466735],["fektet",-10.583962277825652],["védett",-10.583965166502558],["építési",-10.584225775537249],["vidék",-10.584626278979666],["hiánya",-10.584936986780104],["épít",-10.585015128463208],["használható",-10.58512803371921],["minőségi",-10.585687583735506],["gyilkosság",-10.58586454908902],["járni",-10.586062728518176],["Kar",-10.586187806383288],["tévé",-10.586623352628525],["csúsz",-10.586849080061633],["látogat",-10.586907357914852],["In",-10.587817370088104],["alsó",-10.587832822230032],["Szlovákiába",-10.587850816539543],["rendelt",-10.588248440007838],["lehessen",-10.588639893721878],["kérni",-10.589807596395566],["felszerelés",-10.590250901569487],["üzenete",-10.590452289770479],["református",-10.59142488309526],["óvoda",-10.591526767601687],["gyakori",-10.591593810555736],["hibrid",-10.592172791266602],["enyhe",-10.592278762396505],["Hazánk",-10.592280173293169],["mindkette",-10.592289710362204],["pénzek",-10.592352250892061],["Kovászna",-10.592352486098841],["Csütörtökön",-10.592368435369373],["Korea",-10.592665966533579],["Finnország",-10.592770709528526],["vezeti",-10.592890251547754],["tárgyak",-10.592953264294344],["tartalmazó",-10.593442715550974],["valah",-10.593551171795848],["támogatni",-10.593794613988724],["nagyot",-10.59403836839421],["válhat",-10.594197027926247],["építőipar",-10.594570323993544],["foglalkozni",-10.594729534392721],["tölt",-10.594920660626489],["karbantartás",-10.595777946791518],["repülő",-10.595855351055526],["csalás",-10.596257544147903],["rövidebb",-10.596619223721728],["divat",-10.59663565350721],["szuper",-10.596675470532553],["alelnöke",-10.596679025915929],["mar",-10.598698743375985],["csökkentésé",-10.600383036528854],["erőt",-10.60049574386115],["felhős",-10.600810628298003],["ismerős",-10.601016818894475],["Olaszország",-10.601262194450346],["gyorsabb",-10.601295505139785],["Á",-10.601429672397021],["megjelenése",-10.601928996381604],["szoftver",-10.602025245514746],["réteg",-10.602153181408717],["megkapta",-10.602322366189615],["szervezete",-10.602401663954463],["viszi",-10.602484876690973],["fűzte",-10.602833531719916],["Robert",-10.603137827072171],["kereskedők",-10.60332747113706],["fogyasztó",-10.603527381950945],["tanul",-10.603851576853842],["futó",-10.604155861563099],["másképp",-10.60446240308335],["160",-10.60467024558329],["népszavazás",-10.605258930353568],["vörös",-10.605655117342373],["71",-10.60630068969655],["későbbi",-10.606679361413821],["zik",-10.60692104312248],["Akadémia",-10.606983746330869],["Bajnokok",-10.60712342157516],["zás",-10.607397481548997],["Szerdá",-10.607456675923006],["fotók",-10.607519678589698],["iskolá",-10.607731323812104],["föl",-10.60866922382381],["brazil",-10.608795942735593],["tört",-10.609205819300762],["Ezút",-10.609748519502741],["hitte",-10.610610207234265],["kárt",-10.61076074872793],["szeretettel",-10.610909521040377],["villamosenergi",-10.611358141146797],["szankció",-10.611381129108032],["nyelvű",-10.611431416099503],["baráti",-10.611610708447508],["74",-10.61163937095068],["bizonyítj",-10.61184424509203],["hátrány",-10.612692302195825],["helyzetét",-10.613046069086574],["mondtá",-10.613263557796946],["elejé",-10.613980346925832],["értékes",-10.614120877120182],["üzletember",-10.614355676059798],["Minde",-10.614469317203197],["elemzés",-10.614503493111147],["meccsen",-10.614604781868698],["kontinens",-10.615091474429704],["házat",-10.615468443689444],["érő",-10.615741140235798],["helyzetek",-10.616055321174965],["legkisebb",-10.616122239055416],["csal",-10.616486701365083],["tempó",-10.61688348631969],["foglalkoztatás",-10.617214256532337],["ahonna",-10.617497399864185],["virág",-10.6177919998671],["tárgyal",-10.618371830094494],["gyilkos",-10.618558324217233],["község",-10.619196094390608],["motor",-10.61920709349505],["vizsgálatok",-10.61994655180646],["hallgat",-10.61998341563853],["belügyminiszter",-10.62044714179434],["esztendő",-10.620534515922722],["oroszország",-10.620806002650038],["Közbe",-10.621030745335641],["váltani",-10.621263538395887],["elsejé",-10.62127265232111],["Azok",-10.621546463496735],["Kárpát",-10.621569279791231],["Farkas",-10.621902329975995],["Izrael",-10.621909211447214],["Ákos",-10.62191533867382],["Dmitr",-10.621979093604072],["Kedd",-10.622074178941105],["Pécs",-10.622114163946359],["helyek",-10.622181530678448],["zsűri",-10.622206983191427],["elengedhetetlen",-10.622409959526312],["határozott",-10.622485918738008],["Város",-10.622494974438753],["hit",-10.623242251947309],["szerete",-10.623702948475561],["változó",-10.624035668277916],["megkérdezettek",-10.62405960493988],["problémá",-10.624384457361568],["szerző",-10.62460032525608],["álom",-10.62493130287876],["baba",-10.62501920714959],["tisztába",-10.625698332358157],["valamelyik",-10.625933458347578],["katoná",-10.626295351729146],["já",-10.626344663994322],["küldte",-10.626595296193136],["fejlesztők",-10.627582513719332],["rendezte",-10.627585097925241],["utasok",-10.627943192333154],["hozhat",-10.628033633397806],["cége",-10.628187474029609],["berendezés",-10.628369639842315],["89",-10.62977106507561],["boldogság",-10.630484805154776],["szolgálja",-10.630601807068087],["tisztelet",-10.630783307390463],["gondoskod",-10.63078959945161],["szerződések",-10.631203352470653],["gondo",-10.631417578023035],["61",-10.631426482042269],["fogad",-10.631777390469242],["mostaná",-10.632119314783793],["tavaszi",-10.632369596142595],["lövés",-10.632401983945805],["dik",-10.632868708065331],["érdem",-10.633075219461194],["Teh",-10.633218855668307],["főpolgármester",-10.634008853404566],["fiúk",-10.634141916094332],["drágább",-10.634260578680873],["űr",-10.635630683137386],["elégedett",-10.636238943731026],["kívüli",-10.636243391264014],["mögé",-10.63706066718589],["Scholz",-10.637060764907918],["szokatlan",-10.637081631380765],["Bereg",-10.637182787681812],["ugyanez",-10.637261427686468],["köthető",-10.637404433399295],["Svédország",-10.637463388615613],["sportág",-10.637520612173684],["Irán",-10.637990173866825],["közlekedő",-10.638073778017722],["belföldi",-10.638223687510465],["Alexandr",-10.639099518351827],["bejelentése",-10.639148662064567],["vihar",-10.639244811004044],["estek",-10.639582729792487],["utóbb",-10.639622473955269],["érkez",-10.639729717599709],["est",-10.640030843392278],["Való",-10.64020648177184],["látvány",-10.640436394654877],["frank",-10.64077776528569],["Antal",-10.64122606223967],["kezdeményez",-10.641470950713618],["bevezetése",-10.641646072021404],["energiaellátás",-10.641863662580285],["szokás",-10.642111650461583],["tanácsadó",-10.642138461457105],["88",-10.642299583222668],["színpadr",-10.642382644394491],["drámai",-10.642534581556378],["csökkenti",-10.642880385434397],["kiadó",-10.643117256893406],["börtön",-10.643309927337302],["szabályai",-10.644160445223708],["csökkentése",-10.644166797849792],["tájékoztató",-10.644187647594034],["műsorába",-10.644535562688997],["épülő",-10.644548493969904],["finn",-10.64512369356985],["felelősség",-10.645168041175467],["hango",-10.646047596747259],["nevelés",-10.646141122928064],["magyarság",-10.646408045686474],["régen",-10.64684141330217],["áldozatai",-10.646906252398226],["kapja",-10.64693580500794],["javaslato",-10.64713013929746],["szemét",-10.647443002028607],["öm",-10.647598930516175],["téma",-10.64768949842215],["73",-10.647907303089198],["cserébe",-10.648128281258078],["dob",-10.648610420171412],["hatj",-10.649134974349185],["elkövetésé",-10.649588209657736],["fák",-10.649975508193364],["fejlesztő",-10.650065630956957],["Csehország",-10.65036430722565],["kiskereskedelm",-10.650561803493769],["megszűn",-10.65058175168856],["kus",-10.650903074573465],["állapota",-10.65123429682127],["járta",-10.651494430103918],["elege",-10.65232632495728],["válaszol",-10.652440474888952],["Gimnázium",-10.652445245510513],["Szolnok",-10.652450977273404],["fájdalom",-10.65245137922468],["ex",-10.652474157204399],["Honvédség",-10.652672478664464],["leinte",-10.65274541749962],["házba",-10.653282308889565],["eredményes",-10.653425277331653],["tanulás",-10.653774805367767],["tőke",-10.653791858803217],["tartomány",-10.653871524247359],["vásárló",-10.654147803996693],["képeke",-10.654412053071985],["elfog",-10.654823330520724],["állítása",-10.655478244982577],["békés",-10.655943995030302],["kapitány",-10.656221277692454],["elmarad",-10.656276133258952],["aratot",-10.656650382153623],["82",-10.656676808123052],["riasztott",-10.656983105997448],["tok",-10.658041471708747],["válás",-10.658512393737094],["Éva",-10.658832001693737],["mentek",-10.6592685539249],["Miniszterelnök",-10.659549743101731],["holnap",-10.659586709446378],["rendőrségi",-10.659999847834435],["szert",-10.660462804469239],["munkák",-10.660781127808688],["készpénz",-10.660819781786866],["veszélyt",-10.66097609038422],["rám",-10.661235042358374],["kormányzó",-10.661313672871959],["and",-10.661334931456757],["jelöltje",-10.661354922352459],["kon",-10.662928623465175],["gyereke",-10.662957428531282],["usz",-10.663044276893675],["vadász",-10.663361833870027],["szót",-10.663441126544688],["komolya",-10.6640517023713],["utalt",-10.664330438311904],["kezdő",-10.664350555207676],["valószínűség",-10.664422426174628],["kihasznál",-10.665093790559737],["ver",-10.665508659080412],["alkotó",-10.665672393956626],["Állam",-10.665941229110363],["terjedő",-10.66665918099443],["enge",-10.667145382460305],["gabona",-10.667194852360417],["show",-10.667404375381846],["léphet",-10.667911384070209],["fellépés",-10.66805133794907],["City",-10.668162563913535],["Ligája",-10.668238462675838],["elektronikus",-10.668242126550703],["eleje",-10.668272936421427],["húz",-10.668475882626552],["háztartás",-10.669527466239693],["úszó",-10.669637352352066],["elnököt",-10.670123289016479],["súlyosa",-10.67035771801519],["Games",-10.670381238868963],["jen",-10.670385875305419],["kizárt",-10.670470413037503],["edzés",-10.671056796428182],["hívott",-10.671307097067016],["ezres",-10.671322043436223],["elit",-10.671351782737524],["inflációt",-10.671393992045266],["tűzoltó",-10.67154978477339],["forintnyi",-10.672144876750565],["ET",-10.672557283725379],["húzódó",-10.673566978703498],["ása",-10.673644060327195],["megtartott",-10.673661671991999],["vinni",-10.673834400920192],["agresszív",-10.67384605596159],["tor",-10.674187201817318],["búcsú",-10.674200412316175],["tej",-10.674320647078725],["távoli",-10.674360125723668],["ilag",-10.674839773107344],["támadást",-10.67536276473203],["alkotás",-10.675986049701748],["Vaj",-10.6760284174248],["előadó",-10.676205734967429],["gondolat",-10.676361368242793],["szakma",-10.67639699770789],["tőzsdei",-10.677085449940543],["ler",-10.677100381005669],["part",-10.67715348812537],["számá",-10.677830299942437],["kellő",-10.67824751126119],["szlovén",-10.678730574666158],["aggód",-10.678834561727266],["támadta",-10.679085203343597],["Egyes",-10.679737142674114],["sorolta",-10.680011404194639],["listá",-10.6800609633192],["kezelő",-10.680202817217872],["szintet",-10.680727857408709],["ellenállás",-10.680809305249948],["testi",-10.681068988529985],["aszály",-10.681295136947583],["nyerni",-10.6817610189458],["név",-10.682332655495227],["életre",-10.683046261067819],["győz",-10.683070823166975],["tartalmak",-10.683170710721011],["írni",-10.683621008609155],["Dunántúl",-10.68400730035387],["származású",-10.684028443276677],["kézzel",-10.684095207223603],["Erst",-10.684478007540491],["érdek",-10.684479414309898],["Remél",-10.684752710804098],["Közölt",-10.685112241559787],["szólv",-10.686462198759287],["Öt",-10.686538659367889],["szolgáltatók",-10.68688749989942],["zivatar",-10.687235427012226],["övezet",-10.687261032525953],["kamatemelés",-10.687620330833514],["mű",-10.687906679772887],["kapni",-10.688302924547424],["2008",-10.688476411233331],["világbajnokságo",-10.688523621433612],["elemző",-10.688627291073427],["átállás",-10.688838917115948],["információt",-10.689066030761332],["hunyt",-10.689230311144524],["visz",-10.689436034250772],["kívánt",-10.690324477120122],["halálá",-10.690575027135775],["egyensúly",-10.691380122720403],["mehet",-10.691447827961536],["turizmus",-10.691601233313182],["Nos",-10.691646814949383],["fut",-10.691923446497778],["halálát",-10.691973241819316],["összegű",-10.69246054527513],["met",-10.692702386399974],["építkezés",-10.692783338870505],["szögezte",-10.693435184580444],["intézkedéseke",-10.693444353815313],["botrány",-10.69387310655462],["megmutatta",-10.694044649019975],["Emlékeztet",-10.694238544195292],["hatott",-10.695036166674846],["Közel",-10.695133540951677],["hozzáférés",-10.6952311024586],["ígér",-10.69525306616042],["bevételek",-10.695732988097555],["oha",-10.695839913494524],["nom",-10.6959210199953],["juttat",-10.696044084060336],["véleménye",-10.696391329350442],["érdemi",-10.696607198779281],["zivatarok",-10.696738723533805],["Park",-10.696981859589114],["Magyarországo",-10.697275058642767],["nyer",-10.697669628023347],["szor",-10.698215718033051],["94",-10.698238889628051],["fenntarthatóság",-10.698540016619589],["Király",-10.698894313002409],["kabinet",-10.69890720337898],["kérték",-10.699138399258542],["betét",-10.69965344524045],["címvédő",-10.699964147659133],["centiméter",-10.70003992205919],["YouTube",-10.700072298374174],["Rádió",-10.700074350235843],["intelligencia",-10.70009335465653],["számtalan",-10.700138648360397],["napsütés",-10.70020352295343],["ur",-10.700512883369706],["mieink",-10.700698146588682],["képpen",-10.701440827267005],["com",-10.701442456480756],["helyiek",-10.701952845849222],["fogadtá",-10.702629287896345],["infrastruktúra",-10.702737923949588],["jegy",-10.702818202219586],["kapható",-10.703845696863254],["szállít",-10.703862152794606],["növelte",-10.70394862126189],["szigorítás",-10.70418277761391],["történeté",-10.704604461693918],["feleségé",-10.705030204856197],["akarjá",-10.705098878026881],["rögzített",-10.705324461001881],["ellenfele",-10.705480325880794],["csapódot",-10.705886327428239],["kábítószer",-10.706665712064675],["Pest",-10.708070198366979],["TE",-10.708379701681505],["színű",-10.708413082762089],["Nép",-10.70853129160379],["munkáj",-10.709309322345234],["extrém",-10.709372992042123],["top",-10.709550124164757],["Svájc",-10.709586610656192],["váda",-10.70998201028275],["készítette",-10.71072782279263],["vág",-10.710935703293455],["Pár",-10.711072109608764],["vezér",-10.711488006176475],["részlet",-10.71186633234514],["rubel",-10.712321237998708],["alkalmaz",-10.712398756708442],["lakó",-10.71300873327428],["teljesítménye",-10.713363460661434],["kutatások",-10.713939795481608],["for",-10.71422162066773],["ételek",-10.714826387675588],["kitörése",-10.715183675426074],["Nehéz",-10.71536146139135],["keresztény",-10.715679886265262],["görög",-10.716035153899686],["magazin",-10.716285618176759],["Jövő",-10.716378921151534],["Bálint",-10.716465749715777],["Szeptember",-10.716466044569174],["Peking",-10.7164700968573],["Roland",-10.71648068585516],["Elmondás",-10.716502265222115],["húzód",-10.716507381961927],["romániai",-10.716517689602128],["Igen",-10.716553284114845],["belga",-10.716629831320352],["vállalkozók",-10.717166558084042],["táj",-10.717318669384959],["szélesebb",-10.718433681253076],["készít",-10.718793556972741],["robot",-10.719144933365111],["közepes",-10.71919892065621],["könnyed",-10.719202648345501],["helyreállítási",-10.719218835214248],["használta",-10.719957523672074],["hétvég",-10.720126866767686],["ittas",-10.720153307249785],["megkezdte",-10.720587522191783],["tartózkodás",-10.721593555334689],["Erik",-10.72191440703655],["esél",-10.722478235906213],["érik",-10.722573030274983],["ezüst",-10.722574274065206],["kamera",-10.722644663527818],["munkájuk",-10.72272153640951],["igazságügy",-10.72292758173251],["beszámoló",-10.722931846495037],["méret",-10.723081726477117],["alapító",-10.723196302723032],["volumene",-10.723409600370985],["kutyák",-10.723841163698488],["erősíti",-10.723978285284343],["turisták",-10.724838806943586],["parkoló",-10.725388014116353],["vezetése",-10.725436125699012],["megnöveked",-10.72581921422938],["véleményé",-10.726450501266477],["értelembe",-10.726470412904758],["nyelve",-10.726533992629063],["gyógyszerek",-10.72658226596215],["közti",-10.727164675006538],["cikké",-10.72726214572608],["tanév",-10.727656896457738],["sáv",-10.727921125138586],["magad",-10.727971171637574],["Iskola",-10.728271860381453],["amerikaiak",-10.728275111883132],["étterem",-10.728730771940583],["barátok",-10.728803776644604],["csendes",-10.728920155546563],["foci",-10.728925196189643],["játékrész",-10.729255049215684],["John",-10.729659311367582],["kivel",-10.730410860835807],["viadal",-10.730585517986658],["incidens",-10.731291364672241],["DSZ",-10.731410424929969],["bátra",-10.731826888444605],["szíve",-10.731916813841888],["elkötelezett",-10.732099364470571],["vegye",-10.732295650391604],["csere",-10.732424799888166],["fizette",-10.732551387843632],["kov",-10.73283795306714],["vakcina",-10.733011167352497],["kenyér",-10.733018663643694],["Kristóf",-10.7331324248446],["Szergej",-10.7331325331666],["Ismét",-10.73313595509656],["Endre",-10.733137944258964],["Meteorológia",-10.733140409813302],["minimálbér",-10.733589783520806],["növelni",-10.733707932263965],["igazolás",-10.734192682855962],["elnevezés",-10.734374673202712],["bűncselekmények",-10.734481617240911],["közlés",-10.734780252952424],["ülés",-10.734946397312005],["köd",-10.73539331183543],["vízbe",-10.735546670180737],["zápor",-10.735714077183642],["élénk",-10.735936896015199],["használata",-10.736669542513695],["Annyi",-10.736671677994455],["tve",-10.737046619390123],["szerep",-10.738156205400738],["érhető",-10.73841288637952],["megtörtént",-10.73853615916677],["vezérigazgató",-10.738643253987327],["variáns",-10.740285913790304],["szerez",-10.740331683727774],["%)",-10.740777208071702],["öz",-10.740950424734756],["belváros",-10.741120868768016],["doboz",-10.741621893272306],["port",-10.741916336082504],["elindult",-10.743001038736645],["haj",-10.743380682131313],["vevők",-10.743420518165156],["kíséri",-10.743630824174215],["eszközt",-10.743691887469549],["résztvevő",-10.744739121029571],["fenyeget",-10.745301312556649],["tartalom",-10.74573430469939],["Bar",-10.745792845631298],["felét",-10.745832157787678],["rádió",-10.745850293626496],["Hol",-10.746675523344958],["font",-10.74698977058065],["szöveg",-10.747197500834595],["emelet",-10.74729473302775],["nézzü",-10.747513558654443],["minőség",-10.747669160976624],["személyzet",-10.74804417054618],["elérésé",-10.748115752140805],["trend",-10.74843334824124],["szomorú",-10.748437100063402],["adatot",-10.748553266022387],["megállapított",-10.748685852773022],["ására",-10.749209746090084],["menő",-10.749918136221023],["ősz",-10.75004460362398],["Netflix",-10.750086674943407],["töreksz",-10.75011869113741],["fordítani",-10.750304138868724],["lakók",-10.750852998170814],["ifjúsági",-10.751231514256347],["váltó",-10.751804366687912],["határszakaszo",-10.751920068472758],["számot",-10.751960461031874],["felhőzet",-10.752233424938389],["Nap",-10.752269621134284],["velem",-10.75289943883129],["fagy",-10.753065994876277],["esz",-10.753152982269123],["kapcsolód",-10.753728057479092],["tulajdonába",-10.753778523663456],["Jól",-10.753908281146314],["emlékeztet",-10.75403267779582],["telep",-10.754083002690091],["kórházi",-10.754399256084524],["záró",-10.754421263680232],["előállított",-10.754569717576967],["születésnapjá",-10.754586359384827],["szakmá",-10.75480274304345],["technológiá",-10.755677154689987],["tömeges",-10.756085916168765],["ajtó",-10.7566274452161],["létrehozásá",-10.756779314085714],["alak",-10.756926678499042],["fizetőeszköz",-10.757811513416817],["napvilág",-10.757834518479367],["meghaladt",-10.75809392725144],["tölteni",-10.758164910642302],["időszaká",-10.75901744717195],["percek",-10.759133183477562],["személygépkocsi",-10.759145286108627],["keresett",-10.75946026533811],["hangoztatt",-10.759567248630116],["Világ",-10.759727205123223],["szelet",-10.75983987090169],["remény",-10.75990269985515],["felhív",-10.760769104197735],["hozzáállás",-10.76136743386655],["kollégái",-10.76158542010418],["nyúl",-10.76164665599931],["ává",-10.76227406799375],["gyanús",-10.762534524855013],["heves",-10.763141401737911],["dokumentumok",-10.763539234060644],["hőség",-10.764017092929205],["gyermekes",-10.764485516757349],["land",-10.7650212475769],["lyal",-10.765271725165018],["kérdése",-10.76532006131338],["árbevétel",-10.765342641340444],["számon",-10.765654873808366],["extra",-10.765709605187949],["koncerte",-10.766264743028232],["búcsúz",-10.766509173904547],["párizsi",-10.766529647911645],["Klub",-10.766794765370625],["adót",-10.767128245358306],["egyenlő",-10.767270661217639],["Október",-10.767322934901514],["Március",-10.767323006082728],["Norbert",-10.767323822464144],["Csanád",-10.767324536686894],["virtuális",-10.767329294676998],["anyuka",-10.767330185251197],["Különös",-10.76737679187163],["Sony",-10.767398474318721],["jogállamiság",-10.767402446096849],["börtönbüntetés",-10.767418869506935],["körülményei",-10.767437573760178],["hírszerzés",-10.767683900046379],["idézi",-10.767771736700041],["fogadni",-10.767917734761358],["kedvezőbb",-10.76801386066735],["főre",-10.768194104294462],["hajrá",-10.768269284874766],["utazási",-10.768298532424915],["költsége",-10.768485380978627],["adózás",-10.768591834824157],["kezeli",-10.769355618457794],["PS",-10.7696497452797],["esebb",-10.770062476418055],["megnyerte",-10.770705920197528],["együttműköd",-10.77077699494988],["láz",-10.77077788251406],["86",-10.771792061258814],["talaj",-10.772165071850253],["állást",-10.772472643233005],["rt",-10.772555863075034],["tűnő",-10.772812385201394],["előnyé",-10.773050003373129],["rendes",-10.773078328188845],["hirdetés",-10.773262085372425],["One",-10.773965947720079],["DA",-10.773966148463185],["többiek",-10.774007460198915],["olt",-10.774267871575722],["vásár",-10.774411530054994],["regisztrálta",-10.775261527784643],["örül",-10.775576305978069],["követői",-10.775788230368516],["körbe",-10.776080518477222],["autósok",-10.77676113226201],["termelők",-10.777281230852614],["emleget",-10.778009772598537],["vad",-10.778063800316266],["előbbi",-10.77852020347563],["ülésen",-10.779302187924447],["házasság",-10.779345106500548],["Sto",-10.779504433198152],["indokolt",-10.779569579553026],["egyenese",-10.78008457698861],["statisztikai",-10.780149744902255],["lehetőségei",-10.780251103963787],["megtalált",-10.781734473299366],["ást",-10.781769624380605],["cukor",-10.78213245724994],["megélhetés",-10.78261906484666],["üzemeltető",-10.782857246746548],["vitamin",-10.783163195581558],["hátteré",-10.783176108194859],["lakói",-10.783266733194194],["vezetőjé",-10.783686964866853],["gépkocsi",-10.783700271081145],["ív",-10.784034306117821],["lélek",-10.784111490835876],["elmond",-10.784120281262306],["Group",-10.784649988261645],["legye",-10.78473538663701],["háromszor",-10.784764565264918],["menedzsment",-10.784797440101741],["Akár",-10.784821084661964],["Jézus",-10.784866799645695],["Rengeteg",-10.784867226410334],["Manchester",-10.78486764634891],["esküvő",-10.784894487231213],["Paks",-10.784942868003832],["tapasztalható",-10.785242454405422],["teheti",-10.785289036292738],["korszerű",-10.785332369865081],["ikonikus",-10.785408083288363],["alábbi",-10.785690958644796],["Hisze",-10.785905302865139],["anuel",-10.786042856222544],["legerősebb",-10.786153275377181],["pl",-10.786203997647217],["alakulat",-10.78621534408774],["alapjai",-10.786708892333277],["jogerős",-10.786860248680894],["állunk",-10.787340095347025],["bírósági",-10.787530480550032],["járás",-10.788169619339175],["vágott",-10.78819641145607],["meghaladó",-10.788212949494081],["Dunaújvárosi",-10.788472460294347],["hatékonyság",-10.788962970658986],["Mindezek",-10.789043729980264],["békét",-10.789182614757589],["bővülés",-10.789248221801756],["ajánlat",-10.78930523846751],["regisztrált",-10.790137113344493],["apja",-10.790158097917312],["kialakított",-10.791460427999944],["versenyen",-10.791662246461339],["alapok",-10.791984754349922],["napközben",-10.79317098628687],["fiatalabb",-10.793599862201821],["kártyá",-10.79369241144456],["Hasonló",-10.79401628543344],["elfogadta",-10.794244974845219],["teljesítményt",-10.794509743488893],["játsz",-10.794732316788327],["verzió",-10.79505108598685],["kezébe",-10.79517078752767],["tüntetés",-10.795452273353266],["Arénába",-10.795489939074464],["fokozott",-10.795595346023651],["ütötte",-10.795693512696833],["módosítás",-10.795703999478512],["hatály",-10.796137749732273],["kezdeni",-10.796540401199245],["foglalkozás",-10.796620171099049],["megelőzés",-10.796658680657455],["180",-10.796662335028646],["belépés",-10.796704210209008],["helikopter",-10.796731405328284],["Spanyolország",-10.797122477118462],["férj",-10.79722263979386],["alkohol",-10.797440379875157],["panasz",-10.797655343374121],["ital",-10.79767581672481],["felelőssége",-10.797850288419658],["oszt",-10.798534450717053],["sérültek",-10.798761640516533],["dolgozói",-10.798839209918455],["tárlat",-10.799023861678155],["fejlődésé",-10.79971559717655],["adomány",-10.799735444392981],["bérleti",-10.799810896965932],["só",-10.799984187141998],["MI",-10.800282752122763],["alapított",-10.800284345196648],["vallomás",-10.800441842293395],["mindegyik",-10.800589328215537],["tárgyalt",-10.800694795760439],["útra",-10.80076209734812],["temető",-10.801135485545604],["változtat",-10.801357320892055],["veszteségek",-10.801567324580258],["következménye",-10.801876425896443],["azonosított",-10.802071482080986],["hektár",-10.802206093963159],["reményked",-10.802322376070308],["konzultáció",-10.80268387853882],["Áramlat",-10.8027241154901],["Telegram",-10.802724736187162],["Anikó",-10.802815379629845],["Róbert",-10.802966521731298],["vi",-10.803383903442668],["titok",-10.803586036788015],["hasonlít",-10.803685524398084],["sége",-10.803935113330862],["NN",-10.804123335708647],["bőr",-10.8042890682395],["rivális",-10.804464085807705],["hihetetlen",-10.8056314277222],["környezetvédelmi",-10.805771162342156],["finom",-10.805776123887568],["oltást",-10.80584437842576],["nyolcadik",-10.80628197092583],["jelzés",-10.8063270190526],["tájak",-10.806623904663098],["tudósok",-10.806812137387327],["élen",-10.807335648984727],["növelésé",-10.807345664548603],["hetetlen",-10.807803581450951],["választókerület",-10.808846350158001],["elmaradt",-10.809046858871387],["Lengyelországba",-10.809160300658823],["befektető",-10.809265935756116],["tanuló",-10.809300829376696],["83",-10.809404497490558],["áruház",-10.809570198935804],["értékelte",-10.81009547656912],["ablak",-10.81031619324057],["mag",-10.810764500882286],["udvar",-10.810980382747108],["előfordul",-10.811224616059778],["oldalár",-10.811292618825565],["vív",-10.812529648742997],["kereskedő",-10.81323977295222],["évé",-10.81327938088265],["Akik",-10.813436372769953],["menjen",-10.813722723332454],["Ko",-10.813864871279675],["medence",-10.813890131787652],["kette",-10.814028824966975],["stratégia",-10.814187983516096],["védi",-10.814353969928694],["meghatározott",-10.814399090155185],["társa",-10.814571622476622],["formáj",-10.814662130747315],["csatorna",-10.815141998086162],["társai",-10.815507931706994],["elemzőj",-10.815640345096257],["érdekelt",-10.816109482703617],["tanult",-10.816222545098817],["környéke",-10.816288829388563],["VI",-10.816297207281846],["áldozato",-10.81672722566778],["őszintén",-10.817724855207523],["Tajvan",-10.81915370778226],["támogatásár",-10.819968333504375],["Ipar",-10.820310533380024],["szerelme",-10.82074240346931],["Május",-10.820905822686406],["Csongrád",-10.820907299574952],["streaming",-10.820912216106057],["bizon",-10.820924523279418],["Augusztus",-10.820939502389603],["November",-10.820967185388124],["tranzakció",-10.821017743160823],["MÁV",-10.82101898765231],["célzó",-10.821041418323581],["újság",-10.82143175950041],["javítani",-10.821476705014184],["őzött",-10.821730861169321],["kerékpáros",-10.82174046706611],["balti",-10.82182613896323],["Csoport",-10.82246070397976],["norvég",-10.82249865531347],["alakulhat",-10.82279329858775],["államtitkára",-10.822844347105105],["gyakoribb",-10.822925628517973],["harci",-10.823153878260166],["teret",-10.823195050605706],["gyanú",-10.823256231520936],["drónok",-10.82398318490509],["csodálatos",-10.824234185719606],["városvezetés",-10.824726262254469],["id",-10.825120764749627],["cal",-10.82527916348317],["megbízható",-10.82542227958789],["Legutóbb",-10.82566737637403],["Mária",-10.825722097826697],["forgalomba",-10.825846689590279],["szerepét",-10.825934646283649],["multi",-10.826145865767657],["felsőoktatás",-10.826223834512614],["indulhat",-10.826663274515706],["egymillió",-10.826819582619624],["ási",-10.827044603547758],["gyűjtött",-10.827410737575057],["vezetőedző",-10.82748303872527],["bel",-10.827981699520256],["lor",-10.828353006897423],["környezetbe",-10.828453226517249],["Miskolco",-10.828656977061325],["lépéseke",-10.828862714585897],["Donyeck",-10.829043588054311],["vonzó",-10.829324173339174],["halott",-10.82933834031449],["sorba",-10.82939643948018],["kivitelezés",-10.829890783693642],["szerencsés",-10.829947665718397],["viseli",-10.830345234776543],["Meta",-10.830383984555855],["Wall",-10.830572877479236],["erültek",-10.830975262220353],["So",-10.831303626583637],["Max",-10.831841368619152],["gyermekük",-10.831940885362751],["tegye",-10.831965609552428],["mu",-10.832003653476844],["ítélték",-10.832211104706303],["szervek",-10.833253510943287],["agrár",-10.83346673664334],["du",-10.833973633053384],["bejegyzésé",-10.83412414813887],["műtét",-10.834429774919087],["termés",-10.834719058581387],["ü",-10.834821154573541],["marketing",-10.835008103505743],["Vár",-10.835330040017947],["szolgálato",-10.835356526248244],["Oroszországo",-10.835885632048731],["hajnali",-10.83622267848212],["romlott",-10.836362563721474],["ügyet",-10.836391901203477],["járhat",-10.836401791984176],["pihenő",-10.836407004660913],["beszerzési",-10.836996050259556],["ill",-10.83713275236233],["viszonyok",-10.8371933988929],["Mar",-10.837216589697206],["idéz",-10.83748429328883],["követel",-10.837818653796964],["gondolni",-10.837962585967484],["alakított",-10.838230515570098],["Non",-10.83832229615058],["foglal",-10.838682184314461],["adód",-10.839073154859385],["Andrea",-10.839345742129646],["szörnyű",-10.839385960912583],["Celsius",-10.839424274554679],["Samsung",-10.839424292692673],["Gáspár",-10.839427764164718],["levő",-10.839430985363723],["Gergő",-10.839432619963851],["mozgósítás",-10.839469930166194],["klímaváltozás",-10.839517853584503],["konzervatív",-10.839659495113978],["eleve",-10.839684756420436],["Series",-10.839715101179914],["indiai",-10.839726211911337],["Katasztrófavédel",-10.83993093322117],["Messi",-10.83994071145206],["tekinti",-10.840698532413668],["tapasztal",-10.840712135704322],["márka",-10.840837820605634],["drón",-10.840909554280806],["tulajdonképpen",-10.841082290180978],["vezetni",-10.841149556854294],["gyártók",-10.84119487932017],["TikTok",-10.841249330872017],["tartózkodó",-10.84127084263814],["bűntett",-10.841534082336084],["ho",-10.841578899749667],["béremelés",-10.841687859477318],["igazolt",-10.841824628771322],["programja",-10.84220191802338],["útján",-10.842564566881201],["Összese",-10.842645401208745],["bármelyik",-10.84290228377808],["személyiség",-10.84295367322438],["időpont",-10.843095634759713],["potenciális",-10.843245173767631],["rezsim",-10.843651183959082],["naptár",-10.843723913868761],["fém",-10.843755145490068],["kamatok",-10.844228704856812],["cégcsoport",-10.844327584778846],["televíziós",-10.844368867749107],["motoros",-10.844499918601699],["akadt",-10.844755428142456],["szék",-10.845056747264668],["tízezer",-10.845060886493847],["csillag",-10.845428685587253],["futam",-10.845470656620991],["Hát",-10.84573575190612],["kamato",-10.846329884932743],["hiányá",-10.846499397435414],["Facebooko",-10.84666003040906],["luxus",-10.846751161523903],["javá",-10.84679320715416],["ütött",-10.846972606286796],["brutális",-10.847040875372436],["alelnök",-10.847314798299106],["MW",-10.848198933143166],["vallás",-10.84836485104626],["lényeges",-10.848665375777696],["bukott",-10.848783478405355],["biztosítási",-10.849080157505629],["ígért",-10.849257544236766],["működésé",-10.849345721177157],["Fed",-10.849525624124004],["másnap",-10.849808874375682],["berendezések",-10.849862761947486],["kutak",-10.850009969349607],["lő",-10.850233354157997],["felvásárlás",-10.850679643299625],["kijelölt",-10.851263172012164],["megpróbálta",-10.851429387781357],["elismert",-10.851437157047728],["wei",-10.851703583743463],["tagok",-10.852049345352157],["5G",-10.852089450247604],["hő",-10.852642020681504],["tartom",-10.852989392916962],["rendezvények",-10.853284493814485],["ünnepek",-10.853515007401487],["minősítés",-10.853575069644242],["so",-10.854153635238802],["szintje",-10.854871896384243],["sikere",-10.854936405941858],["tavasz",-10.855201080902026],["oldalú",-10.855445559673713],["jövőjé",-10.85550980481405],["árat",-10.855765455598565],["hangzott",-10.856161026266882],["jogok",-10.856483184209075],["migránsok",-10.856489232348638],["szállítani",-10.856658261514086],["forintba",-10.856690290996916],["mindegy",-10.85728868146958],["450",-10.857637234861073],["székhely",-10.857670669871975],["sségébe",-10.85769171918324],["csoportjá",-10.85773336167214],["dioxid",-10.858237211105443],["Hosszú",-10.858292188417815],["Lázár",-10.858292260871805],["Krím",-10.858296446911362],["Hajnal",-10.858301076534463],["kártérítés",-10.858316480236494],["munkavégzés",-10.858380162876173],["kellemes",-10.858445220859565],["gondolkodás",-10.858506617323567],["euróövezet",-10.85856026868821],["London",-10.858567200267279],["átfogó",-10.858756263582167],["szavazók",-10.858787333090211],["jelentkezik",-10.85891117531601],["órákba",-10.859015810342257],["Művészet",-10.859160754418703],["terem",-10.859252490132421],["drágul",-10.859439257960736],["gondok",-10.859604936051769],["Jog",-10.859679377226882],["elvesztette",-10.859941483365555],["helyeke",-10.86026349169495],["kávé",-10.860293016076538],["nyomon",-10.860317677408231],["kényelmes",-10.860384913576862],["kéne",-10.860634740187722],["megyé",-10.86065442072561],["növények",-10.860661499186794],["ók",-10.860884481018799],["találkozás",-10.861054969142877],["kastély",-10.861061479263087],["reméli",-10.861564138764095],["karakter",-10.861615167318597],["lopás",-10.861652919547256],["lelkész",-10.861940871503041],["vonulta",-10.861955713706465],["abszolút",-10.861979385382535],["érem",-10.86200162602442],["ellátó",-10.862536465811694],["szenvedte",-10.863033904255236],["eléri",-10.863330453194866],["Székely",-10.863343456201696],["barátság",-10.863450256034088],["váltotta",-10.8634584538313],["többlet",-10.863602975619557],["értesült",-10.863635289228357],["borult",-10.86399613917848],["hárma",-10.865162395693245],["korán",-10.865567110441829],["bemutatott",-10.866215390149431],["140",-10.866235201771763],["ötlete",-10.86652609586142],["nyugodt",-10.8666047670076],["használatát",-10.867004563809731],["érdeklőd",-10.867269591010587],["kísérő",-10.86810689293143],["kétszeres",-10.868542498113962],["kerülne",-10.868977039365445],["tanú",-10.86899329929729],["boltok",-10.869170957822327],["munkavállaló",-10.869432548194151],["ekre",-10.869921893516109],["tartalma",-10.869983078379526],["országba",-10.870125321670011],["vágta",-10.870501607312006],["összetett",-10.87075505201938],["juttatás",-10.870995679548958],["nyereség",-10.871076327917965],["oldalak",-10.871497547762264],["győzelmé",-10.87170692455187],["érve",-10.871775887080412],["opció",-10.871820380443058],["népesség",-10.871832824548736],["találkozhat",-10.871868199267592],["életmód",-10.872926569039334],["megbeszélés",-10.87292768441425],["Nintend",-10.873169560679006],["okozza",-10.873313450726458],["hagyományok",-10.873369359935527],["megvalósításá",-10.873473772199425],["Önkormányzat",-10.873505281597579],["hatását",-10.87403694546018],["ügyfelei",-10.874146262433918],["Államokba",-10.874222776476286],["megvalósul",-10.874380215797443],["gyakorolt",-10.87450005870961],["ingyen",-10.87487622905914],["figyelme",-10.87564786724883],["kockázatok",-10.875651615649225],["jegyek",-10.87571323565038],["honna",-10.875750988721343],["könyve",-10.875756760957493],["jelentek",-10.875959253600355],["elkészült",-10.876333683533296],["nézett",-10.876406246107255],["hirdet",-10.876650143779147],["dunaújvárosi",-10.876740089459096],["Tíz",-10.877458688903568],["forradalom",-10.87752298924506],["Széchenyi",-10.87752300183517],["Szinte",-10.877524673074102],["Benedek",-10.877529344857384],["Harry",-10.877570520124657],["Kolozsvár",-10.877599998965707],["birtokába",-10.877627509142236],["katari",-10.877676192614825],["torna",-10.87796704383456],["kezel",-10.877987852258146],["csi",-10.878081640664215],["ős",-10.878082446998711],["ly",-10.878196794708305],["lépések",-10.878874119298018],["figyelmeztetés",-10.878875774502053],["olyanok",-10.879003063451423],["tizenöt",-10.879278163171215],["németek",-10.879452236927454],["Hódmezővásárhely",-10.880203494344759],["színvonal",-10.880289250855895],["vád",-10.880928444152488],["világra",-10.881436031904578],["BC",-10.881853413601187],["történetét",-10.881981781906912],["elemzése",-10.88206225331917],["titkos",-10.882281288399163],["megszállt",-10.882383368802124],["juthat",-10.882895921709967],["gyorsabba",-10.883490728523116],["éltek",-10.884118317239542],["ausztrál",-10.884212235276895],["erőmű",-10.885055121550277],["élén",-10.88560761567541],["rekordo",-10.885788078064898],["szállítmányok",-10.88579094200185],["építésé",-10.886166479594902],["hiszem",-10.886270796153601],["hónapjá",-10.886530974212898],["holttesté",-10.886964245305567],["Ö",-10.887072583223059],["mindannyi",-10.887133459846762],["EB",-10.887331567541203],["Inter",-10.888112361141191],["hajók",-10.888558431862949],["IM",-10.88855915942884],["kezelt",-10.88923831217787],["hibák",-10.88942131734279],["szolgált",-10.889459485713795],["csatorná",-10.889692369191113],["tevékenységét",-10.890082407089528],["MT",-10.89050995542223],["madár",-10.890894612144976],["előrelépés",-10.891458669251836],["verte",-10.891880872499627],["kétharmad",-10.892151410203727],["hívja",-10.892513890534971],["ásával",-10.892991274757676],["lapot",-10.893082842851548],["esté",-10.89368816377363],["Fesztivál",-10.894253923905374],["változtatni",-10.89429379550908],["láthatóa",-10.894704470863076],["felszín",-10.895178694980073],["gő",-10.895484613625957],["hozzájárult",-10.895828066100792],["ápol",-10.895872039199098],["Egész",-10.89589674425106],["szakszervezet",-10.896081449169209],["kedvezmény",-10.89615711778484],["frakció",-10.896227266455996],["iráni",-10.896522030098641],["kárpátaljai",-10.897130810899858],["Igazgatóság",-10.89713081093342],["Székesfehérvár",-10.89713081417548],["Jelentős",-10.897131146362199],["Ágnes",-10.897133737288158],["Szerbia",-10.897223600768928],["Tegnap",-10.897246448440065],["alkalmazások",-10.897375547390336],["megyék",-10.897397992403203],["hallgatók",-10.897797042470579],["rajongói",-10.897822861567851],["munkanélküliség",-10.897849257287717],["nénk",-10.897945724474466],["alapuló",-10.89795081259243],["legyőzte",-10.89796041208291],["lakosok",-10.897975970499404],["megoldani",-10.898927952769416],["kereső",-10.899051030756542],["képvisel",-10.899322910982537],["látom",-10.899420498398054],["ségét",-10.89944476932542],["városába",-10.899463005545867],["fordulat",-10.899491739420029],["US",-10.899639977637445],["tagság",-10.89997792716853],["megtenni",-10.900014659498579],["köt",-10.900091267833915],["nyugdíjasok",-10.90052647896624],["rendelte",-10.90054476485449],["erőszakos",-10.900744804851374],["válaszolta",-10.9007934411384],["pontok",-10.90089264273735],["Hozzátett",-10.90126812370772],["érezz",-10.90139575653592],["sorozatot",-10.901922550933438],["felvonás",-10.901970755960617],["panaszkod",-10.902346226442017],["rendezés",-10.90275585573951],["fér",-10.902937401552464],["dolga",-10.903059512042152],["földön",-10.903345495656641],["350",-10.903498430476324],["old",-10.903700277453318],["tenné",-10.904622676624616],["Jo",-10.905144106121682],["lügyminisztérium",-10.905594358445654],["folyt",-10.906079269008973],["járatok",-10.906354063210276],["elvi",-10.906483809051542],["bolt",-10.90740322442631],["Alig",-10.908766447337523],["becslések",-10.909035974221696],["okozó",-10.909757832613554],["robbant",-10.910171324889212],["teljesítette",-10.910272664374133],["góljá",-10.910479692992089],["művészet",-10.910750398656322],["délutáni",-10.910986827045217],["forma",-10.910987049566945],["feltételei",-10.91149633223038],["hetet",-10.911905897283683],["néni",-10.911974433405565],["zük",-10.912577104960226],["stressz",-10.91324768557149],["érdekeit",-10.913250535618747],["terhet",-10.913745748270706],["partnere",-10.913828760840113],["vakciná",-10.914030554228841],["hirdetett",-10.914069012952602],["tapasztalatok",-10.91418915523888],["közep",-10.914352603478804],["covid",-10.915543619457615],["mann",-10.915716621690933],["biztosítás",-10.915770385338966],["csomagolás",-10.91603892494668],["bűnös",-10.916297230150178],["foglalt",-10.916705617807931],["Donald",-10.917126674382832],["Petőfi",-10.917134508158615],["Leyen",-10.917138208732698],["Ügynökség",-10.917141307577998],["tilos",-10.917143989566322],["Cristian",-10.917189604291167],["Brent",-10.917196567506476],["tábornok",-10.91723391537454],["találja",-10.917612499184772],["teljesíteni",-10.917631288460527],["legszebb",-10.917687193694626],["kérdésé",-10.91786820263879],["lejje",-10.918458308775131],["költött",-10.91908715737959],["Loki",-10.919260050381038],["tech",-10.919307418709103],["barátjá",-10.919819957948175],["elkövetkező",-10.92014271936874],["kerítés",-10.920801101794787],["keletkez",-10.921357349214764],["kérésé",-10.921567788232839],["célt",-10.921878815215535],["zárult",-10.921881427215048],["adósság",-10.922165898563536],["kormányt",-10.92262792727673],["Andi",-10.923526589857165],["partnerei",-10.923562924584399],["hagyjá",-10.923633563461976],["Újra",-10.924143830317247],["ottani",-10.924465661922259],["ragaszkod",-10.924717575825571],["átalakítás",-10.924789205193182],["hála",-10.925325756629858],["emberiség",-10.925379508955743],["törzs",-10.925751861563906],["Nemrég",-10.926487826262294],["130",-10.927204836177435],["Los",-10.927277105753896],["célra",-10.927315903119087],["nyaralás",-10.927607531562575],["Olaszországban",-10.928382222290988],["dönteni",-10.93049226869574],["hatékonyabb",-10.93113081067056],["médiá",-10.931310918613164],["szakemberei",-10.931961172894459],["távolság",-10.932391247119808],["visel",-10.93295617826703],["kialakításá",-10.933013242517898],["ajánlato",-10.933291633234115],["feszültség",-10.93339411704875],["jegyzése",-10.933399382061008],["nyeresége",-10.933474500356233],["partján",-10.93353802929468],["megpróbált",-10.933780022937237],["inket",-10.933860973557264],["kérés",-10.933871632404216],["forgat",-10.934142771233537],["Alap",-10.93428519172113],["környez",-10.934301882396811],["választani",-10.934523313038769],["sson",-10.934569077664028],["kérdezte",-10.935333530638696],["száll",-10.936153139362311],["biztosítana",-10.936252557049713],["célpont",-10.936745731180846],["ifjú",-10.937508284760957],["vonni",-10.937514980152828],["David",-10.93754371444184],["hallani",-10.937590712307044],["Fehéroroszország",-10.937594628790848],["Harkiv",-10.937606106287879],["fantasztikus",-10.93761985731328],["hálás",-10.937648941490048],["Stadion",-10.937730738398727],["alapul",-10.937878061877194],["éjfél",-10.938806005515968],["dventi",-10.939179126053094],["látogatott",-10.939186368130347],["népszámlálás",-10.939530765965806],["rendszerét",-10.939793785592656],["weboldal",-10.939871016059115],["választók",-10.940213241374815],["logisztikai",-10.940464259851153],["kockázato",-10.940954764538183],["bázispont",-10.94141627597179],["állampolgárság",-10.94157417381401],["személyese",-10.941659863491775],["Danc",-10.941752919670027],["Red",-10.941951106999124],["jele",-10.941974626799714],["900",-10.942099728539942],["esztendős",-10.942546677656118],["reklám",-10.943033310903525],["dísz",-10.943119503946187],["ágy",-10.943859854458632],["lakot",-10.944015520018286],["emlékez",-10.944054471276374],["Gazdasági",-10.944108558064197],["infrastruktúrá",-10.944426986735873],["fokos",-10.944635090089513],["gyermekei",-10.944811271233393],["bármit",-10.944936398674773],["War",-10.945062575279225],["M1",-10.945284733414207],["vidéke",-10.945438017117525],["pártja",-10.945617253537065],["foglaltak",-10.945641709507342],["eleme",-10.945750160840399],["Buda",-10.945826586195817],["kivitel",-10.94588519679557],["novemberi",-10.946514904622092],["ED",-10.947040645452526],["IV",-10.947042827841734],["mérleg",-10.947113754056447],["haladó",-10.947363690954106],["fogadott",-10.947738819084854],["feladato",-10.947936000132977],["mielőbb",-10.948040861652814],["találkozta",-10.948447480688863],["06",-10.948650011683208],["rendezvénye",-10.949090669271648],["mat",-10.949736924171688],["okot",-10.94976815546674],["hallgató",-10.95006338031082],["Nek",-10.950285652939217],["kifejezés",-10.950322637336622],["kanadai",-10.950706619163071],["termel",-10.950744875067944],["közeled",-10.950909674136899],["lista",-10.951073379036968],["tük",-10.951130144379324],["érhet",-10.951208497864304],["napirend",-10.95133649645743],["mindennapjai",-10.95140341645228],["irányítj",-10.951868552396956],["alkalmazottak",-10.951919537626868],["párti",-10.952031249460504],["tehetség",-10.95243066333563],["szállás",-10.95245254776109],["rendelkezésé",-10.952505293866981],["Bo",-10.952804365233055],["vízi",-10.953153293116172],["kiemel",-10.953670553658062],["érdeke",-10.954110118953983],["Arany",-10.954158273262312],["tőzsde",-10.954413700073692],["megegyez",-10.95442462104592],["megszűnt",-10.954896111311502],["háziorvos",-10.955943223610237],["tisztán",-10.956200608488109],["mentem",-10.956670989252144],["javult",-10.95667551433016],["tárgy",-10.95671484468503],["csökkenésé",-10.956786876925271],["Nyilván",-10.957968392810644],["Londonba",-10.958070031667395],["hatvan",-10.958159424998232],["tilalom",-10.958311649934224],["Szilárd",-10.958373206318607],["Befektetés",-10.958373574325265],["középső",-10.958387873392251],["Technológia",-10.958408808581373],["fenntartása",-10.95844992031816],["játszó",-10.958638852193964],["felesleges",-10.958710849281081],["Bács",-10.958803339336153],["feltehető",-10.958898998447633],["legjelentősebb",-10.958964976959788],["csap",-10.959009709253053],["tanítás",-10.959151846371299],["felújított",-10.959214052526658],["előnye",-10.959665701590295],["történhet",-10.959751216911505],["életveszélyes",-10.959766433531856],["sürgősségi",-10.959813793444352],["Külön",-10.960140309229303],["feljelentés",-10.96021174308672],["csodá",-10.96030818617627],["kívánja",-10.960357633475748],["Megjegyezt",-10.960694756449127],["Zöld",-10.960712438142135],["indulás",-10.96159490594066],["célú",-10.96188656615221],["gimnázium",-10.962244371078059],["zó",-10.962451156854321],["tünetei",-10.962908881099608],["jelentősége",-10.963702108172015],["délnyugati",-10.963773728753807],["elemek",-10.964160440752112],["biztosította",-10.964243781989003],["szülés",-10.964501793112634],["ley",-10.965016597390402],["indokolta",-10.965089931076617],["ós",-10.965337518244219],["tartalmazz",-10.965338618376219],["kereszt",-10.96569463289904],["BL",-10.965998684749447],["mélyen",-10.96600653939359],["célok",-10.966022143692957],["RM",-10.96643646336241],["egészségi",-10.966486156720178],["klíma",-10.966701695351944],["Grand",-10.967555607244835],["készletek",-10.967679822479719],["energiahordozók",-10.967741218572224],["javasol",-10.967822890728211],["előírások",-10.96789791408075],["adtá",-10.968037022465879],["hős",-10.968156963089884],["pozíció",-10.968208365375721],["félév",-10.968225896790662],["egyházi",-10.96826699308383],["csomago",-10.96863347872876],["polgármesteri",-10.96968610608343],["kezdetét",-10.96986254761623],["szállt",-10.969864644642442],["vallott",-10.970043290785629],["megőrzés",-10.9700974516205],["szeptemberi",-10.970306121447745],["körök",-10.970803511541023],["kevered",-10.971143569853778],["kellemetlen",-10.971244642240784],["példány",-10.971415036649834],["játszhat",-10.971546228125561],["megegyezés",-10.971642457922961],["osan",-10.971953228858926],["ítélete",-10.972057150812587],["emléke",-10.972163131035401],["jelentő",-10.97249992927307],["megtudtu",-10.972682818410718],["tartalék",-10.972760659985656],["eredményez",-10.973056712733355],["bizonyíték",-10.973191124907178],["bio",-10.9734935383621],["Britanni",-10.973690050924729],["vádolta",-10.97392909887017],["teher",-10.974267070654655],["Ausztriába",-10.97441311574087],["karok",-10.974511680425632],["készíteni",-10.974845994799946],["San",-10.975102720653615],["tapasztalatai",-10.975129936280787],["hosszabbítás",-10.975659105478778],["gyász",-10.97581492773961],["emeli",-10.976382171095146],["képernyő",-10.97666514746167],["anyago",-10.976698906443964],["lehetőségük",-10.97686624638861],["napjá",-10.977373923045993],["Martin",-10.977757588608384],["Boris",-10.97803633744192],["fegyvert",-10.978168377438521],["megmaradt",-10.978186557095631],["bírságo",-10.978272378555808],["telepített",-10.978500265048494],["lépése",-10.978804246070709],["honvédel",-10.979056341969235],["problémái",-10.979083637259453],["teljesít",-10.979113755236856],["működtet",-10.979286291718637],["hagyomány",-10.979337739199293],["labda",-10.979479370061268],["jubileum",-10.979648903231723],["Február",-10.979648903234366],["COVID",-10.979648905936955],["Switch",-10.979649036515866],["Törvényszék",-10.979650498220266],["Palkovics",-10.979651212597954],["Legalább",-10.979659012283717],["Eszter",-10.979679816648714],["December",-10.979761793473163],["Április",-10.979769603984895],["megállapod",-10.979812235601663],["elképzelhető",-10.97981674284242],["Ukrán",-10.979868540138451],["hátsó",-10.97994950999707],["riasztás",-10.980099162934946],["Gy",-10.981227936910582],["megyek",-10.981232077781323],["túlnyomó",-10.981289951928916],["küldetés",-10.9813988015977],["kommunista",-10.981518488161946],["hírül",-10.98184258313989],["98",-10.982004281812236],["sék",-10.982165567648845],["szervező",-10.98289928085737],["autójá",-10.982966173253672],["hass",-10.983319982712114],["készülni",-10.983349236971463],["helyettese",-10.983639955784477],["forró",-10.98437067797623],["Wh",-10.984389564579416],["országai",-10.984512556041931],["vallotta",-10.985015875713115],["sztrájk",-10.985126826501418],["légitársaság",-10.985149050971721],["stabilitás",-10.985210998723423],["fiók",-10.985211452246537],["többféle",-10.98527621982042],["jóvá",-10.985961247722345],["had",-10.986150809580948],["Hold",-10.986566551478955],["hátrányos",-10.986617686554917],["India",-10.986621886691463],["emel",-10.986676304913049],["fordulójá",-10.98677137098286],["előnyt",-10.987082113348238],["megtalálható",-10.987098505236695],["eladás",-10.987262622314304],["lo",-10.988408499463812],["művészek",-10.988702191647695],["ruha",-10.990013952428535],["amelyik",-10.990795157093594],["költő",-10.990908889888047],["képesség",-10.990997289591967],["szállította",-10.991814997498542],["háztartási",-10.992553229984782],["hatékonya",-10.993219172288793],["követni",-10.994105578644543],["elhagyta",-10.994252221971418],["megközelítés",-10.994501128096825],["nyom",-10.994550348859736],["Levent",-10.994631613555283],["mikro",-10.996351313813209],["akciót",-10.99666180313407],["tetsz",-10.996822111773366],["testvér",-10.996966776795336],["kultúrá",-10.996973141453989],["életkor",-10.997194870989647],["bevonásá",-10.99762461855289],["megemlékezés",-10.997888027239402],["mellette",-10.998399123446614],["Equi",-10.998539629703659],["lényeg",-10.998710691514988],["ülő",-10.99905237680927],["esszü",-10.99954308482484],["érdeklődő",-10.999571216524751],["fejlesztését",-10.999680853510593],["felszólította",-10.999731314052207],["ellátást",-10.999740500911795],["fejlett",-10.999910072329664],["végleg",-11.000301806173253],["iket",-11.00067613398957],["Iroda",-11.000758747102282],["fát",-11.000796483427209],["fontosságá",-11.0009179120974],["önmagába",-11.001179272444686],["prémium",-11.001305606704548],["Lavrov",-11.001388034332065],["kézműves",-11.001388093868037],["Madrid",-11.001389027189205],["Szovjetunió",-11.001412471531719],["Július",-11.001419699706643],["bevételei",-11.001438454754528],["benzinkutak",-11.001466716302707],["balesetek",-11.001548118685001],["Meghan",-11.00156383820049],["irányadó",-11.001656331396193],["hetes",-11.00169215464066],["feleségét",-11.001762596997413],["Truss",-11.001951007331883],["nyit",-11.002197770826777],["fogni",-11.002295034760998],["felvételek",-11.002479613677824],["esélyt",-11.002773145489156],["repülés",-11.003010644917115],["érezhető",-11.003031407104011],["92",-11.003325074841168],["sák",-11.003447673690832],["határoz",-11.00376694976449],["aggodalom",-11.003968891919188],["nyújtotta",-11.004240256496665],["gyalogos",-11.005302607805582],["gyermekét",-11.005393008659922],["meghirdetett",-11.005532835066939],["fehérorosz",-11.005675491624974],["visszatért",-11.005933912938692],["szexi",-11.006007898907416],["nyújtana",-11.006459959680686],["félre",-11.006766812802345],["eredményét",-11.007346788855958],["számítógép",-11.007788245680091],["használatá",-11.008031800558577],["biológiai",-11.008050229688893],["ásra",-11.008185198548183],["tudna",-11.008265047980261],["részvényei",-11.008596763470921],["fokozód",-11.008719438276524],["állítottak",-11.009359791159044],["ereje",-11.009420164999568],["működni",-11.00952451427397],["népi",-11.009948892382745],["ajánl",-11.010224142570411],["vonul",-11.010302772240605],["Bukarest",-11.010427732996533],["törvényt",-11.010734362044634],["bán",-11.011005455969524],["magasság",-11.011498817567896],["93",-11.011604238478172],["mutatni",-11.01186493020623],["részesedés",-11.012037049952497],["Alex",-11.012060163814454],["kezdeményezte",-11.0121285398558],["buda",-11.012335365399961],["lég",-11.012891167537088],["érezni",-11.012927450774306],["játékosa",-11.013163986871584],["építő",-11.013238484370737],["vetni",-11.013476539886124],["egekbe",-11.013667534381415],["Katar",-11.013723072713383],["Q",-11.01374319730984],["képtelen",-11.013870954186046],["valamely",-11.013991599274501],["jót",-11.014181313832808],["igazolvány",-11.014783641802442],["látszott",-11.015584031781245],["drágult",-11.015687216824961],["bevezetésé",-11.015782373756775],["ilyet",-11.01612991736426],["menetrend",-11.016620599535887],["veszélyhelyzet",-11.017439460818345],["professzor",-11.017818453548971],["kezelése",-11.017904580757039],["frissen",-11.017931001387591],["végeredmény",-11.01800221225357],["posztolt",-11.01805333045181],["tisztviselők",-11.018110718391876],["befolyás",-11.018126940139059],["maszk",-11.018523133070042],["ítélte",-11.018864613779463],["futás",-11.019071507526965],["javul",-11.019083631094688],["listán",-11.019676170166749],["jelentkező",-11.019895792976508],["közvetlenü",-11.019956440130493],["koncentrál",-11.019984169956947],["hazánkba",-11.02032197017801],["nyomást",-11.020671005353163],["tanulni",-11.021102126499393],["munkába",-11.021102512339471],["vesztesége",-11.021103214227978],["Mostan",-11.021184030465934],["szórakoztató",-11.021313269628557],["bekövetkez",-11.02138919474738],["pályafutás",-11.021534305313997],["platformok",-11.022289530043357],["színpado",-11.02257501314941],["fogyott",-11.023148883762506],["neked",-11.02341242942881],["vas",-11.023452631741131],["folyosó",-11.023457855245304],["Disney",-11.02358265785996],["bántalmazás",-11.02361025611619],["Kisvárda",-11.02361028606265],["vidám",-11.023614429292271],["NASA",-11.023630176601477],["radikális",-11.023644614161814],["Fanni",-11.023650519160071],["előtérbe",-11.023745978765676],["legismertebb",-11.023932695414885],["dán",-11.023963197926612],["eknek",-11.024021362433356],["túlzás",-11.024033624294741],["behozatal",-11.02408292002399],["javasolja",-11.024156320813912],["összhangba",-11.024301559553097],["bővül",-11.024334447163813],["kivitelező",-11.024410638899221],["ival",-11.024464928940073],["tőzsdén",-11.024518094200836],["útjá",-11.024644670254032],["őrzött",-11.024728168455619],["Di",-11.024879620954058],["sztori",-11.02488689062098],["szegénység",-11.02532367163386],["béké",-11.025524430285913],["várost",-11.026117774263755],["megmérettetés",-11.02611971810765],["Értéktőzsd",-11.026161178024369],["testvére",-11.026193705564394],["utasítás",-11.026495704270758],["csapato",-11.026712296811432],["felirat",-11.026988027634484],["határt",-11.02700336481037],["front",-11.027249583070486],["véd",-11.02766692230065],["ellátásá",-11.027803487845626],["szerkezet",-11.027916097244999],["készülhet",-11.028042902186888],["erdei",-11.028096759506125],["ésére",-11.028311758048952],["kint",-11.029215365693904],["érintette",-11.029323968281611],["91",-11.029376645883625],["érni",-11.029471666573526],["egyhetes",-11.029821906795629],["mese",-11.029864764414821],["tizenegy",-11.029893414014298],["Párizs",-11.029947462145865],["változatos",-11.02998754111496],["ics",-11.030304801549558],["alapkamat",-11.030453734438863],["ász",-11.0305179415234],["mozgalom",-11.030635703300039],["ígérte",-11.030770280640033],["Bor",-11.031365716567638],["gyengülés",-11.031393168860905],["komplex",-11.031456109578404],["közönsége",-11.031695131981227],["nagyban",-11.031857134744339],["lényege",-11.032076669155668],["jobboldali",-11.032240405474779],["mélyebb",-11.032843213202064],["tál",-11.033077132108483],["bérek",-11.033650227353355],["birtok",-11.0336543962372],["bajba",-11.034066219148796],["háttérbe",-11.034514794350049],["orr",-11.03469709322234],["akadály",-11.034945984597014],["témáj",-11.034996782856602],["tagadta",-11.03519638553952],["örülhet",-11.035803853808517],["kilencedik",-11.03591604069438],["ását",-11.036616004703975],["biztosítása",-11.03683861714362],["gyengébb",-11.037393839110383],["számla",-11.037570925322708],["célzott",-11.037964253216776],["igyekezte",-11.038047473071387],["kapcsolatuk",-11.038944180081803],["Hét",-11.039120585643307],["embere",-11.03926149969325],["lábá",-11.039384364865777],["elképzel",-11.039707426097827],["közösségek",-11.040016254343978],["veszített",-11.04019586666433],["becsült",-11.040275114895728],["tudatosa",-11.040365862693104],["szi",-11.04046846110289],["lejt",-11.040569720732778],["hordó",-11.04081828921851],["vádolj",-11.040969055344181],["zászló",-11.041227317977034],["kutyá",-11.041298581406076],["Go",-11.041300032999686],["lassul",-11.041621894468998],["fejlesztésé",-11.041823621805722],["élvonal",-11.042209265799238],["ráta",-11.04246480383481],["értékelés",-11.042480636207035],["ütközés",-11.042517757224376],["bevételt",-11.042526224567823],["ebbé",-11.042531311345133],["sújtj",-11.042662126029253],["Idő",-11.042698280447336],["sportolók",-11.043184675232329],["lezár",-11.044005709528276],["zsidó",-11.044015847239745],["cz",-11.04409247223442],["játsza",-11.044120183338329],["szegény",-11.044156034492445],["alapo",-11.044606339006162],["növekedését",-11.044841845781837],["Game",-11.04503607427499],["okostelefon",-11.04517337218514],["jövedelem",-11.045752343689374],["alkalmazásá",-11.046034238702237],["törekvő",-11.046337642098582],["Sopron",-11.046337736279693],["szlovákiai",-11.046368952197088],["exkluzív",-11.046489983602655],["Rendkívül",-11.046604837813168],["Lisz",-11.046612625095218],["igények",-11.046732716760873],["láncok",-11.046921728717535],["Áron",-11.046938779039113],["Újpest",-11.047146831591872],["Pont",-11.047322674101803],["megélénkül",-11.047331176288024],["adminisztráció",-11.047450075262201],["telen",-11.047714653247823],["tehetséges",-11.047777675143648],["nulla",-11.047877696632876],["360",-11.048089912607054],["megkapj",-11.048710696228557],["legnehezebb",-11.048782459566366],["részleges",-11.048851290326375],["kifejtett",-11.048914588494071],["pek",-11.049093731236718],["beton",-11.049098958558755],["számításai",-11.049157903449899],["Egyik",-11.049416404634188],["konyha",-11.049473358465669],["készülékek",-11.049482505227516],["Po",-11.049637329602046],["tudhat",-11.049783280346167],["Bíz",-11.050325961752913],["kötet",-11.050400564632517],["hármas",-11.050421183085342],["ságosa",-11.051022131971074],["papírok",-11.05152094308777],["szolidaritás",-11.051902729616991],["karjuk",-11.052095085082028],["felelősségre",-11.052116214040813],["196",-11.052148418871429],["hetven",-11.052361235458108],["alvás",-11.052387299976683],["felfüggesztett",-11.052746994717335],["utcák",-11.053020022262277],["hajtotta",-11.053318929303819],["előrejelzések",-11.053450970782269],["köze",-11.053787942921165],["ajánlás",-11.053800147026026],["válságo",-11.05411375863464],["NG",-11.054360373497786],["adag",-11.054799663127172],["selejtező",-11.054847956002309],["helyben",-11.055107963210311],["önkéntesek",-11.055213638837339],["videók",-11.055363553452901],["gyártásá",-11.05598368664916],["fenntartásá",-11.056539048455218],["vizsgál",-11.056927377669654],["részei",-11.057062680810043],["feladatai",-11.057070052216115],["kilátások",-11.05711300651679],["egyikük",-11.057190833650452],["tűzijáték",-11.057230996857893],["Mikor",-11.057247518486838],["stratégiá",-11.057258773996764],["devizák",-11.058053260446544],["politiká",-11.05811724100508],["hatást",-11.058118045094274],["térségbe",-11.058662728142803],["ódott",-11.059492724485683],["reményé",-11.05949539921537],["segítse",-11.059690674474929],["láng",-11.059934057022458],["szerv",-11.059981302385431],["szükségünk",-11.06003716295625],["oper",-11.060053837117739],["ulturális",-11.060219193066885],["rangsor",-11.060288127936861],["ozott",-11.060671157440218],["bukkant",-11.061468177984574],["szakadt",-11.061484934786677],["öl",-11.061515321600615],["hatások",-11.06163495166005],["elfogad",-11.061824614581585],["Ro",-11.062340728954403],["kézilabda",-11.062911349931632],["Neke",-11.06363776184819],["használó",-11.064266282233234],["napeleme",-11.064463286998553],["látv",-11.064594695125422],["sújtotta",-11.064605947417707],["szélé",-11.064679832583337],["nézte",-11.064948463302628],["banki",-11.06512743528409],["Stars",-11.065397852205013],["ut",-11.065534492311013],["férjé",-11.065818773097453],["feltétel",-11.06665489339404],["Jan",-11.067180454454057],["területre",-11.067257089962116],["fókuszál",-11.067303314779874],["búza",-11.067750873791393],["tervezte",-11.067765649094294],["hónapo",-11.068416861165126],["következmények",-11.068634985813054],["eformátus",-11.069009264798293],["tucat",-11.069453962097077],["végrehajtás",-11.069584549860943],["Június",-11.069593342728194],["Statisztik",-11.069595023244524],["Kérdés",-11.069595224308966],["messzi",-11.06959678995285],["Pintér",-11.069635500221302],["Balogh",-11.069648344385424],["kamion",-11.069669309475119],["csapott",-11.069770225336564],["elképzelhetetlen",-11.069787169478953],["jótékonyság",-11.070136194236817],["félelem",-11.070494401711686],["össz",-11.07076164930693],["tetszett",-11.070836569130716],["lemond",-11.070902623578329],["Réka",-11.070905141229895],["mező",-11.071055530699116],["élelmiszerárak",-11.071148977647486],["olvas",-11.071225119285982],["reagálni",-11.071454915042418],["átalakulás",-11.071616930885668],["sír",-11.071761191534318],["gazdaságo",-11.071832814068639],["Bab",-11.071945815538289],["temetés",-11.072219428879908],["kormányzój",-11.072357781427481],["emlékezetes",-11.072608232030138],["mentette",-11.073018194942865],["Mars",-11.073297303508234],["megkezd",-11.073545020684946],["elfogadni",-11.074656472373512],["döntését",-11.074699268758879],["spórolni",-11.07497817345171],["viselő",-11.075679787292048],["nemzetbiztonság",-11.07616530652853],["chip",-11.076200869544358],["határozz",-11.076236365932255],["ája",-11.07631072069796],["ikat",-11.076451293461039],["megnőtt",-11.076548225017728],["einek",-11.07698124709172],["vizsgálni",-11.077105728552434],["ennünk",-11.077312745717865],["go",-11.077590404343361],["megjelentek",-11.078010344141644],["tengeren",-11.0784016117322],["jönni",-11.078495222248684],["autópályá",-11.078679857437145],["pályafutásá",-11.078829955495484],["használhat",-11.078911045642377],["füst",-11.078956886833515],["szavazta",-11.079658383198707],["bemutatta",-11.079664586537424],["jelző",-11.079731898578299],["tényezők",-11.080229691176633],["vetette",-11.08041375582791],["alapja",-11.080451344426777],["figyelmeztette",-11.080566939418258],["inter",-11.081224410966579],["utazni",-11.081319063655657],["teljesítő",-11.0819111195115],["jogszabályok",-11.081920747403013],["og",-11.081985614378134],["mandátum",-11.082074403426965],["elhagy",-11.082221868356054],["by",-11.082310050007067],["rendszere",-11.082897616795604],["valahogy",-11.083116565360614],["omat",-11.083254712210081],["fenntartás",-11.083309335249517],["íján",-11.083319767633732],["NA",-11.083328386843508],["elkezd",-11.08371350903085],["sikeré",-11.083739420779372],["elismerést",-11.08383636381049],["roham",-11.084050939914949],["Ausztri",-11.084057033975448],["csoportos",-11.08419293985166],["rakétá",-11.08436840709829],["választhat",-11.084861963934701],["zenét",-11.084892264055945],["újból",-11.085141465631212],["javításá",-11.085335951079978],["ruhák",-11.085442270230281],["Ola",-11.086193664093306],["számlák",-11.086857389003402],["nagykövet",-11.087086063913647],["idézett",-11.087300243508786],["versenyek",-11.087313600890262],["fehérek",-11.087450294485087],["Vas",-11.087478416862913],["jelzett",-11.087542224532214],["rászorulók",-11.088304229956336],["kollégák",-11.088955582154473],["eszközei",-11.089358756620289],["könnyebbe",-11.089642770667542],["töltő",-11.089870757528182],["kilátás",-11.089933278366846],["védeni",-11.090085530839541],["medencébe",-11.090313505820765],["dízel",-11.090361997851108],["Ó",-11.090408593804916],["fordulhat",-11.090625699483367],["elment",-11.09076708483922],["egyenlített",-11.090814850816582],["tárolás",-11.09093172097923],["drasztikus",-11.09126758799717],["gyulladás",-11.09172161518642],["ünnepség",-11.091887189103964],["térkép",-11.092002216650467],["bizonyítani",-11.092036565145133],["turista",-11.092164155685769],["videójá",-11.092222919748048],["krízis",-11.092775520094623],["bajnokságon",-11.093048875612414],["minősül",-11.0933146268289],["Margit",-11.093333837630919],["Guardian",-11.09340286679433],["Kecskemét",-11.09340288786106],["Rövid",-11.093402964786904],["szürke",-11.093405534936522],["Kálmán",-11.093405864331729],["hordónként",-11.09342248931161],["érzelmi",-11.093544467113395],["Fejér",-11.09360067635285],["üzemanyagok",-11.093776656982163],["Bíróság",-11.093817189891066],["ellenőrzi",-11.09390845221704],["Köztársaság",-11.09396708418458],["akadályozz",-11.094065531337428],["alakja",-11.094103546366537],["rsula",-11.094121469491487],["szegedi",-11.094142464940617],["jegyében",-11.094195375564041],["cipő",-11.094225468425227],["határozotta",-11.094279968484237],["innovatív",-11.094355590793816],["kiegyensúlyozott",-11.094525655664377],["dönthet",-11.094530596820398],["pályázato",-11.094802872449606],["Open",-11.094876961537027],["könyvtár",-11.09488403751825],["kialakítani",-11.094943642785935],["lakhatás",-11.094965763608299],["fűződ",-11.09516907450467],["gépjármű",-11.095219326540533],["harcol",-11.095485258703786],["szabadságharc",-11.095541595432902],["feldolgozóipar",-11.095941974683976],["igényei",-11.09604968338918],["pel",-11.096613565590518],["szán",-11.096753084797548],["szállítások",-11.096814099003517],["harcot",-11.096937619484105],["köszöntötte",-11.097212650278458],["vásárolta",-11.097237557442732],["rokon",-11.097262250454497],["ingi",-11.097388144991939],["bolygó",-11.097596135246716],["börtönbe",-11.097619278255163],["mondható",-11.097651697828189],["idejér",-11.09782872467217],["alul",-11.098524184592229],["ellátott",-11.098802502424233],["felvételi",-11.098892324312864],["szövege",-11.098927447414896],["kutat",-11.099323475456696],["hétköznapi",-11.099460238674705],["földre",-11.09973252508156],["üzemel",-11.10029068650669],["ingatlant",-11.100308796539611],["munkahelye",-11.101308402194688],["jelentkezte",-11.101803630536285],["gumi",-11.10342435605287],["útjár",-11.104896323233431],["lemondás",-11.104926546254402],["árult",-11.105108300319568],["kamara",-11.10529516073466],["mérséklőd",-11.105592512175228],["költ",-11.106427964599728],["keresés",-11.106639419980064],["FK",-11.10680585200529],["mozi",-11.10746732790792],["Val",-11.107776761111243],["Kijevbe",-11.107862951634651],["feksz",-11.107974886476217],["kormánypárti",-11.107983548343219],["szálloda",-11.108619788473648],["Szám",-11.10875928370401],["szerezhet",-11.108789955846941],["igazgatóság",-11.109073577154703],["Tom",-11.110292323375678],["minősége",-11.110530973022593],["befektetések",-11.110575735800488],["állapotá",-11.111025208027387],["árai",-11.111432839091634],["kötni",-11.111521520552392],["kilogramm",-11.11169411024118],["polgárok",-11.111768987255918],["törvényjavaslat",-11.111986724163952],["emelésé",-11.112356272931823],["védőoltás",-11.112436908048375],["zárv",-11.112457812890177],["ness",-11.112505901109262],["töltés",-11.113308916910785],["környezete",-11.113315484437038],["mesél",-11.113512724591985],["nyitás",-11.114407934629698],["kaland",-11.114786674670352],["problémáj",-11.114909023039658],["születése",-11.11549869759288],["párbeszéd",-11.115625971013266],["szavazatok",-11.11568088086393],["döntőbe",-11.115748957869688],["fájdalmas",-11.11604281882481],["Fi",-11.116141780656523],["Simon",-11.116184127081612],["SD",-11.116208334825906],["gyártott",-11.116297320568275],["portugál",-11.116347615366621],["felhasználásá",-11.116372767229706],["elhangzott",-11.11664487009871],["Ronald",-11.1169373702358],["kórházak",-11.116977507111287],["korrekció",-11.117502643778751],["beruházást",-11.117601367434807],["lassú",-11.117789299057623],["Virág",-11.117793008841995],["World",-11.117793110343662],["diadalmaskod",-11.1177931120056],["bitcoin",-11.11779311344852],["krónikus",-11.11779314639254],["Január",-11.117793155408622],["majomhimlő",-11.117793741074934],["Fradi",-11.117796254141448],["egyiptomi",-11.117813729410049],["elfogadhatatlan",-11.117824979499046],["Luhanszk",-11.117922954850801],["eleji",-11.118002317229964],["edzője",-11.118105338105735],["Jenő",-11.118149733239274],["Hszi",-11.118283817889429],["teremteni",-11.11834713594128],["demokratikus",-11.11836261873186],["legsúlyosabb",-11.118593528157653],["továbbjutás",-11.11886000076969],["vadon",-11.119038383682492],["légkör",-11.119145607825947],["hotel",-11.1191562063621],["Veres",-11.119166422377065],["Óriási",-11.119449824578277],["sehol",-11.119475244460409],["reális",-11.119588143083472],["érettségi",-11.119770204099451],["csökkentés",-11.119868898170298],["tisztviselő",-11.119908398029697],["szereplői",-11.120039602463894],["üzemeltetés",-11.120134033559005],["Nyíregyházán",-11.120384558944046],["bűn",-11.120394498073798],["politikájá",-11.120620157327117],["létező",-11.120784161577312],["vizes",-11.120934272440628],["hirdette",-11.12122782971202],["termékei",-11.121500633247052],["szervezés",-11.12204980244046],["hassa",-11.122336060498592],["rák",-11.122489348828609],["kiválasztott",-11.122721684703151],["hangz",-11.12282591597357],["kiló",-11.122840461473464],["státusz",-11.12312854553268],["eljutott",-11.123169196551514],["tartás",-11.123261111969692],["előnybe",-11.1232842977162],["teherautó",-11.123501703320894],["Fejlesztés",-11.12366299750243],["köszönete",-11.124221171858535],["előadásá",-11.124570927169561],["identitás",-11.1248527562702],["gondolt",-11.125396546934965],["aink",-11.125508689651756],["helyér",-11.125724744418438],["összegek",-11.125733297908441],["csapatai",-11.126019215623185],["támadt",-11.126077211956241],["Sokszor",-11.126099186418264],["változtatás",-11.126196083809287],["hatályba",-11.126752380143909],["szakaszán",-11.126872034567656],["?”",-11.127547400285819],["követet",-11.127695245935442],["hivatás",-11.127746089472517],["püspök",-11.128060419622797],["idejét",-11.128163682587237],["Hollandi",-11.128411995985875],["szed",-11.128540847003453],["viselte",-11.128701848607623],["megerősöd",-11.128811737512036],["pihenés",-11.129054680982165],["korlátozott",-11.12916941184643],["Szabad",-11.12929690457728],["lakást",-11.129359685555606],["viselked",-11.129581600385542],["fogta",-11.129818954187135],["halottak",-11.12987117646566],["emokratikus",-11.130547034707096],["munkavállalói",-11.131223754430701],["játékosai",-11.131294636592765],["terméke",-11.131493150456045],["ébe",-11.131891094532769],["Ben",-11.132052699367282],["tudomás",-11.132233285857051],["kudarc",-11.132285735591728],["összefüggésben",-11.132429980057896],["digitalizáció",-11.132633908205042],["érzékelő",-11.132912754474136],["Gyermek",-11.132965600927568],["döntései",-11.133474383260296],["küzdő",-11.133476849114277],["szeme",-11.133586572099313],["dobogó",-11.13359246867002],["szerelmé",-11.134261855157431],["művelődés",-11.134359211079774],["kérdeztü",-11.134470837041922],["jutás",-11.134505368206927],["betegsége",-11.134812951514233],["lakosságo",-11.134931212799794],["íz",-11.134970604291068],["javasolta",-11.134983879947661],["ügylet",-11.135518626385638],["létesítmények",-11.135673172422937],["Párizsba",-11.135705421998601],["törvények",-11.135836317363323],["nyarán",-11.135938095693389],["gazda",-11.136220373532032],["csökkenése",-11.13672967748198],["arch",-11.137238639304577],["őszinte",-11.137300411062663],["hy",-11.137340061868327],["hangulato",-11.13738834688871],["összeállítás",-11.137648971603063],["On",-11.137988486417907],["foglalja",-11.138672568000056],["Tar",-11.138884754274269],["csatornák",-11.139688515021316],["élvez",-11.13997134078824],["magatartás",-11.140493686163857],["vékony",-11.14052198989384],["legenda",-11.140522168644457],["haderő",-11.140603237030339],["Román",-11.140863991392294],["hatalm",-11.14093496383695],["napilap",-11.141116437047673],["tár",-11.14113180777966],["fogyasztási",-11.141205788430948],["Kínába",-11.141237348409225],["fogott",-11.141686479651431],["Ü",-11.142104784452995],["áremelés",-11.142194160056377],["cikkek",-11.142447882071641],["bizalom",-11.142548993764668],["Momentum",-11.14279311296129],["Mátyás",-11.142793122299762],["demokrácia",-11.142794061477392],["Hatalmas",-11.142794892073894],["Technolog",-11.142813982115598],["Valószínű",-11.142830498195794],["bevezetését",-11.142857179325077],["Mazsi",-11.142869618048785],["mentősök",-11.142895894307696],["Érdekes",-11.142963575314488],["Kocsi",-11.143061273483292],["szobá",-11.143153769619982],["tevékenységek",-11.143162786286862],["Angeles",-11.143193947485624],["MOL",-11.1431969899006],["Cs",-11.143495170144767],["alkotók",-11.143578451050338],["wit",-11.143643114357182],["küzdelme",-11.14435504318369],["tárgyalni",-11.144377217590245],["előnyös",-11.144414224695733],["jutó",-11.144523512479411],["rab",-11.144557859095789],["ismételte",-11.14528974493498],["szélsőséges",-11.145713824508762],["argentin",-11.145724946239117],["Egészségügy",-11.145865494511861],["hosszas",-11.145922856622185],["csomópont",-11.145930024203992],["képességé",-11.14617465288532],["közössége",-11.146190407430801],["ákóczi",-11.146245567446021],["kényszer",-11.146293241778965],["világpiac",-11.146304266275363],["üzletek",-11.14640703915156],["sí",-11.146524886178442],["összehasonlítás",-11.146705449486632],["bocsátott",-11.146989702499605],["Real",-11.147279419794359],["megakadályozz",-11.148000635531513],["mérhet",-11.148155097298499],["égés",-11.14875092433105],["kivételes",-11.14892899314028],["emléké",-11.149083580219076],["fogalmazta",-11.149208387815111],["konténer",-11.149983017887967],["ápolás",-11.15097237227194],["juss",-11.15105289242423],["tisztáz",-11.151058147918988],["stadion",-11.151813143600942],["akarat",-11.152505797224762],["utalás",-11.152988863646609],["szemtanú",-11.153094286557787],["valósul",-11.15326621709651],["sztárja",-11.153565729741363],["munkatárs",-11.153944653977595],["talp",-11.153979991270809],["darabok",-11.154294519852908],["karrierj",-11.15440198830291],["kínált",-11.154467753640903],["kerek",-11.154501212561716],["hajtás",-11.154548316997861],["környezeti",-11.154944860804257],["idejé",-11.155537780144632],["felülete",-11.156031578353314],["valósult",-11.156075424116658],["reakció",-11.156806636700647],["jelenet",-11.156842431296726],["megmarad",-11.157828769739304],["fényes",-11.157967232873633],["megjelenésé",-11.158071316306282],["érdekei",-11.158110088924593],["érjük",-11.158226294634929],["áruk",-11.15832300152091],["legkevesebb",-11.158608572637439],["háborúba",-11.159305436950314],["tudat",-11.159392476373892],["nyitó",-11.159485989891035],["képessége",-11.159944423833885],["elfoglalt",-11.160465741732127],["hibát",-11.160498223674384],["óvatosa",-11.16052956046679],["szokások",-11.160936824984267],["piacán",-11.160956264023968],["kedvelt",-11.160979814320047],["Bus",-11.161146272007617],["480",-11.161762862778236],["amike",-11.16243289883839],["kialakítása",-11.162473023784704],["résztvevői",-11.162500501553183],["boltokba",-11.162993246180926],["haladt",-11.163076497190685],["székely",-11.163189868120215],["mérnök",-11.163230897791037],["újonc",-11.163727516555042],["Köszön",-11.163731055904398],["termékeke",-11.164081586606025],["propaganda",-11.164470360009858],["elnökválasztás",-11.16470016681478],["nyitottak",-11.164720503417643],["amarosan",-11.164912914727937],["depresszió",-11.164922022046136],["magánszemélyek",-11.164982379433646],["zseb",-11.16541589297694],["irodalm",-11.165775429539016],["elérheti",-11.166334631496515],["utazók",-11.166523864964685],["simán",-11.166562038505479],["besorolás",-11.166624257054812],["olvasni",-11.166848849825914],["széria",-11.16699198970294],["rablás",-11.167490595673804],["olaszok",-11.167532057133732],["Lőrinc",-11.167774399406476],["laboratórium",-11.168192691644848],["Fülöp",-11.168433583970327],["Vodafone",-11.168434135967761],["United",-11.16845771311255],["Főügyészség",-11.168541341027119],["emberölés",-11.168612625100831],["indoklás",-11.168617678429856],["csapatát",-11.168620845391086],["Mezőkövesd",-11.16865269693439],["németország",-11.16883006880601],["tűzszünet",-11.168846231838604],["emelkedhet",-11.169081420923654],["Múlt",-11.16919674515913],["légierő",-11.169362595133906],["ünnepli",-11.169452240103617],["éttermek",-11.169460747689163],["venné",-11.169721415832951],["szervezte",-11.169871544987515],["foko",-11.16992664999975],["veszélyeztetett",-11.170016406122144],["legdrágább",-11.170276255493857],["képviseleté",-11.170347545093472],["hall",-11.170557336530242],["engedni",-11.17057379000805],["eken",-11.170866904326857],["csatár",-11.171112287018362],["hercegnő",-11.17117773296252],["létrejött",-11.171477528203614],["szintjén",-11.171492403145846],["Ameriká",-11.17152756766352],["Gabi",-11.171691673400408],["szakítás",-11.171757757370873],["filmes",-11.171907745032506],["vehető",-11.171984893811661],["házigazdák",-11.172797492422054],["All",-11.17307585420445],["Élet",-11.173542381786937],["következtetés",-11.173718067750983],["hátul",-11.173893219485603],["hallotta",-11.173994903037842],["lényegese",-11.174411282008288],["megírta",-11.174551953965578],["fű",-11.175058421602715],["jeles",-11.175375790189763],["zené",-11.175793631753793],["úszás",-11.175831136864373],["helyezi",-11.176018770009811],["csalók",-11.17603235936794],["koronavírusos",-11.176045849159287],["felhasználói",-11.17648439058822],["értesítette",-11.17688103825224],["gyümölcs",-11.1769425393457],["ajándéko",-11.177127675447988],["berg",-11.177839010307194],["mondat",-11.178024019385685],["Kórház",-11.178369167710677],["konzolok",-11.178399268517616],["szigetek",-11.178577529534042],["érdekel",-11.178660585832096],["adóz",-11.179017431808594],["Másrész",-11.179300840795264],["italok",-11.179664857848302],["atlanti",-11.180708997239359],["másod",-11.181106471244796],["pótolni",-11.181147441673954],["szex",-11.181287587816575],["forgatás",-11.182245376558596],["csarnok",-11.182531848838206],["NO",-11.182691299473879],["kialakulásá",-11.182694039596221],["képez",-11.182826239118455],["feleségem",-11.182854805918941],["koalíció",-11.182862761743984],["döntene",-11.182920839385702],["fenyegeti",-11.183074507699274],["tikus",-11.18314937235047],["különösebb",-11.183293549246223],["engedte",-11.183596372304834],["átadás",-11.183796977425605],["ung",-11.1839670821335],["Török",-11.184276337316744],["karantén",-11.18452762277246],["elődöntőbe",-11.184946208703186],["Peti",-11.185819188961464],["nyir",-11.18639957897593],["fer",-11.186441836779261],["súlyosabb",-11.186898233310833],["nyomozó",-11.187493419238027],["munkaerőpiac",-11.187506019506872],["elindul",-11.187577617542507],["SK",-11.18762246117381],["utazta",-11.187708997751866],["gyel",-11.187834041792755],["ősi",-11.188411917363746],["arca",-11.188494231469667],["nemzetiség",-11.188782014576873],["programsorozat",-11.188825485241882],["évfordulój",-11.189711613704393],["küzdeni",-11.1899187832318],["kapuba",-11.19010201685765],["repülőgépek",-11.190475244979925],["zárja",-11.190564009023998],["csata",-11.19093143635205],["jogosult",-11.191300449985691],["címét",-11.191318598931781],["aláírás",-11.191363567863537],["vásárhelyi",-11.191916097113364],["kezdetek",-11.192237854046274],["zék",-11.192334032206233],["közgazdász",-11.192511099303196],["liberális",-11.192638071111862],["küldeni",-11.192659278306664],["bemutat",-11.19273332228127],["pozíciót",-11.19288822727168],["madarak",-11.192922491094478],["karrierjé",-11.193730903007886],["információs",-11.19393564335202],["stb",-11.194182618639356],["állapotát",-11.19421486476206],["nyersolaj",-11.194412022145833],["szobor",-11.19461507325518],["kézdivásárhelyi",-11.194749944955888],["labdarúgás",-11.194753800218251],["Oscar",-11.194755336187413],["Kanada",-11.194756231889674],["Szavai",-11.194757210433988],["rosszindulatú",-11.194777704485963],["székelyföldi",-11.194779077156062],["influenza",-11.194798693669112],["végrehajtani",-11.194813045875499],["bácsi",-11.194828792609226],["Liu",-11.1948599976867],["Innen",-11.19487603419038],["betekintés",-11.194888233470511],["Lapunk",-11.194902187244933],["olajembargó",-11.194907522998513],["Soros",-11.194918251107246],["nagyszabású",-11.195037410193832],["Amazon",-11.195045724824508],["vicces",-11.195139371785203],["Curtis",-11.195334973778198],["társulat",-11.195666410985314],["előfordult",-11.195675827498086],["Fehérvár",-11.19568420086979],["Paul",-11.195753073080535],["Senki",-11.195798247786815],["számolta",-11.195801123732384],["esete",-11.195844530550922],["válni",-11.195953600889139],["kedvé",-11.196070117546348],["kezdene",-11.196075374145371],["ezüstérmes",-11.196542644363785],["értékesített",-11.196936007463396],["ideális",-11.197028586244596],["egyszerűbb",-11.19713184907123],["felhívja",-11.19737020321124],["képviseli",-11.19744161273827],["elérése",-11.197574985230377],["növelése",-11.197878043623579],["ps",-11.198115177559908],["értelme",-11.19829693386042],["jócská",-11.198545648501455],["bírság",-11.198611846483683],["King",-11.198676909869375],["helyezés",-11.19868263280204],["végrehajtott",-11.198735531512156],["Szép",-11.198852636756422],["szárazföldi",-11.199073129671497],["politikát",-11.199221544939762],["jai",-11.199317903415944],["1500",-11.199729382353434],["vádak",-11.199900758084334],["álláspontjá",-11.200043508255012],["színművész",-11.200570177391942],["tudatos",-11.200856545417881],["csökkenő",-11.200912054453433],["tol",-11.201170406594041],["elrendelte",-11.201251764151351],["mo",-11.201329056800894],["kíváncsi",-11.201350585423489],["Do",-11.201388297756338],["képp",-11.201659460905553],["hívni",-11.201778289171168],["fogás",-11.202200277148677],["platformo",-11.202320232178597],["egyeztet",-11.202359594346651],["off",-11.202457492888106],["lányt",-11.202656010940494],["üzent",-11.202973891644383],["elképzelés",-11.203706796078396],["pénzintézet",-11.204235077508798],["jellemzi",-11.204527406420882],["megújult",-11.204807584426723],["elegáns",-11.204859891953912],["haladta",-11.20521822139484],["IP",-11.205487546932241],["csúcso",-11.205570501522907],["tá",-11.205776096710167],["irodalom",-11.205875473614537],["tanácsadója",-11.206059510648167],["üzemanyago",-11.206175090715858],["ődött",-11.206234833076287],["szerény",-11.206243734251226],["vállalni",-11.20634380154101],["témák",-11.206493473093087],["ügyész",-11.206724498527175],["nagyság",-11.20676873552479],["emelkedést",-11.206777438383318],["korona",-11.206911392094344],["lelkes",-11.206934397958698],["megtalálni",-11.207090215171206],["javulás",-11.207355940314553],["minap",-11.207792405570622],["lan",-11.207830965434747],["udjon",-11.207959877796437],["hozzájárulás",-11.207991214693328],["kérdéses",-11.208022256327883],["fenyegető",-11.208502347049837],["munkatársak",-11.208621043928641],["jelentések",-11.209374093145435],["méltatt",-11.209425820982753],["IC",-11.20944501499184],["Sziget",-11.209558562487626],["rajz",-11.210021316763783],["Barna",-11.210147979955849],["tulajdonosai",-11.210184997859624],["fiatalember",-11.210196257238849],["hidrogén",-11.210203841966294],["que",-11.210249364305454],["Vissza",-11.21031903322692],["tiltott",-11.210627369426664],["Kor",-11.210716805152469],["indítvány",-11.21074650166708],["szellem",-11.210776780198394],["OSZ",-11.211078054508643],["Komoly",-11.211265264414251],["módszerek",-11.211523274559775],["elemei",-11.212137569018033],["állítás",-11.212168181901482],["195",-11.21241238677506],["gőz",-11.212704011643941],["alkalmazása",-11.212963417930505],["méterre",-11.213361167002768],["szent",-11.213551142858007],["tevő",-11.213617094866109],["szállítmány",-11.213641386839097],["kötötte",-11.214014037849138],["gá",-11.214053351885712],["vesszü",-11.214078172897874],["rendezésé",-11.214366067710607],["célunk",-11.214769150443683],["lejárt",-11.215649832552673],["alakította",-11.215799257637684],["másrész",-11.215890928141885],["versenyzőj",-11.216097840243183],["kapcsol",-11.216163709631537],["eredményeit",-11.216194029581404],["nyilvánosa",-11.216396536484122],["interjújá",-11.216608613738693],["megszerezte",-11.216753330932555],["történetek",-11.216884375662605],["metró",-11.216924697449352],["tároló",-11.217016148137429],["kiírás",-11.217137866397975],["évszázad",-11.218022087372182],["sikertelen",-11.218240813942462],["futballoz",-11.21845619541465],["vezetésé",-11.21899456782652],["regisztráció",-11.21929187624986],["védte",-11.219663679104485],["Mac",-11.219859349966407],["művek",-11.220151686377887],["kártya",-11.220357220485402],["tervezet",-11.22056298731909],["kikötők",-11.220575406182185],["gyógyulás",-11.220729831419401],["kamerák",-11.22075262987155],["festés",-11.220980083294865],["Közös",-11.221218313382717],["George",-11.22125817415926],["eredmén",-11.221294022351872],["társasház",-11.221327184744329],["jogá",-11.221451919991704],["háromszoros",-11.221498491885981],["Juhász",-11.221776958180122],["Erdogan",-11.221777011375842],["Index",-11.221777187844275],["elektronika",-11.221777903421874],["Ügyészség",-11.221779656577503],["Hatóság",-11.221782741492927],["előrejelzésé",-11.221793906835023],["Kiskun",-11.22179520143438],["Rácz",-11.221834954539341],["végezni",-11.221837677669367],["Járásbíróság",-11.221838096112286],["Érdekesség",-11.221847404422931],["vezérkar",-11.221962991463544],["Peter",-11.221999813565217],["pillantás",-11.222059163983177],["érdekli",-11.222133462933211],["š",-11.22224566219694],["végződ",-11.222288081593419],["menekülő",-11.222448348314046],["Zsig",-11.222598834060063],["félsziget",-11.222632565579735],["finanszírozz",-11.222639635566116],["Elég",-11.222744303558361],["szavaz",-11.222748110375083],["Vilmos",-11.222857582484279],["fenntartott",-11.222868655027165],["egyedüli",-11.222950216488448],["nyilatkozatá",-11.222986978583094],["West",-11.223102702475401],["útvonal",-11.22311888619765],["határai",-11.223174612936084],["bármely",-11.223490518837707],["tranzakciók",-11.223570215726543],["főorvos",-11.223746811061368],["igazolj",-11.223895282329275],["bővebb",-11.223906151784407],["belőlü",-11.224373782185133],["polic",-11.224608382243982],["Krisztin",-11.224755946948019],["hidegebb",-11.2248189353173],["későbbiek",-11.22496625569927],["Dan",-11.225078659969498],["kór",-11.225300620141637],["sör",-11.225399960391126],["javaslatok",-11.225417132714256],["ró",-11.225604996130658],["műfaj",-11.225941391323103],["végtelen",-11.225961404176832],["parancsnokság",-11.225970167006686],["szigorúbb",-11.226539558675135],["fűz",-11.226738445365317],["un",-11.227178264662209],["tudós",-11.227703484345335],["kijelző",-11.227815845145138],["értékét",-11.227859762265965],["díjakat",-11.227936265883034],["elkerülni",-11.228061389954128],["világossá",-11.228395872158696],["vakcinák",-11.229672525269713],["időtartam",-11.229780037564794],["technológiát",-11.229833108363636],["utalv",-11.230158265485414],["valamikor",-11.230636973817075],["szilárd",-11.230971417165172],["raktár",-11.231173937363934],["ársapk",-11.231691132182647],["szerzője",-11.232005093978453],["pályát",-11.23225274388237],["felvenni",-11.232542405794584],["sikerese",-11.232561863353663],["harmadá",-11.232637091213453],["funkciók",-11.232638756963395],["örülö",-11.233011428717395],["hangos",-11.233292356133594],["minisztere",-11.233308927311153],["közvetítés",
[...]
