{"version":"1.0","truncation":null,"padding":null,"added_tokens":[{"id":0,"special":true,"content":"<UNK>","single_word":false,"lstrip":false,"rstrip":false,"normalized":false},{"id":1,"special":true,"content":"<SEP>","single_word":false,"lstrip":false,"rstrip":false,"normalized":false},{"id":2,"special":true,"content":"<MASK>","single_word":false,"lstrip":false,"rstrip":false,"normalized":false},{"id":3,"special":true,"content":"<CLS>","single_word":false,"lstrip":false,"rstrip":false,"normalized":false}],"normalizer":null,"pre_tokenizer":{"type":"Whitespace"},"post_processor":null,"decoder":null,"model":{"type":"WordPiece","unk_token":"<UNK>","continuing_subword_prefix":"##","max_input_chars_per_word":100,"vocab":{"<UNK>":0,"<SEP>":1,"<MASK>":2,"<CLS>":3,"!":4,"\"":5,"$":6,"%":7,"&":8,"'":9,"(":10,")":11,"*":12,"+":13,",":14,"-":15,".":16,"/":17,"0":18,"1":19,"2":20,"3":21,"4":22,"5":23,"6":24,"7":25,"8":26,"9":27,":":28,";":29,"<":30,">":31,"?":32,"A":33,"B":34,"C":35,"D":36,"E":37,"F":38,"G":39,"H":40,"I":41,"J":42,"K":43,"L":44,"M":45,"N":46,"O":47,"P":48,"Q":49,"R":50,"S":51,"T":52,"U":53,"V":54,"W":55,"X":56,"Y":57,"Z":58,"a":59,"b":60,"c":61,"d":62,"e":63,"f":64,"g":65,"h":66,"i":67,"j":68,"k":69,"l":70,"m":71,"n":72,"o":73,"p":74,"q":75,"r":76,"s":77,"t":78,"u":79,"v":80,"w":81,"x":82,"y":83,"z":84,"~":85,"§":86,"«":87,"®":88,"°":89,"²":90,"³":91,"´":92,"µ":93,"·":94,"»":95,"Á":96,"Ä":97,"Å":98,"Ç":99,"È":100,"É":101,"Í":102,"Ó":103,"Õ":104,"Ö":105,"×":106,"Ø":107,"Ú":108,"Ü":109,"à":110,"á":111,"â":112,"ã":113,"ä":114,"å":115,"ç":116,"è":117,"é":118,"ë":119,"í":120,"î":121,"ï":122,"ð":123,"ñ":124,"ò":125,"ó":126,"ô":127,"õ":128,"ö":129,"ø":130,"ú":131,"û":132,"ü":133,"ý":134,"ā":135,"ă":136,"Ć":137,"ć":138,"Č":139,"č":140,"Ď":141,"ď":142,"Đ":143,"đ":144,"ę":145,"ě":146,"ğ":147,"Ľ":148,"ľ":149,"ł":150,"ń":151,"ň":152,"Ő":153,"ő":154,"ř":155,"Ş":156,"ş":157,"Š":158,"š":159,"Ţ":160,"ţ":161,"ť":162,"Ű":163,"ű":164,"Ž":165,"ž":166,"Ș":167,"ș":168,"Ț":169,"ț":170,"ʼ":171,"́":172,"̈":173,"̋":174,"β":175,"μ":176,"‐":177,"‑":178,"‒":179,"–":180,"—":181,"‘":182,"’":183,"“":184,"”":185,"„":186,"†":187,"•":188,"…":189,"‼":190,"€":191,"−":192,"❗":193,"➡":194,"﷯":195,"️":196,"##e":197,"##l":198,"##h":199,"##á":200,"##b":201,"##o":202,"##r":203,"##í":204,"##t":205,"##ó":206,"##n":207,"##a":208,"##k":209,"##v":210,"##y":211,"##i":212,"##z":213,"##p":214,"##é":215,"##s":216,"##j":217,"##u":218,"##d":219,"##g":220,"##m":221,"##c":222,"##ö":223,"##ő":224,"##ü":225,"##6":226,"##0":227,"##4":228,"##f":229,"##ű":230,"##ú":231,"##E":232,"##F":233,"##A":234,"##7":235,"##8":236,"##5":237,"##9":238,"##2":239,"##3":240,"##N":241,"##S":242,"##J":243,"##ă":244,"##x":245,"##M":246,"##1":247,"##I":248,"##T":249,"##Q":250,"##B":251,"##D":252,"##w":253,"##q":254,"##K":255,"##L":256,"##č":257,"##ý":258,"##î":259,"##ţ":260,"##Z":261,"##U":262,"##O":263,"##ľ":264,"##P":265,"##R":266,"##G":267,"##ň":268,"##è":269,"##V":270,"##W":271,"##Á":272,"##.":273,"##Y":274,"##Í":275,"##H":276,"##:":277,"##„":278,"##C":279,"##ć":280,"##X":281,"##Ú":282,"##-":283,"##ë":284,"##É":285,"##”":286,"##́":287,"##,":288,"##ô":289,"##š":290,"##ș":291,"##)":292,"##ñ":293,"##\"":294,"##ž":295,"##û":296,"##ț":297,"##Ó":298,"##/":299,"##'":300,"##Ű":301,"##̋":302,"##̈":303,"##Ő":304,"##ę":305,"##õ":306,"##<":307,"##ě":308,"##!":309,"##â":310,"##ł":311,"##ø":312,"##ä":313,"##ş":314,"##å":315,"##ç":316,"##ř":317,"##ï":318,"##Ö":319,"##’":320,"##“":321,"##;":322,"##?":323,"##ò":324,"##~":325,"##†":326,"##ğ":327,"##ð":328,"##Ü":329,"##à":330,"##(":331,"##ť":332,"##…":333,"##Ț":334,"##ʼ":335,"##«":336,"##ã":337,"##–":338,"##ď":339,"##*":340,"##ń":341,"##>":342,"##+":343,"##đ":344,"##❗":345,"##Ľ":346,"##ā":347,"##et":348,"##el":349,"##en":350,"##sz":351,"##gy":352,"##er":353,"##at":354,"##an":355,"##ek":356,"##al":357,"az":358,"sz":359,"##ár":360,"##ak":361,"##on":362,"##or":363,"##ás":364,"##eg":365,"##in":366,"##em":367,"##ol":368,"##án":369,"##ál":370,"##tt":371,"##es":372,"##ok":373,"##ez":374,"##és":375,"el":376,"##ég":377,"##ik":378,"##ar":379,"##os":380,"##én":381,"##bb":382,"és":383,"##ér":384,"##ett":385,"##ül":386,"ho":387,"##ít":388,"is":389,"##át":390,"meg":391,"##ág":392,"egy":393,"##ap":394,"##ék":395,"kö":396,"hogy":397,"##oz":398,"##ban":399,"##ét":400,"##ed":401,"##él":402,"##agy":403,"##int":404,"##ott":405,"##ra":406,"##ben":407,"##szt":408,"##is":409,"##it":410,"##il":411,"##ta":412,"##ség":413,"##om":414,"##ad":415,"##ni":416,"##cs":417,"nem":418,"##ól":419,"##ul":420,"##re":421,"##ák":422,"##ja":423,"cs":424,"##áz":425,"##nk":426,"fel":427,"##og":428,"ki":429,"##ely":430,"köz":431,"szer":432,"##ig":433,"##aj":434,"##ai":435,"##nak":436,"##ent":437,"##ány":438,"##ság":439,"##am":440,"##ény":441,"le":442,"am":443,"##ám":444,"##ész":445,"##het":446,"##ag":447,"Az":448,"##ép":449,"##az":450,"##iz":451,"##nek":452,"ez":453,"##ot":454,"tö":455,"##ut":456,"##lt":457,"##olt":458,"##ny":459,"ak":460,"##ell":461,"ér":462,"al":463,"be":464,"##ci":465,"##ől":466,"##as":467,"##end":468,"min":469,"##us":470,"##ll":471,"##ért":472,"##hat":473,"##unk":474,"##ök":475,"##ro":476,"##ont":477,"##szág":478,"##ön":479,"##uk":480,"gy":481,"év":482,"##szer":483,"##art":484,"##áll":485,"##ók":486,"ny":487,"##egy":488,"##ud":489,"##od":490,"in":491,"##ött":492,"##ált":493,"jel":494,"##ond":495,"##av":496,"##ük":497,"##len":498,"kor":499,"volt":500,"de":501,"mind":502,"##ró":503,"##ov":504,"id":505,"##ert":506,"##vet":507,"##kö":508,"##vel":509,"##ább":510,"leg":511,"##agyar":512,"##ezet":513,"már":514,"##ában":515,"elő":516,"áll":517,"##att":518,"##rt":519,"szerint":520,"##áb":521,"es":522,"for":523,"##ep":524,"##erül":525,"##ly":526,"em":527,"##ab":528,"nagy":529,"##ej":530,"több":531,"##ént":532,"##ők":533,"##kal":534,"##te":535,"##ber":536,"mi":537,"##ős":538,"##ében":539,"##kez":540,"##ev":541,"##ív":542,"szám":543,"hely":544,"Sz":545,"ut":546,"##eket":547,"rend":548,"##olg":549,"20":550,"ad":551,"##atás":552,"##ia":553,"##elm":554,"##ill":555,"##ette":556,"##let":557,"val":558,"##val":559,"##koz":560,"er":561,"##ára":562,"##ország":563,"##ssz":564,"##okat":565,"száz":566,"##kor":567,"##asz":568,"##éz":569,"kap":570,"##oly":571,"lehet":572,"még":573,"##est":574,"azt":575,"##id":576,"##eszt":577,"tud":578,"van":579,"kell":580,"##iszt":581,"##áj":582,"ter":583,"##ció":584,"##alék":585,"##zet":586,"##rosz":587,"mint":588,"##éd":589,"##ítás":590,"százalék":591,"##ály":592,"##ése":593,"amely":594,"hi":595,"ar":596,"##esz":597,"##ják":598,"##ajd":599,"##hoz":600,"vagy":601,"##um":602,"##elő":603,"ped":604,"##ld":605,"##ünk":606,"más":607,"vég":608,"tart":609,"##aszt":610,"fog":611,"mag":612,"##ín":613,"##ony":614,"##ír":615,"új":616,"##mény":617,"pedig":618,"##ei":619,"##ély":620,"csak":621,"biz":622,"##öv":623,"##ról":624,"##árt":625,"##obb":626,"sem":627,"##ba":628,"##alm":629,"##ebb":630,"jelent":631,"##ést":632,"##mány":633,"tel":634,"##be":635,"Ez":636,"össz":637,"##ód":638,"##ve":639,"##ör":640,"hat":641,"##ió":642,"##ított":643,"nap":644,"##ked":645,"##ának":646,"##ort":647,"magyar":648,"kép":649,"##ást":650,"minden":651,"##ző":652,"ellen":653,"két":654,"kül":655,"át":656,"en":657,"##abb":658,"##ső":659,"vár":660,"##na":661,"##ére":662,"##ost":663,"##tet":664,"##nál":665,"##uró":666,"szem":667,"##da":668,"##nök":669,"##eh":670,"rész":671,"##nap":672,"azon":673,"hoz":674,"##ult":675,"##ások":676,"##ém":677,"ig":678,"or":679,"##ád":680,"##eres":681,"vál":682,"##őr":683,"orosz":684,"Egy":685,"majd":686,"mill":687,"kez":688,"##gyan":689,"##ható":690,"##leg":691,"##tek":692,"##ös":693,"##ug":694,"##esen":695,"mond":696,"követ":697,"##ték":698,"kör":699,"##im":700,"##ása":701,"##eny":702,"##alál":703,"##ós":704,"lesz":705,"##áció":706,"után":707,"##köz":708,"##ani":709,"##ovább":710,"ami":711,"##va":712,"##ház":713,"##ót":714,"fi":715,"mű":716,"##ilág":717,"##zés":718,"##ális":719,"ha":720,"##szak":721,"tám":722,"##ával":723,"##tak":724,"idő":725,"##isz":726,"##iv":727,"sok":728,"ár":729,"##hez":730,"##tat":731,"##ről":732,"##rán":733,"forint":734,"munk":735,"él":736,"vis":737,"Magyar":738,"foly":739,"##ch":740,"##íz":741,"ország":742,"##öz":743,"##dés":744,"##év":745,"tovább":746,"így":747,"##port":748,"lát":749,"##enn":750,"elm":751,"##ének":752,"##emény":753,"##osan":754,"##vezet":755,"##je":756,"alap":757,"##ikai":758,"202":759,"miatt":760,"##lyan":761,"bel":762,"##ból":763,"##atok":764,"##ült":765,"##mű":766,"##ki":767,"kormány":768,"##jel":769,"vezet":770,"között":771,"han":772,"ját":773,"##ur":774,"szak":775,"##kel":776,"##ölt":777,"úgy":778,"##uróp":779,"##for":780,"##eni":781,"##ján":782,"első":783,"kis":784,"olyan":785,"ember":786,"ugyan":787,"##lan":788,"an":789,"világ":790,"bizt":791,"##any":792,"jár":793,"##ogy":794,"##enek":795,"##állal":796,"tört":797,"ah":798,"uk":799,"ép":800,"##ir":801,"##utat":802,"##sági":803,"##önt":804,"aki":805,"most":806,"sor":807,"hét":808,"##vez":809,"##árs":810,"##erg":811,"##ből":812,"##ábor":813,"##ési":814,"##fel":815,"##ember":816,"##ügy":817,"##ként":818,"##atal":819,"##hető":820,"##eb":821,"##nyi":822,"##elt":823,"##öld":824,"##00":825,"##ási":826,"##erm":827,"##ület":828,"##őt":829,"élet":830,"kezd":831,"azonban":832,"vissz":833,"##old":834,"érd":835,"akkor":836,"##etlen":837,"##ontos":838,"hozz":839,"fej":840,"int":841,"##erült":842,"##raj":843,"##ellett":844,"valam":845,"##vény":846,"eset":847,"##úl":848,"##ász":849,"telj":850,"Nem":851,"##csol":852,"##ram":853,"##ikus":854,"##ikor":855,"##új":856,"kész":857,"##egít":858,"kér":859,"né":860,"##ór":861,"##ossz":862,"tan":863,"##kol":864,"##gész":865,"##fi":866,"##ések":867,"egyik":868,"ind":869,"##elmi":870,"##ob":871,"vált":872,"jó":873,"ism":874,"##pont":875,"##vár":876,"besz":877,"csap":878,"##st":879,"##eti":880,"##gat":881,"##juk":882,"##őz":883,"term":884,"mert":885,"##árom":886,"##adás":887,"##ló":888,"##árd":889,"##hely":890,"##étel":891,"##esít":892,"lak":893,"##áv":894,"##ind":895,"egész":896,"##ers":897,"##ével":898,"##eng":899,"segít":900,"##óz":901,"##ati":902,"##ták":903,"mondta":904,"##ját":905,"Magyarország":906,"##lő":907,"##ltal":908,"jelen":909,"igaz":910,"arra":911,"##elem":912,"##ank":913,"ukrán":914,"##últ":915,"szint":916,"pro":917,"##tö":918,"##azda":919,"##iszter":920,"külön":921,"csal":922,"ill":923,"ker":924,"##eked":925,"talál":926,"támog":927,"##aton":928,"szab":929,"##őség":930,"elnök":931,"##ökk":932,"##asznál":933,"ügy":934,"való":935,"vállal":936,"##sal":937,"##ütt":938,"##árm":939,"kapcsol":940,"állam":941,"dönt":942,"dolg":943,"saj":944,"##ezett":945,"üz":946,"##űn":947,"##ata":948,"fér":949,"##ekt":950,"##áború":951,"ok":952,"éves":953,"által":954,"##énz":955,"közös":956,"##arad":957,"##ásár":958,"##tel":959,"##erület":960,"nagyon":961,"játék":962,"visz":963,"előtt":964,"korább":965,"ol":966,"##nok":967,"fő":968,"emel":969,"##zel":970,"ott":971,"ezt":972,"##fog":973,"mellett":974,"##iárd":975,"##oló":976,"Európ":977,"har":978,"##vány":979,"##ri":980,"sik":981,"##ün":982,"##ező":983,"hal":984,"haz":985,"három":986,"##ink":987,"együtt":988,"##and":989,"millió":990,"19":991,"##dig":992,"ben":993,"##ették":994,"##ács":995,"érdek":996,"##úly":997,"##ését":998,"##oll":999,"men":1000,"gond":1001,"Cs":1002,"##utó":1003,"akik":1004,"háború":1005,"nő":1006,"##izet":1007,"család":1008,"Uk":1009,"##jár":1010,"##atot":1011,"##atkoz":1012,"##kod":1013,"##után":1014,"##un":1015,"##ából":1016,"alatt":1017,"##lát":1018,"##erek":1019,"energ":1020,"ered":1021,"kom":1022,"##ába":1023,"mér":1024,"##op":1025,"##szerű":1026,"cég":1027,"##ván":1028,"##emel":1029,"alkal":1030,"milliárd":1031,"ked":1032,"cél":1033,"amikor":1034,"##incs":1035,"Ukraj":1036,"##olit":1037,"##ezte":1038,"kon":1039,"##anak":1040,"pénz":1041,"##ors":1042,"##lal":1043,"közel":1044,"bet":1045,"##gg":1046,"ezer":1047,"fél":1048,"##tó":1049,"##ettek":1050,"##rog":1051,"érték":1052,"ed":1053,"vol":1054,"##éter":1055,"ír":1056,"##inek":1057,"##észt":1058,"##kép":1059,"##tam":1060,"érkez":1061,"##jelent":1062,"re":1063,"hang":1064,"pél":1065,"##up":1066,"megt":1067,"##séges":1068,"##ozás":1069,"csökk":1070,"nek":1071,"##ic":1072,"ért":1073,"történ":1074,"##vis":1075,"##usz":1076,"következ":1077,"##szín":1078,"illet":1079,"##ító":1080,"helyzet":1081,"össze":1082,"##ran":1083,"##kül":1084,"##ozott":1085,"hó":1086,"##iai":1087,"##dő":1088,"figy":1089,"keres":1090,"##ily":1091,"szeret":1092,"szerep":1093,"##amat":1094,"vesz":1095,"hisz":1096,"##véd":1097,"##ip":1098,"##alom":1099,"Orosz":1100,"véd":1101,"város":1102,"számára":1103,"választ":1104,"##form":1105,"szük":1106,"ház":1107,"per":1108,"##enc":1109,"##eken":1110,"##ac":1111,"##erseny":1112,"An":1113,"old":1114,"tör":1115,"terület":1116,"biztos":1117,"##zs":1118,"##fl":1119,"lép":1120,"##ségi":1121,"von":1122,"##izs":1123,"miniszter":1124,"##rány":1125,"ahol":1126,"##gel":1127,"szolg":1128,"másod":1129,"##ilyen":1130,"##tatás":1131,"##oh":1132,"##leszt":1133,"péld":1134,"##omb":1135,"##lyen":1136,"százalékkal":1137,"arról":1138,"valamint":1139,"##oszt":1140,"##alán":1141,"vezető":1142,"te":1143,"megy":1144,"jöv":1145,"én":1146,"hónap":1147,"##ását":1148,"gazda":1149,"Oroszország":1150,"##enne":1151,"vissza":1152,"##fő":1153,"##nél":1154,"nev":1155,"jog":1156,"##lat":1157,"##le":1158,"##ozó":1159,"##ozat":1160,"##öl":1161,"##dul":1162,"##ing":1163,"tár":1164,"##esség":1165,"##ium":1166,"##íg":1167,"##omány":1168,"intéz":1169,"dél":1170,"szín":1171,"erős":1172,"##ően":1173,"felh":1174,"amit":1175,"##almaz":1176,"közölt":1177,"személy":1178,"beszél":1179,"ment":1180,"rendszer":1181,"tag":1182,"##ög":1183,"nemzet":1184,"10":1185,"201":1186,"##uszt":1187,"négy":1188,"bal":1189,"Ha":1190,"költ":1191,"##ermek":1192,"marad":1193,"rendőr":1194,"körül":1195,"##enni":1196,"nyug":1197,"volna":1198,"##város":1199,"pár":1200,"##okban":1201,"hozzá":1202,"##rend":1203,"##ekben":1204,"##bl":1205,"határ":1206,"kil":1207,"##ciók":1208,"##rogram":1209,"ne":1210,"kapcsolat":1211,"haj":1212,"Or":1213,"út":1214,"eredmény":1215,"mely":1216,"közl":1217,"hiszen":1218,"rá":1219,"tav":1220,"Mi":1221,"nyil":1222,"hiv":1223,"Gy":1224,"cí":1225,"fontos":1226,"##ari":1227,"##lék":1228,"óta":1229,"polit":1230,"Nagy":1231,"ilyen":1232,"pont":1233,"műkö":1234,"lét":1235,"##úz":1236,"##tart":1237,"viszont":1238,"ugyanis":1239,"##jabb":1240,"##elet":1241,"##ául":1242,"legn":1243,"##űz":1244,"ezért":1245,"tér":1246,"##ec":1247,"##út":1248,"##akor":1249,"15":1250,"kerül":1251,"##tól":1252,"kev":1253,"##élkül":1254,"illetve":1255,"##éb":1256,"száll":1257,"verseny":1258,"alkalm":1259,"##ekkel":1260,"##ítani":1261,"ma":1262,"##iac":1263,"##udap":1264,"szó":1265,"kar":1266,"Mind":1267,"##rób":1268,"##izsg":1269,"##udapest":1270,"öt":1271,"##aly":1272,"Am":1273,"növ":1274,"neh":1275,"##osz":1276,"##nő":1277,"férfi":1278,"hagy":1279,"##ket":1280,"##hon":1281,"##oport":1282,"##sége":1283,"jelenleg":1284,"társ":1285,"lehetőség":1286,"##ája":1287,"kiv":1288,"##érték":1289,"hanem":1290,"hír":1291,"pály":1292,"##ajnok":1293,"nincs":1294,"##ügg":1295,"mutat":1296,"##ször":1297,"##sel":1298,"##ítés":1299,"##dött":1300,"túl":1301,"annak":1302,"elmúlt":1303,"##pen":1304,"gáz":1305,"st":1306,"lett":1307,"magas":1308,"In":1309,"alak":1310,"második":1311,"szól":1312,"jövő":1313,"##osság":1314,"##ezés":1315,"Köz":1316,"használ":1317,"##ívül":1318,"##séget":1319,"nyom":1320,"emelked":1321,"kit":1322,"##ogat":1323,"##ológ":1324,"##ügyi":1325,"jav":1326,"##esebb":1327,"bizony":1328,"képvis":1329,"##só":1330,"##jük":1331,"##tört":1332,"##epül":1333,"##ocs":1334,"##fej":1335,"##szám":1336,"##ne":1337,"##alak":1338,"itt":1339,"például":1340,"támogatás":1341,"##essz":1342,"gyermek":1343,"##lag":1344,"eddig":1345,"##otta":1346,"táv":1347,"##ant":1348,"mód":1349,"##ített":1350,"##ottak":1351,"##ozz":1352,"##ester":1353,"jobb":1354,"##erikai":1355,"irány":1356,"##íj":1357,"##elés":1358,"akár":1359,"##ef":1360,"jelentős":1361,"közölte":1362,"##adó":1363,"program":1364,"euró":1365,"##övet":1366,"##ason":1367,"##ang":1368,"megh":1369,"akar":1370,"elmond":1371,"saját":1372,"##agyobb":1373,"br":1374,"##fél":1375,"##émet":1376,"nélkül":1377,"par":1378,"##zett":1379,"##ttal":1380,"legnagyobb":1381,"csapat":1382,"rég":1383,"##üz":1384,"nagyobb":1385,"okoz":1386,"##bbi":1387,"gondol":1388,"##sor":1389,"ör":1390,"megsz":1391,"hossz":1392,"azért":1393,"##ással":1394,"##elnök":1395,"amerikai":1396,"##min":1397,"vél":1398,"##eli":1399,"kés":1400,"százalékos":1401,"##ass":1402,"##őv":1403,"korábban":1404,"El":1405,"vannak":1406,"##ához":1407,"##áról":1408,"##mad":1409,"jól":1410,"##észet":1411,"ór":1412,"vid":1413,"##ította":1414,"fiatal":1415,"mindig":1416,"tiszt":1417,"kérdés":1418,"történt":1419,"ban":1420,"doll":1421,"esz":1422,"szabad":1423,"##dik":1424,"néh":1425,"katon":1426,"##nal":1427,"##föld":1428,"foglal":1429,"##ásra":1430,"##tár":1431,"##bben":1432,"rendel":1433,"tavaly":1434,"elh":1435,"##okkal":1436,"##újt":1437,"##mér":1438,"##tal":1439,"##arát":1440,"során":1441,"##ess":1442,"##egyed":1443,"any":1444,"szemben":1445,"##ter":1446,"##jt":1447,"reg":1448,"vas":1449,"##eztet":1450,"##iség":1451,"2022":1452,"érint":1453,"##esült":1454,"##üntet":1455,"csökkent":1456,"körny":1457,"megv":1458,"hazai":1459,"##almas":1460,"fejleszt":1461,"12":1462,"##atlan":1463,"##anyag":1464,"##éről":1465,"néz":1466,"teljes":1467,"##uty":1468,"újra":1469,"##ex":1470,"dolgoz":1471,"##ull":1472,"##előtt":1473,"részt":1474,"bizton":1475,"##súly":1476,"En":1477,"##tor":1478,"amelyek":1479,"##chn":1480,"##közi":1481,"legy":1482,"##oknak":1483,"alapján":1484,"##all":1485,"##ism":1486,"De":1487,"idén":1488,"Er":1489,"jegy":1490,"##vétel":1491,"folyamat":1492,"perc":1493,"##ck":1494,"bef":1495,"Szer":1496,"##egyv":1497,"##izsgál":1498,"##uár":1499,"elér":1500,"##urópai":1501,"Ny":1502,"szav":1503,"##ris":1504,"infl":1505,"időszak":1506,"vel":1507,"##ékoz":1508,"európai":1509,"másik":1510,"##ói":1511,"felt":1512,"figyelm":1513,"nép":1514,"uta":1515,"autó":1516,"##eit":1517,"fizet":1518,"##jában":1519,"találkoz":1520,"gyerek":1521,"##von":1522,"##őbb":1523,"##nn":1524,"##ekre":1525,"kín":1526,"##pr":1527,"##ánt":1528,"##ésre":1529,"forg":1530,"vásár":1531,"##itk":1532,"gyors":1533,"30":1534,"víz":1535,"közül":1536,"Al":1537,"##cia":1538,"újabb":1539,"##itel":1540,"##ogyaszt":1541,"##öt":1542,"fok":1543,"egyre":1544,"kam":1545,"oszt":1546,"##ord":1547,"##zal":1548,"##ment":1549,"egym":1550,"##állítás":1551,"hatás":1552,"##ója":1553,"##ájékoz":1554,"##acs":1555,"##ilm":1556,"kereszt":1557,"##ics":1558,"##ekint":1559,"adat":1560,"Meg":1561,"ál":1562,"Budapest":1563,"##etem":1564,"tűz":1565,"##író":1566,"##csak":1567,"18":1568,"elv":1569,"játsz":1570,"emlék":1571,"folytat":1572,"moz":1573,"készül":1574,"került":1575,"lenne":1576,"Ukrajn":1577,"jut":1578,"adott":1579,"önk":1580,"##ációs":1581,"beteg":1582,"##ay":1583,"##bban":1584,"energia":1585,"negyed":1586,"##jai":1587,"dr":1588,"hason":1589,"##zék":1590,"ezzel":1591,"kellett":1592,"##ti":1593,"harmad":1594,"##ején":1595,"##eknek":1596,"elt":1597,"##óság":1598,"##rec":1599,"##erős":1600,"##írus":1601,"átlag":1602,"szolgált":1603,"utol":1604,"további":1605,"##ern":1606,"##gyel":1607,"Európai":1608,"míg":1609,"##ub":1610,"tervez":1611,"hivatal":1612,"rendelkez":1613,"##ón":1614,"egyéb":1615,"##ütört":1616,"##ütörtök":1617,"tesz":1618,"kösz":1619,"Már":1620,"##pl":1621,"##eset":1622,"dollár":1623,"Em":1624,"##ottság":1625,"##inak":1626,"##ulajd":1627,"voltak":1628,"##blém":1629,"##kot":1630,"tett":1631,"##mal":1632,"##ral":1633,"##kész":1634,"##di":1635,"megold":1636,"##ulajdon":1637,"megfel":1638,"föld":1639,"néhány":1640,"piac":1641,"gyakor":1642,"##hatnak":1643,"ám":1644,"kih":1645,"támogat":1646,"tölt":1647,"##elen":1648,"pént":1649,"semm":1650,"##lott":1651,"szél":1652,"##ezni":1653,"##omán":1654,"##rat":1655,"##okon":1656,"##aság":1657,"##róbál":1658,"növeked":1659,"25":1660,"##eség":1661,"megk":1662,"##ákat":1663,"##évő":1664,"továbbra":1665,"szervezet":1666,"követően":1667,"kl":1668,"ön":1669,"Nemzet":1670,"csat":1671,"elmondta":1672,"szükség":1673,"teljesít":1674,"problém":1675,"##ították":1676,"had":1677,"##ánk":1678,"##ásokat":1679,"halál":1680,"##vas":1681,"győz":1682,"termék":1683,"lég":1684,"##zi":1685,"##ong":1686,"##ür":1687,"11":1688,"mik":1689,"munka":1690,"polg":1691,"##leges":1692,"##ha":1693,"közt":1694,"##des":1695,"##erő":1696,"ber":1697,"kid":1698,"Ukrajna":1699,"veszély":1700,"##ukat":1701,"ennek":1702,"szület":1703,"##azd":1704,"tárgy":1705,"aut":1706,"##nnep":1707,"##ókat":1708,"milyen":1709,"azzal":1710,"##eget":1711,"súly":1712,"##ika":1713,"megáll":1714,"függ":1715,"raj":1716,"##áló":1717,"##ark":1718,"gazdasági":1719,"tekint":1720,"##ormány":1721,"nehéz":1722,"képviselő":1723,"##nny":1724,"##ítása":1725,"alkalmaz":1726,"Áll":1727,"Azt":1728,"mivel":1729,"belül":1730,"13":1731,"##ih":1732,"##atív":1733,"szen":1734,"##mel":1735,"##uló":1736,"##jegy":1737,"rendez":1738,"tette":1739,"test":1740,"##rel":1741,"szeretn":1742,"ink":1743,"csoport":1744,"ismert":1745,"korábbi":1746,"##endég":1747,"kapott":1748,"##uház":1749,"##olni":1750,"elég":1751,"##vezető":1752,"szabály":1753,"eszköz":1754,"##lás":1755,"szül":1756,"ezek":1757,"14":1758,"ünnep":1759,"##akat":1760,"##akkor":1761,"##lés":1762,"##alt":1763,"##orv":1764,"elfog":1765,"következő":1766,"kór":1767,"##őzés":1768,"##ete":1769,"##árnap":1770,"alá":1771,"Egyesült":1772,"uni":1773,"bejelent":1774,"komoly":1775,"költség":1776,"igény":1777,"otthon":1778,"##ítja":1779,"csütörtök":1780,"képest":1781,"sport":1782,"##ept":1783,"iskol":1784,"##bán":1785,"##éhez":1786,"szank":1787,"felad":1788,"##szik":1789,"##áját":1790,"őket":1791,"##ánd":1792,"inkább":1793,"##gal":1794,"eng":1795,"teh":1796,"##ítette":1797,"inform":1798,"barát":1799,"tal":1800,"##ánc":1801,"felel":1802,"##műv":1803,"##ene":1804,"azok":1805,"erő":1806,"16":1807,"bajnok":1808,"emberek":1809,"im":1810,"helyi":1811,"tulajdon":1812,"##of":1813,"##talan":1814,"könny":1815,"vide":1816,"megfelelő":1817,"vendég":1818,"miniszterelnök":1819,"utolsó":1820,"Mint":1821,"##itt":1822,"különb":1823,"tíz":1824,"##ános":1825,"##amar":1826,"egyes":1827,"lap":1828,"oldal":1829,"fordul":1830,"Magyarországon":1831,"kat":1832,"##átt":1833,"száma":1834,"##ári":1835,"magát":1836,"2021":1837,"##uh":1838,"##ús":1839,"koron":1840,"aján":1841,"bár":1842,"##éssel":1843,"##olc":1844,"változ":1845,"##követ":1846,"di":1847,"fenn":1848,"##jobb":1849,"##ésére":1850,"as":1851,"rossz":1852,"utc":1853,"##ormányz":1854,"üzlet":1855,"foglalkoz":1856,"##oldal":1857,"zár":1858,"sikerült":1859,"##ron":1860,"hasonló":1861,"##élet":1862,"helyszín":1863,"##álat":1864,"ellát":1865,"##ságot":1866,"fogyaszt":1867,"elem":1868,"##assz":1869,"várható":1870,"els":1871,"köt":1872,"mintegy":1873,"##gyű":1874,"Ar":1875,"part":1876,"épít":1877,"Orbán":1878,"##ármester":1879,"##sér":1880,"techn":1881,"##gr":1882,"megb":1883,"köszön":1884,"hát":1885,"##sék":1886,"energi":1887,"nyilván":1888,"harmadik":1889,"ismét":1890,"Péter":1891,"##nai":1892,"##öm":1893,"##óta":1894,"Ki":1895,"édes":1896,"legjobb":1897,"cím":1898,"fegyv":1899,"tájékoz":1900,"vizsgál":1901,"érdekében":1902,"##előre":1903,"infláció":1904,"szív":1905,"##lam":1906,"##úg":1907,"##ellem":1908,"##őket":1909,"tűn":1910,"##érium":1911,"legal":1912,"enged":1913,"##haj":1914,"szomb":1915,"##ották":1916,"nemzetközi":1917,"mérték":1918,"##usban":1919,"##ka":1920,"szervez":1921,"##szab":1922,"lány":1923,"##jon":1924,"##ektet":1925,"##iskol":1926,"hiány":1927,"segítség":1928,"bűn":1929,"neki":1930,"utó":1931,"##rás":1932,"lévő":1933,"válasz":1934,"szavaz":1935,"számít":1936,"##eteg":1937,"##ügymin":1938,"mérk":1939,"hív":1940,"állap":1941,"esemény":1942,"fogalmaz":1943,"Állam":1944,"##jának":1945,"##ezt":1946,"##utatás":1947,"hétfő":1948,"bank":1949,"érdem":1950,"ára":1951,"##úcs":1952,"elleni":1953,"később":1954,"szerző":1955,"##izt":1956,"erre":1957,"##aszn":1958,"kórház":1959,"##hetnek":1960,"##ehér":1961,"vasárnap":1962,"##inál":1963,"##ist":1964,"zs":1965,"##ógy":1966,"##okra":1967,"hol":1968,"közösségi":1969,"törvény":1970,"évben":1971,"##üket":1972,"##nem":1973,"200":1974,"épület":1975,"nyit":1976,"egészség":1977,"uniós":1978,"kik":1979,"##ista":1980,"##nia":1981,"ismer":1982,"tap":1983,"##rom":1984,"##iában":1985,"##SZ":1986,"##lov":1987,"##ens":1988,"párt":1989,"évvel":1990,"##úr":1991,"hosszú":1992,"éve":1993,"MT":1994,"Puty":1995,"##mények":1996,"természet":1997,"önkormányz":1998,"mit":1999,"vállalkoz":2000,"mod":2001,"##ock":2002,").":2003,"17":2004,"##ségek":2005,"##abd":2006,"című":2007,"ap":2008,"német":2009,"##szolg":2010,"Ist":2011,"##nyv":2012,"##ovember":2013,"helyett":2014,"##asztal":2015,"##lak":2016,"##tag":2017,"tanul":2018,"##öző":2019,"létre":2020,"járvány":2021,"vád":2022,"##áig":2023,"##adásul":2024,"##színű":2025,"közlemény":2026,"##erj":2027,"miután":2028,"megállap":2029,"##átette":2030,"sokkal":2031,"szintén":2032,"Vik":2033,"##áp":2034,"##ékeny":2035,"##ozta":2036,"amelyet":2037,"##hetően":2038,"kí":2039,"##kívül":2040,"lev":2041,"##földi":2042,"##edett":2043,"végül":2044,"üt":2045,"##özben":2046,"teljesen":2047,"nyilatkoz":2048,"fert":2049,"film":2050,"##avírus":2051,"##olta":2052,"##bert":2053,"##enet":2054,"jelentette":2055,"##övid":2056,"ukraj":2057,"ellenére":2058,"ukrajnai":2059,"##lin":2060,"képes":2061,"##kkor":2062,"##éseket":2063,"##elmiszer":2064,"keresztül":2065,"Ezt":2066,"24":2067,"##lik":2068,"üzem":2069,"nőtt":2070,"tem":2071,"biztonság":2072,"Putyin":2073,"múlt":2074,"előre":2075,"kisebb":2076,"##ásban":2077,"lel":2078,"án":2079,"##foly":2080,"##ébe":2081,"##hetetlen":2082,"),":2083,"##isztérium":2084,"környezet":2085,"##eptember":2086,"abban":2087,"##elni":2088,"##áltak":2089,"összeg":2090,"koronavírus":2091,"része":2092,"játékos":2093,"50":2094,"bőv":2095,"mell":2096,"##mond":2097,"áld":2098,"közép":2099,"dec":2100,"sp":2101,"##jából":2102,"számos":2103,"##fit":2104,"##szor":2105,"##riss":2106,"gól":2107,"megl":2108,"##encs":2109,"##heti":2110,"sér":2111,"tény":2112,"gyárt":2113,"form":2114,"intézked":2115,"”.":2116,"szig":2117,"települ":2118,"##nyire":2119,"rak":2120,"vez":2121,"este":2122,"2020":2123,"##tóber":2124,"oldalán":2125,"reggel":2126,"felelős":2127,"##ászló":2128,"Bal":2129,"##meg":2130,"helyen":2131,"##ait":2132,"végén":2133,"legyen":2134,"ex":2135,"küz":2136,"##áros":2137,"##ezték":2138,"szerd":2139,"élelmiszer":2140,"Mar":2141,"##engyel":2142,"végre":2143,"állt":2144,"##ától":2145,"##per":2146,"##nyit":2147,"héten":2148,"##telen":2149,"gép":2150,"##adt":2151,"éppen":2152,"javas":2153,"##ettel":2154,"##országi":2155,"fot":2156,"baleset":2157,"##ői":2158,"nyújt":2159,"vállalat":2160,"gazdaság":2161,"kapcsolatban":2162,"vonatkoz":2163,"november":2164,"##től":2165,"##átor":2166,"részlet":2167,"december":2168,"##díj":2169,"Ennek":2170,"het":2171,"##hogy":2172,"olaj":2173,"100":2174,"fin":2175,"olt":2176,"##ására":2177,"##iaci":2178,"anyag":2179,"utaz":2180,"legalább":2181,"kötel":2182,"ide":2183,"fogad":2184,"##uguszt":2185,"től":2186,"##get":2187,"hall":2188,"felhasznál":2189,"közleked":2190,"nyert":2191,"##ejt":2192,"ebben":2193,"##üt":2194,"##ized":2195,"katonai":2196,"egyébként":2197,"Fer":2198,"##af":2199,"##pal":2200,"szor":2201,"MTI":2202,"##den":2203,"##ilis":2204,"##igaz":2205,"bem":2206,"kívül":2207,"##öbb":2208,"évek":2209,"százaléka":2210,"Európa":2211,"érkezett":2212,"hangsúly":2213,"##acsony":2214,"##ékony":2215,"csökken":2216,"tárgyal":2217,"40":2218,"menek":2219,"##ion":2220,"##elek":2221,"szép":2222,"##álták":2223,"arány":2224,"##mag":2225,"felé":2226,"műsor":2227,"EU":2228,"észak":2229,"szövet":2230,"legf":2231,"keret":2232,"keresked":2233,"veszt":2234,"ének":2235,"egyelőre":2236,"Br":2237,"írta":2238,"legtö":2239,"bér":2240,"rendőrség":2241,"Kr":2242,"rövid":2243,"##ítő":2244,"szakember":2245,"And":2246,"előző":2247,"írja":2248,"beszélt":2249,"Most":2250,"esetében":2251,"szükséges":2252,"NA":2253,"##utt":2254,"##enger":2255,"##ágy":2256,"szeptember":2257,"mindenki":2258,"szenv":2259,"pill":2260,"álló":2261,"##lament":2262,"##örgy":2263,"hatóság":2264,"szolgáltatás":2265,"súlyos":2266,"##rd":2267,"egyen":2268,"gyű":2269,"kezdő":2270,"Viktor":2271,"##őleg":2272,"orv":2273,"##rancia":2274,"Deb":2275,"kény":2276,"##ört":2277,"##ezs":2278,"##adék":2279,"##ulás":2280,"kir":2281,"ezen":2282,"##endő":2283,"először":2284,"próbál":2285,"##jét":2286,"##íts":2287,"##csap":2288,"kevesebb":2289,"##ogatott":2290,"brit":2291,"terv":2292,"vagyok":2293,"október":2294,"délután":2295,"##városi":2296,"##eccs":2297,"forintot":2298,"ahogy":2299,"##énk":2300,"##két":2301,"elnöke":2302,"fogalmazott":2303,"kialak":2304,"##hatja":2305,"harc":2306,"hitel":2307,"##íteni":2308,"esetben":2309,"##gatlan":2310,"valószínű":2311,"polgármester":2312,"fut":2313,"##ebr":2314,"utóbbi":2315,"Zs":2316,"haszn":2317,"hogyan":2318,"St":2319,"##övel":2320,"##sze":2321,"Debrec":2322,"szinte":2323,"konc":2324,"##védelmi":2325,"##polg":2326,"##ereg":2327,"##határ":2328,"Ugyan":2329,"tev":2330,"##éből":2331,"szok":2332,"kéz":2333,"megm":2334,"##itás":2335,"##ünet":2336,"drág":2337,"##úttal":2338,"akt":2339,"ford":2340,"ugyanakkor":2341,"##ológiai":2342,"kiemel":2343,"megyei":2344,"idei":2345,"##országban":2346,"azonnal":2347,"szakért":2348,"##efon":2349,"László":2350,"zaj":2351,"nyolc":2352,"támad":2353,"Nemzeti":2354,"tehát":2355,"##őben":2356,"##land":2357,"olvas":2358,"beruház":2359,"##orban":2360,"##nyiség":2361,"##gép":2362,"alkot":2363,"bék":2364,"##zése":2365,"poz":2366,"##ője":2367,"vet":2368,"##ítják":2369,"kifej":2370,"orvos":2371,"auguszt":2372,"##he":2373,"##úsz":2374,"elején":2375,"idej":2376,"repül":2377,"##űt":2378,"##álni":2379,"rendkívül":2380,"szakm":2381,"21":2382,"hál":2383,"ezelőtt":2384,"szankciók":2385,"ip":2386,"pénteken":2387,"bárm":2388,"kív":2389,"írt":2390,"Úgy":2391,"##gazda":2392,"##oha":2393,"kevés":2394,"egyszer":2395,"##omag":2396,"hamar":2397,"egyszerű":2398,"##óban":2399,"viszony":2400,"##ismer":2401,"##fizet":2402,"korlát":2403,"##úli":2404,"siker":2405,"mérkőzés":2406,"##ebruár":2407,"tevékeny":2408,"benne":2409,"díj":2410,"fr":2411,"eljár":2412,"közben":2413,"##attal":2414,"bele":2415,"politikai":2416,"vele":2417,"Hozz":2418,"##érte":2419,"gyan":2420,"áram":2421,"##ációk":2422,"##ner":2423,"érdemes":2424,"tapasztal":2425,"hon":2426,"##tunk":2427,"##szk":2428,"rendőrök":2429,"bíró":2430,"##hi":2431,"##ulat":2432,"intézmény":2433,"Minden":2434,"megjel":2435,"Szab":2436,"##ekv":2437,"##rod":2438,"történet":2439,"Bár":2440,"óra":2441,"cik":2442,"éj":2443,"egyed":2444,"##almi":2445,"kedv":2446,"fenntart":2447,"gyógy":2448,"miközben":2449,"István":2450,"##uta":2451,"iz":2452,"ingatlan":2453,"tenger":2454,"##uz":2455,"##arab":2456,"egyetlen":2457,"növel":2458,"##tized":2459,"##vég":2460,"##elte":2461,"mozg":2462,"csütörtökön":2463,"rem":2464,"tudja":2465,"részvény":2466,"döntött":2467,"##ilag":2468,"##izen":2469,"##ultak":2470,"tanács":2471,"folyamatosan":2472,"Ferenc":2473,"őr":2474,"##hhez":2475,"##rag":2476,"mindent":2477,"##atták":2478,"gazd":2479,"on":2480,"kics":2481,"közvet":2482,"érdeklő":2483,"Ezek":2484,"proj":2485,"politikus":2486,"##ím":2487,"##össz":2488,"##ítottak":2489,"##gyek":2490,"##anuár":2491,"##ina":2492,"annyi":2493,"at":2494,"##itány":2495,"alkalom":2496,"jobban":2497,"pillan":2498,"sokat":2499}}}