{"version":"1.0","truncation":null,"padding":null,"added_tokens":[{"id":0,"special":true,"content":"<UNK>","single_word":false,"lstrip":false,"rstrip":false,"normalized":false},{"id":1,"special":true,"content":"<SEP>","single_word":false,"lstrip":false,"rstrip":false,"normalized":false},{"id":2,"special":true,"content":"<MASK>","single_word":false,"lstrip":false,"rstrip":false,"normalized":false},{"id":3,"special":true,"content":"<CLS>","single_word":false,"lstrip":false,"rstrip":false,"normalized":false}],"normalizer":null,"pre_tokenizer":{"type":"Whitespace"},"post_processor":null,"decoder":null,"model":{"type":"BPE","dropout":null,"unk_token":"<UNK>","continuing_subword_prefix":null,"end_of_word_suffix":null,"fuse_unk":false,"vocab":{"<UNK>":0,"<SEP>":1,"<MASK>":2,"<CLS>":3,"!":4,"\"":5,"$":6,"%":7,"&":8,"'":9,"(":10,")":11,"*":12,"+":13,",":14,"-":15,".":16,"/":17,"0":18,"1":19,"2":20,"3":21,"4":22,"5":23,"6":24,"7":25,"8":26,"9":27,":":28,";":29,"<":30,">":31,"?":32,"A":33,"B":34,"C":35,"D":36,"E":37,"F":38,"G":39,"H":40,"I":41,"J":42,"K":43,"L":44,"M":45,"N":46,"O":47,"P":48,"Q":49,"R":50,"S":51,"T":52,"U":53,"V":54,"W":55,"X":56,"Y":57,"Z":58,"`":59,"a":60,"b":61,"c":62,"d":63,"e":64,"f":65,"g":66,"h":67,"i":68,"j":69,"k":70,"l":71,"m":72,"n":73,"o":74,"p":75,"q":76,"r":77,"s":78,"t":79,"u":80,"v":81,"w":82,"x":83,"y":84,"z":85,"~":86,"¢":87,"£":88,"¤":89,"¥":90,"¦":91,"§":92,"«":93,"®":94,"¯":95,"°":96,"±":97,"²":98,"³":99,"´":100,"·":101,"¹":102,"»":103,"¼":104,"½":105,"¾":106,"À":107,"Ä":108,"Å":109,"É":110,"Í":111,"Î":112,"Ó":113,"Ö":114,"×":115,"Þ":116,"ß":117,"à":118,"á":119,"â":120,"ã":121,"ä":122,"å":123,"æ":124,"ç":125,"è":126,"é":127,"ê":128,"ë":129,"í":130,"î":131,"ï":132,"ð":133,"ñ":134,"ó":135,"ô":136,"õ":137,"ö":138,"ø":139,"ú":140,"ü":141,"Ā":142,"ā":143,"ă":144,"ć":145,"Č":146,"č":147,"ē":148,"ğ":149,"Ġ":150,"ġ":151,"ħ":152,"İ":153,"ı":154,"Ľ":155,"ł":156,"ń":157,"ņ":158,"ō":159,"œ":160,"ş":161,"š":162,"ţ":163,"ū":164,"Ÿ":165,"Ż":166,"ż":167,"Ž":168,"ž":169,"ƅ":170,"ț":171,"ȼ":172,"ɑ":173,"ʏ":174,"ʻ":175,"ʼ":176,"˚":177,"˜":178,"́":179,"β":180,"γ":181,"Ё":182,"Ђ":183,"Ѓ":184,"І":185,"Ј":186,"Њ":187,"Ў":188,"А":189,"Г":190,"П":191,"Р":192,"Т":193,"У":194,"Ш":195,"Щ":196,"Ъ":197,"Ь":198,"Э":199,"Ю":200,"Я":201,"а":202,"б":203,"г":204,"д":205,"е":206,"ж":207,"о":208,"с":209,"т":210,"у":211,"ю":212,"я":213,"ђ":214,"ѓ":215,"ѕ":216,"і":217,"њ":218,"ќ":219,"ў":220,"џ":221,"қ":222,"һ":223,"օ":224,"א":225,"ב":226,"ד":227,"ה":228,"ו":229,"י":230,"ל":231,"ם":232,"מ":233,"נ":234,"ע":235,"צ":236,"ק":237,"ש":238,"ת":239,"ن":240,"ߋ":241,"ं":242,"अ":243,"क":244,"घ":245,"च":246,"ट":247,"ड":248,"त":249,"न":250,"ब":251,"म":252,"य":253,"र":254,"ल":255,"श":256,"स":257,"ा":258,"ि":259,"ी":260,"ु":261,"े":262,"्":263,"က":264,"င":265,"ည":266,"တ":267,"န":268,"ပ":269,"ဖ":270,"မ":271,"ရ":272,"လ":273,"သ":274,"အ":275,"ါ":276,"ာ":277,"ိ":278,"ု":279,"ေ":280,"်":281,"ြ":282,"ွ":283,"ှ":284,"ᥙ":285,"ᴠ":286,"ḥ":287,"‎":288,"‐":289,"‑":290,"–":291,"—":292,"‘":293,"’":294,"‚":295,"“":296,"”":297,"„":298,"‡":299,"•":300,"․":301,"…":302,"‪":303,"‰":304,"′":305,"″":306,"›":307,"‼":308,"⁠":309,"⁣":310,"₁":311,"₦":312,"€":313,"₵":314,"₹":315,"™":316,"ⅼ":317,"−":318,"─":319,"├":320,"┬":321,"╕":322,"╖":323,"▪":324,"◆":325,"☺":326,"⚽":327,"⛓":328,"✨":329,"❌":330,"❤":331,"➡":332,"ー":333,"化":334,"地":335,"暖":336,"温":337,"球":338,"ﬁ":339,"️":340,"﻿":341,"－":342,"ｅ":343,"th":344,"in":345,"er":346,"an":347,"the":348,"on":349,"re":350,"at":351,"en":352,"or":353,"st":354,"ed":355,"al":356,"ing":357,"to":358,"ou":359,"ar":360,"is":361,"and":362,"es":363,"as":364,"it":365,"of":366,"ic":367,"le":368,"he":369,"om":370,"ion":371,"ent":372,"il":373,"id":374,"be":375,"ve":376,"ac":377,"se":378,"ad":379,"for":380,"ay":381,"ow":382,"ly":383,"ro":384,"ch":385,"am":386,"ol":387,"wh":388,"that":389,"ver":390,"ir":391,"im":392,"ur":393,"ot":394,"ig":395,"un":396,"are":397,"ith":398,"ut":399,"The":400,"ers":401,"et":402,"ill":403,"ce":404,"with":405,"ct":406,"ation":407,"us":408,"de":409,"con":410,"ag":411,"op":412,"we":413,"ha":414,"ab":415,"ne":416,"ere":417,"res":418,"com":419,"li":420,"em":421,"ter":422,"lo":423,"was":424,"pe":425,"sa":426,"all":427,"ld":428,"tr":429,"our":430,"ate":431,"out":432,"fr":433,"ke":434,"mo":435,"pro":436,"oun":437,"su":438,"ul":439,"sh":440,"te":441,"so":442,"ment":443,"have":444,"pl":445,"said":446,"ain":447,"has":448,"igh":449,"ex":450,"ist":451,"ap":452,"ity":453,"fe":454,"his":455,"art":456,"one":457,"ess":458,"by":459,"from":460,"ies":461,"ther":462,"ant":463,"ive":464,"po":465,"ort":466,"will":467,"not":468,"day":469,"ould":470,"go":471,"20":472,"ll":473,"if":474,"qu":475,"um":476,"ear":477,"ust":478,"ast":479,"end":480,"per":481,"ial":482,"wor":483,"this":484,"ge":485,"act":486,"iv":487,"ome":488,"up":489,"pr":490,"od":491,"ight":492,"port":493,"ak":494,"ack":495,"gh":496,"you":497,"any":498,"do":499,"ard":500,"but":501,"ice":502,"In":503,"their":504,"cl":505,"00":506,"ie":507,"gr":508,"af":509,"they":510,"own":511,"who":512,"over":513,"ud":514,"can":515,"her":516,"me":517,"el":518,"year":519,"av":520,"off":521,"been":522,"tim":523,"ough":524,"ans":525,"Th":526,"ally":527,"ine":528,"ong":529,"cr":530,"der":531,"ore":532,"cor":533,"ide":534,"its":535,"au":536,",”":537,"now":538,"had":539,"ind":540,"ok":541,"more":542,"ia":543,"ip":544,"were":545,"ich":546,"ber":547,"ck":548,"ople":549,"ions":550,"sp":551,"ire":552,"It":553,"ev":554,"19":555,"ated":556,"ep":557,"work":558,"ake":559,"ous":560,"also":561,"ame":562,"people":563,"ound":564,"about":565,"We":566,"no":567,"ue":568,".”":569,"new":570,"bo":571,"age":572,"bl":573,"comp":574,"He":575,"man":576,"ure":577,"ts":578,"able":579,"get":580,"some":581,"cre":582,"aw":583,"str":584,"ach":585,"which":586,"ass":587,"part":588,"br":589,"ever":590,"ace":591,"other":592,"she":593,"ile":594,"fir":595,"would":596,"Ch":597,"time":598,"co":599,"ary":600,"ident":601,"coun":602,"like":603,"pos":604,"pre":605,"iz":606,"ence":607,"thing":608,"cont":609,"ail":610,"ser":611,"pres":612,"An":613,"dis":614,"after":615,"St":616,"cent":617,"there":618,"int":619,"wo":620,"old":621,"comm":622,"ren":623,"ek":624,"than":625,"ign":626,"when":627,"Wh":628,"form":629,"just":630,"ib":631,"way":632,"ase":633,"ance":634,"low":635,"pol":636,"them":637,"ite":638,"cial":639,"ark":640,"ations":641,"ors":642,"my":643,"du":644,"ick":645,"ction":646,"ty":647,"play":648,"say":649,"dr":650,"ning":651,"ree":652,"med":653,"back":654,"mon":655,"vel":656,"ens":657,"ents":658,"ish":659,"att":660,"what":661,"ef":662,"ition":663,"ical":664,"fer":665,"uring":666,"ding":667,"ho":668,"alth":669,"first":670,"two":671,"ade":672,"down":673,"irus":674,"cur":675,"est":676,"into":677,"ian":678,"ting":679,"ates":680,"Tr":681,"fore":682,"enc":683,"week":684,"thr":685,"ang":686,"ose":687,"your":688,"cau":689,"add":690,"how":691,"ating":692,"min":693,"ict":694,"could":695,"hel":696,"need":697,"arr":698,"read":699,"him":700,"cess":701,"mer":702,"most":703,"pp":704,"prov":705,"ubl":706,"cho":707,"test":708,"This":709,"ious":710,"ities":711,"But":712,"try":713,"sc":714,"again":715,"pect":716,"ask":717,"ful":718,"As":719,"ink":720,"cause":721,"ob":722,"amp":723,"come":724,"fin":725,"ory":726,"under":727,"ied":728,"report":729,"last":730,"ult":731,"reg":732,"ath":733,"nment":734,"gover":735,"incl":736,"ater":737,"being":738,"ss":739,"ump":740,"vers":741,"air":742,"only":743,"bu":744,"ew":745,"through":746,"ason":747,"ational":748,"don":749,"rem":750,"CO":751,"sel":752,"cer":753,"ublic":754,"fo":755,"while":756,"bet":757,"urn":758,"ted":759,"many":760,"show":761,"inter":762,"iss":763,"ced":764,"cas":765,"want":766,"Un":767,"where":768,"during":769,"ID":770,"serv":771,"years":772,"every":773,"ily":774,"call":775,"did":776,"pers":777,"very":778,"emp":779,"land":780,"ret":781,"spe":782,"well":783,"ild":784,"even":785,"offic":786,"ress":787,"ital":788,"uch":789,"Fr":790,"help":791,"ann":792,"fect":793,"clo":794,"ince":795,"ise":796,"because":797,"col":798,"going":799,"istr":800,"And":801,"Br":802,"fam":803,"know":804,"government":805,"home":806,"ele":807,"illion":808,"000":809,"look":810,"reat":811,"ins":812,"ased":813,"make":814,"VID":815,"lead":816,"ph":817,"state":818,"aking":819,"arch":820,"COVID":821,"ual":822,"gu":823,"before":824,"des":825,"high":826,"those":827,"fl":828,"tal":829,"should":830,"long":831,"ven":832,"oup":833,"ving":834,"201":835,"start":836,"see":837,"sup":838,"og":839,"onav":840,"set":841,"cond":842,"onavirus":843,"bus":844,"health":845,"sy":846,"chool":847,"ug":848,"ra":849,"ank":850,"contin":851,"used":852,"against":853,"io":854,"person":855,"month":856,"stud":857,"New":858,"leg":859,"ited":860,"includ":861,"resident":862,"vis":863,"line":864,"team":865,"ement":866,"vie":867,"Trump":868,"pon":869,"pand":870,"vest":871,"emic":872,"dif":873,"Co":874,"anc":875,"10":876,"sur":877,"may":878,"coronavirus":879,"lear":880,"tain":881,"dec":882,"iness":883,"rel":884,"made":885,"take":886,"still":887,"unity":888,"atch":889,"ect":890,"then":891,"lar":892,"ings":893,"sure":894,"ative":895,"right":896,"2020":897,"these":898,"open":899,"three":900,"support":901,"They":902,"cal":903,"care":904,"num":905,"led":906,"think":907,"imp":908,"ves":909,"gan":910,"ved":911,"put":912,"ner":913,"ener":914,"She":915,"mem":916,"fol":917,"use":918,"share":919,"eng":920,"less":921,"xt":922,"For":923,"ward":924,"ments":925,"ms":926,"cut":927,"les":928,"ible":929,"cases":930,"stand":931,"says":932,",\"":933,"good":934,"self":935,"peri":936,"son":937,"char":938,"produ":939,"cording":940,"country":941,"bre":942,"ues":943,"ash":944,"Com":945,"pandemic":946,"public":947,"ton":948,"ange":949,"ility":950,"ry":951,"head":952,"ma":953,"Re":954,"much":955,"There":956,"fun":957,"Al":958,"ci":959,"mark":960,"ject":961,"miss":962,"ures":963,"around":964,"ices":965,"side":966,"ouse":967,"season":968,"school":969,"does":970,"loy":971,"ds":972,"cap":973,"ross":974,"irect":975,"vot":976,"rest":977,"Jo":978,"cover":979,"ix":980,"business":981,"Ar":982,"Amer":983,".\"":984,"If":985,"life":986,"such":987,"Americ":988,"als":989,"On":990,"ines":991,"hand":992,"world":993,"cour":994,"view":995,"though":996,"la":997,"De":998,"ball":999,"million":1000,"ivers":1001,"follow":1002,"So":1003,"sign":1004,"ina":1005,"invest":1006,"company":1007,"bers":1008,"since":1009,"trans":1010,"respon":1011,"rent":1012,"ave":1013,"police":1014,"point":1015,"ific":1016,"issu":1017,"let":1018,"run":1019,"che":1020,"lot":1021,"pt":1022,"happ":1023,"No":1024,"law":1025,"ular":1026,"quar":1027,"cons":1028,"ister":1029,"ble":1030,"game":1031,"ship":1032,"family":1033,"wom":1034,"That":1035,"nor":1036,"ten":1037,"Ro":1038,"sing":1039,"ris":1040,"place":1041,"national":1042,"came":1043,"How":1044,"Mon":1045,"win":1046,"including":1047,"far":1048,"ub":1049,"incre":1050,"conom":1051,"fil":1052,"differ":1053,"lock":1054,"sm":1055,"child":1056,"Le":1057,"got":1058,"iday":1059,"big":1060,"requ":1061,"ways":1062,"ars":1063,"oper":1064,"next":1065,"allow":1066,"four":1067,"ics":1068,"jo":1069,"You":1070,"ween":1071,"ready":1072,"real":1073,"app":1074,"Coun":1075,"stat":1076,"ys":1077,"death":1078,"tra":1079,"wr":1080,"Min":1081,"Se":1082,"told":1083,"ior":1084,"vol":1085,"second":1086,"giv":1087,"really":1088,"official":1089,"pass":1090,"red":1091,"sub":1092,"Con":1093,"hold":1094,"ff":1095,"ually":1096,"between":1097,"number":1098,"velop":1099,"aff":1100,"Mr":1101,"fac":1102,"rece":1103,"aren":1104,"both":1105,"sto":1106,"expect":1107,"US":1108,"fact":1109,"30":1110,"spital":1111,"same":1112,"days":1113,"ather":1114,"rele":1115,"gest":1116,"econom":1117,"Pr":1118,"os":1119,"feel":1120,"post":1121,"ces":1122,"order":1123,"unt":1124,"Be":1125,"pay":1126,"poss":1127,"cus":1128,"few":1129,"ah":1130,"social":1131,"ency":1132,"plan":1133,"group":1134,"stem":1135,"direct":1136,"ower":1137,"ax":1138,"outh":1139,"nes":1140,"another":1141,"atur":1142,"50":1143,"pat":1144,"ared":1145,"keep":1146,"here":1147,"sit":1148,"current":1149,"ft":1150,"ames":1151,"night":1152,"akes":1153,"aim":1154,"found":1155,"vent":1156,"ime":1157,"ody":1158,"ider":1159,"ants":1160,"ale":1161,"President":1162,"olog":1163,"Ind":1164,"coming":1165,"remain":1166,"det":1167,"sen":1168,"too":1169,"light":1170,"recent":1171,"tle":1172,"appe":1173,"ief":1174,"ness":1175,"iend":1176,"war":1177,"sed":1178,"ste":1179,"Gr":1180,"lit":1181,"ik":1182,"virus":1183,"ier":1184,"best":1185,"12":1186,"lect":1187,"Bl":1188,"won":1189,"ential":1190,"ged":1191,"ists":1192,"ended":1193,"community":1194,"different":1195,"added":1196,"Friday":1197,"market":1198,"camp":1199,"top":1200,"ately":1201,"az":1202,"president":1203,"polit":1204,"urs":1205,"develop":1206,"trad":1207,"At":1208,"import":1209,"Bo":1210,"inform":1211,"itive":1212,"beli":1213,"friend":1214,"gram":1215,"each":1216,"ral":1217,"case":1218,"enter":1219,"11":1220,"stru":1221,"late":1222,"acc":1223,"near":1224,"ush":1225,"announ":1226,"road":1227,"hop":1228,"meet":1229,"ling":1230,"ster":1231,"ired":1232,"employ":1233,"city":1234,"ional":1235,"ety":1236,"find":1237,"val":1238,"ised":1239,"kill":1240,"reported":1241,"pur":1242,"across":1243,"ext":1244,"system":1245,"aring":1246,"ned":1247,"ield":1248,"ord":1249,"move":1250,"book":1251,"ca":1252,"When":1253,"ism":1254,"change":1255,"break":1256,"things":1257,"Ad":1258,"Sun":1259,"oc":1260,"local":1261,"mit":1262,"pop":1263,"working":1264,"Is":1265,"present":1266,"May":1267,"gener":1268,"quarter":1269,"En":1270,"level":1271,"hospital":1272,"without":1273,"sol":1274,"Dr":1275,"ives":1276,"return":1277,"sever":1278,"contr":1279,"ages":1280,"vir":1281,"15":1282,"ision":1283,"called":1284,"left":1285,"list":1286,"hour":1287,"Sh":1288,"power":1289,"according":1290,"search":1291,"bal":1292,"organ":1293,"due":1294,"Pol":1295,").":1296,"clear":1297,"car":1298,"iting":1299,"ized":1300,"never":1301,"months":1302,"def":1303,"ending":1304,"hard":1305,"ived":1306,"ger":1307,"oney":1308,"away":1309,"main":1310,"lim":1311,"chang":1312,"ls":1313,"something":1314,"already":1315,"face":1316,"quest":1317,"dep":1318,"State":1319,"members":1320,"job":1321,"tell":1322,"comes":1323,"gy":1324,"ided":1325,"prof":1326,"students":1327,"past":1328,"great":1329,"21":1330,"To":1331,"gre":1332,"vious":1333,"program":1334,"comple":1335,"better":1336,"turn":1337,"thor":1338,"ically":1339,"Monday":1340,"ork":1341,"claim":1342,"Mo":1343,"grow":1344,"until":1345,"fort":1346,"However":1347,"vi":1348,"Pro":1349,"using":1350,"gin":1351,"concer":1352,"2019":1353,"stit":1354,"didn":1355,"thers":1356,"continue":1357,"children":1358,"Ac":1359,"must":1360,"action":1361,"ient":1362,"par":1363,"tech":1364,"body":1365,"might":1366,"experi":1367,"ike":1368,"recor":1369,"partic":1370,"close":1371,"net":1372,"iversity":1373,"hal":1374,"seen":1375,"sum":1376,"With":1377,"uary":1378,"talk":1379,"What":1380,"Af":1381,"prom":1382,"ley":1383,"manag":1384,"went":1385,"ata":1386,"elect":1387,"jor":1388,"Nor":1389,"mand":1390,"five":1391,"Joh":1392,"happen":1393,"house":1394,"200":1395,"atter":1396,"ago":1397,"County":1398,"always":1399,"process":1400,"buil":1401,"plain":1402,"ying":1403,"early":1404,"ots":1405,"took":1406,"China":1407,"South":1408,"ese":1409,"March":1410,"ney":1411,"erest":1412,"14":1413,"dist":1414,"une":1415,"Mar":1416,"ude":1417,"ched":1418,"ize":1419,"information":1420,"room":1421,"Me":1422,"eral":1423,"ature":1424,"soci":1425,"stay":1426,"appro":1427,"offer":1428,"aid":1429,"iver":1430,"ird":1431,"Thurs":1432,"event":1433,"important":1434,"based":1435,"men":1436,"While":1437,"mor":1438,"),":1439,"Thursday":1440,"project":1441,"hit":1442,"24":1443,"mission":1444,"und":1445,"Car":1446,"ians":1447,"fut":1448,"tar":1449,"gether":1450,"weeks":1451,"making":1452,"ibut":1453,"ps":1454,"former":1455,"John":1456,"free":1457,"bit":1458,"vide":1459,"contro":1460,"Tues":1461,"adv":1462,"prote":1463,"exp":1464,"fur":1465,"mber":1466,"Health":1467,"shares":1468,"risk":1469,"ator":1470,"count":1471,"Col":1472,"Ju":1473,"wit":1474,"deal":1475,"positive":1476,"Satur":1477,"equ":1478,"class":1479,"press":1480,"stop":1481,"likely":1482,"Tuesday":1483,"ded":1484,"Saturday":1485,"eas":1486,"ute":1487,"ought":1488,"inc":1489,"ont":1490,"later":1491,"money":1492,"women":1493,"All":1494,"ric":1495,"kn":1496,"Sunday":1497,"whe":1498,"election":1499,"25":1500,"ones":1501,"news":1502,"addition":1503,"asked":1504,"major":1505,"alk":1506,"distr":1507,"why":1508,"times":1509,"interest":1510,"One":1511,"fire":1512,"wa":1513,"ats":1514,"food":1515,"aken":1516,"media":1517,"stock":1518,"along":1519,"ution":1520,"little":1521,"possible":1522,"uck":1523,"together":1524,"Dem":1525,"cast":1526,"uc":1527,"position":1528,"give":1529,"lay":1530,"confir":1531,"effect":1532,"today":1533,"key":1534,"18":1535,"statement":1536,"total":1537,"certain":1538,"small":1539,"Wed":1540,"six":1541,"stre":1542,"seem":1543,"met":1544,"staff":1545,"ards":1546,"ability":1547,"doing":1548,"Go":1549,"Can":1550,"ember":1551,"hist":1552,"pot":1553,"13":1554,"Jan":1555,"area":1556,"curity":1557,"ran":1558,"consider":1559,"Wednes":1560,"short":1561,"plac":1562,"United":1563,"vid":1564,"having":1565,"Wednesday":1566,"ben":1567,"chall":1568,"love":1569,"foot":1570,"hum":1571,"augh":1572,"officials":1573,"ets":1574,"16":1575,"den":1576,"atic":1577,"several":1578,"youn":1579,"ished":1580,"Man":1581,"fight":1582,"ined":1583,"ivid":1584,"getting":1585,"loc":1586,"percent":1587,"posed":1588,"given":1589,"spread":1590,"future":1591,"sho":1592,"announced":1593,"uation":1594,"mom":1595,"indust":1596,"bor":1597,"water":1598,"fall":1599,"har":1600,"avail":1601,"cle":1602,"mask":1603,"ides":1604,"aster":1605,"large":1606,"aign":1607,"taking":1608,"field":1609,"full":1610,"service":1611,"techn":1612,"least":1613,"cost":1614,"Dep":1615,"series":1616,"investig":1617,"Mc":1618,"sus":1619,"live":1620,"deli":1621,"price":1622,"ministr":1623,"spo":1624,"done":1625,"bur":1626,"commun":1627,"Don":1628,"online":1629,"players":1630,"taken":1631,"film":1632,"bab":1633,"cy":1634,"research":1635,"known":1636,"meas":1637,"doesn":1638,"Fe":1639,"ons":1640,"services":1641,"After":1642,"Or":1643,"ocr":1644,"ped":1645,"ene":1646,"iger":1647,"Cor":1648,"reach":1649,"become":1650,"emer":1651,"suc":1652,"National":1653,"front":1654,"mid":1655,"train":1656,"Democr":1657,"sent":1658,"bring":1659,"ality":1660,"looking":1661,"campaign":1662,"bro":1663,"data":1664,"ients":1665,"tion":1666,"half":1667,"uro":1668,"author":1669,"period":1670,"watch":1671,"American":1672,"dro":1673,"mil":1674,"among":1675,"party":1676,"acy":1677,"Police":1678,"aud":1679,"iden":1680,"cust":1681,"enough":1682,"plic":1683,"started":1684,"mus":1685,"compan":1686,"video":1687,"aver":1688,"attack":1689,"proble":1690,"ref":1691,"further":1692,"17":1693,"mp":1694,"others":1695,"que":1696,"cept":1697,"Sen":1698,"ai":1699,"expected":1700,"Ser":1701,"ancial":1702,"tow":1703,"step":1704,"court":1705,"available":1706,"York":1707,"hip":1708,"non":1709,"ued":1710,"glo":1711,"invol":1712,"force":1713,"Covid":1714,"My":1715,"yet":1716,"infect":1717,"workers":1718,"Rep":1719,"commit":1720,"Afr":1721,"Cl":1722,"whether":1723,"bas":1724,"product":1725,"ecut":1726,"impact":1727,"Ex":1728,"ified":1729,"leaders":1730,"City":1731,"ators":1732,"rist":1733,"ints":1734,"Afric":1735,"Biden":1736,"gl":1737,"kind":1738,"ground":1739,"100":1740,"sal":1741,"ults":1742,"Ph":1743,"reason":1744,"hours":1745,"var":1746,"travel":1747,"ederal":1748,"ams":1749,"following":1750,"ond":1751,"ising":1752,"activ":1753,"ology":1754,"House":1755,"third":1756,"artment":1757,"Lo":1758,"Pe":1759,"stead":1760,"paren":1761,"sk":1762,"ague":1763,"Cal":1764,"proper":1765,"story":1766,"eve":1767,"political":1768,"games":1769,"board":1770,"strict":1771,"decision":1772,"lockdown":1773,"fic":1774,"crit":1775,"Black":1776,"ife":1777,"ories":1778,"tries":1779,"Gover":1780,"ense":1781,"protect":1782,"lt":1783,"itions":1784,"within":1785,"polic":1786,"July":1787,"redu":1788,"aly":1789,"pecial":1790,"confirmed":1791,"provide":1792,"Just":1793,"imes":1794,"strong":1795,"opport":1796,"security":1797,"previous":1798,"special":1799,"Niger":1800,"wide":1801,"Ste":1802,"cil":1803,"design":1804,"Apr":1805,"priv":1806,"site":1807,"supp":1808,"West":1809,"hoto":1810,"famil":1811,"held":1812,"band":1813,"ham":1814,"rating":1815,"iving":1816,"ences":1817,"woman":1818,"success":1819,"town":1820,"lier":1821,"office":1822,"University":1823,"40":1824,"cand":1825,"dol":1826,"hic":1827,"ensive":1828,"fans":1829,"gency":1830,"April":1831,"Aust":1832,"compet":1833,"pite":1834,"access":1835,"protest":1836,"por":1837,"22":1838,"date":1839,"deaths":1840,"North":1841,"potential":1842,"companies":1843,"nation":1844,"forward":1845,"According":1846,"patients":1847,"idence":1848,"young":1849,"Sp":1850,"aged":1851,"mean":1852,"final":1853,"ances":1854,"contact":1855,"points":1856,"ports":1857,"cris":1858,"ctor":1859,"experience":1860,"billion":1861,"bank":1862,"tax":1863,"walk":1864,"outside":1865,"residents":1866,"Some":1867,"inal":1868,"understand":1869,"Euro":1870,"bed":1871,"round":1872,"building":1873,"fail":1874,"unch":1875,"trying":1876,"ler":1877,"alleg":1878,"Minister":1879,"economic":1880,"India":1881,"June":1882,"safe":1883,"worth":1884,"pick":1885,"died":1886,"quick":1887,"benef":1888,"Aug":1889,"rul":1890,"once":1891,"lives":1892,"saying":1893,"needs":1894,"sug":1895,"Ge":1896,"Sep":1897,"carr":1898,"hind":1899,"mar":1900,"states":1901,"decl":1902,"medi":1903,"custom":1904,"Off":1905,"ners":1906,"ilities":1907,"gn":1908,"agre":1909,"result":1910,"ana":1911,"term":1912,"received":1913,"believe":1914,"vacc":1915,"educ":1916,"cele":1917,"ured":1918,"ization":1919,"makes":1920,"ru":1921,"kes":1922,"course":1923,"issues":1924,"ividual":1925,"cu":1926,"viol":1927,"60":1928,"mode":1929,"pract":1930,"means":1931,"ony":1932,"enn":1933,"hom":1934,"dollar":1935,"Res":1936,"spec":1937,"Christ":1938,"situation":1939,"dam":1940,"ources":1941,"Will":1942,"ids":1943,"tested":1944,"ban":1945,"conne":1946,"lab":1947,"financial":1948,"ns":1949,"ury":1950,"everyone":1951,"2018":1952,"morning":1953,"mal":1954,"behind":1955,"ference":1956,"question":1957,"These":1958,"closed":1959,"celebr":1960,"demand":1961,"countries":1962,"23":1963,"name":1964,"inj":1965,"ald":1966,"lling":1967,"Sept":1968,"target":1969,"ey":1970,"address":1971,"currently":1972,"average":1973,"crisis":1974,"hol":1975,"ison":1976,"States":1977,"begin":1978,"execut":1979,"individual":1980,"buy":1981,"mess":1982,"Mic":1983,"entire":1984,"Department":1985,"Sc":1986,"photo":1987,"vo":1988,"played":1989,"medical":1990,"Cent":1991,"init":1992,"threat":1993,"reve":1994,"sex":1995,"businesses":1996,"Te":1997,"cell":1998,"released":1999,"treat":2000,"thought":2001,"human":2002,"Europe":2003,"fav":2004,"colle":2005,"di":2006,"nal":2007,"industry":2008,"space":2009,"wanted":2010,"ancing":2011,"pecially":2012,"Su":2013,"match":2014,"especially":2015,"aily":2016,"everything":2017,"imple":2018,"wards":2019,"tee":2020,"history":2021,"gress":2022,"rac":2023,"arrest":2024,"phone":2025,"Wor":2026,"lor":2027,"lost":2028,"release":2029,"friends":2030,"shows":2031,"hy":2032,"shot":2033,"writ":2034,"additional":2035,"vote":2036,"employe":2037,"viron":2038,"depend":2039,"TV":2040,"ges":2041,"often":2042,"check":2043,"candid":2044,"recover":2045,"iding":2046,"grad":2047,"economy":2048,"Ho":2049,"Republic":2050,"aur":2051,"meeting":2052,"control":2053,"nam":2054,"restrict":2055,"role":2056,"results":2057,"hot":2058,"host":2059,"include":2060,"SA":2061,"fully":2062,"music":2063,"ither":2064,"discus":2065,"response":2066,"heart":2067,"plans":2068,"venue":2069,"His":2070,"loss":2071,"star":2072,"itiz":2073,"saf":2074,"cret":2075,"Dav":2076,"sim":2077,"anger":2078,"recently":2079,"suggest":2080,"Now":2081,"saw":2082,"Fo":2083,"coup":2084,"ging":2085,"ming":2086,"vehic":2087,"testing":2088,"signific":2089,"ilar":2090,"seven":2091,"deb":2092,"contract":2093,"Austral":2094,"dou":2095,"rate":2096,"ination":2097,"almost":2098,"began":2099,"lies":2100,"explain":2101,"needed":2102,"ease":2103,"vic":2104,"Brit":2105,"Do":2106,"respons":2107,"Canad":2108,"Gu":2109,"gir":2110,"depart":2111,"selves":2112,"safety":2113,"ands":2114,"profess":2115,"record":2116,"vironment":2117,"Bar":2118,"NA":2119,"scre":2120,"vice":2121,"exper":2122,"playing":2123,"asing":2124,"ention":2125,"areas":2126,"challeng":2127,"ott":2128,"America":2129,"measures":2130,"outbreak":2131,"fig":2132,"actually":2133,"aut":2134,"ford":2135,"director":2136,"soon":2137,"coach":2138,"increase":2139,"grap":2140,"issue":2141,"mot":2142,"matter":2143,".,":2144,"federal":2145,"wer":2146,"mother":2147,"hope":2148,"Her":2149,"mind":2150,"struct":2151,"Cr":2152,"ival":2153,"pack":2154,"ri":2155,"aker":2156,"assist":2157,"complete":2158,"respect":2159,"70":2160,"bar":2161,"ama":2162,"web":2163,"Inter":2164,"black":2165,"ple":2166,"rup":2167,"significant":2168,"Fin":2169,"ulation":2170,"duct":2171,"flu":2172,"development":2173,"families":2174,"Cour":2175,"administr":2176,"ural":2177,"moved":2178,"ails":2179,"higher":2180,"26":2181,"28":2182,"January":2183,"global":2184,"couple":2185,"shop":2186,"someone":2187,"moment":2188,"parents":2189,"ping":2190,"isn":2191,"particular":2192,"Ne":2193,"dead":2194,"schools":2195,"Our":2196,"UK":2197,"sl":2198,"ount":2199,"changes":2200,"mult":2201,"track":2202,"feat":2203,"serious":2204,"visit":2205,"purch":2206,"lower":2207,"diffic":2208,"Gre":2209,"Part":2210,"ored":2211,"push":2212,"”.":2213,"ane":2214,"anything":2215,"News":2216,"ience":2217,"ks":2218,"na":2219,"ugg":2220,"member":2221,"ensure":2222,"forman":2223,"conf":2224,"door":2225,"club":2226,"personal":2227,"uge":2228,"relation":2229,"related":2230,"allowed":2231,"reveal":2232,"CA":2233,"bad":2234,"officers":2235,"World":2236,"Par":2237,"terr":2238,"reports":2239,"gen":2240,"ium":2241,"wind":2242,"represent":2243,"ibility":2244,"Oc":2245,"gave":2246,"mis":2247,"legal":2248,"Geor":2249,"Day":2250,"Sm":2251,"chief":2252,"immedi":2253,"single":2254,"ost":2255,"roll":2256,"dig":2257,"lood":2258,"affect":2259,"27":2260,"BC":2261,"Pl":2262,"jud":2263,"rote":2264,"goal":2265,"August":2266,"orig":2267,"tom":2268,"utes":2269,"earlier":2270,"jour":2271,"running":2272,"Med":2273,"wrote":2274,"moving":2275,"super":2276,"events":2277,"nothing":2278,"interview":2279,"inst":2280,"reme":2281,"ament":2282,"imate":2283,"ote":2284,"ends":2285,"works":2286,"Air":2287,"San":2288,"sw":2289,"omet":2290,"necess":2291,"comb":2292,"prove":2293,"gun":2294,"rew":2295,"focus":2296,"deter":2297,"80":2298,"ron":2299,"seek":2300,"crib":2301,"opportunity":2302,"September":2303,"abo":2304,"worked":2305,"ample":2306,"Donald":2307,"ahead":2308,"hor":2309,"ino":2310,"atory":2311,"arm":2312,"ades":2313,"performan":2314,"active":2315,"prep":2316,"nearly":2317,"Iran":2318,"batt":2319,"han":2320,"pret":2321,"international":2322,"approach":2323,"oft":2324,"ateg":2325,"opening":2326,"latest":2327,"29":2328,"became":2329,"spir":2330,"however":2331,"High":2332,"School":2333,"itary":2334,"wood":2335,"White":2336,"Court":2337,"bi":2338,"urch":2339,"phys":2340,"difficult":2341,"father":2342,"vember":2343,"park":2344,"tober":2345,"November":2346,"environment":2347,"itch":2348,"incident":2349,"private":2350,"cogn":2351,"believ":2352,"masks":2353,"October":2354,"Rus":2355,"lines":2356,"attemp":2357,"involved":2358,"block":2359,"tt":2360,"whole":2361,"daily":2362,"ery":2363,"wel":2364,"prior":2365,"box":2366,"encour":2367,"ashing":2368,"90":2369,"Center":2370,"fill":2371,"song":2372,"touch":2373,"defin":2374,"Ber":2375,"aging":2376,"officer":2377,"quarant":2378,"general":2379,"growth":2380,"bill":2381,"cult":2382,"sched":2383,"tit":2384,"sty":2385,"acter":2386,"imm":2387,"aper":2388,"particip":2389,"problem":2390,"restrictions":2391,"War":2392,"Chief":2393,"longer":2394,"career":2395,"vict":2396,"reli":2397,"opt":2398,"appoint":2399,"bert":2400,"continued":2401,"killed":2402,"People":2403,"Park":2404,"fair":2405,"pan":2406,"oud":2407,"itor":2408,"amer":2409,"plat":2410,"player":2411,"joy":2412,"victim":2413,"gain":2414,"inside":2415,"Many":2416,"gas":2417,"uel":2418,"review":2419,"essential":2420,"collect":2421,"Government":2422,"Sy":2423,"dest":2424,"ift":2425,"draw":2426,"emergency":2427,"vaccine":2428,"row":2429,"exist":2430,"guid":2431,"technology":2432,"relationship":2433,"35":2434,"sts":2435,"lex":2436,"aving":2437,"surpr":2438,"atives":2439,"prevent":2440,"drug":2441,"deliver":2442,"similar":2443,"paid":2444,"else":2445,"bruary":2446,"Dece":2447,"February":2448,"Am":2449,"cing":2450,"Stre":2451,"himself":2452,"December":2453,"Ed":2454,"ston":2455,"lying":2456,"executive":2457,"employees":2458,"Mark":2459,"hair":2460,"ify":2461,"prim":2462,"anyone":2463,"tre":2464,"wife":2465,"leave":2466,"white":2467,"teach":2468,"Char":2469,"ota":2470,"utions":2471,"issued":2472,"Not":2473,"cir":2474,"mass":2475,"sem":2476,"living":2477,"gets":2478,"disease":2479,"connect":2480,"31":2481,"tro":2482,"aft":2483,"region":2484,"capital":2485,"customers":2486,"fast":2487,"ening":2488,"create":2489,"drive":2490,"leader":2491,"popular":2492,"education":2493,"500":2494,"Ab":2495,"daugh":2496,"gather":2497,"deep":2498,"conduct":2499,"proved":2500,"leading":2501,"Even":2502,"Ger":2503,"recogn":2504,"forts":2505,"pose":2506,"quality":2507,"happened":2508,"policy":2509,"analy":2510,"minutes":2511,"2016":2512,"study":2513,"Commission":2514,"shoot":2515,"training":2516,"dle":2517,"ille":2518,"minister":2519,"suspect":2520,"anim":2521,"lif":2522,"movie":2523,"teams":2524,"football":2525,"ffer":2526,"ifor":2527,"build":2528,"struction":2529,"scr":2530,"isol":2531,"shut":2532,"cred":2533,"platform":2534,"iforn":2535,"Face":2536,"div":2537,"sell":2538,"wasn":2539,"fell":2540,"hood":2541,"request":2542,"Californ":2543,"Bank":2544,"sequ":2545,"sold":2546,"weet":2547,"distancing":2548,"quickly":2549,"Ms":2550,"Per":2551,"hi":2552,"efforts":2553,"regular":2554,"production":2555,"--":2556,"DC":2557,"citiz":2558,"despite":2559,"discuss":2560,"lack":2561,"account":2562,"neigh":2563,"perform":2564,"pul":2565,"ender":2566,"idea":2567,".'":2568,"DA":2569,"slow":2570,"ently":2571,"nings":2572,"Americans":2573,"remains":2574,"sense":2575,"summer":2576,"Har":2577,"race":2578,"tour":2579,"exc":2580,"cannot":2581,"vision":2582,"senior":2583,"Cong":2584,"either":2585,"pain":2586,"contain":2587,"wants":2588,"administration":2589,"ires":2590,"kids":2591,"pie":2592,"takes":2593,"crim":2594,"appear":2595,"AP":2596,"Des":2597,"tests":2598,"scene":2599,"character":2600,"California":2601,"During":2602,"bud":2603,"comment":2604,"weekend":2605,"decided":2606,"By":2607,"Gener":2608,"cro":2609,"pet":2610,"via":2611,"ials":2612,"ordin":2613,"military":2614,"homes":2615,"App":2616,"chance":2617,"mitted":2618,"alleged":2619,"dom":2620,"docu":2621,"strugg":2622,"brought":2623,"served":2624,"numbers":2625,"inese":2626,"require":2627,"za":2628,"ining":2629,"acqu":2630,"forced":2631,"themselves":2632,"above":2633,"Em":2634,"thern":2635,"quite":2636,"ivil":2637,"akers":2638,"iple":2639,"Chinese":2640,"provided":2641,"virt":2642,"cretary":2643,"thous":2644,"trade":2645,"felt":2646,"ights":2647,"Reg":2648,"groups":2649,"Nigeria":2650,"performance":2651,"Russ":2652,"CE":2653,"Cap":2654,"eight":2655,"fit":2656,"secut":2657,"spokes":2658,"authorities":2659,"David":2660,"Congress":2661,"Bu":2662,"spr":2663,"ource":2664,"applic":2665,"cru":2666,"communities":2667,"ona":2668,"example":2669,"avo":2670,"throughout":2671,"showed":2672,"voters":2673,"giving":2674,"Street":2675,"oil":2676,"soft":2677,"abl":2678,"regard":2679,"opened":2680,"normal":2681,"traded":2682,"investigation":2683,"Harr":2684,"More":2685,"dict":2686,"huge":2687,"van":2688,"restaur":2689,"hands":2690,"maintain":2691,"God":2692,"Washing":2693,"ung":2694,"tru":2695,"extra":2696,"shared":2697,"receive":2698,"labor":2699,"Every":2700,"iam":2701,"stage":2702,"below":2703,"terms":2704,"indic":2705,"equip":2706,"Africa":2707,"favor":2708,"Act":2709,"bul":2710,"hous":2711,"xim":2712,"aming":2713,"nel":2714,"firm":2715,"Washington":2716,"Of":2717,"mater":2718,"store":2719,"iff":2720,"contribut":2721,"products":2722,"pen":2723,"instead":2724,"amount":2725,"crow":2726,"Eng":2727,"various":2728,"Pat":2729,"cli":2730,"heav":2731,"BT":2732,"Dis":2733,"El":2734,"hur":2735,"2021":2736,"anned":2737,"explo":2738,"clean":2739,"Democratic":2740,"Net":2741,"icip":2742,"actions":2743,"limited":2744,"bably":2745,"Ear":2746,"igr":2747,"epis":2748,"ampion":2749,"describ":2750,"continues":2751,"biggest":2752,"seems":2753,"ique":2754,"alter":2755,"noted":2756,"calls":2757,"farm":2758,"Isra":2759,"uses":2760,"conditions":2761,"symp":2762,"pretty":2763,"pict":2764,"sector":2765,"surv":2766,"effective":2767,"Ke":2768,"idge":2769,"required":2770,"questions":2771,"concerns":2772,"susp":2773,"suffer":2774,"jobs":2775,"Facebook":2776,"aj":2777,"broad":2778,"ny":2779,"consu":2780,"probably":2781,"Mor":2782,"Since":2783,"ctors":2784,"Ange":2785,"daughter":2786,"link":2787,"ring":2788,"compared":2789,"arrested":2790,"quarantine":2791,"intro":2792,"energy":2793,"orders":2794,"levels":2795,"rules":2796,"East":2797,"hus":2798,"publ":2799,"hear":2800,"rights":2801,"capac":2802,"Ben":2803,"Twit":2804,"aul":2805,"base":2806,"suit":2807,"rather":2808,"management":2809,"district":2810,"communic":2811,"specific":2812,"General":2813,"iers":2814,"neg":2815,"increased":2816,"easy":2817,"Phil":2818,"department":2819,"Direct":2820,"hon":2821,"inv":2822,"serve":2823,"ishing":2824,"2017":2825,"happy":2826,"Indian":2827,"Mean":2828,"vehicle":2829,"Australia":2830,"recomm":2831,"resh":2832,"turned":2833,"ON":2834,"PS":2835,"ram":2836,"sha":2837,"ya":2838,"stor":2839,"evidence":2840,"created":2841,"learning":2842,"Joe":2843,"launch":2844,"spect":2845,"conference":2846,"starting":2847,"letter":2848,"Council":2849,"tradition":2850,"husband":2851,"Pet":2852,"rap":2853,"isions":2854,"itself":2855,"chair":2856,"erson":2857,"true":2858,"establ":2859,"revenue":2860,"words":2861,"spent":2862,"spot":2863,"distribut":2864,"sound":2865,"199":2866,"treatment":2867,"Meanwhile":2868,"Red":2869,"fre":2870,"ville":2871,"instit":2872,"load":2873,"ibly":2874,"Associ":2875,"marr":2876,"pair":2877,"sn":2878,"anch":2879,"ened":2880,"ements":2881,"cash":2882,"changed":2883,"revealed":2884,"Mal":2885,"ani":2886,"improve":2887,"urning":2888,"Group":2889,"value":2890,"Pal":2891,"RE":2892,"rain":2893,"advis":2894,"loved":2895,"goes":2896,"effort":2897,"League":2898,"Super":2899,"necessary":2900,"Twitter":2901,"FL":2902,"gone":2903,"natur":2904,"ises":2905,"wearing":2906,"mob":2907,"student":2908,"Johnson":2909,"Del":2910,"Jap":2911,"Jack":2912,"Ken":2913,"Sch":2914,"ties":2915,"resources":2916,"trust":2917,"tele":2918,"learn":2919,"imply":2920,"MP":2921,"Public":2922,"ken":2923,"san":2924,"enge":2925,"enjoy":2926,"bey":2927,"feature":2928,"ume":2929,"els":2930,"regul":2931,"property":2932,"mill":2933,"rad":2934,"stain":2935,"heard":2936,"ceed":2937,"peace":2938,"progress":2939,"dog":2940,"rat":2941,"rise":2942,"arily":2943,"achie":2944,"ometimes":2945,"capacity":2946,"AN":2947,"Bel":2948,"Val":2949,"bir":2950,"lin":2951,"argu":2952,"roy":2953,"places":2954,"LL":2955,"ape":2956,"cross":2957,"zer":2958,"log":2959,"charged":2960,"growing":2961,"message":2962,"Canada":2963,"Japan":2964,"fan":2965,"stant":2966,"ases":2967,"ady":2968,"ension":2969,"looks":2970,"included":2971,"wrong":2972,"website":2973,"45":2974,"CB":2975,"lic":2976,"mag":2977,"beat":2978,"west":2979,"ably":2980,"passed":2981,"initial":2982,"introdu":2983,"Lon":2984,"SE":2985,"iant":2986,"ode":2987,"perfect":2988,"attention":2989,"claims":2990,"implement":2991,"ida":2992,"grand":2993,"owns":2994,"whose":2995,"speed":2996,"seeing":2997,"raised":2998,"winning":2999,"population":3000,"claimed":3001,"Senate":3002,"Bay":3003,"Li":3004,"iet":3005,"range":3006,"income":3007,"istry":3008,"includes":3009,"followed":3010,"King":3011,"nom":3012,"vey":3013,"boy":3014,"placed":3015,"Offic":3016,"sle":3017,"ware":3018,"hest":3019,"dev":3020,"hael":3021,"complain":3022,"qual":3023,"From":3024,"covered":3025,"individuals":3026,"item":3027,"parts":3028,"African":3029,"immediately":3030,"Bro":3031,"toms":3032,"wear":3033,"lied":3034,"kept":3035,"prem":3036,"posted":3037,"Carol":3038,"sales":3039,"European":3040,"Sup":3041,"err":3042,"isl":3043,"comfort":3044,"ples":3045,"presidential":3046,"Hospital":3047,"Dan":3048,"Last":3049,"camer":3050,"sports":3051,"lie":3052,"tried":3053,"built":3054,"previously":3055,"citizens":3056,"thousands":3057,"Mus":3058,"cop":3059,"associ":3060,"umb":3061,"commer":3062,"ester":3063,"problems":3064,"circ":3065,"Hol":3066,"mas":3067,"tor":3068,"ugh":3069,"trip":3070,"calling":3071,"girl":3072,"IN":3073,"knew":3074,"uff":3075,"Invest":3076,"county":3077,"typ":3078,"increasing":3079,"challenges":3080,"Tex":3081,"civil":3082,"agement":3083,"content":3084,"Road":3085,"activities":3086,"mur":3087,"rates":3088,"Inc":3089,"stra":3090,"pressed":3091,"common":3092,"enced":3093,"pped":3094,"annual":3095,"standing":3096,"hund":3097,"stic":3098,"convers":3099,"resol":3100,"elines":3101,"counter":3102,"scient":3103,"funding":3104,"London":3105,".’":3106,"?”":3107,"Over":3108,"kick":3109,"sil":3110,"adding":3111,"chan":3112,"delay":3113,"anti":3114,"prison":3115,"partners":3116,"brand":3117,"speak":3118,"supply":3119,"model":3120,"squ":3121,"demon":3122,"justice":3123,"estim":3124,"Comm":3125,"certainly":3126,"challenge":3127,"bon":3128,"danger":3129,"rout":3130,"stag":3131,"stress":3132,"ico":3133,"uled":3134,"aves":3135,"caused":3136,"Fir":3137,"Que":3138,"uk":3139,"option":3140,"mention":3141,"foreign":3142,"finally":3143,"//":3144,"://":3145,"htt":3146,"ye":3147,"onto":3148,"note":3149,"asking":3150,"helped":3151,"charge":3152,"funds":3153,"hospitals":3154,"Michael":3155,"candidate":3156,"International":3157,"particularly":3158,"symptoms":3159,"Qu":3160,"Sal":3161,"vill":3162,"ze":3163,"stated":3164,"stories":3165,"agency":3166,"moder":3167,"ession":3168,"pressure":3169,"center":3170,"details":3171,"drop":3172,"screen":3173,"Smith":3174,"digital":3175,"Ano":3176,"Spe":3177,"source":3178,"unched":3179,"iven":3180,"overall":3181,"ously":3182,"noon":3183,"36":3184,"Alex":3185,"independ":3186,"towards":3187,"Then":3188,"Union":3189,"Prime":3190,"wonder":3191,"considered":3192,"George":3193,"budget":3194,"Flor":3195,"James":3196,"Ob":3197,"beaut":3198,"climate":3199,"infected":3200,"leadership":3201,"England":3202,"refer":3203,"attr":3204,"Thom":3205,"Those":3206,"explained":3207,"34":3208,"native":3209,"ufact":3210,"ows":3211,"remember":3212,"violence":3213,"Green":3214,"Another":3215,"table":3216,"influ":3217,"answer":3218,"scen":3219,"largest":3220,"charges":3221,"multiple":3222,"beyond":3223,"https":3224,"simply":3225,"yn":3226,"fection":3227,"owned":3228,"itely":3229,"driver":3230,"facilities":3231,"stern":3232,"equipment":3233,"37":3234,"Che":3235,"Here":3236,"Tom":3237,"tick":3238,"partner":3239,"couldn":3240,"looked":3241,"insur":3242,"operation":3243,"reached":3244,"Party":3245,"avoid":3246,"temp":3247,"aries":3248,"vert":3249,"constit":3250,"exact":3251,"nov":3252,"esterday":3253,"erc":3254,"expand":3255,"providing":3256,"fortun":3257,"named":3258,"natural":3259,"First":3260,"Distr":3261,"Rs":3262,"gar":3263,"lection":3264,"sec":3265,"amb":3266,"register":3267,"ission":3268,"fourth":3269,"feeling":3270,"extreme":3271,"Scott":3272,"British":3273,"physical":3274,"55":3275,"II":3276,"bour":3277,"card":3278,"ij":3279,"mental":3280,"transport":3281,"appeal":3282,"talking":3283,"wait":3284,"tem":3285,"rob":3286,"haps":3287,"sustain":3288,"text":3289,"brief":3290,"continu":3291,"recorded":3292,"Florida":3293,"AC":3294,"ER":3295,"Paul":3296,"Two":3297,"stren":3298,"poor":3299,"encies":3300,"signed":3301,"operations":3302,"reality":3303,"announce":3304,"Most":3305,"experts":3306,"virtual":3307,"rid":3308,"league":3309,"usually":3310,"council":3311,"attend":3312,"investment":3313,"written":3314,"described":3315,"ratio":3316,"Lab":3317,"separ":3318,"ighest":3319,"izing":3320,"benefits":3321,"Israel":3322,"EU":3323,"FC":3324,"inde":3325,"unte":3326,"choice":3327,"Ministry":3328,"appeared":3329,"accused":3330,"Texas":3331,"38":3332,"Hill":3333,"Rob":3334,"highest":3335,"lap":3336,"meant":3337,"Minnes":3338,"planning":3339,"battle":3340,"options":3341,"guidelines":3342,"mine":3343,"amid":3344,"respond":3345,"title":3346,"primary":3347,"negative":3348,"streng":3349,"32":3350,"Mid":3351,"Tur":3352,"flow":3353,"gue":3354,"alone":3355,"trial":3356,"crime":3357,"counts":3358,"fund":3359,"vention":3360,"basis":3361,"agreed":3362,"DP":3363,"Sand":3364,"hib":3365,"iate":3366,"page":3367,"yer":3368,"ering":3369,"iring":3370,"usion":3371,"save":3372,"earnings":3373,"Stud":3374,"launched":3375,"critical":3376,"reduce":3377,"Office":3378,"agreement":3379,"beginning":3380,"college":3381,"\".":3382,"75":3383,"IS":3384,"pm":3385,"ses":3386,"sun":3387,"yan":3388,"acce":3389,"Democrats":3390,"infections":3391,"practice":3392,"damage":3393,"Republican":3394,"affected":3395,"definitely":3396,"Au":3397,"BA":3398,"Port":3399,"Vict":3400,"dy":3401,"skill":3402,"inated":3403,"actor":3404,"corpor":3405,"figure":3406,"scheduled":3407,"episode":3408,"Are":3409,"Law":3410,"ky":3411,"inte":3412,"ongoing":3413,"cture":3414,"demo":3415,"liament":3416,"email":3417,"doors":3418,"spending":3419,"novel":3420,"wouldn":3421,"cook":3422,"Any":3423,"smart":3424,"passeng":3425,"born":3426,"Bill":3427,"Sing":3428,"Sam":3429,"bing":3430,"nine":3431,"ters":3432,"ert":3433,"imag":3434,"users":3435,"plant":3436,"berg":3437,"voting":3438,"subject":3439,"facility":3440,"employment":3441,"returned":3442,"delivery":3443,"failed":3444,"demonstr":3445,"Lu":3446,"Let":3447,"Mac":3448,"sens":3449,"sometimes":3450,"wall":3451,"leaving":3452,"ope":3453,"owners":3454,"manufact":3455,"parties":3456,"version":3457,"setting":3458,"directly":3459,"solute":3460,"Despite":3461,"document":3462,"Director":3463,"yesterday":3464,"traff":3465,"istic":3466,"appre":3467,"upon":3468,"iel":3469,"occur":3470,"original":3471,"rough":3472,"church":3473,"ively":3474,"retail":3475,"Justice":3476,"Minnesota":3477,"39":3478,"IT":3479,"tw":3480,"ara":3481,"lled":3482,"hero":3483,"thank":3484,"keeping":3485,"witness":3486,"critic":3487,"seeking":3488,"District":3489,"Jer":3490,"Ko":3491,"Str":3492,"bound":3493,"flo":3494,"vul":3495,"wish":3496,"isation":3497,"systems":3498,"murder":3499,"48":3500,"Cha":3501,"Gold":3502,"Vir":3503,"obvious":3504,"engine":3505,"facing":3506,"movement":3507,"defense":3508,"majority":3509,"holiday":3510,"Central":3511,"shooting":3512,"BTC":3513,"commercial":3514,"fa":3515,"ito":3516,"ta":3517,"zon":3518,"edom":3519,"consum":3520,"owner":3521,"votes":3522,"Nov":3523,"gives":3524,"graph":3525,"style":3526,"AR":3527,"blood":3528,"rank":3529,"tren":3530,"stake":3531,"rock":3532,"hase":3533,"word":3534,"upd":3535,"legisl":3536,"projects":3537,"location":3538,"features":3539,"determin":3540,"credit":3541,"items":3542,"Los":3543,"bot":3544,"bum":3545,"fat":3546,"ries":3547,"except":3548,"fear":3549,"feet":3550,"incred":3551,"Christmas":3552,"victory":3553,"Mart":3554,"ST":3555,"tool":3556,"ado":3557,"forces":3558,"grant":3559,"Well":3560,"angu":3561,"object":3562,"decades":3563,"patient":3564,"organiz":3565,"manager":3566,"histor":3567,"benefit":3568,"journal":3569,"spring":3570,"ampionship":3571,"33":3572,"LA":3573,"PP":3574,"UN":3575,"bag":3576,"enforce":3577,"aine":3578,"astic":3579,"talent":3580,"condition":3581,"offering":3582,"Victor":3583,"die":3584,"mix":3585,"station":3586,"sets":3587,"worst":3588,"volunte":3589,"Board":3590,"organization":3591,"eventually":3592,"costs":3593,"straight":3594,"65":3595,"Kore":3596,"fresh":3597,"iety":3598,"mail":3599,"reds":3600,"sey":3601,"ctions":3602,"prices":3603,"aware":3604,"Why":3605,"driving":3606,"guy":3607,"ledge":3608,"Although":3609,"consist":3610,"north":3611,"society":3612,"bringing":3613,"birth":3614,"Wal":3615,"tweet":3616,"erve":3617,"absolute":3618,"prosecut":3619,"Commit":3620,"managed":3621,"steps":3622,"initi":3623,"Tech":3624,"completely":3625,"Like":3626,"catch":3627,"dome":3628,"wed":3629,"tough":3630,"comments":3631,"Instag":3632,"Association":3633,"Instagram":3634,"Tok":3635,"cup":3636,"narr":3637,"sat":3638,"ww":3639,"although":3640,"province":3641,"evening":3642,"guard":3643,"ification":3644,"warned":3645,"profit":3646,"offered":3647,"Apple":3648,"Angeles":3649,"Carolina":3650,"exactly":3651,"vulner":3652,"300":3653,"Bre":3654,"Ma":3655,"Mike":3656,"Rich":3657,"uries":3658,"unique":3659,"weight":3660,"exam":3661,"artic":3662,"iful":3663,"Thank":3664,"award":3665,"Chic":3666,"healthy":3667,"putting":3668,"candidates":3669,"temper":3670,"Big":3671,"Fore":3672,"dre":3673,"repe":3674,"beha":3675,"assess":3676,"Also":3677,"capt":3678,"concerned":3679,"elections":3680,"located":3681,"middle":3682,"%.":3683,"Mad":3684,"NFL":3685,"Oh":3686,"Prem":3687,"border":3688,"send":3689,"olf":3690,"construction":3691,"planned":3692,"afternoon":3693,"published":3694,"La":3695,"ech":3696,"fine":3697,"smo":3698,"size":3699,"infection":3700,"lege":3701,"weather":3702,"exerc":3703,"afford":3704,"concern":3705,"successful":3706,"dollars":3707,"cities":3708,"nur":3709,"path":3710,"rush":3711,"infr":3712,"uty":3713,"concl":3714,"ager":3715,"abilities":3716,"atever":3717,"aste":3718,"ips":3719,"awa":3720,"central":3721,"governor":3722,"helping":3723,"investors":3724,"completed":3725,"advant":3726,"spoke":3727,"brother":3728,"CEO":3729,"Lake":3730,"Wil":3731,"rated":3732,"wise":3733,"itation":3734,"teen":3735,"boost":3736,"predict":3737,"decisions":3738,"relig":3739,"joined":3740,"fighting":3741,"culture":3742,"AM":3743,"Sha":3744,"Wo":3745,"paper":3746,"aters":3747,"assa":3748,"ola":3749,"offers":3750,"cry":3751,"spend":3752,"asket":3753,"lands":3754,"ancy":3755,"Chicago":3756,"sort":3757,"yards":3758,"accept":3759,"haven":3760,"comed":3761,"feels":3762,"committed":3763,"girls":3764,"professional":3765,"Ama":3766,"Bor":3767,"dress":3768,"je":3769,"makers":3770,"sick":3771,"wild":3772,"thod":3773,"accom":3774,"ops":3775,"istan":3776,"Star":3777,"centre":3778,"commission":3779,"poll":3780,"type":3781,"eful":3782,"apped":3783,"markets":3784,"network":3785,"street":3786,"doub":3787,"purchase":3788,"piece":3789,"Play":3790,"simple":3791,"amed":3792,"willing":3793,"Secretary":3794,"holding":3795,"Both":3796,"Committee":3797,"47":3798,"Bus":3799,"IC":3800,"Tor":3801,"jump":3802,"wing":3803,"select":3804,"iment":3805,"trail":3806,"crew":3807,"foc":3808,"knows":3809,"eyes":3810,"voice":3811,"victims":3812,"Home":3813,"tack":3814,"€™":3815,"ena":3816,"ivity":3817,"rench":3818,"missed":3819,"join":3820,"holds":3821,"developed":3822,"waiting":3823,"baby":3824,"Governor":3825,"49":3826,"ba":3827,"inch":3828,"stick":3829,"ander":3830,"ultim":3831,"acting":3832,"doctors":3833,"minute":3834,"showing":3835,"stood":3836,"Today":3837,"Service":3838,"housing":3839,"domestic":3840,"Bur":3841,"Lou":3842,"Met":3843,"Po":3844,"Up":3845,"bly":3846,"mach":3847,"south":3848,"ule":3849,"winter":3850,"anda":3851,"emot":3852,"ategy":3853,"ght":3854,"cance":3855,"identified":3856,"yourself":3857,"caught":3858,"reporting":3859,"Mont":3860,"stores":3861,"trades":3862,"reflect":3863,"policies":3864,"picture":3865,"camera":3866,"HS":3867,"gold":3868,"myself":3869,"curren":3870,"arrived":3871,"missing":3872,"Roy":3873,"classes":3874,"easily":3875,"committee":3876,"meaning":3877,"gradu":3878,"recommend":3879,"46":3880,"langu":3881,"ato":3882,"weap":3883,"approved":3884,"plays":3885,"collabor":3886,"thinking":3887,"restaurants":3888,"favorite":3889,"millions":3890,"AT":3891,"sad":3892,"toward":3893,"iced":3894,"igence":3895,"agree":3896,"pool":3897,"scale":3898,"debate":3899,"ximately":3900,"Mil":3901,"ala":3902,"ays":3903,"airs":3904,"writing":3905,"sites":3906,"politics":3907,"College":3908,"teachers":3909,"massive":3910,"focused":3911,"Pre":3912,"categ":3913,"fem":3914,"ga":3915,"toll":3916,"chain":3917,"unities":3918,"uncertain":3919,"ables":3920,"astru":3921,"crash":3922,"strateg":3923,"monitor":3924,"2014":3925,"Management":3926,"competition":3927,"sexual":3928,"analysts":3929,"Mag":3930,"ites":3931,"sea":3932,"agno":3933,"abs":3934,"propos":3935,"sche":3936,"2015":3937,"learned":3938,"astern":3939,"believed":3940,"neighbor":3941,"insurance":3942,"Far":3943,"Mur":3944,"Mel":3945,"SP":3946,"king":3947,"becoming":3948,"fee":3949,"fest":3950,"standard":3951,"Comp":3952,"faced":3953,"appears":3954,"programs":3955,"electric":3956,"appropr":3957,"responsible":3958,"integr":3959,"Mill":3960,"Ty":3961,"Work":3962,"bid":3963,"fli":3964,"yo":3965,"inn":3966,"lose":3967,"runs":3968,"judge":3969,"criminal":3970,"freedom":3971,"vulnerable":3972,"44":3973,"Jud":3974,"Jew":3975,"Mex":3976,"Other":3977,"cere":3978,"dark":3979,"flood":3980,"nature":3981,"rally":3982,"tic":3983,"dem":3984,"corre":3985,"Franc":3986,"produce":3987,"operating":3988,"valued":3989,"distance":3990,"debt":3991,"existing":3992,"appreci":3993,"99":3994,"Def":3995,"Sim":3996,"inner":3997,"hearing":3998,"amaz":3999,"feed":4000,"acters":4001,"youth":4002,"medic":4003,"speech":4004,"transfer":4005,"difference":4006,"Because":4007,"extended":4008,"severe":4009,"relief":4010,"heavy":4011,"tempor":4012,"astructure":4013,"Fire":4014,"bought":4015,"nd":4016,"sou":4017,"sources":4018,"score":4019,"limit":4020,"promot":4021,"carry":4022,"recovery":4023,"Britain":4024,"Amazon":4025,"Cup":4026,"Fol":4027,"cat":4028,"hun":4029,"expressed":4030,"earch":4031,"minim":4032,"Under":4033,"characters":4034,"filed":4035,"green":4036,"approximately":4037,"attacks":4038,"reasons":4039,"opportunities":4040,"diagno":4041,"traditional":4042,"cars":4043,"ipe":4044,"ja":4045,"bel":4046,"university":4047,"usual":4048,"ghan":4049,"clin":4050,"198":4051,"scored":4052,"buying":4053,"France":4054,"Once":4055,"deploy":4056,"grew":4057,"Gov":4058,"watching":4059,"protests":4060,"material":4061,"NE":4062,"Sto":4063,"basket":4064,"iams":4065,"slight":4066,"acher":4067,"shown":4068,"Instead":4069,"strategy":4070,"preced":4071,"highly":4072,"Force":4073,"happens":4074,"winner":4075,"advice":4076,"designed":4077,"Williams":4078,"Russia":4079,"mobile":4080,"hundreds":4081,"Glo":4082,"Oct":4083,"ked":4084,"nie":4085,"sport":4086,"album":4087,"omen":4088,"opin":4089,"wash":4090,"flag":4091,"balance":4092,"shock":4093,"declared":4094,"vehicles":4095,"double":4096,"rupt":4097,"regarding":4098,"PC":4099,"cin":4100,"ka":4101,"rum":4102,"rich":4103,"ube":4104,"section":4105,"proposed":4106,"akh":4107,"ios":4108,"Prof":4109,"hopes":4110,"solid":4111,"iverse":4112,"activity":4113,"prepared":4114,"beautiful":4115,"democr":4116,"Bow":4117,"ko":4118,"lam":4119,"mir":4120,"sides":4121,"Their":4122,"agon":4123,"emy":4124,"Instit":4125,"ensus":4126,"throw":4127,"remote":4128,"ogle":4129,"status":4130,"harm":4131,"assistance":4132,"isolation":4133,"crowd":4134,"farmers":4135,"traffic":4136,",’":4137,"NC":4138,"gro":4139,"mad":4140,"mates":4141,"pil":4142,"sid":4143,"yard":4144,"iny":4145,"omb":4146,"utional":4147,"negot":4148,"lived":4149,"craft":4150,"provides":4151,"healthcare":4152,"ption":4153,"ordered":4154,"accident":4155,"books":4156,"changing":4157,"greater":4158,"talks":4159,"reduced":4160,"Centre":4161,"sembly":4162,"sleep":4163,"dangerous":4164,"Francis":4165,"French":4166,"Jones":4167,"Kar":4168,"Year":4169,"bol":4170,"fix":4171,"gent":4172,"atures":4173,"abin":4174,"notice":4175,"forms":4176,"remained":4177,"Add":4178,"Scot":4179,"ruption":4180,"achieve":4181,"Virgin":4182,"Mary":4183,"TA":4184,"gers":4185,"”,":4186,"anced":4187,"stuff":4188,"pray":4189,"serving":4190,"highlight":4191,"survey":4192,"decade":4193,"responded":4194,"receiving":4195,"campus":4196,"Coronavirus":4197,"terror":4198,"Georg":4199,"extremely":4200,"FA":4201,"Federal":4202,"Mer":4203,"TO":4204,"confl":4205,"anticip":4206,"creating":4207,"drink":4208,"encing":4209,"minor":4210,"Google":4211,"Republicans":4212,"figures":4213,"hurt":4214,"comfortable":4215,"infrastructure":4216,"66":4217,"bow":4218,"barr":4219,"maker":4220,"tally":4221,"ali":4222,"los":4223,"loom":4224,"truck":4225,"proto":4226,"ountain":4227,"apart":4228,"attor":4229,"remind":4230,"arent":4231,"sitting":4232,"politic":4233,"entertain":4234,"risks":4235,"skills":4236,"Cur":4237,"HO":4238,"RS":4239,"Zo":4240,"swe":4241,"zz":4242,"thus":4243,"union":4244,"coin":4245,"igned":4246,"science":4247,"guys":4248,"relative":4249,"allows":4250,"complex":4251,"miles":4252,"responsibility":4253,"horr":4254,"conducted":4255,"truth":4256,"Ak":4257,"Gar":4258,"Ham":4259,"IA":4260,"PM":4261,"Ram":4262,"Ve":4263,"oth":4264,"adap":4265,"older":4266,"mov":4267,"goals":4268,"doz":4269,"shel":4270,"attle":4271,"knowledge":4272,"supposed":4273,"ballot":4274,"purpose":4275,"rooms":4276,"allegedly":4277,"LLC":4278,"modern":4279,"amazing":4280,"LE":4281,"fif":4282,"hone":4283,"kid":4284,"lu":4285,"oring":4286,"lyn":4287,"approv":4288,"herself":4289,"surge":4290,"ballots":4291,"Rock":4292,"clearly":4293,"pression":4294,"stream":4295,"Nigerian":4296,"Germany":4297,"ceremon":4298,"41":4299,"43":4300,"Im":4301,"Sou":4302,"eth":4303,"fle":4304,"vices":4305,"aces":4306,"whatever":4307,"bridge":4308,"cool":4309,"choose":4310,"Andrew":4311,"governments":4312,"laws":4313,"telling":4314,"journey":4315,"excited":4316,"42":4317,"Miss":4318,"Max":4319,"hall":4320,"anal":4321,"adjust":4322,"losing":4323,"excl":4324,"anche":4325,"maybe":4326,"holders":4327,"faces":4328,"happening":4329,"dropped":4330,"Supreme":4331,"circum":4332,"Premier":4333,"68":4334,"95":4335,"Bal":4336,"Eli":4337,"GO":4338,"Nav":4339,"innov":4340,"iled":4341,"beach":4342,"opposition":4343,"liance":4344,"ull":4345,"aps":4346,"anta":4347,"upcoming":4348,"proud":4349,"corner":4350,"izes":4351,"surround":4352,"Develop":4353,"allowing":4354,"measure":4355,"Research":4356,"recovered":4357,"Fox":4358,"floor":4359,"enforcement":4360,"Business":4361,"River":4362,"iar":4363,"sister":4364,"seat":4365,"selling":4366,"owers":4367,"unable":4368,"trou":4369,"update":4370,"cancer":4371,"Who":4372,"speaking":4373,"write":4374,"interesting":4375,"confidence":4376,"believes":4377,"Delhi":4378,"Community":4379,"fortunately":4380,"advantage":4381,"Penn":4382,"Ver":4383,"jun":4384,"pted":4385,"stars":4386,"veter":4387,"urged":4388,"hasn":4389,"isters":4390,"Though":4391,"strain":4392,"Trans":4393,"regional":4394,"helps":4395,"raise":4396,"supporting":4397,"function":4398,"loyd":4399,"liter":4400,"Island":4401,"telligence":4402,"elected":4403,"largely":4404,"rule":4405,"connection":4406,"eye":4407,"treated":4408,"Capital":4409,"mentioned":4410,"independent":4411,"continuing":4412,"language":4413,"400":4414,"Du":4415,"Ill":4416,"fis":4417,"fant":4418,"gins":4419,"mist":4420,"nice":4421,"icts":4422,"acing":4423,"seg":4424,"outs":4425,"plus":4426,"acted":4427,"presents":4428,"remark":4429,"Frank":4430,"films":4431,"payment":4432,"solution":4433,"Services":4434,"Disney":4435,"movies":4436,"Hum":4437,"MA":4438,"Your":4439,"eder":4440,"accur":4441,"image":4442,"unit":4443,"doctor":4444,"autom":4445,"Chris":4446,"reading":4447,"voted":4448,"rising":4449,"stopped":4450,"locations":4451,"injuries":4452,",'":4453,"RC":4454,"reopen":4455,"stances":4456,"ares":4457,"constant":4458,"perhaps":4459,"worse":4460,"grade":4461,"bling":4462,"Church":4463,"starts":4464,"breaking":4465,"Mayor":4466,"generation":4467,"effects":4468,"protesters":4469,"potentially":4470,"collection":4471,"suggested":4472,"married":4473,"doubt":4474,"Hall":4475,"Haw":4476,"Ky":4477,"Mem":4478,"Mah":4479,"burn":4480,"da":4481,"hang":4482,"va":4483,"adium":4484,"ulated":4485,"attended":4486,"flight":4487,"persons":4488,"useum":4489,"audi":4490,"hotel":4491,"attempt":4492,"appointed":4493,"established":4494,"Valley":4495,"Thomas":4496,"faith":4497,"Fund":4498,"Jim":4499,"Jef":4500,"Mu":4501,"Tay":4502,"pun":4503,"ered":4504,"ano":4505,"ica":4506,"lywood":4507,"illness":4508,"proceed":4509,"ifying":4510,"odes":4511,"transition":4512,"Leg":4513,"ological":4514,"Grand":4515,"records":4516,"origin":4517,"welcome":4518,"application":4519,"organizations":4520,"absolutely":4521,"Company":4522,"basketball":4523,"Bef":4524,"cation":4525,"migr":4526,"rare":4527,"sale":4528,"session":4529,"tourn":4530,"resc":4531,"creative":4532,"finish":4533,"returning":4534,"Dec":4535,"entered":4536,"witch":4537,"seemed":4538,"expert":4539,"immediate":4540,"spirit":4541,"conversation":4542,"registered":4543,"negoti":4544,"Before":4545,"Er":4546,"Gl":4547,"Pak":4548,"era":4549,"oral":4550,"edge":4551,"ari":4552,"user":4553,"consequ":4554,"sures":4555,"bled":4556,"internet":4557,"color":4558,"lots":4559,"apparent":4560,"presented":4561,"powerful":4562,"advoc":4563,"motor":4564,"spokesperson":4565,"female":4566,"correct":4567,"78":4568,"NS":4569,"Post":4570,"Times":4571,"divid":4572,"gree":4573,"wan":4574,"erous":4575,"rev":4576,"ada":4577,"agencies":4578,"loan":4579,"arden":4580,"uded":4581,"presence":4582,"finished":4583,"flights":4584,"stands":4585,"joint":4586,"apply":4587,"passion":4588,"Prince":4589,"killing":4590,"occas":4591,"equity":4592,"understanding":4593,"injury":4594,"photos":4595,"writer":4596,"pushed":4597,"encourage":4598,"fellow":4599,"Wood":4600,"EC":4601,"Sol":4602,"mic":4603,"psy":4604,"rial":4605,"tight":4606,"reopening":4607,"itar":4608,"becomes":4609,"unemployment":4610,"wealth":4611,"artist":4612,"odies":4613,"Brown":4614,"supporters":4615,"transform":4616,"payments":4617,"protection":4618,"Good":4619,"allegations":4620,"celebrate":4621,"favour":4622,"crore":4623,"estimated":4624,"announcement":4625,"Follow":4626,"!”":4627,"BI":4628,"Care":4629,"Chair":4630,"Den":4631,"MC":4632,"Mod":4633,"Sci":4634,"fuel":4635,"mate":4636,"male":4637,"zone":4638,"ingly":4639,"asy":4640,"icated":4641,"enty":4642,"igan":4643,"frust":4644,"method":4645,"strike":4646,"stein":4647,"finding":4648,"Organ":4649,"delivered":4650,"strength":4651,"Ten":4652,"bs":4653,"nu":4654,"pir":4655,"vin":4656,"stret":4657,"iter":4658,"lets":4659,"iles":4660,"secretary":4661,"univers":4662,"abuse":4663,"shall":4664,"shots":4665,"cancell":4666,"produced":4667,"Robert":4668,"Blue":4669,"Finally":4670,"initially":4671,"Author":4672,"twice":4673,"Georgia":4674,"protocol":4675,"56":4676,"Cy":4677,"RA":4678,"Sher":4679,"dad":4680,"ibe":4681,"vant":4682,"admitted":4683,"portion":4684,"cohol":4685,"ulture":4686,"signs":4687,"ologies":4688,"Atl":4689,"occup":4690,"Engl":4691,"easier":4692,"streets":4693,"install":4694,"drugs":4695,"Harry":4696,"introduced":4697,"Victoria":4698,"Korea":4699,"Techn":4700,"article":4701,"Louis":4702,"Edu":4703,"Ir":4704,"Pan":4705,"Sever":4706,"dance":4707,"gender":4708,"pa":4709,"pitch":4710,"anx":4711,"aran":4712,"advert":4713,"rose":4714,"whom":4715,"degree":4716,"oppon":4717,"atest":4718,"sharing":4719,"sole":4720,"print":4721,"effic":4722,"mostly":4723,"guil":4724,"streaming":4725,"Club":4726,"familiar":4727,"margin":4728,"injured":4729,"truly":4730,"rapid":4731,"Jackson":4732,"scenar":4733,"separate":4734,"exercise":4735,"religious":4736,"Virginia":4737,"Found":4738,"fal":4739,"iage":4740,"kins":4741,"laugh":4742,"pic":4743,"isted":4744,"evol":4745,"coast":4746,"ailed":4747,"enses":4748,"forecast":4749,"pursu":4750,"broke":4751,"audience":4752,"Australian":4753,"lifted":4754,"radio":4755,"Sanders":4756,"English":4757,"AS":4758,"Avenue":4759,"Hy":4760,"OS":4761,"Out":4762,"Spr":4763,"mes":4764,"ried":4765,"scor":4766,"task":4767,"ua":4768,"bell":4769,"decre":4770,"agues":4771,"complic":4772,"prime":4773,"acks":4774,"athlet":4775,"supported":4776,"directed":4777,"remaining":4778,"Feb":4779,"ordinary":4780,"assault":4781,"Development":4782,"ET":4783,"Fre":4784,"Fam":4785,"MS":4786,"Mass":4787,"Sa":4788,"Wall":4789,"cold":4790,"hate":4791,"iors":4792,"ration":4793,"snow":4794,"zo":4795,"stone":4796,"aling":4797,"ita":4798,"itt":4799,"entry":4800,"owa":4801,"urban":4802,"igation":4803,"usive":4804,"embr":4805,"fraud":4806,"mod":4807,"excell":4808,"istics":4809,"0000":4810,"closing":4811,"ashion":4812,"transmission":4813,"Lee":4814,"reportedly":4815,"tells":4816,"skin":4817,"supplies":4818,"filled":4819,"analys":4820,"circumstances":4821,"Elect":4822,"Sar":4823,"eper":4824,"armed":4825,"aspect":4826,"weak":4827,"saving":4828,"prefer":4829,"century":4830,"studies":4831,"Army":4832,"Security":4833,"hoping":4834,"practices":4835,"priority":4836,"guidance":4837,"Market":4838,"Russian":4839,"suspended":4840,"Peter":4841,"scientists":4842,"passengers":4843,"obviously":4844,"appropriate":4845,"Institute":4846,"77":4847,"NY":4848,"dire":4849,"eat":4850,"giant":4851,"whel":4852,"wave":4853,"heat":4854,"franch":4855,"ounder":4856,"plants":4857,"perman":4858,"ideas":4859,"obtain":4860,"detect":4861,"cycl":4862,"refused":4863,"seriously":4864,"animals":4865,"restaurant":4866,"broadcast":4867,"determined":4868,"efully":4869,"Barr":4870,"IP":4871,"Je":4872,"Kel":4873,"Vice":4874,"batter":4875,"frequ":4876,"leng":4877,"names":4878,"spl":4879,"vac":4880,"inary":4881,"stations":4882,"andon":4883,"iders":4884,"deals":4885,"ulations":4886,"display":4887,"atters":4888,"cert":4889,"closure":4890,"personnel":4891,"operate":4892,"experienced":4893,"alongside":4894,"considering":4895,"researchers":4896,"Series":4897,"banks":4898,"carried":4899,"surprise":4900,"spokesman":4901,"corporate":4902,"Ire":4903,"east":4904,"pto":4905,"pound":4906,"eter":4907,"deput":4908,"conserv":4909,"teacher":4910,"earned":4911,"Western":4912,"pregn":4913,"estate":4914,"reporters":4915,"viewers":4916,"possibility":4917,"burg":4918,"glass":4919,"ruling":4920,"alternative":4921,"Hor":4922,"Jose":4923,"Mat":4924,"Sur":4925,"dden":4926,"ker":4927,"mort":4928,"tur":4929,"stab":4930,"acad":4931,"convict":4932,"plenty":4933,"boys":4934,"discovered":4935,"intend":4936,"developing":4937,"roads":4938,"extend":4939,"interested":4940,"William":4941,"schedule":4942,"pull":4943,"distribution":4944,"television":4945,"Ohio":4946,"scheme":4947,"attorney":4948,"false":4949,"58":4950,"76":4951,"800":4952,"BO":4953,"Maine":4954,"Oly":4955,"Ra":4956,"Tim":4957,"Wis":4958,"bass":4959,"gg":4960,"master":4961,"nut":4962,"insp":4963,"rep":4964,"eds":4965,"itz":4966,"unicip":4967,"worry":4968,"Week":4969,"brings":4970,"coal":4971,"positions":4972,"therefore":4973,"busy":4974,"Art":4975,"norm":4976,"passing":4977,"solutions":4978,"listed":4979,"greatest":4980,"Love":4981,"challenging":4982,"package":4983,"combat":4984,"Harris":4985,"Hen":4986,"Town":4987,"Ut":4988,"recru":4989,"lease":4990,"accounts":4991,"prospect":4992,"antic":4993,"worried":4994,"overwhel":4995,"Three":4996,"everybody":4997,"coverage":4998,"Arab":4999,"pointed":5000,"paying":5001,"trading":5002,"importance":5003,"causing":5004,"Medical":5005,"destroy":5006,"struggling":5007,"software":5008,"suffered":5009,"influence":5010,"secure":5011,"ultimately":5012,"slightly":5013,"approval":5014,"Following":5015,"59":5016,"AI":5017,"Ah":5018,"Cre":5019,"Camp":5020,"Econom":5021,"Floyd":5022,"Gh":5023,"Mich":5024,"Sw":5025,"Tour":5026,"Yet":5027,"Youn":5028,"itude":5029,"icon":5030,"frame":5031,"airport":5032,"guess":5033,"postpon":5034,"informed":5035,"closely":5036,"videos":5037,"Canadian":5038,"clients":5039,"Mexico":5040,"tournament":5041,"length":5042,"Ap":5043,"Bit":5044,"Kim":5045,"core":5046,"fare":5047,"fish":5048,"mile":5049,"atically":5050,"island":5051,"aced":5052,"contest":5053,"sudden":5054,"apol":5055,"nock":5056,"boss":5057,"thanks":5058,"phen":5059,"phones":5060,"numerous":5061,"Albert":5062,"Social":5063,"statements":5064,"possibly":5065,"advance":5066,"ministry":5067,"Christian":5068,"Micro":5069,"Parliament":5070,"materials":5071,"Olymp":5072,"52":5073,"600":5074,"Ali":5075,"Fort":5076,"Gal":5077,"Iowa":5078,"Long":5079,"Tre":5080,"Van":5081,"Ze":5082,"fires":5083,"ji":5084,"orm":5085,"stim":5086,"alcohol":5087,"ented":5088,"del":5089,"debut":5090,"exchange":5091,"artists":5092,"aked":5093,"elig":5094,"ipt":5095,"comput":5096,"driven":5097,"background":5098,"iction":5099,"famous":5100,"goods":5101,"Only":5102,"defend":5103,"protective":5104,"taxes":5105,"entirely":5106,"weren":5107,"purchased":5108,"confident":5109,"songs":5110,"Singh":5111,"abinet":5112,"honest":5113,"%,":5114,"HE":5115,"Rem":5116,"Yes":5117,"gon":5118,"phase":5119,"rang":5120,"tend":5121,"removed":5122,"assure":5123,"cher":5124,"agric":5125,"optim":5126,"opted":5127,"trave":5128,"shar":5129,"arts":5130,"ipp":5131,"newly":5132,"Still":5133,"icket":5134,"emphas":5135,"rett":5136,"deser":5137,"cuts":5138,"Beach":5139,"expensive":5140,"decline":5141,"please":5142,"Commissioner":5143,"Earth":5144,"trend":5145,"dream":5146,"Royal":5147,"Human":5148,"72":5149,"Det":5150,"Watch":5151,"Zim":5152,"ti":5153,"intelligence":5154,"ental":5155,"ador":5156,"loans":5157,"actual":5158,"iest":5159,"Italy":5160,"mond":5161,"Assembly":5162,"retire":5163,"closer":5164,"Lead":5165,"aught":5166,"younger":5167,"broken":5168,"employee":5169,"pieces":5170,"Netfli":5171,"linked":5172,"Daniel":5173,"wedding":5174,"neighborhood":5175,"Several":5176,"Ireland":5177,"Netflix":5178,"Ash":5179,"Bol":5180,"Get":5181,"NBA":5182,"Women":5183,"tied":5184,"liber":5185,"trick":5186,"ains":5187,"poses":5188,"drivers":5189,"leads":5190,"mayor":5191,"larger":5192,"memor":5193,"producer":5194,"warm":5195,"warning":5196,"Advis":5197,"promise":5198,"moments":5199,"commitment":5200,"Execut":5201,"Look":5202,"models":5203,"racial":5204,"losses":5205,"professor":5206,"Financial":5207,"clubs":5208,"inois":5209,"storm":5210,"chairman":5211,"devast":5212,"Addition":5213,"Education":5214,"Ag":5215,"Bir":5216,"Bet":5217,"Hel":5218,"Pac":5219,"iation":5220,"ki":5221,"lan":5222,"mouth":5223,"sor":5224,"yers":5225,"inations":5226,"icing":5227,"leaves":5228,"iling":5229,"lder":5230,"ourselves":5231,"shift":5232,"ups":5233,"offs":5234,"bles":5235,"counted":5236,"govern":5237,"2013":5238,"lawyer":5239,"singer":5240,"plane":5241,"promised":5242,"staying":5243,"denied":5244,"determine":5245,"immigr":5246,"Earlier":5247,"survive":5248,"featured":5249,"Liber":5250,"consumers":5251,"Illinois":5252,"4th":5253,"Best":5254,"Four":5255,"Hot":5256,"Ira":5257,"Put":5258,"turning":5259,"yes":5260,"earth":5261,"clim":5262,"creation":5263,"bright":5264,"internal":5265,"views":5266,"Acad":5267,"confirm":5268,"smaller":5269,"carrying":5270,"environmental":5271,"establish":5272,"zero":5273,"partnership":5274,"uncertainty":5275,"analysis":5276,"CN":5277,"Dou":5278,"Fer":5279,"Jord":5280,"Kat":5281,"Press":5282,"cards":5283,"gift":5284,"unless":5285,"blue":5286,"Where":5287,"polls":5288,"downs":5289,"Trust":5290,"provin":5291,"Ass":5292,"seasons":5293,"Adam":5294,"programme":5295,"Spain":5296,"profession":5297,"visitors":5298,"trol":5299,"applications":5300,"Brook":5301,"ceremony":5302,"direction":5303,"Young":5304,"Executive":5305,"Iraq":5306,"Bob":5307,"CDC":5308,"Gen":5309,"Hou":5310,"Lt":5311,"Life":5312,"nav":5313,"units":5314,"proced":5315,"shire":5316,"quart":5317,"pra":5318,"acknow":5319,"newsp":5320,"manage":5321,"Station":5322,"draft":5323,"backed":5324,"ships":5325,"Conne":5326,"relevant":5327,"meetings":5328,"employed":5329,"counties":5330,"basic":5331,"acquired":5332,"penal":5333,"suffering":5334,"consult":5335,"institutions":5336,"associated":5337,"imagine":5338,"Martin":5339,"repeated":5340,"Jewish":5341,"Francisco":5342,"stretch":5343,"62":5344,"67":5345,"GA":5346,"ME":5347,"ell":5348,"lad":5349,"matters":5350,"sight":5351,"tag":5352,"ici":5353,"oted":5354,"ette":5355,"device":5356,"resume":5357,"outdoor":5358,"actors":5359,"actress":5360,"strik":5361,"Child":5362,"dry":5363,"phy":5364,"capable":5365,"Enter":5366,"listen":5367,"customer":5368,"racism":5369,"Guard":5370,"structure":5371,"village":5372,"Obama":5373,"Middle":5374,"fiscal":5375,"Foundation":5376,"53":5377,"CC":5378,"IV":5379,"Rod":5380,"bes":5381,"bail":5382,"ox":5383,"powers":5384,"rick":5385,"wake":5386,"wins":5387,"reject":5388,"shif":5389,"quiet":5390,"crimes":5391,"offices":5392,"Coast":5393,"Former":5394,"covering":5395,"requires":5396,"caution":5397,"ucky":5398,"industrial":5399,"Food":5400,"parking":5401,"platforms":5402,"documents":5403,"houses":5404,"Officer":5405,"tools":5406,"Taylor":5407,"guilty":5408,"franchise":5409,"Microsoft":5410,"'.":5411,"69":5412,"Abu":5413,"Cam":5414,"Each":5415,"OT":5416,"Ok":5417,"Ron":5418,"UR":5419,"Whe":5420,"fashion":5421,"uce":5422,"ini":5423,"renew":5424,"stance":5425,"icide":5426,"ros":5427,"oles":5428,"irt":5429,"exchanges":5430,"dra":5431,"dram":5432,"pping":5433,"inson":5434,"Ariz":5435,"Color":5436,"Democrat":5437,"Local":5438,"picked":5439,"messages":5440,"participate":5441,"surprising":5442,"German":5443,"Turkey":5444,"volunteers":5445,"Zoom":5446,"nuclear":5447,"88":5448,"Bloom":5449,"bars":5450,"hes":5451,"lvan":5452,"vior":5453,"waste":5454,"remove":5455,"championship":5456,"cean":5457,"neck":5458,"tray":5459,"quir":5460,"disput":5461,"scar":5462,"collap":5463,"venues":5464,"syn":5465,"Real":5466,"laid":5467,"Boston":5468,"struck":5469,"values":5470,"Administr":5471,"Islam":5472,"Maybe":5473,"quarterback":5474,"talked":5475,"interests":5476,"variety":5477,"failure":5478,"Iranian":5479,"appointment":5480,"surprised":5481,"Among":5482,"gatherings":5483,"pulled":5484,"Muslim":5485,"incredibly":5486,"Richard":5487,"opinion":5488,"Scotland":5489,"conflict":5490,"Jeff":5491,"Pakistan":5492,"Ghana":5493,"sharp":5494,"57":5495,"Election":5496,"Game":5497,"Lag":5498,"Lew":5499,"Rad":5500,"Ryan":5501,"Sports":5502,"Wind":5503,"nations":5504,"obl":5505,"rural":5506,"iti":5507,"lean":5508,"hab":5509,"liqu":5510,"ulate":5511,"ained":5512,"exhib":5513,"acts":5514,"corruption":5515,"ipped":5516,"manner":5517,"ureau":5518,"Asia":5519,"ultural":5520,"2012":5521,"settle":5522,"visited":5523,"maxim":5524,"consensus":5525,"defensive":5526,"Project":5527,"cycle":5528,"walking":5529,"Team":5530,"deadly":5531,"prepare":5532,"connected":5533,"discussion":5534,"advised":5535,"CBS":5536,"occurred":5537,"birthday":5538,"Thanks":5539,"currency":5540,"Profess":5541,"fifth":5542,"dividend":5543,"Michigan":5544,"54":5545,"64":5546,"Back":5547,"Kong":5548,"Pay":5549,"UC":5550,"WE":5551,"kne":5552,"none":5553,"sought":5554,"arms":5555,"lement":5556,"bear":5557,"seats":5558,"cha":5559,"trig":5560,"moves":5561,"grown":5562,"auto":5563,"brary":5564,"myster":5565,"arrang":5566,"knowing":5567,"2010":5568,"2011":5569,"Ford":5570,"dealing":5571,"spreading":5572,"authority":5573,"Foot":5574,"honor":5575,"devices":5576,"Toronto":5577,"monitoring":5578,"quarters":5579,"Daily":5580,"Ha":5581,"Rom":5582,"Sil":5583,"Vill":5584,"fired":5585,"iPh":5586,"rd":5587,"rig":5588,"ramp":5589,"tens":5590,"infl":5591,"iser":5592,"secret":5593,"ads":5594,"improv":5595,"aggress":5596,"expo":5597,"express":5598,"umn":5599,"iana":5600,"Bron":5601,"guaran":5602,"sylvan":5603,"substant":5604,"factors":5605,"shopping":5606,"window":5607,"gathering":5608,"appearance":5609,"temporary":5610,"entertainment":5611,"Eliza":5612,"consequences":5613,"Jordan":5614,"Div":5615,"Ev":5616,"Eag":5617,"Ka":5618,"SU":5619,"Water":5620,"jail":5621,"pal":5622,"sees":5623,"rop":5624,"unk":5625,"suff":5626,"pled":5627,"apartment":5628,"offensive":5629,"coordin":5630,"identity":5631,"hole":5632,"adds":5633,"Asian":5634,"studio":5635,"standards":5636,"household":5637,"investigating":5638,"ski":5639,"riots":5640,"Plan":5641,"System":5642,"tourism":5643,"marriage":5644,"updated":5645,"crypto":5646,"shelter":5647,"Pennsylvan":5648,"psych":5649,"protocols":5650,"51":5651,"Cath":5652,"Fl":5653,"Son":5654,"Show":5655,"Way":5656,"cers":5657,"file":5658,"knock":5659,"nic":5660,"rom":5661,"yield":5662,"’.":5663,"thes":5664,"tomor":5665,"assu":5666,"aside":5667,"assets":5668,"beth":5669,"conven":5670,"western":5671,"ulty":5672,"uma":5673,"Head":5674,"otherwise":5675,"regions":5676,"puts":5677,"tonight":5678,"gotten":5679,"Second":5680,"officially":5681,"returns":5682,"struggle":5683,"Jersey":5684,"canceled":5685,"Global":5686,"Vegas":5687,"tomorrow":5688,"150":5689,"Jay":5690,"golf":5691,"vast":5692,"wound":5693,"aland":5694,"isan":5695,"illegal":5696,"unclear":5697,"tel":5698,"notes":5699,"boat":5700,"blow":5701,"Ann":5702,"intended":5703,"adequ":5704,"handle":5705,"Control":5706,"venture":5707,"lights":5708,"ronic":5709,"panel":5710,"troops":5711,"neighbour":5712,"implemented":5713,"resolution":5714,"Speaking":5715,"relatively":5716,"apolis":5717,"Houston":5718,"250":5719,"61":5720,"Bat":5721,"BBC":5722,"Ener":5723,"Fil":5724,"Hop":5725,"Hong":5726,"Jr":5727,"Jam":5728,"Khan":5729,"Ter":5730,"Wu":5731,"gate":5732,"hits":5733,"kitch":5734,"tail":5735,"instruct":5736,"recording":5737,"orter":5738,"idency":5739,"begins":5740,"olic":5741,"reser":5742,"resist":5743,"brain":5744,"Championship":5745,"posit":5746,"homeless":5747,"desper":5748,"bigger":5749,"bench":5750,"targeted":5751,"matches":5752,"motiv":5753,"shops":5754,"multi":5755,"participants":5756,"teaching":5757,"division":5758,"exciting":5759,"crucial":5760,"typically":5761,"scenes":5762,"Labour":5763,"bottom":5764,"www":5765,"proposal":5766,"precedented":5767,"trouble":5768,"Family":5769,"Card":5770,"PA":5771,"fi":5772,"fing":5773,"gap":5774,"lakh":5775,"sch":5776,"vital":5777,"wers":5778,"ero":5779,"theast":5780,"represents":5781,"itors":5782,"unprecedented":5783,"defeat":5784,"ears":5785,"elim":5786,"eval":5787,"epid":5788,"code":5789,"provider":5790,"decide":5791,"transaction":5792,"parliament":5793,"controvers":5794,"emerged":5795,"walked":5796,"resulted":5797,"suggests":5798,"iami":5799,"square":5800,"briefing":5801,"granted":5802,"tweeted":5803,"behavior":5804,"grocer":5805,"excellent":5806,"Arizona":5807,"Pennsylvania":5808,"85":5809,"Agency":5810,"Greg":5811,"Las":5812,"Miami":5813,"bodies":5814,"gi":5815,"mut":5816,"tree":5817,"uth":5818,"uations":5819,"instru":5820,"icy":5821,"images":5822,"una":5823,"apers":5824,"spots":5825,"identify":5826,"missions":5827,"worldwide":5828,"northern":5829,"dedicated":5830,"footage":5831,"percentage":5832,"reaching":5833,"watched":5834,"Class":5835,"sky":5836,"declined":5837,"significantly":5838,"Paris":5839,"encouraged":5840,"explos":5841,"consumer":5842,"increasingly":5843,"route":5844,"Foreign":5845,"machine":5846,"festival":5847,"Judge":5848,"democracy":5849,"politicians":5850,"permanent":5851,"Wiscons":5852,"Alberta":5853,"Di":5854,"Dise":5855,"Having":5856,"Kam":5857,"Mot":5858,"Sum":5859,"Sky":5860,"borders":5861,"dinner":5862,"fly":5863,"pin":5864,"vit":5865,"revol":5866,"cel":5867,"ulus":5868,"ighter":5869,"princ":5870,"spaces":5871,"iley":5872,"Chan":5873,"pread":5874,"Brad":5875,"pharm":5876,"legit":5877,"engaged":5878,"brea":5879,"Ontar":5880,"volume":5881,"entering":5882,"generally":5883,"falling":5884,"bury":5885,"custody":5886,"stronger":5887,"Steve":5888,"Davis":5889,"collected":5890,"requirements":5891,"communication":5892,"indeed":5893,"updates":5894,"incredible":5895,"satis":5896,"weapons":5897,"adapt":5898,"Sheriff":5899,"scoring":5900,"Academy":5901,"Energy":5902,"Wisconsin":5903,"Call":5904,"Eastern":5905,"Fur":5906,"Manche":5907,"lon":5908,"rif":5909,"tact":5910,"warr":5911,"inspir":5912,"stable":5913,"adel":5914,"defe":5915,"ours":5916,"lla":5917,"Its":5918,"bra":5919,"discrim":5920,"downtown":5921,"ogue":5922,"follows":5923,"fewer":5924,"nights":5925,"Indust":5926,"Attor":5927,"cape":5928,"Shar":5929,"fighters":5930,"species":5931,"Plus":5932,"attempts":5933,"Palest":5934,"Hollywood":5935,"ING":5936,"Investment":5937,"fatal":5938,"nursing":5939,"micro":5940,"Elizabeth":5941,"Ontario":5942,"Manchester":5943,"($":5944,"700":5945,"Cu":5946,"Dar":5947,"Fun":5948,"LG":5949,"Mit":5950,"Special":5951,"Walk":5952,"bond":5953,"cou":5954,"duty":5955,"map":5956,"ila":5957,"roles":5958,"outcome":5959,"exposed":5960,"anywhere":5961,"grat":5962,"cks":5963,"evin":5964,"worker":5965,"bless":5966,"counting":5967,"disaster":5968,"drama":5969,"ampions":5970,"aircraft":5971,"Unfortunately":5972,"empty":5973,"legacy":5974,"relax":5975,"seconds":5976,"nearby":5977,"turns":5978,"babwe":5979,"properties":5980,"vaccines":5981,"demands":5982,"photograph":5983,"featuring":5984,"territ":5985,"immune":5986,"invited":5987,"delayed":5988,"estimates":5989,"index":5990,"manufactur":5991,"cinem":5992,"eligible":5993,"Zimbabwe":5994,"exposure":5995,"Bud":5996,"DO":5997,"Emer":5998,"FI":5999,"Gul":6000,"Please":6001,"RO":6002,"Ray":6003,"Tam":6004,"bare":6005,"fake":6006,"fishing":6007,"founder":6008,"ius":6009,"pace":6010,"ria":6011,"intim":6012,"omo":6013,"belong":6014,"rol":6015,"imposed":6016,"igate":6017,"expl":6018,"fees":6019,"antly":6020,"uster":6021,"mechan":6022,"brid":6023,"Bry":6024,"surface":6025,"folks":6026,"breach":6027,"followers":6028,"buildings":6029,"colleagues":6030,"rolled":6031,"instance":6032,"animal":6033,"Queen":6034,"initiative":6035,"strategic":6036,"rescue":6037,"academic":6038,"Colorado":6039,"Lagos":6040,"Lewis":6041,"AE":6042,"Bul":6043,"Emp":6044,"Jason":6045,"Morgan":6046,"NHS":6047,"Oper":6048,"Raj":6049,"Tele":6050,"Tony":6051,"Tube":6052,"Ul":6053,"cul":6054,"eing":6055,"flying":6056,"patch":6057,"switch":6058,"vs":6059,"vy":6060,"inate":6061,"incent":6062,"theme":6063,"ati":6064,"stal":6065,"ilton":6066,"improved":6067,"oph":6068,"termin":6069,"fru":6070,"proof":6071,"ulting":6072,"gry":6073,"meal":6074,"ansion":6075,"Through":6076,"evac":6077,"discover":6078,"iously":6079,"phia":6080,"surger":6081,"thinks":6082,"thoughts":6083,"azil":6084,"equal":6085,"classic":6086,"pressive":6087,"technical":6088,"parent":6089,"properly":6090,"Justin":6091,"compete":6092,"pushing":6093,"combined":6094,"adesh":6095,"recognize":6096,"suspected":6097,"behavi":6098,"accompl":6099,"recommendations":6100,"category":6101,"scenario":6102,"unicipal":6103,"iPhone":6104,"ABC":6105,"Dun":6106,"Down":6107,"Gor":6108,"Hun":6109,"Power":6110,"Sir":6111,"Test":6112,"banned":6113,"rail":6114,"taught":6115,"rec":6116,"reaction":6117,"ales":6118,"alle":6119,"offee":6120,"condem":6121,"ivals":6122,"clar":6123,"eline":6124,"prec":6125,"perspect":6126,"sym":6127,"relations":6128,"courts":6129,"ubs":6130,"locked":6131,"submitted":6132,"Conference":6133,"Mrs":6134,"expectations":6135,"Afghan":6136,"Senator":6137,"nationwide":6138,"NAS":6139,"Medic":6140,"baseball":6141,"Philadel":6142,"enjoyed":6143,"regulations":6144,"routine":6145,"guests":6146,"Anyone":6147,"historic":6148,"graduate":6149,"Wuhan":6150,"Philadelphia":6151,"5G":6152,"Ba":6153,"Men":6154,"OR":6155,"Ret":6156,"Rose":6157,"Sain":6158,"Sud":6159,"een":6160,"ride":6161,"sco":6162,"sweet":6163,"stuck":6164,"oul":6165,"adults":6166,"rot":6167,"oting":6168,"unning":6169,"agents":6170,"enders":6171,"odd":6172,"aka":6173,"formation":6174,"aska":6175,"Brazil":6176,"memory":6177,"lawmakers":6178,"joining":6179,"Season":6180,"subsid":6181,"urses":6182,"promote":6183,"safely":6184,"attempted":6185,"regularly":6186,"Network":6187,"pictures":6188,"communications":6189,"shape":6190,"Students":6191,"passenger":6192,"temperatures":6193,"emotional":6194,"clinical":6195,"Bowl":6196,"accurate":6197,"Chairman":6198,"Award":6199,"Cross":6200,"Great":6201,"Lin":6202,"Lat":6203,"Lim":6204,"dates":6205,"fold":6206,"jack":6207,"lined":6208,"mere":6209,"inals":6210,"ittle":6211,"ils":6212,"adult":6213,"illing":6214,"resent":6215,"likes":6216,"pod":6217,"craz":6218,"spark":6219,"command":6220,"render":6221,"ensuring":6222,"curb":6223,"observed":6224,"flat":6225,"visits":6226,"visiting":6227,"chem":6228,"applied":6229,"Seattle":6230,"factor":6231,"posts":6232,"planet":6233,"Drive":6234,"organis":6235,"claiming":6236,"involve":6237,"preparing":6238,"soldiers":6239,"heavily":6240,"specifically":6241,"sounds":6242,"royal":6243,"stressed":6244,"Area":6245,"legislation":6246,"tackle":6247,"dozens":6248,"junior":6249,"originally":6250,"cancelled":6251,"split":6252,"deputy":6253,"Zealand":6254,"Professor":6255,"2nd":6256,"63":6257,"Die":6258,"Lyn":6259,"Squ":6260,"Time":6261,"bott":6262,"eating":6263,"flex":6264,"til":6265,"theat":6266,"reform":6267,"veget":6268,"sectors":6269,"forth":6270,"forget":6271,"impossible":6272,"uties":6273,"concept":6274,"agent":6275,"abandon":6276,"peak":6277,"fears":6278,"grass":6279,"aug":6280,"bery":6281,"compon":6282,"firms":6283,"descr":6284,"shouldn":6285,"sett":6286,"fundam":6287,"Rober":6288,"passes":6289,"possession":6290,"marketing":6291,"belief":6292,"friendly":6293,"valu":6294,"depth":6295,"profile":6296,"Program":6297,"idespread":6298,"impacted":6299,"competitive":6300,"targets":6301,"threatened":6302,"fairly":6303,"Syd":6304,"deeply":6305,"recognition":6306,"analyst":6307,"discussions":6308,"Morris":6309,"complaints":6310,"types":6311,"conversations":6312,"scientific":6313,"wonderful":6314,"tickets":6315,"consistent":6316,"affordable":6317,"Kelly":6318,"Economic":6319,"postponed":6320,"79":6321,"AF":6322,"Ever":6323,"Free":6324,"Open":6325,"Top":6326,"Vol":6327,"dial":6328,"eli":6329,"kin":6330,"zy":6331,"alive":6332,"bec":6333,"achel":6334,"seas":6335,"unlikely":6336,"unknown":6337,"noticed":6338,"cloud":6339,"oked":6340,"cket":6341,"somebody":6342,"inton":6343,"understood":6344,"Brady":6345,"desire":6346,"raising":6347,"engage":6348,"marked":6349,"lawsuit":6350,"increases":6351,"axy":6352,"azz":6353,"valid":6354,"industries":6355,"involving":6356,"Charles":6357,"About":6358,"indicated":6359,"hundred":6360,"temperature":6361,"weapon":6362,"Southern":6363,"veteran":6364,"Joseph":6365,"retirement":6366,"maximum":6367,"Bab":6368,"Bang":6369,"Beng":6370,"IM":6371,"Jes":6372,"Kevin":6373,"Santa":6374,"Tik":6375,"ee":6376,"elder":6377,"gam":6378,"kil":6379,"sand":6380,"till":6381,"tank":6382,"icient":6383,"begun":6384,"uted":6385,"residence":6386,"lip":6387,"fron":6388,"offense":6389,"spin":6390,"Anth":6391,"weekly":6392,"regime":6393,"elements":6394,"supports":6395,"charity":6396,"iversary":6397,"founded":6398,"experiences":6399,"2008":6400,"Senior":6401,"failing":6402,"violent":6403,"onym":6404,"cells":6405,"genu":6406,"encouraging":6407,"relationships":6408,"manufacturing":6409,"surrounding":6410,"battery":6411,"inspired":6412,"kitchen":6413,"Attorney":6414,"Sydney":6415,"1st":6416,"74":6417,"Eric":6418,"Gi":6419,"Kent":6420,"Right":6421,"SS":6422,"Tit":6423,"Vo":6424,"gall":6425,"km":6426,"march":6427,"museum":6428,"tun":6429,"widespread":6430,"incess":6431,"theless":6432,"enable":6433,"entre":6434,"rolling":6435,"chances":6436,"verse":6437,"weigh":6438,"enda":6439,"upper":6440,"icken":6441,"angers":6442,"cession":6443,"registr":6444,"donated":6445,"clock":6446,"legend":6447,"publicly":6448,"heads":6449,"heading":6450,"marks":6451,"Josh":6452,"handling":6453,"Beat":6454,"2009":6455,"advanced":6456,"Deputy":6457,"burgh":6458,"Corp":6459,"reasonable":6460,"widely":6461,"explains":6462,"Media":6463,"boxes":6464,"performed":6465,"cleaning":6466,"episodes":6467,"Japanese":6468,"Commun":6469,"journalist":6470,"absence":6471,"normally":6472,"assured":6473,"newspaper":6474,"Anthony":6475,"120":6476,"Dom":6477,"Hal":6478,"JP":6479,"Ly":6480,"Land":6481,"Lord":6482,"Op":6483,"Old":6484,"PD":6485,"Sus":6486,"Tal":6487,"bat":6488,"cies":6489,"jur":6490,"pipe":6491,"’,":6492,"ania":6493,"enh":6494,"outr":6495,"escape":6496,"aser":6497,"amoun":6498,"igen":6499,"oppos":6500,"tribut":6501,"trials":6502,"plom":6503,"crack":6504,"spike":6505,"achment":6506,"intent":6507,"donations":6508,"Cooper":6509,"voter":6510,"YouTube":6511,"holdings":6512,"aimed":6513,"extension":6514,"viral":6515,"stitution":6516,"shortly":6517,"medium":6518,"threatening":6519,"respectively":6520,"Warren":6521,"petition":6522,"effectively":6523,"argued":6524,"ticket":6525,"comedy":6526,"diagnosed":6527,"deployed":6528,"anxiety":6529,"athletes":6530,"Henry":6531,"gonna":6532,"acknowled":6533,"Catholic":6534,"valuable":6535,"genuine":6536,"Agr":6537,"Dak":6538,"Ow":6539,"Sn":6540,"Saudi":6541,"Tha":6542,"Vik":6543,"Wat":6544,"pit":6545,"replace":6546,"stages":6547,"accus":6548,"amber":6549,"util":6550,"plate":6551,"apolog":6552,"endors":6553,"grab":6554,"polling":6555,"retired":6556,"ashed":6557,"headed":6558,"cipl":6559,"handed":6560,"signing":6561,"lawyers":6562,"ventil":6563,"limits":6564,"gym":6565,"Corpor":6566,"stepped":6567,"basically":6568,"hammad":6569,"ratings":6570,"beds":6571,"enny":6572,"addressed":6573,"packed":6574,"winds":6575,"storage":6576,"Golden":6577,"concluded":6578,"appreciate":6579,"Bitcoin":6580,"CNN":6581,"Whether":6582,"Further":6583,"GM":6584,"Hold":6585,"Hope":6586,"Pit":6587,"Wild":6588,"sac":6589,"invent":6590,"rely":6591,"replac":6592,"totally":6593,"escal":6594,"asc":6595,"ician":6596,"illy":6597,"chose":6598,"withdraw":6599,"context":6600,"haw":6601,"neut":6602,"respir":6603,"atell":6604,"earn":6605,"meat":6606,"answers":6607,"nobody":6608,"string":6609,"assigned":6610,"Stadium":6611,"intention":6612,"icking":6613,"estimate":6614,"arrive":6615,"coll":6616,"surve":6617,"tenance":6618,"ika":6619,"graphic":6620,"parks":6621,"cultural":6622,"panic":6623,"suspects":6624,"Perhaps":6625,"citizen":6626,"performing":6627,"nomine":6628,"acceler":6629,"accepted":6630,"dynam":6631,"objective":6632,"Wilson":6633,"minimum":6634,"Spring":6635,"professionals":6636,"epidemic":6637,"81":6638,"Bad":6639,"Ep":6640,"Jon":6641,"Live":6642,"Never":6643,"Sk":6644,"Sab":6645,"diverse":6646,"fought":6647,"hat":6648,"lins":6649,"ole":6650,"si":6651,"xit":6652,"reck":6653,"ende":6654,"icit":6655,"seed":6656,"champion":6657,"olar":6658,"brut":6659,"brands":6660,"Stan":6661,"lowest":6662,"arrival":6663,"finance":6664,"issions":6665,"guide":6666,"fled":6667,"cutting":6668,"producing":6669,"Soci":6670,"filing":6671,"apping":6672,"Book":6673,"Northern":6674,"grounds":6675,"motion":6676,"collective":6677,"Regional":6678,"Everyone":6679,"Israeli":6680,"premier":6681,"Check":6682,"narrative":6683,"selected":6684,"Navy":6685,"literally":6686,"segment":6687,"Football":6688,"DE":6689,"Five":6690,"Jac":6691,"Lady":6692,"Matt":6693,"Mumb":6694,"Na":6695,"WHO":6696,"coffee":6697,"garden":6698,"mits":6699,"mph":6700,"ray":6701,"rival":6702,"wage":6703,"thir":6704,"reh":6705,"andal":6706,"itate":6707,"entr":6708,"impe":6709,"etc":6710,"abroad":6711,"tracing":6712,"Ital":6713,"evil":6714,"somewhat":6715,"brill":6716,"intensive":6717,"forever":6718,"vessel":6719,"fundra":6720,"subsequ":6721,"keeps":6722,"findings":6723,"households":6724,"districts":6725,"technologies":6726,"sentence":6727,"salary":6728,"celebration":6729,"diplom":6730,"racist":6731,"discussed":6732,"Guy":6733,"CAA":6734,"represented":6735,"fortunate":6736,"bourne":6737,"sustainable":6738,"Tokyo":6739,"anticipated":6740,"constantly":6741,"universities":6742,"stimulus":6743,"Additionally":6744,"Pacific":6745,"substantial":6746,"Eagles":6747,"Disease":6748,"Bryant":6749,"podcast":6750,"crazy":6751,"73":6752,"?\"":6753,"AL":6754,"Bas":6755,"Es":6756,"Night":6757,"Nations":6758,"PT":6759,"Us":6760,"Vi":6761,"bomb":6762,"drew":6763,"gor":6764,"gear":6765,"pting":6766,"sending":6767,"wart":6768,"insu":6769,"recalled":6770,"orate":6771,"allies":6772,"ami":6773,"amm":6774,"amin":6775,"conspir":6776,"absent":6777,"lift":6778,"prohib":6779,"ula":6780,"plastic":6781,"asts":6782,"cord":6783,"oko":6784,"iption":6785,"backs":6786,"Brian":6787,"Minne":6788,"areness":6789,"cautions":6790,"causes":6791,"controlled":6792,"trained":6793,"Bernie":6794,"Keep":6795,"dogs":6796,"squad":6797,"captured":6798,"Metro":6799,"horror":6800,"Hawai":6801,"occasion":6802,"Denver":6803,"provincial":6804,"Roberts":6805,"TikTok":6806,"89":6807,"Aff":6808,"BS":6809,"Farm":6810,"Han":6811,"Hur":6812,"Lives":6813,"Liver":6814,"Mir":6815,"Sub":6816,"bin":6817,"diversity":6818,"gal":6819,"hill":6820,"pson":6821,"encounter":6822,"oration":6823,"stol":6824,"otic":6825,"opposed":6826,"resort":6827,"resulting":6828,"prop":6829,"ulating":6830,"sover":6831,"export":6832,"exemp":6833,"pover":6834,"2022":6835,"endor":6836,"meals":6837,"ipal":6838,"strange":6839,"achu":6840,"counsel":6841,"discipl":6842,"icks":6843,"vised":6844,"USA":6845,"feelings":6846,"Beij":6847,"patter":6848,"seniors":6849,"Boy":6850,"defence":6851,"mandate":6852,"Meghan":6853,"Juli":6854,"Span":6855,"Space":6856,"races":6857,"contracts":6858,"Airport":6859,"combination":6860,"extraordinary":6861,"Patriots":6862,"altern":6863,"recommended":6864,"institutional":6865,"expanded":6866,"roughly":6867,"volunteer":6868,"collaboration":6869,"computer":6870,"improving":6871,"adequate":6872,"behaviour":6873,"Mumbai":6874,"Minneapolis":6875,"stolen":6876,"Beijing":6877,"Awards":6878,"Bi":6879,"Eth":6880,"Fest":6881,"GB":6882,"GDP":6883,"Hist":6884,"IO":6885,"Nev":6886,"Oak":6887,"Photo":6888,"Sony":6889,"afr":6890,"dining":6891,"faster":6892,"gs":6893,"greg":6894,"iat":6895,"rics":6896,"sam":6897,"inent":6898,"repair":6899,"hell":6900,"beating":6901,"utical":6902,"deem":6903,"essions":6904,"blame":6905,"awards":6906,"aceutical":6907,"prene":6908,"disclosed":6909,"formed":6910,"drag":6911,"mining":6912,"asks":6913,"anniversary":6914,"insisted":6915,"visible":6916,"folio":6917,"Common":6918,"chell":6919,"factory":6920,"Grant":6921,"finds":6922,"extent":6923,"Marvel":6924,"stayed":6925,"wheel":6926,"hari":6927,"burden":6928,"reducing":6929,"dependent":6930,"departments":6931,"outbreaks":6932,"pleas":6933,"representing":6934,"horse":6935,"bills":6936,"slowly":6937,"domin":6938,"explore":6939,"beauty":6940,"Thompson":6941,"Portland":6942,"mixed":6943,"Brexit":6944,"rushed":6945,"Defense":6946,"lux":6947,"itarian":6948,"opponent":6949,"repeatedly":6950,"Bloomberg":6951,"Palestin":6952,"Cuomo":6953,"perspective":6954,"symbol":6955,"Society":6956,"CS":6957,"HD":6958,"Main":6959,"Nation":6960,"Rev":6961,"Rest":6962,"TE":6963,"Win":6964,"bath":6965,"fab":6966,"ju":6967,"mountain":6968,"rug":6969,"satell":6970,"tu":6971,"voc":6972,"sters":6973,"edition":6974,"oured":6975,"chart":6976,"uru":6977,"urge":6978,"eman":6979,"exter":6980,"permitted":6981,"overseas":6982,"cos":6983,"presidency":6984,"regon":6985,"bub":6986,"clothing":6987,"phil":6988,"Cook":6989,"producers":6990,"Sea":6991,"situations":6992,"hopefully":6993,"hospitalized":6994,"carbon":6995,"grees":6996,"experiencing":6997,"McC":6998,"musical":6999,"Clark":7000,"protected":7001,"reduction":7002,"strongly":7003,"banking":7004,"threats":7005,"hosted":7006,"purchasing":7007,"necessarily":7008,"Abd":7009,"divor":7010,"complaint":7011,"qualified":7012,"cameras":7013,"Music":7014,"assessment":7015,"remarks":7016,"conservative":7017,"pregnant":7018,"suddenly":7019,"Administration":7020,"grocery":7021,"surgery":7022,"Dakota":7023,"Ay":7024,"Hay":7025,"Have":7026,"Kay":7027,"Lind":7028,"ML":7029,"Mountain":7030,"Oregon":7031,"Ted":7032,"cill":7033,"cure":7034,"gang":7035,"gaming":7036,"lum":7037,"mart":7038,"mary":7039,"pup":7040,"plead":7041,"wal":7042,"rebound":7043,"ican":7044,"acle":7045,"uters":7046,"dece":7047,"habit":7048,"exit":7049,"therap":7050,"anybody":7051,"ansas":7052,"rence":7053,"thrown":7054,"closures":7055,"captain":7056,"Ross":7057,"subscr":7058,"expects":7059,"mainly":7060,"maintenance":7061,"mandatory":7062,"distur":7063,"fields":7064,"infectious":7065,"Nigerians":7066,"porter":7067,"60s":7068,"labour":7069,"hotels":7070,"Does":7071,"tracking":7072,"Schools":7073,"primarily":7074,"trees":7075,"maintained":7076,"client":7077,"suspic":7078,"nomination":7079,"Investors":7080,"independence":7081,"referred":7082,"Labor":7083,"criticism":7084,"trailer":7085,"apparently":7086,"Modi":7087,"Irish":7088,"Utah":7089,"Ltd":7090,"rejected":7091,"trigger":7092,"territory":7093,"Again":7094,"Dor":7095,"Did":7096,"GH":7097,"Kum":7098,"Little":7099,"PR":7100,"Rap":7101,"Ur":7102,"Vis":7103,"duties":7104,"lunch":7105,"mild":7106,"ov":7107,"rit":7108,"threw":7109,"inquir":7110,"reput":7111,"arus":7112,"army":7113,"icial":7114,"leim":7115,"impressive":7116,"delight":7117,"abled":7118,"trillion":7119,"ulous":7120,"soc":7121,"excess":7122,"llow":7123,"umes":7124,"compreh":7125,"branch":7126,"ministers":7127,"helic":7128,"proven":7129,"underlying":7130,"archite":7131,"tons":7132,"Alab":7133,"apps":7134,"extensive":7135,"listening":7136,"organized":7137,"Moore":7138,"concert":7139,"processes":7140,"harvest":7141,"cyber":7142,"ruled":7143,"graphy":7144,"rupted":7145,"swim":7146,"reliable":7147,"isolated":7148,"snap":7149,"kicked":7150,"channel":7151,"Turk":7152,"Current":7153,"Members":7154,"Authority":7155,"brilliant":7156,"84":7157,"Bag":7158,"Ball":7159,"CH":7160,"Dy":7161,"ES":7162,"Fair":7163,"Kir":7164,"Light":7165,"Nel":7166,"Nick":7167,"OK":7168,"Pen":7169,"Pop":7170,"Rog":7171,"Six":7172,"VP":7173,"Viet":7174,"Ye":7175,"iqu":7176,"lady":7177,"oo":7178,"rand":7179,"sis":7180,"tip":7181,"aled":7182,"arc":7183,"aya":7184,"owed":7185,"owing":7186,"roof":7187,"roots":7188,"verage":7189,"degrees":7190,"resil":7191,"outing":7192,"grate":7193,"cooperation":7194,"centres":7195,"formal":7196,"thrill":7197,"landed":7198,"facts":7199,"Without":7200,"shortage":7201,"falls":7202,"refuge":7203,"nationally":7204,"educational":7205,"SARS":7206,"representative":7207,"performances":7208,"Highway":7209,"blocks":7210,"90s":7211,"Buil":7212,"Buhari":7213,"MPs":7214,"argument":7215,"Officers":7216,"resolved":7217,"constitu":7218,"constitutional":7219,"cooking":7220,"historical":7221,"Boris":7222,"jumped":7223,"categories":7224,"medicine":7225,"fixed":7226,"Hamilton":7227,"NSW":7228,"agricultural":7229,"Gulf":7230,"entreprene":7231,"poverty":7232,"Spanish":7233,"3rd":7234,"96":7235,"Av":7236,"Broad":7237,"Civil":7238,"Fall":7239,"Gra":7240,"Ku":7241,"Later":7242,"RT":7243,"Ren":7244,"Sams":7245,"bors":7246,"dim":7247,"dying":7248,"egg":7249,"gross":7250,"nis":7251,"nurses":7252,"rub":7253,"tum":7254,"wore":7255,"isher":7256,"assum":7257,"behalf":7258,"admit":7259,"utter":7260,"conver":7261,"emissions":7262,"noting":7263,"2000":7264,"upgrad":7265,"awareness":7266,"prepar":7267,"intense":7268,"Which":7269,"scape":7270,"element":7271,"personally":7272,"perior":7273,"capabilities":7274,"ahu":7275,"Environment":7276,"Should":7277,"processing":7278,"expansion":7279,"borrow":7280,"spoken":7281,"portray":7282,"Michel":7283,"hosting":7284,"coaches":7285,"assistant":7286,"judg":7287,"swing":7288,"incidents":7289,"reviewed":7290,"delivering":7291,"gathered":7292,"isolate":7293,"cruise":7294,"Indiana":7295,"sanctions":7296,"awarded":7297,"Prevention":7298,"ederation":7299,"negotiations":7300,"Science":7301,"efficient":7302,"Treas":7303,"Radio":7304,"sufficient":7305,"Mitchell":7306,"elderly":7307,"Agric":7308,"neutral":7309,"leimani":7310,"Samsung":7311,"Dev":7312,"Luc":7313,"ND":7314,"Nic":7315,"Os":7316,"Oli":7317,"Rights":7318,"Set":7319,"Tar":7320,"Uk":7321,"bn":7322,"bally":7323,"bread":7324,"cited":7325,"dated":7326,"dating":7327,"eager":7328,"fro":7329,"fits":7330,"latter":7331,"tent":7332,"wrest":7333,"reporter":7334,"editor":7335,"toile":7336,"illance":7337,"usal":7338,"nels":7339,"liked":7340,"proportion":7341,"exceed":7342,"anymore":7343,"spons":7344,"blast":7345,"compar":7346,"disappointed":7347,"Stat":7348,"format":7349,"mini":7350,"airline":7351,"Cost":7352,"Report":7353,"funeral":7354,"Bell":7355,"foundation":7356,"managing":7357,"sixth":7358,"seemingly":7359,"emerging":7360,"privile":7361,"contacted":7362,"celebrated":7363,"70s":7364,"interviews":7365,"drawn":7366,"fitness":7367,"contribute":7368,"contributed":7369,"crowds":7370,"regulatory":7371,"attribut":7372,"Scottish":7373,"bags":7374,"smooth":7375,"Melbourne":7376,"washing":7377,"dozen":7378,"fantastic":7379,"bassy":7380,"destroyed":7381,"Children":7382,"Division":7383,"Italian":7384,"Liverpool":7385,"afraid":7386,"Abdul":7387,"Ban":7388,"Ell":7389,"Gun":7390,"Games":7391,"Jour":7392,"Matter":7393,"Such":7394,"Tai":7395,"UT":7396,"mat":7397,"nab":7398,"uf":7399,"uct":7400,"uated":7401,"anne":7402,"rein":7403,"enjo":7404,"adopted":7405,"chap":7406,"unve":7407,"ett":7408,"confront":7409,"tears":7410,"extr":7411,"prise":7412,"overnight":7413,"boards":7414,"cream":7415,"precautions":7416,"ishment":7417,"flav":7418,"legally":7419,"Constitution":7420,"economies":7421,"detail":7422,"lists":7423,"harder":7424,"hitting":7425,"stocks":7426,"humans":7427,"campaigns":7428,"protecting":7429,"Stephen":7430,"privacy":7431,"coaching":7432,"barrel":7433,"pleased":7434,"representatives":7435,"immunity":7436,"Chiefs":7437,"gained":7438,"requested":7439,"contained":7440,"acquiring":7441,"virtually":7442,"survived":7443,"distributed":7444,"cancel":7445,"Montreal":7446,"Murphy":7447,"temporarily":7448,"pilot":7449,"pounds":7450,"recruit":7451,"devastating":7452,"Diego":7453,"Chel":7454,"Gir":7455,"Gard":7456,"HL":7457,"Lau":7458,"PO":7459,"ders":7460,"ias":7461,"pump":7462,"rice":7463,"tall":7464,"wine":7465,"wich":7466,"inno":7467,"theaters":7468,"reward":7469,"ication":7470,"entit":7471,"aco":7472,"chat":7473,"amend":7474,"urgent":7475,"utch":7476,"etic":7477,"opens":7478,"shore":7479,"antib":7480,"ller":7481,"odds":7482,"portfolio":7483,"ause":7484,"compens":7485,"ached":7486,"dish":7487,"centers":7488,"curities":7489,"providers":7490,"chosen":7491,"observ":7492,"beta":7493,"setts":7494,"breath":7495,"Read":7496,"handful":7497,"realized":7498,"Conserv":7499,"ikes":7500,"azine":7501,"organisation":7502,"depending":7503,"fallen":7504,"Clinton":7505,"activists":7506,"hydro":7507,"essentially":7508,"requirement":7509,"clip":7510,"sanitiz":7511,"license":7512,"typical":7513,"silver":7514,"heroes":7515,"witnessed":7516,"capture":7517,"acceptable":7518,"inches":7519,"currencies":7520,"drinking":7521,"Transport":7522,"Organization":7523,"Massachu":7524,"satisf":7525,"Bengal":7526,"registration":7527,"Affairs":7528,"Massachusetts":7529,"\",":7530,"Aar":7531,"BJP":7532,"Cred":7533,"EPS":7534,"Ga":7535,"Jen":7536,"LP":7537,"Mob":7538,"Ol":7539,"TON":7540,"UP":7541,"WA":7542,"Was":7543,"Xbox":7544,"ae":7545,"din":7546,"lone":7547,"waters":7548,"thew":7549,"orial":7550,"alert":7551,"esh":7552,"icting":7553,"height":7554,"selection":7555,"ima":7556,"ura":7557,"unusual":7558,"ctic":7559,"lihood":7560,"loves":7561,"pel":7562,"outstanding":7563,"suicide":7564,"shield":7565,"shirt":7566,"worn":7567,"cler":7568,"sphere":7569,"blank":7570,"stron":7571,"izer":7572,"Anton":7573,"whenever":7574,"ensity":7575,"hoc":7576,"reads":7577,"donate":7578,"helpful":7579,"Anderson":7580,"desk":7581,"deserve":7582,"visual":7583,"Coin":7584,"calm":7585,"lessons":7586,"courage":7587,"operates":7588,"statistics":7589,"affairs":7590,"expecting":7591,"directors":7592,"expenses":7593,"eases":7594,"impacts":7595,"Phill":7596,"damaged":7597,"addressing":7598,"vocal":7599,"hearts":7600,"windows":7601,"titles":7602,"gains":7603,"requests":7604,"speaks":7605,"Alexander":7606,"nurse":7607,"predicted":7608,"Miller":7609,"mistake":7610,"advertising":7611,"rapidly":7612,"obtained":7613,"iconic":7614,"procedures":7615,"aggressive":7616,"surveillance":7617,"Jacob":7618,"Ukrain":7619,"Bes":7620,"Cast":7621,"Cry":7622,"Cape":7623,"Dol":7624,"Dall":7625,"FO":7626,"Jun":7627,"Kr":7628,"Nat":7629,"Nag":7630,"Sad":7631,"VI":7632,"Wel":7633,"cabinet":7634,"gif":7635,"municipal":7636,"phas":7637,"tie":7638,"vation":7639,"wick":7640,"indoor":7641,"inmates":7642,"ern":7643,"anonym":7644,"toler":7645,"isa":7646,"itical":7647,"bean":7648,"iron":7649,"aret":7650,"etime":7651,"agenda":7652,"emi":7653,"trib":7654,"ounce":7655,"quant":7656,"Inde":7657,"iew":7658,"aven":7659,"comply":7660,"pressing":7661,"diseases":7662,"anna":7663,"clothes":7664,"sons":7665,"loyal":7666,"signature":7667,"investments":7668,"populations":7669,"summary":7670,"classroom":7671,"investigate":7672,"involves":7673,"Exchange":7674,"traveling":7675,"Austin":7676,"rounds":7677,"celebrating":7678,"checks":7679,"Finance":7680,"80s":7681,"actively":7682,"touchdowns":7683,"existence":7684,"Charlot":7685,"Region":7686,"improvement":7687,"peaceful":7688,"laptop":7689,"witnesses":7690,"ranked":7691,"electricity":7692,"southern":7693,"Stock":7694,"Kyle":7695,"methods":7696,"Galaxy":7697,"Emergency":7698,"chemical":7699,"kilomet":7700,"nominee":7701,"71":7702,"AD":7703,"Bureau":7704,"Dod":7705,"Due":7706,"FBI":7707,"Given":7708,"Hallow":7709,"Jess":7710,"Kate":7711,"Mun":7712,"Museum":7713,"Next":7714,"bird":7715,"cable":7716,"iop":7717,"iated":7718,"lucky":7719,"py":7720,"pages":7721,"tier":7722,"uate":7723,"waves":7724,"….":7725,"anded":7726,"forcing":7727,"neither":7728,"resign":7729,"library":7730,"saved":7731,"kel":7732,"grav":7733,"somehow":7734,"cents":7735,"ibilities":7736,"readers":7737,"provision":7738,"fulfill":7739,"donation":7740,"serves":7741,"everyday":7742,"colour":7743,"relatives":7744,"calc":7745,"Commer":7746,"funny":7747,"Arts":7748,"Leban":7749,"operational":7750,"Adams":7751,"Prote":7752,"nett":7753,"2003":7754,"brothers":7755,"milk":7756,"Represent":7757,"taxpay":7758,"Resident":7759,"demanding":7760,"NASA":7761,"minds":7762,"participation":7763,"elsewhere":7764,"shutdown":7765,"neighbors":7766,"crop":7767,"thousand":7768,"equipped":7769,"adviser":7770,"boyfriend":7771,"Queens":7772,"attendance":7773,"walls":7774,"journalists":7775,"consistently":7776,"accommod":7777,"minority":7778,"audiences":7779,"Atlantic":7780,"ranging":7781,"Abuja":7782,"collapse":7783,"oblig":7784,"tensions":7785,"defeated":7786,"Alabama":7787,"Turkish":7788,"Dallas":7789,"86":7790,"87":7791,"97":7792,"Carr":7793,"Camer":7794,"Dam":7795,"Dig":7796,"Fans":7797,"Hon":7798,"Lar":7799,"Laur":7800,"Make":7801,"Mount":7802,"Pas":7803,"Pass":7804,"UAE":7805,"Wy":7806,"WWE":7807,"citing":7808,"eco":7809,"gage":7810,"mm":7811,"math":7812,"pill":7813,"pending":7814,"sider":7815,"tin":7816,"wet":7817,"zing":7818,"instruction":7819,"theory":7820,"stro":7821,"stadium":7822,"otal":7823,"consc":7824,"construct":7825,"consecut":7826,"opter":7827,"emies":7828,"suits":7829,"ifer":7830,"anyway":7831,"Information":7832,"overcome":7833,"noise":7834,"complet":7835,"Stone":7836,"mont":7837,"curve":7838,"scared":7839,"Bridge":7840,"legs":7841,"Rece":7842,"covers":7843,"Arch":7844,"Dead":7845,"facil":7846,"detailed":7847,"2007":7848,"harass":7849,"lockdowns":7850,"successfully":7851,"accessible":7852,"reveals":7853,"respective":7854,"Partners":7855,"loaded":7856,"Belarus":7857,"implementation":7858,"Speaker":7859,"consumption":7860,"Korean":7861,"prosecutors":7862,"Jews":7863,"GOP":7864,"innovation":7865,"innovative":7866,"Technology":7867,"opponents":7868,"decrease":7869,"complicated":7870,"convicted":7871,"overwhelming":7872,"liquid":7873,"assume":7874,"controversial":7875,"Morrison":7876,"Corporation":7877,"impeachment":7878,"Ethiop":7879,"grateful":7880,"Building":7881,"Journal":7882,"?’":7883,"Amy":7884,"Cas":7885,"Cow":7886,"Dub":7887,"Kh":7888,"Low":7889,"NBC":7890,"Pom":7891,"Rel":7892,"Sem":7893,"Saf":7894,"Vide":7895,"aired":7896,"gard":7897,"moun":7898,"trem":7899,"vig":7900,"tox":7901,"aro":7902,"arity":7903,"oma":7904,"beloved":7905,"vet":7906,"acon":7907,"roid":7908,"usage":7909,"neys":7910,"lob":7911,"prob":7912,"apo":7913,"20th":7914,"clash":7915,"compliance":7916,"brown":7917,"dismissed":7918,"Trade":7919,"airy":7920,"everywhere":7921,"shoulder":7922,"residential":7923,"funded":7924,"lah":7925,"operators":7926,"Sean":7927,"aims":7928,"ologist":7929,"employers":7930,"controls":7931,"Columb":7932,"shoes":7933,"Orange":7934,"succeed":7935,"attacked":7936,"sugar":7937,"questioned":7938,"writes":7939,"contracted":7940,"Barrett":7941,"terrible":7942,"Small":7943,"recognized":7944,"struggled":7945,"surviv":7946,"Kenya":7947,"achieved":7948,"error":7949,"association":7950,"trips":7951,"delays":7952,"expanding":7953,"robust":7954,"strengthen":7955,"guest":7956,"initiatives":7957,"dreams":7958,"smoke":7959,"Muhammad":7960,"passionate":7961,"savings":7962,"stabil":7963,"nutr":7964,"Leader":7965,"penalty":7966,"dispute":7967,"knee":7968,"explosion":7969,"Employ":7970,"fruit":7971,"Afghanistan":7972,"juris":7973,"amounts":7974,"igenous":7975,"respiratory":7976,"conspiracy":7977,"pleaded":7978,"consecutive":7979,"82":7980,"Aber":7981,"Bh":7982,"Based":7983,"Cir":7984,"Cla":7985,"Cru":7986,"Fau":7987,"Gab":7988,"Gree":7989,"Hend":7990,"Jenn":7991,"MO":7992,"Mult":7993,"NT":7994,"Nam":7995,"Naz":7996,"Ott":7997,"Sometimes":7998,"Take":7999,"hunt":8000,"iy":8001,"ien":8002,"jab":8003,"nand":8004,"rical":8005,"sits":8006,"tiny":8007,"rell":8008,"enemies":8009,"alo":8010,"assem":8011,"itage":8012,"implic":8013,"urging":8014,"aga":8015,"safer":8016,"modif":8017,"shr":8018,"2023":8019,"ivic":8020,"corn":8021,"hadn":8022,"somewhere":8023,"ishop":8024,"attending":8025,"wanting":8026,"buses":8027,"useful":8028,"engagement":8029,"headlines":8030,"courses":8031,"secondary":8032,"patri":8033,"developments":8034,"employer":8035,"quarterly":8036,"solve":8037,"contrast":8038,"electoral":8039,"investigations":8040,"deliber":8041,"audio":8042,"productive":8043,"Lock":8044,"Steel":8045,"bedroom":8046,"picks":8047,"suggesting":8048,"deadline":8049,"DAQ":8050,"Philipp":8051,"Support":8052,"girlfriend":8053,"iveness":8054,"sustained":8055,"talented":8056,"Wales":8057,"Major":8058,"hanging":8059,"favourite":8060,"Tennes":8061,"pursue":8062,"aspects":8063,"frequently":8064,"replied":8065,"governance":8066,"Brooklyn":8067,"revolution":8068,"discrimination":8069,"NASDAQ":8070,"Jesus":8071,"Festival":8072,"Nevada":8073,"reputation":8074,"Chelsea":8075,"91":8076,"AA":8077,"Along":8078,"Burn":8079,"Ca":8080,"Clar":8081,"Cabinet":8082,"Der":8083,"Dave":8084,"Fut":8085,"GE":8086,"GP":8087,"IL":8088,"Lev":8089,"Phase":8090,"SC":8091,"SD":8092,"Shel":8093,"Tan":8094,"Tro":8095,"Ther":8096,"iency":8097,"jer":8098,"kar":8099,"mi":8100,"scan":8101,"twe":8102,"tap":8103,"inct":8104,"reference":8105,"replaced":8106,"reforms":8107,"reiter":8108,"roster":8109,"ambit":8110,"illa":8111,"delic":8112,"concent":8113,"agers":8114,"abad":8115,"abort":8116,"pros":8117,"ounced":8118,"fever":8119,"earning":8120,"permit":8121,"mel":8122,"timing":8123,"ipes":8124,"Ant":8125,"disinfect":8126,"Stand":8127,"forest":8128,"arry":8129,"athy":8130,"Bruce":8131,"phr":8132,"ogan":8133,"Soleimani":8134,"responding":8135,"smile":8136,"realize":8137,"Consu":8138,"faculty":8139,"Being":8140,"generations":8141,"searching":8142,"Moham":8143,"networks":8144,"moral":8145,"Carl":8146,"trains":8147,"kinds":8148,"buyers":8149,"screens":8150,"screening":8151,"experiment":8152,"judges":8153,"Warner":8154,"appointing":8155,"treas":8156,"Charlie":8157,"conducting":8158,"tourists":8159,"Captain":8160,"beaten":8161,"copy":8162,"transportation":8163,"PPE":8164,"strategies":8165,"transferred":8166,"RCMP":8167,"cycling":8168,"travelling":8169,"sorry":8170,"scholar":8171,"principal":8172,"legitimate":8173,"opposite":8174,"Pitts":8175,"Guyana":8176,"Hawaii":8177,"Currently":8178,"Halloween":8179,"Bon":8180,"Find":8181,"HA":8182,"MB":8183,"Master":8184,"Nik":8185,"Ox":8186,"Pa":8187,"Pad":8188,"Rab":8189,"Seven":8190,"Wol":8191,"bio":8192,"dale":8193,"eer":8194,"eastern":8195,"hide":8196,"hired":8197,"hiring":8198,"jan":8199,"lake":8200,"ocean":8201,"punch":8202,"sne":8203,"thy":8204,"iner":8205,"intr":8206,"angry":8207,"remin":8208,"stunning":8209,"aler":8210,"uni":8211,"deleg":8212,"weird":8213,"emb":8214,"moon":8215,"soil":8216,"plot":8217,"permission":8218,"anyahu":8219,"grants":8220,"crush":8221,"izon":8222,"playoff":8223,"curfew":8224,"provisions":8225,"choices":8226,"underway":8227,"column":8228,"longtime":8229,"bush":8230,"personality":8231,"monthly":8232,"Armen":8233,"chest":8234,"USD":8235,"announcing":8236,"solar":8237,"powered":8238,"promises":8239,"vari":8240,"cuit":8241,"Bern":8242,"reviews":8243,"popularity":8244,"contributions":8245,"Patrick":8246,"Netanyahu":8247,"Associated":8248,"Robinson":8249,"engineering":8250,"holidays":8251,"narrow":8252,"conclusion":8253,"sleeping":8254,"sweep":8255,"Matthew":8256,"intendent":8257,"Olympic":8258,"Islamic":8259,"desperate":8260,"Channel":8261,"barely":8262,"fabric":8263,"Aaron":8264,"hockey":8265,"Charlotte":8266,"conscious":8267,"92":8268,"Ade":8269,"Base":8270,"Bush":8271,"Buck":8272,"Baker":8273,"Easter":8274,"Hu":8275,"Hous":8276,"Kad":8277,"Ny":8278,"Pun":8279,"eign":8280,"hen":8281,"iro":8282,"loud":8283,"lung":8284,"wire":8285,"inth":8286,"eria":8287,"theft":8288,"onso":8289,"reopened":8290,"recession":8291,"stig":8292,"arian":8293,"asset":8294,"iture":8295,"beer":8296,"iments":8297,"deen":8298,"deeper":8299,"conce":8300,"opher":8301,"resource":8302,"tri":8303,"trag":8304,"sher":8305,"tear":8306,"ighth":8307,"perpet":8308,"aved":8309,"timore":8310,"ideal":8311,"epic":8312,"nose":8313,"boot":8314,"creates":8315,"Staff":8316,"Whit":8317,"draf":8318,"icted":8319,"arring":8320,"versus":8321,"statewide":8322,"Command":8323,"Joy":8324,"handled":8325,"invested":8326,"investing":8327,"tennis":8328,"submit":8329,"Princess":8330,"appearing":8331,"viously":8332,"prominent":8333,"wenty":8334,"Manager":8335,"competing":8336,"contacts":8337,"worthy":8338,"pickup":8339,"Reserve":8340,"voices":8341,"hosts":8342,"contracting":8343,"focusing":8344,"touched":8345,"semi":8346,"divided":8347,"paint":8348,"broader":8349,"progressive":8350,"Kingdom":8351,"Officials":8352,"premium":8353,"secured":8354,"sensitive":8355,"documentary":8356,"losi":8357,"Baltimore":8358,"veterans":8359,"rarely":8360,"embrace":8361,"Sarah":8362,"coalition":8363,"overwhelmed":8364,"praised":8365,"Connell":8366,"Evans":8367,"manufacturers":8368,"components":8369,"tribute":8370,"acknowledged":8371,"samples":8372,"deemed":8373,"comprehensive":8374,"Credit":8375,"jurisdict":8376,"Aberdeen":8377,"Fauci":8378,"Tennessee":8379,"94":8380,"FF":8381,"Fal":8382,"Hart":8383,"IR":8384,"Lor":8385,"Mand":8386,"Mas":8387,"Mom":8388,"Rivers":8389,"bike":8390,"gust":8391,"hint":8392,"jury":8393,"lough":8394,"piv":8395,"sample":8396,"wider":8397,"wages":8398,"zi":8399,"zen":8400,"inaug":8401,"thetic":8402,"enthus":8403,"stan":8404,"stall":8405,"eding":8406,"asp":8407,"roit":8408,"chicken":8409,"unexpected":8410,"unfortunately":8411,"conv":8412,"comic":8413,"emails":8414,"frag":8415,"shed":8416,"tees":8417,"fel":8418,"ially":8419,"cock":8420,"izations":8421,"discharged":8422,"obst":8423,"intervention":8424,"casual":8425,"empower":8426,"coln":8427,"Android":8428,"memo":8429,"Reuters":8430,"labe":8431,"Leon":8432,"operator":8433,"Country":8434,"purposes":8435,"generated":8436,"deficit":8437,"Carter":8438,"equally":8439,"emerg":8440,"dropping":8441,"globally":8442,"steady":8443,"Centers":8444,"checking":8445,"Canadians":8446,"Airlines":8447,"physically":8448,"attempting":8449,"blocked":8450,"welcomed":8451,"Edmon":8452,"Engine":8453,"communicate":8454,"rapper":8455,"magic":8456,"SEC":8457,"nominated":8458,"answered":8459,"smartphone":8460,"bottle":8461,"exception":8462,"boosted":8463,"soul":8464,"proceedings":8465,"Authorities":8466,"evolution":8467,"Hotel":8468,"Putin":8469,"mystery":8470,"Gordon":8471,"scores":8472,"Lincoln":8473,"organisations":8474,"abandoned":8475,"fundamental":8476,"luxury":8477,"deceased":8478,"helicopter":8479,"Vietnam":8480,"Columbia":8481,"Cele":8482,"Clevel":8483,"DNA":8484,"Gro":8485,"Gill":8486,"Hind":8487,"Isa":8488,"LC":8489,"Lam":8490,"Mess":8491,"Patt":8492,"PDP":8493,"Sask":8494,"Tes":8495,"Turn":8496,"Var":8497,"Wa":8498,"dur":8499,"hid":8500,"river":8501,"sop":8502,"taste":8503,"vary":8504,"instein":8505,"stability":8506,"alarm":8507,"escap":8508,"oming":8509,"beef":8510,"eta":8511,"congress":8512,"haul":8513,"llers":8514,"cannab":8515,"inevit":8516,"compass":8517,"asser":8518,"Ang":8519,"hob":8520,"encer":8521,"caucus":8522,"ogy":8523,"headquarters":8524,"Around":8525,"Death":8526,"transit":8527,"cheer":8528,"tooth":8529,"hopeful":8530,"Short":8531,"membership":8532,"halt":8533,"promising":8534,"furlough":8535,"stops":8536,"Allen":8537,"midnight":8538,"glas":8539,"Pelosi":8540,"walks":8541,"picking":8542,"practical":8543,"demanded":8544,"checked":8545,"gradually":8546,"quarantined":8547,"daughters":8548,"scrut":8549,"painting":8550,"commented":8551,"Everything":8552,"indicate":8553,"contribution":8554,"silent":8555,"Hills":8556,"wishes":8557,"itol":8558,"stakeholders":8559,"Simon":8560,"universal":8561,"Atlanta":8562,"Creek":8563,"Olympics":8564,"Detroit":8565,"Assist":8566,"Village":8567,"warrant":8568,"enhance":8569,"replacement":8570,"inquiry":8571,"random":8572,"Graham":8573,"Agriculture":8574,"Dubai":8575,"Ottawa":8576,"ED":8577,"Hard":8578,"Hamp":8579,"Happ":8580,"Jag":8581,"MD":8582,"Mall":8583,"Ocean":8584,"Oscar":8585,"Pur":8586,"Pho":8587,"Ru":8588,"Rather":8589,"TH":8590,"cow":8591,"dil":8592,"divers":8593,"lers":8594,"mac":8595,"mour":8596,"mud":8597,"slot":8598,"tone":8599,"xy":8600,"inf":8601,"anth":8602,"theater":8603,"rey":8604,"rear":8605,"atmo":8606,"ingred":8607,"isers":8608,"omed":8609,"acres":8610,"seme":8611,"chip":8612,"ira":8613,"decor":8614,"keeper":8615,"ulu":8616,"shad":8617,"soap":8618,"aining":8619,"apore":8620,"essed":8621,"quoted":8622,"asters":8623,"worship":8624,"geo":8625,"herd":8626,"okie":8627,"posing":8628,"prev":8629,"izz":8630,"izza":8631,"preser":8632,"duo":8633,"fined":8634,"fines":8635,"finals":8636,"interim":8637,"careful":8638,"charging":8639,"winners":8640,"posting":8641,"warming":8642,"differently":8643,"camps":8644,"aze":8645,"hardly":8646,"sentenced":8647,"periods":8648,"Steph":8649,"bankrupt":8650,"arrests":8651,"departure":8652,"grapher":8653,"momentum":8654,"tracks":8655,"Smart":8656,"priorit":8657,"defined":8658,"drawing":8659,"contains":8660,"acquis":8661,"honour":8662,"launching":8663,"associate":8664,"torn":8665,"constitution":8666,"Singapore":8667,"settings":8668,"documented":8669,"ultimate":8670,"Point":8671,"emotion":8672,"Similar":8673,"opinions":8674,"shocked":8675,"throwing":8676,"highlighted":8677,"reminded":8678,"politician":8679,"Memorial":8680,"spiritual":8681,"detected":8682,"Arabia":8683,"honestly":8684,"deserved":8685,"breathing":8686,"Ultim":8687,"Video":8688,"tremend":8689,"Greece":8690,"Cleveland":8691,"83":8692,"Aud":8693,"BB":8694,"Dur":8695,"Data":8696,"Equ":8697,"FY":8698,"Flo":8699,"Field":8700,"Gall":8701,"Gary":8702,"Jona":8703,"Kal":8704,"OP":8705,"Pack":8706,"Rav":8707,"Rail":8708,"Spo":8709,"Tax":8710,"Yo":8711,"Zacks":8712,"cum":8713,"ez":8714,"estr":8715,"pes":8716,"pure":8717,"pink":8718,"raw":8719,"tics":8720,"tips":8721,"uous":8722,"thick":8723,"onom":8724,"reci":8725,"revenues":8726,"enorm":8727,"issa":8728,"esome":8729,"ili":8730,"ilers":8731,"urg":8732,"uss":8733,"confer":8734,"compe":8735,"tered":8736,"keen":8737,"shine":8738,"upgrade":8739,"click":8740,"blind":8741,"assists":8742,"shell":8743,"Cho":8744,"councill":8745,"Anna":8746,"Stay":8747,"lasting":8748,"airlines":8749,"interior":8750,"speaker":8751,"colon":8752,"flaw":8753,"continent":8754,"Coach":8755,"lessly":8756,"lifestyle":8757,"Dean":8758,"letting":8759,"letters":8760,"cheap":8761,"filmed":8762,"trauma":8763,"subs":8764,"steal":8765,"Blake":8766,"topics":8767,"breaks":8768,"generate":8769,"profits":8770,"managers":8771,"2004":8772,"Marg":8773,"Meet":8774,"projected":8775,"expend":8776,"Collins":8777,"drove":8778,"globe":8779,"glad":8780,"activist":8781,"agreements":8782,"Respon":8783,"holes":8784,"diet":8785,"responses":8786,"tomatic":8787,"welfare":8788,"Syria":8789,"connections":8790,"lifting":8791,"Capitol":8792,"spotted":8793,"crossed":8794,"perfectly":8795,"qualify":8796,"channels":8797,"ambass":8798,"Kobe":8799,"prosecutor":8800,"Forest":8801,"commissioner":8802,"Defence":8803,"NEW":8804,"remotely":8805,"fleet":8806,"automatically":8807,"frustration":8808,"mortgage":8809,"Looking":8810,"immigration":8811,"Broncos":8812,"guarantee":8813,"Batman":8814,"Film":8815,"LGBT":8816,"Hunter":8817,"Bangl":8818,"Domin":8819,"sacrif":8820,"Treasury":8821,"chapter":8822,"completion":8823,"Jonathan":8824,"!\"":8825,"',":8826,"01":8827,"Bart":8828,"Cra":8829,"Dark":8830,"EP":8831,"Egy":8832,"Fa":8833,"Fle":8834,"HR":8835,"Line":8836,"Link":8837,"Mos":8838,"None":8839,"Pict":8840,"RP":8841,"Sor":8842,"Sign":8843,"Temp":8844,"Talk":8845,"Vanc":8846,"cake":8847,"dies":8848,"kits":8849,"oke":8850,"papers":8851,"sour":8852,"sessions":8853,"vous":8854,"wast":8855,"atar":8856,"org":8857,"toss":8858,"ouver":8859,"isk":8860,"ilater":8861,"oters":8862,"eted":8863,"destruction":8864,"convention":8865,"convin":8866,"peers":8867,"traged":8868,"probe":8869,"shame":8870,"upset":8871,"prises":8872,"button":8873,"cricket":8874,"auction":8875,"oking":8876,"iah":8877,"blings":8878,"compound":8879,"partisan":8880,"pred":8881,"dismiss":8882,"olds":8883,"iang":8884,"arriving":8885,"landscape":8886,"spell":8887,"Andre":8888,"Coal":8889,"101":8890,"memories":8891,"publication":8892,"Therefore":8893,"viewed":8894,"balls":8895,"consol":8896,"differences":8897,"requiring":8898,"volat":8899,"volunt":8900,"ierce":8901,"developers":8902,"easing":8903,"knife":8904,"firefighters":8905,"casting":8906,"burning":8907,"enez":8908,"midfield":8909,"benefici":8910,"violation":8911,"Christopher":8912,"holder":8913,"treatments":8914,"hybrid":8915,"depends":8916,"Barcel":8917,"Crim":8918,"misinformation":8919,"physician":8920,"appearances":8921,"spokeswoman":8922,"maintaining":8923,"suspension":8924,"links":8925,"institution":8926,"magazine":8927,"Overall":8928,"yellow":8929,"moderate":8930,"attract":8931,"robbery":8932,"retailers":8933,"trends":8934,"sporting":8935,"ethnic":8936,"exclusive":8937,"certific":8938,"framework":8939,"Advisors":8940,"confirmation":8941,"Douglas":8942,"Thanksgiving":8943,"finger":8944,"Sudan":8945,"Titans":8946,"Vikings":8947,"entrance":8948,"bubble":8949,"Besides":8950,"Egypt":8951,"Vancouver":8952,"Barcelona":8953,"220":8954,"5th":8955,"BE":8956,"Could":8957,"Dow":8958,"Ethere":8959,"Kash":8960,"Mol":8961,"Pand":8962,"Pres":8963,"Si":8964,"Sat":8965,"TR":8966,"THE":8967,"bie":8968,"fate":8969,"iere":8970,"kiss":8971,"pig":8972,"rivals":8973,"sque":8974,"uzz":8975,"vard":8976,"injustice":8977,"indoors":8978,"anime":8979,"remo":8980,"orn":8981,"orient":8982,"itics":8983,"acies":8984,"accompan":8985,"chant":8986,"illust":8987,"deck":8988,"defer":8989,"conc":8990,"agan":8991,"commod":8992,"sav":8993,"outfit":8994,"kee":8995,"shi":8996,"plug":8997,"llor":8998,"ifies":8999,"quer":9000,"endar":9001,"butter":9002,"udes":9003,"crude":9004,"workplace":9005,"crete":9006,"Chance":9007,"contemp":9008,"Anim":9009,"Storm":9010,"iano":9011,"Unit":9012,"Unlike":9013,"Friend":9014,"elev":9015,"inspect":9016,"guards":9017,"teammates":9018,"tainment":9019,"ixel":9020,"chef":9021,"singing":9022,"Bey":9023,"senators":9024,"topic":9025,"defending":9026,"prompted":9027,"ucker":9028,"McConnell":9029,"Order":9030,"refresh":9031,"criteria":9032,"executives":9033,"diam":9034,"restricted":9035,"Berlin":9036,"titled":9037,"preventing":9038,"spray":9039,"Early":9040,"Morning":9041,"RES":9042,"mobil":9043,"sanit":9044,"licens":9045,"commerce":9046,"resolve":9047,"silence":9048,"iju":9049,"flowers":9050,"ranks":9051,"Players":9052,"Fargo":9053,"feedback":9054,"solidarity":9055,"democratic":9056,"prayer":9057,"terrorism":9058,"expertise":9059,"occupied":9060,"Louisiana":9061,"solely":9062,"agriculture":9063,"oxy":9064,"dramatic":9065,"exhibition":9066,"settlement":9067,"inflation":9068,"cryptocurrencies":9069,"Hopefully":9070,"resistance":9071,"giene":9072,"Latin":9073,"Square":9074,"vegetables":9075,"achelor":9076,"Palestinian":9077,"innocent":9078,"entitled":9079,"Pompe":9080,"Future":9081,"Edmonton":9082,"Bangladesh":9083,"convinced":9084,"Ethereum":9085,"93":9086,"98":9087,"900":9088,"Az":9089,"Cle":9090,"Daw":9091,"Hud":9092,"Jere":9093,"Kn":9094,"LO":9095,"Mail":9096,"Pot":9097,"Tol":9098,"Ug":9099,"ais":9100,"bold":9101,"bunch":9102,"cater":9103,"caring":9104,"hire":9105,"lane":9106,"rhe":9107,"wis":9108,"refr":9109,"orious":9110,"stup":9111,"argue":9112,"esa":9113,"leans":9114,"omes":9115,"idi":9116,"secre":9117,"champions":9118,"livest":9119,"ema":9120,"outlet":9121,"outdoors":9122,"outlets":9123,"exha":9124,"pocket":9125,"ums":9126,"Int":9127,"Insur":9128,"cles":9129,"grim":9130,"grace":9131,"affil":9132,"overs":9133,"eless":9134,"Things":9135,"ipping":9136,"workforce":9137,"Champions":9138,"disappointing":9139,"playoffs":9140,"drone":9141,"ampa":9142,"guitar":9143,"10th":9144,"Compan":9145,"Recent":9146,"covery":9147,"runner":9148,"operated":9149,"joke":9150,"Consider":9151,"Priv":9152,"Indigenous":9153,"stealing":9154,"12th":9155,"politically":9156,"booked":9157,"breakfast":9158,"mitigate":9159,"electronic":9160,"futures":9161,"metal":9162,"investigators":9163,"ception":9164,"critics":9165,"designated":9166,"discussing":9167,"assisted":9168,"respected":9169,"mises":9170,"touchdown":9171,"destination":9172,"treating":9173,"pulling":9174,"containing":9175,"crops":9176,"Emir":9177,"indicates":9178,"crowded":9179,"describes":9180,"publish":9181,"Philip":9182,"storms":9183,"Liby":9184,"Quebec":9185,"wondering":9186,"transported":9187,"ridic":9188,"accepting":9189,"Luke":9190,"ownership":9191,"rushing":9192,"machines":9193,"integrated":9194,"flooding":9195,"Maryland":9196,"Legisl":9197,"migrants":9198,"transformation":9199,"Panthers":9200,"conviction":9201,"renewed":9202,"chaos":9203,"Summer":9204,"fatalities":9205,"Walker":9206,"bottles":9207,"dialogue":9208,"pipeline":9209,"siblings":9210,"endorse":9211,"divorce":9212,"Kumar":9213,"sanitizer":9214,"nutrition":9215,"cannabis":9216,"atmosphere":9217,"Pompeo":9218,".-":9219,"AFC":9220,"Bah":9221,"Bond":9222,"Cel":9223,"EV":9224,"Ext":9225,"Gil":9226,"Iron":9227,"Krist":9228,"List":9229,"Lane":9230,"Mak":9231,"Mother":9232,"Nob":9233,"OD":9234,"Ped":9235,"Rol":9236,"Rick":9237,"Sel":9238,"Shop":9239,"Ton":9240,"Veter":9241,"cot":9242,"dia":9243,"fed":9244,"gary":9245,"hack":9246,"kit":9247,"luck":9248,"pts":9249,"riding":9250,"sla":9251,"twin":9252,"revers":9253,"isive":9254,"assembly":9255,"heim":9256,"acles":9257,"ading":9258,"administer":9259,"root":9260,"chi":9261,"united":9262,"universe":9263,"utility":9264,"confron":9265,"congreg":9266,"mood":9267,"tea":9268,"expression":9269,"umed":9270,"endanger":9271,"pron":9272,"evident":9273,"brush":9274,"sheet":9275,"premises":9276,"Anti":9277,"disruption":9278,"Start":9279,"download":9280,"scary":9281,"Asked":9282,"regret":9283,"fool":9284,"issipp":9285,"Fran":9286,"colleg":9287,"oga":9288,"condol":9289,"breast":9290,"Almost":9291,"signal":9292,"detained":9293,"Gray":9294,"meets":9295,"completing":9296,"Within":9297,"2006":9298,"menu":9299,"bitter":9300,"locally":9301,"borough":9302,"burst":9303,"sentiment":9304,"parency":9305,"Calif":9306,"racing":9307,"ivalent":9308,"Internet":9309,"Greek":9310,"affecting":9311,"guns":9312,"battling":9313,"difficulties":9314,"sequel":9315,"bulance":9316,"1998":9317,"Palace":9318,"introduction":9319,"circulating":9320,"bonds":9321,"appealed":9322,"appealing":9323,"criticized":9324,"religion":9325,"proposals":9326,"SPN":9327,"clinic":9328,"bowl":9329,"barriers":9330,"kidn":9331,"fantasy":9332,"efficiency":9333,"Wallace":9334,"memorable":9335,"Entertainment":9336,"Muslims":9337,"arrangements":9338,"Wayne":9339,"instructions":9340,"absentee":9341,"sovereign":9342,"Nelson":9343,"toilet":9344,"unveiled":9345,"Commerce":9346,"accommodation":9347,"Laura":9348,"Pittsburgh":9349,"tragic":9350,"semester":9351,"removal":9352,"accompanied":9353,"ijuana":9354,"exhaust":9355,"issippi":9356,"02":9357,"05":9358,"08":9359,"350":9360,"Aj":9361,"Agre":9362,"CP":9363,"CR":9364,"Citiz":9365,"Eve":9366,"ESPN":9367,"Federation":9368,"Had":9369,"HBO":9370,"Kin":9371,"Mul":9372,"Must":9373,"NO":9374,"NR":9375,"Nico":9376,"NCAA":9377,"Qual":9378,"Ref":9379,"SB":9380,"Tig":9381,"Won":9382,"Warr":9383,"bureau":9384,"cough":9385,"cous":9386,"civic":9387,"dust":9388,"dump":9389,"ec":9390,"fers":9391,"flower":9392,"lining":9393,"nod":9394,"nick":9395,"pens":9396,"ror":9397,"sisters":9398,"tender":9399,"inher":9400,"input":9401,"enemy":9402,"arbit":9403,"isha":9404,"oms":9405,"beans":9406,"admission":9407,"irts":9408,"unanim":9409,"unfortunate":9410,"dee":9411,"depression":9412,"quit":9413,"umber":9414,"asty":9415,"grie":9416,"Think":9417,"nowhere":9418,"blamed":9419,"compare":9420,"manip":9421,"dispatch":9422,"rental":9423,"Butt":9424,"persist":9425,"speakers":9426,"anny":9427,"Andy":9428,"insist":9429,"cute":9430,"Soon":9431,"pointing":9432,"Gram":9433,"aza":9434,"politan":9435,"friendship":9436,"presently":9437,"solo":9438,"hardware":9439,"thorough":9440,"viable":9441,"Carib":9442,"equivalent":9443,"waited":9444,"deny":9445,"filming":9446,"Orig":9447,"bases":9448,"Steven":9449,"designer":9450,"Spider":9451,"declar":9452,"Resources":9453,"targeting":9454,"autonom":9455,"participating":9456,"collecting":9457,"lifetime":9458,"Buy":9459,"Moreover":9460,"spectrum":9461,"Malaw":9462,"naturally":9463,"complained":9464,"villain":9465,"referring":9466,"articles":9467,"pollution":9468,"PlayStation":9469,"ICU":9470,"crews":9471,"atoes":9472,"promotion":9473,"hunting":9474,"rumors":9475,"terrorist":9476,"trucks":9477,"Mississippi":9478,"mistakes":9479,"migration":9480,"weakness":9481,"NYSE":9482,"Jean":9483,"pregnancy":9484,"Ahmed":9485,"deserves":9486,"earthqu":9487,"shifted":9488,"longest":9489,"inspiration":9490,"couples":9491,"Saints":9492,"involvement":9493,"describe":9494,"Snap":9495,"fundraising":9496,"satellite":9497,"therapy":9498,"entrepreneur":9499,"preparation":9500,"Taiwan":9501,"Ethiopia":9502,"tweets":9503,"scrutiny":9504,"ingredients":9505,"enormous":9506,"1000":9507,"Ath":9508,"CM":9509,"Cat":9510,"Dog":9511,"FM":9512,"Gand":9513,"Hugh":9514,"Hua":9515,"Ker":9516,"Kansas":9517,"Les":9518,"Much":9519,"Nas":9520,"Nich":9521,"Natur":9522,"Nearly":9523,"Ot":9524,"Pow":9525,"Pers":9526,"Person":9527,"Rand":9528,"Venez":9529,"Wi":9530,"Winn":9531,"aire":9532,"bom":9533,"ees":9534,"fiction":9535,"hub":9536,"oh":9537,"rons":9538,"uli":9539,"zones":9540,"€”":9541,"thal":9542,"erals":9543,"oni":9544,"onia":9545,"recall":9546,"revised":9547,"enhan":9548,"acre":9549,"seized":9550,"unlike":9551,"cease":9552,"console":9553,"opard":9554,"loving":9555,"sake":9556,"mock":9557,"tex":9558,"orton":9559,"notified":9560,"doses":9561,"Indon":9562,"grief":9563,"uding":9564,"craf":9565,"ckets":9566,"1960s":9567,"Chr":9568,"Chand":9569,"Chamber":9570,"Anne":9571,"commander":9572,"ignored":9573,"backing":9574,"attitude":9575,"Trib":9576,"athers":9577,"Univers":9578,"annually":9579,"Brand":9580,"studying":9581,"lineup":9582,"calendar":9583,"folk":9584,"Alaska":9585,"Deb":9586,"transl":9587,"Howard":9588,"farms":9589,"Youth":9590,"statue":9591,"Section":9592,"substance":9593,"receiver":9594,"Pradesh":9595,"extrem":9596,"locals":9597,"presentation":9598,"Prosecut":9599,"Marshall":9600,"incumb":9601,"160":9602,"livelihood":9603,"emerge":9604,"frontline":9605,"muscle":9606,"attacking":9607,"Calgary":9608,"towns":9609,"humanity":9610,"genre":9611,"seeks":9612,"APC":9613,"struggles":9614,"regardless":9615,"invas":9616,"Kenned":9617,"Library":9618,"civilian":9619,"prosecution":9620,"graduated":9621,"crashed":9622,"harmaceutical":9623,"achievement":9624,"surrounded":9625,"Duke":9626,"segments":9627,"advocate":9628,"advocates":9629,"scenarios":9630,"Electric":9631,"preferred":9632,"MarketBeat":9633,"liberal":9634,"cryptocurrency":9635,"romantic":9636,"cinema":9637,"exploring":9638,"condemned":9639,"merely":9640,"theatre":9641,"ventilators":9642,"Stanley":9643,"external":9644,"Michelle":9645,"Antonio":9646,"vigil":9647,"reiterated":9648,"Oxford":9649,"Craig":9650,"Temple":9651,"Companies":9652,"Venezuel":9653,"enhanced":9654,"Indones":9655,"03":9656,"Ale":9657,"Bears":9658,"Cust":9659,"Case":9660,"Dre":9661,"Dick":9662,"Diam":9663,"FDA":9664,"Garden":9665,"Hus":9666,"HIV":9667,"Kaz":9668,"LD":9669,"Lakers":9670,"Mack":9671,"Others":9672,"PE":9673,"Pent":9674,"Sho":9675,"bump":9676,"blog":9677,"eighth":9678,"gom":9679,"hence":9680,"hug":9681,"hik":9682,"sli":9683,"ske":9684,"inning":9685,"renov":9686,"enix":9687,"stating":9688,"itated":9689,"het":9690,"hears":9691,"belt":9692,"aded":9693,"olas":9694,"depos":9695,"convent":9696,"concrete":9697,"wei":9698,"haz":9699,"ouri":9700,"outcomes":9701,"plun":9702,"exams":9703,"gel":9704,"acked":9705,"authen":9706,"mann":9707,"awesome":9708,"prelim":9709,"server":9710,"servers":9711,"attached":9712,"finishing":9713,"versions":9714,"Until":9715,"Cole":9716,"surely":9717,"carefully":9718,"nervous":9719,"engaging":9720,"angel":9721,"caption":9722,"Sox":9723,"transparency":9724,"cheaper":9725,"Securities":9726,"subur":9727,"Conf":9728,"Price":9729,"planes":9730,"steel":9731,"Boeing":9732,"11th":9733,"Policy":9734,"defended":9735,"Together":9736,"Whats":9737,"2005":9738,"stays":9739,"ricane":9740,"meters":9741,"shortages":9742,"investigated":9743,"violations":9744,"hygiene":9745,"writers":9746,"musicians":9747,"rolls":9748,"Place":9749,"judicial":9750,"battles":9751,"encourages":9752,"participated":9753,"dominated":9754,"acquire":9755,"Emily":9756,"consul":9757,"chairs":9758,"Superintendent":9759,"trusted":9760,"birds":9761,"cope":9762,"prisoners":9763,"Robin":9764,"Auto":9765,"murdered":9766,"determination":9767,"exceptional":9768,"Madrid":9769,"dressing":9770,"meaningful":9771,"integrity":9772,"Tyler":9773,"severely":9774,"beaches":9775,"occasions":9776,"Appe":9777,"phenomen":9778,"Remember":9779,"governors":9780,"praise":9781,"strikes":9782,"dramatically":9783,"pledged":9784,"coordinator":9785,"breathe":9786,"rendered":9787,"Epstein":9788,"subsequent":9789,"iques":9790,"Costa":9791,"satisfied":9792,"Cameron":9793,"Housing":9794,"ilateral":9795,"Agreement":9796,"()":9797,"AG":9798,"Azer":9799,"BM":9800,"BR":9801,"Creat":9802,"Has":9803,"MT":9804,"Mars":9805,"Nu":9806,"Pod":9807,"Page":9808,"Pence":9809,"Pitt":9810,"Rot":9811,"Rome":9812,"Rating":9813,"Sport":9814,"Sri":9815,"Tu":9816,"Tel":9817,"Ven":9818,"Wright":9819,"Wars":9820,"blo":9821,"cig":9822,"cats":9823,"echo":9824,"fighter":9825,"gay":9826,"hors":9827,"nan":9828,"pard":9829,"rab":9830,"skept":9831,"tired":9832,"tape":9833,"wid":9834,"thin":9835,"replic":9836,"ativity":9837,"enforced":9838,"stom":9839,"ications":9840,"leak":9841,"acer":9842,"adher":9843,"adopt":9844,"chill":9845,"chop":9846,"irty":9847,"imper":9848,"unting":9849,"etch":9850,"reserve":9851,"loose":9852,"pling":9853,"artisan":9854,"Intel":9855,"00000":9856,"grid":9857,"elite":9858,"Web":9859,"Weinstein":9860,"Heart":9861,"awk":9862,"strip":9863,"firing":9864,"covid":9865,"dispos":9866,"monu":9867,"needing":9868,"Asset":9869,"financing":9870,"anner":9871,"shareholders":9872,"Forces":9873,"Coming":9874,"missiles":9875,"Ark":9876,"Arsen":9877,"farming":9878,"affair":9879,"releases":9880,"pays":9881,"detention":9882,"warnings":9883,"accum":9884,"parade":9885,"attered":9886,"stopping":9887,"hardest":9888,"Corn":9889,"Corps":9890,"gloves":9891,"salaries":9892,"supplement":9893,"financially":9894,"questioning":9895,"seventh":9896,"doubled":9897,"challenged":9898,"Crown":9899,"Crime":9900,"Newsom":9901,"swift":9902,"approaches":9903,"Russell":9904,"animated":9905,"script":9906,"credited":9907,"Perry":9908,"criminals":9909,"Buff":9910,"Harrison":9911,"laboratory":9912,"Moroc":9913,"Malays":9914,"Belg":9915,"trafficking":9916,"legislative":9917,"Richmond":9918,"repeat":9919,"dressed":9920,"appreciation":9921,"feeding":9922,"promoting":9923,"hunger":9924,"minimal":9925,"flagship":9926,"lynn":9927,"flew":9928,"Missouri":9929,"Jimmy":9930,"installed":9931,"decreased":9932,"frequent":9933,"immigrants":9934,"knocked":9935,"photographs":9936,"settled":9937,"Baby":9938,"outrage":9939,"pattern":9940,"philos":9941,"soccer":9942,"judgment":9943,"sponsor":9944,"Protection":9945,"Residents":9946,"Queensland":9947,"Digital":9948,"stroke":9949,"Safety":9950,"toxic":9951,"Jennifer":9952,"prosper":9953,"ambassador":9954,"tragedy":9955,"consolid":9956,"stupid":9957,"Nicole":9958,"Caribbean":9959,"Kennedy":9960,"WhatsApp":9961,"Cro":9962,"Clear":9963,"DJ":9964,"EX":9965,"Event":9966,"Fif":9967,"Fred":9968,"Hann":9969,"Hub":9970,"Hunt":9971,"Ice":9972,"Lef":9973,"Living":9974,"MI":9975,"NP":9976,"Nad":9977,"Pf":9978,"Pick":9979,"Ry":9980,"SW":9981,"Side":9982,"Sure":9983,"TI":9984,"Using":9985,"VE":9986,"Would":9987,"Wolf":9988,"bits":9989,"bip":9990,"dash":9991,"jar":9992,"kers":9993,"rings":9994,"sin":9995,"sizes":9996,"tune":9997,"reign":9998,"ora":9999,"stones":10000,"itness":10001,"omi":10002,"ache":10003,"rog":10004,"Theat":10005,"decent":10006,"opting":10007,"aba":10008,"nell":10009,"compromise":10010,"lia":10011,"emen":10012,"lod":10013,"keys":10014,"plas":10015,"explan":10016,"istol":10017,"apt":10018,"astron":10019,"worsen":10020,"pride":10021,"cluster":10022,"ela":10023,"cruel":10024,"auth":10025,"okay":10026,"span":10027,"Weather":10028,"disabilities":10029,"disrupt":10030,"Whatever":10031,"dual":10032,"choo":10033,"regulation":10034,"inclusion":10035,"interven":10036,"highs":10037,"rape":10038,"atively":10039,"Alliance":10040,"ificial":10041,"See":10042,"faction":10043,"senator":10044,"warn":10045,"hoped":10046,"extending":10047,"End":10048,"Drug":10049,"organised":10050,"Progress":10051,"closest":10052,"expense":10053,"countless":10054,"metres":10055,"borne":10056,"Orleans":10057,"milit":10058,"nonprofit":10059,"designs":10060,"marijuana":10061,"celebrity":10062,"celebrities":10063,"slam":10064,"badly":10065,"affects":10066,"deterior":10067,"approached":10068,"gaining":10069,"prevention":10070,"tourist":10071,"iffs":10072,"Pete":10073,"premiere":10074,"Obviously":10075,"riders":10076,"demonstrate":10077,"Jerry":10078,"engineer":10079,"graphics":10080,"objects":10081,"freshman":10082,"catching":10083,"examples":10084,"willingness":10085,"Montana":10086,"Montgom":10087,"recommendation":10088,"Murray":10089,"medicines":10090,"diagnosis":10091,"shocking":10092,"fifty":10093,"frustrating":10094,"Technologies":10095,"Springs":10096,"athletic":10097,"embraced":10098,"Campbell":10099,"climb":10100,"Doug":10101,"procedure":10102,"habits":10103,"positivity":10104,"Saint":10105,"delighted":10106,"architect":10107,"swimming":10108,"recruitment":10109,"compensation":10110,"Phillips":10111,"Receive":10112,"survivors":10113,"Philippines":10114,"Mohammed":10115,"Punjab":10116,"felony":10117,"hidden":10118,"Happy":10119,"oxygen":10120,"rhetor":10121,"declaration":10122,"Huawei":10123,"Ratings":10124,"Montgomery":10125,"911":10126,"Apart":10127,"Abr":10128,"Adr":10129,"Bun":10130,"Billy":10131,"Cher":10132,"Duch":10133,"Edo":10134,"Imp":10135,"Jet":10136,"Kol":10137,"Know":10138,"LT":10139,"NG":10140,"Nar":10141,"Pu":10142,"Rh":10143,"Run":10144,"Reven":10145,"Tem":10146,"Tampa":10147,"bust":10148,"dat":10149,"dairy":10150,"ection":10151,"euro":10152,"hu":10153,"honey":10154,"och":10155,"pile":10156,"pension":10157,"rib":10158,"sme":10159,"slip":10160,"tension":10161,"tables":10162,"inse":10163,"anmar":10164,"rehab":10165,"atche":10166,"alike":10167,"tout":10168,"ouch":10169,"aspir":10170,"itement":10171,"lete":10172,"omer":10173,"iland":10174,"adventure":10175,"rookie":10176,"iga":10177,"unemployed":10178,"uter":10179,"hai":10180,"reson":10181,"trails":10182,"output":10183,"uls":10184,"exists":10185,"exports":10186,"notably":10187,"god":10188,"dose":10189,"timeline":10190,"1970s":10191,"stranded":10192,"ailing":10193,"discre":10194,"Stars":10195,"dub":10196,"mons":10197,"arrives":10198,"ublin":10199,"amped":10200,"governing":10201,"flames":10202,"shoulders":10203,"raises":10204,"deciding":10205,"ciples":10206,"lett":10207,"cheese":10208,"Ros":10209,"trait":10210,"Convention":10211,"releasing":10212,"Prim":10213,"poster":10214,"socially":10215,"Indians":10216,"Grace":10217,"Box":10218,"kills":10219,"killings":10220,"generous":10221,"21st":10222,"turnout":10223,"Proper":10224,"Produ":10225,"paralle":10226,"2001":10227,"2002":10228,"distress":10229,"distinct":10230,"streak":10231,"consideration":10232,"cleared":10233,"audit":10234,"Myanmar":10235,"specialist":10236,"carries":10237,"homore":10238,"recovering":10239,"grades":10240,"administrative":10241,"Need":10242,"Nebr":10243,"revealing":10244,"representation":10245,"supervis":10246,"interviewed":10247,"styles":10248,"connectivity":10249,"avoiding":10250,"indicating":10251,"bull":10252,"survival":10253,"achieving":10254,"introduce":10255,"introducing":10256,"grandchildren":10257,"stagger":10258,"Lawrence":10259,"Samuel":10260,"subjects":10261,"Chap":10262,"organizers":10263,"initiated":10264,"Madison":10265,"emotions":10266,"chains":10267,"prayers":10268,"swept":10269,"Scient":10270,"cancellation":10271,"complications":10272,"striking":10273,"Windows":10274,"Kamala":10275,"manufacturer":10276,"Limited":10277,"sparked":10278,"refugees":10279,"Falls":10280,"eggs":10281,"Environmental":10282,"enjoying":10283,"strongest":10284,"Dodgers":10285,"lobby":10286,"Muhammadu":10287,"embark":10288,"Celebr":10289,"Hampshire":10290,"Margaret":10291,"LGBTQ":10292,"concise":10293,"Libya":10294,"Tigers":10295,"Athlet":10296,"authentic":10297,"preliminary":10298,"Pfizer":10299,"Theatre":10300,"06":10301,"110":10302,"Aren":10303,"Cand":10304,"Clo":10305,"Come":10306,"Clim":10307,"Dublin":10308,"Fi":10309,"Him":10310,"Jake":10311,"Kur":10312,"Kids":10313,"Mn":10314,"Ng":10315,"Note":10316,"Nancy":10317,"NHL":10318,"Pok":10319,"RI":10320,"Rub":10321,"Raid":10322,"Sant":10323,"Sav":10324,"Snow":10325,"Spot":10326,"TS":10327,"Uber":10328,"Vision":10329,"Very":10330,"WAS":10331,"avel":10332,"dan":10333,"gt":10334,"gus":10335,"hatt":10336,"lens":10337,"mare":10338,"ninth":10339,"pion":10340,"pical":10341,"sink":10342,"thur":10343,"inder":10344,"stakes":10345,"oub":10346,"isons":10347,"sections":10348,"unrest":10349,"devel":10350,"convey":10351,"resigned":10352,"liest":10353,"emo":10354,"embarr":10355,"trim":10356,"trash":10357,"atel":10358,"outlook":10359,"mole":10360,"suing":10361,"suprem":10362,"aki":10363,"dock":10364,"spur":10365,"sponso":10366,"partly":10367,"thereby":10368,"ignity":10369,"drill":10370,"ianna":10371,"Trude":10372,"testim":10373,"scow":10374,"scam":10375,"scandal":10376,"obs":10377,"interact":10378,"retain":10379,"Brun":10380,"Bright":10381,"makeup":10382,"guided":10383,"studied":10384,"reluct":10385,"investor":10386,"childhood":10387,"realistic":10388,"applying":10389,"facial":10390,"reception":10391,"ordering":10392,"ordination":10393,"caut":10394,"hospitality":10395,"contrary":10396,"define":10397,"programmes":10398,"Moscow":10399,"wheels":10400,"castle":10401,"layer":10402,"humor":10403,"availability":10404,"babies":10405,"midst":10406,"plicit":10407,"Exper":10408,"understands":10409,"marine":10410,"celebrations":10411,"sexually":10412,"Teh":10413,"contractors":10414,"Barack":10415,"plea":10416,"slide":10417,"slated":10418,"purchases":10419,"horizon":10420,"spirits":10421,"touching":10422,"excitement":10423,"Keith":10424,"arguing":10425,"crossing":10426,"magn":10427,"Salt":10428,"III":10429,"meantime":10430,"demonstrations":10431,"Macron":10432,"Jerusal":10433,"fault":10434,"Walmart":10435,"awaiting":10436,"wildlife":10437,"conflicts":10438,"adjusted":10439,"punishment":10440,"anxious":10441,"assaulted":10442,"ETF":10443,"Safe":10444,"certified":10445,"prospects":10446,"optimism":10447,"Getting":10448,"Additional":10449,"penalties":10450,"ladies":10451,"surprisingly":10452,"wounded":10453,"Jamie":10454,"Motor":10455,"Budget":10456,"intimate":10457,"mechanism":10458,"sandwich":10459,"legendary":10460,"hawks":10461,"dynamic":10462,"brutality":10463,"thirds":10464,"alternatives":10465,"Restaur":10466,"Bagh":10467,"converted":10468,"Conservative":10469,"ambitious":10470,"phrase":10471,"Kaduna":10472,"inevitable":10473,"Phoenix":10474,"recipe":10475,"subscrib":10476,"Friends":10477,"Jeremy":10478,"wisdom":10479,"Grammy":10480,"incumbent":10481,"awkward":10482,"Arsenal":10483,"choosing":10484,"Nebraska":10485,"developer":10486,"embarrass":10487,"sponsored":10488,"Trudeau":10489,".)":10490,"130":10491,"Bren":10492,"Bio":10493,"CD":10494,"CF":10495,"CI":10496,"Cash":10497,"Clay":10498,"CUR":10499,"Dame":10500,"Father":10501,"Fisher":10502,"Gib":10503,"Hear":10504,"Kid":10505,"Kard":10506,"Marr":10507,"Nash":10508,"QB":10509,"Rou":10510,"Rud":10511,"Rah":10512,"Rams":10513,"Rachel":10514,"SO":10515,"Sin":10516,"Sul":10517,"Soft":10518,"Sgt":10519,"Tob":10520,"Ward":10521,"Winter":10522,"ault":10523,"biz":10524,"bai":10525,"bacter":10526,"cod":10527,"furn":10528,"gged":10529,"mount":10530,"pour":10531,"pants":10532,"tab":10533,"wn":10534,"wig":10535,"tha":10536,"thread":10537,"incar":10538,"innings":10539,"removing":10540,"enko":10541,"stir":10542,"alliance":10543,"ington":10544,"toys":10545,"tours":10546,"isms":10547,"icians":10548,"hem":10549,"entity":10550,"ilst":10551,"admits":10552,"chlor":10553,"chronic":10554,"immen":10555,"impose":10556,"igent":10557,"liers":10558,"trapped":10559,"superior":10560,"shit":10561,"teed":10562,"mented":10563,"explicit":10564,"notion":10565,"prin":10566,"pricing":10567,"ieg":10568,"grave":10569,"owning":10570,"avan":10571,"aviation":10572,"Hey":10573,"assur":10574,"preserve":10575,"iban":10576,"backer":10577,"monito":10578,"chocol":10579,"umption":10580,"buzz":10581,"foster":10582,"shower":10583,"intern":10584,"interrupted":10585,"wherever":10586,"Bru":10587,"Bryan":10588,"Brandon":10589,"flatt":10590,"flash":10591,"tale":10592,"CoV":10593,"Cox":10594,"Code":10595,"lesson":10596,"xture":10597,"Reli":10598,"label":10599,"Sovi":10600,"ifications":10601,"files":10602,"realised":10603,"wrapped":10604,"atherine":10605,"Prior":10606,"50s":10607,"aley":10608,"appeals":10609,"Boss":10610,"rallies":10611,"killer":10612,"purple":10613,"movements":10614,"hospitalizations":10615,"15th":10616,"cargo":10617,"mainland":10618,"pastor":10619,"programming":10620,"concerning":10621,"nets":10622,"approve":10623,"dealt":10624,"16th":10625,"glimp":10626,"ennis":10627,"graduation":10628,"Crow":10629,"Neither":10630,"instantly":10631,"bias":10632,"welve":10633,"priorities":10634,"filling":10635,"billions":10636,"Edwards":10637,"Eddie":10638,"capitalization":10639,"scram":10640,"accountability":10641,"fitting":10642,"indication":10643,"invite":10644,"distribute":10645,"1999":10646,"RENC":10647,"regulators":10648,"arguments":10649,"routes":10650,"attractive":10651,"ambia":10652,"Hillary":10653,"churches":10654,"jection":10655,"Mills":10656,"Store":10657,"exclus":10658,"remarkable":10659,"transformed":10660,"emphasized":10661,"provinces":10662,"navigate":10663,"leaning":10664,"guaranteed":10665,"assumed":10666,"convenient":10667,"Hopkins":10668,"reserves":10669,"motivated":10670,"mutual":10671,"tactics":10672,"blessed":10673,"accomplish":10674,"precise":10675,"Bailey":10676,"Lynn":10677,"flexible":10678,"Giants":10679,"Taliban":10680,"Nevertheless":10681,"Histor":10682,"subscription":10683,"suspicion":10684,"comparison":10685,"attributed":10686,"antibodies":10687,"Mobile":10688,"Indeed":10689,"Jessica":10690,"Representatives":10691,"ecosystem":10692,"reminder":10693,"uniform":10694,"sheriff":10695,"enthusi":10696,"Assistant":10697,"acquisition":10698,"Ultimately":10699,"tremendous":10700,"Animal":10701,"Nobody":10702,"Diamond":10703,"Azerbai":10704,"CURRENC":10705,"immense":10706,"monitored":10707,"CURRENCY":10708,"04":10709,"Buc":10710,"Cass":10711,"Dere":10712,"Dul":10713,"Eb":10714,"Fed":10715,"Gate":10716,"Hans":10717,"HING":10718,"IF":10719,"Ian":10720,"Key":10721,"Larry":10722,"Map":10723,"Mission":10724,"NU":10725,"Nai":10726,"Row":10727,"SF":10728,"Sid":10729,"Song":10730,"Sug":10731,"Swed":10732,"Tun":10733,"Task":10734,"Upon":10735,"Wr":10736,"Xi":10737,"aer":10738,"bik":10739,"dar":10740,"dive":10741,"fib":10742,"foul":10743,"hing":10744,"iya":10745,"lash":10746,"mum":10747,"ood":10748,"pha":10749,"pper":10750,"tis":10751,"vance":10752,"vendors":10753,"ths":10754,"thed":10755,"restart":10756,"restrain":10757,"enab":10758,"orary":10759,"inger":10760,"acco":10761,"acute":10762,"seeds":10763,"iri":10764,"unions":10765,"unted":10766,"decess":10767,"devoted":10768,"concil":10769,"ophy":10770,"embers":10771,"embassy":10772,"prolong":10773,"pless":10774,"antz":10775,"pockets":10776,"notable":10777,"quis":10778,"endless":10779,"permits":10780,"iva":10781,"afore":10782,"aux":10783,"eves":10784,"manuel":10785,"brow":10786,"predecess":10787,"dishes":10788,"aftermath":10789,"centuries":10790,"commonly":10791,"themed":10792,"drum":10793,"backup":10794,"airports":10795,"landing":10796,"Front":10797,"Fraser":10798,"annon":10799,"flour":10800,"ioces":10801,"surd":10802,"opener":10803,"enger":10804,"transactions":10805,"farmer":10806,"recept":10807,"30s":10808,"Beck":10809,"directive":10810,"ventures":10811,"lighting":10812,"iko":10813,"ierra":10814,"125":10815,"traders":10816,"Boys":10817,"Share":10818,"Poland":10819,"defender":10820,"mainstream":10821,"limiting":10822,"greatly":10823,"Product":10824,"halted":10825,"prompt":10826,"14th":10827,"Johnny":10828,"controlling":10829,"foods":10830,"buried":10831,"refuse":10832,"salt":10833,"Peace":10834,"critically":10835,"supporter":10836,"Spir":10837,"Spencer":10838,"meanwhile":10839,"carrier":10840,"celebrates":10841,"addresses":10842,"dependence":10843,"recoveries":10844,"structures":10845,"structural":10846,"packages":10847,"websites":10848,"shoppers":10849,"Neil":10850,"digit":10851,"instant":10852,"instances":10853,"definition":10854,"cultiv":10855,"painful":10856,"bulk":10857,"Benj":10858,"shaped":10859,"1992":10860,"improvements":10861,"grandmother":10862,"cops":10863,"Speed":10864,"garage":10865,"intel":10866,"demonstrators":10867,"thanked":10868,"boundaries":10869,"examine":10870,"Mexican":10871,"catast":10872,"1984":10873,"highlights":10874,"Garc":10875,"LED":10876,"fisher":10877,"accuracy":10878,"correctly":10879,"Woods":10880,"wealthy":10881,"Barry":10882,"Tourism":10883,"optimistic":10884,"neighborhoods":10885,"Advisory":10886,"establishment":10887,"mysterious":10888,"Silver":10889,"psychological":10890,"desperately":10891,"Industry":10892,"relaxed":10893,"intimid":10894,"discovery":10895,"recip":10896,"flexibility":10897,"Holdings":10898,"subsequently":10899,"gorith":10900,"Metropolitan":10901,"exempt":10902,"History":10903,"rugby":10904,"resilience":10905,"frozen":10906,"Ukraine":10907,"Lebanon":10908,"taxpayers":10909,"drafted":10910,"jurisdiction":10911,"inaugur":10912,"Uganda":10913,"Insurance":10914,"condolences":10915,"conventional":10916,"horses":10917,"Jerusalem":10918,"principles":10919,"Soviet":10920,"09":10921,"3D":10922,"8th":10923,"Band":10924,"Bishop":10925,"Cou":10926,"Cris":10927,"Gon":10928,"Gem":10929,"Gates":10930,"Golf":10931,"Hit":10932,"Hund":10933,"Kill":10934,"Kab":10935,"Lope":10936,"NI":10937,"Py":10938,"Pope":10939,"Rug":10940,"Swit":10941,"Sierra":10942,"TD":10943,"Use":10944,"bay":10945,"bage":10946,"bats":10947,"eu":10948,"gig":10949,"jet":10950,"nas":10951,"nity":10952,"sadd":10953,"tort":10954,"vowed":10955,"wives":10956,"zed":10957,"indefinitely":10958,"incorpor":10959,"reactions":10960,"align":10961,"tok":10962,"arre":10963,"ardo":10964,"itable":10965,"leverage":10966,"entities":10967,"adoption":10968,"ambulance":10969,"urer":10970,"absurd":10971,"nest":10972,"newest":10973,"libr":10974,"pepper":10975,"outreach":10976,"proli":10977,"ules":10978,"appl":10979,"bye":10980,"poison":10981,"astically":10982,"upside":10983,"ported":10984,"grain":10985,"heritage":10986,"elab":10987,"corrupt":10988,"aukee":10989,"bos":10990,"manife":10991,"creators":10992,"timely":10993,"coins":10994,"contag":10995,"ignore":10996,"drome":10997,"dragon":10998,"median":10999,"monet":11000,"finances":11001,"interaction":11002,"colors":11003,"istrate":11004,"insider":11005,"anka":11006,"Cohen":11007,"careers":11008,"capability":11009,"restore":11010,"Arthur":11011,"Online":11012,"Nothing":11013,"consent":11014,"Leeds":11015,"enterprise":11016,"organic":11017,"profound":11018,"Carlos":11019,"fireworks":11020,"18th":11021,"streams":11022,"costume":11023,"broker":11024,"traveled":11025,"strictly":11026,"voy":11027,"matching":11028,"starter":11029,"motive":11030,"difficulty":11031,"genetic":11032,"approaching":11033,"prevented":11034,"accountable":11035,"Bennett":11036,"communicating":11037,"radical":11038,"scientist":11039,"flows":11040,"sunny":11041,"journalism":11042,"exercises":11043,"tackles":11044,"reflects":11045,"golden":11046,"graduates":11047,"absor":11048,"flooded":11049,"youths":11050,"limitations":11051,"promoted":11052,"reminds":11053,"automatic":11054,"Mahar":11055,"burned":11056,"migrant":11057,"Glen":11058,"coastal":11059,"Freedom":11060,"vacation":11061,"deputies":11062,"iptions":11063,"devastated":11064,"Fernand":11065,"consultation":11066,"besides":11067,"shifts":11068,"quietly":11069,"Okla":11070,"obligation":11071,"convenience":11072,"parliamentary":11073,"instruments":11074,"inspiring":11075,"gratitude":11076,"exploration":11077,"Medicine":11078,"AFP":11079,"Sussex":11080,"accusations":11081,"Furthermore":11082,"propag":11083,"rebounds":11084,"excessive":11085,"upgraded":11086,"amendment":11087,"Bengaluru":11088,"kilometres":11089,"harassment":11090,"Henderson":11091,"Namib":11092,"Tesla":11093,"bankruptcy":11094,"voluntary":11095,"Kashmir":11096,"licensed":11097,"Hudson":11098,"diabet":11099,"Buttig":11100,"Universal":11101,"Indonesia":11102,"stomach":11103,"Left":11104,"bipartisan":11105,"rhetoric":11106,"atchewan":11107,"Tehran":11108,"chocolate":11109,"Derek":11110,"aforementioned":11111,"Lopez":11112,"7th":11113,"AB":11114,"Aw":11115,"Action":11116,"BL":11117,"Bear":11118,"Bachelor":11119,"Cum":11120,"Chad":11121,"Crew":11122,"Chase":11123,"EA":11124,"Eight":11125,"HC":11126,"Hand":11127,"Ig":11128,"Ki":11129,"Kan":11130,"Len":11131,"Member":11132,"Maj":11133,"Nur":11134,"Pel":11135,"Patel":11136,"Ridge":11137,"Rangers":11138,"Sold":11139,"Ta":11140,"Till":11141,"Terr":11142,"bis":11143,"census":11144,"dor":11145,"dancing":11146,"eor":11147,"fierce":11148,"gical":11149,"hl":11150,"hr":11151,"hed":11152,"hike":11153,"iber":11154,"jok":11155,"len":11156,"ni":11157,"pne":11158,"pets":11159,"sized":11160,"skilled":11161,"uing":11162,"tham":11163,"anes":11164,"oned":11165,"recreation":11166,"reverse":11167,"algorith":11168,"topped":11169,"itic":11170,"leagues":11171,"forum":11172,"forgotten":11173,"lyrics":11174,"impression":11175,"ige":11176,"cted":11177,"dear":11178,"contested":11179,"constrain":11180,"weaken":11181,"abol":11182,"abused":11183,"resumption":11184,"aping":11185,"artificial":11186,"therlands":11187,"ivir":11188,"prize":11189,"Inspect":11190,"Thor":11191,"iped":11192,"berry":11193,"spill":11194,"eved":11195,"19th":11196,"boom":11197,"Heat":11198,"creational":11199,"assign":11200,"brave":11201,"coinc":11202,"disclosure":11203,"disabled":11204,"themes":11205,"medal":11206,"ishes":11207,"atta":11208,"attende":11209,"Trad":11210,"finale":11211,"intersection":11212,"Brig":11213,"insight":11214,"ancient":11215,"105":11216,"cares":11217,"functions":11218,"coverings":11219,"transparent":11220,"chester":11221,"lawsuits":11222,"shipping":11223,"singles":11224,"Conn":11225,"Beaut":11226,"payroll":11227,"patience":11228,"Presidential":11229,"ikh":11230,"erald":11231,"importantly":11232,"240":11233,"laying":11234,"Manhatt":11235,"fights":11236,"technique":11237,"techniques":11238,"pedestr":11239,"stepping":11240,"candy":11241,"Someone":11242,"enna":11243,"bane":11244,"void":11245,"teeth":11246,"hypo":11247,"Hero":11248,"Finn":11249,"Greater":11250,"CARES":11251,"appointments":11252,"deliveries":11253,"isolating":11254,"sellers":11255,"commentary":11256,"Emmanuel":11257,"bullet":11258,"altered":11259,"hearings":11260,"suitable":11261,"shake":11262,"1994":11263,"1997":11264,"mobility":11265,"AND":11266,"zerland":11267,"CBD":11268,"grandfather":11269,"Investig":11270,"civilians":11271,"villages":11272,"Student":11273,"legislature":11274,"Martine":11275,"thodox":11276,"doubts":11277,"reflected":11278,"schemes":11279,"Works":11280,"medication":11281,"hungry":11282,"anticipate":11283,"attorneys":11284,"Maxwell":11285,"functioning":11286,"illnesses":11287,"inspire":11288,"unicipality":11289,"Swiss":11290,"milestone":11291,"backgrounds":11292,"memorial":11293,"Brooks":11294,"Jefferson":11295,"liquor":11296,"Systems":11297,"adaptation":11298,"Funeral":11299,"evacuation":11300,"curbside":11301,"fundament":11302,"beliefs":11303,"Kentucky":11304,"Opposition":11305,"genuinely":11306,"withdrawal":11307,"collision":11308,"discipline":11309,"Oliver":11310,"Girl":11311,"obligations":11312,"Tanz":11313,"abortion":11314,"Saskatchewan":11315,"sophomore":11316,"Similarly":11317,"Coalition":11318,"certificate":11319,"Beyond":11320,"Tonight":11321,"pronounced":11322,"Wonder":11323,"Malawi":11324,"earthquake":11325,"Gandhi":11326,"plasma":11327,"authors":11328,"Duchess":11329,"enabling":11330,"Buttigieg":11331,"%)":11332,"9th":11333,"Ave":11334,"Battle":11335,"CT":11336,"Cer":11337,"Cody":11338,"Dal":11339,"Ferr":11340,"Gy":11341,"KA":11342,"Kind":11343,"Kings":11344,"Knight":11345,"Kano":11346,"NW":11347,"Om":11348,"Pi":11349,"Pil":11350,"Pul":11351,"Past":11352,"Pep":11353,"RB":11354,"Rw":11355,"Round":11356,"UD":11357,"VA":11358,"Yu":11359,"bind":11360,"cue":11361,"cabin":11362,"jam":11363,"kg":11364,"nat":11365,"pow":11366,"pizza":11367,"rian":11368,"rina":11369,"soup":11370,"waukee":11371,"recalls":11372,"eni":11373,"stip":11374,"starring":11375,"allocation":11376,"outer":11377,"arter":11378,"asio":11379,"itime":11380,"lee":11381,"admir":11382,"aman":11383,"wholes":11384,"uncle":11385,"unfair":11386,"conced":11387,"abund":11388,"loses":11389,"saves":11390,"fright":11391,"modate":11392,"sued":11393,"mentally":11394,"feared":11395,"artistic":11396,"pole":11397,"pointer":11398,"endum":11399,"perce":11400,"priced":11401,"aku":11402,"ghost":11403,"Intelligence":11404,"clust":11405,"eling":11406,"cords":11407,"corona":11408,"1990s":11409,"1980s":11410,"precaution":11411,"discount":11412,"lows":11413,"ctional":11414,"drives":11415,"Trin":11416,"throws":11417,"angle":11418,"cessions":11419,"underground":11420,"inclusive":11421,"buck":11422,"donors":11423,"remembers":11424,"tedly":11425,"showcase":11426,"interactions":11427,"ancies":11428,"supportive":11429,"Reports":11430,"Reyn":11431,"Alan":11432,"capped":11433,"Deep":11434,"considers":11435,"traits":11436,"Secret":11437,"Contin":11438,"Beth":11439,"possess":11440,"founding":11441,"lectual":11442,"111":11443,"lington":11444,"presenting":11445,"Dragon":11446,"carto":11447,"Maria":11448,"undoub":11449,"freeze":11450,"advise":11451,"Colin":11452,"Collect":11453,"effectiveness":11454,"considerable":11455,"ceptions":11456,"forcement":11457,"Clare":11458,"Express":11459,"steadily":11460,"bands":11461,"taxi":11462,"safeguard":11463,"labs":11464,"Superior":11465,"matched":11466,"hyper":11467,"musician":11468,"mingham":11469,"Australians":11470,"explaining":11471,"responsibilities":11472,"Barbar":11473,"packs":11474,"riot":11475,"Netherlands":11476,"focuses":11477,"aboard":11478,"Amend":11479,"Harvard":11480,"Embassy":11481,"Regard":11482,"favorites":11483,"Elli":11484,"describing":11485,"pictured":11486,"suspend":11487,"honored":11488,"frey":11489,"loading":11490,"peacefully":11491,"apeut":11492,"Quest":11493,"Quinn":11494,"Tommy":11495,"demonstration":11496,"demonstrated":11497,"Wells":11498,"PPP":11499,"Token":11500,"accommodate":11501,"jumping":11502,"Milwaukee":11503,"Working":11504,"demol":11505,"ipeg":11506,"deployment":11507,"gentle":11508,"apartments":11509,"sweat":11510,"ceremonies":11511,"Grande":11512,"Organisation":11513,"cycles":11514,"Ashley":11515,"iciary":11516,"collapsed":11517,"SUV":11518,"neighbours":11519,"motivation":11520,"eliminated":11521,"controversy":11522,"Retail":11523,"component":11524,"Communications":11525,"Thailand":11526,"endorsed":11527,"escalation":11528,"intentionally":11529,"brutal":11530,"patterns":11531,"MLB":11532,"disturbing":11533,"triggered":11534,"Urban":11535,"branches":11536,"portrayed":11537,"wrestling":11538,"Natal":11539,"gifts":11540,"tribal":11541,"chemicals":11542,"Wyoming":11543,"delicious":11544,"convince":11545,"obstacles":11546,"prioritize":11547,"sacrifice":11548,"beneficiaries":11549,"Chancellor":11550,"Interest":11551,"colleges":11552,"Powell":11553,"Winnipeg":11554,"subscribers":11555,"Kardash":11556,"Benjamin":11557,"Rugby":11558,"Switzerland":11559,".“":11560,"Avi":11561,"Amand":11562,"Cut":11563,"Flynn":11564,"Hem":11565,"Ida":11566,"Jas":11567,"Jets":11568,"Jama":11569,"Kil":11570,"Karen":11571,"Lan":11572,"Late":11573,"Loc":11574,"Luck":11575,"Luk":11576,"Mau":11577,"Mitch":11578,"MDC":11579,"Nintend":11580,"Pharmaceutical":11581,"Ric":11582,"Rain":11583,"RAM":11584,"RBI":11585,"SK":11586,"Scr":11587,"Sound":11588,"Todd":11589,"UFC":11590,"View":11591,"Yan":11592,"bout":11593,"cart":11594,"dip":11595,"mall":11596,"mans":11597,"nail":11598,"ock":11599,"pause":11600,"rip":11601,"tends":11602,"vens":11603,"wil":11604,"thres":11605,"inar":11606,"inery":11607,"recycling":11608,"enza":11609,"itting":11610,"icate":11611,"leted":11612,"heels":11613,"oman":11614,"vegan":11615,"accounted":11616,"seal":11617,"owski":11618,"chamber":11619,"oldest":11620,"verdict":11621,"impressed":11622,"uncomfortable":11623,"uten":11624,"agger":11625,"agging":11626,"emet":11627,"alling":11628,"frank":11629,"propr":11630,"ultra":11631,"quo":11632,"Independent":11633,"oversight":11634,"offseason":11635,"Thous":11636,"crying":11637,"corp":11638,"spy":11639,"spice":11640,"boo":11641,"bother":11642,"boasts":11643,"awful":11644,"aches":11645,"Chuck":11646,"preval":11647,"preference":11648,"disrupted":11649,"intends":11650,"commem":11651,"drastically":11652,"Trail":11653,"thru":11654,"ampton":11655,"undergo":11656,"athon":11657,"casino":11658,"whereas":11659,"persu":11660,"cloth":11661,"insists":11662,"highway":11663,"ugly":11664,"ector":11665,"openly":11666,"Comple":11667,"runners":11668,"tenure":11669,"tenants":11670,"tenham":11671,"realise":11672,"passage":11673,"stell":11674,"Blasio":11675,"valuation":11676,"Shares":11677,"Toy":11678,"processor":11679,"Marc":11680,"classified":11681,"Going":11682,"Jane":11683,"placing":11684,"McDonald":11685,"campaigning":11686,"amongst":11687,"refere":11688,"170":11689,"Stewart":11690,"failures":11691,"practically":11692,"practicing":11693,"homa":11694,"Teams":11695,"suggestions":11696,"sooner":11697,"immers":11698,"Parks":11699,"circle":11700,"fastest":11701,"Everybody":11702,"contributing":11703,"Disaster":11704,"Angela":11705,"Delta":11706,"telephone":11707,"regulator":11708,"magical":11709,"yelling":11710,"Alexand":11711,"referendum":11712,"partnered":11713,"sustainability":11714,"briefly":11715,"continuously":11716,"ERS":11717,"separated":11718,"Studios":11719,"sensor":11720,"criticised":11721,"Nova":11722,"ranking":11723,"teenagers":11724,"appreciated":11725,"mirror":11726,"harmful":11727,"accidents":11728,"alien":11729,"proceeds":11730,"rescued":11731,"frustrated":11732,"Cyber":11733,"marginal":11734,"pursuing":11735,"travellers":11736,"Leaders":11737,"Birmingham":11738,"Connectic":11739,"Rodrig":11740,"shifting":11741,"Cambridge":11742,"championships":11743,"sharply":11744,"eliminate":11745,"pharmaceutical":11746,"legitim":11747,"Tamil":11748,"Operation":11749,"Television":11750,"terminal":11751,"accomplished":11752,"gallery":11753,"Watson":11754,"citizenship":11755,"gorge":11756,"prohibited":11757,"iatric":11758,"dragged":11759,"bathroom":11760,"tuition":11761,"pupils":11762,"Against":11763,"architecture":11764,"Yeah":11765,"constituency":11766,"privilege":11767,"resignation":11768,"Nazi":11769,"wireless":11770,"compassion":11771,"Private":11772,"Veterans":11773,"Chrome":11774,"datab":11775,"Climate":11776,"Raiders":11777,"testimony":11778,"Relief":11779,"Duluth":11780,"Hundreds":11781,"pneum":11782,"attendees":11783,"Manhattan":11784,"Martinez":11785,"Reynolds":11786,"Amendment":11787,"Nintendo":11788,"Connecticut":11789,"(“":11790,"07":11791,"Aven":11792,"Cli":11793,"Core":11794,"Cemet":11795,"Dutch":11796,"Dennis":11797,"Ek":11798,"Fis":11799,"Ful":11800,"Few":11801,"Gur":11802,"HI":11803,"Jazz":11804,"Liz":11805,"Mut":11806,"Mend":11807,"Merr":11808,"NB":11809,"Nol":11810,"N95":11811,"Ole":11812,"Oil":11813,"Ring":11814,"Rum":11815,"Raw":11816,"Rash":11817,"Smo":11818,"Shad":11819,"Sah":11820,"Switch":11821,"Tory":11822,"Tiger":11823,"Tucker":11824,"UE":11825,"Vij":11826,"bone":11827,"bund":11828,"cam":11829,"cattle":11830,"density":11831,"gem":11832,"hiding":11833,"hilar":11834,"jac":11835,"naked":11836,"oqu":11837,"tz":11838,"tast":11839,"ugu":11840,"yr":11841,"intell":11842,"eries":11843,"anno":11844,"retr":11845,"restruct":11846,"rebuild":11847,"recreational":11848,"sted":11849,"stamp":11850,"stemic":11851,"tos":11852,"isional":11853,"asi":11854,"asha":11855,"itating":11856,"healing":11857,"ilitation":11858,"idal":11859,"acha":11860,"accent":11861,"acular":11862,"chips":11863,"ols":11864,"olly":11865,"irr":11866,"imprison":11867,"oty":11868,"igue":11869,"igating":11870,"unnecessary":11871,"congrat":11872,"agen":11873,"opol":11874,"abil":11875,"lov":11876,"lover":11877,"procure":11878,"ulative":11879,"apology":11880,"aks":11881,"Innov":11882,"overtime":11883,"Thus":11884,"Third":11885,"crip":11886,"boast":11887,"Hell":11888,"creen":11889,"partial":11890,"bris":11891,"Chall":11892,"identifying":11893,"Analy":11894,"dispar":11895,"displayed":11896,"disproportion":11897,"ignor":11898,"drain":11899,"drastic":11900,"ishi":11901,"minster":11902,"merch":11903,"lasted":11904,"showcas":11905,"interference":11906,"interpret":11907,"retali":11908,"Browns":11909,"hometown":11910,"insights":11911,"setup":11912,"linebacker":11913,"relate":11914,"nerve":11915,"produces":11916,"ashtra":11917,"ixon":11918,"Arn":11919,"norms":11920,"northeast":11921,"Room":11922,"risen":11923,"Level":11924,"applies":11925,"wrist":11926,"volumes":11927,"Construction":11928,"receives":11929,"Princ":11930,"cuss":11931,"patrons":11932,"steep":11933,"breakdown":11934,"solved":11935,"Political":11936,"Too":11937,"summit":11938,"Mario":11939,"unders":11940,"equities":11941,"25th":11942,"lovely":11943,"Managing":11944,"cyc":11945,"onda":11946,"policing":11947,"suppliers":11948,"declare":11949,"educated":11950,"modest":11951,"execution":11952,"photographer":11953,"sexy":11954,"Holy":11955,"Cricket":11956,"Neigh":11957,"confused":11958,"ometime":11959,"welcoming":11960,"tropical":11961,"scratch":11962,"Banks":11963,"lacking":11964,"painted":11965,"applicants":11966,"Angel":11967,"neglect":11968,"Directors":11969,"spotlight":11970,"ANC":11971,"Valent":11972,"counterpart":11973,"bonus":11974,"attracted":11975,"remembered":11976,"ambition":11977,"responders":11978,"respondents":11979,"imagined":11980,"teenage":11981,"teenager":11982,"acceptance":11983,"flip":11984,"preceded":11985,"terrorists":11986,"adjustments":11987,"junction":11988,"Glad":11989,"installation":11990,"paired":11991,"permanently":11992,"mortality":11993,"worrying":11994,"lengthy":11995,"bosses":11996,"Between":11997,"Liberal":11998,"acknowledge":11999,"Roman":12000,"palm":12001,"blowing":12002,"benchmark":12003,"fingers":12004,"instrument":12005,"Bradley":12006,"Industries":12007,"Raymond":12008,"ORK":12009,"forthcoming":12010,"tanks":12011,"outright":12012,"dynamics":12013,"Nathan":12014,"diplomatic":12015,"Commonwealth":12016,"pleasure":12017,"habitat":12018,"Roger":12019,"confrontation":12020,"facilitate":12021,"implications":12022,"modified":12023,"Standard":12024,"Armenia":12025,"Bernard":12026,"Baseball":12027,"emergencies":12028,"shadow":12029,"compelling":12030,"councillors":12031,"Criminal":12032,"Legislature":12033,"slavery":12034,"arbitr":12035,"Pentagon":12036,"deposits":12037,"Malaysia":12038,"explanation":12039,"smell":12040,"Arena":12041,"assurance":12042,"glimpse":12043,"Azerbaijan":12044,"Garcia":12045,"libraries":12046,"Maharashtra":12047,"Tanzania":12048,"undoubtedly":12049,"Amanda":12050,"Cemetery":12051,"oquine":12052,"AFL":12053,"Bou":12054,"Bot":12055,"Block":12056,"CW":12057,"Cop":12058,"DR":12059,"Da":12060,"Dist":12061,"Diana":12062,"Ess":12063,"Eston":12064,"FE":12065,"FS":12066,"Fant":12067,"GT":12068,"Gw":12069,"Il":12070,"Kas":12071,"Kend":12072,"Made":12073,"Making":12074,"Municipal":12075,"Nep":12076,"Native":12077,"OC":12078,"Olu":12079,"Pir":12080,"Qatar":12081,"Rout":12082,"Race":12083,"Som":12084,"Say":12085,"Sally":12086,"Stop":12087,"Simply":12088,"Tower":12089,"UI":12090,"UM":12091,"VR":12092,"Vie":12093,"Want":12094,"bun":12095,"bans":12096,"cular":12097,"dough":12098,"dwell":12099,"diver":12100,"fasc":12101,"hedge":12102,"mu":12103,"phe":12104,"pad":12105,"pub":12106,"tat":12107,"twenty":12108,"wreck":12109,"zie":12110,"€¦":12111,"inos":12112,"thening":12113,"oner":12114,"resem":12115,"rehears":12116,"atus":12117,"eness":12118,"oro":12119,"orbit":12120,"allocated":12121,"isure":12122,"itis":12123,"itism":12124,"heating":12125,"beit":12126,"bears":12127,"bearing":12128,"accompany":12129,"adhere":12130,"admissions":12131,"chase":12132,"olo":12133,"igo":12134,"unfold":12135,"illery":12136,"destruct":12137,"deposit":12138,"agar":12139,"resumed":12140,"compl":12141,"emon":12142,"tery":12143,"loop":12144,"sail":12145,"teens":12146,"mentor":12147,"plum":12148,"aint":12149,"exacer":12150,"aph":12151,"ifty":12152,"worries":12153,"oda":12154,"ieve":12155,"creator":12156,"assass":12157,"Chi":12158,"Chenn":12159,"prestig":12160,"contam":12161,"disagree":12162,"intensity":12163,"commence":12164,"forming":12165,"hook":12166,"curious":12167,"Travel":12168,"anga":12169,"reader":12170,"ppers":12171,"sci":12172,"regards":12173,"athlete":12174,"betting":12175,"retro":12176,"desc":12177,"venge":12178,"systemic":12179,"surfaces":12180,"learners":12181,"caly":12182,"Forum":12183,"Joint":12184,"consists":12185,"tense":12186,"operative":12187,"joins":12188,"Minor":12189,"substit":12190,"factories":12191,"directions":12192,"directives":12193,"ventions":12194,"iki":12195,"viruses":12196,"valley":12197,"pursuit":12198,"Enforcement":12199,"electorate":12200,"Southwest":12201,"140":12202,"Marsh":12203,"societ":12204,"protein":12205,"Healthcare":12206,"180":12207,"reaches":12208,"sentencing":12209,"drops":12210,"mptomatic":12211,"Clin":12212,"grounded":12213,"variant":12214,"skip":12215,"Govern":12216,"competitions":12217,"carriers":12218,"declining":12219,"cuff":12220,"ennial":12221,"damaging":12222,"messaging":12223,"hydr":12224,"debates":12225,"slump":12226,"Days":12227,"supermarket":12228,"batting":12229,"parked":12230,"definitive":12231,"cultures":12232,"destinations":12233,"Edward":12234,"connecting":12235,"Abbott":12236,"divide":12237,"containment":12238,"exploitation":12239,"invitation":12240,"establishing":12241,"Schum":12242,"implementing":12243,"Official":12244,"qualities":12245,"Bros":12246,"wondered":12247,"ACT":12248,"Studies":12249,"cooked":12250,"appreh":12251,"thankful":12252,"rocket":12253,"examination":12254,"assessments":12255,"sticks":12256,"sticking":12257,"Upper":12258,"Milan":12259,"Miles":12260,"achievements":12261,"minorities":12262,"barrier":12263,"Franklin":12264,"asylum":12265,"Bluetooth":12266,"reply":12267,"Township":12268,"Liberia":12269,"Fergus":12270,"Katie":12271,"UCLA":12272,"evaluation":12273,"Industrial":12274,"Sharma":12275,"fruits":12276,"Throughout":12277,"precious":12278,"Communist":12279,"endeav":12280,"Farmers":12281,"satellites":12282,"socio":12283,"thrilled":12284,"elementary":12285,"Ellis":12286,"clerk":12287,"Crystal":12288,"phases":12289,"liquidity":12290,"sweeping":12291,"Turner":12292,"colonial":12293,"expenditure":12294,"volatile":12295,"midfielder":12296,"Pandemic":12297,"Recently":12298,"cousin":12299,"Venezuela":12300,"hazard":12301,"Arkansas":12302,"slammed":12303,"cautious":12304,"Baghdad":12305,"intellectual":12306,"tokens":12307,"applaud":12308,"Oklahoma":12309,"propaganda":12310,"Inspector":12311,"powder":12312,"threshold":12313,"pneumonia":12314,"exacerb":12315,"4K":12316,"750":12317,"Ast":12318,"Age":12319,"Bent":12320,"Bald":12321,"Cin":12322,"Cav":12323,"Cub":12324,"CBC":12325,"DM":12326,"Dome":12327,"Doc":12328,"Gho":12329,"HP":12330,"Hence":12331,"Hob":12332,"IG":12333,"Jav":12334,"Kit":12335,"Kath":12336,"Lil":12337,"Lions":12338,"Lakes":12339,"Laz":12340,"MIN":12341,"Pear":12342,"Pink":12343,"Pris":12344,"Pixel":12345,"Ral":12346,"Rico":12347,"Ruth":12348,"Riley":12349,"Revolution":12350,"Said":12351,"Taking":12352,"Total":12353,"Vincent":12354,"Wrest":12355,"batch":12356,"bicy":12357,"cad":12358,"cott":12359,"dent":12360,"dangers":12361,"fas":12362,"ffect":12363,"ih":12364,"iac":12365,"lop":12366,"liness":12367,"mers":12368,"mush":12369,"nar":12370,"pubs":12371,"rous":12372,"sab":12373,"ux":12374,"uit":12375,"uating":12376,"vas":12377,"wars":12378,"yle":12379,"zam":12380,"thro":12381,"thma":12382,"inating":12383,"erup":12384,"anu":12385,"onds":12386,"recount":12387,"refund":12388,"enrolled":12389,"enabled":12390,"orous":12391,"stew":12392,"staged":12393,"edi":12394,"aligned":12395,"token":12396,"essa":12397,"hey":12398,"otes":12399,"unlock":12400,"usions":12401,"convert":12402,"neuro":12403,"comics":12404,"livan":12405,"loe":12406,"lovers":12407,"pest":12408,"sauce":12409,"sums":12410,"shorter":12411,"ista":12412,"istle":12413,"2030":12414,"portal":12415,"portions":12416,"clam":12417,"iels":12418,"offence":12419,"offenders":12420,"Thunder":12421,"inda":12422,"1990":12423,"workout":12424,"uez":12425,"boots":12426,"boats":12427,"booth":12428,"blend":12429,"compat":12430,"awn":12431,"assert":12432,"Chang":12433,"pressures":12434,"formally":12435,"arks":12436,"ictions":12437,"scope":12438,"observe":12439,"ultane":12440,"bucks":12441,"wells":12442,"ugal":12443,"raid":12444,"studios":12445,"Newton":12446,"ancers":12447,"surgical":12448,"charities":12449,"headline":12450,"Reed":12451,"Alpha":12452,"jectory":12453,"restored":12454,"Argent":12455,"viewing":12456,"signals":12457,"issuing":12458,"happiness":12459,"lawful":12460,"locker":12461,"trajectory":12462,"volley":12463,"submission":12464,"Connor":12465,"30th":12466,"gesture":12467,"Prom":12468,"posters":12469,"nightmare":12470,"imports":12471,"Drag":12472,"severity":12473,"balanced":12474,"grey":12475,"Moon":12476,"Access":12477,"Across":12478,"distant":12479,"Marine":12480,"offerings":12481,"metro":12482,"bene":12483,"Manito":12484,"delivers":12485,"spoilers":12486,"brook":12487,"companion":12488,"commitments":12489,"Cloud":12490,"Africans":12491,"travelers":12492,"storyline":12493,"40s":12494,"billionaire":12495,"agrees":12496,"violated":12497,"humanitarian":12498,"colleague":12499,"simultane":12500,"Herbert":12501,"Craw":12502,"Critics":12503,"confusing":12504,"roller":12505,"superhero":12506,"battled":12507,"relied":12508,"Markle":12509,"31st":12510,"recognised":12511,"builds":12512,"shutting":12513,"excuse":12514,"Davidson":12515,"penet":12516,"exploit":12517,"spectacular":12518,"rains":12519,"LLE":12520,"licence":12521,"grandparents":12522,"Brother":12523,"errors":12524,"branded":12525,"garner":12526,"securing":12527,"poorly":12528,"separation":12529,"battleground":12530,"strengthening":12531,"corporation":12532,"smartphones":12533,"sensors":12534,"Strateg":12535,"historically":12536,"Shah":12537,"Born":12538,"49ers":12539,"Burrow":12540,"sadly":12541,"integration":12542,"Workers":12543,"floods":12544,"horrific":12545,"supposedly":12546,"Naval":12547,"asymptomatic":12548,"Cypr":12549,"Louisville":12550,"printed":12551,"forecasts":12552,"conservation":12553,"glasses":12554,"Horn":12555,"emphasis":12556,"climbed":12557,"newspapers":12558,"consultant":12559,"renewable":12560,"Cardinals":12561,"evaluate":12562,"pharmacy":12563,"couch":12564,"incentives":12565,"subsidi":12566,"gambling":12567,"inventory":12568,"accelerate":12569,"reckless":12570,"Keeping":12571,"Robertson":12572,"philanth":12573,"ritual":12574,"Kirk":12575,"Popular":12576,"privileged":12577,"enjoys":12578,"municipalities":12579,"anonymous":12580,"mounted":12581,"Clarke":12582,"Shortly":12583,"tornado":12584,"emotionally":12585,"Picture":12586,"contemporary":12587,"diamond":12588,"ridiculous":12589,"administered":12590,"confronted":12591,"dispatched":12592,"livelihoods":12593,"Eventually":12594,"Hannah":12595,"reluctant":12596,"Experts":12597,"chloroquine":12598,"iocese":12599,"Spirit":12600,"diabetes":12601,"Barbara":12602,"fascin":12603,"):":12604,"),”":12605,",“":12606,"Bos":12607,"Bull":12608,"Brett":12609,"CIA":12610,"Drew":12611,"Fight":12612,"Fish":12613,"Final":12614,"Hone":12615,"ICE":12616,"Jur":12617,"Kapo":12618,"Lot":12619,"Log":12620,"Lloyd":12621,"Lisa":12622,"Logan":12623,"Paren":12624,"Rat":12625,"Rid":12626,"Rac":12627,"Rice":12628,"Rush":12629,"Sl":12630,"Sex":12631,"Sach":12632,"Sny":12633,"Sanche":12634,"Soph":12635,"Tot":12636,"Tul":12637,"Twenty":12638,"VC":12639,"Vlad":12640,"Were":12641,"XT":12642,"cort":12643,"caf":12644,"dler":12645,"fere":12646,"fame":12647,"fence":12648,"fond":12649,"jets":12650,"lace":12651,"lord":12652,"rage":12653,"tical":12654,"thunder":12655,"inject":12656,"incoming":12657,"infamous":12658,"intrig":12659,"theastern":12660,"onna":12661,"rever":12662,"remed":12663,"envelop":12664,"enroll":12665,"sting":12666,"editing":12667,"albeit":12668,"topping":12669,"touted":12670,"isi":12671,"esy":12672,"icious":12673,"leisure":12674,"heated":12675,"illegally":12676,"bee":12677,"adjac":12678,"roe":12679,"chor":12680,"whis":12681,"imir":12682,"immin":12683,"oter":12684,"unle":12685,"unbeliev":12686,"illo":12687,"cemet":12688,"cts":12689,"dell":12690,"compr":12691,"tering":12692,"logo":12693,"trace":12694,"outlined":12695,"fract":12696,"feas":12697,"notorious":12698,"2024":12699,"2025":12700,"perception":12701,"prisons":12702,"odge":12703,"acking":12704,"ieber":12705,"gray":12706,"whoever":12707,"mega":12708,"avy":12709,"oka":12710,"oku":12711,"blaz":12712,"creativity":12713,"stranger":12714,"Cham":12715,"cooperate":12716,"conting":12717,"prescr":12718,"disorder":12719,"disappeared":12720,"drought":12721,"drones":12722,"weekends":12723,"helmet":12724,"Butler":12725,"comeback":12726,"undertaken":12727,"beings":12728,"COM":12729,"interfere":12730,"Universe":12731,"spection":12732,"ression":12733,"Bring":12734,"Brien":12735,"desert":12736,"teammate":12737,"Coordin":12738,"cared":12739,"imped":12740,"Form":12741,"marking":12742,"missile":12743,"Armed":12744,"Artic":12745,"handing":12746,"consoles":12747,"smugg":12748,"Leice":12749,"arena":12750,"stole":12751,"expectation":12752,"economist":12753,"economists":12754,"economically":12755,"booking":12756,"Advoc":12757,"solic":12758,"Draft":12759,"Shore":12760,"Prov":12761,"Protest":12762,"parish":12763,"prompting":12764,"electron":12765,"processed":12766,"distanced":12767,"Marcus":12768,"eventual":12769,"Johns":12770,"risky":12771,"counters":12772,"classrooms":12773,"incere":12774,"layoffs":12775,"certainty":12776,"13th":12777,"locate":12778,"boro":12779,"burse":12780,"measured":12781,"Corre":12782,"17th":12783,"queen":12784,"Serge":12785,"basement":12786,"impacting":12787,"Phys":12788,"sketch":12789,"specially":12790,"privately":12791,"hammer":12792,"competitors":12793,"Northwest":12794,"allegation":12795,"violating":12796,"Rescue":12797,"damages":12798,"hotspots":12799,"significance":12800,"responsive":12801,"mindset":12802,"packaging":12803,"administrators":12804,"lowered":12805,"ensured":12806,"supervision":12807,"combine":12808,"pretend":12809,"immun":12810,"panels":12811,"reviewing":12812,"similarly":12813,"Notre":12814,"credits":12815,"Haram":12816,"Harvey":12817,"Emma":12818,"publishing":12819,"pairs":12820,"advisory":12821,"Jackie":12822,"learnt":12823,"arguably":12824,"ieties":12825,"qualifying":12826,"contentious":12827,"yeah":12828,"Alexa":12829,"references":12830,"temple":12831,"FCC":12832,"Studio":12833,"Koh":12834,"assessed":12835,"jeopard":12836,"wildfires":12837,"reflecting":12838,"festivals":12839,"appropri":12840,"Typ":12841,"southeast":12842,"beautifully":12843,",’’":12844,",’”":12845,"adapting":12846,"adapted":12847,"fleeing":12848,"halls":12849,"literature":12850,"segreg":12851,"dividends":12852,"Cyr":12853,"Electoral":12854,"stabbed":12855,"nuts":12856,"travelled":12857,"Bolton":12858,"lanes":12859,"Bobby":12860,"Flash":12861,"Filip":12862,"instructed":12863,"Dundee":12864,"clarity":12865,"Lynch":12866,"Voice":12867,"weighed":12868,"apologize":12869,"grabbed":12870,"exemption":12871,"alternate":12872,"pleasant":12873,"Palestinians":12874,"urgeon":12875,"suspicious":12876,"Dynam":12877,"Rogers":12878,"resilient":12879,"dimin":12880,"barrels":12881,"observations":12882,"phased":12883,"anonymity":12884,"Index":12885,"laptops":12886,"Lebanese":12887,"taxpayer":12888,"Relations":12889,"mounting":12890,"Circuit":12891,"Cruz":12892,"Consumer":12893,"lungs":12894,"hinted":12895,"pivotal":12896,"fragile":12897,"Leonard":12898,"Engineering":12899,"congressional":12900,"xychloroquine":12901,"livestre":12902,"affiliated":12903,"Emirates":12904,"Starting":12905,"bureaucr":12906,"unanimously":12907,"phenomenon":12908,"Buffalo":12909,"Morocco":12910,"philosophy":12911,"prosperity":12912,"astronaut":12913,"dubbed":12914,"Scientists":12915,"WASHING":12916,"Sullivan":12917,"Bruins":12918,"exclusively":12919,"prolonged":12920,"Crisis":12921,"clusters":12922,"gorgeous":12923,"Vijay":12924,"intelligent":12925,"destructive":12926,"Chennai":12927,"Kapoor":12928,"Sanchez":12929,"WASHINGTON":12930,"650":12931,"?'":12932,"Aqu":12933,"Bach":12934,"Ced":12935,"Cert":12936,"Census":12937,"Fresh":12938,"GC":12939,"GI":12940,"Gig":12941,"Hass":12942,"Hogan":12943,"KR":12944,"Lion":12945,"Nk":12946,"Nine":12947,"NPR":12948,"PF":12949,"Pier":12950,"RM":12951,"Rio":12952,"SM":12953,"Sush":12954,"Ti":12955,"Tap":12956,"Teach":12957,"WS":12958,"Zam":12959,"bps":12960,"bids":12961,"buster":12962,"bilateral":12963,"cab":12964,"codes":12965,"gies":12966,"gie":12967,"gaps":12968,"jailed":12969,"jazz":12970,"mant":12971,"nik":12972,"oy":12973,"rant":12974,"rie":12975,"rav":12976,"rans":12977,"ridge":12978,"sometime":12979,"tire":12980,"tang":12981,"twelve":12982,"wu":12983,"wre":12984,"wield":12985,"wished":12986,"yen":12987,"thouse":12988,"anie":12989,"oning":12990,"revel":12991,"repatri":12992,"reconcil":12993,"ento":12994,"environ":12995,"ensures":12996,"orange":12997,"stored":12998,"stairs":12999,"edy":13000,"isbury":13001,"leaf":13002,"leather":13003,"lethal":13004,"omers":13005,"betray":13006,"acid":13007,"seam":13008,"sealed":13009,"advers":13010,"forgiven":13011,"ching":13012,"champ":13013,"aments":13014,"vering":13015,"irregular":13016,"urges":13017,"unite":13018,"demean":13019,"debris":13020,"contrad":13021,"concessions":13022,"agwa":13023,"aggrav":13024,"oples":13025,"oppose":13026,"hak":13027,"havoc":13028,"nephe":13029,"compos":13030,"triple":13031,"sul":13032,"ulously":13033,"shade":13034,"plates":13035,"istani":13036,"notification":13037,"quote":13038,"endra":13039,"dos":13040,"Independence":13041,"offshore":13042,"indu":13043,"workouts":13044,"Wealth":13045,"bru":13046,"sheer":13047,"Change":13048,"disability":13049,"disregard":13050,"afterwards":13051,"Sturgeon":13052,"intens":13053,"reelection":13054,"backyard":13055,"monster":13056,"forefront":13057,"thrive":13058,"testified":13059,"scul":13060,"observers":13061,"ssil":13062,"CON":13063,"internationally":13064,"interventions":13065,"Bris":13066,"governmental":13067,"eleg":13068,"desired":13069,"talents":13070,"Newman":13071,"102":13072,"breeding":13073,"tonnes":13074,"Alice":13075,"Jos":13076,"businessman":13077,"transgender":13078,"cheating":13079,"Noah":13080,"Roc":13081,"smen":13082,"realities":13083,"postseason":13084,"patron":13085,"detr":13086,"tops":13087,"imported":13088,"grams":13089,"enterprises":13090,"Islands":13091,"listing":13092,"Shane":13093,"default":13094,"complement":13095,"Move":13096,"Moss":13097,"particles":13098,"Meh":13099,"24th":13100,"Carthy":13101,"keyboard":13102,"metre":13103,"rane":13104,"dense":13105,"harsh":13106,"harmon":13107,"costly":13108,"Depp":13109,"watches":13110,"productions":13111,"Stefan":13112,"competent":13113,"accessories":13114,"crises":13115,"vaccination":13116,"educate":13117,"Century":13118,"graded":13119,"doubling":13120,"Guyan":13121,"screened":13122,"minded":13123,"assisting":13124,"respects":13125,"CAR":13126,"digits":13127,"swick":13128,"gunshot":13129,"woods":13130,"believing":13131,"blocking":13132,"victories":13133,"relieved":13134,"collections":13135,"shootings":13136,"lify":13137,"credential":13138,"divisions":13139,"performs":13140,"performers":13141,"Harper":13142,"Regul":13143,"Congressional":13144,"maintains":13145,"cliff":13146,"cleaner":13147,"traditionally":13148,"distributing":13149,"sounded":13150,"1993":13151,"1995":13152,"freel":13153,"rainfall":13154,"radar":13155,"logist":13156,"speeds":13157,"Holland":13158,"annualized":13159,"counterparts":13160,"villains":13161,"Alexis":13162,"robots":13163,"continuous":13164,"Portugal":13165,"Bills":13166,"Strong":13167,"profitable":13168,"examined":13169,"Thankfully":13170,"paths":13171,"advantages":13172,"sorts":13173,"machinery":13174,"languages":13175,"Magistrate":13176,"Melissa":13177,"Tyson":13178,"Globe":13179,"othy":13180,"Legend":13181,"Pakistani":13182,"advocacy":13183,"Moder":13184,"Jacksonville":13185,"pursued":13186,"batteries":13187,"vacu":13188,"recruiting":13189,"Fortun":13190,"confidential":13191,"Bollywood":13192,"Better":13193,"cautioned":13194,"disputed":13195,"Windsor":13196,"arrangement":13197,"Planning":13198,"romance":13199,"neighbourhood":13200,"homelessness":13201,"principle":13202,"brahim":13203,"Sharon":13204,"Walking":13205,"Ultra":13206,"evacuated":13207,"jacket":13208,"Squad":13209,"Susan":13210,"encountered":13211,"disciplinary":13212,"Oakland":13213,"dominant":13214,"divorced":13215,"Linda":13216,"Lightning":13217,"entrepreneurs":13218,"rubber":13219,"upgrades":13220,"annex":13221,"flavor":13222,"Garda":13223,"Lauren":13224,"Transportation":13225,"fulfilling":13226,"Large":13227,"treasure":13228,"Rabbi":13229,"delegates":13230,"Messi":13231,"escaped":13232,"urgently":13233,"oriented":13234,"commodity":13235,"refriger":13236,"endorsement":13237,"cotton":13238,"Citizen":13239,"thoroughly":13240,"Hughes":13241,"Natural":13242,"invasion":13243,"Revenue":13244,"Brunswick":13245,"Nashville":13246,"predecessor":13247,"saddened":13248,"monetary":13249,"Thousands":13250,"Toyota":13251,"database":13252,"restructuring":13253,"Route":13254,"beneath":13255,"fascinating":13256,"Snyder":13257,"Tottenham":13258,"Vladimir":13259,"adjacent":13260,"imminent":13261,"Article":13262,"environments":13263,"nephew":13264,",.":13265,"6th":13266,"Amid":13267,"Bever":13268,"Bark":13269,"Border":13270,"Bhar":13271,"Boko":13272,"Coney":13273,"Cats":13274,"Clean":13275,"DH":13276,"Dad":13277,"EN":13278,"Est":13279,"Either":13280,"Fac":13281,"Fly":13282,"Fel":13283,"Fla":13284,"Flight":13285,"Fury":13286,"Full":13287,"Gas":13288,"Hul":13289,"Hung":13290,"Hube":13291,"Ide":13292,"Ja":13293,"Kany":13294,"Kane":13295,"LS":13296,"Lun":13297,"Liam":13298,"MH":13299,"Miz":13300,"Mason":13301,"Match":13302,"Maz":13303,"Money":13304,"Maid":13305,"MON":13306,"Non":13307,"Pere":13308,"Paw":13309,"Sac":13310,"Screen":13311,"Tree":13312,"Vent":13313,"WO":13314,"Wes":13315,"Wend":13316,"Wade":13317,"Zach":13318,"aqu":13319,"bish":13320,"bins":13321,"baking":13322,"bloc":13323,"bored":13324,"cub":13325,"dess":13326,"dirt":13327,"dirty":13328,"dignity":13329,"fet":13330,"fuck":13331,"fathers":13332,"gush":13333,"ii":13334,"iance":13335,"lending":13336,"lighter":13337,"mble":13338,"mature":13339,"maps":13340,"nit":13341,"oon":13342,"pse":13343,"paced":13344,"puzz":13345,"rin":13346,"rust":13347,"rations":13348,"rational":13349,"tes":13350,"tive":13351,"zomb":13352,"insure":13353,"inability":13354,"insecurity":13355,"inmate":13356,"inappropriate":13357,"inburgh":13358,"ante":13359,"reim":13360,"react":13361,"refin":13362,"ori":13363,"stown":13364,"stark":13365,"ingham":13366,"aria":13367,"escort":13368,"asthma":13369,"itudes":13370,"iche":13371,"leep":13372,"bels":13373,"accounting":13374,"adverse":13375,"owe":13376,"rode":13377,"chasing":13378,"whilst":13379,"verify":13380,"ims":13381,"unal":13382,"unacceptable":13383,"etics":13384,"dean":13385,"agg":13386,"opping":13387,"lix":13388,"liability":13389,"peer":13390,"keley":13391,"mothers":13392,"suite":13393,"ulum":13394,"shirts":13395,"soy":13396,"aines":13397,"extradition":13398,"essence":13399,"poly":13400,"orts":13401,"goers":13402,"uming":13403,"earliest":13404,"ivities":13405,"Income":13406,"Initi":13407,"cling":13408,"grind":13409,"aflo":13410,"overweight":13411,"cane":13412,"avin":13413,"avis":13414,"eva":13415,"eviction":13416,"nostal":13417,"blur":13418,"awak":13419,"stripped":13420,"aching":13421,"bron":13422,"brick":13423,"shelt":13424,"coat":13425,"cosm":13426,"coordination":13427,"identification":13428,"izable":13429,"dispens":13430,"Stu":13431,"icked":13432,"drunk":13433,"drilling":13434,"backlash":13435,"fert":13436,"forests":13437,"additions":13438,"minerals":13439,"merit":13440,"proves":13441,"finity":13442,"undergoing":13443,"bug":13444,"fossil":13445,"servants":13446,"retreat":13447,"retained":13448,"colog":13449,"colored":13450,"archy":13451,"gues":13452,"continuation":13453,"Newcastle":13454,"visa":13455,"teamed":13456,"decisive":13457,"Shep":13458,"Forrest":13459,"selfish":13460,"charter":13461,"Rey":13462,"Recovery":13463,"caps":13464,"lawmaker":13465,"blew":13466,"nationals":13467,"Month":13468,"Counsel":13469,"Seth":13470,"suburban":13471,"USC":13472,"Prize":13473,"possibilities":13474,"ahan":13475,"ologists":13476,"Individual":13477,"steam":13478,"campuses":13479,"117":13480,"quartered":13481,"carpet":13482,"hardship":13483,"greet":13484,"vibr":13485,"Provin":13486,"concerts":13487,"summon":13488,"electrical":13489,"Marie":13490,"Megan":13491,"Juan":13492,"metric":13493,"youngest":13494,"Manufact":13495,"spreads":13496,"shoe":13497,"technically":13498,"McCarthy":13499,"filmmaker":13500,"reflection":13501,"Yorkshire":13502,"hips":13503,"committing":13504,"productivity":13505,"activated":13506,"ensemble":13507,"reduces":13508,"reductions":13509,"Stevens":13510,"Westminster":13511,"homem":13512,"homicide":13513,"speculation":13514,"Christine":13515,"damn":13516,"questionable":13517,"lords":13518,"gradual":13519,"Barnes":13520,"figured":13521,"Hernand":13522,"Heritage":13523,"28th":13524,"Greens":13525,"Particip":13526,"Highland":13527,"Berkeley":13528,"problematic":13529,"Syn":13530,"rows":13531,"Ambass":13532,"Edinburgh":13533,"circuit":13534,"semif":13535,"connects":13536,"trophy":13537,"sequence":13538,"Performan":13539,"DAY":13540,"petrol":13541,"ordinance":13542,"avoided":13543,"normalcy":13544,"favorable":13545,"Acting":13546,"bullying":13547,"hurting":13548,"broadband":13549,"publisher":13550,"launches":13551,"institute":13552,"Malta":13553,"Palm":13554,"Belle":13555,"logic":13556,"logical":13557,"magnet":13558,"nominations":13559,"Brothers":13560,"Caroline":13561,"kicks":13562,"centered":13563,"influenza":13564,"ACC":13565,"Midwest":13566,"Luther":13567,"sensit":13568,"manufactured":13569,"engineers":13570,"determining":13571,"Victorian":13572,"predictable":13573,"Military":13574,"neighboring":13575,"albums":13576,"bolster":13577,"Scotia":13578,"drinks":13579,"looming":13580,"entertaining":13581,"Curtis":13582,"cooler":13583,"Andrews":13584,"negotiating":13585,"Erdo":13586,"Postal":13587,"Modern":13588,"stretched":13589,"Elections":13590,"broadcaster":13591,"frequency":13592,"Williamson":13593,"Campaign":13594,"Swift":13595,"computers":13596,"defendant":13597,"Detect":13598,"stretches":13599,"striker":13600,"Rodgers":13601,"exhibit":13602,"arranged":13603,"yields":13604,"rifle":13605,"tactical":13606,"belonging":13607,"Testing":13608,"condemn":13609,"Medicare":13610,"Brazilian":13611,"subsidies":13612,"tuned":13613,"tunnel":13614,"opposing":13615,"accusing":13616,"insul":13617,"Julia":13618,"Commons":13619,"disturb":13620,"assumption":13621,"Statistics":13622,"Abdullah":13623,"Ukrainian":13624,"Employees":13625,"shrink":13626,"Steelers":13627,"crushed":13628,"emergence":13629,"Dominic":13630,"sovereignty":13631,"Snapdragon":13632,"Dream":13633,"suburbs":13634,"Belgium":13635,"Adrian":13636,"Impact":13637,"Puer":13638,"emoji":13639,"Brighton":13640,"incarcer":13641,"jokes":13642,"Rwanda":13643,"perceived":13644,"Regardless":13645,"Aviation":13646,"Idaho":13647,"procurement":13648,"retaliation":13649,"volleyball":13650,"Honest":13651,"cemetery":13652,"Leicester":13653,"Guyanese":13654,"Fortunately":13655,"Hubei":13656,"nostalg":13657,"shelters":13658,"Provincial":13659,"!'":13660,"230":13661,"450":13662,"Aut":13663,"Abi":13664,"BY":13665,"Bin":13666,"Bend":13667,"Blood":13668,"Brew":13669,"BIT":13670,"Dana":13671,"Eye":13672,"Fan":13673,"Fro":13674,"Fashion":13675,"Fitz":13676,"Gaz":13677,"Gantz":13678,"HT":13679,"Imag":13680,"Jar":13681,"Jol":13682,"KD":13683,"Kiss":13684,"Knights":13685,"Lad":13686,"Mile":13687,"Mang":13688,"Memp":13689,"Maur":13690,"Obas":13691,"Ps":13692,"Pap":13693,"Pine":13694,"Pret":13695,"Rural":13696,"Rena":13697,"SL":13698,"Saw":13699,"Save":13700,"Sche":13701,"Scar":13702,"SIM":13703,"Sector":13704,"Ts":13705,"Treat":13706,"UL":13707,"Vine":13708,"Wing":13709,"Wire":13710,"Zone":13711,"Zero":13712,"Zambia":13713,"aide":13714,"aunt":13715,"bod":13716,"bite":13717,"bang":13718,"bikes":13719,"bounce":13720,"bishop":13721,"cated":13722,"dens":13723,"eased":13724,"fark":13725,"fty":13726,"gut":13727,"hou":13728,"lav":13729,"lene":13730,"poured":13731,"ras":13732,"riel":13733,"sworn":13734,"sincere":13735,"tors":13736,"tub":13737,"von":13738,"vamp":13739,"zu":13740,"“”":13741,"”)":13742,"€“":13743,"inally":13744,"inho":13745,"info":13746,"incorporate":13747,"inadequate":13748,"onion":13749,"reacted":13750,"orche":13751,"stere":13752,"stint":13753,"alt":13754,"alum":13755,"arming":13756,"asa":13757,"itative":13758,"icans":13759,"heal":13760,"omy":13761,"entries":13762,"bets":13763,"acious":13764,"acclaimed":13765,"sewing":13766,"chatt":13767,"amet":13768,"oli":13769,"urgency":13770,"unsure":13771,"uting":13772,"illon":13773,"ceiling":13774,"defect":13775,"deleted":13776,"confin":13777,"conjunction":13778,"agh":13779,"agne":13780,"oped":13781,"wee":13782,"abrupt":13783,"abusive":13784,"resched":13785,"compromised":13786,"lian":13787,"lips":13788,"lders":13789,"trap":13790,"traced":13791,"ateur":13792,"outed":13793,"kest":13794,"mosqu":13795,"suck":13796,"ulent":13797,"shy":13798,"sham":13799,"tez":13800,"sober":13801,"apy":13802,"essim":13803,"poised":13804,"2050":13805,"ifa":13806,"endured":13807,"Init":13808,"Infect":13809,"clou":13810,"clue":13811,"affir":13812,"cans":13813,"meg":13814,"meth":13815,"offences":13816,"crown":13817,"craw":13818,"derabad":13819,"corners":13820,"corrid":13821,"ideology":13822,"blown":13823,"stric":13824,"achi":13825,"acht":13826,"assuring":13827,"bral":13828,"acey":13829,"sheets":13830,"coc":13831,"contem":13832,"prescrib":13833,"Story":13834,"thereafter":13835,"enson":13836,"angagwa":13837,"mineral":13838,"array":13839,"merged":13840,"proving":13841,"umph":13842,"versat":13843,"sels":13844,"showers":13845,"interface":13846,"cedes":13847,"landmark":13848,"Bristol":13849,"famously":13850,"flown":13851,"continually":13852,"Cool":13853,"104":13854,"surrender":13855,"engines":13856,"mson":13857,"Reid":13858,"Rebec":13859,"Reeves":13860,"Records":13861,"restoration":13862,"Arm":13863,"transfers":13864,"happily":13865,"smiling":13866,"appet":13867,"wrap":13868,"Mini":13869,"Pride":13870,"Beli":13871,"detection":13872,"develops":13873,"115":13874,"116":13875,"announces":13876,"purported":13877,"breakthrough":13878,"populated":13879,"listened":13880,"balcon":13881,"clearing":13882,"gyms":13883,"Provid":13884,"Account":13885,"underest":13886,"tariffs":13887,"exped":13888,"atories":13889,"atorium":13890,"equality":13891,"positioned":13892,"confirms":13893,"Canber":13894,"Cancer":13895,"Orland":13896,"Orthodox":13897,"sentences":13898,"authoritarian":13899,"refusal":13900,"Yorkers":13901,"committees":13902,"salv":13903,"salad":13904,"salmon":13905,"boarding":13906,"specialized":13907,"supplied":13908,"successor":13909,"protesting":13910,"protestors":13911,"walker":13912,"Something":13913,"margins":13914,"banning":13915,"males":13916,"malicious":13917,"executed":13918,"roleum":13919,"Doctor":13920,"NAN":13921,"NATO":13922,"tracked":13923,"confusion":13924,"personalities":13925,"terrifying":13926,"genius":13927,"misconduct":13928,"goalkeeper":13929,"originated":13930,"29th":13931,"wooden":13932,"biop":13933,"biased":13934,"Berry":13935,"Parker":13936,"destro":13937,"Editor":13938,"primaries":13939,"soldier":13940,"slowed":13941,"slowing":13942,"cros":13943,"Else":13944,"Peters":13945,"Peterson":13946,"logistics":13947,"warehouse":13948,"Daniels":13949,"copper":13950,"Investments":13951,"Sales":13952,"garbage":13953,"corporations":13954,"planted":13955,"planting":13956,"sensation":13957,"twist":13958,"itous":13959,"rocks":13960,"fatigue":13961,"northwest":13962,"southwest":13963,"integral":13964,"sidel":13965,"Karl":13966,"Karnat":13967,"highlighting":13968,"shelves":13969,"surgeon":13970,"Soul":13971,"ethical":13972,"ethics":13973,"cornerback":13974,"Researchers":13975,"faithful":13976,"Jeffrey":13977,"evolved":13978,"Hyderabad":13979,"tasks":13980,"Freder":13981,"Famil":13982,"000000":13983,"turkey":13984,"recruited":13985,"Ahmad":13986,"contestants":13987,"Vanessa":13988,"debuted":13989,"liberty":13990,"syndrome":13991,"inflamm":13992,"Eagle":13993,"positives":13994,"groceries":13995,"Gregor":13996,"instrumental":13997,"Classic":13998,"cinemas":13999,"Downing":14000,"description":14001,"settling":14002,"marched":14003,"apologized":14004,"stringent":14005,"vessels":14006,"Viol":14007,"insula":14008,"occasionally":14009,"Hurricane":14010,"Julian":14011,"Bihar":14012,"IOC":14013,"Review":14014,"Renew":14015,"borrowing":14016,"Lucy":14017,"Olivia":14018,"rewarding":14019,"lonely":14020,"blanket":14021,"constructed":14022,"probation":14023,"probable":14024,"apocaly":14025,"deliberate":14026,"deliberately":14027,"mixture":14028,"concentration":14029,"scholarship":14030,"Armenian":14031,"Matthews":14032,"Lori":14033,"Jagu":14034,"conferences":14035,"Response":14036,"autonomy":14037,"Nicholas":14038,"Casey":14039,"hiking":14040,"Appeal":14041,"echoed":14042,"pardon":14043,"consolidated":14044,"discretion":14045,"Property":14046,"Chapter":14047,"Athletic":14048,"Mnangagwa":14049,"Spotify":14050,"Restaurant":14051,"bizarre":14052,"elaborate":14053,"Namibia":14054,"Territ":14055,"frightening":14056,"frankly":14057,"opolitical":14058,"Innovation":14059,"Arnold":14060,"compliment":14061,"Ferguson":14062,"Ralph":14063,"simultaneously":14064,"Parents":14065,"unbelievable":14066,"Hassan":14067,"Sushant":14068,"Initiative":14069,"homemade":14070,"Hernandez":14071,"Ambassador":14072,"Puerto":14073,"Memphis":14074,"Rebecca":14075,"Karnataka":14076,"(£":14077,"AJ":14078,"Aid":14079,"AID":14080,"Bed":14081,"Bid":14082,"Bible":14083,"Cad":14084,"Cinc":14085,"Culture":14086,"Catherine":14087,"Din":14088,"Dance":14089,"Danny":14090,"Eil":14091,"Ethan":14092,"Fat":14093,"Fay":14094,"Fig":14095,"Fact":14096,"Fame":14097,"GR":14098,"Gay":14099,"Got":14100,"Herald":14101,"Ibrahim":14102,"Kw":14103,"Klo":14104,"LV":14105,"Lower":14106,"Lots":14107,"LIV":14108,"Learning":14109,"MR":14110,"Mi":14111,"Mig":14112,"MAN":14113,"Muk":14114,"NOT":14115,"Nifty":14116,"Prest":14117,"Porter":14118,"Ran":14119,"RON":14120,"Sik":14121,"Tak":14122,"Tier":14123,"Tiff":14124,"UV":14125,"Vin":14126,"Vick":14127,"Wear":14128,"Woman":14129,"YO":14130,"ao":14131,"aples":14132,"boun":14133,"bak":14134,"bones":14135,"baker":14136,"dit":14137,"flies":14138,"fusion":14139,"gul":14140,"glit":14141,"hn":14142,"hung":14143,"laser":14144,"nt":14145,"nier":14146,"oz":14147,"oid":14148,"ores":14149,"puck":14150,"piano":14151,"swit":14152,"sends":14153,"tut":14154,"tasked":14155,"uto":14156,"uity":14157,"vations":14158,"vandal":14159,"vendor":14160,"wol":14161,"yu":14162,"yang":14163,"ón":14164,"thumb":14165,"inction":14166,"anthem":14167,"theories":14168,"onic":14169,"rets":14170,"restr":14171,"enic":14172,"enables":14173,"orph":14174,"stun":14175,"stum":14176,"eda":14177,"altogether":14178,"tob":14179,"toe":14180,"toy":14181,"aru":14182,"eson":14183,"leston":14184,"leaked":14185,"ilogy":14186,"beverage":14187,"acists":14188,"seating":14189,"semin":14190,"adopting":14191,"ches":14192,"whistle":14193,"whopping":14194,"imo":14195,"iman":14196,"imated":14197,"unchanged":14198,"arest":14199,"utilities":14200,"eteen":14201,"usi":14202,"agu":14203,"ophob":14204,"wears":14205,"weights":14206,"neat":14207,"negl":14208,"resur":14209,"liant":14210,"tern":14211,"lore":14212,"looting":14213,"aller":14214,"alled":14215,"trump":14216,"trio":14217,"mosque":14218,"supre":14219,"ulates":14220,"expose":14221,"expressing":14222,"feld":14223,"anton":14224,"poet":14225,"quet":14226,"astics":14227,"enduring":14228,"uptick":14229,"anytime":14230,"affer":14231,"overhead":14232,"udge":14233,"190":14234,"1968":14235,"newer":14236,"compuls":14237,"Heath":14238,"manual":14239,"creep":14240,"stry":14241,"partially":14242,"Chin":14243,"Ana":14244,"displaying":14245,"commute":14246,"renowned":14247,"justices":14248,"justify":14249,"myth":14250,"backlog":14251,"downturn":14252,"Try":14253,"Trip":14254,"Traff":14255,"yours":14256,"testify":14257,"Aside":14258,"undermine":14259,"persed":14260,"wellbeing":14261,"wellness":14262,"Fried":14263,"annes":14264,"Brid":14265,"Brus":14266,"phins":14267,"desivir":14268,"relating":14269,"takeout":14270,"brew":14271,"ashamed":14272,"seasonal":14273,"Arctic":14274,"launder":14275,"ptic":14276,"lawn":14277,"smith":14278,"LeBron":14279,"apple":14280,"stats":14281,"Sey":14282,"volcan":14283,"arendra":14284,"USB":14285,"ahl":14286,"patrol":14287,"remainder":14288,"Grade":14289,"Blues":14290,"Shang":14291,"Shield":14292,"accordingly":14293,"Mohammad":14294,"grows":14295,"Norman":14296,"mandated":14297,"attering":14298,"freely":14299,"expired":14300,"Colum":14301,"dealers":14302,"distraction":14303,"layers":14304,"138":14305,"locating":14306,"McIn":14307,"Feed":14308,"authorized":14309,"Myers":14310,"Excell":14311,"salons":14312,"designing":14313,"supple":14314,"candle":14315,"alleges":14316,"maritime":14317,"specified":14318,"Christians":14319,"hostile":14320,"contractor":14321,"doubles":14322,"Doctors":14323,"autumn":14324,"motives":14325,"respectful":14326,"webinar":14327,"fluid":14328,"developmental":14329,"administrator":14330,"chiefs":14331,"swab":14332,"combating":14333,"reliance":14334,"Syrian":14335,"draws":14336,"surprises":14337,"Charleston":14338,"recognise":14339,"recognizes":14340,"analytics":14341,"animation":14342,"Perth":14343,"lacked":14344,"containers":14345,"buds":14346,"domain":14347,"applicable":14348,"oils":14349,"indicators":14350,"firmly":14351,"crowding":14352,"Discovery":14353,"inviting":14354,"PS5":14355,"shaw":14356,"shaking":14357,"raped":14358,"loads":14359,"Schmid":14360,"Below":14361,"speeding":14362,"Holo":14363,"Investigation":14364,"delaying":14365,"stressful":14366,"uku":14367,"Salisbury":14368,"attraction":14369,"secular":14370,"continuity":14371,"ACP":14372,"Labs":14373,"respondent":14374,"negatively":14375,"flowing":14376,"cookies":14377,"imagination":14378,"Luis":14379,"retailer":14380,"Chain":14381,"consuming":14382,"legislators":14383,"fatality":14384,"exceptions":14385,"Walsh":14386,"catches":14387,"exercising":14388,"AMC":14389,"crystal":14390,"comedian":14391,"collaborations":14392,"agreeing":14393,"Melania":14394,"innati":14395,"catal":14396,"hunter":14397,"minimize":14398,"greenhouse":14399,"clinics":14400,"washed":14401,"pilots":14402,"accidentally":14403,"surveyed":14404,"Mercedes":14405,"Southeast":14406,"flee":14407,"Vermont":14408,"accurately":14409,"automated":14410,"motorists":14411,"motorcycle":14412,"occasional":14413,"favourites":14414,"MCU":14415,"printing":14416,"laughing":14417,"laughter":14418,"Sarawak":14419,"splash":14420,"vacant":14421,"stabbing":14422,"defenders":14423,"tricks":14424,"Helen":14425,"immigrant":14426,"naval":14427,"tagged":14428,"disputes":14429,"Ghanaian":14430,"suffers":14431,"Annual":14432,"Summit":14433,"territories":14434,"Bulld":14435,"Empire":14436,"switching":14437,"incentive":14438,"railway":14439,"theatrical":14440,"Everton":14441,"Jesse":14442,"fronts":14443,"museums":14444,"intentions":14445,"ventilator":14446,"fundraiser":14447,"mountains":14448,"Visit":14449,"cybersecurity":14450,"Dylan":14451,"thriller":14452,"constituents":14453,"Target":14454,"Ellen":14455,"amendments":14456,"antibody":14457,"Junior":14458,"Sadly":14459,"gifted":14460,"tolerance":14461,"gardens":14462,"Claire":14463,"jersey":14464,
[...]
