{"version":"1.0","truncation":null,"padding":null,"added_tokens":[{"id":0,"special":true,"content":"<UNK>","single_word":false,"lstrip":false,"rstrip":false,"normalized":false},{"id":1,"special":true,"content":"<SEP>","single_word":false,"lstrip":false,"rstrip":false,"normalized":false},{"id":2,"special":true,"content":"<MASK>","single_word":false,"lstrip":false,"rstrip":false,"normalized":false},{"id":3,"special":true,"content":"<CLS>","single_word":false,"lstrip":false,"rstrip":false,"normalized":false}],"normalizer":null,"pre_tokenizer":{"type":"Whitespace"},"post_processor":null,"decoder":null,"model":{"type":"WordPiece","unk_token":"<UNK>","continuing_subword_prefix":"##","max_input_chars_per_word":100,"vocab":{"<UNK>":0,"<SEP>":1,"<MASK>":2,"<CLS>":3,"!":4,"\"":5,"$":6,"%":7,"&":8,"'":9,"(":10,")":11,"*":12,"+":13,",":14,"-":15,".":16,"/":17,"0":18,"1":19,"2":20,"3":21,"4":22,"5":23,"6":24,"7":25,"8":26,"9":27,":":28,";":29,"<":30,">":31,"?":32,"A":33,"B":34,"C":35,"D":36,"E":37,"F":38,"G":39,"H":40,"I":41,"J":42,"K":43,"L":44,"M":45,"N":46,"O":47,"P":48,"Q":49,"R":50,"S":51,"T":52,"U":53,"V":54,"W":55,"X":56,"Y":57,"Z":58,"`":59,"a":60,"b":61,"c":62,"d":63,"e":64,"f":65,"g":66,"h":67,"i":68,"j":69,"k":70,"l":71,"m":72,"n":73,"o":74,"p":75,"q":76,"r":77,"s":78,"t":79,"u":80,"v":81,"w":82,"x":83,"y":84,"z":85,"~":86,"¡":87,"¢":88,"£":89,"¤":90,"¥":91,"¦":92,"§":93,"¨":94,"ª":95,"«":96,"¬":97,"®":98,"¯":99,"°":100,"±":101,"²":102,"³":103,"´":104,"·":105,"¹":106,"º":107,"»":108,"¼":109,"½":110,"¾":111,"¿":112,"À":113,"Á":114,"Ä":115,"Å":116,"Ç":117,"È":118,"É":119,"Ê":120,"Í":121,"Î":122,"Ï":123,"Ñ":124,"Ò":125,"Ó":126,"Ô":127,"Ö":128,"×":129,"Ø":130,"Ú":131,"Û":132,"Ü":133,"Þ":134,"ß":135,"à":136,"á":137,"â":138,"ã":139,"ä":140,"å":141,"æ":142,"ç":143,"è":144,"é":145,"ê":146,"ë":147,"ì":148,"í":149,"î":150,"ï":151,"ð":152,"ñ":153,"ò":154,"ó":155,"ô":156,"õ":157,"ö":158,"ø":159,"ù":160,"ú":161,"û":162,"ü":163,"ý":164,"Ā":165,"ā":166,"ă":167,"ć":168,"Č":169,"č":170,"ē":171,"ę":172,"ě":173,"ğ":174,"Ġ":175,"ġ":176,"ħ":177,"İ":178,"ı":179,"ĳ":180,"ķ":181,"ļ":182,"Ľ":183,"ł":184,"ń":185,"ņ":186,"Ō":187,"ō":188,"Œ":189,"œ":190,"ř":191,"ś":192,"ş":193,"Š":194,"š":195,"ţ":196,"ū":197,"Ÿ":198,"Ż":199,"ż":200,"Ž":201,"ž":202,"ƅ":203,"ș":204,"ț":205,"ȼ":206,"ɑ":207,"ʏ":208,"ʻ":209,"ʼ":210,"˚":211,"˜":212,"˝":213,"̀":214,"́":215,"̂":216,"̃":217,"̈":218,"̧":219,"̶":220,"α":221,"β":222,"γ":223,"μ":224,"ν":225,"ο":226,"ς":227,"υ":228,"Ё":229,"Ђ":230,"Ѓ":231,"І":232,"Ј":233,"Њ":234,"Ў":235,"А":236,"Г":237,"П":238,"Р":239,"Т":240,"У":241,"Ш":242,"Щ":243,"Ъ":244,"Ь":245,"Э":246,"Ю":247,"Я":248,"а":249,"б":250,"г":251,"д":252,"е":253,"ж":254,"н":255,"о":256,"с":257,"т":258,"у":259,"ю":260,"я":261,"ђ":262,"ѓ":263,"ѕ":264,"і":265,"њ":266,"ќ":267,"ў":268,"џ":269,"қ":270,"һ":271,"օ":272,"א":273,"ב":274,"ד":275,"ה":276,"ו":277,"י":278,"ל":279,"ם":280,"מ":281,"נ":282,"ע":283,"צ":284,"ק":285,"ש":286,"ת":287,"ن":288,"ߋ":289,"ं":290,"अ":291,"क":292,"घ":293,"च":294,"ट":295,"ड":296,"त":297,"न":298,"ब":299,"म":300,"य":301,"र":302,"ल":303,"श":304,"स":305,"ा":306,"ि":307,"ी":308,"ु":309,"े":310,"्":311,"က":312,"င":313,"ည":314,"တ":315,"န":316,"ပ":317,"ဖ":318,"မ":319,"ရ":320,"လ":321,"သ":322,"အ":323,"ါ":324,"ာ":325,"ိ":326,"ု":327,"ေ":328,"်":329,"ြ":330,"ွ":331,"ှ":332,"ᥙ":333,"ᴠ":334,"ᵃ":335,"ᵉ":336,"ḥ":337,"ễ":338,"ỗ":339,"‎":340,"‐":341,"‑":342,"‒":343,"–":344,"—":345,"―":346,"‘":347,"’":348,"‚":349,"“":350,"”":351,"„":352,"†":353,"‡":354,"•":355,"․":356,"…":357,"‪":358,"‰":359,"′":360,"″":361,"‹":362,"›":363,"‼":364,"⁠":365,"⁣":366,"₁":367,"₂":368,"₡":369,"₦":370,"€":371,"₵":372,"₹":373,"℃":374,"™":375,"ⅼ":376,"⇧":377,"−":378,"≈":379,"⌘":380,"⏩":381,"⏰":382,"⏱":383,"─":384,"├":385,"┬":386,"╕":387,"╖":388,"▌":389,"▪":390,"▶":391,"◆":392,"☀":393,"★":394,"☆":395,"☕":396,"☝":397,"☹":398,"☺":399,"♦":400,"⚠":401,"⚽":402,"⛓":403,"✅":404,"✊":405,"✍":406,"✓":407,"✔":408,"✨":409,"❉":410,"❌":411,"❗":412,"❣":413,"❤":414,"➡":415,"➢":416,"➤":417,"⬇":418,"⭐":419,"【":420,"】":421,"ー":422,"化":423,"地":424,"帽":425,"暖":426,"期":427,"温":428,"煤":429,"球":430,"脕":431,"茅":432,"谩":433,"贸":434,"铆":435,"静":436,"默":437,"":438,"":439,"":440,"ﬁ":441,"ﬂ":442,"️":443,"﻿":444,"＊":445,"－":446,"ｅ":447,"##A":448,"##D":449,"##T":450,"##H":451,"##i":452,"##t":453,"##r":454,"##o":455,"##e":456,"##n":457,"##f":458,"##m":459,"##d":460,"##a":461,"##v":462,"##s":463,"##l":464,"##p":465,"##c":466,"##h":467,"##k":468,"##5":469,"##9":470,"##g":471,"##u":472,"##q":473,"##é":474,"##z":475,"##C":476,"##í":477,"##b":478,"##w":479,"##j":480,"##x":481,"##y":482,"##I":483,"##S":484,"##)":485,"##.":486,"##á":487,"##1":488,"##2":489,"##O":490,"##ó":491,"##ñ":492,"##3":493,"##ā":494,"##â":495,"##-":496,"##6":497,"##è":498,"##R":499,"##E":500,"##4":501,"##”":502,"##,":503,"##́":504,"##B":505,"##7":506,"##L":507,"##(":508,"##U":509,"##M":510,"##G":511,"##P":512,"##V":513,"##ô":514,"##N":515,"##Y":516,"##…":517,"##ú":518,"##ë":519,"##F":520,"##0":521,"##ç":522,"##K":523,"##X":524,"##Z":525,"##‹":526,"##J":527,"##$":528,"##8":529,"##W":530,"##î":531,"##ê":532,"##:":533,"##º":534,"##ߋ":535,"##Q":536,"##ђ":537,"##ю":538,"##ï":539,"##Ó":540,"##œ":541,"##ü":542,"##É":543,"##̂":544,"##™":545,"##û":546,"##ć":547,"##<":548,"##/":549,"##»":550,"##«":551,"##*":552,"##с":553,"##е":554,"##\"":555,"##+":556,"##ă":557,"##贸":558,"##à":559,"##ø":560,"##ä":561,"##Å":562,"##ö":563,"##ş":564,"##ż":565,"##Í":566,"##’":567,"##‘":568,"##ʻ":569,"##ē":570,"##—":571,"##ł":572,"##?":573,"##̀":574,"##₹":575,"##у":576,"##å":577,"##ᵉ":578,"##;":579,"##̧":580,"##Ю":581,"##²":582,"##Á":583,"##¬":584,"##!":585,"##ì":586,"##ﬁ":587,"##č":588,"##帽":589,"##ª":590,"##ק":591,"##ב":592,"##ל":593,"##€":594,"##̈":595,"##┬":596,"##ţ":597,"##'":598,"##Ñ":599,"##ı":600,"##ž":601,"##ę":602,"##ò":603,"##ō":604,"##&":605,"##ū":606,"##ù":607,"##Ä":608,"##>":609,"##¿":610,"##“":611,"##̃":612,"##қ":613,"##È":614,"##Û":615,"##¡":616,"##ã":617,"##А":618,"##Ь":619,"##т":620,"##Э":621,"##ʏ":622,"##£":623,"##茅":624,"##ー":625,"##煤":626,"##ß":627,"##°":628,"##ĳ":629,"##³":630,"##Щ":631,"##‰":632,"##Ā":633,"##တ":634,"##်":635,"##ရ":636,"##ှ":637,"##ု":638,"##န":639,"##ိ":640,"##င":641,"##ပ":642,"##ါ":643,"##သ":644,"##ည":645,"##Ÿ":646,"##ķ":647,"##ｅ":648,"##⇧":649,"##球":650,"##温":651,"##暖":652,"##化":653,"##Ö":654,"##ğ":655,"##¨":656,"##ț":657,"##े":658,"##¥":659,"##´":660,"##–":661,"##š":662,"##н":663,"##谩":664,"##`":665,"##ि":666,"##म":667,"##ा":668,"##ं":669,"##ड":670,"##À":671,"##õ":672,"##【":673,"##﻿":674,"##Р":675,"##Ў":676,"##ș":677,"##›":678,"##ם":679,"##¦":680,"##Я":681,"##Ш":682,"##%":683,"##·":684,"##ń":685,"##ð":686,"##ě":687,"##~":688,"##ý":689,"##г":690,"##ᵃ":691,"##Ê":692,"##‚":693,"##ी":694,"##џ":695,"##ו":696,"##ȼ":697,"##″":698,"##ေ":699,"##ာ":700,"##က":701,"##ွ":702,"##®":703,"##ġ":704,"##Ž":705,"##Ï":706,"##Î":707,"##д":708,"##я":709,"##ħ":710,"##默":711,"##期":712,"##ļ":713,"##铆":714,"##æ":715,"##ņ":716,"##о":717,"##¢":718,"##а":719,"##„":720,"##ट":721,"##Ѓ":722,"##Ђ":723,"##ѕ":724,"##ѓ":725,"##І":726,"##Т":727,"##ж":728,"##ќ":729,"##Њ":730,"##њ":731,"##Ъ":732,"##Г":733,"##Ј":734,"##Ô":735,"##च":736,"##न":737,"##क":738,"##±":739,"##Ú":740,"##❤":741,"##ś":742,"##★":743,"##☆":744,"##˜":745,"##‡":746,"##ʼ":747,"##¯":748,"##ु":749,"##ब":750,"##्":751,"##र":752,"##त":753,"##⌘":754,"##ြ":755,"##မ":756,"##လ":757,"##ễ":758,"##ř":759,"##ў":760,"##ỗ":761,"##य":762,"##ע":763,"##צ":764,"##מ":765,"##א":766,"##ת":767,"##У":768,"##श":769,"##ल":770,"##†":771,"##Ġ":772,"##օ":773,"##Ľ":774,"##һ":775,"##ד":776,"##י":777,"##נ":778,"##ה":779,"##і":780,"##Ü":781,"##̶":782,"##⁣":783,"##ḥ":784,"##ο":785,"##υ":786,"##ς":787,"##en":788,"##er":789,"##es":790,"de":791,"##on":792,"##an":793,"##ar":794,"##or":795,"##in":796,"##at":797,"##as":798,"##al":799,"##os":800,"##is":801,"##it":802,"##re":803,"##ent":804,"##ou":805,"##he":806,"##el":807,"##et":808,"en":809,"la":810,"##ue":811,"##ic":812,"in":813,"##ad":814,"##om":815,"##st":816,"##le":817,"##ur":818,"the":819,"##ed":820,"##id":821,"##ion":822,"##il":823,"##ing":824,"##ac":825,"un":826,"##ro":827,"##ec":828,"##ij":829,"que":830,"an":831,"##em":832,"to":833,"##am":834,"con":835,"##ie":836,"##ol":837,"##te":838,"el":839,"##us":840,"##ir":841,"##ig":842,"le":843,"of":844,"##un":845,"##ra":846,"al":847,"##ut":848,"##ch":849,"##and":850,"par":851,"##ers":852,"##iv":853,"##im":854,"se":855,"est":856,"##ant":857,"and":858,"on":859,"##est":860,"##our":861,"th":862,"##ci":863,"com":864,"##ot":865,"pr":866,"##ag":867,"des":868,"is":869,"pro":870,"##ón":871,"re":872,"##ter":873,"##aar":874,"##end":875,"##ul":876,"qu":877,"##ab":878,"##ay":879,"su":880,"van":881,"##ation":882,"et":883,"##ist":884,"een":885,"##ver":886,"##oor":887,"st":888,"##de":889,"##ct":890,"be":891,"les":892,"het":893,"##ans":894,"los":895,"op":896,"##qu":897,"es":898,"##ill":899,"no":900,"##ens":901,"##ce":902,"##ier":903,"##op":904,"pl":905,"##ort":906,"##ión":907,"del":908,"##ment":909,"ex":910,"##ien":911,"for":912,"he":913,"##ado":914,"##res":915,"##se":916,"##av":917,"##io":918,"##ia":919,"##és":920,"du":921,"##if":922,"##ak":923,"##ire":924,"##mp":925,"##der":926,"##oc":927,"te":928,"##ap":929,"##que":930,"las":931,"au":932,"av":933,"por":934,"##ont":935,"20":936,"tr":937,"##me":938,"as":939,"ver":940,"##ta":941,"##ient":942,"we":943,"ge":944,"dé":945,"##ib":946,"##ud":947,"##ly":948,"##ne":949,"##lo":950,"##ect":951,"dat":952,"pour":953,"ne":954,"pas":955,"mo":956,"##ge":957,"##ement":958,"that":959,"##tre":960,"me":961,"##den":962,"une":963,"wh":964,"##ip":965,"##ht":966,"##ru":967,"para":968,"##ación":969,"at":970,"##ijn":971,"ch":972,"ap":973,"De":974,"##ok":975,"voor":976,"##ía":977,"##ere":978,"##ér":979,"##ais":980,"##ijk":981,"##iet":982,"##iz":983,"per":984,"una":985,"lo":986,"ac":987,"##gen":988,"##ous":989,"##au":990,"##ain":991,"##ith":992,"was":993,"met":994,"so":995,"##out":996,"rec":997,"The":998,"je":999,"cont":1000,"##od":1001,"##ven":1002,"comp":1003,"La":1004,"sa":1005,"##ow":1006,"##ate":1007,"sur":1008,"##ait":1009,"##ente":1010,"##ies":1011,"dans":1012,"##ond":1013,"it":1014,"##um":1015,"ar":1016,"En":1017,"##ek":1018,"##ée":1019,"##idad":1020,"fr":1021,"with":1022,"ser":1023,"af":1024,"qui":1025,"##art":1026,"res":1027,"El":1028,"##ub":1029,"part":1030,"##ás":1031,"or":1032,"##les":1033,"In":1034,"##ust":1035,"##ard":1036,"##ve":1037,"##ik":1038,"gr":1039,"##urs":1040,"zijn":1041,"wor":1042,"##ada":1043,"niet":1044,"il":1045,"##ial":1046,"pre":1047,"ad":1048,"##th":1049,"Le":1050,"##ine":1051,"die":1052,"##to":1053,"##lic":1054,"aan":1055,"##bre":1056,"##og":1057,"##ure":1058,"##orm":1059,"exp":1060,"##all":1061,"##én":1062,"##ido":1063,"ab":1064,"##tr":1065,"sp":1066,"##ces":1067,"##oun":1068,"##té":1069,"##eg":1070,"##00":1071,"ré":1072,"cu":1073,"go":1074,"##che":1075,"er":1076,"##ique":1077,"##ld":1078,"##ive":1079,"##ite":1080,"##ang":1081,"##du":1082,"##ave":1083,"##ions":1084,"tra":1085,"has":1086,"imp":1087,"son":1088,"om":1089,"##ore":1090,"##ux":1091,"cl":1092,"##iones":1093,"aut":1094,"over":1095,"not":1096,"##cl":1097,"##emp":1098,"als":1099,"pe":1100,"are":1101,"##ich":1102,"man":1103,"##ff":1104,"##ice":1105,"##aj":1106,"##ft":1107,"plus":1108,"##go":1109,"Al":1110,"##ten":1111,"do":1112,"##ell":1113,"pers":1114,"##uer":1115,"202":1116,"##ales":1117,"dis":1118,"##iè":1119,"ha":1120,"##do":1121,"act":1122,"pol":1123,"##gr":1124,"##ante":1125,"##uss":1126,"ont":1127,"##ale":1128,"##ace":1129,"##we":1130,"##iss":1131,"##ando":1132,"Un":1133,"fin":1134,"inter":1135,"pres":1136,"ce":1137,"##ons":1138,"##ber":1139,"##ast":1140,"have":1141,"mu":1142,"##ès":1143,"said":1144,"##án":1145,"min":1146,"##ance":1147,"sh":1148,"más":1149,"ter":1150,"pos":1151,"##port":1152,"##age":1153,"##ult":1154,"##eld":1155,"##act":1156,"##cia":1157,"Ch":1158,"##pr":1159,"##ity":1160,"##aire":1161,"ve":1162,"##era":1163,"##able":1164,"am":1165,"##ité":1166,"person":1167,"##elijk":1168,"##ios":1169,"##ken":1170,"inf":1171,"##vo":1172,"uit":1173,"##ados":1174,"will":1175,"ag":1176,"##ele":1177,"##aat":1178,"##ord":1179,"##ica":1180,"mar":1181,"##ción":1182,"##ong":1183,"Th":1184,"entre":1185,"don":1186,"como":1187,"##ug":1188,"##per":1189,"19":1190,"from":1191,"##ind":1192,"cas":1193,"car":1194,"##ins":1195,"cons":1196,"An":1197,"ook":1198,"##ors":1199,"##mer":1200,"##uis":1201,"##amb":1202,"cr":1203,"##ide":1204,"##ern":1205,"##ign":1206,"avec":1207,"by":1208,"##ations":1209,"##anc":1210,"##ico":1211,"##ident":1212,"##ess":1213,"##ould":1214,"##int":1215,"##amp":1216,"##ear":1217,"##ille":1218,"maar":1219,"##ma":1220,"##mo":1221,"ze":1222,"##ech":1223,"app":1224,"##ome":1225,"##ste":1226,"##ores":1227,"bij":1228,"##ert":1229,"##rij":1230,"##ise":1231,"##ió":1232,"ob":1233,"acc":1234,"##ep":1235,"##elle":1236,"si":1237,"##ack":1238,"été":1239,"##ost":1240,"##ette":1241,"off":1242,"all":1243,"##ile":1244,"sus":1245,"reg":1246,"inv":1247,"##ero":1248,"##ight":1249,"enc":1250,"##und":1251,"añ":1252,"##land":1253,"##iqu":1254,"##eren":1255,"this":1256,"##oy":1257,"##erd":1258,"ind":1259,"##aron":1260,"had":1261,"##ob":1262,"##az":1263,"##ime":1264,"##cr":1265,"##ual":1266,"##nen":1267,"vol":1268,"##ass":1269,"Mar":1270,"201":1271,"zo":1272,"##uest":1273,"hab":1274,"este":1275,"Het":1276,"cor":1277,"##oup":1278,"##ays":1279,"her":1280,"comm":1281,"ma":1282,"##ach":1283,"Fr":1284,"dan":1285,"##eft":1286,"his":1287,"##one":1288,"##ov":1289,".”":1290,"heb":1291,"conf":1292,"sol":1293,"##ze":1294,"##ian":1295,"med":1296,"nog":1297,"##iend":1298,"##itu":1299,"##ées":1300,"##ional":1301,"##ina":1302,"esp":1303,"”,":1304,"out":1305,"you":1306,"can":1307,"sont":1308,"br":1309,"##uit":1310,"emp":1311,"resp":1312,"##pt":1313,"##aan":1314,"##ière":1315,"but":1316,"ann":1317,"##be":1318,"inc":1319,"Il":1320,"ten":1321,"their":1322,"##gan":1323,"vo":1324,"##la":1325,"##ende":1326,"##ida":1327,"co":1328,"##ame":1329,"##min":1330,"##ige":1331,"##oug":1332,"##ose":1333,"ou":1334,"Les":1335,"##lect":1336,"##vel":1337,"they":1338,"##ble":1339,"dur":1340,"sch":1341,"##ours":1342,"##acht":1343,"ik":1344,"door":1345,"produ":1346,"##her":1347,"##ence":1348,"##ingen":1349,"col":1350,"##iento":1351,"##co":1352,"##éd":1353,"soci":1354,"seg":1355,"tot":1356,"mill":1357,"##leg":1358,"hij":1359,"##je":1360,"up":1361,"wel":1362,"dif":1363,"##vent":1364,"us":1365,"##ric":1366,"ret":1367,"St":1368,"wat":1369,"»,":1370,"real":1371,"##eder":1372,"dire":1373,"who":1374,"##ants":1375,"Est":1376,"##con":1377,"##man":1378,"mil":1379,"naar":1380,"##air":1381,"##ke":1382,"##cht":1383,"bl":1384,"##ieu":1385,"waar":1386,"##ijd":1387,"We":1388,"mat":1389,"##ros":1390,"heeft":1391,"##ambi":1392,"aux":1393,"##elf":1394,"year":1395,"been":1396,"gen":1397,"He":1398,"rel":1399,"##aciones":1400,"##uel":1401,"##ets":1402,"po":1403,"##omm":1404,"##nes":1405,"##ix":1406,"##ana":1407,"ho":1408,"##ied":1409,"fam":1410,"It":1411,"gro":1412,"As":1413,"##ition":1414,"##ific":1415,"##ui":1416,"##ible":1417,"##ben":1418,"fe":1419,"##ner":1420,"cent":1421,"meer":1422,"pub":1423,"sec":1424,"##ks":1425,"sal":1426,"##erc":1427,"bet":1428,"dec":1429,"sin":1430,"int":1431,"mis":1432,"000":1433,"fue":1434,"##ario":1435,"##va":1436,"##unt":1437,"tod":1438,"mak":1439,"onder":1440,"##añ":1441,"##ora":1442,"prop":1443,"##atie":1444,"##use":1445,"##ras":1446,"##aal":1447,"##up":1448,"##app":1449,"dep":1450,"Es":1451,"rep":1452,"##ambién":1453,"dit":1454,"##ings":1455,"##icip":1456,",”":1457,"##ura":1458,"##els":1459,"dem":1460,"pré":1461,"just":1462,"##ade":1463,"men":1464,"prim":1465,"##ias":1466,"\",":1467,"##wo":1468,"##ress":1469,"Ar":1470,"Par":1471,"Je":1472,"##aux":1473,"pue":1474,"trans":1475,"##ois":1476,"##erk":1477,"##red":1478,").":1479,"cette":1480,"##ople":1481,"##omen":1482,"##are":1483,"loc":1484,"were":1485,"##za":1486,"On":1487,"##amos":1488,"mais":1489,"##br":1490,"inst":1491,"prem":1492,"mom":1493,"##amente":1494,"fait":1495,"##istr":1496,"more":1497,"deux":1498,"bo":1499,"much":1500,"##tim":1501,"##ase":1502,"##ivers":1503,"éta":1504,"##adas":1505,"10":1506,"sem":1507,"tien":1508,"also":1509,"##ound":1510,"##ated":1511,"cap":1512,"ass":1513,"ent":1514,"##af":1515,"hebben":1516,"##ther":1517,"##no":1518,"##ital":1519,"##uc":1520,"serv":1521,"##encia":1522,"prés":1523,"moet":1524,"ses":1525,"about":1526,"Con":1527,"people":1528,"one":1529,"##vern":1530,"cre":1531,"##ures":1532,"moment":1533,"sup":1534,"bien":1535,"pero":1536,"##ough":1537,"rem":1538,"##tes":1539,"tout":1540,"jaar":1541,"may":1542,"mon":1543,"eur":1544,"arr":1545,"déc":1546,"”.":1547,"##ún":1548,"inform":1549,"##ones":1550,"##own":1551,"##ior":1552,"##ical":1553,"##dt":1554,"##baj":1555,"dos":1556,"import":1557,"##ativ":1558,"pa":1559,"vers":1560,"##ues":1561,"##lar":1562,"##oir":1563,"incl":1564,"años":1565,"##antes":1566,"im":1567,"##fic":1568,"rest":1569,"daar":1570,"week":1571,"prov":1572,"ins":1573,"##mente":1574,"##cent":1575,"##its":1576,"##par":1577,"vis":1578,"bel":1579,"hac":1580,"oc":1581,"polit":1582,"##ouw":1583,"esta":1584,"##quip":1585,"##zo":1586,"##iel":1587,"alle":1588,"##ike":1589,"worden":1590,"##uur":1591,"##ank":1592,"famil":1593,"temp":1594,"##ará":1595,"which":1596,"),":1597,"être":1598,"new":1599,"##ís":1600,"kun":1601,"red":1602,"em":1603,"eff":1604,"hel":1605,"att":1606,"dr":1607,"nous":1608,"fir":1609,"##ats":1610,"she":1611,"##pl":1612,"##ely":1613,"ref":1614,"##cul":1615,"mens":1616,"también":1617,"##ink":1618,"##ese":1619,"##aba":1620,"##ction":1621,"contin":1622,"commun":1623,"organ":1624,"##ême":1625,"tro":1626,"##ista":1627,"grand":1628,"ya":1629,"##emos":1630,"its":1631,"##ents":1632,"##fr":1633,"##entes":1634,"prof":1635,"sc":1636,"cal":1637,"would":1638,"##erv":1639,"##ary":1640,"##ense":1641,"##heid":1642,"##ador":1643,"Dat":1644,"##ét":1645,"Br":1646,"está":1647,"tou":1648,"sobre":1649,"##ez":1650,"elle":1651,"const":1652,"kan":1653,"wordt":1654,"##idos":1655,"##gel":1656,"nou":1657,"##iers":1658,"##iques":1659,"Los":1660,"work":1661,"##low":1662,"pass":1663,"##ussi":1664,"han":1665,"##jet":1666,"Ik":1667,"##los":1668,"##igen":1669,"##aut":1670,"fil":1671,"plan":1672,"apr":1673,"contr":1674,"time":1675,"geen":1676,"##embre":1677,"bes":1678,"##irus":1679,"Se":1680,"Wh":1681,"ans":1682,"##olog":1683,"dev":1684,"2022":1685,"Com":1686,"desde":1687,"Ne":1688,"##lijk":1689,"situ":1690,"##ts":1691,"nue":1692,"##als":1693,"##tra":1694,"mes":1695,"trabaj":1696,"nom":1697,"##él":1698,"##erg":1699,"##iste":1700,"nu":1701,"##rol":1702,"dern":1703,"get":1704,"bu":1705,"public":1706,"nos":1707,"Ad":1708,"##ick":1709,"leur":1710,"##ég":1711,"##ister":1712,"était":1713,"after":1714,"##idades":1715,"##ict":1716,"mont":1717,"##ular":1718,"avait":1719,"va":1720,"che":1721,"comme":1722,"##ieron":1723,"conc":1724,"##na":1725,"perm":1726,"##cial":1727,"##ische":1728,"##ivo":1729,"##vol":1730,"ét":1731,"##jo":1732,"##cess":1733,"Gr":1734,"##oord":1735,"##lement":1736,"sub":1737,"Eur":1738,"there":1739,"##aine":1740,"when":1741,"sy":1742,"No":1743,"##vers":1744,"15":1745,"vous":1746,"##ational":1747,"aussi":1748,"invest":1749,"même":1750,"##ito":1751,"##conom":1752,"##ath":1753,"hay":1754,"some":1755,"ni":1756,"##pos":1757,"sou":1758,"direct":1759,"ke":1760,"##arg":1761,"##ías":1762,"##ère":1763,"camp":1764,"12":1765,"##emb":1766,"##ree":1767,"art":1768,"##ning":1769,"##ino":1770,"zich":1771,"##ief":1772,"bec":1773,"##gram":1774,"hist":1775,"eer":1776,"##alement":1777,"bus":1778,"twe":1779,"##xim":1780,"cer":1781,"##arios":1782,"fuer":1783,"def":1784,"our":1785,"\".":1786,"##lam":1787,"##ari":1788,"##ph":1789,"Qu":1790,".\"":1791,"##ret":1792,"##aten":1793,"pod":1794,"##elen":1795,"na":1796,"##aren":1797,"kunnen":1798,"kn":1799,"them":1800,"esc":1801,"##aires":1802,"30":1803,"Des":1804,"And":1805,"##til":1806,"minist":1807,"zou":1808,"tak":1809,"##led":1810,"ph":1811,"##ull":1812,"##pe":1813,"##ourn":1814,"».":1815,"coun":1816,"hom":1817,"##icial":1818,"##icht":1819,"alg":1820,"tegen":1821,"##lu":1822,"après":1823,"##ates":1824,"##ater":1825,"der":1826,"faire":1827,"##urr":1828,"##arr":1829,"##teur":1830,"2020":1831,"ro":1832,"prot":1833,"Europ":1834,"##ger":1835,"goed":1836,"##da":1837,"activ":1838,"than":1839,"muy":1840,"##form":1841,"even":1842,"##irm":1843,"bas":1844,"##ustr":1845,"##ano":1846,"ca":1847,"sign":1848,"long":1849,"intern":1850,"veel":1851,"##orte":1852,"##of":1853,"like":1854,"##lev":1855,"##ock":1856,"##pen":1857,"##mes":1858,"hun":1859,"gener":1860,"##day":1861,"ste":1862,"país":1863,"Re":1864,"mun":1865,"play":1866,"deze":1867,"Maar":1868,"##ider":1869,"todo":1870,"other":1871,"##enta":1872,"##idente":1873,"ben":1874,"ci":1875,"Por":1876,"##bo":1877,"ju":1878,"##po":1879,"best":1880,"pat":1881,"##ltim":1882,"##eces":1883,"val":1884,"##ced":1885,"##uk":1886,"##éc":1887,"ces":1888,"my":1889,"##elon":1890,"hor":1891,"##inci":1892,"##iden":1893,"mensen":1894,"CO":1895,"dest":1896,"coron":1897,"##ves":1898,"##let":1899,"##ara":1900,"##onn":1901,"##acional":1902,"aff":1903,"Pr":1904,"pand":1905,"form":1906,"program":1907,"what":1908,"tu":1909,"##iment":1910,"mal":1911,"##ild":1912,"##ici":1913,"##onder":1914,"enf":1915,"##vis":1916,"##ques":1917,"hasta":1918,"report":1919,"Car":1920,"##iendo":1921,"nieu":1922,"first":1923,"tiene":1924,"##dag":1925,"Et":1926,"now":1927,"ren":1928,"tijd":1929,"land":1930,"Pro":1931,"Jo":1932,"##open":1933,"gaat":1934,"##arse":1935,"two":1936,"##gens":1937,"##udad":1938,"want":1939,"parte":1940,"##ail":1941,"##igh":1942,"##ederland":1943,"add":1944,"point":1945,"depuis":1946,"any":1947,"11":1948,"vot":1949,"into":1950,"Russ":1951,"test":1952,"##ject":1953,"2021":1954,"wer":1955,"##osp":1956,"Nederland":1957,"Am":1958,"mot":1959,"##ít":1960,"avoir":1961,"##ares":1962,"##ca":1963,"##ish":1964,"18":1965,"back":1966,"den":1967,"hand":1968,"vac":1969,"##ena":1970,"contra":1971,"##alth":1972,"##tain":1973,"otr":1974,"lib":1975,"##ecial":1976,"##cer":1977,"##ato":1978,"##ting":1979,"bed":1980,"lleg":1981,"personas":1982,"##imiento":1983,"##ron":1984,"año":1985,"dom":1986,"##ool":1987,"geb":1988,"sim":1989,"##zen":1990,"##ema":1991,"##very":1992,"##wn":1993,"nat":1994,"##omp":1995,"##endre":1996,"Pl":1997,"##emás":1998,"zeg":1999,"place":2000,"##ities":2001,"##icos":2002,"últim":2003,"proble":2004,"##ements":2005,"if":2006,"##val":2007,"dij":2008,"##iol":2009,"pop":2010,"end":2011,"last":2012,"##ages":2013,"##nel":2014,"str":2015,"donde":2016,"sl":2017,"autor":2018,"mi":2019,"##clar":2020,"werd":2021,"##oci":2022,"##ton":2023,"lui":2024,"dist":2025,"sent":2026,"desp":2027,"Si":2028,"particip":2029,"cuando":2030,"mod":2031,"##elt":2032,"200":2033,"Is":2034,"##ités":2035,"##ición":2036,"##ierno":2037,"hum":2038,"could":2039,"prom":2040,"##akt":2041,"dro":2042,"dép":2043,"##ator":2044,"final":2045,"id":2046,"pays":2047,"weer":2048,"##ID":2049,"##oud":2050,"need":2051,"ég":2052,"##uy":2053,"diff":2054,"Een":2055,"mej":2056,"##ty":2057,"Min":2058,"##ouv":2059,"##une":2060,"##ém":2061,"##abil":2062,"25":2063,"##amen":2064,"num":2065,"##ange":2066,"him":2067,"gra":2068,"##adores":2069,"fun":2070,"##ument":2071,"##iek":2072,"leg":2073,"14":2074,"princi":2075,"tras":2076,"ant":2077,"Tru":2078,"##ating":2079,"cour":2080,"##duc":2081,"##iente":2082,"##pp":2083,"##erm":2084,"But":2085,"This":2086,"cond":2087,"très":2088,"cel":2089,"deb":2090,"Ce":2091,"##chter":2092,"gaan":2093,"##cion":2094,"##ga":2095,"##amiento":2096,"demand":2097,"fl":2098,"contre":2099,"realiz":2100,"your":2101,"servic":2102,"kw":2103,"##ían":2104,"##vert":2105,"how":2106,"Pour":2107,"ti":2108,"haar":2109,"él":2110,"##ismo":2111,"##bar":2112,"##ax":2113,"again":2114,"##úb":2115,"##ah":2116,"##ember":2117,"amb":2118,"porque":2119,"##sch":2120,"##jes":2121,"show":2122,"ils":2123,"kom":2124,"Or":2125,"##iter":2126,"13":2127,"zelf":2128,"Mais":2129,"terr":2130,"##ef":2131,"##kra":2132,"##idas":2133,"##úblic":2134,"stud":2135,"beg":2136,"Tr":2137,"##VID":2138,"kl":2139,"##hing":2140,"##icas":2141,"jou":2142,"compr":2143,"quien":2144,"social":2145,"result":2146,"thr":2147,"Man":2148,"wil":2149,"COVID":2150,"port":2151,"Me":2152,"dijo":2153,"##vi":2154,"rég":2155,"##oles":2156,"cin":2157,"lors":2158,"start":2159,"Amer":2160,"equip":2161,"nombre":2162,"New":2163,"tant":2164,"##ciones":2165,"##ables":2166,"##ecto":2167,"group":2168,"total":2169,"##bl":2170,"disp":2171,"##oot":2172,"16":2173,"present":2174,"peu":2175,"##vernment":2176,"##old":2177,"##udi":2178,"under":2179,"pandem":2180,"product":2181,"princip":2182,"##ution":2183,"##agn":2184,"##ués":2185,"open":2186,"nuest":2187,"avant":2188,"ges":2189,"##ita":2190,"##itar":2191,"##agen":2192,"elect":2193,"##ié":2194,"expl":2195,"ciudad":2196,"entr":2197,"##arm":2198,"verd":2199,"Las":2200,"##ges":2201,"Er":2202,"##cept":2203,"disc":2204,"peut":2205,"##érie":2206,"som":2207,"##ín":2208,"local":2209,"todos":2210,"vie":2211,"##unto":2212,"##velop":2213,"super":2214,"##avirus":2215,"##imin":2216,"autres":2217,"poss":2218,"encore":2219,"main":2220,"##orn":2221,"##jer":2222,"##urn":2223,"déb":2224,"24":2225,"##gent":2226,"being":2227,"##ause":2228,"vra":2229,"tal":2230,"puede":2231,"fac":2232,"Bl":2233,"17":2234,"##cal":2235,"sans":2236,"Pol":2237,"only":2238,"fut":2239,"##ory":2240,"team":2241,"##tern":2242,"through":2243,"Trump":2244,"ven":2245,"durante":2246,"rap":2247,"##itt":2248,"##cias":2249,"viol":2250,"comun":2251,"##allen":2252,"##get":2253,"ah":2254,"werk":2255,"##istas":2256,"film":2257,"déf":2258,"Sh":2259,"ay":2260,"lang":2261,"trois":2262,"win":2263,"##echo":2264,"Cent":2265,"bon":2266,"##uent":2267,"##kt":2268,"##dat":2269,"##edi":2270,"viv":2271,"gel":2272,"hacer":2273,"sera":2274,"##zoek":2275,"cam":2276,"andere":2277,"tiemp":2278,"posit":2279,"##ances":2280,"dus":2281,"##iver":2282,"organis":2283,"oper":2284,"##ys":2285,"police":2286,"mayor":2287,"##ja":2288,"during":2289,"gez":2290,"util":2291,"##ibil":2292,"Als":2293,"##anz":2294,"ple":2295,"##oul":2296,"##ards":2297,"##rait":2298,"Une":2299,"years":2300,"100":2301,"Go":2302,"##alis":2303,"##uch":2304,"##uego":2305,"mov":2306,"##ospital":2307,"every":2308,"##echn":2309,"##omb":2310,"solo":2311,"did":2312,"méd":2313,"hier":2314,"##estion":2315,"également":2316,"via":2317,"##ative":2318,"quel":2319,"moeten":2320,"##seg":2321,"##ruct":2322,"##reg":2323,"most":2324,"##fore":2325,"##ede":2326,"##wij":2327,"ris":2328,"où":2329,"Can":2330,"lead":2331,"jug":2332,"##ament":2333,"premier":2334,"coronavirus":2335,"millones":2336,"##ième":2337,"##rá":2338,"##itter":2339,"uno":2340,"##redi":2341,"50":2342,"Daar":2343,"están":2344,"So":2345,"help":2346,"twee":2347,"down":2348,"##oria":2349,"président":2350,"tre":2351,"##enn":2352,"##ête":2353,"##ason":2354,"##ontr":2355,"sig":2356,"##att":2357,"##rag":2358,"trava":2359,"algun":2360,"##arn":2361,"Ro":2362,"comb":2363,"primer":2364,"occ":2365,"cir":2366,"##ission":2367,"##ines":2368,"coup":2369,"##mar":2370,"##van":2371,"##óm":2372,"##oth":2373,"Bel":2374,"net":2375,"##lex":2376,"##ata":2377,"because":2378,"many":2379,"hoe":2380,"neces":2381,"##ba":2382,"respons":2383,"monde":2384,"alt":2385,"Col":2386,"##andid":2387,"countr":2388,"##ering":2389,"##iens":2390,"mejor":2391,"gu":2392,"Su":2393,"día":2394,"##vir":2395,"##loy":2396,"nieuwe":2397,"##ruik":2398,"merc":2399,"2019":2400,"know":2401,"Rus":2402,"econom":2403,"club":2404,"##org":2405,"day":2406,"gén":2407,"blij":2408,"Be":2409,"##unes":2410,"ai":2411,"event":2412,"vr":2413,"government":2414,"krij":2415,"##oss":2416,"gem":2417,"rés":2418,"eigen":2419,"investig":2420,"##tro":2421,"##king":2422,"make":2423,"look":2424,"ed":2425,"sect":2426,"Sp":2427,"##any":2428,"##isión":2429,"energ":2430,"trad":2431,"##alen":2432,"##aje":2433,"lug":2434,"Gu":2435,"##elijke":2436,"##wer":2437,"gar":2438,"ens":2439,"minut":2440,"##ife":2441,"record":2442,"dont":2443,"liv":2444,"##uso":2445,"before":2446,"doen":2447,"priv":2448,"##ender":2449,"pet":2450,"tiempo":2451,"euros":2452,"sido":2453,"##ran":2454,"##ño":2455,"##ision":2456,"##ited":2457,"##aats":2458,"21":2459,"ese":2460,"##iqué":2461,"##ry":2462,"those":2463,"##anç":2464,"##voor":2465,"##cé":2466,"señ":2467,"##ussen":2468,"##insi":2469,"##ket":2470,"arm":2471,"vez":2472,"##ps":2473,"She":2474,"##innen":2475,"norm":2476,"##ho":2477,"##ises":2478,"##ites":2479,"Van":2480,"##xt":2481,"##oute":2482,"ide":2483,"won":2484,"tous":2485,"##ieurs":2486,"##stand":2487,"requ":2488,"state":2489,"zal":2490,"while":2491,"Sch":2492,"home":2493,"##pect":2494,"##aria":2495,"##ocr":2496,"##ule":2497,"sept":2498,"support":2499,"##ren":2500,"hou":2501,"well":2502,"actual":2503,"leurs":2504,"gas":2505,"mas":2506,"fois":2507,"ged":2508,"vier":2509,"##men":2510,"gew":2511,"dol":2512,"Op":2513,"where":2514,"France":2515,"22":2516,"face":2517,"milit":2518,"##lig":2519,"should":2520,"toch":2521,"##ker":2522,"##idd":2523,"empres":2524,"laat":2525,"##ovid":2526,"For":2527,"Seg":2528,"tom":2529,"lig":2530,"##ministr":2531,"momento":2532,"gre":2533,"tit":2534,"dir":2535,"maken":2536,"lim":2537,"Ze":2538,"##less":2539,"exper":2540,"imm":2541,"health":2542,"##aison":2543,"fa":2544,"suc":2545,"##isch":2546,"##rist":2547,"##bal":2548,"##emen":2549,"techn":2550,"##ôt":2551,"against":2552,"mijn":2553,"##ionn":2554,"Die":2555,"##read":2556,"mois":2557,"##ona":2558,"##jà":2559,"##iness":2560,"month":2561,"non":2562,"Dans":2563,"ev":2564,"annon":2565,"Cl":2566,"Sin":2567,"polít":2568,"gou":2569,"##uir":2570,"##onden":2571,"##anos":2572,"finan":2573,"candid":2574,"includ":2575,"##son":2576,"##voir":2577,"année":2578,"cada":2579,"##ork":2580,"sm":2581,"repr":2582,"##aient":2583,"##rug":2584,"Ind":2585,"Co":2586,"Vol":2587,"##ië":2588,"school":2589,"nouve":2590,"otros":2591,"Lo":2592,"high":2593,"tres":2594,"##erde":2595,"##eden":2596,"##endant":2597,"##kken":2598,"going":2599,"Nous":2600,"así":2601,"moins":2602,"##iteit":2603,"heel":2604,"Sal":2605,"mag":2606,"##illa":2607,"especial":2608,"publ":2609,"préc":2610,"ej":2611,"##iva":2612,"cual":2613,"temps":2614,"see":2615,"équip":2616,"pot":2617,"##fe":2618,"##gelijk":2619,"san":2620,"Pres":2621,"vrij":2622,"zit":2623,"Esp":2624,"después":2625,"president":2626,"confirm":2627,"second":2628,"##oit":2629,"stat":2630,"zegt":2631,"##ientes":2632,"pes":2633,"presidente":2634,"hace":2635,"##imes":2636,"déjà":2637,"##cio":2638,"cult":2639,"##las":2640,"##anten":2641,"tend":2642,"##cción":2643,"##izo":2644,"di":2645,"##eds":2646,"syst":2647,"pu":2648,"personnes":2649,"Oek":2650,"##ett":2651,"##cran":2652,"Ge":2653,"vida":2654,"San":2655,"##rem":2656,"incre":2657,"##oto":2658,"##ains":2659,"ur":2660,"vide":2661,"días":2662,"mus":2663,"Ook":2664,"##hed":2665,"At":2666,"llev":2667,"Oekra":2668,"match":2669,"conn":2670,"##ima":2671,"embar":2672,"say":2673,"baj":2674,"doc":2675,"##iles":2676,"Ex":2677,"Hij":2678,"##ler":2679,"gran":2680,"perio":2681,"eerste":2682,"##ko":2683,"char":2684,"rele":2685,"##ización":2686,"made":2687,"##orme":2688,"mee":2689,"Met":2690,"##dig":2691,"##endo":2692,"trav":2693,"journ":2694,"##ícul":2695,"##jours":2696,"##ral":2697,"komt":2698,"fol":2699,"encuent":2700,"##ved":2701,"##anda":2702,"Af":2703,"##oi":2704,"év":2705,"dernier":2706,"##aña":2707,"eng":2708,"industr":2709,"still":2710,"##hip":2711,"##appen":2712,"bre":2713,"era":2714,"##arán":2715,"##ua":2716,"##urg":2717,"ru":2718,"lugar":2719,"fal":2720,"beh":2721,"había":2722,"##istes":2723,"complet":2724,"take":2725,"pasado":2726,"auto":2727,"fav":2728,"these":2729,"ident":2730,"rép":2731,"##ecut":2732,"three":2733,"spe":2734,"##ws":2735,"40":2736,"##aur":2737,"##itor":2738,"##ural":2739,"##orth":2740,"##mpl":2741,"cos":2742,"fem":2743,"Joh":2744,"públic":2745,"##ival":2746,"They":2747,"appro":2748,"accord":2749,"primera":2750,"##ames":2751,"première":2752,"komen":2753,"mismo":2754,"hospital":2755,"donc":2756,"tour":2757,"##ienne":2758,"Dan":2759,"##ande":2760,"sé":2761,"conoc":2762,"##oco":2763,"alleen":2764,"desc":2765,"ante":2766,"##ières":2767,"Apr":2768,"##way":2769,"##arc":2770,"Ukra":2771,"##ientras":2772,"Además":2773,"señal":2774,"##ivid":2775,"##eter":2776,"repres":2777,"maand":2778,"tar":2779,"extra":2780,"cab":2781,"##izar":2782,"way":2783,"pens":2784,"ministre":2785,"municip":2786,"iss":2787,"post":2788,"wet":2789,"ing":2790,"polic":2791,"##bij":2792,"Te":2793,"plusieurs":2794,"Ac":2795,"alors":2796,"guer":2797,"Ab":2798,"##vie":2799,"toujours":2800,"Oekraï":2801,"eso":2802,"##outh":2803,"bal":2804,"vend":2805,"##ieux":2806,"simp":2807,"mujer":2808,"fact":2809,"##ments":2810,"Au":2811,"partic":2812,"dej":2813,"US":2814,"carr":2815,"##eng":2816,"##ood":2817,"provin":2818,"rus":2819,"##isis":2820,"##baar":2821,"popul":2822,"right":2823,"##oe":2824,"##ientos":2825,"cuenta":2826,"terug":2827,"podr":2828,",\"":2829,"own":2830,"autre":2831,"##ots":2832,"ainsi":2833,"cro":2834,"staat":2835,"anal":2836,"##ivos":2837,"##ather":2838,"indic":2839,"sort":2840,"Dep":2841,"caus":2842,"ép":2843,"##aines":2844,"chang":2845,"sous":2846,"##opt":2847,"aj":2848,"caso":2849,"constru":2850,"23":2851,"pou":2852,"effect":2853,"gouvern":2854,"ext":2855,"recib":2856,"cases":2857,"Europe":2858,"##line":2859,"##ires":2860,"good":2861,"##ars":2862,"##bol":2863,"##werk":2864,"##anche":2865,"explic":2866,"##amer":2867,"##unci":2868,"then":2869,"##ijkt":2870,"nation":2871,"horas":2872,"says":2873,"##ateg":2874,"very":2875,"det":2876,"abs":2877,"country":2878,"think":2879,"Val":2880,"gest":2881,"##cy":2882,"proy":2883,"##ake":2884,"gebruik":2885,"Tw":2886,"euro":2887,"tanto":2888,"##abor":2889,"##hel":2890,"##other":2891,"menos":2892,"Pero":2893,"hem":2894,"administr":2895,"media":2896,"fund":2897,"gan":2898,"selon":2899,"virus":2900,"##onde":2901,"##fect":2902,"##igr":2903,"##agne":2904,"génér":2905,"##éb":2906,"##iller":2907,"##unque":2908,"pandemic":2909,"conv":2910,"jo":2911,"top":2912,"##adre":2913,"##aban":2914,"memb":2915,"eens":2916,"##ful":2917,"achter":2918,"bro":2919,"##cil":2920,"00":2921,"lí":2922,"Zo":2923,"##eling":2924,"There":2925,"Comm":2926,"##itions":2927,"##icia":2928,"##ever":2929,"pris":2930,"élect":2931,"##elo":2932,"##ançais":2933,"entrepr":2934,"ons":2935,"exc":2936,"million":2937,"##ches":2938,"favor":2939,"##lie":2940,"##oren":2941,"Inst":2942,"notre":2943,"##iger":2944,"forma":2945,"ahora":2946,"set":2947,"##ades":2948,"##ché":2949,"procent":2950,"Univers":2951,"jue":2952,"##quier":2953,"equipo":2954,"Sant":2955,"hecho":2956,"cha":2957,"##ellen":2958,"Fin":2959,"début":2960,"zien":2961,"##ently":2962,"##ceso":2963,"consider":2964,"propos":2965,"business":2966,"trabajo":2967,"##uridad":2968,"iets":2969,"dés":2970,"né":2971,"Covid":2972,"##anse":2973,"##teurs":2974,"weg":2975,"aseg":2976,"##inder":2977,"##ri":2978,"sab":2979,"vic":2980,"##sp":2981,"##pend":2982,"quar":2983,"anim":2984,"otro":2985,"##ancia":2986,"continue":2987,"##amment":2988,"##usqu":2989,"prix":2990,"##ago":2991,"around":2992,"##át":2993,"omdat":2994,"##rijk":2995,"##ama":2996,"Elle":2997,"Cor":2998,"does":2999,"##ils":3000,"##ience":3001,"To":3002,"rac":3003,"China":3004,"later":3005,"estos":3006,"déclar":3007,"Este":3008,"cele":3009,"ça":3010,"##arrol":3011,"##ics":3012,"##log":3013,"##ateur":3014,"personal":3015,"pró":3016,"situation":3017,"Gen":3018,"##ece":3019,"Don":3020,"esa":3021,"##illeurs":3022,"fueron":3023,"Ukraine":3024,"Wat":3025,"tip":3026,"##zelf":3027,"##ibles":3028,"grote":3029,"##arly":3030,"##erse":3031,"##rict":3032,"If":3033,"##ball":3034,"acuer":3035,"oct":3036,"toe":3037,"##bor":3038,"##auc":3039,"##uesto":3040,"##ellement":3041,"Voor":3042,"lar":3043,"John":3044,"ll":3045,"##uiten":3046,"##iso":3047,"objet":3048,"##woon":3049,"Cette":3050,"##gest":3051,"según":3052,"Mo":3053,"rond":3054,"such":3055,"stand":3056,"fond":3057,"sex":3058,"tener":3059,"Ju":3060,"##idé":3061,"bek":3062,"qual":3063,"soit":3064,"importante":3065,"kil":3066,"##ked":3067,"##ives":3068,"Ét":3069,"##uid":3070,"toute":3071,"##ela":3072,"gev":3073,"pay":3074,"world":3075,"gob":3076,"gouvernement":3077,"##eros":3078,"##inos":3079,"recon":3080,"termin":3081,"sport":3082,"zw":3083,"Ver":3084,"miss":3085,"##ash":3086,"##isme":3087,"antes":3088,"offic":3089,"mucho":3090,"sens":3091,"rece":3092,"dollar":3093,"mult":3094,"##ourd":3095,"##illes":3096,"##ected":3097,"follow":3098,"You":3099,"dag":3100,"##atur":3101,"manera":3102,"##ivel":3103,"orig":3104,"Av":3105,"##pro":3106,"Minister":3107,"ir":3108,"national":3109,"ess":3110,"general":3111,"problem":3112,"embargo":3113,"bar":3114,"##ween":3115,"game":3116,"capac":3117,"vacc":3118,"mundo":3119,"27":3120,"Gob":3121,"##ward":3122,"dra":3123,"##aría":3124,"trou":3125,"gru":3126,"##uesta":3127,"##untos":3128,"Mart":3129,"##ateurs":3130,"##rir":3131,"ment":3132,"##uv":3133,"since":3134,"train":3135,"tienen":3136,"##ling":3137,"class":3138,"##isten":3139,"Mad":3140,"nuevo":3141,"26":3142,"##êt":3143,"##terior":3144,"That":3145,"##icio":3146,"question":3147,"term":3148,"Cal":3149,"hard":3150,"##car":3151,"##ann":3152,"28":3153,"dou":3154,"Ph":3155,"control":3156,"##ane":3157,"##elde":3158,"sector":3159,"##ección":3160,"próxim":3161,"habit":3162,"Para":3163,"Ste":3164,"jour":3165,"groot":3166,"qued":3167,"service":3168,"Gobierno":3169,"Just":3170,"altijd":3171,"neg":3172,"company":3173,"500":3174,"hal":3175,"run":3176,"##ague":3177,"será":3178,"politie":3179,"Dr":3180,"univers":3181,"concl":3182,"veh":3183,"semana":3184,"dar":3185,"##ré":3186,"##ños":3187,"##ium":3188,"adv":3189,"Rep":3190,"##ying":3191,"Dit":3192,"How":3193,"mor":3194,"envir":3195,"partido":3196,"manif":3197,"##uro":3198,"millions":3199,"document":3200,"six":3201,"##isation":3202,"inm":3203,"##ensa":3204,"important":3205,"agr":3206,"##off":3207,"##ged":3208,"toen":3209,"stra":3210,"##ajor":3211,"##rit":3212,"##ijf":3213,"##cher":3214,"jusqu":3215,"##ald":3216,"années":3217,"family":3218,"financi":3219,"##oon":3220,"binnen":3221,"echt":3222,"##ought":3223,"Em":3224,"kle":3225,"##este":3226,"##xico":3227,"##iser":3228,"##ouwen":3229,"wereld":3230,"divers":3231,"four":3232,"conse":3233,"##ams":3234,"##eker":3235,"##gt":3236,"continu":3237,"##ients":3238,"##abl":3239,"hoy":3240,"mid":3241,"come":3242,"Mon":3243,"##empre":3244,"##aken":3245,"dim":3246,"dig":3247,"compet":3248,"May":3249,"camb":3250,"samen":3251,"##anger":3252,"##ieve":3253,"Sur":3254,"sav":3255,"##ield":3256,"obs":3257,"##uses":3258,"pal":3259,"##gev":3260,"impact":3261,"actu":3262,"including":3263,"llam":3264,"season":3265,"##ally":3266,"qué":3267,"big":3268,"##ody":3269,"possible":3270,"Ben":3271,"##isé":3272,"retr":3273,"##ème":3274,"##aucoup":3275,"put":3276,"autom":3277,"poder":3278,"##over":3279,"##aint":3280,"##hou":3281,"##ude":3282,"##ute":3283,"nivel":3284,"##yp":3285,"Ass":3286,"Coun":3287,"##ck":3288,"zoals":3289,"Twitter":3290,"celebr":3291,"lot":3292,"##lag":3293,"##zet":3294,"plat":3295,"compl":3296,"air":3297,"concern":3298,"acuerdo":3299,"jam":3300,"next":3301,"partir":3302,"2023":3303,"old":3304,"##uren":3305,"##imos":3306,"aud":3307,"##inds":3308,"cost":3309,"tussen":3310,"faut":3311,"gewoon":3312,"care":3313,"présent":3314,"All":3315,"life":3316,"vari":3317,"waren":3318,"diffic":3319,"##ram":3320,"blo":3321,"quier":3322,"##ene":3323,"geld":3324,"##ortun":3325,"mientras":3326,"##ómo":3327,"##iday":3328,"minder":3329,"services":3330,"réc":3331,"somet":3332,"Mal":3333,"jours":3334,"lu":3335,"##ased":3336,"crit":3337,"medio":3338,"nouveau":3339,"##atro":3340,"plaats":3341,"infl":3342,"joue":3343,"Mac":3344,"desarrol":3345,"notamment":3346,"call":3347,"##atique":3348,"versch":3349,"certain":3350,"pap":3351,"##ept":3352,"Jul":3353,"##iene":3354,"onze":3355,"let":3356,"official":3357,"##ifs":3358,"##ley":3359,"death":3360,"aur":3361,"major":3362,"grande":3363,"West":3364,"nuev":3365,"apro":3366,"bedrij":3367,"60":3368,"##echos":3369,"nive":3370,"declar":3371,"##duct":3372,"employ":3373,"permet":3374,"##arias":3375,"2018":3376,"##ross":3377,"quelques":3378,"child":3379,"##ower":3380,"Son":3381,"mand":3382,"##ides":3383,"##ionales":3384,"estado":3385,"Mr":3386,"##atar":3387,"##uls":3388,"cré":3389,"estar":3390,"35":3391,"##ai":3392,"vert":3393,"##ardi":3394,"onderzoek":3395,"ayud":3396,"##uen":3397,"##tains":3398,"curr":3399,"##osten":3400,"told":3401,"opt":3402,"really":3403,"Mor":3404,"ig":3405,"somm":3406,"##err":3407,"##ager":3408,"##ération":3409,"arriv":3410,"##yn":3411,"##ijken":3412,"là":3413,"##lad":3414,"proch":3415,"keer":3416,"represent":3417,"cit":3418,"cerc":3419,"rapp":3420,"gobierno":3421,"manifest":3422,"esper":3423,"mogelijk":3424,"individ":3425,"tempor":3426,"video":3427,"tur":3428,"cant":3429,"##éric":3430,"front":3431,"Mé":3432,"mij":3433,"través":3434,"##rez":3435,"##ijs":3436,"bill":3437,"sac":3438,"##velle":3439,"##itos":3440,"Nacional":3441,"cours":3442,"##str":3443,"between":3444,"pér":3445,"rev":3446,"beaucoup":3447,"##aug":3448,"199":3449,"cat":3450,"number":3451,"Pa":3452,"pel":3453,"##ious":3454,"anci":3455,"rad":3456,"both":3457,"##eral":3458,"esto":3459,"vir":3460,"##aff":3461,"nouvelle":3462,"##ril":3463,"##ott":3464,"stop":3465,"##crib":3466,"jaren":3467,"##asion":3468,"prob":3469,"log":3470,"attend":3471,"willen":3472,"destac":3473,"Cu":3474,"Sec":3475,"points":3476,"Biden":3477,"same":3478,"rapport":3479,"puis":3480,"sour":3481,"##tegr":3482,"minister":3483,"##ader":3484,"##ope":3485,"plac":3486,"aqu":3487,"jun":3488,"algo":3489,"fig":3490,"##komen":3491,"##iding":3492,"quat":3493,"asegur":3494,"rend":3495,"##enne":3496,"respect":3497,"gol":3498,"recht":3499,"además":3500,"mort":3501,"init":3502,"period":3503,"29":3504,"31":3505,"##uw":3506,"intent":3507,"pueden":3508,"steeds":3509,"dip":3510,"contact":3511,"water":3512,"glo":3513,"use":3514,"##ullen":3515,"##erent":3516,"verw":3517,"##ection":3518,"français":3519,"soir":3520,"##ublic":3521,"educ":3522,"donn":3523,"App":3524,"##ney":3525,"cho":3526,"##achten":3527,"elk":3528,"##aro":3529,"logr":3530,"##ness":3531,"siempre":3532,"##ución":3533,"##rijd":3534,"comunic":3535,"sel":3536,"President":3537,"fort":3538,"jeu":3539,"##ika":3540,"div":3541,"##lor":3542,"perd":3543,"civ":3544,"##oten":3545,"aant":3546,"También":3547,"mater":3548,"base":3549,"fra":3550,"##ism":3551,"Fe":3552,"wij":3553,"sea":3554,"##iest":3555,"##kom":3556,"##iscal":3557,"Una":3558,"volgens":3559,"coll":3560,"##por":3561,"aument":3562,"situación":3563,"projet":3564,"Tod":3565,"cet":3566,"sle":3567,"allow":3568,"##ists":3569,"équipe":3570,"verk":3571,"##ativa":3572,"tele":3573,"cela":3574,"##ús":3575,"##ids":3576,"Ag":3577,"##aiss":3578,"partie":3579,"##iff":3580,"huis":3581,"##lin":3582,"crisis":3583,"collect":3584,"snel":3585,"##isl":3586,"##cha":3587,"profess":3588,"vind":3589,"##undi":3590,"belang":3591,"cou":3592,"days":3593,"##ices":3594,"##aving":3595,"oblig":3596,"organiz":3597,"krijgen":3598,"geme":3599,"Res":3600,"ban":3601,"##itut":3602,"preci":3603,"aug":3604,"##urt":3605,"another":3606,"##undo":3607,"vin":3608,"##ham":3609,"éc":3610,"##ront":3611,"laten":3612,"Pat":3613,"cle":3614,"Bar":3615,"##eken":3616,"##ature":3617,"ellos":3618,"##venir":3619,"tan":3620,"project":3621,"Dur":3622,"##lec":3623,"##beeld":3624,"dém":3625,"chef":3626,"Según":3627,"keep":3628,"Jos":3629,"luego":3630,"##enz":3631,"funcion":3632,"México":3633,"Pe":3634,"aunque":3635,"profes":3636,"##ène":3637,"##apt":3638,"capital":3639,"Belg":3640,"perform":3641,"vuel":3642,"##edere":3643,"##gelopen":3644,"Europa":3645,"Part":3646,"cô":3647,"process":3648,"suis":3649,"niveau":3650,"##itie":3651,"Christ":3652,"Pal":3653,"due":3654,"##oort":3655,"apoy":3656,"##écur":3657,"##jourd":3658,"##emand":3659,"avons":3660,"##ederal":3661,"meses":3662,"Ha":3663,"hui":3664,"todas":3665,"protest":3666,"travail":3667,"eu":3668,"nueva":3669,"##ña":3670,"##ount":3671,"##elling":3672,"got":3673,"jan":3674,"sout":3675,"expert":3676,"vict":3677,"clos":3678,"distr":3679,"doit":3680,"Bo":3681,"web":3682,"York":3683,"ville":3684,"otras":3685,"##ky":3686,"##emble":3687,"##una":3688,"##iven":3689,"ord":3690,"Friday":3691,"found":3692,"otra":3693,"déclaré":3694,"Afr":3695,"pan":3696,"##uvo":3697,"##áb":3698,"##osa":3699,"salud":3700,"Sa":3701,"drie":3702,"##vr":3703,"économ":3704,"##fois":3705,"##eno":3706,"lanc":3707,"##íst":3708,"Ils":3709,"besch":3710,"Americ":3711,"meet":3712,"compar":3713,"##arl":3714,"##ira":3715,"##ogra":3716,"##ha":3717,"étaient":3718,"España":3719,"Selon":3720,"##door":3721,"brand":3722,"##rab":3723,"proc":3724,"espac":3725,"##iar":3726,"Jan":3727,"past":3728,"dispos":3729,"encontr":3730,"Mond":3731,"sche":3732,"algunos":3733,"Oekraïne":3734,"stre":3735,"clim":3736,"sociales":3737,"Na":3738,"sn":3739,"integr":3740,"jamais":3741,"##ole":3742,"##óg":3743,"Dav":3744,"##ences":3745,"develop":3746,"hoog":3747,"tijdens":3748,"foot":3749,"##oire":3750,"community":3751,"defin":3752,"nov":3753,"expres":3754,"différ":3755,"jud":3756,"##ential":3757,"verb":3758,"##view":3759,"Net":3760,"Per":3761,"##echa":3762,"##conóm":3763,"Mc":3764,"ailleurs":3765,"ra":3766,"unos":3767,"##iencia":3768,"##hor":3769,"##ostr":3770,"haber":3771,"politique":3772,"Dem":3773,"canc":3774,"emer":3775,"site":3776,"casa":3777,"##maal":3778,"appel":3779,"dirig":3780,"fé":3781,"##rim":3782,"##een":3783,"Rusland":3784,"##nem":3785,"cru":3786,"##anas":3787,"natuur":3788,"uur":3789,"nad":3790,"added":3791,"din":3792,"##eta":3793,"champ":3794,"kinder":3795,"estaba":3796,"Après":3797,"pouvoir":3798,"kon":3799,"##dic":3800,"##sen":3801,"sum":3802,"Estados":3803,"larg":3804,"##cteur":3805,"Po":3806,"oor":3807,"##été":3808,"##ately":3809,"##down":3810,"information":3811,"##undial":3812,"sen":3813,"##vin":3814,"jeudi":3815,"##uela":3816,"##rain":3817,"restaur":3818,"##ray":3819,"groupe":3820,"70":3821,"##élé":3822,"laatste":3823,"vent":3824,"head":3825,"Québ":3826,"tipo":3827,"Om":3828,"##iciones":3829,"too":3830,"inde":3831,"online":3832,"Med":3833,"hon":3834,"één":3835,"##erson":3836,"##agement":3837,"law":3838,"Argent":3839,"semaine":3840,"%.":3841,"Bij":3842,"nacional":3843,"few":3844,"dernière":3845,"mercredi":3846,"ton":3847,"##rop":3848,"quand":3849,"lieu":3850,"##sten":3851,"##amedi":3852,"##akte":3853,"visit":3854,"##joen":3855,"estim":3856,"fall":3857,"seguridad":3858,"##aties":3859,"Prem":3860,"##ola":3861,"comment":3862,"##pre":3863,"##echt":3864,"réalis":3865,"facil":3866,"grandes":3867,"verder":3868,"Unidos":3869,"contrib":3870,"dimanche":3871,"porte":3872,"mardi":3873,"nam":3874,"announ":3875,"renc":3876,"80":3877,"##oeg":3878,"aliment":3879,"dévelop":3880,"cuatro":3881,"different":3882,"lundi":3883,"far":3884,"jur":3885,"##ways":3886,"leven":3887,"##illo":3888,"cómo":3889,"hizo":3890,"##by":3891,"muer":3892,"##aard":3893,"##érc":3894,"nú":3895,"debe":3896,"##aring":3897,"obten":3898,"sí":3899,"sist":3900,"##rid":3901,"##ester":3902,"case":3903,"muchos":3904,"vendredi":3905,"saison":3906,"staan":3907,"##ape":3908,"##icha":3909,"great":3910,"##aim":3911,"##ío":3912,"##isc":3913,"trop":3914,"45":3915,"prepar":3916,"action":3917,"origin":3918,"fans":3919,"##cep":3920,"commer":3921,"##ota":3922,"find":3923,"##pir":3924,"##thing":3925,"system":3926,"exist":3927,"job":3928,"##alt":3929,"##rage":3930,"oppos":3931,"each":3932,"sever":3933,"##bert":3934,"miljoen":3935,"Face":3936,"fon":3937,"deel":3938,"##enten":3939,"across":3940,"homme":3941,"city":3942,"poco":3943,"toda":3944,"here":3945,"##edad":3946,"read":3947,"decid":3948,"ví":3949,"##inc":3950,"##elles":3951,"market":3952,"reported":3953,"issue":3954,"près":3955,"Ucran":3956,"##woord":3957,"registr":3958,"Estado":3959,"chez":3960,"Intern":3961,"director":3962,"##ules":3963,"extr":3964,"auc":3965,"casos":3966,"centre":3967,"estas":3968,"##iano":3969,"human":3970,"##han":3971,"press":3972,"When":3973,"Austr":3974,"##qué":3975,"Russie":3976,"tir":3977,"ello":3978,"Ucrania":3979,"écr":3980,"##inet":3981,"compañ":3982,"##veel":3983,"State":3984,"económ":3985,"sécur":3986,"appr":3987,"accus":3988,"Del":3989,"rol":3990,"##ift":3991,"difer":3992,"Tur":3993,"##ird":3994,"mob":3995,"kwam":3996,"représ":3997,"##vest":3998,"##termin":3999,"aange":4000,"PS":4001,"##idence":4002,"begin":4003,"South":4004,"compte":4005,"Will":4006,"familia":4007,"principal":4008,"Volgens":4009,"Sen":4010,"pon":4011,"effet":4012,"technolog":4013,"##ément":4014,"trib":4015,"vooral":4016,"último":4017,"Aut":4018,"Ed":4019,"##ster":4020,"oficial":4021,"lég":4022,"things":4023,"prior":4024,"used":4025,"autoridades":4026,"Saint":4027,"vor":4028,"##arige":4029,"##ination":4030,"##ubl":4031,"toutes":4032,"Ah":4033,"##ired":4034,"##mee":4035,"##ruk":4036,"circ":4037,"gebe":4038,"weten":4039,"proyecto":4040,"Den":4041,"côté":4042,"##issement":4043,"##ouse":4044,"adm":4045,"quatre":4046,"##entro":4047,"##ingo":4048,"argent":4049,"consum":4050,"pen":4051,"##mos":4052,"zonder":4053,"##ôle":4054,"améric":4055,"##oney":4056,"return":4057,"comenz":4058,"Esta":4059,"##ging":4060,"Brit":4061,"samedi":4062,"##abr":4063,"verl":4064,"réf":4065,"journal":4066,"zie":4067,"ofre":4068,"estad":4069,"##oman":4070,"reun":4071,"nooit":4072,"jeunes":4073,"Conse":4074,"zij":4075,"’.":4076,"verh":4077,"seguir":4078,"##emaakt":4079,"environ":4080,"dó":4081,"mond":4082,"##alité":4083,"##rea":4084,"without":4085,"order":4086,"manten":4087,"zona":4088,"##vier":4089,"able":4090,"##erencia":4091,"enk":4092,"voir":4093,"decir":4094,"mer":4095,"remp":4096,"##ily":4097,"quarter":4098,"dólar":4099,"plant":4100,"came":4101,"mess":4102,"##etje":4103,"##ijden":4104,"##reso":4105,"Of":4106,"gente":4107,"##idents":4108,"transport":4109,"eerder":4110,"##èt":4111,"##ula":4112,"##iza":4113,"sino":4114,"númer":4115,"anunci":4116,"left":4117,"ko":4118,"afin":4119,"##ativo":4120,"région":4121,"tent":4122,"seront":4123,"dispon":4124,"##uf":4125,"alles":4126,"histor":4127,"Apple":4128,"lik":4129,"##artes":4130,"2017":4131,"working":4132,"##ofd":4133,"atta":4134,"effort":4135,"buiten":4136,"night":4137,"##ám":4138,"##iana":4139,"according":4140,"sk":4141,".’":4142,"Ser":4143,"cier":4144,"fer":4145,"##ères":4146,"##ût":4147,"##oca":4148,"never":4149,"object":4150,"##nerg":4151,"Russische":4152,"Ma":4153,"alc":4154,"bez":4155,"##artment":4156,"quienes":4157,"cualquier":4158,"Austral":4159,"##weg":4160,"##ilig":4161,"avaient":4162,"United":4163,"associ":4164,"##ready":4165,"grupo":4166,"City":4167,"série":4168,"ruim":4169,"russe":4170,"Ol":4171,"##uite":4172,"##orr":4173,"level":4174,"redes":4175,"months":4176,"Rec":4177,"##atis":4178,"frente":4179,"Jean":4180,"Gre":4181,"##ala":4182,"##ctor":4183,"enfants":4184,"nada":4185,"afgelopen":4186,"reste":4187,"Ke":4188,"ble":4189,"rob":4190,"March":4191,"permit":4192,"agen":4193,"ning":4194,"friend":4195,"iedere":4196,"pur":4197,"sing":4198,"##side":4199,"suite":4200,"charg":4201,"##ize":4202,"##bres":4203,"Ital":4204,"devant":4205,"ley":4206,"prec":4207,"votre":4208,"má":4209,"##ieuw":4210,"ún":4211,"##sy":4212,"labor":4213,"##estival":4214,"aantal":4215,"Québec":4216,"##unda":4217,"assur":4218,"something":4219,"enter":4220,"partij":4221,"blijven":4222,".»":4223,"One":4224,"hit":4225,"tor":4226,"##iez":4227,"already":4228,"geh":4229,"change":4230,"##ression":4231,"Isra":4232,"guerre":4233,"Mos":4234,"Reg":4235,"bless":4236,"wo":4237,"estable":4238,"casi":4239,"’,":4240,"##des":4241,"##adora":4242,"##iev":4243,"afect":4244,"##azo":4245,"##ony":4246,"##aden":4247,"prog":4248,"members":4249,"belangrijk":4250,"proceso":4251,"zelfs":4252,"exemp":4253,"90":4254,"##aise":4255,"annoncé":4256,"Monday":4257,"sit":4258,"##AN":4259,"##resp":4260,"voit":4261,"students":4262,"nodig":4263,"##goci":4264,"##anco":4265,"Cas":4266,"hu":4267,"198":4268,"##aza":4269,"power":4270,"trat":4271,"deuxième":4272,"better":4273,"half":4274,"##emaal":4275,"garant":4276,"elkaar":4277,"kind":4278,"##iving":4279,"aura":4280,"must":4281,"dise":4282,"##ically":4283,"historia":4284,"##iera":4285,"Ant":4286,"##earch":4287,"invol":4288,"información":4289,"litt":4290,"tax":4291,"zat":4292,"##inas":4293,"stad":4294,"##ieren":4295,"certains":4296,"ep":4297,"hele":4298,"##won":4299,"until":4300,"extre":4301,"Así":4302,"course":4303,"Was":4304,"lunes":4305,"##ention":4306,"cumpl":4307,"fur":4308,"ici":4309,"persona":4310,"##vious":4311,"política":4312,"pob":4313,"vast":4314,"zullen":4315,"##opé":4316,"heures":4317,"data":4318,"However":4319,"Mic":4320,"Serv":4321,"suiv":4322,"signific":4323,"vraag":4324,"sant":4325,"position":4326,"nuestro":4327,"Alex":4328,"##ólo":4329,"reduc":4330,"comprom":4331,"beter":4332,"##atives":4333,"Sc":4334,"pendant":4335,"tel":4336,"##quer":4337,"gek":4338,"hacia":4339,"países":4340,"eind":4341,"turn":4342,"##éh":4343,"jeune":4344,"Alle":4345,"##rel":4346,"quer":4347,"mettre":4348,"##ikk":4349,"didn":4350,"comer":4351,"apar":4352,"build":4353,"cause":4354,"Rusia":4355,"##gue":4356,"spé":4357,"viernes":4358,"##xic":4359,"##itional":4360,"lev":4361,"puntos":4362,"zeker":4363,"##onse":4364,"inté":4365,"##tera":4366,"equ":4367,"##unta":4368,"onge":4369,"With":4370,"ball":4371,"design":4372,"mañ":4373,"called":4374,"voy":4375,"ster":4376,"##cho":4377,"cher":4378,"vehícul":4379,"Sm":4380,"##enci":4381,"##igo":4382,"grow":4383,"últimos":4384,"popular":4385,"podría":4386,"might":4387,"deal":4388,"##atal":4389,"pours":4390,"Mus":4391,"##acter":4392,"anders":4393,"prendre":4394,"weet":4395,"datos":4396,"serie":4397,"##gos":4398,"##ume":4399,"##éré":4400,"histoire":4401,"nationale":4402,"gl":4403,"augment":4404,"Que":4405,"aujourd":4406,"départ":4407,"bekend":4408,"Lib":4409,"hold":4410,"jarige":4411,"mass":4412,"##ety":4413,"enqu":4414,"cur":4415,"ger":4416,"happen":4417,"##oso":4418,"##book":4419,"##anne":4420,"aller":4421,"Sy":4422,"da":4423,"five":4424,"rien":4425,"claim":4426,"nuestra":4427,"minutes":4428,"distrib":4429,"##atic":4430,"##igd":4431,"helemaal":4432,"mujeres":4433,"Bro":4434,"Dire":4435,"Not":4436,"always":4437,"stock":4438,"##action":4439,"werden":4440,"sáb":4441,"production":4442,"Canada":4443,"excl":4444,"rése":4445,"europé":4446,"houden":4447,"aurait":4448,"former":4449,"surpr":4450,"allemaal":4451,"tuvo":4452,"County":4453,"Ces":4454,"junto":4455,"pag":4456,"particular":4457,"Air":4458,"hog":4459,"inn":4460,"##ontre":4461,"ocurr":4462,"lat":4463,"##cle":4464,"zeggen":4465,"32":4466,"Bor":4467,"bat":4468,"##gl":4469,"##olo":4470,"niets":4471,"away":4472,"##rice":4473,"##itaire":4474,"entra":4475,"vu":4476,"lado":4477,"perman":4478,"Nov":4479,"Pas":4480,"##omas":4481,"access":4482,"sold":4483,"absol":4484,"zet":4485,"suff":4486,"##rum":4487,"cinco":4488,"circul":4489,"Cons":4490,"##ban":4491,"##aker":4492,"##bern":4493,"court":4494,"conten":4495,"Hoe":4496,"pourrait":4497,"abord":4498,"##berg":4499,"##portun":4500,"dio":4501,"##uras":4502,"news":4503,"Sund":4504,"##ép":4505,"took":4506,"##ulp":4507,"date":4508,"##acto":4509,"##ander":4510,"seen":4511,"prev":4512,"Black":4513,"300":4514,"##uper":4515,"enfr":4516,"##ilar":4517,"staff":4518,"##urity":4519,"##ending":4520,"##oper":4521,"trata":4522,"moy":4523,"##iale":4524,"Thurs":4525,"2016":4526,"arrest":4527,"internation":4528,"children":4529,"##oph":4530,"heure":4531,"intens":4532,"valor":4533,"hot":4534,"##enen":4535,"dispar":4536,"General":4537,"mañana":4538,"pud":4539,"##ecer":4540,"dét":4541,"positive":4542,"énerg":4543,"##ya":4544,"victim":4545,"observ":4546,"ped":4547,"##iam":4548,"##ris":4549,"ella":4550,"sug":4551,"##venue":4552,"retour":4553,"celui":4554,"discuss":4555,"EU":4556,"aún":4557,"sci":4558,"posible":4559,"based":4560,"kinderen":4561,"TV":4562,"##idelijk":4563,"secret":4564,"While":4565,"programa":4566,"##30":4567,"##iner":4568,"##itte":4569,"fre":4570,"rech":4571,"zitten":4572,"Thursday":4573,"Cour":4574,"oportun":4575,"Entre":4576,"##egd":4577,"What":4578,"víct":4579,"My":4580,"National":4581,"veces":4582,"##ël":4583,"Ven":4584,"##AS":4585,"##gré":4586,"Health":4587,"Cap":4588,"rent":4589,"opportun":4590,"##ually":4591,"Cong":4592,"ging":4593,"expos":4594,"pobl":4595,"ukra":4596,"##ór":4597,"atte":4598,"series":4599,"##crip":4600,"Plus":4601,"Hay":4602,"tw":4603,"zorg":4604,"oorlog":4605,"##ware":4606,"ill":4607,"ukrain":4608,"varios":4609,"sábado":4610,"hub":4611,"##icult":4612,"conduct":4613,"##utte":4614,"197":4615,"directeur":4616,"weeks":4617,"empresa":4618,"sécurité":4619,"Do":4620,"##isse":4621,"##icit":4622,"##oms":4623,"##ized":4624,"maakt":4625,"famille":4626,"Nederlandse":4627,"kre":4628,"moder":4629,"meille":4630,"##voorbeeld":4631,"chaque":4632,"dentro":4633,"##ué":4634,"##elden":4635,"##irá":4636,"##aven":4637,"Paul":4638,"Act":4639,"Satur":4640,"Tues":4641,"##aign":4642,"inici":4643,"bene":4644,"blijft":4645,"público":4646,"Madrid":4647,"número":4648,"food":4649,"##dan":4650,"special":4651,"##erence":4652,"simple":4653,"particul":4654,"spec":4655,"volg":4656,"vaak":4657,"36":4658,"mant":4659,"corre":4660,"retrou":4661,"75":4662,"early":4663,"foc":4664,"##ners":4665,"##dez":4666,"##urso":4667,"finale":4668,"gesch":4669,"Avec":4670,"Duit":4671,"eux":4672,"matin":4673,"temper":4674,"fonction":4675,"##éf":4676,"##thers":4677,"install":4678,"sentido":4679,"bedrijf":4680,"Ter":4681,"money":4682,"##iés":4683,"##wh":4684,"##aart":4685,"agua":4686,"centr":4687,"Fern":4688,"##igue":4689,"shares":4690,"centro":4691,"tweede":4692,"Desde":4693,"Argentina":4694,"Ay":4695,"ach":4696,"##iance":4697,"pret":4698,"short":4699,"Sunday":4700,"jul":4701,"##heden":4702,"cosas":4703,"dólares":4704,"Tuesday":4705,"pil":4706,"##AR":4707,"buen":4708,"Saturday":4709,"went":4710,"##acy":4711,"Franc":4712,"Paris":4713,"janvier":4714,"David":4715,"Ten":4716,"zon":4717,"stay":4718,"segundo":4719,"making":4720,"##ibilidad":4721,"igual":4722,"##rer":4723,"deber":4724,"##licht":4725,"agit":4726,"Amerika":4727,"##eler":4728,"inj":4729,"misma":4730,"lock":4731,"institu":4732,"domingo":4733,"Dec":4734,"Hol":4735,"eas":4736,"luch":4737,"deten":4738,"##ieden":4739,"beso":4740,"mainten":4741,"cerca":4742,"emergen":4743,"bud":4744,"elles":4745,"expect":4746,"tenemos":4747,"remain":4748,"statement":4749,"Acc":4750,"##venu":4751,"erg":4752,"interest":4753,"##ienda":4754,"feel":4755,"normal":4756,"small":4757,"moest":4758,"why":4759,"international":4760,"pandemia":4761,"whe":4762,"women":4763,"##asse":4764,"challen":4765,"hombre":4766,"ancien":4767,"global":4768,"vinden":4769,"lijkt":4770,"migr":4771,"altern":4772,"doet":4773,"##itch":4774,"##estre":4775,"aplic":4776,"consid":4777,"election":4778,"population":4779,"Wor":4780,"tard":4781,"times":4782,"##illet":4783,"nouvel":4784,"Che":4785,"line":4786,"raison":4787,"##éro":4788,"personn":4789,"Esto":4790,"besl":4791,"##abilidad":4792,"future":4793,"##rupt":4794,"##auv":4795,"##ubre":4796,"preg":4797,"impos":4798,"corresp":4799,"transform":4800,"little":4801,"##fl":4802,"##ento":4803,"##imientos":4804,"##isto":4805,"occasion":4806,"Democr":4807,"Red":4808,"Wed":4809,"live":4810,"oud":4811,"##erder":4812,"percent":4813,"large":4814,"santé":4815,"dich":4816,"along":4817,"Over":4818,"gens":4819,"##équ":4820,"##blo":4821,"conj":4822,"noche":4823,"vrouw":4824,"##orge":4825,"prest":4826,"##ijna":4827,"##iales":4828,"cust":4829,"hy":4830,"##huis":4831,"##unca":4832,"vote":4833,"##gether":4834,"34":4835,"band":4836,"mise":4837,"martes":4838,"éch":4839,"##li":4840,"Deze":4841,"ceux":4842,"virt":4843,"benefic":4844,"##edst":4845,"##oung":4846,"today":4847,"cinq":4848,"##wijl":4849,"empresas":4850,"développ":4851,"parents":4852,"##iled":4853,"##ève":4854,"##row":4855,"probl":4856,"milli":4857,"bajo":4858,"sistema":4859,"%,":4860,"##érer":4861,"efect":4862,"League":4863,"##eel":4864,"##ems":4865,"Char":4866,"natuurlijk":4867,"##racht":4868,"##ined":4869,"resol":4870,"mars":4871,"crimin":4872,"informó":4873,"diferentes":4874,"full":4875,"rat":4876,"quart":4877,"recent":4878,"interes":4879,"idea":4880,"Off":4881,"Port":4882,"free":4883,"ém":4884,"##hand":4885,"##jos":4886,"conserv":4887,"##émie":4888,"rue":4889,"##bed":4890,"##eme":4891,"##ércoles":4892,"homm":4893,"##eth":4894,"##aking":4895,"bijvoorbeeld":4896,"Tor":4897,"give":4898,"Marc":4899,"coach":4900,"ub":4901,"##for":4902,"appear":4903,"patients":4904,"servicio":4905,"ele":4906,"voet":4907,"transm":4908,"kans":4909,"convers":4910,"##enda":4911,"hoofd":4912,"muchas":4913,"assist":4914,"tarde":4915,"jueves":4916,"Phil":4917,"##ál":4918,"area":4919,"tenía":4920,"firm":4921,"Wednes":4922,"##ete":4923,"forces":4924,"conditions":4925,"Super":4926,"cambio":4927,"##jets":4928,"##chien":4929,"##aald":4930,"conte":4931,"less":4932,"cy":4933,"##tout":4934,"##icle":4935,"##emt":4936,"together":4937,"##anto":4938,"influ":4939,"iedereen":4940,"kunt":4941,"##ols":4942,"##ienen":4943,"ejemp":4944,"Jap":4945,"##fer":4946,"##orter":4947,"##unal":4948,"asked":4949,"spread":4950,"juin":4951,"miércoles":4952,"ensemble":4953,"dollars":4954,"Wednesday":4955,"sinds":4956,"##ived":4957,"##verage":4958,"cuer":4959,"peque":4960,"doing":4961,"werken":4962,"dice":4963,"instal":4964,"leaders":4965,"fais":4966,"##ka":4967,"afirm":4968,"relations":4969,"prév":4970,"##zelfde":4971,"bén":4972,"##imo":4973,"##izado":4974,"Rod":4975,"##iga":4976,"##ormais":4977,"respecto":4978,"terror":4979,"peuvent":4980,"officials":4981,"Facebook":4982,"españ":4983,"objetivo":4984,"kilom":4985,"État":4986,"bor":4987,"mur":4988,"éd":4989,"##ases":4990,"##ension":4991,"analy":4992,"Juan":4993,"wr":4994,"alm":4995,"##opp":4996,"Unis":4997,"décembre":4998,"several":4999,"##iro":5000,"##usse":5001,"parti":5002,"respond":5003,"fiscal":5004,"hora":5005,"having":5006,"punto":5007,"##eron":5008,"ress":5009,"##ureau":5010,"incend":5011,"contract":5012,"Ber":5013,"Tra":5014,"##inig":5015,"bur":5016,"bank":5017,"estamos":5018,"##udes":5019,"Niger":5020,"hadden":5021,"devrait":5022,"llegar":5023,"##iode":5024,"##ánd":5025,"niños":5026,"##écn":5027,"demande":5028,"American":5029,"##bra":5030,"##stra":5031,"coment":5032,"##enses":5033,"geven":5034,"produc":5035,"##ativas":5036,"getting":5037,"Joe":5038,"lockdown":5039,".,":5040,"##edor":5041,"##ched":5042,"ajout":5043,"segunda":5044,"syn":5045,"phys":5046,"droit":5047,"temporada":5048,"announced":5049,"##ished":5050,"##ensch":5051,"##nea":5052,"geleden":5053,"Her":5054,"barr":5055,"parc":5056,"nécess":5057,"initi":5058,"##wel":5059,"North":5060,"##icamente":5061,"##oke":5062,"##ouss":5063,"##vention":5064,"goede":5065,"próximo":5066,"##tant":5067,"##bel":5068,"##atos":5069,"serait":5070,"nombreux":5071,"femmes":5072,"représent":5073,"##hol":5074,"federal":5075,"seu":5076,"##geven":5077,"done":5078,"maxim":5079,"##ièrement":5080,"explique":5081,"Mont":5082,"ciento":5083,"vec":5084,"##ría":5085,"least":5086,"##ivas":5087,"##emente":5088,"taken":5089,"ingres":5090,"multip":5091,"33":5092,"AF":5093,"ampl":5094,"##tt":5095,"contro":5096,"Union":5097,"fuera":5098,"##hington":5099,"##bas":5100,"##arlo":5101,"marché":5102,"##andaag":5103,"likely":5104,"pun":5105,"##uta":5106,"aten":5107,"incident":5108,"Police":5109,"Mun":5110,"##ury":5111,"recuper":5112,"marc":5113,"house":5114,"culture":5115,"enquête":5116,"gemaakt":5117,"jong":5118,"##imismo":5119,"conocer":5120,"joven":5121,"##ators":5122,"indiqué":5123,"charge":5124,"membres":5125,"dipl":5126,"mostr":5127,"##anch":5128,"##avond":5129,"After":5130,"máxim":5131,"Cont":5132,"rais":5133,"tas":5134,"vice":5135,"price":5136,"avail":5137,"##indre":5138,"players":5139,"minutos":5140,"Ale":5141,"Aug":5142,"Bru":5143,"Dis":5144,"##rote":5145,"##ecn":5146,"##emment":5147,"force":5148,"party":5149,"krijgt":5150,"Du":5151,"given":5152,"##mi":5153,"##ye":5154,"##omin":5155,"arg":5156,"zouden":5157,"Washington":5158,"Cast":5159,"sor":5160,"##igu":5161,"love":5162,"close":5163,"landen":5164,"CE":5165,"estr":5166,"##ured":5167,"India":5168,"femme":5169,"doesn":5170,"##houden":5171,"##nent":5172,"##houd":5173,"##atures":5174,"orden":5175,"400":5176,"Gal":5177,"fire":5178,"enero":5179,"sujet":5180,"Sim":5181,"celle":5182,"mét":5183,"tête":5184,"##ár":5185,"##otos":5186,"sure":5187,"##taal":5188,"zei":5189,"siendo":5190,"señaló":5191,"général":5192,"savoir":5193,"##pres":5194,"spect":5195,"personne":5196,"##cu":5197,"##ili":5198,"comes":5199,"##ified":5200,"mercado":5201,"novembre":5202,"yo":5203,"##zas":5204,"##âce":5205,"office":5206,"become":5207,"nature":5208,"verschill":5209,"entraî":5210,"bijna":5211,"accue":5212,"##ología":5213,"taking":5214,"Ger":5215,"##óp":5216,"determin":5217,"##enden":5218,"applic":5219,"subs":5220,"House":5221,"##orgen":5222,"coming":5223,"##otros":5224,"meas":5225,"##epen":5226,".'":5227,"games":5228,"##ológ":5229,"##igde":5230,"##ung":5231,"appar":5232,"restrict":5233,"bonne":5234,"Macron":5235,"lie":5236,"##omer":5237,"estud":5238,"##neur":5239,"emple":5240,"communic":5241,"Desp":5242,"Secret":5243,"37":5244,"ries":5245,"##èle":5246,"usu":5247,"campaign":5248,"Premier":5249,"II":5250,"##wards":5251,"##acias":5252,"##ursos":5253,"success":5254,"##vrier":5255,"Iran":5256,"##hait":5257,"##utin":5258,"quest":5259,"##aps":5260,"Alg":5261,"sigue":5262,"%)":5263,"dès":5264,"##mas":5265,"##agram":5266,"sufr":5267,"veut":5268,"septembre":5269,"entreprise":5270,"Ministerio":5271,"dagen":5272,"##kelijk":5273,"##irse":5274,"opin":5275,"verz":5276,"2014":5277,"weekend":5278,"José":5279,"55":5280,"Ci":5281,"##emas":5282,"##abinet":5283,"compart":5284,"research":5285,"infr":5286,"capit":5287,"##érieur":5288,"États":5289,"name":5290,"##usion":5291,"pract":5292,"adel":5293,"among":5294,"using":5295,"eerst":5296,"##amento":5297,"Depuis":5298,"##oma":5299,"prue":5300,"acomp":5301,"consult":5302,"Calif":5303,"Waar":5304,"jorn":5305,"##tos":5306,"##ville":5307,"##émo":5308,"enough":5309,"##roeg":5310,"sust":5311,"chose":5312,"##ella":5313,"Como":5314,"##onnement":5315,"nunca":5316,"pac":5317,"##obre":5318,"third":5319,"##quil":5320,"##ardo":5321,"souhait":5322,"maanden":5323,"Tout":5324,"nav":5325,"ol":5326,"##bru":5327,"##mpt":5328,"##dere":5329,"agreg":5330,"crise":5331,"conflic":5332,"désormais":5333,"reconoc":5334,"ata":5335,"##ories":5336,"moe":5337,"##alla":5338,"commen":5339,"started":5340,"iemand":5341,"##né":5342,"##hi":5343,"ense":5344,"saf":5345,"##orma":5346,"author":5347,"bring":5348,"looking":5349,"población":5350,"##zien":5351,"##elingen":5352,"though":5353,"##geb":5354,"surtout":5355,"Grand":5356,"juillet":5357,"Polic":5358,"further":5359,"##éhic":5360,"Cela":5361,"FC":5362,"##inn":5363,"##room":5364,"ouvert":5365,"intro":5366,"répond":5367,"Lou":5368,"invers":5369,"Asimismo":5370,"joueurs":5371,"enkele":5372,"Mat":5373,"others":5374,"reç":5375,"distint":5376,"debido":5377,"couple":5378,"38":5379,"paar":5380,"##uestos":5381,"problemas":5382,"gemeente":5383,"alcanz":5384,"list":5385,"lanz":5386,"maat":5387,"pues":5388,"véhic":5389,"##iembre":5390,"##izen":5391,"feu":5392,"enton":5393,"attack":5394,"atención":5395,"vill":5396,"##amin":5397,"recher":5398,"impro":5399,"Const":5400,"última":5401,"lle":5402,"soort":5403,"técn":5404,"vijf":5405,"##ised":5406,"##usión":5407,"2015":5408,"capt":5409,"responsable":5410,"Stre":5411,"##ls":5412,"##rog":5413,"territor":5414,"Nu":5415,"eau":5416,"fru":5417,"##idar":5418,"##quis":5419,"##ensive":5420,"Def":5421,"acus":5422,"cargo":5423,"imag":5424,"##lijke":5425,"individual":5426,"Luis":5427,"##hib":5428,"gewe":5429,"cerr":5430,"février":5431,"Bol":5432,"iP":5433,"##waar":5434,"sud":5435,"move":5436,"##ificación":5437,"justice":5438,"Oct":5439,"cut":5440,"ja":5441,"yet":5442,"én":5443,"##wege":5444,"relación":5445,"music":5446,"largo":5447,"Os":5448,"##tas":5449,"duidelijk":5450,"##onds":5451,"basis":5452,"Carlos":5453,"servicios":5454,"cert":5455,"pad":5456,"télé":5457,"##sel":5458,"##burg":5459,"##raient":5460,"##ivent":5461,"##imas":5462,"##ipp":5463,"offer":5464,"pesos":5465,"administration":5466,"whether":5467,"fel":5468,"km":5469,"nac":5470,"sw":5471,"ald":5472,"thing":5473,"Inter":5474,"presse":5475,"##ández":5476,"entend":5477,"mayoría":5478,"Instagram":5479,"sommes":5480,"available":5481,"Camp":5482,"##áp":5483,"dess":5484,"Trans":5485,"football":5486,"##fo":5487,"##erve":5488,"##oral":5489,"ases":5490,"near":5491,"##ikt":5492,"decisión":5493,"workers":5494,"enfrent":5495,"ubic":5496,"Cre":5497,"cadre":5498,"wind":5499,"##ki":5500,"seis":5501,"mandat":5502,"Flor":5503,"categ":5504,"sólo":5505,"##opa":5506,"dél":5507,"compos":5508,"amen":5509,"habl":5510,"strong":5511,"entreprises":5512,"questions":5513,"PC":5514,"Sam":5515,"element":5516,"juego":5517,"mieux":5518,"pare":5519,"##agon":5520,"souvent":5521,"entonces":5522,"fight":5523,"nemen":5524,"vig":5525,"étr":5526,"##iat":5527,"##jar":5528,"proces":5529,"##iets":5530,"obst":5531,"domin":5532,"energie":5533,"Pet":5534,"har":5535,"##ification":5536,"encuentro":5537,"Sept":5538,"Tour":5539,"coord":5540,"host":5541,"##gar":5542,"##bare":5543,"aband":5544,"période":5545,"Az":5546,"hours":5547,"##vang":5548,"##ître":5549,"##eras":5550,"story":5551,"incluso":5552,"vriend":5553,"guerra":5554,"apoyo":5555,"Lu":5556,"##ît":5557,"##quel":5558,"asist":5559,"travel":5560,"autant":5561,"société":5562,"décision":5563,"programme":5564,"titre":5565,"nuevos":5566,"##anies":5567,"##ini":5568,"destin":5569,"octobre":5570,"current":5571,"precios":5572,"Ob":5573,"kijken":5574,"##med":5575,"##aak":5576,"##akken":5577,"boven":5578,"semaines":5579,"##ds":5580,"##ète":5581,"##çon":5582,"##itution":5583,"##ands":5584,"réun":5585,"uitge":5586,"University":5587,"following":5588,"Rob":5589,"war":5590,"##com":5591,"trip":5592,"complic":5593,"travers":5594,"hebt":5595,"Real":5596,"edad":5597,"aldus":5598,"##aces":5599,"gobern":5600,"doel":5601,"##oupe":5602,"dernières":5603,"llegó":5604,"líder":5605,"fecha":5606,"tourn":5607,"passe":5608,"minim":5609,"falta":5610,"seulement":5611,"Luc":5612,"side":5613,"##onge":5614,"##anza":5615,"##izó":5616,"##usses":5617,"mai":5618,"junio":5619,"televis":5620,"Amerikaanse":5621,"gaz":5622,"##ype":5623,"##atura":5624,"thuis":5625,"chance":5626,"región":5627,"focus":5628,"World":5629,"laiss":5630,"##aming":5631,"once":5632,"atr":5633,"low":5634,"rédu":5635,"espera":5636,"intér":5637,"établ":5638,"vaccin":5639,"budget":5640,"drug":5641,"font":5642,"vanaf":5643,"precio":5644,"political":5645,"vraiment":5646,"journée":5647,"Californ":5648,"meld":5649,"puer":5650,"##oche":5651,"explos":5652,"##illed":5653,"passé":5654,"denk":5655,"algunas":5656,"Vo":5657,"led":5658,"##lant":5659,"opn":5660,"plans":5661,"deliver":5662,"duur":5663,"interview":5664,"decision":5665,"évén":5666,"Sport":5667,"##hal":5668,"##gaan":5669,"pron":5670,"paso":5671,"##érence":5672,"book":5673,"municipal":5674,"Ho":5675,"Roy":5676,"##cional":5677,"##wikk":5678,"##ecu":5679,"aven":5680,"Frank":5681,"passer":5682,"combat":5683,"verwacht":5684,"ejemplo":5685,"Ja":5686,"dici":5687,"##èg":5688,"interp":5689,"autorités":5690,"legal":5691,"succ":5692,"Mil":5693,"##taire":5694,"central":5695,"busc":5696,"ministro":5697,"risk":5698,"slecht":5699,"',":5700,"Gar":5701,"prend":5702,"proper":5703,"partidos":5704,"solicit":5705,"octubre":5706,"Ros":5707,"##uff":5708,"##BC":5709,"franc":5710,"within":5711,"##ública":5712,"annonce":5713,"dinero":5714,"vidé":5715,"wie":5716,"##zon":5717,"July":5718,"acompañ":5719,"gust":5720,"hop":5721,"sil":5722,"agre":5723,"occup":5724,"difficult":5725,"foto":5726,"##mat":5727,"avril":5728,"##emps":5729,"instru":5730,"carrera":5731,"Accord":5732,"Ciudad":5733,"mad":5734,"##leden":5735,"thought":5736,"##ienst":5737,"relig":5738,"locales":5739,"65":5740,"##len":5741,"##ctions":5742,"beetje":5743,"provide":5744,"état":5745,"batt":5746,"##ving":5747,"##ended":5748,"medidas":5749,"realizar":5750,"vindt":5751,"bou":5752,"route":5753,"varias":5754,"##inte":5755,"##ably":5756,"star":5757,"##ops":5758,"##ekt":5759,"marzo":5760,"direction":5761,"constitu":5762,"protect":5763,"##ètres":5764,"diciembre":5765,"##fico":5766,"##gro":5767,"##uales":5768,"expected":5769,"sociale":5770,"exemple":5771,"Pre":5772,"##iging":5773,"previous":5774,"terwijl":5775,"known":5776,"Europese":5777,"confirmed":5778,"Qatar":5779,"ever":5780,"##fin":5781,"##enas":5782,"moi":5783,"muest":5784,"espec":5785,"ocas":5786,"legisl":5787,"##ructure":5788,"Donald":5789,"probable":5790,"espacio":5791,"Max":5792,"Sw":5793,"aide":5794,"held":5795,"vér":5796,"##ulta":5797,"weinig":5798,"eigenlijk":5799,"April":5800,"##DA":5801,"thre":5802,"uso":5803,"calle":5804,"aseguró":5805,"Mundial":5806,"late":5807,"##iant":5808,"##head":5809,"##acion":5810,"##uter":5811,"##lymp":5812,"investigación":5813,"militaire":5814,"bit":5815,"mem":5816,"##ny":5817,"anterior":5818,"proced":5819,"empez":5820,"model":5821,"##itted":5822,"Ram":5823,"##uve":5824,"##lege":5825,"##ush":5826,"accident":5827,"derniers":5828,"buena":5829,"campagne":5830,"material":5831,"ON":5832,"cast":5833,"##my":5834,"##bers":5835,"##wa":5836,"##enario":5837,"manier":5838,"encou":5839,"##vangen":5840,"septiembre":5841,"provincia":5842,"gir":5843,"##cimiento":5844,"196":5845,"##lucht":5846,"enferm":5847,"employe":5848,"source":5849,"kreeg":5850,"milliards":5851,"ago":5852,"##ijzen":5853,"##amientos":5854,"sigu":5855,"48":5856,"Ama":5857,"Mag":5858,"##OS":5859,"##eleid":5860,"accomp":5861,"communiqué":5862,"ligne":5863,"desarrollo":5864,"cort":5865,"##yer":5866,"##aster":5867,"independ":5868,"hemos":5869,"vont":5870,"alleg":5871,"##itude":5872,"genoeg":5873,"Nav":5874,"tecn":5875,"##ote":5876,"convert":5877,"export":5878,"implement":5879,"liber":5880,"indicó":5881,"young":5882,"##kk":5883,"concent":5884,"stuk":5885,"##uvre":5886,"gevol":5887,"##chez":5888,"potential":5889,"encuentra":5890,"digital":5891,"Policía":5892,"Harr":5893,"parce":5894,"##otogra":5895,"incluy":5896,"deaths":5897,"verschillende":5898,"geweest":5899,"raz":5900,"##self":5901,"##stof":5902,"##amil":5903,"reb":5904,"troisième":5905,"Mosc":5906,"According":5907,"42":5908,"dén":5909,"libre":5910,"Ap":5911,"tema":5912,"##osto":5913,"##ources":5914,"loin":5915,"companies":5916,"share":5917,"##ights":5918,"Comp":5919,"bere":5920,"fu":5921,"estudi":5922,"stem":5923,"opge":5924,"dépl":5925,"##iende":5926,"internet":5927,"Commission":5928,"Di":5929,"Lond":5930,"Tras":5931,"tell":5932,"##edes":5933,"##raag":5934,"##ulo":5935,"plate":5936,"geval":5937,"suspect":5938,"democr":5939,"touch":5940,"limit":5941,"cuerpo":5942,"God":5943,"##itable":5944,"##aged":5945,"react":5946,"infect":5947,"##erdam":5948,"smart":5949,"Francis":5950,"féd":5951,"mic":5952,"wal":5953,"bew":5954,"##avía":5955,"##ogle":5956,"Champ":5957,"medi":5958,"##valu":5959,"Cuando":5960,"June":5961,"##sl":5962,"##inde":5963,"##atég":5964,"novi":5965,"spr":5966,"haut":5967,"volver":5968,"secteur":5969,"suppl":5970,"vacun":5971,"experience":5972,"##ecutive":5973,"victo":5974,"noviembre":5975,"Har":5976,"##rent":5977,"##aya":5978,"##sez":5979,"##odo":5980,"##indelijk":5981,"outside":5982,"security":5983,"nieuw":5984,"Nic":5985,"lit":5986,"richt":5987,"sais":5988,"##ih":5989,"deport":5990,"residents":5991,"realidad":5992,"doss":5993,"##ontré":5994,"evitar":5995,"##ono":5996,"##ared":5997,"##iennes":5998,"##apar":5999,"weken":6000,"rapid":6001,"lives":6002,"prochain":6003,"nouvelles":6004,"diplom":6005,"wedst":6006,"seizo":6007,"bep":6008,"trying":6009,"meest":6010,"grat":6011,"Chin":6012,"color":6013,"##uck":6014,"haya":6015,"domic":6016,"système":6017,"increment":6018,"hommes":6019,"Wel":6020,"zone":6021,"##oût":6022,"adapt":6023,"medida":6024,"fan":6025,"attr":6026,"##iete":6027,"añad":6028,"prison":6029,"progress":6030,"Dus":6031,"pied":6032,"##áct":6033,"geeft":6034,"permis":6035,"déput":6036,"ligt":6037,"billion":6038,"##back":6039,"##regel":6040,"##ieke":6041,"##aga":6042,"grâce":6043,"##erdag":6044,"##key":6045,"psy":6046,"##engen":6047,"##ark":6048,"##heids":6049,"soul":6050,"Amst":6051,"natural":6052,"needs":6053,"Canad":6054,"issues":6055,"internationale":6056,"août":6057,"died":6058,"happ":6059,"##aute":6060,"Google":6061,"petit":6062,"saying":6063,"béné":6064,"##ders":6065,"##FA":6066,"##onie":6067,"##ello":6068,"laun":6069,"lever":6070,"quick":6071,"##ensdag":6072,"##ifier":6073,"##rup":6074,"recomm":6075,"produits":6076,"besoin":6077,"Ra":6078,"ráp":6079,"vandaag":6080,"##ielle":6081,"##oses":6082,"##ison":6083,"conven":6084,"parole":6085,"##aars":6086,"loi":6087,"##ondag":6088,"invit":6089,"##atief":6090,"shows":6091,"ensuite":6092,"vrijdag":6093,"aucun":6094,"efforts":6095,"Venez":6096,"vale":6097,"##iores":6098,"##sh":6099,"##bit":6100,"##inks":6101,"##etin":6102,"##igos":6103,"acciones":6104,"défense":6105,"gedaan":6106,"Even":6107,"Gro":6108,"vul":6109,"##aste":6110,"##ising":6111,"tex":6112,"actividades":6113,"Bre":6114,"kant":6115,"##almente":6116,"##stre":6117,"states":6118,"Int":6119,"autour":6120,"road":6121,"actividad":6122,"understand":6123,"friends":6124,"julio":6125,"Merc":6126,"Nord":6127,"note":6128,"believe":6129,"leader":6130,"received":6131,"meeting":6132,"mobil":6133,"cambi":6134,"##NA":6135,"except":6136,"cann":6137,"refer":6138,"comunidad":6139,"break":6140,"##arlier":6141,"Bur":6142,"cad":6143,"mit":6144,"targ":6145,"##lé":6146,"##reas":6147,"existe":6148,"mean":6149,"maakte":6150,"economic":6151,"résult":6152,"cabo":6153,"explicó":6154,"comunicado":6155,"riesgo":6156,"ber":6157,"race":6158,"##fait":6159,"##idencia":6160,"##oorden":6161,"##apa":6162,"refus":6163,"Ahora":6164,"message":6165,"développement":6166,"mús":6167,"##alo":6168,"prensa":6169,"forward":6170,"##ounid":6171,"watch":6172,"makes":6173,"##brero":6174,"beste":6175,"##aily":6176,"##ouvé":6177,"Santa":6178,"argument":6179,"Niet":6180,"Some":6181,"vient":6182,"##raz":6183,"alcal":6184,"reac":6185,"arch":6186,"Comme":6187,"vrouwen":6188,"oportunidad":6189,"44":6190,"Bay":6191,"zod":6192,"mogen":6193,"mexic":6194,"##iteindelijk":6195,"agosto":6196,"Mark":6197,"Club":6198,"trouver":6199,"Door":6200,"Nue":6201,"Vict":6202,"aand":6203,"lic":6204,"##ES":6205,"dér":6206,"##vención":6207,"impuls":6208,"regul":6209,"difí":6210,"arrê":6211,"proyect":6212,"civil":6213,"woord":6214,"##uido":6215,"##út":6216,"##onnen":6217,"unas":6218,"##ierre":6219,"maison":6220,"nosotros":6221,"anti":6222,"definit":6223,"pick":6224,"alto":6225,"##utions":6226,"##antage":6227,"ander":6228,"##avo":6229,"means":6230,"personnel":6231,"##auté":6232,"problema":6233,"##anneer":6234,"Kiev":6235,"tri":6236,"recog":6237,"Eng":6238,"Angel":6239,"medios":6240,"milieu":6241,"cub":6242,"##oft":6243,"esos":6244,"perf":6245,"provoc":6246,"quarant":6247,"Johnson":6248,"##útbol":6249,"39":6250,"99":6251,"condiciones":6252,"estadounid":6253,"Cr":6254,"Hospital":6255,"ale":6256,"bout":6257,"##DC":6258,"##rán":6259,"##œur":6260,"##onte":6261,"##ocup":6262,"similar":6263,"resultado":6264,"puiss":6265,"contex":6266,"'.":6267,"Crist":6268,"##iée":6269,"##ER":6270,"##aja":6271,"hausse":6272,"##cole":6273,"ministère":6274,"miemb":6275,"aprob":6276,"Sud":6277,"midd":6278,"##win":6279,"##leur":6280,"##otid":6281,"isol":6282,"tenido":6283,"semble":6284,"release":6285,"performance":6286,"Our":6287,"festival":6288,"lost":6289,"exact":6290,"negoci":6291,"##ajes":6292,"decis":6293,"futuro":6294,"financial":6295,"quiere":6296,"correspond":6297,"46":6298,"Sup":6299,"Tom":6300,"cif":6301,"##bour":6302,"manière":6303,"dood":6304,"producción":6305,"groep":6306,"calidad":6307,"everyone":6308,"Afrique":6309,"muerte":6310,"dicho":6311,"Sol":6312,"Str":6313,"average":6314,"dre":6315,"mach":6316,"##igt":6317,"##utôt":6318,"prevent":6319,"##ession":6320,"News":6321,"##arned":6322,"Republic":6323,"Emman":6324,"innov":6325,"41":6326,"Cru":6327,"ziet":6328,"##éra":6329,"alco":6330,"##iere":6331,"regard":6332,"behind":6333,"bent":6334,"burg":6335,"##work":6336,"##onia":6337,"unique":6338,"##ivement":6339,"gros":6340,"These":6341,"mesure":6342,"gezien":6343,"jornada":6344,"Amsterdam":6345,"Miss":6346,"zorgen":6347,"##uil":6348,"countries":6349,"webs":6350,"##olen":6351,"##quet":6352,"##auw":6353,"##auche":6354,"redu":6355,"palab":6356,"platform":6357,"currently":6358,"?”":6359,"Lóp":6360,"Open":6361,"dam":6362,"nuit":6363,"vak":6364,"##ove":6365,"##yo":6366,"##yl":6367,"medical":6368,"productos":6369,"armée":6370,"Municip":6371,"Amazon":6372,"López":6373,"banc":6374,"ooit":6375,"parece":6376,"##ancing":6377,"States":6378,"blijkt":6379,"pandémie":6380,"Etat":6381,"America":6382,"collabor":6383,"experts":6384,"gestion":6385,"##fort":6386,"grond":6387,"expér":6388,"Colomb":6389,"Conseil":6390,"Micha":6391,"nec":6392,"type":6393,"inqu":6394,"content":6395,"sería":6396,"disfr":6397,"##stead":6398,"##uestas":6399,"version":6400,"concurr":6401,"quelque":6402,"Department":6403,"California":6404,"echter":6405,"hô":6406,"hen":6407,"lief":6408,"puesto":6409,"enige":6410,"##antie":6411,"##cier":6412,"surv":6413,"abier":6414,"##eller":6415,"##nemers":6416,"rencontre":6417,"Vous":6418,"##ën":6419,"##ani":6420,"##abe":6421,"##neo":6422,"Alors":6423,"##wood":6424,"##iction":6425,"línea":6426,"morning":6427,"druk":6428,"##veer":6429,"mano":6430,"regular":6431,"entire":6432,"image":6433,"ocup":6434,"probleem":6435,"Salud":6436,"relev":6437,"choix":6438,"43":6439,"aim":6440,"farm":6441,"taux":6442,"vanwege":6443,"##ips":6444,"abril":6445,"cuest":6446,"##ffe":6447,"##insdag":6448,"mayo":6449,"address":6450,"Centre":6451,"Fue":6452,"bord":6453,"##kker":6454,"##chte":6455,"##iquer":6456,"released":6457,"nuevas":6458,"clear":6459,"restrictions":6460,"##met":6461,"##emd":6462,"station":6463,"##ierra":6464,"##break":6465,"todavía":6466,"traslad":6467,"nouveaux":6468,"businesses":6469,"woensdag":6470,"agregó":6471,"His":6472,"gelijk":6473,"offre":6474,"waarsch":6475,"jouer":6476,"equipos":6477,"entren":6478,"pén":6479,"##ció":6480,"##ellig":6481,"pueblo":6482,"zetten":6483,"rou":6484,"ucran":6485,"##bum":6486,"deta":6487,"retir":6488,"inspir":6489,"industry":6490,"aumento":6491,"poursu":6492,"August":6493,"Ig":6494,"Now":6495,"Ped":6496,"##atif":6497,"##érica":6498,"donner":6499,"##ianza":6500,"history":6501,"additional":6502,"disput":6503,"organisation":6504,"dirige":6505,"Institut":6506,"psych":6507,"fix":6508,"table":6509,"##ided":6510,"##ends":6511,"##illas":6512,"motor":6513,"##cript":6514,"Emmanuel":6515,"Jack":6516,"ga":6517,"separ":6518,"prijs":6519,"vanuit":6520,"##ify":6521,"claro":6522,"cover":6523,"upd":6524,"ambos":6525,"everything":6526,"vorig":6527,"ajouté":6528,"Nos":6529,"##cos":6530,"##vez":6531,"susp":6532,"coal":6533,"febrero":6534,"grands":6535,"scène":6536,"concert":6537,"especially":6538,"vue":6539,"##TA":6540,"##ién":6541,"reve":6542,"plutôt":6543,"##aves":6544,"venir":6545,"Ej":6546,"zondag":6547,"##èmes":6548,"##atiques":6549,"##uring":6550,"##ijst":6551,"exerc":6552,"acerc":6553,"##ained":6554,"ayant":6555,"plein":6556,"pesar":6557,"##woners":6558,"600":6559,"##arte":6560,"##anden":6561,"optim":6562,"##resse":6563,"teach":6564,"##ube":6565,"trabajadores":6566,"ayuda":6567,"namelijk":6568,"Rodr":6569,"Lors":6570,"dañ":6571,"gal":6572,"##euw":6573,"##dr":6574,"##aud":6575,"veilig":6576,"semanas":6577,"inscr":6578,"##phone":6579,"nuestros":6580,"risque":6581,"succès":6582,"seizoen":6583,"Chinese":6584,"punt":6585,"##éct":6586,"##onne":6587,"##icion":6588,"##adem":6589,"describ":6590,"meter":6591,"explo":6592,"entrev":6593,"affirm":6594,"misschien":6595,"Bern":6596,"Pen":6597,"Wil":6598,"hic":6599,"##rant":6600,"##acia":6601,"vervol":6602,"##ieten":6603,"##gence":6604,"##angers":6605,"families":6606,"trabajar":6607,"##embl":6608,"escuch":6609,"derecho":6610,"Daarna":6611,"précéd":6612,"suggest":6613,"49":6614,"James":6615,"Rép":6616,"bad":6617,"hig":6618,"##gra":6619,"##ON":6620,"##EC":6621,"##onom":6622,"##rokken":6623,"##chten":6624,"sein":6625,"##aby":6626,"pred":6627,"tests":6628,"strateg":6629,"violence":6630,"films":6631,"##virt":6632,"##iddels":6633,"carrière":6634,"52":6635,"Day":6636,"Mu":6637,"##vall":6638,"##lac":6639,"##erta":6640,"avanz":6641,"preocup":6642,"Anton":6643,"wanted":6644,"violencia":6645,"economy":6646,"soutien":6647,"mir":6648,"##ple":6649,"##arch":6650,"##irme":6651,"quant":6652,"##iks":6653,"##achtoff":6654,"Art":6655,"visite":6656,"##ibilité":6657,"publique":6658,"spécial":6659,"Venezuela":6660,"fundament":6661,"arrivée":6662,"hotel":6663,"vou":6664,"##ians":6665,"##jard":6666,"alred":6667,"adult":6668,"##rijven":6669,"scre":6670,"Qué":6671,"results":6672,"Durante":6673,"safety":6674,"self":6675,"##icios":6676,"mencion":6677,"include":6678,"benef":6679,"tested":6680,"mejores":6681,"donné":6682,"opnieuw":6683,"Día":6684,"dû":6685,"link":6686,"##vió":6687,"##gas":6688,"##aco":6689,"##imen":6690,"recursos":6691,"##achte":6692,"response":6693,"PP":6694,"témo":6695,"##gin":6696,"ine":6697,"cong":6698,"stij":6699,"parties":6700,"##berto":6701,"buy":6702,"##wijs":6703,"treat":6704,"zaterdag":6705,"War":6706,"##zonder":6707,"##elens":6708,"##ully":6709,"##istro":6710,"##aalde":6711,"importantes":6712,"anticip":6713,"tendrá":6714,"##uary":6715,"##yle":6716,"##orden":6717,"##eto":6718,"##venes":6719,"obra":6720,"libert":6721,"diagn":6722,"woman":6723,"seul":6724,"##outine":6725,"plataf":6726,"bedrijven":6727,"Yo":6728,"dict":6729,"fourn":6730,"mission":6731,"tab":6732,"##nos":6733,"##eten":6734,"##ither":6735,"parten":6736,"##ffen":6737,"terrain":6738,"##igné":6739,"utilis":6740,"objectif":6741,"usuarios":6742,"victoire":6743,"Vla":6744,"##band":6745,"deben":6746,"##onter":6747,"##adamente":6748,"recently":6749,"mesures":6750,"##abilité":6751,"School":6752,"tomar":6753,"compañía":6754,"vroeg":6755,"##ktr":6756,"##óvenes":6757,"often":6758,"began":6759,"avance":6760,"waarin":6761,"juste":6762,"##égal":6763,"value":6764,"resultados":6765,"view":6766,"Tex":6767,"construction":6768,"Associ":6769,"difficile":6770,"poner":6771,"iPh":6772,":/":6773,"Bank":6774,"Putin":6775,"Tot":6776,"Wal":6777,"dedic":6778,"##otion":6779,"assez":6780,"##ijnen":6781,"Poetin":6782,"Michael":6783,"hechos":6784,"light":6785,"ul":6786,"worth":6787,"##ming":6788,"black":6789,"board":6790,"Carol":6791,"camino":6792,"energía":6793,"grootste":6794,"single":6795,"Street":6796,"://":6797,"Kar":6798,"pack":6799,"père":6800,"sû":6801,"##esse":6802,"##asing":6803,"verke":6804,"carb":6805,"sociedad":6806,"salir":6807,"Park":6808,"supp":6809,"attention":6810,"150":6811,"almost":6812,"##nement":6813,"##ored":6814,"##ache":6815,"##agner":6816,"reconn":6817,"derechos":6818,"needed":6819,"necesario":6820,"exclus":6821,"scient":6822,"vorm":6823,"inicio":6824,"chois":6825,"habían":6826,"role":6827,"verdad":6828,"werkt":6829,"Centro":6830,"##ecutivo":6831,"disfrut":6832,"lid":6833,"siè":6834,"west":6835,"##ñas":6836,"##asta":6837,"goal":6838,"##asting":6839,"depart":6840,"graag":6841,"Center":6842,"sanit":6843,"precis":6844,"Duits":6845,"conjunto":6846,"UK":6847,"bol":6848,"cop":6849,"gele":6850,"typ":6851,"wait":6852,"##rés":6853,"gracias":6854,"mayores":6855,"province":6856,"inflación":6857,"Louis":6858,"mundial":6859,"élev":6860,"##usement":6861,"pasar":6862,"##crimin":6863,"White":6864,"testing":6865,"denken":6866,"correct":6867,"##jas":6868,"##iennent":6869,"areas":6870,"menor":6871,"juist":6872,"experiencia":6873,"maandag":6874,"gebruiken":6875,"AFP":6876,"Nad":6877,"rang":6878,"elke":6879,"elimin":6880,"##imir":6881,"prol":6882,"##aisse":6883,"complex":6884,"financ":6885,"##uisse":6886,"offici":6887,"##assen":6888,"respuesta":6889,"transf":6890,"Organ":6891,"necesit":6892,"toutefois":6893,"radio":6894,"énergie":6895,"eleg":6896,"fab":6897,"conseg":6898,"##otte":6899,"grad":6900,"err":6901,"outbreak":6902,"sexual":6903,"aquí":6904,"hôp":6905,"bâ":6906,"russes":6907,"école":6908,"loss":6909,"overheid":6910,"doivent":6911,"décidé":6912,"campe":6913,"played":6914,"Central":6915,"pi":6916,"satis":6917,"tens":6918,"envo":6919,"heart":6920,"##onto":6921,"##ows":6922,"ontwikk":6923,"colabor":6924,"##ificar":6925,"box":6926,"familias":6927,"actually":6928,"Michel":6929,"significant":6930,"UE":6931,"kabinet":6932,"##nez":6933,"Invest":6934,"suspend":6935,"medic":6936,"##lection":6937,"primeros":6938,"idee":6939,"##flix":6940,"measures":6941,"Hum":6942,"Sil":6943,"Ya":6944,"jóvenes":6945,"vest":6946,"seule":6947,"aspect":6948,"perfect":6949,"amor":6950,"matter":6951,"prépar":6952,"##oires":6953,"increase":6954,"diput":6955,"fédér":6956,"AP":6957,"dinsdag":6958,"fant":6959,"voc":6960,"##bro":6961,"space":6962,"implic":6963,"persoon":6964,"donder":6965,"insist":6966,"slachtoff":6967,"principales":6968,"evento":6969,"woning":6970,"difícil":6971,"rôle":6972,"##iado":6973,"##ll":6974,"##erst":6975,"##ills":6976,"track":6977,"gevo":6978,"clients":6979,"informe":6980,"sociaux":6981,"haciendo":6982,"internacional":6983,"training":6984,"películ":6985,"Netflix":6986,"categor":6987,"85":6988,"Aunque":6989,"Zij":6990,"huid":6991,"pouv":6992,"##rap":6993,"##ijnlijk":6994,"chiff":6995,"choses":6996,"durant":6997,"primero":6998,"Conf":6999,"campaña":7000,"municipio":7001,"ningún":7002,"Barc":7003,"bru":7004,"rating":7005,"dead":7006,"##ragen":7007,"##uld":7008,"tran":7009,"##issements":7010,"daarna":7011,"mensaje":7012,"##ability":7013,"convoc":7014,"##ámara":7015,"elektr":7016,"FI":7017,"Tel":7018,"buur":7019,"hope":7020,"##cement":7021,"práct":7022,"spra":7023,"cuanto":7024,"mannen":7025,"effic":7026,"Gron":7027,"komende":7028,"pública":7029,"midi":7030,"afirmó":7031,"Hier":7032,"body":7033,"área":7034,"œuvre":7035,"reken":7036,"jeux":7037,"2024":7038,"groe":7039,"préf":7040,"maintenant":7041,"abandon":7042,"alrededor":7043,"##omers":7044,"totaal":7045,"escrib":7046,"##akers":7047,"consomm":7048,"##ounds":7049,"grave":7050,"teams":7051,"engag":7052,"reçu":7053,"flu":7054,"htt":7055,"rom":7056,"var":7057,"rév":7058,"indique":7059,"herman":7060,"responsables":7061,"aucune":7062,"vehículos":7063,"Emp":7064,"Mel":7065,"vos":7066,"##úa":7067,"etc":7068,"soon":7069,"##volution":7070,"jugadores":7071,"double":7072,"closed":7073,"Bal":7074,"CN":7075,"Twe":7076,"building":7077,"Lat":7078,"Ur":7079,"rate":7080,"vlie":7081,"##hold":7082,"estuvo":7083,"saw":7084,"presencia":7085,"hijos":7086,"institut":7087,"longt":7088,"talent":7089,"plek":7090,"guard":7091,"January":7092,"hubo":7093,"pareja":7094,"higher":7095,"acht":7096,"viene":7097,"##AM":7098,"##rique":7099,"##íamos":7100,"ang":7101,"Inc":7102,"brit":7103,"premiers":7104,"##itoire":7105,"rappel":7106,"website":7107,"51":7108,"57":7109,"Cam":7110,"rust":7111,"sost":7112,"##AC":7113,"##roy":7114,"alta":7115,"revel":7116,"repro":7117,"##ativos":7118,"someone":7119,"ahí":7120,"Social":7121,"##ublique":7122,"disponible":7123,"coordin":7124,"Francisco":7125,"nord":7126,"vamos":7127,"##20":7128,"accept":7129,"account":7130,"regering":7131,"hoge":7132,"problemen":7133,"schools":7134,"dejar":7135,"citoy":7136,"único":7137,"Israel":7138,"introdu":7139,"poursuiv":7140,"rijden":7141,"##bes":7142,"inge":7143,"##adio":7144,"isn":7145,"compagn":7146,"key":7147,"##koop":7148,"development":7149,"nadie":7150,"zieken":7151,"Cer":7152,"Educ":7153,"Suisse":7154,"Vlad":7155,"boy":7156,"dado":7157,"madre":7158,"##ince":7159,"##ilijk":7160,"##uncia":7161,"resc":7162,"mede":7163,"hombres":7164,"##ático":7165,"tribunal":7166,"Civ":7167,"Econom":7168,"Fiscal":7169,"bomb":7170,"##vil":7171,"##bouw":7172,"prote":7173,"stond":7174,"iPhone":7175,"donderdag":7176,"Hu":7177,"Ot":7178,"writ":7179,"##mal":7180,"ouv":7181,"betalen":7182,"playing":7183,"últimas":7184,"running":7185,"destacó":7186,"micro":7187,"800":7188,"Rich":7189,"gave":7190,"##esp":7191,"##onstr":7192,"##ifica":7193,"##umul":7194,"actions":7195,"reports":7196,"Buen":7197,"Ni":7198,"pid":7199,"pense":7200,"sang":7201,"##body":7202,"##elig":7203,"suced":7204,"recom":7205,"serious":7206,"shot":7207,"march":7208,"corps":7209,"Onder":7210,"klim":7211,"moeilijk":7212,"target":7213,"Hen":7214,"Wij":7215,"##ivamente":7216,"reason":7217,"ache":7218,"meteen":7219,"surve":7220,"mark":7221,"volled":7222,"pueda":7223,"contrat":7224,"Gran":7225,"nieuws":7226,"anything":7227,"nombreuses":7228,"titular":7229,"façon":7230,"policía":7231,"Fernández":7232,"dossier":7233,"Mur":7234,"Pierre":7235,"rendre":7236,"##aling":7237,"seven":7238,"propr":7239,"miles":7240,"officers":7241,"Antwer":7242,"vit":7243,"vlucht":7244,"dese":7245,"revis":7246,"##izada":7247,"condam":7248,"vragen":7249,"Vir":7250,"ellas":7251,"estará":7252,"forme":7253,"actor":7254,"##ánchez":7255,"##zaam":7256,"##ómet":7257,"inmedi":7258,"mantener":7259,"https":7260,"Sánchez":7261,"ast":7262,"rass":7263,"##part":7264,"##lez":7265,"condu":7266,"conduc":7267,"seem":7268,"soft":7269,"formation":7270,"##ática":7271,"écrit":7272,"Smith":7273,"infrast":7274,"Hoy":7275,"High":7276,"bil":7277,"##porte":7278,"##PS":7279,"adoles":7280,"##uerto":7281,"Maroc":7282,"María":7283,"##laag":7284,"miljard":7285,"waarom":7286,"momentos":7287,"étudi":7288,"expresó":7289,"purch":7290,"ongeveer":7291,"vidéo":7292,"Federal":7293,"jij":7294,"pra":7295,"##uien":7296,"##yan":7297,"##verte":7298,"interd":7299,"incor":7300,"hijo":7301,"algún":7302,"capacidad":7303,"47":7304,"gé":7305,"voul":7306,"##encias":7307,"##organ":7308,"##ility":7309,"acceso":7310,"terme":7311,"hablar":7312,"waardoor":7313,"propuesta":7314,"fuerte":7315,"##ibility":7316,"private":7317,"quedó":7318,"##lecciones":7319,"anunció":7320,"Fl":7321,"Form":7322,"Kh":7323,"amp":7324,"member":7325,"toek":7326,"##olas":7327,"song":7328,"marca":7329,"welke":7330,"droits":7331,"immedi":7332,"précisé":7333,"opposition":7334,"reunión":7335,"réseau":7336,"volgende":7337,"ferm":7338,"hoor":7339,"huit":7340,"règ":7341,"visto":7342,"zes":7343,"##dos":7344,"##zij":7345,"##BA":7346,"##otter":7347,"serán":7348,"presente":7349,"hoop":7350,"photo":7351,"##atoire":7352,"participación":7353,"alguna":7354,"llevar":7355,"tarjet":7356,"allowed":7357,"Belgique":7358,"fabric":7359,"Rom":7360,"field":7361,"fútbol":7362,"spre":7363,"propio":7364,"reden":7365,"derde":7366,"critic":7367,"souten":7368,"Israël":7369,"Gol":7370,"licht":7371,"mix":7372,"##oint":7373,"##cast":7374,"##itation":7375,"##omst":7376,"esas":7377,"plante":7378,"adopt":7379,"perspect":7380,"2013":7381,"emb":7382,"Group":7383,"connu":7384,"Martin":7385,"##augh":7386,"Court":7387,"víctimas":7388,"spectac":7389,"AM":7390,"Vill":7391,"fá":7392,"rij":7393,"vel":7394,"##lit":7395,"esf":7396,"##deren":7397,"chief":7398,"##genomen":7399,"comple":7400,"##bracht":7401,"souff":7402,"protagon":7403,"debate":7404,"events":7405,"cabe":7406,"ganar":7407,"luz":7408,"pudo":7409,"Después":7410,"recherche":7411,"bénéfic":7412,"--":7413,"dic":7414,"gauche":7415,"uiteindelijk":7416,"##lim":7417,"##lang":7418,"##yes":7419,"stress":7420,"##uda":7421,"Leg":7422,"consci":7423,"brind":7424,"##iedad":7425,"profit":7426,"guid":7427,"mental":7428,"gebeur":7429,"édition":7430,"Colombia":7431,"Mientras":7432,"Rutte":7433,"earlier":7434,"hall":7435,"poc":7436,"vre":7437,"##onz":7438,"##aled":7439,"##outer":7440,"bezoek":7441,"voorz":7442,"cuent":7443,"##ificado":7444,"politiques":7445,"protection":7446,"modelo":7447,"réseaux":7448,"##66":7449,"##ancias":7450,"asoci":7451,"##though":7452,"nothing":7453,"zeer":7454,"volont":7455,"activités":7456,"affaire":7457,"zwaar":7458,"comenzó":7459,"September":7460,"Want":7461,"dix":7462,"kop":7463,"magn":7464,"##encial":7465,"enorme":7466,"opération":7467,"plazo":7468,"informations":7469,"##atoria":7470,"##iteiten":7471,"Oekraïense":7472,"conseil":7473,"actuellement":7474,"vecinos":7475,"zodat":7476,"Bas":7477,"kosten":7478,"##ped":7479,"##uz":7480,"##uay":7481,"##ettes":7482,"##ilo":7483,"estime":7484,"zoveel":7485,"resto":7486,"podemos":7487,"derr":7488,"denunci":7489,"cantidad":7490,"Jac":7491,"Sand":7492,"Zelens":7493,"halen":7494,"trim":7495,"verand":7496,"##atory":7497,"initial":7498,"américain":7499,"vehículo":7500,"Nigeria":7501,"Tal":7502,"danger":7503,"warm":7504,"wrote":7505,"##kort":7506,"##iders":7507,"##ilt":7508,"##ciales":7509,"projets":7510,"##quelle":7511,"escr":7512,"compét":7513,"advers":7514,"spel":7515,"##luv":7516,"ayer":7517,"combin":7518,"recibir":7519,"54":7520,"NF":7521,"az":7522,"bot":7523,"##gers":7524,"##ypt":7525,"eléct":7526,"parfois":7527,"##quent":7528,"##ioen":7529,"conséqu":7530,"region":7531,"##ualmente":7532,"commune":7533,"territoire":7534,"excell":7535,"##isode":7536,"événement":7537,"Feder":7538,"cra":7539,"siete":7540,"enreg":7541,"laquelle":7542,"##illé":7543,"##apen":7544,"Chief":7545,"##ampoco":7546,"2010":7547,"related":7548,"gelo":7549,"gebruikt":7550,"opportunity":7551,"Pedro":7552,"Texas":7553,"Der":7554,"âg":7555,"##IC":7556,"crecimiento":7557,"Manuel":7558,"tradition":7559,"sortie":7560,"victimes":7561,"Ko":7562,"Tro":7563,"##pon":7564,"seek":7565,"nearly":7566,"Ley":7567,"terre":7568,"permite":7569,"wilde":7570,"petite":7571,"causa":7572,"People":7573,"Congreso":7574,"Bien":7575,"ahead":7576,"covid":7577,"##teriores":7578,"##loss":7579,"Play":7580,"gespre":7581,"vorige":7582,"Charles":7583,"accueill":7584,"lleva":7585,"dénon":7586,"wedstrijd":7587,"mouv":7588,"ving":7589,"##igne":7590,"##quant":7591,"adj":7592,"##weer":7593,"brief":7594,"produit":7595,"boeren":7596,"experien":7597,"ejerc":7598,"kleine":7599,"latest":7600,"meilleur":7601,"música":7602,"éx":7603,"évo":7604,"##ober":7605,"##aw":7606,"##ench":7607,"##uth":7608,"parlement":7609,"apunt":7610,"##odes":7611,"créd":7612,"emplo":7613,"became":7614,"busca":7615,"however":7616,"certaines":7617,"places":7618,"##komst":7619,"démocr":7620,"senior":7621,"zonas":7622,"pregunt":7623,"République":7624,"caf":7625,"elecciones":7626,"mê":7627,"niks":7628,"os":7629,"decl":7630,"quotid":7631,"bev":7632,"verg":7633,"##venus":7634,"spok":7635,"##édé":7636,"block":7637,"waarbij":7638,"propose":7639,"##ucle":7640,"images":7641,"##elona":7642,"gestión":7643,"données":7644,"lancé":7645,"disposit":7646,"Australia":7647,"proyectos":7648,"Cos":7649,"belle":7650,"##das":7651,"##icid":7652,"##acción":7653,"##eca":7654,"##uerzo":7655,"2012":7656,"transition":7657,"mucha":7658,"geweld":7659,"República":7660,"économique":7661,"November":7662,"Barcelona":7663,"cart":7664,"cœur":7665,"##kend":7666,"##EN":7667,"##atuur":7668,"##oster":7669,"##reto":7670,"inaug":7671,"amél":7672,"##steem":7673,"##rick":7674,"worked":7675,"Universidad":7676,"victoria":7677,"asesin":7678,"Liga":7679,"dial":7680,"hol":7681,"mín":7682,"pic":7683,"sosten":7684,"##lop":7685,"avent":7686,"try":7687,"##genes":7688,"interior":7689,"appart":7690,"ciné":7691,"economía":7692,"ensure":7693,"geworden":7694,"##iën":7695,"qualité":7696,"verhaal":7697,"environment":7698,"problème":7699,"Im":7700,"cul":7701,"daily":7702,"elev":7703,"sau":7704,"##vech":7705,"##IN":7706,"##ogue":7707,"spelen":7708,"finales":7709,"commission":7710,"Eso":7711,"sympt":7712,"droite":7713,"original":7714,"atteint":7715,"October":7716,"rapidement":7717,"toekomst":7718,"62":7719,"64":7720,"fís":7721,"##acionales":7722,"alum":7723,"quoi":7724,"##deel":7725,"2000":7726,"##grij":7727,"##ample":7728,"masks":7729,"##spra":7730,"joueur":7731,"ataque":7732,"Pé":7733,"evalu":7734,"lopen":7735,"##uig":7736,"pros":7737,"mode":7738,"safe":7739,"##arth":7740,"posibilidad":7741,"##istry":7742,"insp":7743,"attemp":7744,"contrôle":7745,"tweet":7746,"bestuur":7747,"officer":7748,"##geving":7749,"involved":7750,"estudio":7751,"53":7752,"Luego":7753,"##nam":7754,"##eció":7755,"##anca":7756,"whole":7757,"faits":7758,"présence":7759,"arrive":7760,"Quand":7761,"##ukk":7762,"Prim":7763,"malgré":7764,"mother":7765,"winter":7766,"travaux":7767,"nadat":7768,"Coupe":7769,"Let":7770,"kne":7771,"rit":7772,"##ford":7773,"##sito":7774,"##bank":7775,"comport":7776,"partis":7777,"##rijden":7778,"affaires":7779,"Afric":7780,"inmiddels":7781,"OM":7782,"bi":7783,"divid":7784,"##ecta":7785,"comien":7786,"##istan":7787,"peup":7788,"finalement":7789,"Chine":7790,"##près":7791,"brengen":7792,"betek":7793,"arrêt":7794,"hacen":7795,"##ankelijk":7796,"count":7797,"##pped":7798,"européenne":7799,"víctima":7800,"Champions":7801,"satisf":7802,"Cult":7803,"Gh":7804,"bom":7805,"épo":7806,"##zig":7807,"##IS":7808,"enj":7809,"##agers":7810,"##endien":7811,"Thomas":7812,"solution":7813,"room":7814,"figure":7815,"village":7816,"King":7817,"##TC":7818,"##ág":7819,"reach":7820,"cuales":7821,"accès":7822,"betre":7823,"Toen":7824,"kilómet":7825,"agrad":7826,"différents":7827,"age":7828,"gast":7829,"tand":7830,"##uelle":7831,"##erie":7832,"##itz":7833,"##urch":7834,"recuer":7835,"contest":7836,"empr":7837,"coû":7838,"constat":7839,"longer":7840,"liggen":7841,"detal":7842,"International":7843,"económica":7844,"compromiso":7845,"##ittee":7846,"Wie":7847,"##50":7848,"opér":7849,"acqu":7850,"affr":7851,"manque":7852,"interés":7853,"terc":7854,"rester":7855,"valt":7856,"Plan":7857,"encontrar":7858,"longtemps":7859,"Bou":7860,"padre":7861,"##var":7862,"##uigen":7863,"##urb":7864,"estaban":7865,"mooi":7866,"jefe":7867,"contemp":7868,"shoot":7869,"brut":7870,"jugador":7871,"career":7872,"honor":7873,"Vladimir":7874,"liter":7875,"pomp":7876,"wanneer":7877,"##oie":7878,"##anje":7879,"concept":7880,"auprès":7881,"vermo":7882,"##énégal":7883,"amar":7884,"invas":7885,"daarom":7886,"inside":7887,"##gesch":7888,"cambios":7889,"letter":7890,"growth":7891,"vulner":7892,"Civil":7893,"58":7894,"tít":7895,"##ieel":7896,"modo":7897,"##étique":7898,"régul":7899,"Government":7900,"vaccine":7901,"attaque":7902,"Green":7903,"Japan":7904,"époque":7905,"Zijn":7906,"##punt":7907,"##stad":7908,"##urer":7909,"##ively":7910,"##cipl":7911,"isra":7912,"apart":7913,"metros":7914,"confront":7915,"puedan":7916,"250":7917,"saber":7918,"Musk":7919,"##regelen":7920,"cred":7921,"riv":7922,"##BS":7923,"##erte":7924,"##oni":7925,"##isa":7926,"leuk":7927,"pla":7928,"relacion":7929,"familiar":7930,"helpen":7931,"stratég":7932,"habitants":7933,"technology":7934,"klimaat":7935,"Cô":7936,"eight":7937,"lluv":7938,"maire":7939,"tient":7940,"##anci":7941,"##orno":7942,"album":7943,"##ensen":7944,"##ods":7945,"groter":7946,"inclus":7947,"trabajando":7948,"patr":7949,"Many":7950,"mejorar":7951,"Guard":7952,"fallec":7953,"aquell":7954,"association":7955,"enseign":7956,"Municipal":7957,"Montré":7958,"bra":7959,"sue":7960,"prise":7961,"opos":7962,"##enso":7963,"Français":7964,"klein":7965,"inflation":7966,"rechts":7967,"Febru":7968,"Consejo":7969,"relationship":7970,"91":7971,"Ainsi":7972,"IN":7973,"Jud":7974,"Tim":7975,"ken":7976,"mère":7977,"##dad":7978,"##bb":7979,"##asc":7980,"##reven":7981,"##eding":7982,"meeste":7983,"zoek":7984,"habrá":7985,"himself":7986,"langer":7987,"##aught":7988,"emergency":7989,"miembros":7990,"amélior":7991,"Montréal":7992,"Mer":7993,"Ren":7994,"##ró":7995,"##erden":7996,"##anía":7997,"##arning":7998,"##itud":7999,"##stelling":8000,"##abel":8001,"executive":8002,"recorr":8003,"contag":8004,"cuad":8005,"##elijks":8006,"##iendas":8007,"##vernor":8008,"idée":8009,"Trib":8010,"moving":8011,"connect":8012,"baja":8013,"ordre":8014,"Aj":8015,"Cro":8016,"Ville":8017,"slow":8018,"zaak":8019,"##anes":8020,"town":8021,"avez":8022,"peine":8023,"entreg":8024,"Arm":8025,"Commun":8026,"continued":8027,"grupos":8028,"##guez":8029,"December":8030,"necess":8031,"proprié":8032,"February":8033,"einde":8034,"##kin":8035,"##VD":8036,"ploeg":8037,"exig":8038,"##owel":8039,"calles":8040,"trouve":8041,"desarroll":8042,"permettre":8043,"virtual":8044,"Guer":8045,"Poutine":8046,"##iné":8047,"##aca":8048,"else":8049,"quin":8050,"aport":8051,"surf":8052,"marque":8053,"obras":8054,"regional":8055,"corr":8056,"escal":8057,"Prof":8058,"anyone":8059,"living":8060,"recibió":8061,"retrouver":8062,"centrale":8063,"employees":8064,"bericht":8065,"Arab":8066,"Bill":8067,"Mijn":8068,"Wall":8069,"bast":8070,"ruso":8071,"##bles":8072,"##pert":8073,"drive":8074,"campo":8075,"renov":8076,"succes":8077,"político":8078,"approach":8079,"##proken":8080,"lucht":8081,"pelig":8082,"bezig":8083,"ninguna":8084,"Mig":8085,"NA":8086,"##ële":8087,"##ady":8088,"##acio":8089,"leave":8090,"white":8091,"##érique":8092,"##voerder":8093,"##ordin":8094,"194":8095,"situatie":8096,"player":8097,"jugar":8098,"candidate":8099,"detect":8100,"vertelt":8101,"capitale":8102,"Jon":8103,"bag":8104,"sorte":8105,"Ça":8106,"éche":8107,"##nd":8108,"##EA":8109,"##itness":8110,"reclam":8111,"phone":8112,"ciudadanos":8113,"circuit":8114,"voiture":8115,"application":8116,"66":8117,"Barr":8118,"gard":8119,"tick":8120,"##mb":8121,"##aas":8122,"##arde":8123,"conna":8124,"parmi":8125,"##abeth":8126,"déta":8127,"marco":8128,"découv":8129,"defensa":8130,"district":8131,"##schapp":8132,"policy":8133,"##ength":8134,"ign":8135,"precies":8136,"disease":8137,"CEO":8138,"adelante":8139,"mí":8140,"sat":8141,"##wal":8142,"deed":8143,"##eda":8144,"desapar":8145,"cross":8146,"##ovendien":8147,"Esc":8148,"étant":8149,"majorité":8150,"française":8151,"customers":8152,"Florida":8153,"Duitsland":8154,"gather":8155,"norte":8156,"rout":8157,"toeg":8158,"##chester":8159,"orient":8160,"shut":8161,"agenda":8162,"genre":8163,"remar":8164,"##culo":8165,"Prot":8166,"dejó":8167,"advoc":8168,"intégr":8169,"Brux":8170,"alcohol":8171,"By":8172,"gun":8173,"guy":8174,"nacht":8175,"nucle":8176,"##loten":8177,"##zos":8178,"##ED":8179,"##acer":8180,"##uno":8181,"##endido":8182,"##quoi":8183,"décl":8184,"voorbij":8185,"clar":8186,"obt":8187,"espect":8188,"segu":8189,"##joint":8190,"condition":8191,"education":8192,"Africa":8193,"voetbal":8194,"concentr":8195,"Mass":8196,"Nou":8197,"bureau":8198,"gam":8199,"hyp":8200,"##jaar":8201,"resident":8202,"markt":8203,"tengo":8204,"score":8205,"study":8206,"ready":8207,"mondiale":8208,"happened":8209,"lect":8210,"##oce":8211,"gep":8212,"##ruit":8213,"sait":8214,"donne":8215,"depend":8216,"demonstr":8217,"##ologie":8218,"corona":8219,"Russen":8220,"Amb":8221,"motiv":8222,"movie":8223,"Robert":8224,"essential":8225,"##ynam":8226,"Todos":8227,"##ándose":8228,"56":8229,"Aan":8230,"Oc":8231,"lieux":8232,"mut":8233,"ocho":8234,"rum":8235,"temas":8236,"##riz":8237,"##lever":8238,"parler":8239,"stage":8240,"acud":8241,"impacto":8242,"mind":8243,"##ianos":8244,"##itaria":8245,"sanctions":8246,"papel":8247,"option":8248,"penal":8249,"intéress":8250,"Moscou":8251,"huidige":8252,"Hab":8253,"Veren":8254,"wife":8255,"##isée":8256,"crít":8257,"Stud":8258,"##rugg":8259,"encuentran":8260,"##americ":8261,"hôpital":8262,"Fund":8263,"Gonz":8264,"aider":8265,"pus":8266,"veroor":8267,"##ainte":8268,"franch":8269,"command":8270,"Star":8271,"organización":8272,"Comisión":8273,"##daad":8274,"políticas":8275,"négoci":8276,"issued":8277,"Disney":8278,"dor":8279,"kamp":8280,"##orie":8281,"neemt":8282,"acto":8283,"instant":8284,"##play":8285,"##ructura":8286,"##arnos":8287,"Daniel":8288,"victime":8289,"ruimte":8290,"recogn":8291,"CA":8292,"Soci":8293,"hulp":8294,"##tien":8295,"##íos":8296,"##iche":8297,"##urales":8298,"##iler":8299,"alert":8300,"##ersch":8301,"wasn":8302,"poste":8303,"vois":8304,"create":8305,"Comun":8306,"zichzelf":8307,"enfant":8308,"hands":8309,"request":8310,"George":8311,"descub":8312,"##ijfers":8313,"##ograph":8314,"schedu":8315,"Ms":8316,"Même":8317,"Peter":8318,"WK":8319,"##izens":8320,"perdu":8321,"regres":8322,"habría":8323,"##chtend":8324,"matière":8325,"belie":8326,"gratuit":8327,"Association":8328,"Domin":8329,"Ir":8330,"More":8331,"Rem":8332,"deep":8333,"enorm":8334,"##roid":8335,"pourtant":8336,"afric":8337,"aanv":8338,"presque":8339,"minute":8340,"solidar":8341,"meerdere":8342,"article":8343,"longue":8344,"distancing":8345,"hoeveel":8346,"##aissance":8347,"Allem":8348,"quickly":8349,"palabras":8350,"enjoy":8351,"Clar":8352,"fear":8353,"round":8354,"écl":8355,"##ngel":8356,"##lagen":8357,"##ziek":8358,"##itario":8359,"##igers":8360,"descon":8361,"gehe":8362,"works":8363,"express":8364,"abog":8365,"derro":8366,"demanda":8367,"investigation":8368,"podrán":8369,"créer":8370,"##while":8371,"Cruz":8372,"##virtió":8373,"betekent":8374,"Aff":8375,"diz":8376,"mam":8377,"tôt":8378,"zomer":8379,"##zar":8380,"##ilio":8381,"##ourg":8382,"reopen":8383,"Chic":8384,"##plaats":8385,"continuer":8386,"fuerza":8387,"##onderd":8388,"despite":8389,"Seguridad":8390,"sources":8391,"estrateg":8392,"tarjeta":8393,"Garc":8394,"Pan":8395,"father":8396,"page":8397,"sir":8398,"ways":8399,"##nis":8400,"##ding":8401,"##aris":8402,"##recht":8403,"##ston":8404,"##stel":8405,"##urent":8406,"##olit":8407,"##otes":8408,"neigh":8409,"##ipe":8410,"##aller":8411,"##airement":8412,"##endez":8413,"colon":8414,"imagen":8415,"provinci":8416,"naast":8417,"renfor":8418,"##atorio":8419,"expliqué":8420,"soms":8421,"venez":8422,"précise":8423,"estadounidense":8424,"Copa":8425,"card":8426,"killed":8427,"##jan":8428,"##logo":8429,"##rijf":8430,"##airs":8431,"paid":8432,"defens":8433,"houdt":8434,"prochaine":8435,"Americans":8436,"cancel":8437,"territorio":8438,"drugs":8439,"Fil":8440,"Glo":8441,"kort":8442,"mé":8443,"##oid":8444,"##wan":8445,"##aran":8446,"##reci":8447,"probe":8448,"##ocol":8449,"prima":8450,"entidad":8451,"##afa":8452,"remains":8453,"demandé":8454,"necesidad":8455,"Justice":8456,"environnement":8457,"agricult":8458,"aprovech":8459,"subsid":8460,"cannot":8461,"expérience":8462,"libertad":8463,"68":8464,"700":8465,"Hal":8466,"kids":8467,"lum":8468,"##forme":8469,"##oming":8470,"Energ":8471,"partner":8472,"management":8473,"2011":8474,"corpor":8475,"familie":8476,"scene":8477,"caí":8478,"Prime":8479,"lorsque":8480,"entrée":8481,"utiliz":8482,"sûr":8483,"Miguel":8484,"59":8485,"Lim":8486,"doute":8487,"either":8488,"overs":8489,"pét":8490,"sanc":8491,"wants":8492,"##MI":8493,"##ambre":8494,"##raba":8495,"ath":8496,"canad":8497,"voix":8498,"produce":8499,"propia":8500,"Moham":8501,"comunicación":8502,"summer":8503,"EE":8504,"fiest":8505,"pie":8506,"##cing":8507,"##SS":8508,"##antwoord":8509,"quite":8510,"##irement":8511,"agres":8512,"##bajo":8513,"naam":8514,"beschik":8515,"partijen":8516,"voyage":8517,"plataforma":8518,"95":8519,"Zw":8520,"wink":8521,"€™":8522,"##ecen":8523,"contain":8524,"lekker":8525,"armes":8526,"abus":8527,"cuart":8528,"clas":8529,"##issant":8530,"amigos":8531,"feit":8532,"fuego":8533,"##año":8534,"##vision":8535,"sports":8536,"commercial":8537,"Ga":8538,"Gel":8539,"Mah":8540,"PR":8541,"bio":8542,"##rie":8543,"##icional":8544,"##verd":8545,"##illing":8546,"avoc":8547,"verm":8548,"acción":8549,"ontst":8550,"##issen":8551,"crime":8552,"encont":8553,"##untamiento":8554,"##useum":8555,"Andre":8556,"takes":8557,"talk":8558,"military":8559,"potent":8560,"essent":8561,"During":8562,"67":8563,"Ken":8564,"VS":8565,"dicht":8566,"piè":8567,"##field":8568,"##aille":8569,"##slag":8570,"##zquier":8571,"nood":8572,"allá":8573,"demostr":8574,"##ético":8575,"Todo":8576,"économie":8577,"particulièrement":8578,"enfermedad":8579,"triun":8580,"García":8581,"72":8582,"cob":8583,"##úl":8584,"##ati":8585,"strugg":8586,"##ensión":8587,"Deux":8588,"contar":8589,"abr":8590,"tercer":8591,"homes":8592,"tuv":8593,"klaar":8594,"electric":8595,"character":8596,"animal":8597,"vuelta":8598,"judicial":8599,"champion":8600,"español":8601,"máximo":8602,"alleged":8603,"affirmé":8604,"##aughter":8605,"61":8606,"East":8607,"Kir":8608,"Pue":8609,"Sun":8610,"ok":8611,"pant":8612,"conden":8613,"##ablo":8614,"agu":8615,"brought":8616,"code":8617,"##box":8618,"bedo":8619,"urb":8620,"gehad":8621,"sterk":8622,"Congress":8623,"lucha":8624,"##selves":8625,"fácil":8626,"OT":8627,"fail":8628,"##ned":8629,"##aande":8630,"##ïn":8631,"##idt":8632,"avis":8633,"lower":8634,"college":8635,"intellig":8636,"themselves":8637,"numbers":8638,"garde":8639,"richting":8640,"volledig":8641,"kilómetros":8642,"Bras":8643,"Dj":8644,"Imp":8645,"Mi":8646,"cél":8647,"gec":8648,"rival":8649,"sell":8650,"sites":8651,"zaken":8652,"##come":8653,"##icul":8654,"anderen":8655,"stap":8656,"Inde":8657,"above":8658,"disco":8659,"europe":8660,"provided":8661,"student":8662,"Toch":8663,"quality":8664,"Christian":8665,"inversión":8666,"incorpor":8667,"Every":8668,"RT":8669,"lange":8670,"âge":8671,"##aso":8672,"##estin":8673,"revenue":8674,"##orté":8675,"reserv":8676,"Franç":8677,"importance":8678,"communities":8679,"Bruss":8680,"fuerzas":8681,"groups":8682,"immigr":8683,"digit":8684,"Philip":8685,"pruebas":8686,"frustr":8687,"prolong":8688,"Ban":8689,"Cy":8690,"Dam":8691,"Mess":8692,"Vin":8693,"aans":8694,"lutte":8695,"mauv":8696,"sense":8697,"##rée":8698,"##ox":8699,"##EM":8700,"##inter":8701,"envi":8702,"##stico":8703,"##acu":8704,"##ijt":8705,"##emde":8706,"##uty":8707,"thous":8708,"stellen":8709,"oploss":8710,"asiel":8711,"moeder":8712,"réalité":8713,"alguien":8714,"patron":8715,"realizó":8716,"opening":8717,"profesional":8718,"##ísticas":8719,"decided":8720,"Italia":8721,"kilometer":8722,"authorities":8723,"intérêt":8724,"ziekenhuis":8725,"Buenos":8726,"venezol":8727,"Kamer":8728,"aw":8729,"acept":8730,"fres":8731,"dezelfde":8732,"learn":8733,"example":8734,"trade":8735,"eran":8736,"##astic":8737,"cara":8738,"consist":8739,"assure":8740,"niemand":8741,"##ishing":8742,"langs":8743,"changes":8744,"générale":8745,"mention":8746,"batter":8747,"prévu":8748,"mediante":8749,"derrière":8750,"Gra":8751,"Ou":8752,"nut":8753,"##iares":8754,"##cel":8755,"##itas":8756,"##orea":8757,"manager":8758,"appl":8759,"sembl":8760,"voters":8761,"showed":8762,"throughout":8763,"origine":8764,"hicieron":8765,"Antonio":8766,"Kon":8767,"fille":8768,"lok":8769,"tér":8770,"Ángel":8771,"##iable":8772,"##ym":8773,"eten":8774,"neut":8775,"##ization":8776,"##eks":8777,"impl":8778,"permett":8779,"traded":8780,"especialmente":8781,"Abd":8782,"profession":8783,"professionn":8784,"ordin":8785,"##where":8786,"76":8787,"Jim":8788,"baby":8789,"ciel":8790,"fair":8791,"hous":8792,"tim":8793,"##fica":8794,"##kn":8795,"##BI":8796,"##êts":8797,"##emor":8798,"##oken":8799,"acab":8800,"Ali":8801,"discrimin":8802,"bras":8803,"Estamos":8804,"scol":8805,"punten":8806,"distintos":8807,"obstante":8808,"mitad":8809,"Instituto":8810,"Fiscalía":8811,"cabeza":8812,"Aires":8813,"Public":8814,"liet":8815,"##lle":8816,"##álogo":8817,"##istique":8818,"##ifié":8819,"verst":8820,"afge":8821,"shared":8822,"Charl":8823,"caracter":8824,"militar":8825,"transpar":8826,"##écut":8827,"addition":8828,"médias":8829,"équipes":8830,"receive":8831,"selección":8832,"clean":8833,"différentes":8834,"supplément":8835,"Angeles":8836,"Daarnaast":8837,"éxito":8838,"Bruxelles":8839,"Bec":8840,"Ve":8841,"vond":8842,"##OR":8843,"##ecido":8844,"quit":8845,"##ector":8846,"##aume":8847,"ground":8848,"Chile":8849,"Ang":8850,"voldo":8851,"below":8852,"photos":8853,"malad":8854,"##markt":8855,"edición":8856,"explica":8857,"materia":8858,"surprise":8859,"criminal":8860,"AS":8861,"Hor":8862,"Más":8863,"Oh":8864,"bero":8865,"izquier":8866,"zag":8867,"##ífic":8868,"##igens":8869,"proté":8870,"##ifique":8871,"pourra":8872,"loopt":8873,"adop":8874,"manos":8875,"##issions":8876,"allí":8877,"check":8878,"sym":8879,"travailler":8880,"extraordin":8881,"jobs":8882,"Democratic":8883,"screen":8884,"enregistr":8885,"Fort":8886,"Ferr":8887,"Festival":8888,"Tes":8889,"##mond":8890,"##ads":8891,"estoy":8892,"porter":8893,"chau":8894,"accep":8895,"entrega":8896,"volunt":8897,"##lega":8898,"hija":8899,"dram":8900,"moved":8901,"ajoute":8902,"##ística":8903,"alcalde":8904,"Groningen":8905,"73":8906,"Bus":8907,"Men":8908,"fen":8909,"felt":8910,"mó":8911,"pict":8912,"##íguez":8913,"review":8914,"avanc":8915,"mooie":8916,"Ins":8917,"aanwe":8918,"réussi":8919,"policial":8920,"Heb":8921,"soulig":8922,"Manchester":8923,"clubs":8924,"terms":8925,"various":8926,"extrem":8927,"rechter":8928,"muestra":8929,"Rodríguez":8930,"souligne":8931,"Elect":8932,"##iados":8933,"##ex":8934,"##zicht":8935,"##wijk":8936,"##atten":8937,"instead":8938,"parle":8939,"terecht":8940,"pose":8941,"cash":8942,"##uels":8943,"cerem":8944,"juge":8945,"kwal":8946,"products":8947,"leading":8948,"experiment":8949,"golpe":8950,"restaurant":8951,"ouders":8952,"prueba":8953,"commencé":8954,"##ukkig":8955,"Big":8956,"fabr":8957,"gagn":8958,"hour":8959,"sede":8960,"vuur":8961,"##gem":8962,"##eccion":8963,"leeft":8964,"##uto":8965,"trial":8966,"advis":8967,"espace":8968,"justicia":8969,"décou":8970,"visita":8971,"podrá":8972,"escenario":8973,"futbol":8974,"Office":8975,"analyst":8976,"initiative":8977,"elementos":8978,"69":8979,"63":8980,"Ham":8981,"cic":8982,"dingen":8983,"kopen":8984,"lux":8985,"vader":8986,"##erver":8987,"##atrice":8988,"##isions":8989,"##acing":8990,"##endar":8991,"store":8992,"vertr":8993,"resist":8994,"active":8995,"boek":8996,"continues":8997,"steun":8998,"crow":8999,"analys":9000,"establec":9001,"##ruption":9002,"véhicule":9003,"técnico":9004,"78":9005,"AC":9006,"AI":9007,"Hasta":9008,"bod":9009,"coc":9010,"earn":9011,"rê":9012,"rot":9013,"tampoco":9014,"##ágenes":9015,"##isés":9016,"seems":9017,"structure":9018,"##ientemente":9019,"##udo":9020,"##umb":9021,"serve":9022,"consol":9023,"salida":9024,"daarmee":9025,"communauté":9026,"phase":9027,"ambul":9028,"camera":9029,"gezond":9030,"minuten":9031,"Diego":9032,"construcción":9033,"straf":9034,"biggest":9035,"lograr":9036,"inaugur":9037,"Bra":9038,"Blo":9039,"Mir":9040,"Riv":9041,"dav":9042,"gets":9043,"vite":9044,"##esa":9045,"deleg":9046,"##oring":9047,"noted":9048,"##mail":9049,"encarg":9050,"propre":9051,"premières":9052,"concerns":9053,"logró":9054,"Oliv":9055,"Scott":9056,"ocurrió":9057,"Duitse":9058,"gobernador":9059,"résultats":9060,"trimestre":9061,"israél":9062,"UN":9063,"evol":9064,"gere":9065,"##eur":9066,"##eign":9067,"##RC":9068,"##êtes":9069,"##enant":9070,"##icles":9071,"##avier":9072,"##akk":9073,"##derdaad":9074,"##uba":9075,"Alf":9076,"195":9077,"##ovic":9078,"matér":9079,"feest":9080,"##ficiente":9081,"familiares":9082,"kwamen":9083,"éviter":9084,"Council":9085,"professional":9086,"cherche":9087,"syndic":9088,"añadió":9089,"71":9090,"Cup":9091,"Fer":9092,"Fre":9093,"Sing":9094,"tare":9095,"venta":9096,"##aien":9097,"##role":9098,"##teren":9099,"##ulent":9100,"tram":9101,"chant":9102,"##clé":9103,"posición":9104,"agents":9105,"mail":9106,"menores":9107,"importancia":9108,"fils":9109,"affect":9110,"presentó":9111,"facile":9112,"hacerlo":9113,"armas":9114,"llevó":9115,"industrie":9116,"European":9117,"económico":9118,"specific":9119,"pretty":9120,"waarschijnlijk":9121,"details":9122,"mouvement":9123,"François":9124,"fest":9125,"lista":9126,"wonder":9127,"##éco":9128,"##isant":9129,"lament":9130,"reco":9131,"réuss":9132,"actie":9133,"##actions":9134,"betrokken":9135,"transporte":9136,"rode":9137,"América":9138,"ambass":9139,"gemidd":9140,"required":9141,"provincial":9142,"sabe":9143,"bloque":9144,"véhicules":9145,"1er":9146,"Som":9147,"bás":9148,"hang":9149,"iba":9150,"north":9151,"##ault":9152,"##).":9153,"##roit":9154,"##uldig":9155,"partners":9156,"erv":9157,"##issie":9158,"conform":9159,"Provin":9160,"vivre":9161,"mask":9162,"Willi":9163,"disponibles":9164,"levels":9165,"cumplir":9166,"modern":9167,"easy":9168,"communication":9169,"cifra":9170,"davantage":9171,"Bu":9172,"Bos":9173,"Rock":9174,"##dam":9175,"##IA":9176,"##isie":9177,"despl":9178,"chac":9179,"marcha":9180,"##ancy":9181,"oude":9182,"##erkt":9183,"step":9184,"programma":9185,"llegada":9186,"energy":9187,"##uvieron":9188,"automob":9189,"inflatie":9190,"cierto":9191,"huge":9192,"pagar":9193,"mandatario":9194,"Brasil":9195,"fiets":9196,"hart":9197,"##erland":9198,"beper":9199,"novel":9200,"plup":9201,"pasa":9202,"compens":9203,"accidente":9204,"buts":9205,"##atieve":9206,"politiek":9207,"trabajos":9208,"activité":9209,"horen":9210,"médec":9211,"Geen":9212,"probably":9213,"charges":9214,"quartier":9215,"slechts":9216,"gevolg":9217,"aandacht":9218,"plupart":9219,"Fel":9220,"Noord":9221,"Ron":9222,"rich":9223,"save":9224,"##uut":9225,"##itect":9226,"##ividad":9227,"verp":9228,"##tait":9229,"##taine":9230,"grens":9231,"mane":9232,"##grad":9233,"viaje":9234,"options":9235,"restaurants":9236,"mêmes":9237,"Kn":9238,"Last":9239,"Much":9240,"ieder":9241,"ot":9242,"oil":9243,"rules":9244,"queda":9245,"recover":9246,"spir":9247,"demi":9248,"##inkt":9249,"artícul":9250,"défin":9251,"edific":9252,"Since":9253,"niveles":9254,"educación":9255,"compared":9256,"##ufact":9257,"maximum":9258,"Secretaría":9259,"quarantine":9260,"Supre":9261,"entrevista":9262,"citoyens":9263,"Williams":9264,"Sab":9265,"fase":9266,"hund":9267,"##pes":9268,"##water":9269,"##erne":9270,"beeld":9271,"client":9272,"minor":9273,"amount":9274,"obtenir":9275,"consumo":9276,"bleek":9277,"fast":9278,"vl":9279,"écran":9280,"##iels":9281,"##cée":9282,"##orado":9283,"##aldo":9284,"##leo":9285,"learning":9286,"establ":9287,"word":9288,"##anges":9289,"discipl":9290,"bijzonder":9291,"##landse":9292,"dosis":9293,"passage":9294,"candidat":9295,"periode":9296,"élections":9297,"arrested":9298,"amenaz":9299,"avenir":9300,"accompagn":9301,"conseguir":9302,"Serg":9303,"rather":9304,"##ius":9305,"##eux":9306,"##cie":9307,"##asons":9308,"inten":9309,"##iddag":9310,"##illon":9311,"##seur":9312,"##loop":9313,"partes":9314,"presup":9315,"indé":9316,"colect":9317,"department":9318,"creo":9319,"subst":9320,"funct":9321,"Mean":9322,"movil":9323,"actualmente":9324,"ajust":9325,"llamado":9326,"comentó":9327,"atrás":9328,"tercera":9329,"Hy":9330,"Ka":9331,"SP":9332,"cell":9333,"fij":9334,"hus":9335,"jonge":9336,"##dy":9337,"##vre":9338,"##VO":9339,"##oule":9340,"##icias":9341,"##omo":9342,"##andro":9343,"parfait":9344,"dég":9345,"pasó":9346,"compat":9347,"org":9348,"clave":9349,"buscar":9350,"patient":9351,"maintain":9352,"##hoog":9353,"increased":9354,"rights":9355,"Malgré":9356,"comercial":9357,"hoger":9358,"distintas":9359,"ocasiones":9360,"Victoria":9361,"Fir":9362,"Mol":9363,"Out":9364,"pago":9365,"vista":9366,"##uari":9367,"##wide":9368,"##stappen":9369,"##cies":9370,"##uma":9371,"carre":9372,"##mob":9373,"décès":9374,"destru":9375,"affirme":9376,"handen":9377,"##schap":9378,"##ennis":9379,"gevonden":9380,"Justicia":9381,"vehicle":9382,"ayudar":9383,"soirée":9384,"Casa":9385,"augmentation":9386,"London":9387,"!”":9388,"Dist":9389,"kost":9390,"konden":9391,"##iezen":9392,"prijzen":9393,"strijd":9394,"aspir":9395,"familles":9396,"supporters":9397,"ejecut":9398,"status":9399,"citizens":9400,"gebeurt":9401,"américaine":9402,"torneo":9403,"ukrainien":9404,"tecnología":9405,"souligné":9406,"##emblée":9407,"película":9408,"AD":9409,"Cla":9410,"Eric":9411,"Jorge":9412,"Ru":9413,"gang":9414,"##iago":9415,"##bet":9416,"##aging":9417,"##ifie":9418,"##ocks":9419,"From":9420,"seguro":9421,"imágenes":9422,"Administr":9423,"producto":9424,"localidad":9425,"combust":9426,"coups":9427,"limited":9428,"evidence":9429,"Presidente":9430,"complete":9431,"detall":9432,"espacios":9433,"technologie":9434,"spéci":9435,"retrouve":9436,"fuentes":9437,"Ly":9438,"Mike":9439,"hip":9440,"##iées":9441,"##ried":9442,"##ería":9443,"##urre":9444,"sean":9445,"##endió":9446,"stelt":9447,"##ockey":9448,"##arts":9449,"ability":9450,"cooper":9451,"reality":9452,"keu":9453,"120":9454,"distance":9455,"absence":9456,"essay":9457,"##ramient":9458,"rendu":9459,"België":9460,"iniciativa":9461,"ONU":9462,"Harry":9463,"vervolgens":9464,"Bat":9465,"Maur":9466,"wachten":9467,"##yond":9468,"##ijen":9469,"##unte":9470,"comfort":9471,"##aval":9472,"gratis":9473,"exprim":9474,"diss":9475,"solutions":9476,"itself":9477,"Daarom":9478,"matchs":9479,"##werkers":9480,"asegura":9481,"concluy":9482,"audience":9483,"tandis":9484,"Cámara":9485,"Olymp":9486,"Pel":9487,"Sus":9488,"baisse":9489,"daughter":9490,"narr":9491,"od":9492,"tap":9493,"##lines":9494,"##reur":9495,"##ijft":9496,"proven":9497,"doct":9498,"##issent":9499,"##erencias":9500,"herramient":9501,"soluc":9502,"empê":9503,"schade":9504,"##coin":9505,"##adoras":9506,"subray":9507,"privé":9508,"##standig":9509,"januari":9510,"Ayuntamiento":9511,"pacientes":9512,"ouverture":9513,"padres":9514,"siguiente":9515,"valeur":9516,"Carolina":9517,"rekening":9518,"cinéma":9519,"aer":9520,"fout":9521,"kern":9522,"liste":9523,"macht":9524,"##CA":9525,"estrel":9526,"##ónica":9527,"true":9528,"dépos":9529,"spent":9530,"created":9531,"##ology":9532,"Etats":9533,"simil":9534,"élè":9535,"superior":9536,"looks":9537,"##itesse":9538,"balance":9539,"individu":9540,"única":9541,"assurer":9542,"mantiene":9543,"instituciones":9544,"treatment":9545,"Chicago":9546,"aard":9547,"sale":9548,"##gado":9549,"lag":9550,"lab":9551,"opción":9552,"duda":9553,"##loir":9554,"pasada":9555,"acteurs":9556,"expand":9557,"clin":9558,"Ann":9559,"contrato":9560,"horr":9561,"denkt":9562,"2008":9563,"celles":9564,"vivienda":9565,"occident":9566,"responsabilidad":9567,"straat":9568,"Director":9569,"happy":9570,"fundamental":9571,"Meanwhile":9572,"Hern":9573,"hers":9574,"olymp":9575,"env":9576,"print":9577,"trust":9578,"doctor":9579,"carry":9580,"feature":9581,"lugares":9582,"musical":9583,"industria":9584,"podrían":9585,"gevaar":9586,"classes":9587,"européen":9588,"revealed":9589,"Ejecutivo":9590,"Ligue":9591,"Tik":9592,"mètres":9593,"##ède":9594,"islam":9595,"begrij":9596,"##ocal":9597,"##lywood":9598,"##ugd":9599,"invasion":9600,"conférence":9601,"reform":9602,"motivo":9603,"electoral":9604,"Road":9605,"##kocht":9606,"Micros":9607,"challenge":9608,"Waarom":9609,"véritable":9610,"96":9611,"Pablo":9612,"ait":9613,"mac":9614,"pul":9615,"roy":9616,"rock":9617,"tomb":9618,"##inar":9619,"##itié":9620,"##leurs":9621,"unidad":9622,"ofic":9623,"##raft":9624,"gekomen":9625,"apenas":9626,"Chris":9627,"##igner":9628,"regio":9629,"##uelles":9630,"helft":9631,"begon":9632,"limp":9633,"faud":9634,"engagement":9635,"audio":9636,"Haag":9637,"streaming":9638,"##rimon":9639,"Notre":9640,"bâtim":9641,"Costa":9642,"Microsoft":9643,"Dom":9644,"Eg":9645,"Jer":9646,"bouw":9647,"mol":9648,"pier":9649,"range":9650,"vive":9651,"wall":9652,"##etas":9653,"unidades":9654,"suma":9655,"plaat":9656,"verantwoord":9657,"##umbre":9658,"adecu":9659,"cuid":9660,"emoc":9661,"montre":9662,"bestaat":9663,"begint":9664,"médic":9665,"##áticos":9666,"quieren":9667,"manifestó":9668,"McC":9669,"Service":9670,"Portug":9671,"dessus":9672,"compagnie":9673,"detalles":9674,"Rotter":9675,"fisc":9676,"maje":9677,"pouss":9678,"sales":9679,"vallen":9680,"##rich":9681,"##mers":9682,"##hu":9683,"##íc":9684,"inderdaad":9685,"##ecte":9686,"##iber":9687,"resources":9688,"aanp":9689,"trait":9690,"poll":9691,"appe":9692,"propag":9693,"présente":9694,"paix":9695,"politici":9696,"simplement":9697,"##zetten":9698,"juni":9699,"select":9700,"ofrecer":9701,"##ètement":9702,"reducir":9703,"leadership":9704,"disfrutar":9705,"sostuvo":9706,"peuple":9707,"pompiers":9708,"77":9709,"Cel":9710,"Jes":9711,"Krem":9712,"Veg":9713,"lance":9714,"##nas":9715,"##veld":9716,"##arta":9717,"##ulos":9718,"etapa":9719,"##ibly":9720,"Deb":9721,"##ously":9722,"##actie":9723,"agentes":9724,"waarop":9725,"repart":9726,"Conc":9727,"protección":9728,"formación":9729,"graves":9730,"starting":9731,"winning":9732,"speelt":9733,"fonds":9734,"declaraciones":9735,"appelé":9736,"ofrece":9737,"moyenne":9738,"Constitu":9739,"property":9740,"liberté":9741,"términ":9742,"Sams":9743,"dynam":9744,"haven":9745,"links":9746,"olie":9747,"pele":9748,"zin":9749,"##iate":9750,"##sche":9751,"##ency":9752,"park":9753,"prohib":9754,"heav":9755,"auteur":9756,"Unión":9757,"agress":9758,"voie":9759,"seconde":9760,"crear":9761,"Prés":9762,"##wijf":9763,"urgence":9764,"création":9765,"puisque":9766,"funcionarios":9767,"William":9768,"turned":9769,"##enschap":9770,"infections":9771,"arrêté":9772,"Zelensky":9773,"Allemagne":9774,"81":9775,"Mich":9776,"zowel":9777,"##wor":9778,"##yen":9779,"atac":9780,"##enteel":9781,"parts":9782,"cep":9783,"##voerd":9784,"Ante":9785,"conference":9786,"##iendra":9787,"respir":9788,"coloc":9789,"##onné":9790,"humanos":9791,"vivir":9792,"sectores":9793,"Martí":9794,"midden":9795,"calls":9796,"German":9797,"Nueva":9798,"buurt":9799,"pidió":9800,"African":9801,"husband":9802,"Bon":9803,"Cómo":9804,"Cabe":9805,"hér":9806,"hiver":9807,"vía":9808,"vente":9809,"##tica":9810,"##tje":9811,"##lv":9812,"##GB":9813,"##arra":9814,"esté":9815,"##iquement":9816,"##pool":9817,"gebied":9818,"compris":9819,"siguen":9820,"livre":9821,"militaires":9822,"pérd":9823,"sitio":9824,"wrong":9825,"déplac":9826,"incremento":9827,"Rotterdam":9828,"Jam":9829,"Nations":9830,"Obr":9831,"aér":9832,"##tico":9833,"##idge":9834,"provo":9835,"forte":9836,"goes":9837,"clientes":9838,"muziek":9839,"##rijft":9840,"common":9841,"diferencia":9842,"planning":9843,"included":9844,"videos":9845,"capacity":9846,"cancer":9847,"growing":9848,"bastante":9849,"Agen":9850,"Div":9851,"Kim":9852,"Nation":9853,"Rou":9854,"ronde":9855,"##pan":9856,"##oro":9857,"##urance":9858,"##olf":9859,"##uns":9860,"##chen":9861,"hetzelfde":9862,"verano":9863,"wearing":9864,"##ibr":9865,"perder":9866,"graden":9867,"##ordan":9868,"Mario":9869,"habil":9870,"##ificó":9871,"vision":9872,"##ullie":9873,"señala":9874,"électric":9875,"Finalmente":9876,"législ":9877,"claims":9878,"sorpr":9879,"meldt":9880,"supply":9881,"Ric":9882,"fat":9883,"kijk":9884,"rug":9885,"##can":9886,"##west":9887,"devenir":9888,"intr":9889,"##edio":9890,"##ieur":9891,"ones":9892,"regen":9893,"##istic":9894,"hear":9895,"##going":9896,"##indic":9897,"regel":9898,"##azón":9899,"solid":9900,"milliers":9901,"inclu":9902,"##ouwd":9903,"modèle":9904,"realizado":9905,"nuestras":9906,"entrada":9907,"petits":9908,"ideas":9909,"sanitaire":9910,"chaî":9911,"cantante":9912,"profesionales":9913,"cambiar":9914,"software":9915,"Côte":9916,"Kremlin":9917,"Post":9918,"dienst":9919,"vio":9920,"##pecto":9921,"laws":9922,"words":9923,"##ureusement":9924,"peace":9925,"centros":9926,"intim":9927,"##zaak":9928,"capable":9929,"llega":9930,"distin":9931,"dolor":9932,"musique":9933,"populaire":9934,"bescherm":9935,"fédéral":9936,"recomend":9937,"74":9938,"AN":9939,"Rafa":9940,"Tijd":9941,"Villa":9942,"aire":9943,"cens":9944,"ow":9945,"swe":9946,"##maat":9947,"##gende":9948,"##arle":9949,"##ató":9950,"##itación":9951,"##elines":9952,"##tegen":9953,"nego":9954,"whose":9955,"outre":9956,"income":9957,"photogra":9958,"debut":9959,"somos":9960,"necesita":9961,"conocido":9962,"Aujourd":9963,"Watch":9964,"Senate":9965,"mondial":9966,"ingresos":9967,"raised":9968,"contexto":9969,"Zelf":9970,"bond":9971,"echte":9972,"krit":9973,"##ted":9974,"##kamp":9975,"##yst":9976,"##arily":9977,"##regen":9978,"##stru":9979,"##ila":9980,"##ciendo":9981,"beide":9982,"##apac":9983,"##érém":9984,"##izados":9985,"Eliz":9986,"Uno":9987,"presiden":9988,"##voer":9989,"maart":9990,"genomen":9991,"emit":9992,"artista":9993,"histór":9994,"studio":9995,"includes":9996,"publié":9997,"changer":9998,"followed":9999}}}